<unk>	0
<s>	0
</s>	0
s	-2.95839
e	-3.96094
t	-4.00962
a	-4.08416
d	-4.1262
ing	-4.20866
n	-4.3669
y	-4.3766
ed	-4.42367
p	-4.437
i	-4.5251
o	-4.55121
▁	-4.56341
er	-4.65929
r	-4.67588
in	-4.80865
u	-4.81428
m	-4.85729
g	-5.01381
b	-5.03792
h	-5.03806
k	-5.16901
c	-5.17873
l	-5.1823
▁oh	-5.22763
▁im	-5.22855
ar	-5.22951
▁a	-5.23534
▁go	-5.23938
▁dont	-5.24431
le	-5.25676
▁well	-5.27579
or	-5.33598
w	-5.35957
▁know	-5.36902
▁s	-5.40353
▁b	-5.40646
▁get	-5.41148
f	-5.43086
al	-5.44547
▁come	-5.44652
v	-5.47077
ly	-5.48821
▁p	-5.52355
▁right	-5.54977
▁like	-5.55916
re	-5.56487
en	-5.62582
it	-5.63125
on	-5.65469
▁one	-5.68337
▁us	-5.72254
ck	-5.72962
▁see	-5.74752
▁w	-5.74836
▁got	-5.77478
▁de	-5.78698
▁re	-5.7891
▁thats	-5.79875
es	-5.79911
▁l	-5.80762
▁yes	-5.81092
▁youre	-5.81638
▁look	-5.81787
at	-5.8235
▁co	-5.83161
▁t	-5.86312
ur	-5.86779
▁c	-5.87634
ll	-5.89482
ch	-5.91088
▁good	-5.92487
▁want	-5.95354
st	-5.96781
▁ch	-5.97965
▁g	-5.98475
il	-6.00208
▁st	-6.00818
▁think	-6.00865
▁na	-6.01823
ve	-6.02335
▁ill	-6.02925
an	-6.04068
▁mo	-6.0467
ion	-6.06425
▁sh	-6.08345
▁f	-6.08565
▁time	-6.09025
th	-6.1005
ent	-6.10137
▁o	-6.10253
▁pa	-6.10736
▁back	-6.10739
▁ha	-6.10884
▁say	-6.13912
▁take	-6.15297
li	-6.21012
ra	-6.21847
▁cant	-6.22284
z	-6.23451
ri	-6.2353
▁going	-6.24002
▁ho	-6.24215
▁man	-6.26082
▁yeah	-6.2614
un	-6.27399
▁be	-6.27512
▁ma	-6.29438
▁in	-6.2996
▁sir	-6.30529
▁never	-6.30707
▁hes	-6.3158
ro	-6.3215
▁love	-6.32353
▁way	-6.32763
ce	-6.33642
ic	-6.33806
se	-6.34321
ter	-6.34389
te	-6.35214
▁hey	-6.35527
▁bo	-6.3582
▁tell	-6.36218
ver	-6.36582
▁let	-6.37474
ut	-6.39358
▁little	-6.39462
oo	-6.40292
▁would	-6.41814
▁make	-6.41858
est	-6.42823
▁thank	-6.4392
▁sp	-6.4403
ow	-6.45526
▁could	-6.45847
ct	-6.4611
▁mi	-6.47099
▁po	-6.47828
▁lo	-6.48299
▁th	-6.48863
▁wait	-6.4911
▁ra	-6.50939
▁mean	-6.51082
▁da	-6.51159
ee	-6.51215
▁boy	-6.51542
▁mr	-6.51803
▁day	-6.52428
us	-6.53329
▁me	-6.53969
▁whats	-6.54844
▁gon	-6.55483
▁con	-6.56162
ie	-6.56258
▁ta	-6.56321
▁ive	-6.58458
ne	-6.58802
ell	-6.58832
▁k	-6.59507
ry	-6.59741
▁to	-6.60387
▁ro	-6.60682
sh	-6.60738
▁give	-6.61257
▁must	-6.6183
ation	-6.62056
▁no	-6.63471
▁theres	-6.64263
▁help	-6.64694
ate	-6.65145
la	-6.6531
▁la	-6.65532
▁ca	-6.6729
▁e	-6.67725
ul	-6.68239
el	-6.68581
▁ba	-6.69403
et	-6.69619
lo	-6.69891
▁need	-6.70683
qu	-6.71623
▁su	-6.71842
mp	-6.73399
▁lets	-6.73708
▁hi	-6.75711
▁please	-6.76104
▁stop	-6.77839
ot	-6.78233
id	-6.7887
ous	-6.79421
▁didnt	-6.79799
ard	-6.80192
▁theyre	-6.81316
x	-6.81601
▁said	-6.81836
▁mar	-6.81894
▁away	-6.81944
▁ex	-6.81976
▁keep	-6.82086
▁two	-6.82098
▁work	-6.83124
▁cr	-6.83195
ers	-6.83277
▁something	-6.83636
is	-6.83873
▁find	-6.83937
▁un	-6.84061
um	-6.84389
▁sure	-6.84919
▁even	-6.85755
▁uh	-6.8606
▁long	-6.86297
▁really	-6.86473
ant	-6.8685
▁dr	-6.87154
▁talk	-6.87366
▁gu	-6.87416
▁home	-6.87591
▁much	-6.88837
▁old	-6.89315
ge	-6.894
im	-6.90461
▁better	-6.91507
▁chance	-6.91654
▁great	-6.93209
ig	-6.9355
▁miss	-6.94505
▁ah	-6.94837
▁friend	-6.94942
mm	-6.95652
om	-6.95668
up	-6.95742
▁di	-6.96117
ment	-6.96343
▁n	-6.9649
▁girl	-6.97306
▁place	-6.97308
▁fa	-6.97846
▁people	-6.97905
▁li	-6.98194
age	-6.98549
▁life	-6.99431
ff	-7.00525
▁he	-7.00667
▁run	-7.00719
▁first	-7.00962
▁pro	-7.01885
▁okay	-7.02208
▁call	-7.02334
▁car	-7.02937
▁sho	-7.03125
▁youll	-7.03472
▁anything	-7.0379
▁name	-7.04475
ive	-7.04653
ies	-7.05193
▁hu	-7.05198
▁for	-7.05381
▁ga	-7.05388
co	-7.05599
▁new	-7.0609
▁stay	-7.07093
▁do	-7.0727
ci	-7.07618
▁night	-7.07692
▁nothing	-7.0803
▁sorry	-7.0803
▁em	-7.08343
▁lot	-7.08391
▁wont	-7.08717
▁fl	-7.09537
▁play	-7.10059
▁shes	-7.1116
▁thing	-7.12039
▁ru	-7.12145
▁big	-7.12683
ty	-7.12983
▁hear	-7.13297
▁sc	-7.13542
▁live	-7.14122
▁jo	-7.16015
▁hand	-7.16055
▁cl	-7.16311
ma	-7.16686
▁around	-7.16711
▁may	-7.16766
▁ever	-7.16903
me	-7.17464
▁put	-7.17694
▁aint	-7.19021
ake	-7.19383
ble	-7.19746
▁ri	-7.20094
▁wh	-7.20571
▁leave	-7.20789
▁se	-7.21364
▁vi	-7.21573
▁world	-7.21926
▁still	-7.22111
ful	-7.22226
▁everything	-7.22312
▁dis	-7.22495
ine	-7.22613
▁tra	-7.23118
▁so	-7.23705
▁id	-7.24976
▁fr	-7.2557
▁show	-7.26155
▁du	-7.26427
▁always	-7.26625
▁part	-7.2666
▁fe	-7.27413
▁prince	-7.2743
▁care	-7.27511
▁feel	-7.28428
able	-7.28556
▁men	-7.29588
▁je	-7.29791
▁maybe	-7.30311
▁coming	-7.30354
j	-7.30531
less	-7.30703
▁hold	-7.31162
▁ne	-7.33079
▁kid	-7.33972
▁every	-7.34281
▁fi	-7.34554
▁three	-7.34567
▁enough	-7.34584
▁last	-7.34842
▁gra	-7.35504
▁isnt	-7.35855
▁course	-7.35858
ian	-7.35946
dy	-7.36186
▁turn	-7.36754
▁things	-7.37407
▁ya	-7.37932
▁war	-7.38003
▁tri	-7.38258
▁ask	-7.38335
▁j	-7.3849
▁sw	-7.38594
▁huh	-7.38984
ist	-7.38985
▁minute	-7.39434
▁believe	-7.39891
▁youve	-7.40351
▁mother	-7.4036
▁thought	-7.42345
▁dog	-7.42683
▁came	-7.4294
▁music	-7.43186
man	-7.43525
▁le	-7.43612
and	-7.4364
▁kind	-7.43655
▁word	-7.43664
ance	-7.43765
ang	-7.43788
ber	-7.439
▁plan	-7.44108
ence	-7.44523
▁might	-7.45057
▁bad	-7.45233
▁start	-7.45364
▁ja	-7.45701
▁wa	-7.46157
▁god	-7.46578
mo	-7.46813
ish	-7.46964
▁nice	-7.47026
▁john	-7.47262
▁hope	-7.47626
▁dream	-7.47991
▁father	-7.47995
ah	-7.48156
▁her	-7.48392
▁al	-7.48443
▁head	-7.48531
▁sea	-7.48962
▁far	-7.49242
▁made	-7.49588
▁fine	-7.49853
▁left	-7.50514
▁mind	-7.50561
▁dear	-7.51491
ak	-7.51653
▁kill	-7.51669
tch	-7.51923
▁pet	-7.53007
ough	-7.53204
ide	-7.54788
▁cat	-7.55613
▁bra	-7.56084
▁pre	-7.561
▁sun	-7.56758
▁told	-7.57
▁sing	-7.57675
▁horse	-7.57908
▁weve	-7.57923
ness	-7.58265
▁try	-7.58906
▁pri	-7.59137
ook	-7.59723
▁land	-7.60476
▁remember	-7.60672
ize	-7.61561
ity	-7.61725
▁doesnt	-7.62377
▁listen	-7.62381
▁understand	-7.62952
▁young	-7.62953
▁va	-7.63009
▁open	-7.63551
▁guys	-7.6367
▁bar	-7.63844
▁without	-7.64111
▁sn	-7.64251
▁hello	-7.64409
▁many	-7.64449
▁happen	-7.64624
▁house	-7.64722
▁done	-7.64998
▁pig	-7.65003
▁bring	-7.65421
▁water	-7.65585
▁pretty	-7.65878
port	-7.66089
▁end	-7.6629
ill	-7.66478
▁matter	-7.66485
tic	-7.66629
▁move	-7.66682
▁today	-7.67071
▁bang	-7.67072
▁hurry	-7.67072
▁heart	-7.67533
▁real	-7.67826
▁stand	-7.68019
▁king	-7.68062
▁another	-7.68278
▁ti	-7.68446
ling	-7.68737
▁fly	-7.68862
▁son	-7.68885
▁ab	-7.69194
▁animal	-7.7074
▁mu	-7.70895
▁eat	-7.71303
▁heard	-7.71338
ship	-7.72537
▁wrong	-7.72627
▁watch	-7.72722
▁shadow	-7.73264
▁morning	-7.73265
▁bird	-7.73265
▁bit	-7.73486
▁found	-7.73905
▁gone	-7.74063
▁soon	-7.74571
▁eye	-7.74815
▁high	-7.75211
ug	-7.75708
▁years	-7.75853
▁seen	-7.7608
▁where	-7.76114
▁fire	-7.76548
▁best	-7.76626
▁trouble	-7.77173
▁along	-7.77177
▁whole	-7.77183
▁shall	-7.77213
▁laugh	-7.77221
▁tea	-7.79106
▁true	-7.79187
▁close	-7.79916
▁wouldnt	-7.79956
▁grow	-7.80567
▁ready	-7.80569
▁win	-7.80971
▁worry	-7.81247
▁sit	-7.81646
▁uncle	-7.81944
▁hard	-7.82039
▁late	-7.82164
▁mine	-7.82167
▁gold	-7.82252
▁en	-7.82253
▁hell	-7.82255
▁seem	-7.82508
▁everybody	-7.82635
▁set	-7.83273
▁george	-7.83339
▁next	-7.83343
▁town	-7.83375
▁light	-7.83588
▁die	-7.83826
▁bl	-7.83862
ical	-7.84205
▁meet	-7.85423
▁someone	-7.85482
▁chitty	-7.85485
▁whoa	-7.85516
▁fight	-7.86207
▁speak	-7.86212
▁idea	-7.87886
▁star	-7.88024
▁beautiful	-7.88413
▁sweet	-7.88436
▁else	-7.89175
light	-7.8965
▁knew	-7.89914
▁children	-7.89915
▁whos	-7.90077
▁pl	-7.90501
▁yet	-7.90725
▁yo	-7.91282
▁luck	-7.91454
▁river	-7.91811
▁captain	-7.92201
▁four	-7.9222
▁guess	-7.92263
▁lord	-7.92331
▁promise	-7.92977
▁everyone	-7.92994
▁arm	-7.93227
▁sal	-7.93586
▁sound	-7.93765
ture	-7.93845
▁happened	-7.93854
▁change	-7.93865
▁face	-7.94328
▁nobody	-7.95339
▁family	-7.95339
▁ice	-7.95493
▁follow	-7.96945
▁havent	-7.96952
▁clear	-7.96991
▁beg	-7.97647
▁break	-7.97762
▁walk	-7.97787
▁airport	-7.97799
▁dance	-7.97802
▁room	-7.98186
▁rest	-7.98487
▁bri	-7.98558
▁general	-7.98578
▁sassy	-7.98579
▁wish	-7.99139
▁ow	-7.99702
▁goodbye	-8.00239
▁laughing	-8.00449
▁cut	-8.0113
▁dead	-8.01323
spect	-8.01455
▁free	-8.0159
▁quick	-8.01925
▁since	-8.02805
▁pick	-8.02837
▁earth	-8.02979
▁inter	-8.03112
▁getting	-8.03146
▁professor	-8.03642
▁wasnt	-8.03644
▁door	-8.04076
▁jamie	-8.04515
▁fast	-8.04807
▁together	-8.05389
▁tomorrow	-8.05389
▁order	-8.05396
▁job	-8.06092
▁feet	-8.06721
▁city	-8.06781
▁took	-8.07669
aught	-8.07811
nder	-8.07858
▁alone	-8.08088
▁cause	-8.08118
▁song	-8.08219
▁pass	-8.08349
▁aye	-8.0847
air	-8.08621
▁week	-8.08988
▁pip	-8.09144
▁out	-8.09557
▁happy	-8.09895
▁human	-8.10074
▁trying	-8.10571
▁scream	-8.1082
▁forget	-8.10829
▁money	-8.10837
▁wan	-8.11038
old	-8.11285
▁rock	-8.11393
right	-8.11697
▁afraid	-8.11755
▁madam	-8.127
▁hurt	-8.12748
▁couldnt	-8.12817
▁lady	-8.13096
▁fun	-8.13241
▁poor	-8.13461
▁lost	-8.13577
▁sleep	-8.13653
▁woman	-8.13661
▁grand	-8.137
▁woo	-8.13721
▁saw	-8.13782
▁air	-8.13898
▁wind	-8.1424
▁suppose	-8.14612
▁learn	-8.14628
▁save	-8.15681
▁papa	-8.15742
▁mama	-8.16185
▁went	-8.16214
▁theyll	-8.16564
▁fool	-8.16574
▁youd	-8.1658
▁sign	-8.16586
▁crow	-8.17197
▁side	-8.17558
▁whi	-8.18344
▁already	-8.18553
▁hmm	-8.18579
▁till	-8.19602
▁wonderful	-8.1963
▁master	-8.19657
▁daughter	-8.20584
▁doctor	-8.20586
▁safe	-8.20593
▁baby	-8.20622
▁kiss	-8.2063
▁tonight	-8.21615
▁excuse	-8.21615
▁easy	-8.21621
▁daddy	-8.21622
▁magic	-8.21669
▁ago	-8.21906
▁ear	-8.22288
▁fall	-8.22686
▁full	-8.22753
▁catch	-8.23518
▁chatters	-8.23709
▁attack	-8.24773
▁second	-8.24773
▁quite	-8.24773
▁pull	-8.24833
▁send	-8.24949
▁anyway	-8.25848
▁six	-8.25871
▁fair	-8.26223
▁hang	-8.27024
▁brer	-8.27154
▁hour	-8.28014
▁somebody	-8.28034
▁ahead	-8.28036
▁glad	-8.28057
▁smell	-8.28058
▁lead	-8.28105
▁fact	-8.28657
▁expect	-8.29145
▁food	-8.2917
▁wonder	-8.30199
▁welcome	-8.30269
▁drink	-8.30289
▁strange	-8.31408
▁sheriff	-8.32555
▁arent	-8.32657
land	-8.33277
▁business	-8.33717
▁sarah	-8.34328
▁nemo	-8.3509
▁count	-8.36058
▁stupid	-8.36086
▁voice	-8.3609
▁inside	-8.36108
▁sort	-8.36321
▁line	-8.36459
way	-8.36522
▁month	-8.37319
▁brought	-8.38509
▁command	-8.3851
▁half	-8.38534
▁hair	-8.38615
▁step	-8.38795
▁read	-8.38855
▁ring	-8.39158
▁certain	-8.39743
▁taking	-8.39811
▁short	-8.40049
▁blow	-8.40065
▁question	-8.40993
▁luther	-8.40993
▁ride	-8.41291
▁sara	-8.41879
▁crazy	-8.42259
▁danger	-8.4226
▁ladies	-8.42269
▁gentlemen	-8.43541
▁exactly	-8.43541
▁behind	-8.43542
▁chisum	-8.43543
▁future	-8.43544
▁dress	-8.43647
▁tree	-8.438
▁five	-8.43933
ept	-8.44815
▁perfect	-8.4484
▁probably	-8.4484
▁wife	-8.44841
▁sol	-8.46115
▁trust	-8.46156
▁important	-8.46157
▁foot	-8.46209
▁ooh	-8.46281
▁key	-8.4631
▁buy	-8.46364
▁anyone	-8.47489
▁heaven	-8.47489
▁least	-8.47508
▁fix	-8.47855
gue	-8.48475
▁vo	-8.48632
▁brother	-8.4884
▁problem	-8.48843
▁throw	-8.48858
▁drop	-8.48904
▁anywhere	-8.5021
▁special	-8.5021
▁reason	-8.50215
▁though	-8.50221
▁push	-8.50258
▁country	-8.50387
▁alive	-8.50506
▁bye	-8.50708
▁delilah	-8.51599
▁wilbur	-8.51599
▁secret	-8.51599
▁clean	-8.51637
▁hide	-8.51844
▁perhaps	-8.53007
▁destroy	-8.53008
▁quiet	-8.53008
▁return	-8.53008
▁person	-8.53019
▁castle	-8.5302
▁mmm	-8.53124
▁cheer	-8.53372
nny	-8.53717
▁grunts	-8.54436
▁flower	-8.5445
▁game	-8.5491
▁answer	-8.55885
▁lewis	-8.55888
▁rosie	-8.55957
▁wear	-8.56053
▁also	-8.56068
▁colonel	-8.57356
▁cross	-8.57384
▁damn	-8.57432
▁thou	-8.57644
▁sad	-8.58048
▁cinderella	-8.58848
▁forward	-8.58851
▁white	-8.59624
▁sodom	-8.60371
▁indian	-8.60375
▁sister	-8.60402
▁death	-8.60461
▁number	-8.61902
▁small	-8.6191
▁stuff	-8.61913
▁slow	-8.61943
▁billy	-8.61944
▁corn	-8.62407
▁murder	-8.63465
▁message	-8.63467
▁direct	-8.63468
▁barking	-8.6349
▁actually	-8.65052
▁arrive	-8.65053
▁field	-8.65061
▁worth	-8.65073
▁present	-8.6509
▁dark	-8.65099
▁child	-8.65103
▁sky	-8.6525
▁machine	-8.66668
▁fellow	-8.66669
▁gasps	-8.66681
▁black	-8.6669
▁blue	-8.66709
▁itll	-8.66728
▁moving	-8.66752
▁check	-8.66755
▁america	-8.68304
▁straight	-8.68304
▁surprise	-8.68304
▁rainbow	-8.68304
▁truth	-8.68305
▁truly	-8.68305
▁almost	-8.68305
▁front	-8.68333
▁power	-8.68408
▁story	-8.6842
▁airplane	-8.69971
▁folks	-8.69971
▁rabbit	-8.69971
▁charles	-8.69973
▁reach	-8.70055
▁trans	-8.70259
▁chanticleer	-8.71666
▁different	-8.71666
▁escape	-8.71666
▁school	-8.71666
▁finish	-8.71675
▁honey	-8.71691
▁remus	-8.71694
▁georgie	-8.7339
▁mountain	-8.7339
▁breath	-8.7339
▁theyve	-8.7339
▁figure	-8.73392
▁touch	-8.73409
▁stick	-8.73471
▁control	-8.75145
eight	-8.75318
time	-8.75695
▁elephant	-8.7693
▁savage	-8.7693
▁leaving	-8.7693
▁soldier	-8.76931
▁peace	-8.76931
▁fault	-8.76944
▁south	-8.76945
▁rather	-8.76952
▁sometimes	-8.78748
▁explain	-8.78748
▁koki	-8.78749
▁jump	-8.78758
▁travel	-8.78768
▁north	-8.78775
▁funny	-8.78781
▁write	-8.78801
▁temp	-8.78809
▁build	-8.80601
▁office	-8.80603
▁broke	-8.80605
▁upon	-8.80626
▁scared	-8.80639
▁either	-8.82487
▁radio	-8.82489
▁garden	-8.82495
▁pardon	-8.825
▁anna	-8.825
▁making	-8.82594
▁anybody	-8.8441
▁christmas	-8.8441
▁exclaims	-8.8441
▁sergeant	-8.8441
▁shouldnt	-8.8441
▁chicken	-8.8441
▁street	-8.84422
▁treat	-8.84438
▁silly	-8.84468
▁wild	-8.845
▁trumpet	-8.86371
▁tight	-8.86371
▁dinner	-8.86372
▁become	-8.86372
▁kitty	-8.86375
▁kingdom	-8.86376
▁terrible	-8.88371
▁spirit	-8.88371
▁piece	-8.8838
▁couple	-8.88383
▁pigeon	-8.88394
▁twi	-8.90296
▁journey	-8.90411
▁majesty	-8.90411
▁across	-8.90411
▁husband	-8.90411
▁steady	-8.90412
▁picture	-8.90413
▁henry	-8.90425
▁caleb	-8.90446
▁davy	-8.90469
▁company	-8.92495
▁whatever	-8.92496
▁serious	-8.92497
▁jacob	-8.92497
▁indeed	-8.92501
▁royal	-8.92552
▁sense	-8.92581
▁grunting	-8.94622
▁hebrew	-8.94622
▁married	-8.94645
▁bull	-8.94932
▁belong	-8.96797
▁bridge	-8.96802
▁favor	-8.96812
▁allow	-8.96823
▁conrad	-8.96837
▁large	-8.96865
▁possible	-8.99018
▁edmond	-8.99019
▁ground	-8.99019
▁smith	-8.9902
▁rooster	-8.9902
▁engine	-8.99021
▁bike	-8.99024
▁slave	-8.99035
▁agree	-8.9904
▁search	-8.99041
▁chuckles	-9.01291
▁hundred	-9.01291
▁sanada	-9.01291
▁clothes	-9.01291
▁success	-9.01291
▁finally	-9.01292
▁beauty	-9.01292
▁outside	-9.013
▁offer	-9.0131
▁worse	-9.01327
▁round	-9.01328
▁language	-9.03617
▁matthew	-9.03617
▁amazing	-9.03617
▁knock	-9.03617
▁enemy	-9.03618
▁organ	-9.03618
▁protect	-9.03619
▁mistake	-9.0362
▁prepare	-9.03624
▁women	-9.03628
▁romeo	-9.03628
▁blood	-9.0363
▁forever	-9.03641
▁anymore	-9.05998
▁attention	-9.05998
▁charlotte	-9.05998
▁weather	-9.05998
▁sight	-9.05998
▁except	-9.05999
▁thomas	-9.06
▁island	-9.06001
▁group	-9.06002
▁others	-9.06005
third	-9.06121
▁somewhere	-9.08437
▁strong	-9.08438
▁forgot	-9.08444
▁smart	-9.08444
▁darling	-9.08444
▁idiot	-9.08447
▁complete	-9.10937
▁enjoy	-9.10937
▁simmons	-9.10937
▁creature	-9.10937
▁neither	-9.10937
▁valley	-9.10937
▁excellent	-9.13501
▁feather	-9.13502
▁record	-9.13503
▁ticket	-9.13504
▁thousand	-9.13508
▁pleasure	-9.16132
▁rhythm	-9.16132
▁imagine	-9.16133
▁communi	-9.16135
▁worrie	-9.16152
▁english	-9.18835
▁instrument	-9.18835
▁valiant	-9.18836
▁entire	-9.18836
▁gift	-9.18837
▁thunder	-9.1884
▁lieutenant	-9.21613
▁murphy	-9.21613
▁president	-9.21613
▁village	-9.21615
▁accept	-9.2447
▁difference	-9.2447
▁monsieur	-9.2447
▁appear	-9.2447
▁ghost	-9.24471
▁contact	-9.24471
▁decided	-9.24471
▁queen	-9.24471
▁nightmare	-9.24474
▁service	-9.27411
▁instead	-9.27411
▁within	-9.27413
▁grandfather	-9.30442
q	-10.9049
