<unk>	0
<s>	0
</s>	0
s	-3.94027
▁im	-4.37047
▁know	-4.52329
▁dont	-4.53708
▁get	-4.72357
▁right	-4.81204
▁go	-4.82443
▁oh	-4.87784
▁like	-4.88975
▁got	-4.90305
▁yeah	-4.90397
▁come	-4.92847
▁youre	-4.95405
▁na	-5.04268
▁okay	-5.05838
▁thats	-5.15814
▁one	-5.21213
▁	-5.25006
▁well	-5.27365
▁gon	-5.28301
▁l	-5.30414
▁want	-5.3498
▁good	-5.35536
▁see	-5.37764
▁think	-5.39137
ing	-5.41784
▁hey	-5.43006
▁look	-5.50452
▁back	-5.53328
▁man	-5.58072
▁going	-5.61906
▁take	-5.67376
▁yes	-5.68329
▁time	-5.6853
▁us	-5.70126
▁cant	-5.75814
ed	-5.75909
▁need	-5.76912
▁hes	-5.77137
▁say	-5.80068
d	-5.8157
▁ill	-5.82441
▁way	-5.83015
▁love	-5.84907
▁tell	-5.86217
▁would	-5.86452
▁really	-5.88759
▁thank	-5.94892
▁little	-5.95522
▁lets	-5.97009
▁could	-5.98931
▁sorry	-5.99611
▁let	-6.03162
▁please	-6.03779
▁never	-6.04406
▁god	-6.04828
▁something	-6.0624
▁make	-6.07073
▁mean	-6.08557
▁whats	-6.099
▁theres	-6.17466
▁didnt	-6.17873
▁ive	-6.18384
▁give	-6.20462
▁thing	-6.24866
▁people	-6.29773
▁said	-6.31187
▁two	-6.32877
▁stop	-6.33178
▁help	-6.33375
y	-6.35127
▁wait	-6.36083
▁great	-6.36159
▁life	-6.36778
▁day	-6.38314
▁theyre	-6.39628
▁guys	-6.416
▁mr	-6.43842
▁sure	-6.44012
e	-6.44784
▁ta	-6.45146
▁shes	-6.46425
▁much	-6.48017
▁hi	-6.48091
▁uh	-6.4835
▁even	-6.48781
▁find	-6.50074
▁work	-6.51065
▁nothing	-6.52061
▁first	-6.5223
▁put	-6.52755
▁call	-6.52922
▁still	-6.56454
▁night	-6.5679
▁hell	-6.57298
er	-6.58691
▁maybe	-6.59005
▁baby	-6.62758
▁keep	-6.62978
▁talk	-6.63274
▁anything	-6.63334
▁new	-6.64705
▁home	-6.65849
▁ever	-6.66096
▁away	-6.6767
▁dad	-6.68003
▁better	-6.68471
▁big	-6.71093
▁feel	-6.71649
▁nice	-6.71763
▁long	-6.7226
▁last	-6.72414
▁aint	-6.73246
▁around	-6.73456
▁years	-6.73555
▁guy	-6.74124
a	-6.74537
▁done	-6.74963
▁place	-6.75181
ly	-6.75208
▁wan	-6.75441
▁thought	-6.76183
▁hear	-6.76815
▁sir	-6.78022
▁lm	-6.78152
▁always	-6.78253
▁fine	-6.78507
▁told	-6.79151
▁every	-6.79566
▁stay	-6.79661
▁coming	-6.80074
▁mom	-6.81856
▁world	-6.84015
▁everything	-6.84241
▁name	-6.84985
▁move	-6.85152
▁hold	-6.86933
▁youve	-6.87151
▁hello	-6.87452
▁boy	-6.87699
▁leave	-6.88442
▁things	-6.89482
▁made	-6.91533
▁three	-6.91884
▁lot	-6.92306
▁believe	-6.92859
▁show	-6.93016
t	-6.93231
▁kind	-6.93923
▁shit	-6.94984
▁wont	-6.94999
▁ok	-6.95014
▁listen	-6.95551
▁thanks	-6.9568
▁house	-6.95817
▁remember	-6.95995
▁ready	-6.983
▁jack	-6.9853
▁son	-6.99881
▁de	-7.01539
▁id	-7.03069
▁old	-7.0341
▁talking	-7.03633
▁try	-7.03902
▁doesnt	-7.04121
▁wrong	-7.04122
▁must	-7.04358
▁today	-7.04411
▁bad	-7.04992
▁care	-7.05541
▁live	-7.05896
▁girl	-7.06033
▁another	-7.07656
▁tonight	-7.09472
▁youll	-7.09498
▁getting	-7.09552
▁left	-7.0978
▁best	-7.101
▁money	-7.10703
▁kill	-7.11326
▁real	-7.12714
▁car	-7.13479
▁isnt	-7.13522
▁father	-7.13855
▁door	-7.1386
▁woman	-7.14168
▁trying	-7.14654
▁wanted	-7.14777
▁huh	-7.14804
▁understand	-7.15312
r	-7.1675
▁men	-7.19464
▁je	-7.1967
▁cause	-7.19793
▁actually	-7.20099
in	-7.20115
▁un	-7.20387
▁next	-7.20433
▁play	-7.22028
▁might	-7.22499
▁someone	-7.22679
▁looking	-7.23615
▁course	-7.24253
▁dead	-7.24828
▁um	-7.2503
▁enough	-7.25321
▁guess	-7.25339
▁meet	-7.2668
▁phone	-7.26683
▁else	-7.26767
▁whole	-7.27861
▁start	-7.28155
▁friend	-7.28415
▁ask	-7.28864
▁mind	-7.28913
▁seen	-7.29432
n	-7.29553
▁may	-7.29606
▁excuse	-7.29709
▁die	-7.31016
▁run	-7.31112
▁head	-7.31344
▁many	-7.31824
▁wasnt	-7.32361
▁job	-7.32371
▁playing	-7.32468
al	-7.32549
▁yöu	-7.33015
▁bring	-7.33102
▁second	-7.33941
▁turn	-7.34773
▁without	-7.35084
▁morning	-7.35085
▁watch	-7.3525
▁came	-7.3542
▁everybody	-7.35953
▁whos	-7.36128
▁together	-7.36278
▁saw	-7.36677
▁music	-7.37005
▁fight	-7.37254
▁happened	-7.37267
▁miss	-7.37916
▁open	-7.38044
▁used	-7.38219
▁found	-7.39573
▁damn	-7.40005
es	-7.40512
▁fire	-7.41471
▁hand	-7.41521
▁family	-7.41604
▁pretty	-7.42026
▁fun	-7.42843
▁weve	-7.43303
o	-7.43578
▁heard	-7.43888
▁went	-7.44165
▁heart	-7.44443
▁five	-7.45052
▁hard	-7.45629
▁idea	-7.45892
▁laughing	-7.46501
▁use	-7.46677
▁school	-7.47557
▁hope	-7.47614
▁sighs	-7.4771
▁whoa	-7.48144
▁end	-7.48244
▁happy	-7.49031
▁bit	-7.49694
▁everyone	-7.49862
i	-7.50355
▁dr	-7.51225
▁eyes	-7.51375
▁crazy	-7.52253
▁tomorrow	-7.52257
▁la	-7.52738
ve	-7.52748
▁kids	-7.53196
▁beautiful	-7.53538
▁called	-7.53592
▁matter	-7.53663
▁took	-7.53673
▁friends	-7.5375
▁saying	-7.5381
▁kid	-7.54148
▁game	-7.5465
▁room	-7.54654
▁knew	-7.55108
▁lost	-7.55597
▁cool	-7.556
▁ben	-7.55877
▁deal	-7.56106
▁ah	-7.56653
▁face	-7.5678
▁honey	-7.57056
▁shut	-7.57057
▁minutes	-7.574
▁mother	-7.58622
▁tu	-7.58776
▁gone	-7.59767
▁working	-7.59846
▁hot	-7.60461
▁le	-7.60745
▁lts	-7.60757
▁days	-7.60902
▁party	-7.61235
▁pay	-7.61272
▁minute	-7.61737
▁since	-7.62095
▁yet	-7.62097
▁wouldnt	-7.62185
▁stuff	-7.62612
▁inside	-7.63133
ll	-7.63574
▁walk	-7.63829
▁anyone	-7.64182
▁number	-7.64383
▁true	-7.64711
▁mama	-7.64712
▁grunts	-7.64841
▁boys	-7.65112
▁alone	-7.65245
▁em	-7.65577
▁easy	-7.65784
▁check	-7.66277
▁business	-7.66316
▁you	-7.66657
▁bye	-7.66859
▁eat	-7.66952
▁chuckles	-7.67053
▁clear	-7.6761
▁brother	-7.67674
▁th	-7.67789
▁ass	-7.67933
▁year	-7.68097
▁looks	-7.68097
▁worry	-7.68586
▁welcome	-7.69048
▁wife	-7.69048
▁part	-7.69172
▁already	-7.69603
▁six	-7.70151
▁makes	-7.70324
▁sit	-7.70346
▁break	-7.7056
▁thinking	-7.71269
▁somebody	-7.71637
▁havent	-7.71857
▁problem	-7.72223
▁cest	-7.72463
▁pas	-7.7282
▁ago	-7.72986
▁wants	-7.73177
▁says	-7.73544
▁whatever	-7.73581
▁laughs	-7.7388
▁supposed	-7.74208
▁hurt	-7.74694
l	-7.74831
c	-7.75215
▁close	-7.75685
▁four	-7.75942
▁met	-7.76217
▁daddy	-7.76525
▁nobody	-7.76997
▁stand	-7.77278
▁sleep	-7.77461
▁read	-7.77486
▁different	-7.77601
▁blood	-7.77724
▁though	-7.78274
▁chance	-7.78328
▁probably	-7.7833
▁wow	-7.78332
▁making	-7.78345
f	-7.791
▁hands	-7.79379
▁word	-7.79501
▁trust	-7.80619
▁gave	-7.80791
u	-7.80815
on	-7.81148
▁forget	-7.81419
▁george	-7.82045
▁dance	-7.82198
▁speaking	-7.82439
▁point	-7.82624
▁ya	-7.83039
▁hit	-7.83648
▁safe	-7.83696
▁bob	-7.83759
▁far	-7.83793
▁rest	-7.83994
▁screaming	-7.84004
▁cut	-7.84157
▁killed	-7.84609
▁couldnt	-7.84703
▁change	-7.85106
▁soon	-7.85122
▁mine	-7.8536
▁hate	-7.85679
▁water	-7.85914
▁side	-7.85932
▁set	-7.86535
▁death	-7.86567
▁happen	-7.87212
▁ricky	-7.8729
▁team	-7.87947
▁full	-7.88495
▁goes	-7.88594
▁line	-7.88817
▁wheres	-7.89042
▁war	-7.89767
▁promise	-7.90404
▁person	-7.90516
▁heres	-7.90677
▁later	-7.90701
▁late	-7.90785
▁gasps	-7.9153
▁perfect	-7.91829
▁girls	-7.92306
▁special	-7.92438
▁book	-7.92525
▁hours	-7.92534
▁child	-7.92687
▁taking	-7.92729
▁light	-7.92761
▁question	-7.92886
▁high	-7.93081
▁free	-7.93451
▁almost	-7.941
▁speak	-7.94418
▁anyway	-7.94814
▁red	-7.95275
▁afraid	-7.95534
est	-7.95685
▁moment	-7.9578
▁drink	-7.96052
▁buddy	-7.96258
▁half	-7.96263
▁lose	-7.96959
▁exactly	-7.97002
▁re	-7.97482
▁means	-7.9773
▁grunting	-7.97765
▁sometimes	-7.97961
▁hang	-7.98035
▁city	-7.99226
é	-7.99615
▁news	-7.9977
▁wish	-7.99845
▁story	-7.99965
▁save	-8.0052
le	-8.00567
▁pick	-8.00696
▁voice	-8.01042
▁anymore	-8.01483
▁top	-8.01516
▁shot	-8.01853
▁drive	-8.02109
▁follow	-8.022
▁ladies	-8.02252
▁hubie	-8.02253
▁jesus	-8.02254
▁waiting	-8.02275
▁doctor	-8.03448
▁truth	-8.03803
▁least	-8.04606
▁continues	-8.05297
▁brought	-8.0539
▁ahead	-8.05394
▁ha	-8.05407
▁plan	-8.0543
▁front	-8.06191
▁white	-8.0621
ie	-8.06246
▁behind	-8.06996
▁bed	-8.07189
▁singing	-8.07261
▁president	-8.0743
▁b	-8.07597
▁living	-8.0785
▁shoot	-8.08101
▁week	-8.08211
▁young	-8.08523
▁sweet	-8.08541
▁bitch	-8.08635
▁fall	-8.0872
b	-8.09193
▁king	-8.09355
▁married	-8.09455
▁lord	-8.09534
p	-8.09737
▁human	-8.09776
▁sister	-8.10038
▁lll	-8.1022
▁food	-8.10283
▁anybody	-8.10289
▁alive	-8.10308
▁power	-8.10398
▁died	-8.11013
▁stupid	-8.11129
▁moving	-8.11134
▁tried	-8.1118
▁times	-8.1133
te	-8.11774
▁it	-8.11839
▁started	-8.11857
▁maam	-8.11978
▁feet	-8.11986
g	-8.12379
▁hurry	-8.12831
st	-8.1309
▁throw	-8.13173
▁sound	-8.13579
▁colonel	-8.13695
▁hmm	-8.13698
▁touch	-8.13701
▁scared	-8.13805
re	-8.13831
▁que	-8.14104
▁s	-8.14372
▁asked	-8.14433
▁lt	-8.14472
▁f	-8.14844
▁fast	-8.15281
▁street	-8.15734
▁dog	-8.16051
▁reason	-8.16113
▁important	-8.16214
▁answer	-8.16254
▁john	-8.16317
m	-8.16381
▁happening	-8.1692
▁telling	-8.17206
▁greg	-8.17215
▁also	-8.17218
▁win	-8.17366
▁sounds	-8.17405
▁seems	-8.17854
▁trouble	-8.17929
▁luck	-8.17944
▁eye	-8.18096
▁dinner	-8.1812
▁running	-8.18121
▁air	-8.18144
▁case	-8.18155
▁sign	-8.18974
▁date	-8.18994
▁amazing	-8.19028
▁hows	-8.19029
▁zoey	-8.19037
▁ball	-8.19068
▁office	-8.1986
▁song	-8.19935
▁arent	-8.19947
▁body	-8.19957
▁couple	-8.19958
▁gun	-8.20024
▁send	-8.20451
▁control	-8.20861
▁outside	-8.20873
▁kidding	-8.20875
or	-8.20975
▁ow	-8.21017
▁buy	-8.21379
ers	-8.21707
▁daughter	-8.21752
▁ooh	-8.21762
▁dear	-8.21873
▁beat	-8.22188
▁c	-8.22367
▁gentlemen	-8.22751
▁sense	-8.22856
▁carl	-8.22863
▁lives	-8.232
▁hair	-8.23362
▁eight	-8.23556
▁women	-8.23602
▁along	-8.23698
▁children	-8.23706
▁secret	-8.23988
▁serious	-8.24546
▁blue	-8.24643
▁grace	-8.24663
▁aii	-8.24706
▁max	-8.25628
ic	-8.26086
us	-8.26285
▁figure	-8.26315
▁french	-8.26628
▁leaving	-8.2663
▁quite	-8.26726
▁kiss	-8.26769
▁pull	-8.26841
▁york	-8.27604
▁earth	-8.27608
▁funny	-8.27623
▁rose	-8.27636
▁theyll	-8.27648
▁feeling	-8.28778
▁calm	-8.29582
▁black	-8.2961
ion	-8.2991
▁captain	-8.30635
▁seven	-8.30639
▁town	-8.30656
▁drop	-8.30656
▁police	-8.30668
▁finally	-8.30696
▁order	-8.31027
▁louise	-8.31456
▁wake	-8.31473
▁shake	-8.31669
▁country	-8.31678
▁till	-8.3168
▁kate	-8.31689
▁asking	-8.31874
▁m	-8.32526
▁teddy	-8.327
▁iike	-8.32714
▁cheering	-8.3281
▁step	-8.32868
k	-8.34074
▁dream	-8.34236
▁park	-8.34326
▁careful	-8.34756
▁they	-8.3476
▁army	-8.34949
▁husband	-8.34952
▁dude	-8.34983
▁hour	-8.35092
▁finish	-8.35102
▁slow	-8.35629
▁cold	-8.35718
▁smell	-8.35779
▁roy	-8.35873
▁brian	-8.3589
▁non	-8.35954
▁et	-8.36012
▁needs	-8.36057
▁past	-8.36488
▁catch	-8.36538
▁general	-8.3699
▁words	-8.37103
▁join	-8.37455
ies	-8.37703
▁r	-8.37813
▁arnie	-8.38085
▁somewhere	-8.38085
▁charlie	-8.38088
▁glad	-8.38089
▁contact	-8.38147
▁yo	-8.39161
▁sick	-8.39174
▁mmm	-8.39183
▁rain	-8.39215
▁comes	-8.39352
▁julia	-8.39423
▁seem	-8.40014
▁small	-8.40141
▁weird	-8.40252
▁absolutely	-8.40338
▁en	-8.40745
▁honor	-8.41104
▁bar	-8.41198
▁strong	-8.41285
▁either	-8.41456
▁goodbye	-8.41457
h	-8.41558
▁class	-8.42552
▁lady	-8.42605
▁yall	-8.42691
▁months	-8.42726
▁weeks	-8.42991
▁learn	-8.42993
▁straight	-8.43747
▁security	-8.43769
▁shouting	-8.43894
▁cover	-8.44013
▁ten	-8.44017
▁mouth	-8.44212
▁law	-8.44837
▁ground	-8.44934
▁kevin	-8.44947
▁watching	-8.45095
▁ride	-8.45136
▁picture	-8.45395
▁near	-8.46106
▁shall	-8.46134
▁future	-8.46136
▁shouldnt	-8.46136
▁wedding	-8.46137
▁bobby	-8.46146
▁totally	-8.46181
▁wonderful	-8.46196
▁qui	-8.46215
▁pain	-8.46541
▁round	-8.46562
▁questions	-8.47
▁green	-8.4733
▁proud	-8.4734
▁paint	-8.47397
▁groans	-8.47543
▁boat	-8.47737
▁choice	-8.47793
▁become	-8.47806
▁forever	-8.48556
▁ray	-8.48637
▁hundred	-8.49056
▁queen	-8.49077
▁system	-8.49091
▁ring	-8.49249
▁crawl	-8.49324
▁turned	-8.49549
▁known	-8.49712
▁birthday	-8.49795
▁crowd	-8.49813
▁road	-8.49824
▁wear	-8.49897
▁able	-8.50254
▁fact	-8.50391
▁les	-8.50461
▁record	-8.50756
▁mad	-8.50961
▁anywhere	-8.51044
▁perhaps	-8.51044
▁rachel	-8.51045
▁zeus	-8.51047
▁gold	-8.51077
▁laugh	-8.51199
▁art	-8.51252
▁lucky	-8.51299
▁share	-8.51424
▁cute	-8.51899
ar	-8.52117
▁magic	-8.52223
▁possible	-8.5231
man	-8.52347
▁copy	-8.52361
▁wall	-8.52566
▁a	-8.52727
▁cell	-8.52831
▁calling	-8.53032
▁building	-8.53183
▁fat	-8.53416
▁sex	-8.53421
▁relax	-8.53592
▁pour	-8.53598
▁linda	-8.53614
▁bet	-8.53668
▁parents	-8.53681
▁joe	-8.53712
▁wed	-8.53848
▁write	-8.54056
▁ones	-8.54173
▁box	-8.5444
▁act	-8.54593
▁paris	-8.5487
▁list	-8.54887
▁hercules	-8.54891
▁panting	-8.54893
▁handle	-8.55051
▁bank	-8.55093
▁pass	-8.55315
▁pop	-8.5541
▁gets	-8.5578
▁explain	-8.55878
▁e	-8.55954
▁worth	-8.56032
▁felt	-8.56158
▁island	-8.56207
▁radio	-8.56209
▁il	-8.56232
▁court	-8.56257
▁mess	-8.56853
▁entire	-8.5742
▁company	-8.5754
▁tv	-8.57549
▁shell	-8.57563
▁stick	-8.57567
▁rock	-8.57739
en	-8.5785
▁wonder	-8.58039
▁changed	-8.58192
▁tree	-8.5882
▁count	-8.58862
▁dark	-8.5888
▁attention	-8.58891
▁yep	-8.58895
▁jai	-8.58969
▁sent	-8.59043
▁sing	-8.59899
▁p	-8.59899
▁worked	-8.60059
▁sun	-8.60259
▁gilbert	-8.60261
▁stuck	-8.60261
▁charles	-8.60264
▁doin	-8.60311
▁tired	-8.60458
▁meeting	-8.60576
▁clean	-8.60866
▁imagine	-8.61352
▁fly	-8.61366
▁meant	-8.61478
▁happens	-8.61479
▁tough	-8.61495
▁less	-8.61567
▁bruce	-8.6165
▁goddamn	-8.6165
▁hospital	-8.61651
▁grab	-8.61654
▁mission	-8.61767
▁short	-8.62783
▁deep	-8.62792
▁taken	-8.62966
▁evil	-8.6306
▁middle	-8.6306
▁foreman	-8.63061
▁sort	-8.63106
▁troy	-8.63107
▁te	-8.63115
▁screams	-8.63521
▁ship	-8.63549
▁trick	-8.63666
▁ce	-8.63722
▁fish	-8.63734
▁hole	-8.64005
▁american	-8.64014
▁key	-8.64027
▁fair	-8.64147
▁katniss	-8.64487
▁kaulder	-8.64487
▁history	-8.64487
▁ginger	-8.64488
▁vee	-8.6454
vous	-8.64614
▁lie	-8.65742
▁restaurant	-8.65936
▁sheiiey	-8.65937
▁spent	-8.65943
▁russian	-8.65961
▁born	-8.66041
▁crying	-8.66129
▁bud	-8.66379
▁respect	-8.66647
▁h	-8.66828
▁horse	-8.66939
▁million	-8.6694
▁piece	-8.66969
el	-8.67023
▁works	-8.67137
able	-8.67388
▁early	-8.67453
▁field	-8.67522
z	-8.67648
▁loved	-8.68003
▁kick	-8.68117
▁bell	-8.68262
▁mistake	-8.68369
▁state	-8.68813
▁chuck	-8.68881
▁forgot	-8.68896
▁awesome	-8.689
▁definitely	-8.68904
▁arm	-8.68913
▁completely	-8.68975
▁sam	-8.69302
▁saved	-8.69515
▁teach	-8.69749
▁gods	-8.69962
▁officer	-8.70097
▁smart	-8.70263
▁breathe	-8.70338
▁summer	-8.70408
▁worse	-8.70415
▁moses	-8.70416
▁gay	-8.70418
▁unless	-8.7049
▁lisa	-8.70529
▁seriously	-8.70601
▁christ	-8.70705
▁ringing	-8.7097
▁protect	-8.71032
less	-8.71145
▁surprise	-8.71147
▁knock	-8.71177
▁i	-8.71298
▁g	-8.71409
▁werent	-8.71953
▁forward	-8.71953
▁sophie	-8.7196
▁floor	-8.71966
▁tina	-8.71967
▁dying	-8.71986
▁bigger	-8.72015
▁beeping	-8.7202
▁none	-8.72188
▁fear	-8.72716
ng	-8.7285
▁faith	-8.72863
th	-8.7305
▁soul	-8.73125
▁thousand	-8.73145
▁situation	-8.73516
▁toronto	-8.73516
▁weii	-8.73516
▁dancing	-8.73518
▁football	-8.73519
▁card	-8.7357
▁single	-8.73572
▁sea	-8.73576
▁hide	-8.7369
▁d	-8.73746
▁blow	-8.74236
▁une	-8.74461
▁push	-8.74642
▁needed	-8.74924
▁seconds	-8.74929
▁seat	-8.74952
nt	-8.74976
▁paul	-8.74982
▁college	-8.75103
▁bernie	-8.75116
▁walter	-8.75116
▁lucas	-8.75182
▁looked	-8.75198
▁est	-8.75238
▁nine	-8.75348
▁lock	-8.759
▁attack	-8.75918
▁pa	-8.75937
▁asshole	-8.76331
▁melon	-8.76334
▁honest	-8.76419
▁fell	-8.76634
▁glass	-8.76672
▁swear	-8.76716
▁sebastian	-8.76716
▁clothes	-8.76719
▁low	-8.76786
▁lve	-8.76882
▁knows	-8.76957
▁age	-8.77321
w	-8.77536
▁cross	-8.77558
▁chris	-8.78043
▁mark	-8.78047
▁ne	-8.78109
ity	-8.78192
▁frank	-8.78243
▁quick	-8.78246
▁games	-8.78332
▁others	-8.78355
▁paige	-8.78355
▁mmhmm	-8.78364
▁sky	-8.78392
▁groaning	-8.78419
▁plus	-8.78579
▁uncle	-8.78594
ry	-8.7901
▁v	-8.79131
ce	-8.79131
▁jump	-8.79131
▁offer	-8.79211
▁fix	-8.79235
▁in	-8.79247
▁rings	-8.79286
▁longer	-8.79464
▁standing	-8.79588
▁truck	-8.79707
▁paper	-8.79743
▁whoo	-8.79779
▁gift	-8.79805
▁america	-8.79949
▁broke	-8.7997
▁austin	-8.80022
▁uhhuh	-8.80022
up	-8.80028
▁jules	-8.80106
▁star	-8.80181
ation	-8.80342
▁breathing	-8.80402
▁shh	-8.80471
▁rath	-8.80759
▁lee	-8.80937
▁alarm	-8.81367
▁survive	-8.81411
▁message	-8.81455
▁agent	-8.81473
ness	-8.81498
ful	-8.81576
▁yesterday	-8.81717
▁washington	-8.81717
▁driving	-8.81718
▁across	-8.81718
▁cosette	-8.81719
▁jake	-8.81724
▁va	-8.81725
▁giving	-8.81733
▁lying	-8.81763
▁moon	-8.81777
▁busy	-8.81809
▁missing	-8.81891
▁sad	-8.82198
▁enjoy	-8.82644
ra	-8.82951
▁bill	-8.82998
▁month	-8.83137
▁service	-8.83246
▁names	-8.8337
▁monsieur	-8.83441
▁jimmy	-8.83441
▁ronny	-8.83443
▁terrible	-8.83448
▁papa	-8.83526
▁starting	-8.83814
▁se	-8.83878
▁miles	-8.83943
▁al	-8.83979
▁wearing	-8.84066
▁w	-8.84368
▁brain	-8.84551
▁o	-8.84646
ii	-8.84742
▁missed	-8.8481
▁blind	-8.84886
▁machine	-8.84974
▁rick	-8.85031
▁poor	-8.85077
▁jj	-8.85146
▁alright	-8.85197
▁fault	-8.85201
▁whatd	-8.85214
▁band	-8.85281
▁beer	-8.85295
▁boss	-8.85315
▁feels	-8.85321
▁report	-8.85819
▁return	-8.85894
out	-8.86034
▁dis	-8.86106
▁gene	-8.86351
▁sell	-8.86474
▁spend	-8.86522
▁ho	-8.86573
▁pack	-8.86646
▁si	-8.86752
▁dangerous	-8.86852
▁corner	-8.86904
▁table	-8.86954
▁halloween	-8.86981
▁bathroom	-8.86982
▁tommy	-8.86983
▁heavy	-8.86986
▁major	-8.86987
▁devil	-8.86988
▁personal	-8.87033
▁ice	-8.87163
▁powers	-8.87501
▁painting	-8.87528
v	-8.87599
▁super	-8.88432
▁suit	-8.88433
▁lead	-8.88436
▁orders	-8.88547
▁crap	-8.88614
▁joke	-8.88627
is	-8.88696
▁ton	-8.887
▁simple	-8.88706
▁guard	-8.88713
▁except	-8.8874
▁bag	-8.88772
▁sitting	-8.88825
▁fighting	-8.89017
▁du	-8.89125
▁lovely	-8.89422
it	-8.89596
▁steal	-8.90199
▁destroy	-8.90331
▁walking	-8.90371
▁robot	-8.90423
▁computer	-8.90522
▁worried	-8.90651
▁caught	-8.90653
▁neck	-8.90658
▁hungry	-8.9066
▁plane	-8.90661
▁west	-8.9072
▁burn	-8.91352
▁mar	-8.91378
▁train	-8.91459
an	-8.91637
▁au	-8.91662
▁command	-8.91999
▁charge	-8.92085
▁appreciate	-8.92206
▁arrest	-8.92232
▁race	-8.92303
▁quiet	-8.92439
▁mountain	-8.92488
▁suis	-8.92543
▁chief	-8.92544
▁bella	-8.9255
▁chuckling	-8.92551
▁upon	-8.92552
▁paid	-8.92573
▁square	-8.92574
▁space	-8.92584
▁j	-8.92599
▁hotel	-8.9261
et	-8.92691
▁decided	-8.92729
ment	-8.9316
ter	-8.93354
me	-8.93522
▁peace	-8.93585
▁track	-8.93718
▁atom	-8.93901
▁target	-8.94118
▁agree	-8.94141
▁st	-8.94306
▁mo	-8.94346
▁code	-8.94355
▁north	-8.94459
▁congratulations	-8.94461
▁support	-8.94462
▁impossible	-8.94462
▁south	-8.94465
▁donna	-8.94471
▁patch	-8.94486
▁weekend	-8.9449
▁camera	-8.94501
▁rent	-8.94527
▁seeing	-8.94689
▁ellis	-8.9469
▁yelling	-8.94723
▁moved	-8.94952
▁mm	-8.9502
▁wind	-8.95191
▁k	-8.95524
▁reach	-8.95668
▁listening	-8.95793
▁breath	-8.96075
▁final	-8.96312
▁rich	-8.96352
▁fool	-8.9637
▁female	-8.96422
▁terry	-8.96423
▁position	-8.96428
▁tom	-8.96468
▁jail	-8.96494
▁foot	-8.96522
▁bon	-8.96648
▁quit	-8.96856
▁owe	-8.97203
▁given	-8.97511
▁dress	-8.97561
▁chatter	-8.97974
▁build	-8.97975
▁land	-8.9807
▁engine	-8.98216
▁pray	-8.98256
▁certain	-8.9829
▁witch	-8.98379
▁nick	-8.98399
▁smile	-8.98417
▁nervous	-8.98422
▁vincent	-8.98422
▁instead	-8.98422
▁spot	-8.98423
▁peeta	-8.98426
▁bastard	-8.98462
▁skin	-8.98474
▁movie	-8.98489
▁adam	-8.98502
▁driver	-8.98675
▁yöur	-8.98709
▁folks	-8.98799
▁wood	-8.98831
▁grow	-8.99948
▁raise	-9.00157
▁using	-9.00217
▁horn	-9.00286
▁tour	-9.00305
▁brave	-9.00329
▁apart	-9.00451
▁jasmine	-9.00463
▁beach	-9.00463
▁kept	-9.00465
▁bruno	-9.00465
▁richard	-9.00466
▁boyfriend	-9.00468
▁mike	-9.00469
▁pleasure	-9.00471
▁grandpa	-9.00482
▁heh	-9.00494
▁master	-9.00554
▁wine	-9.0084
▁goin	-9.01115
▁leg	-9.01924
▁mon	-9.01943
▁judge	-9.02218
▁marshal	-9.02289
▁scott	-9.02361
▁prison	-9.02385
▁an	-9.02428
▁fresh	-9.02528
▁lunch	-9.02538
▁lambert	-9.02546
▁rudy	-9.02546
hrer	-9.02547
▁violet	-9.02552
▁quoi	-9.02574
▁incredible	-9.02579
▁tech	-9.02582
▁cake	-9.02606
▁action	-9.0261
▁stopped	-9.02618
ur	-9.02637
▁type	-9.02649
▁window	-9.02687
▁gasping	-9.02714
▁named	-9.03251
▁picked	-9.03429
ist	-9.03666
ia	-9.03825
▁expect	-9.03895
▁evening	-9.03996
▁present	-9.04102
▁ran	-9.04351
▁taste	-9.04518
▁diane	-9.04674
▁cheese	-9.04674
▁roof	-9.04675
▁nature	-9.04675
▁sweetheart	-9.04676
▁andrew	-9.04677
▁chon	-9.04685
▁excited	-9.0469
▁gas	-9.04751
▁freaky	-9.04777
▁group	-9.04789
▁fit	-9.04922
▁closer	-9.0496
▁beeps	-9.05078
▁locked	-9.05098
▁dollars	-9.05288
▁dare	-9.05563
▁continue	-9.05727
▁hanging	-9.05981
▁pen	-9.06043
▁ii	-9.06385
▁moi	-9.06393
▁marry	-9.06426
▁lay	-9.06667
▁indistinct	-9.06729
▁theo	-9.06841
▁bullshit	-9.06847
▁double	-9.06848
▁doyle	-9.06848
▁memory	-9.06848
▁coffee	-9.06848
▁twice	-9.06848
▁hasnt	-9.06848
▁darling	-9.06849
▁reaiiy	-9.06853
▁letter	-9.07369
▁greatest	-9.07382
ty	-9.07563
▁vi	-9.07677
▁hat	-9.07822
▁remind	-9.08071
▁cook	-9.08307
▁roll	-9.08361
▁wash	-9.08444
▁study	-9.0865
▁holding	-9.08696
▁tight	-9.08924
▁east	-9.08943
▁bomb	-9.09012
▁pal	-9.09044
▁kitchen	-9.0907
▁government	-9.0907
▁pressure	-9.09074
▁drunk	-9.09074
▁river	-9.09076
▁afternoon	-9.09076
▁rosie	-9.09079
▁heaven	-9.09116
▁warning	-9.09289
▁lawyer	-9.09331
▁partner	-9.09379
▁gosh	-9.09533
▁cale	-9.09645
▁finished	-9.09737
▁brothers	-9.10211
▁n	-9.10334
at	-9.10382
ate	-9.11171
▁cat	-9.11242
▁extra	-9.11307
▁sold	-9.11337
▁audience	-9.11342
▁bunch	-9.11342
▁everywhere	-9.11342
▁goldmember	-9.11342
▁private	-9.11343
▁spanish	-9.11343
▁distance	-9.11346
▁clock	-9.11348
▁store	-9.11357
▁oui	-9.1136
▁brianna	-9.11365
▁third	-9.11386
▁grand	-9.11418
▁level	-9.11418
▁broken	-9.11437
▁male	-9.11471
tre	-9.11634
▁girlfriend	-9.11642
▁weapon	-9.11717
▁bucks	-9.11828
▁hug	-9.11885
▁prove	-9.1197
▁learned	-9.11974
▁killing	-9.12353
▁t	-9.12433
▁plays	-9.12522
▁dans	-9.12695
▁fired	-9.13
ant	-9.13031
▁books	-9.13053
▁reading	-9.13068
▁complete	-9.13228
▁carry	-9.13323
▁heat	-9.13383
▁realize	-9.1339
▁takes	-9.13472
ent	-9.13478
▁howd	-9.13485
▁bridge	-9.13498
▁con	-9.1354
▁strange	-9.13581
▁beyond	-9.13668
▁bought	-9.13668
▁english	-9.13668
▁fuck	-9.1368
▁roz	-9.1368
▁liesel	-9.13686
▁izzy	-9.13686
▁laughter	-9.13693
▁cream	-9.13713
▁peter	-9.13761
▁holy	-9.1382
▁quickly	-9.13836
▁sexy	-9.1399
▁chicken	-9.14026
▁risk	-9.14043
▁ann	-9.14399
▁begin	-9.14558
▁trip	-9.14719
▁promised	-9.14731
▁talked	-9.15205
▁eating	-9.15676
▁suck	-9.15773
▁favor	-9.16045
▁cash	-9.16048
▁apologize	-9.16049
▁chocolate	-9.16049
▁larry	-9.16049
▁throat	-9.1605
▁andy	-9.16068
▁pool	-9.16076
▁feed	-9.16135
▁james	-9.16246
▁interesting	-9.16288
na	-9.16428
▁hed	-9.16713
▁dads	-9.16993
▁huge	-9.17529
▁pre	-9.18034
ne	-9.1815
▁accident	-9.18476
▁cia	-9.18482
▁eddie	-9.18488
▁lloyd	-9.18488
▁amara	-9.18488
▁felix	-9.18488
▁exhales	-9.18495
▁favorite	-9.185
▁size	-9.18507
▁snow	-9.18509
▁center	-9.18513
▁flight	-9.18517
▁united	-9.18717
▁falco	-9.18848
to	-9.1896
▁arms	-9.19191
▁bird	-9.19198
▁artist	-9.19365
▁tire	-9.19693
▁travel	-9.19883
▁pro	-9.20362
▁rules	-9.20372
▁visit	-9.20404
iy	-9.20624
▁enter	-9.20687
▁serve	-9.20711
▁staying	-9.20926
▁brown	-9.20928
▁hero	-9.20984
▁built	-9.20988
▁taught	-9.20989
▁video	-9.20992
▁information	-9.20992
▁june	-9.20993
▁outta	-9.20996
▁bono	-9.21071
▁path	-9.21072
▁losing	-9.21099
▁van	-9.21173
▁force	-9.2124
▁due	-9.21258
▁roger	-9.21458
▁account	-9.21514
▁photo	-9.2159
▁rule	-9.21654
▁figured	-9.21766
▁lang	-9.21816
ally	-9.21841
ling	-9.21904
▁kinda	-9.22147
▁co	-9.22227
im	-9.22501
▁gil	-9.2262
▁lights	-9.22923
▁lies	-9.23031
▁correct	-9.23083
▁launch	-9.23193
▁ritchie	-9.23552
▁thunder	-9.23552
▁upstairs	-9.23552
▁candy	-9.23552
▁stories	-9.23552
▁dolan	-9.23555
▁shouldve	-9.23557
▁writing	-9.23561
▁spiderman	-9.23562
▁tower	-9.23562
▁mais	-9.23583
▁putting	-9.23663
▁indistinctly	-9.23693
▁balls	-9.23819
▁victor	-9.23987
▁shirt	-9.24087
▁idiot	-9.24137
▁ja	-9.2432
▁ends	-9.2436
▁stars	-9.24614
il	-9.24753
▁mi	-9.25016
▁killer	-9.25334
▁san	-9.25341
ary	-9.25446
ch	-9.25523
▁par	-9.2564
▁sacrifice	-9.25876
▁aw	-9.26068
▁main	-9.26118
▁fathers	-9.2612
▁jorge	-9.26184
▁address	-9.26184
▁scoffs	-9.26184
▁truly	-9.26184
▁lonely	-9.26184
▁sobbing	-9.26184
▁stella	-9.26186
▁nose	-9.26189
▁excellent	-9.2619
▁credit	-9.26191
▁coach	-9.26195
▁thatll	-9.26201
▁data	-9.26202
▁julie	-9.26221
▁safety	-9.26231
▁pam	-9.26261
▁add	-9.26307
▁lived	-9.2633
▁turning	-9.26551
▁teacher	-9.2656
▁chattering	-9.2678
▁beckett	-9.2679
▁hitler	-9.26925
▁goal	-9.27001
▁where	-9.27021
ts	-9.2704
▁bot	-9.27168
age	-9.27338
▁out	-9.27857
▁treat	-9.27872
▁cheap	-9.2875
▁daesu	-9.28886
▁daryn	-9.28886
▁exciting	-9.28886
▁mmmhmm	-9.28886
▁nowhere	-9.28886
▁spread	-9.28886
▁genius	-9.28887
▁empty	-9.28888
▁harper	-9.28891
▁emergency	-9.28894
▁carol	-9.28915
▁obviously	-9.28973
▁ali	-9.2898
as	-9.29076
▁mud	-9.29086
▁shoes	-9.2941
▁helped	-9.29509
▁operation	-9.29618
▁sisters	-9.2972
▁lin	-9.29744
▁plans	-9.3002
▁lake	-9.30141
▁tes	-9.30524
▁birds	-9.31038
▁form	-9.31096
▁dreams	-9.31128
▁film	-9.31211
▁turns	-9.31267
▁experience	-9.31391
▁ld	-9.31394
▁seal	-9.31516
▁loose	-9.31615
▁access	-9.31664
▁fischoeder	-9.31664
▁jacob	-9.31664
▁wrote	-9.31664
▁difference	-9.31664
▁online	-9.31668
▁milo	-9.3167
▁within	-9.31672
▁annie	-9.31704
▁apartment	-9.3172
▁weather	-9.31747
▁cow	-9.3177
▁faster	-9.3211
▁whispers	-9.32136
▁nuts	-9.32137
os	-9.32382
▁suspect	-9.32424
▁stage	-9.32466
▁reporter	-9.32653
▁test	-9.32736
▁cops	-9.32894
▁bro	-9.33308
▁yells	-9.3332
▁per	-9.33397
▁punch	-9.33643
▁walker	-9.33643
▁fill	-9.33756
▁murder	-9.33879
▁crash	-9.33996
▁repeat	-9.34014
▁dig	-9.34045
▁warm	-9.3411
▁ex	-9.34176
▁loves	-9.3423
ta	-9.34377
▁freeze	-9.34447
▁wild	-9.34453
▁gettin	-9.345
▁everythings	-9.34513
▁maureen	-9.34521
▁strength	-9.34521
▁sugar	-9.34521
▁upset	-9.34521
▁beginning	-9.34522
▁ridiculous	-9.34522
▁steve	-9.34524
▁comfortable	-9.34529
▁hank	-9.3453
▁eric	-9.34532
▁emily	-9.34533
▁dumb	-9.34561
▁medical	-9.34561
▁shop	-9.34562
▁saving	-9.34579
▁bleeding	-9.34646
▁certainly	-9.34692
▁hoping	-9.3478
▁faire	-9.34856
▁file	-9.35068
▁starts	-9.35087
la	-9.35177
▁doubt	-9.3522
▁taylor	-9.35365
▁decision	-9.35443
▁conversation	-9.35454
▁ghost	-9.35467
▁patient	-9.35507
▁guest	-9.35507
▁eggs	-9.35583
▁there	-9.35649
▁siren	-9.35754
▁sur	-9.35818
▁fingers	-9.35838
▁cost	-9.35955
▁records	-9.36086
▁soldiers	-9.3617
▁sais	-9.369
▁over	-9.3697
um	-9.37008
▁liked	-9.37155
▁played	-9.3722
▁map	-9.37349
▁loud	-9.3736
▁nothin	-9.37433
▁advice	-9.37463
▁celebrate	-9.37463
▁whirring	-9.37463
▁zack	-9.37463
▁japanese	-9.37463
▁miracle	-9.37463
▁military	-9.37465
▁dick	-9.3747
▁rise	-9.37477
▁dropped	-9.37477
▁amen	-9.37494
▁tessa	-9.37563
▁noticed	-9.37639
ro	-9.37665
▁paintings	-9.37677
▁introduce	-9.37702
▁gotten	-9.37792
▁cars	-9.37893
▁ma	-9.38101
▁showed	-9.38142
▁nu	-9.38323
▁states	-9.38331
▁area	-9.38396
▁purpose	-9.38421
▁kissed	-9.38431
▁monster	-9.38487
▁keys	-9.38502
▁gate	-9.38547
▁yard	-9.38758
▁bite	-9.38996
▁regret	-9.3907
▁pictures	-9.39332
▁numbers	-9.39353
▁opens	-9.3959
▁press	-9.39712
▁tape	-9.39898
▁focus	-9.40162
▁grant	-9.4017
▁deliver	-9.40314
▁thinks	-9.40348
▁daniel	-9.40453
▁electric	-9.4048
▁caesar	-9.40493
▁neither	-9.40493
▁especially	-9.40493
▁england	-9.40493
▁ugh	-9.40494
▁witness	-9.40495
▁chili	-9.40497
▁flor	-9.40498
▁bien	-9.40498
▁jason	-9.40502
▁meat	-9.40503
▁fbi	-9.40506
▁angry	-9.40507
▁gabe	-9.4051
▁gain	-9.40511
▁mount	-9.40517
▁dragon	-9.40525
▁self	-9.40566
▁chanting	-9.4057
▁held	-9.40587
▁scary	-9.40608
▁whispering	-9.40613
▁roaring	-9.40613
▁row	-9.40641
lng	-9.40693
▁besides	-9.40828
▁dogs	-9.41018
▁butt	-9.41287
▁pulled	-9.41492
▁wondering	-9.41523
▁jean	-9.41609
▁view	-9.41611
▁burger	-9.41666
co	-9.41712
▁ears	-9.41747
▁fellas	-9.41762
ous	-9.42236
▁drinking	-9.42437
way	-9.42949
▁po	-9.4323
▁allow	-9.43298
▁normal	-9.43505
▁total	-9.43528
▁forgive	-9.43542
▁club	-9.43618
▁couid	-9.43618
▁leonidas	-9.43618
▁spencer	-9.43618
▁babies	-9.43618
▁nerve	-9.43618
▁bernard	-9.43619
▁isabelle	-9.43621
▁tongue	-9.43628
▁glenn	-9.43628
▁advance	-9.43644
▁grew	-9.43646
▁hut	-9.43648
▁pants	-9.43671
▁speed	-9.43695
▁cory	-9.43706
▁jackson	-9.43713
▁hiding	-9.4376
▁shed	-9.43897
▁destroyed	-9.44163
▁heading	-9.44193
▁cooking	-9.44264
ri	-9.44444
▁draw	-9.44487
▁measure	-9.44663
▁bottle	-9.44706
▁battle	-9.44719
▁cousin	-9.44746
▁practice	-9.44756
▁district	-9.44775
▁crime	-9.44841
▁animal	-9.4488
▁button	-9.44884
▁color	-9.449
▁drones	-9.44909
ge	-9.45585
▁sec	-9.45846
▁weapons	-9.46311
▁lift	-9.46336
ass	-9.46547
▁public	-9.46562
▁mini	-9.4669
▁soft	-9.46729
x	-9.46733
▁somethin	-9.46814
▁match	-9.46826
▁shame	-9.46826
▁twenty	-9.46842
▁asleep	-9.46844
▁breakfast	-9.46844
▁difficult	-9.46844
▁london	-9.46844
▁pregnant	-9.46844
▁scene	-9.46844
▁worst	-9.46844
▁blaring	-9.46844
▁dubois	-9.46844
▁nigel	-9.46844
▁babe	-9.46845
▁ought	-9.46845
▁beast	-9.46846
▁toast	-9.46847
▁teeth	-9.46848
▁rough	-9.46848
▁harry	-9.46849
▁iook	-9.46853
▁legend	-9.46856
▁fake	-9.46866
▁vegas	-9.46941
▁hunter	-9.47056
▁bus	-9.47287
▁vie	-9.47332
ny	-9.47402
▁blame	-9.4742
▁bear	-9.47635
▁da	-9.4778
▁yell	-9.47795
▁strike	-9.48065
▁tank	-9.48071
▁sake	-9.48114
▁tear	-9.48305
▁ro	-9.4831
▁tall	-9.48803
▁burgers	-9.48901
ah	-9.48994
▁des	-9.48996
▁heads	-9.49335
▁bless	-9.49428
▁breaking	-9.49495
▁dan	-9.49618
▁cry	-9.4992
▁legs	-9.49924
▁who	-9.49998
▁chill	-9.50022
▁doors	-9.50088
▁stole	-9.50114
▁debora	-9.50154
▁ruth	-9.50157
▁admit	-9.50169
▁swim	-9.50176
▁apparently	-9.50177
▁foxxy	-9.50177
▁mercy	-9.50177
▁rebecca	-9.50177
▁soccer	-9.50177
▁wouid	-9.50177
▁christmas	-9.50177
▁fantastic	-9.50177
▁chinese	-9.50178
▁beauty	-9.50178
▁planning	-9.50178
▁nope	-9.50178
▁knox	-9.50181
▁crew	-9.50183
▁danny	-9.50186
▁chloe	-9.50196
▁chest	-9.50199
▁mommy	-9.50201
▁enemy	-9.50205
▁china	-9.50228
▁sweetie	-9.50309
▁kim	-9.50327
▁bull	-9.50333
id	-9.50395
▁vice	-9.50588
eux	-9.50606
▁flying	-9.51278
▁tie	-9.51567
▁soldier	-9.51686
▁dean	-9.51823
▁do	-9.52308
than	-9.52315
▁cal	-9.52387
▁streets	-9.52462
▁leo	-9.52681
▁hal	-9.52753
▁screw	-9.52788
▁keeps	-9.53012
no	-9.53052
▁rip	-9.53078
▁paying	-9.53192
▁ruin	-9.53311
▁escape	-9.53329
tte	-9.53369
▁decide	-9.53387
▁waste	-9.53396
▁marty	-9.53425
▁feelings	-9.53474
▁helen	-9.535
▁champ	-9.5358
▁spare	-9.53582
▁local	-9.53606
▁applause	-9.53625
▁became	-9.53625
▁possibly	-9.53625
▁rumbling	-9.53625
▁stauffenberg	-9.53625
▁travis	-9.53625
▁thief	-9.53625
▁medicine	-9.53626
▁thornton	-9.53626
▁innocent	-9.53626
▁borg	-9.53627
▁cowboy	-9.53628
▁involved	-9.53636
▁danger	-9.53638
▁growling	-9.53643
▁zone	-9.53657
▁common	-9.53659
▁logan	-9.53662
▁storm	-9.53673
▁famous	-9.53679
▁garden	-9.53737
▁toi	-9.53751
▁richie	-9.5383
▁butter	-9.53853
▁honestly	-9.53883
▁martin	-9.5392
▁planet	-9.53974
▁helping	-9.54144
▁sa	-9.54174
▁moms	-9.54247
▁surprised	-9.54334
▁lower	-9.54421
▁phones	-9.54574
▁lied	-9.54599
▁deserve	-9.54791
▁boxing	-9.54847
▁acting	-9.54847
▁problems	-9.54892
▁board	-9.54929
▁price	-9.55064
▁awful	-9.55238
▁doctors	-9.55268
▁writer	-9.55274
▁wire	-9.55301
▁sending	-9.55343
ish	-9.5597
▁program	-9.56025
head	-9.56253
▁sat	-9.56293
que	-9.56312
▁piss	-9.56413
▁calls	-9.56548
homme	-9.56634
▁gr	-9.56844
▁disappear	-9.56866
▁aim	-9.56946
▁cart	-9.57066
▁anchor	-9.57197
▁iittie	-9.57197
▁somehow	-9.57197
▁valentine	-9.57197
▁article	-9.57197
▁assistant	-9.572
▁bounce	-9.57201
▁packard	-9.57203
▁plenty	-9.57208
▁cooper	-9.57209
▁onto	-9.5722
▁fruit	-9.5722
▁doc	-9.57222
▁wailing	-9.57222
▁wet	-9.57225
▁bottom	-9.57228
▁castle	-9.57229
▁secretary	-9.57234
▁style	-9.57285
▁deck	-9.57296
▁shower	-9.57305
▁softly	-9.57329
▁aids	-9.57375
▁bout	-9.5742
▁letting	-9.57452
▁billy	-9.57572
rs	-9.57633
▁lack	-9.57685
▁barn	-9.57769
▁dressed	-9.57779
▁bringing	-9.57788
▁freak	-9.57836
da	-9.57936
li	-9.58113
▁pr	-9.58129
▁passed	-9.58215
▁bow	-9.58243
▁so	-9.58451
▁talkin	-9.58583
off	-9.58634
ting	-9.5871
▁cheers	-9.58768
▁students	-9.58826
▁noise	-9.58834
▁circle	-9.58841
▁exit	-9.5885
▁nightmare	-9.58852
▁angel	-9.58864
▁couldve	-9.59189
go	-9.59355
line	-9.59357
▁rat	-9.59474
▁qu	-9.59576
▁speaks	-9.59759
clear	-9.59849
ton	-9.59999
▁lion	-9.60078
▁bother	-9.60437
▁discuss	-9.60525
▁hook	-9.60553
▁cab	-9.60779
▁obvious	-9.60782
▁weak	-9.60863
▁accept	-9.6087
▁speech	-9.60879
ted	-9.60887
▁rooms	-9.60897
▁criminal	-9.609
▁evidence	-9.609
▁insane	-9.609
▁otherwise	-9.609
▁byebye	-9.609
▁central	-9.609
▁research	-9.609
▁hadnt	-9.60901
▁ocean	-9.60901
▁rush	-9.60901
▁current	-9.60902
▁whoever	-9.60902
▁kenton	-9.60902
▁wilson	-9.60904
▁marvin	-9.60906
▁comin	-9.60907
▁reserve	-9.60911
▁mirror	-9.60912
▁written	-9.60912
▁giant	-9.60914
▁liar	-9.60917
▁heavily	-9.60923
▁dna	-9.60929
▁eh	-9.60968
▁suddenly	-9.61002
▁professional	-9.61007
▁dirty	-9.61065
▁comme	-9.6114
▁hall	-9.6116
▁created	-9.61193
▁pissed	-9.61236
▁metal	-9.61265
▁lungs	-9.61312
ated	-9.61394
▁closes	-9.6172
▁note	-9.61726
▁bone	-9.61846
▁harder	-9.62107
▁signed	-9.6223
▁dry	-9.62243
▁robert	-9.62599
▁bullet	-9.6268
▁station	-9.62689
▁sight	-9.62728
▁closed	-9.62862
▁following	-9.63128
▁focker	-9.6367
▁showing	-9.63714
am	-9.63768
▁smells	-9.6392
son	-9.64144
▁ab	-9.64183
ier	-9.64227
▁headed	-9.64239
▁lines	-9.64283
▁player	-9.64341
ais	-9.64468
ance	-9.64496
▁tim	-9.64501
▁chose	-9.6468
▁accord	-9.64721
▁percent	-9.64738
▁berlin	-9.64746
▁brilliant	-9.64746
▁footsteps	-9.64746
▁kaiju	-9.64746
▁marriage	-9.64746
▁saturday	-9.64746
▁sergeant	-9.64746
▁skank	-9.64746
▁split	-9.64746
▁threat	-9.64746
▁whimpering	-9.64746
▁xerxes	-9.64746
▁ugly	-9.64747
▁glory	-9.64748
▁drift	-9.64748
▁unbelievable	-9.64752
▁lori	-9.64752
▁recognize	-9.64752
▁fancy	-9.64753
▁aware	-9.64754
▁saint	-9.64755
▁thirty	-9.64757
▁opportunity	-9.64757
▁schedule	-9.64759
▁grover	-9.64761
▁rare	-9.64775
▁automated	-9.6478
▁choose	-9.64786
▁immediately	-9.64796
▁champion	-9.64796
▁sword	-9.648
▁barely	-9.648
▁package	-9.64836
op	-9.64864
▁honking	-9.64883
▁grid	-9.64935
▁signal	-9.65034
▁cage	-9.65069
▁prepared	-9.65074
ai	-9.65195
▁crashing	-9.65362
ma	-9.65423
▁bigge	-9.65441
▁nobodys	-9.65559
▁training	-9.65688
▁ate	-9.65826
ee	-9.65912
▁pieces	-9.65978
▁prom	-9.66205
▁lots	-9.66246
▁followed	-9.66387
▁fan	-9.66497
▁nargle	-9.66607
▁nigger	-9.66607
▁pig	-9.66626
▁chair	-9.66643
▁location	-9.66714
▁jaeger	-9.66738
▁spirit	-9.66748
ga	-9.6696
ick	-9.67477
▁score	-9.67574
▁crack	-9.67688
the	-9.67851
▁everybodys	-9.67972
moi	-9.68018
▁camp	-9.68088
▁climb	-9.68284
▁settle	-9.6845
▁suppose	-9.68458
▁mention	-9.68472
▁post	-9.68512
▁dirt	-9.68568
▁iron	-9.68598
▁blog	-9.68614
▁fait	-9.68701
▁lovin	-9.68718
▁ambrosia	-9.68746
▁bread	-9.68746
▁cotton	-9.68746
▁interview	-9.68746
▁jersey	-9.68746
▁judgment	-9.68746
▁noisy	-9.68746
▁olivia	-9.68746
▁sarah	-9.68746
▁senior	-9.68746
▁stomach	-9.68746
▁whether	-9.68746
▁gwen	-9.68747
▁subject	-9.68747
▁insurance	-9.68747
▁journey	-9.68747
▁stood	-9.68747
▁often	-9.68747
▁slept	-9.68748
▁finnick	-9.68748
▁desert	-9.68748
▁studio	-9.68748
▁impressive	-9.68749
▁british	-9.68749
▁basically	-9.68751
▁sunday	-9.68754
▁owner	-9.68755
▁crown	-9.6876
avec	-9.68761
▁farm	-9.68769
▁prefer	-9.68775
▁motor	-9.68785
▁gentle	-9.68822
▁mu	-9.68832
▁manager	-9.68861
▁dc	-9.68873
▁changing	-9.6889
▁coat	-9.68899
▁jr	-9.68917
▁vais	-9.68918
▁buzzing	-9.68941
▁former	-9.68951
ow	-9.69034
io	-9.69034
▁interested	-9.69036
▁mayor	-9.6919
one	-9.69206
▁mustve	-9.69523
ey	-9.69774
▁el	-9.69813
▁hardly	-9.69862
▁goodness	-9.69908
ian	-9.69927
▁ordered	-9.70023
▁keeping	-9.70164
▁all	-9.70184
▁shout	-9.705
▁sub	-9.70631
les	-9.70721
sh	-9.70917
▁zeta	-9.70919
▁falling	-9.71005
▁systems	-9.71094
▁pu	-9.71152
ons	-9.71246
▁las	-9.71588
▁sleeping	-9.71857
▁phil	-9.72086
▁mothers	-9.72267
▁pla	-9.72403
▁fr	-9.72499
▁mimi	-9.72774
▁sand	-9.72791
▁whip	-9.72895
▁viola	-9.72908
▁clamoring	-9.72913
▁david	-9.72913
▁eisenheim	-9.72913
▁frazier	-9.72913
▁friday	-9.72913
▁garbage	-9.72913
▁heartbeat	-9.72913
▁henry	-9.72913
▁indeed	-9.72913
▁language	-9.72913
▁robbie	-9.72913
▁jealous	-9.72913
▁afford	-9.72913
▁ryan	-9.72913
▁whenever	-9.72914
▁bust	-9.72916
▁trade	-9.72917
▁inspector	-9.72919
▁wherever	-9.7292
▁skylar	-9.7292
▁email	-9.72922
▁miller	-9.72926
▁complicated	-9.72934
▁disease	-9.72941
▁theory	-9.72944
▁justice	-9.72949
▁laid	-9.7295
▁humming	-9.72963
▁bake	-9.72964
▁route	-9.72976
▁bright	-9.72979
▁jude	-9.72983
▁wide	-9.7301
▁witches	-9.73052
▁grown	-9.73054
▁clicking	-9.7306
▁approaching	-9.73195
▁arr	-9.73236
▁object	-9.73359
▁arrested	-9.73635
▁studying	-9.73776
dden	-9.73844
▁growing	-9.73852
▁ln	-9.73964
▁di	-9.73996
▁unit	-9.74032
▁hurts	-9.74123
em	-9.74424
▁tip	-9.74903
▁someones	-9.74978
▁duck	-9.74981
▁throwing	-9.75171
▁explosive	-9.75194
▁bike	-9.75202
▁generation	-9.75203
▁nurse	-9.75299
▁student	-9.75308
▁finger	-9.75313
▁intern	-9.75328
▁grade	-9.75361
▁players	-9.75438
▁leader	-9.75542
▁slip	-9.75563
time	-9.75772
ke	-9.75832
ive	-9.76041
▁abe	-9.76371
ez	-9.76393
▁consider	-9.76441
▁tout	-9.76532
▁search	-9.76809
▁switch	-9.7686
▁attempt	-9.76884
▁assume	-9.76913
▁base	-9.76933
▁secure	-9.76943
ha	-9.77097
▁create	-9.77128
▁sudden	-9.77145
▁lui	-9.77158
▁bo	-9.77205
▁prince	-9.77213
▁handsome	-9.77239
▁defense	-9.77261
▁department	-9.77261
▁elevator	-9.77261
▁familiar	-9.77261
▁families	-9.77261
▁muffled	-9.77261
▁mystery	-9.77261
▁peanut	-9.77261
▁perseus	-9.77261
▁sheriff	-9.77261
▁thomas	-9.77261
▁cannon	-9.77261
▁moaning	-9.77261
▁channel	-9.77261
▁negative	-9.77261
▁theme	-9.77261
▁spell	-9.77262
▁iove	-9.77262
▁amount	-9.77262
▁sydney	-9.77266
▁marius	-9.77268
▁airport	-9.77272
▁began	-9.77274
▁knife	-9.77274
▁church	-9.77275
▁bravo	-9.77275
▁talent	-9.77285
▁solid	-9.77298
▁desk	-9.77301
▁tiny	-9.77315
▁boom	-9.77365
▁usually	-9.7737
▁cop	-9.77378
▁syd	-9.77381
land	-9.77419
▁whooping	-9.77433
ff	-9.77453
▁deeply	-9.77637
▁carter	-9.77701
▁murderer	-9.77767
ized	-9.77824
do	-9.78088
▁gal	-9.78159
▁commander	-9.78175
▁messed	-9.7834
ir	-9.7837
▁knocking	-9.78576
ée	-9.78615
▁kicking	-9.78617
▁sc	-9.78665
▁smoke	-9.78696
▁ana	-9.78716
uppper	-9.78722
▁seemed	-9.78746
▁remain	-9.78942
▁barb	-9.78972
▁interest	-9.79019
▁cai	-9.79204
▁cheer	-9.79434
▁older	-9.79473
▁scare	-9.79599
▁quarter	-9.79664
▁basement	-9.79682
▁carnie	-9.79701
▁shield	-9.79737
▁doi	-9.79744
▁fence	-9.79763
▁client	-9.79788
▁winner	-9.79808
▁belong	-9.79811
▁sport	-9.79843
▁plate	-9.79882
▁animals	-9.79985
▁tess	-9.80401
and	-9.80465
▁warn	-9.80907
▁borrow	-9.80986
▁echo	-9.81291
▁be	-9.81372
▁mis	-9.81493
▁direct	-9.81568
▁adams	-9.81624
bo	-9.81763
▁collect	-9.81779
▁trap	-9.81795
▁aaron	-9.81806
▁california	-9.81806
▁capitol	-9.81806
▁haymitch	-9.81806
▁international	-9.81806
▁professor	-9.81806
▁shift	-9.81806
▁merde	-9.81807
▁gym	-9.81807
▁cotys	-9.81807
▁herr	-9.81807
▁aye	-9.81808
▁loomis	-9.81808
▁silver	-9.81809
▁augie	-9.81809
▁clue	-9.81809
▁bail	-9.81811
▁dramatic	-9.81811
▁massage	-9.81812
▁horrible	-9.81812
▁sauce	-9.81813
▁earlier	-9.8183
▁deborah	-9.81838
▁santa	-9.81841
▁understood	-9.81845
▁deux	-9.81848
▁league	-9.81854
▁unfortunately	-9.81876
▁protection	-9.81883
▁amy	-9.81892
▁mole	-9.81948
▁grave	-9.82024
▁arrived	-9.82081
▁bond	-9.8214
▁screwed	-9.82237
▁pee	-9.82251
over	-9.82262
▁echoing	-9.82263
▁mary	-9.82316
▁opening	-9.82325
▁sin	-9.82473
▁clicks	-9.825
▁perfectly	-9.82608
▁lately	-9.82618
▁fixed	-9.82707
▁higher	-9.82733
▁sooner	-9.82811
▁blows	-9.82833
▁backup	-9.82932
▁towards	-9.83249
▁dinosaurs	-9.83342
▁somebodys	-9.83621
▁apes	-9.83664
▁stayed	-9.83753
▁deb	-9.83818
▁units	-9.83938
▁parts	-9.84038
▁beating	-9.84069
▁issue	-9.84249
▁angels	-9.84285
▁ear	-9.84397
ber	-9.84409
▁pizza	-9.8443
by	-9.84443
▁duke	-9.84446
▁lover	-9.84486
▁whistle	-9.84519
▁comment	-9.84549
▁nah	-9.8455
▁shoulder	-9.8457
▁shark	-9.84587
▁detail	-9.84606
▁stone	-9.84642
▁humans	-9.84666
▁drone	-9.84683
▁sp	-9.84694
▁stranger	-9.84739
▁swing	-9.84806
men	-9.84832
▁leaves	-9.84876
▁patients	-9.84947
▁fella	-9.8498
ure	-9.85002
▁von	-9.8515
ul	-9.85374
ble	-9.8549
▁watched	-9.8566
▁crush	-9.85685
de	-9.85739
▁cr	-9.85757
▁fail	-9.85757
▁load	-9.85971
▁suggest	-9.86058
▁chi	-9.8616
▁release	-9.86262
▁sneak	-9.86533
▁iive	-9.86545
▁usual	-9.86559
▁toilet	-9.86566
▁buffalo	-9.86568
▁burlington	-9.86568
▁emmett	-9.86568
▁eventually	-9.86568
▁gipsy	-9.86568
▁ignore	-9.86568
▁memories	-9.86568
▁pilgrim	-9.86568
▁precious	-9.86568
▁sensitive	-9.86568
▁valjean	-9.86568
▁champagne	-9.86568
▁martel	-9.86569
▁jerk	-9.86569
▁romantic	-9.86569
▁flesh	-9.86569
▁blew	-9.86571
▁susan	-9.86571
▁alert	-9.86573
▁regular	-9.86573
▁anniversary	-9.86573
▁affair	-9.86575
▁johanna	-9.86589
▁iot	-9.86592
▁panic	-9.86597
▁vision	-9.86597
▁buried	-9.86599
▁heather	-9.86602
▁estel	-9.86621
▁golden	-9.86644
▁secrets	-9.86655
▁jeez	-9.86655
▁powerful	-9.86657
▁mood	-9.8667
▁wheeler	-9.8673
▁hired	-9.86734
▁joy	-9.86734
lf	-9.86779
▁invited	-9.86785
▁lab	-9.86795
▁jacket	-9.86812
▁shape	-9.8682
▁movement	-9.86846
▁link	-9.86859
▁bath	-9.86862
▁bags	-9.86862
nd	-9.86878
▁naked	-9.86894
▁fifty	-9.86911
▁hans	-9.86989
▁allowed	-9.87066
▁ceo	-9.87094
▁ai	-9.87156
▁filled	-9.87183
tic	-9.87228
▁realized	-9.87295
▁yöure	-9.87338
▁challenge	-9.87344
▁tone	-9.87426
▁answers	-9.87441
▁expecting	-9.87609
ti	-9.87709
▁jo	-9.87827
▁painted	-9.87901
▁ahh	-9.8798
mo	-9.88366
▁falls	-9.884
▁vo	-9.88473
▁cares	-9.88506
ec	-9.88665
ine	-9.8871
▁scar	-9.88794
▁pulling	-9.88832
▁shouts	-9.88883
▁market	-9.89045
▁chain	-9.89143
▁hop	-9.89329
▁jewel	-9.89482
▁pearl	-9.89499
▁page	-9.89502
▁meal	-9.89528
▁bowl	-9.89554
▁ape	-9.8971
▁guests	-9.89868
fully	-9.89967
▁march	-9.90294
▁photos	-9.90359
▁revolution	-9.90419
▁checking	-9.90748
▁sale	-9.90751
work	-9.90902
▁ni	-9.9113
▁connect	-9.91219
▁mix	-9.9126
▁notice	-9.91268
▁junk	-9.91321
▁prepare	-9.91374
▁wrap	-9.91387
▁physical	-9.91429
▁dive	-9.9151
▁confused	-9.91568
▁dylan	-9.91568
▁guitar	-9.91568
▁michael	-9.91568
▁piano	-9.91568
▁potential	-9.91568
▁project	-9.91568
▁rhesus	-9.91568
▁shouid	-9.91568
▁surrender	-9.91568
▁valkyrie	-9.91568
▁freedom	-9.91568
▁fought	-9.91569
▁tanya	-9.91569
▁dallas	-9.91569
▁insist	-9.91569
▁permission	-9.91569
▁trash	-9.91569
▁foreign	-9.91569
▁shopping	-9.91569
▁pardon	-9.9157
▁cliff	-9.91572
▁remote	-9.91572
▁howard	-9.91572
▁allez	-9.91576
▁property	-9.91576
▁monique	-9.91577
▁milk	-9.91578
▁connie	-9.91582
▁energy	-9.91582
▁section	-9.91582
▁science	-9.91584
▁heck	-9.91586
▁internet	-9.91587
▁salem	-9.916
▁duty	-9.91601
▁vika	-9.91606
▁whyd	-9.91608
▁delta	-9.91611
▁aunt	-9.91613
▁naughton	-9.91621
▁trial	-9.91622
▁committed	-9.91642
▁spit	-9.91645
▁guilty	-9.91646
ck	-9.91672
▁madame	-9.91689
▁payment	-9.91705
▁cast	-9.9171
▁stairs	-9.91724
▁troops	-9.91724
▁national	-9.91738
▁corn	-9.91741
▁hm	-9.91765
▁brad	-9.91782
▁zero	-9.91783
▁sandy	-9.91785
▁runs	-9.91814
▁zoo	-9.91821
▁guards	-9.91885
▁nate	-9.91902
▁kisses	-9.91912
▁manage	-9.91916
▁victory	-9.9192
▁searching	-9.92096
▁bobbi	-9.92136
▁murdered	-9.92144
▁stronger	-9.922
▁nights	-9.92322
▁tricks	-9.9261
▁louis	-9.92634
▁clearly	-9.927
▁li	-9.92725
ord	-9.92736
▁mas	-9.92762
▁lil	-9.92824
▁closet	-9.92871
▁tryin	-9.92879
▁career	-9.93026
▁tickets	-9.9306
▁ropes	-9.93163
▁prim	-9.9322
▁tro	-9.93245
▁giris	-9.93269
▁thinkin	-9.9328
▁lessons	-9.93291
tes	-9.93366
▁flow	-9.93384
▁dit	-9.93417
▁passing	-9.93444
▁iii	-9.93727
▁painter	-9.93729
▁block	-9.93958
▁ils	-9.9401
▁buying	-9.94089
tra	-9.9421
▁knowing	-9.94442
▁facts	-9.94463
▁jet	-9.9449
ped	-9.94565
▁beam	-9.94703
▁relationship	-9.94762
▁iet	-9.94866
▁egg	-9.94882
▁yards	-9.94938
▁bend	-9.95018
▁chuckle	-9.95025
▁rid	-9.95107
▁finding	-9.95112
▁beg	-9.95115
ence	-9.95137
▁loser	-9.95387
▁surely	-9.95518
▁langs	-9.95593
▁merci	-9.95731
▁he	-9.95845
▁partners	-9.96103
▁moves	-9.96234
ka	-9.96241
▁tick	-9.96248
om	-9.96272
▁hill	-9.96373
▁pretend	-9.96375
▁feei	-9.96431
▁confirm	-9.96477
▁pot	-9.96584
▁spin	-9.96764
▁natural	-9.96783
▁mmhm	-9.96806
▁rob	-9.96807
▁mid	-9.96821
▁birth	-9.96829
▁ashamed	-9.96832
▁chicago	-9.96832
▁fridge	-9.96832
▁hastings	-9.96832
▁pablo	-9.96832
▁peopie	-9.96832
▁positive	-9.96832
▁ramses	-9.96832
▁responsibility	-9.96832
▁revenge	-9.96832
▁threw	-9.96832
▁thumb	-9.96832
▁trigger	-9.96832
▁universe	-9.96832
▁whistling	-9.96832
▁bodies	-9.96832
▁heip	-9.96832
▁theater	-9.96832
▁joking	-9.96832
▁osborn	-9.96832
▁rathbone	-9.96832
▁civilization	-9.96832
▁council	-9.96835
▁particular	-9.96836
▁racing	-9.96836
▁quarterback	-9.96836
▁monday	-9.96838
▁franklin	-9.9684
▁gunshot	-9.9684
▁childhood	-9.96845
▁crackling	-9.96846
▁easier	-9.96847
▁motel	-9.96848
▁license	-9.96848
▁bored	-9.96851
▁several	-9.96853
▁codes	-9.96861
▁aah	-9.96872
▁dina	-9.96878
▁propose	-9.96878
▁johnson	-9.96879
▁evan	-9.96881
▁capable	-9.96889
▁whore	-9.96892
▁setting	-9.96892
▁pure	-9.96892
▁ranger	-9.969
▁pi	-9.96934
▁willing	-9.9698
▁firm	-9.96983
▁under	-9.96984
▁most	-9.9699
▁simon	-9.97003
▁yearold	-9.97023
▁calv	-9.97052
un	-9.97053
▁jew	-9.97065
▁eaten	-9.9707
▁laws	-9.97097
▁rage	-9.97112
▁matters	-9.97114
▁hearing	-9.97141
▁bl	-9.97165
▁lou	-9.97228
▁tony	-9.97365
▁jur	-9.9737
▁managed	-9.974
ette	-9.97405
▁rate	-9.97411
▁treated	-9.97478
▁fred	-9.97491
▁hef	-9.97541
▁tet	-9.97562
▁cents	-9.97645
▁expected	-9.97652
▁agreed	-9.97688
▁reached	-9.97723
▁wins	-9.97755
▁roars	-9.97757
▁younger	-9.97758
▁loss	-9.97876
▁burning	-9.98152
▁millions	-9.98574
▁mc	-9.986
▁cleaning	-9.98661
ite	-9.98796
▁ideas	-9.98864
▁brains	-9.98896
▁up	-9.98917
▁learning	-9.9897
▁ra	-9.99341
▁wh	-9.99593
ade	-9.99651
▁ways	-9.99879
▁shooting	-9.99887
▁gives	-9.9991
▁poop	-10.0006
▁gasp	-10.0019
▁tattoo	-10.0025
▁jen	-10.0027
▁eagle	-10.0029
▁chick	-10.0039
▁shadow	-10.004
▁pilot	-10.0042
▁prime	-10.006
ving	-10.0076
ney	-10.0078
▁weight	-10.0078
▁mate	-10.0083
▁sweat	-10.0122
▁hunt	-10.0123
▁fe	-10.0128
▁gather	-10.0153
▁steps	-10.0155
ler	-10.0157
▁design	-10.0159
▁dial	-10.0202
▁success	-10.0202
▁divorce	-10.0206
▁defeat	-10.0207
▁describe	-10.0207
▁damage	-10.0208
▁off	-10.021
▁harm	-10.0212
▁coast	-10.0222
▁javi	-10.0225
▁sharp	-10.023
▁spoke	-10.0232
▁virgin	-10.0236
▁alex	-10.0236
▁todd	-10.0238
▁transfer	-10.0239
▁counsel	-10.0239
▁amelia	-10.0239
▁becca	-10.0239
▁bohme	-10.0239
▁downstairs	-10.0239
▁faulkner	-10.0239
▁femme	-10.0239
▁fromm	-10.0239
▁giggling	-10.0239
▁jumanji	-10.0239
▁jungle	-10.0239
▁necessary	-10.0239
▁opinion	-10.0239
▁paradise	-10.0239
▁texas	-10.0239
▁traffic	-10.0239
▁university	-10.0239
▁stretch	-10.0239
▁harvard	-10.0239
▁pym	-10.0239
▁biodome	-10.0239
▁kraken	-10.0239
▁literally	-10.0239
▁kingdom	-10.0239
▁outfit	-10.0239
▁lyons	-10.0239
▁junior	-10.0239
▁dropping	-10.0239
▁kong	-10.0239
▁abby	-10.0239
▁prick	-10.024
▁cétait	-10.024
▁concentrate	-10.024
▁rude	-10.024
▁aboard	-10.024
▁advantage	-10.024
▁environment	-10.024
▁claim	-10.0241
▁decent	-10.0242
▁cafe	-10.0242
▁connection	-10.0242
▁dawn	-10.0243
▁cathy	-10.0243
▁mash	-10.0243
▁soup	-10.0243
▁woke	-10.0244
▁france	-10.0244
▁cameras	-10.0245
▁spoken	-10.0246
▁peut	-10.0246
▁silly	-10.0248
▁pair	-10.0249
▁humanity	-10.025
▁retired	-10.026
▁avis	-10.0275
▁quietly	-10.0275
▁coughs	-10.0279
der	-10.0284
▁disappeared	-10.029
▁foul	-10.0296
▁treasure	-10.0297
▁pete	-10.0299
he	-10.0307
▁boobs	-10.0314
▁fate	-10.032
▁raised	-10.0324
ac	-10.0327
▁watchers	-10.0331
▁survived	-10.0342
▁everyones	-10.0356
▁kicked	-10.0363
▁ants	-10.037
▁announc	-10.0376
▁staring	-10.0394
▁blowing	-10.0403
▁flowers	-10.0409
▁doll	-10.0413
▁horses	-10.0427
rai	-10.043
▁reai	-10.0432
▁jam	-10.0435
▁recording	-10.0448
▁touched	-10.0454
▁es	-10.0456
▁hip	-10.0458
per	-10.0459
kin	-10.0472
▁repair	-10.0492
▁cole	-10.0498
▁kissing	-10.0506
▁scream	-10.0552
▁wires	-10.0557
ue	-10.0578
▁tears	-10.0581
▁bu	-10.0584
▁monkey	-10.0618
▁pocket	-10.0619
ism	-10.0625
▁giri	-10.0626
▁dinosaur	-10.063
▁cookie	-10.0632
▁sometime	-10.0634
▁fighter	-10.0641
con	-10.0645
▁lesson	-10.0652
▁prayer	-10.0666
▁large	-10.0684
▁singer	-10.0689
▁opened	-10.0702
▁tas	-10.0711
▁boot	-10.0712
▁beck	-10.0723
▁ver	-10.0734
▁classic	-10.0742
▁dump	-10.0742
house	-10.0764
ns	-10.0765
▁on	-10.0769
skull	-10.077
wood	-10.0775
▁text	-10.0776
▁suffer	-10.078
▁flash	-10.0785
▁process	-10.0792
lly	-10.0795
▁tr	-10.0797
▁corps	-10.0801
▁fort	-10.0812
▁exact	-10.0815
▁vote	-10.0819
▁sandwich	-10.082
au	-10.082
▁bush	-10.0823
▁resist	-10.0826
▁thud	-10.0827
▁aurora	-10.0827
▁behavior	-10.0827
▁besoin	-10.0827
▁dennit	-10.0827
▁dodge	-10.0827
▁enemies	-10.0827
▁example	-10.0827
▁gottlieb	-10.0827
▁hemingway	-10.0827
▁javert	-10.0827
▁katherine	-10.0827
▁lincoln	-10.0827
▁magazine	-10.0827
▁obannon	-10.0827
▁olbricht	-10.0827
▁someday	-10.0827
▁truman	-10.0827
▁wharf	-10.0827
▁davis	-10.0827
▁geneva	-10.0827
▁technology	-10.0827
▁blast	-10.0827
▁everdeen	-10.0827
▁drove	-10.0827
▁mcara	-10.0827
▁tracy	-10.0827
▁museum	-10.0827
▁expensive	-10.0827
▁bosley	-10.0827
▁simply	-10.0827
▁novel	-10.0827
▁homosexual	-10.0827
▁winning	-10.0827
▁oath	-10.0827
▁surgery	-10.0827
▁palace	-10.0827
▁illegal	-10.0827
▁pathetic	-10.0827
▁source	-10.0827
▁rico	-10.0827
▁firing	-10.0827
▁swallow	-10.0827
▁slice	-10.0827
▁influence	-10.0827
▁baseball	-10.0827
▁chaos	-10.0828
▁kiah	-10.0828
▁waterloo	-10.0828
▁reward	-10.0828
▁minister	-10.0829
▁mental	-10.0829
▁allen	-10.083
▁punk	-10.083
▁forest	-10.083
▁sack	-10.083
▁rosa	-10.083
▁adventure	-10.083
▁gentleman	-10.0831
▁recently	-10.0831
▁murmuring	-10.0831
▁taxi	-10.0832
▁desire	-10.0833
▁ellen	-10.0833
▁darkness	-10.0834
▁midas	-10.0834
▁jazz	-10.0834
▁iz	-10.0835
▁winter	-10.0836
▁dave	-10.0837
▁bury	-10.0838
▁germany	-10.0841
▁healthy	-10.0844
▁chad	-10.0845
▁carrie	-10.0849
▁billion	-10.085
▁debt	-10.0852
▁nancy	-10.0855
▁screeching	-10.0856
▁parties	-10.0857
▁meaning	-10.0864
▁daughters	-10.087
▁personally	-10.0877
▁pretending	-10.0878
▁riding	-10.088
▁neur	-10.0892
▁guns	-10.0892
▁mido	-10.0896
▁freaking	-10.0903
▁skills	-10.0906
▁flag	-10.0925
▁lips	-10.0932
▁squeeze	-10.0948
▁lookin	-10.0953
▁maria	-10.0963
▁port	-10.0965
▁mal	-10.0965
▁thousands	-10.0976
▁stealing	-10.0977
▁matt	-10.0986
▁til	-10.0989
▁chips	-10.0992
▁philip	-10.1003
▁event	-10.1022
oo	-10.1055
tion	-10.1069
lie	-10.1084
▁sports	-10.1091
ties	-10.1092
▁trees	-10.1096
▁ss	-10.1098
▁fi	-10.1103
▁seek	-10.1109
▁pie	-10.1166
▁picking	-10.1197
▁pound	-10.1214
ol	-10.1217
▁fo	-10.1217
▁wheel	-10.1229
▁condition	-10.1238
▁funeral	-10.1238
ver	-10.1242
▁cherevin	-10.1247
▁creature	-10.1247
▁roommate	-10.1248
▁season	-10.1255
▁rope	-10.1255
▁toward	-10.1255
looking	-10.1286
▁sans	-10.1288
▁announce	-10.1302
▁rev	-10.1305
▁affect	-10.1326
▁sw	-10.1337
che	-10.1356
nic	-10.1357
▁gum	-10.1376
▁pe	-10.1378
back	-10.1385
though	-10.14
▁defend	-10.14
▁taik	-10.1401
▁interrupt	-10.1405
▁fac	-10.1409
ca	-10.141
▁faces	-10.1415
▁wipe	-10.1417
▁shock	-10.1419
▁remove	-10.1421
▁worlds	-10.1423
▁refuse	-10.1429
▁woods	-10.1431
▁health	-10.1436
▁global	-10.1438
▁changes	-10.144
▁tornado	-10.1444
▁byrnes	-10.1447
▁lean	-10.1449
▁ka	-10.1451
▁trauma	-10.1451
▁visual	-10.1451
▁pipe	-10.1451
▁beneath	-10.1452
▁chirp	-10.1452
▁competition	-10.1452
▁dessert	-10.1452
▁equipment	-10.1452
▁fifteen	-10.1452
▁mexico	-10.1452
▁opposite	-10.1452
▁peyton	-10.1452
▁profile	-10.1452
▁scratch	-10.1452
▁signature	-10.1452
▁staff	-10.1452
▁stiii	-10.1452
▁thrace	-10.1452
▁proceed	-10.1452
▁steady	-10.1452
▁thorin	-10.1452
▁accent	-10.1452
▁turkey	-10.1452
▁downtown	-10.1452
▁including	-10.1452
▁pump	-10.1452
▁izzi	-10.1452
▁oiiver	-10.1452
▁darrow	-10.1452
▁trace	-10.1452
▁denham	-10.1452
▁throne	-10.1452
▁growls	-10.1452
▁lightning	-10.1452
▁pbs	-10.1452
▁garage	-10.1452
▁kenny	-10.1452
▁joanne	-10.1452
▁shaking	-10.1452
▁performance	-10.1452
▁boring	-10.1453
▁mansfield	-10.1453
▁stopping	-10.1453
▁keri	-10.1453
▁shane	-10.1453
▁wiii	-10.1453
▁trunk	-10.1453
▁root	-10.1453
▁phase	-10.1453
▁anger	-10.1453
▁border	-10.1453
▁fever	-10.1454
▁grandma	-10.1454
▁chef	-10.1454
▁reaction	-10.1454
▁species	-10.1454
▁sequence	-10.1454
▁piease	-10.1454
▁bedroom	-10.1454
▁horsemen	-10.1454
▁alley	-10.1454
▁fuel	-10.1455
▁hades	-10.1455
▁gross	-10.1456
▁nasty	-10.1457
▁programmed	-10.1457
▁cries	-10.1457
▁princess	-10.1458
▁freshman	-10.1458
▁shine	-10.1459
▁carlos	-10.1459
▁obsessed	-10.1459
▁officially	-10.146
▁dé	-10.1461
▁assure	-10.1462
▁coughing	-10.1463
▁concerned	-10.1464
▁grandfather	-10.1464
▁sang	-10.1466
▁dust	-10.1466
▁creaking	-10.1468
▁cheating	-10.1468
▁homework	-10.1469
▁sally	-10.1469
▁mountains	-10.147
▁engaged	-10.1476
▁spy	-10.1478
▁oni	-10.1479
▁discovered	-10.148
▁nein	-10.1482
▁reality	-10.1485
▁contract	-10.1486
▁designed	-10.1489
▁delivery	-10.149
▁wing	-10.1492
▁bat	-10.1495
▁hamptons	-10.1497
▁knowledge	-10.15
▁mentioned	-10.1503
▁ruined	-10.1512
▁slowly	-10.1524
▁parler	-10.1545
▁image	-10.1555
▁log	-10.1566
▁whoops	-10.1566
▁returned	-10.1572
▁jumped	-10.158
▁no	-10.1584
▁rolling	-10.1587
▁marrying	-10.1587
▁vas	-10.1598
fe	-10.1599
▁thin	-10.1601
▁pushing	-10.1639
▁shows	-10.1642
▁dreamed	-10.165
▁mistakes	-10.1652
▁wings	-10.1654
▁friendly	-10.1665
▁boots	-10.1667
▁speakers	-10.1667
▁z	-10.1673
ook	-10.1674
▁poe	-10.1677
▁wave	-10.1679
▁shadows	-10.1681
▁vu	-10.1686
ung	-10.1743
ley	-10.1762
▁can	-10.1778
▁walls	-10.1801
▁me	-10.1816
▁mouths	-10.1888
▁snake	-10.1905
▁stink	-10.1906
▁stock	-10.1906
ger	-10.1912
▁spider	-10.1914
▁member	-10.1917
▁treatment	-10.1917
▁fellow	-10.1921
▁ticket	-10.1923
▁ended	-10.1929
▁hitlers	-10.1934
▁mile	-10.1937
we	-10.194
▁dollar	-10.1943
▁mac	-10.1974
▁protest	-10.1977
▁stops	-10.1996
▁sons	-10.2011
▁lilli	-10.2019
▁tri	-10.2027
▁flower	-10.2032
▁approach	-10.2036
▁speaker	-10.2057
field	-10.206
ball	-10.2061
weight	-10.2066
bird	-10.2067
▁mag	-10.207
▁heal	-10.2077
▁pan	-10.2081
▁smooth	-10.2082
▁wreck	-10.2083
▁invite	-10.2088
▁coup	-10.2089
rac	-10.2089
▁greater	-10.2091
▁waiter	-10.2091
▁movies	-10.2098
▁madam	-10.2106
▁iris	-10.2107
▁russia	-10.2109
▁sparta	-10.2111
▁fashion	-10.2117
▁comfort	-10.2117
▁lemon	-10.2118
▁avenue	-10.2119
▁capture	-10.2119
▁creek	-10.2119
▁education	-10.2119
▁financial	-10.2119
▁girard	-10.2119
▁murphy	-10.2119
▁odonnell	-10.2119
▁operator	-10.2119
▁oscorp	-10.2119
▁phoenix	-10.2119
▁procedure	-10.2119
▁response	-10.2119
▁spoil	-10.2119
▁struck	-10.2119
▁sunshine	-10.2119
▁uniform	-10.2119
▁upbeat	-10.2119
▁violence	-10.2119
▁whimpers	-10.2119
▁oxygen	-10.2119
▁impact	-10.2119
▁lucille	-10.2119
▁telephone	-10.2119
▁actuaiiy	-10.2119
▁midnight	-10.2119
▁daccord	-10.2119
▁multipl	-10.2119
▁hollywood	-10.2119
▁twentyfive	-10.2119
▁random	-10.2119
▁slide	-10.2119
▁closing	-10.2119
▁acid	-10.2119
▁pourquoi	-10.2119
▁miami	-10.2119
▁marcus	-10.2119
▁editor	-10.2119
▁shining	-10.2119
▁steak	-10.2119
▁frozen	-10.2119
▁rien	-10.212
▁darren	-10.212
▁yeh	-10.212
▁flies	-10.212
▁yup	-10.212
▁cities	-10.212
▁hayes	-10.2121
▁mobile	-10.2121
▁mail	-10.2121
▁plant	-10.2121
▁thirsty	-10.2122
▁footage	-10.2122
▁fantasy	-10.2122
▁alien	-10.2122
▁complaint	-10.2122
▁oil	-10.2123
▁howling	-10.2124
▁social	-10.2124
▁review	-10.2124
▁dire	-10.2124
▁soir	-10.2125
▁personne	-10.2125
▁sexual	-10.2125
▁extremely	-10.2126
▁unique	-10.2126
▁direction	-10.2128
▁edge	-10.2129
▁benson	-10.2129
▁cassie	-10.213
▁goodnight	-10.2131
▁vow	-10.2131
▁cabin	-10.2131
▁commit	-10.2132
▁brand	-10.2133
▁uhoh	-10.2133
▁voir	-10.2134
▁highness	-10.2134
▁string	-10.2134
▁pier	-10.2135
▁disgusting	-10.2139
▁becky	-10.2139
▁rhodes	-10.214
▁frickin	-10.2142
▁century	-10.2151
▁maid	-10.2152
▁gear	-10.2162
ten	-10.2163
▁laser	-10.2165
yard	-10.2167
▁considered	-10.217
▁ticking	-10.2177
▁scotty	-10.2178
ize	-10.2182
▁plug	-10.2182
ni	-10.2194
▁jackie	-10.2201
▁not	-10.2202
▁forced	-10.2202
▁smaller	-10.2205
▁mum	-10.2205
▁belly	-10.2207
▁bills	-10.221
▁served	-10.2212
erto	-10.2234
▁papers	-10.2236
▁burned	-10.2238
▁cl	-10.2245
▁enjoyed	-10.2249
▁genetic	-10.225
od	-10.2252
▁knocked	-10.2265
▁chase	-10.2272
▁lu	-10.2294
▁selling	-10.2297
▁ge	-10.23
▁odds	-10.2307
▁fixing	-10.231
▁sh	-10.2319
min	-10.2322
▁messing	-10.2359
▁pilots	-10.2364
▁pm	-10.239
▁med	-10.2394
▁sharks	-10.2406
▁sum	-10.2409
▁belongs	-10.2421
▁plates	-10.2423
▁hearts	-10.2429
▁she	-10.2438
▁rhythmic	-10.2441
▁rap	-10.2458
ique	-10.2468
eur	-10.2482
hand	-10.2532
▁ohh	-10.2535
▁checked	-10.2542
▁bra	-10.2572
let	-10.2576
ake	-10.2579
▁sirens	-10.2593
▁that	-10.2595
▁marine	-10.2622
▁equal	-10.2623
▁option	-10.2624
bi	-10.2625
▁flame	-10.2632
▁drug	-10.2634
▁magician	-10.2637
▁legal	-10.2638
▁chip	-10.264
▁odd	-10.2642
▁assassin	-10.2655
▁rub	-10.2674
▁era	-10.269
▁sucks	-10.2697
▁ju	-10.2722
▁sup	-10.2752
▁tub	-10.2762
▁cock	-10.2769
▁screen	-10.2784
use	-10.2793
born	-10.2794
▁caused	-10.2796
▁volunteer	-10.2799
▁require	-10.2799
▁torture	-10.2799
▁brings	-10.28
▁frame	-10.28
▁initiate	-10.28
▁solve	-10.2803
side	-10.2807
▁steel	-10.2818
▁sl	-10.282
▁convict	-10.2821
▁absolute	-10.2823
▁proper	-10.2824
▁awake	-10.2826
▁cul	-10.2828
▁range	-10.2828
▁soph	-10.283
cha	-10.2831
▁poison	-10.2832
▁stub	-10.2832
▁africa	-10.2833
▁attitude	-10.2833
▁cristina	-10.2833
▁dignity	-10.2833
▁enterprise	-10.2833
▁intelligence	-10.2833
▁memoirs	-10.2833
▁minnesota	-10.2833
▁nolan	-10.2833
▁november	-10.2833
▁perimeter	-10.2833
▁quality	-10.2833
▁rescue	-10.2833
▁shrieks	-10.2833
▁smiling	-10.2833
▁sphere	-10.2833
▁stammers	-10.2833
▁terrific	-10.2833
▁ancient	-10.2833
▁bethany	-10.2833
▁float	-10.2833
▁nataiie	-10.2833
▁utter	-10.2833
▁warehouse	-10.2833
▁merry	-10.2833
▁neighborhood	-10.2833
▁value	-10.2833
▁maddy	-10.2833
▁cookbook	-10.2833
▁incoming	-10.2833
▁construction	-10.2833
▁claire	-10.2833
▁moral	-10.2833
▁swimming	-10.2834
▁bravestone	-10.2834
▁conference	-10.2834
▁trapped	-10.2834
▁limo	-10.2834
▁charity	-10.2834
▁sector	-10.2834
▁development	-10.2834
▁moonlight	-10.2834
▁whatre	-10.2834
▁balance	-10.2835
▁wast	-10.2836
▁title	-10.2836
▁toss	-10.2836
▁perry	-10.2837
▁nico	-10.2837
▁lsnt	-10.2837
▁spain	-10.2839
▁nous	-10.2839
▁loving	-10.2839
▁objection	-10.2839
▁grateful	-10.2839
▁responsible	-10.2839
▁proof	-10.284
▁belt	-10.284
▁teii	-10.2841
▁wise	-10.2842
▁bi	-10.2844
▁cutting	-10.2844
▁benny	-10.2845
▁straighten	-10.2845
▁quil	-10.2846
▁passion	-10.2847
▁squirly	-10.2847
▁ease	-10.2848
▁blues	-10.2848
▁stolen	-10.2848
▁fallen	-10.285
▁loyal	-10.2852
▁directly	-10.2852
▁abandoned	-10.2853
▁cap	-10.2855
▁fur	-10.2857
▁delay	-10.2859
▁barking	-10.2862
ren	-10.2871
▁briefing	-10.2876
▁para	-10.2876
▁failed	-10.2883
▁warned	-10.2886
▁ami	-10.2887
▁faut	-10.2887
▁arrive	-10.2891
▁bitches	-10.2893
▁thrown	-10.2894
▁auto	-10.2894
▁hunting	-10.29
▁blessed	-10.2905
▁hostages	-10.2915
▁songs	-10.2922
▁services	-10.293
▁dun	-10.294
▁kings	-10.2959
▁peoples	-10.296
▁spartans	-10.2961
▁traveling	-10.297
▁hairy	-10.2974
▁believed	-10.2976
▁exercise	-10.2978
▁carrying	-10.2979
▁feeding	-10.2985
▁forty	-10.2988
▁pitch	-10.299
▁muscles	-10.2991
▁zombies	-10.2991
▁cher	-10.2991
▁noon	-10.3006
▁magicians	-10.3037
▁drugs	-10.3041
▁fart	-10.3059
▁ke	-10.3059
▁teaching	-10.3059
▁regard	-10.3076
oh	-10.3083
▁booker	-10.3084
▁represent	-10.3089
▁ou	-10.3093
▁chicks	-10.3097
▁feelin	-10.3101
ial	-10.3107
▁connais	-10.3109
▁strangers	-10.3146
▁hung	-10.3146
▁rocks	-10.3172
▁fans	-10.3206
▁oops	-10.3209
▁tap	-10.3215
▁pea	-10.3216
itched	-10.3229
▁traitor	-10.3231
sma	-10.3232
▁touching	-10.3233
▁rats	-10.3235
▁peu	-10.3237
▁gi	-10.3239
ide	-10.3252
▁fires	-10.3264
▁badge	-10.3283
ose	-10.3292
▁bug	-10.3314
▁gates	-10.3331
ap	-10.3336
▁drinks	-10.3343
▁u	-10.3352
▁cup	-10.3362
▁grunt	-10.3364
ache	-10.3376
mp	-10.3381
▁experiment	-10.3382
▁mask	-10.3386
▁adult	-10.3392
▁labor	-10.3397
▁vehicle	-10.3402
▁attend	-10.3416
▁su	-10.3417
ations	-10.3419
▁lit	-10.346
ug	-10.3479
ang	-10.3484
▁drown	-10.352
▁pleased	-10.3524
down	-10.353
board	-10.3542
▁brief	-10.3545
▁monitor	-10.3549
▁discover	-10.355
▁caus	-10.3551
ig	-10.3552
▁receive	-10.3566
▁develop	-10.3566
▁perform	-10.3567
▁contain	-10.3567
▁curse	-10.3571
▁stress	-10.3573
▁cure	-10.3583
▁leak	-10.3584
▁german	-10.3587
▁unfortunate	-10.3589
▁desperate	-10.3589
▁actual	-10.3591
rie	-10.3595
▁def	-10.3595
▁emotional	-10.3595
tu	-10.3599
▁movin	-10.36
▁transport	-10.36
▁courage	-10.3602
▁alpha	-10.3602
▁beloved	-10.3602
▁bernström	-10.3602
▁cambridge	-10.3602
▁distort	-10.3602
▁donkey	-10.3602
▁duchess	-10.3602
▁fernando	-10.3602
▁flood	-10.3602
▁gauguin	-10.3602
▁gretel	-10.3602
▁infected	-10.3602
▁johanson	-10.3602
▁lieutenant	-10.3602
▁orange	-10.3602
▁santoro	-10.3602
▁shelter	-10.3602
▁society	-10.3602
▁subtitles	-10.3602
▁temperature	-10.3602
▁tractor	-10.3602
▁uncomfortable	-10.3602
▁analyst	-10.3602
▁emperor	-10.3602
▁martha	-10.3602
▁period	-10.3602
▁satisfied	-10.3602
▁threatened	-10.3602
▁typing	-10.3602
▁valens	-10.3602
▁worn	-10.3602
▁ferry	-10.3602
▁aiways	-10.3602
▁smash	-10.3602
▁powder	-10.3602
▁volume	-10.3602
▁facility	-10.3602
▁freezing	-10.3602
▁juniper	-10.3602
▁corwin	-10.3602
▁jones	-10.3602
▁lottery	-10.3602
▁polite	-10.3602
▁authority	-10.3602
▁bonnie	-10.3602
▁romance	-10.3602
▁dwarves	-10.3602
▁muttering	-10.3602
▁william	-10.3602
▁juice	-10.3602
▁herd	-10.3602
▁lucy	-10.3602
▁doris	-10.3603
▁silence	-10.3603
▁content	-10.3603
▁federal	-10.3603
▁effective	-10.3603
▁cattle	-10.3603
▁massive	-10.3603
▁vacation	-10.3603
▁plastic	-10.3603
▁japan	-10.3603
▁gang	-10.3603
▁loan	-10.3604
▁dope	-10.3604
▁pender	-10.3604
▁starving	-10.3604
▁distraction	-10.3604
▁arthur	-10.3605
▁episode	-10.3605
▁furniture	-10.3605
▁grandmother	-10.3605
▁reign	-10.3606
▁imagination	-10.3606
▁define	-10.3606
▁electricity	-10.3606
▁booth	-10.3606
▁inaudible	-10.3607
▁friendship	-10.3607
▁jim	-10.3607
▁motion	-10.3608
▁buzzes	-10.3608
▁sniffing	-10.3608
▁haul	-10.3608
▁haunted	-10.3609
▁headache	-10.3609
▁betty	-10.361
more	-10.361
ability	-10.3611
▁halfway	-10.3611
▁burglar	-10.3611
▁thick	-10.3612
▁thee	-10.3612
▁jelly	-10.3613
▁compromised	-10.3613
▁series	-10.3614
▁wa	-10.3615
▁creepy	-10.3616
▁plain	-10.3616
▁chosen	-10.3617
▁ranch	-10.3617
▁betrayed	-10.3619
▁mot	-10.3619
▁scan	-10.3623
▁falcon	-10.3625
▁coin	-10.3626
▁inhales	-10.3627
▁useful	-10.363
▁received	-10.3635
▁loudly	-10.3635
▁elle	-10.3636
▁inc	-10.3638
▁blown	-10.3638
▁passengers	-10.3643
ded	-10.365
▁surface	-10.367
▁lick	-10.3673
▁tables	-10.3677
▁reports	-10.3686
j	-10.3694
▁timing	-10.3697
▁tied	-10.3702
itating	-10.3706
▁slaves	-10.3708
▁wasted	-10.3709
ring	-10.3715
▁agents	-10.3726
▁locker	-10.3727
▁intercept	-10.3734
▁sadie	-10.3749
▁attacked	-10.3765
des	-10.3781
▁demands	-10.3783
▁ap	-10.3785
▁counter	-10.3813
▁yay	-10.3832
▁pet	-10.3841
▁officers	-10.3846
▁plants	-10.3847
▁waves	-10.3851
▁pounds	-10.3857
▁sor	-10.3867
▁tend	-10.3868
▁sil	-10.3886
▁singers	-10.3889
▁goat	-10.3904
▁americans	-10.3907
▁eu	-10.3918
▁provide	-10.3919
▁mat	-10.393
▁lo	-10.3931
▁maniacal	-10.3936
▁joining	-10.3943
low	-10.3957
▁tan	-10.3963
▁zetas	-10.3989
tive	-10.4003
▁spirits	-10.4005
test	-10.4017
▁bullets	-10.4022
▁thoughts	-10.404
▁conduct	-10.4041
▁bio	-10.4067
▁mortal	-10.4079
ze	-10.4123
act	-10.4135
ign	-10.4147
pr	-10.4148
▁inter	-10.4174
▁sou	-10.4179
light	-10.4188
▁exist	-10.4191
ious	-10.4208
▁product	-10.4213
▁breast	-10.4222
ard	-10.4225
▁barricade	-10.4229
▁rabbit	-10.423
▁effect	-10.423
wat	-10.4244
▁toy	-10.4248
▁prisoner	-10.4291
▁worrying	-10.4293
▁ar	-10.4294
ho	-10.4313
▁voi	-10.4326
▁cats	-10.4332
you	-10.4362
mer	-10.4367
▁windows	-10.438
school	-10.4383
▁grill	-10.4383
▁drill	-10.4387
▁brush	-10.4389
▁shrink	-10.439
▁appear	-10.44
▁guarantee	-10.4401
▁flee	-10.4404
▁separate	-10.4406
▁charm	-10.4415
▁faint	-10.4422
▁original	-10.4423
▁drivers	-10.4424
▁director	-10.4425
▁trail	-10.4425
▁civil	-10.443
▁drag	-10.4432
▁q	-10.4433
rator	-10.4433
▁europe	-10.4434
▁servant	-10.4435
▁progress	-10.4435
▁antonio	-10.4435
▁attorney	-10.4435
▁babbling	-10.4435
▁busbee	-10.4435
▁communicate	-10.4435
▁detroit	-10.4435
▁donovan	-10.4435
▁désolé	-10.4435
▁embassy	-10.4435
▁evergreen	-10.4435
▁hallelujah	-10.4435
▁hmhmm	-10.4435
▁however	-10.4435
▁liwen	-10.4435
▁lsabel	-10.4435
▁moscow	-10.4435
▁mutant	-10.4435
▁nonsense	-10.4435
▁patience	-10.4435
▁political	-10.4435
▁politics	-10.4435
▁rattling	-10.4435
▁relief	-10.4435
▁robinson	-10.4435
▁routine	-10.4435
▁semester	-10.4435
▁shmuel	-10.4435
▁stammering	-10.4435
▁tambourine	-10.4435
▁thumping	-10.4435
▁thursday	-10.4435
▁tissue	-10.4435
▁underwear	-10.4435
▁vault	-10.4435
▁vodka	-10.4435
▁arena	-10.4435
▁confusing	-10.4435
▁expert	-10.4435
▁intend	-10.4435
▁apollonia	-10.4435
▁salad	-10.4435
▁breeze	-10.4436
▁jerry	-10.4436
▁andante	-10.4436
▁invisible	-10.4436
▁digital	-10.4436
▁edward	-10.4436
▁iast	-10.4436
▁illusion	-10.4436
▁belial	-10.4436
▁bunny	-10.4436
▁negotiator	-10.4436
▁portrait	-10.4436
▁snoring	-10.4436
▁deaf	-10.4436
▁gambling	-10.4436
▁arius	-10.4436
▁fortune	-10.4436
▁soak	-10.4436
▁entrance	-10.4436
▁prevent	-10.4436
▁denise	-10.4436
▁teschen	-10.4436
▁argos	-10.4436
▁chapter	-10.4436
▁becoming	-10.4436
▁blink	-10.4436
▁guide	-10.4436
▁error	-10.4436
▁spring	-10.4436
▁bradley	-10.4436
▁sanford	-10.4436
▁brick	-10.4436
▁clapping	-10.4436
▁prize	-10.4436
▁sammy	-10.4436
▁effie	-10.4436
▁display	-10.4436
▁pork	-10.4437
▁carlisle	-10.4437
▁pubie	-10.4437
▁puff	-10.4437
▁passionate	-10.4437
▁thanksgiving	-10.4437
▁version	-10.4437
▁bride	-10.4437
▁fanny	-10.4437
▁award	-10.4438
▁humor	-10.4438
▁malibu	-10.4438
▁twelve	-10.4438
▁available	-10.4438
▁grandson	-10.4439
▁tide	-10.4439
▁clone	-10.4439
▁practically	-10.4439
▁pussy	-10.4439
ible	-10.444
▁sacred	-10.444
▁forth	-10.444
▁sunny	-10.4441
▁spooky	-10.4441
▁disaster	-10.4441
▁discussion	-10.4441
▁mere	-10.4441
▁leap	-10.4441
▁hooting	-10.4442
▁task	-10.4442
▁alan	-10.4443
▁judith	-10.4443
▁material	-10.4443
▁wolf	-10.4443
▁flat	-10.4443
▁steam	-10.4445
terior	-10.4446
▁madness	-10.4446
▁carver	-10.4447
▁pleasant	-10.4448
▁inch	-10.4448
▁uhuh	-10.4449
▁nora	-10.4451
▁mister	-10.4453
▁naturally	-10.4455
▁tune	-10.4456
▁embarrassing	-10.4458
▁impressed	-10.4463
▁fuse	-10.4467
▁convinced	-10.4471
▁glasses	-10.4471
▁lair	-10.4475
▁bern	-10.4476
▁highp	-10.4476
▁fleet	-10.448
car	-10.4481
▁charming	-10.4482
▁hood	-10.4482
▁shrinking	-10.4482
▁damaged	-10.4483
▁oid	-10.4486
▁quest	-10.4489
▁successful	-10.4494
▁down	-10.4496
▁wishes	-10.4513
▁entirely	-10.4515
▁piedges	-10.4515
▁escaped	-10.4517
▁clinic	-10.4523
ana	-10.4529
ain	-10.4533
▁results	-10.4533
▁climbing	-10.4537
▁drums	-10.4553
▁demand	-10.4555
▁behave	-10.4557
▁bare	-10.4558
▁signs	-10.4563
▁ba	-10.4563
▁washed	-10.4564
▁filling	-10.4576
ire	-10.4596
▁depends	-10.4606
▁crossed	-10.4611
▁protected	-10.4623
▁ages	-10.4625
▁laying	-10.4633
▁boner	-10.4636
▁cleaned	-10.4643
ative	-10.4645
room	-10.4649
▁dip	-10.4654
▁vehicles	-10.4658
ero	-10.4661
▁souls	-10.4661
▁spending	-10.4662
▁covered	-10.4681
▁gl	-10.4692
▁fellows	-10.4694
▁mall	-10.4708
▁site	-10.4716
▁cd	-10.4731
▁counting	-10.4734
new	-10.4745
▁ash	-10.4748
▁iets	-10.4767
ham	-10.4772
▁mass	-10.4792
aire	-10.4796
▁details	-10.4803
▁dec	-10.4804
▁issues	-10.4804
ster	-10.4806
▁understanding	-10.4808
▁gu	-10.482
▁breaks	-10.4834
all	-10.4869
▁tea	-10.4872
▁com	-10.4895
▁mega	-10.4911
pped	-10.4931
▁ch	-10.4934
▁shr	-10.4954
▁chin	-10.4958
▁hundreds	-10.4968
▁led	-10.4973
▁skip	-10.4985
▁becomes	-10.4986
▁crimes	-10.4987
▁buttons	-10.4988
▁mist	-10.5019
wn	-10.5048
▁moments	-10.5062
▁forms	-10.5071
▁buck	-10.5082
▁emotion	-10.5117
▁victors	-10.5118
▁cloud	-10.512
▁effort	-10.5125
▁helicopter	-10.5125
▁village	-10.5125
▁coward	-10.5126
▁official	-10.5127
▁include	-10.5131
▁knee	-10.5137
▁forces	-10.5138
▁diamond	-10.5139
ice	-10.5139
▁degree	-10.5142
▁cor	-10.5143
▁zombie	-10.5145
▁muscle	-10.5145
▁jap	-10.5146
▁porter	-10.5149
ise	-10.5163
ock	-10.5184
▁flip	-10.5186
well	-10.5221
▁nat	-10.5225
▁fa	-10.5235
▁pit	-10.5249
▁letters	-10.525
▁pink	-10.5266
qui	-10.5274
▁mes	-10.5274
▁earn	-10.5277
▁publish	-10.5284
foot	-10.5291
contact	-10.5292
▁burst	-10.5294
▁dealing	-10.5298
▁screech	-10.5299
▁sue	-10.5299
▁buzz	-10.5299
▁sail	-10.5301
▁sink	-10.5306
▁ron	-10.5307
▁liv	-10.5308
▁respond	-10.531
▁engage	-10.5315
▁convince	-10.5317
▁bastards	-10.5325
▁squirl	-10.5326
▁custom	-10.5327
▁cour	-10.533
▁immediate	-10.5331
▁jobs	-10.5338
▁among	-10.5341
▁blank	-10.5343
▁basic	-10.5344
▁lands	-10.5344
▁dwarf	-10.5344
▁favour	-10.5344
▁bolivar	-10.5345
▁brittany	-10.5345
▁circus	-10.5345
▁coiiins	-10.5345
▁complex	-10.5345
▁cornwall	-10.5345
▁corporation	-10.5345
▁coyote	-10.5345
▁custody	-10.5345
▁destination	-10.5345
▁disagree	-10.5345
▁driscoll	-10.5345
▁florida	-10.5345
▁gavroche	-10.5345
▁happiness	-10.5345
▁joohwan	-10.5345
▁landlord	-10.5345
▁landolfa	-10.5345
▁liberty	-10.5345
▁malcolm	-10.5345
▁manhattan	-10.5345
▁oggie	-10.5345
▁ominous	-10.5345
▁philadelphia	-10.5345
▁phillip	-10.5345
▁protocol	-10.5345
▁recognition	-10.5345
▁rycart	-10.5345
▁someplace	-10.5345
▁talladega	-10.5345
▁underneath	-10.5345
▁unusual	-10.5345
▁vandergeld	-10.5345
▁woojin	-10.5345
▁yknow	-10.5345
▁latrell	-10.5345
▁supply	-10.5345
▁wrist	-10.5345
▁plague	-10.5345
▁television	-10.5345
▁ceiling	-10.5345
▁haif	-10.5345
▁autograph	-10.5345
▁walcott	-10.5345
▁conflict	-10.5345
▁exchange	-10.5345
▁territory	-10.5345
▁collins	-10.5345
▁helmet	-10.5345
▁morris	-10.5345
▁gomez	-10.5345
▁cameron	-10.5345
▁clown	-10.5345
▁sobs	-10.5345
▁employee	-10.5345
▁vienna	-10.5345
▁flew	-10.5345
▁fireworks	-10.5345
▁nickname	-10.5345
▁nephew	-10.5345
▁attractive	-10.5345
▁sooah	-10.5345
▁wagon	-10.5345
▁device	-10.5345
oeuf	-10.5345
▁pillow	-10.5345
▁tiger	-10.5345
▁hahaha	-10.5345
▁magnificent	-10.5345
▁software	-10.5345
▁colour	-10.5345
▁feast	-10.5345
▁lecture	-10.5345
▁supper	-10.5345
▁rising	-10.5345
▁sawyer	-10.5345
▁popular	-10.5345
▁begun	-10.5346
▁failure	-10.5346
▁engagement	-10.5346
▁scale	-10.5346
▁seattle	-10.5346
▁foolish	-10.5346
▁jeremy	-10.5346
▁cabinet	-10.5346
▁alors	-10.5347
▁flashlight	-10.5347
▁selfish	-10.5347
▁skies	-10.5347
▁creative	-10.5347
▁library	-10.5347
▁spark	-10.5347
▁minor	-10.5347
▁prophecy	-10.5348
▁solution	-10.5348
▁dizzy	-10.5348
▁contest	-10.5348
▁despi	-10.5348
▁sentence	-10.5348
bre	-10.5348
▁touchdown	-10.5348
▁presidential	-10.5349
▁brutal	-10.5349
▁lamb	-10.5349
▁slap	-10.535
▁wade	-10.535
▁whale	-10.535
▁hola	-10.535
▁burton	-10.5351
▁teenager	-10.5351
▁squeaking	-10.5351
▁agreement	-10.5351
▁mansion	-10.5352
▁distan	-10.5352
▁statement	-10.5354
▁fais	-10.5354
▁highline	-10.5354
▁dock	-10.5354
▁highway	-10.5356
▁halt	-10.5356
▁jab	-10.5356
▁hitting	-10.5356
▁dish	-10.5357
▁hump	-10.5359
▁bass	-10.5359
▁hates	-10.536
▁trailer	-10.536
▁growth	-10.536
▁hunger	-10.5362
▁cheated	-10.5362
▁dating	-10.5364
▁pile	-10.5368
▁fund	-10.5368
▁jamie	-10.5368
▁wounded	-10.5369
▁app	-10.5371
ou	-10.5372
▁fraud	-10.5373
▁shushing	-10.5373
▁chimes	-10.5374
▁ted	-10.5379
pping	-10.538
iong	-10.5381
▁normally	-10.5381
▁useless	-10.5382
▁rice	-10.5382
▁luci	-10.5385
▁charges	-10.5387
▁chasing	-10.5391
while	-10.5393
▁meters	-10.5395
▁defeated	-10.54
han	-10.5403
bell	-10.5403
▁mixed	-10.5406
▁ti	-10.5411
▁taiking	-10.5414
▁und	-10.5416
▁unti	-10.5417
▁union	-10.5417
▁solo	-10.5418
▁suffering	-10.5418
ay	-10.5422
▁imagin	-10.5426
▁salut	-10.5428
▁sponsors	-10.5432
▁assets	-10.5432
▁axe	-10.5433
ja	-10.5438
she	-10.5441
vi	-10.5443
▁helpful	-10.5449
▁pancakes	-10.5452
▁parle	-10.5452
▁honesty	-10.5452
▁pat	-10.5453
▁fairy	-10.5466
▁laisse	-10.5469
▁chas	-10.548
▁recipes	-10.5491
▁messages	-10.5499
▁minds	-10.5499
▁toe	-10.55
▁charged	-10.5502
itter	-10.5508
▁missiles	-10.5511
ors	-10.5515
▁gifts	-10.5517
▁combat	-10.5522
▁kinds	-10.5527
▁lighter	-10.554
▁hire	-10.5553
▁vois	-10.5578
toi	-10.5584
▁wil	-10.5585
▁explained	-10.5587
cho	-10.5596
ory	-10.5605
▁sha	-10.5644
▁wheels	-10.565
▁eli	-10.5665
ib	-10.5675
▁hills	-10.5709
▁sounded	-10.5713
▁reader	-10.5714
▁wished	-10.5769
▁winners	-10.5769
cy	-10.5779
▁sings	-10.5784
▁grades	-10.5791
rri	-10.5792
▁x	-10.5796
ions	-10.5809
▁jaegers	-10.583
tll	-10.5841
ude	-10.5848
▁answering	-10.5853
ical	-10.5865
▁shots	-10.588
▁bones	-10.5889
ph	-10.5917
▁queens	-10.5934
▁colors	-10.5952
ction	-10.5959
den	-10.5959
ends	-10.5963
▁viv	-10.5977
oy	-10.5979
ating	-10.5979
▁character	-10.5983
ome	-10.5988
▁monsters	-10.5994
ries	-10.6009
▁conversations	-10.6017
▁menu	-10.6037
▁depend	-10.6045
▁request	-10.6056
▁bee	-10.6059
uh	-10.6075
▁cooi	-10.6084
▁bum	-10.6086
▁itch	-10.6089
▁sire	-10.6091
▁flu	-10.6091
com	-10.6094
ki	-10.6105
▁beep	-10.6108
▁accounts	-10.6118
▁lobster	-10.6125
▁fitzgerald	-10.6125
▁candle	-10.6125
▁hurting	-10.6127
▁dozen	-10.6131
▁skeleton	-10.6131
▁division	-10.6131
▁ward	-10.6131
▁ag	-10.6133
▁holiday	-10.6134
▁at	-10.6142
▁folk	-10.615
▁shoe	-10.6159
▁begins	-10.6176
▁hu	-10.6176
▁salt	-10.6197
▁advise	-10.62
gging	-10.6227
▁rolls	-10.6231
▁woo	-10.6262
▁fits	-10.6266
fied	-10.6272
what	-10.6285
pot	-10.6287
▁inn	-10.6288
tail	-10.6288
▁avoid	-10.6292
jack	-10.6292
face	-10.6293
▁bleed	-10.63
oid	-10.6301
▁ans	-10.6301
▁twist	-10.6304
boy	-10.6305
▁escort	-10.6307
▁thrill	-10.6311
▁cancel	-10.6311
▁flush	-10.6312
▁frau	-10.6314
▁har	-10.6315
▁sid	-10.6322
▁host	-10.6323
▁creep	-10.6326
▁hack	-10.6329
▁incredibl	-10.6329
▁lame	-10.6331
▁occasion	-10.6336
▁breach	-10.6337
▁jane	-10.6339
▁rode	-10.6339
▁gent	-10.6339
▁extract	-10.634
through	-10.634
▁tuck	-10.6341
▁confess	-10.6342
▁specific	-10.6343
▁purp	-10.6344
▁cha	-10.6344
▁adorable	-10.6345
▁annabelle	-10.6345
▁apologies	-10.6345
▁appétit	-10.6345
▁assignment	-10.6345
▁bourguignon	-10.6345
▁contamination	-10.6345
▁crisis	-10.6345
▁destiny	-10.6345
▁divine	-10.6345
▁dwight	-10.6345
▁enjolras	-10.6345
▁eponine	-10.6345
▁etienne	-10.6345
▁exotic	-10.6345
▁fantine	-10.6345
▁fifth	-10.6345
▁finnerty	-10.6345
▁foxtrot	-10.6345
▁gorgeous	-10.6345
▁greek	-10.6345
▁happier	-10.6345
▁illyria	-10.6345
▁injuries	-10.6345
▁intelligent	-10.6345
▁kidnapping	-10.6345
▁lndistinct	-10.6345
▁majesty	-10.6345
▁manuscript	-10.6345
▁mcginty	-10.6345
▁merritt	-10.6345
▁naughty	-10.6345
▁offense	-10.6345
▁practicing	-10.6345
▁precise	-10.6345
▁privacy	-10.6345
▁prudence	-10.6345
▁puzzle	-10.6345
▁recall	-10.6345
▁shannon	-10.6345
▁shortcut	-10.6345
▁strict	-10.6345
▁tammy	-10.6345
▁ultimate	-10.6345
▁uppercut	-10.6345
▁viktor	-10.6345
▁beany	-10.6345
▁committee	-10.6345
▁dentist	-10.6345
▁hydro	-10.6345
▁nipple	-10.6345
▁skirt	-10.6345
▁teresa	-10.6345
▁worf	-10.6345
▁robbed	-10.6345
▁bleep	-10.6345
▁yacht	-10.6345
▁myth	-10.6345
▁vital	-10.6345
▁false	-10.6345
▁buddies	-10.6345
▁storage	-10.6345
▁achieve	-10.6345
▁graduation	-10.6345
▁kababik	-10.6345
▁coughlin	-10.6345
▁lazy	-10.6345
▁clasky	-10.6345
▁cruise	-10.6345
▁empire	-10.6345
▁apology	-10.6345
▁clattering	-10.6345
▁moans	-10.6345
▁gollum	-10.6345
▁simca	-10.6345
▁sunset	-10.6345
▁anytime	-10.6345
▁detective	-10.6345
▁atlas	-10.6345
▁zip	-10.6345
▁lawsuit	-10.6345
▁shrike	-10.6345
▁spray	-10.6345
▁ici	-10.6345
▁electronic	-10.6345
▁gossie	-10.6345
▁reset	-10.6345
▁network	-10.6345
▁spoon	-10.6345
▁francisco	-10.6345
▁reverse	-10.6345
▁bouge	-10.6345
▁championship	-10.6345
▁drama	-10.6345
▁hush	-10.6345
▁fluid	-10.6345
▁herb	-10.6345
▁uber	-10.6345
▁fierce	-10.6346
▁ceremony	-10.6346
▁huddle	-10.6346
▁jamais	-10.6346
▁hartman	-10.6346
▁parce	-10.6346
aged	-10.6346
▁kili	-10.6346
▁loyalty	-10.6346
▁saber	-10.6346
▁critical	-10.6346
▁proposal	-10.6346
▁sheet	-10.6347
▁songwriter	-10.6347
▁static	-10.6347
▁forgotten	-10.6347
▁ellic	-10.6347
▁sensation	-10.6348
▁homo	-10.6348
▁aside	-10.6348
▁cuba	-10.6348
▁violent	-10.6348
▁fox	-10.6348
▁imitate	-10.6348
▁raptor	-10.6348
▁spotted	-10.6348
▁stake	-10.6349
eight	-10.6349
▁keen	-10.6349
▁cochrane	-10.6349
▁indian	-10.6349
▁bible	-10.6349
▁when	-10.6349
▁extension	-10.635
▁forgiveness	-10.635
day	-10.6351
▁allies	-10.6351
▁figures	-10.6351
▁eastern	-10.6351
▁tous	-10.6352
▁campus	-10.6352
assic	-10.6352
▁avenger	-10.6352
▁alter	-10.6352
▁sniper	-10.6352
▁fried	-10.6353
▁surrounded	-10.6353
▁gim	-10.6354
▁geez	-10.6355
▁rocket	-10.6356
▁fargo	-10.6356
▁circumstances	-10.6357
▁factory	-10.6357
▁yoga	-10.6357
▁apply	-10.6358
▁mec	-10.636
▁stark	-10.6361
▁hail	-10.6362
▁july	-10.6362
▁apple	-10.6363
▁carley	-10.6365
gh	-10.6366
▁shy	-10.6372
▁fourth	-10.6375
▁badass	-10.6375
▁francs	-10.6378
▁rollin	-10.6378
▁brit	-10.6378
▁aller	-10.6379
▁bitter	-10.6381
▁nar	-10.6382
▁bay	-10.6383
▁drowned	-10.6388
▁actor	-10.6392
▁backwards	-10.6399
vin	-10.64
▁impress	-10.6401
▁wiped	-10.6402
▁regarde	-10.6405
▁classes	-10.6406
▁royal	-10.6411
▁connected	-10.6413
▁issued	-10.6416
▁pounding	-10.6423
▁switched	-10.6424
▁howdy	-10.6427
sp	-10.6427
pe	-10.6428
▁suits	-10.6437
▁andre	-10.6437
▁hooked	-10.6438
▁terrorists	-10.6442
oli	-10.6442
▁guts	-10.6443
▁suggesting	-10.6446
gy	-10.6457
▁suite	-10.6457
▁focused	-10.6459
▁sacrificed	-10.6471
med	-10.6474
▁armor	-10.6475
▁bothering	-10.6476
▁marshall	-10.6476
▁machines	-10.6477
▁am	-10.6481
▁warner	-10.6483
▁benefits	-10.6485
▁costumes	-10.6485
▁carefully	-10.6486
▁rand	-10.6487
▁messy	-10.6491
nows	-10.6492
pa	-10.6492
for	-10.6501
▁dings	-10.6506
▁scientists	-10.6507
▁wounds	-10.6508
▁beard	-10.651
▁bump	-10.651
▁to	-10.6513
pro	-10.652
▁snaps	-10.653
▁los	-10.6532
▁customers	-10.6532
▁sucker	-10.6534
▁reported	-10.6541
▁gig	-10.6544
▁boxes	-10.6567
▁bal	-10.6568
▁uses	-10.6569
▁seize	-10.657
▁degrees	-10.6573
▁knees	-10.6573
▁needle	-10.6579
▁waited	-10.6591
▁coma	-10.6595
▁ant	-10.6605
▁ger	-10.6606
▁spa	-10.6609
▁prisoners	-10.661
▁dancer	-10.6612
▁locks	-10.6613
▁attends	-10.6617
▁fl	-10.6624
lin	-10.6626
▁er	-10.6631
▁phi	-10.6643
▁cards	-10.6644
▁farts	-10.6648
avoir	-10.6653
▁mags	-10.6656
▁members	-10.6661
▁spiders	-10.6661
▁seasons	-10.6683
lar	-10.6695
▁sont	-10.6699
▁sticking	-10.6716
▁prayers	-10.6721
ean	-10.6741
▁blocks	-10.6755
erman	-10.6761
▁holes	-10.6764
ern	-10.6765
▁cla	-10.6777
▁shoulders	-10.6796
▁badly	-10.6798
sta	-10.6801
ok	-10.6813
▁parl	-10.6813
▁dreaming	-10.6816
▁clients	-10.6817
▁interests	-10.6821
▁luis	-10.6834
▁nurses	-10.6846
▁rep	-10.6862
ov	-10.6894
oon	-10.6902
ify	-10.6904
istic	-10.6909
▁bur	-10.6915
lum	-10.6924
ves	-10.6927
bar	-10.6933
cc	-10.6936
▁buildings	-10.6938
▁tak	-10.6957
▁express	-10.6966
▁rot	-10.6968
▁stat	-10.6986
ei	-10.6994
▁painful	-10.6998
ium	-10.7001
▁vin	-10.7022
▁lis	-10.7023
▁sy	-10.7023
pp	-10.7033
▁jud	-10.7034
▁wav	-10.7043
▁hated	-10.7043
mb	-10.7045
▁costs	-10.7089
▁ghosts	-10.7091
▁decisions	-10.7091
ill	-10.7103
▁cos	-10.7114
▁lip	-10.7136
▁boo	-10.7144
▁pris	-10.7153
▁trusting	-10.7166
▁snap	-10.7179
▁den	-10.7182
aux	-10.7209
▁hon	-10.7212
▁whisper	-10.7216
▁react	-10.7216
▁groan	-10.7218
▁roar	-10.722
▁artists	-10.7227
▁element	-10.7235
▁titan	-10.7237
▁blade	-10.7237
▁standard	-10.7242
▁arrow	-10.7244
▁token	-10.7246
▁compliment	-10.7248
▁missile	-10.7254
▁barrel	-10.7255
▁spartan	-10.7269
▁chop	-10.727
▁customer	-10.7271
▁killers	-10.729
▁promises	-10.7292
▁quell	-10.7297
▁wha	-10.73
ag	-10.7312
▁lawyers	-10.7324
▁bark	-10.7345
iest	-10.7373
▁tastes	-10.7376
▁presents	-10.7376
ship	-10.7385
ino	-10.7389
py	-10.7389
load	-10.739
▁sens	-10.7391
▁mort	-10.74
phone	-10.7401
▁melt	-10.7401
box	-10.7401
century	-10.7401
grid	-10.7402
two	-10.7403
▁dash	-10.7406
▁whoop	-10.7407
four	-10.7407
▁weep	-10.7409
▁ambush	-10.7418
▁blend	-10.7419
just	-10.7419
▁insult	-10.7421
▁net	-10.7423
▁abandon	-10.7423
▁truc	-10.7426
gon	-10.7432
▁hum	-10.7436
▁nurs	-10.7437
▁guilt	-10.7438
▁wealth	-10.7439
ford	-10.744
▁quan	-10.7443
port	-10.7443
▁technical	-10.7443
▁extreme	-10.7444
▁commence	-10.7447
▁region	-10.7448
▁mechanic	-10.7449
▁slight	-10.7449
▁retire	-10.745
corporate	-10.7454
▁ca	-10.7454
▁orphan	-10.7454
▁chum	-10.7455
▁meteor	-10.7455
fficient	-10.7456
destruct	-10.7456
▁historic	-10.7456
▁institution	-10.7456
▁afterwards	-10.7456
▁anxious	-10.7456
▁appointment	-10.7456
▁baxter	-10.7456
▁beacon	-10.7456
▁brooklyn	-10.7456
▁capital	-10.7456
▁choking	-10.7456
▁colombia	-10.7456
▁confidence	-10.7456
▁delicious	-10.7456
▁disguise	-10.7456
▁elizabeth	-10.7456
▁eternity	-10.7456
▁fabulous	-10.7456
▁fortunate	-10.7456
▁fountain	-10.7456
▁gandalf	-10.7456
▁georgie	-10.7456
▁granger	-10.7456
▁guatemala	-10.7456
▁handshake	-10.7456
▁hebrew	-10.7456
▁hermann	-10.7456
▁himmler	-10.7456
▁hollow	-10.7456
▁incident	-10.7456
▁investigate	-10.7456
▁melody	-10.7456
▁mwah	-10.7456
▁myseif	-10.7456
▁offensive	-10.7456
▁perspective	-10.7456
▁phrase	-10.7456
▁picasso	-10.7456
▁predict	-10.7456
▁receipt	-10.7456
▁saumensch	-10.7456
▁script	-10.7456
▁sentinels	-10.7456
▁stenz	-10.7456
▁submarine	-10.7456
▁suicide	-10.7456
▁terrifying	-10.7456
▁thunderclap	-10.7456
▁tiffany	-10.7456
▁tolan	-10.7456
▁tressler	-10.7456
▁tuesday	-10.7456
▁valuable	-10.7456
▁voyage	-10.7456
▁yellowjacket	-10.7456
▁été	-10.7456
▁destruction	-10.7456
▁dutch	-10.7456
▁fourteen	-10.7456
▁juicy	-10.7456
▁medusa	-10.7456
▁newspaper	-10.7456
▁protein	-10.7456
▁assigned	-10.7456
▁session	-10.7456
▁executive	-10.7456
▁valerie	-10.7456
▁hammond	-10.7456
▁preston	-10.7456
▁scholarship	-10.7456
▁gutterboy	-10.7456
▁lagoon	-10.7456
▁freddy	-10.7456
▁quelquun	-10.7456
▁whiskey	-10.7456
▁basket	-10.7456
▁residence	-10.7456
▁prostitute	-10.7456
▁hammer	-10.7456
▁casino	-10.7456
▁mankind	-10.7456
▁dessus	-10.7456
▁lethal	-10.7456
▁athena	-10.7456
▁moron	-10.7456
▁april	-10.7456
▁montana	-10.7456
▁tyler	-10.7456
▁instance	-10.7456
▁vermont	-10.7456
▁nerd	-10.7456
▁investment	-10.7456
▁bacon	-10.7456
▁crois	-10.7456
▁stacy	-10.7456
▁existence	-10.7456
▁ozzie	-10.7456
▁urgent	-10.7456
▁imperial	-10.7457
▁broad	-10.7457
▁yourseif	-10.7457
▁earring	-10.7457
▁mummy	-10.7457
▁pride	-10.7457
▁stiff	-10.7457
▁vraiment	-10.7457
▁plot	-10.7457
▁partnership	-10.7457
▁hennessy	-10.7457
▁possibility	-10.7457
▁cease	-10.7457
▁stein	-10.7457
▁diving	-10.7457
▁copyright	-10.7457
▁audition	-10.7457
▁shotgun	-10.7457
▁noah	-10.7457
▁offline	-10.7457
▁raising	-10.7457
▁spitting	-10.7457
▁spice	-10.7457
▁stain	-10.7458
▁questce	-10.7458
▁heil	-10.7458
▁craft	-10.7458
▁creation	-10.7458
▁commitment	-10.7458
▁lockdown	-10.7458
▁confession	-10.7459
▁dougie	-10.7459
▁housemother	-10.7459
▁colon	-10.7459
▁balloon	-10.7459
▁electro	-10.7459
▁announcement	-10.7459
▁teammate	-10.7459
▁burt	-10.7459
▁document	-10.7459
▁sleeve	-10.7459
▁investigation	-10.746
▁rogue	-10.7461
▁wick	-10.7461
▁vache	-10.7461
▁dawg	-10.7461
▁quitting	-10.7461
▁mel	-10.7461
▁chamber	-10.7461
▁radical	-10.7462
▁reap	-10.7462
▁mechanical	-10.7463
▁function	-10.7463
▁lighthouse	-10.7463
▁owns	-10.7463
▁haha	-10.7464
▁constantly	-10.7464
▁mayday	-10.7464
▁disturbing	-10.7464
▁located	-10.7465
▁habit	-10.7466
▁stirr	-10.7466
▁planned	-10.7466
▁bucket	-10.7467
ilbo	-10.7468
▁backpack	-10.7468
▁christian	-10.7468
▁slightly	-10.7468
▁rue	-10.7469
▁controlling	-10.7469
▁tiles	-10.747
▁wallet	-10.747
▁admire	-10.7472
▁tucker	-10.7472
▁poke	-10.7472
▁disappointed	-10.7473
▁endure	-10.7474
▁scanner	-10.7475
▁jp	-10.7475
rence	-10.7476
▁weed	-10.7477
▁shao	-10.7477
▁thruster	-10.7477
▁banging	-10.7477
▁activate	-10.7477
▁yea	-10.7477
▁smoking	-10.7477
▁lens	-10.7479
▁reasonable	-10.748
▁unh	-10.748
▁sixty	-10.748
▁straining	-10.7481
▁approved	-10.7482
▁punches	-10.7484
▁mmmm	-10.7484
▁beth	-10.7484
▁javier	-10.7485
▁palm	-10.7487
▁formation	-10.7487
▁nut	-10.7488
▁hells	-10.7489
▁youth	-10.7493
▁mimic	-10.7494
▁pity	-10.7496
▁lever	-10.7497
▁earned	-10.7497
▁nun	-10.7497
▁yah	-10.7499
▁vast	-10.7499
▁separated	-10.7501
▁hike	-10.7501
▁active	-10.7501
▁mayan	-10.7502
▁endless	-10.7502
ware	-10.7504
▁newton	-10.7508
▁deny	-10.7509
elor	-10.751
▁mistaken	-10.7512
▁removed	-10.7513
▁solved	-10.7516
las	-10.7516
▁yelps	-10.7517
▁bid	-10.7518
▁fee	-10.752
▁fog	-10.752
▁statue	-10.7523
▁fries	-10.7527
▁burns	-10.7528
▁justin	-10.7529
▁economic	-10.753
▁daylight	-10.7532
▁lawn	-10.7535
ged	-10.7535
▁coordinates	-10.7541
▁pretzels	-10.7541
▁computers	-10.7542
▁sean	-10.7544
▁math	-10.7552
▁points	-10.7555
▁settled	-10.7555
itt	-10.7556
▁shortly	-10.7559
▁based	-10.7564
pu	-10.7566
▁beats	-10.757
▁ditch	-10.757
▁spared	-10.7572
▁pod	-10.7575
▁beef	-10.7578
▁greatness	-10.7583
▁kin	-10.7584
▁twins	-10.7589
▁concerns	-10.759
▁hits	-10.7606
▁tail	-10.761
▁foundation	-10.761
▁boarding	-10.7611
▁entered	-10.7612
▁experienced	-10.7613
be	-10.7619
▁sucked	-10.7619
▁mint	-10.7621
▁makeup	-10.7628
▁satellites	-10.7639
ima	-10.7644
▁trainer	-10.7645
▁farmers	-10.7647
▁punching	-10.7649
▁wang	-10.7653
▁filming	-10.7654
jo	-10.7654
▁musical	-10.7661
▁dies	-10.7671
ew	-10.7672
▁illness	-10.7675
▁visiting	-10.7677
▁safely	-10.7685
▁sau	-10.7685
lon	-10.7694
▁marks	-10.7708
▁passes	-10.7709
▁clouds	-10.7713
▁lid	-10.7718
oc	-10.7721
▁reasons	-10.7726
▁cord	-10.7728
tas	-10.773
ras	-10.7734
▁pd	-10.7737
▁toys	-10.7737
▁reaching	-10.774
▁tracking	-10.7745
▁for	-10.7753
▁warp	-10.7761
▁translate	-10.7766
▁returning	-10.7769
▁siri	-10.7775
▁br	-10.7777
normous	-10.7779
▁enjoying	-10.778
▁fears	-10.7786
▁mont	-10.7797
▁attacking	-10.7803
tial	-10.7816
hot	-10.782
▁sch	-10.7829
▁declare	-10.7832
▁belle	-10.7843
ition	-10.7867
▁ad	-10.7884
end	-10.7907
abie	-10.791
▁spits	-10.7929
illa	-10.7937
▁ships	-10.7937
▁pages	-10.7938
▁dom	-10.7945
▁coo	-10.7953
▁remains	-10.7993
za	-10.8
▁peaceful	-10.801
ax	-10.8023
▁shave	-10.8027
ieve	-10.8036
▁madea	-10.8047
▁ming	-10.8053
▁locations	-10.8065
▁exception	-10.807
▁cre	-10.8086
▁tuer	-10.8107
▁handles	-10.811
▁wu	-10.8119
tle	-10.8137
▁voices	-10.8167
▁wears	-10.8189
▁bears	-10.8198
▁ye	-10.8215
▁choices	-10.8232
▁passe	-10.8239
▁donne	-10.8252
▁rounds	-10.8257
bble	-10.8275
res	-10.8284
▁hid	-10.8287
▁rides	-10.8304
▁boxe	-10.8308
▁dra	-10.8321
▁keeper	-10.8321
▁sal	-10.8321
▁penn	-10.8324
▁ph	-10.8353
▁rum	-10.8359
▁trop	-10.8365
play	-10.8379
▁bri	-10.8387
▁mir	-10.8398
▁ban	-10.84
▁chang	-10.8407
ily	-10.8418
ement	-10.8418
▁pays	-10.8422
▁resident	-10.8444
ery	-10.8451
▁honk	-10.8456
▁inspire	-10.846
▁limit	-10.8462
▁click	-10.8466
▁wound	-10.847
▁medi	-10.8471
▁brace	-10.8476
▁warrant	-10.8486
▁expense	-10.8487
▁victim	-10.8487
▁wi	-10.8493
▁spear	-10.8496
▁preparation	-10.8497
▁blanket	-10.8498
▁communication	-10.85
▁cougar	-10.8501
▁satellite	-10.8502
▁scientist	-10.8503
▁recipe	-10.8504
▁clam	-10.8509
▁chickens	-10.851
▁risks	-10.851
▁dudes	-10.8519
▁tellin	-10.852
▁corpse	-10.8535
▁girlfriends	-10.8537
iness	-10.8537
▁term	-10.855
ink	-10.8552
urgen	-10.8554
▁farmer	-10.8555
▁cent	-10.8563
ept	-10.8577
▁sayin	-10.859
▁martini	-10.8595
▁teams	-10.8601
▁troup	-10.8607
led	-10.8614
▁photograph	-10.8614
▁anti	-10.8616
mont	-10.864
zoom	-10.8644
print	-10.8648
▁punish	-10.8651
▁riot	-10.8653
free	-10.8653
chang	-10.8653
mouth	-10.8653
▁camel	-10.8654
▁doug	-10.8656
▁greet	-10.8657
▁scrap	-10.8657
▁chew	-10.866
▁mode	-10.8665
fish	-10.8667
ient	-10.8671
▁increase	-10.8672
▁breed	-10.8675
▁ze	-10.8677
▁tooth	-10.8684
▁jinx	-10.8685
▁delight	-10.8686
▁cas	-10.8686
▁whit	-10.8687
▁graduate	-10.8687
▁gamble	-10.8692
▁weigh	-10.8695
▁geo	-10.8697
▁gabriel	-10.8701
▁august	-10.8702
▁deposit	-10.8702
▁blond	-10.8703
▁web	-10.8703
▁weakness	-10.8704
▁rem	-10.8705
▁inform	-10.8705
▁constitution	-10.8706
▁advertising	-10.8706
▁album	-10.8706
▁applaud	-10.8706
▁arkenstone	-10.8706
▁awkward	-10.8706
▁batteries	-10.8706
▁beaucoup	-10.8706
▁butterflies	-10.8706
▁cafeteria	-10.8706
▁canaan	-10.8706
▁canvas	-10.8706
▁cassandra	-10.8706
▁celebrating	-10.8706
▁circuit	-10.8706
▁classified	-10.8706
▁coiby	-10.8706
▁coincidence	-10.8706
▁combination	-10.8706
▁concrete	-10.8706
▁copeland	-10.8706
▁dakota	-10.8706
▁explanation	-10.8706
▁exploit	-10.8706
▁eyewitness	-10.8706
▁faggot	-10.8706
▁fiancé	-10.8706
▁gaylord	-10.8706
▁gracias	-10.8706
▁groceries	-10.8706
▁gulliver	-10.8706
▁happily	-10.8706
▁hubermann	-10.8706
▁industries	-10.8706
▁injury	-10.8706
▁intact	-10.8706
▁interference	-10.8706
▁laundry	-10.8706
▁lyrics	-10.8706
▁maintain	-10.8706
▁maintenant	-10.8706
▁mashido	-10.8706
▁nigga	-10.8706
▁oxford	-10.8706
▁pistol	-10.8706
▁pouce	-10.8706
▁province	-10.8706
▁purchase	-10.8706
▁refrigerator	-10.8706
▁religious	-10.8706
▁riddick	-10.8706
▁robbery	-10.8706
▁savior	-10.8706
▁schooi	-10.8706
▁scotland	-10.8706
▁seventyfive	-10.8706
▁shakespeare	-10.8706
▁struggle	-10.8706
▁stryker	-10.8706
▁surveillance	-10.8706
▁switchblade	-10.8706
▁trading	-10.8706
▁transplant	-10.8706
▁vacuum	-10.8706
▁voicemail	-10.8706
▁vulnerable	-10.8706
▁weicome	-10.8706
▁audio	-10.8706
▁bargain	-10.8706
▁beetee	-10.8706
▁beiieve	-10.8706
▁berries	-10.8706
▁domestic	-10.8706
▁grief	-10.8706
▁meilleur	-10.8706
▁raynell	-10.8706
▁squad	-10.8706
▁cancer	-10.8706
▁fbl	-10.8706
▁maddow	-10.8706
▁possum	-10.8706
▁purse	-10.8706
▁semi	-10.8706
▁flirt	-10.8706
▁intel	-10.8706
▁totaiiy	-10.8706
▁vickie	-10.8706
▁draft	-10.8706
▁azt	-10.8706
▁dialogue	-10.8706
▁ladder	-10.8706
▁michigan	-10.8706
▁observe	-10.8706
▁instructions	-10.8706
▁oclock	-10.8706
▁famiiy	-10.8706
▁grabbed	-10.8706
▁vicious	-10.8706
▁cried	-10.8706
▁leaf	-10.8706
▁battery	-10.8706
▁flunk	-10.8706
▁forbidden	-10.8706
▁remark	-10.8706
▁athens	-10.8706
▁underworld	-10.8706
▁antony	-10.8706
▁sorrow	-10.8706
▁clever	-10.8706
▁curious	-10.8706
▁concept	-10.8706
▁excitement	-10.8706
▁slipping	-10.8706
▁pension	-10.8706
▁culture	-10.8706
▁institute	-10.8706
▁ollie	-10.8706
▁denial	-10.8706
▁rotten	-10.8706
▁scrapper	-10.8706
▁dilio	-10.8706
▁gps	-10.8706
▁piay	-10.8706
▁playoffs	-10.8706
▁forehead	-10.8706
▁zeke	-10.8706
▁steer	-10.8706
▁favourite	-10.8706
▁pepper	-10.8706
▁pooter	-10.8706
▁heap	-10.8707
▁mako	-10.8707
▁ringtone	-10.8707
▁pumpkin	-10.8707
▁detonator	-10.8707
▁deployment	-10.8707
▁activity	-10.8707
▁allergic	-10.8707
▁legitim	-10.8707
▁minos	-10.8707
▁community	-10.8707
▁marlene	-10.8707
▁yorktown	-10.8707
▁chorus	-10.8707
▁buff	-10.8707
▁organization	-10.8707
▁suspense	-10.8707
▁chiming	-10.8707
▁principal	-10.8707
▁surgeon	-10.8707
▁caution	-10.8707
▁buns	-10.8707
▁organic	-10.8707
▁slipped	-10.8707
▁jewish	-10.8708
▁iife	-10.8708
▁beings	-10.8708
▁antman	-10.8708
▁yellow	-10.8708
▁subway	-10.8708
▁mouse	-10.8708
▁wore	-10.8708
▁mccarter	-10.8709
▁equi	-10.8709
▁holly	-10.8709
▁jenna	-10.8709
▁cycle	-10.8709
▁grass	-10.8709
▁noble	-10.8709
▁parade	-10.8709
▁sworn	-10.8709
▁concert	-10.8709
▁allonsy	-10.8709
▁astronomy	-10.8709
▁believing	-10.8709
▁maxwell	-10.871
▁psycho	-10.871
▁charter	-10.871
▁confirmation	-10.871
▁prep	-10.871
▁anniversaire	-10.871
▁explosion	-10.871
▁settlement	-10.871
▁rubber	-10.8711
▁attraction	-10.8711
▁temper	-10.8711
▁grownup	-10.8711
▁inez	-10.8711
▁foster	-10.8711
▁raven	-10.8712
▁filthy	-10.8712
▁debra	-10.8712
▁victoria	-10.8712
▁payday	-10.8712
▁exhausted	-10.8712
▁possession	-10.8713
▁tango	-10.8713
▁ego	-10.8713
▁cave	-10.8714
▁bracer	-10.8714
▁livin	-10.8714
▁exceeding	-10.8715
▁fitness	-10.8715
▁alice	-10.8716
▁inches	-10.8716
▁petit	-10.8716
▁info	-10.8717
▁coverage	-10.8717
▁crumble	-10.8717
▁berry	-10.8717
▁collection	-10.8717
▁reckon	-10.8718
▁venom	-10.8718
▁personality	-10.8718
▁suggestion	-10.8718
▁guardian	-10.8718
▁praise	-10.8719
▁rear	-10.8719
▁janet	-10.872
▁technically	-10.872
▁rally	-10.872
▁just	-10.872
▁begging	-10.8721
▁galen	-10.8722
▁kiddo	-10.8723
▁soil	-10.8724
▁ivan	-10.8724
▁corey	-10.8725
▁brandt	-10.8726
▁immortality	-10.8726
▁shutting	-10.8727
▁gee	-10.8727
▁nickel	-10.8728
▁stable	-10.8729
▁preacher	-10.8731
▁ciass	-10.8731
▁shore	-10.8731
▁bach	-10.8734
▁nailed	-10.8735
▁ont	-10.8738
▁delighted	-10.8739
▁hotter	-10.8743
▁ouch	-10.8744
▁gale	-10.8745
▁squealing	-10.8748
▁ether	-10.8748
▁twisted	-10.8748
fo	-10.8748
▁eve	-10.8749
▁takin	-10.875
▁fold	-10.8751
▁winds	-10.8751
▁topic	-10.8754
sive	-10.8754
▁tax	-10.8755
▁operate	-10.8757
▁existed	-10.8758
▁cursed	-10.8759
▁rend	-10.8764
▁suresh	-10.8764
▁charger	-10.8764
▁sweetest	-10.8767
▁pep	-10.8768
▁goof	-10.8769
▁tease	-10.8772
▁hacker	-10.8772
▁shocked	-10.8775
ko	-10.8779
▁dumped	-10.878
▁mona	-10.878
▁mia	-10.8785
▁hunted	-10.8785
▁cocking	-10.8791
▁loaded	-10.8798
▁bridget	-10.8802
▁borrowed	-10.8803
▁jay	-10.8803
▁scouts	-10.8803
▁gloves	-10.8803
▁interrupting	-10.8804
▁boneys	-10.8806
▁lesions	-10.8806
▁traditional	-10.8806
▁ace	-10.8812
▁closest	-10.8819
▁homeless	-10.8826
▁flowing	-10.8827
▁sting	-10.8828
▁whin	-10.8828
▁dialing	-10.8828
▁toid	-10.883
▁tributes	-10.8831
▁fleas	-10.8831
how	-10.8831
▁jokes	-10.8835
▁sparr	-10.884
▁hint	-10.8844
▁remaining	-10.8845
▁considering	-10.8849
yl	-10.8852
▁gotcha	-10.8852
mar	-10.8852
▁orcs	-10.8859
▁warriors	-10.8859
▁slams	-10.8859
ait	-10.886
▁onions	-10.8861
▁filed	-10.8862
▁prob	-10.8863
trude	-10.8878
▁hel	-10.8885
▁cheeks	-10.8885
▁survivors	-10.8887
▁county	-10.8889
▁worthy	-10.8894
▁kat	-10.89
▁core	-10.8903
▁terms	-10.8913
▁tang	-10.8913
▁lai	-10.8913
▁homme	-10.8914
▁cougars	-10.8915
▁ri	-10.8919
▁rug	-10.8921
mate	-10.8929
▁testing	-10.8933
▁crop	-10.8939
▁tales	-10.8941
▁highly	-10.8944
▁trained	-10.8964
▁ding	-10.8965
▁hor	-10.8966
▁trucks	-10.8973
▁requests	-10.8973
▁differently	-10.8984
▁explore	-10.8994
▁diamonds	-10.9
▁parles	-10.9003
▁dressing	-10.9025
▁assholes	-10.9029
▁melons	-10.903
▁carin	-10.9032
▁effects	-10.9032
qua	-10.9038
▁remembered	-10.9041
▁fu	-10.9041
▁handled	-10.9041
quand	-10.9045
▁listened	-10.9048
▁shown	-10.9085
▁bard	-10.9089
▁offering	-10.909
atomic	-10.9094
▁media	-10.9097
rg	-10.9099
▁honored	-10.9105
▁cherevins	-10.9142
▁creatures	-10.9142
▁exp	-10.9146
ours	-10.9147
▁encourage	-10.9163
ran	-10.9171
▁ideal	-10.9184
▁cookies	-10.9187
▁groom	-10.9195
state	-10.9196
serving	-10.9198
▁che	-10.9216
▁shipp	-10.9217
▁crawling	-10.9228
rous	-10.9232
▁fed	-10.9241
▁tir	-10.9255
table	-10.9275
▁lively	-10.9286
▁comments	-10.9287
▁whistles	-10.9287
▁avai	-10.9287
▁conn	-10.9292
▁coll	-10.9292
▁lease	-10.9295
▁catching	-10.9302
amp	-10.931
▁ven	-10.9326
▁workin	-10.9328
▁scares	-10.9337
ven	-10.9338
elle	-10.9339
▁kindly	-10.9362
▁leaders	-10.9369
▁min	-10.9379
▁lex	-10.9387
▁scores	-10.9401
ities	-10.9407
bil	-10.941
▁sticks	-10.9412
▁signing	-10.9419
▁waitin	-10.9433
▁sights	-10.9435
▁banks	-10.9438
▁lovers	-10.9443
▁lap	-10.9445
▁sounding	-10.946
▁nightmares	-10.9464
cher	-10.947
tres	-10.951
▁nicely	-10.9534
▁hopeful	-10.9545
ncy	-10.9559
▁diet	-10.9593
▁pin	-10.9601
eth	-10.9612
cat	-10.9653
▁col	-10.9681
pin	-10.9731
▁operations	-10.9734
ked	-10.9743
ashes	-10.9743
tty	-10.9747
▁cet	-10.9748
cation	-10.9752
▁bots	-10.9765
▁divide	-10.9769
▁pose	-10.9775
▁fights	-10.978
ddle	-10.9794
▁idiots	-10.9795
▁boob	-10.9821
ants	-10.983
▁method	-10.9832
ris	-10.9832
▁lac	-10.9848
vol	-10.9856
▁wo	-10.9865
▁sweep	-10.9871
▁squeal	-10.9877
our	-10.9887
ner	-10.9888
▁pos	-10.9893
▁dol	-10.9894
▁shatter	-10.9895
▁skill	-10.9901
metry	-10.991
▁hostile	-10.9915
▁jordan	-10.9915
▁politician	-10.9915
▁appearance	-10.9916
▁bubble	-10.9917
▁arrangement	-10.992
▁sample	-10.9921
▁tool	-10.9921
▁temple	-10.9922
▁citizen	-10.9925
▁relative	-10.9927
▁dome	-10.9929
▁survivor	-10.9929
hold	-10.993
▁cheek	-10.9932
▁benefit	-10.9932
▁costume	-10.9933
▁slave	-10.9935
▁craz	-10.9938
▁engineer	-10.9941
▁visitor	-10.9942
▁bound	-10.9945
▁stud	-10.9946
say	-10.995
▁pill	-10.9963
▁drum	-10.9964
press	-10.9964
ledge	-10.9969
hen	-10.9981
like	-10.9984
▁thankful	-10.9993
▁demi	-11.0006
▁appel	-11.0007
▁tradition	-11.0019
hood	-11.0029
rice	-11.0039
▁homey	-11.0047
▁frighten	-11.0051
pass	-11.0054
▁nation	-11.0058
sse	-11.0062
▁prepar	-11.007
tube	-11.0074
yearold	-11.0074
lico	-11.0075
place	-11.0079
put	-11.0084
▁disgust	-11.0088
▁shush	-11.0091
▁boxer	-11.0096
▁cramp	-11.0099
▁adopt	-11.01
▁heroic	-11.01
▁attach	-11.0101
▁expose	-11.0102
▁possess	-11.0102
▁betray	-11.0103
rebor	-11.0104
▁replace	-11.0105
▁masters	-11.0107
▁asses	-11.0107
▁olive	-11.0109
thats	-11.0115
▁print	-11.0118
▁fric	-11.0121
esh	-11.0122
▁caii	-11.0123
ett	-11.0125
▁withdraw	-11.0126
gan	-11.0127
▁sets	-11.0127
▁probabi	-11.0128
▁genes	-11.0128
▁retr	-11.0129
▁honeymoon	-11.013
order	-11.0131
▁extinct	-11.0131
était	-11.0131
▁runnin	-11.0131
▁evacuat	-11.0132
▁prior	-11.0132
▁casual	-11.0133
▁francis	-11.0134
ologist	-11.0134
anthrop	-11.0134
responsibilities	-11.0134
▁ahhaha	-11.0134
▁aleksandr	-11.0134
▁ambassador	-11.0134
▁amphiaraus	-11.0134
▁antwine	-11.0134
▁argument	-11.0134
▁arizona	-11.0134
▁atlantic	-11.0134
▁atmosphere	-11.0134
▁autolycus	-11.0134
▁bikini	-11.0134
▁certificate	-11.0134
▁clucking	-11.0134
▁conclusion	-11.0134
▁cufflink	-11.0134
▁easily	-11.0134
▁explode	-11.0134
▁fluffy	-11.0134
▁grenade	-11.0134
▁hashimoto	-11.0134
▁headquarters	-11.0134
▁hobby	-11.0134
▁hypnotized	-11.0134
▁iadies	-11.0134
▁ignoring	-11.0134
▁infection	-11.0134
▁insecure	-11.0134
▁interpol	-11.0134
▁invasion	-11.0134
▁javelin	-11.0134
▁junebug	-11.0134
▁kotler	-11.0134
▁literature	-11.0134
▁mainframe	-11.0134
▁malfunction	-11.0134
▁metaphor	-11.0134
▁miguel	-11.0134
▁millennium	-11.0134
▁mississippi	-11.0134
▁mosquito	-11.0134
▁motorcycle	-11.0134
▁necessarily	-11.0134
▁nevada	-11.0134
▁oldfashioned	-11.0134
▁opponent	-11.0134
▁orlando	-11.0134
▁outstanding	-11.0134
▁pacifi	-11.0134
▁poetry	-11.0134
▁premier	-11.0134
▁primitive	-11.0134
▁pronounce	-11.0134
▁pulse	-11.0134
▁pyjamas	-11.0134
▁reputation	-11.0134
▁schmidt	-11.0134
▁southwest	-11.0134
▁spaghetti	-11.0134
▁squawking	-11.0134
▁stadium	-11.0134
▁strangle	-11.0134
▁stuart	-11.0134
▁surviving	-11.0134
▁tokyo	-11.0134
▁tremendous	-11.0134
▁undercover	-11.0134
▁venezuela	-11.0134
▁vengeance	-11.0134
▁waffle	-11.0134
▁watermelon	-11.0134
▁worries	-11.0134
▁worship	-11.0134
▁xavier	-11.0134
▁after	-11.0134
▁clinking	-11.0134
▁diaper	-11.0134
▁doomed	-11.0134
▁globe	-11.0134
▁italian	-11.0134
▁miserable	-11.0134
▁snitch	-11.0134
▁trespass	-11.0134
▁warbling	-11.0134
▁ankle	-11.0134
▁buddha	-11.0134
▁bulb	-11.0134
▁harmony	-11.0134
▁leather	-11.0134
▁sabres	-11.0134
▁vagina	-11.0134
▁whiie	-11.0134
▁rouge	-11.0134
▁cadet	-11.0134
▁cmon	-11.0134
▁whooshing	-11.0134
▁basil	-11.0134
▁colleague	-11.0134
▁liking	-11.0134
▁splash	-11.0134
▁commercial	-11.0134
▁confront	-11.0134
▁presence	-11.0134
▁scumbag	-11.0134
▁carnival	-11.0134
▁carolina	-11.0134
▁transferred	-11.0134
▁application	-11.0134
▁debutante	-11.0134
▁eunice	-11.0134
▁karaoke	-11.0134
▁sushi	-11.0134
▁lambassadeur	-11.0134
▁merrick	-11.0134
▁picard	-11.0134
▁boogie	-11.0134
▁reservation	-11.0134
▁biological	-11.0134
▁tutor	-11.0134
▁beans	-11.0134
▁yummy	-11.0134
▁appeal	-11.0134
▁stepping	-11.0134
▁rubbish	-11.0134
▁narrow	-11.0135
▁treason	-11.0135
▁makin	-11.0135
▁radiation	-11.0135
▁biscuits	-11.0135
▁granny	-11.0135
▁ufo	-11.0135
▁choke	-11.0135
▁bummer	-11.0135
▁overnight	-11.0135
▁aggressive	-11.0135
▁fellowship	-11.0135
▁wives	-11.0135
▁desmond	-11.0135
▁chalet	-11.0135
▁eternal	-11.0135
▁yeux	-11.0135
▁bernice	-11.0135
▁dix	-11.0135
▁boston	-11.0135
▁whew	-11.0135
▁upload	-11.0135
▁blueberry	-11.0135
▁paui	-11.0135
▁vicky	-11.0135
▁mickey	-11.0135
▁dummy	-11.0135
▁knight	-11.0135
▁marquez	-11.0135
▁priest	-11.0135
▁stack	-11.0135
▁risd	-11.0135
▁hesitate	-11.0135
▁kroll	-11.0135
▁compassion	-11.0135
▁donald	-11.0135
▁bingo	-11.0135
▁pennsylvania	-11.0135
▁cartoon	-11.0135
▁milestone	-11.0135
▁password	-11.0135
▁norman	-11.0136
▁vanilla	-11.0136
▁avez	-11.0136
▁replacement	-11.0136
▁medication	-11.0136
▁grain	-11.0136
▁waltz	-11.0136
▁cruel	-11.0136
▁accompany	-11.0136
▁potatoes	-11.0136
▁generous	-11.0136
▁upper	-11.0136
▁regimen	-11.0136
▁oven	-11.0136
▁luke	-11.0136
▁agency	-11.0136
▁stew	-11.0136
▁unknown	-11.0136
▁sonya	-11.0136
▁wiry	-11.0136
▁activation	-11.0136
▁crappy	-11.0136
acious	-11.0136
puis	-11.0136
▁mmmmmm	-11.0136
▁whipped	-11.0136
▁porch	-11.0136
▁kurt	-11.0137
▁grey	-11.0137
▁tactical	-11.0137
▁silent	-11.0137
▁passport	-11.0137
▁anderson	-11.0137
▁disappearance	-11.0137
▁starlight	-11.0137
▁juan	-11.0137
▁genre	-11.0137
▁dwell	-11.0137
▁ethic	-11.0137
▁anticipat	-11.0137
▁vrai	-11.0138
▁smiles	-11.0138
▁hallway	-11.0138
▁mainland	-11.0138
▁decorator	-11.0138
▁gap	-11.0138
▁karate	-11.0138
▁chores	-11.0138
▁ratings	-11.0138
▁rack	-11.0138
▁chow	-11.0138
▁exam	-11.0138
▁parlor	-11.0138
▁snarling	-11.0138
▁republican	-11.0139
▁phony	-11.0139
▁virginity	-11.0139
▁boost	-11.0139
▁iate	-11.0139
▁fisherman	-11.0139
▁production	-11.0139
▁gregory	-11.0139
▁hawaii	-11.0139
▁scientific	-11.0139
▁shrieking	-11.0139
▁chopper	-11.0139
▁jill	-11.0139
▁chemical	-11.0139
▁spill	-11.014
▁crepe	-11.014
▁whup	-11.014
▁amongst	-11.014
▁veut	-11.014
▁scam	-11.014
▁expression	-11.014
▁arrival	-11.014
nata	-11.0141
▁bait	-11.0141
▁assembl	-11.0141
▁squi	-11.0141
▁nearby	-11.0142
▁dj	-11.0142
▁stepped	-11.0142
▁anthe	-11.0142
▁weaknesses	-11.0142
▁bugger	-11.0142
▁label	-11.0143
▁babysitter	-11.0143
▁hoid	-11.0144
away	-11.0144
▁waters	-11.0144
▁panel	-11.0145
▁marco	-11.0146
▁gar	-11.0146
▁tori	-11.0147
eval	-11.0147
▁avant	-11.0148
▁fulltime	-11.0148
▁appetite	-11.0149
▁standby	-11.0149
▁smith	-11.0149
▁epi	-11.015
▁gambler	-11.0151
▁chat	-11.0151
▁huit	-11.0151
▁laven	-11.0151
▁winch	-11.0152
▁fois	-11.0153
▁sis	-11.0154
▁determined	-11.0154
uda	-11.0155
▁quant	-11.0155
▁sharing	-11.0155
▁rv	-11.0156
▁sole	-11.0156
▁surf	-11.0157
▁royce	-11.0158
▁recruited	-11.0158
▁jar	-11.0158
▁seventh	-11.016
▁emotionally	-11.016
▁oliver	-11.016
▁bleat	-11.0161
▁vite	-11.0161
▁randy	-11.0162
▁pole	-11.0162
▁angeles	-11.0163
▁embarrassed	-11.0163
▁steeler	-11.0165
▁endings	-11.0165
▁deadline	-11.0166
▁fist	-11.0166
▁bench	-11.0167
▁sharply	-11.0168
▁beaten	-11.0168
▁attached	-11.0168
▁caiied	-11.0168
joe	-11.0168
▁lapd	-11.0168
▁sides	-11.0169
▁hiring	-11.0169
▁fools	-11.0169
▁drawn	-11.017
▁wel	-11.0171
▁mentor	-11.0175
▁wandering	-11.0175
▁limb	-11.0175
▁fury	-11.0175
▁role	-11.0175
▁heroes	-11.0176
▁restless	-11.0177
▁monte	-11.018
▁melted	-11.018
▁cones	-11.018
▁bald	-11.0181
▁printing	-11.0182
▁nearest	-11.0183
▁veins	-11.0183
▁canceled	-11.0184
▁thrilled	-11.0184
▁volt	-11.0184
▁requested	-11.0185
▁roboto	-11.0187
▁manual	-11.0188
▁shove	-11.0189
▁jury	-11.019
▁sensor	-11.0191
▁nest	-11.0193
▁perfection	-11.0193
▁publisher	-11.0193
▁quel	-11.0194
meter	-11.0196
▁lane	-11.0199
▁taller	-11.0203
ual	-11.0206
▁sinking	-11.0212
▁louder	-11.0212
▁mushrooms	-11.0215
▁squirrels	-11.0215
vel	-11.0217
▁meantime	-11.022
god	-11.0221
▁burnt	-11.0222
▁refused	-11.0224
▁cured	-11.023
▁confirmed	-11.0231
▁ac	-11.0232
▁lj	-11.0234
▁tighter	-11.0235
▁released	-11.0236
▁planted	-11.0236
▁ken	-11.0238
▁ability	-11.0244
▁comp	-11.0247
▁associates	-11.0247
▁exclaims	-11.0248
▁tourists	-11.0248
▁tent	-11.0248
▁heels	-11.0248
dern	-11.0252
▁frankly	-11.0252
▁unto	-11.0254
▁newt	-11.0255
▁paula	-11.0257
▁hardest	-11.027
▁blocking	-11.0274
▁peel	-11.0278
▁patterns	-11.028
▁driven	-11.0281
▁rigs	-11.0281
▁skull	-11.0281
▁realm	-11.0282
▁ol	-11.0282
▁bowling	-11.0285
▁ky	-11.0287
▁buster	-11.0288
▁tits	-11.0288
▁hein	-11.0291
▁fisher	-11.0292
▁shorter	-11.0295
▁deeper	-11.0295
▁nail	-11.0299
▁leads	-11.03
▁granted	-11.0305
▁vol	-11.0308
▁tale	-11.0309
▁pads	-11.0312
▁snickers	-11.0313
een	-11.0315
▁cracking	-11.0316
▁punched	-11.0317
▁tot	-11.0317
▁wink	-11.0317
▁sealed	-11.0323
▁cared	-11.0326
▁pills	-11.0345
▁relatives	-11.0345
▁prov	-11.0348
▁cracker	-11.0353
▁importantly	-11.0354
▁fore	-11.0355
prends	-11.0368
▁nails	-11.0368
▁reminded	-11.0372
▁camels	-11.0378
▁honks	-11.0379
▁classy	-11.0387
▁corpses	-11.0395
ically	-11.0406
▁treating	-11.0408
▁fam	-11.041
▁barrels	-11.0411
▁compliments	-11.0411
ola	-11.0412
▁overlook	-11.0422
▁reps	-11.0425
▁packed	-11.0428
▁workers	-11.0429
cle	-11.043
▁dates	-11.0432
▁anan	-11.0434
▁moo	-11.0436
ank	-11.0437
▁tin	-11.0455
▁troubles	-11.0461
▁closely	-11.0466
now	-11.0467
terrain	-11.0474
uel	-11.0491
apo	-11.0501
my	-11.0507
▁ani	-11.051
▁barricades	-11.0511
▁rabbits	-11.0511
▁unite	-11.0522
▁wondered	-11.0527
▁erase	-11.0535
▁bugs	-11.0548
▁imagined	-11.055
▁reporting	-11.0553
▁dar	-11.0561
▁armed	-11.0565
▁anne	-11.0567
▁flames	-11.0577
inner	-11.058
▁rd	-11.0607
▁treatments	-11.0611
▁protecting	-11.0623
▁cur	-11.0624
▁ty	-11.063
ox	-11.064
▁roommates	-11.0645
cular	-11.0649
▁schools	-11.0653
mart	-11.0658
▁fishing	-11.0661
net	-11.0678
▁vers	-11.0685
▁hips	-11.0694
▁formal	-11.0696
▁ian	-11.0706
▁whack	-11.0728
▁answered	-11.0736
ole	-11.0746
▁relationships	-11.0747
▁caller	-11.0749
▁elli	-11.0762
▁ir	-11.0777
▁events	-11.0781
▁pearls	-11.0781
ians	-11.0784
iff	-11.0798
enez	-11.0813
▁skippe	-11.0825
ssing	-11.0826
ark	-11.083
lio	-11.0832
▁finishing	-11.0842
row	-11.0843
▁shields	-11.0849
▁fences	-11.0849
▁explosives	-11.0883
▁bikes	-11.0884
▁tips	-11.0886
rog	-11.0894
▁sever	-11.0898
▁sn	-11.0907
pap	-11.0907
▁kar	-11.0915
▁tar	-11.0917
▁phii	-11.0924
nox	-11.0925
hi	-11.0929
▁bars	-11.093
▁severe	-11.0975
era	-11.0975
▁pops	-11.0975
▁trusted	-11.1008
▁bol	-11.102
▁noises	-11.1023
▁exits	-11.1023
▁don	-11.1024
▁circles	-11.1025
▁lra	-11.1039
▁deserves	-11.1061
▁cells	-11.1063
▁entre	-11.1077
top	-11.1125
rine	-11.1135
▁checks	-11.1149
▁syn	-11.1151
▁wishing	-11.1159
▁districts	-11.1164
▁shav	-11.1192
▁views	-11.1199
rten	-11.1217
her	-11.1218
rish	-11.1224
udge	-11.1226
▁spectacu	-11.1237
▁faci	-11.1262
form	-11.1275
▁reins	-11.1279
met	-11.1285
▁deli	-11.1292
▁dur	-11.1293
▁bou	-11.1302
▁jacks	-11.1319
fur	-11.1354
ezvous	-11.1371
ooh	-11.139
ese	-11.1405
▁of	-11.1406
eat	-11.1411
▁spi	-11.1432
▁julias	-11.1446
armed	-11.1448
ttering	-11.1455
mma	-11.1463
▁falcos	-11.149
aiso	-11.1492
kha	-11.1518
▁arriv	-11.1546
▁ki	-11.1549
▁concern	-11.1565
▁viva	-11.1571
▁technique	-11.1582
▁banana	-11.1582
▁savage	-11.1582
▁tunnel	-11.1588
▁scav	-11.1588
▁sho	-11.1589
▁husbands	-11.1589
▁demon	-11.1594
▁snicker	-11.1594
active	-11.1596
▁warrior	-11.1596
▁orc	-11.1597
▁slam	-11.1597
▁model	-11.16
▁pancake	-11.16
▁result	-11.1601
▁hostage	-11.1604
▁beside	-11.1607
▁here	-11.161
▁onion	-11.1617
▁twin	-11.1618
▁cable	-11.1635
▁ré	-11.164
fi	-11.1644
▁conf	-11.1646
maker	-11.1648
▁trib	-11.1648
▁ob	-11.1655
▁idol	-11.1668
▁gaze	-11.1679
ward	-11.1692
ament	-11.1693
▁structur	-11.1694
five	-11.1702
ami	-11.1703
▁guessed	-11.1707
▁groups	-11.1711
▁will	-11.1711
▁inf	-11.1711
late	-11.1717
▁parti	-11.1717
▁fre	-11.172
▁embarrass	-11.1721
eu	-11.1725
▁cheat	-11.1726
year	-11.1727
▁opera	-11.1731
▁rag	-11.1731
class	-11.1731
point	-11.1737
hus	-11.1739
▁clo	-11.1746
▁recover	-11.1747
weather	-11.1748
▁lynch	-11.1748
▁vomit	-11.1748
▁broadcast	-11.1748
▁arme	-11.1749
▁psych	-11.1749
▁huff	-11.1749
type	-11.175
life	-11.175
right	-11.1752
▁creak	-11.1755
▁lung	-11.1758
dog	-11.1761
▁recommend	-11.1761
▁mus	-11.1763
▁succeed	-11.1763
▁disconnect	-11.1764
▁smack	-11.1765
▁crook	-11.1767
burg	-11.1767
▁preach	-11.1767
▁dedicate	-11.1768
▁ref	-11.177
▁wee	-11.1771
this	-11.1771
▁chant	-11.1772
term	-11.1772
▁evolve	-11.1773
▁eva	-11.1781
▁greed	-11.1781
▁grows	-11.1784
▁zoe	-11.1784
▁rail	-11.1785
▁realise	-11.1785
▁strap	-11.1786
▁constant	-11.1789
▁tours	-11.179
taker	-11.179
▁produce	-11.1791
▁recent	-11.1792
eyed	-11.1797
▁abort	-11.1798
▁commun	-11.1798
▁présent	-11.1799
▁conceal	-11.1799
▁deploy	-11.1799
▁adjust	-11.18
▁heii	-11.18
▁hydra	-11.18
▁symbol	-11.18
▁urg	-11.1801
▁vietnam	-11.1801
▁orchestra	-11.1801
▁adamantium	-11.1801
▁airplane	-11.1801
▁alliance	-11.1801
▁almighty	-11.1801
▁angei	-11.1801
▁antibiotics	-11.1801
▁athlete	-11.1801
▁average	-11.1801
▁baggage	-11.1801
▁balcony	-11.1801
▁behalf	-11.1801
▁benedict	-11.1801
▁bluff	-11.1801
▁bonjour	-11.1801
▁bourbon	-11.1801
▁cackling	-11.1801
▁cepacia	-11.1801
▁cienfuegos	-11.1801
▁cigarettes	-11.1801
▁commotion	-11.1801
▁confusion	-11.1801
▁controi	-11.1801
▁cunning	-11.1801
▁diablo	-11.1801
▁disgrace	-11.1801
▁dummkopf	-11.1801
▁dynamite	-11.1801
▁elephant	-11.1801
▁eleven	-11.1801
▁embrace	-11.1801
▁enlighten	-11.1801
▁evolution	-11.1801
▁glorious	-11.1801
▁godforsaken	-11.1801
▁grape	-11.1801
▁gravity	-11.1801
▁grenkin	-11.1801
▁gruff	-11.1801
▁gulia	-11.1801
▁haircut	-11.1801
▁horror	-11.1801
▁houston	-11.1801
▁hysterical	-11.1801
▁identify	-11.1801
▁ingredient	-11.1801
▁instagram	-11.1801
▁instrument	-11.1801
▁intense	-11.1801
▁invade	-11.1801
▁iraq	-11.1801
▁jadore	-11.1801
▁jessica	-11.1801
▁josef	-11.1801
▁jukebox	-11.1801
▁jurisdiction	-11.1801
▁knack	-11.1801
▁knives	-11.1801
▁kommandant	-11.1801
▁lauderdale	-11.1801
▁lenihan	-11.1801
▁maclean	-11.1801
▁mandarin	-11.1801
▁mannequin	-11.1801
▁marvelous	-11.1801
▁matthew	-11.1801
▁mumbling	-11.1801
▁mundi	-11.1801
▁ninja	-11.1801
▁nostalgi	-11.1801
▁nowadays	-11.1801
▁négatif	-11.1801
▁observation	-11.1801
▁obstacle	-11.1801
▁ordinary	-11.1801
▁outcome	-11.1801
▁overcome	-11.1801
▁permit	-11.1801
▁pirates	-11.1801
▁postcard	-11.1801
▁precautions	-11.1801
▁privilege	-11.1801
▁reckless	-11.1801
▁reconsider	-11.1801
▁refresh	-11.1801
▁regulator	-11.1801
▁rhinoceros	-11.1801
▁roosevelt	-11.1801
▁sattler	-11.1801
▁sidekick	-11.1801
▁specimen	-11.1801
▁stephanie	-11.1801
▁stimulate	-11.1801
▁suntribune	-11.1801
▁survival	-11.1801
▁suspicious	-11.1801
▁technologies	-11.1801
▁temporarily	-11.1801
▁thread	-11.1801
▁toujours	-11.1801
▁unhappy	-11.1801
▁whoohoo	-11.1801
▁wilkinsburg	-11.1801
▁wrath	-11.1801
▁wyantwheeler	-11.1801
▁xibalba	-11.1801
▁zelda	-11.1801
▁blares	-11.1801
▁clerk	-11.1801
▁evelyn	-11.1801
▁grip	-11.1801
▁identity	-11.1801
▁lesbian	-11.1801
▁maddox	-11.1801
▁ohohoh	-11.1801
▁piace	-11.1801
▁stunned	-11.1801
▁tubab	-11.1801
▁whereabouts	-11.1801
▁alphabet	-11.1801
▁aussi	-11.1801
▁bateman	-11.1801
▁cheesy	-11.1801
▁dorm	-11.1801
▁judging	-11.1801
▁lolaus	-11.1801
▁reinforcements	-11.1801
▁transcend	-11.1801
▁wyant	-11.1801
▁butterfly	-11.1801
▁debbie	-11.1801
▁flaw	-11.1801
▁howre	-11.1801
▁mildred	-11.1801
▁muhammad	-11.1801
▁natalie	-11.1801
▁absorb	-11.1801
▁noticing	-11.1801
▁kuchi	-11.1801
▁testicle	-11.1801
▁anonymous	-11.1801
▁density	-11.1801
▁wizard	-11.1801
▁blueprints	-11.1801
▁canyon	-11.1801
▁convert	-11.1801
▁townsend	-11.1801
▁amusing	-11.1801
▁exclusive	-11.1801
▁waik	-11.1801
▁crisp	-11.1801
▁fuji	-11.1801
▁christina	-11.1801
▁iost	-11.1801
▁wheelchair	-11.1801
▁boulot	-11.1801
▁denied	-11.1801
▁rodin	-11.1801
ably	-11.1801
▁tumor	-11.1801
▁reef	-11.1801
▁microphone	-11.1801
▁authorities	-11.1801
▁hunk	-11.1801
▁laptop	-11.1801
▁bidding	-11.1801
▁sinkhole	-11.1801
▁snoopy	-11.1801
▁valley	-11.1801
▁chrys	-11.1801
▁rooster	-11.1801
▁pudding	-11.1801
▁lunatic	-11.1801
▁gesture	-11.1801
▁gender	-11.1801
▁rustling	-11.1801
▁elvis	-11.1801
▁isabella	-11.1801
▁skate	-11.1801
▁individual	-11.1801
oir	-11.1801
▁liiiy	-11.1801
▁owned	-11.1801
▁fiddle	-11.1801
▁stall	-11.1801
▁dragged	-11.1802
▁latin	-11.1802
▁tomato	-11.1802
▁pursuit	-11.1802
▁hisses	-11.1802
▁behold	-11.1802
▁patron	-11.1802
▁excess	-11.1802
▁panicked	-11.1802
▁operating	-11.1802
▁tension	-11.1802
▁infant	-11.1802
▁rumble	-11.1802
▁strand	-11.1802
▁waitress	-11.1802
▁wander	-11.1802
▁misery	-11.1802
▁suitcase	-11.1802
▁jingle	-11.1802
▁description	-11.1802
▁india	-11.1802
▁admission	-11.1802
▁vivian	-11.1802
▁defence	-11.1802
▁goddess	-11.1802
▁daily	-11.1802
▁essay	-11.1802
qualified	-11.1802
▁saddle	-11.1802
▁bribe	-11.1802
▁communist	-11.1802
▁graphic	-11.1802
▁install	-11.1802
▁salary	-11.1802
apoli	-11.1802
▁addition	-11.1802
ography	-11.1802
▁elementary	-11.1803
length	-11.1803
▁applie	-11.1803
▁slick	-11.1803
▁apologise	-11.1803
▁slop	-11.1803
▁stubby	-11.1803
▁bund	-11.1803
▁wrapped	-11.1803
▁specifically	-11.1803
▁godking	-11.1803
▁sheep	-11.1803
▁ralf	-11.1803
▁heir	-11.1803
▁theories	-11.1803
▁café	-11.1803
▁vibe	-11.1803
▁advisor	-11.1803
▁retirement	-11.1803
▁kno	-11.1804
▁bailey	-11.1804
▁cheerio	-11.1804
▁delightful	-11.1804
▁khan	-11.1804
▁blah	-11.1804
▁subtle	-11.1804
▁veal	-11.1804
▁ripping	-11.1804
▁ridge	-11.1804
▁castro	-11.1804
▁yum	-11.1804
▁feedback	-11.1804
▁delfi	-11.1804
▁slim	-11.1804
▁gray	-11.1804
▁sidewalk	-11.1804
▁condemned	-11.1804
▁sheii	-11.1805
▁belongings	-11.1805
▁scum	-11.1805
▁crank	-11.1805
▁stressful	-11.1805
▁slot	-11.1805
▁couch	-11.1805
▁arrivé	-11.1805
▁minus	-11.1805
▁yank	-11.1805
▁reese	-11.1805
▁blur	-11.1805
▁boil	-11.1805
▁keyboard	-11.1805
▁centre	-11.1805
▁motive	-11.1805
thesis	-11.1805
▁pony	-11.1806
▁fascinating	-11.1806
▁incompetent	-11.1806
▁tense	-11.1806
▁dragging	-11.1806
▁logical	-11.1806
▁chump	-11.1806
▁confident	-11.1806
▁clap	-11.1807
▁harmless	-11.1807
▁irre	-11.1807
▁scotch	-11.1807
▁yield	-11.1807
▁donor	-11.1807
▁hence	-11.1807
▁carbon	-11.1808
▁flicker	-11.1808
▁coke	-11.1808
▁margo	-11.1808
▁shiver	-11.1808
▁debate	-11.1808
▁hera	-11.1809
▁twe	-11.1809
▁swan	-11.1809
▁toll	-11.181
▁farewell	-11.1811
▁marcy	-11.1811
▁bam	-11.1811
▁background	-11.1811
▁bandage	-11.1811
▁velvet	-11.1812
▁civilian	-11.1812
▁grandp	-11.1812
level	-11.1812
▁warmth	-11.1812
▁soda	-11.1812
▁seul	-11.1812
▁sock	-11.1812
▁extraction	-11.1812
▁headline	-11.1813
▁jive	-11.1813
idian	-11.1813
▁colin	-11.1813
▁entry	-11.1813
▁accordion	-11.1813
▁munch	-11.1814
▁deput	-11.1814
▁frustrating	-11.1814
▁dishes	-11.1814
▁meowing	-11.1815
▁youyou	-11.1815
▁retreat	-11.1815
▁monet	-11.1815
▁maxson	-11.1816
▁appropriate	-11.1817
▁firstclass	-11.1817
▁orientation	-11.1818
▁moorer	-11.1819
▁tomb	-11.182
▁recovery	-11.182
▁shaw	-11.182
▁mug	-11.1821
▁accountant	-11.1821
▁bcd	-11.1822
▁wrestled	-11.1822
▁mustard	-11.1822
▁receiver	-11.1822
▁silhouettes	-11.1822
▁thermos	-11.1822
▁vegetables	-11.1822
▁steiner	-11.1824
▁ahem	-11.1825
▁lads	-11.1825
▁kidnappe	-11.1826
▁walt	-11.1826
▁thai	-11.1826
▁engines	-11.1827
▁bonus	-11.1828
▁established	-11.1829
▁cam	-11.183
▁peur	-11.183
▁starve	-11.183
▁gurgling	-11.1832
▁promising	-11.1832
▁stunt	-11.1832
▁sighing	-11.1832
▁clay	-11.1833
▁dedicated	-11.1833
▁fax	-11.1833
▁reno	-11.1835
▁deactivate	-11.1835
▁crane	-11.1835
▁dale	-11.1836
▁lester	-11.1837
▁dug	-11.1837
▁stare	-11.1837
▁penis	-11.1838
▁assist	-11.1841
▁bama	-11.1841
▁adopted	-11.1842
▁frightened	-11.1842
▁printed	-11.1842
▁tender	-11.1842
▁seconde	-11.1842
astic	-11.1843
▁leaky	-11.1844
▁showtime	-11.1845
▁graduated	-11.1845
▁setup	-11.1846
erial	-11.1847
▁paie	-11.1848
▁willi	-11.1849
▁tele	-11.185
▁inspired	-11.185
▁loosen	-11.185
vor	-11.1852
▁insulted	-11.1854
▁mooing	-11.1855
gara	-11.1859
▁shattering	-11.186
▁seagulls	-11.186
▁tyres	-11.186
prompt	-11.186
▁flatter	-11.186
▁referr	-11.1862
▁strongest	-11.1862
▁gro	-11.1863
cap	-11.1865
▁dresses	-11.1866
ecks	-11.1867
▁scraping	-11.1867
▁slings	-11.1867
▁greeting	-11.1868
▁appeared	-11.1873
▁burnin	-11.1875
▁booing	-11.1878
▁disco	-11.1878
▁lifetime	-11.1879
▁developed	-11.1879
▁rewrite	-11.1881
▁ducky	-11.1881
▁volunteered	-11.1885
▁junkie	-11.1889
▁magical	-11.189
▁correctly	-11.1891
▁brakes	-11.1898
▁curtains	-11.1898
▁giggles	-11.1898
▁persians	-11.1898
ray	-11.1898
▁commissioner	-11.19
▁temps	-11.1902
▁soy	-11.1902
▁melting	-11.1904
▁chilly	-11.1905
▁dot	-11.1907
▁amp	-11.1907
▁tracks	-11.1911
▁drowning	-11.1912
▁easter	-11.1912
▁this	-11.1913
▁curl	-11.1915
▁martyr	-11.1916
ius	-11.1916
halos	-11.1917
▁fry	-11.1917
levant	-11.1917
headed	-11.1919
▁triple	-11.1923
▁reminder	-11.1923
▁cont	-11.1934
▁secured	-11.1935
▁awaits	-11.1937
▁snorts	-11.1937
▁wolves	-11.1937
▁neighbors	-11.1937
▁remained	-11.1939
▁corners	-11.1939
▁comms	-11.1939
▁cata	-11.1943
ough	-11.1944
found	-11.1946
▁commands	-11.1946
fore	-11.1948
▁bellas	-11.1951
▁busted	-11.1952
nia	-11.1962
▁tre	-11.1962
▁robots	-11.1963
▁strip	-11.1965
▁feeiing	-11.1965
agile	-11.1971
▁horny	-11.1971
▁pad	-11.1975
▁shootin	-11.1976
▁rumors	-11.1976
ques	-11.1977
tom	-11.1982
▁loading	-11.1983
▁womens	-11.1992
▁borrowing	-11.1992
▁lily	-11.1994
ella	-11.1996
▁aa	-11.2
▁sleepin	-11.2002
▁tai	-11.2004
▁pressed	-11.2007
▁sweater	-11.2013
pper	-11.2029
▁manny	-11.2031
▁kara	-11.2042
▁tricky	-11.2045
▁journal	-11.2045
▁bloom	-11.2047
itz	-11.2051
etic	-11.2051
▁pasta	-11.2052
▁citizens	-11.2053
▁squeals	-11.2055
▁sweeps	-11.2055
▁visitors	-11.2056
▁nations	-11.2059
▁nod	-11.2062
▁cardio	-11.2067
gen	-11.207
tag	-11.2074
▁drawing	-11.2078
zer	-11.2079
▁tasted	-11.2084
stone	-11.2089
▁ko	-11.2093
▁communications	-11.2094
▁blankets	-11.2094
▁spears	-11.2094
▁pressing	-11.2094
▁preparations	-11.2094
▁bak	-11.2094
▁heater	-11.2105
fiance	-11.2111
▁timer	-11.2112
▁landed	-11.2116
▁hairs	-11.2124
▁joint	-11.2124
▁targeted	-11.2127
▁tokens	-11.2133
▁diggin	-11.2138
▁lining	-11.2139
wing	-11.2143
vais	-11.2147
art	-11.215
▁partir	-11.2155
▁gigs	-11.2159
▁tempt	-11.2166
▁fro	-11.2167
ther	-11.2168
▁tag	-11.2169
▁eighty	-11.2176
▁characters	-11.2179
▁wage	-11.2184
▁patt	-11.2193
▁banne	-11.22
of	-11.2203
pul	-11.2211
▁japs	-11.2213
▁seated	-11.2215
uit	-11.2217
▁beds	-11.2217
▁grin	-11.2218
▁offers	-11.223
▁tricked	-11.2246
▁fin	-11.2248
pense	-11.2262
▁robe	-11.2263
▁counted	-11.2267
▁gai	-11.2268
▁ham	-11.2283
▁adults	-11.2293
▁labors	-11.2294
▁boon	-11.2295
▁por	-11.23
▁sales	-11.2325
▁yearn	-11.2331
lets	-11.2331
▁options	-11.2334
▁equals	-11.2334
rapping	-11.2335
▁tans	-11.2341
▁crossing	-11.2351
▁layer	-11.2367
▁gia	-11.238
▁sleepy	-11.239
▁tube	-11.2392
▁wal	-11.24
spers	-11.2403
▁revs	-11.2411
▁images	-11.2415
▁nom	-11.2416
▁surprises	-11.2416
▁pockets	-11.2456
▁monkeys	-11.246
▁duri	-11.2464
▁deadly	-11.2474
but	-11.2483
▁pies	-11.2488
▁heavi	-11.2496
▁eagles	-11.2497
▁weights	-11.2499
▁bos	-11.2504
▁eliminate	-11.253
▁flows	-11.2549
oot	-11.2558
▁losers	-11.2565
▁scars	-11.2574
▁meals	-11.258
▁jewels	-11.258
▁dag	-11.2581
▁ped	-11.2582
▁chains	-11.2583
▁markets	-11.2584
▁kit	-11.2604
ipping	-11.2621
▁stones	-11.2621
oba	-11.2629
▁shi	-11.2649
oney	-11.2659
▁plu	-11.2662
▁yu	-11.2664
tan	-11.2678
rik	-11.2681
▁presidents	-11.2683
zle	-11.2689
▁traitoro	-11.2698
▁haut	-11.2699
▁generations	-11.2705
▁interns	-11.2705
▁ducks	-11.2707
▁objects	-11.2716
▁cardi	-11.2724
▁char	-11.2749
uch	-11.2758
▁drawl	-11.2766
ever	-11.278
▁els	-11.278
ouch	-11.2783
▁danced	-11.2783
▁nap	-11.2784
▁pigs	-11.279
cent	-11.2798
mans	-11.2806
hhh	-11.2808
▁din	-11.2811
▁owed	-11.2817
▁stations	-11.284
lexing	-11.2847
▁notes	-11.2865
sters	-11.2866
▁freaks	-11.2886
▁tit	-11.2898
▁tripp	-11.2907
▁boards	-11.2908
▁powering	-11.2909
▁writes	-11.2918
▁maniac	-11.2949
▁continu	-11.2964
oke	-11.297
▁provid	-11.2974
tri	-11.2994
▁sadde	-11.3
▁sakes	-11.3006
▁lakes	-11.3008
luc	-11.3008
▁peck	-11.302
fey	-11.3021
▁hoo	-11.3026
▁cousins	-11.3047
▁practices	-11.3047
ex	-11.305
isle	-11.3065
▁butts	-11.3095
air	-11.3104
▁boats	-11.3107
▁purposes	-11.3135
▁areas	-11.3135
▁eject	-11.314
▁xi	-11.3162
stful	-11.3165
▁bin	-11.3165
berg	-11.3169
▁taylors	-11.3179
▁files	-11.3189
▁grounds	-11.3204
▁dal	-11.3215
cam	-11.3215
▁suspects	-11.3223
hit	-11.3229
▁tests	-11.3233
▁reporters	-11.3258
pent	-11.3261
hole	-11.3268
né	-11.3292
▁founder	-11.3306
▁becketts	-11.3312
▁comb	-11.3315
▁mob	-11.3331
▁shirts	-11.3357
▁sera	-11.3358
▁rogers	-11.3402
▁goals	-11.3404
umpy	-11.3408
ante	-11.3419
▁cobb	-11.3428
▁petri	-11.3428
▁damned	-11.3433
▁sim	-11.3457
uk	-11.346
▁organ	-11.3477
▁sanit	-11.3488
lock	-11.3496
▁feeds	-11.35
▁trie	-11.3513
▁rocking	-11.3525
▁rig	-11.3537
▁clearing	-11.3566
▁chimney	-11.3582
▁rhinehart	-11.3582
▁elder	-11.3585
▁bruise	-11.3588
▁towel	-11.3589
▁flea	-11.3596
▁rumor	-11.3597
▁pattern	-11.3598
▁terrorist	-11.36
▁sponsor	-11.3601
▁piedge	-11.3603
▁tribute	-11.3603
oul	-11.362
lot	-11.3622
▁gut	-11.3623
win	-11.363
▁heavens	-11.3632
▁dy	-11.3636
tled	-11.3641
ulation	-11.3641
tard	-11.3658
▁asset	-11.3659
▁aut	-11.3659
tif	-11.3661
▁polic	-11.3664
▁server	-11.3669
▁fade	-11.367
▁intr	-11.367
q	-11.3681
▁commission	-11.3682
was	-11.369
book	-11.3695
▁trans	-11.3705
ini	-11.371
▁recruit	-11.3711
▁pale	-11.3715
▁hats	-11.3716
▁disappoint	-11.3717
urne	-11.3718
▁crow	-11.3719
▁cane	-11.3721
attered	-11.3725
▁transform	-11.3727
▁josh	-11.3731
semble	-11.3732
▁decid	-11.3733
take	-11.3736
stream	-11.3738
with	-11.3741
walk	-11.3744
guard	-11.3745
▁refer	-11.3745
road	-11.3745
dollar	-11.3746
grade	-11.3747
easley	-11.3747
yeah	-11.3747
style	-11.3748
▁blush	-11.3748
making	-11.3748
woman	-11.3748
space	-11.3749
▁garde	-11.3749
three	-11.3749
great	-11.3749
speed	-11.375
watch	-11.375
▁crunch	-11.375
hour	-11.375
▁ter	-11.3756
▁attract	-11.3757
▁distract	-11.3758
▁strain	-11.376
band	-11.3761
▁adapt	-11.3763
▁depress	-11.3763
▁fulfill	-11.3763
▁reveal	-11.3764
▁establish	-11.3765
▁collapse	-11.3766
▁register	-11.3766
▁types	-11.3768
door	-11.3768
▁cakes	-11.3768
rock	-11.3769
▁approve	-11.3769
▁compromise	-11.377
cost	-11.3772
▁joseph	-11.3774
roll	-11.3774
▁lemkov	-11.3777
talk	-11.3778
▁liz	-11.3783
▁groov	-11.3784
▁travail	-11.3784
▁snipe	-11.3785
▁teenage	-11.3786
▁numb	-11.3786
▁permanent	-11.3787
▁conquer	-11.3788
▁extensi	-11.379
sky	-11.379
▁inject	-11.3793
▁gaug	-11.3793
▁swede	-11.3793
▁exhal	-11.3795
self	-11.3797
▁raisin	-11.3798
▁moore	-11.3798
▁mornin	-11.3798
▁dancin	-11.3798
▁audit	-11.3798
▁sororit	-11.3799
▁chimi	-11.3799
▁gat	-11.3799
▁entertain	-11.3799
▁terror	-11.38
▁congratulat	-11.3801
▁forbid	-11.3801
▁micro	-11.3801
▁muhamm	-11.3801
▁congress	-11.3801
▁koushik	-11.3801
▁razor	-11.3801
misunderstanding	-11.3801
▁absurd	-11.3801
▁accurate	-11.3801
▁acknowledge	-11.3801
▁adriana	-11.3801
▁afghanistan	-11.3801
▁algorithm	-11.3801
▁alligator	-11.3801
▁amazon	-11.3801
▁ambulance	-11.3801
▁applebees	-11.3801
▁aspic	-11.3801
▁asteroid	-11.3801
▁atlanta	-11.3801
▁belief	-11.3801
▁benjamin	-11.3801
▁bladder	-11.3801
▁borovsky	-11.3801
▁brannen	-11.3801
▁budapest	-11.3801
▁celebration	-11.3801
▁cheerleader	-11.3801
▁clutch	-11.3801
▁coconut	-11.3801
▁collided	-11.3801
▁companies	-11.3801
▁connpod	-11.3801
▁conspir	-11.3801
▁contaminated	-11.3801
▁cube	-11.3801
▁cuckoo	-11.3801
▁curiosity	-11.3801
▁dammit	-11.3801
▁definiteiy	-11.3801
▁departure	-11.3801
▁destined	-11.3801
▁diarrhea	-11.3801
▁disengage	-11.3801
▁disrespect	-11.3801
▁dobler	-11.3801
▁earthquake	-11.3801
▁eduard	-11.3801
▁elbow	-11.3801
▁envelope	-11.3801
▁envoy	-11.3801
▁examination	-11.3801
▁exgirlfriend	-11.3801
▁exhusband	-11.3801
▁extraordina	-11.3801
▁exwife	-11.3801
▁february	-11.3801
▁fellgiebel	-11.3801
▁fugitive	-11.3801
▁genuine	-11.3801
▁ghetto	-11.3801
▁glaeser	-11.3801
▁grandkids	-11.3801
▁harbor	-11.3801
▁hedgehog	-11.3801
▁hilarious	-11.3801
▁holland	-11.3801
▁iearn	-11.3801
▁ieave	-11.3801
▁imperfections	-11.3801
▁inbetween	-11.3801
▁indestructible	-11.3801
▁injured	-11.3801
▁inviting	-11.3801
▁janitor	-11.3801
▁jericho	-11.3801
▁kegger	-11.3801
▁lamarque	-11.3801
▁mahimahi	-11.3801
▁makebelieve	-11.3801
▁masseuse	-11.3801
▁maurice	-11.3801
▁megapark	-11.3801
▁merchant	-11.3801
▁midget	-11.3801
▁miranda	-11.3801
▁miriam	-11.3801
▁mockingjay	-11.3801
▁molehill	-11.3801
▁napoleon	-11.3801
▁neckbone	-11.3801
▁negro	-11.3801
▁nerscylla	-11.3801
▁nitrogen	-11.3801
▁oakenshield	-11.3801
▁olympus	-11.3801
▁orbit	-11.3801
▁orchid	-11.3801
▁ortega	-11.3801
▁ostrich	-11.3801
▁overthrow	-11.3801
▁pakistan	-11.3801
▁penguin	-11.3801
▁plutarch	-11.3801
▁poseidon	-11.3801
▁precursors	-11.3801
▁promotion	-11.3801
▁rainbow	-11.3801
▁religion	-11.3801
▁rhino	-11.3801
▁rhyme	-11.3801
▁rookie	-11.3801
▁salmon	-11.3801
▁sculpt	-11.3801
▁shanghai	-11.3801
▁similar	-11.3801
▁slaughter	-11.3801
▁souvenir	-11.3801
▁speciai	-11.3801
▁spidey	-11.3801
▁stawicki	-11.3801
▁stereo	-11.3801
▁supplies	-11.3801
▁switzerland	-11.3801
▁teacup	-11.3801
▁thermal	-11.3801
▁thorough	-11.3801
▁tumbleweed	-11.3801
▁undercard	-11.3801
▁unfair	-11.3801
▁unleash	-11.3801
▁unnecessary	-11.3801
▁velociraptor	-11.3801
▁vicinity	-11.3801
▁vitamin	-11.3801
▁wendy	-11.3801
▁wookiee	-11.3801
▁yeeee	-11.3801
▁zeppelin	-11.3801
▁beverly	-11.3801
▁bogey	-11.3801
▁carousel	-11.3801
▁database	-11.3801
▁dennis	-11.3801
▁dillon	-11.3801
▁gelé	-11.3801
▁henley	-11.3801
▁index	-11.3801
▁nitrous	-11.3801
▁penthouse	-11.3801
▁quote	-11.3801
▁raylene	-11.3801
▁regain	-11.3801
▁seventeen	-11.3801
▁shaky	-11.3801
▁submit	-11.3801
▁cinna	-11.3801
▁cyber	-11.3801
▁dork	-11.3801
▁levier	-11.3801
▁loaf	-11.3801
▁merger	-11.3801
▁nouvelle	-11.3801
▁shaft	-11.3801
▁toppings	-11.3801
▁website	-11.3801
▁whatsoever	-11.3801
▁which	-11.3801
▁arab	-11.3801
▁capacity	-11.3801
▁embee	-11.3801
▁fortress	-11.3801
▁homepage	-11.3801
▁kayla	-11.3801
▁motivation	-11.3801
▁ostin	-11.3801
▁raison	-11.3801
compression	-11.3801
▁eager	-11.3801
▁mutual	-11.3801
▁tragic	-11.3801
▁cereal	-11.3801
▁depth	-11.3801
▁forcing	-11.3801
▁pinned	-11.3801
▁reich	-11.3801
▁brawl	-11.3801
▁horace	-11.3801
▁meatballs	-11.3801
▁cubic	-11.3801
▁derek	-11.3801
▁independence	-11.3801
▁nonstop	-11.3801
▁onscreen	-11.3801
▁promoted	-11.3801
▁unison	-11.3801
▁crave	-11.3801
▁poppys	-11.3801
▁pervert	-11.3801
▁chrissake	-11.3801
▁adore	-11.3801
▁fiona	-11.3801
▁hustle	-11.3801
▁fiancee	-11.3801
▁fumble	-11.3801
▁reflect	-11.3801
▁hardworking	-11.3801
▁microwave	-11.3801
▁nedry	-11.3801
érieure	-11.3801
▁bliss	-11.3801
▁unreal	-11.3801
▁backbone	-11.3801
▁innovati	-11.3801
▁bamberg	-11.3801
▁binding	-11.3801
▁tennis	-11.3801
▁compell	-11.3801
▁kilometer	-11.3801
▁matisse	-11.3801
▁osbo	-11.3801
▁resume	-11.3801
▁flare	-11.3801
▁respirator	-11.3801
▁yeehaw	-11.3801
▁devrai	-11.3801
▁aggie	-11.3801
▁intimate	-11.3801
▁puppy	-11.3801
▁sniffles	-11.3801
▁skipping	-11.3801
▁yyou	-11.3801
▁briefcase	-11.3801
▁graduating	-11.3801
ouvert	-11.3801
▁unrest	-11.3801
▁encrypt	-11.3801
▁tandy	-11.3801
▁voiture	-11.3801
▁interrogation	-11.3801
▁addict	-11.3801
▁honour	-11.3801
▁bensley	-11.3801
▁angle	-11.3801
▁ciose	-11.3801
▁kearney	-11.3801
▁triumphant	-11.3801
▁canada	-11.3801
▁bouncing	-11.3801
▁fonzie	-11.3801
▁kitten	-11.3801
▁loins	-11.3801
▁dagger	-11.3801
▁cinema	-11.3801
▁reference	-11.3801
▁thudding	-11.3801
▁urine	-11.3801
▁burden	-11.3801
▁werewolf	-11.3801
▁fetch	-11.3801
▁whittle	-11.3801
▁humiliating	-11.3802
▁polish	-11.3802
▁franz	-11.3802
▁repay	-11.3802
▁receptionist	-11.3802
▁endorsement	-11.3802
▁northeast	-11.3802
▁obey	-11.3802
▁yahoo	-11.3802
▁platts	-11.3802
▁discrimination	-11.3802
▁inbound	-11.3802
▁fiction	-11.3802
▁venir	-11.3802
▁hamid	-11.3802
cleod	-11.3802
▁degas	-11.3802
▁bosco	-11.3802
▁straw	-11.3802
▁transition	-11.3802
▁centuri	-11.3802
▁hankins	-11.3802
▁saigne	-11.3802
▁stash	-11.3802
▁drownded	-11.3802
uriel	-11.3802
▁daw	-11.3802
▁virus	-11.3802
▁establishment	-11.3802
▁pimp	-11.3802
▁hague	-11.3802
▁keymaster	-11.3802
▁dencre	-11.3802
▁trex	-11.3802
▁maddie	-11.3802
▁upside	-11.3802
▁mysterious	-11.3802
▁lemonade	-11.3803
▁rosalie	-11.3803
▁emerge	-11.3803
▁buzzline	-11.3803
▁gunfire	-11.3803
▁graveyard	-11.3803
▁fond	-11.3803
▁panem	-11.3803
▁mediocre	-11.3803
▁execute	-11.3803
▁negotiate	-11.3803
▁yaps	-11.3803
▁organism	-11.3803
▁ferai	-11.3803
▁valor	-11.3803
▁luxury	-11.3803
▁odyssey	-11.3803
▁therapy	-11.3803
▁ruies	-11.3803
▁punishment	-11.3803
▁sentimental	-11.3803
▁pavel	-11.3803
▁rapid	-11.3804
▁heure	-11.3804
▁barbay	-11.3804
▁nsa	-11.3804
▁starfish	-11.3804
▁mmmmm	-11.3804
▁northern	-11.3804
▁bodyguard	-11.3804
▁accuse	-11.3804
▁vista	-11.3804
▁auction	-11.3804
▁summon	-11.3804
igible	-11.3804
▁stallion	-11.3804
▁attendant	-11.3804
▁nascar	-11.3804
▁harness	-11.3804
▁maze	-11.3804
▁whitman	-11.3805
▁snowball	-11.3805
▁visa	-11.3805
▁holyfield	-11.3805
▁faii	-11.3805
▁ratio	-11.3805
▁cruisin	-11.3805
▁exactiy	-11.3805
▁karen	-11.3805
manship	-11.3805
▁dyna	-11.3805
▁ambition	-11.3805
▁carni	-11.3806
▁loop	-11.3806
▁voto	-11.3806
▁rash	-11.3806
▁roam	-11.3806
▁admitted	-11.3806
▁eise	-11.3806
▁diary	-11.3806
▁joan	-11.3807
▁torn	-11.3807
▁facebook	-11.3807
▁plow	-11.3807
▁mutation	-11.3807
▁management	-11.3807
▁glow	-11.3808
▁mieux	-11.3808
▁heath	-11.3808
lnglng	-11.3808
▁hitch	-11.3808
▁hypnosis	-11.3808
▁analysis	-11.3808
▁sketch	-11.3808
▁beautifui	-11.3808
▁carrot	-11.3808
▁budget	-11.3808
▁probl	-11.3808
▁iisten	-11.3808
▁jewelry	-11.3808
▁kink	-11.3809
▁joyce	-11.3809
▁piayboy	-11.3809
▁bunker	-11.3809
▁enti	-11.381
▁civilized	-11.381
▁coil	-11.381
▁blackbird	-11.381
▁thadde	-11.381
▁affection	-11.381
▁savoir	-11.381
▁tasty	-11.3811
▁liters	-11.3811
▁studied	-11.3811
▁darn	-11.3811
▁popped	-11.3812
▁lime	-11.3812
▁debut	-11.3812
▁educated	-11.3812
▁kneel	-11.3812
▁sandman	-11.3812
▁imply	-11.3813
▁piggy	-11.3813
▁pierce	-11.3813
▁pont	-11.3813
▁reveren	-11.3814
▁impression	-11.3814
▁copies	-11.3814
ix	-11.3815
▁barbara	-11.3815
▁aww	-11.3815
▁bel	-11.3815
▁breaches	-11.3816
▁barrier	-11.3817
▁humble	-11.3817
▁item	-11.3817
▁gina	-11.3818
▁foodland	-11.3818
▁passage	-11.3818
▁groove	-11.3818
apar	-11.3819
▁joue	-11.3819
▁ladresse	-11.3819
▁alberta	-11.382
arold	-11.382
▁payback	-11.382
▁sustained	-11.382
▁devoted	-11.382
▁policy	-11.382
▁écoute	-11.3821
▁neutral	-11.3821
▁conscious	-11.3821
▁tore	-11.3821
▁octo	-11.3822
▁selected	-11.3822
▁lemkova	-11.3825
▁dose	-11.3826
▁relieved	-11.3827
rlock	-11.3827
assuming	-11.3827
▁sandwiches	-11.3827
▁sait	-11.3827
olini	-11.3828
▁clothing	-11.3828
▁resources	-11.3828
▁standoff	-11.3828
▁invented	-11.3828
▁complaining	-11.3828
▁invested	-11.3829
▁likewise	-11.383
▁assimilated	-11.3831
▁cult	-11.3832
▁nik	-11.3833
▁photography	-11.3833
▁worm	-11.3834
▁stroke	-11.3834
▁originally	-11.3834
▁duh	-11.3835
▁echoes	-11.3835
▁grease	-11.3835
ssenger	-11.3835
▁attracted	-11.3836
▁toothp	-11.3837
▁mori	-11.3838
▁itit	-11.3839
▁taunting	-11.3839
▁properly	-11.384
▁raving	-11.384
▁faites	-11.384
▁potion	-11.384
▁monarch	-11.384
▁realised	-11.3842
▁lawman	-11.3842
soothe	-11.3842
▁rim	-11.3842
▁voulai	-11.3843
▁hart	-11.3843
▁gourm	-11.3843
▁recovered	-11.3843
▁ore	-11.3845
▁nob	-11.3845
▁vp	-11.3846
▁pup	-11.3846
▁compared	-11.3846
▁syl	-11.3847
▁demo	-11.3847
▁exposed	-11.3849
▁pickup	-11.385
▁iist	-11.385
▁fig	-11.385
▁disappointing	-11.385
▁viens	-11.3851
▁replaced	-11.3853
▁evolved	-11.3853
▁villa	-11.3854
▁fasten	-11.3854
▁continuing	-11.3854
▁defy	-11.3855
▁registered	-11.3856
une	-11.3857
hn	-11.3857
▁chen	-11.3858
▁ruby	-11.386
vé	-11.3861
▁pastor	-11.3863
teau	-11.3865
ember	-11.3867
▁hilt	-11.3867
tale	-11.3869
▁homeland	-11.3872
▁frightening	-11.3872
▁claws	-11.3873
▁engineering	-11.3874
▁insects	-11.3874
▁olympics	-11.3874
▁chariots	-11.3874
▁handcuffs	-11.3874
▁clanks	-11.3874
▁discovery	-11.3875
▁flushed	-11.3875
▁charts	-11.3875
▁diver	-11.3877
▁limited	-11.388
▁cookin	-11.3881
▁wit	-11.3882
▁responded	-11.3883
▁helena	-11.3884
ization	-11.3884
cette	-11.3887
▁overhear	-11.389
▁bosses	-11.3891
▁activated	-11.3891
▁hopeless	-11.3893
ming	-11.3894
▁weeping	-11.3894
▁poppins	-11.3895
▁void	-11.3896
▁contained	-11.3898
▁performed	-11.3898
▁framed	-11.3901
▁barre	-11.3903
▁blessing	-11.3904
▁drawer	-11.3906
▁wiggl	-11.3908
▁requesting	-11.3908
▁mule	-11.3909
▁laide	-11.391
▁seth	-11.3913
▁minni	-11.3914
▁str	-11.3922
▁napkins	-11.3922
▁prophets	-11.3922
▁ribs	-11.3922
cé	-11.3924
▁cheaper	-11.3924
ular	-11.3926
▁fatal	-11.3927
gues	-11.3928
▁kilo	-11.3929
▁heavenly	-11.3929
▁divorced	-11.393
▁lend	-11.3931
▁han	-11.3932
▁sto	-11.3935
▁gathered	-11.3938
tempo	-11.3942
▁described	-11.3942
▁backyard	-11.3943
▁oc	-11.3948
▁jess	-11.3951
▁asia	-11.3952
▁roller	-11.3952
falls	-11.3955
▁healing	-11.3961
▁missus	-11.3964
▁nacho	-11.3969
flop	-11.3969
▁particles	-11.397
▁oysters	-11.397
▁sailors	-11.3971
▁challenged	-11.398
▁flashing	-11.3983
▁bangs	-11.3984
▁ford	-11.3988
▁stab	-11.3989
▁ops	-11.4001
▁tribe	-11.4004
appelle	-11.4005
por	-11.4006
▁discussed	-11.4008
▁virtual	-11.4009
▁deserved	-11.4009
▁tater	-11.4012
▁freaked	-11.4014
fall	-11.4014
▁fades	-11.4018
▁bruises	-11.4019
▁towels	-11.4019
▁organs	-11.4021
ld	-11.4025
▁failing	-11.4027
▁poo	-11.4029
▁bonding	-11.4039
▁sander	-11.4045
▁goose	-11.4053
▁obs	-11.4061
▁models	-11.4068
▁scavs	-11.4068
▁tunnels	-11.4068
▁demons	-11.4068
▁statu	-11.4073
▁lind	-11.4073
▁exc	-11.4078
▁calmly	-11.4088
▁thresh	-11.409
date	-11.4091
ail	-11.4091
▁muss	-11.4092
▁sno	-11.4094
▁corrected	-11.4104
iiy	-11.4105
▁fishy	-11.4105
▁pissing	-11.4108
avo	-11.4113
▁samples	-11.4117
▁tools	-11.4117
▁temples	-11.4117
▁shatters	-11.4118
▁methods	-11.4119
arian	-11.4123
▁sticky	-11.4124
▁shu	-11.4128
oft	-11.4129
▁reinforce	-11.4134
▁completed	-11.4138
▁amor	-11.414
▁walkin	-11.4145
▁rolled	-11.4153
▁engineers	-11.4154
▁judged	-11.4156
tors	-11.416
▁limits	-11.4162
▁clams	-11.4166
▁inspires	-11.4168
▁returns	-11.4169
lights	-11.417
▁mou	-11.4172
▁quun	-11.4175
▁fini	-11.4183
▁fier	-11.4184
mean	-11.4189
▁warming	-11.419
▁extend	-11.4193
▁blinds	-11.4197
▁liver	-11.4199
▁lamen	-11.4213
▁appreciated	-11.4215
▁toute	-11.4216
▁arrows	-11.4216
ador	-11.4221
▁your	-11.4228
▁pub	-11.423
▁poster	-11.4237
rious	-11.424
▁batt	-11.4241
▁planes	-11.4252
▁rés	-11.4252
▁handler	-11.4263
▁divisions	-11.4266
▁dozens	-11.4266
▁holidays	-11.4266
▁skeletons	-11.4266
▁alarmed	-11.4267
▁lub	-11.4271
▁aha	-11.4274
▁protester	-11.4274
cou	-11.4283
▁cath	-11.4287
▁askin	-11.4294
sign	-11.4297
▁washing	-11.4301
▁dealt	-11.4304
▁bees	-11.4305
▁finn	-11.4306
▁includes	-11.4316
▁officials	-11.4317
▁hugg	-11.4327
▁playin	-11.4329
▁sav	-11.4339
hm	-11.434
▁chan	-11.4343
▁hay	-11.4352
tru	-11.436
▁landing	-11.4361
▁ci	-11.4366
▁ros	-11.4366
▁breasts	-11.4366
▁exists	-11.4368
eal	-11.437
argent	-11.4374
zzie	-11.4388
▁bobo	-11.4388
▁tropic	-11.441
ada	-11.442
▁regards	-11.4438
▁and	-11.4442
mber	-11.4453
▁lent	-11.4454
▁reaiize	-11.4463
▁marines	-11.4468
ousy	-11.4472
rage	-11.4475
agging	-11.4475
▁watcher	-11.4476
▁grounded	-11.4476
▁was	-11.449
ofa	-11.4491
pie	-11.4511
▁stocks	-11.4519
▁snakes	-11.4519
▁stinks	-11.4519
▁banker	-11.4533
▁smelled	-11.4543
▁parked	-11.4558
▁recorder	-11.4563
▁affects	-11.4563
▁conditions	-11.4571
▁funerals	-11.4571
▁elm	-11.4577
your	-11.4585
▁bookie	-11.4589
cast	-11.4597
bon	-11.46
▁descend	-11.4606
▁proven	-11.4615
▁stayin	-11.4621
shot	-11.4633
▁jock	-11.4633
▁chari	-11.4635
▁by	-11.4639
etically	-11.4641
via	-11.4652
loo	-11.4657
▁nor	-11.4664
▁sen	-11.4673
▁tattoos	-11.4675
▁chu	-11.4682
ening	-11.4701
▁salv	-11.4703
▁shoo	-11.4706
els	-11.4717
▁beams	-11.4727
▁swo	-11.473
▁stan	-11.4737
ptic	-11.4763
ura	-11.4764
▁nicer	-11.4764
▁ru	-11.4767
▁op	-11.4771
▁covering	-11.4775
▁mit	-11.4776
▁faithful	-11.478
varia	-11.4789
esme	-11.4808
▁bran	-11.4813
▁swings	-11.4816
aro	-11.4825
▁pizzas	-11.4833
▁dukes	-11.4833
tched	-11.4844
sper	-11.4848
tez	-11.4856
▁emp	-11.4866
acy	-11.4875
▁handy	-11.4878
okin	-11.4884
▁callin	-11.4885
▁basements	-11.4886
▁quarters	-11.4886
▁carnies	-11.4894
▁iv	-11.4903
▁ordering	-11.4923
ume	-11.4929
▁serv	-11.495
▁deceiv	-11.4968
will	-11.4969
mois	-11.5043
nk	-11.5046
▁chairs	-11.5048
▁niggers	-11.5048
▁nargles	-11.5048
▁rhythm	-11.5072
ght	-11.5081
▁roberts	-11.5096
ology	-11.5097
▁creo	-11.5105
iu	-11.5118
eurs	-11.5134
▁surv	-11.516
▁smok	-11.5176
▁barns	-11.5189
▁dub	-11.5191
gie	-11.5202
▁prices	-11.5212
tations	-11.5223
ott	-11.523
▁writers	-11.5252
▁clin	-11.526
▁eb	-11.5272
zo	-11.528
mmons	-11.5291
fit	-11.5301
▁strikes	-11.5323
▁tanks	-11.5323
▁bang	-11.533
▁cleared	-11.5337
och	-11.5348
▁bottles	-11.5379
▁battles	-11.538
far	-11.5386
iine	-11.5408
▁gen	-11.5428
▁jeans	-11.5435
▁declar	-11.5447
▁earl	-11.546
tching	-11.5471
kung	-11.5494
▁sai	-11.5501
ari	-11.5535
▁rab	-11.5553
▁fou	-11.5553
ju	-11.5562
gre	-11.5585
▁ji	-11.5612
ric	-11.5621
▁sus	-11.5638
▁challeng	-11.5645
ux	-11.5651
fin	-11.5671
bber	-11.5722
onge	-11.5727
anne	-11.5739
▁squeez	-11.575
rch	-11.576
ipped	-11.5764
▁stea	-11.5768
igio	-11.5771
ight	-11.5798
▁dam	-11.5805
▁deduc	-11.5809
erie	-11.583
quil	-11.5833
▁swor	-11.5841
▁baker	-11.5896
▁comm	-11.5911
rene	-11.5946
rot	-11.5956
▁boney	-11.5966
▁loo	-11.5968
val	-11.5976
mond	-11.5979
run	-11.5987
▁prop	-11.5997
rait	-11.6012
▁sm	-11.6024
ease	-11.6026
ofthe	-11.603
▁sigh	-11.6047
▁cru	-11.6052
▁cough	-11.6062
▁parent	-11.6067
▁snack	-11.6082
▁feature	-11.6082
▁consequence	-11.6083
winding	-11.6086
▁oyster	-11.6088
▁particle	-11.6088
▁neighbor	-11.6092
▁wolve	-11.6092
▁snort	-11.6092
▁frog	-11.6093
▁exclaim	-11.6095
▁await	-11.6095
▁glove	-11.6096
▁sailor	-11.6097
▁pretzel	-11.6098
▁coordinate	-11.6098
▁hampton	-11.6104
▁heel	-11.6104
tynine	-11.6105
▁scout	-11.6107
▁ski	-11.6107
▁profession	-11.6108
▁deri	-11.6109
▁tourist	-11.6113
▁brownie	-11.6121
▁econom	-11.6124
▁baskin	-11.6129
▁associate	-11.6132
ague	-11.6134
presentation	-11.6142
onanc	-11.6147
▁activat	-11.6162
exi	-11.6163
▁lesion	-11.6164
case	-11.6166
▁hiphop	-11.6168
ela	-11.617
cky	-11.6177
▁tho	-11.6179
power	-11.6195
▁raid	-11.6196
▁laiss	-11.6199
nnie	-11.62
utte	-11.6203
night	-11.6205
▁retir	-11.6205
tomy	-11.6207
▁invest	-11.6208
▁wea	-11.6209
▁promis	-11.6211
viet	-11.6211
▁nasa	-11.622
keeper	-11.6222
rich	-11.6222
▁experienc	-11.6225
▁discre	-11.6229
▁shack	-11.623
▁any	-11.6231
town	-11.6236
▁hippo	-11.6238
azar	-11.624
craft	-11.624
master	-11.624
cru	-11.6242
cream	-11.6244
viens	-11.6244
reader	-11.6246
father	-11.6247
color	-11.6247
burn	-11.6248
third	-11.6248
service	-11.6248
sticks	-11.6248
secret	-11.6248
▁devastat	-11.6248
called	-11.6248
▁slug	-11.6249
seven	-11.6249
▁sac	-11.6249
taking	-11.6249
naked	-11.625
bach	-11.625
word	-11.6252
▁contra	-11.6252
▁taunt	-11.6252
▁gurgl	-11.6253
wang	-11.6253
bang	-11.6253
ack	-11.6261
event	-11.6261
▁andr	-11.6262
nny	-11.6264
▁detect	-11.6265
▁what	-11.6265
▁mock	-11.6265
enchman	-11.6265
▁invent	-11.6267
▁danse	-11.6267
▁iose	-11.6267
▁relieve	-11.6268
▁wrestle	-11.6269
▁hick	-11.6269
▁biog	-11.627
core	-11.627
▁determine	-11.6272
▁pol	-11.6272
▁choos	-11.6272
▁dat	-11.6275
locks	-11.6276
▁albert	-11.6277
▁hatch	-11.6277
stand	-11.6277
based	-11.6278
leigh	-11.6279
▁avenge	-11.6281
▁chéri	-11.6282
▁seduc	-11.6283
▁trouv	-11.6284
▁inaudibl	-11.6285
▁adventur	-11.6285
▁chlo	-11.6285
▁spook	-11.6285
▁consistent	-11.6286
▁indi	-11.6287
▁sour	-11.6289
▁practical	-11.6289
veau	-11.6289
▁inspect	-11.6289
▁lauren	-11.6289
▁velve	-11.629
▁humb	-11.6291
▁wax	-11.6292
▁korea	-11.6293
▁scoot	-11.6293
▁roach	-11.6294
▁inspiration	-11.6294
▁veu	-11.6294
vez	-11.6294
▁branch	-11.6294
▁convention	-11.6294
▁easie	-11.6295
male	-11.6296
ruster	-11.6296
▁horrib	-11.6298
▁supervis	-11.6298
▁sittin	-11.6298
▁glen	-11.6299
▁toxic	-11.6299
encre	-11.6299
minded	-11.6299
▁convers	-11.6299
▁homeostas	-11.6299
▁orient	-11.6299
▁immortal	-11.6299
▁kiddin	-11.6299
▁accompli	-11.63
▁influen	-11.63
▁manifest	-11.63
▁russell	-11.63
▁multi	-11.6301
▁egypt	-11.6301
▁aleks	-11.6301
▁scholar	-11.6301
▁satisf	-11.6301
hypnoti	-11.6301
onsnous	-11.6301
▁ablaze	-11.6301
▁abracadabra	-11.6301
▁abraham	-11.6301
▁acrisius	-11.6301
▁adjourn	-11.6301
▁affirm	-11.6301
▁afflovest	-11.6301
▁aidemoi	-11.6301
▁ajax	-11.6301
▁alignment	-11.6301
▁allegations	-11.6301
▁allegedly	-11.6301
▁alsharif	-11.6301
▁altitude	-11.6301
▁amanda	-11.6301
▁amateur	-11.6301
▁amusement	-11.6301
▁anxiety	-11.6301
▁appointed	-11.6301
▁approximately	-11.6301
▁artemis	-11.6301
▁attrape	-11.6301
▁auditorium	-11.6301
▁australia	-11.6301
▁axelrod	-11.6301
▁barbecue	-11.6301
▁barracks	-11.6301
▁battalion	-11.6301
▁bizarre	-11.6301
▁blankenship	-11.6301
▁blatant	-11.6301
▁blunt	-11.6301
▁bohemia	-11.6301
▁bordel	-11.6301
▁calendar	-11.6301
▁camille	-11.6301
▁centaurs	-11.6301
▁chardonnay	-11.6301
▁clatters	-11.6301
▁cleopatra	-11.6301
▁collapsing	-11.6301
▁conclude	-11.6301
▁contender	-11.6301
▁corporal	-11.6301
▁correspond	-11.6301
▁corrupt	-11.6301
▁cradle	-11.6301
▁crawford	-11.6301
▁crotch	-11.6301
▁cuisine	-11.6301
▁dehydrat	-11.6301
▁democracy	-11.6301
▁deutscher	-11.6301
▁diabetic	-11.6301
▁dictionary	-11.6301
▁discount	-11.6301
▁disobey	-11.6301
▁dorothy	-11.6301
▁einstein	-11.6301
▁elegant	-11.6301
▁elkhorn	-11.6301
▁embryo	-11.6301
▁encounter	-11.6301
▁enthusiastic	-11.6301
▁eusebios	-11.6301
▁exaggerate	-11.6301
▁exposure	-11.6301
▁fanfare	-11.6301
▁felicia	-11.6301
▁ferret	-11.6301
▁folsom	-11.6301
▁frankenstein	-11.6301
▁fundraiser	-11.6301
▁generosity	-11.6301
▁ghostwriter	-11.6301
▁gobbling	-11.6301
▁gratitude	-11.6301
▁greece	-11.6301
▁grocery	-11.6301
▁guldur	-11.6301
▁hamburger	-11.6301
▁handkerchief	-11.6301
▁hatherton	-11.6301
▁hehhehheh	-11.6301
▁holmes	-11.6301
▁hunch	-11.6301
▁hurricane	-11.6301
▁identical	-11.6301
▁ignacio	-11.6301
▁ignition	-11.6301
▁industry	-11.6301
▁infiltrate	-11.6301
▁inherit	-11.6301
▁intensifies	-11.6301
▁intervention	-11.6301
▁intuition	-11.6301
▁jumbo	-11.6301
▁klaatu	-11.6301
▁kosher	-11.6301
▁kuekuatsheu	-11.6301
▁luggage	-11.6301
▁manipedi	-11.6301
▁marietta	-11.6301
▁mechanism	-11.6301
▁melancholy	-11.6301
▁memorable	-11.6301
▁memorial	-11.6301
▁memphis	-11.6301
▁mexican	-11.6301
▁minimum	-11.6301
▁ministry	-11.6301
▁morocco	-11.6301
▁morphine	-11.6301
▁motorbike	-11.6301
▁mourir	-11.6301
▁muskrat	-11.6301
▁northwestern	-11.6301
▁nugget	-11.6301
▁odoyle	-11.6301
▁omaha	-11.6301
▁onceinalifetime	-11.6301
▁oprah	-11.6301
▁outbreak	-11.6301
▁outnumber	-11.6301
▁palladium	-11.6301
▁paranoid	-11.6301
▁patrol	-11.6301
▁paxton	-11.6301
▁perception	-11.6301
▁pewter	-11.6301
▁pheno	-11.6301
▁piccata	-11.6301
▁picturing	-11.6301
▁pigfeet	-11.6301
▁pithom	-11.6301
▁pookie	-11.6301
▁popcorn	-11.6301
▁popuiar	-11.6301
▁poverty	-11.6301
▁prejudice	-11.6301
▁proximity	-11.6301
▁pubiish	-11.6301
▁pyramid	-11.6301
▁raijin	-11.6301
▁reflex	-11.6301
▁relentless	-11.6301
▁resurrection	-11.6301
▁rifle	-11.6301
▁ritual	-11.6301
▁rombauer	-11.6301
▁romulus	-11.6301
▁scenario	-11.6301
▁scissor	-11.6301
▁selfesteem	-11.6301
▁selkirk	-11.6301
▁senator	-11.6301
▁shepherd	-11.6301
▁shrikethorn	-11.6301
▁singapore	-11.6301
▁spandex	-11.6301
▁spontaneous	-11.6301
▁sterilize	-11.6301
▁stump	-11.6301
▁substantial	-11.6301
▁suburb	-11.6301
▁suicidal	-11.6301
▁summit	-11.6301
▁sunglasses	-11.6301
▁supermarket	-11.6301
▁sérieux	-11.6301
▁theft	-11.6301
▁thirteen	-11.6301
▁thrashing	-11.6301
▁thumper	-11.6301
▁tobacco	-11.6301
▁tresckow	-11.6301
▁triads	-11.6301
▁tshirt	-11.6301
▁twain	-11.6301
▁tydeus	-11.6301
▁unacceptable	-11.6301
▁underestimate	-11.6301
▁unemployed	-11.6301
▁upfront	-11.6301
▁valenzuela	-11.6301
▁vantastic	-11.6301
▁vapid	-11.6301
▁veterinarian	-11.6301
▁vonnegut	-11.6301
▁wheezing	-11.6301
▁wilkinson	-11.6301
▁windmill	-11.6301
▁worid	-11.6301
▁wrestling	-11.6301
▁wsbtv	-11.6301
▁xanax	-11.6301
▁zhatmire	-11.6301
▁zoologist	-11.6301
▁époque	-11.6301
▁acquaint	-11.6301
▁annoying	-11.6301
▁bulk	-11.6301
▁bureaucrat	-11.6301
▁civic	-11.6301
▁clarity	-11.6301
▁cocoon	-11.6301
▁destructive	-11.6301
▁dispatch	-11.6301
▁endroit	-11.6301
▁endurance	-11.6301
▁fanatic	-11.6301
▁hulk	-11.6301
▁interfere	-11.6301
▁kopi	-11.6301
▁landscape	-11.6301
▁lydia	-11.6301
▁omega	-11.6301
▁pappy	-11.6301
▁pencil	-11.6301
▁prohibit	-11.6301
▁rehab	-11.6301
▁relations	-11.6301
▁smaug	-11.6301
▁swedish	-11.6301
▁terminal	-11.6301
▁transmit	-11.6301
▁unplug	-11.6301
▁usuaiiy	-11.6301
dpole	-11.6301
oignées	-11.6301
▁aloud	-11.6301
▁arguing	-11.6301
▁bandshell	-11.6301
▁bennett	-11.6301
▁category	-11.6301
▁celui	-11.6301
▁closure	-11.6301
▁congrats	-11.6301
▁duffy	-11.6301
▁godzilla	-11.6301
▁horrid	-11.6301
▁knick	-11.6301
▁levine	-11.6301
▁liquid	-11.6301
▁lysine	-11.6301
▁madeleine	-11.6301
▁madison	-11.6301
▁monument	-11.6301
▁nineteen	-11.6301
▁occupied	-11.6301
▁penetrate	-11.6301
▁slut	-11.6301
▁teddyfier	-11.6301
▁vendor	-11.6301
▁churn	-11.6301
▁dreamwalker	-11.6301
▁scheme	-11.6301
▁clanging	-11.6301
▁cush	-11.6301
▁horrifi	-11.6301
▁illinois	-11.6301
▁lewis	-11.6301
▁oberon	-11.6301
▁related	-11.6301
▁somme	-11.6301
▁tolerate	-11.6301
▁vanessa	-11.6301
▁avatar	-11.6301
▁bentley	-11.6301
▁bueno	-11.6301
▁manhoie	-11.6301
▁margin	-11.6301
▁rattles	-11.6301
▁sixteen	-11.6301
▁yankees	-11.6301
▁oort	-11.6301
▁rational	-11.6301
▁transmission	-11.6301
▁diversion	-11.6301
▁envy	-11.6301
▁hittite	-11.6301
▁sausage	-11.6301
▁sedative	-11.6301
▁specs	-11.6301
▁spectacle	-11.6301
▁tread	-11.6301
poochie	-11.6301
▁crater	-11.6301
▁activities	-11.6301
▁carpenter	-11.6301
▁reduce	-11.6301
▁convenient	-11.6301
▁withstand	-11.6301
andahalf	-11.6301
▁alternative	-11.6301
▁siege	-11.6301
▁jusqu	-11.6301
▁afflict	-11.6301
▁aurier	-11.6301
▁expired	-11.6301
▁gospel	-11.6301
▁pjs	-11.6301
▁ransom	-11.6301
monos	-11.6301
▁congratuiations	-11.6301
▁fumes	-11.6301
▁impose	-11.6301
▁cnn	-11.6301
▁beaumont	-11.6301
▁pacoima	-11.6301
▁delete	-11.6301
▁spinning	-11.6301
▁tweak	-11.6301
▁welcoming	-11.6301
▁broccoli	-11.6301
▁bureau	-11.6301
▁degenerate	-11.6301
▁plums	-11.6301
▁rival	-11.6301
▁underground	-11.6301
▁anarchy	-11.6301
▁whupping	-11.6301
mperial	-11.6301
▁pigeon	-11.6301
▁prai	-11.6301
▁courtesy	-11.6301
▁jarrive	-11.6301
▁oakland	-11.6301
▁avocado	-11.6301
▁duckhunting	-11.6301
▁atta	-11.6301
▁disturbance	-11.6301
▁funky	-11.6301
▁kiran	-11.6301
▁ligne	-11.6301
▁invitation	-11.6301
▁satchel	-11.6301
▁turkish	-11.6301
▁distress	-11.6301
▁plumb	-11.6301
▁bamba	-11.6301
▁butler	-11.6301
▁underwater	-11.6301
▁distinctive	-11.6301
▁innocence	-11.6301
▁iuck	-11.6301
▁argue	-11.6301
▁russellfield	-11.6301
▁muller	-11.6301
▁separation	-11.6301
▁discretion	-11.6301
▁evita	-11.6301
▁jeep	-11.6301
▁rigged	-11.6301
▁kiddies	-11.6301
▁dispar	-11.6301
▁darpa	-11.6301
▁hologram	-11.6301
▁mistress	-11.6301
▁sniffling	-11.6301
▁tuele	-11.6301
▁greasy	-11.6301
▁gefilte	-11.6301
▁acres	-11.6301
▁nelson	-11.6301
▁venture	-11.6301
▁confidential	-11.6302
▁domino	-11.6302
▁regroup	-11.6302
▁titanium	-11.6302
▁drummer	-11.6302
▁reclaim	-11.6302
▁resolution	-11.6302
▁titties	-11.6302
▁wigging	-11.6302
▁ppd	-11.6302
▁physician	-11.6302
▁belgian	-11.6302
▁upgrade	-11.6302
▁iceskating	-11.6302
▁maximum	-11.6302
▁lizard	-11.6302
bilities	-11.6302
▁clark	-11.6302
▁formula	-11.6302
▁integrity	-11.6302
▁ragged	-11.6302
▁andand	-11.6302
▁chinatown	-11.6302
▁limitations	-11.6302
▁whipping	-11.6302
▁sufficient	-11.6302
▁stanton	-11.6302
▁roast	-11.6302
▁weeble	-11.6302
▁imprinted	-11.6302
▁lobe	-11.6302
▁strippers	-11.6302
▁referee	-11.6302
▁tramp	-11.6302
▁masterpiece	-11.6302
▁intentions	-11.6302
▁execution	-11.6302
▁negotiation	-11.6302
▁sherman	-11.6302
▁decoy	-11.6302
▁bonfire	-11.6302
▁blackberry	-11.6302
▁goggles	-11.6302
▁meteorite	-11.6302
▁expand	-11.6302
cott	-11.6302
▁choy	-11.6302
▁brazilian	-11.6302
▁whopper	-11.6302
▁righteous	-11.6302
▁spiritual	-11.6302
▁strut	-11.6302
▁independent	-11.6302
▁visage	-11.6302
▁torment	-11.6302
▁discs	-11.6302
▁beware	-11.6302
▁troopers	-11.6302
▁hooters	-11.6302
▁beggar	-11.6302
▁mellow	-11.6302
▁turd	-11.6302
▁kidnappers	-11.6302
▁spike	-11.6302
▁plaza	-11.6302
▁leadership	-11.6303
▁legacy	-11.6303
▁filmmaker	-11.6303
▁furious	-11.6303
▁vibration	-11.6303
▁homeostasis	-11.6303
▁gutter	-11.6303
▁recycl	-11.6303
▁darla	-11.6303
▁kays	-11.6303
▁ranks	-11.6303
▁entertainment	-11.6303
▁stroll	-11.6303
▁exhibition	-11.6303
▁trillion	-11.6303
▁salvation	-11.6303
▁gulf	-11.6303
▁donate	-11.6303
▁rejection	-11.6303
▁broadway	-11.6303
▁dolphin	-11.6303
▁should	-11.6303
▁mentalism	-11.6303
▁crude	-11.6303
▁homing	-11.6303
▁titty	-11.6303
ehorn	-11.6303
▁encore	-11.6303
▁testify	-11.6304
caine	-11.6304
▁flou	-11.6304
▁texture	-11.6304
▁abuse	-11.6304
▁interrogate	-11.6304
▁volatile	-11.6304
▁decline	-11.6304
▁revive	-11.6304
▁whir	-11.6304
▁prosecutor	-11.6304
▁undone	-11.6304
▁aaah	-11.6304
▁pregnancy	-11.6304
▁aircraft	-11.6304
▁peaches	-11.6304
▁skinner	-11.6304
▁resistance	-11.6304
▁fuii	-11.6304
▁pipeline	-11.6304
▁alexio	-11.6304
▁prank	-11.6304
▁sororities	-11.6304
▁overboard	-11.6304
▁parole	-11.6304
▁durian	-11.6304
▁poisonous	-11.6304
▁pinch	-11.6305
▁combine	-11.6305
▁oral	-11.6305
▁patent	-11.6305
▁collective	-11.6305
▁tumble	-11.6305
▁rerun	-11.6305
▁western	-11.6305
▁avion	-11.6305
▁macho	-11.6305
▁tiff	-11.6305
▁presum	-11.6305
mnh	-11.6305
▁hypocrite	-11.6306
▁motts	-11.6306
▁caveman	-11.6306
▁ernesto	-11.6306
▁sober	-11.6306
▁archive	-11.6306
▁fungus	-11.6306
▁princeton	-11.6306
▁racecar	-11.6306
▁european	-11.6306
relui	-11.6306
ccino	-11.6306
▁evacuation	-11.6306
▁debrah	-11.6306
dorf	-11.6306
▁logic	-11.6307
▁cuda	-11.6307
▁siide	-11.6307
▁rican	-11.6307
▁pond	-11.6307
▁jeering	-11.6307
▁geek	-11.6307
▁height	-11.6307
▁coffin	-11.6307
▁bash	-11.6307
▁valve	-11.6307
▁starboard	-11.6307
▁servantless	-11.6307
nvinci	-11.6307
▁nuke	-11.6307
▁rustler	-11.6308
▁playlist	-11.6308
▁nina	-11.6308
▁polo	-11.6308
▁caroline	-11.6308
▁friggin	-11.6308
▁sunlight	-11.6308
▁dramatically	-11.6308
▁conine	-11.6308
▁filter	-11.6308
▁ramp	-11.6308
▁molly	-11.6308
▁roaches	-11.6308
▁homeiess	-11.6308
▁korean	-11.6309
▁percentage	-11.6309
▁blaze	-11.6309
illus	-11.6309
▁fashionable	-11.6309
▁checkpoint	-11.6309
▁conga	-11.631
▁monde	-11.631
▁portable	-11.631
▁huber	-11.631
▁silk	-11.631
▁frequently	-11.631
▁bracelet	-11.631
▁alcohol	-11.631
▁chemistry	-11.631
▁essential	-11.631
▁hispanic	-11.631
▁intensity	-11.631
▁dontdont	-11.6311
▁thatthat	-11.6311
▁cooperate	-11.6311
▁peak	-11.6311
chancellor	-11.6311
▁ballroom	-11.6311
arson	-11.6311
▁eden	-11.6311
▁boii	-11.6311
▁nno	-11.6312
▁fitting	-11.6312
▁objective	-11.6312
▁scottish	-11.6312
▁lyin	-11.6312
▁housekeeper	-11.6312
▁eff	-11.6312
▁gems	-11.6312
▁grit	-11.6313
▁alike	-11.6313
▁madden	-11.6314
▁sortir	-11.6314
▁notion	-11.6314
▁brew	-11.6314
▁soo	-11.6315
quez	-11.6315
▁breakthrough	-11.6315
jah	-11.6315
▁screwup	-11.6315
▁fitz	-11.6315
▁hometown	-11.6316
▁acquired	-11.6316
▁amazed	-11.6316
▁scrambled	-11.6316
▁drew	-11.6316
▁restored	-11.6316
▁beh	-11.6316
▁conci	-11.6316
▁centerfo	-11.6316
▁authorized	-11.6316
▁distinguished	-11.6316
▁rejected	-11.6316
▁disturbed	-11.6317
▁unlike	-11.6317
gun	-11.6317
▁revel	-11.6317
▁cue	-11.6317
▁iater	-11.6317
▁croy	-11.6318
▁fillet	-11.6318
▁tackle	-11.6318
▁grumble	-11.6319
▁soar	-11.6319
▁regional	-11.6319
▁certainty	-11.6319
▁entr	-11.6319
▁breakdown	-11.6319
▁legit	-11.632
▁keit	-11.632
▁batch	-11.632
lix	-11.632
▁hidin	-11.6321
▁barge	-11.6321
▁vik	-11.6321
▁myr	-11.6322
▁commencer	-11.6322
▁truthfully	-11.6322
▁yuck	-11.6322
▁dominating	-11.6323
▁hollering	-11.6323
▁surprising	-11.6323
▁bront	-11.6323
érer	-11.6323
▁bartender	-11.6323
▁ivy	-11.6323
▁dime	-11.6324
▁realistic	-11.6324
▁balin	-11.6324
ipstick	-11.6325
▁personnel	-11.6325
▁indicated	-11.6325
ieff	-11.6325
▁caf	-11.6326
▁flipped	-11.6326
▁overwhelmed	-11.6327
▁organized	-11.6327
▁tart	-11.6327
▁competitive	-11.6327
▁hawk	-11.6327
ken	-11.6327
▁cinq	-11.6327
▁michel	-11.6328
▁bourgeois	-11.6328
▁erin	-11.6328
▁reliable	-11.6329
▁hanson	-11.6329
▁spies	-11.6329
▁feu	-11.633
▁raté	-11.633
▁oii	-11.633
mmies	-11.6331
▁suitable	-11.6331
▁pace	-11.6332
▁rubbing	-11.6332
▁awaken	-11.6332
▁medal	-11.6332
▁contractor	-11.6332
▁tickle	-11.6333
▁kidney	-11.6333
▁byrneses	-11.6333
▁verse	-11.6334
▁tomber	-11.6334
arlene	-11.6335
▁mil	-11.6335
▁bushes	-11.6335
hearted	-11.6336
ecil	-11.6336
▁josepha	-11.6336
▁instincts	-11.6336
▁robbins	-11.6336
▁mild	-11.6336
▁snarls	-11.6336
▁dang	-11.6337
▁surrounding	-11.6337
vated	-11.6338
▁peep	-11.6338
wash	-11.6339
▁bravery	-11.6339
▁kia	-11.634
▁rave	-11.634
▁mell	-11.634
▁booby	-11.634
▁jesse	-11.634
▁conna	-11.6341
▁bert	-11.6341
▁birdie	-11.6342
▁litera	-11.6343
▁ridin	-11.6343
▁ioser	-11.6343
trophy	-11.6343
rma	-11.6343
▁larger	-11.6343
▁flipping	-11.6344
▁truce	-11.6345
▁compatible	-11.6345
▁metro	-11.6346
▁compare	-11.6346
▁transformed	-11.6347
▁switches	-11.6348
▁perfectiy	-11.6348
▁desperately	-11.6348
▁isi	-11.6349
▁gua	-11.6349
uous	-11.635
▁bravest	-11.635
▁farmin	-11.6351
▁jour	-11.6351
▁null	-11.6352
erran	-11.6353
▁astr	-11.6354
▁fuss	-11.6354
▁jac	-11.6354
▁starved	-11.6354
▁oww	-11.6355
▁packers	-11.6355
▁pine	-11.6355
▁resolve	-11.6355
▁butch	-11.6355
▁smacked	-11.6357
▁crooked	-11.6357
▁counties	-11.6358
▁factor	-11.6358
▁with	-11.6359
▁diego	-11.6359
umé	-11.636
▁iight	-11.636
▁accused	-11.636
▁bulletin	-11.6363
▁nip	-11.6363
▁policeman	-11.6363
▁jall	-11.6365
▁crunching	-11.6366
▁crowing	-11.6366
▁parisian	-11.6367
▁cramped	-11.6367
▁possessed	-11.6368
▁yog	-11.6368
▁moist	-11.6368
▁luna	-11.637
▁deeds	-11.637
▁presses	-11.637
▁tuna	-11.6371
▁firmly	-11.6371
▁marie	-11.6372
▁recruiter	-11.6373
▁increased	-11.6374
▁academic	-11.6374
▁crashes	-11.6375
▁deai	-11.6375
▁ciao	-11.6379
▁cocky	-11.6379
▁detected	-11.638
▁raging	-11.6381
ubi	-11.6381
▁dull	-11.6384
▁gala	-11.6386
▁thro	-11.6387
▁pointz	-11.6387
coming	-11.6388
▁lighten	-11.6388
▁babysitt	-11.639
▁gest	-11.6391
▁comprends	-11.6392
lynn	-11.6392
▁perv	-11.6392
▁coop	-11.6394
▁freezer	-11.6395
▁coupon	-11.6395
▁slay	-11.6395
▁jeu	-11.6396
▁stokes	-11.6397
▁accomplishments	-11.6397
▁nazis	-11.6398
▁investors	-11.6398
▁wails	-11.6398
▁forges	-11.6398
▁meows	-11.6398
▁sniffs	-11.6398
quet	-11.6398
▁kenne	-11.6399
▁sickle	-11.6399
▁tor	-11.64
▁marsh	-11.6401
▁smuggler	-11.6401
▁employer	-11.6401
umn	-11.6403
ash	-11.6406
▁dough	-11.6407
quest	-11.6407
▁breeding	-11.6409
▁chewing	-11.641
▁guaranteed	-11.6413
▁queers	-11.6413
▁gags	-11.6417
▁publicly	-11.6417
▁dryer	-11.6419
flake	-11.6421
▁unlock	-11.6421
▁iiver	-11.6422
▁mcdonal	-11.6422
▁pitt	-11.6427
▁stressed	-11.6429
▁required	-11.6432
▁tortured	-11.6432
aint	-11.6432
evich	-11.6433
▁hiv	-11.6435
▁buckle	-11.6436
▁importan	-11.6437
▁hosting	-11.6439
▁chr	-11.644
▁irony	-11.644
rated	-11.6441
▁bc	-11.6441
▁shitty	-11.6441
▁cruci	-11.6442
▁aging	-11.6442
▁mainly	-11.6444
▁snapp	-11.6445
▁popo	-11.6447
▁owl	-11.6453
▁cello	-11.6453
▁fireman	-11.6454
▁sailing	-11.6454
▁smoothie	-11.6455
▁hamp	-11.6457
▁jaime	-11.6457
▁chor	-11.646
▁decades	-11.6461
▁curves	-11.6461
▁manners	-11.6461
▁safest	-11.6462
▁funding	-11.6463
▁likelike	-11.6463
▁taco	-11.6463
▁voted	-11.6466
▁loy	-11.6467
▁warmer	-11.6469
▁processed	-11.6471
▁yale	-11.6472
▁weirdo	-11.6472
▁hass	-11.6472
▁singin	-11.6473
▁latest	-11.6473
▁screamed	-11.6475
▁bask	-11.6476
▁wilder	-11.6483
▁ew	-11.6484
▁pry	-11.6489
▁verb	-11.6491
▁screening	-11.6497
▁structure	-11.6497
▁gaz	-11.6498
mature	-11.6498
▁diner	-11.65
▁chained	-11.6506
▁sic	-11.6511
▁treaty	-11.6511
▁dangerously	-11.6514
aught	-11.6516
▁frogs	-11.6525
▁consequences	-11.6525
▁features	-11.6525
▁snacks	-11.6525
▁leaning	-11.6527
oohooh	-11.6529
▁cass	-11.6532
▁tracker	-11.6533
osette	-11.6537
▁prey	-11.6539
▁texting	-11.6542
▁dumping	-11.6542
fram	-11.6543
▁touches	-11.6545
▁wat	-11.6546
▁did	-11.6546
▁gens	-11.6547
▁cling	-11.6551
▁brownies	-11.6555
▁cooky	-11.6557
▁gathering	-11.6557
▁sweating	-11.6559
onald	-11.6566
shire	-11.657
▁covert	-11.6572
née	-11.6573
▁designer	-11.6577
fun	-11.6579
tex	-11.6583
▁status	-11.6583
▁seti	-11.6586
▁blessings	-11.6588
▁chimneys	-11.6589
▁rhineharts	-11.6589
▁elders	-11.6589
▁peg	-11.6591
▁marketing	-11.6592
▁smarter	-11.6595
heart	-11.6599
▁crushing	-11.6602
▁servers	-11.6602
ckin	-11.6614
▁soi	-11.6615
▁sizzl	-11.6619
▁tougher	-11.6623
▁claus	-11.6628
pente	-11.6634
▁newman	-11.6634
▁mango	-11.6635
ckle	-11.6636
rank	-11.6638
cane	-11.6644
▁sage	-11.6644
▁strippe	-11.6644
▁lag	-11.6648
▁bananas	-11.6654
▁savages	-11.6654
▁techniques	-11.6654
bé	-11.6655
▁cables	-11.6659
oval	-11.666
▁val	-11.6666
chin	-11.667
▁formed	-11.6672
una	-11.6676
cats	-11.6678
cop	-11.6687
▁launched	-11.6702
▁safer	-11.6703
▁cind	-11.6703
▁secretly	-11.6703
eating	-11.6704
▁assess	-11.6718
▁bounds	-11.672
▁arrangements	-11.672
▁appearances	-11.672
▁hostiles	-11.672
▁jordans	-11.672
▁politicians	-11.672
▁bubbles	-11.672
▁slower	-11.672
▁screwing	-11.6722
▁bugge	-11.6725
▁parker	-11.6726
▁rav	-11.6729
▁pins	-11.6744
▁hors	-11.6747
▁lifting	-11.6751
▁shri	-11.6759
van	-11.6759
▁choppe	-11.6759
grat	-11.6764
▁weekly	-11.6774
▁stings	-11.6786
▁victims	-11.6786
▁expenses	-11.6786
▁warrants	-11.6786
▁braces	-11.6786
▁residents	-11.6788
▁oy	-11.679
▁boxers	-11.6793
▁repeating	-11.6812
▁mayo	-11.6818
▁aris	-11.6822
▁misses	-11.6831
▁stra	-11.684
pal	-11.6843
▁barks	-11.6847
idney	-11.6851
▁blades	-11.6852
▁standards	-11.6852
▁titans	-11.6852
▁elements	-11.6852
▁exterminate	-11.6857
▁lure	-11.6868
heat	-11.6869
▁wrinkle	-11.6887
▁wakey	-11.6891
▁bly	-11.6892
▁merciful	-11.6899
▁retourn	-11.69
▁superb	-11.69
ara	-11.691
▁watchin	-11.6915
▁candles	-11.6919
▁sneeze	-11.6919
▁fitzgeralds	-11.6919
▁lobsters	-11.6919
doo	-11.6938
▁puri	-11.6944
▁snoo	-11.6948
wed	-11.6963
▁reminding	-11.697
▁hottie	-11.6972
▁feared	-11.6975
ores	-11.6979
havin	-11.698
▁fuller	-11.6981
▁cowards	-11.6987
▁efforts	-11.6987
▁helicopters	-11.6987
▁villages	-11.6987
▁emotions	-11.6987
▁cli	-11.699
▁porters	-11.7003
▁conserv	-11.7021
can	-11.7034
▁lookit	-11.7038
▁products	-11.7055
▁sleeper	-11.7066
wel	-11.7085
▁abid	-11.7085
iight	-11.71
igu	-11.7107
▁ku	-11.7112
▁listed	-11.712
▁experiments	-11.7123
▁masks	-11.7123
▁bacteria	-11.7125
▁cups	-11.7126
▁beautifully	-11.7138
▁od	-11.7145
▁sod	-11.7149
▁runt	-11.7171
▁pint	-11.7176
▁mack	-11.7178
▁needles	-11.7179
hl	-11.7184
▁ava	-11.7186
▁diplomat	-11.7202
▁jumping	-11.7205
achet	-11.7246
hat	-11.7264
▁vip	-11.7269
▁mem	-11.727
bas	-11.7272
llo	-11.7289
▁hav	-11.7298
rb	-11.7319
eps	-11.7334
regardless	-11.7339
▁plat	-11.7349
trust	-11.7356
▁atte	-11.7386
reme	-11.7405
veil	-11.7419
high	-11.7436
eii	-11.7449
▁avi	-11.7459
rump	-11.7466
fell	-11.7485
olar	-11.7507
▁simm	-11.7526
ttle	-11.7534
ivity	-11.7586
tone	-11.759
▁invo	-11.7644
logy	-11.7659
nel	-11.7686
▁berg	-11.7689
▁aurai	-11.7689
desh	-11.771
▁mare	-11.7718
ési	-11.7728
▁rad	-11.7755
▁clip	-11.778
ption	-11.7874
nner	-11.7877
▁respectful	-11.788
▁conne	-11.7893
▁arg	-11.7916
▁span	-11.7996
▁avia	-11.8012
rail	-11.8012
lude	-11.8014
rusty	-11.8021
▁curr	-11.804
▁fiip	-11.805
▁proto	-11.8072
eased	-11.8096
quent	-11.8098
ito	-11.8156
lava	-11.8164
chi	-11.8173
▁jame	-11.8178
eaving	-11.8205
ono	-11.8213
▁reli	-11.8223
thatch	-11.8276
bet	-11.8293
▁demande	-11.83
pia	-11.8307
prec	-11.8314
▁donn	-11.8319
▁eco	-11.8383
tory	-11.8393
▁bre	-11.8396
▁vic	-11.841
asy	-11.844
▁expe	-11.8454
▁rubi	-11.8467
▁measur	-11.847
▁bong	-11.8477
ckey	-11.8493
▁shar	-11.8499
▁diploma	-11.8501
bag	-11.8525
▁beau	-11.8529
bla	-11.8543
▁ach	-11.8575
ility	-11.8575
▁fantas	-11.8575
izing	-11.858
duct	-11.8611
▁laisser	-11.862
laz	-11.8632
▁translat	-11.8656
nching	-11.866
mage	-11.8685
list	-11.8689
vant	-11.8753
▁anal	-11.8757
▁stag	-11.8771
arbit	-11.8796
pit	-11.8796
▁mé	-11.8802
▁frappe	-11.8816
round	-11.8822
▁ninety	-11.8827
▁scor	-11.8839
ji	-11.8852
tech	-11.8863
fire	-11.8889
▁exercis	-11.8897
▁stripe	-11.8913
▁ple	-11.8925
▁herm	-11.8927
▁mei	-11.8927
hhhh	-11.8931
▁brag	-11.8944
▁abo	-11.895
▁blam	-11.8971
extended	-11.8971
amson	-11.8973
▁aura	-11.899
bbing	-11.9005
inder	-11.9026
▁temp	-11.9027
▁automat	-11.9037
▁creat	-11.9054
▁snatche	-11.9086
▁spar	-11.911
▁kun	-11.9113
booked	-11.9114
▁vase	-11.912
▁journalis	-11.9122
▁gamin	-11.9126
▁mul	-11.9133
atory	-11.9147
helma	-11.9148
mort	-11.916
▁cro	-11.918
▁medit	-11.919
hive	-11.9212
▁bic	-11.9227
▁lash	-11.9244
▁intent	-11.9259
▁neuro	-11.9259
lacking	-11.9271
▁sag	-11.9304
eau	-11.9309
▁proc	-11.9313
stage	-11.9321
named	-11.9326
ancy	-11.9354
▁complian	-11.9366
lace	-11.9366
▁fili	-11.937
lent	-11.9391
▁fau	-11.9407
▁scram	-11.9418
formation	-11.9418
▁decade	-11.9419
▁prophet	-11.9422
▁napkin	-11.9423
▁mari	-11.9423
▁curtain	-11.9426
▁giggle	-11.9426
robe	-11.9426
▁squirrel	-11.9428
▁mushroom	-11.9429
▁persian	-11.9431
▁brake	-11.9431
▁yelp	-11.9432
▁curve	-11.9432
▁passenger	-11.9439
nstein	-11.9439
chen	-11.944
paid	-11.944
▁rib	-11.9443
▁luca	-11.9444
▁frie	-11.9451
bir	-11.9458
east	-11.9462
▁jule	-11.9463
méri	-11.9471
ike	-11.9479
lund	-11.9481
▁berm	-11.949
▁employ	-11.9495
▁smuggl	-11.9496
▁babysit	-11.9497
▁compar	-11.9498
ggle	-11.95
▁squat	-11.9502
▁iow	-11.9513
rnation	-11.9529
▁sync	-11.953
▁backward	-11.9536
▁manner	-11.9543
▁surround	-11.9552
chucks	-11.9553
friend	-11.9562
world	-11.9563
charge	-11.9563
▁complain	-11.9565
part	-11.9567
minute	-11.9567
obos	-11.9567
▁voul	-11.9568
▁thrust	-11.957
body	-11.957
engineered	-11.9572
why	-11.9572
magneti	-11.9572
mother	-11.9572
▁admir	-11.9572
detected	-11.9575
compatible	-11.9575
bound	-11.9575
shore	-11.9576
worm	-11.9576
stroke	-11.9576
▁stun	-11.9578
melting	-11.9578
legal	-11.9578
natural	-11.9579
▁humm	-11.9579
▁cran	-11.9579
quoi	-11.9579
trained	-11.9579
publish	-11.9579
pleasant	-11.958
fleet	-11.958
daughter	-11.958
▁initiat	-11.9581
filled	-11.9581
bath	-11.9581
feeding	-11.9581
famous	-11.9581
storm	-11.9581
route	-11.9581
fighting	-11.9581
important	-11.9582
▁neigh	-11.9582
▁trickortreat	-11.9582
glass	-11.9582
▁profit	-11.9582
maybe	-11.9582
▁dread	-11.9582
drop	-11.9582
pound	-11.9583
crosse	-11.9583
hurt	-11.9584
lookin	-11.9584
▁decorat	-11.9584
▁convinc	-11.9585
▁pl	-11.9586
help	-11.9586
▁complet	-11.9586
think	-11.9588
finn	-11.9588
bright	-11.9589
▁bolster	-11.9589
onger	-11.959
▁burgl	-11.959
piece	-11.9591
sort	-11.9591
pants	-11.9592
bull	-11.9592
said	-11.9592
fax	-11.9593
job	-11.9594
▁sprinkle	-11.9595
▁propos	-11.9595
▁accomplish	-11.9596
▁devot	-11.9597
▁latch	-11.9597
nip	-11.9597
▁arrange	-11.9597
math	-11.9598
▁overwhelm	-11.9599
▁offend	-11.9599
▁manufacture	-11.9599
▁sustain	-11.96
▁indicate	-11.96
▁crumb	-11.9601
hard	-11.9601
▁haunt	-11.9602
▁obsess	-11.9602
party	-11.9602
▁select	-11.9603
bama	-11.9605
okay	-11.9607
▁disast	-11.9608
▁brut	-11.9609
▁bubb	-11.961
▁lndia	-11.961
slash	-11.9611
▁scann	-11.9612
▁assimilate	-11.9612
▁stir	-11.9614
▁boar	-11.9614
▁thirst	-11.9616
▁widow	-11.9616
▁unpredictab	-11.9617
tchup	-11.9617
▁sympath	-11.9617
▁filth	-11.9617
▁johann	-11.9617
▁cochran	-11.9618
gil	-11.9618
oaching	-11.9618
▁terribl	-11.9618
▁angr	-11.9619
▁posse	-11.9619
▁pleasur	-11.962
▁bunk	-11.962
▁overse	-11.962
▁frequent	-11.9621
shop	-11.9621
hui	-11.9622
give	-11.9622
▁shiv	-11.9623
▁magneti	-11.9623
▁flick	-11.9623
▁incompeten	-11.9624
▁adre	-11.9624
▁excellen	-11.9624
▁drip	-11.9625
▁grande	-11.9625
julie	-11.9625
▁flav	-11.9626
max	-11.9626
▁critic	-11.9627
▁ernest	-11.9628
▁rica	-11.9628
▁ambitio	-11.9628
▁tactic	-11.9628
▁filte	-11.9629
▁isabel	-11.9629
author	-11.9629
lector	-11.9629
▁sympa	-11.963
▁graz	-11.9631
▁respi	-11.9631
▁authori	-11.9631
▁celebrit	-11.9631
▁obligat	-11.9631
▁shinin	-11.9631
▁quittin	-11.9631
▁leavin	-11.9631
▁exhibit	-11.9631
▁construct	-11.9632
▁cuttin	-11.9632
nvestor	-11.9632
lapping	-11.9632
étais	-11.9633
▁baisse	-11.9633
▁givin	-11.9633
▁pursu	-11.9633
allows	-11.9633
▁edit	-11.9633
▁improve	-11.9633
ounce	-11.9633
▁engl	-11.9633
biscuit	-11.9633
▁endorse	-11.9633
▁administ	-11.9633
▁govern	-11.9633
▁resid	-11.9634
ological	-11.9634
▁chap	-11.9634
ergic	-11.9634
circ	-11.9634
▁merce	-11.9634
agram	-11.9634
▁kearn	-11.9634
▁medic	-11.9634
otape	-11.9634
▁occur	-11.9634
▁occup	-11.9634
inexplicable	-11.9634
▁congregat	-11.9634
▁infidel	-11.9634
ignorais	-11.9634
january	-11.9634
spectrum	-11.9634
stringers	-11.9634
vonne	-11.9634
wharfiversary	-11.9634
équipe	-11.9634
▁acquisition	-11.9634
▁advancing	-11.9634
▁aggravat	-11.9634
▁alaska	-11.9634
▁albany	-11.9634
▁allegiance	-11.9634
▁alumni	-11.9634
▁anscreaming	-11.9634
▁anthony	-11.9634
▁apceros	-11.9634
▁appetizers	-11.9634
▁approval	-11.9634
▁arnold	-11.9634
▁artificial	-11.9634
▁ascend	-11.9634
▁assault	-11.9634
▁astonish	-11.9634
▁athletic	-11.9634
▁baptize	-11.9634
▁bazooka	-11.9634
▁benefactor	-11.9634
▁bipolar	-11.9634
▁blossom	-11.9634
▁brenda	-11.9634
▁buisness	-11.9634
▁calhoun	-11.9634
▁capoeira	-11.9634
▁casserole	-11.9634
▁catastrophic	-11.9634
▁catholic	-11.9634
▁cavalry	-11.9634
▁cavity	-11.9634
▁cepulis	-11.9634
▁cesarios	-11.9634
▁chestnut	-11.9634
▁chipmunk	-11.9634
▁choonshim	-11.9634
▁chopstick	-11.9634
▁christopher	-11.9634
▁cigar	-11.9634
▁ciub	-11.9634
▁claustrophobi	-11.9634
▁cliché	-11.9634
▁cocaptain	-11.9634
▁collision	-11.9634
▁colonoscopy	-11.9634
▁combien	-11.9634
▁competitor	-11.9634
▁condolences	-11.9634
▁conquistador	-11.9634
▁consult	-11.9634
▁coordinator	-11.9634
▁copperfield	-11.9634
▁costello	-11.9634
▁credentials	-11.9634
▁cricket	-11.9634
▁cyberarts	-11.9634
▁cynthia	-11.9634
▁decommissioned	-11.9634
▁deiicious	-11.9634
▁depleted	-11.9634
▁detention	-11.9634
▁diminish	-11.9634
▁discipline	-11.9634
▁disembo	-11.9634
▁disneyland	-11.9634
▁disposal	-11.9634
▁disrupt	-11.9634
▁dodgson	-11.9634
▁donuts	-11.9634
▁dossier	-11.9634
▁dowling	-11.9634
▁ecosystem	-11.9634
▁empreinte	-11.9634
▁enchantment	-11.9634
▁enveiop	-11.9634
▁erythromycin	-11.9634
▁esteemed	-11.9634
▁eurystheus	-11.9634
▁ewwy	-11.9634
▁exfoliat	-11.9634
▁facilities	-11.9634
▁fathoms	-11.9634
▁fibrosis	-11.9634
▁firecracker	-11.9634
▁formidable	-11.9634
▁fossil	-11.9634
▁fowler	-11.9634
▁fraction	-11.9634
▁freakydeaky	-11.9634
▁frisky	-11.9634
▁furnace	-11.9634
▁garlic	-11.9634
▁geiszler	-11.9634
▁genital	-11.9634
▁gershom	-11.9634
▁gibson	-11.9634
▁gimmick	-11.9634
▁ginoux	-11.9634
▁glamorous	-11.9634
▁glimpse	-11.9634
▁gloria	-11.9634
▁goebbels	-11.9634
▁gossip	-11.9634
▁griffith	-11.9634
▁gstring	-11.9634
▁haawoo	-11.9634
▁halliburton	-11.9634
▁hargraves	-11.9634
▁hasbeen	-11.9634
▁hasidic	-11.9634
▁heartbreaking	-11.9634
▁heavensbee	-11.9634
▁hectic	-11.9634
▁hellhound	-11.9634
▁hemisphere	-11.9634
▁henchmen	-11.9634
▁hmmmmm	-11.9634
▁hormonal	-11.9634
▁hyperventilat	-11.9634
▁ignorance	-11.9634
▁impersonat	-11.9634
▁incomplete	-11.9634
▁indecision	-11.9634
▁inevitabl	-11.9634
▁inquisitor	-11.9634
▁intriguing	-11.9634
▁investigator	-11.9634
▁involvement	-11.9634
▁involving	-11.9634
▁ipod	-11.9634
▁irreplaceable	-11.9634
▁jennifer	-11.9634
▁jeopardize	-11.9634
▁jignore	-11.9634
▁jinhai	-11.9634
▁juvenile	-11.9634
▁khyan	-11.9634
▁klenstein	-11.9634
▁kolbe	-11.9634
▁kryptonite	-11.9634
▁lalalalalalala	-11.9634
▁lemasniel	-11.9634
▁leopold	-11.9634
▁liquor	-11.9634
▁lntelligence	-11.9634
▁lobby	-11.9634
▁locutus	-11.9634
▁lollipop	-11.9634
▁loneliness	-11.9634
▁lonesome	-11.9634
▁ludwig	-11.9634
▁maclntosh	-11.9634
▁madagascar	-11.9634
▁magnum	-11.9634
▁maharaja	-11.9634
▁maintenance	-11.9634
▁margaritas	-11.9634
▁marmara	-11.9634
▁masculine	-11.9634
▁masturbation	-11.9634
▁mauvaise	-11.9634
▁mccallister	-11.9634
▁meadow	-11.9634
▁melissa	-11.9634
▁messieurs	-11.9634
▁meticulous	-11.9634
▁millimeters	-11.9634
▁misplaced	-11.9634
▁molecule	-11.9634
▁mongols	-11.9634
▁mulcahy	-11.9634
▁neglect	-11.9634
▁neighbours	-11.9634
▁noisily	-11.9634
▁nurtur	-11.9634
▁obtain	-11.9634
▁orleans	-11.9634
▁oxide	-11.9634
▁paramedic	-11.9634
▁paranoia	-11.9634
▁pasadena	-11.9634
▁philistine	-11.9634
▁pictoriai	-11.9634
▁pingpong	-11.9634
▁piranha	-11.9634
▁pivot	-11.9634
▁plutonium	-11.9634
▁practis	-11.9634
▁preoccupied	-11.9634
▁pseudo	-11.9634
▁puncture	-11.9634
▁qualities	-11.9634
▁quarantine	-11.9634
▁quinlan	-11.9634
▁radagast	-11.9634
▁rearrange	-11.9634
▁reboot	-11.9634
▁redemption	-11.9634
▁regulate	-11.9634
▁rehears	-11.9634
▁renaissance	-11.9634
▁replenish	-11.9634
▁reschedule	-11.9634
▁rutland	-11.9634
▁répond	-11.9634
▁répét	-11.9634
▁réservation	-11.9634
▁saliva	-11.9634
▁samurai	-11.9634
▁sanctuary	-11.9634
▁sarcasti	-11.9634
▁sarkisian	-11.9634
▁sashimi	-11.9634
▁satisfaction	-11.9634
▁satisfactory	-11.9634
▁saukerl	-11.9634
▁scatting	-11.9634
▁sciatic	-11.9634
▁scooby	-11.9634
▁scrabble	-11.9634
▁scrub	-11.9634
▁seatbelt	-11.9634
▁seldom	-11.9634
▁shimmer	-11.9634
▁shudder	-11.9634
▁sitacles	-11.9634
▁slosh	-11.9634
▁smartypants	-11.9634
▁somewhat	-11.9634
▁splutter	-11.9634
▁sprouts	-11.9634
▁stewardess	-11.9634
▁stitches	-11.9634
▁strowbridge	-11.9634
▁struggling	-11.9634
▁subroutine	-11.9634
▁sullivan	-11.9634
▁swindle	-11.9634
▁syringe	-11.9634
▁sécurité	-11.9634
▁tantrum	-11.9634
▁teddyfié	-11.9634
▁telescope	-11.9634
▁terminated	-11.9634
▁terrified	-11.9634
▁tijuana	-11.9634
▁torpedoes	-11.9634
▁touchyfeely	-11.9634
▁tourniquet	-11.9634
▁trampoline	-11.9634
▁turbulence	-11.9634
▁umbrella	-11.9634
▁unafraid	-11.9634
▁unanswer	-11.9634
▁undefeated	-11.9634
▁unexpected	-11.9634
▁unfinished	-11.9634
▁universal	-11.9634
▁utensil	-11.9634
▁velcro	-11.9634
▁veteran	-11.9634
▁vocaliz	-11.9634
▁vocals	-11.9634
▁voiunteer	-11.9634
▁wavecrest	-11.9634
▁wednesday	-11.9634
▁whatnot	-11.9634
▁wilbur	-11.9634
▁windshield	-11.9634
▁yureyovich	-11.9634
industrial	-11.9634
▁accumulat	-11.9634
▁bimbo	-11.9634
▁companion	-11.9634
▁counterfeit	-11.9634
▁edison	-11.9634
▁enslave	-11.9634
▁hitchhike	-11.9634
▁joach	-11.9634
▁kappa	-11.9634
▁misjudg	-11.9634
▁noodle	-11.9634
▁percussi	-11.9634
▁postpone	-11.9634
▁proportion	-11.9634
▁pygm	-11.9634
▁sapien	-11.9634
▁scuff	-11.9634
▁sexuai	-11.9634
▁triangle	-11.9634
▁vessel	-11.9634
▁voyez	-11.9634
▁wannabe	-11.9634
▁youknowwh	-11.9634
holle	-11.9634
precedent	-11.9634
▁ahahah	-11.9634
▁carriage	-11.9634
▁chaotic	-11.9634
▁colorado	-11.9634
▁composed	-11.9634
▁couteau	-11.9634
▁daisies	-11.9634
▁daytoday	-11.9634
▁defiler	-11.9634
▁djinn	-11.9634
▁drenched	-11.9634
▁election	-11.9634
▁emptiness	-11.9634
▁excusezmoi	-11.9634
▁google	-11.9634
▁herefords	-11.9634
▁initial	-11.9634
▁intestin	-11.9634
▁labonz	-11.9634
▁mcgee	-11.9634
▁mendelson	-11.9634
▁mohel	-11.9634
▁morehouse	-11.9634
▁mothra	-11.9634
▁neanderthal	-11.9634
▁passetil	-11.9634
▁ponine	-11.9634
▁sinatra	-11.9634
▁slob	-11.9634
▁smear	-11.9634
▁spinach	-11.9634
▁stabiliz	-11.9634
▁tofu	-11.9634
▁turtle	-11.9634
▁versailles	-11.9634
▁vintage	-11.9634
▁zorg	-11.9634
undant	-11.9634
▁audible	-11.9634
▁bmw	-11.9634
▁cylind	-11.9634
▁diva	-11.9634
▁détat	-11.9634
▁gillman	-11.9634
▁irina	-11.9634
▁juiia	-11.9634
▁juiie	-11.9634
▁leandro	-11.9634
▁lettuce	-11.9634
▁lheure	-11.9634
▁moreno	-11.9634
▁pappa	-11.9634
▁poodle	-11.9634
▁porsche	-11.9634
▁pottery	-11.9634
▁resigned	-11.9634
▁retarded	-11.9634
▁scope	-11.9634
▁seminar	-11.9634
▁tethered	-11.9634
▁tinker	-11.9634
▁tulip	-11.9634
▁tuxedo	-11.9634
▁viceroy	-11.9634
▁wield	-11.9634
▁ariel	-11.9634
▁beak	-11.9634
▁charging	-11.9634
▁dairy	-11.9634
▁departed	-11.9634
▁ferber	-11.9634
▁forsake	-11.9634
▁geryon	-11.9634
▁humvee	-11.9634
▁hyper	-11.9634
▁lennox	-11.9634
▁murdoc	-11.9634
▁pareil	-11.9634
▁prioritize	-11.9634
▁sixnine	-11.9634
▁steroid	-11.9634
▁stunning	-11.9634
▁sundae	-11.9634
▁twentysix	-11.9634
▁underlined	-11.9634
▁adios	-11.9634
▁bedpan	-11.9634
▁drapes	-11.9634
▁eliot	-11.9634
▁rpg	-11.9634
▁snare	-11.9634
▁vanished	-11.9634
▁videotape	-11.9634
▁wetsuit	-11.9634
▁yolk	-11.9634
▁apporte	-11.9634
▁capacitor	-11.9634
▁insight	-11.9634
▁nbc	-11.9634
▁punge	-11.9634
▁decapitat	-11.9634
▁spiral	-11.9634
▁carcass	-11.9634
▁handicap	-11.9634
▁headbanger	-11.9634
▁retain	-11.9634
▁staircase	-11.9634
▁contemporar	-11.9634
▁dazed	-11.9634
▁essence	-11.9634
▁kennedy	-11.9634
▁straits	-11.9634
▁poised	-11.9634
▁serum	-11.9634
▁spouse	-11.9634
▁varied	-11.9634
▁évi	-11.9634
▁absence	-11.9634
▁fulson	-11.9634
▁insert	-11.9634
▁termination	-11.9634
▁goblin	-11.9634
▁sputter	-11.9634
▁griddle	-11.9634
▁gusto	-11.9634
▁scandal	-11.9634
▁sideburns	-11.9634
▁columb	-11.9634
▁dvd	-11.9634
▁euros	-11.9634
▁feather	-11.9634
▁puking	-11.9634
▁expliqu	-11.9634
▁geneticists	-11.9634
▁luncheon	-11.9634
▁merit	-11.9634
▁brassart	-11.9634
▁mezz	-11.9634
▁normandy	-11.9634
▁playdoh	-11.9634
▁thethe	-11.9634
▁ticor	-11.9634
▁insur	-11.9634
▁millionaires	-11.9634
▁oxy	-11.9634
▁psychological	-11.9634
▁strateg	-11.9634
▁ventilat	-11.9634
▁dunning	-11.9634
▁seiiing	-11.9634
▁yyeah	-11.9634
▁chubby	-11.9634
▁narrive	-11.9634
▁swipe	-11.9634
▁swiss	-11.9634
▁platform	-11.9634
▁yeehaah	-11.9634
▁cupcake	-11.9634
▁stowed	-11.9634
▁franciscan	-11.9634
▁grandchildren	-11.9634
▁quinn	-11.9634
▁reek	-11.9634
▁copilot	-11.9634
▁retina	-11.9634
▁shovels	-11.9634
▁harpo	-11.9635
▁morgu	-11.9635
▁piston	-11.9635
▁chaplin	-11.9635
▁egyptians	-11.9635
▁feces	-11.9635
▁omens	-11.9635
▁tribune	-11.9635
▁therapist	-11.9635
cultural	-11.9635
obot	-11.9635
▁schmuck	-11.9635
evident	-11.9635
▁knopf	-11.9635
▁thieves	-11.9635
▁tombstone	-11.9635
▁bead	-11.9635
▁chronic	-11.9635
▁eyeballs	-11.9635
▁ricard	-11.9635
▁organis	-11.9635
▁volcan	-11.9635
▁redeem	-11.9635
▁registration	-11.9635
▁beheld	-11.9635
▁hallucinat	-11.9635
▁vietnamese	-11.9635
▁cockpit	-11.9635
▁refuge	-11.9635
▁unseen	-11.9635
▁antiqu	-11.9635
gallop	-11.9635
▁compound	-11.9635
▁psychology	-11.9635
▁barging	-11.9635
▁unstable	-11.9635
▁aaaaah	-11.9635
▁sixtyfive	-11.9635
▁ssorry	-11.9635
▁taurai	-11.9635
▁harmonica	-11.9635
▁josé	-11.9635
demeanor	-11.9635
ertz	-11.9635
▁hardened	-11.9635
▁befriend	-11.9635
▁compass	-11.9635
▁slammed	-11.9635
▁flank	-11.9635
▁pamcake	-11.9635
▁xray	-11.9635
▁frown	-11.9635
▁lifestyles	-11.9635
▁stride	-11.9635
▁womb	-11.9635
▁compris	-11.9635
▁carnal	-11.9635
▁chiquit	-11.9635
▁fft	-11.9635
▁spicy	-11.9635
▁previous	-11.9635
▁prettie	-11.9635
▁lumber	-11.9635
▁futile	-11.9635
▁further	-11.9635
▁relish	-11.9635
▁terger	-11.9635
▁magni	-11.9635
fertilize	-11.9635
▁fondue	-11.9635
▁reconnect	-11.9635
▁purr	-11.9635
▁quad	-11.9635
▁nugs	-11.9635
▁dirait	-11.9635
▁litigat	-11.9635
▁parameter	-11.9635
▁arrogance	-11.9635
▁accusation	-11.9635
▁gambi	-11.9635
▁providence	-11.9635
▁trough	-11.9635
▁brink	-11.9635
▁appris	-11.9635
▁diagnosis	-11.9635
▁investigating	-11.9635
▁ozzy	-11.9635
▁griev	-11.9635
▁underdog	-11.9635
▁midterm	-11.9635
▁booze	-11.9635
▁fdr	-11.9635
▁restrict	-11.9635
▁riddle	-11.9635
▁humain	-11.9636
▁meltdown	-11.9636
▁valid	-11.9636
▁liberat	-11.9636
▁namani	-11.9636
▁wimp	-11.9636
▁epilep	-11.9636
▁trench	-11.9636
nuck	-11.9636
▁ilya	-11.9636
▁drugged	-11.9636
odome	-11.9636
▁cuddl	-11.9636
▁flap	-11.9636
ystic	-11.9636
▁basketball	-11.9636
▁chowder	-11.9636
▁exactement	-11.9636
▁mailbox	-11.9636
lodged	-11.9636
▁supermodel	-11.9636
▁laketown	-11.9636
▁angus	-11.9636
▁walsh	-11.9636
▁bicyc	-11.9636
▁grumpy	-11.9636
▁wsb	-11.9636
▁hefner	-11.9636
▁improvement	-11.9636
▁iso	-11.9636
▁perpet	-11.9636
▁reception	-11.9636
▁chacha	-11.9636
▁blanksy	-11.9636
▁supernatural	-11.9636
▁superstar	-11.9636
▁peoc	-11.9636
pliers	-11.9636
▁coldblooded	-11.9636
▁programming	-11.9636
▁thirtyfive	-11.9636
▁passageway	-11.9636
▁discharge	-11.9636
▁dangling	-11.9636
▁proverb	-11.9636
▁thigh	-11.9636
▁representative	-11.9636
▁plaintive	-11.9636
▁verify	-11.9636
▁felon	-11.9636
▁psychotic	-11.9636
▁patriotic	-11.9636
▁scour	-11.9636
▁inhabit	-11.9636
▁robbing	-11.9636
▁brawn	-11.9636
hyun	-11.9636
▁lowell	-11.9636
▁insulator	-11.9636
▁lookinfor	-11.9636
▁platter	-11.9636
▁profitable	-11.9636
▁backseat	-11.9636
▁twig	-11.9636
▁dilated	-11.9636
▁psst	-11.9636
▁zapp	-11.9636
solation	-11.9636
▁peacekeeper	-11.9636
▁chatting	-11.9636
▁mille	-11.9636
▁glue	-11.9636
osis	-11.9637
agonal	-11.9637
▁toppl	-11.9637
▁cosmo	-11.9637
▁fauit	-11.9637
▁bandstand	-11.9637
▁rughead	-11.9637
▁attic	-11.9637
▁perdu	-11.9637
▁distinction	-11.9637
▁mutt	-11.9637
▁lurk	-11.9637
▁sewed	-11.9637
▁massac	-11.9637
rench	-11.9637
▁significant	-11.9637
▁cuss	-11.9637
▁anyeah	-11.9637
▁oubli	-11.9637
▁visualize	-11.9637
▁reneg	-11.9637
▁dried	-11.9637
▁disappointment	-11.9637
▁derni	-11.9637
▁fraternities	-11.9637
▁circulation	-11.9637
▁rebellion	-11.9637
▁mystic	-11.9637
▁devotion	-11.9637
▁michi	-11.9637
▁duplic	-11.9637
▁conform	-11.9637
▁rotting	-11.9637
▁thorn	-11.9637
▁typical	-11.9637
▁gimli	-11.9637
▁progressive	-11.9637
▁kitty	-11.9637
▁definit	-11.9637
▁bargeman	-11.9638
▁bienven	-11.9638
▁sparkles	-11.9638
▁condom	-11.9638
▁pourrait	-11.9638
▁swamp	-11.9638
▁concealment	-11.9638
▁adjustment	-11.9638
▁rubbin	-11.9638
▁flapping	-11.9638
▁casualty	-11.9638
▁descent	-11.9638
▁translator	-11.9638
▁edition	-11.9638
▁grazie	-11.9638
ujour	-11.9638
▁bagels	-11.9638
omeda	-11.9638
▁lovebirds	-11.9638
▁traumatic	-11.9638
▁envie	-11.9638
▁elves	-11.9638
▁keyhole	-11.9638
▁garment	-11.9638
▁reentr	-11.9638
▁enchantée	-11.9638
▁homicide	-11.9638
▁rephrase	-11.9638
▁vertebrae	-11.9638
▁turbo	-11.9639
andes	-11.9639
gular	-11.9639
▁stamp	-11.9639
▁argh	-11.9639
▁flos	-11.9639
ccord	-11.9639
▁encouragement	-11.9639
▁kume	-11.9639
▁baissez	-11.9639
▁raspberry	-11.9639
▁testimony	-11.9639
▁melodies	-11.9639
▁priority	-11.9639
▁weiz	-11.9639
▁apron	-11.9639
▁plasti	-11.9639
▁farmhouse	-11.9639
▁commend	-11.9639
▁royalty	-11.9639
▁pomp	-11.9639
▁nuys	-11.9639
▁droppin	-11.9639
ville	-11.964
ymph	-11.964
▁ambi	-11.964
▁sissy	-11.964
▁raymaker	-11.964
rift	-11.964
▁yöurself	-11.964
▁chute	-11.964
▁exile	-11.964
étend	-11.964
▁unconscious	-11.964
▁tray	-11.964
▁ritz	-11.964
▁chariie	-11.964
oodoo	-11.964
▁ripper	-11.9641
▁notch	-11.9641
▁rach	-11.9641
▁forgiv	-11.9641
▁phasers	-11.9641
▁fright	-11.9641
▁tj	-11.9641
▁locate	-11.9641
▁straightaway	-11.9641
ciear	-11.9641
▁sku	-11.9641
▁langley	-11.9641
▁nouve	-11.9642
▁foolishness	-11.9642
▁heathen	-11.9642
▁clog	-11.9642
▁extinction	-11.9642
▁tripod	-11.9642
▁parkour	-11.9642
▁admiral	-11.9642
▁fiim	-11.9642
▁acceptance	-11.9642
▁cellphone	-11.9642
▁dumpling	-11.9642
▁sexiest	-11.9642
▁baii	-11.9642
wassup	-11.9642
osaurus	-11.9643
▁hex	-11.9643
▁barbar	-11.9643
heim	-11.9643
▁unpack	-11.9643
▁carbs	-11.9643
▁frat	-11.9643
▁flavor	-11.9643
▁transportation	-11.9643
▁countries	-11.9643
▁portia	-11.9643
▁boule	-11.9643
▁concentration	-11.9643
▁marina	-11.9643
▁curb	-11.9643
▁overtime	-11.9643
▁whatll	-11.9644
▁suz	-11.9644
▁virginia	-11.9644
▁dixie	-11.9644
▁tabie	-11.9644
▁disabled	-11.9644
▁lifesaver	-11.9644
▁yearbook	-11.9644
▁juni	-11.9644
▁confine	-11.9644
▁courtroom	-11.9644
stract	-11.9645
▁fiat	-11.9645
ront	-11.9645
▁branches	-11.9645
▁evac	-11.9645
▁conventional	-11.9645
▁inspirational	-11.9645
▁luce	-11.9645
▁blondie	-11.9645
hell	-11.9646
▁ideolog	-11.9646
▁teddyboxe	-11.9646
▁graders	-11.9646
▁inspection	-11.9646
▁crapper	-11.9646
▁sniveling	-11.9646
▁vibrating	-11.9646
▁archie	-11.9646
▁crock	-11.9646
▁mapped	-11.9646
▁cork	-11.9646
▁scootin	-11.9646
▁grove	-11.9647
▁attain	-11.9647
▁broth	-11.9647
pathy	-11.9647
▁gaby	-11.9647
▁enact	-11.9647
▁mush	-11.9647
▁perish	-11.9647
▁relive	-11.9647
▁introducing	-11.9648
▁raw	-11.9648
▁taille	-11.9648
▁bushwhacke	-11.9648
▁legendary	-11.9648
▁instantly	-11.9648
▁gamemaker	-11.9648
▁physics	-11.9648
▁awfui	-11.9648
▁calculated	-11.9648
▁dimension	-11.9648
▁dynamic	-11.9648
▁exhume	-11.9648
▁fabric	-11.9648
▁hypoth	-11.9648
▁kindergarten	-11.9648
▁compiete	-11.9648
▁scarce	-11.9649
▁lastminute	-11.9649
▁utilise	-11.9649
▁sweden	-11.9649
▁nutritio	-11.9649
▁nance	-11.9649
▁rho	-11.9649
grams	-11.9649
▁injection	-11.9649
adel	-11.9649
▁phonebook	-11.9649
▁wuss	-11.9649
▁festiv	-11.9649
izzo	-11.9649
▁shag	-11.9649
▁threatening	-11.965
▁heiio	-11.965
▁corpsman	-11.965
▁owens	-11.965
▁gaugin	-11.965
▁occasional	-11.965
dolf	-11.965
▁battie	-11.965
monica	-11.965
▁damp	-11.965
▁pushover	-11.965
▁combo	-11.965
▁laurent	-11.965
▁techno	-11.965
▁aback	-11.965
▁roundhouse	-11.9651
▁sinner	-11.9651
kov	-11.9651
▁lessence	-11.9651
▁icon	-11.9652
▁finir	-11.9652
▁aaaah	-11.9652
▁muns	-11.9652
▁slate	-11.9652
▁salon	-11.9652
▁florist	-11.9652
▁alma	-11.9652
▁occasionally	-11.9653
▁belch	-11.9653
▁brute	-11.9653
ilated	-11.9653
▁oversee	-11.9653
▁airfield	-11.9653
▁accidentally	-11.9654
ptical	-11.9654
▁parcel	-11.9654
▁chau	-11.9654
▁fastball	-11.9654
▁musicians	-11.9654
▁parson	-11.9654
▁portion	-11.9654
▁innoc	-11.9654
▁refus	-11.9655
▁sympathy	-11.9655
▁gland	-11.9655
▁restroom	-11.9655
▁isolated	-11.9656
▁evicted	-11.9656
▁kickoff	-11.9656
▁bile	-11.9656
▁doghouse	-11.9657
▁hull	-11.9657
▁waxer	-11.9657
▁dismissed	-11.9657
▁intimidated	-11.9657
▁suspended	-11.9657
▁clé	-11.9657
▁forged	-11.9657
▁taxes	-11.9657
▁devais	-11.9657
▁pasture	-11.9657
▁quiver	-11.9657
▁paco	-11.9657
▁ferti	-11.9658
▁ferri	-11.9658
▁slum	-11.9659
▁aaa	-11.9659
▁puss	-11.9659
▁shallow	-11.9659
▁permanently	-11.9659
water	-11.9659
▁bombur	-11.966
essaie	-11.966
▁instant	-11.966
▁fitzer	-11.966
▁schoolboy	-11.966
▁surge	-11.966
▁voic	-11.966
▁queue	-11.966
▁oye	-11.966
▁chérie	-11.966
▁coid	-11.9661
▁powerade	-11.9661
▁marna	-11.9661
▁conceive	-11.9661
▁rustle	-11.9662
▁estil	-11.9662
▁moat	-11.9662
▁jaw	-11.9662
▁org	-11.9662
▁brass	-11.9663
▁probi	-11.9663
▁sneakers	-11.9663
▁dim	-11.9663
▁nightfall	-11.9663
▁travaille	-11.9664
long	-11.9664
▁welt	-11.9664
▁croc	-11.9664
▁unhol	-11.9665
▁trill	-11.9666
▁swelling	-11.9666
▁mourning	-11.9666
▁slurping	-11.9666
▁peers	-11.9666
▁girion	-11.9666
▁labour	-11.9667
▁clanking	-11.9667
▁playboy	-11.9667
▁caim	-11.9668
▁shade	-11.9668
▁cré	-11.9668
▁buh	-11.9668
▁canne	-11.9669
▁gull	-11.9669
▁graph	-11.967
▁comply	-11.967
▁arranged	-11.967
▁airline	-11.967
▁coff	-11.967
zzled	-11.9671
▁enable	-11.9671
▁oblige	-11.9671
▁analyze	-11.9671
▁mandy	-11.9671
▁exploring	-11.9671
▁mick	-11.9671
▁accomplished	-11.9672
▁offended	-11.9672
▁decorated	-11.9672
▁hookers	-11.9672
oise	-11.9672
▁explorer	-11.9672
▁thorax	-11.9672
▁chalk	-11.9672
▁bland	-11.9672
▁intellectual	-11.9672
▁awning	-11.9673
▁erreur	-11.9673
▁stup	-11.9673
▁désa	-11.9673
▁sprinkler	-11.9674
▁rundown	-11.9674
▁bowie	-11.9675
▁rosy	-11.9675
isse	-11.9675
▁smy	-11.9676
unks	-11.9677
dental	-11.9677
▁vaca	-11.9679
▁greedy	-11.968
▁rome	-11.9681
▁twoyear	-11.9681
▁tornadoes	-11.9681
▁latched	-11.9682
▁cameraman	-11.9682
▁maxim	-11.9682
▁abst	-11.9683
▁jiggl	-11.9684
▁fearless	-11.9684
▁assez	-11.9685
▁everyday	-11.9685
▁grinding	-11.9685
▁hobo	-11.9685
gus	-11.9685
▁tickled	-11.9685
▁danielle	-11.9685
▁apr	-11.9686
▁bumbershoots	-11.9686
▁caiendars	-11.9686
▁caterpillars	-11.9686
▁gadgets	-11.9686
▁hyenas	-11.9686
▁kowolskis	-11.9686
▁pharaohs	-11.9686
▁trousers	-11.9686
▁taikin	-11.9686
▁newport	-11.9686
▁pleas	-11.9686
▁superman	-11.9687
▁streaming	-11.9687
▁dreading	-11.9687
▁neighing	-11.9687
▁trickortreating	-11.9687
▁headliner	-11.9687
▁bolstering	-11.9687
▁ethe	-11.9687
▁snapped	-11.9688
▁aspe	-11.9688
▁pré	-11.969
▁momentum	-11.969
▁travell	-11.969
▁sap	-11.9691
▁homeboy	-11.9692
▁huntin	-11.9692
▁wool	-11.9693
▁digest	-11.9693
▁hatched	-11.9693
▁petite	-11.9693
ymy	-11.9693
▁stream	-11.9694
▁loom	-11.9694
▁identified	-11.9695
lapse	-11.9695
▁carrier	-11.9695
▁twister	-11.9696
▁jinxy	-11.9696
▁slashe	-11.9696
▁agony	-11.9698
▁faintly	-11.9698
▁collapsed	-11.9698
▁gare	-11.9699
▁manag	-11.9699
▁peru	-11.9701
▁voit	-11.9701
▁adapted	-11.9701
▁revealed	-11.9701
▁fulfilled	-11.9701
▁distracted	-11.9702
▁pastry	-11.9702
▁perf	-11.9702
▁hugged	-11.9703
▁magically	-11.9703
▁wiper	-11.9703
▁briefly	-11.9704
▁demonstrate	-11.9704
▁abso	-11.9704
▁crafty	-11.9704
▁wealthy	-11.9704
▁honorable	-11.9705
▁leah	-11.9706
orry	-11.9707
▁cfer	-11.9707
▁mocking	-11.9707
▁devastating	-11.9708
▁tux	-11.9708
▁investing	-11.9708
▁madman	-11.9709
▁wakin	-11.9709
▁parenting	-11.9709
▁bein	-11.9709
▁sip	-11.971
▁magnetiz	-11.9711
▁curt	-11.9715
▁crazyass	-11.9716
▁disconnected	-11.9716
▁succeeded	-11.9716
▁recommended	-11.9716
▁barnes	-11.9718
▁pager	-11.9719
nails	-11.9719
▁sweetness	-11.972
▁globally	-11.972
▁halter	-11.972
▁metall	-11.9721
▁azar	-11.9722
▁mettre	-11.9722
▁cloudy	-11.9723
▁rebell	-11.9723
▁followup	-11.9727
▁matches	-11.9727
▁depressing	-11.9729
tobe	-11.9729
▁blushing	-11.9729
▁directory	-11.9732
▁perp	-11.9732
▁skilled	-11.9733
▁cape	-11.9736
▁shackle	-11.9737
▁forgiven	-11.9738
produc	-11.9738
▁usher	-11.9739
star	-11.974
▁physically	-11.9742
▁shopper	-11.9743
▁undo	-11.9743
ku	-11.9744
▁tamp	-11.9744
▁wes	-11.9745
▁vc	-11.9745
▁wasp	-11.9746
▁nanny	-11.9746
▁easley	-11.9747
▁coaster	-11.9748
▁semble	-11.9749
▁broadcasting	-11.975
▁huffing	-11.975
▁vomiting	-11.975
▁railing	-11.975
▁lynching	-11.9751
▁collar	-11.9752
▁manhood	-11.9752
▁brandy	-11.9754
▁hurtful	-11.9754
lage	-11.9755
▁archer	-11.9756
▁bottie	-11.9758
ecu	-11.9758
▁pic	-11.976
▁breakup	-11.9761
▁ambushed	-11.9762
▁blended	-11.9762
▁shitting	-11.9764
shua	-11.9766
▁visitation	-11.9766
▁smallie	-11.9766
▁cf	-11.9768
eller	-11.9769
committed	-11.9769
▁vasy	-11.9773
▁sung	-11.9774
▁sweeping	-11.9774
uity	-11.9774
▁forks	-11.9775
▁boogers	-11.9775
▁chandras	-11.9775
▁cullens	-11.9775
▁enfants	-11.9775
▁fingerprints	-11.9775
▁scabs	-11.9775
▁decorations	-11.9776
▁truffles	-11.9776
▁excites	-11.9776
▁bumped	-11.9776
▁howls	-11.9776
▁hacked	-11.9777
▁escorted	-11.9777
▁but	-11.9777
▁compens	-11.9777
▁felton	-11.978
▁spine	-11.9781
▁sidew	-11.9783
▁organiz	-11.9785
▁bloat	-11.9786
▁kud	-11.9789
zig	-11.9791
▁condo	-11.9792
▁published	-11.9792
▁legion	-11.9793
▁clan	-11.9793
▁rioting	-11.9793
▁punishing	-11.9793
▁termi	-11.9795
netenth	-11.9795
▁engineered	-11.9798
▁ark	-11.98
▁braver	-11.9802
ously	-11.9804
▁quilt	-11.9805
▁brushed	-11.9807
▁mitch	-11.9811
▁dashing	-11.9814
▁why	-11.9817
▁fraternit	-11.9817
▁detour	-11.9818
▁daytime	-11.9818
▁followers	-11.9819
▁sellin	-11.9826
▁enca	-11.9829
▁represented	-11.9831
▁yak	-11.9832
▁anatom	-11.9832
▁rebuild	-11.9833
▁avoiding	-11.9836
▁simpler	-11.9837
▁jumpin	-11.984
▁compli	-11.984
▁lud	-11.9849
▁photographer	-11.9852
▁wrecked	-11.9852
▁approached	-11.9853
mble	-11.9855
opy	-11.9857
▁bursting	-11.9857
▁earning	-11.9858
▁qualif	-11.9859
▁protector	-11.9861
▁filk	-11.9862
▁initiated	-11.9865
▁transformer	-11.987
nera	-11.9874
▁edg	-11.9875
▁generat	-11.9878
▁drilling	-11.9879
▁grilling	-11.9879
remy	-11.9879
stein	-11.9884
▁fling	-11.9887
grudge	-11.9888
▁rockin	-11.9892
▁aid	-11.9898
▁licking	-11.99
▁monitoring	-11.9901
▁dew	-11.9903
▁boobie	-11.9905
▁tyrann	-11.9905
▁niner	-11.9907
▁ensl	-11.9908
▁cloth	-11.991
▁bolt	-11.991
▁mischie	-11.9917
ula	-11.9917
▁blocked	-11.992
pocalypse	-11.9922
▁consen	-11.9924
▁tubing	-11.9928
▁weave	-11.9929
▁gin	-11.9931
pack	-11.9933
▁awe	-11.9933
inch	-11.9941
nb	-11.9944
▁crushed	-11.9946
▁devi	-11.9949
▁matin	-11.995
▁poorly	-11.9952
▁tué	-11.9957
▁assumed	-11.9957
▁monthly	-11.9958
▁zing	-11.9964
▁defending	-11.9966
▁simulat	-11.9969
▁attempted	-11.9976
▁pouv	-11.9976
ois	-11.9981
▁burner	-11.9983
▁fet	-11.9986
lipper	-11.9988
series	-11.9991
omni	-11.9998
▁smoked	-12.0012
intention	-12.0022
▁starters	-12.0027
▁gam	-12.0035
▁trai	-12.0044
▁charl	-12.0052
clair	-12.0055
▁pigg	-12.0056
rites	-12.0103
▁grind	-12.0103
ummy	-12.0105
▁crazies	-12.0109
▁alo	-12.0125
▁replicat	-12.0128
▁racer	-12.0144
▁bonne	-12.0155
▁begg	-12.0158
gged	-12.0165
step	-12.0169
▁blogg	-12.0171
▁advis	-12.0191
▁automatic	-12.0242
▁burk	-12.0263
dependent	-12.027
ired	-12.0277
ayer	-12.0289
laying	-12.029
▁cit	-12.03
▁commodit	-12.0305
poll	-12.0309
▁camper	-12.0331
▁offsi	-12.0333
illian	-12.0335
trified	-12.0339
▁remo	-12.0339
pen	-12.038
▁deduce	-12.0387
▁flipp	-12.0421
▁willful	-12.0442
ound	-12.0455
phine	-12.0461
about	-12.0462
lane	-12.0464
pensive	-12.0486
tout	-12.0502
jori	-12.0503
stering	-12.0508
easy	-12.0512
▁porte	-12.0537
▁misfi	-12.0541
▁amie	-12.0549
▁finai	-12.0587
▁fiber	-12.0602
racle	-12.0627
dhanded	-12.0636
▁assassinate	-12.0638
divided	-12.064
▁choi	-12.0676
▁parlez	-12.0679
▁subt	-12.0699
▁patter	-12.07
▁brai	-12.0703
▁marche	-12.0712
▁eun	-12.0757
iene	-12.0789
saisir	-12.0799
▁estimate	-12.0801
▁fil	-12.0817
▁manoeuvre	-12.0856
nock	-12.0862
▁dunk	-12.0884
precipit	-12.0918
issy	-12.0921
▁err	-12.0925
▁baron	-12.0944
▁blo	-12.0945
▁earlie	-12.0956
▁programme	-12.0973
▁rider	-12.1021
▁ledge	-12.1023
▁cove	-12.1027
witch	-12.1036
uja	-12.1058
akin	-12.1066
▁vir	-12.1114
▁distinct	-12.1117
▁specializ	-12.1138
tron	-12.1146
▁quelqu	-12.115
▁chem	-12.1153
▁sauv	-12.1153
▁interact	-12.1159
pecker	-12.1202
▁lust	-12.1261
reaiity	-12.1269
▁serai	-12.1274
bay	-12.13
▁muse	-12.1374
paw	-12.1381
▁vent	-12.1454
▁trembl	-12.1517
antic	-12.1533
vah	-12.1562
hose	-12.1564
nade	-12.1603
▁athe	-12.1611
▁rust	-12.163
conductor	-12.1654
▁regrett	-12.1664
▁certifi	-12.1667
eille	-12.1667
tically	-12.1702
▁bangl	-12.1707
▁marc	-12.1722
▁stumbl	-12.1742
iana	-12.1751
▁preserve	-12.1856
▁stumble	-12.192
ckingham	-12.1929
▁exceptional	-12.1957
▁haute	-12.1961
▁rubb	-12.2041
ippin	-12.2048
aries	-12.2054
▁decei	-12.2135
pairmen	-12.2144
▁chev	-12.2149
▁tremble	-12.2155
▁poppin	-12.216
▁buri	-12.2198
oster	-12.22
▁preserv	-12.2212
mination	-12.2252
▁arse	-12.2264
bri	-12.2275
utz	-12.232
smi	-12.2386
berger	-12.24
induc	-12.2471
▁gag	-12.2473
stance	-12.2586
farb	-12.2593
descending	-12.2597
dici	-12.2603
laid	-12.262
cept	-12.2705
▁arch	-12.2709
▁lego	-12.2724
voir	-12.2822
▁precipi	-12.2833
oeuvres	-12.2908
▁meg	-12.3015
arri	-12.3045
enna	-12.3064
▁fend	-12.3146
zzy	-12.3174
doubted	-12.3191
▁hub	-12.3215
▁explor	-12.3235
▁lipp	-12.3275
▁ora	-12.3289
▁repu	-12.3294
▁finaii	-12.3324
larice	-12.3332
▁terra	-12.3332
flat	-12.3351
▁sak	-12.3369
▁commod	-12.3399
▁demonstrati	-12.3412
oose	-12.347
rdon	-12.3481
aissez	-12.3512
name	-12.3517
sibility	-12.3555
anist	-12.3584
▁joc	-12.359
▁mario	-12.3598
▁assimilat	-12.3614
▁koo	-12.3631
lagged	-12.3645
tempted	-12.3647
nomic	-12.3792
▁behav	-12.3794
tox	-12.3836
▁shrin	-12.3852
▁diagnos	-12.3857
boom	-12.3896
izzle	-12.3948
▁treasur	-12.4001
prendre	-12.4029
arti	-12.4045
ammo	-12.4045
▁evi	-12.4051
▁virtu	-12.4053
▁defian	-12.4053
▁compete	-12.4061
ification	-12.4086
▁salu	-12.4113
drea	-12.4138
taii	-12.4142
▁interacti	-12.4214
woo	-12.426
building	-12.4278
▁tyran	-12.4281
gals	-12.4282
onize	-12.4311
▁kil	-12.4319
▁crucif	-12.4324
logging	-12.433
heard	-12.4333
▁deceivin	-12.4336
umour	-12.4344
▁howl	-12.4362
▁sniff	-12.4371
traction	-12.4372
▁forge	-12.4378
▁meow	-12.4378
▁excite	-12.4378
▁clank	-12.4378
awa	-12.4382
stitute	-12.4383
▁franc	-12.4385
▁wail	-12.4388
▁truffle	-12.4408
▁chandra	-12.4408
▁cullen	-12.4408
▁enfant	-12.4408
▁scab	-12.4408
nail	-12.4409
▁booger	-12.4411
▁fingerprint	-12.4411
▁decoration	-12.4413
▁nazi	-12.442
▁accomplishment	-12.4421
▁handcuff	-12.4424
▁chariot	-12.4424
▁insect	-12.4424
▁fork	-12.4424
▁olympic	-12.4426
▁seagull	-12.4428
ternal	-12.4429
▁investor	-12.443
utti	-12.4432
▁vein	-12.4438
▁inhale	-12.4438
▁rhode	-12.444
▁tyre	-12.4444
▁stair	-12.4445
▁troop	-12.4447
▁chart	-12.4455
empti	-12.4456
▁stoke	-12.4458
▁chime	-12.4458
owered	-12.447
ologie	-12.4474
writes	-12.4484
elli	-12.4489
lanche	-12.4493
addo	-12.4496
▁incorporate	-12.4496
amus	-12.4506
▁accus	-12.451
wise	-12.4511
▁rebel	-12.4514
licate	-12.4519
giving	-12.452
▁surpris	-12.4531
▁twi	-12.4532
habit	-12.4536
▁hoard	-12.4538
▁trippin	-12.4545
arro	-12.4546
▁wip	-12.4548
▁activ	-12.4548
leasing	-12.455
▁claw	-12.4551
▁disturb	-12.4552
writers	-12.4562
vag	-12.4562
▁climate	-12.4566
graph	-12.4566
conscious	-12.4568
▁associ	-12.4571
hawk	-12.4572
identified	-12.4572
intellectual	-12.4572
thorax	-12.4572
locate	-12.4572
chalk	-12.4572
ughton	-12.4573
erreur	-12.4573
squat	-12.4574
known	-12.4574
path	-12.4574
instant	-12.4575
wakey	-12.4575
structure	-12.4575
wilder	-12.4575
competitive	-12.4575
reliable	-12.4575
michel	-12.4575
should	-12.4575
cinq	-12.4575
appreciated	-12.4577
bourgeois	-12.4577
niner	-12.4577
discovery	-12.4577
registered	-12.4577
neutral	-12.4577
limited	-12.4577
azzle	-12.4577
▁escap	-12.4577
maniac	-12.4578
appropriate	-12.4578
orientation	-12.4578
sensor	-12.4578
▁obli	-12.4578
loom	-12.4579
▁gab	-12.4579
graduate	-12.4579
concert	-12.4579
flame	-12.4579
experienced	-12.4579
approved	-12.4579
bucket	-12.4579
planned	-12.4579
beef	-12.4579
twist	-12.458
hunting	-12.458
regard	-12.458
official	-12.458
proof	-12.458
growth	-12.458
mount	-12.458
judith	-12.458
wolf	-12.458
material	-12.458
sexual	-12.458
grateful	-12.458
responsible	-12.458
dialing	-12.4581
social	-12.4581
reason	-12.4581
cleaning	-12.4581
smith	-12.4581
generation	-12.4581
understood	-12.4581
delta	-12.4581
freak	-12.4581
child	-12.4581
common	-12.4581
strike	-12.4581
purpose	-12.4581
advance	-12.4582
ghost	-12.4582
drinking	-12.4582
review	-12.4582
pool	-12.4582
venom	-12.4582
thousand	-12.4582
personal	-12.4582
floor	-12.4582
worth	-12.4582
lucky	-12.4582
human	-12.4582
▁slurp	-12.4582
white	-12.4582
bitch	-12.4582
▁mourn	-12.4582
death	-12.4582
together	-12.4582
something	-12.4582
shaw	-12.4582
mission	-12.4582
broke	-12.4583
▁phon	-12.4583
bottom	-12.4583
figure	-12.4583
drive	-12.4583
▁evolv	-12.4583
beau	-12.4583
rider	-12.4583
vision	-12.4583
held	-12.4583
justice	-12.4583
left	-12.4583
fingers	-12.4583
hart	-12.4584
▁describ	-12.4584
logan	-12.4584
cells	-12.4584
choice	-12.4584
clam	-12.4585
▁holler	-12.4585
eaten	-12.4585
strong	-12.4586
▁engag	-12.4586
enemy	-12.4586
grew	-12.4587
uzzi	-12.4587
▁frustrat	-12.4587
▁frag	-12.4587
▁solv	-12.4587
▁suppos	-12.4587
linda	-12.4588
announce	-12.4588
▁exceed	-12.4588
esignation	-12.4588
chari	-12.4588
▁squeak	-12.4589
▁murmur	-12.4589
wait	-12.459
trip	-12.459
conceiv	-12.4591
league	-12.4591
chair	-12.4591
▁grad	-12.4592
look	-12.4592
▁debug	-12.4592
capable	-12.4593
frank	-12.4594
▁reject	-12.4596
marry	-12.4597
fois	-12.4597
▁intimidat	-12.4597
▁suspend	-12.4597
▁dismiss	-12.4597
letter	-12.4598
▁concentr	-12.4598
▁distinguish	-12.4599
warm	-12.4599
armor	-12.4599
▁isolate	-12.46
▁acquire	-12.4601
▁amaze	-12.4601
berry	-12.4601
▁exhaust	-12.4601
▁settl	-12.4601
▁dominat	-12.4601
▁restore	-12.4602
everything	-12.4602
stress	-12.4603
aiiy	-12.4604
ocious	-12.4604
lawful	-12.4607
fait	-12.4607
huit	-12.4609
▁retrouv	-12.4609
eferre	-12.4609
▁chamb	-12.461
▁authoriz	-12.4611
young	-12.4613
▁réalis	-12.4614
cuous	-12.4614
esses	-12.4614
▁circl	-12.4614
cycl	-12.4615
▁astronom	-12.4616
around	-12.4616
▁clement	-12.4616
▁wond	-12.4617
ifer	-12.4617
bake	-12.4617
▁energ	-12.4617
▁balanc	-12.4618
▁swell	-12.4618
▁sorcer	-12.4619
▁dizz	-12.4619
▁arche	-12.462
▁lifesav	-12.462
adian	-12.462
saurus	-12.4621
▁interpret	-12.4621
▁navigat	-12.4622
▁recreat	-12.4623
▁mccart	-12.4623
▁hypocri	-12.4623
▁brook	-12.4623
ologne	-12.4624
▁blaz	-12.4624
▁rabbi	-12.4624
▁wonderfu	-12.4626
recogniz	-12.4626
ntez	-12.4626
▁shaki	-12.4626
▁persia	-12.4626
domina	-12.4627
inlaw	-12.4627
▁regime	-12.4627
▁heave	-12.4627
▁cautio	-12.4627
▁prosecut	-12.4627
▁sentiment	-12.4627
▁princip	-12.4627
ithy	-12.4627
▁potato	-12.4627
ucci	-12.4628
▁trouver	-12.4628
▁harpe	-12.4628
▁investigati	-12.4628
▁melodi	-12.4628
▁apprehen	-12.4628
▁froze	-12.4629
▁typica	-12.4629
rseif	-12.4629
▁circulati	-12.4629
solid	-12.463
▁counci	-12.463
▁rencontr	-12.463
▁emergenc	-12.463
elected	-12.463
▁pow	-12.463
▁recepti	-12.463
▁allons	-12.463
▁impossib	-12.463
▁officia	-12.463
phins	-12.463
▁patriot	-12.4631
▁yöursel	-12.4631
eautiful	-12.4631
▁brazil	-12.4631
▁drivin	-12.4631
blooded	-12.4631
▁discriminat	-12.4632
▁presiden	-12.4632
ediatric	-12.4632
▁racin	-12.4632
▁ridicul	-12.4632
▁milli	-12.4632
▁hittin	-12.4632
▁beneficia	-12.4632
▁inconvenien	-12.4632
ncredible	-12.4632
▁humiliati	-12.4632
uvre	-12.4632
nternet	-12.4632
▁integr	-12.4633
gear	-12.4633
▁vigilan	-12.4633
▁hoot	-12.4633
▁arrogan	-12.4633
▁physici	-12.4633
mbus	-12.4633
changel	-12.4633
▁sebasti	-12.4633
insula	-12.4633
▁triumph	-12.4633
▁turk	-12.4633
▁teddybox	-12.4633
▁electri	-12.4633
▁actuai	-12.4633
▁oak	-12.4634
▁schmu	-12.4634
▁applica	-12.4634
▁congratuiat	-12.4634
▁whisk	-12.4634
▁instruct	-12.4634
igato	-12.4634
join	-12.4634
pposed	-12.4634
kansas	-12.4634
▁contemp	-12.4634
ancien	-12.4634
▁douche	-12.4634
harmonic	-12.4634
▁veggie	-12.4634
ö	-12.4634
▁accommodat	-12.4634
▁cornucop	-12.4634
▁disintegrat	-12.4634
▁décroch	-12.4634
▁inaugurat	-12.4634
▁narcissis	-12.4634
▁noingnoing	-12.4634
▁obsessivecompu	-12.4634
▁rehabilitat	-12.4634
barbital	-12.4634
enseigne	-12.4634
esthesia	-12.4634
explosif	-12.4634
indulgen	-12.4634
jeopardy	-12.4634
jugation	-12.4634
lololololo	-12.4634
ndescribable	-12.4634
ndonesia	-12.4634
oiution	-12.4634
ophile	-12.4634
osoph	-12.4634
rgermeister	-12.4634
séquence	-12.4634
tocrat	-12.4634
trospective	-12.4634
▁abacus	-12.4634
▁aberration	-12.4634
▁accelerati	-12.4634
▁aerobics	-12.4634
▁aeroplane	-12.4634
▁africanamerican	-12.4634
▁akita	-12.4634
▁alejandro	-12.4634
▁alfrid	-12.4634
▁algebra	-12.4634
▁alonzo	-12.4634
▁alvarez	-12.4634
▁ambassade	-12.4634
▁androgyn	-12.4634
▁anesthetic	-12.4634
▁anesthetize	-12.4634
▁anglais	-12.4634
▁animatronic	-12.4634
▁anlaughing	-12.4634
▁apologizing	-12.4634
▁appendix	-12.4634
▁appreciating	-12.4634
▁arcadia	-12.4634
▁archaeolog	-12.4634
▁archaic	-12.4634
▁aretha	-12.4634
▁argentina	-12.4634
▁articulate	-12.4634
▁aruba	-12.4634
▁astrobiologist	-12.4634
▁atalanta	-12.4634
▁atlantis	-12.4634
▁avantgarde	-12.4634
▁azog	-12.4634
▁bacharach	-12.4634
▁balboa	-12.4634
▁baptist	-12.4634
▁beethoven	-12.4634
▁benihana	-12.4634
▁bethlehem	-12.4634
▁beyoncé	-12.4634
▁biblica	-12.4634
▁blimey	-12.4634
▁blindfold	-12.4634
▁bloodsuck	-12.4634
▁boohoo	-12.4634
▁boroughs	-12.4634
▁brennan	-12.4634
▁bridesmaid	-12.4634
▁bruges	-12.4634
▁brujon	-12.4634
▁bubeleh	-12.4634
▁buiiding	-12.4634
▁burrito	-12.4634
▁cadaver	-12.4634
▁cammie	-12.4634
▁camouflage	-12.4634
▁cancellation	-12.4634
▁candidates	-12.4634
▁cannibal	-12.4634
▁capisce	-12.4634
▁capitaine	-12.4634
▁capitan	-12.4634
▁carefui	-12.4634
▁cartagena	-12.4634
▁cartwheel	-12.4634
▁catastrophe	-12.4634
▁caviar	-12.4634
▁cdrom	-12.4634
▁celsius	-12.4634
▁ceramic	-12.4634
▁chamberlain	-12.4634
▁cholera	-12.4634
▁circumcised	-12.4634
▁cirque	-12.4634
▁civilisation	-12.4634
▁cockroach	-12.4634
▁coexist	-12.4634
▁collaborator	-12.4634
▁communicating	-12.4634
▁communiquer	-12.4634
▁comparisons	-12.4634
▁compartment	-12.4634
▁component	-12.4634
▁confiscate	-12.4634
▁connecticut	-12.4634
▁conscript	-12.4634
▁constellation	-12.4634
▁contradiction	-12.4634
▁cornelius	-12.4634
▁coronary	-12.4634
▁crabapple	-12.4634
▁crikey	-12.4634
▁cripple	-12.4634
▁critique	-12.4634
▁cryptofascist	-12.4634
▁culdesac	-12.4634
▁custodia	-12.4634
▁dabord	-12.4634
▁defective	-12.4634
▁defensive	-12.4634
▁deficit	-12.4634
▁deinococcus	-12.4634
▁deliberate	-12.4634
▁delusional	-12.4634
▁demolish	-12.4634
▁dentreprise	-12.4634
▁différent	-12.4634
▁dilophosaurus	-12.4634
▁dingalidas	-12.4634
▁downhill	-12.4634
▁dungeon	-12.4634
▁dégage	-12.4634
▁eclipse	-12.4634
▁ecommerce	-12.4634
▁elaborate	-12.4634
▁electrocut	-12.4634
▁elsewhere	-12.4634
▁elysium	-12.4634
▁embuscade	-12.4634
▁encompass	-12.4634
▁entendu	-12.4634
▁enthusiasm	-12.4634
▁enunciating	-12.4634
▁esgaroth	-12.4634
▁eungam	-12.4634
▁euthanize	-12.4634
▁exboyfriend	-12.4634
▁excalibur	-12.4634
▁exclalm	-12.4634
▁excruciating	-12.4634
▁exorcis	-12.4634
▁exploding	-12.4634
▁faculty	-12.4634
▁failsafe	-12.4634
▁ferrari	-12.4634
▁fiirting	-12.4634
▁fishilliterate	-12.4634
▁flamethrower	-12.4634
▁flannel	-12.4634
▁flatulence	-12.4634
▁flexible	-12.4634
▁fluctuation	-12.4634
▁franchise	-12.4634
▁gahgah	-12.4634
▁gatorade	-12.4634
▁geopolitic	-12.4634
▁getsemani	-12.4634
▁gilliam	-12.4634
▁giorgio	-12.4634
▁goliath	-12.4634
▁grammy	-12.4634
▁guidance	-12.4634
▁gulps	-12.4634
▁gunpowder	-12.4634
▁gymnast	-12.4634
▁gypsies	-12.4634
▁haeften	-12.4634
▁hawkweed	-12.4634
▁healthcare	-12.4634
▁hendry	-12.4634
▁herpes	-12.4634
▁hetrochromia	-12.4634
▁heungsam	-12.4634
▁hideandseek	-12.4634
▁hilliard	-12.4634
▁hobbit	-12.4634
▁housewives	-12.4634
▁huevos	-12.4634
▁humidity	-12.4634
▁hybrid	-12.4634
▁iayuda	-12.4634
▁icebreaker	-12.4634
▁iceskate	-12.4634
▁icloud	-12.4634
▁illuminate	-12.4634
▁imperfectbeing	-12.4634
▁implication	-12.4634
▁implicit	-12.4634
▁indebted	-12.4634
▁indifference	-12.4634
▁inhaling	-12.4634
▁inhibitions	-12.4634
▁insensitive	-12.4634
▁insignificant	-12.4634
▁instill	-12.4634
▁invisibie	-12.4634
▁jabberjay	-12.4634
▁jefferson	-12.4634
▁jubilee	-12.4634
▁kazantzakis	-12.4634
▁kebechet	-12.4634
▁kfwb	-12.4634
▁klimt	-12.4634
▁knuckle	-12.4634
▁koufax	-12.4634
▁landlady	-12.4634
▁lepidoptera	-12.4634
▁libido	-12.4634
▁lmmediately	-12.4634
▁macedonia	-12.4634
▁machowacho	-12.4634
▁majestic	-12.4634
▁mandrills	-12.4634
▁mangoritas	-12.4634
▁marathon	-12.4634
▁margaret	-12.4634
▁marijuana	-12.4634
▁marriott	-12.4634
▁marseilles	-12.4634
▁masturbating	-12.4634
▁matrix	-12.4634
▁mayonnaise	-12.4634
▁meemaw	-12.4634
▁meitdown	-12.4634
▁merchandis	-12.4634
▁mermaid	-12.4634
▁metabolism	-12.4634
▁metaphysic	-12.4634
▁mexcuse	-12.4634
▁micheiie	-12.4634
▁minnelli	-12.4634
▁misdirection	-12.4634
▁mojito	-12.4634
▁moldova	-12.4634
▁moonbeams	-12.4634
▁morphling	-12.4634
▁motherfucker	-12.4634
▁moyulan	-12.4634
▁médecin	-12.4634
▁ménerve	-12.4634
▁nebula	-12.4634
▁necessity	-12.4634
▁necromanc	-12.4634
▁neighbourhood	-12.4634
▁nightclub	-12.4634
▁ninetofiver	-12.4634
▁nobodies	-12.4634
▁novocain	-12.4634
▁obscene	-12.4634
▁obscure	-12.4634
▁onesixteen	-12.4634
▁optimism	-12.4634
▁optimistic	-12.4634
▁ortho	-12.4634
▁oscars	-12.4634
▁osteo	-12.4634
▁ottoman	-12.4634
▁outburst	-12.4634
▁outvote	-12.4634
▁overflow	-12.4634
▁padiock	-12.4634
▁pamphlet	-12.4634
▁parabolically	-12.4634
▁paralysis	-12.4634
▁pawnshop	-12.4634
▁pelada	-12.4634
▁penetration	-12.4634
▁penitentiary	-12.4634
▁pentagon	-12.4634
▁perignon	-12.4634
▁pharma	-12.4634
▁philosopher	-12.4634
▁phlegm	-12.4634
▁photosynthesis	-12.4634
▁pilsen	-12.4634
▁pineapple	-12.4634
▁piraté	-12.4634
▁pitchfork	-12.4634
▁pixel	-12.4634
▁pockmarked	-12.4634
▁poultry	-12.4634
▁predecessor	-12.4634
▁preggers	-12.4634
▁premises	-12.4634
▁preposterous	-12.4634
▁prevail	-12.4634
▁projet	-12.4634
▁psychosomatic	-12.4634
▁puissant	-12.4634
▁punctual	-12.4634
▁quadrant	-12.4634
▁ramolli	-12.4634
▁raphael	-12.4634
▁reassign	-12.4634
▁recaptur	-12.4634
▁recognise	-12.4634
▁recule	-12.4634
▁regulations	-12.4634
▁relocation	-12.4634
▁reminisc	-12.4634
▁remorse	-12.4634
▁renforts	-12.4634
▁reorganiz	-12.4634
▁revival	-12.4634
▁rhetorical	-12.4634
▁ridicuious	-12.4634
▁rigorously	-12.4634
▁romulan	-12.4634
▁sabotage	-12.4634
▁safari	-12.4634
▁sainttropez	-12.4634
▁sapphires	-12.4634
▁sauerkraut	-12.4634
▁scavenger	-12.4634
▁schneider	-12.4634
▁schoolgirl	-12.4634
▁schön	-12.4634
▁screwdriver	-12.4634
▁scribble	-12.4634
▁scrutiny	-12.4634
▁scythia	-12.4634
▁secrecy	-12.4634
▁segura	-12.4634
▁seizure	-12.4634
▁selfdefense	-12.4634
▁semtex	-12.4634
▁sensitivity	-12.4634
▁shapeshift	-12.4634
▁sherbecoe	-12.4634
▁sheridan	-12.4634
▁skimpiify	-12.4634
▁smithsonian	-12.4634
▁smoulder	-12.4634
▁snuffles	-12.4634
▁socio	-12.4634
▁solitude	-12.4634
▁somali	-12.4634
▁splendid	-12.4634
▁springsteen	-12.4634
▁squawks	-12.4634
▁squelching	-12.4634
▁stagecoach	-12.4634
▁steadfast	-12.4634
▁stevie	-12.4634
▁strife	-12.4634
▁subpoena	-12.4634
▁suffice	-12.4634
▁suffocat	-12.4634
▁superhighway	-12.4634
▁supplement	-12.4634
▁surrealist	-12.4634
▁suspicion	-12.4634
▁swapping	-12.4634
▁swift	-12.4634
[...]
