<unk>	0
<s>	0
</s>	0
s	-3.64833
▁oh	-4.59852
▁dont	-4.66608
▁im	-4.69482
▁go	-4.88857
▁well	-4.88969
▁get	-4.92054
▁know	-4.9369
▁come	-4.96206
ing	-5.08175
▁like	-5.09695
▁right	-5.15223
▁one	-5.17263
▁got	-5.22439
▁good	-5.2277
ed	-5.26423
▁youre	-5.26699
▁thats	-5.31266
▁see	-5.38294
▁yes	-5.41478
▁	-5.43697
▁yeah	-5.5382
▁look	-5.54704
▁ill	-5.56346
▁time	-5.56735
▁think	-5.60212
▁hey	-5.62634
▁back	-5.64031
▁us	-5.67548
▁cant	-5.68525
▁want	-5.74
▁hes	-5.75312
▁little	-5.7579
▁take	-5.76676
d	-5.78594
▁going	-5.80099
▁okay	-5.81459
▁say	-5.8192
▁man	-5.8379
▁na	-5.84808
▁tell	-5.86048
▁let	-5.90797
▁way	-5.91147
▁would	-5.94192
▁never	-5.97219
▁could	-5.98649
y	-5.99411
▁make	-6.02787
▁whats	-6.03142
▁uh	-6.04571
e	-6.07822
▁help	-6.10506
▁something	-6.11286
▁love	-6.11645
▁ive	-6.11937
▁theres	-6.11956
▁gon	-6.12163
er	-6.16001
▁really	-6.1731
▁didnt	-6.19467
▁give	-6.20917
▁thank	-6.21266
▁wait	-6.21523
▁lets	-6.22643
▁mean	-6.22868
▁please	-6.23038
ly	-6.23898
▁must	-6.245
▁mr	-6.33509
▁sir	-6.3588
t	-6.36326
▁old	-6.36911
▁day	-6.3787
▁sure	-6.3798
▁find	-6.39587
▁much	-6.40638
▁two	-6.40642
in	-6.41308
▁l	-6.42039
▁sorry	-6.43736
▁need	-6.4543
▁life	-6.46044
▁great	-6.46373
▁home	-6.46913
▁thing	-6.4749
▁keep	-6.47804
▁away	-6.49044
a	-6.4916
▁first	-6.49629
▁miss	-6.50027
▁nothing	-6.51163
▁better	-6.5147
▁boy	-6.51794
▁night	-6.51875
▁shes	-6.53441
▁wont	-6.54606
▁youll	-6.55569
▁said	-6.57191
▁ever	-6.57614
▁even	-6.58482
▁theyre	-6.58853
▁youve	-6.5951
▁stop	-6.60154
▁long	-6.6094
▁work	-6.61376
▁anything	-6.62226
▁still	-6.62227
▁girl	-6.62843
▁ah	-6.64277
▁always	-6.66804
▁people	-6.67167
▁around	-6.6717
▁world	-6.67609
▁thought	-6.67908
▁big	-6.69285
▁new	-6.70217
▁id	-6.70689
▁may	-6.71099
▁call	-6.74236
▁things	-6.74473
▁course	-6.74673
n	-6.75533
▁stay	-6.77864
▁every	-6.78544
▁morning	-6.80709
▁show	-6.80887
▁leave	-6.81156
▁believe	-6.81215
▁talk	-6.82758
▁dear	-6.83233
es	-6.83458
▁put	-6.8362
▁place	-6.84623
▁father	-6.86051
▁nice	-6.88235
r	-6.89205
▁isnt	-6.89344
▁huh	-6.8936
▁de	-6.89607
▁last	-6.89821
▁told	-6.90252
▁aint	-6.90253
▁mother	-6.90979
▁ta	-6.91052
▁hear	-6.92836
▁kind	-6.93273
▁care	-6.93518
▁coming	-6.94481
▁wouldnt	-6.94488
▁made	-6.94974
▁run	-6.95341
▁whoa	-6.95525
▁hold	-6.95732
▁another	-6.96841
en	-6.9691
▁mind	-6.97334
▁three	-6.98312
▁done	-6.98322
▁feel	-6.98504
▁house	-7.01103
▁enough	-7.0132
▁children	-7.01834
▁fine	-7.02437
▁doesnt	-7.02858
o	-7.03423
▁maybe	-7.03426
▁bad	-7.03715
▁left	-7.03847
▁everything	-7.04563
▁king	-7.04703
▁remember	-7.04938
▁turn	-7.06494
▁ooh	-7.06542
▁hello	-7.06592
▁bring	-7.06999
▁might	-7.07371
▁today	-7.07622
▁understand	-7.08165
▁name	-7.09238
▁try	-7.0961
▁start	-7.10205
▁baby	-7.1037
▁shall	-7.10371
▁captain	-7.10927
▁bit	-7.10939
▁ha	-7.11325
▁watch	-7.11444
▁listen	-7.13147
▁men	-7.13201
▁ready	-7.1329
▁best	-7.14915
▁je	-7.1612
▁thanks	-7.1727
▁wrong	-7.17287
al	-7.17444
▁door	-7.17895
▁seen	-7.17993
▁heart	-7.1861
p	-7.1884
▁beautiful	-7.18886
▁live	-7.18998
▁head	-7.2039
▁fly	-7.20845
▁true	-7.20937
▁die	-7.21308
▁without	-7.22181
▁dad	-7.22256
▁years	-7.23145
▁ik	-7.23714
▁next	-7.24721
▁looking	-7.24859
▁em	-7.25034
▁money	-7.25366
▁matter	-7.25452
▁eat	-7.25491
▁many	-7.25741
▁town	-7.26022
▁hope	-7.27709
▁scarlett	-7.27989
▁road	-7.27998
ll	-7.29209
▁tomorrow	-7.30683
▁goodbye	-7.30683
▁alone	-7.30685
▁weve	-7.30693
▁god	-7.30849
▁ya	-7.30938
h	-7.31241
▁lot	-7.31702
▁real	-7.31842
▁hand	-7.32735
▁happy	-7.32754
▁use	-7.3331
▁far	-7.33409
▁whole	-7.3487
▁hmm	-7.35581
▁friend	-7.35712
▁young	-7.36808
▁minute	-7.37423
▁everyone	-7.37765
▁ask	-7.38084
▁youd	-7.38506
▁gone	-7.38523
▁havent	-7.39975
▁job	-7.3999
▁friends	-7.40364
▁came	-7.40683
▁move	-7.40926
▁second	-7.41236
▁car	-7.4133
▁woman	-7.41487
f	-7.41796
▁someone	-7.42248
▁hurry	-7.4225
▁face	-7.42841
▁christmas	-7.43017
ve	-7.43137
▁word	-7.433
▁whos	-7.43447
▁pretty	-7.43795
▁else	-7.43795
▁yet	-7.43811
▁room	-7.43852
▁worry	-7.43925
▁heard	-7.44308
▁saw	-7.44579
▁hi	-7.44949
▁wan	-7.45282
▁found	-7.45361
▁tonight	-7.45362
▁guys	-7.45719
▁family	-7.46155
c	-7.46926
▁along	-7.46956
▁princess	-7.47654
▁four	-7.47737
▁poor	-7.47767
▁excuse	-7.48575
▁lost	-7.48596
▁wish	-7.48625
or	-7.49298
▁business	-7.49363
▁water	-7.49483
g	-7.50818
▁mom	-7.51088
▁um	-7.51173
▁getting	-7.51426
l	-7.51737
▁everybody	-7.52742
▁ball	-7.52808
▁bear	-7.52862
▁talking	-7.53136
▁mrs	-7.53338
▁quite	-7.53677
▁la	-7.5386
▁happened	-7.53945
▁wanted	-7.5412
▁fire	-7.54138
▁open	-7.54253
▁en	-7.54453
▁cause	-7.55019
▁buzz	-7.55393
▁idea	-7.55886
▁soon	-7.56009
▁music	-7.56126
▁ow	-7.56133
▁looks	-7.56171
▁together	-7.56215
▁dead	-7.56899
▁kid	-7.57232
▁change	-7.57674
▁cat	-7.57677
m	-7.57896
▁child	-7.57973
ion	-7.58054
▁days	-7.58238
ar	-7.58804
▁sleep	-7.58883
▁afraid	-7.58884
▁knew	-7.58885
▁stand	-7.5917
▁win	-7.59501
▁wasnt	-7.59793
▁lady	-7.59884
▁goes	-7.60419
▁rest	-7.60705
▁trouble	-7.61637
▁land	-7.61796
▁son	-7.62062
▁couldnt	-7.62666
▁clear	-7.62762
▁bed	-7.62899
▁story	-7.64479
▁bird	-7.64789
▁chuckles	-7.6549
▁race	-7.65679
▁kill	-7.65691
▁human	-7.65798
▁pay	-7.65928
i	-7.66385
▁chance	-7.66805
▁part	-7.67522
▁a	-7.67691
▁hell	-7.68297
▁nobody	-7.6837
▁ease	-7.6837
▁feet	-7.68375
▁brother	-7.68836
re	-7.6886
▁year	-7.68877
est	-7.69326
▁guess	-7.6937
▁gentlemen	-7.69371
▁hurt	-7.69756
▁met	-7.69952
▁anyone	-7.7038
▁hard	-7.7072
w	-7.71153
▁forget	-7.71403
▁five	-7.71435
▁end	-7.71443
▁sighs	-7.71522
▁shh	-7.71588
▁meet	-7.71865
▁caesar	-7.71888
ic	-7.71939
▁guy	-7.71964
▁un	-7.7206
▁mine	-7.72444
▁says	-7.72456
▁het	-7.72494
▁sound	-7.72939
▁dog	-7.73069
▁arent	-7.73473
▁moment	-7.73497
▁een	-7.73597
▁trying	-7.73597
▁eyes	-7.73801
▁marry	-7.74529
▁late	-7.75192
▁light	-7.75241
k	-7.75565
▁set	-7.75591
▁till	-7.75655
▁play	-7.75804
u	-7.76154
el	-7.76543
▁rome	-7.76554
mon	-7.76851
▁fun	-7.77693
▁easy	-7.77773
▁already	-7.7885
▁ashley	-7.78852
▁inside	-7.78854
▁re	-7.78936
▁later	-7.78985
▁perhaps	-7.79962
▁wonderful	-7.79983
▁gasps	-7.80127
▁high	-7.80671
▁daughter	-7.80779
▁s	-7.80867
▁fast	-7.82016
▁ahead	-7.82227
▁wow	-7.82248
▁fish	-7.82253
▁close	-7.82504
▁dream	-7.83157
▁ago	-7.83388
st	-7.83526
▁used	-7.83691
▁sit	-7.84191
▁blue	-7.8436
▁darling	-7.84547
▁taking	-7.84554
b	-7.84654
▁follow	-7.85083
▁suppose	-7.854
▁quiet	-7.85506
▁air	-7.85775
▁h	-7.86065
▁minutes	-7.86253
▁dat	-7.86263
ies	-7.8651
▁sing	-7.86543
▁almost	-7.86901
▁since	-7.86905
▁city	-7.86919
▁joel	-7.86924
▁they	-7.87728
▁save	-7.87806
▁point	-7.87978
▁black	-7.88085
▁crazy	-7.88113
▁earth	-7.88125
▁check	-7.88138
▁wheres	-7.88576
▁hit	-7.88694
▁break	-7.88747
▁somebody	-7.89325
▁food	-7.89325
▁took	-7.89327
▁red	-7.89809
▁speak	-7.89832
on	-7.89834
▁cut	-7.90495
▁half	-7.90558
▁important	-7.90563
▁g	-7.90861
▁miles	-7.91065
▁mike	-7.91548
▁kids	-7.91609
▁power	-7.91781
▁war	-7.91796
▁niet	-7.91813
▁maria	-7.91814
▁hot	-7.91912
▁happen	-7.9193
▁side	-7.9197
▁hands	-7.92592
▁hachi	-7.93088
▁free	-7.93107
▁makes	-7.93135
us	-7.93443
▁laughing	-7.93495
▁called	-7.93517
▁safe	-7.94023
▁price	-7.94333
▁special	-7.94354
▁went	-7.94369
▁fool	-7.94377
▁school	-7.94383
an	-7.94701
▁throw	-7.95006
▁quick	-7.95237
▁news	-7.95297
▁sun	-7.95461
▁perfect	-7.9548
▁heres	-7.96112
▁dr	-7.96227
▁singing	-7.96351
▁hate	-7.96476
ch	-7.96858
▁welcome	-7.96972
▁actually	-7.96972
▁control	-7.96975
▁number	-7.97036
▁boys	-7.97057
▁rain	-7.97066
▁c	-7.97262
▁party	-7.97307
▁luck	-7.98081
▁six	-7.98299
▁alive	-7.98315
▁funny	-7.98321
▁peter	-7.98386
▁in	-7.98803
le	-7.98956
▁fight	-7.99027
▁small	-7.99658
▁lose	-8.00267
▁p	-8.00848
▁kiki	-8.01027
▁pok	-8.01057
▁song	-8.01113
▁wind	-8.01202
▁full	-8.0132
▁send	-8.01797
▁glad	-8.02198
▁times	-8.02256
▁shut	-8.02394
▁pick	-8.02408
▁death	-8.02415
▁catch	-8.03222
ers	-8.03818
▁rhett	-8.03824
▁star	-8.03907
▁walk	-8.03932
▁sister	-8.04095
▁problem	-8.04121
▁laughs	-8.04321
▁seems	-8.04613
▁trust	-8.04705
▁bell	-8.04743
▁different	-8.05035
▁careful	-8.05105
▁lovely	-8.05169
▁voice	-8.05252
▁ok	-8.0526
▁exactly	-8.05276
▁stuff	-8.06172
▁flying	-8.06701
▁ponyo	-8.06721
▁itll	-8.06725
▁making	-8.06775
▁wild	-8.06936
▁street	-8.0706
▁read	-8.07305
▁grow	-8.07367
▁feeling	-8.07396
▁pull	-8.07615
▁pa	-8.0772
te	-8.07999
▁white	-8.08177
▁master	-8.08189
▁moon	-8.08194
▁horses	-8.08424
▁wants	-8.08455
▁spirit	-8.08592
▁touch	-8.08717
▁truth	-8.09052
▁birds	-8.09133
▁sea	-8.09194
▁ze	-8.09283
▁promise	-8.09363
▁honor	-8.09642
▁drink	-8.09668
▁buy	-8.09707
▁deal	-8.09921
▁girls	-8.09999
▁scared	-8.10056
▁plan	-8.1014
▁drive	-8.10993
▁behind	-8.1118
▁ramona	-8.1118
▁honey	-8.11181
▁probably	-8.11182
▁running	-8.11186
▁cold	-8.11238
▁eh	-8.11241
▁grunts	-8.11321
able	-8.11358
▁dance	-8.12262
▁apollo	-8.12718
▁maar	-8.12732
ous	-8.12778
▁lead	-8.13382
▁sign	-8.13664
▁er	-8.13752
▁lord	-8.14013
▁w	-8.14014
▁least	-8.14281
▁sosuke	-8.14281
▁jim	-8.14285
▁upon	-8.14288
▁wake	-8.14457
▁bet	-8.14553
▁game	-8.14896
▁book	-8.14898
▁hour	-8.1496
▁ten	-8.15304
▁dan	-8.1549
▁dinner	-8.15858
▁taylor	-8.15868
▁blood	-8.15868
▁bye	-8.15869
▁toto	-8.15879
ur	-8.16195
▁playing	-8.16789
▁reason	-8.17449
▁anybody	-8.17481
▁brought	-8.17481
▁fault	-8.17481
▁houston	-8.17481
▁daphne	-8.17481
▁front	-8.17484
▁buddy	-8.17485
▁flight	-8.17485
▁become	-8.17521
▁terrible	-8.17531
▁return	-8.17926
ow	-8.18367
▁means	-8.1856
▁waiting	-8.18592
▁shoot	-8.18603
▁seem	-8.18721
▁whoo	-8.1898
▁secret	-8.1912
▁papa	-8.1912
▁gave	-8.19147
▁ho	-8.19405
▁st	-8.19588
▁line	-8.19635
▁mei	-8.19656
▁wed	-8.19807
▁mcqueen	-8.19835
th	-8.19835
▁needs	-8.20041
▁boo	-8.20344
man	-8.20529
▁thinking	-8.20658
▁fact	-8.20796
▁roger	-8.20808
ment	-8.21367
ie	-8.21634
▁ride	-8.21635
▁hours	-8.21803
▁sweet	-8.22461
▁aye	-8.22483
▁sort	-8.22495
▁shot	-8.22504
▁shell	-8.22505
▁th	-8.22657
▁dreams	-8.22801
▁seconds	-8.23044
▁ù	-8.23267
at	-8.23459
▁working	-8.23847
▁horse	-8.23923
▁m	-8.24166
▁wife	-8.24206
▁screaming	-8.24499
▁order	-8.24619
ting	-8.24825
▁magic	-8.24892
▁e	-8.24907
▁dark	-8.2595
▁answer	-8.2596
▁shouldnt	-8.25961
▁ladies	-8.25984
▁browne	-8.2606
▁stick	-8.26134
▁words	-8.2642
▁comes	-8.27153
▁ship	-8.27359
▁though	-8.27669
▁professor	-8.27746
▁gold	-8.27818
▁z	-8.27842
▁drop	-8.27901
▁folks	-8.28101
▁wonder	-8.28348
▁knows	-8.28735
▁scrooge	-8.29564
▁eliza	-8.29566
▁cool	-8.29573
▁uhhuh	-8.29592
▁eli	-8.29797
▁van	-8.29925
▁pan	-8.2996
▁supposed	-8.30047
▁able	-8.30127
▁belle	-8.3015
▁learn	-8.30246
▁present	-8.30609
▁doctor	-8.30635
▁message	-8.30714
▁hang	-8.30836
▁taken	-8.3106
▁strange	-8.313
▁aunt	-8.31391
▁velma	-8.31416
▁whatever	-8.31416
▁flik	-8.31417
▁alright	-8.31418
▁beside	-8.31418
▁rather	-8.3142
▁woody	-8.31473
▁hair	-8.3148
▁billy	-8.31488
▁laugh	-8.31818
▁lm	-8.31887
▁goin	-8.32555
▁ghost	-8.32648
▁report	-8.3287
▁surprise	-8.32988
▁heighho	-8.33303
▁others	-8.33303
▁maam	-8.33307
▁sent	-8.33323
▁certainly	-8.33448
▁mmm	-8.33519
▁op	-8.33526
▁blu	-8.3357
▁fall	-8.33826
▁expect	-8.34061
▁picture	-8.34609
▁eye	-8.34622
▁step	-8.34968
▁clean	-8.35226
▁explain	-8.35226
▁round	-8.35226
▁butler	-8.35227
▁future	-8.35227
▁stupid	-8.35227
▁daddy	-8.35265
▁possible	-8.35273
▁beast	-8.35301
▁top	-8.35553
▁als	-8.35693
▁lives	-8.36347
▁asked	-8.36597
et	-8.36634
▁cub	-8.36675
▁fair	-8.36939
▁command	-8.36975
▁kiss	-8.37076
▁brave	-8.37171
▁kenai	-8.37187
▁less	-8.37566
▁fat	-8.37616
▁al	-8.37827
ling	-8.38292
▁spell	-8.38575
▁tree	-8.38639
▁meant	-8.38675
▁judah	-8.39194
▁absolutely	-8.39205
▁living	-8.39224
▁hide	-8.39227
▁also	-8.39283
▁rat	-8.3973
▁killed	-8.40269
▁rock	-8.4042
▁ge	-8.4046
ant	-8.40634
▁fix	-8.40703
▁wash	-8.40762
▁fear	-8.40931
▁evening	-8.40934
▁fra	-8.41016
▁short	-8.41021
ation	-8.41047
▁gift	-8.41228
▁merry	-8.41229
▁tea	-8.4126
▁phone	-8.41281
▁wear	-8.42651
▁week	-8.42864
▁warm	-8.43208
▁straight	-8.43212
▁sick	-8.43296
▁charlie	-8.43314
▁outside	-8.43314
▁space	-8.43314
▁married	-8.43325
▁melly	-8.43327
▁main	-8.43365
▁boss	-8.43371
▁t	-8.43556
▁cheering	-8.43668
▁carry	-8.44835
▁witch	-8.45324
▁saying	-8.45354
▁jacob	-8.45439
▁coach	-8.45439
▁ground	-8.45439
▁simple	-8.4544
▁aah	-8.45476
ter	-8.45725
▁sometimes	-8.45806
▁finished	-8.45893
▁dress	-8.47097
▁act	-8.47106
▁except	-8.4756
▁forever	-8.47612
▁history	-8.47612
▁wendy	-8.47613
▁queen	-8.47613
▁spot	-8.4762
▁dc	-8.4766
▁country	-8.47662
▁lion	-8.47668
▁forgive	-8.47668
▁missed	-8.49144
▁sam	-8.49259
ge	-8.49421
▁mark	-8.4943
▁co	-8.49691
▁mad	-8.49722
▁mornin	-8.49781
▁snow	-8.49822
▁attention	-8.49835
▁hannah	-8.49835
▁leaving	-8.49835
▁sulley	-8.49836
▁speed	-8.49876
▁team	-8.49904
▁finally	-8.49922
▁f	-8.50049
ma	-8.50194
▁dig	-8.51341
ce	-8.51563
▁cry	-8.51574
▁lay	-8.51635
▁ring	-8.51765
▁track	-8.51801
ity	-8.51976
▁bloom	-8.52009
▁u	-8.52012
less	-8.52065
▁danger	-8.52084
▁somewhere	-8.52107
▁worse	-8.52107
▁cross	-8.52108
▁pride	-8.52108
▁smile	-8.52109
▁forest	-8.52114
▁yep	-8.52126
▁penny	-8.52126
▁cj	-8.52129
▁none	-8.52152
▁west	-8.52221
▁da	-8.52234
▁bo	-8.52444
▁count	-8.52461
▁b	-8.52658
up	-8.53063
▁pass	-8.53159
▁burn	-8.5349
▁ja	-8.53562
▁jump	-8.53777
▁telling	-8.53997
▁peace	-8.541
▁dare	-8.54137
▁worth	-8.5414
▁te	-8.54206
▁turned	-8.54336
▁anyway	-8.54433
▁higgins	-8.54433
▁company	-8.54434
▁tried	-8.54435
▁hungry	-8.54436
▁voor	-8.54447
▁moving	-8.5445
▁offer	-8.54473
▁lina	-8.54476
▁foot	-8.54519
▁past	-8.54529
out	-8.56264
▁months	-8.56265
▁strong	-8.56594
▁join	-8.56596
▁slow	-8.56634
▁mess	-8.56781
▁either	-8.56814
▁groans	-8.56814
▁jonah	-8.56814
▁london	-8.56814
▁pardon	-8.56814
▁river	-8.56814
▁simba	-8.56814
▁wilkes	-8.56814
▁share	-8.56816
▁box	-8.56844
▁jiji	-8.56849
▁mmhmm	-8.56853
v	-8.56948
▁doc	-8.57055
lein	-8.57207
▁lll	-8.57476
▁zo	-8.57681
it	-8.57703
▁aan	-8.57995
▁hij	-8.58226
▁teach	-8.58276
▁meeting	-8.58286
▁blow	-8.58553
▁finish	-8.58737
▁bless	-8.58766
▁complete	-8.58931
▁entire	-8.59048
▁cup	-8.59169
▁forgot	-8.59234
▁royal	-8.59238
▁church	-8.59253
▁launch	-8.59253
▁mammy	-8.59253
▁crew	-8.59255
▁smee	-8.59256
▁case	-8.5928
▁dangerous	-8.59285
▁storm	-8.59297
▁field	-8.59325
▁stone	-8.5937
▁busy	-8.5937
▁theyve	-8.59377
il	-8.5944
▁lucky	-8.59716
ten	-8.59844
nt	-8.60462
▁lts	-8.60496
ful	-8.60527
▁quit	-8.61
▁fell	-8.61206
▁v	-8.613
▁known	-8.61305
▁person	-8.61678
▁window	-8.61701
▁suitcase	-8.61753
▁sense	-8.61755
▁mama	-8.61761
▁wel	-8.61797
ke	-8.62065
▁lights	-8.62745
ul	-8.62888
▁ch	-8.62963
▁yo	-8.63259
▁heavens	-8.63324
▁pal	-8.63555
▁engine	-8.63642
▁deep	-8.63908
▁certain	-8.6412
▁lunch	-8.64317
▁chaney	-8.64317
▁jimmy	-8.64317
▁jungle	-8.64318
▁outta	-8.64325
▁body	-8.64331
▁paul	-8.64347
▁sky	-8.64358
▁battle	-8.64361
▁chicken	-8.64365
▁crowd	-8.64396
▁tired	-8.64456
▁hows	-8.64568
▁greatest	-8.6473
▁lf	-8.64988
do	-8.65142
▁pictures	-8.65149
▁brothers	-8.65711
▁mistake	-8.66832
▁prince	-8.66884
▁travel	-8.66906
▁anymore	-8.66949
▁bread	-8.66949
▁craig	-8.66949
▁force	-8.66949
▁malcolm	-8.66949
▁werent	-8.66949
▁uncle	-8.66949
▁tara	-8.6695
▁birthday	-8.6695
▁charles	-8.66951
▁mouse	-8.66955
▁season	-8.66972
▁born	-8.67039
▁mountain	-8.67041
▁planet	-8.67102
▁yankees	-8.67687
▁mighty	-8.68193
▁train	-8.68221
▁ones	-8.68505
▁gas	-8.68712
▁continues	-8.68746
▁mi	-8.68975
▁gun	-8.69588
▁nothin	-8.696
▁so	-8.69601
▁courage	-8.69651
▁emperor	-8.69651
▁kitchen	-8.69651
▁randall	-8.69651
▁proud	-8.69652
▁favorite	-8.69654
▁gaston	-8.69663
▁throat	-8.6967
▁station	-8.69688
▁unless	-8.69706
▁fit	-8.69781
▁smell	-8.69801
▁rose	-8.69827
▁toy	-8.69944
age	-8.70046
▁goodness	-8.70145
▁trip	-8.70224
▁write	-8.70393
▁changed	-8.70609
▁riders	-8.70822
▁john	-8.71143
▁rid	-8.71368
▁lots	-8.71477
▁test	-8.71915
▁bare	-8.72041
ish	-8.72166
▁heb	-8.72274
▁baloo	-8.72429
▁english	-8.72429
▁ganda	-8.72429
▁merlin	-8.72429
▁mowgli	-8.72429
▁cheese	-8.72429
▁often	-8.72431
▁majesty	-8.7244
▁grace	-8.72443
▁liesl	-8.72448
▁beauty	-8.72463
▁floor	-8.72471
▁ti	-8.72546
▁pocket	-8.72548
▁charge	-8.72578
▁sword	-8.72613
▁fellow	-8.72645
▁george	-8.7265
▁low	-8.72699
▁li	-8.72877
▁riding	-8.73059
▁cubs	-8.7326
▁ca	-8.73604
▁speaking	-8.73857
▁loves	-8.74524
▁d	-8.74546
▁lift	-8.74724
▁question	-8.74914
▁beat	-8.74952
▁serious	-8.75083
▁mana	-8.75162
▁husband	-8.75286
▁impossible	-8.75286
▁matty	-8.75286
▁nineveh	-8.75286
▁sheriff	-8.75286
▁worried	-8.75286
▁zijn	-8.75286
▁indeed	-8.75286
▁area	-8.75287
▁seven	-8.75288
▁village	-8.75289
▁castle	-8.753
▁ought	-8.75309
▁clothes	-8.75315
▁mouth	-8.75319
▁decided	-8.754
▁level	-8.75567
▁watching	-8.75574
▁machine	-8.75576
▁law	-8.75657
▁sad	-8.75824
▁promised	-8.7589
▁weeks	-8.75915
▁lad	-8.76331
▁player	-8.76459
▁age	-8.76992
▁eggs	-8.77323
▁rich	-8.77374
ry	-8.77404
oo	-8.77801
▁near	-8.77812
▁agree	-8.77879
▁ran	-8.77978
▁kapitein	-8.78228
▁silver	-8.78228
▁melanie	-8.78228
▁pleasure	-8.78228
▁couple	-8.7823
▁north	-8.78231
um	-8.78231
▁women	-8.78231
▁stories	-8.78233
▁lightning	-8.78235
▁giving	-8.78243
▁german	-8.7825
▁broken	-8.78358
▁hunter	-8.7841
▁saved	-8.79
▁crying	-8.79042
▁hole	-8.79053
▁ø	-8.79289
hana	-8.79508
▁longer	-8.80099
▁madam	-8.80385
de	-8.80452
ness	-8.80473
▁needed	-8.80545
▁damn	-8.80719
▁beg	-8.80742
▁ahh	-8.80856
▁started	-8.81062
▁over	-8.81193
▁belong	-8.81207
▁wing	-8.81244
▁bonnie	-8.81258
▁serve	-8.81258
▁hasnt	-8.8126
▁caught	-8.81263
▁cute	-8.8128
▁spend	-8.81286
▁highness	-8.813
▁mara	-8.81389
▁dust	-8.81569
▁system	-8.81689
▁thousand	-8.8172
▁devil	-8.81739
▁monster	-8.81785
▁per	-8.81786
▁hat	-8.81935
▁dot	-8.82046
ro	-8.82096
▁ned	-8.82117
▁dis	-8.82246
▁i	-8.82695
▁happening	-8.82777
▁loved	-8.82777
▁given	-8.8285
by	-8.82932
▁k	-8.83659
▁bother	-8.83831
ir	-8.83844
▁hook	-8.83845
▁roll	-8.83858
is	-8.84077
▁beezus	-8.84383
▁benji	-8.84383
▁kronk	-8.84383
▁kuzco	-8.84383
▁ridiculous	-8.84383
▁truck	-8.84383
▁simply	-8.84383
▁brandnew	-8.84384
▁frank	-8.84384
▁koda	-8.84384
▁stuck	-8.84386
▁lisa	-8.84388
▁sitka	-8.84396
▁ridge	-8.84406
▁sell	-8.84413
▁oil	-8.84415
▁panting	-8.84431
▁feed	-8.84507
▁heads	-8.84591
▁rule	-8.8491
▁soul	-8.84964
▁brain	-8.8501
▁million	-8.85016
▁ben	-8.85149
▁mo	-8.85414
▁looked	-8.85437
▁no	-8.85706
over	-8.85888
▁names	-8.86158
▁n	-8.86245
ted	-8.86286
ive	-8.86294
▁bob	-8.86581
▁march	-8.86963
▁hah	-8.86964
▁note	-8.8699
▁arm	-8.87183
ot	-8.87223
▁loud	-8.87389
▁office	-8.87493
▁police	-8.87578
▁anywhere	-8.87609
▁beyond	-8.87609
▁doubt	-8.87609
▁forward	-8.87609
▁summer	-8.87609
▁weird	-8.87609
▁green	-8.8761
▁kidding	-8.8762
▁max	-8.8762
▁gentleman	-8.87623
▁totoro	-8.8764
▁prove	-8.87654
▁sight	-8.87683
▁bank	-8.877
▁hotel	-8.8772
▁handle	-8.87768
▁signal	-8.87771
▁hem	-8.87774
▁scar	-8.87865
▁awful	-8.87996
▁position	-8.88264
ary	-8.88274
▁month	-8.8836
▁state	-8.88364
▁theyd	-8.88459
▁spring	-8.88497
▁tires	-8.88912
▁orders	-8.89122
▁screams	-8.8993
▁protect	-8.90018
▁push	-8.90288
▁gods	-8.90333
▁figure	-8.90651
▁proper	-8.90757
▁wat	-8.90765
▁choice	-8.90942
▁guard	-8.90942
▁middle	-8.90942
▁neither	-8.90942
▁president	-8.90942
▁service	-8.90942
▁weather	-8.90942
▁across	-8.90942
▁yesterday	-8.90942
▁movie	-8.90942
▁reach	-8.90942
▁baroness	-8.90944
▁pickering	-8.90945
▁shame	-8.90947
▁happens	-8.9097
▁tv	-8.90974
▁early	-8.91091
▁von	-8.91159
▁roman	-8.91191
▁r	-8.91658
▁paper	-8.91834
▁hier	-8.9189
▁ray	-8.9191
▁picked	-8.92226
▁hill	-8.92333
▁gee	-8.92389
co	-8.92394
▁unit	-8.92554
am	-8.92998
▁pack	-8.93191
ley	-8.93266
▁imagine	-8.93532
▁destroy	-8.93854
la	-8.9404
▁honest	-8.94194
po	-8.94285
▁south	-8.94381
▁dorothy	-8.9439
▁emelius	-8.9439
▁female	-8.9439
▁governor	-8.9439
▁kelso	-8.9439
▁michael	-8.9439
▁remain	-8.9439
▁kali	-8.94393
▁racing	-8.94401
▁grimm	-8.94402
▁wack	-8.94409
▁sake	-8.94412
▁stage	-8.94426
▁joe	-8.94486
be	-8.94562
▁key	-8.94598
▁corner	-8.94602
▁mustnt	-8.9467
op	-8.94729
▁commander	-8.94776
ng	-8.94793
▁ver	-8.94835
▁quickly	-8.94926
▁shoo	-8.94958
▁mission	-8.95006
▁out	-8.95051
me	-8.95149
▁idiot	-8.95244
▁begin	-8.95774
▁moved	-8.95843
▁wall	-8.96343
▁ant	-8.9655
▁enjoy	-8.96737
▁pain	-8.96781
▁standing	-8.9688
▁treat	-8.97108
▁class	-8.97136
▁con	-8.97163
▁draw	-8.97281
▁trapp	-8.9746
▁raise	-8.97646
ist	-8.97719
▁jam	-8.97732
▁tight	-8.9787
▁amazing	-8.97962
▁doolittle	-8.97962
▁language	-8.97962
▁island	-8.97962
▁silly	-8.97965
▁barnier	-8.97967
▁stallion	-8.97968
▁accident	-8.97971
▁steady	-8.97976
▁chief	-8.97987
▁loose	-8.97996
▁mater	-8.97998
▁paid	-8.98013
▁tiny	-8.98017
▁color	-8.98026
▁powers	-8.98048
▁doin	-8.98089
▁cheer	-8.98273
▁hall	-8.98391
▁building	-8.98409
▁scream	-8.98442
▁paint	-8.98488
▁shoes	-8.98625
to	-8.98718
ty	-8.98806
no	-8.98903
▁motorcycle	-8.98979
▁leg	-8.98992
▁suit	-8.98993
▁egg	-8.99077
▁lie	-8.99355
▁scare	-8.99418
▁ba	-8.99551
▁ga	-8.9965
▁ohh	-8.99663
x	-8.99833
z	-8.99896
j	-8.99993
om	-9.00084
▁aw	-9.00088
▁calling	-9.00149
▁attack	-9.00429
ate	-9.00451
▁bea	-9.00518
▁øùù	-9.01599
▁hospital	-9.01643
▁admit	-9.01649
▁egypt	-9.01652
▁appear	-9.01656
▁weak	-9.01659
▁thunder	-9.01663
▁eagle	-9.01665
▁excited	-9.01665
▁rescue	-9.01665
▁marshal	-9.01665
▁within	-9.01665
▁genius	-9.01666
▁purpose	-9.01666
▁beginning	-9.01666
▁difference	-9.01675
▁henry	-9.0168
▁blame	-9.01681
▁broom	-9.01682
▁nose	-9.01688
▁pink	-9.01694
▁stopped	-9.0172
▁eight	-9.01723
▁grunting	-9.0175
▁action	-9.01757
▁kay	-9.01788
▁bug	-9.01864
▁grown	-9.0197
▁shed	-9.02133
▁ùù	-9.02136
▁takes	-9.02232
▁owls	-9.02316
▁lo	-9.0254
▁jewel	-9.02886
▁continue	-9.02925
▁flower	-9.02949
ian	-9.03051
dy	-9.03136
▁card	-9.03259
▁walking	-9.03343
▁seat	-9.03413
ig	-9.04128
▁fill	-9.05052
▁settle	-9.05189
▁waste	-9.05264
▁wings	-9.05335
▁somethin	-9.05458
▁jij	-9.05465
▁afternoon	-9.05511
▁breakfast	-9.05511
▁coffee	-9.05511
▁instead	-9.05511
▁marvelous	-9.05511
▁relax	-9.05511
▁strike	-9.05511
▁vehicle	-9.05511
▁meowing	-9.05512
▁palace	-9.05516
▁view	-9.05516
▁informant	-9.05517
▁chair	-9.05519
▁freedom	-9.0552
▁neil	-9.05523
▁general	-9.05524
▁grab	-9.05547
▁kan	-9.05554
▁hopper	-9.05556
▁hail	-9.05646
▁feels	-9.05672
son	-9.05693
▁grand	-9.05751
▁wh	-9.05853
▁cal	-9.05968
▁we	-9.06129
▁wart	-9.06222
▁passed	-9.06396
▁learned	-9.06634
▁naar	-9.06794
dnt	-9.06806
end	-9.06888
▁ro	-9.0689
▁piece	-9.06948
he	-9.07036
ho	-9.0714
▁dogs	-9.07224
ri	-9.07283
▁j	-9.07438
men	-9.07467
▁fellas	-9.0766
▁named	-9.07846
we	-9.0829
▁visit	-9.08612
▁problems	-9.0866
▁crack	-9.0897
▁radio	-9.09126
way	-9.09132
▁notice	-9.09195
▁smart	-9.09276
▁brown	-9.09301
▁carrie	-9.09306
▁glass	-9.09453
▁bright	-9.09471
▁public	-9.09501
▁court	-9.09509
▁especially	-9.09511
▁phillip	-9.09511
▁pizza	-9.09511
▁bottom	-9.09512
▁felt	-9.09512
▁messala	-9.09512
▁teddy	-9.09512
▁fancy	-9.09518
▁harm	-9.09533
▁dumb	-9.09588
▁missing	-9.09641
▁nature	-9.09652
▁joy	-9.09674
▁blows	-9.09689
▁starting	-9.10041
▁tom	-9.1011
▁ùø	-9.10264
▁hardly	-9.10312
▁duck	-9.10725
▁wearing	-9.10747
▁heaven	-9.1111
▁lived	-9.11629
led	-9.11931
▁books	-9.12039
▁bugs	-9.12047
land	-9.12122
sh	-9.12134
ne	-9.12329
ts	-9.12608
▁bells	-9.1271
▁stars	-9.12783
▁pitch	-9.1283
▁deliver	-9.12893
▁nu	-9.12912
▁lock	-9.12945
▁monsters	-9.12954
▁knock	-9.13049
▁allow	-9.13162
▁cover	-9.13179
id	-9.13279
ton	-9.1328
▁appreciate	-9.13347
▁form	-9.13363
▁escape	-9.13394
▁pray	-9.1342
▁be	-9.1344
▁pirate	-9.13547
▁broke	-9.13566
▁not	-9.13608
▁wiz	-9.13676
▁colonel	-9.13678
▁everywhere	-9.13678
▁exciting	-9.13678
▁hundred	-9.13678
▁kathy	-9.13678
▁meade	-9.13678
▁nervous	-9.13678
▁situation	-9.13678
▁smith	-9.13678
▁spread	-9.13678
▁desert	-9.13679
ier	-9.13679
▁blind	-9.13679
▁texas	-9.13681
▁taught	-9.13683
▁tiger	-9.13684
▁lightyear	-9.13687
▁marta	-9.13688
▁noble	-9.1369
▁kingdom	-9.137
▁layla	-9.13702
▁soup	-9.1371
▁mack	-9.13716
▁plain	-9.13716
▁announcer	-9.13725
▁laughter	-9.13728
▁calm	-9.13736
▁lonely	-9.13742
▁shop	-9.13766
▁table	-9.13826
▁guns	-9.13836
▁circus	-9.1385
▁whispering	-9.13853
▁he	-9.1391
▁driver	-9.13982
▁record	-9.14136
▁bite	-9.14312
▁double	-9.14319
▁gosh	-9.1452
▁base	-9.14942
▁guest	-9.15299
▁it	-9.15331
▁fathers	-9.15465
▁trick	-9.15515
ù	-9.15712
▁mar	-9.16123
▁died	-9.16367
▁fi	-9.16486
ol	-9.16726
▁cook	-9.16847
im	-9.16929
▁arms	-9.17075
▁nine	-9.17092
time	-9.1722
▁hop	-9.17359
red	-9.17591
▁georg	-9.17668
ia	-9.17688
▁difficult	-9.17709
▁realize	-9.17736
▁direct	-9.17775
▁buck	-9.18005
▁bomb	-9.18025
▁california	-9.18026
▁climb	-9.18026
▁delicious	-9.18026
▁evil	-9.18026
▁french	-9.18026
▁kitty	-9.18026
▁morbius	-9.18026
▁someday	-9.18026
▁upstairs	-9.18026
▁wilhelm	-9.18026
▁third	-9.18026
▁thrust	-9.18026
▁cousin	-9.18026
▁fetch	-9.18027
▁ouch	-9.18029
▁shouldve	-9.1803
▁immediately	-9.18031
▁wedding	-9.18031
▁neck	-9.18032
▁maid	-9.18034
▁huge	-9.18037
▁dancing	-9.18039
▁duke	-9.1804
▁thatll	-9.18063
▁duty	-9.18067
▁tail	-9.18108
▁daar	-9.18126
▁pige	-9.18158
▁golden	-9.18261
▁bugsy	-9.18304
▁lab	-9.18349
▁army	-9.18369
▁figured	-9.18439
▁gra	-9.18502
▁locked	-9.18575
ard	-9.18603
▁prefer	-9.18798
▁bi	-9.18923
▁sita	-9.19111
▁wa	-9.19267
▁di	-9.19483
▁fired	-9.19764
▁ear	-9.19808
▁whistle	-9.19843
▁lesson	-9.19969
▁store	-9.20167
▁o	-9.20638
os	-9.2076
ut	-9.20909
ze	-9.21022
▁landing	-9.21039
▁legs	-9.21187
▁papers	-9.21424
▁do	-9.21714
▁match	-9.21762
▁squeak	-9.21802
ta	-9.21876
▁remind	-9.21994
▁enter	-9.22117
▁andromeda	-9.22571
▁normal	-9.22571
▁oscar	-9.22571
▁practice	-9.22571
▁rooster	-9.22571
▁strength	-9.22571
▁empty	-9.22572
▁valley	-9.22572
▁center	-9.22572
▁necessities	-9.22573
▁morris	-9.22573
▁mert	-9.22573
▁rudy	-9.22573
▁address	-9.22575
▁spacecraft	-9.22577
▁gregory	-9.22578
▁baseball	-9.22579
▁drunk	-9.22582
▁indistinct	-9.22583
▁therell	-9.22604
▁forgotten	-9.22607
▁moet	-9.22624
▁luna	-9.2263
ven	-9.22632
▁suddenly	-9.22641
▁nog	-9.22644
▁growling	-9.22646
▁mention	-9.22654
▁tower	-9.22705
▁ook	-9.22727
▁dirty	-9.22814
▁yelling	-9.22857
▁nearly	-9.22884
mp	-9.22933
▁fa	-9.23024
▁surprised	-9.23343
▁blessed	-9.23566
▁owe	-9.23811
▁rats	-9.23816
ther	-9.24245
ial	-9.24731
▁andy	-9.24821
▁tu	-9.24922
▁following	-9.25075
▁fella	-9.25727
▁ii	-9.25905
▁surely	-9.26065
▁search	-9.26138
▁to	-9.26425
▁borrow	-9.26643
▁pretend	-9.26673
ship	-9.26733
▁bag	-9.26748
▁sail	-9.26887
gen	-9.27013
▁dirt	-9.2708
▁faith	-9.27101
▁flo	-9.27188
▁bunch	-9.27333
▁experiment	-9.27333
▁fresh	-9.27333
▁graff	-9.27333
▁nonsense	-9.27333
▁plenty	-9.27333
▁repeat	-9.27333
▁rhythm	-9.27333
▁schultz	-9.27333
▁screen	-9.27333
▁selfdestruct	-9.27333
▁speech	-9.27333
▁twice	-9.27333
▁bloodshy	-9.27333
▁fortune	-9.27333
▁kept	-9.27333
▁swear	-9.27333
▁circle	-9.27334
▁bought	-9.27335
▁camera	-9.27335
▁kurt	-9.27336
▁rum	-9.27339
▁department	-9.2734
▁roof	-9.2734
▁ohara	-9.27344
▁clock	-9.27346
▁club	-9.27346
▁block	-9.2735
▁common	-9.27351
▁sunday	-9.27362
▁victory	-9.27367
▁agent	-9.27368
▁large	-9.27375
▁handsome	-9.27376
▁iii	-9.27393
▁wil	-9.27438
▁judge	-9.2744
▁rise	-9.27442
ford	-9.27621
▁scary	-9.27721
▁bringing	-9.28089
▁faster	-9.28259
ad	-9.28543
▁dressed	-9.28543
▁closed	-9.28676
▁trees	-9.28685
▁feelin	-9.28906
▁moves	-9.28977
▁hanging	-9.28989
▁post	-9.2946
▁pet	-9.29518
▁wet	-9.29523
▁wine	-9.2953
▁ol	-9.29899
▁taste	-9.29941
▁tale	-9.29978
▁ab	-9.30191
tion	-9.30789
as	-9.30907
▁tie	-9.31121
▁worlds	-9.31177
▁millions	-9.31341
▁sp	-9.31424
▁cats	-9.31453
▁asking	-9.31562
▁build	-9.31707
▁load	-9.318
li	-9.31871
▁atta	-9.31998
▁mee	-9.3215
▁jail	-9.32154
▁final	-9.32164
▁park	-9.3217
▁stole	-9.32227
▁drag	-9.32252
▁applause	-9.32333
▁hakuna	-9.32333
▁llama	-9.32333
▁pepper	-9.32333
▁somehow	-9.32333
▁sugar	-9.32333
▁suggest	-9.32333
▁tomainia	-9.32333
▁tough	-9.32333
▁tribune	-9.32333
▁whether	-9.32333
▁whirring	-9.32333
▁built	-9.32333
▁mercy	-9.32333
▁senate	-9.32333
▁darn	-9.32334
▁copy	-9.32334
▁uhoh	-9.32335
▁smash	-9.32338
▁moses	-9.32339
▁granny	-9.32339
▁dying	-9.3234
▁spencer	-9.32349
▁me	-9.32352
▁map	-9.32368
▁responsible	-9.32369
▁linda	-9.32369
▁knowledge	-9.32369
▁ice	-9.32373
▁male	-9.32375
▁rio	-9.32391
▁loverly	-9.32415
▁collect	-9.32415
ak	-9.32421
▁boat	-9.32429
▁bigger	-9.32451
▁art	-9.32495
▁parents	-9.32555
▁shouting	-9.32582
▁nana	-9.32611
▁putting	-9.32679
▁swing	-9.3272
ck	-9.32743
▁interested	-9.32795
▁indian	-9.32808
▁sand	-9.32883
▁om	-9.33185
▁bud	-9.33239
▁port	-9.33318
▁ty	-9.33617
▁bones	-9.33627
▁falling	-9.3402
▁animals	-9.34049
▁talkin	-9.34291
▁soldiers	-9.34325
and	-9.34419
▁pro	-9.34455
▁mothers	-9.34461
ble	-9.34832
▁pie	-9.35288
▁date	-9.35299
▁plane	-9.35486
▁humans	-9.35543
ens	-9.35652
▁alle	-9.35734
▁toe	-9.36125
tic	-9.36238
ag	-9.36399
▁belongs	-9.36718
▁computer	-9.36864
▁proceed	-9.36936
▁ideas	-9.36969
▁vi	-9.36992
▁consider	-9.37015
▁accept	-9.37038
▁prepare	-9.37318
na	-9.37341
▁el	-9.37369
▁howd	-9.37398
▁bus	-9.37505
▁morg	-9.37522
▁brigitta	-9.37597
▁cogburn	-9.37597
▁extreme	-9.37597
▁giggling	-9.37597
▁glori	-9.37597
▁kennedy	-9.37597
▁library	-9.37597
▁lockwood	-9.37597
▁major	-9.37597
▁matata	-9.37597
▁wildfire	-9.37597
▁truly	-9.37597
▁upset	-9.37597
▁patient	-9.37597
▁alert	-9.37598
▁garden	-9.376
▁precious	-9.37601
▁virg	-9.37602
▁held	-9.37604
▁gang	-9.37605
▁parade	-9.37605
▁bij	-9.3761
▁coward	-9.37618
▁atlanta	-9.37626
▁comfortable	-9.37628
▁famous	-9.37634
▁inter	-9.37634
▁plate	-9.37636
▁mice	-9.37639
▁incredible	-9.37641
▁panic	-9.37657
▁heel	-9.37664
▁skipper	-9.37671
▁crown	-9.37697
▁path	-9.37719
▁single	-9.37757
▁breathing	-9.38075
▁listening	-9.38088
▁gettin	-9.38177
▁works	-9.3823
ance	-9.38296
▁teacher	-9.3839
▁lions	-9.38512
rs	-9.38821
▁seed	-9.38932
▁ding	-9.39075
ious	-9.39281
▁ee	-9.39334
▁ra	-9.39419
▁wondering	-9.39485
un	-9.39568
▁pure	-9.39606
▁dor	-9.39725
▁pounds	-9.39862
nder	-9.4005
▁deer	-9.4026
▁choose	-9.40391
▁worked	-9.40417
▁shadow	-9.40443
▁deserve	-9.40443
▁joke	-9.40483
▁finger	-9.40501
▁dreaming	-9.40556
▁rides	-9.40627
▁officer	-9.40666
den	-9.40751
ps	-9.40757
▁chances	-9.4084
▁cl	-9.40907
se	-9.41058
▁leader	-9.41152
▁aha	-9.41411
▁spirits	-9.41557
▁crash	-9.4179
ham	-9.41997
▁wha	-9.42125
▁east	-9.42374
▁steal	-9.42503
ster	-9.4254
▁pin	-9.42542
▁pr	-9.42804
▁cars	-9.42904
▁natural	-9.42989
▁nurse	-9.43137
▁extra	-9.43151
▁advantage	-9.43152
▁archimedes	-9.43152
▁armstrong	-9.43152
▁dallas	-9.43152
▁england	-9.43152
▁excellent	-9.43152
▁heeft	-9.43152
▁jullie	-9.43152
▁osterlich	-9.43152
▁oxygen	-9.43152
▁portobello	-9.43152
▁science	-9.43152
▁wherever	-9.43152
▁alarm	-9.43152
▁spain	-9.43152
▁meows	-9.43153
▁bolt	-9.43153
▁stink	-9.43153
▁program	-9.43155
▁faint	-9.4316
▁exist	-9.4316
▁insist	-9.4316
▁fence	-9.43164
▁bound	-9.4317
▁slippers	-9.43171
▁comin	-9.43175
▁piston	-9.43176
▁shoulder	-9.43184
▁tour	-9.43187
▁mum	-9.43191
▁trash	-9.43196
▁teenie	-9.432
▁began	-9.43219
▁powerful	-9.43237
▁pop	-9.43245
▁supper	-9.43256
▁cage	-9.43271
▁shine	-9.43327
▁pot	-9.4334
▁rough	-9.4337
▁pity	-9.43431
▁doll	-9.43541
▁mary	-9.43542
▁lower	-9.4359
▁deeply	-9.43596
▁kom	-9.43628
▁closer	-9.43677
▁astronauts	-9.43688
▁waar	-9.43867
▁knocking	-9.44005
▁heat	-9.44039
▁ke	-9.44056
▁an	-9.44102
▁lt	-9.44106
▁fung	-9.44157
ap	-9.4425
ee	-9.44275
▁spin	-9.44283
▁sooner	-9.44553
▁clouds	-9.44608
▁jol	-9.44652
▁sh	-9.44863
ern	-9.44999
▁ex	-9.45168
▁plays	-9.45286
▁cares	-9.45491
▁du	-9.45578
▁reading	-9.45625
▁patti	-9.45694
▁boots	-9.45735
▁ends	-9.45906
▁adventure	-9.46281
▁staying	-9.46299
▁creature	-9.46368
▁boot	-9.46668
▁who	-9.46808
▁af	-9.47448
▁event	-9.47458
▁older	-9.47817
▁brains	-9.4786
▁rules	-9.47883
▁interest	-9.47929
ga	-9.48019
▁y	-9.48035
▁hunt	-9.48046
▁account	-9.48357
▁charm	-9.48401
▁warn	-9.48402
ner	-9.48468
room	-9.48569
▁roses	-9.48673
▁chase	-9.48684
▁sid	-9.48828
▁tink	-9.48831
day	-9.48906
▁cow	-9.48921
▁inc	-9.48988
ndistinct	-9.49019
▁bernard	-9.49034
▁bravo	-9.49034
▁contact	-9.49034
▁dictator	-9.49034
▁dokter	-9.49034
▁jacqueline	-9.49034
▁magnificent	-9.49034
▁mirror	-9.49034
▁official	-9.49034
▁smoke	-9.49034
▁sunshine	-9.49034
▁telephone	-9.49034
▁waternoose	-9.49034
▁diamond	-9.49035
▁layeeodl	-9.49035
▁title	-9.49035
▁worst	-9.49035
▁whatll	-9.49035
▁canoe	-9.49035
▁clicks	-9.49035
▁rope	-9.49035
▁happiness	-9.49036
▁tongue	-9.49036
▁lawyer	-9.49036
▁photo	-9.49036
▁pearce	-9.49039
▁champion	-9.49039
▁psst	-9.4904
▁mansfield	-9.4904
▁wire	-9.49041
▁chuckling	-9.49044
▁martin	-9.49044
▁yellow	-9.49049
▁wizard	-9.49049
▁dropped	-9.49051
▁chap	-9.49052
▁jongen	-9.49053
▁marley	-9.49053
▁legend	-9.49055
▁desperate	-9.49057
▁tombo	-9.49066
▁baron	-9.49072
▁style	-9.49098
▁usual	-9.49106
▁sew	-9.49114
▁rocket	-9.49118
▁slide	-9.4915
▁involved	-9.49179
▁kick	-9.49195
▁usually	-9.49236
▁spy	-9.49337
▁discuss	-9.4938
▁parker	-9.49382
▁nation	-9.49387
▁delivery	-9.49401
▁size	-9.49429
▁chattering	-9.49478
▁bid	-9.49484
▁hunting	-9.49673
▁points	-9.49681
▁liked	-9.49851
▁ma	-9.49903
▁sal	-9.50007
▁shake	-9.50374
▁training	-9.50457
▁blowing	-9.50597
▁sa	-9.50668
▁ju	-9.50755
▁doe	-9.51028
▁pig	-9.5114
▁wee	-9.5119
▁messages	-9.51388
▁partners	-9.51568
ba	-9.51665
▁woo	-9.51718
ren	-9.51869
▁tall	-9.51898
ill	-9.52059
▁pound	-9.52075
▁lee	-9.5213
▁trap	-9.52447
▁cap	-9.52498
▁condition	-9.52515
▁tire	-9.52557
▁angel	-9.52573
▁toward	-9.52618
▁odd	-9.52628
▁au	-9.52662
▁partner	-9.52696
▁mile	-9.52814
▁games	-9.52849
▁stranger	-9.52963
▁meaning	-9.53061
▁va	-9.53176
▁øù	-9.53509
▁rider	-9.53575
▁places	-9.53576
▁believed	-9.53733
▁super	-9.53782
▁rever	-9.54027
▁tr	-9.54199
mb	-9.54797
work	-9.54844
▁respect	-9.54932
▁board	-9.54967
▁ve	-9.55101
▁tot	-9.55145
▁hero	-9.5518
▁chick	-9.55188
▁gentle	-9.55245
▁engines	-9.55283
▁angry	-9.55284
▁carnival	-9.55284
▁college	-9.55284
▁cratchit	-9.55284
▁despereaux	-9.55284
▁dinoco	-9.55284
▁farewell	-9.55284
▁giggles	-9.55284
▁glory	-9.55284
▁iggy	-9.55284
▁mufasa	-9.55284
▁napaloni	-9.55284
▁scoop	-9.55284
▁sharp	-9.55284
▁sweep	-9.55284
▁tobias	-9.55284
▁border	-9.55285
▁david	-9.55285
▁lassie	-9.55285
▁journey	-9.55285
▁milk	-9.55285
▁mewtwo	-9.55285
▁whatd	-9.55286
▁decision	-9.55286
▁festival	-9.55287
▁dozen	-9.55288
▁sixteen	-9.55293
▁nope	-9.55296
▁hiding	-9.55301
▁confidence	-9.55301
▁claw	-9.55301
▁nasty	-9.55302
▁horrible	-9.55307
▁twel	-9.5531
▁vision	-9.55311
▁teeth	-9.55314
▁professional	-9.55317
▁switch	-9.55321
▁jenny	-9.5534
▁project	-9.55364
▁plus	-9.5541
▁totally	-9.55415
▁winter	-9.55447
▁mud	-9.55456
▁wise	-9.55476
▁lake	-9.55483
▁grass	-9.55488
▁pre	-9.55488
▁yard	-9.55503
▁arrived	-9.55521
▁weg	-9.55595
▁sl	-9.55715
▁prepared	-9.55717
▁noticed	-9.55789
▁charming	-9.55964
▁interesting	-9.55964
▁butt	-9.56072
▁singin	-9.5614
▁pen	-9.56461
▁knees	-9.56605
ring	-9.56795
▁showed	-9.56944
▁fur	-9.56983
▁øøø	-9.57009
▁counting	-9.57059
▁expected	-9.57072
▁ringing	-9.57082
ea	-9.57218
ung	-9.57235
▁expecting	-9.57426
▁where	-9.57648
hill	-9.57736
▁ln	-9.58041
▁ships	-9.58127
mm	-9.58303
ca	-9.58326
▁fighting	-9.58335
▁dee	-9.58516
▁fl	-9.58528
ken	-9.58604
ated	-9.5861
▁tear	-9.59093
ally	-9.59233
icked	-9.59325
▁soldier	-9.59345
▁dragon	-9.5935
▁races	-9.59373
▁turns	-9.59477
▁jewels	-9.59759
▁flowers	-9.59773
▁plans	-9.59894
ent	-9.5992
sp	-9.6
▁cheers	-9.60011
▁ants	-9.60124
▁ne	-9.60233
▁hills	-9.60295
all	-9.60353
▁rate	-9.60537
▁ph	-9.60566
cy	-9.60729
ned	-9.60825
ber	-9.60833
tin	-9.61135
▁slip	-9.61167
▁greet	-9.61286
▁skill	-9.61395
▁awake	-9.61461
ball	-9.61517
▁fort	-9.61608
▁twist	-9.61692
▁mountains	-9.61713
▁bar	-9.61719
▁eating	-9.61764
▁alta	-9.61773
▁on	-9.61843
▁cab	-9.61877
▁apart	-9.61925
▁self	-9.61939
▁camp	-9.61942
▁favor	-9.61945
▁arrietty	-9.61951
▁blousey	-9.61951
▁christian	-9.61951
▁congratulations	-9.61951
▁denahi	-9.61951
▁group	-9.61951
▁guidance	-9.61951
▁heavy	-9.61951
▁knife	-9.61951
▁nowhere	-9.61951
▁ordinary	-9.61951
▁piedmont	-9.61951
▁rizzo	-9.61951
▁satsuki	-9.61951
▁telegram	-9.61951
▁wazowski	-9.61951
▁ashamed	-9.61951
▁energy	-9.61951
▁miracle	-9.61951
▁smooth	-9.61951
▁byebye	-9.61951
▁schip	-9.61951
▁ugly	-9.61951
▁bagheera	-9.61952
▁lamont	-9.61952
▁chip	-9.61952
▁ingrid	-9.61952
▁esther	-9.61953
▁jealous	-9.61953
▁collar	-9.61954
▁surface	-9.61954
▁snoops	-9.61954
▁closing	-9.61955
▁silence	-9.61956
▁dawn	-9.61956
▁permission	-9.61957
▁flew	-9.61957
▁edge	-9.61958
▁verify	-9.61959
▁personal	-9.6196
▁sample	-9.6196
▁noise	-9.6196
▁society	-9.61961
▁whoohoo	-9.61962
▁harvest	-9.61963
▁slim	-9.61964
▁krell	-9.61967
▁bottle	-9.61967
▁tank	-9.61968
▁tune	-9.61968
▁pressure	-9.61969
▁gather	-9.6197
▁innocent	-9.6197
▁hornet	-9.61971
▁lionesses	-9.6198
▁cash	-9.61981
▁rabbit	-9.61983
▁necessary	-9.61996
▁centr	-9.61999
▁pleasant	-9.61999
▁mere	-9.62015
▁risk	-9.62033
▁robby	-9.62038
▁obviously	-9.62042
▁bout	-9.62074
▁mister	-9.62089
▁amen	-9.62091
▁flat	-9.62099
▁aaah	-9.62111
▁sold	-9.62189
▁frightened	-9.62229
▁national	-9.62277
▁row	-9.62282
▁bloomin	-9.62335
▁disappeared	-9.62337
▁seeing	-9.62355
▁bent	-9.62388
▁raised	-9.62557
▁bath	-9.62688
the	-9.62891
▁hearts	-9.63041
▁lips	-9.63093
use	-9.63194
▁picky	-9.63225
▁sin	-9.63246
▁che	-9.63351
▁hynkel	-9.63395
▁uhuh	-9.63473
▁pad	-9.63512
▁rocks	-9.63758
▁fed	-9.63795
▁bills	-9.64093
ior	-9.6419
ors	-9.64239
▁hoe	-9.64341
▁sis	-9.6436
▁breath	-9.64881
▁picking	-9.65115
▁helped	-9.65644
▁ku	-9.65785
ùø	-9.66404
▁wave	-9.66479
▁direction	-9.66484
▁ranger	-9.66581
▁everythings	-9.67111
one	-9.67194
▁bobb	-9.67313
go	-9.67369
▁po	-9.67444
▁states	-9.67518
oon	-9.67837
lly	-9.67892
▁whee	-9.6807
▁blast	-9.68192
▁ko	-9.6821
ii	-9.68315
▁murder	-9.68328
▁ages	-9.68345
▁here	-9.68426
▁herr	-9.68446
▁stu	-9.68458
vi	-9.68524
▁poison	-9.68568
▁toys	-9.68681
though	-9.68738
▁spare	-9.68753
▁refuse	-9.68758
ay	-9.68761
▁survive	-9.68771
▁corn	-9.68813
▁correct	-9.68821
▁health	-9.68837
▁terribl	-9.68866
▁soft	-9.68892
▁austria	-9.68969
ac	-9.69031
▁fate	-9.69041
▁robot	-9.6905
▁range	-9.69073
▁chickens	-9.69077
▁snap	-9.69092
▁ancient	-9.69094
▁bertrand	-9.69094
▁brutus	-9.69094
▁cavalier	-9.69094
▁celia	-9.69094
▁circumstances	-9.69094
▁claim	-9.69094
▁cleopatra	-9.69094
▁council	-9.69094
▁destiny	-9.69094
▁dungeon	-9.69094
▁emergency	-9.69094
▁guide	-9.69094
▁holiday	-9.69094
▁monsieur	-9.69094
▁puppy	-9.69094
▁selden	-9.69094
▁stefan	-9.69094
▁stomach	-9.69094
▁subject	-9.69094
▁uniform	-9.69094
▁valuable	-9.69094
▁ùøø	-9.69094
▁credit	-9.69094
▁enemy	-9.69094
▁insult	-9.69094
▁pierre	-9.69094
▁temper	-9.69094
▁thief	-9.69094
▁racecar	-9.69094
▁friedrich	-9.69095
▁however	-9.69095
low	-9.69095
▁driving	-9.69096
▁dersu	-9.69096
▁kaart	-9.69096
▁leaf	-9.69096
▁buried	-9.69098
▁greek	-9.69098
▁clever	-9.69099
▁gotcha	-9.691
▁meneer	-9.691
▁prize	-9.69102
▁ginger	-9.69102
▁information	-9.69105
▁alvin	-9.69106
▁arrest	-9.69106
▁spent	-9.69109
▁firm	-9.69116
▁goose	-9.6913
▁package	-9.69131
▁planned	-9.69131
▁hans	-9.6914
▁whale	-9.6914
▁fantastic	-9.69142
▁flies	-9.69143
ler	-9.69147
▁bedroom	-9.69156
▁precisely	-9.69162
▁jerk	-9.69171
▁cake	-9.69178
▁grateful	-9.69179
▁aid	-9.6918
▁ranch	-9.69184
▁meal	-9.69219
▁laser	-9.69228
▁barn	-9.69229
mi	-9.69231
itus	-9.69262
▁page	-9.69293
▁dave	-9.69293
▁miller	-9.69357
▁band	-9.694
▁cast	-9.69403
▁dish	-9.6942
▁fleet	-9.69423
▁receive	-9.69474
▁stays	-9.69703
▁escaped	-9.6979
▁lily	-9.69792
▁runs	-9.70088
▁rings	-9.70096
▁hoping	-9.70166
nc	-9.70415
nd	-9.70453
▁dry	-9.70595
▁danced	-9.70634
▁ber	-9.7076
let	-9.7091
▁schedule	-9.70974
ile	-9.70986
▁gate	-9.71068
nnen	-9.7128
▁monkeys	-9.71408
▁singer	-9.71614
▁pit	-9.71943
ical	-9.72421
▁the	-9.72472
▁all	-9.72504
▁bat	-9.72512
▁experience	-9.72809
▁breathe	-9.72811
tten	-9.73231
▁nou	-9.73312
▁permit	-9.74051
▁apple	-9.74083
▁slave	-9.74105
▁animal	-9.74168
int	-9.74515
▁buzzing	-9.74613
▁bow	-9.74748
▁se	-9.74776
▁feelings	-9.75058
ily	-9.7531
▁ap	-9.75462
▁add	-9.75603
ual	-9.75616
io	-9.75638
iss	-9.75767
▁she	-9.75856
away	-9.75925
▁leaves	-9.75972
line	-9.76065
▁den	-9.76103
▁sm	-9.76152
▁aim	-9.76214
▁discover	-9.7625
▁concern	-9.76253
▁smells	-9.76351
ew	-9.7636
▁bears	-9.76426
▁decide	-9.76474
▁tee	-9.76501
▁trail	-9.76568
bed	-9.76606
▁ash	-9.76668
▁pony	-9.76685
▁object	-9.76726
▁aldrin	-9.76786
▁became	-9.76786
▁bianca	-9.76786
▁carrots	-9.76786
▁chocolate	-9.76786
▁codfish	-9.76786
▁contract	-9.76786
▁divine	-9.76786
▁eglantine	-9.76786
▁europe	-9.76786
▁focus	-9.76786
▁gretl	-9.76786
▁ignition	-9.76786
▁lieutenant	-9.76786
▁louisa	-9.76786
▁luigi	-9.76786
▁medusa	-9.76786
▁ocean	-9.76786
▁prissy	-9.76786
▁ragsdale	-9.76786
▁regret	-9.76786
▁rolfe	-9.76786
▁sneak	-9.76786
▁status	-9.76786
▁tirzah	-9.76786
▁triumph	-9.76786
▁whenever	-9.76786
▁yzma	-9.76786
▁zazu	-9.76786
▁cream	-9.76786
▁scratch	-9.76786
▁splash	-9.76786
▁spoil	-9.76786
▁swell	-9.76786
▁giant	-9.76787
▁philippe	-9.76787
▁descent	-9.76788
▁chorus	-9.76789
▁berlin	-9.76791
▁written	-9.76792
▁whistling	-9.76793
▁whoever	-9.76795
▁broadway	-9.76796
▁freddy	-9.76797
▁iron	-9.768
▁rice	-9.76801
▁hebben	-9.76807
▁southern	-9.76807
▁flea	-9.7681
▁oz	-9.7681
▁soap	-9.76812
▁excellency	-9.76818
▁saddle	-9.76822
▁familiar	-9.76826
▁grandma	-9.76828
▁whooshes	-9.76833
▁abbey	-9.76838
▁button	-9.76839
▁code	-9.76841
▁winner	-9.76855
▁fang	-9.76861
▁flash	-9.76892
▁halt	-9.76892
▁log	-9.76893
▁chirping	-9.76915
▁model	-9.76934
▁proof	-9.76961
▁rent	-9.76999
▁hatch	-9.77032
▁naturally	-9.77071
zz	-9.7709
▁cost	-9.7709
of	-9.77107
▁scoffs	-9.77116
em	-9.77241
▁properly	-9.77267
▁losing	-9.77285
▁hyenas	-9.7733
▁bay	-9.77353
▁musical	-9.77507
▁wie	-9.77529
▁legions	-9.77546
▁mustangs	-9.77556
▁metal	-9.77708
▁hu	-9.77792
▁nuts	-9.77793
▁fairy	-9.77834
▁cooking	-9.77944
ock	-9.77969
▁pitching	-9.78009
▁blij	-9.78098
▁grasshoppers	-9.78197
ine	-9.78278
▁lately	-9.78321
▁higher	-9.78337
▁bigge	-9.78371
ize	-9.78411
▁mm	-9.78416
▁knowing	-9.78418
▁shouts	-9.78424
▁pe	-9.7843
▁sla	-9.78442
▁up	-9.78486
ya	-9.78546
▁duel	-9.78682
our	-9.78974
▁waited	-9.78987
▁winds	-9.79048
▁fans	-9.79141
▁acting	-9.79155
▁tryin	-9.7917
▁woods	-9.7919
▁holding	-9.79279
▁returned	-9.79419
▁uhh	-9.7963
ments	-9.79647
▁ghosts	-9.79749
▁stuffed	-9.79754
▁mans	-9.79784
▁walked	-9.79818
ite	-9.7982
▁dragons	-9.79951
▁tack	-9.80446
chi	-9.8045
▁caesars	-9.80627
▁played	-9.80805
▁ham	-9.80807
▁breaking	-9.8102
▁ears	-9.81531
▁records	-9.81782
▁roar	-9.8189
▁mis	-9.8197
pi	-9.82053
▁and	-9.82111
▁pieces	-9.82176
ou	-9.82211
▁horn	-9.82322
▁neigh	-9.82426
▁monkey	-9.82474
▁that	-9.8263
nny	-9.82677
uce	-9.82712
king	-9.82792
▁bill	-9.82819
▁begins	-9.82842
eek	-9.82952
▁streets	-9.83012
▁rays	-9.83077
▁beau	-9.83147
▁springs	-9.83271
▁lap	-9.83361
ullen	-9.83451
▁bu	-9.8365
val	-9.83806
▁paw	-9.83951
▁sire	-9.83967
▁matters	-9.83976
ah	-9.84269
▁chatter	-9.84499
▁suck	-9.84526
down	-9.84552
je	-9.84594
▁wood	-9.84666
house	-9.84693
▁arrive	-9.84812
▁will	-9.84819
▁cheat	-9.84999
ives	-9.85068
▁automat	-9.85069
▁electric	-9.85096
▁scene	-9.85102
▁bush	-9.85109
▁resist	-9.85113
▁odlay	-9.85119
▁applaud	-9.8512
▁brilliant	-9.8512
▁progress	-9.8512
▁asleep	-9.8512
▁aurora	-9.8512
▁beneath	-9.8512
▁columbia	-9.8512
▁crime	-9.8512
▁elephant	-9.8512
▁elevator	-9.8512
▁evinrude	-9.8512
▁heinrich	-9.8512
▁instant	-9.8512
▁invitation	-9.8512
▁jeremy	-9.8512
▁marriage	-9.8512
▁mekoides	-9.8512
▁substitut	-9.8512
▁sweetheart	-9.8512
▁thick	-9.8512
▁thumb	-9.8512
▁treguna	-9.8512
▁tunnel	-9.8512
▁twenty	-9.8512
▁choir	-9.8512
▁collins	-9.8512
▁defend	-9.8512
▁dramatic	-9.8512
▁among	-9.8512
▁local	-9.8512
▁skies	-9.8512
▁antony	-9.8512
▁pacha	-9.8512
▁minus	-9.8512
▁oaks	-9.8512
▁arrius	-9.8512
▁zeller	-9.8512
▁hobart	-9.85121
▁beware	-9.85122
▁guilty	-9.85124
▁spark	-9.85124
▁luiz	-9.85126
▁flint	-9.85127
▁growls	-9.85128
▁aware	-9.85132
▁isis	-9.85132
▁babs	-9.85133
▁peasant	-9.85133
▁brute	-9.85136
▁shining	-9.85139
▁gently	-9.85139
▁expensive	-9.85142
▁doorbell	-9.85144
▁circuit	-9.85145
▁babe	-9.85151
▁bang	-9.85154
▁aside	-9.85162
▁sever	-9.85167
▁bike	-9.85172
▁sub	-9.85186
▁uit	-9.85205
▁american	-9.85209
▁flag	-9.8521
▁decent	-9.85212
▁sweat	-9.85222
▁doomed	-9.85238
▁exhales	-9.85251
▁safety	-9.85271
▁lying	-9.85272
▁bully	-9.85273
▁dash	-9.85289
some	-9.85303
▁stickers	-9.85316
▁invited	-9.85392
▁net	-9.854
▁kindness	-9.85412
▁tinker	-9.85433
▁rip	-9.85442
▁sally	-9.85484
▁farm	-9.85491
qu	-9.85498
▁ad	-9.8554
▁mijn	-9.85595
▁til	-9.85598
▁honking	-9.856
▁witches	-9.85604
ress	-9.85638
▁create	-9.85675
▁ni	-9.85682
▁concerned	-9.85705
▁seriously	-9.85733
▁poisoned	-9.8575
▁troops	-9.85935
▁warned	-9.85946
▁helpless	-9.8601
old	-9.86065
▁county	-9.86102
here	-9.86138
▁wheel	-9.86205
▁rocky	-9.86218
▁allowed	-9.86222
rge	-9.86239
▁manage	-9.86253
▁searching	-9.86277
▁filled	-9.86377
▁carefully	-9.86413
▁frame	-9.86439
▁ate	-9.86471
▁perfectly	-9.86484
▁file	-9.86554
▁dim	-9.86592
▁hur	-9.86665
▁weed	-9.86721
▁rode	-9.86855
▁due	-9.86881
▁si	-9.8691
▁hen	-9.86941
▁locker	-9.86952
bit	-9.87083
▁burned	-9.87126
▁ye	-9.87279
▁fo	-9.873
ack	-9.8732
▁qu	-9.87348
▁zoe	-9.87372
▁yells	-9.87387
▁fixed	-9.87405
▁washed	-9.87408
▁calls	-9.87459
▁chan	-9.87727
▁younger	-9.8775
ld	-9.88072
▁cu	-9.88081
▁image	-9.88205
hhh	-9.88434
▁tears	-9.8864
▁odds	-9.88816
▁yea	-9.88822
▁starts	-9.88989
ward	-9.89119
▁sending	-9.89184
▁career	-9.8919
▁fingers	-9.89301
▁fan	-9.89377
▁slap	-9.89574
▁bee	-9.89597
▁cr	-9.89643
▁sw	-9.89762
▁plant	-9.89764
ium	-9.89807
▁pies	-9.89867
ities	-9.90043
uw	-9.90067
▁using	-9.90334
head	-9.90567
ui	-9.90625
▁chain	-9.90913
▁scan	-9.90931
ka	-9.90996
▁et	-9.91013
les	-9.91058
▁likely	-9.91302
▁senator	-9.91435
▁snake	-9.91437
iary	-9.91466
▁ticket	-9.91469
▁col	-9.91478
▁kings	-9.91533
▁feather	-9.91539
▁sport	-9.91569
▁yankee	-9.91623
▁prisoner	-9.91624
▁sons	-9.91639
▁lands	-9.91653
ified	-9.92041
▁skin	-9.92657
▁devils	-9.92738
▁tub	-9.92776
▁tramp	-9.92844
air	-9.93002
for	-9.93064
ating	-9.9316
▁tim	-9.93195
▁hip	-9.9326
ron	-9.9327
▁questions	-9.93286
▁lies	-9.93318
▁vo	-9.93527
▁tok	-9.93568
▁intend	-9.93626
▁disappear	-9.93683
board	-9.93685
▁slam	-9.93703
▁ruin	-9.93718
▁mij	-9.93738
port	-9.93766
▁release	-9.93876
▁introduce	-9.93895
▁fools	-9.93946
▁possibl	-9.93983
▁pip	-9.94037
▁spoke	-9.94088
▁announce	-9.94108
▁movin	-9.94166
▁livin	-9.94167
▁comfort	-9.9418
▁loyal	-9.94197
▁khan	-9.94204
▁widow	-9.94207
▁effort	-9.9421
ecorum	-9.94211
▁babies	-9.94211
▁bargain	-9.94211
▁basket	-9.94211
▁bonjour	-9.94211
▁broad	-9.94211
▁capsule	-9.94211
▁century	-9.94211
▁chinese	-9.94211
▁colette	-9.94211
▁crawl	-9.94211
▁divorce	-9.94211
▁equipment	-9.94211
▁evidence	-9.94211
▁fowler	-9.94211
▁francis	-9.94211
▁glove	-9.94211
▁governess	-9.94211
▁government	-9.94211
▁grumpy	-9.94211
▁hamilton	-9.94211
▁hudson	-9.94211
▁iedereen	-9.94211
▁includ	-9.94211
▁military	-9.94211
▁monitor	-9.94211
▁opportunity	-9.94211
▁otherwise	-9.94211
▁pumbaa	-9.94211
▁rookie	-9.94211
▁roscuro	-9.94211
▁sheenan	-9.94211
▁simulation	-9.94211
▁skumps	-9.94211
▁sneezing	-9.94211
▁someplace	-9.94211
▁suellen	-9.94211
▁sullivan	-9.94211
▁tallulah	-9.94211
▁tremendous	-9.94211
▁turkey	-9.94211
▁volunteer	-9.94211
▁benhur	-9.94211
▁film	-9.94211
▁pompey	-9.94211
▁summon	-9.94211
▁threw	-9.94211
▁presence	-9.94211
▁security	-9.94211
▁expert	-9.94211
▁galleys	-9.94211
▁kyle	-9.94211
▁toast	-9.94211
▁negative	-9.94211
▁wipe	-9.94211
▁reveal	-9.94211
▁clown	-9.94211
▁support	-9.94211
▁haru	-9.94211
▁gracious	-9.94211
▁recognize	-9.94213
▁revolution	-9.94213
▁advice	-9.94213
▁tweedy	-9.94217
▁freak	-9.94218
▁orphanage	-9.94218
▁valve	-9.94219
▁leak	-9.94219
▁bride	-9.9422
▁satis	-9.9422
▁solid	-9.9422
▁bathroom	-9.94221
▁jackson	-9.94221
▁loving	-9.94223
▁pool	-9.94224
▁steve	-9.94225
▁winning	-9.94227
▁study	-9.94227
▁ùøù	-9.94229
▁strawberries	-9.94229
▁toad	-9.94231
▁amount	-9.94235
▁organism	-9.94235
▁childhood	-9.94239
▁whack	-9.94239
▁roam	-9.9424
▁woodsman	-9.94245
▁prophet	-9.94249
▁slight	-9.94251
▁reward	-9.94256
▁aboard	-9.9426
▁solve	-9.94265
▁fuss	-9.94267
▁tractor	-9.94273
▁gaat	-9.94281
▁treatment	-9.94285
▁toeses	-9.94287
▁dismissed	-9.94289
▁treasure	-9.9429
▁darkness	-9.94296
▁measure	-9.943
▁material	-9.94304
▁mass	-9.94317
▁rare	-9.94321
▁definitely	-9.94321
▁bounc	-9.94336
▁banished	-9.9434
▁friendship	-9.94341
▁compete	-9.94346
▁seni	-9.94361
▁rub	-9.94362
▁sweetie	-9.94368
▁komen	-9.94387
▁liar	-9.94391
▁reasonable	-9.94395
▁stock	-9.94398
▁navy	-9.94401
▁mim	-9.9441
▁deze	-9.94432
▁dit	-9.94503
▁actor	-9.94575
▁fond	-9.94593
▁doen	-9.94596
▁fred	-9.94651
▁approaching	-9.94734
▁alley	-9.94746
▁cower	-9.94749
▁cups	-9.94753
▁gray	-9.94764
ix	-9.94846
▁willing	-9.94892
▁meer	-9.94899
▁list	-9.94907
▁roaring	-9.94936
oc	-9.9508
▁disgrace	-9.95121
▁dollars	-9.95122
▁keeping	-9.95144
tical	-9.95318
▁x	-9.954
ving	-9.95431
▁completed	-9.95461
▁clone	-9.95476
tch	-9.95596
▁customers	-9.95662
▁destroyed	-9.95678
▁romantic	-9.95695
▁raf	-9.95716
ished	-9.95881
cent	-9.96341
▁talked	-9.96613
▁dum	-9.96654
▁daughters	-9.96827
▁friendly	-9.96944
▁cone	-9.96949
▁feathers	-9.96955
▁lied	-9.97043
dee	-9.97128
▁ordered	-9.97155
▁rangers	-9.97771
▁pleased	-9.97847
ank	-9.97857
▁ons	-9.97911
▁dus	-9.97943
▁badly	-9.98013
▁behave	-9.98142
▁grave	-9.98341
▁growing	-9.98423
cht	-9.9846
▁creatures	-9.98547
▁dreamed	-9.9868
sun	-9.98724
rk	-9.98834
▁officers	-9.98845
▁ended	-9.9928
lf	-9.99389
▁bur	-9.99425
side	-9.99486
len	-9.99555
▁andys	-9.99623
▁parts	-9.99874
▁rag	-9.9988
ùùùø	-10.001
▁hoped	-10.0017
▁wo	-10.0067
▁paying	-10.0067
▁killing	-10.0068
▁bel	-10.0072
lin	-10.0089
▁nights	-10.0094
▁yell	-10.0096
com	-10.0098
▁crow	-10.0104
▁carol	-10.0112
▁opening	-10.0146
▁jou	-10.0151
▁herd	-10.0151
ign	-10.0153
▁cloud	-10.0158
▁rad	-10.016
▁there	-10.0176
▁romans	-10.0185
▁ag	-10.0209
▁mor	-10.0219
▁sisters	-10.0226
▁cancel	-10.0244
cat	-10.0258
▁character	-10.0262
▁shows	-10.0276
▁letter	-10.0281
▁can	-10.0288
▁shock	-10.0294
▁machines	-10.0317
▁lads	-10.032
▁sams	-10.0336
▁float	-10.034
berry	-10.0348
▁opens	-10.0354
▁lean	-10.0356
▁thrill	-10.0367
▁accus	-10.0367
▁design	-10.0367
▁confirm	-10.0369
bu	-10.0384
vo	-10.0384
▁require	-10.0387
eral	-10.0387
▁invite	-10.0391
▁creep	-10.0394
stone	-10.0395
▁rust	-10.0399
▁consul	-10.0402
▁led	-10.0408
rain	-10.0409
▁total	-10.0414
▁givin	-10.0416
▁mmhm	-10.0416
▁trans	-10.0416
▁success	-10.0419
▁ruth	-10.042
▁wrap	-10.0421
▁mooi	-10.0421
cular	-10.0421
▁amsterdam	-10.0421
▁available	-10.0421
▁awesome	-10.0421
▁bessie	-10.0421
▁cobbler	-10.0421
▁cuckoo	-10.0421
▁dutton	-10.0421
▁ebenezer	-10.0421
▁empire	-10.0421
▁fiddle	-10.0421
▁groaning	-10.0421
▁guido	-10.0421
▁helmet	-10.0421
▁kachow	-10.0421
▁knob	-10.0421
▁koichi	-10.0421
▁maneuver	-10.0421
▁midnight	-10.0421
▁mikayla	-10.0421
▁module	-10.0421
▁motocross	-10.0421
▁osono	-10.0421
▁peculiar	-10.0421
▁ptolemy	-10.0421
▁quincy	-10.0421
▁racket	-10.0421
▁relief	-10.0421
▁research	-10.0421
▁roosevelt	-10.0421
▁splendid	-10.0421
▁squire	-10.0421
▁starvation	-10.0421
▁tarshish	-10.0421
▁throttle	-10.0421
▁tuesday	-10.0421
▁twippo	-10.0421
▁vicious	-10.0421
▁whimpering	-10.0421
▁whimpers	-10.0421
▁fbi	-10.0421
▁punch	-10.0421
▁rainbow	-10.0421
▁regard	-10.0421
▁rutt	-10.0421
▁copies	-10.0421
▁ponies	-10.0421
▁route	-10.0421
▁gorgeous	-10.0421
▁orbit	-10.0421
▁coast	-10.0421
▁drove	-10.0421
▁goodnight	-10.0421
▁stood	-10.0421
▁steel	-10.0421
▁tolling	-10.0421
▁nerve	-10.0421
▁audience	-10.0421
▁minor	-10.0421
▁wolves	-10.0421
▁draft	-10.0421
▁hubert	-10.0421
▁locomotion	-10.0421
▁knight	-10.0421
▁briny	-10.0421
▁crumb	-10.0421
▁cloak	-10.0421
▁foreign	-10.0422
▁earlier	-10.0422
▁greed	-10.0422
▁brick	-10.0422
▁hooray	-10.0422
▁compassion	-10.0422
▁impressive	-10.0422
▁content	-10.0422
▁totem	-10.0422
▁saint	-10.0422
▁appointment	-10.0422
▁challenge	-10.0422
▁bunk	-10.0423
▁square	-10.0423
▁afford	-10.0423
▁countdown	-10.0424
▁selfish	-10.0424
▁griffin	-10.0424
▁ùùø	-10.0424
▁intelligent	-10.0424
▁rude	-10.0424
▁hush	-10.0424
▁flatter	-10.0425
▁ultimate	-10.0425
▁edel	-10.0426
▁meat	-10.0427
▁device	-10.0427
▁universe	-10.0427
▁bold	-10.0427
▁wide	-10.0429
▁heir	-10.0429
▁drill	-10.043
▁chew	-10.0431
▁loan	-10.0431
▁beach	-10.0431
▁type	-10.0434
▁gruber	-10.0434
▁howie	-10.0435
▁under	-10.0435
▁taxi	-10.0436
▁romero	-10.0437
▁bridge	-10.0438
▁murmuring	-10.0438
▁jaw	-10.0442
▁piper	-10.0445
▁hup	-10.045
▁peg	-10.045
▁softly	-10.045
▁salt	-10.0451
▁personally	-10.0456
▁james	-10.0456
▁ruler	-10.0457
▁mc	-10.0457
▁ref	-10.0459
ab	-10.0459
fore	-10.046
▁boom	-10.0461
▁delighted	-10.0464
pen	-10.0465
▁hoo	-10.0466
▁survived	-10.0467
▁lend	-10.0469
▁fallen	-10.0475
▁chime	-10.0475
▁designed	-10.0475
▁sc	-10.0476
▁ruined	-10.0481
▁ton	-10.0486
▁melt	-10.0489
▁louder	-10.0492
▁niks	-10.0494
▁coin	-10.0498
▁frog	-10.0503
▁driven	-10.0506
▁settled	-10.0508
▁score	-10.0512
▁finest	-10.0521
▁degrees	-10.0522
▁swin	-10.053
▁pur	-10.0537
▁comp	-10.0538
▁curls	-10.0551
▁sch	-10.0552
▁recorded	-10.0554
▁flora	-10.0555
▁delivered	-10.0556
▁heh	-10.0558
▁squeaking	-10.0571
▁mac	-10.0573
▁wishes	-10.0577
▁trials	-10.058
▁hum	-10.0582
▁spit	-10.0583
ied	-10.0585
▁closet	-10.0587
▁quietly	-10.0606
▁damned	-10.0608
▁turning	-10.0616
▁bone	-10.0616
fa	-10.0622
▁gr	-10.0635
▁tip	-10.0645
▁ranks	-10.066
▁testing	-10.0665
▁closes	-10.0672
▁para	-10.068
iest	-10.0687
▁hardy	-10.0693
▁burning	-10.0714
▁finding	-10.0717
ped	-10.0726
rine	-10.0747
▁roars	-10.0758
ame	-10.0772
▁learning	-10.0794
▁hearing	-10.0803
▁lick	-10.0823
▁lookin	-10.0824
▁shooting	-10.085
▁radiat	-10.0866
▁towards	-10.0874
▁sting	-10.0877
ture	-10.088
▁strangers	-10.088
tro	-10.0886
▁depend	-10.0887
if	-10.0909
▁nee	-10.0917
▁jokes	-10.0933
gu	-10.095
tain	-10.0969
▁zou	-10.098
▁showing	-10.0983
▁checking	-10.0992
▁finds	-10.1013
▁ble	-10.1017
▁ken	-10.1025
ko	-10.1047
▁tricks	-10.1076
▁gal	-10.1077
▁magical	-10.1097
▁ducks	-10.1115
ny	-10.1144
▁fr	-10.1147
met	-10.1164
ight	-10.1172
▁ka	-10.1175
▁fro	-10.1187
you	-10.12
▁idiots	-10.1235
ence	-10.1244
ify	-10.1247
▁operation	-10.1254
▁mill	-10.1259
▁detail	-10.126
ane	-10.1275
▁ri	-10.1283
▁par	-10.1289
▁bond	-10.129
▁rev	-10.1301
▁souls	-10.1327
rd	-10.1356
▁thousands	-10.1358
▁flam	-10.1365
▁mu	-10.1367
▁occasion	-10.139
▁los	-10.1408
▁rank	-10.1413
▁fu	-10.1416
▁bum	-10.1416
▁levels	-10.142
▁india	-10.1424
▁complain	-10.1432
ina	-10.1438
nce	-10.144
▁hou	-10.1445
▁approach	-10.1468
▁honk	-10.1472
▁embarrass	-10.1474
▁spr	-10.1475
▁connect	-10.1476
▁crook	-10.1477
▁develop	-10.1477
▁disappoint	-10.1478
▁fail	-10.148
foot	-10.1482
▁grant	-10.1491
▁beep	-10.1496
▁curse	-10.1498
ever	-10.1501
▁cont	-10.1503
▁tow	-10.1508
▁earn	-10.1509
▁exact	-10.1513
▁hung	-10.1516
▁somethings	-10.152
▁america	-10.152
lar	-10.1521
▁strip	-10.1523
▁takin	-10.1527
▁cell	-10.1527
▁jun	-10.1528
▁øøù	-10.1531
▁brand	-10.1532
▁grammar	-10.1532
▁screw	-10.1532
▁according	-10.1532
▁affair	-10.1532
▁alexandria	-10.1532
▁attempt	-10.1532
▁banana	-10.1532
▁beatrice	-10.1532
▁beloved	-10.1532
▁bernadette	-10.1532
▁brew	-10.1532
▁cough	-10.1532
▁criminal	-10.1532
▁discipline	-10.1532
▁easily	-10.1532
▁ector	-10.1532
▁enormous	-10.1532
▁example	-10.1532
▁exercise	-10.1532
▁extraordinary	-10.1532
▁hollywood	-10.1532
▁invasion	-10.1532
▁jerusalem	-10.1532
▁leavitt	-10.1532
▁lepers	-10.1532
▁lggins	-10.1532
▁liberty	-10.1532
▁maleficent	-10.1532
▁meacham	-10.1532
▁mexico	-10.1532
▁opposite	-10.1532
▁praise	-10.1532
▁process	-10.1532
▁recommend	-10.1532
▁saturn	-10.1532
▁sergeant	-10.1532
▁surgeon	-10.1532
▁thunderclap	-10.1532
▁unbelievable	-10.1532
▁victim	-10.1532
▁wiedersehen	-10.1532
▁wisdom	-10.1532
▁wretch	-10.1532
▁anytime	-10.1532
▁brief	-10.1532
▁feast	-10.1532
▁goldfish	-10.1532
▁license	-10.1532
▁wealth	-10.1532
▁deputy	-10.1532
▁modern	-10.1532
▁motor	-10.1532
▁slink	-10.1532
▁zelda	-10.1532
▁weave	-10.1532
▁hidden	-10.1532
▁quinn	-10.1532
▁target	-10.1532
▁assure	-10.1532
▁element	-10.1532
▁neighborhood	-10.1532
▁clue	-10.1532
▁recently	-10.1532
▁suspect	-10.1532
▁oops	-10.1532
▁inheritance	-10.1532
▁dirigible	-10.1532
▁apologize	-10.1532
▁judea	-10.1532
▁ribbon	-10.1532
▁medal	-10.1533
▁shade	-10.1533
▁cliff	-10.1533
▁snack	-10.1533
▁bloke	-10.1533
▁joking	-10.1533
▁prime	-10.1533
▁rapid	-10.1533
▁marvin	-10.1533
▁nuhuh	-10.1533
▁dummy	-10.1533
▁lsland	-10.1533
▁arrow	-10.1533
▁garage	-10.1534
▁contain	-10.1534
▁miserable	-10.1534
▁marcus	-10.1534
▁item	-10.1534
▁troopers	-10.1534
▁batteries	-10.1534
▁planning	-10.1534
▁laundry	-10.1534
▁rug	-10.1534
▁percent	-10.1534
▁whew	-10.1534
lug	-10.1534
▁goog	-10.1534
▁foul	-10.1534
▁heck	-10.1535
▁fruit	-10.1535
▁colony	-10.1535
▁cheap	-10.1536
▁grade	-10.1537
▁weight	-10.1538
▁chiu	-10.1538
▁compare	-10.1538
▁tax	-10.1538
▁chop	-10.1538
▁jerry	-10.1538
▁biological	-10.1538
▁memory	-10.154
▁chosen	-10.154
▁beef	-10.154
▁humble	-10.154
▁bravery	-10.1542
▁mankind	-10.1543
▁clanking	-10.1544
▁comb	-10.1544
▁ellen	-10.1544
▁mate	-10.1545
▁standard	-10.1546
▁jelly	-10.1546
▁spoken	-10.1547
▁foolish	-10.1548
▁rush	-10.155
▁protection	-10.1551
▁dip	-10.1553
▁ahem	-10.1554
▁enchanted	-10.1555
▁jack	-10.1555
▁cabin	-10.1559
▁tender	-10.1559
▁exception	-10.1561
▁writing	-10.1561
▁kar	-10.1562
▁tony	-10.1563
▁berries	-10.1563
▁matches	-10.1563
▁gear	-10.1563
▁nest	-10.1563
▁growth	-10.1564
vel	-10.1564
▁useful	-10.1565
▁lane	-10.1566
▁pole	-10.1569
▁helping	-10.1572
▁altair	-10.1572
▁alf	-10.1572
▁gasping	-10.1575
▁healthy	-10.1577
▁sol	-10.1577
▁gene	-10.1578
▁bury	-10.1579
▁mixed	-10.158
▁latest	-10.1585
▁disappointed	-10.1586
▁ins	-10.159
▁howdy	-10.159
▁blaster	-10.1593
▁sayin	-10.1602
▁cloth	-10.1602
▁beam	-10.1603
▁hebt	-10.1608
emand	-10.1611
▁discovered	-10.1615
▁utter	-10.1616
▁yah	-10.1616
rough	-10.1618
▁murdered	-10.1619
▁stops	-10.1624
▁carried	-10.1626
▁entirely	-10.1631
▁gives	-10.1632
▁speaks	-10.1633
▁herring	-10.1636
▁stronger	-10.1641
▁weapons	-10.1646
▁jamie	-10.1654
▁pounding	-10.1654
▁noon	-10.1662
bs	-10.1665
▁stealing	-10.1667
▁squeeze	-10.1676
ise	-10.1678
▁warriors	-10.1679
▁guts	-10.1679
▁holy	-10.1681
▁pt	-10.1688
▁data	-10.1697
▁slipp	-10.1701
term	-10.1703
▁peaceful	-10.1704
▁flame	-10.1709
off	-10.1712
▁thy	-10.1715
▁prayers	-10.1721
▁safely	-10.1723
▁skinn	-10.1728
ki	-10.173
▁quicker	-10.1733
▁conversations	-10.1744
▁students	-10.1744
▁mann	-10.1749
▁highly	-10.175
▁tend	-10.1772
▁rolling	-10.1775
▁jews	-10.1778
▁manners	-10.1781
▁rob	-10.1787
▁deed	-10.1794
▁beating	-10.181
▁depends	-10.1818
▁snort	-10.1872
▁sleepy	-10.1878
▁prisoners	-10.1878
rate	-10.188
▁carrying	-10.1894
▁neighs	-10.1909
ger	-10.195
sis	-10.1953
▁dood	-10.199
aving	-10.1999
▁caused	-10.201
▁leading	-10.2031
rf	-10.2059
▁tw	-10.2072
▁hon	-10.2078
▁goat	-10.2089
uc	-10.2092
abili	-10.2107
mans	-10.2126
▁improve	-10.2137
▁am	-10.2166
▁yesm	-10.2177
▁bags	-10.2196
ably	-10.2202
▁rot	-10.222
▁lines	-10.2223
▁cleared	-10.2229
▁landed	-10.2234
▁lessons	-10.2245
del	-10.2251
▁opened	-10.229
▁sniff	-10.2293
▁knee	-10.2336
ral	-10.2343
nal	-10.2397
▁sleeping	-10.2406
▁await	-10.244
▁greater	-10.2447
▁shout	-10.2458
▁comment	-10.248
▁squirrel	-10.2504
▁cc	-10.2504
▁servant	-10.2508
▁positions	-10.2521
▁folk	-10.2524
▁bon	-10.2532
nia	-10.2532
▁jo	-10.2547
headed	-10.2551
zal	-10.2559
▁whip	-10.256
▁creat	-10.2586
▁mak	-10.2594
gle	-10.2599
▁manner	-10.2603
▁jew	-10.2606
▁nap	-10.2637
▁headed	-10.2652
▁radi	-10.2653
▁frighten	-10.2661
▁you	-10.2667
mal	-10.2673
▁swords	-10.2696
▁fellows	-10.2696
▁conquer	-10.2709
▁ohhh	-10.2709
band	-10.2714
▁numbers	-10.2718
▁mop	-10.2721
▁don	-10.2721
▁perform	-10.2723
▁pour	-10.2725
▁suffer	-10.2725
eyed	-10.2735
▁delight	-10.2735
national	-10.2737
born	-10.2738
free	-10.2738
▁mix	-10.2738
face	-10.2746
øùù	-10.2748
▁provide	-10.2749
▁threat	-10.2757
▁mode	-10.2758
▁sudden	-10.2762
▁pump	-10.2765
▁crate	-10.2769
▁krijg	-10.2772
▁patch	-10.2776
league	-10.2781
▁birth	-10.2781
▁micro	-10.2782
▁achillas	-10.2782
▁adorable	-10.2782
▁bemanning	-10.2782
▁bracket	-10.2782
▁cafeteria	-10.2782
▁celebrate	-10.2782
▁centuries	-10.2782
▁clumsy	-10.2782
▁competition	-10.2782
▁conclusion	-10.2782
▁conference	-10.2782
▁conflict	-10.2782
▁descend	-10.2782
▁enemies	-10.2782
▁fabulous	-10.2782
▁fashion	-10.2782
▁frightful	-10.2782
▁ghetto	-10.2782
▁grief	-10.2782
▁gypsy	-10.2782
▁honeymoon	-10.2782
▁hurray	-10.2782
▁incident	-10.2782
▁infinity	-10.2782
▁innovative	-10.2782
▁instinct	-10.2782
▁kurosuke	-10.2782
▁landmark	-10.2782
▁lumiere	-10.2782
▁mademoiselle	-10.2782
▁mattie	-10.2782
▁maurice	-10.2782
▁merciful	-10.2782
▁mysterious	-10.2782
▁observe	-10.2782
▁original	-10.2782
▁phyllis	-10.2782
▁rascal	-10.2782
▁reference	-10.2782
▁regular	-10.2782
▁remove	-10.2782
▁rendezvous	-10.2782
▁reputation	-10.2782
▁rhyme	-10.2782
▁sacrifice	-10.2782
▁scientific	-10.2782
▁screech	-10.2782
▁sensation	-10.2782
▁shelter	-10.2782
▁split	-10.2782
▁stretch	-10.2782
▁studio	-10.2782
▁succeed	-10.2782
▁unload	-10.2782
▁wrote	-10.2782
▁crocodile	-10.2782
▁function	-10.2782
▁greta	-10.2782
▁ignore	-10.2782
▁jessica	-10.2782
▁katie	-10.2782
▁nevertheless	-10.2782
▁sector	-10.2782
▁shape	-10.2782
▁concert	-10.2782
▁mortal	-10.2782
▁throne	-10.2782
▁carpet	-10.2782
▁lorri	-10.2782
▁shirt	-10.2782
▁humming	-10.2782
▁monday	-10.2782
▁cease	-10.2782
▁entry	-10.2782
▁unhappy	-10.2782
▁aryan	-10.2782
▁dedicat	-10.2782
▁commission	-10.2782
▁physical	-10.2782
▁breng	-10.2782
▁dignity	-10.2782
▁nephew	-10.2782
▁fifteen	-10.2782
▁literally	-10.2782
▁photograph	-10.2782
▁ugh	-10.2782
ogee	-10.2782
▁frown	-10.2782
▁mommy	-10.2782
▁specta	-10.2782
▁iets	-10.2782
▁bleeding	-10.2783
▁dreadful	-10.2783
▁jeep	-10.2783
▁stroke	-10.2783
▁whining	-10.2783
▁mistress	-10.2783
▁crush	-10.2783
▁wagon	-10.2783
▁seventeen	-10.2783
▁occurred	-10.2783
▁performance	-10.2783
▁section	-10.2783
▁gravy	-10.2783
▁mmmhmm	-10.2783
▁capcom	-10.2783
▁jeff	-10.2783
kuro	-10.2783
▁leap	-10.2783
▁reliable	-10.2783
▁dickens	-10.2783
▁imagination	-10.2783
▁social	-10.2784
▁steer	-10.2784
▁gutter	-10.2784
▁propose	-10.2784
▁dick	-10.2784
▁distance	-10.2784
▁secure	-10.2784
▁witchcraft	-10.2784
▁grandpa	-10.2784
▁spir	-10.2784
tomed	-10.2784
▁sex	-10.2784
▁patrol	-10.2784
▁stopping	-10.2785
▁york	-10.2785
▁headmaster	-10.2785
▁amuse	-10.2785
▁twin	-10.2785
▁jock	-10.2785
▁paperwork	-10.2785
▁factory	-10.2785
▁print	-10.2785
▁appearance	-10.2785
▁limb	-10.2786
▁happily	-10.2786
▁easier	-10.2786
▁begun	-10.2786
▁thieves	-10.2786
▁zien	-10.2786
▁technically	-10.2786
▁motion	-10.2787
▁mail	-10.2787
▁territory	-10.2788
▁contest	-10.2788
▁receiving	-10.2788
▁tegen	-10.2788
▁junk	-10.2788
▁string	-10.2789
▁publicity	-10.2789
▁drone	-10.2789
▁saving	-10.279
▁hawke	-10.2791
▁sink	-10.2791
▁sonny	-10.2792
▁watling	-10.2792
▁profit	-10.2792
▁vast	-10.2792
▁passage	-10.2793
▁brush	-10.2793
▁potatoes	-10.2793
▁arranged	-10.2793
▁breed	-10.2793
▁freeze	-10.2793
▁pigeon	-10.2794
▁inches	-10.2794
▁spiller	-10.2796
▁dull	-10.2799
▁lone	-10.2799
▁laid	-10.28
▁particularly	-10.28
▁rhodes	-10.2803
▁tech	-10.2803
▁pace	-10.2805
▁remembered	-10.2806
▁shutter	-10.2807
▁deck	-10.2809
▁goede	-10.281
▁frau	-10.281
▁coat	-10.2813
ook	-10.2814
▁barking	-10.2814
▁strict	-10.2817
▁setting	-10.2818
▁tighten	-10.2818
▁murderer	-10.2822
▁inch	-10.2823
▁butter	-10.283
▁wars	-10.283
▁cable	-10.2831
▁gown	-10.2832
▁zeg	-10.2832
▁core	-10.2832
▁tut	-10.2832
▁wilt	-10.2834
▁windows	-10.2838
▁knuckles	-10.2838
▁whiskers	-10.2838
▁squeals	-10.2839
▁shy	-10.2842
▁hoor	-10.2844
▁straighten	-10.2845
▁received	-10.2846
▁pine	-10.2846
tri	-10.285
▁thrilled	-10.2852
▁down	-10.2855
▁restore	-10.2857
▁cathe	-10.2859
▁chained	-10.2861
lousy	-10.2874
▁neighbors	-10.2875
weet	-10.2878
▁realized	-10.2886
▁camel	-10.289
▁nail	-10.2894
gged	-10.2895
▁thankful	-10.2896
▁slowly	-10.2898
ries	-10.2901
▁crickets	-10.2912
▁boarding	-10.2918
▁loaded	-10.2926
coming	-10.2926
▁agreed	-10.293
▁lover	-10.2931
▁pest	-10.2936
▁sca	-10.294
▁covered	-10.2955
▁borrowing	-10.2962
▁tracks	-10.2963
▁trainers	-10.2967
▁gall	-10.2977
lic	-10.2981
▁cheetahs	-10.2987
▁tent	-10.2987
▁armed	-10.3006
▁teen	-10.3007
▁talents	-10.3019
addle	-10.3023
illa	-10.3029
▁painting	-10.3034
▁packing	-10.3036
▁pushing	-10.3043
▁scaring	-10.3049
da	-10.307
ory	-10.3077
rid	-10.3091
▁paris	-10.3093
lac	-10.312
▁herds	-10.3137
▁crows	-10.3139
▁sn	-10.3141
▁flyin	-10.315
▁cor	-10.3156
▁tense	-10.316
▁passing	-10.3163
▁faces	-10.3163
▁le	-10.3179
▁san	-10.3188
▁spells	-10.3199
▁turnin	-10.3206
▁goal	-10.3207
▁thinkin	-10.3209
▁nau	-10.3218
▁stayed	-10.3222
▁beautifully	-10.325
▁shi	-10.3255
▁touched	-10.328
▁falls	-10.3284
▁directions	-10.329
▁waves	-10.329
▁com	-10.3292
eval	-10.33
▁bars	-10.3306
▁dia	-10.3309
tha	-10.3323
eedle	-10.3327
lijk	-10.3342
stly	-10.3366
▁angels	-10.3368
▁pigs	-10.3374
▁inn	-10.3379
▁nah	-10.3406
▁deserves	-10.3443
▁shadows	-10.3444
dig	-10.3446
▁events	-10.3471
▁throwing	-10.3472
put	-10.3477
med	-10.3509
law	-10.3514
▁bl	-10.3523
▁era	-10.353
get	-10.353
▁killer	-10.3534
▁tales	-10.3539
▁qui	-10.3564
▁mcqueens	-10.357
▁whi	-10.3591
▁pill	-10.3627
▁ac	-10.3643
▁pat	-10.3649
▁bro	-10.365
▁din	-10.3659
▁ending	-10.366
ator	-10.3671
▁shoe	-10.3695
▁sle	-10.3709
rous	-10.3723
tig	-10.3734
▁sho	-10.3735
øaù	-10.3766
ole	-10.3795
▁suits	-10.3797
▁motorcycles	-10.38
▁walls	-10.3818
▁bla	-10.3835
uff	-10.3921
▁sneeze	-10.3928
▁brat	-10.3928
▁conversation	-10.3941
▁student	-10.3942
▁quarter	-10.3945
▁grasshopper	-10.3946
▁talent	-10.3951
▁sometime	-10.3952
▁worrying	-10.3953
▁farmer	-10.3967
more	-10.3976
light	-10.3984
▁systems	-10.3998
▁historic	-10.4002
▁straw	-10.4013
▁rod	-10.404
▁owl	-10.4053
▁chuck	-10.4068
af	-10.407
▁admira	-10.4082
iler	-10.4086
▁øùøù	-10.4099
▁racer	-10.4104
▁scor	-10.4111
▁skip	-10.4124
▁gar	-10.4142
▁demand	-10.4144
▁gleam	-10.4144
▁whisper	-10.4148
▁inform	-10.4149
▁flip	-10.4154
▁disturb	-10.4155
▁surround	-10.4156
field	-10.4161
▁howl	-10.4167
like	-10.4169
▁but	-10.4173
back	-10.4176
▁assume	-10.4177
▁guarantee	-10.4177
▁separate	-10.4177
▁capture	-10.4179
vy	-10.418
▁replace	-10.4181
▁practical	-10.419
▁particular	-10.419
▁obvious	-10.4191
lick	-10.4193
▁robert	-10.4194
▁bull	-10.4195
▁cock	-10.4195
▁potato	-10.4199
▁germ	-10.4202
▁profession	-10.4203
▁express	-10.4206
mate	-10.4207
▁grim	-10.4207
▁detect	-10.4209
▁transfer	-10.421
▁kidnap	-10.421
▁organ	-10.421
▁cannon	-10.4211
▁philip	-10.4211
belerephon	-10.4211
▁adieu	-10.4211
▁aldana	-10.4211
▁alexander	-10.4211
▁altra	-10.4211
▁ascot	-10.4211
▁atmosphere	-10.4211
▁barbecue	-10.4211
▁capital	-10.4211
▁ceremony	-10.4211
▁champagne	-10.4211
▁charizard	-10.4211
▁christine	-10.4211
▁compliment	-10.4211
▁copper	-10.4211
▁crisis	-10.4211
▁defense	-10.4211
▁dessert	-10.4211
▁disagree	-10.4211
▁doublecross	-10.4211
▁downstairs	-10.4211
▁dowry	-10.4211
▁escort	-10.4211
▁excitement	-10.4211
▁explanation	-10.4211
▁filigree	-10.4211
▁flavius	-10.4211
▁footsteps	-10.4211
▁garbitsch	-10.4211
▁germaine	-10.4211
▁grandfather	-10.4211
▁gravity	-10.4211
▁helicopter	-10.4211
▁hofstedder	-10.4211
▁humbug	-10.4211
▁incorporated	-10.4211
▁intense	-10.4211
▁intention	-10.4211
▁interview	-10.4211
▁irresistible	-10.4211
▁juliet	-10.4211
▁melody	-10.4211
▁mermaid	-10.4211
▁misunderstand	-10.4211
▁muscle	-10.4211
▁oldfashioned	-10.4211
▁olivia	-10.4211
▁ostrich	-10.4211
▁outfit	-10.4211
▁pikachu	-10.4211
▁pudding	-10.4211
▁reservation	-10.4211
▁satellite	-10.4211
▁savage	-10.4211
▁scholar	-10.4211
▁scramble	-10.4211
▁shipshape	-10.4211
▁simpson	-10.4211
▁species	-10.4211
▁structure	-10.4211
▁substation	-10.4211
▁television	-10.4211
▁timothy	-10.4211
▁toilet	-10.4211
▁tradition	-10.4211
▁tranquility	-10.4211
▁tulio	-10.4211
▁urgent	-10.4211
▁value	-10.4211
▁vriend	-10.4211
▁worries	-10.4211
▁ability	-10.4211
▁arthur	-10.4211
▁cosmo	-10.4211
▁cotton	-10.4211
▁cradle	-10.4211
▁dietrich	-10.4211
▁dwell	-10.4211
▁grip	-10.4211
▁looney	-10.4211
▁lumber	-10.4211
▁motto	-10.4211
▁produce	-10.4211
▁remote	-10.4211
▁scrub	-10.4211
▁transform	-10.4211
▁voyage	-10.4211
▁blink	-10.4211
▁duties	-10.4211
▁leather	-10.4211
▁plastic	-10.4211
▁achter	-10.4211
▁acqui	-10.4211
▁drown	-10.4211
▁hyah	-10.4211
▁sheep	-10.4211
▁delta	-10.4211
▁nightmare	-10.4211
▁tampa	-10.4211
▁worn	-10.4211
▁cattle	-10.4211
▁mount	-10.4211
▁transmission	-10.4211
▁delay	-10.4211
▁formula	-10.4211
▁pilot	-10.4211
▁digging	-10.4211
▁prettier	-10.4211
▁culture	-10.4211
▁behold	-10.4211
▁alaska	-10.4211
▁uncha	-10.4211
▁rudd	-10.4211
▁preacher	-10.4212
▁stairs	-10.4212
▁grew	-10.4212
▁psychic	-10.4212
▁unknown	-10.4212
▁zeggen	-10.4212
▁acid	-10.4212
▁dropping	-10.4212
▁bakery	-10.4212
▁witness	-10.4212
▁hmph	-10.4212
▁swim	-10.4213
▁cents	-10.4213
▁flair	-10.4213
▁generous	-10.4213
▁liftoff	-10.4213
▁purse	-10.4213
▁facility	-10.4213
▁entertainment	-10.4213
▁marcel	-10.4213
▁porch	-10.4213
▁onto	-10.4214
▁anker	-10.4214
▁repair	-10.4214
▁scot	-10.4214
▁maintain	-10.4214
▁quest	-10.4214
▁øøùù	-10.4214
▁youth	-10.4214
▁education	-10.4214
▁voil	-10.4214
▁mound	-10.4215
▁georgia	-10.4215
▁glue	-10.4215
▁sequence	-10.4215
▁geld	-10.4215
▁nursery	-10.4215
▁tape	-10.4215
▁auto	-10.4216
▁alike	-10.4216
▁starving	-10.4216
▁affection	-10.4216
▁stack	-10.4216
▁thou	-10.4216
▁zeker	-10.4217
▁surf	-10.4217
▁responsibility	-10.4217
▁dude	-10.4217
▁ùùù	-10.4218
▁samba	-10.4218
▁harry	-10.4218
▁cellar	-10.4218
▁øùø	-10.4218
▁spaceship	-10.4218
▁geven	-10.4219
▁trace	-10.4219
▁dinnertime	-10.4221
▁tijd	-10.4222
▁toch	-10.4222
▁dong	-10.4222
▁mag	-10.4222
▁needle	-10.4222
▁chat	-10.4225
▁fifty	-10.4226
▁agreement	-10.4226
▁halfway	-10.4226
▁sixty	-10.4227
▁roberta	-10.4227
▁forth	-10.4227
▁chill	-10.4227
▁sec	-10.4228
▁bras	-10.4229
▁pow	-10.4229
▁mew	-10.423
▁armies	-10.423
▁practically	-10.4232
uch	-10.4232
phi	-10.4233
▁mist	-10.4234
▁approved	-10.4234
▁beak	-10.4234
▁ramm	-10.4234
▁technicians	-10.4235
▁austrian	-10.4237
▁web	-10.4237
▁dishes	-10.4237
▁flowr	-10.4239
▁squawk	-10.424
▁stable	-10.4241
▁exhausted	-10.4241
▁grin	-10.4241
▁timon	-10.4241
▁mala	-10.4242
▁manager	-10.4243
▁backyard	-10.4243
▁kiddo	-10.4243
▁eve	-10.4244
▁honorable	-10.4244
▁captured	-10.4244
▁fade	-10.4244
▁june	-10.4245
▁zero	-10.4246
▁passion	-10.4247
▁hitting	-10.4248
▁rusty	-10.425
▁cutting	-10.425
▁kaa	-10.4256
▁clanging	-10.4257
ello	-10.4257
▁glasses	-10.4257
▁impressed	-10.4258
rted	-10.4258
▁cord	-10.4263
▁ink	-10.4264
▁surrounded	-10.4266
▁fourth	-10.4267
▁belt	-10.427
▁twisty	-10.427
▁domin	-10.427
▁ket	-10.4273
▁bein	-10.4274
▁gap	-10.4275
▁brooks	-10.4276
▁skipp	-10.4277
▁adore	-10.4278
▁successful	-10.4278
▁hm	-10.4278
▁howling	-10.4279
▁pile	-10.4279
▁deny	-10.428
▁drug	-10.4282
▁fore	-10.4282
▁mistaken	-10.4283
▁developed	-10.4283
▁starve	-10.4285
▁faithful	-10.4288
▁confirmed	-10.4292
▁former	-10.4292
▁passes	-10.4292
▁earned	-10.4297
▁heer	-10.4301
▁su	-10.4301
▁honestly	-10.4303
▁kisses	-10.4307
▁zw	-10.4311
zy	-10.4313
justice	-10.4314
▁flow	-10.4315
▁added	-10.4319
▁brakes	-10.4319
▁citizens	-10.4319
traffic	-10.432
▁unh	-10.432
▁ob	-10.4325
▁blasted	-10.4327
▁cheating	-10.4329
▁created	-10.4334
▁zei	-10.4337
▁aiming	-10.4339
▁wit	-10.4353
▁vind	-10.4354
▁jess	-10.4356
▁cos	-10.4358
▁tide	-10.4363
▁crystal	-10.4366
▁shortly	-10.4369
▁considered	-10.4369
▁dew	-10.4369
▁joint	-10.4373
▁dragg	-10.4375
▁dancer	-10.4376
▁hac	-10.4377
▁warning	-10.4381
▁searched	-10.4387
▁invade	-10.4388
gy	-10.439
▁pale	-10.4395
▁thin	-10.4396
verse	-10.4397
▁ki	-10.4397
art	-10.4401
▁proceeding	-10.4401
▁privileges	-10.4406
▁communications	-10.4406
▁beans	-10.4406
▁flaps	-10.4407
▁missus	-10.4416
vin	-10.4416
▁pretending	-10.4422
▁ohio	-10.4427
▁haal	-10.4435
row	-10.4435
▁enjoyed	-10.4449
▁members	-10.4449
huh	-10.4454
▁tube	-10.4464
▁peas	-10.4478
▁marks	-10.4494
▁fe	-10.4504
▁liver	-10.4511
▁lack	-10.4511
ace	-10.4521
unk	-10.4533
▁servants	-10.4537
▁awaits	-10.4538
pri	-10.4543
▁bust	-10.4547
▁site	-10.4552
▁harder	-10.4554
▁sto	-10.4563
▁mills	-10.4567
otte	-10.4567
▁bonds	-10.4581
pit	-10.4581
▁deadly	-10.4581
ashi	-10.4588
quality	-10.4595
gram	-10.4605
▁kn	-10.461
▁tied	-10.4611
▁sur	-10.4611
iz	-10.4612
▁mayor	-10.4617
ible	-10.4622
ja	-10.4629
▁sat	-10.4632
▁pea	-10.4646
▁jumping	-10.4652
▁sports	-10.4662
▁bowl	-10.4666
▁tickets	-10.467
▁chains	-10.4672
▁wondered	-10.4687
▁batt	-10.4723
▁haha	-10.474
▁nun	-10.4742
▁pi	-10.4752
ini	-10.4753
▁permits	-10.4759
▁slaves	-10.4759
▁signed	-10.4761
ssy	-10.4772
tries	-10.4775
ira	-10.4795
▁pic	-10.4801
boord	-10.4807
▁trusted	-10.4814
▁yay	-10.4824
▁arch	-10.4831
how	-10.4842
▁returning	-10.4848
▁lip	-10.4871
▁doctors	-10.4877
▁presents	-10.4877
▁vac	-10.4883
▁ere	-10.4885
▁ome	-10.4897
▁kindly	-10.4923
▁catching	-10.4958
▁nicely	-10.4961
aaa	-10.4963
▁hay	-10.4963
▁cad	-10.4976
berg	-10.4995
heap	-10.5013
sta	-10.5035
▁non	-10.5038
▁toes	-10.5044
▁sounded	-10.5053
▁posts	-10.5081
maker	-10.5109
▁cart	-10.5134
▁planes	-10.5161
▁whistles	-10.5168
lish	-10.5197
rus	-10.5214
▁guests	-10.5215
rb	-10.522
new	-10.5222
▁tra	-10.5225
sey	-10.5238
▁hurting	-10.526
nine	-10.5365
▁siren	-10.5399
ov	-10.542
▁plot	-10.545
▁hiss	-10.5468
▁commit	-10.5471
fully	-10.5485
ently	-10.5514
▁wishing	-10.5523
▁gen	-10.5535
ris	-10.5544
▁dom	-10.5553
▁exc	-10.556
▁lit	-10.557
bts	-10.5579
ized	-10.5582
eater	-10.5594
▁ambition	-10.5596
ius	-10.5601
▁member	-10.5603
▁cheetah	-10.5605
▁fin	-10.5607
▁gasp	-10.5611
▁trial	-10.5612
▁tid	-10.5622
lum	-10.5626
▁customer	-10.5632
cial	-10.5635
▁bri	-10.5644
▁holes	-10.5689
sticks	-10.5694
▁prayer	-10.5702
▁advise	-10.5722
shes	-10.574
hh	-10.5749
▁bubbl	-10.5758
▁snor	-10.576
▁strap	-10.58
▁impress	-10.5815
place	-10.5816
▁wound	-10.5827
joy	-10.5827
igh	-10.5828
berries	-10.5831
strict	-10.5832
play	-10.5833
called	-10.5833
book	-10.5837
fection	-10.5839
wise	-10.5839
made	-10.5846
▁wast	-10.5847
hood	-10.5849
▁activate	-10.585
▁custom	-10.5851
▁prison	-10.5852
▁thump	-10.5853
▁grub	-10.5855
▁supp	-10.5857
phone	-10.5859
▁chose	-10.5865
▁plum	-10.5866
▁rog	-10.5866
looking	-10.5871
craft	-10.5871
▁affect	-10.5872
▁racin	-10.5872
▁inspect	-10.5873
▁juda	-10.5873
▁punish	-10.5874
▁occur	-10.5876
▁entertain	-10.5876
▁politic	-10.5876
▁npdv	-10.5877
▁addition	-10.5877
▁diagnos	-10.5877
▁layeeo	-10.5877
▁register	-10.5877
▁academy	-10.5877
▁ambassador	-10.5877
▁analysis	-10.5877
▁anxious	-10.5877
▁anyhow	-10.5877
▁asparagus	-10.5877
▁aspirin	-10.5877
▁assistant	-10.5877
▁autumn	-10.5877
▁benefit	-10.5877
▁betrothed	-10.5877
▁blimey	-10.5877
▁blossom	-10.5877
▁cannibal	-10.5877
▁celebrating	-10.5877
▁celebration	-10.5877
▁condemn	-10.5877
▁confound	-10.5877
▁contrary	-10.5877
▁corridor	-10.5877
▁disease	-10.5877
▁duchess	-10.5877
▁entrance	-10.5877
▁expenses	-10.5877
▁fanfare	-10.5877
▁fozziwig	-10.5877
▁friday	-10.5877
▁goatherd	-10.5877
▁gossip	-10.5877
▁groove	-10.5877
▁happier	-10.5877
▁happiest	-10.5877
▁haunted	-10.5877
▁headquarters	-10.5877
▁humiliating	-10.5877
▁ignorant	-10.5877
▁influence	-10.5877
▁initial	-10.5877
▁injun	-10.5877
▁interstate	-10.5877
▁kachicka	-10.5877
▁maatje	-10.5877
▁manchek	-10.5877
▁mcalester	-10.5877
▁medicine	-10.5877
▁merryweather	-10.5877
▁mexican	-10.5877
▁milady	-10.5877
▁minnesota	-10.5877
▁muzzle	-10.5877
▁mysteries	-10.5877
▁nazareth	-10.5877
▁nuisance	-10.5877
▁patience	-10.5877
▁quimby	-10.5877
▁rufio	-10.5877
▁rufus	-10.5877
▁rumbling	-10.5877
▁savvy	-10.5877
▁schraeder	-10.5877
▁scrawny	-10.5877
▁shrieking	-10.5877
▁shrimp	-10.5877
▁smoking	-10.5877
▁squish	-10.5877
▁stadium	-10.5877
▁staff	-10.5877
▁stubborn	-10.5877
▁subtitle	-10.5877
▁swamp	-10.5877
▁symbol	-10.5877
▁tanana	-10.5877
▁terminated	-10.5877
▁terug	-10.5877
▁thread	-10.5877
▁torture	-10.5877
▁tragedy	-10.5877
▁umbrella	-10.5877
▁underneath	-10.5877
▁unusual	-10.5877
▁vechten	-10.5877
▁vegetable	-10.5877
▁velocity	-10.5877
▁vienna	-10.5877
▁balance	-10.5877
▁cigar	-10.5877
▁disaster	-10.5877
▁failure	-10.5877
▁glance	-10.5877
▁hilltop	-10.5877
▁instance	-10.5877
▁macaw	-10.5877
▁manuscript	-10.5877
▁niece	-10.5877
▁sarah	-10.5877
▁stream	-10.5877
▁strife	-10.5877
▁terrific	-10.5877
▁vlag	-10.5877
▁worship	-10.5877
▁filth	-10.5877
▁interfere	-10.5877
▁retire	-10.5877
▁sentiment	-10.5877
▁shield	-10.5877
▁silk	-10.5877
▁vooruit	-10.5877
▁annoy	-10.5877
▁horseshoe	-10.5877
▁louie	-10.5877
▁praten	-10.5877
▁emerald	-10.5877
▁generations	-10.5877
▁pledge	-10.5877
▁rattling	-10.5877
▁shave	-10.5877
▁smiling	-10.5877
▁soaked	-10.5877
▁luke	-10.5877
▁region	-10.5877
▁wailing	-10.5877
▁whatre	-10.5877
▁worm	-10.5877
▁eager	-10.5877
▁terrain	-10.5877
▁evict	-10.5877
▁bodies	-10.5878
▁behavior	-10.5878
▁violence	-10.5878
▁susan	-10.5878
▁chimney	-10.5878
▁advisor	-10.5878
▁hammer	-10.5878
▁loony	-10.5878
▁wimp	-10.5878
▁hawkins	-10.5878
▁despair	-10.5878
▁independent	-10.5878
▁plaque	-10.5878
▁terr	-10.5878
rican	-10.5878
▁rosie	-10.5878
▁resent	-10.5878
▁librarian	-10.5878
skull	-10.5878
▁socks	-10.5878
▁snowflake	-10.5878
▁cowboy	-10.5878
▁adjust	-10.5878
▁tolls	-10.5878
▁attractive	-10.5878
▁fought	-10.5878
▁torn	-10.5878
▁laydeeodlay	-10.5878
▁misery	-10.5878
▁kitten	-10.5878
▁squash	-10.5878
▁insane	-10.5878
▁youyou	-10.5878
▁narrow	-10.5878
▁sunset	-10.5878
▁desire	-10.5878
▁private	-10.5878
▁series	-10.5878
▁shelf	-10.5878
▁upside	-10.5879
▁prima	-10.5879
▁altitude	-10.5879
▁tsk	-10.5879
▁ahoy	-10.5879
▁employee	-10.5879
▁pupil	-10.5879
▁spook	-10.5879
▁ùùùù	-10.5879
▁judgment	-10.5879
▁stossel	-10.5879
▁internal	-10.5879
▁rubber	-10.5879
▁soso	-10.5879
▁robertson	-10.5879
▁leven	-10.5879
▁behalf	-10.5879
▁tasty	-10.5879
▁studie	-10.5879
▁charit	-10.588
▁unfortunately	-10.588
▁timid	-10.588
▁kijk	-10.588
▁basic	-10.588
regulati	-10.588
▁jewish	-10.588
▁concentration	-10.588
▁cruel	-10.588
▁insert	-10.588
▁unkind	-10.588
▁foam	-10.588
▁oof	-10.588
▁appar	-10.588
▁despite	-10.588
▁partnership	-10.588
▁bald	-10.588
ville	-10.588
▁mooing	-10.588
▁laydeeodl	-10.5881
▁speakeasy	-10.5881
▁anthill	-10.5881
▁household	-10.5881
▁alfie	-10.5882
▁desk	-10.5882
▁seldo	-10.5882
▁electronic	-10.5882
▁sensitive	-10.5882
▁kanta	-10.5882
▁powder	-10.5882
▁popular	-10.5882
▁error	-10.5883
ddling	-10.5883
▁impression	-10.5883
▁hart	-10.5883
▁relative	-10.5883
▁rox	-10.5883
▁hallway	-10.5884
▁dna	-10.5884
▁rattle	-10.5884
▁fuel	-10.5884
▁instrumental	-10.5884
▁average	-10.5884
carbon	-10.5884
▁lazy	-10.5884
▁envy	-10.5884
▁daring	-10.5884
▁boring	-10.5884
▁stake	-10.5885
▁loyalty	-10.5885
▁creation	-10.5885
▁apartment	-10.5885
▁charleston	-10.5885
▁jeez	-10.5885
▁wax	-10.5886
▁towel	-10.5886
▁hitler	-10.5886
▁bru	-10.5887
▁inspired	-10.5887
▁modest	-10.5887
▁bucket	-10.5888
▁ditch	-10.5888
▁juice	-10.5889
eff	-10.5889
▁trade	-10.5891
▁chum	-10.5891
▁wreck	-10.5891
▁cries	-10.5891
▁forgiveness	-10.5891
▁magician	-10.5891
▁deaf	-10.5892
▁dame	-10.5892
▁balloon	-10.5892
▁determined	-10.5893
▁dandy	-10.5893
▁depressed	-10.5893
gree	-10.5893
▁combine	-10.5894
▁burst	-10.5894
▁wist	-10.5894
▁media	-10.5894
▁distan	-10.5894
▁owner	-10.5894
▁vari	-10.5895
▁chef	-10.5895
▁gim	-10.5896
▁dug	-10.5896
▁gaan	-10.5896
▁slicker	-10.5896
▁squealing	-10.5896
▁stripes	-10.5897
▁taxes	-10.5897
▁polish	-10.5897
▁schat	-10.5897
▁market	-10.5898
uine	-10.5898
▁habit	-10.5899
▁squad	-10.5899
▁sentenced	-10.5899
▁daylight	-10.5899
▁garn	-10.5899
▁scope	-10.5899
▁mule	-10.5901
▁medi	-10.5901
▁losers	-10.5902
▁bump	-10.5902
▁engaged	-10.5905
▁hired	-10.5905
▁fold	-10.5906
▁caw	-10.5907
▁ashes	-10.5911
▁emba	-10.5911
▁cocka	-10.5912
▁wij	-10.5913
▁lui	-10.5915
leg	-10.5916
▁haze	-10.5918
▁legal	-10.5919
oose	-10.5919
▁cave	-10.592
▁tailor	-10.5922
▁off	-10.5923
▁provided	-10.5923
▁confused	-10.5925
▁trailer	-10.593
▁correctly	-10.593
▁straining	-10.5932
▁wandering	-10.5932
▁twee	-10.5933
▁scraping	-10.5933
▁dank	-10.5934
▁useless	-10.5935
rel	-10.5939
▁fig	-10.594
▁caper	-10.5942
▁hog	-10.5942
ummy	-10.5942
▁heartless	-10.5943
twe	-10.5944
▁disturbed	-10.5944
▁this	-10.5947
▁busted	-10.5947
▁lifetime	-10.5948
▁forty	-10.5949
▁conquered	-10.5954
▁ohoh	-10.5954
▁pod	-10.5955
▁grain	-10.5955
▁parties	-10.5956
▁results	-10.5956
▁kwa	-10.5956
▁gleaming	-10.5957
▁mig	-10.5958
▁poster	-10.5962
▁mustard	-10.5962
▁connected	-10.5964
▁crooked	-10.5964
▁rear	-10.5969
▁bitter	-10.597
▁fame	-10.5971
▁accused	-10.5975
▁thoughtful	-10.5977
▁cutest	-10.598
▁beeping	-10.5981
▁hood	-10.5982
▁difficulty	-10.5988
▁baa	-10.5989
▁prey	-10.5992
zen	-10.5995
▁yyou	-10.6
zo	-10.6002
▁dearie	-10.6004
▁timing	-10.6007
▁passengers	-10.6007
▁cheerful	-10.601
▁treaty	-10.6013
▁carl	-10.6017
▁menu	-10.6018
▁skilled	-10.6025
dom	-10.6025
▁nala	-10.6036
▁romeo	-10.6042
▁imitat	-10.6052
▁lamb	-10.6052
▁camping	-10.6054
▁greeting	-10.6055
▁crashed	-10.6058
▁oars	-10.6059
▁accepted	-10.6067
doo	-10.6078
di	-10.6084
▁worthy	-10.6088
yard	-10.6089
▁wasted	-10.6091
que	-10.6092
▁crashing	-10.6094
▁jer	-10.6094
▁workers	-10.6101
▁cooked	-10.6108
just	-10.6108
▁patterns	-10.6111
yee	-10.6125
▁sailing	-10.613
▁superb	-10.6147
bag	-10.6151
▁attacked	-10.6152
lights	-10.6153
▁treated	-10.616
▁trapped	-10.6162
gum	-10.6166
▁packed	-10.6173
▁lordy	-10.6194
rry	-10.6204
▁belonged	-10.621
▁tools	-10.6216
▁quarters	-10.6218
▁lifted	-10.6234
▁racers	-10.6236
▁trained	-10.6258
rich	-10.6263
thin	-10.6265
▁eart	-10.6269
▁squirrels	-10.6269
▁il	-10.6271
what	-10.6273
▁mikey	-10.6275
▁cam	-10.6292
▁clearly	-10.6296
tive	-10.6297
▁questioning	-10.6303
▁obey	-10.6303
▁reporter	-10.6308
▁details	-10.6313
▁operations	-10.6322
▁counted	-10.6322
▁pla	-10.6326
▁mob	-10.6335
▁erg	-10.6352
▁tin	-10.6355
▁loss	-10.6367
▁engineer	-10.6367
▁letters	-10.6377
▁teaching	-10.6384
▁cran	-10.6387
▁ther	-10.6399
▁vote	-10.64
▁fianc	-10.6402
▁quitt	-10.6402
▁madame	-10.6423
▁senators	-10.6428
▁snakes	-10.6428
▁slaps	-10.6451
▁riches	-10.6465
▁paws	-10.6473
▁tro	-10.6479
▁nucle	-10.6482
▁horns	-10.6482
ggle	-10.65
▁laps	-10.6504
▁wherea	-10.6507
mical	-10.6514
▁zoo	-10.6531
▁apples	-10.6536
▁ram	-10.6537
oude	-10.6558
con	-10.6559
ijf	-10.6566
▁dock	-10.6571
▁pulled	-10.6586
een	-10.6588
▁handy	-10.6601
ple	-10.6602
ude	-10.6608
▁avi	-10.6613
ching	-10.6648
jack	-10.6655
ez	-10.6664
ax	-10.6689
▁conditions	-10.67
▁traps	-10.6702
▁ven	-10.6719
▁checked	-10.674
▁adventures	-10.675
lium	-10.6773
ark	-10.6782
▁pops	-10.6783
▁kun	-10.6807
▁chooses	-10.681
▁ideal	-10.6833
▁leaders	-10.6856
▁ama	-10.6875
rama	-10.6877
▁struggle	-10.6881
ament	-10.689
▁tastes	-10.6902
▁bake	-10.6905
innies	-10.694
▁ami	-10.6967
▁jan	-10.6987
vice	-10.6991
▁ster	-10.7004
ification	-10.7046
▁indicat	-10.7067
▁employ	-10.7074
▁meter	-10.7099
ake	-10.7099
lev	-10.715
ery	-10.7154
pid	-10.7169
▁flu	-10.7205
nders	-10.7231
▁hipp	-10.7245
pped	-10.732
roll	-10.734
▁shak	-10.7409
any	-10.7414
bble	-10.7421
▁hynkels	-10.7428
did	-10.7443
▁upa	-10.7464
gon	-10.7497
▁exp	-10.7499
▁flap	-10.7506
▁sigh	-10.7517
netic	-10.7533
▁sittin	-10.7568
doodle	-10.7587
gue	-10.7591
▁scientist	-10.7595
▁spider	-10.7595
▁der	-10.7595
▁pattern	-10.76
dual	-10.7601
aaah	-10.7602
▁privilege	-10.7603
▁warrior	-10.7607
▁communication	-10.7608
▁curl	-10.7609
enry	-10.7611
eth	-10.7612
▁scrap	-10.7637
▁gut	-10.7637
elp	-10.7668
▁bean	-10.7697
▁shower	-10.7705
▁nut	-10.7716
lus	-10.7729
▁øøøø	-10.7744
▁wool	-10.7751
▁admir	-10.7758
▁chim	-10.7779
▁trainer	-10.7791
gal	-10.7808
▁clang	-10.7811
▁wander	-10.7817
▁strain	-10.7817
▁interrupt	-10.7819
▁request	-10.7819
aki	-10.7822
▁caus	-10.7822
▁sul	-10.7823
wind	-10.7824
▁involv	-10.7825
▁critic	-10.7829
wait	-10.783
year	-10.7831
proof	-10.7832
easy	-10.7832
school	-10.7833
luck	-10.7839
ghost	-10.7842
▁engage	-10.7844
▁approve	-10.7844
beat	-10.7851
▁declare	-10.7856
▁absolute	-10.7858
▁precise	-10.7858
▁spill	-10.7858
choo	-10.7859
▁villa	-10.786
▁charl	-10.7863
▁slick	-10.7863
▁joyful	-10.7865
▁onder	-10.7869
▁instrument	-10.7869
aught	-10.7871
▁educat	-10.7872
▁invent	-10.7872
▁dancin	-10.7872
▁famili	-10.7872
▁spittin	-10.7873
▁runnin	-10.7873
▁communicat	-10.7873
▁remark	-10.7874
▁zon	-10.7875
▁orphan	-10.7876
▁mitt	-10.7877
ctus	-10.7877
▁infer	-10.7877
▁invest	-10.7877
▁stamp	-10.7877
sibility	-10.7877
▁tooth	-10.7877
▁confedera	-10.7877
nevada	-10.7877
phrase	-10.7877
▁advance	-10.7877
▁alleluia	-10.7877
▁alphabet	-10.7877
▁analyze	-10.7877
▁antioch	-10.7877
▁astoroth	-10.7877
▁awkward	-10.7877
▁baghee	-10.7877
▁bathtub	-10.7877
▁believing	-10.7877
▁blanket	-10.7877
▁bonnet	-10.7877
▁boyfriend	-10.7877
▁branch	-10.7877
▁brawn	-10.7877
▁britches	-10.7877
▁broomstick	-10.7877
▁buffalo	-10.7877
▁bygone	-10.7877
▁campaign	-10.7877
▁ceiling	-10.7877
▁cetera	-10.7877
▁chivalry	-10.7877
▁cobweb	-10.7877
▁columbus	-10.7877
▁companion	-10.7877
▁confess	-10.7877
▁confident	-10.7877
▁contraption	-10.7877
▁correspondence	-10.7877
▁cottage	-10.7877
▁curiosity	-10.7877
▁current	-10.7877
▁decontamination	-10.7877
▁defeat	-10.7877
▁demerits	-10.7877
▁demonstration	-10.7877
▁describe	-10.7877
▁destination	-10.7877
▁dictate	-10.7877
▁dinosaur	-10.7877
▁disguise	-10.7877
▁doobee	-10.7877
▁downrange	-10.7877
▁dynamite	-10.7877
▁elsinore	-10.7877
▁encourage	-10.7877
▁establish	-10.7877
▁expedition	-10.7877
▁eyelashes	-10.7877
▁fascinating	-10.7877
▁furlough	-10.7877
▁galaxy	-10.7877
▁garbage	-10.7877
▁ghastly	-10.7877
▁gloom	-10.7877
▁guitar	-10.7877
▁hazard	-10.7877
▁hungarian	-10.7877
▁impatient	-10.7877
▁intellect	-10.7877
▁jaeckel	-10.7877
▁japan	-10.7877
▁klaar	-10.7877
▁kusakabe	-10.7877
▁lngrid	-10.7877
▁magazine	-10.7877
▁mechanism	-10.7877
▁merriwether	-10.7877
▁miriam	-10.7877
▁montana	-10.7877
▁monument	-10.7877
▁moonbeam	-10.7877
▁mystery	-10.7877
▁naboombu	-10.7877
▁neutron	-10.7877
▁nitwit	-10.7877
▁novak	-10.7877
▁offense	-10.7877
▁orchestra	-10.7877
▁pajamas	-10.7877
▁paradise	-10.7877
▁pawprint	-10.7877
▁peanut	-10.7877
▁philosoph	-10.7877
▁pimple	-10.7877
▁poetry	-10.7877
▁practicing	-10.7877
▁proposition	-10.7877
▁prussia	-10.7877
▁reaction	-10.7877
▁residence	-10.7877
▁restaurant	-10.7877
▁rheinburg	-10.7877
▁routine	-10.7877
▁sandwich	-10.7877
▁scarecrow	-10.7877
▁schmoopsiepoo	-10.7877
▁scissors	-10.7877
▁scoundrel	-10.7877
▁shakespeare	-10.7877
▁skunk	-10.7877
▁slattery	-10.7877
▁smollett	-10.7877
▁specimen	-10.7877
▁sponsor	-10.7877
▁statue	-10.7877
▁suicide	-10.7877
▁sushi	-10.7877
▁swept	-10.7877
▁swift	-10.7877
▁temperature	-10.7877
▁tremble	-10.7877
▁tweettweet	-10.7877
▁typical	-10.7877
▁understood	-10.7877
▁vanavond	-10.7877
▁vengeance	-10.7877
▁warthog	-10.7877
▁wrinkle	-10.7877
▁wristwatch	-10.7877
▁yikes	-10.7877
▁akita	-10.7877
▁athens	-10.7877
▁attitude	-10.7877
▁banner	-10.7877
▁betray	-10.7877
▁clutch	-10.7877
▁comrade	-10.7877
▁donnie	-10.7877
▁evillene	-10.7877
▁fauna	-10.7877
▁genoeg	-10.7877
▁length	-10.7877
▁leroy	-10.7877
▁malone	-10.7877
▁napkin	-10.7877
▁nigel	-10.7877
▁quacking	-10.7877
▁refund	-10.7877
▁rouge	-10.7877
▁rusteze	-10.7877
▁satisfact	-10.7877
▁shaft	-10.7877
▁southwest	-10.7877
▁stray	-10.7877
▁umpire	-10.7877
▁unfair	-10.7877
▁violin	-10.7877
crumpet	-10.7877
▁affirmative	-10.7877
▁canyon	-10.7877
▁deliberately	-10.7877
▁guv	-10.7877
▁harbor	-10.7877
▁masseur	-10.7877
▁parlor	-10.7877
▁peddler	-10.7877
▁piano	-10.7877
▁sleeve	-10.7877
▁sworn	-10.7877
▁tread	-10.7877
▁evermean	-10.7877
▁fittin	-10.7877
▁pavement	-10.7877
▁sausage	-10.7877
▁shift	-10.7877
icipat	-10.7877
▁monstro	-10.7877
▁yipe	-10.7877
▁antares	-10.7877
▁arena	-10.7877
▁decree	-10.7877
▁ellie	-10.7877
▁puny	-10.7877
▁ralfi	-10.7877
▁rifle	-10.7877
▁salute	-10.7877
▁shrink	-10.7877
▁swimming	-10.7877
▁attend	-10.7877
▁conceal	-10.7877
▁console	-10.7877
▁curve	-10.7877
▁harmony	-10.7877
▁visual	-10.7877
▁haynes	-10.7877
▁steam	-10.7877
▁tiara	-10.7877
▁vendor	-10.7877
▁captn	-10.7877
▁kidnapping	-10.7877
▁molest	-10.7877
▁staging	-10.7877
▁merit	-10.7877
▁staat	-10.7877
▁barbershop	-10.7877
▁changing	-10.7877
▁method	-10.7877
▁zorg	-10.7877
▁lyyal	-10.7878
▁explore	-10.7878
▁beaver	-10.7878
▁casual	-10.7878
▁cheeks	-10.7878
▁estate	-10.7878
▁margaretta	-10.7878
▁alaka	-10.7878
▁atom	-10.7878
▁pretties	-10.7878
▁wiring	-10.7878
▁flirt	-10.7878
▁glitter	-10.7878
▁sheets	-10.7878
▁daresay	-10.7878
▁occupied	-10.7878
▁carlyle	-10.7878
▁stowed	-10.7878
▁whisky	-10.7878
▁mood	-10.7878
▁alien	-10.7878
▁lizard	-10.7878
▁drift	-10.7878
▁spinning	-10.7878
▁roast	-10.7878
▁bulb	-10.7878
▁stale	-10.7878
▁ferry	-10.7878
▁polite	-10.7878
▁blond	-10.7878
▁phony	-10.7878
▁recall	-10.7878
▁committee	-10.7878
▁molecul	-10.7878
▁resume	-10.7878
▁frozen	-10.7878
▁bluff	-10.7878
▁purple	-10.7878
▁blimp	-10.7878
▁asia	-10.7878
▁shovel	-10.7878
▁fried	-10.7878
▁inferior	-10.7878
▁kidnapped	-10.7878
▁amigo	-10.7878
▁youngsters	-10.7878
▁insect	-10.7878
▁damage	-10.7878
▁emmie	-10.7878
▁hardboiled	-10.7878
▁shiny	-10.7878
▁ponti	-10.7878
▁principal	-10.7878
▁wallpaper	-10.7879
▁plaster	-10.7879
▁øùøøù	-10.7879
▁ladder	-10.7879
ooey	-10.7879
▁iq	-10.7879
examine	-10.7879
▁pedi	-10.7879
▁mittens	-10.7879
▁limit	-10.7879
▁creek	-10.7879
▁colour	-10.7879
▁angle	-10.7879
▁bacon	-10.7879
▁sterno	-10.7879
▁disgusting	-10.7879
ecture	-10.7879
▁smack	-10.7879
▁poem	-10.7879
neously	-10.7879
▁cooperation	-10.7879
▁source	-10.7879
▁audition	-10.7879
▁eerst	-10.7879
▁buggy	-10.7879
▁leagues	-10.7879
▁knot	-10.7879
▁mysti	-10.7879
▁shack	-10.788
▁denk	-10.788
▁memories	-10.788
▁backwards	-10.788
▁creative	-10.788
▁ripped	-10.788
▁oblige	-10.788
▁awhile	-10.788
▁roei	-10.788
▁potent	-10.788
▁spoon	-10.788
▁devot	-10.7881
rados	-10.7881
▁couch	-10.7881
▁delightful	-10.7881
▁hynky	-10.7881
▁blake	-10.7881
▁lena	-10.7881
▁liever	-10.7881
▁ooo	-10.7881
▁adam	-10.7881
▁eww	-10.7881
▁pluck	-10.7881
▁rising	-10.7881
▁yodel	-10.7881
▁texan	-10.7881
▁complicated	-10.7882
▁tuck	-10.7882
▁bayou	-10.7882
▁kettle	-10.7882
▁scout	-10.7882
▁stunt	-10.7882
▁scur	-10.7882
▁cupboard	-10.7882
▁molly	-10.7883
▁slop	-10.7883
▁punk	-10.7883
▁snoo	-10.7883
▁oven	-10.7883
▁dacht	-10.7883
▁cuff	-10.7883
▁positive	-10.7883
▁division	-10.7883
▁carriage	-10.7884
▁hunk	-10.7884
▁pork	-10.7884
▁hags	-10.7884
elcom	-10.7884
▁troupe	-10.7884
▁mechanical	-10.7884
▁fiend	-10.7884
▁øùùù	-10.7884
▁wilson	-10.7884
▁øùøø	-10.7884
lapping	-10.7884
▁football	-10.7884
▁bonus	-10.7885
ixie	-10.7885
▁roz	-10.7885
▁cda	-10.7885
▁cutoff	-10.7885
▁crust	-10.7885
▁egyptian	-10.7885
▁bible	-10.7885
▁tex	-10.7885
▁shotgun	-10.7885
▁wachten	-10.7885
▁expression	-10.7885
▁flock	-10.7885
▁rally	-10.7886
▁argue	-10.7886
▁drank	-10.7886
▁selected	-10.7886
▁laboratory	-10.7887
▁property	-10.7887
▁jewelry	-10.7887
▁invi	-10.7887
▁fuse	-10.7888
▁barge	-10.7888
▁despi	-10.7888
▁geese	-10.7888
▁respectable	-10.7889
▁located	-10.7889
▁bait	-10.7889
▁jove	-10.7889
▁harmless	-10.7889
zam	-10.789
▁dover	-10.7891
▁neem	-10.7891
▁muff	-10.7891
▁considerable	-10.7891
▁mask	-10.7892
▁probe	-10.7892
▁tomb	-10.7892
▁romance	-10.7892
▁solo	-10.7892
▁radiation	-10.7893
▁indivi	-10.7893
▁agh	-10.7893
▁alas	-10.7894
▁fungus	-10.7894
▁plug	-10.7894
▁soil	-10.7894
▁krijgen	-10.7895
▁redden	-10.7895
▁prop	-10.7895
▁sickness	-10.7895
▁hyper	-10.7895
▁teasing	-10.7896
▁borrowers	-10.7897
▁chemistry	-10.7897
▁policeman	-10.7898
▁tada	-10.7898
▁recovery	-10.7899
▁anders	-10.79
▁mannen	-10.7901
▁makin	-10.7902
▁convinced	-10.7904
▁reck	-10.7905
▁tones	-10.7905
▁bedtime	-10.7905
▁explode	-10.7905
▁lamp	-10.7905
▁boiling	-10.7905
▁bumper	-10.7906
▁heet	-10.7906
▁cts	-10.7907
▁drum	-10.7907
alpur	-10.7908
▁fastball	-10.7908
▁crater	-10.791
mobile	-10.7911
▁lever	-10.7912
▁rebel	-10.7912
▁press	-10.7913
▁robbie	-10.7913
▁lala	-10.7913
▁gig	-10.7913
▁techniques	-10.7913
▁booster	-10.7913
▁maple	-10.7916
▁ross	-10.7916
▁vow	-10.7917
▁blackout	-10.7917
▁anger	-10.7918
▁consult	-10.7918
▁phil	-10.7919
▁threaten	-10.792
▁geef	-10.792
▁adopted	-10.7922
▁possessed	-10.7922
hauling	-10.7922
▁setup	-10.7923
ically	-10.7927
▁effect	-10.7927
▁replaced	-10.7927
▁assumed	-10.7927
▁guaranteed	-10.7927
▁separated	-10.7927
▁pants	-10.7927
▁distract	-10.7928
▁shod	-10.7929
▁jessie	-10.793
unty	-10.7931
▁thus	-10.7932
▁oi	-10.7934
▁stolen	-10.7934
▁creepy	-10.7936
▁nasa	-10.7937
▁activated	-10.7939
▁sealed	-10.794
▁boost	-10.7941
▁birdie	-10.7942
▁cursed	-10.7942
▁alm	-10.7942
▁plank	-10.7947
▁wounded	-10.7947
▁required	-10.795
▁pl	-10.795
▁oohooh	-10.7953
▁owie	-10.7953
rif	-10.7954
▁fireman	-10.7955
▁released	-10.7957
▁squeakin	-10.7957
▁admired	-10.7958
isle	-10.796
▁informed	-10.796
▁thee	-10.7962
▁favour	-10.7963
▁disc	-10.7963
▁director	-10.7968
▁badge	-10.7972
▁suffered	-10.7973
infe	-10.7975
▁inhales	-10.7976
▁refused	-10.798
▁spared	-10.798
▁careless	-10.7983
yo	-10.7983
▁farman	-10.7983
▁gain	-10.7985
▁granted	-10.7985
▁coordinate	-10.7986
▁failed	-10.7987
▁meantime	-10.7987
▁respectful	-10.799
▁pouring	-10.7992
▁frightening	-10.7992
▁caesarion	-10.7998
▁host	-10.8003
▁wal	-10.8006
▁complaining	-10.8007
ku	-10.8011
▁ascen	-10.802
plication	-10.8024
▁trumpets	-10.8039
▁relations	-10.8039
▁turtles	-10.8039
▁dri	-10.8039
▁colts	-10.8042
uda	-10.8055
▁wearin	-10.8062
▁acr	-10.8063
▁appreciated	-10.8064
▁naam	-10.8065
▁touches	-10.8068
snip	-10.8074
▁safer	-10.8075
▁ave	-10.8079
▁whoop	-10.809
▁laughin	-10.809
▁blar	-10.8093
▁pond	-10.8099
▁helpful	-10.8099
▁candles	-10.8103
▁curtains	-10.8103
▁inventions	-10.8104
acco	-10.8106
▁armor	-10.8111
imate	-10.8111
▁tearing	-10.8113
▁warmer	-10.8124
ient	-10.8125
▁accounting	-10.8129
▁bend	-10.8134
▁robb	-10.814
woord	-10.8141
▁poll	-10.815
▁walkin	-10.8153
▁entered	-10.8153
▁strawberr	-10.8165
▁scientists	-10.8168
▁spiders	-10.8168
▁worden	-10.8174
▁deca	-10.8175
▁stepp	-10.8177
▁easter	-10.8185
▁lag	-10.8187
▁beer	-10.8192
▁litter	-10.8195
▁laten	-10.8202
▁fearful	-10.8208
▁dared	-10.8216
▁longest	-10.8217
▁differently	-10.8217
▁gladly	-10.8227
▁cul	-10.8227
▁princesses	-10.8231
▁recording	-10.8233
▁ambitions	-10.8234
pat	-10.8247
▁cracking	-10.8252
▁visiting	-10.8256
▁fla	-10.828
▁bothered	-10.8281
▁hooked	-10.8283
▁attacking	-10.8288
▁touchy	-10.8293
▁brats	-10.83
▁sneezes	-10.83
▁drawing	-10.8302
▁enjoying	-10.8304
▁farmers	-10.831
orrow	-10.8312
iff	-10.8318
▁rely	-10.8319
▁buzzin	-10.833
erman	-10.8334
▁protecting	-10.8335
▁zul	-10.8339
take	-10.8344
▁marching	-10.8351
▁counter	-10.8357
lier	-10.8371
titi	-10.8372
▁lined	-10.8394
▁wordt	-10.8434
licht	-10.8444
▁por	-10.8466
▁chest	-10.8527
▁fir	-10.8542
▁beaut	-10.8554
root	-10.8569
▁hut	-10.8595
pose	-10.8596
after	-10.8622
▁nin	-10.8625
ika	-10.8646
▁bert	-10.8749
emer	-10.8749
▁ann	-10.8758
your	-10.8758
▁indicate	-10.8759
mma	-10.8776
▁boog	-10.8822
▁truthful	-10.8825
▁stai	-10.8825
▁kap	-10.8841
shore	-10.8867
lies	-10.8868
hoo	-10.8888
burg	-10.8894
rasp	-10.8929
wij	-10.8941
▁johnn	-10.895
with	-10.8988
▁calv	-10.9026
witte	-10.9054
ik	-10.9155
lot	-10.918
sure	-10.9208
▁imagin	-10.9225
▁pete	-10.9261
elijk	-10.9269
aria	-10.9279
▁fac	-10.9305
hr	-10.9344
itch	-10.9369
▁bio	-10.9384
▁ùøùø	-10.9421
▁divide	-10.9505
▁splu	-10.9541
pair	-10.9559
▁writ	-10.9576
arte	-10.9587
rad	-10.9609
▁anti	-10.961
▁bil	-10.9611
▁stor	-10.9697
▁shovin	-10.9699
upper	-10.9702
▁intr	-10.9762
▁digest	-10.9784
urt	-10.979
▁hocke	-10.9802
delen	-10.9814
▁tool	-10.9877
active	-10.9928
▁how	-10.9934
ney	-10.9973
▁mustang	-10.9981
rec	-11.0035
ology	-11.0037
▁grunt	-11.0057
▁hee	-11.0065
▁candle	-11.0091
▁curtain	-11.0095
▁invention	-11.0102
▁cricket	-11.0106
▁weapon	-11.0108
▁troop	-11.0114
▁astronaut	-11.0115
▁wanne	-11.0119
▁moral	-11.0119
▁degree	-11.0127
▁oar	-11.0136
▁dollar	-11.0138
▁legion	-11.0155
drops	-11.0158
sions	-11.0158
boy	-11.017
ocking	-11.0171
anger	-11.0214
q	-11.0229
ative	-11.025
▁enchant	-11.0254
▁flee	-11.0256
teen	-11.0268
▁hob	-11.027
icu	-11.027
▁if	-11.0272
ynch	-11.0272
▁clo	-11.0274
ako	-11.028
too	-11.0289
▁escap	-11.0302
▁clot	-11.0303
burn	-11.0307
▁rehears	-11.0308
▁brit	-11.0308
enne	-11.031
▁creak	-11.0312
sky	-11.032
▁adopt	-11.0322
▁exhaust	-11.0322
piece	-11.0329
standing	-11.0331
paper	-11.0331
storm	-11.0332
▁possess	-11.0332
collect	-11.0332
class	-11.0333
glass	-11.0333
broken	-11.0333
country	-11.0333
▁phila	-11.0333
job	-11.0333
around	-11.0333
life	-11.0334
water	-11.0334
good	-11.0335
lock	-11.0335
atched	-11.0335
▁squa	-11.0335
▁squaw	-11.0335
▁bark	-11.0339
bridge	-11.0342
plus	-11.0343
▁convince	-11.0343
ria	-11.0344
▁sentence	-11.0351
▁recover	-11.0351
▁investigat	-11.0352
etti	-11.0353
▁quart	-11.0354
▁incredibl	-11.0354
▁ado	-11.0356
▁quot	-11.0357
▁tract	-11.036
▁rig	-11.036
▁atlant	-11.0362
▁waltz	-11.0364
▁heave	-11.0366
▁relat	-11.0366
▁mechanic	-11.0369
▁pisto	-11.0369
▁lioness	-11.037
▁wacht	-11.037
▁fift	-11.0371
▁destruct	-11.0371
▁product	-11.0372
▁shinin	-11.0372
▁harv	-11.0372
▁lightnin	-11.0373
minded	-11.0373
▁magn	-11.0373
▁depart	-11.0374
▁tempt	-11.0375
itat	-11.0375
▁corona	-11.0376
nhales	-11.0376
▁guil	-11.0376
cept	-11.0377
▁merchan	-11.0377
rhaps	-11.0377
▁represent	-11.0377
▁electro	-11.0377
▁israel	-11.0377
▁overload	-11.0377
▁proclaim	-11.0377
▁recruit	-11.0377
▁refurbish	-11.0377
aphat	-11.0377
forsaken	-11.0377
tribute	-11.0377
▁absurd	-11.0377
▁accelerat	-11.0377
▁access	-11.0377
▁africa	-11.0377
▁allergy	-11.0377
▁amateur	-11.0377
▁ancestors	-11.0377
▁antiquities	-11.0377
▁apollodorus	-11.0377
▁appetite	-11.0377
▁apprentice	-11.0377
▁appropriate	-11.0377
▁approval	-11.0377
▁aristotle	-11.0377
▁arriving	-11.0377
▁artificial	-11.0377
▁artillery	-11.0377
▁assault	-11.0377
▁assignment	-11.0377
▁assistance	-11.0377
▁attorney	-11.0377
▁autopsy	-11.0377
▁avenue	-11.0377
▁balthasar	-11.0377
▁bashful	-11.0377
▁beloof	-11.0377
▁blackguard	-11.0377
▁brace	-11.0377
▁brigade	-11.0377
▁brunette	-11.0377
▁bruzzie	-11.0377
▁buccaneer	-11.0377
▁butbut	-11.0377
▁carpetbagger	-11.0377
▁caterpillar	-11.0377
▁catullus	-11.0377
▁chamber	-11.0377
▁chestnut	-11.0377
▁civilization	-11.0377
▁cogsworth	-11.0377
▁competitive	-11.0377
▁competitor	-11.0377
▁conduct	-11.0377
▁congratulate	-11.0377
▁conscious	-11.0377
▁continent	-11.0377
▁conviction	-11.0377
▁counsel	-11.0377
▁crunch	-11.0377
▁daffodil	-11.0377
▁damascus	-11.0377
▁darrell	-11.0377
▁delicate	-11.0377
▁dialect	-11.0377
▁doorknobs	-11.0377
▁dubois	-11.0377
▁embrace	-11.0377
▁energetic	-11.0377
▁enslave	-11.0377
▁epstein	-11.0377
▁evolved	-11.0377
▁explosion	-11.0377
▁explosive	-11.0377
▁eynsfordhill	-11.0377
▁feature	-11.0377
▁fernando	-11.0377
▁ferocious	-11.0377
▁ferrari	-11.0377
▁fiddledeedee	-11.0377
▁forecast	-11.0377
▁francois	-11.0377
▁fujim	-11.0377
▁giddyap	-11.0377
▁girlfriend	-11.0377
▁grandchildren	-11.0377
▁greatgreat	-11.0377
▁griffiths	-11.0377
▁hometown	-11.0377
▁horror	-11.0377
▁horsepower	-11.0377
▁immune	-11.0377
▁incompetent	-11.0377
▁injury	-11.0377
▁intimidat	-11.0377
▁jettison	-11.0377
▁karpathy	-11.0377
▁khalil	-11.0377
▁lemonade	-11.0377
▁meowth	-11.0377
▁minister	-11.0377
▁mithradates	-11.0377
▁mwah	-11.0377
▁naughty	-11.0377
▁ninevites	-11.0377
▁nowadays	-11.0377
▁oclock	-11.0377
▁odlayeeee	-11.0377
▁oregon	-11.0377
▁phenomenon	-11.0377
▁poppycock	-11.0377
▁pothinus	-11.0377
▁procedure	-11.0377
▁propeller	-11.0377
▁religion	-11.0377
▁resource	-11.0377
▁riffraff	-11.0377
▁salzburg	-11.0377
▁savanna	-11.0377
▁scheepsmakkers	-11.0377
▁schnitzel	-11.0377
▁sensible	-11.0377
▁september	-11.0377
▁shawl	-11.0377
▁shellshocker	-11.0377
▁shepherd	-11.0377
▁shrieks	-11.0377
▁shucks	-11.0377
▁shudder	-11.0377
▁slumber	-11.0377
▁sneads	-11.0377
▁soccer	-11.0377
▁solitary	-11.0377
▁somewhat	-11.0377
▁sparrow	-11.0377
▁spectators	-11.0377
▁stammers	-11.0377
▁strategy	-11.0377
▁subconscious	-11.0377
▁surveillance	-11.0377
▁survivor	-11.0377
▁suspicious	-11.0377
▁swallowed	-11.0377
▁toxic	-11.0377
▁trajectory	-11.0377
▁treason	-11.0377
▁unafraid	-11.0377
▁undeservin	-11.0377
▁unexpected	-11.0377
▁unprepared	-11.0377
▁virtue	-11.0377
▁viscount	-11.0377
▁volume	-11.0377
▁warfare	-11.0377
▁wilkerson	-11.0377
▁willothewisp	-11.0377
▁winifred	-11.0377
▁withdraw	-11.0377
▁zeelui	-11.0377
▁zombified	-11.0377
▁ùøaøøøø	-11.0377
▁accompan	-11.0377
▁antenna	-11.0377
▁aroma	-11.0377
▁chariot	-11.0377
▁cicero	-11.0377
▁cramp	-11.0377
▁crisp	-11.0377
▁decency	-11.0377
▁departure	-11.0377
▁gloat	-11.0377
▁heartache	-11.0377
▁ladybug	-11.0377
▁milton	-11.0377
▁operator	-11.0377
▁pilate	-11.0377
▁policy	-11.0377
▁proposal	-11.0377
▁refresh	-11.0377
▁reserve	-11.0377
▁revenge	-11.0377
▁shatter	-11.0377
▁shortcut	-11.0377
▁wharton	-11.0377
thirsty	-11.0377
▁anchor	-11.0377
▁blockade	-11.0377
▁deceive	-11.0377
▁dentist	-11.0377
▁dexter	-11.0377
▁drapes	-11.0377
▁eleven	-11.0377
▁false	-11.0377
▁franz	-11.0377
▁grocer	-11.0377
▁harris	-11.0377
▁importance	-11.0377
▁install	-11.0377
▁mmmmmm	-11.0377
▁period	-11.0377
▁strand	-11.0377
▁virginia	-11.0377
▁article	-11.0377
▁echoe	-11.0377
▁skir	-11.0377
inspiring	-11.0377
▁adult	-11.0377
▁butterfly	-11.0377
▁decim	-11.0377
▁denver	-11.0377
▁riddance	-11.0377
▁slept	-11.0377
▁survey	-11.0377
▁velia	-11.0377
▁arab	-11.0377
▁cindy	-11.0377
▁clicking	-11.0377
▁grove	-11.0377
▁harold	-11.0377
▁mourn	-11.0377
▁seattle	-11.0377
▁utah	-11.0377
▁beggar	-11.0377
▁flesh	-11.0377
▁satisfy	-11.0377
▁amusing	-11.0377
▁instructions	-11.0377
▁postpone	-11.0377
▁steak	-11.0377
▁stip	-11.0377
▁wheat	-11.0377
▁devon	-11.0377
▁peep	-11.0377
▁octo	-11.0377
▁gasket	-11.0377
▁edwin	-11.0378
▁harness	-11.0378
arnished	-11.0378
▁harsh	-11.0378
▁prevent	-11.0378
▁washington	-11.0378
▁disarm	-11.0378
▁austin	-11.0378
▁illegal	-11.0378
▁reform	-11.0378
▁ankle	-11.0378
▁daniel	-11.0378
▁ooooh	-11.0378
▁opinion	-11.0378
renade	-11.0378
enoid	-11.0378
▁freezing	-11.0378
▁fulfill	-11.0378
▁gambl	-11.0378
▁distinct	-11.0378
▁snarl	-11.0378
▁sincerely	-11.0378
▁intrude	-11.0378
▁shilling	-11.0378
▁holler	-11.0378
▁ligt	-11.0378
▁begging	-11.0378
▁community	-11.0378
▁phonetics	-11.0378
▁gym	-11.0378
▁italy	-11.0378
▁soaring	-11.0378
▁øùøùøø	-11.0378
▁grinding	-11.0378
▁rugged	-11.0378
solution	-11.0378
▁whoaoh	-11.0378
▁merchandis	-11.0378
▁yuk	-11.0378
▁barbarian	-11.0378
▁microphone	-11.0378
▁whirl	-11.0378
▁coils	-11.0378
▁brow	-11.0378
▁forbidden	-11.0378
spreken	-11.0378
▁executive	-11.0378
▁hampshire	-11.0378
▁handkerchief	-11.0378
▁reeled	-11.0378
▁microns	-11.0378
▁uglie	-11.0378
▁venture	-11.0378
▁hulot	-11.0378
▁garlic	-11.0378
▁deservin	-11.0378
▁matchmouth	-11.0378
▁breeze	-11.0378
▁bingo	-11.0378
▁graveyard	-11.0378
▁bullpen	-11.0378
▁yoshi	-11.0378
▁widowmaker	-11.0378
▁brazil	-11.0378
▁buzzards	-11.0378
▁civilian	-11.0378
▁plung	-11.0378
▁thorn	-11.0378
▁tragic	-11.0378
▁stanley	-11.0378
▁climate	-11.0379
▁persecution	-11.0379
▁chopped	-11.0379
▁expand	-11.0379
▁trunk	-11.0379
▁sooth	-11.0379
▁automatically	-11.0379
▁snug	-11.0379
▁crab	-11.0379
▁increase	-11.0379
▁fork	-11.0379
▁coronary	-11.0379
▁gelo	-11.0379
fraction	-11.0379
▁popping	-11.0379
▁transferring	-11.0379
▁dizzy	-11.0379
▁q	-11.0379
▁delegat	-11.0379
▁operate	-11.0379
▁medicat	-11.038
▁offend	-11.038
▁yank	-11.038
▁donut	-11.038
▁darlin	-11.038
▁dutch	-11.038
▁decade	-11.038
▁online	-11.038
▁burden	-11.038
ssels	-11.038
▁begged	-11.038
▁provo	-11.038
▁twig	-11.038
▁terms	-11.038
▁barber	-11.038
▁flapping	-11.0381
pathetic	-11.0381
▁nick	-11.0381
▁saloon	-11.0381
▁oppose	-11.0381
▁appel	-11.0381
▁chart	-11.0381
▁sissy	-11.0381
▁puzzle	-11.0381
▁hotdog	-11.0382
▁binnen	-11.0382
▁apologies	-11.0382
▁liquor	-11.0382
▁surter	-11.0382
▁countries	-11.0382
▁blend	-11.0382
▁barrel	-11.0382
▁punishment	-11.0382
▁bullet	-11.0382
▁overseer	-11.0382
▁grit	-11.0383
▁unlock	-11.0383
▁tolera	-11.0383
tually	-11.0383
▁donation	-11.0383
ligible	-11.0383
▁funding	-11.0383
▁rumble	-11.0383
▁poop	-11.0383
▁lndia	-11.0383
▁fever	-11.0383
▁trim	-11.0383
▁cabinet	-11.0384
▁production	-11.0384
▁wwhat	-11.0384
▁unwind	-11.0384
▁gangway	-11.0384
▁silen	-11.0384
▁puff	-11.0384
▁rustling	-11.0385
▁schieten	-11.0385
▁confuse	-11.0385
▁stiff	-11.0385
▁jehos	-11.0385
▁satisfied	-11.0385
▁significan	-11.0385
▁convenien	-11.0386
▁france	-11.0386
▁stall	-11.0386
▁butch	-11.0387
▁wrapped	-11.0387
▁thoroughly	-11.0387
▁snel	-11.0387
▁oooh	-11.0387
▁authority	-11.0387
▁cooperate	-11.0388
▁stew	-11.0389
▁arrangement	-11.0389
▁whoosh	-11.0389
▁loop	-11.0389
▁lemon	-11.0389
▁ego	-11.039
▁beings	-11.039
▁meaningless	-11.039
▁activity	-11.039
▁shant	-11.039
▁neat	-11.039
▁yup	-11.039
▁cuttin	-11.039
▁weakness	-11.039
▁admitted	-11.0391
▁protective	-11.0391
▁damp	-11.0391
▁biz	-11.0391
▁wore	-11.0392
▁suspe	-11.0392
▁automatic	-11.0393
▁fake	-11.0394
▁royalty	-11.0394
trak	-11.0395
▁cure	-11.0395
abber	-11.0395
wn	-11.0396
▁afge	-11.0396
▁detonat	-11.0396
dog	-11.0396
▁ramp	-11.0396
gulls	-11.0396
▁scent	-11.0397
antom	-11.0397
▁subtl	-11.0397
▁blush	-11.0397
▁kust	-11.0398
reak	-11.0398
atsu	-11.0399
▁theory	-11.0399
▁struck	-11.04
▁astro	-11.04
▁mimi	-11.04
oever	-11.0401
▁cmp	-11.0401
▁hiya	-11.0402
▁marc	-11.0402
▁sack	-11.0402
▁superst	-11.0403
▁accomplished	-11.0403
▁investigate	-11.0403
burne	-11.0403
▁cargo	-11.0404
▁plumb	-11.0404
▁worthless	-11.0405
▁zeke	-11.0405
▁sep	-11.0406
▁halen	-11.0406
▁clearance	-11.0406
▁kanon	-11.0407
▁emily	-11.0408
▁stil	-11.0409
▁goud	-11.0409
▁pear	-11.0409
▁gul	-11.041
▁potion	-11.041
▁liable	-11.0412
▁rex	-11.0414
pad	-11.0415
▁presentation	-11.0416
eeeee	-11.0416
▁idiotic	-11.0418
▁whine	-11.0418
ency	-11.0418
▁ingen	-11.0419
▁sabotaged	-11.0419
bert	-11.0419
▁losin	-11.0421
▁pup	-11.0422
refined	-11.0423
▁lovelies	-11.0424
▁travelers	-11.0424
▁auntie	-11.0424
▁git	-11.0425
▁scarers	-11.0426
▁puttin	-11.0426
izzy	-11.0426
▁sour	-11.0429
▁rump	-11.0433
▁vial	-11.0434
▁dump	-11.0435
▁shred	-11.0435
▁alan	-11.0435
▁heroes	-11.0435
▁misty	-11.0435
▁hunger	-11.0435
▁buster	-11.0436
▁zone	-11.0437
▁perf	-11.0441
▁criticize	-11.0442
▁mayday	-11.0443
▁crashes	-11.0443
▁humanity	-11.0444
▁matey	-11.0446
▁arr	-11.0446
▁creaking	-11.0448
▁rehearsing	-11.0448
hole	-11.0449
▁const	-11.0449
▁mash	-11.045
▁enchanting	-11.0451
solving	-11.0451
▁hack	-11.0452
▁interrupted	-11.0453
▁requested	-11.0453
▁complaint	-11.0455
▁eternal	-11.0456
▁morgen	-11.0458
▁mares	-11.0461
▁takeoff	-11.0463
▁declared	-11.0465
▁piraten	-11.0466
▁lang	-11.0466
▁sighing	-11.047
▁seal	-11.0473
▁batter	-11.0475
▁hopeless	-11.0476
▁baked	-11.0476
▁businessman	-11.0485
▁pho	-11.0487
▁amp	-11.0488
▁backside	-11.049
▁introduced	-11.0492
▁hypo	-11.0496
▁pm	-11.05
▁jar	-11.0503
▁performed	-11.0503
▁stirr	-11.0503
antic	-11.0505
▁nailed	-11.0505
▁peach	-11.0505
▁demanding	-11.0508
biology	-11.051
▁juggl	-11.0511
▁lure	-11.0511
▁spe	-11.0511
▁laden	-11.0513
▁jailer	-11.0514
▁embarrassed	-11.052
ltan	-11.0529
▁visitor	-11.0531
▁awaiting	-11.0532
øøøøù	-11.0533
▁bestow	-11.0536
▁ahha	-11.0537
▁union	-11.0537
▁shocked	-11.0538
▁pitcher	-11.0538
▁flipp	-11.054
▁bookkeep	-11.0542
▁chased	-11.0543
▁beth	-11.0543
▁smarter	-11.0544
dler	-11.0545
▁manny	-11.0547
▁intended	-11.0554
achy	-11.0557
▁lame	-11.0561
oi	-11.0562
▁hobb	-11.0562
hara	-11.0563
▁depending	-11.0565
▁conc	-11.0565
bell	-11.0568
▁seeking	-11.0569
▁leaning	-11.0569
latin	-11.0569
▁shocking	-11.0571
▁ducky	-11.0572
▁sucker	-11.0575
▁floating	-11.0577
▁why	-11.0582
▁apolog	-11.0585
▁awaken	-11.0586
▁of	-11.0588
▁homeless	-11.06
▁bubble	-11.0601
▁nearer	-11.0607
zicht	-11.0612
▁hig	-11.0617
▁realm	-11.0624
▁bumbl	-11.0629
lined	-11.063
platter	-11.0636
rby	-11.0636
honour	-11.0636
▁deeper	-11.0641
houden	-11.0648
▁ew	-11.0651
itching	-11.0665
▁idle	-11.067
▁admire	-11.0672
▁iv	-11.0678
arse	-11.0679
▁trou	-11.068
▁cruci	-11.0686
▁bacteria	-11.0695
▁painful	-11.07
resolved	-11.0723
▁jamm	-11.0731
▁becom	-11.0738
▁reminded	-11.0742
▁upp	-11.0761
▁computerize	-11.0771
▁historical	-11.0775
▁kneel	-11.0782
was	-11.0789
nows	-11.0794
▁bored	-11.0838
▁gener	-11.0878
▁babbl	-11.0879
bric	-11.0885
▁victoria	-11.0911
za	-11.0982
▁whim	-11.0999
yde	-11.1006
eau	-11.1033
ancy	-11.1065
▁commentar	-11.1075
nning	-11.1083
▁plott	-11.1093
▁crocke	-11.1114
rius	-11.1145
▁overhea	-11.1207
right	-11.1215
pence	-11.1299
▁carolin	-11.1312
▁wwe	-11.1393
▁provin	-11.1404
pho	-11.147
▁øùøùø	-11.1478
▁mel	-11.1508
ployment	-11.151
▁sniffl	-11.1513
▁bron	-11.153
▁clin	-11.1539
▁kok	-11.1556
▁author	-11.1572
▁kre	-11.1619
▁rec	-11.1818
▁neer	-11.1838
mit	-11.1852
bel	-11.1947
notic	-11.1954
▁shr	-11.2048
urdy	-11.2099
ella	-11.2119
ckle	-11.2127
▁troph	-11.2134
ppy	-11.2153
▁cru	-11.218
▁bak	-11.2253
▁archi	-11.2273
kind	-11.2301
egra	-11.236
pher	-11.2426
list	-11.2444
clear	-11.2475
uffle	-11.248
oohoo	-11.2574
▁maak	-11.259
lves	-11.2657
halt	-11.2715
▁sau	-11.2726
saur	-11.2727
will	-11.2731
▁equal	-11.2764
most	-11.2768
▁ru	-11.2811
▁ùùøù	-11.284
axe	-11.2841
▁geva	-11.2849
gne	-11.2861
▁reli	-11.2863
▁gil	-11.29
▁app	-11.292
▁sue	-11.2982
derm	-11.3092
▁doubl	-11.3133
ittering	-11.3176
▁victor	-11.3198
mag	-11.3214
▁ùøùù	-11.3222
▁bore	-11.324
ware	-11.324
▁cana	-11.3255
iden	-11.3264
▁illustr	-11.3295
ume	-11.331
session	-11.3325
▁vai	-11.3339
ittle	-11.3342
eight	-11.3345
agging	-11.3358
itters	-11.3361
ailed	-11.3365
ipped	-11.3372
ockety	-11.3391
▁sni	-11.3412
▁turtle	-11.3429
▁passenger	-11.3436
▁citizen	-11.3436
▁relation	-11.3437
▁brake	-11.3437
▁neighbor	-11.3439
▁trumpet	-11.3445
▁hyena	-11.3446
flat	-11.3463
▁nik	-11.3469
▁colt	-11.3508
aah	-11.3528
bbling	-11.3547
mega	-11.3568
▁stir	-11.3577
aviar	-11.3579
hoohoohoo	-11.3581
▁demo	-11.3592
nkers	-11.3595
▁confus	-11.3598
dust	-11.3602
▁etern	-11.3607
zoek	-11.3611
▁judg	-11.3623
▁declar	-11.3631
▁funn	-11.3632
▁civil	-11.3641
▁slid	-11.3644
▁imperi	-11.3645
▁murmur	-11.3646
▁pol	-11.3647
▁chirp	-11.3647
corn	-11.3651
▁yahoo	-11.3651
▁sabotag	-11.3653
▁banish	-11.3657
long	-11.3661
haha	-11.3662
▁arrange	-11.3663
talk	-11.3663
scope	-11.3663
definitely	-11.3665
type	-11.3665
pound	-11.3665
øùøù	-11.3665
mouth	-11.3665
grateful	-11.3665
girl	-11.3666
bloomin	-11.3666
hopper	-11.3666
bob	-11.3666
squeak	-11.3666
pants	-11.3666
posts	-11.3667
human	-11.3667
together	-11.3667
birds	-11.3667
walk	-11.3668
liver	-11.3668
left	-11.3668
living	-11.3671
ùøùø	-11.3671
bury	-11.3672
▁doom	-11.3676
master	-11.3677
▁plea	-11.3677
▁determine	-11.3677
think	-11.3678
zero	-11.3678
road	-11.368
▁memor	-11.368
script	-11.3682
sub	-11.3683
▁hawk	-11.3686
▁craz	-11.3687
▁univers	-11.3687
▁prowl	-11.3687
mmhmm	-11.3689
▁clap	-11.369
▁bree	-11.3692
icky	-11.3692
fold	-11.3695
▁blo	-11.3697
chasing	-11.3698
▁abbe	-11.3698
▁achieve	-11.3699
▁jonge	-11.3699
▁cruise	-11.3699
▁thiev	-11.3699
▁schiet	-11.37
ologis	-11.3701
salm	-11.3703
▁flour	-11.3703
▁profi	-11.3703
▁humbl	-11.3703
▁posse	-11.3704
▁easie	-11.3704
▁construct	-11.3705
▁concentrat	-11.3705
▁anythin	-11.3705
while	-11.3706
▁appoint	-11.3706
duction	-11.3706
▁translat	-11.3706
▁kiddin	-11.3708
izzard	-11.3708
▁disgus	-11.3708
▁aqua	-11.371
▁exterminat	-11.371
▁forbid	-11.371
nounce	-11.371
▁attract	-11.371
hearted	-11.371
▁infra	-11.371
gonz	-11.371
ttier	-11.371
▁disrespect	-11.3711
conspicuous	-11.3711
grandmother	-11.3711
greatgrandfather	-11.3711
incarnate	-11.3711
ùùùùùùùùùùùùùù	-11.3711
▁abominable	-11.3711
▁aggressive	-11.3711
▁albatross	-11.3711
▁almighty	-11.3711
▁ambush	-11.3711
▁ammunition	-11.3711
▁antelope	-11.3711
▁approximately	-11.3711
▁aristocrat	-11.3711
▁arrival	-11.3711
▁astounds	-11.3711
▁bachelor	-11.3711
▁background	-11.3711
▁balcony	-11.3711
▁befuddling	-11.3711
▁bellissima	-11.3711
▁bewitch	-11.3711
▁bourbon	-11.3711
▁breach	-11.3711
▁bremerhaven	-11.3711
▁bridesmaid	-11.3711
▁brunhilde	-11.3711
▁buddha	-11.3711
▁butbutbut	-11.3711
▁bypass	-11.3711
▁canidius	-11.3711
▁certificate	-11.3711
▁characteristic	-11.3711
▁charlesworth	-11.3711
▁cigarette	-11.3711
▁clattering	-11.3711
▁cleveland	-11.3711
▁cockroach	-11.3711
▁coconut	-11.3711
▁coincidence	-11.3711
▁conceited	-11.3711
▁contrast	-11.3711
▁corporal	-11.3711
▁cumberland	-11.3711
▁december	-11.3711
▁decorating	-11.3711
▁decorations	-11.3711
▁democracy	-11.3711
▁demonstrate	-11.3711
▁diabolical	-11.3711
▁discomboomerati	-11.3711
▁disconnect	-11.3711
▁disintegrat	-11.3711
▁domesticated	-11.3711
▁droopy	-11.3711
▁echoing	-11.3711
▁eigenaar	-11.3711
▁eliminated	-11.3711
▁emphasis	-11.3711
▁encounter	-11.3711
▁environment	-11.3711
▁escorial	-11.3711
▁firewood	-11.3711
▁fodder	-11.3711
▁fortunetelling	-11.3711
▁fountain	-11.3711
▁frequency	-11.3711
▁gallegher	-11.3711
▁gauges	-11.3711
▁gazelle	-11.3711
▁gedaan	-11.3711
▁geluk	-11.3711
▁gesundheit	-11.3711
▁ghosthunt	-11.3711
▁glacier	-11.3711
▁granddaughter	-11.3711
▁grindstone	-11.3711
▁hallelujah	-11.3711
▁heimlich	-11.3711
▁henderson	-11.3711
▁hillbilly	-11.3711
▁hispaniola	-11.3711
▁hologram	-11.3711
▁horizon	-11.3711
▁humiliated	-11.3711
▁hyperdrive	-11.3711
▁identify	-11.3711
▁inevitabl	-11.3711
▁influenza	-11.3711
▁initiate	-11.3711
▁inquir	-11.3711
▁inspiration	-11.3711
▁institut	-11.3711
▁joppa	-11.3711
▁ketchup	-11.3711
▁kumiko	-11.3711
▁kuzcotopia	-11.3711
▁lefou	-11.3711
▁lincoln	-11.3711
▁lubricat	-11.3711
▁macdougall	-11.3711
▁makebelieve	-11.3711
▁mammoth	-11.3711
▁manufacture	-11.3711
▁marelli	-11.3711
▁mathematics	-11.3711
▁melanchol	-11.3711
▁meself	-11.3711
▁microscan	-11.3711
▁microsecond	-11.3711
▁minimum	-11.3711
▁misjudge	-11.3711
▁mortgage	-11.3711
▁muiterij	-11.3711
▁munchkin	-11.3711
▁museum	-11.3711
▁neglect	-11.3711
▁nickname	-11.3711
▁nominal	-11.3711
▁norwegian	-11.3711
▁obligation	-11.3711
▁obscure	-11.3711
▁obsolete	-11.3711
▁octavian	-11.3711
▁odreary	-11.3711
▁olentiev	-11.3711
▁orleans	-11.3711
▁outcast	-11.3711
▁overeind	-11.3711
▁pancake	-11.3711
▁pantalets	-11.3711
▁pantomim	-11.3711
▁paranoid	-11.3711
▁pellinore	-11.3711
▁perimeter	-11.3711
▁permanent	-11.3711
▁pingpong	-11.3711
▁platform	-11.3711
▁plunder	-11.3711
▁polycron	-11.3711
▁porcupine	-11.3711
▁poultry	-11.3711
▁poysanally	-11.3711
▁precinct	-11.3711
▁prescribe	-11.3711
▁preserve	-11.3711
▁presumptuous	-11.3711
▁pretzel	-11.3711
▁propellant	-11.3711
▁quantrell	-11.3711
▁rattlesnake	-11.3711
▁razor	-11.3711
▁reactor	-11.3711
▁receipt	-11.3711
▁reception	-11.3711
▁recipe	-11.3711
▁reginald	-11.3711
▁relieved	-11.3711
▁rescuing	-11.3711
▁review	-11.3711
▁revolver	-11.3711
▁righteousness	-11.3711
▁roxanne	-11.3711
▁rpms	-11.3711
▁sacramento	-11.3711
▁sapphire	-11.3711
▁scattered	-11.3711
▁schmidt	-11.3711
▁schmoozing	-11.3711
▁seasick	-11.3711
▁seclusion	-11.3711
▁serpentine	-11.3711
▁shanghai	-11.3711
▁simulator	-11.3711
▁sloep	-11.3711
▁smallpox	-11.3711
▁sobbing	-11.3711
▁spanish	-11.3711
▁spitfire	-11.3711
▁stacett	-11.3711
▁stagecoach	-11.3711
▁stammering	-11.3711
▁stepmother	-11.3711
▁succulent	-11.3711
▁surrender	-11.3711
▁survival	-11.3711
▁suspicion	-11.3711
▁swollen	-11.3711
▁symphon	-11.3711
▁synthetic	-11.3711
▁telemetry	-11.3711
▁ticktock	-11.3711
▁tomatoes	-11.3711
▁unconscious	-11.3711
▁undisputed	-11.3711
▁veiligheid	-11.3711
▁velvet	-11.3711
▁verstopt	-11.3711
▁wheelchair	-11.3711
▁wiggle	-11.3711
▁wondrous	-11.3711
▁wrath	-11.3711
▁wrenching	-11.3711
▁wwwhat	-11.3711
▁yarnell	-11.3711
▁yeehaw	-11.3711
▁yorkshire	-11.3711
▁yuck	-11.3711
▁zebra	-11.3711
inhabit	-11.3711
▁auction	-11.3711
▁avoid	-11.3711
▁daydream	-11.3711
▁disrupt	-11.3711
▁heavi	-11.3711
▁interpret	-11.3711
▁issue	-11.3711
▁jeopard	-11.3711
▁ontsnap	-11.3711
▁puck	-11.3711
▁uncertain	-11.3711
▁utiliz	-11.3711
▁vocali	-11.3711
▁zeerovers	-11.3711
▁advertis	-11.3711
▁brink	-11.3711
▁combination	-11.3711
▁commercials	-11.3711
▁cosmic	-11.3711
▁curious	-11.3711
▁dwarfs	-11.3711
▁eileen	-11.3711
▁elizabeth	-11.3711
▁flicker	-11.3711
▁gehad	-11.3711
▁geweest	-11.3711
▁guvnor	-11.3711
▁haircut	-11.3711
▁insulin	-11.3711
▁miguel	-11.3711
▁mislead	-11.3711
▁pencil	-11.3711
▁prestidigitoni	-11.3711
▁pussy	-11.3711
▁robinson	-11.3711
▁sacred	-11.3711
▁salami	-11.3711
▁serene	-11.3711
▁theatre	-11.3711
▁tumble	-11.3711
▁vantino	-11.3711
▁weasel	-11.3711
journe	-11.3711
▁brag	-11.3711
▁buiten	-11.3711
▁channel	-11.3711
▁eerlijk	-11.3711
▁greece	-11.3711
▁identity	-11.3711
▁intolera	-11.3711
▁klop	-11.3711
▁leash	-11.3711
▁puke	-11.3711
▁pulse	-11.3711
▁repay	-11.3711
▁scalp	-11.3711
▁sextus	-11.3711
▁shimmer	-11.3711
▁traitor	-11.3711
▁tribe	-11.3711
▁tulip	-11.3711
▁tyrant	-11.3711
▁variety	-11.3711
▁video	-11.3711
▁zitten	-11.3711
equipped	-11.3711
▁choke	-11.3711
▁distort	-11.3711
▁enhance	-11.3711
▁legacy	-11.3711
▁meichan	-11.3711
▁naartoe	-11.3711
▁phase	-11.3711
▁sizzle	-11.3711
shaped	-11.3711
▁arabians	-11.3711
▁boilils	-11.3711
▁dangling	-11.3711
▁frustrat	-11.3711
▁goldenrod	-11.3711
▁homily	-11.3711
▁infant	-11.3711
▁motorbus	-11.3711
▁retrieve	-11.3711
▁teenager	-11.3711
temporar	-11.3711
▁brent	-11.3711
▁chalk	-11.3711
▁japanese	-11.3711
▁serving	-11.3711
▁allergi	-11.3711
▁outdoor	-11.3711
▁diaper	-11.3711
▁evacuat	-11.3711
▁gratus	-11.3711
▁orville	-11.3711
▁parasite	-11.3711
▁twirl	-11.3711
▁wrist	-11.3711
▁adios	-11.3711
▁blazes	-11.3711
▁blighter	-11.3711
▁extend	-11.3711
▁gerald	-11.3711
▁medcom	-11.3711
▁spindle	-11.3711
▁torch	-11.3711
▁asset	-11.3711
▁bridle	-11.3711
▁cooch	-11.3711
▁hilda	-11.3711
▁hoofer	-11.3711
▁isolat	-11.3711
▁static	-11.3711
▁dumplings	-11.3711
▁partially	-11.3711
▁wilderness	-11.3711
▁bleach	-11.3711
▁jasper	-11.3711
▁spud	-11.3711
▁swagger	-11.3711
▁cinder	-11.3711
▁irish	-11.3711
▁rational	-11.3711
▁slice	-11.3711
▁sinuses	-11.3711
▁tooting	-11.3711
▁cherie	-11.3711
▁fierce	-11.3711
▁motel	-11.3711
▁mutations	-11.3711
▁spence	-11.3711
opportun	-11.3711
▁hathi	-11.3711
▁settling	-11.3711
janitor	-11.3711
▁muske	-11.3711
▁technolog	-11.3711
▁abra	-11.3711
▁lodge	-11.3711
foggi	-11.3711
▁autograph	-11.3711
▁griev	-11.3711
▁øùøøùøø	-11.3711
▁enthusiastic	-11.3711
▁omni	-11.3711
▁vowels	-11.3711
▁heights	-11.3711
▁laura	-11.3711
▁nightingale	-11.3711
▁ripping	-11.3711
▁hydrogen	-11.3711
▁pittypat	-11.3711
▁scoot	-11.3711
▁representative	-11.3711
▁strudel	-11.3711
▁talon	-11.3711
▁lekker	-11.3711
▁sprinkle	-11.3711
▁dazzle	-11.3711
▁gibberish	-11.3711
▁literature	-11.3711
▁casca	-11.3711
▁sneer	-11.3711
▁depot	-11.3711
▁thud	-11.3711
anni	-11.3711
▁endure	-11.3711
▁trigger	-11.3711
junction	-11.3711
▁jones	-11.3711
▁bemu	-11.3711
▁certif	-11.3711
▁dienst	-11.3711
▁florida	-11.3711
▁freight	-11.3711
ointment	-11.3711
▁hisself	-11.3711
▁priorit	-11.3711
▁vulture	-11.3711
▁conscience	-11.3711
▁exclusive	-11.3711
▁lull	-11.3711
▁lamplight	-11.3711
▁grey	-11.3711
▁tabin	-11.3711
▁spurs	-11.3711
▁robbery	-11.3711
▁hoodlum	-11.3711
▁humph	-11.3711
▁extract	-11.3711
▁bungl	-11.3711
▁gidd	-11.3711
▁harp	-11.3712
▁terrace	-11.3712
▁organized	-11.3712
▁millionaire	-11.3712
▁consum	-11.3712
▁snivel	-11.3712
▁argh	-11.3712
▁convent	-11.3712
▁chandler	-11.3712
▁patricia	-11.3712
▁verder	-11.3712
▁boast	-11.3712
▁popcorn	-11.3712
▁hesitate	-11.3712
▁undertake	-11.3712
▁sheik	-11.3712
▁headache	-11.3712
▁shopping	-11.3712
▁aquatic	-11.3712
▁prospect	-11.3712
▁sanct	-11.3712
▁snick	-11.3712
▁mutat	-11.3712
▁headlines	-11.3712
▁rewing	-11.3712
▁bijbel	-11.3712
▁annihilation	-11.3712
▁navigation	-11.3712
▁emerge	-11.3712
▁barrier	-11.3712
udent	-11.3712
▁undock	-11.3712
▁yappin	-11.3712
▁curb	-11.3712
▁speck	-11.3712
▁oror	-11.3712
▁mural	-11.3712
▁nazi	-11.3712
▁defy	-11.3712
▁bilious	-11.3712
▁moeder	-11.3712
▁chaperon	-11.3712
▁patron	-11.3712
▁diversion	-11.3712
▁sherman	-11.3712
▁ramone	-11.3713
▁injection	-11.3713
▁rabble	-11.3713
nograph	-11.3713
nieuw	-11.3713
▁hustl	-11.3713
▁wages	-11.3713
▁flyswatter	-11.3713
▁thunderstorm	-11.3713
▁alkali	-11.3713
▁outrageous	-11.3713
▁snif	-11.3713
▁transport	-11.3713
▁preparation	-11.3713
▁laydeeodlee	-11.3713
▁nitro	-11.3713
▁liza	-11.3713
▁violent	-11.3713
▁liqu	-11.3713
▁exalt	-11.3713
▁grape	-11.3713
▁vandaa	-11.3713
▁nnot	-11.3713
▁lungs	-11.3714
▁grill	-11.3714
stakes	-11.3714
▁budget	-11.3714
▁flux	-11.3714
▁stomp	-11.3714
▁lorry	-11.3714
▁upward	-11.3714
sition	-11.3714
▁dispose	-11.3714
▁lurk	-11.3714
▁politician	-11.3714
▁hopping	-11.3714
▁chore	-11.3714
▁ruling	-11.3714
▁niya	-11.3714
▁scurry	-11.3714
▁existence	-11.3714
▁elsa	-11.3714
▁bookshop	-11.3714
▁mature	-11.3714
▁girlfrlend	-11.3714
▁timber	-11.3714
▁logical	-11.3714
▁deliberation	-11.3714
▁reflection	-11.3714
dramati	-11.3714
▁customary	-11.3714
▁priest	-11.3714
▁temptation	-11.3714
▁eug	-11.3714
▁notebook	-11.3714
▁hysteri	-11.3714
▁wockety	-11.3715
trek	-11.3715
▁rita	-11.3715
▁pacific	-11.3715
▁presum	-11.3715
lamour	-11.3715
▁trouser	-11.3715
▁detective	-11.3715
▁gizzard	-11.3715
▁crap	-11.3715
▁resistance	-11.3715
▁compound	-11.3715
acles	-11.3715
▁reinforcement	-11.3715
nsylvania	-11.3715
▁mush	-11.3715
acious	-11.3716
ggs	-11.3716
▁expose	-11.3716
▁schem	-11.3716
▁trio	-11.3716
▁masterpiece	-11.3716
▁pike	-11.3716
▁olives	-11.3716
▁interior	-11.3716
▁edit	-11.3717
▁construction	-11.3717
▁translation	-11.3717
▁waking	-11.3717
▁candlelight	-11.3717
▁courthouse	-11.3717
▁rumpus	-11.3717
▁blade	-11.3717
▁remarkable	-11.3717
▁divinity	-11.3717
▁slash	-11.3717
visible	-11.3718
▁rigel	-11.3718
▁pois	-11.3718
protein	-11.3718
▁stalk	-11.3718
▁caption	-11.3718
▁argument	-11.3718
▁enlist	-11.3718
▁salad	-11.3718
▁erva	-11.3718
▁crop	-11.3718
▁molt	-11.3718
▁scul	-11.3719
▁boohoo	-11.3719
▁birdieb	-11.3719
▁robbers	-11.3719
▁lump	-11.3719
▁contaminated	-11.3719
▁canary	-11.3719
▁thunk	-11.3719
▁scenery	-11.3719
▁massage	-11.3719
▁destruction	-11.3719
▁foreman	-11.3719
▁burke	-11.3719
▁drain	-11.3719
▁raid	-11.372
▁ssss	-11.372
▁ruthless	-11.372
▁solomon	-11.372
▁pearl	-11.372
▁theor	-11.372
▁allowance	-11.372
citation	-11.372
▁overall	-11.372
▁specialized	-11.372
▁hahaha	-11.372
▁juic	-11.372
▁rash	-11.3721
▁liking	-11.3721
▁tourist	-11.3721
▁salary	-11.3721
▁infield	-11.3721
▁sunlight	-11.3722
▁electricity	-11.3722
▁which	-11.3722
▁tosh	-11.3722
▁assembly	-11.3722
stron	-11.3722
▁preci	-11.3722
▁plantation	-11.3722
▁slapping	-11.3722
▁artist	-11.3722
▁achievement	-11.3723
ngels	-11.3723
ticking	-11.3723
titude	-11.3723
▁gator	-11.3723
▁cruiser	-11.3723
▁strut	-11.3723
olent	-11.3723
▁inspection	-11.3724
▁bombom	-11.3724
▁slit	-11.3724
▁immensely	-11.3725
▁prickly	-11.3725
▁toro	-11.3725
▁exit	-11.3726
▁zelf	-11.3726
rmint	-11.3726
▁transmitter	-11.3726
▁publisher	-11.3726
▁directive	-11.3726
▁doggy	-11.3726
▁restart	-11.3726
clara	-11.3726
▁recon	-11.3727
▁barren	-11.3727
akken	-11.3727
▁psycholog	-11.3727
▁hairball	-11.3728
▁sorcerer	-11.3728
boek	-11.3728
shop	-11.3729
▁aphi	-11.3729
ippety	-11.3729
▁moist	-11.3729
▁billion	-11.3729
▁frost	-11.3729
▁waltzes	-11.373
▁afoot	-11.373
▁sundown	-11.373
▁intima	-11.373
▁airport	-11.373
▁tutor	-11.373
▁willow	-11.3731
▁funeral	-11.3731
▁blunder	-11.3731
▁breakdown	-11.3731
▁popula	-11.3731
▁ziet	-11.3731
▁rover	-11.3731
▁zap	-11.3732
▁welsh	-11.3733
▁math	-11.3733
heehee	-11.3733
▁restrain	-11.3733
▁geze	-11.3734
▁sunny	-11.3734
▁legit	-11.3734
▁spitting	-11.3734
▁denken	-11.3735
▁kijken	-11.3735
staan	-11.3735
▁option	-11.3735
▁humor	-11.3735
▁sadness	-11.3735
▁werk	-11.3735
▁prowler	-11.3736
attached	-11.3736
▁grownup	-11.3736
▁peel	-11.3736
escription	-11.3736
▁hospitality	-11.3736
▁equally	-11.3736
▁bou	-11.3736
▁weekend	-11.3737
▁coop	-11.3737
medical	-11.3738
▁geeup	-11.3739
▁ead	-11.3739
bach	-11.3739
▁dopey	-11.3739
▁nola	-11.3739
▁vinden	-11.3739
▁booze	-11.3739
▁robotic	-11.3739
▁lava	-11.3739
heroesatyahoocom	-11.3739
▁scarce	-11.374
▁objection	-11.3741
▁jackal	-11.3741
▁marie	-11.3742
▁vul	-11.3742
▁version	-11.3742
▁etch	-11.3742
▁pitty	-11.3743
dispens	-11.3743
▁correction	-11.3744
▁yacht	-11.3744
▁reuni	-11.3745
▁villain	-11.3745
▁keel	-11.3745
▁raw	-11.3746
▁erro	-11.3747
▁zie	-11.3747
▁hoist	-11.3747
▁coup	-11.3748
quel	-11.3748
▁plead	-11.3748
▁quote	-11.3748
▁digit	-11.3749
▁betty	-11.3749
▁flourish	-11.3749
▁moat	-11.3749
▁movements	-11.375
maniac	-11.375
▁difficulties	-11.3752
▁brighton	-11.3753
five	-11.3753
aarden	-11.3754
▁hardship	-11.3755
▁joyfully	-11.3756
hem	-11.3758
▁rang	-11.3759
▁woolen	-11.3759
yahoocom	-11.3761
▁alter	-11.3762
▁conqueror	-11.3763
▁anne	-11.3763
umpkin	-11.3764
iction	-11.3765
▁thumper	-11.3765
▁snowman	-11.3768
▁fitting	-11.3769
▁flori	-11.3769
▁labor	-11.377
▁stutter	-11.3772
spect	-11.3773
▁bushes	-11.3775
▁sway	-11.3776
▁bli	-11.3777
▁hateful	-11.3777
▁floatin	-11.3778
▁stan	-11.3778
▁pickup	-11.3778
treatin	-11.3779
▁civilize	-11.378
▁rap	-11.3783
▁petal	-11.3783
▁patches	-11.3783
otic	-11.3784
▁priceless	-11.3784
▁chic	-11.3789
▁swede	-11.3789
▁irr	-11.379
ggage	-11.3795
▁formal	-11.3795
▁laure	-11.3795
▁fist	-11.3795
actic	-11.3796
ggering	-11.3796
▁burp	-11.3797
▁heal	-11.3798
airn	-11.3798
▁stimulat	-11.38
vraag	-11.3802
▁alb	-11.3814
itz	-11.3818
▁chuckle	-11.3822
▁authoriz	-11.3832
▁role	-11.3833
heen	-11.3837
▁abso	-11.3845
tiful	-11.3846
▁mow	-11.3852
▁corp	-11.3852
▁statement	-11.3852
▁sailor	-11.3852
▁sync	-11.386
▁stup	-11.386
▁strapp	-11.388
cdr	-11.3884
▁flush	-11.3887
▁sitter	-11.3887
▁budgin	-11.3889
▁gabb	-11.3896
▁cali	-11.3912
▁protector	-11.3915
pending	-11.3921
▁absen	-11.3927
▁mustanger	-11.393
roque	-11.3939
mph	-11.394
attaboy	-11.3942
▁ske	-11.3946
▁slamm	-11.3962
▁rotate	-11.3995
▁supervis	-11.4028
▁scrape	-11.4062
▁gestu	-11.4123
▁steril	-11.414
▁lefthand	-11.4142
▁distin	-11.4152
▁dope	-11.4182
nough	-11.4201
▁basi	-11.4203
▁occasional	-11.4204
engt	-11.4236
coat	-11.4283
▁trample	-11.4301
▁barr	-11.4317
▁corr	-11.4351
physic	-11.4363
▁fee	-11.4399
▁cancell	-11.4405
▁debt	-11.4451
ritz	-11.4464
guff	-11.4476
▁reviv	-11.4491
uria	-11.4513
▁redhead	-11.4543
knit	-11.4544
ggly	-11.4567
▁reverse	-11.4655
▁committ	-11.4657
arcas	-11.4676
chtig	-11.4702
fty	-11.4729
racht	-11.4749
ique	-11.4774
tiff	-11.4811
▁aca	-11.4849
anie	-11.4921
past	-11.4924
▁slappe	-11.4968
reign	-11.4969
maakt	-11.4979
▁tuppe	-11.4987
▁hisse	-11.5082
▁plat	-11.5147
▁mutt	-11.53
hold	-11.5373
coco	-11.5375
scale	-11.5453
nnies	-11.5459
▁neg	-11.5523
trophy	-11.558
▁assemble	-11.5594
▁apr	-11.5791
▁housekeep	-11.5812
▁boil	-11.616
▁sabe	-11.6164
▁doo	-11.6187
▁pitt	-11.6449
ffel	-11.6842
schl	-11.6979
check	-11.7107
øøøa	-11.7163
▁herb	-11.7171
were	-11.7188
ought	-11.7191
oodles	-11.7267
ison	-11.7277
obeyed	-11.7362
▁acomin	-11.7444
loft	-11.7536
udge	-11.7566
▁linin	-11.7568
perish	-11.7572
chanting	-11.7575
▁physi	-11.773
utters	-11.7773
eiro	-11.7825
lacking	-11.7837
▁vir	-11.784
▁cylind	-11.7932
tips	-11.7941
handed	-11.7954
▁hagg	-11.8006
clones	-11.8014
▁crystalli	-11.8083
waken	-11.8157
amba	-11.8199
▁gezi	-11.8203
▁croc	-11.8305
cussion	-11.8352
▁victori	-11.8352
▁squeal	-11.8375
breaker	-11.839
▁coordinat	-11.8401
bbin	-11.8416
appy	-11.8429
▁inhale	-11.8432
ashed	-11.8435
▁result	-11.8436
▁brook	-11.844
▁whisker	-11.8442
▁knuckle	-11.8442
▁succes	-11.8446
▁circu	-11.8451
▁scoff	-11.8452
▁parent	-11.8457
kker	-11.8478
two	-11.8496
cracks	-11.8501
operating	-11.8515
▁hyp	-11.852
ounds	-11.8549
▁justi	-11.8553
tracted	-11.8564
▁vra	-11.8565
▁prepar	-11.861
hines	-11.8625
▁activat	-11.863
rass	-11.8644
teller	-11.8648
earned	-11.8648
guns	-11.8648
▁darl	-11.8649
▁gib	-11.8651
bore	-11.8653
▁accomplish	-11.8653
▁clank	-11.8653
▁dialog	-11.8654
▁depress	-11.8656
▁dismiss	-11.8658
visor	-11.8659
patches	-11.8659
øùøø	-11.866
struck	-11.8661
morgen	-11.8661
known	-11.8662
fastball	-11.8663
chemistry	-11.8663
wreck	-11.8664
tijd	-11.8664
brush	-11.8664
mission	-11.8664
plant	-11.8665
grant	-11.8665
material	-11.8665
wide	-11.8665
filled	-11.8665
safety	-11.8666
store	-11.8666
pleased	-11.8666
pleasant	-11.8666
plane	-11.8666
natural	-11.8666
trash	-11.8666
famous	-11.8666
knowledge	-11.8666
responsible	-11.8666
boat	-11.8666
grown	-11.8667
figure	-11.8667
color	-11.8667
gown	-11.8667
paid	-11.8667
chief	-11.8667
box	-11.8667
minute	-11.8667
promise	-11.8667
horse	-11.8667
throat	-11.8667
schat	-11.8668
earth	-11.8668
dressed	-11.8668
duty	-11.8668
nowed	-11.8668
yeah	-11.8668
married	-11.8668
▁should	-11.8668
linda	-11.8668
wanted	-11.8668
style	-11.8669
penny	-11.8671
rijp	-11.8672
space	-11.8672
nature	-11.8673
ippe	-11.8674
▁argu	-11.8674
growth	-11.8675
▁motorcycl	-11.8677
▁locate	-11.8677
▁øaøø	-11.8678
▁inspire	-11.8678
▁wwh	-11.8679
▁psych	-11.868
▁rabbi	-11.8681
▁peopl	-11.8683
▁activit	-11.8683
▁laborator	-11.8684
▁responsibilit	-11.8684
▁territor	-11.8685
▁necessar	-11.8685
▁excellenc	-11.8686
▁majest	-11.8686
▁stead	-11.8686
▁transmitt	-11.8686
▁averag	-11.8687
▁publish	-11.8687
▁desperat	-11.8687
▁ultimat	-11.8687
▁horribl	-11.8688
▁prick	-11.8688
▁immense	-11.8688
qualifi	-11.8688
▁thorough	-11.8689
▁prophe	-11.8689
▁technical	-11.869
ockets	-11.8691
▁intelligen	-11.8693
itude	-11.8694
▁innocen	-11.8694
▁griff	-11.8695
whoa	-11.8696
▁forge	-11.8698
▁weigh	-11.8698
▁nigh	-11.87
▁oversee	-11.87
▁pacifi	-11.8704
▁behal	-11.8704
▁deliberat	-11.8705
▁reflect	-11.8705
elected	-11.8705
looms	-11.8705
▁whistlin	-11.8705
▁audit	-11.8705
▁custo	-11.8705
▁champ	-11.8706
▁compass	-11.8706
▁plannin	-11.8706
simpl	-11.8706
membered	-11.8706
graph	-11.8707
▁winnin	-11.8707
crease	-11.8707
▁permissi	-11.8707
communica	-11.8707
▁outrage	-11.8707
▁priva	-11.8707
reacher	-11.8707
▁obli	-11.8708
▁rejoi	-11.8708
▁diver	-11.8708
rrection	-11.8708
tivate	-11.8709
ordinate	-11.8709
▁braz	-11.8709
▁respon	-11.8709
▁dread	-11.8709
▁execut	-11.8709
▁recogni	-11.8709
▁joseph	-11.8709
rigible	-11.871
▁daph	-11.871
▁inherit	-11.871
▁barbar	-11.871
▁øùøøø	-11.871
▁pub	-11.871
▁audio	-11.871
▁occup	-11.871
circl	-11.871
▁instruct	-11.8711
▁persua	-11.8711
lutely	-11.8711
securit	-11.8711
lyyallyyallyya	-11.8711
astroph	-11.8711
▁brrrrr	-11.8711
▁gehoorza	-11.8711
▁geometr	-11.8711
▁motivation	-11.8711
▁neutral	-11.8711
▁rectangular	-11.8711
▁sabbat	-11.8711
▁tyrann	-11.8711
comprehensi	-11.8711
culating	-11.8711
eeeeehoooo	-11.8711
eevinrude	-11.8711
extraterrestrial	-11.8711
gevonden	-11.8711
maatregel	-11.8711
precedent	-11.8711
schijn	-11.8711
øaøøø	-11.8711
▁accommodate	-11.8711
▁accurate	-11.8711
▁acidosis	-11.8711
▁afterwards	-11.8711
▁agrippa	-11.8711
▁aldebaran	-11.8711
▁alibi	-11.8711
▁alternative	-11.8711
▁analyzing	-11.8711
▁antagoni	-11.8711
▁anthonio	-11.8711
▁apparatus	-11.8711
▁aqualitus	-11.8711
▁araara	-11.8711
▁arlington	-11.8711
▁arrogance	-11.8711
▁artifacts	-11.8711
▁asomething	-11.8711
▁assuming	-11.8711
▁astrogator	-11.8711
▁bandanna	-11.8711
▁barbos	-11.8711
▁barricade	-11.8711
▁bataille	-11.8711
▁bedchamber	-11.8711
▁benzino	-11.8711
▁bicycle	-11.8711
▁blastoise	-11.8711
▁blueprint	-11.8711
▁boeien	-11.8711
▁broccoli	-11.8711
▁buffet	-11.8711
▁bundle	-11.8711
▁busybody	-11.8711
▁butterflies	-11.8711
▁buttermilk	-11.8711
▁byob	-11.8711
▁calculation	-11.8711
▁cartridge	-11.8711
▁chamberlain	-11.8711
▁chernigovka	-11.8711
▁chiquita	-11.8711
▁citadel	-11.8711
▁collapse	-11.8711
▁commence	-11.8711
▁compartment	-11.8711
▁confront	-11.8711
▁confucius	-11.8711
▁conquest	-11.8711
▁continuous	-11.8711
▁curtsy	-11.8711
▁daggett	-11.8711
▁dastardly	-11.8711
▁dazzling	-11.8711
▁deceased	-11.8711
▁dempsey	-11.8711
▁dioxide	-11.8711
▁disorder	-11.8711
▁disposal	-11.8711
▁dividing	-11.8711
▁dogcatcher	-11.8711
▁dough	-11.8711
▁download	-11.8711
▁downtoearth	-11.8711
▁downtown	-11.8711
▁duivelsrots	-11.8711
▁eccentric	-11.8711
▁elevation	-11.8711
▁enclosure	-11.8711
▁encouraging	-11.8711
▁epileps	-11.8711
▁epileptic	-11.8711
▁eruitzien	-11.8711
▁etcetera	-11.8711
▁exhilarati	-11.8711
▁expelled	-11.8711
▁exquisite	-11.8711
▁external	-11.8711
▁fascinated	-11.8711
▁fiigure	-11.8711
▁flibbertigibbet	-11.8711
▁footprint	-11.8711
▁fortunate	-11.8711
▁foxx	-11.8711
▁freckle	-11.8711
▁frequencies	-11.8711
▁frequently	-11.8711
▁fundamental	-11.8711
▁furnace	-11.8711
▁gadzooks	-11.8711
▁gaspargo	-11.8711
▁geheim	-11.8711
▁gehoord	-11.8711
▁gepraat	-11.8711
▁geraakt	-11.8711
▁gerbil	-11.8711
▁geregeld	-11.8711
▁gettysburg	-11.8711
▁ghibli	-11.8711
▁gijzel	-11.8711
▁gillespie	-11.8711
▁globe	-11.8711
▁grumbling	-11.8711
▁gurgling	-11.8711
▁hashtag	-11.8711
▁hocuspocus	-11.8711
▁hodlayee	-11.8711
▁hoofprint	-11.8711
▁hornbills	-11.8711
▁horsewoman	-11.8711
▁immunization	-11.8711
▁impact	-11.8711
▁inaudible	-11.8711
▁increasing	-11.8711
▁infinite	-11.8711
▁intact	-11.8711
▁iobk	-11.8711
▁irregular	-11.8711
▁jaybird	-11.8711
▁jongetje	-11.8711
▁jugular	-11.8711
▁jukebox	-11.8711
▁kilogram	-11.8711
▁kindergarten	-11.8711
▁knickknack	-11.8711
▁koppori	-11.8711
▁litteken	-11.8711
▁lizzie	-11.8711
▁lmpossible	-11.8711
▁ludwig	-11.8711
▁lummox	-11.8711
▁malicious	-11.8711
▁manipulat	-11.8711
▁manufacturing	-11.8711
▁marvellous	-11.8711
▁mattel	-11.8711
▁meadow	-11.8711
▁meteorite	-11.8711
▁midgets	-11.8711
▁mitchans	-11.8711
▁miyazaki	-11.8711
▁monarch	-11.8711
▁mozart	-11.8711
▁napoleon	-11.8711
▁neighbour	-11.8711
▁noriko	-11.8711
▁nostalgi	-11.8711
▁nutrient	-11.8711
▁observation	-11.8711
▁ohohohoh	-11.8711
▁olympic	-11.8711
▁oorlog	-11.8711
▁opposition	-11.8711
▁outnumber	-11.8711
▁paranormal	-11.8711
▁peeeuu	-11.8711
▁penguins	-11.8711
▁peninsula	-11.8711
▁pharsalia	-11.8711
▁pistachio	-11.8711
▁playground	-11.8711
▁practising	-11.8711
▁praktijk	-11.8711
▁pregnant	-11.8711
▁prejudice	-11.8711
▁primitive	-11.8711
▁promenade	-11.8711
▁promote	-11.8711
▁propulsion	-11.8711
▁provision	-11.8711
▁psyduck	-11.8711
▁puddle	-11.8711
▁quarantine	-11.8711
▁reacquire	-11.8711
▁reconsider	-11.8711
▁redecorate	-11.8711
ø	-13.417
