<unk>	0
<s>	0
</s>	0
s	-3.42407
▁im	-4.60492
▁dont	-4.61016
▁know	-4.63418
▁get	-4.82194
▁well	-4.87739
▁go	-4.90518
▁come	-4.98605
▁right	-5.00668
▁like	-5.02751
▁oh	-5.03138
ing	-5.06723
▁one	-5.11201
▁got	-5.12812
▁youre	-5.17057
▁thats	-5.22488
▁yeah	-5.25508
▁good	-5.29751
ed	-5.29956
▁see	-5.30465
▁think	-5.39223
▁want	-5.43451
▁na	-5.44005
▁okay	-5.52353
▁yes	-5.52475
▁ill	-5.5611
▁	-5.56799
▁look	-5.58059
▁back	-5.60366
▁going	-5.63299
▁time	-5.64152
▁gon	-5.66776
▁us	-5.67103
▁hey	-5.68317
▁man	-5.68808
d	-5.70503
▁take	-5.72053
▁would	-5.73248
▁hes	-5.75097
▁cant	-5.8108
▁tell	-5.87665
▁way	-5.88105
▁could	-5.92175
▁mr	-5.94674
▁little	-5.95498
▁say	-5.95895
y	-5.96992
▁never	-5.99607
▁something	-6.01932
▁really	-6.02089
▁whats	-6.04228
▁lets	-6.04613
e	-6.061
▁make	-6.07885
▁didnt	-6.0804
▁thank	-6.0827
▁need	-6.08648
▁let	-6.09173
▁mean	-6.10352
▁love	-6.12916
▁music	-6.15115
▁two	-6.1607
u	-6.16838
er	-6.16856
▁give	-6.17038
▁l	-6.18985
▁sir	-6.19162
▁ive	-6.22326
▁please	-6.24845
▁said	-6.25829
▁theres	-6.26122
▁sure	-6.28427
▁sorry	-6.28725
▁people	-6.30614
ly	-6.31872
▁help	-6.32074
▁thing	-6.33694
▁much	-6.35069
▁wait	-6.37771
▁day	-6.39434
▁even	-6.41349
▁uh	-6.42137
t	-6.47885
▁life	-6.48934
▁nothing	-6.49768
r	-6.50297
▁maybe	-6.51098
▁better	-6.516
▁first	-6.51928
▁must	-6.52396
in	-6.53737
▁boy	-6.55933
▁call	-6.56157
▁great	-6.57426
▁shes	-6.57559
▁new	-6.58103
▁work	-6.58253
▁god	-6.58697
▁night	-6.58729
▁keep	-6.59748
▁ever	-6.59931
▁stop	-6.60161
▁find	-6.60186
▁home	-6.60379
▁away	-6.61664
▁theyre	-6.62774
▁anything	-6.63717
▁still	-6.68377
▁always	-6.68572
▁guys	-6.69943
▁talk	-6.70531
▁dad	-6.70632
▁old	-6.70807
▁thought	-6.71041
▁world	-6.71196
▁youve	-6.71402
▁put	-6.72004
▁around	-6.72427
▁y	-6.72452
▁made	-6.72899
▁long	-6.7326
▁believe	-6.75669
▁fine	-6.7686
▁id	-6.78527
▁hell	-6.80517
▁youll	-6.81291
▁father	-6.81356
▁feel	-6.81925
▁money	-6.82197
p	-6.82633
a	-6.83176
▁big	-6.83815
▁wont	-6.84038
▁last	-6.84053
▁told	-6.84271
▁everything	-6.8495
es	-6.85115
▁name	-6.85839
l	-6.8633
▁things	-6.86525
▁hello	-6.87448
n	-6.89542
▁car	-6.89699
▁years	-6.90763
▁nice	-6.90764
▁course	-6.91011
▁hear	-6.91266
▁may	-6.91977
▁doesnt	-6.92517
c	-6.92524
▁coming	-6.92555
▁ta	-6.92697
▁place	-6.92771
o	-6.93079
▁leave	-6.93383
▁hi	-6.93567
▁three	-6.93794
▁hold	-6.95228
▁enough	-6.95337
m	-6.95807
▁isnt	-6.95859
▁remember	-6.96669
▁every	-6.96745
▁mom	-6.97142
▁lot	-6.9873
▁kind	-6.98761
▁stay	-6.99546
▁care	-7.0054
▁done	-7.01243
▁listen	-7.01438
▁huh	-7.01788
▁try	-7.02301
g	-7.03136
▁baby	-7.0318
▁might	-7.03484
▁girl	-7.05164
▁mind	-7.05173
▁wrong	-7.05744
▁weve	-7.06905
▁play	-7.07168
▁son	-7.07201
i	-7.07737
▁best	-7.08414
▁left	-7.0897
▁morning	-7.0957
b	-7.09575
▁bad	-7.09723
▁another	-7.10471
▁show	-7.10693
▁ready	-7.11231
▁matter	-7.117
▁getting	-7.12208
▁house	-7.12634
▁wanted	-7.12829
▁mother	-7.13242
al	-7.13481
▁understand	-7.13856
▁thanks	-7.14779
▁ah	-7.14903
▁came	-7.17071
▁hope	-7.1763
▁today	-7.18665
▁move	-7.19314
▁run	-7.19479
▁next	-7.2032
▁else	-7.20325
▁door	-7.20361
▁wan	-7.20781
▁real	-7.22153
▁live	-7.2415
▁ask	-7.24331
▁kids	-7.24758
▁talking	-7.25139
▁head	-7.26959
▁happened	-7.27137
▁trying	-7.27677
▁without	-7.2795
▁men	-7.28355
▁found	-7.29037
▁idea	-7.29288
▁b	-7.29352
▁miss	-7.29666
▁together	-7.29768
▁jack	-7.31476
▁friend	-7.31621
▁seen	-7.31793
▁bring	-7.31866
▁someone	-7.3237
▁ha	-7.32556
h	-7.32613
▁start	-7.3283
▁havent	-7.33126
▁excuse	-7.33148
▁aint	-7.34656
▁beautiful	-7.35044
▁whoa	-7.35055
▁many	-7.3523
▁turn	-7.35288
▁hand	-7.35668
▁minute	-7.35768
▁whole	-7.35825
▁guess	-7.36602
▁happy	-7.36604
▁wouldnt	-7.36724
▁went	-7.37404
▁use	-7.37789
▁um	-7.37837
▁yet	-7.38244
ur	-7.38366
▁wasnt	-7.38586
▁woman	-7.38991
▁town	-7.39004
▁hard	-7.39053
on	-7.39121
▁guy	-7.399
▁boys	-7.40213
▁meet	-7.40395
▁end	-7.40775
▁family	-7.41432
f	-7.4167
▁far	-7.41837
▁school	-7.42681
▁sit	-7.43305
▁everybody	-7.43345
▁forget	-7.44361
▁looking	-7.44558
▁tonight	-7.45214
▁mrs	-7.45633
▁job	-7.45653
▁ok	-7.45685
▁bit	-7.4577
▁tomorrow	-7.46074
▁water	-7.46092
▁lost	-7.46515
▁young	-7.46677
▁dead	-7.46763
▁wish	-7.4683
▁gone	-7.46914
▁saw	-7.46949
▁kill	-7.47107
▁horse	-7.47264
▁knew	-7.47378
w	-7.47672
▁four	-7.48707
▁part	-7.4884
▁heard	-7.48849
▁friends	-7.4892
▁true	-7.49145
▁playing	-7.49199
▁eat	-7.49474
ic	-7.49769
▁war	-7.49823
▁says	-7.50267
ve	-7.50358
▁worry	-7.50489
▁mine	-7.50997
▁watch	-7.51224
▁lady	-7.51892
▁pretty	-7.52312
▁re	-7.52449
▁whos	-7.52533
or	-7.52731
▁pay	-7.53091
▁couldnt	-7.53355
▁open	-7.53498
▁somebody	-7.53701
▁em	-7.55063
▁alone	-7.55115
▁everyone	-7.55122
▁ago	-7.55584
▁easy	-7.56538
▁room	-7.56578
▁laughing	-7.57208
▁fire	-7.5768
▁already	-7.57987
▁since	-7.57991
it	-7.58182
ers	-7.58816
▁used	-7.59305
▁girls	-7.59481
▁shall	-7.59961
▁moment	-7.60011
▁cause	-7.60112
▁dog	-7.60244
▁dear	-7.60438
▁actually	-7.60462
▁wife	-7.6095
▁damn	-7.60958
▁youd	-7.61011
▁face	-7.61456
▁read	-7.62599
▁hit	-7.62665
▁days	-7.6305
▁change	-7.63154
▁late	-7.63239
▁s	-7.63627
▁de	-7.63766
▁fight	-7.63892
▁side	-7.64054
▁soon	-7.65381
▁business	-7.65566
▁group	-7.65568
▁president	-7.65577
▁year	-7.66636
▁kid	-7.66669
▁problem	-7.6719
▁later	-7.67334
▁un	-7.6768
▁number	-7.67689
▁honey	-7.6769
▁looks	-7.68127
▁heart	-7.68244
▁rest	-7.68306
▁second	-7.68311
▁took	-7.68768
▁captain	-7.68769
▁free	-7.68838
en	-7.68964
▁close	-7.69164
▁hurt	-7.69441
▁high	-7.69622
▁called	-7.69781
▁nobody	-7.69857
▁eyes	-7.7041
▁daddy	-7.70442
▁brother	-7.70553
▁drink	-7.70884
▁win	-7.71075
▁exactly	-7.71527
▁word	-7.71689
▁important	-7.72073
est	-7.72084
▁point	-7.7209
▁team	-7.72333
▁white	-7.72638
▁stuff	-7.72641
▁die	-7.7271
▁fun	-7.73605
▁stand	-7.73707
▁laughs	-7.74923
ion	-7.74991
▁chance	-7.75243
▁five	-7.75522
▁doctor	-7.76073
▁crazy	-7.76077
▁country	-7.76086
▁probably	-7.76658
▁saying	-7.76926
▁party	-7.76996
▁anyone	-7.77246
▁least	-7.77246
ie	-7.7768
le	-7.77755
▁in	-7.77777
re	-7.78042
▁screaming	-7.78524
▁book	-7.78688
▁ball	-7.7893
▁cut	-7.79032
▁c	-7.79172
ch	-7.79343
▁al	-7.79386
▁also	-7.79642
▁sleep	-7.80218
▁anyway	-7.80241
▁whatever	-7.8085
▁arent	-7.8086
▁wow	-7.80872
▁break	-7.81448
▁welcome	-7.81464
▁trouble	-7.81534
▁full	-7.82555
▁bet	-7.82685
▁walk	-7.8283
▁hate	-7.83231
k	-7.83263
▁week	-7.83927
▁blood	-7.83956
▁phone	-7.83973
man	-7.84008
▁sighs	-7.84241
▁dr	-7.85032
▁afraid	-7.85226
▁children	-7.85226
▁wheres	-7.8541
▁light	-7.85683
▁dinner	-7.85868
▁taking	-7.85897
▁quite	-7.85968
▁la	-7.86046
▁ya	-7.86131
▁clear	-7.86494
z	-7.86541
▁deal	-7.86613
▁set	-7.87157
▁different	-7.87166
v	-7.87173
▁m	-7.88174
▁hmm	-7.88394
▁along	-7.88473
▁thinking	-7.88735
▁line	-7.88965
an	-7.89086
▁heh	-7.89152
▁half	-7.89169
▁supposed	-7.89376
▁mama	-7.8981
▁minutes	-7.89896
▁happen	-7.90033
▁gun	-7.90696
▁working	-7.92148
▁save	-7.92191
▁anybody	-7.92514
ar	-7.92749
▁ahead	-7.93211
▁wants	-7.9358
▁anymore	-7.93898
▁shut	-7.93898
▁gentlemen	-7.93901
▁send	-7.93968
▁buy	-7.93996
▁luck	-7.9434
▁hands	-7.94786
▁check	-7.94855
▁seems	-7.95119
▁six	-7.95292
▁married	-7.95327
▁almost	-7.96011
▁hurry	-7.96011
▁alright	-7.96018
▁running	-7.96031
▁killed	-7.96109
▁gave	-7.96736
▁chuckles	-7.96904
▁st	-7.97191
able	-7.97388
▁either	-7.97445
▁brought	-7.97445
▁dave	-7.97468
▁a	-7.97877
▁worth	-7.98886
▁making	-7.98902
▁dream	-7.98972
▁th	-7.99514
▁though	-7.99546
▁story	-7.99635
▁land	-7.99827
▁speak	-8.00014
▁r	-8.00074
▁speaking	-8.00257
▁fact	-8.00375
▁ladies	-8.00382
▁funny	-8.00384
▁asked	-8.00695
ll	-8.00832
▁lm	-8.01263
▁j	-8.01506
▁cal	-8.0158
▁dan	-8.01601
▁pick	-8.01661
▁behind	-8.01873
▁france	-8.01875
▁king	-8.02147
▁train	-8.02472
▁cool	-8.0264
▁wonderful	-8.03465
▁sign	-8.03763
▁follow	-8.03801
▁makes	-8.03829
▁red	-8.03976
▁george	-8.04163
▁scared	-8.0433
▁goes	-8.04489
▁case	-8.04691
ation	-8.04827
▁theyll	-8.04939
▁child	-8.05704
▁truth	-8.0572
ra	-8.05964
▁comes	-8.06017
▁lose	-8.06154
▁able	-8.06159
ment	-8.06267
ive	-8.0648
▁shot	-8.06493
▁applause	-8.06507
▁stupid	-8.06507
ies	-8.06578
▁waiting	-8.06723
▁itll	-8.07304
▁shoot	-8.07493
at	-8.07645
▁nick	-8.0776
▁food	-8.08101
▁bye	-8.08103
▁heres	-8.08116
▁touch	-8.084
▁special	-8.08862
▁inside	-8.08915
▁p	-8.08926
▁hot	-8.0901
▁sam	-8.09052
st	-8.09508
▁andrew	-8.0972
▁become	-8.09721
ter	-8.10159
▁perfect	-8.10357
▁john	-8.10438
▁air	-8.10492
▁death	-8.1054
ro	-8.1084
▁w	-8.10907
▁club	-8.11372
▁game	-8.11515
▁promise	-8.11865
▁g	-8.11992
ant	-8.12072
▁sing	-8.12078
▁ow	-8.1253
▁wind	-8.12914
▁police	-8.1304
ful	-8.13732
▁lord	-8.13889
▁started	-8.14163
▁ooh	-8.14364
il	-8.14404
▁wed	-8.14412
▁pa	-8.14823
less	-8.14953
▁times	-8.1523
▁met	-8.15314
▁french	-8.15606
▁black	-8.15607
▁poor	-8.15635
▁sound	-8.15898
▁sometimes	-8.16106
▁write	-8.16183
▁safe	-8.16269
▁answer	-8.16474
▁fault	-8.16476
▁city	-8.16509
▁order	-8.17204
▁shouldnt	-8.17352
▁uncle	-8.17645
▁human	-8.17693
▁plan	-8.17887
▁person	-8.18157
▁sort	-8.18295
▁sweet	-8.19086
▁glad	-8.19103
▁perhaps	-8.19129
▁alive	-8.19176
▁sense	-8.19218
▁aah	-8.19243
▁bell	-8.19306
▁bo	-8.1951
▁news	-8.19555
▁peter	-8.19588
▁sarah	-8.2003
ent	-8.2039
ri	-8.2042
▁fast	-8.20683
▁careful	-8.20852
▁mad	-8.2086
▁sergeant	-8.20939
▁lucy	-8.20939
▁bar	-8.20987
▁bed	-8.21338
▁gold	-8.21787
▁wake	-8.2186
▁david	-8.21872
▁front	-8.21876
▁cheering	-8.21973
▁months	-8.22034
▁power	-8.22361
▁hair	-8.22825
▁e	-8.22903
▁feeling	-8.23009
▁pull	-8.23217
▁sister	-8.23338
▁earth	-8.23722
ure	-8.23766
▁dance	-8.23779
▁reason	-8.24264
▁office	-8.24406
▁bill	-8.24431
et	-8.24483
▁join	-8.24533
▁sun	-8.2461
is	-8.2467
▁catch	-8.25028
▁top	-8.25047
▁law	-8.25237
▁suppose	-8.25285
▁giant	-8.2529
▁means	-8.25405
▁ride	-8.2555
▁outside	-8.25615
▁women	-8.25615
▁drop	-8.25616
▁leaving	-8.25617
▁telling	-8.25647
▁tried	-8.25666
▁died	-8.26485
▁dark	-8.26558
▁professor	-8.26574
▁trust	-8.26574
▁beat	-8.26897
▁roll	-8.26911
▁couple	-8.27545
▁secret	-8.2827
▁rock	-8.28291
▁straight	-8.28477
▁voice	-8.2852
▁small	-8.28526
▁star	-8.28843
ne	-8.29196
▁blue	-8.29508
▁road	-8.29518
▁coach	-8.29881
▁question	-8.30336
▁till	-8.30511
▁cat	-8.3058
▁princess	-8.30581
▁lives	-8.30634
▁ringing	-8.30834
▁class	-8.30847
▁hang	-8.30935
▁quiet	-8.31341
▁fear	-8.31533
▁body	-8.31541
▁papa	-8.31555
▁sounds	-8.32207
te	-8.3222
▁ho	-8.32231
ry	-8.32321
▁goodbye	-8.32547
▁proud	-8.32547
▁band	-8.32605
▁evening	-8.32673
▁fall	-8.32898
▁f	-8.32996
▁woods	-8.33025
▁step	-8.33524
▁living	-8.33584
▁hows	-8.33956
up	-8.34241
▁i	-8.34259
▁strong	-8.34359
▁wonder	-8.34432
▁hour	-8.34639
▁hours	-8.34668
▁camp	-8.34668
▁throw	-8.35071
▁past	-8.35468
▁dramati	-8.35506
▁eye	-8.35666
▁maddy	-8.35687
▁grunting	-8.35702
ta	-8.36243
ity	-8.36523
▁quick	-8.36556
um	-8.36619
▁master	-8.36693
▁choice	-8.36735
▁bank	-8.36756
▁billy	-8.37026
▁bob	-8.37248
nt	-8.37422
▁lead	-8.37476
▁seven	-8.37796
▁hed	-8.38252
▁slow	-8.38725
▁learn	-8.38849
▁absolutely	-8.3891
▁stick	-8.38916
▁engine	-8.39219
▁whoo	-8.39594
▁champ	-8.39955
▁cold	-8.40008
▁street	-8.40121
▁parents	-8.40161
▁drive	-8.40186
▁ahh	-8.40249
▁o	-8.4068
▁figure	-8.40784
▁certain	-8.40926
▁known	-8.41
▁village	-8.41107
▁moving	-8.41129
▁husband	-8.41257
▁ten	-8.4135
▁american	-8.41361
▁continues	-8.41979
▁serious	-8.42049
us	-8.42119
▁ii	-8.42237
▁needs	-8.42344
ous	-8.42852
▁fair	-8.43079
▁short	-8.43172
ine	-8.43202
▁others	-8.43368
▁radio	-8.43373
▁feet	-8.434
▁chattering	-8.43617
li	-8.44105
▁ed	-8.44197
▁bear	-8.4448
▁control	-8.44517
▁york	-8.44517
▁annie	-8.44523
▁sick	-8.44532
▁count	-8.44545
am	-8.44702
▁x	-8.44889
▁finish	-8.45181
▁record	-8.45474
▁yelling	-8.45843
▁lts	-8.45871
lo	-8.46155
▁english	-8.46813
▁language	-8.46856
▁lunch	-8.46856
▁somewhere	-8.46856
▁darling	-8.46871
▁seem	-8.47713
▁an	-8.47765
ck	-8.4781
el	-8.47924
▁worse	-8.48047
▁weeks	-8.48092
▁expect	-8.4811
▁suit	-8.48122
▁horses	-8.48338
▁lie	-8.48621
x	-8.48994
▁given	-8.49063
▁entire	-8.49065
▁theyve	-8.49251
▁crowd	-8.49319
ling	-8.49385
nous	-8.49562
▁taken	-8.49638
ts	-8.49694
▁act	-8.49836
ist	-8.49955
▁return	-8.49965
▁rather	-8.50475
ce	-8.50523
ting	-8.50838
▁handle	-8.50981
▁piece	-8.51011
▁sell	-8.51114
▁lovely	-8.51187
▁per	-8.51203
▁henry	-8.51707
▁felt	-8.51708
▁tough	-8.51714
▁sent	-8.51794
▁mary	-8.51896
▁co	-8.52448
▁words	-8.52563
la	-8.52791
▁omi	-8.52905
▁future	-8.52955
▁possible	-8.52955
▁wedding	-8.52958
▁clean	-8.53065
▁k	-8.53069
▁state	-8.53547
▁kiss	-8.536
▁fix	-8.53722
▁dress	-8.53731
▁samurai	-8.54221
▁pass	-8.54336
▁present	-8.54817
▁less	-8.54836
▁fool	-8.5484
▁base	-8.54883
▁boat	-8.54899
▁mess	-8.55023
▁changed	-8.55056
ul	-8.55412
▁longer	-8.55498
▁lonely	-8.55504
▁shell	-8.55516
▁born	-8.55583
▁finally	-8.55652
▁pop	-8.55815
▁spend	-8.56159
▁worked	-8.56482
▁explain	-8.56802
▁pleasure	-8.56802
▁court	-8.56802
▁forever	-8.56807
▁ice	-8.56854
▁early	-8.56911
▁pal	-8.57987
▁happens	-8.58099
▁service	-8.58118
▁maria	-8.58129
▁chief	-8.58141
▁hallie	-8.58152
age	-8.58186
ma	-8.58741
▁plane	-8.58796
▁meeting	-8.58832
▁so	-8.58889
▁carry	-8.58936
▁field	-8.58985
▁singing	-8.59134
▁calm	-8.59212
▁report	-8.59334
▁invincible	-8.59451
▁ground	-8.59453
▁judge	-8.59454
▁eh	-8.59546
▁aw	-8.59613
ow	-8.59645
de	-8.5976
▁lucky	-8.59963
▁martin	-8.60616
th	-8.60719
▁machine	-8.60776
▁charlie	-8.60803
▁general	-8.60803
▁buddy	-8.60804
▁paris	-8.60805
▁foot	-8.60823
▁begin	-8.60853
▁grunts	-8.61007
▁ass	-8.61072
▁turned	-8.61205
ton	-8.61311
▁saved	-8.61469
id	-8.61578
▁daughter	-8.61704
▁picture	-8.61716
▁birds	-8.61806
▁brand	-8.61915
▁near	-8.62005
se	-8.62046
▁loved	-8.62049
▁jesus	-8.62172
▁round	-8.62175
▁respect	-8.62186
▁maam	-8.62191
▁none	-8.62239
op	-8.6244
▁finished	-8.62765
▁grow	-8.62809
om	-8.62823
▁wear	-8.62931
▁million	-8.63112
co	-8.63216
▁surprise	-8.63221
▁tea	-8.63277
out	-8.63334
▁glass	-8.63446
▁except	-8.63516
▁coffee	-8.63561
▁giving	-8.63564
▁dex	-8.63617
▁unless	-8.63638
▁completely	-8.63672
▁busy	-8.63712
▁army	-8.63749
▁decided	-8.63751
▁leg	-8.63764
▁push	-8.63795
▁pre	-8.63915
▁pro	-8.64224
▁mountain	-8.64606
▁miles	-8.64617
▁date	-8.64702
▁forgive	-8.64848
▁hearts	-8.64946
▁middle	-8.64951
▁forgot	-8.64961
▁amazing	-8.6497
▁joke	-8.64984
▁song	-8.65018
▁aron	-8.6502
▁rain	-8.65066
▁cow	-8.65135
▁sp	-8.65251
▁missed	-8.65487
▁attention	-8.66398
▁kevin	-8.66398
▁kidding	-8.66404
▁attack	-8.6669
ia	-8.66896
▁cook	-8.67166
▁test	-8.6724
no	-8.67351
▁realize	-8.6755
▁asking	-8.67562
▁month	-8.67577
▁happening	-8.67748
▁government	-8.67848
▁simple	-8.67848
▁hungry	-8.67856
▁green	-8.67859
▁paid	-8.67878
▁wild	-8.67918
▁shouting	-8.67954
▁con	-8.68034
▁certainly	-8.68086
▁blow	-8.68413
rs	-8.69095
▁trip	-8.69112
▁america	-8.69217
▁brazil	-8.69304
▁evil	-8.69318
▁marshal	-8.69318
▁sweetheart	-8.69318
▁max	-8.6933
▁mister	-8.69339
▁shoes	-8.69384
▁west	-8.69403
▁teach	-8.6996
▁d	-8.70173
▁flowers	-8.70241
▁imagine	-8.70459
▁quit	-8.70564
▁afternoon	-8.70811
▁yesterday	-8.70811
▁christmas	-8.70811
▁tired	-8.70811
▁across	-8.70813
▁v	-8.70881
▁no	-8.70934
ng	-8.71034
▁shh	-8.71113
▁sad	-8.71142
▁officer	-8.71216
▁cross	-8.71863
▁german	-8.71908
▁po	-8.72256
▁doubt	-8.72326
▁impossible	-8.72326
▁werent	-8.72326
▁botat	-8.72326
▁area	-8.72326
▁film	-8.72354
▁race	-8.72354
▁shit	-8.72388
▁jay	-8.72396
ig	-8.7258
ance	-8.727
ard	-8.7313
▁strange	-8.73563
▁di	-8.73656
ir	-8.73668
▁hero	-8.73718
▁summer	-8.73844
▁major	-8.73864
▁quixote	-8.73864
▁kept	-8.73869
▁h	-8.73906
▁taste	-8.74022
▁christ	-8.74067
▁self	-8.74574
ness	-8.74674
▁ma	-8.74686
▁wine	-8.74697
▁joe	-8.75141
▁fly	-8.75167
▁prince	-8.75324
▁hospital	-8.75427
▁relax	-8.75427
▁public	-8.75428
▁idiot	-8.75428
▁birthday	-8.75428
▁store	-8.75439
▁kate	-8.75457
▁wing	-8.75624
▁gas	-8.75691
▁laugh	-8.75841
per	-8.76474
▁mum	-8.76701
ted	-8.76728
ty	-8.76785
▁final	-8.76848
▁double	-8.77014
▁price	-8.77014
▁terrible	-8.77015
▁harry	-8.77025
▁dangerous	-8.77028
▁hide	-8.77139
▁louise	-8.77189
ate	-8.77392
▁jump	-8.77465
▁lay	-8.7772
im	-8.77888
▁calling	-8.77936
to	-8.78005
▁frank	-8.78433
▁indistinct	-8.78443
▁san	-8.78465
▁ought	-8.78549
▁saturday	-8.78627
▁company	-8.78627
▁queen	-8.78627
▁floor	-8.78635
▁window	-8.78664
▁cost	-8.78694
ol	-8.7888
▁anne	-8.78978
▁crying	-8.79066
▁marry	-8.79628
▁deep	-8.79648
▁consider	-8.79724
▁board	-8.79822
▁lt	-8.8001
▁ran	-8.80031
▁church	-8.80266
▁guitar	-8.80266
▁gasps	-8.8027
▁low	-8.80271
▁pain	-8.80274
▁honor	-8.80295
ge	-8.80345
▁station	-8.80382
▁over	-8.80385
▁metal	-8.80421
▁brain	-8.80444
▁hall	-8.80466
ke	-8.80601
▁age	-8.80762
▁knock	-8.80778
▁dreams	-8.80816
▁offer	-8.8092
▁wearing	-8.81017
▁seat	-8.81069
oo	-8.8169
▁hat	-8.81852
▁eight	-8.81864
▁peace	-8.81911
▁daniel	-8.81922
▁south	-8.81933
▁elephant	-8.81933
▁extra	-8.81933
▁jenny	-8.81933
▁sudden	-8.81933
▁witch	-8.81933
▁bought	-8.81939
▁battle	-8.81953
▁super	-8.81981
▁sitting	-8.82022
▁brave	-8.82028
▁main	-8.8238
▁box	-8.82765
▁awful	-8.82832
▁enjoy	-8.83118
▁agree	-8.83257
▁pete	-8.83604
▁ghost	-8.83628
▁truck	-8.83628
▁within	-8.83628
▁midnight	-8.83628
▁island	-8.83628
ecame	-8.83634
▁beginning	-8.83636
▁majesty	-8.83639
▁tj	-8.83643
▁charge	-8.83691
▁grant	-8.83722
▁animal	-8.83848
▁thousand	-8.83851
▁t	-8.84067
▁legs	-8.84075
ct	-8.84179
ho	-8.84212
▁watching	-8.8428
▁besides	-8.84454
▁lf	-8.84476
▁visit	-8.84619
▁to	-8.84667
▁wall	-8.84684
▁kick	-8.84864
▁da	-8.84908
▁training	-8.8505
▁history	-8.85352
▁smart	-8.85352
▁difference	-8.85352
▁whether	-8.85354
▁murray	-8.85355
▁lift	-8.85356
▁upon	-8.85382
▁ar	-8.85427
▁mistake	-8.8551
▁key	-8.85645
▁list	-8.85708
▁building	-8.85866
▁mark	-8.85921
▁arms	-8.86466
▁missing	-8.86611
▁force	-8.86769
ill	-8.86982
▁clouseau	-8.87106
▁strike	-8.87107
▁jewish	-8.87109
▁chuckling	-8.8711
▁message	-8.87133
▁moon	-8.87154
▁nose	-8.87156
▁totally	-8.87186
▁single	-8.87227
▁boss	-8.87322
▁bitch	-8.87342
▁smell	-8.87437
▁tree	-8.87467
▁warm	-8.87492
▁listening	-8.87586
▁meant	-8.8777
▁promised	-8.8782
▁sea	-8.87837
▁search	-8.88253
as	-8.88254
▁starting	-8.88305
▁protect	-8.88331
▁honest	-8.88726
eat	-8.88855
▁colonel	-8.88892
▁congratulations	-8.88892
▁darryl	-8.88892
▁instead	-8.88892
▁lieutenant	-8.88892
▁draw	-8.88892
▁manolo	-8.88893
▁milk	-8.88894
▁position	-8.88897
▁walking	-8.88906
▁sonny	-8.88937
▁chirping	-8.88944
▁continue	-8.89143
▁interested	-8.8918
▁works	-8.89193
▁vi	-8.89223
▁heaven	-8.89266
▁faster	-8.89306
▁folks	-8.89462
ee	-8.89516
ha	-8.89574
ian	-8.89655
j	-8.89824
▁dis	-8.89971
ah	-8.90045
▁park	-8.90197
▁beans	-8.90367
▁magic	-8.90382
▁ba	-8.90396
▁player	-8.90582
▁lived	-8.90642
▁anywhere	-8.9071
▁nowhere	-8.9071
▁kelly	-8.9071
▁weird	-8.9071
▁situation	-8.90711
▁caught	-8.90715
▁rumbling	-8.90715
▁sake	-8.90719
▁national	-8.90766
▁table	-8.90793
▁tom	-8.90871
▁soul	-8.91184
▁bird	-8.912
▁score	-8.91367
▁teacher	-8.91425
▁letter	-8.91693
▁played	-8.91988
▁do	-8.92415
▁bunch	-8.92562
▁donkey	-8.92562
▁wolf	-8.92562
▁thunder	-8.92562
▁tommy	-8.92568
▁favorite	-8.92569
▁tense	-8.92607
▁sight	-8.92676
▁sky	-8.92701
▁reed	-8.9271
▁standing	-8.92744
▁mm	-8.92789
▁groans	-8.92844
▁needed	-8.93527
▁peppers	-8.93654
▁lock	-8.93684
▁study	-8.93801
▁pack	-8.93965
les	-8.94097
▁soft	-8.94279
▁ernest	-8.94349
▁spirit	-8.94447
▁tight	-8.94449
▁forward	-8.9445
▁hans	-8.94487
▁grab	-8.94496
▁tires	-8.94515
▁action	-8.94543
▁winter	-8.94555
▁fred	-8.94611
▁interesting	-8.94832
▁tapes	-8.95035
be	-8.95045
na	-8.95338
▁cover	-8.95788
▁cup	-8.95855
▁allow	-8.95863
son	-8.95996
▁murder	-8.96057
▁rich	-8.96357
▁hyah	-8.96372
▁twice	-8.96372
▁worried	-8.96372
▁swear	-8.96372
▁sheriff	-8.96372
▁trail	-8.9638
▁prove	-8.96463
▁belong	-8.96521
▁van	-8.96779
▁burn	-8.97225
▁lo	-8.97236
▁bag	-8.97369
▁fish	-8.97563
ca	-8.97817
▁arm	-8.97851
▁reach	-8.97867
▁hal	-8.98081
▁problems	-8.98199
▁personal	-8.98304
▁neither	-8.98333
▁upset	-8.98333
▁often	-8.98334
▁vote	-8.98336
▁address	-8.98339
▁football	-8.98343
▁mouth	-8.98383
▁eric	-8.98388
▁groaning	-8.98391
▁nine	-8.98429
▁sh	-8.98441
▁dean	-8.98475
▁el	-8.98689
▁fighting	-8.98765
▁form	-8.9879
ally	-8.98881
▁shed	-8.98923
▁track	-8.99088
▁movie	-8.99101
if	-8.9913
▁ron	-8.99171
▁whose	-8.99345
▁foreign	-8.99378
▁following	-8.99966
▁mo	-9.00073
▁br	-9.00124
▁match	-9.00224
▁account	-9.00301
▁definitely	-9.00333
▁derice	-9.00333
▁especially	-9.00333
▁vietnamese	-9.00333
▁clothes	-9.00333
▁third	-9.00333
▁indeed	-9.00333
▁ryan	-9.00333
▁horn	-9.00338
▁blame	-9.00341
▁gang	-9.00342
▁jail	-9.00342
▁monster	-9.00343
▁dude	-9.0035
▁chicken	-9.00354
▁mmhmm	-9.00357
▁loud	-9.00358
mon	-9.00374
▁hotel	-9.00418
▁ring	-9.00455
▁united	-9.00481
▁roaring	-9.00544
dy	-9.00554
▁mmm	-9.00781
bo	-9.00933
▁fill	-9.01009
▁cap	-9.01117
▁medal	-9.01153
he	-9.01464
▁yo	-9.01538
▁ex	-9.01863
▁breathe	-9.02066
▁simon	-9.0214
▁owe	-9.02242
io	-9.02246
▁sha	-9.02308
▁axel	-9.02374
▁nervous	-9.02374
▁practice	-9.02374
▁sunshine	-9.02374
▁uhhuh	-9.02374
▁hasnt	-9.02378
▁dico	-9.02397
▁dirty	-9.02414
▁trick	-9.0242
▁ohh	-9.02476
▁nurse	-9.02504
▁germans	-9.02588
▁questions	-9.02743
▁rid	-9.02827
me	-9.02916
go	-9.03011
▁lion	-9.03193
▁flying	-9.03208
▁brooks	-9.03211
▁mar	-9.03837
▁guns	-9.0384
▁kitchen	-9.04457
▁pardon	-9.04457
▁freedom	-9.04457
▁linh	-9.04459
▁taught	-9.04459
▁anabel	-9.04459
▁lawyer	-9.0446
▁royal	-9.04465
▁pants	-9.04474
▁bottle	-9.04478
▁sold	-9.04483
▁studio	-9.04488
▁dumb	-9.04488
▁writing	-9.04518
▁emma	-9.0454
▁fairy	-9.04934
▁greatest	-9.04992
▁appreciate	-9.0504
▁lll	-9.05058
▁eating	-9.05323
▁learned	-9.05425
▁bones	-9.05472
▁fathers	-9.05936
▁build	-9.05953
▁butt	-9.0631
▁card	-9.06326
▁discuss	-9.0654
▁admit	-9.06567
▁accident	-9.06571
▁breakfast	-9.06585
▁everywhere	-9.06585
▁inspector	-9.06585
▁system	-9.06585
▁angry	-9.06585
▁throat	-9.06585
▁north	-9.06586
▁dying	-9.0659
▁department	-9.06591
▁frosty	-9.06615
▁path	-9.06653
▁dig	-9.06732
▁driver	-9.06944
▁ca	-9.07117
▁named	-9.07491
▁ra	-9.07496
▁talked	-9.07561
▁guard	-9.07724
▁paper	-9.07827
▁wood	-9.07918
ap	-9.0799
▁su	-9.08064
ping	-9.082
▁er	-9.08652
▁broke	-9.0871
▁difficult	-9.08759
▁goddamn	-9.08759
▁blind	-9.08759
▁hadnt	-9.08759
▁nature	-9.0876
▁danny	-9.08782
▁laughter	-9.08801
▁wand	-9.08845
▁madame	-9.08937
ster	-9.09041
▁seriously	-9.09114
que	-9.09156
ish	-9.09277
▁mayor	-9.0929
▁musicians	-9.09309
men	-9.09317
▁staying	-9.09453
▁dogs	-9.09528
▁post	-9.09583
▁looked	-9.097
ach	-9.09749
▁takes	-9.09752
▁bother	-9.09835
▁pok	-9.09839
ac	-9.09973
▁pray	-9.10067
▁brothers	-9.10388
▁indian	-9.10459
ner	-9.10547
ell	-9.10576
che	-9.10747
▁normal	-9.10796
▁awesome	-9.10981
▁condition	-9.10981
▁journey	-9.10981
▁london	-9.10981
▁smile	-9.10981
▁bread	-9.10981
▁stuck	-9.10981
▁support	-9.10982
▁large	-9.10988
▁alvin	-9.10996
▁information	-9.11001
▁camera	-9.112
▁names	-9.11256
▁fit	-9.11616
os	-9.12636
cient	-9.12727
▁arrest	-9.12746
ial	-9.12792
▁garden	-9.12877
mp	-9.13051
▁complete	-9.13073
▁mi	-9.13174
▁favor	-9.13247
▁orchestra	-9.13253
▁correct	-9.13254
▁allyson	-9.13261
▁space	-9.13264
▁gage	-9.13317
fa	-9.13327
▁farm	-9.13514
▁beer	-9.13543
▁tall	-9.13567
▁bomb	-9.13704
▁bull	-9.13728
ad	-9.13854
▁figured	-9.13949
▁rules	-9.13968
▁seeing	-9.13979
▁wondering	-9.1465
▁explosion	-9.14676
▁du	-9.14854
▁travel	-9.14924
▁accept	-9.15069
▁destroy	-9.15075
▁cry	-9.15211
time	-9.15292
ism	-9.15419
▁paul	-9.15467
▁wave	-9.15475
▁ben	-9.15487
▁bamboo	-9.15579
▁duggal	-9.15579
▁glauben	-9.15579
▁jordan	-9.15579
▁pikachu	-9.15579
▁sheep	-9.15579
▁friday	-9.1558
▁wilson	-9.15584
▁shame	-9.15603
▁instrumental	-9.15611
▁gentleman	-9.15614
▁yep	-9.15616
▁joy	-9.15724
▁ash	-9.15861
pl	-9.15982
▁ti	-9.16507
▁fell	-9.1691
▁decision	-9.17081
▁deserve	-9.17117
▁exist	-9.17496
ated	-9.17522
▁homer	-9.17673
▁breath	-9.17682
▁east	-9.17706
▁ears	-9.17843
▁bastard	-9.1796
▁choose	-9.1796
▁jeanclaude	-9.1796
▁slappy	-9.1796
▁simply	-9.1796
▁teeth	-9.1796
▁worst	-9.1796
▁pecos	-9.1796
▁scene	-9.1796
▁committee	-9.17965
▁willing	-9.17968
▁yellow	-9.1797
▁moved	-9.17998
▁rose	-9.18008
▁incredible	-9.18013
▁immediately	-9.18024
▁stopped	-9.18091
▁bus	-9.18129
▁rent	-9.1818
▁en	-9.18295
▁quickly	-9.18373
▁dare	-9.18412
▁ned	-9.18841
ver	-9.1896
▁bang	-9.19047
und	-9.19065
led	-9.19168
▁states	-9.19239
▁dollars	-9.19292
▁rule	-9.1966
▁raise	-9.20066
▁pu	-9.20287
▁claude	-9.20399
▁fresh	-9.20399
▁governor	-9.20399
▁joaquin	-9.20399
▁climb	-9.20399
▁risk	-9.204
▁marriage	-9.20402
▁hank	-9.20412
▁apartment	-9.20422
▁losing	-9.20426
lt	-9.20429
▁swan	-9.20431
▁owner	-9.20434
▁whatd	-9.20459
▁coat	-9.20461
▁screeching	-9.20486
▁broken	-9.20529
and	-9.20554
ey	-9.2066
ba	-9.20694
▁tape	-9.20755
▁pi	-9.20933
ak	-9.21227
ary	-9.21262
▁where	-9.21361
▁keeping	-9.21472
▁pie	-9.21611
tain	-9.2185
ci	-9.21974
▁hundred	-9.22175
▁art	-9.22224
▁faith	-9.22291
▁trees	-9.22406
▁serve	-9.22561
▁gu	-9.22583
▁waste	-9.22713
▁there	-9.22798
tic	-9.22872
▁crack	-9.22877
▁california	-9.22899
▁plenty	-9.22899
▁upstairs	-9.22899
▁boddy	-9.22899
▁truly	-9.22899
▁tower	-9.22899
▁thudding	-9.229
▁roger	-9.22903
▁block	-9.22909
▁flat	-9.22919
▁color	-9.22946
▁danger	-9.22957
▁highness	-9.22974
▁stone	-9.22992
▁stormy	-9.23086
▁nearly	-9.23235
land	-9.23256
▁feed	-9.2327
▁bay	-9.23273
▁introduce	-9.23556
▁books	-9.23638
▁le	-9.23923
ise	-9.24169
▁z	-9.24219
▁falling	-9.24461
the	-9.245
way	-9.2452
▁sunday	-9.24793
▁treat	-9.25027
▁notice	-9.25123
▁louis	-9.25182
lin	-9.25412
▁revolution	-9.25451
▁contact	-9.25463
▁dooyoung	-9.25463
▁strength	-9.25463
▁harris	-9.25465
▁patty	-9.2547
▁clapping	-9.25474
▁outta	-9.25487
▁view	-9.25499
▁charles	-9.25517
▁tv	-9.25525
▁involved	-9.25545
▁prepared	-9.2574
▁corner	-9.2584
▁jet	-9.26015
▁mountains	-9.26135
▁allowed	-9.2614
▁goal	-9.26463
▁expected	-9.26554
▁me	-9.26775
▁hearing	-9.26812
line	-9.27244
▁gunshot	-9.27481
▁snake	-9.27529
▁remind	-9.27579
▁ruin	-9.27589
▁animals	-9.27752
▁corn	-9.27883
cha	-9.27922
▁howd	-9.27928
▁lights	-9.27928
▁gentle	-9.28046
▁drunk	-9.28047
▁weak	-9.28078
▁british	-9.28095
▁dartagnan	-9.28095
▁excellent	-9.28095
▁garret	-9.28095
▁opinion	-9.28095
▁copperfield	-9.28095
▁defend	-9.28097
▁gift	-9.28098
▁ethan	-9.28098
▁baseball	-9.2811
▁amy	-9.28118
▁spot	-9.28123
ize	-9.28142
▁center	-9.28164
▁grand	-9.28266
ash	-9.28453
▁nation	-9.28492
▁leo	-9.28499
▁out	-9.28602
ii	-9.28668
▁riding	-9.28912
▁mon	-9.28986
let	-9.29309
▁hardly	-9.29311
▁using	-9.29676
▁orders	-9.29695
▁closed	-9.29747
▁showed	-9.29824
▁stars	-9.30135
ors	-9.30155
▁hooh	-9.30209
▁whistle	-9.30258
▁walked	-9.30259
▁student	-9.30282
▁wash	-9.30319
▁decide	-9.30504
▁bright	-9.30622
▁se	-9.30682
▁asleep	-9.30797
▁bullshit	-9.30797
▁heavy	-9.30797
▁junior	-9.30797
▁rough	-9.30797
▁wrote	-9.30797
▁zarkorr	-9.30797
▁fruit	-9.30798
▁threw	-9.30798
▁scoffs	-9.30798
▁cancer	-9.30798
▁river	-9.30798
▁written	-9.30799
▁beauty	-9.30801
▁loose	-9.30802
▁sanka	-9.30805
▁abby	-9.30811
▁cell	-9.30813
▁noise	-9.30817
▁weight	-9.30823
▁cash	-9.30844
▁winner	-9.30855
▁mommy	-9.30859
▁obviously	-9.30865
ped	-9.30874
▁lying	-9.30883
▁yall	-9.30945
▁sean	-9.30991
▁robot	-9.31128
▁closer	-9.31553
▁calls	-9.31567
▁sw	-9.32325
kin	-9.32378
ress	-9.32483
▁n	-9.32545
▁steal	-9.32926
▁you	-9.33161
▁bridge	-9.33304
▁particular	-9.33389
▁lies	-9.33463
▁bobsled	-9.33573
▁beyond	-9.33575
▁competition	-9.33575
▁private	-9.33575
▁rainbow	-9.33575
▁someday	-9.33575
▁steady	-9.33575
▁trumpet	-9.33575
▁shock	-9.33575
▁ugh	-9.33575
▁recognize	-9.33576
▁operation	-9.3358
▁beach	-9.33584
▁driving	-9.33589
▁cake	-9.33596
▁fellow	-9.33598
▁james	-9.3361
▁sleeping	-9.3368
▁press	-9.33794
▁squealing	-9.33835
▁cute	-9.33854
▁fore	-9.33891
by	-9.33966
▁murderer	-9.34034
▁gotten	-9.34148
▁snakes	-9.34176
▁boots	-9.34177
▁nu	-9.34287
▁realized	-9.34301
▁lee	-9.3439
▁pictures	-9.34513
▁knocking	-9.34653
▁dry	-9.34782
da	-9.34935
▁fellas	-9.35022
ni	-9.35339
▁ko	-9.35367
▁due	-9.35669
▁chatter	-9.35817
▁appear	-9.35896
▁tim	-9.35935
▁tr	-9.36065
▁finger	-9.361
▁streets	-9.36105
ph	-9.36184
▁add	-9.36221
▁comp	-9.36302
tion	-9.36345
▁wi	-9.36357
▁scott	-9.36388
▁apologize	-9.36432
▁jacob	-9.36432
▁superhero	-9.36432
▁session	-9.36432
▁treasure	-9.36432
▁kingdom	-9.36433
▁humming	-9.36433
▁theyd	-9.36433
▁priest	-9.36435
▁saving	-9.36439
▁adam	-9.36444
▁katy	-9.36445
▁bobby	-9.36463
▁spell	-9.36468
▁jim	-9.36477
▁market	-9.36477
ick	-9.36483
▁ox	-9.36486
▁march	-9.36503
▁breaking	-9.36507
▁bigger	-9.36524
▁si	-9.36759
▁hill	-9.36851
▁oil	-9.36954
▁bat	-9.37045
▁kings	-9.37101
▁rat	-9.37121
▁siren	-9.37532
▁growing	-9.37762
ized	-9.38087
ung	-9.38531
▁awake	-9.38563
▁wouldve	-9.38596
▁games	-9.38864
▁grace	-9.38954
though	-9.38985
▁event	-9.39034
▁create	-9.39034
▁experience	-9.39043
▁ant	-9.39062
▁conversation	-9.39077
▁angel	-9.39138
ade	-9.39179
▁russian	-9.39197
▁madam	-9.39215
▁russia	-9.39286
▁greg	-9.39335
▁bravo	-9.39374
▁emergency	-9.39374
▁england	-9.39374
▁example	-9.39374
▁fantastic	-9.39374
▁however	-9.39374
▁kathy	-9.39374
▁pizza	-9.39374
▁possibly	-9.39374
▁request	-9.39374
▁restaurant	-9.39374
▁ridiculous	-9.39374
▁smoke	-9.39374
▁empty	-9.39374
▁shark	-9.39374
▁doyle	-9.39374
▁irv	-9.39375
▁stanley	-9.39375
▁wound	-9.3938
▁forgotten	-9.39392
▁planning	-9.39395
▁thatll	-9.39403
▁winning	-9.39408
ction	-9.39425
▁size	-9.39451
▁tail	-9.39725
▁drum	-9.39775
▁steve	-9.39801
ite	-9.39892
▁holy	-9.39911
▁bra	-9.39921
ious	-9.40232
▁sin	-9.40305
▁helping	-9.40947
ten	-9.40978
▁followed	-9.41339
▁clicks	-9.41434
ley	-9.41691
▁guide	-9.41723
head	-9.42083
▁settle	-9.42091
▁prison	-9.42138
▁object	-9.42358
▁robert	-9.4239
▁computer	-9.42395
▁program	-9.42403
▁adventure	-9.42404
▁bottom	-9.42404
▁chocolate	-9.42404
▁innocent	-9.42404
▁lebraque	-9.42404
▁medicine	-9.42404
▁phoenix	-9.42404
▁somehow	-9.42404
▁sweetmeat	-9.42404
▁credit	-9.42404
▁split	-9.42404
▁miep	-9.42404
▁eddie	-9.42405
▁buttermaker	-9.42406
▁coast	-9.42406
▁grandpa	-9.42406
▁neck	-9.42418
▁paddle	-9.42427
▁hiding	-9.4243
▁kite	-9.42445
▁abra	-9.42445
▁dick	-9.42465
▁ranch	-9.42484
▁partner	-9.42484
▁hm	-9.42508
▁code	-9.42569
▁note	-9.42574
▁scary	-9.42592
▁copy	-9.42628
▁doin	-9.42643
▁putting	-9.4272
hi	-9.42873
▁sled	-9.4289
▁perfectly	-9.43092
▁wise	-9.43121
▁reading	-9.43144
▁del	-9.43214
▁passed	-9.43626
▁sooner	-9.43643
▁towards	-9.438
▁feels	-9.43858
rate	-9.43981
▁younger	-9.44223
ring	-9.44364
▁interest	-9.44415
▁records	-9.4464
▁bite	-9.44691
▁screams	-9.44857
▁ver	-9.45026
▁refuse	-9.45184
▁prepare	-9.45191
▁share	-9.45246
off	-9.4529
jo	-9.45341
▁shoe	-9.45388
▁jamaica	-9.45427
▁spoke	-9.45431
▁stole	-9.45437
▁collect	-9.45484
▁all	-9.45502
▁chair	-9.45504
▁courage	-9.45505
▁prefer	-9.45528
▁farooqi	-9.45529
▁halloween	-9.45529
▁pocket	-9.45529
▁pride	-9.45529
▁whistling	-9.45529
▁video	-9.45529
▁norman	-9.45529
▁sharp	-9.45529
▁silly	-9.4553
▁cantrell	-9.4553
▁granny	-9.45534
▁repeat	-9.45538
▁crap	-9.45539
▁june	-9.45541
▁barking	-9.45547
▁spring	-9.4555
▁season	-9.45556
▁christian	-9.45558
▁daniella	-9.45565
▁mount	-9.45583
▁famous	-9.45585
▁skin	-9.45608
▁whispering	-9.45623
▁shop	-9.45638
▁miller	-9.45716
▁bridget	-9.45725
▁everythings	-9.45809
▁li	-9.45858
▁fort	-9.45859
▁hole	-9.46008
▁scare	-9.46195
▁destroyed	-9.46214
▁kim	-9.46325
▁pool	-9.46579
▁dressed	-9.46794
▁ab	-9.46824
▁seemed	-9.46907
▁sa	-9.47452
▁bucks	-9.47508
▁picked	-9.47665
▁fired	-9.47761
▁who	-9.47926
▁lines	-9.47992
▁keys	-9.48234
▁mention	-9.48323
▁mothers	-9.48664
▁birth	-9.48752
▁cahill	-9.48755
▁champagne	-9.48755
▁cheese	-9.48755
▁college	-9.48755
▁giggling	-9.48755
▁monsieur	-9.48755
▁necessary	-9.48755
▁revving	-9.48755
▁terrific	-9.48755
▁whoever	-9.48755
▁zeena	-9.48755
▁piano	-9.48755
▁sancho	-9.48755
▁sweden	-9.48755
▁afford	-9.48755
▁umney	-9.48755
▁held	-9.48756
▁cloud	-9.48756
▁emily	-9.48756
▁knight	-9.48758
▁pokemon	-9.48759
▁fought	-9.48759
▁tour	-9.4876
▁electricity	-9.48774
▁spare	-9.48779
▁began	-9.48792
▁hoping	-9.48795
▁announcer	-9.48807
▁forest	-9.48822
▁pair	-9.48837
▁stock	-9.48839
▁upb	-9.48855
▁tillie	-9.48895
▁manager	-9.48925
▁hook	-9.48982
▁gods	-9.49032
▁tie	-9.49077
▁manage	-9.49094
▁babe	-9.49106
▁shape	-9.49202
▁ship	-9.49581
▁pr	-9.49748
uff	-9.4989
ug	-9.5007
▁holding	-9.50158
ky	-9.50238
oh	-9.50384
▁bi	-9.50469
▁pet	-9.50724
▁hanging	-9.50835
▁poole	-9.51016
▁pounds	-9.51023
ga	-9.51092
▁hunt	-9.51194
▁suggest	-9.51518
▁defeat	-9.51583
back	-9.51633
▁buying	-9.51777
▁hu	-9.51778
▁ear	-9.51865
iv	-9.51876
▁resign	-9.52025
▁gl	-9.52044
▁europe	-9.52049
▁apart	-9.52056
▁affair	-9.52088
▁attempt	-9.52088
▁built	-9.52088
▁dulcinea	-9.52088
▁flicka	-9.52088
▁girlfriend	-9.52088
▁godmother	-9.52088
▁justice	-9.52088
▁security	-9.52088
▁several	-9.52088
▁suspense	-9.52088
▁telegram	-9.52088
▁weather	-9.52088
▁otto	-9.52088
▁pretend	-9.52088
▁silver	-9.52088
▁spread	-9.52088
▁walter	-9.52088
▁grandfather	-9.52088
▁expert	-9.52088
▁telephone	-9.52088
▁style	-9.52089
▁mask	-9.52091
▁dancing	-9.52091
▁shouldve	-9.52091
▁jamie	-9.52103
▁aunt	-9.52104
▁howard	-9.5211
▁kane	-9.52112
▁gasping	-9.52115
▁rush	-9.52117
▁legend	-9.5212
▁dropped	-9.52124
▁handsome	-9.5213
▁loving	-9.52133
▁rise	-9.52145
▁male	-9.52177
▁huge	-9.52226
▁taxi	-9.52231
▁comrade	-9.52244
▁map	-9.52387
▁signal	-9.52446
▁rope	-9.52484
▁plant	-9.52562
▁agreed	-9.52763
▁swing	-9.52835
▁speaks	-9.53045
▁chu	-9.5313
▁fishing	-9.53189
▁that	-9.53251
▁bon	-9.53284
▁pin	-9.53293
▁bro	-9.53543
▁cape	-9.53594
ned	-9.53601
▁powers	-9.53613
▁cl	-9.54014
bel	-9.54229
▁rings	-9.54233
▁beg	-9.5434
▁ham	-9.54342
ving	-9.54416
ze	-9.54665
▁bless	-9.54711
▁bears	-9.54721
▁legal	-9.54778
▁gra	-9.54815
down	-9.55063
ball	-9.55151
▁har	-9.55224
▁suck	-9.55231
▁mighty	-9.55247
▁storm	-9.55278
▁port	-9.55306
▁va	-9.55338
▁russ	-9.55498
▁attend	-9.55536
▁avoid	-9.55536
▁contract	-9.55536
▁gandhi	-9.55536
▁international	-9.55536
▁jealous	-9.55536
▁material	-9.55536
▁military	-9.55536
▁minister	-9.55536
▁miracle	-9.55536
▁proctor	-9.55536
▁project	-9.55536
▁sanchez	-9.55536
▁yvette	-9.55536
▁beast	-9.55536
▁jean	-9.55537
▁shift	-9.55538
▁firing	-9.55542
▁valley	-9.55544
▁counselor	-9.55544
▁chop	-9.55546
▁value	-9.55547
▁flight	-9.55552
▁swim	-9.55555
▁alarm	-9.55559
▁quarter	-9.55563
▁coke	-9.55592
▁meat	-9.55658
▁usually	-9.55689
▁killer	-9.55719
▁patient	-9.5577
▁speed	-9.55771
▁arrived	-9.55805
▁grave	-9.55829
ther	-9.55869
▁cop	-9.55961
nce	-9.55997
▁concerned	-9.56008
▁mission	-9.56009
▁slowly	-9.56128
▁stranger	-9.5622
ical	-9.56454
tu	-9.56491
▁nicky	-9.5668
▁paying	-9.56833
ger	-9.56879
ank	-9.56932
▁sisters	-9.5698
▁can	-9.57066
▁career	-9.57122
ik	-9.57257
▁passing	-9.573
▁cr	-9.5748
▁heads	-9.58054
▁leader	-9.58086
▁surf	-9.58493
▁cor	-9.58611
▁dads	-9.58757
▁mis	-9.58835
▁up	-9.59014
▁birkin	-9.59108
▁brilliant	-9.59108
▁chinook	-9.59108
▁constance	-9.59108
▁evidence	-9.59108
▁executive	-9.59108
▁freak	-9.59108
▁gertrude	-9.59108
▁progress	-9.59108
▁canterville	-9.59108
▁cardinal	-9.59108
▁plus	-9.59108
▁nope	-9.59108
▁thou	-9.59108
▁perrin	-9.59108
▁desire	-9.59109
▁sugar	-9.59112
▁damage	-9.59114
▁jimmy	-9.59115
▁clock	-9.59117
▁property	-9.5912
▁palace	-9.59127
▁voiceover	-9.59128
▁excited	-9.5913
▁mike	-9.59131
▁duty	-9.59132
▁cons	-9.59132
▁unfortunately	-9.59138
▁rabbit	-9.59152
▁gate	-9.59205
▁older	-9.5921
▁laid	-9.59212
▁stolen	-9.59224
▁pure	-9.59296
▁clanging	-9.59306
▁gosh	-9.59333
▁inform	-9.59372
▁union	-9.59408
▁mustard	-9.59454
▁remain	-9.59472
▁booming	-9.59586
▁stink	-9.59685
▁yard	-9.5975
▁wa	-9.59788
▁rocks	-9.59894
one	-9.59937
▁iron	-9.59988
▁balls	-9.60005
▁locked	-9.60083
▁cab	-9.6012
▁cars	-9.60168
ries	-9.60269
▁goodness	-9.60313
▁whereve	-9.60465
▁higher	-9.60514
▁ga	-9.60608
▁loser	-9.60864
▁soldiers	-9.61258
▁cu	-9.61267
▁turning	-9.61395
▁ka	-9.61401
▁liked	-9.61519
ator	-9.61524
▁bringing	-9.61622
▁lips	-9.62042
▁stayed	-9.62231
▁ch	-9.62269
▁concern	-9.62306
board	-9.62403
▁command	-9.62479
▁natural	-9.62625
▁players	-9.62658
▁ac	-9.62724
▁julie	-9.62737
▁holly	-9.62808
▁represent	-9.62809
▁advice	-9.62811
▁aurora	-9.62811
▁claim	-9.62811
▁claudia	-9.62811
▁enemy	-9.62811
▁michael	-9.62811
▁register	-9.62811
▁subject	-9.62811
▁theodore	-9.62811
▁whiskey	-9.62811
▁whooshing	-9.62811
▁wreck	-9.62811
▁text	-9.62811
▁roof	-9.62812
▁davy	-9.62812
▁issue	-9.62812
▁washington	-9.62812
▁local	-9.62812
▁staff	-9.62812
▁bfg	-9.62812
▁honking	-9.62816
▁common	-9.62818
▁tu	-9.62819
▁popular	-9.62821
▁apparently	-9.62822
▁baker	-9.62823
▁familiar	-9.62834
▁pressure	-9.62848
▁extremely	-9.6285
▁cream	-9.62856
▁socialist	-9.62858
▁ego	-9.62864
▁christine	-9.62866
▁gee	-9.62883
▁fang	-9.62889
▁memory	-9.62895
▁nun	-9.62948
▁assure	-9.62957
▁mere	-9.63048
▁sighing	-9.63149
▁beeping	-9.63183
▁gene	-9.63203
▁fingers	-9.63255
▁actor	-9.63288
▁dish	-9.63293
▁ticket	-9.63351
▁crashing	-9.63356
▁rob	-9.63439
you	-9.63535
▁lesson	-9.6356
ace	-9.63666
▁ding	-9.63977
▁or	-9.63991
▁thy	-9.64152
▁surely	-9.64234
▁killing	-9.64521
▁papers	-9.64674
▁barn	-9.64698
▁expecting	-9.64828
▁he	-9.64884
▁chris	-9.65352
▁letters	-9.65671
▁wins	-9.65898
▁seconds	-9.66022
qui	-9.66112
▁wheel	-9.66127
▁survive	-9.66309
▁earn	-9.66353
▁original	-9.66475
▁neighbor	-9.66654
▁equal	-9.66656
▁anxious	-9.66658
▁attorney	-9.66658
▁blackmail	-9.66658
▁coughing	-9.66658
▁effort	-9.66658
▁jacques	-9.66658
▁jekyll	-9.66658
▁maleficent	-9.66658
▁munchie	-9.66658
▁opportunity	-9.66658
▁peggotty	-9.66658
▁purpose	-9.66658
▁sheila	-9.66658
▁sioux	-9.66658
▁stomach	-9.66658
▁suspect	-9.66658
▁whenever	-9.66658
▁changing	-9.66658
▁crime	-9.66658
▁japanese	-9.66658
▁knowledge	-9.66658
▁sword	-9.66658
▁saint	-9.6666
▁focus	-9.6666
▁native	-9.66664
▁cowboy	-9.66665
▁goku	-9.66667
▁poison	-9.66669
▁communist	-9.6667
▁festival	-9.66675
▁panting	-9.66678
▁route	-9.66679
▁female	-9.66684
▁gail	-9.66688
▁bound	-9.66703
▁agent	-9.66716
▁splashing	-9.66721
▁whip	-9.66721
▁switch	-9.66752
▁grass	-9.66776
igh	-9.66781
▁meal	-9.66798
▁champion	-9.66812
▁payment	-9.66931
▁fate	-9.67068
▁indistinctly	-9.67103
▁planet	-9.673
▁egg	-9.67346
▁sand	-9.67373
▁bean	-9.67435
▁lil	-9.67464
sa	-9.67675
▁artist	-9.67725
va	-9.67807
▁goin	-9.67817
ile	-9.67904
▁casey	-9.6798
▁tip	-9.68089
▁sl	-9.68186
▁plays	-9.68385
▁sc	-9.68431
▁sat	-9.68456
▁feelings	-9.68691
▁lad	-9.68776
▁pulled	-9.68797
▁cards	-9.68854
▁doc	-9.68918
▁jo	-9.68974
▁off	-9.69034
▁pleased	-9.69078
▁movies	-9.69093
▁cheers	-9.69266
▁fat	-9.69464
▁knees	-9.6955
▁meaning	-9.6957
▁heading	-9.69704
ence	-9.69713
▁val	-9.69772
han	-9.69864
▁pope	-9.70002
▁lessons	-9.70058
work	-9.70096
▁hon	-9.70123
▁cur	-9.70255
▁escape	-9.70311
well	-9.70316
▁official	-9.70467
▁total	-9.70476
▁africa	-9.70555
▁nothin	-9.7057
▁caravan	-9.70658
▁downstairs	-9.70658
▁duchess	-9.70658
▁kitty	-9.70658
▁magazine	-9.70658
▁research	-9.70658
▁scratch	-9.70658
▁spanish	-9.70658
▁steerforth	-9.70658
▁stories	-9.70658
▁weapon	-9.70658
▁gfg	-9.70658
▁stood	-9.70658
▁steam	-9.70658
▁biggest	-9.70658
▁stamp	-9.70658
▁factory	-9.70658
▁sandwich	-9.70658
▁joseph	-9.70661
▁monday	-9.70662
▁electric	-9.70665
▁snap	-9.70667
▁diana	-9.70667
▁noble	-9.70673
▁salt	-9.70675
▁dump	-9.70677
▁type	-9.7071
▁shoulder	-9.70717
▁ike	-9.70725
▁eastman	-9.70726
▁mattie	-9.70738
tone	-9.70742
▁shots	-9.7075
▁tiny	-9.70775
▁jamaican	-9.70789
▁itd	-9.70834
▁scream	-9.70909
▁pitch	-9.70919
▁invited	-9.70971
▁jan	-9.7105
▁personally	-9.71097
▁ray	-9.71172
▁pot	-9.71206
▁sur	-9.71305
▁recall	-9.71337
▁germany	-9.71355
▁magical	-9.71391
▁letting	-9.71445
▁banging	-9.71726
ible	-9.71811
▁cents	-9.71834
▁boo	-9.71879
▁prayer	-9.71892
ush	-9.71978
▁be	-9.72078
▁trap	-9.72092
▁opening	-9.72127
▁lately	-9.72133
▁closes	-9.72216
▁gi	-9.72392
log	-9.72772
▁fl	-9.72826
▁ki	-9.72826
▁believed	-9.73036
▁advance	-9.73072
fi	-9.7347
rt	-9.73941
▁marks	-9.74088
▁fail	-9.74283
right	-9.74301
▁panic	-9.74421
▁provide	-9.74473
ations	-9.74532
old	-9.74647
▁usual	-9.74651
ezvous	-9.74771
▁francis	-9.74806
▁andrada	-9.74824
▁audition	-9.74824
▁beloved	-9.74824
▁boyfriend	-9.74824
▁desperate	-9.74824
▁gideon	-9.74824
▁gloria	-9.74824
▁grandmother	-9.74824
▁holiness	-9.74824
▁result	-9.74824
▁society	-9.74824
▁surrender	-9.74824
▁whirring	-9.74824
▁wickfield	-9.74824
▁footsteps	-9.74824
▁physical	-9.74824
▁creep	-9.74824
▁exciting	-9.74824
▁flag	-9.74824
▁nightmare	-9.74824
▁ruth	-9.74824
▁spider	-9.74825
▁habit	-9.74825
▁magnet	-9.74825
▁zoe	-9.74826
▁trotwood	-9.74827
▁basketball	-9.74828
▁equipment	-9.74829
▁hollywood	-9.7483
▁supper	-9.74831
▁yankee	-9.74833
▁prize	-9.74836
▁trapped	-9.74837
▁edward	-9.74843
▁crew	-9.74844
▁hung	-9.74844
▁leak	-9.74844
▁merry	-9.74844
▁hammer	-9.74846
▁hoo	-9.74858
▁plate	-9.74866
▁yearold	-9.74873
▁rambalcochet	-9.74874
▁grade	-9.74876
▁dust	-9.74902
▁loan	-9.74905
▁spent	-9.7492
▁plain	-9.74929
▁perform	-9.74943
▁sally	-9.74962
ny	-9.74978
▁wide	-9.75004
▁inner	-9.75031
▁flu	-9.75062
▁medica	-9.75133
▁received	-9.75181
▁para	-9.75212
▁down	-9.75307
▁warning	-9.75338
▁lily	-9.75348
▁deepu	-9.75379
▁fianc	-9.75405
▁ruined	-9.75639
▁starts	-9.75784
▁shake	-9.75797
▁unto	-9.75815
▁surprised	-9.75865
▁curse	-9.75886
▁ian	-9.75913
▁breathing	-9.75959
▁button	-9.76004
▁mile	-9.76032
▁clearly	-9.76041
tle	-9.76212
▁nuts	-9.76224
▁workers	-9.76252
▁searching	-9.7635
▁comb	-9.76405
▁fan	-9.76531
▁fields	-9.7655
▁ni	-9.76556
▁sports	-9.76771
ble	-9.76871
▁bath	-9.76893
▁chip	-9.76911
gy	-9.77193
side	-9.77197
▁members	-9.77352
oc	-9.7739
▁turns	-9.77517
▁caused	-9.77767
▁pan	-9.78161
▁shooting	-9.78281
▁cha	-9.78426
▁crash	-9.78546
ning	-9.78567
▁sending	-9.78781
▁invite	-9.78832
▁arrive	-9.78833
▁bike	-9.7887
my	-9.78871
▁chick	-9.79158
▁appointment	-9.79172
▁campbell	-9.79172
▁celebrate	-9.79172
▁criminal	-9.79172
▁dummy	-9.79172
▁italian	-9.79172
▁political	-9.79172
▁samadhi	-9.79172
▁science	-9.79172
▁thompson	-9.79172
▁unusual	-9.79172
▁vehicle	-9.79172
▁cheryl	-9.79172
▁election	-9.79172
▁shawn	-9.79172
▁watergate	-9.79172
▁apple	-9.79172
▁intend	-9.79172
▁interview	-9.79173
▁alien	-9.79173
▁lousy	-9.79174
▁comin	-9.79175
▁earlier	-9.79175
▁university	-9.79176
▁fake	-9.79177
▁thornton	-9.79178
▁melba	-9.79178
▁cast	-9.79182
▁howling	-9.79183
▁belt	-9.79186
▁candy	-9.79189
▁investigation	-9.79191
▁tony	-9.79192
▁confess	-9.79193
▁richard	-9.79193
▁task	-9.79194
▁comfortable	-9.79195
▁happiness	-9.79199
▁energy	-9.79201
▁labor	-9.79204
▁weekend	-9.79208
▁crackling	-9.7921
▁planned	-9.79212
▁growling	-9.79242
▁recently	-9.79266
▁cave	-9.79294
▁wet	-9.79318
▁knee	-9.79337
▁deny	-9.79348
▁ruby	-9.79353
▁scar	-9.79362
▁gim	-9.79365
▁print	-9.79377
▁grown	-9.79473
▁bass	-9.79491
▁noticed	-9.79757
▁loves	-9.79768
▁drinking	-9.79813
▁gar	-9.79893
▁joey	-9.79924
▁yell	-9.80019
▁arrested	-9.8016
▁county	-9.80177
▁harm	-9.80179
▁chi	-9.8041
▁file	-9.80451
▁fur	-9.80584
▁bangs	-9.80632
▁youth	-9.80637
▁giants	-9.80716
▁lots	-9.80919
▁returned	-9.81038
▁wo	-9.81167
ier	-9.81178
▁depends	-9.81187
over	-9.81476
eth	-9.82266
▁odd	-9.82295
▁buttons	-9.82581
▁hurts	-9.82621
▁mate	-9.82627
▁seek	-9.82743
▁pe	-9.82755
▁smells	-9.82855
ot	-9.8287
▁deliver	-9.82928
▁india	-9.82957
▁mistakes	-9.83014
▁sniff	-9.83062
▁americans	-9.83066
▁thousands	-9.83159
q	-9.83175
▁health	-9.83472
▁comrades	-9.83504
▁somethin	-9.8363
▁among	-9.8368
▁slip	-9.83714
▁accent	-9.83718
▁argument	-9.83718
▁audience	-9.83718
▁bernie	-9.83718
▁earthquake	-9.83718
▁elizabeth	-9.83718
▁giuliano	-9.83718
▁grateful	-9.83718
▁junk	-9.83718
▁knife	-9.83718
▁micawber	-9.83718
▁occasion	-9.83718
▁republic	-9.83718
▁smith	-9.83718
▁szalinski	-9.83718
▁texas	-9.83718
▁toilet	-9.83718
▁byebye	-9.83718
▁reckon	-9.83718
▁bleating	-9.83718
▁glory	-9.83718
▁western	-9.83718
▁profit	-9.83719
▁barely	-9.8372
▁croft	-9.83721
▁clever	-9.83723
▁bathroom	-9.83723
▁resistance	-9.83727
▁snor	-9.8373
▁slipper	-9.83734
▁shopping	-9.83736
▁defense	-9.83746
▁understood	-9.83764
▁oliver	-9.83765
▁pink	-9.83803
▁level	-9.83816
▁aid	-9.83845
▁creaking	-9.83882
▁according	-9.83912
▁noon	-9.83914
▁sweetie	-9.83943
▁golden	-9.83951
▁ernesto	-9.83963
▁healthy	-9.83979
▁loss	-9.83985
gue	-9.83998
fully	-9.84058
wa	-9.84062
▁sandy	-9.84064
▁ap	-9.84141
▁passes	-9.84147
▁eaten	-9.84199
▁hearne	-9.84202
▁charming	-9.84212
ass	-9.84475
▁payal	-9.8454
▁tune	-9.84755
▁spit	-9.84933
▁creature	-9.85133
▁sale	-9.85157
▁click	-9.85213
▁pound	-9.85229
▁laws	-9.8528
▁booker	-9.8537
▁explosions	-9.85527
rit	-9.85598
▁jews	-9.85854
▁rider	-9.86353
▁chase	-9.86437
▁teams	-9.8657
ition	-9.86757
▁thuds	-9.86809
▁yells	-9.87152
▁trainer	-9.87213
tan	-9.8723
room	-9.87479
▁complain	-9.87577
▁blond	-9.87891
our	-9.87895
▁freeze	-9.88006
▁checking	-9.88016
▁cops	-9.88036
▁boom	-9.88049
▁organ	-9.88054
wood	-9.88073
▁direct	-9.88139
▁chap	-9.88162
▁proper	-9.88333
▁witness	-9.88356
▁speech	-9.88359
ker	-9.88371
▁express	-9.8844
▁effect	-9.88447
▁measure	-9.88478
▁character	-9.88479
▁barbara	-9.88479
▁butcher	-9.88479
▁challenge	-9.88479
▁disease	-9.88479
▁individual	-9.88479
▁kakamucho	-9.88479
▁league	-9.88479
▁meredith	-9.88479
▁milady	-9.88479
▁nonsense	-9.88479
▁otherwise	-9.88479
▁paradise	-9.88479
▁policy	-9.88479
▁privilege	-9.88479
▁rapunzel	-9.88479
▁rhythm	-9.88479
▁shakespeare	-9.88479
▁sobbing	-9.88479
▁buried	-9.8848
▁cheap	-9.8848
▁ryker	-9.8848
▁skill	-9.8848
▁zorin	-9.8848
▁branch	-9.8848
▁bryant	-9.8848
▁decent	-9.8848
▁duran	-9.8848
▁snow	-9.8848
▁wailing	-9.8848
▁steel	-9.8848
▁moaning	-9.8848
▁sondra	-9.88481
▁bleeding	-9.88482
▁shirt	-9.88483
▁honour	-9.88486
▁golf	-9.88489
▁whi	-9.8849
▁hissing	-9.88492
▁describe	-9.88493
▁under	-9.88497
▁assume	-9.88504
▁beck	-9.88507
▁grandma	-9.88514
▁edge	-9.88549
▁coward	-9.88554
▁wallet	-9.88554
▁swell	-9.88575
▁thirsty	-9.88575
▁product	-9.88605
▁skip	-9.88607
▁wire	-9.88619
▁arth	-9.8866
▁jesse	-9.88702
▁impression	-9.88708
▁notes	-9.88736
▁sub	-9.8874
▁commissioner	-9.88778
▁suffering	-9.88874
▁shower	-9.88952
ham	-9.88969
▁ro	-9.8907
▁beth	-9.89093
▁pit	-9.89202
▁mentioned	-9.89241
▁opera	-9.89361
▁cheer	-9.89514
▁reporter	-9.89524
▁jr	-9.89648
▁fil	-9.897
▁secrets	-9.897
▁belonged	-9.89753
▁ty	-9.89804
▁hundreds	-9.8989
▁kicked	-9.89919
▁millions	-9.8999
▁ven	-9.9004
▁thud	-9.90181
▁olympics	-9.90219
▁led	-9.90308
▁pig	-9.90427
▁fixed	-9.90444
▁everybodys	-9.90466
▁writer	-9.90521
▁teaching	-9.90591
▁yay	-9.90595
▁blowing	-9.90614
lic	-9.90742
▁guards	-9.90878
▁ne	-9.91012
▁div	-9.91182
▁ally	-9.91274
▁plans	-9.91411
▁bags	-9.91689
den	-9.92285
king	-9.92291
▁guest	-9.92333
▁et	-9.92399
▁tend	-9.92519
end	-9.92679
▁iii	-9.9275
▁wast	-9.9284
▁hated	-9.9292
screen	-9.93079
▁arrange	-9.93094
ists	-9.93127
▁sex	-9.93197
▁rep	-9.93351
▁capital	-9.93387
omber	-9.93445
▁clay	-9.93467
inlaw	-9.93469
▁aramis	-9.93479
▁circle	-9.93479
▁concludes	-9.93479
▁deposit	-9.93479
▁devito	-9.93479
▁elevator	-9.93479
▁gruberman	-9.93479
▁guarantee	-9.93479
▁kaguya	-9.93479
▁kruger	-9.93479
▁nascimento	-9.93479
▁ocean	-9.93479
▁patience	-9.93479
▁possibility	-9.93479
▁rescue	-9.93479
▁responsibility	-9.93479
▁responsible	-9.93479
▁sacred	-9.93479
▁sneak	-9.93479
▁triumph	-9.93479
▁wednesday	-9.93479
▁dutch	-9.9348
▁unique	-9.9348
▁vacation	-9.9348
▁wagon	-9.9348
▁balance	-9.9348
▁thief	-9.9348
▁doorbell	-9.9348
▁polar	-9.9348
▁hidden	-9.9348
▁proceed	-9.9348
▁stokes	-9.9348
▁agnes	-9.9348
▁aware	-9.9348
▁presence	-9.9348
▁chandler	-9.9348
▁minor	-9.93481
▁horrible	-9.93481
▁jerk	-9.93482
▁il	-9.93485
▁logan	-9.93486
▁neigh	-9.93486
▁flash	-9.93492
▁heck	-9.93506
▁nome	-9.93524
▁pele	-9.93526
▁direction	-9.93526
▁moron	-9.93538
▁engaged	-9.93541
▁castle	-9.93578
▁dora	-9.9358
▁lean	-9.93581
▁discussion	-9.93585
▁forth	-9.93598
▁jap	-9.9361
▁squad	-9.93611
▁jane	-9.93635
▁disappointed	-9.93676
▁comment	-9.93689
▁shattering	-9.93728
▁uhoh	-9.93748
▁hut	-9.93759
▁exhales	-9.93916
▁butter	-9.93983
▁hire	-9.94016
▁ob	-9.94018
▁ator	-9.9402
▁served	-9.94174
▁fo	-9.9424
ihe	-9.94358
▁students	-9.94451
▁lookin	-9.94504
▁stronger	-9.94525
▁carefully	-9.9463
▁ended	-9.94652
izz	-9.94701
▁rip	-9.94703
▁burned	-9.94817
▁wishes	-9.94874
val	-9.94913
ink	-9.94991
illa	-9.95145
▁daughters	-9.95241
▁pushed	-9.95352
▁buck	-9.95455
▁details	-9.95662
▁flower	-9.95717
▁pea	-9.95728
▁char	-9.95778
ini	-9.95931
▁selling	-9.96171
▁acting	-9.96227
bs	-9.96267
▁ordered	-9.96454
▁au	-9.96499
▁humans	-9.96624
▁whe	-9.97006
some	-9.97112
▁image	-9.97503
▁carol	-9.97666
▁fe	-9.97752
gi	-9.97795
▁hum	-9.97827
light	-9.9803
▁ln	-9.98048
▁bu	-9.98214
▁desert	-9.98219
▁limit	-9.98228
▁enter	-9.98289
for	-9.98713
▁trans	-9.98726
▁congress	-9.98742
▁ambassador	-9.98743
▁background	-9.98743
▁benefit	-9.98743
▁chelsea	-9.98743
▁complicated	-9.98743
▁disguise	-9.98743
▁engelberg	-9.98743
▁francs	-9.98743
▁license	-9.98743
▁miami	-9.98743
▁nixon	-9.98743
▁principle	-9.98743
▁quality	-9.98743
▁silence	-9.98743
▁babies	-9.98743
▁chakal	-9.98743
▁height	-9.98743
▁illegal	-9.98743
▁spark	-9.98743
▁daisy	-9.98743
▁firm	-9.98743
▁ashamed	-9.98743
▁rumor	-9.98743
▁thrill	-9.98743
▁warrior	-9.98743
▁chimes	-9.98743
▁bodies	-9.98743
▁structure	-9.98743
▁illusion	-9.98744
▁ugly	-9.98744
▁susie	-9.98746
▁romantic	-9.98747
▁neighborhood	-9.98747
▁ginny	-9.98747
▁magnificent	-9.98747
▁distance	-9.9875
▁broad	-9.9875
▁delay	-9.98752
▁toast	-9.98753
▁onto	-9.98753
▁lenny	-9.98755
▁scooter	-9.98771
▁chapel	-9.98774
▁juan	-9.98774
▁communication	-9.98776
▁practically	-9.98788
▁stretch	-9.98797
▁grew	-9.98798
▁secretary	-9.988
▁reverend	-9.98808
▁string	-9.98815
▁santa	-9.98825
▁chill	-9.9883
▁trade	-9.98839
▁mail	-9.98842
▁safety	-9.98842
▁soup	-9.98843
▁bible	-9.98844
▁macka	-9.9885
▁farley	-9.98852
▁cia	-9.98905
▁ram	-9.98913
▁chain	-9.98931
▁tax	-9.98965
▁heat	-9.98993
▁disappeared	-9.99007
▁pen	-9.99086
▁buzzing	-9.9911
▁hired	-9.99121
▁endless	-9.99138
▁opened	-9.9919
▁bow	-9.99252
▁bump	-9.99279
▁deeply	-9.99353
ward	-9.99401
ay	-9.99409
▁mor	-9.99511
▁mer	-9.99554
▁flame	-9.99746
▁blows	-9.99779
▁zoo	-9.99986
▁umm	-10.0006
clu	-10.0007
▁chipmunks	-10.0012
▁beard	-10.0037
▁bolsheviks	-10.0049
▁bush	-10.0051
use	-10.0067
▁ph	-10.0077
▁uniforms	-10.0086
▁member	-10.0101
▁soldier	-10.0103
▁pepper	-10.0103
▁sometime	-10.0105
▁lied	-10.0113
▁tied	-10.0128
▁presents	-10.0136
ok	-10.0143
▁cares	-10.0145
cut	-10.015
▁boats	-10.0151
▁tear	-10.016
els	-10.0189
air	-10.0192
▁pieces	-10.0205
ified	-10.022
▁touched	-10.0221
▁teachers	-10.031
▁ahhh	-10.0313
▁gal	-10.0318
▁eggs	-10.0331
▁starr	-10.0343
▁tickets	-10.0349
▁walls	-10.035
▁squeak	-10.0365
ery	-10.0367
▁insist	-10.0378
▁gather	-10.0379
▁talent	-10.0379
▁delight	-10.0384
▁gre	-10.039
▁require	-10.0391
▁release	-10.0395
house	-10.0399
▁load	-10.04
▁temp	-10.0415
▁deed	-10.0417
▁replace	-10.0426
▁regret	-10.0428
▁plum	-10.043
▁attitude	-10.043
▁banana	-10.043
▁confidence	-10.043
▁destiny	-10.043
▁easily	-10.043
▁fortunate	-10.043
▁garbage	-10.043
▁garrincha	-10.043
▁interrupt	-10.043
▁lincoln	-10.043
▁miranda	-10.043
▁mirror	-10.043
▁regular	-10.043
▁rochelle	-10.043
▁servant	-10.043
▁solution	-10.043
▁soviet	-10.043
▁uriah	-10.043
▁william	-10.043
▁bueno	-10.043
▁dawn	-10.043
▁regard	-10.043
▁slave	-10.043
▁fbi	-10.043
▁cousin	-10.043
▁serum	-10.043
▁chiming	-10.043
▁mysterious	-10.043
▁championship	-10.043
▁permission	-10.043
▁option	-10.043
▁stomp	-10.043
▁crook	-10.043
▁client	-10.043
▁pilot	-10.043
▁rustling	-10.043
▁authority	-10.0431
▁gown	-10.0431
▁virginia	-10.0431
▁marvin	-10.0431
▁fancy	-10.0431
▁psycho	-10.0431
▁desk	-10.0431
▁twist	-10.0432
▁doug	-10.0432
▁performance	-10.0432
▁airport	-10.0432
▁cattle	-10.0433
ler	-10.0434
▁aside	-10.0434
▁quot	-10.0434
▁blew	-10.0435
▁hitler	-10.0435
▁lightning	-10.0436
▁mumbles	-10.0437
vious	-10.0437
▁dragon	-10.0437
▁toron	-10.0438
▁clattering	-10.0439
▁heal	-10.044
▁jewel	-10.044
▁herb	-10.0441
▁ad	-10.0442
▁math	-10.0442
▁disgusting	-10.0443
▁african	-10.0444
▁stage	-10.0445
▁passion	-10.0448
▁spoken	-10.0452
▁goldman	-10.0455
▁kai	-10.0461
▁hiya	-10.0473
▁glasses	-10.0478
▁screwed	-10.0479
▁softly	-10.0486
▁frankly	-10.0495
here	-10.0505
▁mae	-10.0514
▁lower	-10.0535
▁cro	-10.0536
▁blar	-10.0551
▁accepted	-10.0555
▁degrees	-10.0556
▁ate	-10.0591
▁bothering	-10.0596
▁wayne	-10.0598
▁considered	-10.0608
▁jumped	-10.0612
▁burning	-10.0619
▁rate	-10.0625
▁waves	-10.0649
▁chances	-10.0682
▁dragonball	-10.0684
▁dollar	-10.0702
▁harder	-10.0735
▁ends	-10.0745
▁bells	-10.0747
▁receive	-10.0748
▁ted	-10.0759
▁the	-10.0772
▁leading	-10.0776
▁rolling	-10.0814
▁trained	-10.0818
▁prom	-10.0825
▁dreamed	-10.0831
we	-10.0865
▁mu	-10.0885
ki	-10.0892
▁screw	-10.09
cy	-10.0909
▁anti	-10.0917
▁warn	-10.0939
▁ana	-10.0951
▁roar	-10.096
▁charm	-10.0966
▁profession	-10.097
▁gen	-10.0971
▁crow	-10.0973
▁pla	-10.0977
▁commission	-10.0981
door	-10.0982
▁separate	-10.0983
▁presidents	-10.0996
▁pat	-10.1003
like	-10.1003
late	-10.1008
▁admir	-10.101
▁social	-10.1011
▁gettin	-10.1014
▁athos	-10.1018
▁butler	-10.1018
▁cinderella	-10.1018
▁circumstances	-10.1018
▁colbert	-10.1018
▁delicious	-10.1018
▁determined	-10.1018
▁draft	-10.1018
▁fifth	-10.1018
▁heavily	-10.1018
▁helicopter	-10.1018
▁jazz	-10.1018
▁lecture	-10.1018
▁marvelous	-10.1018
▁mexico	-10.1018
▁patrol	-10.1018
▁remote	-10.1018
▁subtitle	-10.1018
▁tuesday	-10.1018
▁twelve	-10.1018
▁ulysses	-10.1018
▁velrans	-10.1018
▁ahearn	-10.1018
▁april	-10.1018
▁eventually	-10.1018
▁photo	-10.1018
▁source	-10.1018
▁spoil	-10.1018
▁tongue	-10.1018
▁album	-10.1018
▁editor	-10.1018
▁salary	-10.1018
▁juice	-10.1018
▁rude	-10.1018
▁solid	-10.1018
▁aisle	-10.1018
▁spain	-10.1018
▁larry	-10.1018
▁porthos	-10.1018
▁item	-10.1018
▁cathy	-10.1018
▁cruel	-10.1018
▁expensive	-10.1018
▁cried	-10.1018
▁pregnant	-10.1018
▁development	-10.1019
▁rotten	-10.1019
▁assistance	-10.1019
▁theme	-10.1019
▁trash	-10.102
▁owns	-10.102
▁section	-10.1021
▁toby	-10.1021
▁beam	-10.1022
▁contain	-10.1022
▁foolish	-10.1024
▁reward	-10.1024
▁sophie	-10.1025
▁boring	-10.1025
▁chairman	-10.1026
▁guilty	-10.1027
▁sumo	-10.1028
▁cock	-10.1028
▁director	-10.1032
ire	-10.1032
chi	-10.1033
▁powerful	-10.1038
▁lack	-10.1038
▁mule	-10.1041
▁robin	-10.1042
▁formal	-10.1043
▁chat	-10.1047
▁stands	-10.1048
▁pour	-10.105
▁particularly	-10.1058
ja	-10.106
▁erin	-10.1063
▁tang	-10.1063
▁joel	-10.1064
▁professional	-10.1066
▁lick	-10.1066
▁bitter	-10.1068
ities	-10.107
▁grove	-10.1071
▁bowling	-10.1081
▁created	-10.1089
▁aires	-10.1106
gged	-10.1107
▁defeated	-10.111
▁entirely	-10.1111
▁seal	-10.1116
▁hip	-10.1117
pping	-10.1118
zy	-10.1119
▁web	-10.1122
▁finest	-10.1125
▁instruments	-10.1132
▁hunting	-10.1135
ncy	-10.1148
▁cigarettes	-10.1153
yeah	-10.1159
aging	-10.1163
▁rank	-10.1167
▁troops	-10.1175
▁blast	-10.1175
▁songs	-10.119
▁enjoyed	-10.1201
▁dani	-10.1206
▁ideal	-10.1213
▁rap	-10.1224
▁reasons	-10.1251
▁boarding	-10.1258
▁fr	-10.1261
▁cooking	-10.1289
▁qua	-10.1316
▁cleaning	-10.1331
ka	-10.134
▁ble	-10.1351
▁counting	-10.136
▁tale	-10.1362
▁fri	-10.1367
▁learning	-10.138
▁throwing	-10.1395
▁tracks	-10.1403
▁coaching	-10.1415
▁belongs	-10.1429
▁catching	-10.1433
▁ju	-10.1435
ft	-10.1448
▁engineer	-10.1456
▁sales	-10.1458
▁spin	-10.1542
▁rub	-10.1558
▁hug	-10.1564
▁fuck	-10.1579
▁remembered	-10.1588
▁bowl	-10.1592
▁discover	-10.1593
▁fella	-10.1603
what	-10.1607
▁convince	-10.1609
▁current	-10.1624
▁sail	-10.1628
▁indi	-10.1634
▁rare	-10.1636
▁establish	-10.164
▁misunderstand	-10.1643
▁apology	-10.1643
▁assignment	-10.1643
▁australia	-10.1643
▁available	-10.1643
▁bethlehem	-10.1643
▁border	-10.1643
▁buckingham	-10.1643
▁destruction	-10.1643
▁district	-10.1643
▁expedition	-10.1643
▁experiment	-10.1643
▁extraordinary	-10.1643
▁families	-10.1643
▁genius	-10.1643
▁giggles	-10.1643
▁hypnoray	-10.1643
▁peacock	-10.1643
▁purchase	-10.1643
▁reservation	-10.1643
▁routine	-10.1643
▁specific	-10.1643
▁struggle	-10.1643
▁sutemaru	-10.1643
▁thursday	-10.1643
▁tradition	-10.1643
▁cheek	-10.1643
▁evie	-10.1643
▁joshua	-10.1643
▁prevent	-10.1643
▁senator	-10.1643
▁closing	-10.1643
▁mostly	-10.1643
▁period	-10.1643
▁cackle	-10.1643
▁punch	-10.1643
▁plastic	-10.1643
▁generation	-10.1643
▁eerie	-10.1643
▁region	-10.1643
▁warrant	-10.1643
▁swimming	-10.1643
▁olsen	-10.1643
▁brown	-10.1643
▁jones	-10.1643
▁ordinary	-10.1643
▁steer	-10.1644
▁stall	-10.1644
▁community	-10.1644
▁navy	-10.1644
▁computerized	-10.1645
▁zone	-10.1645
▁pump	-10.1645
▁abner	-10.1645
▁centre	-10.1646
▁convention	-10.1646
▁sentence	-10.1646
▁maiden	-10.1646
▁brake	-10.1647
▁failure	-10.1647
▁journalist	-10.1647
▁anger	-10.1647
▁beef	-10.1647
▁woke	-10.1648
▁summertime	-10.1648
vis	-10.1648
▁johnny	-10.1648
▁flies	-10.1649
▁marco	-10.1649
▁duck	-10.1649
▁guts	-10.165
▁fortune	-10.165
▁rack	-10.165
▁proof	-10.165
▁atta	-10.165
▁dropping	-10.1651
▁bubble	-10.1653
▁heep	-10.1653
▁china	-10.1653
▁cox	-10.1654
▁darkness	-10.1654
▁mental	-10.1655
▁stein	-10.1655
▁tosh	-10.1655
▁barrel	-10.1657
▁cmon	-10.1657
▁agh	-10.1658
▁successful	-10.1664
▁homework	-10.1665
▁vet	-10.1668
▁directly	-10.1668
▁properly	-10.1668
▁mol	-10.1669
▁rot	-10.1671
▁customer	-10.1673
▁inter	-10.1674
▁naturally	-10.1675
▁bout	-10.1676
▁thee	-10.168
▁aye	-10.1682
▁beep	-10.1686
▁steps	-10.1686
▁parties	-10.1693
bod	-10.1698
▁sum	-10.1698
▁easter	-10.17
▁fi	-10.1708
▁fee	-10.1711
▁seth	-10.1722
▁hood	-10.1727
▁lamb	-10.1737
▁mustnt	-10.1737
▁whispers	-10.1743
▁discipline	-10.1753
▁crickets	-10.1764
▁bug	-10.1767
arm	-10.1773
▁martini	-10.1785
▁wasted	-10.1797
▁filled	-10.1808
▁events	-10.1816
▁packed	-10.1818
mber	-10.182
▁traveling	-10.1822
▁ja	-10.1825
▁parker	-10.1826
▁bust	-10.1844
▁crossed	-10.1862
ept	-10.1862
nny	-10.1867
ana	-10.19
▁demands	-10.192
vin	-10.1939
▁shadows	-10.1943
▁qu	-10.1952
▁friendly	-10.1967
▁bugs	-10.1973
▁devil	-10.1976
▁fools	-10.1977
▁shine	-10.1983
▁beside	-10.1985
▁recording	-10.2001
ola	-10.2016
▁unit	-10.2018
pu	-10.2035
hhh	-10.2039
▁helped	-10.204
▁tears	-10.2041
▁whoohoo	-10.2044
▁scr	-10.2067
▁signed	-10.2077
ko	-10.2101
ium	-10.2104
sel	-10.2107
▁souls	-10.2144
ai	-10.2147
▁mic	-10.216
▁fu	-10.217
▁prayers	-10.2185
▁page	-10.2202
▁tra	-10.2208
ull	-10.2214
▁husbands	-10.2218
port	-10.2226
▁squeal	-10.2247
▁insult	-10.2257
▁sting	-10.2261
▁mix	-10.2267
▁twenty	-10.2269
▁flow	-10.228
▁robber	-10.228
▁success	-10.2288
▁immediate	-10.2291
▁doll	-10.2293
▁potato	-10.2298
▁darlin	-10.2301
▁comfort	-10.2306
▁lucia	-10.2308
▁threat	-10.231
▁appetite	-10.231
▁athlete	-10.231
▁belief	-10.231
▁beneath	-10.231
▁cackling	-10.231
▁chessy	-10.231
▁coughs	-10.231
▁council	-10.231
▁declar	-10.231
▁education	-10.231
▁enemies	-10.231
▁excitement	-10.231
▁explanation	-10.231
▁haldeman	-10.231
▁helmet	-10.231
▁impressive	-10.231
▁ingredient	-10.231
▁insane	-10.231
▁insurance	-10.231
▁manhattan	-10.231
▁modern	-10.231
▁oclock	-10.231
▁phrase	-10.231
▁precious	-10.231
▁relative	-10.231
▁reputation	-10.231
▁sacrifice	-10.231
▁shield	-10.231
▁someplace	-10.231
▁splendid	-10.231
▁struck	-10.231
▁target	-10.231
▁terribly	-10.231
▁therefore	-10.231
▁jeez	-10.231
▁observe	-10.231
▁polite	-10.231
▁recover	-10.231
▁schedule	-10.231
▁supply	-10.231
▁lassard	-10.231
▁stroke	-10.231
▁crail	-10.231
▁concert	-10.231
▁tanner	-10.231
▁claus	-10.231
▁diane	-10.231
▁purse	-10.231
▁model	-10.231
▁error	-10.231
▁alice	-10.231
▁dumas	-10.231
▁rising	-10.231
▁butterfree	-10.231
▁mood	-10.231
▁susan	-10.231
▁mercy	-10.231
▁clinic	-10.231
▁plug	-10.2311
▁positive	-10.2311
▁obey	-10.2311
▁toro	-10.2311
▁mouse	-10.2311
▁jake	-10.2311
▁title	-10.2312
▁russell	-10.2312
▁naked	-10.2313
▁francisco	-10.2313
▁jimbo	-10.2313
▁eve	-10.2313
▁remarkable	-10.2313
▁togo	-10.2315
▁aboard	-10.2316
▁gladys	-10.2316
▁brazilian	-10.2316
▁oak	-10.2317
▁humor	-10.2317
▁disco	-10.2319
▁shane	-10.2319
▁trial	-10.2319
▁fashion	-10.2319
▁ramen	-10.2319
▁root	-10.232
▁nails	-10.2321
▁peaceful	-10.2322
▁marine	-10.2323
▁agreement	-10.2323
▁mansion	-10.2323
▁dori	-10.2325
▁chanting	-10.233
▁betting	-10.2334
▁humble	-10.2336
▁dolly	-10.2336
▁gain	-10.2337
▁roy	-10.234
▁convinced	-10.2347
▁borrowed	-10.2351
▁kindness	-10.2352
▁jacket	-10.2359
▁screen	-10.2364
▁host	-10.2364
▁outer	-10.2365
▁pap	-10.2367
▁normally	-10.2367
▁busted	-10.2369
▁approaching	-10.237
▁pity	-10.2373
▁hopeless	-10.2374
▁meantime	-10.2377
▁movement	-10.2378
▁bond	-10.2381
rai	-10.2381
▁honestly	-10.2381
▁emotional	-10.2383
▁settled	-10.2387
▁squeaking	-10.2388
▁musketeers	-10.2392
▁failed	-10.2394
▁earned	-10.2402
▁raised	-10.2407
▁nah	-10.2408
▁medi	-10.2411
▁blessed	-10.2412
how	-10.2416
▁bend	-10.2421
▁mid	-10.2423
▁locker	-10.2427
▁exp	-10.2429
▁sang	-10.2441
▁forced	-10.2445
▁treated	-10.2448
▁mat	-10.2452
▁mort	-10.2463
▁socks	-10.2464
▁sundays	-10.2492
▁covered	-10.2494
▁awaken	-10.25
▁jackie	-10.2501
ots	-10.2506
▁pus	-10.2511
▁whoops	-10.2515
▁toys	-10.2537
▁attacked	-10.2556
▁painful	-10.2563
sky	-10.2568
▁wil	-10.2571
imp	-10.2573
▁reports	-10.2589
▁headed	-10.26
ski	-10.2601
▁sigh	-10.2601
▁inn	-10.2604
itter	-10.2623
▁indians	-10.2629
▁devils	-10.2655
▁jew	-10.2677
▁shadow	-10.2691
▁depend	-10.2697
▁toward	-10.2698
▁sport	-10.2701
▁cub	-10.2713
▁pill	-10.2734
▁nap	-10.2755
▁pigs	-10.2777
▁beating	-10.2779
▁she	-10.2787
▁paint	-10.2804
▁talkin	-10.2821
▁bla	-10.2834
▁bone	-10.2839
▁fans	-10.2843
uch	-10.2847
▁don	-10.2855
zer	-10.286
▁heavens	-10.2872
▁her	-10.2895
▁picking	-10.2915
▁def	-10.2924
▁mel	-10.2936
ably	-10.2955
▁approach	-10.2959
nar	-10.2963
▁cheat	-10.2964
oid	-10.2964
▁ye	-10.297
▁for	-10.2972
▁photograph	-10.2981
born	-10.2996
▁elliot	-10.3003
▁actual	-10.3006
▁obvious	-10.3006
ame	-10.3009
fire	-10.301
▁stefan	-10.3014
▁rome	-10.3016
▁select	-10.3019
▁improve	-10.3021
▁basket	-10.3023
▁basic	-10.3023
▁blenac	-10.3024
▁buffalo	-10.3024
▁celebrating	-10.3024
▁ceremony	-10.3024
▁clown	-10.3024
▁easier	-10.3024
▁expense	-10.3024
▁imitating	-10.3024
▁judgment	-10.3024
▁lndistinct	-10.3024
▁muffled	-10.3024
▁museum	-10.3024
▁negative	-10.3024
▁passenger	-10.3024
▁pattern	-10.3024
▁phantom	-10.3024
▁pistol	-10.3024
▁politician	-10.3024
▁politics	-10.3024
▁religion	-10.3024
▁religious	-10.3024
▁rumba	-10.3024
▁sigrid	-10.3024
▁stephanie	-10.3024
▁suicide	-10.3024
▁tattoo	-10.3024
▁temperature	-10.3024
▁unhappy	-10.3024
▁veterans	-10.3024
▁victim	-10.3024
▁whimpers	-10.3024
▁brief	-10.3024
▁century	-10.3024
▁plaza	-10.3024
▁ralph	-10.3024
▁signature	-10.3024
▁vesper	-10.3024
▁sherry	-10.3024
▁chinese	-10.3024
▁rudy	-10.3024
▁civilization	-10.3024
▁italy	-10.3024
▁punk	-10.3024
▁drown	-10.3024
▁robbie	-10.3024
▁burst	-10.3024
▁rita	-10.3024
▁mustang	-10.3024
▁lolly	-10.3024
▁gym	-10.3024
▁steinberg	-10.3024
▁fond	-10.3025
▁ginga	-10.3025
▁sunset	-10.3025
▁bushwood	-10.3025
▁slept	-10.3025
▁puppy	-10.3025
▁joking	-10.3025
▁inaudible	-10.3025
▁attractive	-10.3026
▁couch	-10.3026
▁argue	-10.3026
▁mijo	-10.3026
▁strawberry	-10.3026
▁nazi	-10.3027
▁cupboard	-10.3027
▁mummy	-10.3027
▁foul	-10.3027
▁income	-10.3027
▁portia	-10.3028
▁herman	-10.3028
▁bedroom	-10.3028
▁fold	-10.3028
▁principal	-10.3029
▁glue	-10.3029
▁loop	-10.3031
▁mayday	-10.3033
▁thick	-10.3033
▁personality	-10.3033
▁suggestion	-10.3034
▁parade	-10.3034
▁violence	-10.3034
▁masses	-10.3035
▁halfway	-10.3035
▁iike	-10.3037
▁tooth	-10.3038
▁tucker	-10.3038
▁heartland	-10.3038
▁mall	-10.304
▁statement	-10.3043
▁label	-10.3044
▁canceled	-10.3045
▁tries	-10.3046
▁arrow	-10.3046
▁lawson	-10.3046
▁stine	-10.3047
▁crunching	-10.3051
▁robbery	-10.3052
▁holes	-10.3054
▁fourth	-10.3056
▁beaten	-10.306
▁cabin	-10.3062
▁complaint	-10.3062
▁hee	-10.3064
▁q	-10.3065
▁crown	-10.3066
▁sec	-10.3067
▁com	-10.3071
▁lifetime	-10.3074
▁glove	-10.3076
▁reality	-10.3077
▁pastor	-10.3078
▁discovered	-10.3083
▁rear	-10.3084
▁commander	-10.309
▁delighted	-10.3091
▁showing	-10.3092
▁russians	-10.3096
▁managed	-10.3102
▁refused	-10.3105
▁exclaims	-10.3113
▁gro	-10.3117
▁sch	-10.3144
▁blessing	-10.3163
▁palm	-10.3163
▁brandy	-10.3167
▁whistles	-10.3171
▁dug	-10.3177
gging	-10.3194
▁ignore	-10.3195
▁gunshots	-10.3196
▁prisoners	-10.3203
enda	-10.3215
▁armed	-10.3219
▁twins	-10.3226
▁dates	-10.3236
▁visited	-10.3246
▁diamonds	-10.3267
▁documents	-10.3267
▁range	-10.327
▁studying	-10.328
▁spe	-10.3299
▁backup	-10.3304
erson	-10.3309
▁abe	-10.3325
▁frogs	-10.3345
▁philip	-10.3358
ular	-10.3358
▁pills	-10.3364
▁pier	-10.3367
cus	-10.3391
▁rem	-10.3393
▁spending	-10.3399
▁frog	-10.3439
▁demand	-10.346
▁detail	-10.3462
▁bullet	-10.3466
▁medals	-10.3476
▁badly	-10.3495
rene	-10.3511
▁staring	-10.3517
▁brook	-10.3563
▁checked	-10.3577
▁manner	-10.3581
▁carl	-10.3598
▁cleared	-10.3627
▁flames	-10.3655
▁suffer	-10.3677
▁design	-10.3694
▁lab	-10.3698
▁smack	-10.3727
▁hah	-10.3731
▁singer	-10.374
field	-10.3744
▁brains	-10.3747
quot	-10.3753
good	-10.3755
book	-10.3756
▁exact	-10.3775
hood	-10.3776
▁mack	-10.3788
▁affect	-10.3789
craft	-10.3791
▁uhuh	-10.3792
▁resist	-10.3793
▁alaska	-10.3793
▁alexander	-10.3793
▁amanda	-10.3793
▁autograph	-10.3793
▁bunyan	-10.3793
▁chicago	-10.3793
▁coincidence	-10.3793
▁conscience	-10.3793
▁dogtective	-10.3793
▁escort	-10.3793
▁fascinating	-10.3793
▁florida	-10.3793
▁fouquet	-10.3793
▁giuseppe	-10.3793
▁holiday	-10.3793
▁including	-10.3793
▁intelligent	-10.3793
▁intense	-10.3793
▁muscle	-10.3793
▁obliged	-10.3793
▁orange	-10.3793
▁peanut	-10.3793
▁piccolo	-10.3793
▁rafael	-10.3793
▁relationship	-10.3793
▁retreat	-10.3793
▁revenge	-10.3793
▁scotch	-10.3793
▁spenlow	-10.3793
▁squeeze	-10.3793
▁supplies	-10.3793
▁suspend	-10.3793
▁swallow	-10.3793
▁teenage	-10.3793
▁tournament	-10.3793
▁trigger	-10.3793
▁trunk	-10.3793
▁tunnel	-10.3793
▁turkey	-10.3793
▁villain	-10.3793
▁wadsworth	-10.3793
▁wisdom	-10.3793
▁bounce	-10.3793
▁insect	-10.3793
▁instance	-10.3793
▁mistress	-10.3793
▁muerte	-10.3793
▁quark	-10.3793
▁reckless	-10.3793
▁shelter	-10.3793
▁tesla	-10.3793
▁ultimate	-10.3793
▁vicious	-10.3793
through	-10.3793
▁fetch	-10.3793
▁phase	-10.3793
▁process	-10.3793
▁slide	-10.3793
▁mamma	-10.3793
▁operator	-10.3793
▁towel	-10.3793
▁adult	-10.3793
▁indicate	-10.3793
▁wicked	-10.3793
▁theater	-10.3793
▁bride	-10.3793
▁nerve	-10.3793
▁transmission	-10.3793
▁gear	-10.3793
▁widowmaker	-10.3793
▁barber	-10.3793
▁fab	-10.3793
▁maniac	-10.3794
▁acres	-10.3794
▁morgan	-10.3794
▁domin	-10.3794
▁administration	-10.3794
▁boston	-10.3794
ison	-10.3794
▁tyler	-10.3794
▁compete	-10.3794
▁theory	-10.3794
▁marcus	-10.3795
▁debbie	-10.3795
▁vava	-10.3795
▁urgent	-10.3795
▁timmy	-10.3795
▁slipped	-10.3795
▁greet	-10.3795
▁flush	-10.3795
▁punishment	-10.3795
▁francois	-10.3795
▁assistant	-10.3795
▁passport	-10.3796
▁clamor	-10.3796
▁unbelievable	-10.3796
▁mill	-10.3797
▁divine	-10.3797
▁revolutionary	-10.3797
▁upper	-10.3797
▁charity	-10.3797
▁vanish	-10.3798
▁cliff	-10.3798
▁saul	-10.3798
▁arrangement	-10.3798
▁effective	-10.3799
▁conduct	-10.3799
aboom	-10.3799
▁fence	-10.3799
▁wrap	-10.38
▁stepped	-10.3801
▁grind	-10.3803
▁aii	-10.3803
▁chest	-10.3803
▁admiral	-10.3804
▁brace	-10.3805
▁wipe	-10.3806
▁amen	-10.3806
▁potatoes	-10.3807
▁bold	-10.3807
▁resignation	-10.3808
▁role	-10.3814
▁sixth	-10.3815
▁goodnight	-10.3816
▁sailor	-10.382
▁gig	-10.3824
▁rode	-10.3824
▁row	-10.3825
▁piss	-10.3828
ient	-10.3837
▁slam	-10.3838
▁toss	-10.3841
▁toes	-10.3845
▁starve	-10.3851
▁mass	-10.3851
▁latest	-10.3851
▁momma	-10.3851
▁heroes	-10.3855
▁twit	-10.3856
▁lend	-10.386
▁escaped	-10.3862
▁cheating	-10.3864
ically	-10.387
▁sucker	-10.3871
▁conversations	-10.3873
▁warned	-10.3877
▁drag	-10.3879
▁former	-10.388
▁pm	-10.3894
▁complaining	-10.3901
▁fin	-10.3911
▁peel	-10.3919
mond	-10.3932
iii	-10.3935
▁quietly	-10.3942
▁viva	-10.3956
▁glen	-10.3965
▁stealing	-10.398
▁reminds	-10.398
▁committ	-10.3984
▁reached	-10.4004
▁farmers	-10.402
▁protected	-10.4025
▁praying	-10.4029
orn	-10.4053
▁fle	-10.4053
▁til	-10.4083
▁citizens	-10.4084
▁decisions	-10.4091
▁ay	-10.4094
▁cookies	-10.4103
▁remove	-10.4106
▁non	-10.4117
▁testing	-10.4157
▁runt	-10.4179
▁dove	-10.4186
▁units	-10.4186
▁carrying	-10.4189
▁mart	-10.4212
tte	-10.4223
▁dragonballs	-10.4253
▁classic	-10.4259
oui	-10.4261
▁term	-10.429
▁uniform	-10.4295
▁lover	-10.4324
▁guests	-10.4329
▁hunter	-10.4343
ix	-10.4362
▁creatures	-10.4367
but	-10.4369
▁counter	-10.437
card	-10.4374
eeh	-10.438
▁bing	-10.4381
▁critic	-10.4406
ado	-10.4416
▁ol	-10.4448
▁meter	-10.4461
▁remains	-10.454
▁yards	-10.4543
▁exc	-10.4552
▁it	-10.4561
▁patients	-10.4569
▁shout	-10.4572
▁borrow	-10.4575
▁jess	-10.4578
coming	-10.4588
print	-10.4592
▁studi	-10.4602
▁recent	-10.4608
▁chose	-10.4616
▁mmhm	-10.4617
▁distract	-10.4622
▁how	-10.4623
▁cigar	-10.4626
▁crawl	-10.4627
▁incident	-10.4627
▁smooth	-10.4627
▁symbol	-10.4627
▁access	-10.4627
▁albert	-10.4627
▁appeal	-10.4627
▁appointed	-10.4627
▁caribou	-10.4627
▁consciousness	-10.4627
▁deputies	-10.4627
▁eagle	-10.4627
▁elixir	-10.4627
▁envelope	-10.4627
▁fitzgerald	-10.4627
▁hartounian	-10.4627
▁inspiration	-10.4627
▁interfere	-10.4627
▁liberty	-10.4627
▁lobster	-10.4627
▁lollipop	-10.4627
▁meerut	-10.4627
▁melanchol	-10.4627
▁murdstone	-10.4627
▁mushroom	-10.4627
▁november	-10.4627
▁october	-10.4627
▁opposed	-10.4627
▁practicing	-10.4627
▁presidency	-10.4627
▁refuge	-10.4627
▁reserve	-10.4627
▁sensitive	-10.4627
▁shogun	-10.4627
▁similar	-10.4627
▁smythe	-10.4627
▁surgery	-10.4627
▁traitor	-10.4627
▁tumbleweed	-10.4627
▁turtle	-10.4627
▁ufo	-10.4627
▁urmi	-10.4627
▁whinnies	-10.4627
▁cease	-10.4627
▁combination	-10.4627
▁essay	-10.4627
▁jessica	-10.4627
▁jungle	-10.4627
▁rifle	-10.4627
▁carriage	-10.4627
▁permit	-10.4627
▁sinister	-10.4627
▁zito	-10.4627
▁bribe	-10.4627
▁shove	-10.4627
▁sweep	-10.4627
▁worm	-10.4627
▁jeff	-10.4627
▁betray	-10.4627
▁sinners	-10.4627
▁trask	-10.4627
▁izzy	-10.4627
▁flesh	-10.4627
▁carried	-10.4627
▁elder	-10.4627
▁harsh	-10.4627
▁negotiat	-10.4627
▁inches	-10.4627
▁possess	-10.4627
▁becoming	-10.4627
▁repair	-10.4627
▁engagement	-10.4628
▁locate	-10.4628
▁hahaha	-10.4628
▁pumpkin	-10.4628
▁graham	-10.4628
▁choke	-10.4628
▁tramp	-10.4628
▁clink	-10.4628
▁asshole	-10.4628
▁fever	-10.4628
▁clank	-10.4628
▁bald	-10.4628
▁curious	-10.4628
▁whack	-10.4629
▁smoking	-10.4629
▁adore	-10.4629
▁existence	-10.4629
▁denne	-10.4629
▁flock	-10.4629
▁memories	-10.4629
▁ability	-10.4629
▁ouch	-10.4629
▁unconscious	-10.463
▁motion	-10.463
▁maxwell	-10.463
▁brick	-10.463
▁spear	-10.4631
▁beings	-10.4631
▁affection	-10.4631
▁maid	-10.4632
▁cities	-10.4633
▁starving	-10.4633
▁dime	-10.4634
▁groom	-10.4634
▁eva	-10.4635
▁wore	-10.4635
▁bev	-10.4635
▁desc	-10.4637
▁liar	-10.4637
▁andy	-10.4637
▁earl	-10.4637
▁fade	-10.4638
▁stress	-10.4638
▁wager	-10.4638
▁jessie	-10.464
▁fuss	-10.4641
▁capable	-10.4642
▁solo	-10.4644
▁vice	-10.4644
▁tri	-10.4648
▁laser	-10.4649
▁compared	-10.4649
▁julien	-10.4651
▁donna	-10.4651
▁elliott	-10.4652
▁setting	-10.4656
▁intr	-10.4656
▁yank	-10.4656
▁frightened	-10.4656
▁cutting	-10.4658
▁lane	-10.4663
▁deck	-10.4663
▁rod	-10.4664
▁ballet	-10.4665
▁fallen	-10.4666
▁chin	-10.4671
▁delivery	-10.4677
▁embarrassing	-10.4681
cloth	-10.4683
▁hoped	-10.4685
▁stopping	-10.4687
▁oughta	-10.4687
▁fry	-10.4687
▁mixed	-10.4692
▁len	-10.4693
▁useful	-10.4694
▁continu	-10.4698
▁ration	-10.4702
▁limited	-10.471
day	-10.4712
▁lind	-10.4729
▁classes	-10.473
▁yup	-10.4735
▁lance	-10.4759
▁vegetables	-10.4762
tel	-10.4769
away	-10.479
▁washed	-10.4792
▁instructions	-10.4792
▁moral	-10.4815
▁helpless	-10.482
▁bothered	-10.483
▁thin	-10.4836
▁knocked	-10.49
rous	-10.494
▁eco	-10.4942
▁mc	-10.4947
▁terms	-10.4975
▁speakers	-10.498
▁jumping	-10.4984
▁behave	-10.4988
bar	-10.4993
▁bullets	-10.5006
▁manners	-10.5007
▁deadly	-10.5009
▁on	-10.5011
put	-10.502
▁shown	-10.5029
▁pushing	-10.5038
serving	-10.5043
rez	-10.5047
▁reporting	-10.5055
gne	-10.5055
▁pages	-10.5059
▁wondered	-10.5064
▁shines	-10.5067
▁kissing	-10.5084
▁fed	-10.5106
▁pee	-10.5126
▁af	-10.5129
clear	-10.5184
aud	-10.5196
▁citizen	-10.52
▁olympic	-10.5205
maker	-10.5223
▁cookie	-10.5228
▁strip	-10.5235
▁ignor	-10.532
▁ple	-10.5348
▁tap	-10.536
star	-10.537
lk	-10.5376
ppy	-10.5385
▁dared	-10.5386
▁rang	-10.5395
▁bee	-10.5396
izing	-10.5419
▁dreaming	-10.5422
▁emotion	-10.5435
ette	-10.5457
▁employ	-10.5462
ship	-10.547
▁buzz	-10.5471
▁tin	-10.5481
▁sweat	-10.5481
▁announce	-10.5482
▁reveal	-10.5483
▁lame	-10.5485
▁crush	-10.5485
top	-10.5492
just	-10.5495
town	-10.5496
throw	-10.5497
▁qui	-10.55
▁propose	-10.5501
four	-10.5508
youre	-10.5508
▁victor	-10.551
▁instruct	-10.5519
▁unlike	-10.5524
▁runnin	-10.5527
▁lovin	-10.5529
▁santos	-10.5529
bra	-10.5529
▁journal	-10.5529
▁convent	-10.5531
▁trot	-10.5534
▁virgin	-10.5534
▁libera	-10.5535
▁candle	-10.5535
▁compliment	-10.5536
▁coordinat	-10.5536
▁display	-10.5536
▁ninja	-10.5536
▁sorrow	-10.5536
▁squirt	-10.5536
▁volunteer	-10.5536
▁advantage	-10.5536
▁albrecht	-10.5536
▁apologies	-10.5536
▁approve	-10.5536
▁arizona	-10.5536
▁avenue	-10.5536
▁bannock	-10.5536
▁believing	-10.5536
▁brawley	-10.5536
▁concentrate	-10.5536
▁confused	-10.5536
▁consequence	-10.5536
▁corporal	-10.5536
▁credentials	-10.5536
▁crisis	-10.5536
▁driscoll	-10.5536
▁eclipse	-10.5536
▁essential	-10.5536
▁fabulous	-10.5536
▁faint	-10.5536
▁happily	-10.5536
▁hortense	-10.5536
▁inhales	-10.5536
▁injured	-10.5536
▁invitation	-10.5536
▁landlord	-10.5536
▁lunatic	-10.5536
▁meanwhile	-10.5536
▁muttering	-10.5536
▁mystery	-10.5536
▁occupied	-10.5536
▁outlaw	-10.5536
▁pacific	-10.5536
▁parrot	-10.5536
▁phillip	-10.5536
▁preserve	-10.5536
▁propaganda	-10.5536
▁prosecutor	-10.5536
▁reaiiy	-10.5536
▁recipe	-10.5536
▁satisfy	-10.5536
▁scholarship	-10.5536
▁seltzer	-10.5536
▁seppala	-10.5536
▁shrink	-10.5536
▁stadium	-10.5536
▁stuart	-10.5536
▁surgeon	-10.5536
▁suzanne	-10.5536
▁technique	-10.5536
▁tedesco	-10.5536
▁tractor	-10.5536
▁traffic	-10.5536
▁transcript	-10.5536
▁trophy	-10.5536
▁vegas	-10.5536
▁weasel	-10.5536
▁whimpering	-10.5536
▁xibalba	-10.5536
▁costello	-10.5536
▁dobson	-10.5536
▁dozen	-10.5536
▁empire	-10.5536
▁filthy	-10.5536
▁monkey	-10.5536
▁rattling	-10.5536
▁statue	-10.5536
▁yarmouth	-10.5536
▁bruno	-10.5536
▁chores	-10.5536
▁decade	-10.5536
▁entei	-10.5536
▁clack	-10.5536
▁hyde	-10.5536
▁thumb	-10.5536
▁depth	-10.5536
▁household	-10.5536
▁convert	-10.5536
▁keach	-10.5536
▁article	-10.5536
▁jerry	-10.5536
▁knot	-10.5536
▁vital	-10.5536
▁skies	-10.5536
▁estate	-10.5536
▁madrid	-10.5536
▁southern	-10.5536
▁stake	-10.5536
▁powder	-10.5536
▁ahmad	-10.5536
▁kidnapped	-10.5536
▁clothing	-10.5536
▁bunk	-10.5536
▁reef	-10.5536
▁grogan	-10.5536
▁mmmhmm	-10.5536
▁stew	-10.5536
▁network	-10.5536
▁bishop	-10.5536
▁kiddo	-10.5536
▁wandering	-10.5536
▁latin	-10.5536
▁francesco	-10.5536
▁geologist	-10.5536
▁ashford	-10.5536
▁wrapped	-10.5537
▁whining	-10.5537
▁detective	-10.5537
▁goose	-10.5537
▁tribe	-10.5537
▁armor	-10.5537
▁transmitter	-10.5537
▁review	-10.5538
▁obtain	-10.5538
▁commitment	-10.5538
▁curtain	-10.5538
▁growls	-10.5538
▁unlock	-10.5538
▁camus	-10.5538
▁portland	-10.5538
▁hamlet	-10.5538
▁ashley	-10.5539
▁blade	-10.5539
▁tank	-10.554
▁secure	-10.554
▁amber	-10.554
▁bunt	-10.5541
▁bucket	-10.5541
▁bury	-10.5541
▁lemon	-10.5541
▁colton	-10.5541
▁addict	-10.5541
▁pleasant	-10.5542
▁nearby	-10.5542
▁patch	-10.5543
▁merv	-10.5543
▁temple	-10.5543
ault	-10.5544
▁universe	-10.5544
▁elton	-10.5545
▁expression	-10.5545
▁claire	-10.5546
▁dating	-10.5548
▁vow	-10.5548
▁bid	-10.5548
▁whore	-10.5549
▁studies	-10.5549
▁romeo	-10.5549
▁stefano	-10.5549
▁collection	-10.5549
▁gross	-10.5549
▁data	-10.5549
▁passage	-10.555
▁tempo	-10.5552
▁hopefully	-10.5552
▁tapping	-10.5553
▁stream	-10.5553
ological	-10.5553
▁battery	-10.5555
▁vari	-10.5555
▁anna	-10.5557
▁pipe	-10.5557
▁divorced	-10.5557
▁subpoenaed	-10.5558
▁sew	-10.5559
▁protection	-10.556
▁stain	-10.5561
▁tw	-10.5562
▁rocket	-10.5562
▁bored	-10.5562
▁jam	-10.5563
▁rio	-10.5567
▁mechanical	-10.5567
▁pickup	-10.5568
▁accused	-10.5568
▁pace	-10.5569
▁janet	-10.5571
▁invented	-10.5573
▁angeles	-10.5574
▁mice	-10.5578
▁link	-10.5578
▁herd	-10.5581
▁stable	-10.5583
▁fastest	-10.5585
▁shrieks	-10.5586
▁leon	-10.5597
▁ew	-10.5597
tennis	-10.5598
▁suffered	-10.5598
▁forgiven	-10.5606
hony	-10.5612
boy	-10.562
▁survived	-10.5621
▁sup	-10.5622
▁loaded	-10.5623
▁painting	-10.5633
▁lawn	-10.564
▁shared	-10.5641
▁blonde	-10.5642
▁visitor	-10.5658
▁sniffing	-10.5671
▁grapes	-10.5718
▁just	-10.5719
▁rug	-10.573
▁halt	-10.5741
▁exercise	-10.5763
▁cle	-10.5773
berg	-10.5777
▁tame	-10.578
vid	-10.5788
▁hale	-10.5798
▁doo	-10.5825
▁den	-10.5825
▁odds	-10.5834
▁offering	-10.5916
▁messed	-10.5927
▁cleaned	-10.5933
▁hunters	-10.5936
▁wha	-10.5962
▁attacking	-10.5972
▁produce	-10.6023
bling	-10.6032
roc	-10.605
hole	-10.6115
▁scor	-10.6183
▁unh	-10.6196
▁diamond	-10.6201
▁document	-10.6201
▁bolshevik	-10.6206
▁folk	-10.621
more	-10.6246
handed	-10.6253
▁nut	-10.6264
hol	-10.6266
lasting	-10.6268
bat	-10.6275
▁poke	-10.6278
hoo	-10.63
▁mumbl	-10.6306
called	-10.6324
▁coma	-10.6348
▁toy	-10.6349
▁turner	-10.6371
▁cam	-10.6384
▁disappear	-10.6418
▁embarrass	-10.6418
looking	-10.6443
▁float	-10.6486
▁speaker	-10.6499
▁matt	-10.6506
▁slo	-10.6508
▁incredibl	-10.6513
▁scrap	-10.6522
▁slight	-10.6525
▁motor	-10.6528
ternal	-10.6528
▁connect	-10.6531
▁investigat	-10.6531
▁prior	-10.6533
▁civil	-10.6533
▁chuck	-10.6535
▁forbid	-10.6535
▁accomplish	-10.6536
▁adorable	-10.6536
▁afterwards	-10.6536
▁amount	-10.6536
▁appropriate	-10.6536
▁association	-10.6536
▁average	-10.6536
▁awkward	-10.6536
▁banquet	-10.6536
▁behavior	-10.6536
▁catholic	-10.6536
▁celebration	-10.6536
▁channel	-10.6536
▁charmeleon	-10.6536
▁ciolino	-10.6536
▁colleague	-10.6536
▁compromise	-10.6536
▁confident	-10.6536
▁connolly	-10.6536
▁culture	-10.6536
▁democracy	-10.6536
▁depressed	-10.6536
▁despair	-10.6536
▁dessert	-10.6536
▁dictabelt	-10.6536
▁disgrace	-10.6536
▁dispatch	-10.6536
▁eternity	-10.6536
▁felicia	-10.6536
▁fulfill	-10.6536
▁gustav	-10.6536
▁hallelujah	-10.6536
▁inevitable	-10.6536
▁injun	-10.6536
▁intention	-10.6536
▁jenkins	-10.6536
▁library	-10.6536
▁liedholm	-10.6536
▁liquor	-10.6536
▁longeverne	-10.6536
▁luggage	-10.6536
▁mavericks	-10.6536
▁nephew	-10.6536
▁oozaru	-10.6536
▁orchid	-10.6536
▁parlor	-10.6536
▁pegasus	-10.6536
▁perfume	-10.6536
▁phupho	-10.6536
▁posada	-10.6536
▁precinct	-10.6536
▁procedure	-10.6536
▁proposal	-10.6536
▁railroad	-10.6536
▁recommend	-10.6536
▁response	-10.6536
▁saloon	-10.6536
▁smiling	-10.6536
▁species	-10.6536
▁stereo	-10.6536
▁stubborn	-10.6536
▁suitcase	-10.6536
▁telegraph	-10.6536
▁tshirt	-10.6536
▁unexpected	-10.6536
▁vacuum	-10.6536
▁vodka	-10.6536
▁authentic	-10.6536
▁central	-10.6536
▁charmander	-10.6536
▁choking	-10.6536
▁cinema	-10.6536
▁delmann	-10.6536
▁identified	-10.6536
▁polish	-10.6536
▁serpent	-10.6536
▁swift	-10.6536
▁winsiow	-10.6536
▁brooklyn	-10.6536
▁burger	-10.6536
▁dolores	-10.6536
▁eminence	-10.6536
▁extend	-10.6536
▁feature	-10.6536
▁miserable	-10.6536
▁sarge	-10.6536
▁anytime	-10.6536
▁aspir	-10.6536
▁crystal	-10.6536
▁ernie	-10.6536
▁infant	-10.6536
▁argh	-10.6536
▁envy	-10.6536
▁pearl	-10.6536
▁scientist	-10.6536
▁helen	-10.6536
▁iook	-10.6536
▁protest	-10.6536
▁swamp	-10.6536
▁headquarters	-10.6536
▁bacon	-10.6536
▁begun	-10.6536
▁ease	-10.6536
▁lupus	-10.6536
▁alex	-10.6536
▁shilling	-10.6536
▁slamming	-10.6536
▁whyd	-10.6536
▁strain	-10.6536
▁drove	-10.6536
▁entry	-10.6536
▁ellie	-10.6536
▁content	-10.6536
▁shore	-10.6536
▁scalp	-10.6536
▁funeral	-10.6536
▁honks	-10.6536
▁tragic	-10.6536
▁swiss	-10.6536
▁stiles	-10.6536
▁preston	-10.6536
▁ahem	-10.6536
▁generous	-10.6537
▁hazel	-10.6537
▁newspaper	-10.6537
▁spiritual	-10.6537
▁begging	-10.6537
▁isabella	-10.6537
▁shining	-10.6537
▁bertha	-10.6537
▁fudge	-10.6537
▁didi	-10.6537
▁expose	-10.6537
▁panther	-10.6537
▁alert	-10.6537
▁employee	-10.6538
▁basically	-10.6538
▁penny	-10.6538
▁saddle	-10.6538
▁tasty	-10.6538
▁lndian	-10.6538
▁series	-10.6539
▁checkpoint	-10.6539
▁delhi	-10.6539
▁marva	-10.6539
▁whatre	-10.6539
▁brush	-10.6539
▁trotter	-10.6539
come	-10.6539
▁worn	-10.654
▁fox	-10.654
▁jewelry	-10.654
▁scout	-10.6541
▁sharing	-10.6541
▁possession	-10.6541
▁fork	-10.6541
▁jose	-10.6542
▁slim	-10.6542
▁appearance	-10.6542
▁countries	-10.6542
▁mario	-10.6542
▁initia	-10.6542
▁square	-10.6543
▁genetic	-10.6543
▁brian	-10.6544
▁badge	-10.6544
▁chute	-10.6544
▁trace	-10.6544
▁independent	-10.6545
▁opposite	-10.6545
▁jaw	-10.6545
▁peak	-10.6546
▁gurgling	-10.6546
▁mock	-10.6547
▁european	-10.6548
▁chosen	-10.6548
▁drug	-10.6548
▁popping	-10.6549
▁treatment	-10.6549
▁coverup	-10.655
▁jab	-10.655
▁cellar	-10.655
▁bingo	-10.6551
▁agony	-10.6551
▁allen	-10.6551
▁radical	-10.6552
▁slightly	-10.6555
hand	-10.6556
▁missile	-10.6556
▁marie	-10.6558
▁aim	-10.656
▁thumping	-10.656
▁lake	-10.6561
▁speeches	-10.6562
▁condo	-10.6563
▁alto	-10.6564
▁humanity	-10.6565
▁stunt	-10.6566
▁gregg	-10.6568
▁goats	-10.6569
▁funni	-10.6569
▁demon	-10.657
▁exception	-10.657
▁kip	-10.6572
▁nest	-10.6574
▁tourist	-10.6575
▁bess	-10.6576
▁pow	-10.6576
▁disturbed	-10.6577
▁punished	-10.6577
▁thus	-10.6578
▁cage	-10.6579
▁hitting	-10.6581
▁reasonable	-10.6583
▁organized	-10.6584
▁haha	-10.6589
▁homesteaders	-10.6591
▁sink	-10.6592
▁crushed	-10.6594
▁tent	-10.6594
▁pub	-10.6595
▁sore	-10.6595
▁presentation	-10.6595
▁handling	-10.6596
▁dining	-10.6596
▁matches	-10.6599
▁shi	-10.6601
▁removed	-10.6612
tron	-10.6623
▁capt	-10.6629
▁gathered	-10.6633
▁denis	-10.6634
▁howdy	-10.6644
▁fucking	-10.6644
▁sor	-10.6647
▁delivered	-10.6655
▁wei	-10.6687
▁gardener	-10.6711
▁appeared	-10.6726
▁added	-10.6727
onnet	-10.6735
▁knuckles	-10.6738
▁existed	-10.6767
hel	-10.6781
▁dam	-10.6783
▁faithful	-10.6799
istic	-10.6809
iest	-10.6826
▁belly	-10.6854
▁offered	-10.687
▁laughed	-10.6886
▁lighter	-10.6895
ido	-10.6917
▁exam	-10.6921
nows	-10.6942
▁marrying	-10.6965
▁produc	-10.7027
lot	-10.7044
▁rd	-10.705
▁funk	-10.7076
reme	-10.7128
▁op	-10.7129
corporate	-10.7135
▁net	-10.7142
▁phil	-10.7145
oohoo	-10.7148
fish	-10.7189
verse	-10.7216
▁jul	-10.722
gan	-10.7224
thank	-10.7236
oke	-10.7307
▁driven	-10.7334
▁cent	-10.7337
▁whoop	-10.7364
gen	-10.7373
▁bud	-10.7417
bre	-10.745
tick	-10.7467
▁needle	-10.7549
▁terror	-10.7552
rated	-10.7571
▁clang	-10.7583
gar	-10.7585
▁abandon	-10.7594
mark	-10.7602
foot	-10.7608
girl	-10.7608
year	-10.7609
piece	-10.761
▁invade	-10.7611
▁solve	-10.7611
▁shoo	-10.7614
▁puff	-10.7615
water	-10.7616
▁memor	-10.7617
load	-10.7618
▁mornin	-10.7638
▁invest	-10.7643
▁attract	-10.7644
▁depart	-10.7644
▁franco	-10.7644
▁blank	-10.7644
▁entertain	-10.7646
▁presum	-10.7647
▁broadcast	-10.7647
▁distribut	-10.7647
▁abbott	-10.7647
▁abilene	-10.7647
▁acquire	-10.7647
▁activities	-10.7647
▁application	-10.7647
▁arguing	-10.7647
▁associate	-10.7647
▁athletics	-10.7647
▁awaits	-10.7647
▁behold	-10.7647
▁bettsbridge	-10.7647
▁breast	-10.7647
▁bulldozer	-10.7647
▁bureau	-10.7647
▁buzhardt	-10.7647
▁campaign	-10.7647
▁centuries	-10.7647
▁cheasel	-10.7647
▁conference	-10.7647
▁congratulate	-10.7647
▁device	-10.7647
▁diphtheria	-10.7647
▁disagree	-10.7647
▁dynamite	-10.7647
▁embrace	-10.7647
▁exploding	-10.7647
▁fantasy	-10.7647
▁fifty	-10.7647
▁fuhrer	-10.7647
▁furniture	-10.7647
▁gorgeous	-10.7647
▁grenade	-10.7647
▁grub	-10.7647
▁humiliate	-10.7647
▁impressed	-10.7647
▁infinit	-10.7647
▁injury	-10.7647
▁intelligence	-10.7647
▁jotham	-10.7647
▁kansas	-10.7647
▁kerensky	-10.7647
▁laundry	-10.7647
▁laztec	-10.7647
▁matrix	-10.7647
▁mexican	-10.7647
▁mildred	-10.7647
▁naughty	-10.7647
▁nebraska	-10.7647
▁nelda	-10.7647
▁nicole	-10.7647
▁offense	-10.7647
▁oklahoma	-10.7647
▁picnic	-10.7647
▁piplup	-10.7647
▁precisely	-10.7647
▁prophet	-10.7647
▁qualify	-10.7647
▁rattlesnake	-10.7647
▁resource	-10.7647
▁rucio	-10.7647
▁rudi	-10.7647
▁savage	-10.7647
▁september	-10.7647
▁statistic	-10.7647
▁suspicious	-10.7647
▁territory	-10.7647
▁thirty	-10.7647
▁underneath	-10.7647
▁wealth	-10.7647
▁withdraw	-10.7647
▁zamora	-10.7647
▁andrea	-10.7647
▁choir	-10.7647
▁companion	-10.7647
▁delicate	-10.7647
▁disaster	-10.7647
▁graveyard	-10.7647
▁sloopy	-10.7647
▁stiff	-10.7647
▁unfair	-10.7647
▁whiff	-10.7647
▁worries	-10.7647
▁prime	-10.7647
▁refund	-10.7647
▁thrash	-10.7647
▁motive	-10.7647
▁ollie	-10.7647
▁wilderness	-10.7647
▁woof	-10.7647
▁hurst	-10.7647
▁identity	-10.7647
▁panties	-10.7647
▁sauce	-10.7647
▁survey	-10.7647
▁thoth	-10.7647
▁threatened	-10.7647
▁lindsey	-10.7647
▁salad	-10.7647
▁silent	-10.7647
▁judo	-10.7647
▁static	-10.7647
▁vichy	-10.7647
▁contest	-10.7647
▁pork	-10.7647
▁dragged	-10.7647
▁modest	-10.7647
▁superior	-10.7647
▁kurt	-10.7647
▁poppa	-10.7647
▁costume	-10.7647
▁jolly	-10.7647
▁daily	-10.7647
▁sincerely	-10.7647
▁adopt	-10.7647
▁explore	-10.7647
▁stairs	-10.7647
▁reduce	-10.7647
▁zero	-10.7647
▁fiddle	-10.7647
▁stunned	-10.7647
▁ticking	-10.7647
▁update	-10.7647
▁debt	-10.7647
▁membership	-10.7647
▁restrain	-10.7647
▁sunyu	-10.7647
▁backyard	-10.7648
▁narrow	-10.7648
▁crud	-10.7648
▁cantata	-10.7648
▁unknown	-10.7648
▁literally	-10.7648
▁chamber	-10.7648
▁lobby	-10.7648
▁defence	-10.7648
▁confront	-10.7648
▁grip	-10.7648
▁lease	-10.7648
▁civilian	-10.7648
▁sheba	-10.7648
▁bert	-10.7649
▁kayla	-10.7649
▁pursuit	-10.7649
▁martha	-10.7649
▁involvement	-10.7649
▁merci	-10.7649
▁surface	-10.7649
▁assault	-10.7649
▁reaction	-10.7649
▁leonard	-10.765
▁nva	-10.765
▁massage	-10.765
▁revs	-10.765
▁ladder	-10.765
▁passionate	-10.765
▁blaine	-10.7651
▁plot	-10.7651
▁shook	-10.7651
▁richardson	-10.7651
▁sheet	-10.7651
▁connection	-10.7652
▁garage	-10.7652
▁colt	-10.7652
▁pony	-10.7652
▁colour	-10.7652
▁distraction	-10.7653
▁grownup	-10.7654
▁glow	-10.7654
▁duke	-10.7654
▁soda	-10.7655
artes	-10.7655
▁friendship	-10.7656
▁japan	-10.7656
▁sammy	-10.7656
▁erase	-10.7657
▁bonus	-10.7657
▁raid	-10.7657
▁grasp	-10.7657
▁dammit	-10.7659
▁blitzer	-10.7659
▁package	-10.7659
▁nasty	-10.7659
visible	-10.766
▁vol	-10.766
▁qualified	-10.766
▁assist	-10.7661
▁neat	-10.7661
▁poop	-10.7663
▁rail	-10.7664
▁dice	-10.7664
▁footage	-10.7664
▁objection	-10.7664
▁scottie	-10.7665
▁dull	-10.7668
▁drunken	-10.7668
▁seventh	-10.7668
▁blog	-10.7668
▁surrounded	-10.7669
▁highway	-10.7669
▁slice	-10.7669
▁wel	-10.7669
▁captured	-10.767
▁beal	-10.7673
▁daan	-10.7673
▁retired	-10.7674
▁whale	-10.7674
▁developed	-10.7675
▁exit	-10.7677
▁bait	-10.7679
▁spilled	-10.7681
▁dishes	-10.7685
▁smashed	-10.7687
▁beau	-10.7689
▁irr	-10.769
▁heel	-10.7691
▁runner	-10.7692
▁heroic	-10.7692
▁clue	-10.7694
pas	-10.7697
pulse	-10.7698
▁haig	-10.77
▁officially	-10.7702
▁separated	-10.7715
▁cure	-10.7717
version	-10.7717
▁released	-10.772
▁scraping	-10.7721
▁sweater	-10.7721
▁dial	-10.7722
▁designed	-10.7725
▁arranged	-10.7728
▁paula	-10.773
▁boxes	-10.7731
▁undo	-10.7736
▁useless	-10.774
▁provided	-10.7745
▁dearest	-10.7759
▁manny	-10.776
▁deserted	-10.7762
▁entered	-10.7762
▁ken	-10.7776
▁twin	-10.7777
▁simone	-10.7786
sherman	-10.7795
▁bora	-10.7801
▁deeper	-10.7804
▁wheeler	-10.7824
▁hmmm	-10.7825
▁suggested	-10.7831
cart	-10.784
▁shortly	-10.7845
▁drama	-10.7849
▁dinging	-10.7857
▁christy	-10.7858
▁fled	-10.786
▁scan	-10.786
▁cherr	-10.7863
▁surfing	-10.7864
▁spy	-10.7872
▁operate	-10.7904
▁safely	-10.7907
ole	-10.7917
▁nod	-10.7924
▁imagined	-10.7926
▁makeup	-10.7928
aut	-10.7971
▁mud	-10.8004
▁pile	-10.8018
lapping	-10.8022
arn	-10.8031
war	-10.8061
▁crate	-10.8152
▁youi	-10.8177
ative	-10.8178
▁oi	-10.8189
can	-10.819
▁foreigner	-10.8221
▁organize	-10.825
▁rad	-10.8285
▁menac	-10.8293
▁troop	-10.8305
▁jar	-10.8306
umbling	-10.8307
▁oni	-10.8326
▁dope	-10.8346
▁cue	-10.8536
ripe	-10.8561
▁chipmunk	-10.8565
▁chuckle	-10.8577
ologist	-10.8609
poo	-10.8649
even	-10.8669
▁farmer	-10.8685
▁din	-10.8713
▁cher	-10.8732
▁musician	-10.8735
▁ann	-10.8741
keeper	-10.8797
▁nurs	-10.8825
▁echo	-10.883
▁shatter	-10.8833
▁invent	-10.884
▁punish	-10.8841
▁disturb	-10.8843
▁disappoint	-10.8846
▁squa	-10.8853
point	-10.8854
write	-10.8857
free	-10.8858
life	-10.8859
▁compare	-10.8862
shop	-10.8865
▁thirst	-10.8871
box	-10.8872
▁august	-10.8872
▁dirt	-10.8877
mmer	-10.889
▁twitch	-10.889
conscious	-10.8893
▁cooperat	-10.8893
▁urge	-10.8895
▁loyal	-10.8895
▁egypt	-10.8895
▁sophisticat	-10.8897
▁detergent	-10.8897
▁disrupt	-10.8897
▁encounter	-10.8897
▁forfeit	-10.8897
▁respond	-10.8897
▁succeed	-10.8897
▁airplane	-10.8897
▁allergic	-10.8897
▁alligator	-10.8897
▁amnesia	-10.8897
▁amsterdam	-10.8897
▁ancestor	-10.8897
▁antitoxin	-10.8897
▁arriving	-10.8897
▁bachelor	-10.8897
▁callaghan	-10.8897
▁caprice	-10.8897
▁cavalry	-10.8897
▁charizard	-10.8897
▁chivalry	-10.8897
▁constitution	-10.8897
▁coolidge	-10.8897
▁cupcake	-10.8897
▁curiosity	-10.8897
▁cynical	-10.8897
▁delegate	-10.8897
▁dinosaur	-10.8897
▁economic	-10.8897
▁elected	-10.8897
▁encourage	-10.8897
▁enthusiasm	-10.8897
▁epidemic	-10.8897
▁excellency	-10.8897
▁exchange	-10.8897
▁explode	-10.8897
▁fletcher	-10.8897
▁forgave	-10.8897
▁gabriel	-10.8897
▁giddyup	-10.8897
▁graduate	-10.8897
▁gratitude	-10.8897
▁grief	-10.8897
▁happiest	-10.8897
▁honeymoon	-10.8897
▁horror	-10.8897
▁identify	-10.8897
▁immortal	-10.8897
▁impact	-10.8897
▁injustice	-10.8897
▁instinct	-10.8897
▁institution	-10.8897
▁jiggl	-10.8897
▁krader	-10.8897
▁lacrique	-10.8897
▁lumberjack	-10.8897
▁macailler	-10.8897
▁marshadow	-10.8897
▁mckay	-10.8897
▁meadow	-10.8897
▁merchant	-10.8897
▁messenger	-10.8897
▁microchip	-10.8897
▁miffy	-10.8897
▁milkywhite	-10.8897
▁moscow	-10.8897
▁motorcycle	-10.8897
▁murdoch	-10.8897
▁muslim	-10.8897
▁mutual	-10.8897
▁necessarily	-10.8897
▁nicholai	-10.8897
▁norbert	-10.8897
▁ogilvie	-10.8897
▁paralympics	-10.8897
▁peculiar	-10.8897
▁philosoph	-10.8897
▁potential	-10.8897
▁poverty	-10.8897
▁primitive	-10.8897
▁profound	-10.8897
▁prophecy	-10.8897
▁registration	-10.8897
▁residence	-10.8897
▁revoir	-10.8897
▁satellite	-10.8897
▁sleeve	-10.8897
▁snickering	-10.8897
▁somewhat	-10.8897
▁terrify	-10.8897
▁thiago	-10.8897
▁tibbett	-10.8897
▁torture	-10.8897
▁truffle	-10.8897
▁trullinger	-10.8897
▁undercover	-10.8897
▁unpack	-10.8897
▁voyage	-10.8897
▁worship	-10.8897
▁aaaa	-10.8897
▁armenian	-10.8897
▁buddha	-10.8897
▁calamity	-10.8897
▁edmund	-10.8897
▁elbow	-10.8897
▁gibus	-10.8897
▁ignit	-10.8897
▁kusum	-10.8897
▁liquid	-10.8897
▁nigel	-10.8897
▁razor	-10.8897
▁sauna	-10.8897
▁snack	-10.8897
▁solemn	-10.8897
▁whirling	-10.8897
▁deputy	-10.8897
▁greek	-10.8897
▁muffin	-10.8897
▁token	-10.8897
▁winslow	-10.8897
▁concertina	-10.8897
▁false	-10.8897
▁gallon	-10.8897
▁occurred	-10.8897
▁senate	-10.8897
▁fingerprints	-10.8897
▁hooray	-10.8897
▁leaf	-10.8897
▁location	-10.8897
▁rubber	-10.8897
▁flood	-10.8897
▁teammate	-10.8897
▁debate	-10.8897
▁annoy	-10.8897
▁cruisin	-10.8897
▁roshi	-10.8897
▁email	-10.8897
▁solar	-10.8897
▁praise	-10.8897
▁typical	-10.8897
▁stray	-10.8897
▁chew	-10.8897
▁donut	-10.8897
▁chef	-10.8897
▁hornsby	-10.8897
▁frequently	-10.8897
▁yoshi	-10.8897
▁creative	-10.8897
▁blur	-10.8897
▁maneuvers	-10.8897
▁collapse	-10.8897
▁moderat	-10.8897
▁occupation	-10.8897
▁beckwith	-10.8897
▁imagination	-10.8897
▁scale	-10.8897
▁sensible	-10.8897
▁institute	-10.8897
▁keen	-10.8897
▁nudge	-10.8897
▁basis	-10.8897
▁luis	-10.8897
▁yuri	-10.8898
▁communism	-10.8898
▁icon	-10.8898
▁descend	-10.8898
▁facing	-10.8898
▁robotics	-10.8898
▁severe	-10.8898
▁tele	-10.8898
▁civilized	-10.8898
▁gambling	-10.8898
▁garlic	-10.8898
▁loyalty	-10.8898
▁slay	-10.8899
▁overcome	-10.8899
▁wrestl	-10.8899
▁installment	-10.8899
▁broadway	-10.8899
▁aaah	-10.8899
▁luciana	-10.8899
▁raft	-10.8899
▁remission	-10.8899
bility	-10.89
▁moses	-10.89
▁backwards	-10.89
▁priority	-10.89
▁roque	-10.89
▁inlaws	-10.89
▁whatll	-10.89
▁greetings	-10.89
▁influence	-10.89
▁rattle	-10.89
▁eternal	-10.89
▁colla	-10.8901
▁radar	-10.8901
▁fuel	-10.8901
▁nailed	-10.8901
▁shush	-10.8901
▁batter	-10.8901
▁jody	-10.8901
▁chaos	-10.8901
▁thorn	-10.8902
▁bonnie	-10.8902
▁childhood	-10.8902
▁gigant	-10.8903
hearted	-10.8903
▁scarce	-10.8903
▁tipton	-10.8903
▁robertson	-10.8904
▁chili	-10.8904
arrow	-10.8904
▁moors	-10.8904
▁requirement	-10.8905
▁sobs	-10.8905
▁maintain	-10.8905
▁weakness	-10.8905
band	-10.8905
▁roman	-10.8905
▁chapter	-10.8906
▁diary	-10.8906
▁margot	-10.8906
▁venga	-10.8906
▁courageous	-10.8907
▁lime	-10.8907
▁producers	-10.8907
▁swine	-10.8908
▁amongst	-10.8908
▁hoover	-10.8908
▁constantly	-10.8908
▁realistic	-10.8909
berry	-10.8911
▁shrieking	-10.8911
▁robbing	-10.8911
▁majester	-10.8912
▁allies	-10.8912
▁forgiveness	-10.8913
zvous	-10.8913
▁amazed	-10.8913
▁middleton	-10.8915
▁roon	-10.8915
▁examine	-10.8916
▁trim	-10.8919
adios	-10.8919
▁poet	-10.892
▁lamp	-10.8921
▁federa	-10.8921
▁bullfighter	-10.8926
▁nora	-10.8926
▁wage	-10.8927
▁achieved	-10.8928
▁bore	-10.8928
▁stir	-10.8929
▁crop	-10.893
▁victory	-10.8935
▁raw	-10.8936
▁confirmed	-10.8936
▁exhausted	-10.8936
▁currently	-10.8937
▁solved	-10.8937
▁fairies	-10.8938
▁daylight	-10.8941
ford	-10.8942
inky	-10.8943
▁bench	-10.8944
▁shave	-10.8945
▁stammering	-10.8946
▁puffer	-10.8946
▁proposed	-10.8947
▁announced	-10.8947
▁mimic	-10.8947
▁parc	-10.8947
▁angela	-10.8948
▁tray	-10.8951
▁worthless	-10.8954
▁quote	-10.8954
apped	-10.8956
▁abandoned	-10.8957
▁wiped	-10.896
ivan	-10.8961
▁straighten	-10.8962
▁echoing	-10.8964
▁embarrassed	-10.8964
▁goodlooking	-10.8965
▁putey	-10.8967
▁revealed	-10.8971
▁bridger	-10.8972
▁photographer	-10.8975
▁mistaken	-10.8978
▁hart	-10.898
▁required	-10.898
▁floating	-10.8982
▁disappearing	-10.8982
▁whooping	-10.899
▁badger	-10.8994
▁kay	-10.8996
▁insulted	-10.9
▁brighter	-10.9005
▁smacking	-10.9009
▁cre	-10.901
▁spite	-10.9011
▁insisted	-10.9021
▁talented	-10.9021
▁greed	-10.9023
▁pole	-10.9033
▁panick	-10.9045
▁screwing	-10.9046
▁dang	-10.9047
▁hike	-10.9059
▁porter	-10.9061
▁tying	-10.9081
▁experienced	-10.9082
▁slug	-10.9084
▁bom	-10.91
▁joint	-10.9125
▁guid	-10.9207
▁defi	-10.9214
▁lap	-10.9239
ubbed	-10.9249
▁of	-10.9299
▁stan	-10.9308
this	-10.9314
▁melt	-10.9333
▁patri	-10.9359
▁what	-10.9464
itched	-10.9488
▁boxer	-10.9568
▁marri	-10.9621
▁walla	-10.9652
▁concept	-10.9738
tom	-10.9743
▁tub	-10.9756
ddle	-10.9801
▁regimen	-10.9802
▁pudd	-10.9835
▁sip	-10.9871
▁commit	-10.9964
▁cigarette	-10.9993
▁degree	-10.9993
▁reverse	-11.0016
▁sock	-11.0016
▁conc	-11.0077
▁prisoner	-11.0098
▁batt	-11.0108
▁pursue	-11.0127
ggin	-11.0153
▁bum	-11.0181
▁gran	-11.02
▁robo	-11.0202
▁accord	-11.0261
▁smash	-11.0273
▁accus	-11.0275
▁frighten	-11.0278
ezmoi	-11.0281
walla	-11.0284
spite	-11.0286
mouth	-11.0286
worth	-11.0287
▁achieve	-11.029
▁retire	-11.029
▁divorce	-11.029
stock	-11.0295
bang	-11.0297
phone	-11.0297
▁virtu	-11.03
▁absolute	-11.0308
donna	-11.0312
▁movin	-11.032
▁construct	-11.0321
▁calculat	-11.0321
▁mitch	-11.0324
ville	-11.0324
▁favour	-11.0324
▁widow	-11.0325
▁musket	-11.0325
assemble	-11.0325
conceivable	-11.0325
▁abroad	-11.0325
▁absurd	-11.0325
▁activity	-11.0325
▁airstrip	-11.0325
▁alfred	-11.0325
▁ambition	-11.0325
▁ambulance	-11.0325
▁anticipated	-11.0325
▁apologizing	-11.0325
▁arkansas	-11.0325
▁arthritis	-11.0325
▁automobile	-11.0325
▁barcelona	-11.0325
▁beware	-11.0325
▁bouquet	-11.0325
▁bourgeois	-11.0325
▁brenner	-11.0325
▁briggs	-11.0325
▁candidate	-11.0325
▁carpenter	-11.0325
▁challenging	-11.0325
▁chemo	-11.0325
▁clermont	-11.0325
▁complex	-11.0325
▁conclusion	-11.0325
▁concussion	-11.0325
▁confusing	-11.0325
▁conspiracy	-11.0325
▁convincing	-11.0325
▁crusade	-11.0325
▁democrat	-11.0325
▁dialogue	-11.0325
▁einstein	-11.0325
▁eleanor	-11.0325
▁ellerbeck	-11.0325
▁enlighten	-11.0325
▁entrance	-11.0325
▁evacuate	-11.0325
▁expiration	-11.0325
▁feather	-11.0325
▁financial	-11.0325
▁fragile	-11.0325
▁frolic	-11.0325
▁frozen	-11.0325
▁georgi	-11.0325
▁gymnasts	-11.0325
▁handwriting	-11.0325
▁happier	-11.0325
▁increase	-11.0325
▁inherit	-11.0325
▁inviting	-11.0325
▁judging	-11.0325
▁juniper	-11.0325
▁launch	-11.0325
▁marilyn	-11.0325
▁maximillius	-11.0325
▁montepetra	-11.0325
▁nanananana	-11.0325
▁neighbour	-11.0325
▁norwegian	-11.0325
▁nowadays	-11.0325
▁opponent	-11.0325
▁participate	-11.0325
▁persuade	-11.0325
▁petrograd	-11.0325
▁phiibin	-11.0325
▁physicist	-11.0325
▁platform	-11.0325
▁province	-11.0325
▁pyramid	-11.0325
▁qualities	-11.0325
▁raphael	-11.0325
▁receipt	-11.0325
▁reject	-11.0325
▁relief	-11.0325
▁resident	-11.0325
▁roadblock	-11.0325
▁rochefort	-11.0325
▁rupert	-11.0325
▁satisfied	-11.0325
▁sausage	-11.0325
▁shabbes	-11.0325
▁sneffels	-11.0325
▁soccer	-11.0325
▁spaniard	-11.0325
▁sprinkle	-11.0325
▁squirrel	-11.0325
▁summary	-11.0325
▁sympathy	-11.0325
▁television	-11.0325
▁toothpaste	-11.0325
▁torches	-11.0325
▁tragedy	-11.0325
▁tribute	-11.0325
▁underground	-11.0325
▁underwear	-11.0325
▁vengeance	-11.0325
▁wardrobe	-11.0325
▁whatsoever	-11.0325
▁zinoviev	-11.0325
ograph	-11.0325
▁anyhow	-11.0325
▁breeding	-11.0325
▁chatwal	-11.0325
▁chittering	-11.0325
▁cissy	-11.0325
▁decree	-11.0325
▁division	-11.0325
▁elsewhere	-11.0325
▁execution	-11.0325
▁gibber	-11.0325
▁griev	-11.0325
▁heathen	-11.0325
▁hercule	-11.0325
▁increasing	-11.0325
▁length	-11.0325
▁lugash	-11.0325
▁population	-11.0325
▁rebuild	-11.0325
▁script	-11.0325
▁sketch	-11.0325
▁thomas	-11.0325
▁visual	-11.0325
▁wrath	-11.0325
▁zoca	-11.0325
▁agenda	-11.0325
▁bargain	-11.0325
▁bernard	-11.0325
▁bloke	-11.0325
▁dignity	-11.0325
▁lettuce	-11.0325
▁strict	-11.0325
▁stutter	-11.0325
▁sverre	-11.0325
▁whizz	-11.0325
▁applie	-11.0325
▁banish	-11.0325
▁canada	-11.0325
▁prairie	-11.0325
▁coffin	-11.0325
▁dentist	-11.0325
▁feast	-11.0325
▁outfit	-11.0325
▁prune	-11.0325
▁status	-11.0325
▁valuable	-11.0325
▁scheme	-11.0325
▁thisll	-11.0325
▁clara	-11.0325
▁errant	-11.0325
▁factories	-11.0325
▁gayle	-11.0325
▁moose	-11.0325
▁sentiment	-11.0325
▁oath	-11.0325
▁depot	-11.0325
▁headaches	-11.0325
▁jeep	-11.0325
▁steak	-11.0325
▁threatening	-11.0325
▁chord	-11.0325
▁northwest	-11.0325
▁herbert	-11.0325
▁raynor	-11.0325
▁retard	-11.0325
▁roast	-11.0325
▁holler	-11.0325
▁riley	-11.0325
▁rumble	-11.0325
▁doomed	-11.0325
▁haida	-11.0325
▁slurp	-11.0326
▁forrest	-11.0326
▁robbed	-11.0326
▁deaf	-11.0326
▁poem	-11.0326
▁drummer	-11.0326
▁deuce	-11.0326
▁riddle	-11.0326
▁historical	-11.0326
▁spades	-11.0326
▁higgins	-11.0326
▁laura	-11.0326
▁giris	-11.0326
▁nanna	-11.0326
▁authorities	-11.0326
▁ndr	-11.0326
▁preferred	-11.0326
▁rice	-11.0326
▁squash	-11.0326
▁advise	-11.0326
▁veil	-11.0326
▁racing	-11.0326
▁howls	-11.0326
▁drift	-11.0326
▁adjust	-11.0326
▁josh	-11.0326
▁foolproof	-11.0326
▁hatred	-11.0326
▁outrageous	-11.0326
▁sirica	-11.0326
▁seville	-11.0326
▁jeri	-11.0326
▁bunny	-11.0326
▁federation	-11.0326
▁labour	-11.0326
▁primo	-11.0327
▁gumm	-11.0327
▁eleven	-11.0327
▁dried	-11.0327
▁gavin	-11.0327
▁egyptian	-11.0327
▁disturbance	-11.0327
▁fantan	-11.0327
▁herring	-11.0327
▁saki	-11.0328
▁psst	-11.0328
▁demo	-11.0328
▁distinction	-11.0328
▁upside	-11.0328
▁mudde	-11.0328
▁vault	-11.0328
▁booger	-11.0328
▁euro	-11.0328
bby	-11.0328
▁harass	-11.0328
▁sulk	-11.0328
▁zay	-11.0328
▁summon	-11.0329
▁crank	-11.0329
▁wedded	-11.0329
▁torn	-11.0329
▁karate	-11.0329
▁compass	-11.0329
▁edgar	-11.0329
▁dressmaker	-11.0329
▁darn	-11.0329
▁scarlet	-11.0329
▁groper	-11.0329
▁cooperative	-11.0329
▁headstone	-11.0329
▁attic	-11.033
▁dodge	-11.033
▁fleet	-11.033
▁abuse	-11.0331
▁invention	-11.0331
▁wool	-11.0331
▁hamster	-11.0331
▁seism	-11.0332
▁jury	-11.0332
▁internal	-11.0332
▁slightest	-11.0332
▁technically	-11.0333
▁peck	-11.0333
▁chasing	-11.0333
▁roam	-11.0333
▁charts	-11.0333
▁raising	-11.0334
▁gunfire	-11.0334
▁dedicated	-11.0334
▁brownies	-11.0334
▁infield	-11.0334
▁furthe	-11.0334
▁wax	-11.0335
▁grandson	-11.0335
▁accidentally	-11.0335
▁cheerful	-11.0335
▁equality	-11.0335
▁perky	-11.0335
▁swap	-11.0336
▁sack	-11.0336
▁tripped	-11.0336
▁santosh	-11.0336
▁meow	-11.0337
▁ridge	-11.0337
▁admitted	-11.0338
▁benton	-11.0338
▁caption	-11.0339
▁booth	-11.0339
▁diesel	-11.0339
▁lodged	-11.0339
▁allowance	-11.0339
▁lilies	-11.0339
▁blondie	-11.034
▁fitting	-11.0341
▁copies	-11.0341
▁loaf	-11.0342
▁mint	-11.0342
▁graci	-11.0344
▁dj	-11.0344
▁linger	-11.0344
▁doggy	-11.0345
▁liter	-11.0345
▁tons	-11.0345
▁scarf	-11.0347
▁gilma	-11.0349
matic	-11.0349
▁childish	-11.0349
▁accountant	-11.035
▁sox	-11.035
▁render	-11.0351
odby	-11.0353
▁auguste	-11.0354
▁dandy	-11.0354
▁lenin	-11.0354
▁aura	-11.0355
▁machinery	-11.0356
▁included	-11.0356
▁pierced	-11.0356
▁unlikely	-11.0357
▁twitchy	-11.0357
▁colo	-11.0359
▁dreadful	-11.0359
▁soil	-11.0362
▁witnesses	-11.0364
▁pinch	-11.0366
▁duh	-11.0369
▁armory	-11.037
▁fig	-11.0371
▁haunted	-11.0371
▁distan	-11.0372
▁rarely	-11.0372
▁taik	-11.0372
▁youngster	-11.0374
▁coco	-11.0374
▁harp	-11.0374
▁define	-11.0379
▁englishman	-11.0381
▁boil	-11.0381
▁eighth	-11.0388
▁bubb	-11.0392
▁jackson	-11.0392
ejo	-11.0395
▁gamble	-11.0396
▁strongest	-11.0396
ruce	-11.0399
odo	-11.0401
▁originally	-11.0402
▁fist	-11.0403
▁ashes	-11.0406
▁hen	-11.0407
▁sexy	-11.0408
▁rv	-11.041
▁specialist	-11.0412
▁haul	-11.0415
▁designer	-11.0416
▁hack	-11.0424
▁ama	-11.0428
▁coal	-11.043
▁realise	-11.0433
▁gies	-11.044
▁biker	-11.0441
▁lighten	-11.0442
▁employer	-11.0442
▁ford	-11.0449
▁barre	-11.0467
▁carla	-11.0474
▁mao	-11.0477
avai	-11.0491
▁nickel	-11.0494
▁vou	-11.0538
▁triple	-11.0549
▁graceful	-11.0555
▁spinn	-11.0555
agging	-11.0559
dder	-11.0569
▁gap	-11.0609
▁mop	-11.0643
▁revers	-11.0654
tale	-11.0693
▁fatal	-11.0694
▁kneel	-11.0694
▁lip	-11.0701
nard	-11.0706
▁flo	-11.0718
▁mun	-11.0724
illett	-11.0736
▁slap	-11.08
chet	-11.0848
▁napa	-11.0854
▁pose	-11.0911
▁boot	-11.0919
formed	-11.1055
▁scrub	-11.1392
oud	-11.1394
patriot	-11.1401
vast	-11.142
ribu	-11.1432
moi	-11.1443
hru	-11.1447
berries	-11.1465
temporary	-11.1483
▁remov	-11.1495
▁lang	-11.1527
▁pickle	-11.1548
ronic	-11.1566
pose	-11.1581
▁fog	-11.1597
lock	-11.162
▁instrument	-11.1634
self	-11.1645
▁knuckle	-11.1652
▁grape	-11.1654
▁cricket	-11.1659
▁instruction	-11.1664
fare	-11.1678
▁clu	-11.1722
▁cycl	-11.1726
agh	-11.1763
pho	-11.1786
▁theo	-11.1798
▁granddad	-11.181
dale	-11.1815
▁sens	-11.1818
▁remark	-11.1818
▁author	-11.182
night	-11.1897
▁custom	-11.1907
▁rapp	-11.192
ought	-11.1922
▁stammer	-11.1925
▁screech	-11.1929
▁crunch	-11.1929
▁creak	-11.193
▁haunt	-11.1939
▁exhaust	-11.1939
▁confirm	-11.1939
▁cancel	-11.1941
▁vocal	-11.1949
front	-11.1951
crown	-11.1952
bridge	-11.1953
burn	-11.1953
class	-11.1953
consider	-11.1954
▁dispose	-11.1955
dog	-11.1955
okay	-11.1955
▁include	-11.1956
dont	-11.1956
▁spill	-11.1959
▁pierce	-11.1961
▁capture	-11.1962
pipe	-11.1962
▁guilt	-11.1966
▁frost	-11.1966
▁tuck	-11.1969
▁extreme	-11.1974
▁independen	-11.1976
▁raisin	-11.1983
▁commun	-11.1983
▁posse	-11.1983
▁drivin	-11.1983
▁posit	-11.1986
▁fema	-11.1986
▁corrupt	-11.1987
▁psych	-11.1988
rench	-11.1988
▁install	-11.1989
▁transmit	-11.1989
▁isabel	-11.1991
scribe	-11.1991
▁drei	-11.1992
alnut	-11.1992
umptious	-11.1992
▁abigail	-11.1992
▁accelerat	-11.1992
▁acknowledge	-11.1992
▁advertising	-11.1992
▁alternative	-11.1992
▁anarchist	-11.1992
▁anniversary	-11.1992
▁applauding	-11.1992
▁approximately	-11.1992
▁artillery	-11.1992
▁austria	-11.1992
▁awaiting	-11.1992
▁bastille	-11.1992
▁behaviour	-11.1992
▁bonacieux	-11.1992
▁bordeaux	-11.1992
▁brezhnev	-11.1992
▁burglar	-11.1992
▁catastrophe	-11.1992
▁catherine	-11.1992
▁cecilia	-11.1992
▁ceramic	-11.1992
▁cocktail	-11.1992
▁commercial	-11.1992
▁communicate	-11.1992
▁competitive	-11.1992
▁confined	-11.1992
▁conflict	-11.1992
▁contempt	-11.1992
▁convenient	-11.1992
▁crescent	-11.1992
▁crippled	-11.1992
▁crosscountry	-11.1992
▁cunning	-11.1992
▁curfew	-11.1992
▁deliberately	-11.1992
▁desirable	-11.1992
▁destination	-11.1992
▁determination	-11.1992
▁discharge	-11.1992
▁diwedi	-11.1992
▁economy	-11.1992
▁emptied	-11.1992
▁erroneous	-11.1992
▁esterhaus	-11.1992
▁fifteen	-11.1992
▁fireplace	-11.1992
▁florence	-11.1992
▁forgiving	-11.1992
▁fraina	-11.1992
▁glorious	-11.1992
▁hackett	-11.1992
▁hamilton	-11.1992
▁hightower	-11.1992
▁hydro	-11.1992
▁industry	-11.1992
▁injuries	-11.1992
▁innocence	-11.1992
▁ipod	-11.1992
▁ithaca	-11.1992
▁jerusalem	-11.1992
▁karrano	-11.1992
▁ketchum	-11.1992
▁kikakee	-11.1992
▁knives	-11.1992
▁koophuis	-11.1992
▁krispy	-11.1992
▁leonhard	-11.1992
▁literature	-11.1992
▁lodging	-11.1992
▁lucille	-11.1992
▁marijuana	-11.1992
▁mazzola	-11.1992
▁mclean	-11.1992
▁moravietti	-11.1992
▁murmuring	-11.1992
▁murphy	-11.1992
▁oldfashioned	-11.1992
▁oxygen	-11.1992
▁pancake	-11.1992
▁perimeter	-11.1992
▁persistent	-11.1992
▁pharmacy	-11.1992
▁privacy	-11.1992
▁pronounce	-11.1992
▁puppet	-11.1992
▁rafferty	-11.1992
▁reception	-11.1992
▁refrigerat	-11.1992
▁regatta	-11.1992
▁relevant	-11.1992
▁reynolds	-11.1992
▁rocinante	-11.1992
▁rutherford	-11.1992
▁salinas	-11.1992
▁scientific	-11.1992
▁scotland	-11.1992
▁scribble	-11.1992
▁seminar	-11.1992
▁sharrief	-11.1992
▁shepherd	-11.1992
▁shotgun	-11.1992
▁significant	-11.1992
▁snozzcumber	-11.1992
▁splinter	-11.1992
▁sponsor	-11.1992
▁surveillance	-11.1992
▁survival	-11.1992
▁sylvia	-11.1992
▁tanney	-11.1992
▁teresa	-11.1992
▁therapist	-11.1992
▁therapy	-11.1992
▁thieves	-11.1992
▁toothbrush	-11.1992
▁tremor	-11.1992
▁trespass	-11.1992
▁tummy	-11.1992
▁ultimatum	-11.1992
▁utter	-11.1992
▁vineyard	-11.1992
▁vitamins	-11.1992
▁volcano	-11.1992
▁vomit	-11.1992
▁weenie	-11.1992
▁wolves	-11.1992
▁worthwhile	-11.1992
▁zwei	-11.1992
▁chorus	-11.1992
▁clutch	-11.1992
▁diaval	-11.1992
▁educate	-11.1992
▁enhance	-11.1992
▁erasure	-11.1992
▁execute	-11.1992
▁fossil	-11.1992
▁griba	-11.1992
▁industrial	-11.1992
▁kumar	-11.1992
▁leather	-11.1992
▁mickey	-11.1992
▁munkd	-11.1992
▁rooster	-11.1992
▁thread	-11.1992
▁vivian	-11.1992
▁volume	-11.1992
▁blatz	-11.1992
▁distress	-11.1992
▁fridge	-11.1992
▁gutting	-11.1992
▁hindu	-11.1992
▁levine	-11.1992
▁lounge	-11.1992
▁penetrate	-11.1992
▁prettie	-11.1992
▁snail	-11.1992
▁splattering	-11.1992
▁theatre	-11.1992
▁corpse	-11.1992
▁decline	-11.1992
▁doggone	-11.1992
▁doodle	-11.1992
▁fritz	-11.1992
▁instant	-11.1992
▁ounce	-11.1992
▁weave	-11.1992
▁butterfly	-11.1992
▁caesar	-11.1992
▁doady	-11.1992
▁emiko	-11.1992
▁jello	-11.1992
▁juicy	-11.1992
▁parole	-11.1992
▁regain	-11.1992
▁slack	-11.1992
▁stroll	-11.1992
▁fourteen	-11.1992
▁steep	-11.1992
▁bennet	-11.1992
▁burke	-11.1992
▁clerk	-11.1992
▁conceal	-11.1992
▁dennis	-11.1992
▁extent	-11.1992
▁iww	-11.1992
▁kiog	-11.1992
▁undertake	-11.1992
▁estimate	-11.1992
▁preacher	-11.1992
▁alpha	-11.1992
▁couid	-11.1992
▁crane	-11.1992
▁creating	-11.1992
▁dairy	-11.1992
▁disney	-11.1992
▁noticing	-11.1992
▁edith	-11.1992
▁parling	-11.1992
▁flirt	-11.1992
▁macho	-11.1992
▁fax	-11.1992
▁splat	-11.1992
abilities	-11.1992
▁blink	-11.1992
▁grim	-11.1992
▁knit	-11.1992
▁otis	-11.1992
▁racial	-11.1992
▁related	-11.1992
▁spray	-11.1992
▁disabled	-11.1992
▁casual	-11.1992
▁keating	-11.1992
▁bulletproof	-11.1992
▁consult	-11.1992
▁crutchfield	-11.1992
▁blaming	-11.1992
▁brito	-11.1992
▁myth	-11.1992
▁wrist	-11.1992
▁amein	-11.1992
▁karr	-11.1992
▁assuming	-11.1992
▁kidney	-11.1992
▁sober	-11.1992
▁introduction	-11.1992
▁repetiti	-11.1992
▁rebell	-11.1992
▁crab	-11.1992
▁manicure	-11.1992
▁taunt	-11.1992
▁clark	-11.1992
▁yuck	-11.1992
▁drew	-11.1992
▁hiram	-11.1992
▁slogan	-11.1992
▁diplomatic	-11.1992
▁pension	-11.1993
▁housing	-11.1993
▁kidnapping	-11.1993
▁sludge	-11.1993
▁stalk	-11.1993
▁jingle	-11.1993
▁babysitter	-11.1993
▁fireworks	-11.1993
▁ellis	-11.1993
▁combust	-11.1993
▁freezing	-11.1993
▁flipped	-11.1993
ficial	-11.1993
▁dissent	-11.1993
▁physi	-11.1993
▁hisses	-11.1993
▁representative	-11.1993
▁dictat	-11.1993
▁stern	-11.1993
▁pinpoint	-11.1993
▁confusion	-11.1993
▁whims	-11.1993
▁beggar	-11.1993
▁discount	-11.1993
▁eliminat	-11.1993
▁whys	-11.1993
▁feola	-11.1993
▁berm	-11.1994
▁burp	-11.1994
▁rib	-11.1994
▁repay	-11.1994
functional	-11.1994
▁obsession	-11.1994
▁organization	-11.1994
▁bugger	-11.1994
▁quarrel	-11.1994
▁outfield	-11.1994
▁offend	-11.1994
▁atmosphere	-11.1995
▁rags	-11.1995
▁fiction	-11.1995
▁spike	-11.1995
▁cluck	-11.1995
▁gracious	-11.1995
▁transportation	-11.1995
▁motel	-11.1995
▁vein	-11.1995
▁plead	-11.1995
▁chilli	-11.1995
▁reflection	-11.1995
▁romance	-11.1995
▁festiv	-11.1995
▁timber	-11.1995
▁loath	-11.1995
riff	-11.1996
▁drought	-11.1996
▁byron	-11.1996
▁blanket	-11.1996
▁rust	-11.1996
▁corruption	-11.1997
▁slash	-11.1997
▁agency	-11.1997
▁frame	-11.1997
▁batteries	-11.1997
▁investment	-11.1997
▁woohoo	-11.1997
▁daft	-11.1997
▁patron	-11.1997
▁chopped	-11.1998
▁fright	-11.1998
▁misled	-11.1999
▁seder	-11.1999
▁announcement	-11.1999
patriotic	-11.1999
▁vroom	-11.1999
▁midge	-11.1999
▁clayton	-11.1999
ramble	-11.1999
▁muck	-11.1999
▁miguel	-11.1999
▁aircraft	-11.1999
rmore	-11.2
▁leadership	-11.2
▁logic	-11.2
▁improvement	-11.2
▁clam	-11.2001
▁secondhand	-11.2001
▁copper	-11.2001
▁concur	-11.2001
▁petty	-11.2001
▁travelled	-11.2001
▁robberies	-11.2002
▁establishment	-11.2002
▁eins	-11.2002
▁leap	-11.2002
▁scam	-11.2003
▁daba	-11.2003
▁charro	-11.2003
▁scum	-11.2004
▁trout	-11.2004
▁terrorist	-11.2004
▁spooky	-11.2005
▁stennis	-11.2005
▁premi	-11.2005
▁motorist	-11.2006
▁harv	-11.2006
▁selfish	-11.2006
▁blueback	-11.2007
▁royalty	-11.2007
▁sofa	-11.2008
why	-11.2008
▁devoted	-11.2009
▁consume	-11.2009
▁fame	-11.2009
▁melon	-11.2009
▁loco	-11.201
▁ballot	-11.2011
▁production	-11.2011
▁hound	-11.2012
▁shack	-11.2012
▁onion	-11.2012
▁sadness	-11.2013
▁lloyd	-11.2014
▁pulley	-11.2014
taking	-11.2017
▁terry	-11.2017
tip	-11.2019
▁quitting	-11.2019
▁sickness	-11.202
▁raph	-11.202
▁virtue	-11.2021
▁involve	-11.2023
▁wade	-11.2024
▁horseback	-11.2025
▁toot	-11.2028
▁johnson	-11.2028
▁samson	-11.2029
▁presidential	-11.2032
▁quitter	-11.2034
▁flea	-11.2034
▁retain	-11.2035
▁vocaliz	-11.2035
▁drill	-11.2035
ility	-11.2036
▁ross	-11.2036
nza	-11.2038
▁basement	-11.2041
▁ramp	-11.2041
liance	-11.2042
▁yang	-11.2043
▁invader	-11.2047
▁rave	-11.2047
▁takin	-11.2051
▁cole	-11.2064
▁consideration	-11.2067
▁limo	-11.2074
onnie	-11.2085
▁expel	-11.2109
▁formation	-11.2117
▁restore	-11.2138
▁zag	-11.2147
▁blaz	-11.2173
granddaddy	-11.2178
▁tov	-11.2218
▁cork	-11.2219
level	-11.2328
relli	-11.2367
with	-11.2387
aught	-11.2388
loyd	-11.2393
brock	-11.2439
udge	-11.2475
▁spect	-11.2559
whee	-11.2575
▁stripp	-11.2619
▁regime	-11.2651
▁receiv	-11.2682
▁comic	-11.2756
nam	-11.2892
▁hem	-11.3088
▁theys	-11.3099
▁terr	-11.3103
▁behav	-11.3126
▁nik	-11.3139
bear	-11.3287
▁straw	-11.3338
ancy	-11.3345
▁appreciat	-11.3398
laugh	-11.3486
ielding	-11.3507
acious	-11.3573
▁whisper	-11.3594
▁grunt	-11.3602
▁groan	-11.3613
▁vegetable	-11.3657
▁parent	-11.3667
lore	-11.3681
▁poi	-11.384
▁writ	-11.3843
three	-11.3873
pression	-11.3889
▁gamb	-11.3889
▁mechanic	-11.3919
▁commen	-11.3922
▁chirp	-11.3929
▁cram	-11.3932
▁subpoena	-11.394
▁dread	-11.3944
turned	-11.3948
count	-11.3951
stream	-11.3952
chief	-11.3952
famous	-11.3953
american	-11.3953
nothing	-11.3954
▁chant	-11.3964
▁rabbi	-11.3965
drive	-11.3967
▁clair	-11.3971
▁weigh	-11.3972
▁constant	-11.3973
▁practical	-11.3974
▁unfortunate	-11.3974
ricky	-11.3976
▁info	-11.3978
▁olive	-11.3979
▁leavin	-11.3983
think	-11.3985
▁influen	-11.3986
▁livin	-11.3986
▁beauti	-11.3987
▁react	-11.3988
▁whwh	-11.3988
▁transport	-11.399
▁zip	-11.399
▁margo	-11.399
▁automatic	-11.3991
▁flip	-11.3991
▁recon	-11.3991
historic	-11.3992
▁horri	-11.3992
audible	-11.3992
▁intellect	-11.3992
▁napoleon	-11.3992
▁optimist	-11.3992
discreet	-11.3992
ncomplete	-11.3992
ouncing	-11.3992
▁abalardi	-11.3992
▁accomplice	-11.3992
▁acquaintance	-11.3992
▁alcohol	-11.3992
▁algebra	-11.3992
▁allegations	-11.3992
▁alleluia	-11.3992
▁altafin	-11.3992
▁altogether	-11.3992
▁amusing	-11.3992
▁apparatus	-11.3992
▁appliance	-11.3992
▁approval	-11.3992
▁aqueduct	-11.3992
▁arrival	-11.3992
▁auggie	-11.3992
▁barbarian	-11.3992
▁behalf	-11.3992
▁benjamin	-11.3992
▁bicycle	-11.3992
▁bizarre	-11.3992
▁blankensoft	-11.3992
▁boilermaker	-11.3992
▁breeze	-11.3992
▁budapest	-11.3992
▁capacity	-11.3992
▁celeste	-11.3992
▁cetera	-11.3992
▁choosing	-11.3992
▁columbia	-11.3992
▁concentration	-11.3992
▁condemn	-11.3992
▁contradict	-11.3992
▁contribute	-11.3992
▁corporation	-11.3992
▁cottage	-11.3992
▁cynthia	-11.3992
▁daydreaming	-11.3992
▁deborah	-11.3992
▁dedication	-11.3992
▁deploy	-11.3992
▁depressing	-11.3992
▁despise	-11.3992
▁detention	-11.3992
▁dilemma	-11.3992
▁dismiss	-11.3992
▁dismount	-11.3992
▁disobey	-11.3992
▁duprez	-11.3992
▁ehrlichman	-11.3992
▁elegant	-11.3992
▁emptiness	-11.3992
▁enormous	-11.3992
▁environment	-11.3992
▁evidently	-11.3992
▁excessive	-11.3992
▁exhibition	-11.3992
▁explosiveskull	-11.3992
▁extinguish	-11.3992
▁facility	-11.3992
▁factrytown	-11.3992
▁fascist	-11.3992
▁fleshlumpeater	-11.3992
▁freight	-11.3992
▁frequenc	-11.3992
▁frobscottle	-11.3992
▁frustrated	-11.3992
▁gallery	-11.3992
▁global	-11.3992
▁globus	-11.3992
▁groovy	-11.3992
▁hamburger	-11.3992
▁hampshire	-11.3992
▁hebron	-11.3992
▁henderson	-11.3992
▁humiliating	-11.3992
▁hurried	-11.3992
▁imbecile	-11.3992
▁impeachment	-11.3992
▁inferior	-11.3992
▁inspired	-11.3992
▁insurrection	-11.3992
▁integrity	-11.3992
▁ishitsukuri	-11.3992
▁isolated	-11.3992
▁israel	-11.3992
▁jinnah	-11.3992
▁jockey	-11.3992
▁jubilee	-11.3992
▁keith	-11.3992
▁kilometers	-11.3992
▁lantern	-11.3992
▁loretta	-11.3992
▁luxray	-11.3992
▁luxury	-11.3992
▁macauley	-11.3992
▁mahatma	-11.3992
▁marietherese	-11.3992
▁marshmallow	-11.3992
▁metapod	-11.3992
▁michelson	-11.3992
▁microphone	-11.3992
▁mississippi	-11.3992
▁monterey	-11.3992
▁multipl	-11.3992
▁mystic	-11.3992
▁nicholas	-11.3992
▁novice	-11.3992
▁obstruct	-11.3992
▁ochopee	-11.3992
▁offshore	-11.3992
▁omelet	-11.3992
▁outstanding	-11.3992
▁pentagon	-11.3992
▁perspective	-11.3992
▁pheasant	-11.3992
▁policies	-11.3992
▁primate	-11.3992
▁proclaim	-11.3992
▁proposition	-11.3992
▁publish	-11.3992
▁rascal	-11.3992
▁rebuilt	-11.3992
▁referring	-11.3992
▁resolve	-11.3992
▁richelieu	-11.3992
▁rollercoaster	-11.3992
▁rubbish	-11.3992
▁rumour	-11.3992
▁saknussemm	-11.3992
▁salmonella	-11.3992
▁salvation	-11.3992
▁satisfaction	-11.3992
▁scaffold	-11.3992
▁schroeder	-11.3992
▁shrunk	-11.3992
▁sidney	-11.3992
▁snarling	-11.3992
▁spaghetti	-11.3992
▁spectacular	-11.3992
▁stabb	-11.3992
▁steroids	-11.3992
▁striking	-11.3992
▁struggling	-11.3992
▁stylish	-11.3992
▁submarine	-11.3992
▁suicune	-11.3992
▁supervisor	-11.3992
▁surprising	-11.3992
▁surviving	-11.3992
▁suspicion	-11.3992
▁switzerland	-11.3992
▁sydney	-11.3992
▁technology	-11.3992
▁thanksgiving	-11.3992
▁thomkins	-11.3992
▁thoroughbred	-11.3992
▁tolerate	-11.3992
▁transplant	-11.3992
▁twinkling	-11.3992
▁umbrella	-11.3992
▁uncomfortable	-11.3992
▁undressed	-11.3992
▁unemployed	-11.3992
▁unforgiv	-11.3992
▁upgrade	-11.3992
▁verdun	-11.3992
▁vibrations	-11.3992
▁vulgar	-11.3992
▁waltz	-11.3992
▁wheezing	-11.3992
▁whigham	-11.3992
▁armistice	-11.3992
▁battalion	-11.3992
▁bronze	-11.3992
▁capitol	-11.3992
▁companies	-11.3992
▁complication	-11.3992
▁convict	-11.3992
▁craving	-11.3992
▁cruise	-11.3992
▁davenport	-11.3992
▁diversity	-11.3992
▁exotic	-11.3992
▁galatea	-11.3992
▁glisten	-11.3992
▁grudge	-11.3992
▁hunky	-11.3992
▁ibori	-11.3992
▁intact	-11.3992
▁january	-11.3992
▁kitten	-11.3992
▁melody	-11.3992
▁necklace	-11.3992
▁proportion	-11.3992
▁quench	-11.3992
▁risner	-11.3992
▁senior	-11.3992
▁shoelace	-11.3992
▁siberia	-11.3992
▁smut	-11.3992
▁sprinters	-11.3992
▁submit	-11.3992
▁utopia	-11.3992
▁vessel	-11.3992
▁vienna	-11.3992
▁zebra	-11.3992
etropoli	-11.3992
▁avenge	-11.3992
▁baggage	-11.3992
▁colby	-11.3992
▁comintern	-11.3992
▁creek	-11.3992
▁crisp	-11.3992
▁duality	-11.3992
▁groove	-11.3992
▁jersey	-11.3992
▁justify	-11.3992
▁pepperoni	-11.3992
▁properties	-11.3992
▁segment	-11.3992
▁spiral	-11.3992
▁squire	-11.3992
▁tremble	-11.3992
▁whereabouts	-11.3992
▁banjo	-11.3992
▁champaran	-11.3992
▁conquer	-11.3992
▁coupon	-11.3992
▁expired	-11.3992
▁niece	-11.3992
▁pignet	-11.3992
▁nomine	-11.3992
▁postpone	-11.3992
▁gutter	-11.3992
▁holland	-11.3992
▁monitor	-11.3992
▁paratha	-11.3992
▁snuff	-11.3992
▁translation	-11.3992
▁duties	-11.3992
▁pathetic	-11.3992
▁pavement	-11.3992
▁recreati	-11.3992
▁warehouse	-11.3992
▁calgary	-11.3992
▁cheque	-11.3992
▁divided	-11.3992
▁importance	-11.3992
▁protein	-11.3992
▁squawk	-11.3992
▁asthma	-11.3992
▁promising	-11.3992
▁salmon	-11.3992
▁sliding	-11.3992
▁frome	-11.3992
▁pledge	-11.3992
▁tutor	-11.3992
▁budget	-11.3992
▁cartoon	-11.3992
▁derby	-11.3992
▁purity	-11.3992
▁resume	-11.3992
▁sepp	-11.3992
▁guild	-11.3992
▁duane	-11.3992
▁klein	-11.3992
▁stack	-11.3992
▁arena	-11.3992
▁balto	-11.3992
▁superstars	-11.3992
▁method	-11.3992
▁purge	-11.3992
▁flattered	-11.3992
▁spoon	-11.3992
▁dussel	-11.3992
▁fuzz	-11.3992
▁oven	-11.3992
▁rump	-11.3992
▁ashore	-11.3992
▁bauru	-11.3992
▁canvas	-11.3992
▁snappy	-11.3992
▁stump	-11.3992
▁decay	-11.3992
▁illustr	-11.3992
▁karl	-11.3992
▁snot	-11.3992
▁violate	-11.3992
▁activate	-11.3992
▁collins	-11.3992
▁extensi	-11.3992
▁funnel	-11.3992
▁intrud	-11.3992
▁plop	-11.3992
▁styx	-11.3992
▁gerry	-11.3992
▁loony	-11.3992
▁stove	-11.3992
▁gascon	-11.3992
▁winnie	-11.3992
▁aior	-11.3992
▁jonas	-11.3992
▁crust	-11.3992
▁hustle	-11.3992
▁jip	-11.3992
▁decorate	-11.3992
▁bastion	-11.3992
▁weep	-11.3992
▁jingling	-11.3992
wizard	-11.3992
▁altar	-11.3992
▁everett	-11.3993
▁tropic	-11.3993
▁lumi	-11.3993
▁terrified	-11.3993
▁mustache	-11.3993
▁simonsson	-11.3993
hungarian	-11.3993
▁intensi	-11.3993
▁angle	-11.3993
▁ankle	-11.3993
▁sunya	-11.3993
▁detect	-11.3993
orita	-11.3993
▁drury	-11.3993
▁mailbox	-11.3993
▁girlyman	-11.3993
revolutionaries	-11.3993
▁armenti	-11.3993
▁lump	-11.3993
▁trotsky	-11.3993
▁attaboy	-11.3993
▁parallel	-11.3993
▁trimble	-11.3993
▁cuddle	-11.3993
▁cretan	-11.3993
▁superstitio	-11.3993
▁midfield	-11.3993
▁yip	-11.3993
▁cyclone	-11.3993
▁damsel	-11.3993
▁fraud	-11.3993
▁gem	-11.3993
▁danvers	-11.3993
▁troll	-11.3993
▁forbidden	-11.3993
▁gretel	-11.3993
▁braying	-11.3993
▁treason	-11.3993
▁hinges	-11.3993
▁favourite	-11.3993
▁automatically	-11.3993
▁flittin	-11.3993
▁mentor	-11.3993
▁gert	-11.3993
▁confe	-11.3993
▁harvey	-11.3993
▁bosom	-11.3994
▁pedal	-11.3994
▁mitchell	-11.3994
▁bingham	-11.3994
▁dormant	-11.3994
mbles	-11.3994
▁fiend	-11.3994
▁anchovies	-11.3994
booboo	-11.3994
▁bobsledder	-11.3995
▁collaboration	-11.3995
▁andr	-11.3995
▁finland	-11.3995
▁translate	-11.3995
▁intimate	-11.3995
▁subtle	-11.3995
▁bulb	-11.3995
▁psychiatrist	-11.3995
▁tuition	-11.3995
▁overrated	-11.3995
▁esca	-11.3995
▁whwhat	-11.3995
▁bind	-11.3996
▁waking	-11.3996
▁scold	-11.3996
avor	-11.3996
▁ginger	-11.3996
▁henri	-11.3996
▁steward	-11.3996
▁junct	-11.3996
▁sensation	-11.3996
▁grease	-11.3996
▁wives	-11.3996
▁furious	-11.3997
▁ripped	-11.3997
gauge	-11.3997
▁subway	-11.3997
▁elvis	-11.3997
▁croak	-11.3997
▁roland	-11.3997
▁quarterback	-11.3997
▁chrissy	-11.3997
▁bombay	-11.3997
▁silk	-11.3997
▁digging	-11.3997
▁korea	-11.3997
▁lungs	-11.3998
arily	-11.3998
▁connie	-11.3998
▁dugout	-11.3998
▁harvest	-11.3998
▁shaking	-11.3998
▁whipped	-11.3998
▁atom	-11.3998
▁plato	-11.3998
▁moonlight	-11.3998
▁continuum	-11.3998
▁lurk	-11.3999
▁entertainment	-11.3999
▁walde	-11.3999
▁paperwork	-11.3999
▁continental	-11.3999
▁clap	-11.3999
▁calculation	-11.3999
▁construction	-11.3999
▁tomatoes	-11.3999
▁snapping	-11.3999
▁overwork	-11.4001
▁shortcut	-11.4002
▁whipping	-11.4002
gulf	-11.4002
▁hesitate	-11.4002
▁stevens	-11.4002
▁foam	-11.4003
▁lever	-11.4003
▁clip	-11.4003
▁hush	-11.4003
kfield	-11.4004
▁animat	-11.4004
▁indicati	-11.4004
▁classroom	-11.4005
▁olie	-11.4005
▁repent	-11.4005
▁replacement	-11.4006
▁arise	-11.4006
▁compose	-11.4006
▁molar	-11.4006
▁selection	-11.4006
▁archi	-11.4006
▁franklin	-11.4007
stein	-11.4007
rodu	-11.4007
▁summerlin	-11.4007
▁guardian	-11.4008
▁lazy	-11.4008
▁youthful	-11.4008
▁patel	-11.4009
▁hence	-11.4009
▁pris	-11.401
▁dash	-11.4012
uchen	-11.4012
sexual	-11.4013
▁rende	-11.4014
▁loma	-11.4015
▁thug	-11.4016
▁instructor	-11.4021
ollen	-11.4023
▁capitalist	-11.4032
illiard	-11.4034
▁todd	-11.404
▁peach	-11.4044
azel	-11.4052
gestion	-11.4076
rammed	-11.4084
▁wav	-11.4091
▁hose	-11.4102
▁davi	-11.4133
▁iti	-11.4201
▁authoriz	-11.4202
▁johnston	-11.4207
lich	-11.4322
theft	-11.4328
fying	-11.4411
step	-11.4446
flex	-11.4555
▁criticiz	-11.458
▁forsake	-11.4641
▁sancti	-11.4704
▁seize	-11.4864
sync	-11.4946
after	-11.523
ollo	-11.5344
rmal	-11.5402
oxi	-11.5563
yeahyeah	-11.5691
merse	-11.5732
hoohoo	-11.5733
▁deserv	-11.5755
▁isa	-11.5801
signor	-11.582
two	-11.5999
ippin	-11.609
▁exclaim	-11.6158
▁musketeer	-11.6158
▁luri	-11.6165
▁troubl	-11.6172
hugging	-11.6178
▁trea	-11.6398
▁humbl	-11.6412
▁stun	-11.6413
▁thump	-11.6427
▁disgust	-11.6428
▁surround	-11.644
view	-11.6447
cross	-11.645
violence	-11.6452
dollar	-11.6452
wide	-11.6453
lucky	-11.6453
guard	-11.6453
world	-11.6453
▁engage	-11.6455
▁amaze	-11.6458
▁grin	-11.6458
walk	-11.6459
▁wond	-11.6464
▁dispos	-11.6465
▁univers	-11.6466
▁reveren	-11.6473
▁origin	-11.6483
▁continent	-11.6483
▁musi	-11.6484
▁sittin	-11.6485
▁counsel	-11.6486
torious	-11.6487
▁migue	-11.6487
▁reflect	-11.6487
▁distinct	-11.6487
▁differ	-11.6489
▁equip	-11.6489
▁byr	-11.6489
urray	-11.649
▁imagina	-11.649
gnant	-11.6491
equently	-11.6492
structur	-11.6492
wich	-11.6492
▁mmmmmm	-11.6492
▁transfer	-11.6492
▁vietnam	-11.6492
▁fontaine	-11.6492
▁souven	-11.6492
ncineroar	-11.6492
obedience	-11.6492
preservation	-11.6492
responsibilities	-11.6492
semblance	-11.6492
▁accommodation	-11.6492
▁accumulat	-11.6492
▁accurate	-11.6492
▁additional	-11.6492
▁advisor	-11.6492
▁akita	-11.6492
▁amigo	-11.6492
▁angrier	-11.6492
▁answersheet	-11.6492
▁anyplace	-11.6492
▁appalled	-11.6492
▁apprentice	-11.6492
▁artificial	-11.6492
▁atlantic	-11.6492
▁autumn	-11.6492
▁bailiff	-11.6492
▁balcony	-11.6492
▁ballplayer	-11.6492
▁beanstalk	-11.6492
▁belfry	-11.6492
▁bergmark	-11.6492
▁bolshevism	-11.6492
▁bouillon	-11.6492
▁brigade	-11.6492
▁brutal	-11.6492
▁bureaucrat	-11.6492
▁burrito	-11.6492
▁camouflage	-11.6492
▁category	-11.6492
▁ceiling	-11.6492
▁census	-11.6492
▁certificate	-11.6492
▁cheeseburger	-11.6492
▁cinnamon	-11.6492
▁clergyman	-11.6492
▁cleveland	-11.6492
▁column	-11.6492
▁communicating	-11.6492
▁compensate	-11.6492
▁comprendo	-11.6492
▁contrary	-11.6492
▁convoy	-11.6492
▁coyote	-11.6492
▁creativity	-11.6492
▁cuckoo	-11.6492
▁cultural	-11.6492
▁curveball	-11.6492
▁dandelion	-11.6492
▁decipher	-11.6492
▁delegation	-11.6492
▁demonstrate	-11.6492
▁demonstration	-11.6492
▁detroit	-11.6492
▁devastating	-11.6492
▁devastation	-11.6492
▁disadvantage	-11.6492
▁dreyfus	-11.6492
▁dunhill	-11.6492
▁ecsta	-11.6492
▁elaborate	-11.6492
▁embassy	-11.6492
▁enchanted	-11.6492
▁enchantment	-11.6492
▁equation	-11.6492
▁esplandian	-11.6492
▁etcetera	-11.6492
▁eugene	-11.6492
▁explosive	-11.6492
▁exterminat	-11.6492
▁eyebrows	-11.6492
▁fackler	-11.6492
▁faust	-11.6492
▁flaws	-11.6492
▁fofinho	-11.6492
▁fountain	-11.6492
▁geography	-11.6492
▁geronimo	-11.6492
▁gitundu	-11.6492
▁hallucinations	-11.6492
▁hebrides	-11.6492
▁hilarious	-11.6492
▁hoodlums	-11.6492
▁hormones	-11.6492
▁hulahoop	-11.6492
▁hyena	-11.6492
▁identification	-11.6492
▁illusory	-11.6492
▁impostor	-11.6492
▁inconvenience	-11.6492
▁indestructible	-11.6492
▁indictment	-11.6492
▁infected	-11.6492
▁infection	-11.6492
▁iniquity	-11.6492
▁intimidat	-11.6492
▁invading	-11.6492
▁ivory	-11.6492
▁jouvet	-11.6492
▁judith	-11.6492
▁ketchup	-11.6492
▁kindergarten	-11.6492
▁kraler	-11.6492
▁kugel	-11.6492
▁langlois	-11.6492
▁latrine	-11.6492
▁leotards	-11.6492
▁lombard	-11.6492
▁lorraine	-11.6492
▁lucinda	-11.6492
▁luppus	-11.6492
▁magique	-11.6492
▁mastodon	-11.6492
▁matthew	-11.6492
▁mcmillan	-11.6492
▁mechanism	-11.6492
▁mercedes	-11.6492
▁merchandise	-11.6492
▁metaphor	-11.6492
▁miyatsuko	-11.6492
▁modification	-11.6492
▁montoire	-11.6492
▁moriarity	-11.6492
▁mutters	-11.6492
▁neglect	-11.6492
▁nenana	-11.6492
▁neutral	-11.6492
▁noodles	-11.6492
▁notify	-11.6492
▁obligation	-11.6492
▁occurs	-11.6492
▁olafsen	-11.6492
▁oriental	-11.6492
▁outsmart	-11.6492
▁pardonnezmoi	-11.6492
▁pennington	-11.6492
▁phenomena	-11.6492
▁possibilities	-11.6492
▁preparation	-11.6492
▁preparing	-11.6492
▁prosecution	-11.6492
▁qualifications	-11.6492
▁reassuring	-11.6492
▁recognise	-11.6492
▁recognition	-11.6492
▁recollect	-11.6492
▁referred	-11.6492
▁refusing	-11.6492
▁reggae	-11.6492
▁regulations	-11.6492
▁rehearsal	-11.6492
▁reinforce	-11.6492
▁reunite	-11.6492
▁revolt	-11.6492
▁revolv	-11.6492
▁rhyme	-11.6492
▁rookery	-11.6492
▁sabotage	-11.6492
▁sagami	-11.6492
▁salami	-11.6492
▁scissors	-11.6492
▁scrabble	-11.6492
▁scumbag	-11.6492
▁seizure	-11.6492
▁semester	-11.6492
▁senechal	-11.6492
▁senhora	-11.6492
▁shucks	-11.6492
▁skoglund	-11.6492
▁skunk	-11.6492
▁snatched	-11.6492
▁squish	-11.6492
▁stebbins	-11.6492
▁stepfather	-11.6492
▁strangled	-11.6492
▁substantial	-11.6492
▁substitut	-11.6492
▁tallulah	-11.6492
▁thunderclap	-11.6492
▁tortoise	-11.6492
▁tranquilizer	-11.6492
▁transgression	-11.6492
▁trevor	-11.6492
▁tuberculosis	-11.6492
▁twilight	-11.6492
▁typewriter	-11.6492
▁underestimate	-11.6492
▁undesirable	-11.6492
▁unnatural	-11.6492
▁vaccinat	-11.6492
▁vampire	-11.6492
▁vancouver	-11.6492
▁vatican	-11.6492
▁vegetarian	-11.6492
▁waffles	-11.6492
▁wardenclyffe	-11.6492
▁watermelon	-11.6492
▁wheelchair	-11.6492
▁worrell	-11.6492
▁yourseif	-11.6492
▁zelda	-11.6492
menezle	-11.6492
rescind	-11.6492
tesvous	-11.6492
▁abalone	-11.6492
▁aggressi	-11.6492
▁anonym	-11.6492
▁ballgame	-11.6492
▁beverley	-11.6492
▁casualties	-11.6492
▁chateau	-11.6492
▁chiddler	-11.6492
▁dawson	-11.6492
▁extort	-11.6492
▁extravagan	-11.6492
▁hotshot	-11.6492
▁immigra	-11.6492
▁julius	-11.6492
▁knack	-11.6492
▁mathematic	-11.6492
▁moniteur	-11.6492
▁nelson	-11.6492
▁overreact	-11.6492
▁perception	-11.6492
▁porsche	-11.6492
▁psychology	-11.6492
▁rookie	-11.6492
▁sahib	-11.6492
▁sarcastic	-11.6492
▁scatter	-11.6492
▁shirley	-11.6492
▁skull	-11.6492
▁slumber	-11.6492
▁tibbs	-11.6492
▁tumble	-11.6492
▁violation	-11.6492
ification	-11.6492
percussion	-11.6492
▁awhile	-11.6492
▁candlestick	-11.6492
▁cloak	-11.6492
▁daisies	-11.6492
▁enroll	-11.6492
▁fierce	-11.6492
▁gaulle	-11.6492
▁hypothetical	-11.6492
▁inhabit	-11.6492
▁intellectual	-11.6492
▁intercom	-11.6492
▁lewis	-11.6492
▁matzo	-11.6492
▁ministr	-11.6492
▁monkees	-11.6492
▁relaps	-11.6492
▁sorrel	-11.6492
▁spontaneous	-11.6492
▁streak	-11.6492
▁summit	-11.6492
▁swarming	-11.6492
▁toxic	-11.6492
▁unfold	-11.6492
▁wilbur	-11.6492
▁analyze	-11.6492
▁duffle	-11.6492
▁faiy	-11.6492
▁inject	-11.6492
paralyzed	-11.6492
▁arctic	-11.6492
▁bambi	-11.6492
▁bouncy	-11.6492
▁buddies	-11.6492
▁curtis	-11.6492
▁gauche	-11.6492
▁inquire	-11.6492
▁pencil	-11.6492
▁permanent	-11.6492
▁umpire	-11.6492
▁vanessa	-11.6492
▁agitat	-11.6492
▁blush	-11.6492
▁dominoes	-11.6492
▁gesture	-11.6492
▁overdone	-11.6492
▁perdition	-11.6492
▁testimon	-11.6492
▁uncover	-11.6492
▁adieu	-11.6492
▁anchor	-11.6492
▁characteristics	-11.6492
▁hazard	-11.6492
▁hendri	-11.6492
▁ranieri	-11.6492
▁redeem	-11.6492
▁sixteen	-11.6492
▁snug	-11.6492
▁bistro	-11.6492
▁comfy	-11.6492
▁keller	-11.6492
▁pablo	-11.6492
▁primari	-11.6492
▁refill	-11.6492
▁sharma	-11.6492
▁sociolog	-11.6492
▁sprout	-11.6492
▁swedish	-11.6492
▁tchan	-11.6492
agram	-11.6492
▁bluff	-11.6492
▁constable	-11.6492
▁heip	-11.6492
▁misfit	-11.6492
▁percent	-11.6492
▁vigil	-11.6492
▁brute	-11.6492
▁pederson	-11.6492
▁rachel	-11.6492
▁spool	-11.6492
▁aaron	-11.6492
▁breach	-11.6492
▁elementa	-11.6492
▁medallion	-11.6492
▁pioneer	-11.6492
▁quinn	-11.6492
▁transferred	-11.6492
▁adapt	-11.6492
▁farewell	-11.6492
▁grill	-11.6492
▁alamo	-11.6492
▁detour	-11.6492
▁eager	-11.6492
▁paolo	-11.6492
▁shivers	-11.6492
▁andand	-11.6492
▁corral	-11.6492
▁harmony	-11.6492
▁irish	-11.6492
▁buoy	-11.6492
▁teii	-11.6492
▁noisy	-11.6492
▁stool	-11.6492
scope	-11.6492
▁allez	-11.6492
▁personnel	-11.6492
▁ruck	-11.6492
▁wedgie	-11.6492
▁cordon	-11.6492
▁flynn	-11.6492
▁renew	-11.6492
▁amuse	-11.6492
▁blum	-11.6492
▁classify	-11.6492
▁devoti	-11.6492
▁hamrin	-11.6492
▁sedition	-11.6492
▁xray	-11.6492
▁eldest	-11.6492
▁jelly	-11.6492
▁dvd	-11.6492
▁marbles	-11.6492
▁lizzy	-11.6492
▁douglas	-11.6492
▁relive	-11.6492
▁brood	-11.6492
▁limb	-11.6492
▁gobble	-11.6492
▁grid	-11.6492
▁judicia	-11.6493
▁reich	-11.6493
circul	-11.6493
▁electronic	-11.6493
▁willie	-11.6493
▁yuko	-11.6493
▁queue	-11.6493
▁programmed	-11.6493
▁vested	-11.6493
▁yacht	-11.6493
frey	-11.6493
▁measurements	-11.6493
▁seadragon	-11.6493
ophobi	-11.6493
▁luca	-11.6493
▁boast	-11.6493
▁carrier	-11.6493
▁amor	-11.6493
▁absent	-11.6493
▁terminate	-11.6493
▁vipers	-11.6493
▁fanatic	-11.6493
▁luckily	-11.6493
▁drain	-11.6493
▁mischief	-11.6493
▁jamison	-11.6493
▁luce	-11.6493
▁disrespect	-11.6493
dfather	-11.6493
▁dreiser	-11.6493
▁twentyfour	-11.6493
▁cameron	-11.6493
▁priorities	-11.6493
▁theories	-11.6493
▁mankind	-11.6493
▁kidnapper	-11.6493
▁shred	-11.6493
▁gyp	-11.6493
▁queer	-11.6493
▁snitch	-11.6493
▁packets	-11.6493
▁peeka	-11.6494
▁vista	-11.6494
▁candlelight	-11.6494
▁huddle	-11.6494
▁hesitation	-11.6494
▁observing	-11.6494
kraut	-11.6494
▁perceiv	-11.6494
▁creations	-11.6494
▁onward	-11.6494
rummy	-11.6494
▁eligib	-11.6494
▁dispute	-11.6494
▁chalk	-11.6494
uku	-11.6494
▁perez	-11.6494
▁bellows	-11.6494
▁presumpt	-11.6494
▁polls	-11.6494
▁mugged	-11.6494
▁uptown	-11.6494
▁interval	-11.6494
▁zipper	-11.6494
▁colonia	-11.6495
▁veal	-11.6495
▁vision	-11.6495
▁partnership	-11.6495
▁liberation	-11.6495
▁quantit	-11.6495
▁rubble	-11.6495
▁trench	-11.6495
frump	-11.6495
▁oars	-11.6495
▁denial	-11.6496
▁tension	-11.6496
▁padd	-11.6496
▁dagg	-11.6496
rimet	-11.6497
▁irritat	-11.6497
▁sicil	-11.6498
hudson	-11.6498
uating	-11.6498
▁joust	-11.6499
▁promot	-11.6499
▁skim	-11.65
▁lifesav	-11.65
▁hassle	-11.6501
▁pupil	-11.6502
▁dunn	-11.6502
▁arouse	-11.6512
▁hawk	-11.6514
▁invo	-11.6515
donald	-11.6515
▁meditati	-11.6519
▁erupti	-11.6519
▁kati	-11.6521
bbie	-11.6522
▁ammo	-11.6523
▁faci	-11.6523
urban	-11.6528
▁currie	-11.6533
mission	-11.6568
ndler	-11.6575
fusion	-11.6582
twentythree	-11.6596
quisit	-11.6648
overall	-11.6658
▁ditch	-11.6693
▁mingl	-11.6704
dicted	-11.6752
▁pursu	-11.6865
martial	-11.703
righteous	-11.7048
▁ceme	-11.7133
▁yield	-11.7136
▁purif	-11.7216
type	-11.7556
mhmm	-11.7858
capita	-11.7952
▁conservat	-11.8026
▁chippe	-11.8154
▁organiz	-11.8167
▁mhm	-11.8184
▁selfdestructi	-11.8216
emerge	-11.8246
timate	-11.8334
epa	-11.8559
wig	-11.8653
ector	-11.8739
disciplined	-11.9175
moving	-11.9202
minded	-11.9427
drums	-11.9455
▁exhale	-11.9495
▁immun	-11.955
▁involv	-11.9629
▁mimi	-11.968
ization	-11.9716
▁decid	-11.9716
▁bullfight	-11.9738
▁suppos	-11.975
▁majest	-11.9756
bumps	-11.9761
▁clatter	-11.9761
▁splash	-11.9762
▁develop	-11.977
cream	-11.978
▁sophi	-11.9782
proof	-11.9783
paper	-11.9784
loaf	-11.9784
robbing	-11.9784
experienced	-11.9784
▁blitz	-11.9784
dammit	-11.9785
developed	-11.9785
respect	-11.9785
fortune	-11.9786
stretch	-11.9786
quarter	-11.9786
understood	-11.9786
thousand	-11.9786
bottle	-11.9787
minute	-11.9787
figure	-11.9787
school	-11.9787
blow	-11.9787
flame	-11.9789
▁devote	-11.9789
▁lodge	-11.979
▁spook	-11.9798
ducted	-11.9798
▁craz	-11.98
ogie	-11.9801
▁scoot	-11.9804
▁technical	-11.9806
▁perpet	-11.9809
▁energ	-11.9812
▁tomato	-11.9813
▁lndia	-11.9815
▁atti	-11.9815
▁smokin	-11.9816
snortin	-11.9818
dramati	-11.9819
▁psychiatr	-11.982
▁collaborat	-11.9821
▁obsess	-11.9821
runch	-11.9821
▁kidnap	-11.9821
▁veget	-11.9822
▁anchov	-11.9822
▁dorm	-11.9823
▁outrage	-11.9823
▁mysteri	-11.9823
▁ordina	-11.9824
▁diploma	-11.9824
▁occupa	-11.9824
▁electro	-11.9825
▁crutch	-11.9825
▁anthropo	-11.9825
▁dazzl	-11.9825
▁inadequa	-11.9825
▁opportunist	-11.9825
caffeinated	-11.9825
centennial	-11.9825
clamation	-11.9825
conspicuous	-11.9825
enthusiastic	-11.9825
rehearsed	-11.9825
sfrance	-11.9825
spirator	-11.9825
technician	-11.9825
▁aborigin	-11.9825
▁accompanie	-11.9825
▁acquainted	-11.9825
▁adequate	-11.9825
▁adversary	-11.9825
▁aftershock	-11.9825
▁alcatraz	-11.9825
▁amateur	-11.9825
▁ambush	-11.9825
▁anguta	-11.9825
▁annabelle	-11.9825
▁annihilat	-11.9825
▁anticipation	-11.9825
▁antisemitism	-11.9825
▁apologis	-11.9825
▁archetypal	-11.9825
▁architect	-11.9825
▁aspect	-11.9825
▁astonish	-11.9825
▁aubergine	-11.9825
▁awaited	-11.9825
▁ballerina	-11.9825
▁baltimore	-11.9825
▁barbecue	-11.9825
▁baudelaire	-11.9825
▁beforehand	-11.9825
▁belgian	-11.9825
▁biblical	-11.9825
▁blossom	-11.9825
▁boulder	-11.9825
▁brethren	-11.9825
▁bridegroom	-11.9825
▁briefcase	-11.9825
▁cannybull	-11.9825
▁carnofsky	-11.9825
▁cauliflower	-11.9825
▁caviar	-11.9825
▁ceremoni	-11.9825
▁cervantes	-11.9825
▁chafouin	-11.9825
▁chauffeur	-11.9825
▁cheerleader	-11.9825
▁cheshire	-11.9825
▁christopher	-11.9825
▁clarify	-11.9825
▁clarinet	-11.9825
▁clermontferrand	-11.9825
▁climate	-11.9825
▁cockroaches	-11.9825
▁coconut	-11.9825
▁colombia	-11.9825
▁commendations	-11.9825
▁competitor	-11.9825
▁conceited	-11.9825
▁contribution	-11.9825
▁culprit	-11.9825
▁danaisser	-11.9825
▁defensive	-11.9825
▁demoralize	-11.9825
▁description	-11.9825
▁dierdre	-11.9825
▁discerning	-11.9825
▁disconnect	-11.9825
▁disregard	-11.9825
▁domestic	-11.9825
▁dummies	-11.9825
▁dupont	-11.9825
▁dwarf	-11.9825
▁dynamic	-11.9825
▁elijah	-11.9825
▁enclos	-11.9825
▁entitled	-11.9825
▁episode	-11.9825
▁esteem	-11.9825
▁evict	-11.9825
▁evildoers	-11.9825
▁exaggerat	-11.9825
▁expansion	-11.9825
▁exploring	-11.9825
▁fartface	-11.9825
▁fascinated	-11.9825
▁february	-11.9825
▁fiasco	-11.9825
▁filipino	-11.9825
▁flapjacks	-11.9825
▁fonzanoon	-11.9825
▁fractions	-11.9825
▁fracture	-11.9825
▁frankincense	-11.9825
▁fraternity	-11.9825
▁freud	-11.9825
▁galaktico	-11.9825
▁galaxy	-11.9825
▁gekko	-11.9825
▁geranium	-11.9825
▁ghetto	-11.9825
▁ghibli	-11.9825
▁gingerbread	-11.9825
▁girdle	-11.9825
▁gleaming	-11.9825
▁glimmer	-11.9825
▁gourmet	-11.9825
▁graduation	-11.9825
▁grammar	-11.9825
▁grandchildren	-11.9825
▁grandparents	-11.9825
▁groceries	-11.9825
▁haggadah	-11.9825
▁heaith	-11.9825
▁heartbreaker	-11.9825
▁heavyweight	-11.9825
▁hialeah	-11.9825
▁homicid	-11.9825
▁homosexual	-11.9825
▁horizon	-11.9825
▁humidity	-11.9825
▁humiliation	-11.9825
▁hurrah	-11.9825
▁hyphenated	-11.9825
▁impassable	-11.9825
▁impatient	-11.9825
▁impeccable	-11.9825
▁imperfection	-11.9825
▁implicated	-11.9825
▁implication	-11.9825
▁imposter	-11.9825
▁incompeten	-11.9825
▁incriminat	-11.9825
▁indispensable	-11.9825
▁indulge	-11.9825
▁infrared	-11.9825
▁ingenious	-11.9825
▁interpret	-11.9825
▁intimacy	-11.9825
▁intoxicate	-11.9825
▁irrelevant	-11.9825
▁jengibre	-11.9825
▁jennifer	-11.9825
▁jurisdiction	-11.9825
▁juvenile	-11.9825
▁kensington	-11.9825
▁kilimanjaro	-11.9825
▁knockknock	-11.9825
▁kuramochi	-11.9825
▁lamirand	-11.9825
▁lanervo	-11.9825
▁lnspector	-11.9825
▁locomotive	-11.9825
▁loopdeloop	-11.9825
▁lucario	-11.9825
▁lullaby	-11.9825
▁lutheran	-11.9825
▁mafuba	-11.9825
▁magistrate	-11.9825
▁magnifique	-11.9825
▁makeawish	-11.9825
▁manipedi	-11.9825
▁manipulat	-11.9825
▁manuscript	-11.9825
▁maroiyeur	-11.9825
▁marvellous	-11.9825
▁massilia	-11.9825
▁milord	-11.9825
▁miniature	-11.9825
▁mitzvah	-11.9825
▁moccasins	-11.9825
▁moneypenny	-11.9825
▁monocle	-11.9825
▁monologue	-11.9825
▁morocco	-11.9825
▁moustache	-11.9825
▁myriad	-11.9825
▁mythology	-11.9825
▁nagasaki	-11.9825
▁nazareth	-11.9825
▁nomination	-11.9825
▁numerator	-11.9825
▁observation	-11.9825
▁oedema	-11.9825
▁opportunities	-11.9825
▁oppress	-11.9825
▁ordained	-11.9825
▁orphanage	-11.9825
▁outlook	-11.9825
▁overslept	-11.9825
▁parachute	-11.9825
▁paragraph	-11.9825
▁peggy	-11.9825
▁penguin	-11.9825
▁perplexing	-11.9825
▁petronella	-11.9825
▁philadelphia	-11.9825
▁phlebitis	-11.9825
▁photogenic	-11.9825
