<unk>	0
<s>	0
</s>	0
s	-3.99416
▁im	-4.42904
▁dont	-4.56551
▁know	-4.62757
▁go	-4.76727
▁get	-4.81659
▁right	-4.93703
▁come	-4.94827
▁youre	-5.00452
▁like	-5.00688
▁got	-5.0507
▁oh	-5.05856
▁yeah	-5.07916
▁one	-5.08745
▁well	-5.13962
▁thats	-5.21633
▁na	-5.23721
▁okay	-5.28317
▁see	-5.34947
▁good	-5.35719
ing	-5.43795
▁back	-5.45136
▁want	-5.45467
▁gon	-5.4925
▁us	-5.53012
▁think	-5.53294
▁yes	-5.5372
▁hey	-5.56591
▁hes	-5.57825
▁going	-5.58812
▁look	-5.59818
▁take	-5.60614
▁man	-5.64806
▁time	-5.64824
▁cant	-5.72405
▁ill	-5.72972
ed	-5.73225
▁need	-5.83084
▁	-5.84046
▁tell	-5.85362
▁l	-5.86792
▁say	-5.89309
▁would	-5.89701
▁please	-5.92753
▁way	-5.93628
▁could	-5.94981
▁sir	-5.96444
▁never	-5.98131
▁sorry	-5.99406
▁lets	-6.00268
▁thank	-6.01264
▁make	-6.02591
▁really	-6.04612
▁let	-6.06376
d	-6.06511
▁two	-6.07537
▁something	-6.08162
▁whats	-6.12311
▁didnt	-6.12522
▁little	-6.12767
▁love	-6.1378
▁theres	-6.14171
▁god	-6.16689
▁people	-6.16883
▁ive	-6.19094
▁give	-6.21542
▁mean	-6.2165
▁mr	-6.2592
▁wait	-6.26264
▁uh	-6.26777
▁thing	-6.28539
▁keep	-6.33729
▁said	-6.3823
▁stop	-6.39642
▁shes	-6.40488
▁help	-6.42458
▁theyre	-6.42913
▁much	-6.46097
▁even	-6.46971
▁name	-6.47437
▁life	-6.4921
▁new	-6.49267
▁find	-6.4966
▁home	-6.50067
▁first	-6.51168
▁sure	-6.51391
y	-6.51494
▁work	-6.53115
▁day	-6.54431
▁still	-6.54636
▁great	-6.54865
▁nothing	-6.5689
▁call	-6.58112
▁put	-6.58413
ly	-6.59207
▁must	-6.59584
▁night	-6.60151
▁away	-6.60189
▁anything	-6.61162
▁maybe	-6.61559
▁last	-6.63165
▁stay	-6.65489
▁hell	-6.67194
▁ever	-6.67356
▁talk	-6.68318
▁leave	-6.69507
▁guys	-6.69557
▁always	-6.71375
▁hi	-6.71952
▁kill	-6.72063
▁ta	-6.7244
▁thought	-6.72689
▁long	-6.7283
▁around	-6.73149
▁three	-6.73287
▁guy	-6.73904
▁years	-6.744
▁world	-6.74692
▁coming	-6.75183
e	-6.75365
▁wan	-6.76203
▁every	-6.77404
▁everything	-6.77719
▁place	-6.79138
▁wont	-6.80086
▁youve	-6.80327
▁things	-6.80808
▁told	-6.8081
▁show	-6.82595
▁nice	-6.82855
▁hear	-6.84998
▁better	-6.85754
▁big	-6.86001
▁baby	-6.86248
▁hold	-6.86284
▁dad	-6.86442
▁listen	-6.87305
er	-6.87517
▁may	-6.87691
▁move	-6.87762
▁done	-6.88063
▁fine	-6.88315
▁doesnt	-6.88841
▁youll	-6.89108
▁left	-6.89624
▁id	-6.89694
▁hello	-6.91275
▁feel	-6.92854
▁understand	-6.92947
▁remember	-6.9444
▁believe	-6.95368
▁old	-6.96633
▁made	-6.96763
▁men	-6.96915
▁enough	-6.97578
▁ok	-6.9818
▁ready	-6.99091
▁woman	-6.99501
▁car	-7.01351
▁real	-7.02861
▁lot	-7.03367
▁lm	-7.04448
▁watch	-7.05086
▁someone	-7.05285
▁shit	-7.05708
▁dead	-7.05757
▁bad	-7.05777
▁house	-7.06531
▁son	-7.0707
▁best	-7.078
▁girl	-7.08278
▁thanks	-7.08313
▁another	-7.08415
▁try	-7.08573
▁boy	-7.09932
▁ask	-7.10164
▁father	-7.10275
▁room	-7.10643
▁friend	-7.10753
▁might	-7.11492
▁door	-7.11597
▁kind	-7.12296
▁run	-7.14339
▁wanted	-7.14341
▁looking	-7.14961
▁today	-7.15326
▁live	-7.15632
▁excuse	-7.15668
▁money	-7.1601
▁wrong	-7.16353
▁die	-7.16675
▁weve	-7.16699
▁getting	-7.175
▁talking	-7.17741
▁fight	-7.17975
▁next	-7.1809
▁miss	-7.18589
▁bring	-7.18854
▁seen	-7.19223
▁playing	-7.1978
al	-7.20379
▁sam	-7.20798
▁um	-7.20987
▁tonight	-7.22019
▁turn	-7.22881
▁isnt	-7.23487
▁care	-7.24525
▁trying	-7.24731
▁came	-7.24982
▁mind	-7.25261
▁happened	-7.2594
▁aint	-7.26489
▁job	-7.27168
▁huh	-7.28027
▁morning	-7.28029
▁cause	-7.28173
▁face	-7.28366
▁music	-7.28702
▁meet	-7.28763
▁family	-7.28802
▁course	-7.29194
▁else	-7.29584
n	-7.30233
▁four	-7.31581
▁open	-7.31939
▁mom	-7.32751
▁whoa	-7.32785
▁head	-7.32844
▁war	-7.32857
t	-7.33309
▁matter	-7.33552
▁found	-7.33553
▁hand	-7.3413
▁hope	-7.34577
▁without	-7.34827
▁everybody	-7.35213
▁gone	-7.35308
▁together	-7.35659
▁chuckles	-7.36168
▁yet	-7.36501
▁fire	-7.36653
▁alone	-7.3692
▁tomorrow	-7.37343
in	-7.37712
▁saw	-7.3777
▁mother	-7.37795
▁many	-7.38609
▁whole	-7.3906
▁end	-7.40092
▁called	-7.40208
ll	-7.40452
▁days	-7.40467
▁damn	-7.4047
▁lost	-7.40805
▁heart	-7.41002
▁side	-7.42155
▁knew	-7.42573
▁city	-7.43038
▁five	-7.43052
▁john	-7.43202
▁dr	-7.43538
▁hard	-7.43664
▁phone	-7.44069
▁school	-7.4413
▁friends	-7.44508
▁went	-7.44836
▁guess	-7.45755
▁actually	-7.45764
es	-7.45946
▁happy	-7.4762
▁whos	-7.47744
▁story	-7.48093
▁break	-7.49293
▁easy	-7.49522
▁second	-7.50216
▁minutes	-7.50446
a	-7.50451
▁ago	-7.50483
▁used	-7.50564
▁took	-7.5097
▁kid	-7.51206
▁frank	-7.51288
▁beautiful	-7.51796
▁eyes	-7.51872
▁wouldnt	-7.51989
▁killed	-7.52159
▁far	-7.52953
▁eat	-7.52987
▁change	-7.53009
▁welcome	-7.53433
▁saying	-7.53629
▁un	-7.53896
▁em	-7.54221
▁ring	-7.54538
▁anyone	-7.55447
▁sighs	-7.55488
▁use	-7.557
▁ah	-7.55996
▁laughing	-7.56104
▁heard	-7.5643
▁close	-7.56812
▁shut	-7.5698
▁president	-7.56986
▁start	-7.57119
r	-7.57501
▁already	-7.57504
▁pretty	-7.58025
▁looks	-7.58181
▁sit	-7.58285
▁wasnt	-7.58548
▁inside	-7.58551
▁high	-7.59046
▁shot	-7.606
▁death	-7.60636
▁late	-7.61037
▁idea	-7.61107
▁problem	-7.61112
▁line	-7.61266
▁everyone	-7.61696
▁worry	-7.6175
▁lady	-7.61766
▁young	-7.62192
▁play	-7.62373
▁tommy	-7.6284
▁hit	-7.63264
▁nobody	-7.63388
▁f	-7.63528
▁check	-7.64774
▁youd	-7.65109
▁stand	-7.65169
▁walk	-7.65957
▁wants	-7.66039
▁hands	-7.66285
▁happen	-7.66492
▁case	-7.66651
▁black	-7.68333
▁since	-7.68433
▁roy	-7.6881
▁read	-7.69003
▁speak	-7.69116
▁bit	-7.69349
▁havent	-7.6964
▁boys	-7.69828
▁bob	-7.7023
▁minute	-7.7029
▁power	-7.70711
▁rest	-7.70975
▁part	-7.71005
▁wish	-7.71013
▁crazy	-7.71415
▁safe	-7.71807
▁supposed	-7.72074
▁wheres	-7.72463
▁send	-7.72626
▁lose	-7.72712
▁ass	-7.73112
▁afraid	-7.73223
▁exactly	-7.73234
▁alive	-7.73837
▁water	-7.74596
▁set	-7.75189
▁number	-7.7521
▁hurt	-7.75316
▁soon	-7.7559
▁six	-7.75693
▁lord	-7.75926
▁save	-7.76081
▁half	-7.76922
▁cut	-7.77514
▁company	-7.77571
▁wife	-7.77574
▁moment	-7.77777
▁kids	-7.77909
▁pay	-7.78039
o	-7.78191
▁shall	-7.78226
▁doctor	-7.78374
▁stuff	-7.78395
▁working	-7.78415
▁mine	-7.78765
▁true	-7.78849
▁promise	-7.795
▁deal	-7.7952
▁miles	-7.79649
▁says	-7.79758
▁free	-7.80121
▁somebody	-7.80144
▁country	-7.80144
▁party	-7.8031
▁taking	-7.80816
▁word	-7.81076
▁they	-7.81423
▁means	-7.81913
▁couldnt	-7.82171
▁voice	-7.82403
▁plan	-7.82636
▁year	-7.83081
▁behind	-7.83455
▁honey	-7.83456
▁gentlemen	-7.83456
▁trust	-7.83684
▁chance	-7.83773
▁almost	-7.84131
▁business	-7.84131
▁mrs	-7.84253
▁question	-7.84451
▁whatever	-7.84811
▁thinking	-7.85007
▁makes	-7.85132
▁white	-7.86033
▁bye	-7.86187
▁wow	-7.86188
▁waiting	-7.8622
▁point	-7.86576
▁shoot	-7.87138
▁pull	-7.87989
▁clear	-7.88481
▁forget	-7.88985
▁later	-7.89067
▁king	-7.89627
▁till	-7.89717
▁brother	-7.90146
▁hang	-7.90454
▁started	-7.90872
▁hours	-7.90907
▁roger	-7.91154
▁ten	-7.91171
▁frodo	-7.91881
▁gave	-7.91887
▁control	-7.92381
▁truth	-7.92616
▁probably	-7.92617
▁heres	-7.92653
▁boss	-7.93367
▁peter	-7.93395
▁fall	-7.93428
▁goes	-7.94081
▁win	-7.94199
▁sleep	-7.94216
▁ha	-7.94338
▁full	-7.94583
▁blood	-7.947
▁daddy	-7.94857
▁b	-7.95457
▁air	-7.95611
est	-7.95891
▁game	-7.96188
▁continues	-7.96392
▁deep	-7.96906
▁ride	-7.97131
▁radio	-7.97146
▁making	-7.97158
▁land	-7.9749
▁c	-7.97597
▁light	-7.97813
▁though	-7.97851
▁women	-7.97921
▁tony	-7.97928
▁fun	-7.98023
▁husband	-7.98551
▁drink	-7.98914
▁gun	-7.9926
▁important	-7.99344
▁times	-7.99475
▁running	-7.99491
▁laughs	-7.99617
▁person	-8.00082
▁answer	-8.00184
▁captain	-8.00287
▁fear	-8.00704
▁hate	-8.00784
▁paul	-8.01007
▁anymore	-8.01083
▁leaving	-8.01083
▁died	-8.01702
▁pick	-8.0183
▁body	-8.01895
▁earth	-8.01895
▁rock	-8.0214
▁max	-8.02705
▁children	-8.03522
▁least	-8.03522
▁grunts	-8.04536
on	-8.05662
▁hurry	-8.06022
▁arent	-8.06023
▁rocky	-8.06177
▁comes	-8.06269
▁york	-8.06833
▁buddy	-8.0687
▁couple	-8.06871
▁living	-8.06873
▁news	-8.07418
▁daughter	-8.07716
▁drive	-8.08258
▁trouble	-8.08341
▁dog	-8.0837
▁luck	-8.08438
▁different	-8.08442
▁met	-8.08531
▁goodbye	-8.08587
▁outside	-8.09446
▁feet	-8.0946
▁week	-8.09473
▁tried	-8.09493
▁ship	-8.09562
▁girls	-8.09803
▁claire	-8.10333
▁english	-8.10334
▁ladies	-8.10341
▁also	-8.11218
▁general	-8.11295
▁knows	-8.11824
▁dark	-8.11993
▁brought	-8.12111
▁future	-8.12112
▁touch	-8.12169
▁follow	-8.1228
▁needs	-8.124
i	-8.12574
▁dear	-8.12984
▁professor	-8.13012
▁khan	-8.13013
▁along	-8.13014
▁front	-8.13015
▁reason	-8.13078
▁master	-8.13102
▁re	-8.13332
▁fat	-8.13484
▁buy	-8.13914
▁telling	-8.14441
▁bed	-8.14446
▁anyway	-8.14839
▁scared	-8.14919
▁team	-8.14937
▁sister	-8.14958
▁horse	-8.14963
▁quiet	-8.15507
▁cooper	-8.15561
▁fly	-8.15575
▁itll	-8.15784
▁happens	-8.15789
▁past	-8.15828
▁cheering	-8.15836
▁sign	-8.15992
▁sound	-8.16041
▁join	-8.16142
ic	-8.1635
c	-8.16445
▁happening	-8.16464
▁asked	-8.16683
▁stupid	-8.16699
ion	-8.16993
▁p	-8.1714
▁book	-8.17301
l	-8.17618
▁married	-8.17647
▁taken	-8.18535
▁quite	-8.18645
▁grunting	-8.18647
▁breathe	-8.18691
p	-8.19314
▁strong	-8.20385
▁straight	-8.20503
▁anybody	-8.20527
▁harold	-8.20527
▁moving	-8.20528
▁jesus	-8.20529
▁eye	-8.2056
▁pass	-8.20668
▁human	-8.20747
▁slow	-8.20787
▁seem	-8.20832
▁top	-8.20978
▁th	-8.21127
▁lives	-8.21541
▁wear	-8.22011
▁major	-8.22477
▁ahead	-8.22502
▁lts	-8.2312
▁quick	-8.23254
▁dance	-8.23446
▁wake	-8.23499
▁sometimes	-8.23738
▁food	-8.23766
▁dream	-8.23961
▁murder	-8.24338
▁space	-8.24503
▁ho	-8.2536
▁fast	-8.25366
▁small	-8.25424
▁office	-8.25465
▁child	-8.25521
▁german	-8.25691
▁hot	-8.25715
▁red	-8.2576
▁flight	-8.25846
▁mama	-8.25966
▁neil	-8.26512
▁hmm	-8.26541
▁special	-8.26545
▁either	-8.26559
▁funny	-8.26567
▁seven	-8.26818
▁hour	-8.26924
▁perfect	-8.27083
▁de	-8.27265
le	-8.27424
▁army	-8.27682
▁order	-8.28573
▁christmas	-8.28655
▁eight	-8.28665
h	-8.28829
▁fact	-8.28915
▁return	-8.28948
ve	-8.29123
▁song	-8.29127
▁step	-8.29252
▁cool	-8.29349
▁yo	-8.29414
▁glad	-8.29566
▁sing	-8.29584
▁weeks	-8.29693
▁dinner	-8.29718
lng	-8.29731
ers	-8.29746
▁write	-8.29875
▁secret	-8.29975
▁lie	-8.30219
▁ya	-8.30572
man	-8.3059
▁relax	-8.30793
▁moon	-8.30797
▁mission	-8.31301
▁gets	-8.31835
▁hows	-8.3188
▁sent	-8.31885
▁drop	-8.31903
▁gasps	-8.32013
▁able	-8.32133
▁cover	-8.32185
▁a	-8.32492
▁pain	-8.32707
▁mad	-8.32911
▁police	-8.32942
▁bruce	-8.32979
▁others	-8.33027
▁clean	-8.33187
▁lt	-8.33768
▁speaking	-8.33789
▁lead	-8.34025
▁blue	-8.34081
▁groans	-8.3422
▁pop	-8.34489
▁teach	-8.3465
▁seconds	-8.34716
m	-8.34976
▁enemy	-8.35213
▁command	-8.35221
▁feeling	-8.35223
▁none	-8.35255
▁months	-8.35288
▁choice	-8.35736
▁protect	-8.36016
▁seems	-8.36091
▁super	-8.3745
▁french	-8.37471
▁across	-8.37499
▁hotel	-8.37517
▁jet	-8.37522
g	-8.37709
▁calling	-8.37747
▁catch	-8.38213
▁cold	-8.38573
▁glass	-8.38605
▁history	-8.38664
▁mia	-8.38689
▁less	-8.39042
▁piece	-8.39289
▁building	-8.39427
um	-8.39471
▁shouldnt	-8.39839
▁tv	-8.39861
▁throw	-8.39955
▁count	-8.40298
en	-8.40336
▁bet	-8.40439
▁agent	-8.40489
or	-8.40716
▁in	-8.4072
▁crowd	-8.40745
▁tom	-8.40998
▁audience	-8.41034
▁bitch	-8.41072
▁ln	-8.41125
▁parents	-8.41336
▁worth	-8.42062
▁duke	-8.42067
▁fool	-8.4258
us	-8.43817
st	-8.43898
▁america	-8.44404
▁strange	-8.44481
▁sounds	-8.44501
▁sun	-8.44658
▁target	-8.44687
▁cruella	-8.44688
▁panting	-8.44692
▁charlie	-8.44693
▁calm	-8.44695
▁sky	-8.45429
▁machine	-8.45434
▁words	-8.45463
▁chatter	-8.45475
▁road	-8.45637
▁pa	-8.45679
▁sick	-8.45931
▁hair	-8.45943
▁wonderful	-8.45947
▁t	-8.46027
▁fighting	-8.46213
▁d	-8.46314
▁known	-8.46558
▁amazing	-8.47203
▁hamilton	-8.47203
▁maam	-8.47205
▁worried	-8.47211
▁theyve	-8.47252
▁broke	-8.47316
▁wed	-8.47695
▁kick	-8.47716
u	-8.47966
▁present	-8.48004
▁suit	-8.48014
▁round	-8.48015
▁system	-8.48033
▁mouth	-8.48034
▁indistinct	-8.48348
▁peace	-8.48472
▁somewhere	-8.48485
ies	-8.485
▁green	-8.48502
▁lucky	-8.48715
▁watching	-8.48992
▁learn	-8.49023
▁given	-8.49147
▁an	-8.49209
▁town	-8.49365
▁hungry	-8.49787
▁born	-8.49806
▁station	-8.49811
▁screaming	-8.49964
▁asking	-8.50209
▁takes	-8.50239
▁kiss	-8.50248
▁attack	-8.50317
▁mmm	-8.50328
▁smart	-8.50995
▁careful	-8.51002
▁copy	-8.51201
▁marry	-8.51982
▁ground	-8.52026
▁alright	-8.52272
▁murph	-8.52273
▁ann	-8.52365
▁sherman	-8.52433
▁security	-8.52439
▁brendan	-8.52454
▁poor	-8.52456
▁rome	-8.52473
▁hed	-8.5262
▁pie	-8.52685
able	-8.5275
▁bag	-8.53307
▁beat	-8.5331
▁field	-8.53402
▁honor	-8.53436
▁ones	-8.53466
▁ball	-8.53535
▁michael	-8.53785
▁forever	-8.53785
▁chicken	-8.53787
▁drover	-8.5384
▁wayne	-8.54006
re	-8.54387
▁bud	-8.54692
▁thousand	-8.54791
▁serious	-8.55019
▁anderton	-8.55154
▁caught	-8.55154
▁possible	-8.55154
▁georgia	-8.55161
▁mike	-8.55167
▁da	-8.55338
▁changed	-8.558
▁sort	-8.56189
▁entire	-8.56404
▁sweet	-8.56489
▁goddamn	-8.56543
▁sense	-8.56546
▁forward	-8.5655
▁burr	-8.56594
▁meeting	-8.56684
▁destroy	-8.5691
▁roll	-8.57016
▁nine	-8.57286
▁push	-8.57425
▁engine	-8.57493
▁million	-8.5757
▁s	-8.57742
▁class	-8.57752
less	-8.57863
▁age	-8.57895
▁hasnt	-8.57952
ie	-8.58301
▁saved	-8.58488
ity	-8.58563
▁meant	-8.58657
th	-8.58897
▁worked	-8.58992
▁list	-8.59153
▁turned	-8.59185
▁terrible	-8.5938
▁felt	-8.59382
▁train	-8.59581
▁knock	-8.59686
▁blow	-8.59909
▁looked	-8.59913
▁magic	-8.60051
▁bell	-8.60242
▁date	-8.60267
▁become	-8.60556
▁key	-8.6061
▁loved	-8.6066
▁river	-8.60719
▁forgive	-8.6074
▁throat	-8.6083
▁hide	-8.60887
▁record	-8.60915
▁questions	-8.6161
▁seat	-8.61838
▁message	-8.62022
▁street	-8.62041
▁letter	-8.62158
▁slr	-8.62288
▁gandalf	-8.623
▁perhaps	-8.623
▁coffee	-8.623
▁smile	-8.62302
▁director	-8.62321
▁billy	-8.62406
▁laugh	-8.62678
▁burn	-8.62783
▁singing	-8.62899
▁finish	-8.62987
▁la	-8.63182
▁law	-8.63446
▁adam	-8.63522
▁washington	-8.63793
▁pleasure	-8.63795
▁hitler	-8.63797
▁respect	-8.64344
▁explain	-8.64963
▁mistake	-8.65018
▁plane	-8.6513
▁swear	-8.6531
▁ray	-8.65324
▁ice	-8.65326
▁gods	-8.65567
▁needed	-8.66033
▁jump	-8.66076
▁bank	-8.66659
ation	-8.66713
▁officer	-8.66716
▁south	-8.6684
▁amelia	-8.66846
▁simple	-8.66847
▁spend	-8.66848
▁early	-8.66971
▁wind	-8.67324
▁wonder	-8.67615
▁e	-8.67747
▁bar	-8.67905
▁names	-8.6792
▁hospital	-8.68158
▁near	-8.68261
▁proud	-8.68367
▁balboa	-8.68409
▁college	-8.68409
▁finally	-8.68512
▁expect	-8.68871
▁report	-8.68906
▁grab	-8.69607
▁cry	-8.69615
▁imagine	-8.69757
▁court	-8.69785
▁st	-8.69824
▁tree	-8.69865
▁band	-8.69898
▁joe	-8.69916
▁christ	-8.69976
▁carl	-8.7002
▁birdie	-8.7002
▁state	-8.70025
▁ooh	-8.70031
▁bowl	-8.70084
▁planet	-8.70102
▁longer	-8.70736
▁lll	-8.71039
▁month	-8.7151
▁service	-8.71609
▁paige	-8.7161
▁dangerous	-8.71617
▁archie	-8.71628
▁heh	-8.71683
▁lee	-8.72496
▁star	-8.72837
▁lawyer	-8.73129
▁cost	-8.73153
▁guard	-8.7318
▁floor	-8.73247
▁anywhere	-8.73248
▁contact	-8.73249
▁within	-8.73258
▁absolutely	-8.73265
▁sitting	-8.73281
▁low	-8.73285
▁gold	-8.73364
▁seeing	-8.74119
▁rain	-8.74485
▁brand	-8.74612
▁forgot	-8.74912
▁government	-8.74915
▁alarm	-8.74918
▁lunch	-8.74919
▁shell	-8.74922
▁june	-8.74952
▁books	-8.74968
▁unless	-8.74979
▁evening	-8.75735
▁box	-8.76059
▁short	-8.76235
▁share	-8.76285
▁continue	-8.76357
▁raise	-8.76383
▁rise	-8.76535
▁paper	-8.76572
▁gate	-8.76573
▁code	-8.76574
▁middle	-8.76607
▁congratulations	-8.7661
▁rancho	-8.7661
▁merry	-8.76611
▁dude	-8.76613
▁broken	-8.76704
▁handle	-8.76784
▁anne	-8.76812
ne	-8.77019
ive	-8.77429
▁enjoy	-8.77986
▁cell	-8.78232
▁smell	-8.78325
▁george	-8.78334
▁russian	-8.78336
▁kidding	-8.78338
▁forest	-8.78369
▁screams	-8.7932
▁killing	-8.79964
▁kit	-8.79987
▁werent	-8.80089
▁zak	-8.80089
▁attention	-8.8009
▁paddy	-8.8009
▁charles	-8.80094
▁west	-8.80128
▁lying	-8.80163
▁n	-8.80456
▁east	-8.80954
it	-8.80968
▁sleeping	-8.81103
▁sea	-8.81108
▁tickets	-8.81174
k	-8.81182
▁fish	-8.8139
▁act	-8.81491
▁g	-8.81511
▁normal	-8.81733
▁rizvan	-8.81874
▁viktor	-8.81874
▁shouldve	-8.81876
▁colonel	-8.81876
▁wrote	-8.81877
▁dying	-8.81879
▁favorite	-8.8188
▁bridge	-8.81883
▁upon	-8.81898
▁brain	-8.81917
▁totally	-8.81924
▁tired	-8.81937
▁seriously	-8.82052
▁works	-8.821
▁breathing	-8.82293
▁crying	-8.82362
▁force	-8.82861
▁mark	-8.82937
▁fate	-8.83002
▁cat	-8.83321
▁press	-8.83382
▁charge	-8.83476
▁village	-8.83685
▁jason	-8.83693
▁fletcher	-8.83698
▁third	-8.83706
▁personal	-8.83707
▁single	-8.83758
▁picture	-8.83787
▁trip	-8.83842
▁lovely	-8.83857
▁per	-8.83884
▁lf	-8.83936
▁choose	-8.84004
▁bloody	-8.84058
▁bella	-8.84278
▁breath	-8.84925
▁k	-8.85292
▁cute	-8.85473
▁fell	-8.85497
▁tight	-8.8551
▁loud	-8.85516
▁gas	-8.85526
▁afternoon	-8.85544
▁island	-8.85544
▁battle	-8.85545
▁wedding	-8.85546
▁clothes	-8.85548
▁jim	-8.8555
▁mommy	-8.85555
▁foot	-8.85558
▁m	-8.85567
▁sweetie	-8.85569
▁pants	-8.85578
▁uncle	-8.85601
▁stick	-8.85635
▁rich	-8.85637
▁position	-8.85686
▁race	-8.86014
▁throwing	-8.86222
▁lock	-8.86275
▁hat	-8.86543
▁dress	-8.86597
▁fix	-8.86653
▁standing	-8.86996
▁fair	-8.87083
▁belong	-8.87252
▁jane	-8.87394
▁program	-8.87414
▁accident	-8.87424
▁shirley	-8.87431
▁bloom	-8.87432
▁darling	-8.87433
▁fault	-8.87435
▁pat	-8.87455
▁tars	-8.87521
▁soldier	-8.87605
▁quickly	-8.87689
▁table	-8.87705
▁lab	-8.87722
▁flying	-8.88321
▁rule	-8.88424
▁reach	-8.88509
▁arm	-8.88906
▁carry	-8.8899
▁o	-8.88991
▁brave	-8.89117
▁lou	-8.89146
▁soldiers	-8.8918
▁certain	-8.8922
▁surprise	-8.89275
▁stole	-8.89289
▁figure	-8.89291
▁north	-8.89354
▁blind	-8.89357
▁completely	-8.89437
▁busy	-8.89488
▁weekend	-8.89489
▁joey	-8.89537
▁window	-8.89542
▁parker	-8.89542
▁tank	-8.89544
▁hundred	-8.89563
▁wall	-8.89669
▁american	-8.89995
▁mess	-8.90472
w	-8.90718
▁visit	-8.90765
▁ringing	-8.91035
▁prove	-8.91051
▁gift	-8.91185
▁smoke	-8.91253
▁yesterday	-8.91315
▁rather	-8.91317
▁champion	-8.91334
▁payne	-8.91363
▁andi	-8.91524
▁pilot	-8.91547
▁prime	-8.9182
▁cop	-8.91826
▁bite	-8.92368
▁allow	-8.93019
▁appreciate	-8.93054
▁thomas	-8.93315
▁giving	-8.93318
▁shouting	-8.93417
▁price	-8.93505
▁knight	-8.93538
▁figured	-8.93564
▁truck	-8.93582
▁camera	-8.93631
▁guns	-8.9369
▁wondering	-8.93873
▁tea	-8.9496
▁eating	-8.95081
▁escape	-8.95117
▁final	-8.9522
▁alexander	-8.95356
▁apollo	-8.95356
▁spartacus	-8.95356
▁taught	-8.95356
▁llttle	-8.95356
▁evil	-8.95357
▁ashley	-8.95357
▁military	-8.95359
▁definitely	-8.9536
▁shh	-8.95366
▁laughter	-8.95368
▁data	-8.95374
▁paid	-8.95395
▁groaning	-8.95415
▁hall	-8.95427
▁mate	-8.95532
▁snow	-8.95599
▁united	-8.95648
▁mountain	-8.95668
▁lights	-8.95801
▁tim	-8.96515
▁lay	-8.9718
▁realize	-8.97235
▁risk	-8.97281
▁hero	-8.97308
▁speaks	-8.97311
▁form	-8.97314
ch	-8.9735
el	-8.97382
▁weird	-8.97389
▁strength	-8.97439
▁jenna	-8.97439
▁serve	-8.97439
▁lieutenant	-8.97439
up	-8.97448
▁hank	-8.97459
▁doin	-8.97463
▁betty	-8.97493
f	-8.97556
▁i	-8.97651
▁spot	-8.97694
▁commander	-8.97742
▁william	-8.97774
▁partner	-8.97776
▁shoes	-8.97794
▁rings	-8.97831
▁finished	-8.97896
▁learned	-8.97969
▁whose	-8.97973
is	-8.98101
▁brothers	-8.98268
▁holding	-8.98873
ln	-8.98965
▁sell	-8.99148
▁starting	-8.99207
▁accept	-8.99237
▁prison	-8.99433
▁stone	-8.99461
▁emergency	-8.99567
▁mandira	-8.99567
▁rochester	-8.99567
▁dawn	-8.99567
▁situation	-8.99568
▁outta	-8.9957
▁difference	-8.9957
▁nullah	-8.9957
▁flat	-8.99571
▁fbi	-8.99574
▁information	-8.9958
▁james	-8.99585
▁golden	-8.99595
▁beeping	-8.99695
▁pounds	-8.99893
▁soul	-8.99957
▁missing	-9.00043
▁lve	-9.00254
▁whoo	-9.00575
▁san	-9.00818
ous	-9.00885
▁dreams	-9.01104
▁bus	-9.0111
▁states	-9.01366
▁board	-9.01399
▁rules	-9.01536
▁arms	-9.0154
▁missed	-9.0154
▁scott	-9.01591
▁computer	-9.01741
▁uhhuh	-9.01741
▁rumbling	-9.01741
▁impossible	-9.01741
▁ulrich	-9.01741
▁conlon	-9.01744
▁chuckling	-9.01747
▁public	-9.01748
▁virus	-9.01839
▁size	-9.01908
▁nash	-9.01974
▁dare	-9.02109
▁horn	-9.02184
▁owe	-9.02187
b	-9.02687
▁begin	-9.02766
▁park	-9.03313
ful	-9.03381
▁ls	-9.03414
▁brief	-9.03491
▁except	-9.03931
▁strike	-9.03963
▁shaw	-9.03966
▁airport	-9.03966
▁mulan	-9.03968
▁sad	-9.0397
▁bigger	-9.03973
▁mmhmm	-9.03977
▁hobbs	-9.04024
▁group	-9.04066
▁decided	-9.04089
▁lii	-9.04148
▁greatest	-9.04391
▁type	-9.04428
▁teacher	-9.04648
ry	-9.04673
▁pack	-9.04786
▁fresh	-9.05636
▁feed	-9.05953
▁dumb	-9.05991
▁wild	-9.06097
▁pool	-9.06099
▁quit	-9.0613
▁club	-9.06237
▁worse	-9.06237
▁lionel	-9.06238
▁spiderman	-9.06238
▁fought	-9.0624
▁liar	-9.06242
▁katie	-9.06243
▁area	-9.06254
▁writing	-9.0626
▁robin	-9.06265
▁plays	-9.06552
▁germany	-9.06571
▁bill	-9.06625
▁sight	-9.06738
▁spirit	-9.06772
▁weapon	-9.06805
▁starts	-9.06944
▁where	-9.07002
▁clears	-9.07219
▁wearing	-9.07253
▁bomb	-9.0791
▁screw	-9.08289
▁base	-9.08303
▁suppose	-9.08329
▁helen	-9.08498
▁drunk	-9.08542
▁lynch	-9.08561
▁neither	-9.08561
▁driving	-9.08561
▁broadway	-9.08562
▁friday	-9.08562
▁automat	-9.08562
▁calvin	-9.08562
▁stuck	-9.08562
▁bathroom	-9.08563
▁kept	-9.08564
▁universe	-9.08565
▁worst	-9.08569
▁lucy	-9.08571
▁paulie	-9.08615
▁huge	-9.08643
an	-9.087
▁interested	-9.08717
▁out	-9.08878
▁sm	-9.09064
▁sheriff	-9.09097
▁nurse	-9.09141
▁sword	-9.09201
▁hole	-9.09287
v	-9.09745
▁rocket	-9.1007
▁walking	-9.10361
▁agree	-9.10661
▁doc	-9.10675
▁thinks	-9.1068
▁neck	-9.10889
▁capitol	-9.10942
▁instead	-9.10942
▁purpose	-9.10942
▁benoit	-9.10943
▁thls	-9.10943
▁maura	-9.10954
▁mann	-9.10954
▁j	-9.10958
▁princess	-9.10965
▁stopped	-9.10983
▁weight	-9.11024
▁doubt	-9.11026
▁stars	-9.11072
▁grandma	-9.11135
out	-9.11194
▁dave	-9.11275
▁dollars	-9.11307
▁dressed	-9.11352
ar	-9.11422
▁up	-9.11495
▁favor	-9.11534
▁queen	-9.11574
as	-9.11582
▁mary	-9.11585
▁idiot	-9.11607
▁dragon	-9.11785
et	-9.12084
▁r	-9.12248
▁art	-9.12255
▁students	-9.12383
▁address	-9.13003
▁note	-9.13003
▁heads	-9.13051
▁deserve	-9.13118
▁travel	-9.13122
▁ends	-9.1314
te	-9.13162
▁cream	-9.1323
▁drago	-9.13244
▁unit	-9.13324
▁support	-9.1335
▁crassus	-9.13381
▁journey	-9.13381
▁search	-9.13381
▁truly	-9.13381
▁cattle	-9.13383
▁spent	-9.13384
▁everywhere	-9.13388
▁papa	-9.13393
▁spell	-9.13407
▁announcer	-9.13416
▁putting	-9.13511
▁heading	-9.13517
▁certainly	-9.13554
▁repeat	-9.14035
▁project	-9.14051
▁bird	-9.14115
▁plates	-9.14152
▁signal	-9.14261
▁ran	-9.14303
▁enter	-9.14368
to	-9.14546
ial	-9.14908
▁w	-9.14953
▁draw	-9.14999
▁lived	-9.15077
▁offer	-9.15203
▁weapons	-9.15257
▁al	-9.1535
▁steal	-9.15428
▁ba	-9.15522
▁horses	-9.15552
you	-9.15645
▁jefferson	-9.15881
▁jiro	-9.15881
▁london	-9.15881
▁precious	-9.15881
▁albert	-9.15881
agol	-9.15883
▁excited	-9.15886
▁ben	-9.15887
▁heavy	-9.15891
▁bullshit	-9.15894
▁skin	-9.15925
▁angela	-9.15932
▁janet	-9.15984
▁manage	-9.16017
▁deer	-9.16145
▁yelling	-9.16155
▁helpless	-9.16177
▁destroyed	-9.16463
id	-9.16504
▁games	-9.16529
▁ex	-9.16603
▁heaven	-9.16697
▁slave	-9.16763
▁promised	-9.16797
▁store	-9.17011
▁woods	-9.17087
▁turns	-9.17442
▁path	-9.1752
▁leo	-9.17573
▁over	-9.17582
ce	-9.17662
▁extra	-9.17718
▁humans	-9.17843
▁bear	-9.17889
▁suggest	-9.17963
▁survive	-9.18208
ri	-9.1837
▁large	-9.18412
▁camp	-9.18438
▁difficult	-9.18445
▁plenty	-9.18445
▁sauron	-9.18445
▁whirring	-9.18445
▁beginning	-9.18446
▁whether	-9.18446
▁detective	-9.18448
▁danger	-9.18449
▁bought	-9.1845
▁raju	-9.1846
▁pia	-9.18479
▁reading	-9.18479
▁incredible	-9.18481
▁babe	-9.18482
▁national	-9.18503
▁softly	-9.1856
▁trees	-9.18677
▁keys	-9.18946
▁sacrifice	-9.18982
▁closes	-9.19187
ting	-9.20297
▁beg	-9.20367
▁secure	-9.20838
▁ii	-9.20944
▁genius	-9.2101
▁dick	-9.21073
▁church	-9.21077
▁cliff	-9.21077
▁speed	-9.21077
▁heavily	-9.21077
▁teeth	-9.21077
▁llke	-9.21078
▁birthday	-9.21079
▁summer	-9.21079
▁apartment	-9.21083
▁blame	-9.21087
▁gay	-9.21102
▁josh	-9.21107
▁cia	-9.21108
▁chosen	-9.21111
▁cup	-9.21124
▁taste	-9.21151
▁grow	-9.21172
▁yall	-9.21229
▁losing	-9.21274
▁shed	-9.21329
▁opens	-9.21657
▁ad	-9.21731
▁crime	-9.21952
▁corner	-9.2196
▁closed	-9.22301
z	-9.22756
▁warm	-9.23548
▁grand	-9.23567
▁sex	-9.23635
▁switch	-9.23774
▁became	-9.23779
▁mordor	-9.23779
▁navorski	-9.23779
▁research	-9.23779
▁nowhere	-9.2378
▁tour	-9.23781
▁jake	-9.23781
▁gondor	-9.23783
▁dancing	-9.23784
▁terrorist	-9.23784
▁sarah	-9.23787
▁yep	-9.23789
▁chief	-9.23792
▁launch	-9.23794
▁center	-9.23798
▁cake	-9.23806
▁smith	-9.23828
▁whispering	-9.23834
▁dan	-9.23869
▁bev	-9.23941
▁beer	-9.2396
▁doors	-9.24181
▁feels	-9.2422
▁wine	-9.24241
▁tie	-9.2433
▁ow	-9.24354
▁wouldve	-9.24495
▁asshole	-9.24766
▁picked	-9.24872
ut	-9.24981
▁numbers	-9.25904
▁buzz	-9.25908
ant	-9.26176
▁goin	-9.26182
▁sisters	-9.26198
▁breaking	-9.26265
▁notice	-9.2633
▁private	-9.26397
▁tough	-9.26399
▁courage	-9.26544
▁built	-9.26557
▁empty	-9.26557
▁matthew	-9.26557
▁rooster	-9.26557
▁david	-9.26558
▁roof	-9.26558
▁sweetheart	-9.26558
▁beauty	-9.26559
▁desk	-9.26561
▁apologize	-9.26562
▁freedom	-9.26562
▁swim	-9.26563
▁meat	-9.26566
▁france	-9.26566
▁pressure	-9.26567
▁distance	-9.2658
▁button	-9.26607
hrer	-9.26629
▁honestly	-9.26686
▁deck	-9.26868
▁test	-9.26976
▁problems	-9.2706
▁fathers	-9.2715
▁couldve	-9.27256
▁van	-9.27502
▁appointment	-9.27534
▁ghost	-9.2762
▁alien	-9.27634
▁animal	-9.27649
▁guest	-9.27664
▁ticket	-9.27668
▁du	-9.27884
▁talked	-9.27956
▁pre	-9.27993
ness	-9.28273
▁slaves	-9.28494
▁hearing	-9.28569
▁defend	-9.28615
ist	-9.28693
▁pray	-9.2882
▁punch	-9.28972
▁track	-9.29059
▁moved	-9.29125
▁prepare	-9.29206
▁access	-9.29374
▁doug	-9.29387
▁nothin	-9.29391
▁classic	-9.29392
▁dogs	-9.29409
▁byrd	-9.29414
▁evidence	-9.29414
▁satisfied	-9.29414
▁speech	-9.29415
▁medicine	-9.29415
▁fuck	-9.29417
▁estella	-9.29417
▁technology	-9.29419
▁department	-9.29421
▁angry	-9.29421
▁fellow	-9.29422
▁beyond	-9.29425
▁staying	-9.29616
ance	-9.29645
▁it	-9.29712
▁allowed	-9.29879
▁goodness	-9.299
▁locked	-9.29941
▁pen	-9.30004
▁tongue	-9.305
▁bottle	-9.3051
▁decision	-9.30541
▁boat	-9.30544
▁student	-9.30604
ter	-9.30743
▁lips	-9.30791
▁leg	-9.30899
▁pan	-9.31197
▁orders	-9.31273
▁earl	-9.31562
▁bro	-9.31588
▁design	-9.3181
ro	-9.31952
▁weak	-9.31956
▁match	-9.31968
▁cops	-9.31973
▁honest	-9.32079
▁fill	-9.32101
▁howd	-9.32203
▁nervous	-9.32215
▁rush	-9.32298
▁somethin	-9.32331
▁ma	-9.32343
▁language	-9.32356
▁marriage	-9.32356
▁sergeant	-9.32356
▁suicide	-9.32356
▁wrestling	-9.32356
▁creaking	-9.32356
▁pregnant	-9.32356
▁bunch	-9.32358
▁loose	-9.32359
▁contest	-9.32361
▁piano	-9.32362
▁slim	-9.32364
▁common	-9.32367
▁onto	-9.32377
▁amen	-9.32387
▁powerful	-9.32416
▁gasping	-9.32447
▁pete	-9.32482
▁suck	-9.32812
▁kinda	-9.32888
▁con	-9.3312
▁shop	-9.3314
▁norman	-9.33512
men	-9.34137
▁helping	-9.34161
▁fighter	-9.34511
▁shows	-9.34646
▁fit	-9.34673
▁march	-9.3494
▁arrest	-9.35063
▁soft	-9.35131
▁phil	-9.35231
▁bright	-9.35278
▁drove	-9.35289
os	-9.353
▁cab	-9.35338
▁aw	-9.35373
▁federal	-9.35384
▁aragorn	-9.35386
▁excellent	-9.35386
▁someday	-9.35386
▁upstairs	-9.35386
▁insane	-9.35386
▁indeed	-9.35386
▁angelica	-9.35387
▁minister	-9.35387
▁crew	-9.35387
▁madison	-9.35388
▁alex	-9.35388
▁bialystock	-9.35391
▁girlfriend	-9.35392
▁legat	-9.35393
▁steady	-9.35398
▁fox	-9.35398
▁fuel	-9.35414
▁wet	-9.35428
▁victory	-9.35472
▁hiding	-9.35475
▁invited	-9.35482
▁letting	-9.35659
▁dis	-9.35754
▁training	-9.36309
▁scream	-9.36325
▁engineer	-9.36474
▁justice	-9.36625
▁sake	-9.36633
▁dagger	-9.36701
▁conversation	-9.36704
▁bastard	-9.36714
▁judge	-9.36719
▁pulled	-9.36793
▁points	-9.36841
il	-9.37359
rs	-9.3738
▁listening	-9.37463
▁slip	-9.37514
▁freak	-9.37669
▁oil	-9.37716
▁correct	-9.37726
▁climb	-9.38046
▁garden	-9.38101
▁complete	-9.3811
▁hearts	-9.38156
▁create	-9.38373
▁zero	-9.38431
▁virgin	-9.38469
▁prince	-9.38473
▁percent	-9.38505
▁especially	-9.38511
▁houston	-9.38511
▁bilbo	-9.38511
▁negative	-9.38511
▁upset	-9.38511
▁hattie	-9.38512
▁midnight	-9.38512
▁edward	-9.38512
▁prize	-9.38513
▁shame	-9.38525
▁milk	-9.38531
▁saving	-9.38532
▁darkness	-9.38544
▁scene	-9.38549
▁storm	-9.3855
▁stage	-9.3856
▁pal	-9.38631
▁manager	-9.38664
▁metal	-9.38827
▁faster	-9.38834
▁mit	-9.38946
ling	-9.39124
▁trick	-9.39404
▁balls	-9.39456
▁producer	-9.3989
▁wings	-9.39967
▁shadow	-9.39978
▁tape	-9.40258
▁legs	-9.40401
▁birds	-9.40766
▁liked	-9.40902
ary	-9.41131
▁ed	-9.41181
▁build	-9.41315
▁he	-9.41358
▁experience	-9.41477
▁release	-9.41501
▁willing	-9.41693
▁alicia	-9.41737
▁brilliant	-9.41737
▁horace	-9.41737
▁katniss	-9.41737
▁orleans	-9.41737
▁snowflake	-9.41737
▁morgan	-9.41737
▁baroness	-9.41737
▁elise	-9.41738
▁silly	-9.41738
▁bread	-9.4174
▁beside	-9.4174
▁opportunity	-9.41742
▁mav	-9.4175
▁handsome	-9.4175
▁angle	-9.41766
▁bow	-9.41785
▁obviously	-9.41806
▁double	-9.41828
▁ms	-9.41909
▁sold	-9.41941
▁whispers	-9.42002
▁remain	-9.42458
▁color	-9.42841
ord	-9.42919
▁explosion	-9.43209
▁di	-9.43275
▁movie	-9.43286
▁miller	-9.43297
▁action	-9.43357
ia	-9.43453
▁nation	-9.43514
▁walked	-9.43608
▁dry	-9.43816
▁who	-9.43862
ge	-9.43903
▁cash	-9.44665
▁spare	-9.44881
▁madam	-9.44959
▁ships	-9.44986
▁mm	-9.45008
▁advice	-9.4507
▁british	-9.4507
▁chamberlain	-9.4507
▁gracie	-9.4507
▁simply	-9.4507
▁twice	-9.4507
▁gravity	-9.4507
▁larry	-9.4507
▁ridiculous	-9.4507
▁science	-9.4507
▁rohan	-9.45071
▁foreign	-9.45071
▁theory	-9.45072
▁reggie	-9.45072
▁zoobi	-9.45075
▁involved	-9.45082
▁view	-9.45083
▁peg	-9.45083
▁medical	-9.45136
▁mum	-9.45164
▁nature	-9.45179
▁gettin	-9.45194
▁whatd	-9.45195
▁you	-9.45318
▁warning	-9.45322
▁closer	-9.45419
▁rebels	-9.45647
▁higher	-9.45737
ment	-9.45803
▁thousands	-9.45968
▁card	-9.4599
nt	-9.46202
▁signed	-9.46241
do	-9.46241
▁ted	-9.4629
▁no	-9.46322
ra	-9.46336
▁whoever	-9.46585
▁maverick	-9.46628
▁uniform	-9.46628
▁exist	-9.46638
▁shield	-9.46675
▁level	-9.46747
▁fan	-9.4676
ad	-9.46996
▁paying	-9.47393
▁focus	-9.47702
▁ruin	-9.47747
ha	-9.47757
▁loves	-9.4799
▁study	-9.48069
▁pretend	-9.48102
▁event	-9.48106
▁sub	-9.48201
▁v	-9.48343
▁pictures	-9.48344
hua	-9.48373
▁rig	-9.48447
▁comin	-9.48499
▁wlth	-9.48506
▁applause	-9.48518
▁beach	-9.48518
▁district	-9.48518
▁possibly	-9.48518
▁saruman	-9.48518
▁somehow	-9.48518
▁split	-9.48518
▁video	-9.48518
▁maggie	-9.48519
▁afford	-9.48519
▁jail	-9.4852
▁capcom	-9.4852
▁alfred	-9.48521
▁thunder	-9.48521
▁memory	-9.48524
▁breakfast	-9.48524
▁often	-9.48524
▁gunfire	-9.48528
▁flesh	-9.48535
▁shire	-9.4854
▁sean	-9.48659
▁interesting	-9.48833
▁approaching	-9.48848
▁quietly	-9.49036
▁due	-9.49157
▁folks	-9.49178
▁tall	-9.49223
▁bother	-9.49318
ke	-9.49346
▁cars	-9.49369
▁fail	-9.49443
oobi	-9.49605
▁contract	-9.50078
▁tower	-9.50224
▁main	-9.50231
▁whistle	-9.50308
▁post	-9.50443
▁fella	-9.50499
▁falling	-9.50576
▁u	-9.50697
▁career	-9.50807
cient	-9.50892
ul	-9.51212
▁opened	-9.51345
▁bless	-9.51395
▁trap	-9.51612
▁direct	-9.51758
away	-9.5176
▁ignore	-9.51826
▁load	-9.5184
▁helped	-9.51864
▁killer	-9.51878
▁iron	-9.51975
▁hug	-9.52014
▁witness	-9.52029
▁threat	-9.5203
▁paris	-9.5203
▁jack	-9.52038
▁pet	-9.52063
▁hatch	-9.52068
▁garrison	-9.5209
▁hannibal	-9.5209
▁personnel	-9.5209
▁someplace	-9.5209
▁whiskey	-9.5209
▁alpha	-9.5209
▁teddy	-9.5209
▁italian	-9.5209
▁local	-9.52091
▁surface	-9.52091
▁koba	-9.52092
▁complicated	-9.52095
▁winning	-9.52095
▁coat	-9.52095
▁boom	-9.52097
▁santa	-9.52098
▁pocket	-9.521
▁simon	-9.52101
▁scoffs	-9.52107
▁apparently	-9.52107
▁energy	-9.52126
▁applauding	-9.5213
▁badger	-9.52154
▁tax	-9.52173
ton	-9.52182
▁checks	-9.52266
▁wood	-9.52437
▁eggs	-9.5284
▁sp	-9.52851
▁treat	-9.52889
ate	-9.52967
▁using	-9.52985
▁hardly	-9.53193
▁passed	-9.53296
way	-9.53331
▁butt	-9.53706
▁file	-9.53784
▁following	-9.5385
▁eliza	-9.539
▁defendant	-9.53912
▁dads	-9.53924
▁condition	-9.53929
▁tells	-9.5396
▁block	-9.54006
▁shadows	-9.54084
▁lip	-9.54151
age	-9.54757
▁crash	-9.55012
▁cross	-9.55042
▁heal	-9.55156
at	-9.55285
back	-9.55452
▁recognize	-9.55537
▁original	-9.55657
▁awake	-9.55719
▁silence	-9.55741
▁brixton	-9.55793
▁credit	-9.55793
▁whinnies	-9.55793
▁awesome	-9.55794
▁admit	-9.55795
▁basically	-9.55796
▁giant	-9.55796
▁unbelievable	-9.55797
▁written	-9.55798
▁bottom	-9.558
▁springtime	-9.55801
▁raven	-9.55801
▁duty	-9.55802
▁aircraft	-9.55803
▁farhan	-9.55806
▁eagle	-9.55806
▁spring	-9.55816
▁secretary	-9.55822
▁barely	-9.55832
▁mona	-9.55834
▁cage	-9.55853
▁pm	-9.55906
▁add	-9.55917
▁gut	-9.55951
ty	-9.55986
▁wide	-9.55993
go	-9.56032
▁opening	-9.5605
▁hoping	-9.56064
▁everybodys	-9.56068
▁exhales	-9.56098
▁created	-9.56186
▁filled	-9.56204
▁screwed	-9.56311
▁streets	-9.56464
▁deeply	-9.56465
time	-9.56599
▁sol	-9.56667
▁hobbits	-9.56843
▁showed	-9.56924
▁towards	-9.5698
▁chattering	-9.5711
▁cook	-9.57306
▁account	-9.57349
▁remind	-9.57369
▁bones	-9.57558
▁fellas	-9.57684
▁bone	-9.57686
▁devil	-9.57743
▁sentinel	-9.57793
▁drinking	-9.57886
▁fired	-9.57913
▁checked	-9.57979
▁reporter	-9.58025
▁leader	-9.58211
▁siren	-9.58492
▁wing	-9.5868
▁le	-9.58683
▁rid	-9.58684
▁quant	-9.58933
▁believed	-9.59023
em	-9.59137
▁faith	-9.59318
la	-9.59351
▁krakozhia	-9.5936
▁schedule	-9.59397
▁spoke	-9.59572
▁champ	-9.59605
▁mmhm	-9.59616
▁twenty	-9.59628
▁agatha	-9.5964
▁quigley	-9.5964
▁soviet	-9.5964
▁tuesday	-9.5964
▁witwer	-9.5964
▁adele	-9.5964
▁otherwise	-9.5964
▁request	-9.5964
▁heep	-9.59641
▁henry	-9.59643
▁forgotten	-9.59647
▁bobby	-9.59651
▁bride	-9.59654
▁confused	-9.59654
▁brady	-9.59655
▁carney	-9.59661
▁forth	-9.59663
▁trish	-9.59686
▁dock	-9.59687
▁panic	-9.59695
▁chest	-9.59718
▁bout	-9.59725
▁heat	-9.59729
▁apple	-9.59741
▁passion	-9.5976
▁pity	-9.59787
▁personally	-9.59965
▁noticed	-9.59989
▁stops	-9.60032
▁harm	-9.60047
▁mistakes	-9.60203
▁non	-9.60234
▁letters	-9.6034
▁trained	-9.60518
▁harder	-9.60544
▁expecting	-9.60716
▁blowing	-9.60818
ma	-9.60947
▁yell	-9.61092
▁thin	-9.61356
▁led	-9.61601
▁limit	-9.61637
▁tip	-9.61779
▁stayed	-9.618
▁defense	-9.61814
▁nose	-9.61826
▁plain	-9.61843
▁plans	-9.619
▁document	-9.61996
▁animals	-9.62079
▁baggins	-9.62241
lt	-9.62285
▁mans	-9.62296
▁bay	-9.62942
▁keeping	-9.62987
▁walls	-9.63213
▁dies	-9.63311
▁places	-9.6338
▁damage	-9.63389
▁settle	-9.63397
▁practice	-9.63402
▁solve	-9.63427
▁assume	-9.63454
▁waste	-9.63481
▁clever	-9.63487
▁health	-9.63507
▁shake	-9.63581
▁nah	-9.6361
▁blanc	-9.63635
▁crick	-9.63635
▁april	-9.6364
▁extreme	-9.6364
▁fabulous	-9.6364
▁gorgeous	-9.6364
▁international	-9.6364
▁jersey	-9.6364
▁majesty	-9.6364
▁monitor	-9.6364
▁pardon	-9.6364
▁riordan	-9.6364
▁specific	-9.6364
▁sugar	-9.6364
▁tournament	-9.6364
▁shift	-9.6364
▁staff	-9.6364
▁precrime	-9.6364
▁england	-9.63641
▁rosenberg	-9.63641
▁erik	-9.63641
▁adrian	-9.63641
▁honour	-9.63642
▁monster	-9.63642
▁ugly	-9.63643
▁troy	-9.63645
▁yellow	-9.63646
▁license	-9.63647
▁jazz	-9.63647
▁plus	-9.63649
▁sobbing	-9.63651
▁creed	-9.63674
▁squad	-9.63712
▁whyd	-9.63713
▁tan	-9.63723
▁halt	-9.63773
▁betrayed	-9.63779
▁joy	-9.63807
ted	-9.63818
▁glasses	-9.6386
▁union	-9.63902
▁pot	-9.63981
▁ace	-9.64002
▁bid	-9.64247
▁turning	-9.64336
▁meaning	-9.64359
▁ate	-9.64435
ng	-9.64498
▁legal	-9.64507
▁tires	-9.64706
male	-9.64905
▁cheers	-9.64949
▁seemed	-9.65
▁tone	-9.65202
▁li	-9.65209
▁kings	-9.65294
▁calls	-9.65384
▁there	-9.65844
ure	-9.65939
▁roman	-9.6596
▁interview	-9.65989
▁creature	-9.66015
▁leaves	-9.66053
▁guests	-9.66181
▁shooting	-9.66205
im	-9.66334
▁fighters	-9.66345
▁headed	-9.67002
▁sneak	-9.67178
ii	-9.67184
▁hunt	-9.67277
▁und	-9.67282
▁chi	-9.67341
▁attempt	-9.67341
▁lift	-9.67443
▁intend	-9.67445
▁curse	-9.67645
▁congress	-9.6778
▁apart	-9.67797
▁thirty	-9.67799
▁byebye	-9.67806
▁chinese	-9.67806
▁emperor	-9.67806
▁lelaina	-9.67806
▁murdock	-9.67806
▁permission	-9.67806
▁vegas	-9.67806
▁whistling	-9.67806
▁presence	-9.67806
▁melinda	-9.67807
▁hyah	-9.67807
▁pride	-9.67808
▁tanner	-9.67809
▁ulla	-9.67811
▁marston	-9.67812
▁familiar	-9.67814
▁fancy	-9.67815
▁dropped	-9.67817
▁coach	-9.67826
▁style	-9.67827
▁blaring	-9.67853
▁shape	-9.67867
▁lake	-9.67868
▁suddenly	-9.67897
▁dirty	-9.67913
▁jad	-9.67946
▁bleeding	-9.67965
▁mass	-9.6797
▁received	-9.67978
▁bron	-9.67983
▁guards	-9.68044
▁tag	-9.68063
co	-9.681
▁lower	-9.68114
▁clicks	-9.68307
▁armed	-9.68517
▁clearly	-9.68627
▁bringing	-9.68751
▁pills	-9.6876
▁talkin	-9.68993
▁plant	-9.69026
▁burning	-9.69056
▁fingers	-9.69072
▁lied	-9.69258
▁systems	-9.69319
▁crack	-9.69408
▁cos	-9.69518
▁vote	-9.6991
▁lots	-9.69973
gest	-9.70002
▁fans	-9.70005
▁scare	-9.70105
▁wise	-9.70137
▁tutsi	-9.70208
▁bullet	-9.70301
▁duck	-9.70326
▁hanging	-9.70384
▁grade	-9.70391
▁tests	-9.70473
▁moments	-9.70796
▁gang	-9.70812
▁bombs	-9.71045
▁mi	-9.71245
▁sweat	-9.71735
x	-9.71829
▁introduce	-9.71945
▁coop	-9.72019
▁awful	-9.72027
▁dust	-9.72041
▁ought	-9.72094
▁fruit	-9.72138
▁dramatic	-9.72147
▁california	-9.72154
▁donald	-9.72154
▁downstairs	-9.72154
▁enemies	-9.72154
▁grantham	-9.72154
▁hanratty	-9.72154
▁japanese	-9.72154
▁mattiece	-9.72154
▁nonsense	-9.72154
▁species	-9.72154
▁tatiana	-9.72154
▁experiment	-9.72154
▁eyre	-9.72154
▁cousin	-9.72154
▁orbit	-9.72154
▁robbie	-9.72154
▁anthony	-9.72155
▁fantastic	-9.72155
▁monday	-9.72157
▁stories	-9.72157
▁nope	-9.72157
▁assistant	-9.72157
▁earlier	-9.7216
▁avoid	-9.72162
▁oath	-9.72162
▁richard	-9.72167
▁boyfriend	-9.72171
▁agreement	-9.72175
▁necessary	-9.72178
▁aside	-9.72179
▁penny	-9.72186
▁hugh	-9.72188
▁aware	-9.72191
▁gear	-9.72193
▁coughing	-9.72204
▁held	-9.72208
▁stink	-9.72244
▁troops	-9.72277
▁clicking	-9.72283
ally	-9.72313
▁parties	-9.72313
om	-9.72432
▁bath	-9.72433
▁reality	-9.72435
▁bucks	-9.72515
ck	-9.7252
▁reached	-9.7291
▁autobots	-9.72915
▁blows	-9.73053
▁all	-9.7318
▁engines	-9.73194
ern	-9.73237
▁ear	-9.73492
▁members	-9.73717
▁me	-9.7374
▁nick	-9.73998
▁pro	-9.74189
▁agents	-9.74213
na	-9.74429
▁decide	-9.7457
line	-9.74594
▁feelings	-9.74702
▁device	-9.74798
▁chair	-9.74803
▁played	-9.74805
▁pair	-9.7486
▁criminal	-9.74874
▁joke	-9.74884
▁tunnel	-9.7489
▁songs	-9.75024
▁tap	-9.7503
▁gives	-9.75466
me	-9.75693
▁mu	-9.75879
da	-9.75919
▁lies	-9.75979
▁signs	-9.76005
▁approach	-9.762
▁proceed	-9.76226
▁smash	-9.76252
▁sa	-9.76368
▁disappear	-9.76369
▁runs	-9.76443
▁crap	-9.7653
▁social	-9.76548
side	-9.76601
▁gentle	-9.76669
▁aunt	-9.76681
▁grandpa	-9.76683
▁fires	-9.76699
▁closing	-9.767
▁destiny	-9.767
▁dylan	-9.767
▁eboshi	-9.767
▁eema	-9.767
▁guitar	-9.767
▁kragen	-9.767
▁lindsey	-9.767
▁morrison	-9.767
▁necklace	-9.767
▁phoenix	-9.767
▁rattling	-9.767
▁unhappy	-9.767
▁elves	-9.767
▁funeral	-9.767
▁jessica	-9.767
▁hidden	-9.767
▁oclock	-9.767
▁kitchen	-9.76701
▁toilet	-9.76702
▁whenever	-9.76702
▁female	-9.76705
▁property	-9.76705
▁spread	-9.76709
▁slide	-9.7671
▁edge	-9.76712
▁bedroom	-9.76713
▁fake	-9.76713
▁pike	-9.76714
▁lean	-9.76716
▁accountant	-9.76717
▁regular	-9.76722
▁unfortunately	-9.76724
▁proof	-9.76724
▁reaction	-9.76735
▁mister	-9.76743
▁thatll	-9.76759
▁battery	-9.76774
▁former	-9.76778
▁spoken	-9.76782
▁grown	-9.76805
▁protection	-9.76813
▁professional	-9.76843
▁harris	-9.76878
▁subtitles	-9.76912
▁swing	-9.77
▁toll	-9.7702
▁gotten	-9.7704
ba	-9.77115
▁failed	-9.77124
▁prepared	-9.77158
ur	-9.77207
▁designed	-9.77209
▁orcs	-9.77259
▁downs	-9.7731
▁prisoners	-9.7747
▁wi	-9.77529
▁sever	-9.77539
▁nuts	-9.77585
▁records	-9.7759
▁becomes	-9.77639
▁expected	-9.77651
▁min	-9.77699
▁refuse	-9.7778
no	-9.77789
▁hls	-9.77811
▁recording	-9.78089
▁hu	-9.78136
▁pushing	-9.78147
▁loss	-9.78159
ily	-9.78316
▁driver	-9.78346
▁commit	-9.78391
ga	-9.78667
ow	-9.78817
▁goat	-9.78888
op	-9.79102
ism	-9.79285
▁appear	-9.79302
▁h	-9.79376
▁investigation	-9.79516
▁title	-9.79524
▁regret	-9.7956
▁rose	-9.79572
▁scientist	-9.79589
▁patient	-9.79599
▁equal	-9.79625
▁hutu	-9.79632
▁suspect	-9.79677
▁odd	-9.79685
▁warrior	-9.79685
les	-9.79876
▁doctors	-9.79886
▁that	-9.80037
▁hurts	-9.80258
ru	-9.80294
▁fights	-9.80343
▁toast	-9.80417
▁lad	-9.80625
▁consider	-9.80681
▁interest	-9.80745
▁cameras	-9.808
▁hill	-9.80989
▁respond	-9.81016
▁jab	-9.81028
▁alert	-9.81083
▁trigger	-9.81083
▁desert	-9.81116
▁poison	-9.8112
be	-9.8118
▁knowing	-9.81201
▁mention	-9.81207
▁marks	-9.81224
▁total	-9.81327
▁brenda	-9.81385
▁taxi	-9.81392
▁bane	-9.81423
▁among	-9.81439
▁fifty	-9.81452
▁adhemar	-9.81461
▁chicago	-9.81461
▁famous	-9.81461
▁finkle	-9.81461
▁however	-9.81461
▁intelligence	-9.81461
▁klump	-9.81461
▁mystery	-9.81461
▁pippin	-9.81461
▁ranchhoddas	-9.81461
▁romilly	-9.81461
▁status	-9.81461
▁surrender	-9.81461
▁unusual	-9.81461
▁blade	-9.81462
▁innocent	-9.81462
▁horrible	-9.81462
▁melody	-9.81462
▁university	-9.81462
▁grace	-9.81462
▁vacation	-9.81462
▁weather	-9.81462
▁altitude	-9.81462
▁celebrate	-9.81462
▁garbage	-9.81462
▁imperial	-9.81463
▁franz	-9.81464
▁priest	-9.81464
▁joyner	-9.81464
▁wilson	-9.81465
▁desperate	-9.81465
▁sniffles	-9.81466
▁lisa	-9.81466
▁noble	-9.81469
▁wwe	-9.8147
▁benny	-9.81472
▁glory	-9.81474
▁nasty	-9.81476
▁spacecom	-9.81477
▁agena	-9.81483
▁combat	-9.81488
▁range	-9.81497
▁self	-9.815
▁flame	-9.81501
▁medal	-9.81504
▁daughters	-9.8151
▁safety	-9.81517
▁eh	-9.81538
▁barking	-9.81541
▁immediately	-9.81545
▁codes	-9.81571
▁papers	-9.81579
▁fallen	-9.81608
▁stolen	-9.81637
▁hon	-9.81701
▁arrived	-9.81728
▁steps	-9.81748
▁hired	-9.81775
▁habit	-9.81822
▁suffering	-9.81825
▁sh	-9.8184
▁map	-9.81843
▁sharp	-9.81856
▁flip	-9.81888
▁agreed	-9.81943
▁hunting	-9.81967
▁arrested	-9.81979
▁indistinctly	-9.81984
▁stairs	-9.82034
▁mo	-9.82118
▁answers	-9.82246
▁sooner	-9.82281
▁gosh	-9.82296
▁wave	-9.8239
▁ned	-9.82488
▁beeps	-9.82657
▁beating	-9.83047
▁chase	-9.8313
▁likely	-9.83202
▁warriors	-9.8327
ca	-9.83435
ol	-9.84052
▁cards	-9.84088
▁picking	-9.8412
▁fi	-9.84146
▁voices	-9.84286
▁coward	-9.84384
▁co	-9.84398
▁winner	-9.84577
▁affair	-9.84588
▁quarter	-9.84628
▁issue	-9.84634
▁ranger	-9.84654
▁member	-9.84688
▁en	-9.84733
▁heavens	-9.84838
▁trade	-9.84978
▁challenge	-9.85018
▁showing	-9.85176
▁piss	-9.85596
▁americans	-9.85958
▁auction	-9.85961
▁paint	-9.86029
▁crow	-9.86134
▁mothers	-9.86203
▁forces	-9.86277
▁hook	-9.86335
▁author	-9.86438
▁ammi	-9.86461
▁complex	-9.86461
▁elizabeth	-9.86461
▁jacob	-9.86461
▁knife	-9.86461
▁loxley	-9.86461
▁renai	-9.86461
▁responsibility	-9.86461
▁thief	-9.86461
▁hadnt	-9.86462
▁impact	-9.86462
▁flood	-9.86462
▁telephone	-9.86462
▁italy	-9.86462
▁senator	-9.86462
▁rachel	-9.86462
▁shirt	-9.86462
▁francisco	-9.86463
▁slept	-9.86464
▁flag	-9.86464
▁rough	-9.86464
▁peeta	-9.86465
▁gym	-9.86466
▁abagnale	-9.86466
▁planning	-9.86467
▁borrow	-9.8647
▁cabinet	-9.8647
▁circle	-9.8647
▁rising	-9.8647
▁joob	-9.86471
▁whatre	-9.86477
▁sunday	-9.86478
▁comfortable	-9.86479
▁jerk	-9.86479
▁mitch	-9.86481
▁batman	-9.86485
▁function	-9.86488
▁jacket	-9.86489
▁skies	-9.86494
▁trial	-9.86499
▁whooshing	-9.86589
▁row	-9.86597
▁fay	-9.86602
▁chill	-9.86634
▁rot	-9.86679
▁hire	-9.86684
▁cello	-9.86687
▁stands	-9.86738
▁carla	-9.86768
▁hustle	-9.86776
▁armor	-9.86884
▁based	-9.87017
▁riding	-9.8704
▁sand	-9.87079
▁surprised	-9.87087
▁slowly	-9.87193
▁worlds	-9.87238
▁lines	-9.87241
▁ideas	-9.873
▁stealing	-9.87355
▁seats	-9.87404
▁speakers	-9.87483
ish	-9.87529
▁flowers	-9.87547
▁jumped	-9.87548
▁backup	-9.87555
▁burned	-9.87586
▁attacked	-9.87731
ble	-9.88011
▁murdered	-9.88109
▁reed	-9.88327
▁odds	-9.88366
▁older	-9.88368
▁lively	-9.88534
ns	-9.88592
▁finding	-9.88649
▁yells	-9.88752
land	-9.89168
▁defeat	-9.89422
▁fortune	-9.8977
▁official	-9.89783
▁statement	-9.89798
▁wheel	-9.89801
▁demon	-9.8988
▁mask	-9.89884
▁aid	-9.90007
oden	-9.90026
▁wire	-9.90444
der	-9.90608
ize	-9.90925
▁so	-9.90933
▁hundreds	-9.91185
▁deliver	-9.91225
▁echo	-9.91252
▁scratch	-9.91292
▁farm	-9.91359
▁reveal	-9.91383
▁desire	-9.91468
▁separate	-9.91491
▁am	-9.91523
▁assure	-9.91535
▁oi	-9.91545
▁victor	-9.91569
▁proper	-9.91577
▁chose	-9.91665
▁mimi	-9.91694
▁fashion	-9.91699
▁eve	-9.91703
▁symbol	-9.91713
▁revolution	-9.91716
▁cheese	-9.91725
▁disease	-9.91725
▁empire	-9.91725
▁eventually	-9.91725
▁groot	-9.91725
▁intelligent	-9.91725
▁novalee	-9.91725
▁optimus	-9.91725
▁pizza	-9.91725
▁revenge	-9.91725
▁static	-9.91725
▁miracle	-9.91725
▁responsible	-9.91725
▁loyal	-9.91725
▁relationship	-9.91725
▁gotham	-9.91725
▁blew	-9.91725
▁jenny	-9.91726
▁memories	-9.91726
▁gollum	-9.91727
▁rlght	-9.91728
▁section	-9.9173
▁ugh	-9.9173
▁firing	-9.91731
▁princeton	-9.91737
▁package	-9.91742
▁alnt	-9.91743
▁rare	-9.91745
▁capable	-9.91745
▁pork	-9.91745
▁ferry	-9.91745
▁birth	-9.91749
▁naked	-9.91757
▁zone	-9.91759
▁vow	-9.91763
▁committed	-9.91775
▁yearold	-9.91779
▁mount	-9.91783
▁guilty	-9.91804
▁bound	-9.91807
▁usually	-9.91855
▁bury	-9.91871
▁screeching	-9.91879
▁cap	-9.91894
▁according	-9.91903
▁confirmed	-9.91929
▁coughs	-9.91971
▁invitation	-9.92023
▁mid	-9.92053
▁exclaims	-9.92069
▁shower	-9.92095
▁scotty	-9.92102
▁owen	-9.92107
▁sale	-9.92118
▁decepticons	-9.92165
▁rat	-9.92165
▁survived	-9.92221
▁ruined	-9.92231
▁matters	-9.92307
▁tied	-9.9233
▁jun	-9.92424
▁precogs	-9.92458
▁raised	-9.92481
▁hood	-9.92531
▁details	-9.92556
▁mel	-9.92926
▁rip	-9.92966
▁mars	-9.93044
▁chips	-9.9311
▁lately	-9.93117
▁bags	-9.93289
▁knocking	-9.93366
▁followed	-9.93688
▁hills	-9.93738
▁leading	-9.93851
▁bi	-9.93878
von	-9.9399
son	-9.94043
▁to	-9.94061
▁passing	-9.94168
▁bat	-9.94294
▁cheer	-9.94358
▁site	-9.94649
▁events	-9.94704
▁be	-9.94856
ts	-9.9491
sh	-9.9503
▁debt	-9.95373
▁noise	-9.95377
▁chain	-9.95426
▁rage	-9.95509
▁toward	-9.95512
▁plate	-9.95533
▁lesson	-9.95588
▁lance	-9.95921
▁ul	-9.96457
▁powers	-9.96556
▁pilots	-9.96615
ster	-9.96733
▁retreat	-9.96789
▁aim	-9.96837
▁angel	-9.96903
▁grant	-9.97012
▁exam	-9.97019
▁wander	-9.97035
▁remove	-9.97097
▁brains	-9.97117
▁usual	-9.97143
▁drag	-9.97198
▁brown	-9.97235
▁freeze	-9.97237
▁image	-9.97272
▁ashitaka	-9.9728
▁champagne	-9.9728
▁dwarf	-9.9728
▁firm	-9.9728
▁inhales	-9.9728
▁junior	-9.9728
▁location	-9.9728
▁manhattan	-9.9728
▁opinion	-9.9728
▁process	-9.9728
▁signature	-9.9728
▁threw	-9.9728
▁tragedy	-9.9728
▁trunk	-9.9728
▁underneath	-9.9728
▁wednesday	-9.9728
▁gross	-9.9728
▁serum	-9.9728
▁beverly	-9.9728
▁cletus	-9.9728
▁crush	-9.9728
▁swimming	-9.97281
▁varinia	-9.97281
▁reese	-9.97281
▁stanford	-9.97281
▁underground	-9.97281
▁stroke	-9.97281
▁burden	-9.97281
▁online	-9.97282
▁fluid	-9.97283
▁mickey	-9.97284
▁romantic	-9.97284
▁leap	-9.97285
▁woke	-9.9729
▁wolf	-9.9729
▁audition	-9.97291
▁crackling	-9.97291
▁connection	-9.97295
▁alma	-9.97296
▁diana	-9.97297
▁supply	-9.97304
▁pulse	-9.97308
▁film	-9.9731
▁gentleman	-9.97311
▁russians	-9.97319
▁bowen	-9.97319
▁blast	-9.97324
▁dube	-9.97326
▁clock	-9.97335
▁exit	-9.97349
▁winter	-9.97353
▁pace	-9.97356
▁electric	-9.97391
▁gray	-9.97392
▁mail	-9.97396
▁witch	-9.97406
▁meal	-9.97419
▁rosen	-9.97432
▁dld	-9.97433
▁rom	-9.97447
▁deny	-9.97478
▁engaged	-9.97492
▁guineas	-9.9754
▁watched	-9.97558
▁sexy	-9.976
▁pissed	-9.97647
▁cast	-9.97686
▁loaded	-9.97795
▁smaller	-9.97866
▁stronger	-9.97896
▁hits	-9.97952
▁offered	-9.98023
▁joint	-9.98026
▁perfectly	-9.98039
he	-9.98074
▁adams	-9.98223
▁hips	-9.98578
ring	-9.98772
▁thuds	-9.98783
ac	-9.99342
▁counting	-9.99396
ho	-9.99434
▁machines	-9.99537
▁bullets	-9.99621
▁hoo	-9.99694
▁pee	-9.99787
▁guts	-9.99844
▁si	-9.99845
▁royal	-9.99919
▁wink	-9.99971
ent	-9.99975
▁pieces	-10.0004
head	-10.0031
▁warn	-10.0041
j	-10.0052
▁do	-10.0054
▁bum	-10.0064
▁spin	-10.0081
▁eject	-10.0081
▁cheat	-10.0083
▁pulling	-10.0087
led	-10.0094
▁sl	-10.0098
lon	-10.0099
▁knee	-10.0101
▁vehicle	-10.0131
▁source	-10.0132
▁pig	-10.0132
▁hobbit	-10.0135
▁setting	-10.0135
▁shoulder	-10.0135
▁victim	-10.0137
▁finger	-10.0142
▁idiots	-10.0151
▁ended	-10.0159
▁closet	-10.0209
▁bo	-10.0212
▁comp	-10.0222
▁los	-10.0224
▁mountains	-10.0225
▁suffer	-10.0239
▁wash	-10.0245
▁belongs	-10.0269
▁discuss	-10.0275
▁photograph	-10.0276
▁nest	-10.0283
▁rent	-10.0286
▁earn	-10.0287
▁square	-10.0289
▁measure	-10.029
▁bounce	-10.029
▁hung	-10.0294
▁advance	-10.0294
▁rub	-10.0296
▁tent	-10.0298
▁dirt	-10.0302
▁physical	-10.0302
▁natural	-10.0303
▁auctione	-10.0303
▁trans	-10.0303
▁success	-10.0304
▁z	-10.0306
▁kat	-10.0312
▁livin	-10.0314
▁transport	-10.0315
▁off	-10.0315
▁comfort	-10.0315
▁allegra	-10.0316
▁although	-10.0316
▁bulgarian	-10.0316
▁ceiling	-10.0316
▁clamoring	-10.0316
▁coast	-10.0316
▁dozen	-10.0316
▁incident	-10.0316
▁jasper	-10.0316
▁legacy	-10.0316
▁liberty	-10.0316
▁mcbride	-10.0316
▁monsieur	-10.0316
▁oxygen	-10.0316
▁pomatter	-10.0316
▁servant	-10.0316
▁current	-10.0316
▁jensen	-10.0316
▁knowledge	-10.0316
▁pascal	-10.0316
▁snake	-10.0316
▁pym	-10.0316
▁starving	-10.0316
▁jeez	-10.0316
▁conference	-10.0316
▁fairfax	-10.0316
▁michelle	-10.0316
▁expensive	-10.0316
▁martha	-10.0316
▁example	-10.0317
▁mmmhmm	-10.0317
▁blanket	-10.0317
▁chatur	-10.0317
▁rhythm	-10.0317
▁wherever	-10.0317
▁remote	-10.0317
▁belt	-10.0317
▁medication	-10.0317
▁hm	-10.0317
▁slap	-10.0317
▁thou	-10.0317
▁central	-10.0317
▁soup	-10.0318
▁yup	-10.0318
▁cockroaches	-10.0318
▁southern	-10.0319
▁quill	-10.0319
▁began	-10.0319
▁available	-10.032
▁tech	-10.032
▁stock	-10.032
▁anger	-10.032
▁punk	-10.032
▁fence	-10.032
▁task	-10.0321
▁grateful	-10.0321
▁mere	-10.0322
▁loving	-10.0326
▁dc	-10.033
▁ricky	-10.0331
▁tiny	-10.0333
▁butter	-10.0333
one	-10.0333
▁gl	-10.0334
▁lins	-10.0339
▁rocko	-10.0348
▁considered	-10.0357
▁score	-10.0358
▁fe	-10.036
▁rocks	-10.0361
▁rooms	-10.0365
▁gloves	-10.0366
▁nearly	-10.037
▁treated	-10.0371
▁nights	-10.0372
▁finest	-10.0375
▁belly	-10.0381
▁gunn	-10.0387
▁mal	-10.0404
▁laws	-10.0416
▁patch	-10.0418
▁hates	-10.0427
off	-10.0428
▁blt	-10.043
▁dings	-10.043
▁tryin	-10.0431
▁of	-10.0433
▁younger	-10.0434
▁ra	-10.0437
▁fully	-10.0451
▁forty	-10.0454
▁martians	-10.0454
▁planes	-10.0463
▁acting	-10.0465
gen	-10.0479
▁seek	-10.048
▁sc	-10.0487
▁returned	-10.0504
▁rats	-10.0513
▁guide	-10.0515
▁cal	-10.0518
ine	-10.0543
▁wa	-10.0544
ee	-10.0547
▁br	-10.057
▁den	-10.0574
▁sire	-10.0586
▁cleared	-10.0597
▁leaders	-10.0613
▁whistles	-10.062
un	-10.0685
▁fred	-10.0695
▁secrets	-10.0698
ace	-10.0706
▁salt	-10.0729
ball	-10.073
▁mis	-10.0743
▁wizard	-10.0745
▁tune	-10.0749
▁snap	-10.075
▁ocean	-10.075
▁season	-10.0751
we	-10.0752
▁einon	-10.0757
▁guardian	-10.0757
▁character	-10.0758
▁result	-10.0762
▁swords	-10.0777
▁stranger	-10.0781
▁what	-10.0784
▁adventure	-10.0798
▁hop	-10.0808
▁loser	-10.0821
▁murderer	-10.0823
▁shock	-10.0847
ber	-10.0853
beat	-10.0856
▁masters	-10.0882
house	-10.0891
▁collect	-10.0892
▁contain	-10.0892
▁dent	-10.0906
▁fund	-10.0908
▁bee	-10.0909
▁host	-10.0909
▁mix	-10.091
annoy	-10.0914
▁engage	-10.0914
▁bull	-10.0917
▁silent	-10.0925
▁sudden	-10.0928
▁obvious	-10.0928
▁rick	-10.0935
▁troubles	-10.0935
▁martin	-10.0938
▁grave	-10.0939
▁europe	-10.094
▁cheap	-10.0941
▁prefer	-10.0941
▁bachelor	-10.0941
▁campaign	-10.0941
▁chamber	-10.0941
▁gemini	-10.0941
▁grandfather	-10.0941
▁jealous	-10.0941
▁maintain	-10.0941
▁milady	-10.0941
▁okkoto	-10.0941
▁pelican	-10.0941
▁rodney	-10.0941
▁silver	-10.0941
▁understood	-10.0941
▁walmart	-10.0941
▁joshua	-10.0941
▁kingdom	-10.0941
▁nightmare	-10.0941
▁positive	-10.0941
▁fifth	-10.0941
▁violent	-10.0941
▁farewell	-10.0941
▁thlnk	-10.0941
▁grew	-10.0941
▁coffey	-10.0941
▁mirror	-10.0941
▁progress	-10.0941
▁miserable	-10.0941
▁distant	-10.0941
▁navy	-10.0941
▁joking	-10.0942
▁offense	-10.0942
▁overboard	-10.0942
▁describe	-10.0942
▁orange	-10.0942
▁lamar	-10.0942
▁senate	-10.0942
▁goose	-10.0942
▁prick	-10.0942
▁ingram	-10.0942
▁aah	-10.0943
▁stallion	-10.0943
▁heil	-10.0943
▁onion	-10.0943
▁denny	-10.0944
▁lunar	-10.0944
▁solution	-10.0944
▁decent	-10.0944
▁football	-10.0945
▁hippy	-10.0946
▁literally	-10.0946
▁scan	-10.0946
▁exposed	-10.0947
▁market	-10.0947
▁crane	-10.0947
▁mint	-10.095
▁highway	-10.095
▁taxes	-10.0953
▁sue	-10.0953
lve	-10.0959
▁beth	-10.096
▁laid	-10.096
▁string	-10.096
▁retired	-10.0962
▁gim	-10.0963
▁ability	-10.0963
▁mood	-10.0964
▁healthy	-10.0966
▁arranged	-10.0966
▁carlin	-10.097
▁eaten	-10.097
ley	-10.0977
▁foundation	-10.1004
▁drugs	-10.1006
▁legions	-10.1006
▁rio	-10.101
▁associate	-10.1029
▁sports	-10.1052
▁offering	-10.1055
▁traveling	-10.1058
▁ph	-10.1073
▁gu	-10.1075
▁gunshots	-10.1088
lic	-10.1097
▁sons	-10.1104
▁staring	-10.1114
king	-10.1118
▁plato	-10.1118
▁results	-10.1124
▁knees	-10.1136
▁ordered	-10.1141
▁counter	-10.1145
▁fart	-10.1158
ot	-10.1183
ian	-10.1185
▁goal	-10.1191
▁landed	-10.1215
bo	-10.1219
ified	-10.1228
over	-10.1237
ass	-10.1279
▁au	-10.1288
▁movies	-10.129
cy	-10.1297
van	-10.1299
▁leads	-10.1305
▁landing	-10.1311
▁cure	-10.1313
▁spark	-10.1359
▁inn	-10.1363
▁muscle	-10.1384
▁brings	-10.1391
face	-10.1402
▁tire	-10.1409
▁chocolate	-10.1412
▁subject	-10.1413
▁mar	-10.142
▁shore	-10.142
▁expert	-10.1424
▁satellite	-10.1425
if	-10.1427
▁se	-10.1428
▁degree	-10.1428
▁thud	-10.143
▁parent	-10.1436
▁sw	-10.1474
▁for	-10.15
▁toe	-10.1503
▁trucks	-10.1517
▁tin	-10.1536
ther	-10.1544
▁flush	-10.1568
▁dump	-10.1572
just	-10.1572
▁provide	-10.1583
▁assum	-10.1587
▁perform	-10.1588
▁spy	-10.1589
▁flow	-10.1595
▁mental	-10.1596
▁peaceful	-10.1598
▁tradition	-10.1601
▁wrestle	-10.1601
▁pin	-10.1605
▁sacr	-10.1608
▁activity	-10.1608
▁august	-10.1608
▁australia	-10.1608
▁boromir	-10.1608
▁cepheus	-10.1608
▁coincidence	-10.1608
▁coyote	-10.1608
▁equipment	-10.1608
▁exchange	-10.1608
▁explosiveskull	-10.1608
▁forney	-10.1608
▁helicopter	-10.1608
▁honghui	-10.1608
▁horizon	-10.1608
▁marilyn	-10.1608
▁nuclear	-10.1608
▁parcher	-10.1608
▁physics	-10.1608
▁privacy	-10.1608
▁pyramid	-10.1608
▁rouran	-10.1608
▁senior	-10.1608
▁shinyoung	-10.1608
▁struggle	-10.1608
▁weyland	-10.1608
▁broadcast	-10.1608
▁miami	-10.1608
▁superior	-10.1608
▁enormous	-10.1608
▁scholarship	-10.1608
▁darby	-10.1608
▁marino	-10.1608
▁league	-10.1608
▁protest	-10.1608
▁backwards	-10.1608
▁drax	-10.1608
▁extraordinary	-10.1608
▁laura	-10.1608
▁willow	-10.1608
▁custody	-10.1609
▁howard	-10.1609
▁steel	-10.1609
▁crawl	-10.1609
▁failure	-10.1609
▁response	-10.1609
▁robot	-10.1609
▁hansen	-10.1609
▁doom	-10.1609
▁benson	-10.1609
▁mj	-10.161
▁booth	-10.161
▁web	-10.161
▁authority	-10.161
▁model	-10.1612
▁selfish	-10.1612
▁maid	-10.1613
▁ash	-10.1613
▁craft	-10.1613
▁china	-10.1614
▁core	-10.1614
▁hail	-10.1615
▁elf	-10.1616
▁jc	-10.1616
▁angeles	-10.1616
▁castle	-10.1616
▁flynn	-10.1617
▁oughta	-10.1617
▁lois	-10.1618
▁mayday	-10.1619
▁rank	-10.1619
▁cole	-10.162
▁witnesses	-10.162
▁scary	-10.162
▁billion	-10.1623
▁arthur	-10.1623
▁sweetest	-10.1626
▁sharply	-10.1628
▁actors	-10.1628
▁toss	-10.1629
▁wh	-10.1632
▁directly	-10.1634
▁frankie	-10.1635
▁endless	-10.1639
▁recall	-10.1642
▁mixed	-10.1643
day	-10.1647
▁realm	-10.1663
▁wasted	-10.167
▁fore	-10.168
▁reports	-10.1681
▁crossing	-10.1689
▁buzzing	-10.1717
▁ava	-10.1735
▁gum	-10.1749
ny	-10.1763
▁kicked	-10.1785
ig	-10.1798
▁chip	-10.1813
▁communicate	-10.1818
▁bomber	-10.1846
▁fed	-10.1852
ious	-10.1874
▁hol	-10.1875
▁pe	-10.1909
▁fools	-10.191
▁badly	-10.1921
▁pla	-10.1941
▁files	-10.1945
▁buying	-10.1945
ara	-10.1952
▁easter	-10.1953
▁millers	-10.1982
▁answering	-10.1994
▁x	-10.2012
▁diet	-10.2018
▁sucks	-10.2023
▁su	-10.2024
▁ways	-10.2047
▁ch	-10.2056
iest	-10.2068
▁wound	-10.2093
▁phones	-10.2096
▁seal	-10.2113
▁beep	-10.2118
▁mon	-10.2121
▁object	-10.2121
▁legend	-10.2126
▁spear	-10.2126
▁clue	-10.2126
▁prim	-10.2129
▁beast	-10.2132
▁photo	-10.2136
▁toot	-10.2138
▁cow	-10.2141
▁ye	-10.2143
▁skill	-10.2144
▁sometime	-10.2147
▁mile	-10.2156
▁hunter	-10.2159
ized	-10.2171
▁stark	-10.2174
▁chop	-10.2182
▁ab	-10.2209
▁teams	-10.2229
▁gifts	-10.2241
nce	-10.2242
▁dive	-10.2249
▁reasons	-10.2252
▁wor	-10.2263
▁express	-10.2269
▁insult	-10.2274
▁sniff	-10.2274
▁text	-10.2275
▁bump	-10.2279
and	-10.2281
▁stress	-10.2286
▁tear	-10.2289
▁increase	-10.2296
▁convince	-10.2297
ey	-10.2301
▁threaten	-10.2301
▁sodom	-10.2305
▁political	-10.2307
▁actual	-10.2309
▁exact	-10.2309
▁jam	-10.231
▁po	-10.2311
▁flash	-10.2314
▁elliot	-10.2315
▁surge	-10.2318
▁chuck	-10.2318
▁eleven	-10.232
▁ending	-10.232
▁resist	-10.2322
▁attorney	-10.2322
▁canyon	-10.2322
▁chanchad	-10.2322
▁connors	-10.2322
▁dwarves	-10.2322
▁eteon	-10.2322
▁footsteps	-10.2322
▁glabrus	-10.2322
▁grond	-10.2322
▁gupta	-10.2322
▁hartmann	-10.2322
▁harvey	-10.2322
▁including	-10.2322
▁inspire	-10.2322
▁isildur	-10.2322
▁lafayette	-10.2322
▁levinson	-10.2322
▁narracott	-10.2322
▁restaurant	-10.2322
▁rochelle	-10.2322
▁soccer	-10.2322
▁strict	-10.2322
▁traffic	-10.2322
▁twelve	-10.2322
▁unique	-10.2322
▁cancer	-10.2322
▁sordino	-10.2322
▁violence	-10.2322
▁warrant	-10.2322
▁candy	-10.2322
▁nazg	-10.2322
▁commercial	-10.2322
▁shining	-10.2322
▁education	-10.2322
▁sparta	-10.2322
▁crisis	-10.2322
▁stood	-10.2322
▁middleearth	-10.2322
▁asleep	-10.2322
▁foster	-10.2323
▁jean	-10.2323
▁tribe	-10.2323
▁purty	-10.2323
▁fetch	-10.2323
▁japan	-10.2323
▁sameer	-10.2323
▁passport	-10.2323
▁beings	-10.2323
▁gap	-10.2323
▁catherine	-10.2323
▁mysterious	-10.2324
▁pathetic	-10.2324
▁ivan	-10.2324
▁feur	-10.2324
▁aggressive	-10.2324
▁heck	-10.2324
▁urgent	-10.2324
▁helmet	-10.2324
▁solid	-10.2324
▁sept	-10.2324
▁impressive	-10.2325
▁electricity	-10.2325
▁fitting	-10.2325
▁juice	-10.2325
▁shelter	-10.2326
▁review	-10.2326
▁trapped	-10.2326
▁tlme	-10.2326
▁howl	-10.2327
▁sammy	-10.2327
▁smells	-10.2327
▁squeaking	-10.2327
▁tapped	-10.2328
▁explorer	-10.2328
▁denied	-10.2328
▁herr	-10.2329
▁bender	-10.233
▁chasing	-10.233
▁disgusting	-10.233
▁sonny	-10.2332
▁discovered	-10.2332
▁bb	-10.2333
▁jimmy	-10.2334
▁invented	-10.2336
▁concerned	-10.2336
▁falcone	-10.2339
▁fl	-10.2339
▁stopping	-10.234
▁connected	-10.2341
▁surrounded	-10.2341
▁laser	-10.2343
▁conners	-10.2343
▁wolves	-10.2343
▁charming	-10.2343
▁shy	-10.2346
▁advanced	-10.2353
▁lifetime	-10.2353
▁mach	-10.2358
▁coordinates	-10.2361
▁washed	-10.2363
▁pirates	-10.237
▁resources	-10.237
▁released	-10.2377
▁mp	-10.2378
▁safer	-10.2389
▁considering	-10.239
▁focused	-10.2392
▁entirely	-10.2396
wa	-10.2403
▁realized	-10.2416
▁thoughts	-10.2427
▁engineering	-10.2428
▁fa	-10.243
▁defending	-10.2436
▁memo	-10.244
▁growing	-10.2448
lock	-10.2448
▁remembered	-10.245
▁drawing	-10.2453
▁feeding	-10.2466
▁lands	-10.2489
▁boars	-10.2492
▁maya	-10.2496
▁millions	-10.25
▁tears	-10.2507
vi	-10.2512
▁er	-10.2515
▁degrees	-10.2519
▁fu	-10.2531
▁victims	-10.2546
ping	-10.2549
▁worker	-10.2552
▁holds	-10.2554
▁wins	-10.2558
io	-10.2566
oo	-10.2577
▁learning	-10.2577
▁kicking	-10.258
▁teaching	-10.2617
▁creatures	-10.2642
▁buildings	-10.2684
▁sip	-10.2688
am	-10.2689
ite	-10.2706
▁chances	-10.2722
▁remains	-10.2727
▁somethings	-10.2762
▁caused	-10.2789
▁wrap	-10.2839
▁cares	-10.2841
▁op	-10.2866
sta	-10.2871
▁graduate	-10.2871
gh	-10.2872
▁grunt	-10.2873
▁page	-10.2888
▁boar	-10.2889
▁communication	-10.2895
▁narf	-10.2895
▁operation	-10.2898
▁effect	-10.2898
▁breast	-10.2903
▁brace	-10.2905
ya	-10.2907
▁client	-10.2907
▁surely	-10.2908
▁martian	-10.2913
▁gunshot	-10.2913
▁sport	-10.2914
▁ar	-10.2915
▁port	-10.2927
▁begins	-10.2929
▁cri	-10.2935
▁pill	-10.2937
▁transfer	-10.2959
▁bon	-10.2962
ps	-10.2966
ug	-10.298
ium	-10.2989
▁ld	-10.3023
ta	-10.3027
▁trail	-10.3039
▁affect	-10.3053
▁recommend	-10.3055
▁rob	-10.3059
▁guarantee	-10.3064
▁announce	-10.3065
end	-10.3065
▁sec	-10.3065
ical	-10.3066
▁arrange	-10.3067
▁retire	-10.3067
▁invite	-10.3068
▁wlll	-10.3075
▁acts	-10.3075
▁we	-10.3075
▁particular	-10.3077
▁immediate	-10.3078
▁africa	-10.3083
▁sandwich	-10.3085
through	-10.3085
▁ego	-10.3086
▁mob	-10.309
▁helm	-10.309
▁temple	-10.3091
▁favour	-10.3091
▁ambassador	-10.3091
▁beloved	-10.3091
▁envelope	-10.3091
▁happiness	-10.3091
▁isengard	-10.3091
▁juilliard	-10.3091
▁library	-10.3091
▁louisiana	-10.3091
▁magarri	-10.3091
▁material	-10.3091
▁outfit	-10.3091
▁rebuild	-10.3091
▁saturday	-10.3091
▁society	-10.3091
▁supreme	-10.3091
▁survival	-10.3091
▁trophy	-10.3091
▁vacuum	-10.3091
▁volunteer	-10.3091
▁wadia	-10.3091
▁article	-10.3091
▁cmon	-10.3091
▁doyle	-10.3091
▁gracchus	-10.3091
▁lainie	-10.3091
▁sophie	-10.3091
▁wicked	-10.3091
▁attitude	-10.3091
▁cadet	-10.3091
▁withdraw	-10.3091
▁bodies	-10.3091
▁interrupt	-10.3091
▁faramir	-10.3091
▁wangdu	-10.3091
▁cheek	-10.3091
▁peanut	-10.3092
▁tumor	-10.3092
▁sequence	-10.3092
▁cigarette	-10.3092
▁governor	-10.3092
▁jj	-10.3092
▁gimli	-10.3092
▁sobs	-10.3092
▁comment	-10.3092
▁punishment	-10.3092
▁generous	-10.3092
▁foul	-10.3092
▁babies	-10.3092
▁curious	-10.3092
▁changing	-10.3092
▁atf	-10.3092
▁dignity	-10.3092
▁eddie	-10.3092
▁email	-10.3092
▁sosa	-10.3092
▁lover	-10.3092
▁towel	-10.3092
▁boring	-10.3092
▁humor	-10.3092
▁terrified	-10.3093
▁disaster	-10.3093
▁surgery	-10.3093
▁concert	-10.3093
▁bravo	-10.3093
▁lima	-10.3093
▁dragonhead	-10.3093
▁pink	-10.3093
▁mick	-10.3093
nderson	-10.3094
▁weakness	-10.3094
▁remarkable	-10.3094
▁plow	-10.3094
▁ceremony	-10.3095
▁filthy	-10.3095
▁thick	-10.3095
▁arrangement	-10.3095
▁gunther	-10.3095
▁marian	-10.3096
▁unlock	-10.3097
▁callahan	-10.3098
▁apply	-10.3098
▁jay	-10.3099
▁campus	-10.3099
▁mercy	-10.3099
▁ink	-10.3101
▁rode	-10.3102
▁determined	-10.3104
▁exclaiming	-10.3104
▁impression	-10.3106
▁robert	-10.3106
▁hitting	-10.3107
▁humanity	-10.3107
▁quest	-10.3107
▁switches	-10.311
▁mansion	-10.311
▁murmuring	-10.3111
▁kate	-10.3112
▁vice	-10.3113
▁circumstances	-10.3114
▁drawn	-10.3114
▁kim	-10.3114
▁gathered	-10.3114
▁math	-10.3118
de	-10.3119
▁provided	-10.3119
▁fried	-10.3121
▁madame	-10.3121
▁raya	-10.3123
▁instructions	-10.3128
▁divas	-10.3128
▁wln	-10.3129
▁hopeless	-10.313
▁howdy	-10.3133
▁suffered	-10.3135
▁cane	-10.3141
▁creamy	-10.3142
▁designer	-10.3151
▁driven	-10.3157
ier	-10.3161
▁thankyou	-10.3173
▁compete	-10.3175
▁wishes	-10.3178
ag	-10.3181
▁gra	-10.3181
▁everyones	-10.3186
▁pretending	-10.3193
▁yay	-10.3207
▁shots	-10.3212
▁imagined	-10.3214
▁accepted	-10.3215
▁bust	-10.3216
▁pillars	-10.3231
red	-10.3232
nny	-10.3235
▁moves	-10.3249
▁ana	-10.3252
▁options	-10.326
▁cam	-10.3266
▁knocked	-10.3274
▁carrying	-10.3276
▁reaching	-10.3277
▁route	-10.3291
▁waited	-10.332
▁fields	-10.3327
▁falls	-10.3334
▁comet	-10.3344
▁bees	-10.3351
▁officials	-10.3364
▁fort	-10.337
▁suits	-10.3384
▁wipe	-10.3387
▁touched	-10.339
▁suspects	-10.3393
▁talks	-10.3399
▁changes	-10.3403
▁ears	-10.3411
▁cleaning	-10.3415
▁returning	-10.3429
▁friendly	-10.3437
izing	-10.3456
minus	-10.3463
▁trusted	-10.3486
▁tr	-10.3489
▁touching	-10.3493
▁bug	-10.3499
ated	-10.3517
di	-10.3528
▁pr	-10.3533
▁nations	-10.354
▁carly	-10.3552
▁judges	-10.3559
com	-10.3609
▁promises	-10.3609
card	-10.3616
▁severe	-10.368
▁shout	-10.3692
▁arrive	-10.3694
▁claim	-10.3701
ped	-10.3702
▁require	-10.3717
▁ro	-10.3721
▁pale	-10.3722
▁bike	-10.3725
▁amount	-10.3729
▁ladder	-10.3729
▁orphan	-10.3736
▁magazine	-10.3736
▁checking	-10.3738
ied	-10.374
▁indian	-10.3741
▁arrow	-10.3741
▁effort	-10.3743
▁option	-10.3745
▁egg	-10.3748
▁lo	-10.375
▁container	-10.3751
▁chuckle	-10.3753
▁cave	-10.3755
▁rate	-10.3767
▁lookin	-10.3775
▁archer	-10.3775
▁flower	-10.3775
q	-10.3783
▁shar	-10.3791
▁parts	-10.3798
▁media	-10.3829
tch	-10.383
▁confirm	-10.3843
▁hip	-10.3844
▁windows	-10.3845
▁tanks	-10.3845
▁mud	-10.3854
rin	-10.3856
▁ko	-10.3866
▁pats	-10.3867
▁positions	-10.3875
▁scatter	-10.3877
▁comm	-10.3877
▁drill	-10.3887
▁talent	-10.3888
town	-10.3888
▁reward	-10.389
▁player	-10.3909
▁essential	-10.391
▁smooth	-10.3911
▁incredibl	-10.3913
▁branch	-10.3918
ville	-10.3922
▁sara	-10.3923
▁cruel	-10.3923
▁beautif	-10.3924
▁visual	-10.3924
▁motor	-10.3924
▁philip	-10.3925
▁increasing	-10.3925
▁instinct	-10.3925
▁radar	-10.3925
▁antoninus	-10.3925
▁arguing	-10.3925
▁arrival	-10.3925
▁ashamed	-10.3925
▁atlanta	-10.3925
▁baracus	-10.3925
▁beethoven	-10.3925
▁brooklyn	-10.3925
▁deepcore	-10.3925
▁delicious	-10.3925
▁dolores	-10.3925
▁exercise	-10.3925
▁facility	-10.3925
▁gambling	-10.3925
▁gamora	-10.3925
▁holiday	-10.3925
▁inaudible	-10.3925
▁marlak	-10.3925
▁opponent	-10.3925
▁opposite	-10.3925
▁phase	-10.3925
▁pronounce	-10.3925
▁radiation	-10.3925
▁reputation	-10.3925
▁revving	-10.3925
▁scheme	-10.3925
▁summon	-10.3925
▁thursday	-10.3925
▁unknown	-10.3925
▁virtue	-10.3925
▁voyles	-10.3925
▁walkabout	-10.3925
▁anytime	-10.3925
▁encrypt	-10.3925
▁exciting	-10.3925
▁judy	-10.3925
▁tatsi	-10.3925
▁ventura	-10.3925
▁boston	-10.3925
▁holmes	-10.3925
▁mostly	-10.3925
▁profit	-10.3925
▁titties	-10.3925
▁agency	-10.3925
▁repair	-10.3925
▁jonah	-10.3925
▁creep	-10.3925
▁steam	-10.3925
▁tirith	-10.3925
▁blah	-10.3925
▁surveillance	-10.3925
▁employee	-10.3925
▁humming	-10.3925
▁grey	-10.3925
▁argue	-10.3925
▁bingo	-10.3925
▁flank	-10.3925
▁television	-10.3925
▁wormhole	-10.3925
▁false	-10.3925
▁await	-10.3925
▁throne	-10.3925
▁cuba	-10.3925
▁thieves	-10.3925
▁judgment	-10.3925
▁honks	-10.3925
▁balance	-10.3925
▁admiral	-10.3925
▁bucket	-10.3925
▁spacecraft	-10.3925
▁sald	-10.3925
▁peacekeepers	-10.3925
▁easier	-10.3925
▁newspaper	-10.3926
▁chef	-10.3926
▁existence	-10.3926
▁kali	-10.3926
▁hlm	-10.3926
▁loan	-10.3926
▁begun	-10.3926
▁value	-10.3926
▁diner	-10.3927
▁bryan	-10.3927
▁item	-10.3927
▁jammer	-10.3927
▁possession	-10.3927
▁bail	-10.3928
▁dropping	-10.3928
▁geek	-10.3928
▁footage	-10.3928
▁flies	-10.3929
▁potatoes	-10.3929
▁practically	-10.3929
▁rifle	-10.3929
▁squeeze	-10.393
▁clattering	-10.3931
▁lonely	-10.3931
▁version	-10.3931
▁aye	-10.3932
▁johnny	-10.3933
▁moral	-10.3933
▁groom	-10.3933
▁relations	-10.3934
▁rice	-10.3934
▁homework	-10.3936
▁bugger	-10.3937
▁beaten	-10.3939
▁captured	-10.3941
▁factor	-10.3941
▁hiller	-10.3944
▁dot	-10.3945
▁wailing	-10.3946
▁factory	-10.3946
▁narrow	-10.3946
▁officially	-10.3948
▁divorced	-10.3948
▁developed	-10.3951
▁lang	-10.3954
▁chin	-10.3954
▁tits	-10.3954
▁hangman	-10.3956
▁survivors	-10.3965
▁knots	-10.3965
▁boobs	-10.3981
▁cursed	-10.3987
▁el	-10.3992
▁kara	-10.3999
ations	-10.4002
▁blessed	-10.4005
▁responding	-10.4005
ence	-10.4005
gie	-10.4008
▁escaped	-10.4029
▁makeup	-10.403
▁wha	-10.4033
▁winds	-10.4042
ill	-10.4043
▁freaking	-10.405
▁forced	-10.405
▁officers	-10.4052
▁med	-10.4062
▁shave	-10.4066
▁bearing	-10.4075
▁belonged	-10.4076
▁fixed	-10.4078
▁herb	-10.4096
ors	-10.4097
▁boarding	-10.4103
▁mayor	-10.4104
action	-10.4104
ways	-10.4114
nic	-10.4126
▁sch	-10.4132
old	-10.4137
▁hunters	-10.4143
▁exc	-10.4147
tic	-10.4164
ux	-10.4166
▁jumping	-10.4178
▁cleaned	-10.4187
▁covered	-10.4189
▁angels	-10.42
▁dreamed	-10.4211
▁pies	-10.4215
pers	-10.4225
▁pleased	-10.4235
hole	-10.4236
▁humble	-10.4249
▁appears	-10.4257
lson	-10.4267
key	-10.427
▁purchase	-10.4286
▁chugg	-10.4299
▁dl	-10.4302
▁not	-10.4306
▁dreaming	-10.4311
▁mighty	-10.4343
▁breaks	-10.4351
▁pit	-10.4355
▁fails	-10.4372
▁lack	-10.4374
her	-10.4383
art	-10.4388
▁lap	-10.4414
▁moo	-10.4414
▁scar	-10.4415
▁bastards	-10.4434
ette	-10.444
▁ge	-10.4454
▁interfere	-10.4461
▁wat	-10.4475
▁ghosts	-10.4483
▁period	-10.4486
▁minor	-10.4502
ability	-10.4505
▁print	-10.4508
five	-10.455
▁cared	-10.457
▁unto	-10.457
ang	-10.4571
▁bang	-10.4575
▁notes	-10.4579
▁dragons	-10.4582
▁ant	-10.4601
▁cock	-10.4603
▁bills	-10.4616
▁waters	-10.4619
▁spit	-10.4635
▁treasure	-10.4637
▁demand	-10.4645
▁tug	-10.4646
▁nut	-10.4648
ell	-10.4649
▁bra	-10.4651
▁farmer	-10.4664
▁souls	-10.4664
▁folk	-10.4665
▁generation	-10.4666
looking	-10.4711
kh	-10.4716
▁woo	-10.4725
use	-10.4743
▁prom	-10.4756
▁tables	-10.4764
itates	-10.4785
▁prevent	-10.4796
▁link	-10.4798
point	-10.4802
▁betray	-10.4803
▁profession	-10.4805
▁cape	-10.4805
▁disgrace	-10.4807
wise	-10.4807
▁concentrate	-10.4808
▁restore	-10.4808
▁rescue	-10.4809
▁faint	-10.4819
▁propose	-10.482
▁dash	-10.4821
▁under	-10.4822
ens	-10.4824
▁environment	-10.4826
▁russia	-10.4826
▁nasa	-10.4828
▁react	-10.4829
▁mille	-10.483
▁opera	-10.4831
▁stubborn	-10.4833
▁vil	-10.4833
▁awkward	-10.4834
▁extend	-10.4834
▁fabric	-10.4834
▁potential	-10.4834
▁stream	-10.4834
▁almighty	-10.4834
▁ambulance	-10.4834
▁arwen	-10.4834
▁assault	-10.4834
▁atlantic	-10.4834
▁bhai	-10.4834
▁britani	-10.4834
▁cleveland	-10.4834
▁counsel	-10.4834
▁cybertron	-10.4834
▁despite	-10.4834
▁edmunds	-10.4834
▁einhorn	-10.4834
▁flavor	-10.4834
▁florida	-10.4834
▁garcia	-10.4834
▁gordon	-10.4834
▁hartley	-10.4834
▁hector	-10.4834
▁hehhehheh	-10.4834
▁illegal	-10.4834
▁isolate	-10.4834
▁joust	-10.4834
▁luggage	-10.4834
▁marcellus	-10.4834
▁minuti	-10.4834
▁napoleon	-10.4834
▁pittsburgh	-10.4834
▁possibility	-10.4834
▁saturn	-10.4834
▁stadium	-10.4834
▁swedish	-10.4834
▁terribly	-10.4834
▁trask	-10.4834
▁trevor	-10.4834
▁vision	-10.4834
▁wheirdicht	-10.4834
▁wisdom	-10.4834
▁yakul	-10.4834
▁cassie	-10.4834
▁charging	-10.4834
▁everdeen	-10.4834
▁ironworks	-10.4834
▁permanent	-10.4834
▁salad	-10.4834
▁smiling	-10.4834
egrin	-10.4834
▁bosco	-10.4834
▁bialy	-10.4834
▁legolas	-10.4834
▁neighborhood	-10.4834
▁conscience	-10.4834
▁aisle	-10.4834
▁ordinary	-10.4834
▁behalf	-10.4834
▁obey	-10.4834
▁invisible	-10.4834
▁financial	-10.4834
▁purple	-10.4834
▁billionaire	-10.4834
▁behavior	-10.4834
▁riley	-10.4834
▁riend	-10.4834
▁buried	-10.4834
▁detach	-10.4834
▁flew	-10.4834
▁couch	-10.4834
▁insurance	-10.4834
▁choking	-10.4834
▁imagination	-10.4834
▁depth	-10.4834
▁overcome	-10.4834
▁submit	-10.4834
▁families	-10.4834
▁alice	-10.4834
▁estate	-10.4834
▁bullseye	-10.4834
▁facing	-10.4834
▁spice	-10.4834
▁graduation	-10.4834
▁chapter	-10.4834
▁allah	-10.4834
▁begged	-10.4834
▁violation	-10.4834
▁infinite	-10.4835
▁roland	-10.4835
▁rosie	-10.4835
▁admire	-10.4835
▁flour	-10.4835
▁academy	-10.4835
▁harry	-10.4835
▁honking	-10.4835
▁penalty	-10.4835
▁nearby	-10.4835
▁update	-10.4835
▁permit	-10.4835
▁slice	-10.4835
▁aboard	-10.4835
▁election	-10.4835
▁narrator	-10.4835
▁waking	-10.4835
▁jackson	-10.4835
▁moria	-10.4835
▁fanny	-10.4835
▁daisy	-10.4836
▁neat	-10.4836
▁portland	-10.4836
▁brick	-10.4836
▁dora	-10.4836
▁supper	-10.4836
▁hatred	-10.4836
▁plot	-10.4836
▁distraction	-10.4836
▁upside	-10.4836
▁identity	-10.4836
▁psychological	-10.4836
▁charity	-10.4836
▁claus	-10.4836
▁samoan	-10.4836
▁choke	-10.4836
▁tung	-10.4836
▁touchdown	-10.4837
▁oblige	-10.4837
▁rally	-10.4837
▁romance	-10.4838
▁treatment	-10.4838
▁significant	-10.4838
▁hy	-10.4839
▁related	-10.4839
▁injured	-10.4839
▁define	-10.4839
▁dna	-10.4839
▁snoring	-10.484
▁draft	-10.4841
▁bedtime	-10.4842
▁wallet	-10.4843
▁bandit	-10.4843
▁depressed	-10.4843
▁blonde	-10.4844
▁armies	-10.4845
▁haha	-10.4845
▁drama	-10.4845
▁recently	-10.4845
▁mankind	-10.4846
▁dutch	-10.4847
▁planned	-10.4848
▁thirsty	-10.4848
▁hysterical	-10.4848
▁clothing	-10.4849
▁squealing	-10.4849
▁coal	-10.485
▁badge	-10.4852
▁successful	-10.4853
▁wheeler	-10.4853
thic	-10.4853
▁shine	-10.4857
▁bait	-10.4859
▁whooping	-10.4859
▁reasonable	-10.486
▁canceled	-10.4861
▁ticking	-10.4862
▁chanting	-10.4862
▁bald	-10.4864
▁abandoned	-10.4864
▁gates	-10.4865
▁drowning	-10.4867
▁batter	-10.4867
▁photographer	-10.4872
▁wounded	-10.4877
▁lara	-10.4878
▁nervously	-10.4879
▁kisses	-10.4882
▁sweater	-10.4886
▁granted	-10.489
▁solved	-10.4891
▁movement	-10.4892
▁terms	-10.4895
▁products	-10.4896
▁tlg	-10.4902
▁painted	-10.4902
▁disappeared	-10.4902
▁moms	-10.4903
▁smarter	-10.4911
▁airlines	-10.4931
▁carefully	-10.494
▁chit	-10.4944
▁airplanes	-10.4966
▁drawer	-10.4977
▁tracking	-10.4981
▁thy	-10.4985
▁cookies	-10.4989
▁messed	-10.4996
▁borders	-10.5001
▁depends	-10.5001
▁dolphins	-10.5001
▁burns	-10.5006
▁drinks	-10.5008
▁embrace	-10.5014
▁ding	-10.5015
▁husbands	-10.5019
▁sentence	-10.5033
▁efforts	-10.5037
▁timing	-10.5039
▁selling	-10.5041
▁feelin	-10.5049
▁jo	-10.506
▁theme	-10.5065
▁ka	-10.5105
li	-10.5115
▁colon	-10.5117
▁gus	-10.5139
fusion	-10.5157
▁walt	-10.5165
▁sis	-10.5169
▁sams	-10.5186
illam	-10.5194
rt	-10.5196
two	-10.5207
▁tunnels	-10.5215
ept	-10.5216
▁grades	-10.5233
fe	-10.5282
▁reminds	-10.5286
po	-10.5303
eth	-10.5304
▁blocks	-10.5304
▁inter	-10.5304
lou	-10.5306
▁jan	-10.5306
ten	-10.5311
▁nap	-10.5341
ung	-10.5381
lar	-10.5385
the	-10.5395
ess	-10.5467
lie	-10.5487
▁nu	-10.5505
▁pl	-10.5511
val	-10.5525
▁hurting	-10.5535
ide	-10.5545
▁lords	-10.5549
▁arts	-10.555
ardi	-10.5557
▁powering	-10.5568
▁kin	-10.5571
▁nurses	-10.5578
▁via	-10.558
▁va	-10.5622
ator	-10.5627
▁soap	-10.5637
▁valuable	-10.5639
▁procedure	-10.5642
▁lizard	-10.5642
▁traitor	-10.5642
▁saint	-10.5645
▁muslim	-10.5645
▁mutant	-10.5649
▁dolphin	-10.5652
▁border	-10.5652
▁depend	-10.5652
▁missile	-10.5653
▁autobot	-10.5656
▁boot	-10.5656
▁rebel	-10.5658
▁pillar	-10.566
▁coin	-10.5661
▁rope	-10.5665
▁aj	-10.5678
che	-10.5681
▁whip	-10.5698
▁wis	-10.5708
▁shove	-10.5713
star	-10.5736
down	-10.5741
▁mutt	-10.5742
▁figures	-10.5743
▁gain	-10.5745
▁abandon	-10.575
▁pour	-10.5756
▁tale	-10.5775
ik	-10.5776
▁meter	-10.5778
▁continu	-10.578
room	-10.5787
▁wast	-10.5787
▁sink	-10.5788
▁publish	-10.5788
book	-10.5794
▁escort	-10.5796
▁stretch	-10.5797
▁inform	-10.5797
▁organ	-10.5799
▁insist	-10.5801
▁walks	-10.5801
▁delay	-10.5802
what	-10.5802
john	-10.5804
four	-10.5804
tion	-10.5806
▁divorce	-10.581
▁rwanda	-10.5814
▁shoe	-10.5815
▁receive	-10.5817
▁constant	-10.5819
▁instant	-10.582
▁fitz	-10.582
▁guilt	-10.582
izz	-10.5824
▁element	-10.5825
▁india	-10.5826
boy	-10.5829
▁pum	-10.5829
▁confess	-10.5831
▁coco	-10.5831
▁pacific	-10.5832
ying	-10.5832
▁leak	-10.5833
▁audrey	-10.5834
▁average	-10.5834
▁baghdad	-10.5834
▁barbecue	-10.5834
▁berkeley	-10.5834
▁bicycle	-10.5834
▁brandnew	-10.5834
▁brigman	-10.5834
▁canada	-10.5834
▁capital	-10.5834
▁comanche	-10.5834
▁darwin	-10.5834
▁eiffel	-10.5834
▁elephant	-10.5834
▁elevator	-10.5834
▁entrance	-10.5834
▁fifteen	-10.5834
▁ghul	-10.5834
▁gregoire	-10.5834
▁harbor	-10.5834
▁hurricane	-10.5834
▁identify	-10.5834
▁ignition	-10.5834
▁inspiring	-10.5834
▁iraq	-10.5834
▁jocelyn	-10.5834
▁lichtenstein	-10.5834
▁maitland	-10.5834
▁mcbain	-10.5834
▁mccain	-10.5834
▁nahoko	-10.5834
▁orgocorp	-10.5834
▁rastogi	-10.5834
▁regina	-10.5834
▁rivendell	-10.5834
▁rizu	-10.5834
▁rumbles	-10.5834
▁schmidt	-10.5834
▁schuyler	-10.5834
▁sixteen	-10.5834
▁tremendous	-10.5834
▁vallelonga	-10.5834
▁yield	-10.5834
▁zephyr	-10.5834
▁zhou	-10.5834
▁zodiac	-10.5834
ucci	-10.5834
▁pierce	-10.5834
▁adult	-10.5834
▁gracious	-10.5834
▁ounce	-10.5834
▁zakir	-10.5834
▁muttering	-10.5834
▁application	-10.5834
▁intercept	-10.5834
▁rottingham	-10.5834
▁stomach	-10.5834
▁inspector	-10.5834
▁forbidden	-10.5834
▁patience	-10.5834
▁network	-10.5834
▁silk	-10.5834
▁pistol	-10.5834
▁principal	-10.5834
▁shelf	-10.5834
▁doris	-10.5834
▁sheep	-10.5834
▁downtown	-10.5834
▁slick	-10.5834
▁lounge	-10.5834
▁lipstick	-10.5834
▁childhood	-10.5834
▁rainbow	-10.5834
▁sauce	-10.5834
▁bronze	-10.5834
▁google	-10.5834
▁qian	-10.5834
▁garage	-10.5834
▁marvelous	-10.5834
▁strut	-10.5834
▁hissing	-10.5835
▁evolutionary	-10.5835
▁community	-10.5835
▁ezra	-10.5835
▁morse	-10.5835
▁mitchell	-10.5835
▁civilization	-10.5835
▁dummy	-10.5835
▁thatcher	-10.5835
▁clapping	-10.5835
▁intention	-10.5835
▁overnight	-10.5835
▁hahaha	-10.5835
▁vickie	-10.5835
▁arena	-10.5835
▁wreck	-10.5835
▁incoming	-10.5835
▁luis	-10.5835
▁championship	-10.5835
▁abuse	-10.5835
▁shopping	-10.5835
▁deaf	-10.5835
▁palace	-10.5835
▁dldnt	-10.5835
▁barrel	-10.5836
▁coma	-10.5836
▁interpreter	-10.5836
▁conquer	-10.5836
▁conspiracy	-10.5836
▁wilhemina	-10.5836
▁countries	-10.5836
▁beef	-10.5836
▁nonny	-10.5836
▁panem	-10.5836
▁mason	-10.5837
▁whale	-10.5837
▁spotted	-10.5837
▁quote	-10.5838
▁colt	-10.5839
▁logan	-10.5839
▁adopt	-10.5839
▁century	-10.5839
▁cue	-10.5839
▁coke	-10.5839
▁rah	-10.5839
▁curt	-10.584
▁disappointed	-10.584
▁collection	-10.584
▁sim	-10.5841
▁relative	-10.5842
▁praise	-10.5842
▁appropriate	-10.5842
▁slipped	-10.5843
▁teenager	-10.5843
▁commissioner	-10.5843
▁bored	-10.5844
▁transform	-10.5844
▁penis	-10.5845
▁label	-10.5846
▁noon	-10.5846
▁attend	-10.5847
▁linger	-10.5847
▁uhuh	-10.5847
▁clearance	-10.5848
▁distracted	-10.585
▁silencer	-10.585
▁countless	-10.5851
▁fleet	-10.5852
▁cells	-10.5852
▁freakin	-10.5852
▁tempt	-10.5854
▁arab	-10.5855
▁fold	-10.5855
▁frightened	-10.5857
▁yah	-10.5859
▁ez	-10.5861
▁rash	-10.5862
▁supplies	-10.5863
▁gramps	-10.5864
▁impressed	-10.5864
▁showtime	-10.5866
▁thrusters	-10.5866
ple	-10.5869
▁surrounding	-10.587
▁whimpering	-10.5874
▁muff	-10.5874
▁gathering	-10.5874
▁useless	-10.5875
▁butcher	-10.5877
▁hunger	-10.5879
▁pouring	-10.5879
▁threatened	-10.5881
▁latest	-10.5885
▁drilling	-10.5889
▁sieg	-10.5889
▁shocked	-10.5889
▁drum	-10.589
▁hitch	-10.589
▁settled	-10.5897
▁thrown	-10.5897
▁disturb	-10.5902
▁sheets	-10.5902
▁sat	-10.5904
▁socks	-10.5906
▁mentioned	-10.5908
▁runway	-10.5913
▁digg	-10.5914
▁zed	-10.5919
min	-10.5921
▁residents	-10.5922
▁choi	-10.5923
▁wally	-10.5926
▁revs	-10.5927
▁added	-10.5929
▁crossed	-10.593
▁bandy	-10.5937
▁freaked	-10.5946
▁duel	-10.5955
▁docking	-10.5957
▁accounting	-10.5957
▁thee	-10.5958
ff	-10.5959
▁crashing	-10.5961
▁pods	-10.5961
▁ven	-10.5971
▁worthy	-10.5976
▁yards	-10.598
▁scouts	-10.5981
▁eva	-10.5981
▁packed	-10.5989
▁passengers	-10.6
▁ras	-10.6001
▁grass	-10.6002
▁asses	-10.6015
▁suggesting	-10.6018
table	-10.6033
▁messages	-10.6038
aft	-10.6043
▁packing	-10.6043
▁parking	-10.6047
▁congratulate	-10.605
▁ach	-10.6058
▁curve	-10.6064
▁sto	-10.6067
ner	-10.6068
▁terror	-10.6068
▁hack	-10.6075
hr	-10.6076
▁safely	-10.6084
▁honored	-10.6095
▁skills	-10.6098
▁cows	-10.6098
▁creat	-10.6103
▁ca	-10.6117
▁players	-10.6118
▁dig	-10.6138
▁imma	-10.6155
mate	-10.6181
▁nat	-10.6192
▁kissing	-10.6198
▁sounded	-10.6214
▁mac	-10.6224
tz	-10.6274
▁whi	-10.628
▁answered	-10.628
▁romans	-10.6297
▁and	-10.6297
tha	-10.6317
▁deadly	-10.6323
od	-10.6323
▁burge	-10.6334
ou	-10.6344
ible	-10.6358
▁levels	-10.6397
our	-10.6403
air	-10.6411
▁corn	-10.6415
▁ne	-10.6416
itched	-10.6427
▁conversations	-10.6458
▁pledge	-10.6482
▁aliens	-10.6518
▁mont	-10.6526
▁assholes	-10.6538
ction	-10.6551
ob	-10.6559
▁grows	-10.6561
▁wit	-10.6567
▁dip	-10.6575
let	-10.6585
▁mag	-10.6595
▁trauma	-10.662
ire	-10.664
▁queens	-10.6644
▁ward	-10.6651
ike	-10.6655
▁sail	-10.6658
▁damned	-10.666
▁ren	-10.6671
▁lu	-10.6675
▁spirits	-10.668
ship	-10.6694
rine	-10.6698
oke	-10.6728
▁pound	-10.6738
ong	-10.6741
▁snack	-10.6747
▁cuff	-10.675
▁hostage	-10.675
▁channel	-10.6753
▁standard	-10.6753
▁represent	-10.6756
▁receipt	-10.6756
▁civilian	-10.6757
▁explode	-10.6759
ery	-10.6759
▁rec	-10.6759
▁astronaut	-10.6761
▁partners	-10.6762
▁passenger	-10.6762
▁toy	-10.6763
▁detail	-10.6767
▁cookie	-10.6769
▁cloud	-10.677
▁highp	-10.6771
und	-10.6774
▁dollar	-10.6776
▁civil	-10.6794
▁direction	-10.6803
▁dancer	-10.682
▁andis	-10.6825
▁prisoner	-10.6825
pe	-10.6827
▁gather	-10.6833
va	-10.6841
pl	-10.6842
▁poet	-10.6847
▁follows	-10.685
▁pos	-10.6852
▁stan	-10.6855
▁blinkin	-10.6857
▁develop	-10.6859
▁rider	-10.6877
my	-10.6879
work	-10.6884
▁boost	-10.6894
minute	-10.69
▁bleed	-10.6902
▁whimper	-10.6903
▁impress	-10.6906
▁cancel	-10.6911
weight	-10.6913
ight	-10.6921
▁virginia	-10.6921
hut	-10.6925
▁thrust	-10.6929
▁thirst	-10.6929
▁recent	-10.6933
fight	-10.6933
▁commission	-10.6934
▁unlike	-10.6938
made	-10.6939
▁diplomat	-10.6942
▁conduct	-10.6942
▁junk	-10.6943
▁ange	-10.6943
▁mornin	-10.6944
▁stereo	-10.6945
▁hydro	-10.6945
▁liquid	-10.6945
▁triumph	-10.6945
▁wharf	-10.6945
▁appetite	-10.6945
▁armstrong	-10.6945
▁avenue	-10.6945
▁balcony	-10.6945
▁bargain	-10.6945
▁belief	-10.6945
▁beneath	-10.6945
▁blonsky	-10.6945
▁bmw	-10.6945
▁britain	-10.6945
▁brundusium	-10.6945
▁buffalo	-10.6945
▁carlisle	-10.6945
▁cheyenne	-10.6945
▁clerk	-10.6945
▁contlnue	-10.6945
▁corporal	-10.6945
▁council	-10.6945
▁deploy	-10.6945
▁division	-10.6945
▁ector	-10.6945
▁embassy	-10.6945
▁emilie	-10.6945
▁endurance	-10.6945
▁episode	-10.6945
▁evaluation	-10.6945
▁fortress	-10.6945
▁galaxy	-10.6945
▁glimpse	-10.6945
▁harvard	-10.6945
▁hercules	-10.6945
▁lamb	-10.6945
▁lawsuit	-10.6945
▁liebkind	-10.6945
▁lobster	-10.6945
▁mademoiselle	-10.6945
▁maximum	-10.6945
▁modern	-10.6945
▁motorcycle	-10.6945
▁munich	-10.6945
▁nebula	-10.6945
▁nietzsche	-10.6945
▁outnumbered	-10.6945
▁override	-10.6945
▁policy	-10.6945
▁pompey	-10.6945
▁pruitt	-10.6945
▁reunion	-10.6945
▁semester	-10.6945
▁serving	-10.6945
▁sesterces	-10.6945
▁spleen	-10.6945
▁studies	-10.6945
▁succeed	-10.6945
▁therefore	-10.6945
▁thumping	-10.6945
▁volume	-10.6945
▁daggett	-10.6945
▁ease	-10.6945
▁fourteen	-10.6945
▁greetings	-10.6945
▁random	-10.6945
▁tattoo	-10.6945
▁courtney	-10.6945
▁hineman	-10.6945
▁possibilities	-10.6945
▁actress	-10.6945
▁gilbert	-10.6945
▁harvest	-10.6945
▁finnick	-10.6945
▁gratitude	-10.6945
▁competition	-10.6945
▁warren	-10.6945
▁buddies	-10.6945
▁neuf	-10.6945
▁thornfield	-10.6945
▁stabbed	-10.6945
▁herald	-10.6945
▁collar	-10.6945
▁disappointment	-10.6945
▁mantis	-10.6945
▁terrific	-10.6945
▁multiple	-10.6945
▁carried	-10.6945
▁valor	-10.6945
▁advantage	-10.6945
▁purse	-10.6945
▁begging	-10.6945
▁repeatedly	-10.6945
▁rude	-10.6945
▁accent	-10.6945
▁previous	-10.6945
▁basic	-10.6945
▁powder	-10.6945
▁rustling	-10.6945
▁transmitter	-10.6945
▁nazi	-10.6945
▁series	-10.6945
▁descent	-10.6945
martial	-10.6945
▁zap	-10.6945
▁favourite	-10.6945
▁misery	-10.6945
▁visa	-10.6946
▁monkey	-10.6946
▁distress	-10.6946
▁adolf	-10.6946
▁debris	-10.6946
▁strawberry	-10.6946
▁smack	-10.6946
▁pepper	-10.6946
▁fellowship	-10.6946
▁laundry	-10.6946
▁retirement	-10.6946
▁heather	-10.6946
▁chew	-10.6946
▁resistance	-10.6947
▁uptown	-10.6947
▁performance	-10.6947
▁paperwork	-10.6947
ndez	-10.6947
▁boil	-10.6947
▁karen	-10.6947
▁commitment	-10.6947
▁massage	-10.6947
▁maneuver	-10.6947
▁dotson	-10.6947
▁overhead	-10.6947
▁wagon	-10.6947
▁parade	-10.6947
▁structure	-10.6947
▁blight	-10.6947
▁attractive	-10.6947
▁confirmation	-10.6947
▁soar	-10.6948
▁announcement	-10.6948
▁becky	-10.6948
▁budget	-10.6948
▁motion	-10.6948
▁profile	-10.6948
▁fever	-10.6948
▁reg	-10.6948
▁worm	-10.6949
▁shoutlng	-10.6949
▁extraction	-10.6949
▁july	-10.6949
▁relieved	-10.6949
▁franklin	-10.695
▁foolish	-10.695
▁beau	-10.6951
▁hunterson	-10.6951
▁sync	-10.6951
▁allies	-10.6951
▁scrapp	-10.6951
▁dismissed	-10.6951
▁production	-10.6951
▁grandmother	-10.6951
▁baseball	-10.6952
▁bolt	-10.6952
▁whore	-10.6952
vous	-10.6952
▁objective	-10.6952
▁macho	-10.6952
▁seo	-10.6953
▁scooter	-10.6953
▁wealthy	-10.6953
▁float	-10.6953
▁fatty	-10.6954
▁subway	-10.6954
▁tooth	-10.6955
▁fraud	-10.6955
▁offend	-10.6956
▁pupp	-10.6956
▁fond	-10.6956
▁ashes	-10.6957
▁assigned	-10.6957
▁politics	-10.6957
▁doll	-10.6958
▁roaring	-10.6958
▁solo	-10.6959
▁depressing	-10.6961
▁module	-10.6962
▁ahem	-10.6962
▁colony	-10.6963
▁background	-10.6964
▁worthless	-10.6964
▁detected	-10.6965
▁bitter	-10.6965
▁cutting	-10.6965
▁carol	-10.6965
fire	-10.6966
▁hawk	-10.6966
▁reduce	-10.6968
▁tucker	-10.6969
▁roommate	-10.6971
▁punches	-10.6972
▁rear	-10.6972
▁policeman	-10.6973
▁thus	-10.6974
▁wei	-10.6974
▁auto	-10.6976
▁mechanical	-10.6979
sa	-10.6981
▁trace	-10.6981
▁heroes	-10.6982
▁insisted	-10.6983
▁delayed	-10.6983
▁speaker	-10.6986
▁whens	-10.6987
▁carter	-10.699
▁pounding	-10.6991
▁tail	-10.6992
▁gras	-10.6996
▁chimes	-10.7
▁heels	-10.7001
▁ahh	-10.7001
▁removed	-10.7002
▁banging	-10.7002
▁sealed	-10.7003
▁wars	-10.7005
vin	-10.7005
▁reckon	-10.7011
▁voted	-10.7012
▁kay	-10.7012
▁barks	-10.7014
nat	-10.7015
▁hut	-10.7016
▁bush	-10.702
▁beans	-10.7021
▁gladiators	-10.7022
▁ross	-10.7024
▁passes	-10.7025
▁lawyers	-10.703
▁casting	-10.7037
ld	-10.704
tempo	-10.7043
▁nerves	-10.7044
▁crashed	-10.7051
▁mort	-10.7057
▁lure	-10.7059
▁painting	-10.706
▁dimensions	-10.7066
▁refugees	-10.707
▁sucked	-10.7077
▁tracked	-10.7084
▁tested	-10.7084
▁banks	-10.709
▁treating	-10.7092
▁she	-10.7098
▁orderly	-10.7103
▁bars	-10.7105
▁remaining	-10.7106
▁patriots	-10.7109
▁citizens	-10.7109
▁deeper	-10.711
▁drones	-10.7116
▁astronauts	-10.7132
▁testing	-10.7133
▁transferr	-10.7143
ign	-10.7145
▁entering	-10.715
▁riders	-10.7156
▁pi	-10.7164
▁marked	-10.7172
▁lit	-10.7179
▁indians	-10.7199
▁claims	-10.7199
▁requires	-10.7199
▁arrives	-10.7199
▁whitey	-10.7217
act	-10.7225
▁painful	-10.7225
▁bulls	-10.7227
▁jobs	-10.7229
▁kl	-10.7237
▁writer	-10.7239
▁satellites	-10.7265
▁listened	-10.7267
▁vest	-10.7272
▁hells	-10.7273
▁characters	-10.7287
▁funds	-10.7288
▁shown	-10.7293
▁shoulders	-10.7311
ise	-10.7314
▁alg	-10.7314
▁sin	-10.7323
▁rolling	-10.7327
▁tend	-10.7342
▁will	-10.7342
▁sales	-10.7344
▁wheels	-10.7355
ex	-10.7369
all	-10.737
▁issues	-10.7377
▁quarters	-10.7377
▁rounds	-10.7384
▁cl	-10.7391
▁lads	-10.7401
▁roses	-10.7403
ray	-10.7403
▁fo	-10.741
of	-10.7415
▁protecting	-10.7417
ona	-10.7421
▁criminals	-10.7422
▁covering	-10.7438
▁arch	-10.7445
die	-10.7454
▁interviews	-10.7465
▁ve	-10.7466
▁can	-10.7484
slde	-10.7491
▁accounts	-10.7514
▁signing	-10.7524
▁joining	-10.7526
▁hated	-10.7539
ven	-10.7539
top	-10.7541
▁cla	-10.756
▁fortunate	-10.7583
▁tricks	-10.7609
tine	-10.7613
▁greater	-10.764
ay	-10.7643
▁daggers	-10.7648
▁engineers	-10.7674
▁understanding	-10.7691
▁decisions	-10.7693
▁par	-10.7698
▁tracks	-10.7705
▁sayin	-10.7707
▁trie	-10.7709
ath	-10.773
▁facts	-10.7731
cker	-10.7735
▁pays	-10.7739
▁mines	-10.7741
▁gar	-10.7772
▁ski	-10.778
▁dealing	-10.7794
▁bears	-10.78
tter	-10.784
ah	-10.7845
ization	-10.7849
▁replace	-10.7851
▁sets	-10.7862
for	-10.7869
▁hub	-10.7915
▁loses	-10.7936
▁weigh	-10.7942
▁burst	-10.7944
bag	-10.7951
▁teachers	-10.7953
▁ver	-10.7964
mp	-10.7975
▁kinds	-10.7977
ives	-10.7977
▁hesitate	-10.799
▁williams	-10.7992
lord	-10.7995
den	-10.7996
▁sack	-10.7996
▁ankle	-10.7998
▁owner	-10.7999
▁motive	-10.7999
▁burger	-10.8
▁neighbor	-10.8003
▁genetic	-10.8003
▁scrunt	-10.8003
▁poem	-10.8004
▁spa	-10.8006
▁rogue	-10.8007
▁marine	-10.8007
▁down	-10.8011
▁citizen	-10.8012
▁patriot	-10.8012
▁airplane	-10.8014
▁scout	-10.8015
▁why	-10.8015
▁precog	-10.8016
▁vi	-10.8018
▁turd	-10.8018
▁orc	-10.8019
▁asset	-10.8022
▁drone	-10.8026
▁ent	-10.8027
▁dial	-10.8031
▁yard	-10.8032
gue	-10.8043
▁cable	-10.8046
ries	-10.805
lu	-10.8059
▁bu	-10.8081
▁surprises	-10.8088
▁swallow	-10.8106
▁drown	-10.8107
ral	-10.8111
▁bend	-10.8113
ooh	-10.8115
▁surround	-10.8117
▁cur	-10.8121
▁riches	-10.8129
▁cha	-10.8131
ze	-10.8135
▁labor	-10.8144
▁recover	-10.8145
▁splash	-10.8147
▁accord	-10.8151
▁regard	-10.8152
▁era	-10.8157
like	-10.816
▁breach	-10.816
fried	-10.8164
▁squa	-10.8164
▁connect	-10.8165
▁pur	-10.8167
▁advise	-10.8169
▁capture	-10.8172
▁tub	-10.8177
▁transit	-10.8178
▁fur	-10.8179
▁absolute	-10.8181
▁passionate	-10.8182
▁shrink	-10.8182
▁blond	-10.8183
▁stare	-10.8185
▁keen	-10.8185
▁occasion	-10.8186
▁potato	-10.8189
▁rever	-10.819
▁che	-10.8193
▁evolution	-10.8194
▁steward	-10.8195
▁torn	-10.8195
▁solemn	-10.8195
▁vietnam	-10.8195
▁absorb	-10.8195
▁alliance	-10.8195
▁amateur	-10.8195
▁arriving	-10.8195
▁banana	-10.8195
▁batiatus	-10.8195
▁column	-10.8195
▁concur	-10.8195
▁coochle	-10.8195
▁cradle	-10.8195
▁crixus	-10.8195
▁crust	-10.8195
▁divine	-10.8195
▁dungeon	-10.8195
▁easily	-10.8195
▁expedition	-10.8195
▁forensic	-10.8195
▁forfeit	-10.8195
▁gargantua	-10.8195
▁gelderland	-10.8195
▁gherson	-10.8195
▁grief	-10.8195
▁hammer	-10.8195
▁happily	-10.8195
▁honjo	-10.8195
▁influence	-10.8195
▁inspiration	-10.8195
▁intense	-10.8195
▁kuchever	-10.8195
▁length	-10.8195
▁lorraine	-10.8195
▁massacre	-10.8195
▁milltary	-10.8195
▁mockingjay	-10.8195
▁moscow	-10.8195
▁neptune	-10.8195
▁november	-10.8195
▁oldfashioned	-10.8195
▁operator	-10.8195
▁oscar	-10.8195
▁oxford	-10.8195
▁protocol	-10.8195
▁ritual	-10.8195
▁samurai	-10.8195
▁sausage	-10.8195
▁schmuck	-10.8195
▁scoundrel	-10.8195
▁smurf	-10.8195
▁spencer	-10.8195
▁statue	-10.8195
▁studio	-10.8195
▁teefs	-10.8195
▁texas	-10.8195
▁thermal	-10.8195
▁throttle	-10.8195
▁treasury	-10.8195
▁unacceptable	-10.8195
▁uncomfortable	-10.8195
▁underwear	-10.8195
▁vessel	-10.8195
▁witwicky	-10.8195
▁wullgar	-10.8195
▁accompany	-10.8195
▁appeal	-10.8195
▁doorbell	-10.8195
▁feast	-10.8195
▁odette	-10.8195
▁pleasant	-10.8195
▁spiritual	-10.8195
▁sunshine	-10.8195
▁cardinal	-10.8195
▁collines	-10.8195
▁grind	-10.8195
▁crystal	-10.8195
▁wristwatch	-10.8195
▁enrique	-10.8195
▁governess	-10.8195
▁nigger	-10.8195
▁grip	-10.8195
▁mysterio	-10.8195
▁neuro	-10.8195
▁colvin	-10.8195
▁electron	-10.8195
▁kirby	-10.8195
▁antonio	-10.8195
▁approval	-10.8195
▁carrier	-10.8195
▁display	-10.8195
▁trois	-10.8195
▁lonnie	-10.8195
phop	-10.8195
▁pencil	-10.8195
▁tribute	-10.8195
▁dillings	-10.8195
▁flashlight	-10.8195
▁vocal	-10.8195
▁baggage	-10.8195
▁delta	-10.8195
▁causing	-10.8195
▁dragged	-10.8195
▁error	-10.8195
▁reset	-10.8195
▁negro	-10.8195
▁hostile	-10.8195
▁lecture	-10.8195
▁sprock	-10.8195
▁pursuit	-10.8195
▁elegant	-10.8195
▁celebrating	-10.8196
▁clop	-10.8196
▁skull	-10.8196
▁extension	-10.8196
▁campana	-10.8196
▁ripped	-10.8196
▁pony	-10.8196
▁korea	-10.8196
▁harness	-10.8196
▁leah	-10.8196
▁forehead	-10.8196
▁snoop	-10.8196
▁substitute	-10.8196
▁compassion	-10.8196
▁pavel	-10.8196
▁sympathy	-10.8196
▁apology	-10.8196
▁confident	-10.8196
▁dalton	-10.8196
▁centuries	-10.8196
▁celebration	-10.8196
▁tiger	-10.8196
▁primary	-10.8197
▁satan	-10.8197
▁sunlight	-10.8197
▁blanche	-10.8197
▁destruction	-10.8197
▁loyalty	-10.8197
▁centre	-10.8197
▁quarterback	-10.8197
▁instance	-10.8197
▁corporation	-10.8197
▁nuke	-10.8197
▁cilician	-10.8197
▁session	-10.8197
▁podacter	-10.8197
▁typical	-10.8197
▁stability	-10.8198
▁liz	-10.8198
▁jones	-10.8198
▁valley	-10.8198
▁convoy	-10.8198
▁assignment	-10.8198
▁stepped	-10.8199
▁popular	-10.8199
▁confession	-10.8199
▁myth	-10.8199
▁jess	-10.8199
▁reservation	-10.8199
▁observe	-10.8199
▁atmosphere	-10.8199
inch	-10.8199
▁dice	-10.8199
▁collide	-10.8199
▁creative	-10.82
▁ahab	-10.82
▁precisely	-10.82
▁abel	-10.82
▁hallway	-10.82
▁drew	-10.82
▁nightfall	-10.82
▁dury	-10.82
▁hlt	-10.8201
▁produce	-10.8201
▁debate	-10.8201
▁dickhead	-10.8201
▁engagement	-10.8201
▁promising	-10.8202
▁reactor	-10.8202
▁internal	-10.8202
▁obsessed	-10.8202
▁guido	-10.8202
▁discovery	-10.8202
▁dung	-10.8203
▁molly	-10.8203
▁villagers	-10.8203
▁cabin	-10.8204
▁cain	-10.8205
▁homecoming	-10.8205
▁growth	-10.8205
▁passage	-10.8205
▁lena	-10.8205
▁sickness	-10.8205
▁technically	-10.8205
▁spies	-10.8206
▁madness	-10.8207
▁moro	-10.8207
▁tina	-10.8207
▁weep	-10.8207
life	-10.8208
▁bold	-10.8208
▁extract	-10.8208
▁comedy	-10.8208
▁ura	-10.8208
▁worn	-10.8208
▁operational	-10.8208
▁heartbeat	-10.8208
▁czechs	-10.8209
▁allen	-10.821
▁git	-10.8211
▁marc	-10.8211
▁hen	-10.8212
▁artie	-10.8212
▁tri	-10.8212
▁chopper	-10.8213
▁smoking	-10.8214
▁bam	-10.8214
▁assist	-10.8214
▁organized	-10.8215
▁johnson	-10.8215
▁clanking	-10.8217
▁hose	-10.8217
▁pure	-10.8218
▁psycho	-10.8219
▁particularly	-10.8219
▁stable	-10.8219
▁rabbit	-10.822
▁sie	-10.822
▁embarrassed	-10.822
▁annoying	-10.8222
▁booing	-10.8222
stra	-10.8224
▁crown	-10.8224
▁lex	-10.8226
▁region	-10.8227
ji	-10.8228
▁tender	-10.8228
▁useful	-10.8228
▁embarrassing	-10.8229
▁corpse	-10.823
▁properly	-10.823
▁heights	-10.8233
▁colleagues	-10.8233
▁patents	-10.8233
▁slams	-10.8233
▁twins	-10.8233
▁delivery	-10.8234
▁voter	-10.8235
▁required	-10.8236
▁brownies	-10.8238
▁fry	-10.8241
▁proposed	-10.8241
uveni	-10.8243
▁holo	-10.8243
▁becom	-10.8244
▁originally	-10.8246
▁strongest	-10.8246
▁proven	-10.8246
▁woe	-10.8248
▁dearest	-10.825
▁gotcha	-10.8251
dad	-10.8254
▁busted	-10.8255
▁assured	-10.8256
▁classes	-10.8257
▁jar	-10.8258
▁consequences	-10.8258
▁stammers	-10.8258
▁brakes	-10.8258
▁giggles	-10.8258
▁mistaken	-10.8258
▁are	-10.8263
nation	-10.8263
▁mortal	-10.8264
▁crescen	-10.8265
▁rented	-10.8271
▁meantime	-10.8271
▁warned	-10.8273
▁louder	-10.8276
▁takeoff	-10.8281
▁fades	-10.8283
▁at	-10.8284
▁sy	-10.8289
▁risky	-10.8296
▁bare	-10.8301
▁normally	-10.8302
▁magnet	-10.8303
▁hardest	-10.8305
▁deeds	-10.8308
▁shocking	-10.8322
fl	-10.8324
▁pitch	-10.833
▁singer	-10.8331
▁ll	-10.8332
▁growls	-10.8334
▁concerns	-10.8334
▁quicker	-10.834
▁peel	-10.8349
▁strangely	-10.835
▁tons	-10.835
▁mule	-10.835
▁punched	-10.8352
▁cooking	-10.8353
▁scarf	-10.8357
▁cents	-10.8358
▁bonds	-10.8358
ile	-10.8363
▁blessing	-10.8364
▁studying	-10.837
▁ruining	-10.837
▁char	-10.8382
▁traveled	-10.8383
▁turds	-10.8383
▁persons	-10.8408
▁clouds	-10.8409
▁faces	-10.8415
azy	-10.8419
ular	-10.8421
▁vl	-10.8425
▁boots	-10.8431
▁mutants	-10.8436
▁misses	-10.8447
▁askin	-10.8454
▁bombing	-10.8456
▁enjoyed	-10.8457
▁generations	-10.8459
▁pad	-10.8461
▁prints	-10.8464
lip	-10.847
▁cc	-10.8484
▁arrows	-10.8485
▁ber	-10.8495
▁dates	-10.8496
▁visiting	-10.8506
gram	-10.8508
▁tracker	-10.8509
▁clients	-10.851
▁pages	-10.8511
▁fixing	-10.8519
▁pressing	-10.853
▁grabb	-10.8539
▁my	-10.8552
▁boxing	-10.8556
▁experts	-10.8561
uk	-10.8561
▁sleeps	-10.8565
▁closely	-10.8568
▁rap	-10.8573
ok	-10.8576
▁reporting	-10.8581
▁einons	-10.8586
▁sting	-10.8587
▁demo	-10.8588
▁minds	-10.8589
lm	-10.8591
lfe	-10.8594
▁stab	-10.8594
▁ac	-10.861
▁grounds	-10.8623
▁murderers	-10.8624
▁controls	-10.8628
ishi	-10.8628
xt	-10.8633
▁pile	-10.8633
▁images	-10.864
▁waiter	-10.8641
▁bats	-10.8642
▁rages	-10.8643
▁skip	-10.8648
▁marrying	-10.8657
▁fr	-10.8671
mm	-10.8683
ox	-10.8686
ama	-10.8698
▁equals	-10.8714
upper	-10.8716
▁hutus	-10.8717
▁dar	-10.8723
▁jokes	-10.874
▁oops	-10.874
ame	-10.8744
ran	-10.8745
▁dat	-10.875
▁roc	-10.8751
▁or	-10.8767
▁taps	-10.8773
mor	-10.8783
▁pea	-10.8787
▁wanting	-10.8799
▁dam	-10.8806
night	-10.8808
bs	-10.8812
▁plains	-10.8818
▁noses	-10.8818
▁defenses	-10.8819
bbing	-10.8885
▁verse	-10.8888
▁vari	-10.8892
thin	-10.8927
nto	-10.894
▁choices	-10.8942
ilar	-10.8981
▁resolve	-10.8982
ky	-10.8984
▁funk	-10.899
▁tapes	-10.8997
thor	-10.8998
▁compet	-10.9004
▁shi	-10.9009
▁stu	-10.9019
▁bou	-10.9021
▁lion	-10.9029
▁missions	-10.9049
ick	-10.9052
▁str	-10.9054
ants	-10.907
▁clearing	-10.9075
ement	-10.9078
▁ohh	-10.9089
▁sha	-10.9091
▁hoped	-10.9093
aking	-10.912
ius	-10.9132
▁flights	-10.9163
▁germans	-10.9167
▁righthand	-10.9169
▁ay	-10.9186
▁har	-10.9194
▁compare	-10.9195
▁signals	-10.921
▁wo	-10.9248
long	-10.9257
ap	-10.9263
ties	-10.9264
power	-10.9267
rid	-10.9269
row	-10.9283
▁cr	-10.9301
▁las	-10.9343
ks	-10.9346
▁click	-10.9362
pat	-10.9363
headed	-10.938
▁suite	-10.9382
▁forms	-10.9388
▁amaze	-10.9392
▁ref	-10.9397
▁groan	-10.9405
ification	-10.9405
▁loo	-10.9407
har	-10.9415
▁prevision	-10.9417
▁banner	-10.9417
▁explosive	-10.9417
▁hamster	-10.9417
▁feather	-10.9422
▁gasp	-10.9427
▁fugitive	-10.9431
▁pigeon	-10.9431
▁tube	-10.9432
▁resume	-10.9435
▁include	-10.9435
▁wrist	-10.9435
polo	-10.9435
▁mor	-10.9435
▁equation	-10.9436
▁kilo	-10.9437
▁puzzle	-10.9438
▁tool	-10.944
consi	-10.944
▁bur	-10.9442
lly	-10.9443
▁stair	-10.9448
▁cent	-10.9458
▁sang	-10.947
▁bond	-10.9493
▁prayer	-10.9494
▁tick	-10.9495
▁pod	-10.9502
▁mist	-10.9507
▁annu	-10.9521
ory	-10.9523
▁frighten	-10.9524
lot	-10.9526
▁generals	-10.9529
ank	-10.953
▁programm	-10.9531
bodi	-10.9537
▁twist	-10.9546
▁tights	-10.9552
▁reception	-10.956
▁invest	-10.9571
▁screech	-10.9572
▁mock	-10.9576
▁instruct	-10.9583
▁audit	-10.9583
due	-10.9584
load	-10.9588
▁thrill	-10.9588
▁punish	-10.9589
maker	-10.9589
right	-10.959
dimension	-10.9591
case	-10.9592
active	-10.9593
mouth	-10.9593
betty	-10.9593
▁cats	-10.9594
know	-10.9595
▁rabbi	-10.9595
▁atten	-10.9595
pack	-10.9596
▁divide	-10.9596
well	-10.9596
▁marshal	-10.9599
▁aborigin	-10.9603
▁stiff	-10.9604
atomi	-10.9604
▁medic	-10.9605
▁crib	-10.9606
▁del	-10.9608
▁manual	-10.9609
▁rapid	-10.9609
hard	-10.9609
cla	-10.9612
▁scoot	-10.9613
▁rag	-10.9613
harlan	-10.9614
▁vic	-10.9614
▁constitution	-10.9614
▁charm	-10.9618
eather	-10.9619
▁entertain	-10.9619
▁limp	-10.962
▁givin	-10.9621
▁prior	-10.9621
▁slight	-10.9623
▁engl	-10.9623
▁crumb	-10.9623
▁role	-10.9623
artolomeo	-10.9624
▁allegiance	-10.9624
▁ancestors	-10.9624
▁anonymous	-10.9624
▁ausiello	-10.9624
▁bbbbbad	-10.9624
▁beware	-10.9624
▁byron	-10.9624
▁christopher	-10.9624
▁component	-10.9624
▁compromise	-10.9624
▁confusing	-10.9624
▁copilot	-10.9624
▁cottage	-10.9624
▁curfew	-10.9624
▁cycle	-10.9624
▁dalmatian	-10.9624
▁deceased	-10.9624
▁destination	-10.9624
▁diamond	-10.9624
▁didier	-10.9624
▁elrond	-10.9624
▁enhance	-10.9624
▁epps	-10.9624
▁facilities	-10.9624
▁facult	-10.9624
▁fascinating	-10.9624
▁gauge	-10.9624
▁gossip	-10.9624
▁gulapa	-10.9624
▁heirloom	-10.9624
▁incorrect	-10.9624
▁independence	-10.9624
▁indestructible	-10.9624
▁jonghoon	-10.9624
▁lennox	-10.9624
▁mackerel	-10.9624
▁magnificent	-10.9624
▁mehnaz	-10.9624
▁melissa	-10.9624
▁messenger	-10.9624
▁microwave	-10.9624
▁natasha	-10.9624
▁naught	-10.9624
▁nicholls	-10.9624
▁oprah	-10.9624
▁pebble	-10.9624
▁pentagon	-10.9624
▁petrakis	-10.9624
▁quatre	-10.9624
▁quesadilla	-10.9624
▁regulator	-10.9624
▁rewind	-10.9624
▁robbery	-10.9624
▁rupture	-10.9624
▁salmon	-10.9624
▁samantha	-10.9624
▁sebastian	-10.9624
▁splendid	-10.9624
▁stroud	-10.9624
▁struck	-10.9624
▁swift	-10.9624
▁treason	-10.9624
▁tyranny	-10.9624
▁umbrella	-10.9624
▁verdict	-10.9624
▁whitmore	-10.9624
▁xianniang	-10.9624
▁cloak	-10.9624
▁describing	-10.9624
▁distort	-10.9624
▁expand	-10.9624
▁floyd	-10.9624
▁imminent	-10.9624
▁orchestra	-10.9624
▁pancakes	-10.9624
▁rehman	-10.9624
▁unicorn	-10.9624
▁widow	-10.9624
▁youtube	-10.9624
▁confine	-10.9624
▁exhibit	-10.9624
▁fieri	-10.9624
▁giggling	-10.9624
▁taylor	-10.9624
▁adapt	-10.9624
▁roast	-10.9624
▁tokyo	-10.9624
▁candle	-10.9624
▁proportions	-10.9624
▁registr	-10.9624
▁turtle	-10.9624
▁literature	-10.9624
▁casualties	-10.9624
▁lslam	-10.9624
▁population	-10.9624
▁decoy	-10.9624
▁havens	-10.9624
▁salute	-10.9624
▁waitress	-10.9624
▁altogether	-10.9624
▁crunch	-10.9624
▁whining	-10.9624
▁bluff	-10.9624
▁exclusive	-10.9624
▁hlphop	-10.9624
▁colour	-10.9624
▁demonstrate	-10.9624
▁jelly	-10.9624
▁disruptors	-10.9624
▁eternity	-10.9624
▁optimistic	-10.9624
▁apologies	-10.9624
▁pupil	-10.9624
▁routine	-10.9624
▁tingle	-10.9624
▁kelly	-10.9624
▁garver	-10.9624
▁storage	-10.9624
▁suhas	-10.9624
▁napkin	-10.9624
▁sphere	-10.9624
▁behold	-10.9624
▁nerd	-10.9624
▁pond	-10.9624
▁einstein	-10.9624
▁addition	-10.9624
▁discount	-10.9624
▁marcee	-10.9624
▁outcome	-10.9624
▁draco	-10.9624
▁ninth	-10.9624
▁evade	-10.9624
▁leaf	-10.9624
▁jerry	-10.9624
▁robbing	-10.9624
▁saraya	-10.9624
▁referee	-10.9624
▁lawrence	-10.9624
▁quack	-10.9624
▁geoff	-10.9624
▁andrew	-10.9624
▁greece	-10.9624
▁duties	-10.9624
▁midtown	-10.9624
▁patrick	-10.9624
▁narrat	-10.9625
▁raccoon	-10.9625
▁steep	-10.9625
▁stabilize	-10.9625
▁saddle	-10.9625
▁cody	-10.9625
▁jig	-10.9625
▁heir	-10.9625
▁retail	-10.9625
▁shaking	-10.9625
▁pregnancy	-10.9625
▁grimes	-10.9625
▁eighteen	-10.9625
▁oven	-10.9625
▁timmy	-10.9625
▁oof	-10.9625
▁investment	-10.9626
▁condom	-10.9626
▁ladles	-10.9626
▁rotate	-10.9626
▁suitcase	-10.9626
▁lockdown	-10.9626
▁tension	-10.9626
▁digit	-10.9626
▁revolutionary	-10.9626
▁lai	-10.9626
▁lousy	-10.9626
▁cotton	-10.9626
▁gugu	-10.9626
▁immigration	-10.9626
▁kansas	-10.9626
▁waltz	-10.9627
▁trash	-10.9627
▁scramble	-10.9627
▁scale	-10.9627
▁dumbass	-10.9627
▁acre	-10.9627
▁inches	-10.9627
▁inbound	-10.9627
▁native	-10.9628
▁temper	-10.9628
▁classified	-10.9628
▁yea	-10.9628
▁cities	-10.9628
▁transportation	-10.9628
▁formula	-10.9628
▁alike	-10.9628
▁basement	-10.9629
▁dope	-10.9629
▁tore	-10.9629
▁xp	-10.9629
▁stepping	-10.9629
▁combined	-10.9629
▁popping	-10.9629
▁drain	-10.963
▁quality	-10.963
▁hopefully	-10.963
▁trio	-10.963
shi	-10.963
▁kir	-10.963
▁dentist	-10.963
▁reply	-10.963
▁mous	-10.963
▁invention	-10.963
▁marco	-10.963
▁dong	-10.9631
▁scrubbing	-10.9631
▁captive	-10.9631
aron	-10.9631
▁fong	-10.9631
▁raid	-10.9631
▁discussion	-10.9631
▁screen	-10.9631
▁dove	-10.9631
▁bench	-10.9631
▁delighted	-10.9632
▁suspended	-10.9632
▁after	-10.9632
▁trill	-10.9632
▁analog	-10.9632
▁tide	-10.9632
▁tess	-10.9632
▁chart	-10.9633
rping	-10.9633
▁bonus	-10.9633
▁guild	-10.9633
▁cora	-10.9633
▁congressman	-10.9633
▁plead	-10.9633
▁whlstle	-10.9634
▁mice	-10.9634
▁forgiveness	-10.9634
▁clinking	-10.9634
▁sample	-10.9635
▁moron	-10.9636
▁pager	-10.9636
▁exhausted	-10.9637
▁decorated	-10.9637
▁mouse	-10.9637
▁runner	-10.9638
▁grid	-10.9639
▁shrieks	-10.964
▁artist	-10.964
▁copies	-10.9641
▁brush	-10.9641
▁glen	-10.9641
▁maiden	-10.9641
▁neutralize	-10.9642
▁unlikely	-10.9642
▁cries	-10.9643
▁homes	-10.9644
▁hush	-10.9644
▁pinch	-10.9645
▁stall	-10.9646
▁heroic	-10.9646
▁atom	-10.9647
▁haunted	-10.9647
▁essentially	-10.9649
▁gown	-10.965
unsu	-10.965
▁predicted	-10.9651
oc	-10.9652
▁highness	-10.9653
▁tl	-10.9653
▁nightlock	-10.9654
▁render	-10.9654
▁mir	-10.9655
▁deadline	-10.9655
▁straining	-10.9655
▁sighing	-10.9656
▁shitty	-10.9659
▁buzzes	-10.966
▁naturally	-10.966
▁geniuses	-10.9662
▁rescued	-10.9664
▁photography	-10.9664
▁declared	-10.9666
▁gatherer	-10.9667
▁francs	-10.9668
▁sedatives	-10.9668
▁placed	-10.9668
▁coppers	-10.967
▁punished	-10.967
▁lane	-10.9672
▁friendship	-10.9672
▁tenth	-10.9673
▁houses	-10.9673
▁payment	-10.9673
▁published	-10.9674
▁awfully	-10.9674
▁regarding	-10.9677
▁shitting	-10.9677
▁sk	-10.9678
▁rack	-10.968
▁graduated	-10.968
inq	-10.9682
isal	-10.9682
▁boxes	-10.9684
▁pic	-10.9684
▁dating	-10.9688
▁yao	-10.9688
▁unable	-10.9689
fyou	-10.969
▁peck	-10.969
▁barn	-10.9692
▁rises	-10.9693
▁shorts	-10.9693
▁neils	-10.9694
▁separated	-10.9698
▁scaring	-10.97
▁announced	-10.9701
▁peek	-10.9704
▁alter	-10.9704
▁fax	-10.971
▁handles	-10.9711
▁wee	-10.9712
▁ideals	-10.9717
▁earned	-10.9718
▁irs	-10.9719
▁delivered	-10.9721
▁scheduled	-10.9722
▁maggots	-10.9726
▁thumbs	-10.9726
▁dreamt	-10.9731
▁poisoned	-10.9732
▁appeared	-10.9733
ack	-10.9734
▁valid	-10.9736
▁loudly	-10.9743
▁paula	-10.9743
▁helpful	-10.9744
▁costs	-10.9747
▁lungs	-10.9755
▁healer	-10.9757
▁spared	-10.9761
▁fist	-10.9762
▁planted	-10.9763
▁peed	-10.9764
▁rem	-10.9765
▁dee	-10.9769
▁posted	-10.9771
▁secured	-10.9782
▁sacrificed	-10.9784
▁rumors	-10.9785
▁emotional	-10.9787
▁wrestlers	-10.9787
▁cracking	-10.9787
▁visitors	-10.9787
▁tow	-10.9791
▁sneaking	-10.9791
▁lily	-10.9795
▁rd	-10.9795
▁matched	-10.9801
▁manners	-10.9802
▁planets	-10.9807
▁murphy	-10.9809
▁kilos	-10.9813
▁tools	-10.9814
▁puzzles	-10.9814
▁shithead	-10.9814
▁vo	-10.9816
▁prayers	-10.9829
▁lick	-10.9831
ix	-10.9832
▁tate	-10.9832
lin	-10.9848
▁emerge	-10.9854
▁marching	-10.9856
▁nago	-10.9865
▁matt	-10.9865
▁seeking	-10.9867
▁directions	-10.9872
▁explodes	-10.9872
stance	-10.9874
ste	-10.9876
▁locker	-10.9892
▁brew	-10.9897
▁continued	-10.99
▁ropes	-10.9902
▁missiles	-10.9902
▁needle	-10.9902
▁coins	-10.9903
▁merc	-10.9907
▁shared	-10.9911
▁screwing	-10.9929
▁musical	-10.9941
lc	-10.9952
ard	-10.9952
▁recorder	-10.9952
▁meters	-10.9953
▁reported	-10.9957
▁caves	-10.9961
▁laying	-10.9968
▁hay	-10.997
▁dal	-10.9975
▁laughed	-10.9979
▁executi	-10.9979
▁seated	-10.9989
▁ops	-10.9989
▁operations	-10.9991
▁adjust	-10.9996
▁trains	-10.9997
▁photos	-11.0021
▁fishing	-11.0024
▁rolls	-11.0025
▁kissed	-11.0029
ab	-11.0039
▁mini	-11.0042
eb	-11.005
▁muscles	-11.0052
▁feds	-11.0053
▁casey	-11.0062
handed	-11.0066
▁counted	-11.007
▁app	-11.0072
▁guardians	-11.008
▁qui	-11.0086
ando	-11.0087
tt	-11.0096
ngbang	-11.0103
▁sources	-11.011
▁vehicles	-11.011
▁closets	-11.0129
▁naive	-11.0137
▁lessons	-11.014
▁womans	-11.0142
▁cath	-11.0151
aw	-11.0155
rate	-11.016
▁ton	-11.0167
▁fro	-11.0174
▁towns	-11.0188
▁yu	-11.019
▁ti	-11.0199
▁presents	-11.0215
ins	-11.0219
eat	-11.0255
▁pairs	-11.026
▁vet	-11.0284
▁goln	-11.029
▁abs	-11.0308
▁documents	-11.0336
pie	-11.0336
▁qu	-11.0345
▁frame	-11.0347
can	-11.035
▁ram	-11.0353
nya	-11.0355
ions	-11.0361
ja	-11.0363
llen	-11.0368
esy	-11.0372
▁whoohoo	-11.0374
▁on	-11.0376
▁sentinels	-11.0381
▁throws	-11.0391
▁cher	-11.0392
▁strap	-11.0411
ised	-11.0412
▁menu	-11.0422
▁bets	-11.043
▁ap	-11.0451
position	-11.0452
ists	-11.0464
▁shields	-11.0473
nn	-11.0475
▁buyer	-11.0487
▁commands	-11.0506
▁te	-11.0529
▁chug	-11.0552
per	-11.0557
▁mat	-11.0557
▁evolve	-11.0567
▁cho	-11.0575
bi	-11.0576
▁johns	-11.0595
▁boats	-11.0626
pping	-11.0633
▁writes	-11.0652
lst	-11.0655
▁oui	-11.0655
ook	-11.0686
ali	-11.069
han	-11.0692
▁andy	-11.0704
ane	-11.0706
▁crimes	-11.0719
▁possess	-11.0736
▁stuffing	-11.0776
▁strip	-11.0783
lrst	-11.0787
▁murders	-11.0793
▁babys	-11.0809
▁projects	-11.0812
fa	-11.0813
las	-11.0822
▁violate	-11.0844
by	-11.0861
iers	-11.0889
nish	-11.0894
▁carve	-11.0901
▁ze	-11.0914
▁q	-11.0916
ler	-11.0926
▁types	-11.0931
▁horns	-11.0961
urs	-11.0962
ez	-11.0968
▁ny	-11.1001
▁cultur	-11.1004
▁examine	-11.1024
▁concern	-11.1025
ative	-11.1038
▁def	-11.1054
▁camel	-11.106
▁brok	-11.1068
▁tw	-11.1078
▁drug	-11.1083
▁compliment	-11.1084
▁kurokawa	-11.1084
▁patrol	-11.1084
▁representative	-11.1084
cha	-11.1085
▁jaw	-11.1086
▁chick	-11.1092
▁knights	-11.1094
lor	-11.1096
▁jewel	-11.1096
▁method	-11.1101
▁rascal	-11.1101
▁cannon	-11.1103
▁rumor	-11.1106
▁ke	-11.1115
▁wrestler	-11.1118
▁refugee	-11.1119
▁airline	-11.1123
▁visitor	-11.1125
▁legion	-11.1129
lnd	-11.1143
▁dimension	-11.1145
fk	-11.1157
olar	-11.1158
ates	-11.1158
▁psych	-11.116
▁moan	-11.1163
uh	-11.1169
▁historic	-11.1179
ities	-11.118
▁whoop	-11.1192
stand	-11.1204
▁stitch	-11.1205
▁embarrass	-11.1211
fully	-11.1214
▁butch	-11.1216
▁ki	-11.1217
▁blg	-11.1222
▁uncles	-11.1222
▁prob	-11.1229
with	-11.1233
▁announc	-11.1233
▁growl	-11.1234
▁oft	-11.1239
▁cult	-11.124
jack	-11.1242
▁declar	-11.1243
▁manner	-11.1244
▁receiv	-11.1245
▁murmur	-11.1246
▁chap	-11.1247
board	-11.1249
▁anyth	-11.1249
▁invent	-11.1253
▁establish	-11.1255
born	-11.1255
flower	-11.1255
horn	-11.1256
▁encounter	-11.1256
guard	-11.1256
▁fulfill	-11.1257
▁charges	-11.1257
▁flop	-11.1257
fella	-11.1259
smith	-11.126
world	-11.126
▁riddle	-11.126
▁whoosh	-11.126
foot	-11.126
year	-11.1261
mail	-11.1261
bank	-11.1261
wire	-11.1261
▁flee	-11.1263
▁torture	-11.1264
▁pursue	-11.1266
walk	-11.1267
▁anti	-11.1269
▁refuge	-11.1271
▁crank	-11.1272
▁baker	-11.1273
▁determine	-11.1274
▁polite	-11.1274
▁technical	-11.1276
▁literal	-11.1278
▁glob	-11.1278
▁coup	-11.1278
some	-11.1279
▁fiction	-11.1281
▁chant	-11.1281
▁expla	-11.1284
▁cockroach	-11.1284
▁activate	-11.1287
while	-11.1287
▁somethln	-11.1287
▁levant	-11.1288
▁risin	-11.1288
▁runnin	-11.1288
▁louis	-11.1288
▁flaw	-11.1288
▁movin	-11.1289
▁republic	-11.1289
▁tragic	-11.1289
▁francis	-11.129
▁multi	-11.129
▁psychiatri	-11.129
▁aaaooo	-11.129
▁activities	-11.129
▁ahchoo	-11.129
▁albie	-11.129
▁alternative	-11.129
▁antidote	-11.129
▁barbosa	-11.129
▁behave	-11.129
▁benefit	-11.129
▁billabong	-11.129
▁caesar	-11.129
▁caitlin	-11.129
▁caproni	-11.129
▁capua	-11.129
▁catastrophe	-11.129
▁coexist	-11.129
▁cohorts	-11.129
▁companies	-11.129
▁compartment	-11.129
▁congrats	-11.129
▁consumed	-11.129
▁database	-11.129
▁demonstration	-11.129
▁dialogue	-11.129
▁dinkley	-11.129
▁disguise	-11.129
▁dixon	-11.129
▁epiglottis	-11.129
▁exploration	-11.129
▁flaunt	-11.129
▁fountain	-11.129
▁fracture	-11.129
▁frankfurt	-11.129
▁frozen	-11.129
▁glrl	-11.129
▁goolaj	-11.129
▁granddaughter	-11.129
▁grenade	-11.129
▁halfcaste	-11.129
▁hardwick	-11.129
▁harpsichord	-11.129
▁hawaii	-11.129
▁headquarters	-11.129
▁hehheh	-11.129
▁hilbert	-11.129
▁intact	-11.129
▁invincible	-11.129
▁inviting	-11.129
▁jiko	-11.129
▁jungle	-11.129
▁kennedy	-11.129
▁lincoln	-11.129
▁lucullus	-11.129
▁lylla	-11.129
▁magnitude	-11.129
▁metaphor	-11.129
▁mexico	-11.129
▁mulligan	-11.129
▁museum	-11.129
▁mutual	-11.129
▁mystique	-11.129
▁newlywed	-11.129
▁nobility	-11.129
▁norwich	-11.129
▁oasis	-11.129
▁osgiliath	-11.129
▁outrage	-11.129
▁pineapple	-11.129
▁pisceshite	-11.129
▁plutarch	-11.129
▁pollard	-11.129
▁primitive	-11.129
▁privilege	-11.129
▁pudding	-11.129
▁relief	-11.129
▁reynolds	-11.129
▁safari	-11.129
▁shamaldas	-11.129
▁sherwood	-11.129
▁shieid	-11.129
▁sneller	-11.129
▁somewhat	-11.129
▁statute	-11.129
▁studied	-11.129
▁technique	-11.129
▁terminal	-11.129
▁territory	-11.129
▁thracian	-11.129
▁tolerate	-11.129
▁transmission	-11.129
▁twilight	-11.129
▁unimaginable	-11.129
▁urban	-11.129
▁volcano	-11.129
▁voyage	-11.129
▁vulture	-11.129
▁agenda	-11.129
▁blazevich	-11.129
▁cease	-11.129
▁clunk	-11.129
▁dynamics	-11.129
▁fbl	-11.129
▁frustrat	-11.129
▁mattress	-11.129
▁salary	-11.129
▁steinway	-11.129
▁typing	-11.129
▁whatsoever	-11.129
▁austria	-11.129
▁ethel	-11.129
▁salv	-11.129
▁stephen	-11.129
▁warehouse	-11.129
▁anchor	-11.129
▁carmine	-11.129
▁osborn	-11.129
▁surprising	-11.129
▁dyne	-11.129
▁october	-11.129
▁squawk	-11.129
▁bunk	-11.129
▁ringtone	-11.129
▁wield	-11.129
▁sensation	-11.129
▁jagger	-11.129
▁kidnapped	-11.129
▁crucified	-11.129
▁innocence	-11.129
▁confidence	-11.129
▁urn	-11.129
▁dawes	-11.129
▁vomit	-11.129
▁acquired	-11.129
▁finchberg	-11.129
▁turkey	-11.129
▁turnip	-11.129
▁caution	-11.129
▁bulletproof	-11.129
▁onboard	-11.129
▁acceleration	-11.129
▁promotion	-11.129
▁stunning	-11.129
▁breeze	-11.129
▁golf	-11.129
▁berlin	-11.129
▁summit	-11.129
▁ernie	-11.1291
▁lauren	-11.1291
▁avengers	-11.1291
▁dosage	-11.1291
▁snorting	-11.1291
▁regroup	-11.1291
▁solitary	-11.1291
▁holiness	-11.1291
▁concept	-11.1291
▁davis	-11.1291
▁fading	-11.1291
▁jewish	-11.1291
▁mobile	-11.1291
▁polish	-11.1291
▁prospect	-11.1291
▁franny	-11.1291
▁param	-11.1291
▁spanish	-11.1291
▁neville	-11.1291
▁authorities	-11.1291
▁dining	-11.1291
▁sunset	-11.1291
▁analysis	-11.1291
▁schizophrenia	-11.1291
▁operative	-11.1291
▁holler	-11.1291
▁lightning	-11.1291
▁merchan	-11.1291
▁shortcut	-11.1291
▁whatwhat	-11.1291
▁construction	-11.1291
▁defib	-11.1291
▁absence	-11.1291
onnais	-11.1291
▁arise	-11.1291
▁cassa	-11.1291
▁cupboard	-11.1291
▁eternal	-11.1291
▁tryouts	-11.1291
▁assassinations	-11.1291
▁douglas	-11.1291
▁toki	-11.1291
▁wreckage	-11.1292
▁jewelry	-11.1292
▁assistance	-11.1292
▁thread	-11.1292
▁ouch	-11.1292
▁mlght	-11.1292
▁association	-11.1292
▁tipped	-11.1292
▁burch	-11.1292
▁institution	-11.1292
▁strider	-11.1292
▁deckard	-11.1292
▁fantasy	-11.1292
▁perkins	-11.1292
▁tread	-11.1292
▁entry	-11.1292
▁poop	-11.1292
▁merci	-11.1292
▁disturbance	-11.1292
▁fesh	-11.1292
▁aspirin	-11.1292
▁tendency	-11.1292
▁minimum	-11.1292
▁phony	-11.1292
▁slx	-11.1292
▁poetry	-11.1292
▁operating	-11.1292
▁legendary	-11.1292
▁dishes	-11.1293
▁spaceport	-11.1293
▁relay	-11.1293
pan	-11.1293
▁zoo	-11.1293
▁acid	-11.1293
▁brag	-11.1293
▁soil	-11.1293
▁waist	-11.1293
▁exile	-11.1293
▁anais	-11.1293
▁sinner	-11.1293
▁pension	-11.1293
▁nickname	-11.1294
▁drift	-11.1294
▁accomplished	-11.1294
▁airborne	-11.1294
▁tango	-11.1294
▁bodyguard	-11.1294
▁translation	-11.1294
▁hulk	-11.1294
▁kinu	-11.1294
▁observation	-11.1294
▁settlement	-11.1294
▁proposal	-11.1294
▁shelley	-11.1294
▁contender	-11.1295
▁drool	-11.1295
▁freezing	-11.1295
▁mobilise	-11.1295
▁wheezing	-11.1295
raising	-11.1295
▁rug	-11.1295
▁therapy	-11.1295
▁poker	-11.1295
▁popped	-11.1295
▁attendant	-11.1295
▁stung	-11.1295
▁faden	-11.1296
▁sensitive	-11.1296
▁clown	-11.1296
▁wlthout	-11.1296
▁ai	-11.1297
▁scum	-11.1297
▁drownin	-11.1297
▁batch	-11.1297
vanna	-11.1297
▁accidentally	-11.1297
▁kickoff	-11.1297
▁zo	-11.1297
▁fork	-11.1297
▁applied	-11.1297
▁sworn	-11.1297
▁effective	-11.1297
▁tidy	-11.1298
▁luce	-11.1298
ewer	-11.1298
▁plg	-11.1298
▁dread	-11.1298
▁barnes	-11.1298
▁complaint	-11.1299
▁zu	-11.1299
▁surgeon	-11.1299
▁martini	-11.1299
▁practicing	-11.1299
▁seventeen	-11.1299
▁simmons	-11.1299
▁gaze	-11.1299
▁distinguished	-11.13
▁feat	-11.13
▁amongst	-11.13
▁condo	-11.13
▁prep	-11.13
▁lsnt	-11.1301
▁portion	-11.1302
▁expression	-11.1303
▁dime	-11.1303
▁sore	-11.1303
▁tray	-11.1304
▁intern	-11.1304
▁vip	-11.1305
▁stealth	-11.1305
▁closure	-11.1305
▁sandwiches	-11.1305
▁sponge	-11.1305
▁environmental	-11.1306
▁jammed	-11.1306
▁equi	-11.1306
▁reck	-11.1306
▁vanished	-11.1306
▁collapsed	-11.1306
▁farber	-11.1307
▁betting	-11.1307
▁ramp	-11.1309
▁haul	-11.131
▁adore	-11.1311
▁descending	-11.1312
▁recovery	-11.1312
▁barker	-11.1313
▁hong	-11.1314
▁approved	-11.1314
▁uhoh	-11.1314
▁arse	-11.1315
▁hotter	-11.1315
▁clay	-11.1316
▁grasp	-11.1318
▁transition	-11.1318
▁forgetting	-11.1318
▁bog	-11.132
▁hull	-11.132
▁complaining	-11.132
▁barry	-11.132
▁amazed	-11.1321
check	-11.1321
▁flirting	-11.1323
▁endure	-11.1324
▁bass	-11.1325
▁encountered	-11.1325
opy	-11.1326
▁hatches	-11.1327
▁wage	-11.1327
▁achieved	-11.1327
▁partial	-11.1327
▁majority	-11.1327
▁dec	-11.1328
▁larger	-11.133
▁mma	-11.1332
▁jr	-11.1332
▁curl	-11.1334
▁physically	-11.1334
▁straighten	-11.1334
▁loop	-11.1337
▁okra	-11.1337
▁possessed	-11.1337
▁breached	-11.1338
▁recovered	-11.1338
▁concerning	-11.1338
▁cargo	-11.1338
▁marshall	-11.1339
▁sew	-11.1339
▁knuckles	-11.1343
▁peasants	-11.1343
▁tomahawks	-11.1344
▁gr	-11.1344
▁preserve	-11.1345
ingly	-11.1345
▁lighten	-11.1345
▁active	-11.1346
▁pump	-11.1346
▁painter	-11.1346
▁homeland	-11.1346
▁pra	-11.1347
▁bent	-11.1348
▁reverse	-11.1348
roy	-11.1352
▁melt	-11.1354
▁bursting	-11.1355
▁dresses	-11.1355
▁placement	-11.1355
owy	-11.1356
ttle	-11.1356
▁sod	-11.1357
▁sonar	-11.1358
▁fastest	-11.1358
▁buzzer	-11.1362
▁bree	-11.1362
▁lend	-11.1364
▁sailing	-11.1364
rles	-11.1364
▁mainly	-11.1365
▁wail	-11.137
▁irony	-11.1371
▁frightening	-11.1371
▁finds	-11.1372
▁bl	-11.1372
▁awe	-11.1374
▁correctly	-11.1375
▁shatters	-11.1376
▁enterprises	-11.1378
▁seth	-11.1378
▁cocking	-11.1381
▁tricky	-11.1382
ulus	-11.1382
▁crapp	-11.1385
ver	-11.1387
▁contained	-11.1388
▁honesty	-11.1389
▁hid	-11.1396
▁kneel	-11.14
▁thered	-11.1401
▁shei	-11.1401
▁tally	-11.1405
▁sniffing	-11.1405
▁damaged	-11.1406
▁weed	-11.1407
▁revealed	-11.1407
sten	-11.141
▁prototypes	-11.1413
anda	-11.1414
▁spying	-11.1415
▁rea	-11.1416
▁filed	-11.1416
que	-11.1419
foam	-11.1419
▁deserted	-11.142
▁nail	-11.1421
▁touches	-11.1427
▁blink	-11.1427
▁y	-11.143
▁defeated	-11.143
▁fairly	-11.1431
▁pol	-11.1432
▁cheating	-11.1432
▁culture	-11.1433
▁seeds	-11.1434
▁cracked	-11.1435
▁thel	-11.1436
ined	-11.1438
▁circus	-11.1443
▁curtains	-11.1448
▁thugs	-11.1448
bone	-11.1449
▁semi	-11.145
▁reminded	-11.1455
▁flap	-11.1458
▁shu	-11.1459
▁colder	-11.1464
berg	-11.1466
▁cleaner	-11.1473
▁barr	-11.1474
▁marina	-11.1474
▁cashed	-11.1477
▁golson	-11.1479
lse	-11.1481
▁rascals	-11.1483
▁methods	-11.1483
▁cannons	-11.1483
▁attempting	-11.1491
▁hats	-11.1501
▁ml	-11.1502
▁homeless	-11.1503
ably	-11.1503
pen	-11.1506
▁defended	-11.151
▁alrighty	-11.1512
▁predict	-11.1513
▁darker	-11.1517
▁includes	-11.1518
▁resumes	-11.1518
▁equations	-11.1518
▁wrists	-11.1518
▁bothering	-11.153
sap	-11.1535
▁prov	-11.1539
▁lighter	-11.155
▁charged	-11.1551
▁rogues	-11.1553
▁climbing	-11.156
ever	-11.156
mmed	-11.1563
ye	-11.1565
plat	-11.1575
▁stated	-11.1582
▁unlt	-11.1584
▁mags	-11.1588
▁represents	-11.1588
▁receipts	-11.1589
▁civilians	-11.1589
oni	-11.159
▁inc	-11.1594
▁differently	-11.1601
▁reference	-11.1606
▁dancers	-11.1608
▁pasty	-11.1611
▁gal	-11.1612
▁encourage	-11.1614
ont	-11.1616
▁respects	-11.1623
▁saints	-11.1624
▁muslims	-11.1624
▁importantly	-11.1631
▁fre	-11.1655
▁demands	-11.1659
bra	-11.166
▁ledge	-11.1666
▁farmers	-11.1669
▁log	-11.1677
▁chat	-11.1687
stic	-11.1689
▁magazines	-11.1695
▁orphans	-11.1695
shing	-11.1696
generation	-11.1699
▁shouts	-11.17
▁containers	-11.1703
▁knocks	-11.1716
▁cooperate	-11.1729
▁breasts	-11.1731
▁braces	-11.1731
▁earle	-11.1734
▁dressing	-11.1745
oir	-11.1749
▁toots	-11.1749
ture	-11.175
▁medi	-11.1765
▁beasts	-11.1767
▁ethic	-11.1777
balls	-11.1786
▁das	-11.1789
▁wel	-11.1799
▁raining	-11.1804
▁fooled	-11.1814
▁killin	-11.1819
▁toes	-11.1822
▁forg	-11.1845
▁clip	-11.1845
▁pens	-11.1846
▁strangers	-11.1854
▁promote	-11.1872
▁pigs	-11.1874
▁losers	-11.188
ating	-11.1885
▁tu	-11.1893
▁hangs	-11.1919
▁chains	-11.1921
▁urge	-11.1933
▁han	-11.1936
▁attacks	-11.1943
▁masks	-11.1945
▁demons	-11.1947
tle	-11.1951
▁mouthing	-11.1964
▁minorit	-11.1965
▁assassinat	-11.1966
▁booked	-11.1969
▁spine	-11.1973
pd	-11.1978
▁affairs	-11.1983
▁qua	-11.1984
▁rangers	-11.1988
▁les	-11.2003
light	-11.2012
▁waves	-11.2018
▁patients	-11.2019
▁scientists	-11.2019
▁catching	-11.2038
ments	-11.205
▁gil	-11.2081
▁ducks	-11.2083
▁votes	-11.2095
▁feared	-11.2097
▁shad	-11.2101
▁scares	-11.2108
ea	-11.2116
▁appro	-11.2131
▁investigate	-11.2135
▁num	-11.2151
kins	-11.2153
mar	-11.2159
gs	-11.216
▁limits	-11.2166
▁habe	-11.2167
▁cart	-11.2171
▁allerg	-11.2178
oh	-11.2179
cate	-11.2186
▁wav	-11.2188
▁swor	-11.2192
get	-11.2198
▁devils	-11.2202
▁counts	-11.2219
▁reporters	-11.2236
▁butts	-11.2241
▁dra	-11.2244
ree	-11.228
ica	-11.229
bed	-11.2296
▁translate	-11.2306
ark	-11.233
fi	-11.2333
tin	-11.2348
▁explosions	-11.2349
▁colors	-11.2353
▁schools	-11.236
ana	-11.2371
▁producers	-11.2388
▁powered	-11.2388
▁wished	-11.2391
▁pals	-11.2394
▁fits	-11.2449
sia	-11.2464
▁il	-11.2488
▁bottles	-11.2491
▁rev	-11.2496
▁tongues	-11.2498
▁vers	-11.2503
▁que	-11.2516
sses	-11.252
▁kills	-11.2527
nning	-11.2531
kin	-11.2541
dog	-11.2544
range	-11.2548
nine	-11.255
▁gran	-11.2552
af	-11.2562
▁dre	-11.2584
▁guid	-11.2606
▁corners	-11.261
ue	-11.2615
cu	-11.2616
spel	-11.2626
▁swi	-11.2628
▁mamas	-11.2644
ich	-11.2646
ged	-11.2654
▁sacrifices	-11.2655
▁stores	-11.2677
▁gin	-11.2688
ddy	-11.2692
tonic	-11.2697
lght	-11.2719
▁repeats	-11.2724
bar	-11.2736
els	-11.2744
▁ru	-11.2755
▁favors	-11.2763
lated	-11.2764
ock	-11.2778
vo	-11.2787
▁refus	-11.2788
▁resting	-11.2797
ub	-11.2797
▁sheriffs	-11.28
▁rum	-11.2821
lan	-11.2822
▁ag	-11.2826
▁holes	-11.2838
▁manns	-11.2848
▁packs	-11.287
▁ja	-11.2881
▁groups	-11.2882
are	-11.2892
▁rul	-11.2894
▁doln	-11.2895
▁timer	-11.2908
aby	-11.2912
uff	-11.2935
▁replica	-11.2941
unction	-11.2961
zing	-11.2969
▁bind	-11.2983
itation	-11.2989
stick	-11.3006
▁ni	-11.3043
▁halls	-11.3043
▁raj	-11.3047
rrow	-11.3049
▁sigh	-11.3053
▁beds	-11.3057
▁emotion	-11.306
spect	-11.3061
▁surfin	-11.3062
▁prices	-11.3069
cent	-11.307
▁whisper	-11.307
▁dinosaur	-11.3084
▁thrive	-11.3084
▁mc	-11.3084
▁journal	-11.3084
▁needles	-11.3091
▁instrument	-11.3093
▁pattern	-11.3093
▁balloon	-11.3093
▁cullen	-11.3093
▁decade	-11.3093
▁deception	-11.3093
▁plug	-11.3094
▁spider	-11.3096
▁cigar	-11.3098
▁jew	-11.3098
port	-11.3099
▁pearl	-11.3099
▁scam	-11.31
▁curtain	-11.3101
▁buck	-11.3102
▁cases	-11.3102
▁detr	-11.3105
▁bidd	-11.3105
▁nerve	-11.3107
▁customer	-11.3107
▁thug	-11.3109
▁resident	-11.311
▁probe	-11.311
sits	-11.3111
▁decepticon	-11.3112
▁glove	-11.3113
▁exhale	-11.3113
▁hal	-11.3117
▁immortal	-11.3118
▁carbon	-11.3122
▁net	-11.3123
▁bruise	-11.3128
▁gener	-11.314
owing	-11.3142
▁weekends	-11.3146
ev	-11.3153
▁circu	-11.3159
▁cor	-11.3169
▁lung	-11.3171
▁domin	-11.3176
▁stir	-11.318
▁rod	-11.318
▁vapor	-11.3189
▁tis	-11.3208
▁sticks	-11.3216
▁cosm	-11.3217
ew	-11.3218
▁prepar	-11.322
▁introduc	-11.3225
des	-11.3227
▁mechanic	-11.3227
acco	-11.323
▁corps	-11.3233
▁this	-11.3239
yard	-11.3241
▁gree	-11.3242
▁slack	-11.3242
▁clack	-11.3244
▁tuck	-11.3246
▁detect	-11.3252
bound	-11.3252
coming	-11.3252
break	-11.3253
▁distract	-11.3253
▁disagree	-11.3254
▁slaughter	-11.3254
identified	-11.3254
appointed	-11.3255
▁haunt	-11.3256
bush	-11.3258
rmac	-11.3258
planned	-11.3259
chuckles	-11.3259
jimmy	-11.3259
bury	-11.3259
▁rehearse	-11.326
▁estimate	-11.326
girl	-11.326
school	-11.326
dded	-11.326
seven	-11.326
burn	-11.3261
bean	-11.3261
fold	-11.3262
band	-11.3264
▁evacuate	-11.3264
who	-11.3265
poor	-11.3265
pants	-11.3266
▁bri	-11.3266
fish	-11.3266
fare	-11.3266
▁dedicate	-11.3268
▁approve	-11.3268
▁execute	-11.3268
▁cleanse	-11.3268
▁organize	-11.3269
class	-11.327
▁strain	-11.327
▁shoo	-11.3271
nched	-11.3272
▁explore	-11.3273
▁initial	-11.3275
▁gam	-11.3277
▁gag	-11.3277
▁micr	-11.3277
▁wealth	-11.3279
▁trench	-11.3282
jama	-11.3282
▁lndia	-11.3283
▁tob	-11.3283
▁critic	-11.3283
▁tomato	-11.3283
aka	-11.3285
▁rif	-11.3285
▁industr	-11.3286
lease	-11.3287
▁alcohol	-11.3287
▁destruct	-11.3287
▁agaln	-11.3287
erfect	-11.3287
verything	-11.3289
▁secre	-11.3289
▁marvel	-11.329
atherine	-11.329
▁ruth	-11.329
▁maria	-11.329
ndra	-11.329
osphere	-11.329
▁obtain	-11.329
jacques	-11.329
▁amdursky	-11.329
▁amendola	-11.329
▁amplified	-11.329
▁analyze	-11.329
▁anniversary	-11.329
▁argument	-11.329
▁arizona	-11.329
▁ascend	-11.329
▁audio	-11.329
▁avalanche	-11.329
▁aztec	-11.329
▁baltimore	-11.329
▁bamboo	-11.329
▁baptist	-11.329
▁basejumping	-11.329
▁battalion	-11.329
▁behaviour	-11.329
▁bollocks	-11.329
▁broomhilde	-11.329
▁buffet	-11.329
▁buttress	-11.329
▁bypass	-11.329
▁cadillac	-11.329
▁challenging	-11.329
▁cheerleader	-11.329
▁chlldren	-11.329
▁combination	-11.329
▁consumer	-11.329
▁creaks	-11.329
▁cripple	-11.329
▁crusade	-11.329
▁dadadatdatda	-11.329
▁december	-11.329
▁democracy	-11.329
▁despair	-11.329
▁destined	-11.329
▁diablo	-11.329
▁dilemma	-11.329
▁dobkin	-11.329
▁durbatul	-11.329
▁dynasty	-11.329
▁edoras	-11.329
▁eduardo	-11.329
▁enmebaragesi	-11.329
▁exotic	-11.329
▁exploit	-11.329
▁finler	-11.329
▁forevermore	-11.329
▁foxtrot	-11.329
▁gavin	-11.329
▁grandkids	-11.329
▁hallelujah	-11.329
▁handwriting	-11.329
▁hasina	-11.329
▁heathcoat	-11.329
▁honeymoon	-11.329
▁horikoshi	-11.329
▁hunnicutt	-11.329
▁imbecile	-11.329
▁infected	-11.329
▁initiating	-11.329
▁injustice	-11.329
▁insect	-11.329
▁interahamwe	-11.329
▁khamel	-11.329
▁kigali	-11.329
▁kiilln	-11.329
▁klaus	-11.329
▁koppel	-11.329
▁kraglin	-11.329
▁loomis	-11.329
▁lupino	-11.329
▁malfunction	-11.329
▁margarita	-11.329
▁maurice	-11.329
▁memorial	-11.329
▁merrily	-11.329
▁millimeter	-11.329
▁momentarily	-11.329
▁neighbours	-11.329
▁nevada	-11.329
▁notify	-11.329
▁oerstadt	-11.329
▁offlcer	-11.329
▁omelet	-11.329
▁perfume	-11.329
▁perimeter	-11.329
▁pollux	-11.329
▁poverty	-11.329
▁radius	-11.329
▁recalibrating	-11.329
▁relentless	-11.329
▁religion	-11.329
▁religious	-11.329
▁rufus	-11.329
▁rupert	-11.329
▁scientific	-11.329
▁scissors	-11.329
▁selfdefense	-11.329
▁sensible	-11.329
▁sensltlve	-11.329
▁september	-11.329
▁snatch	-11.329
▁solitude	-11.329
▁spandex	-11.329
▁spectacular	-11.329
▁squire	-11.329
▁squirrel	-11.329
▁strategy	-11.329
▁struggling	-11.329
▁suspicion	-11.329
▁syndrome	-11.329
▁tatopoulos	-11.329
▁temperature	-11.329
▁teresa	-11.329
▁thirteen	-11.329
▁thurman	-11.329
▁tigranes	-11.329
▁topgun	-11.329
▁trident	-11.329
▁truce	-11.329
▁turbulence	-11.329
▁uav	-11.329
▁unexpected	-11.329
▁unnecessary	-11.329
▁vampire	-11.329
▁vengeance	-11.329
▁verheek	-11.329
▁virgil	-11.329
▁vulnerable	-11.329
▁wrench	-11.329
▁bascomb	-11.329
▁capacity	-11.329
▁certifi	-11.329
▁dazzl	-11.329
▁deceit	-11.329
▁fingerprints	-11.329
▁goblin	-11.329
▁gronk	-11.329
▁headache	-11.329
▁klear	-11.329
▁kurt	-11.329
▁lambert	-11.329
▁mueller	-11.329
▁oxen	-11.329
▁particles	-11.329
▁sector	-11.329
▁upgrades	-11.329
▁workshop	-11.329
▁binary	-11.329
▁chubb	-11.329
▁endanger	-11.329
▁filter	-11.329
▁flares	-11.329
▁gesture	-11.329
▁koroku	-11.329
▁mathematics	-11.329
▁negotiations	-11.329
▁noisy	-11.329
▁nonstop	-11.329
▁squadron	-11.329
▁strangle	-11.329
▁vault	-11.329
▁assessment	-11.329
▁carousel	-11.329
▁install	-11.329
▁jingling	-11.329
▁nevernever	-11.329
▁renown	-11.329
▁subordinate	-11.329
imony	-11.329
▁regain	-11.329
▁bosom	-11.329
▁costume	-11.329
▁deavers	-11.329
▁lyons	-11.329
▁chancellor	-11.329
▁consent	-11.329
▁reek	-11.329
▁sabena	-11.329
borough	-11.329
▁ensure	-11.329
▁fragil	-11.329
▁gunnars	-11.329
▁torp	-11.329
▁columbia	-11.329
▁elsie	-11.329
▁cerebr	-11.329
▁doughnut	-11.329
▁hereby	-11.329
▁ransom	-11.329
▁glitch	-11.329
▁kidnapping	-11.329
▁rouge	-11.329
▁reconstruct	-11.329
▁merlin	-11.329
▁addict	-11.329
▁ignoran	-11.329
▁lodge	-11.329
▁peggy	-11.329
▁wrath	-11.329
▁clinic	-11.329
▁untll	-11.329
▁lexington	-11.329
▁yummy	-11.329
▁owned	-11.329
▁prostate	-11.329
▁bllnd	-11.329
▁fireworks	-11.329
▁quinn	-11.329
▁blake	-11.329
▁goofy	-11.329
▁savage	-11.329
▁vital	-11.329
▁boggs	-11.329
▁dennis	-11.329
▁aguado	-11.3291
▁kevin	-11.3291
▁brazil	-11.3291
▁dyer	-11.3291
▁supervisor	-11.3291
▁boogie	-11.3291
▁confront	-11.3291
▁regiment	-11.3291
▁bubba	-11.3291
▁gloom	-11.3291
▁badir	-11.3291
▁clarity	-11.3291
▁decay	-11.3291
▁olympic	-11.3291
▁ronnie	-11.3291
▁separation	-11.3291
▁bruun	-11.3291
▁allison	-11.3291
▁josephine	-11.3291
▁upstate	-11.3291
▁forbid	-11.3291
▁belgian	-11.3291
▁delightful	-11.3291
▁poppy	-11.3291
▁robbed	-11.3291
▁anxious	-11.3291
▁mentor	-11.3291
▁lethal	-11.3291
▁blend	-11.3291
▁departure	-11.3291
▁oleg	-11.3291
▁jody	-11.3291
▁loeb	-11.3291
▁snickers	-11.3291
▁elven	-11.3291
▁laptop	-11.3291
mpered	-11.3291
▁novel	-11.3291
▁upsidedown	-11.3291
▁outstanding	-11.3291
▁darcy	-11.3291
▁jury	-11.3291
▁cherish	-11.3291
▁yuck	-11.3291
▁loyalists	-11.3291
▁transmitting	-11.3291
▁egyptian	-11.3291
▁tawes	-11.3291
▁indication	-11.3291
▁trumpet	-11.3291
▁battlefield	-11.3291
▁establishment	-11.3291
▁masterpiece	-11.3291
▁psst	-11.3291
▁geez	-11.3291
▁butterflies	-11.3291
▁irish	-11.3292
▁rotten	-11.3292
▁tilt	-11.3292
▁porch	-11.3292
▁sni	-11.3292
▁lobo	-11.3292
▁ersa	-11.3292
▁snapping	-11.3292
▁spray	-11.3292
▁internet	-11.3292
▁spar	-11.3292
▁veil	-11.3292
▁ruff	-11.3292
▁multiverse	-11.3292
▁armbar	-11.3292
▁abortion	-11.3292
▁boong	-11.3292
▁victorious	-11.3292
▁authorized	-11.3292
▁flatbed	-11.3292
▁nlght	-11.3292
▁icu	-11.3292
▁editor	-11.3292
▁chaos	-11.3292
▁sober	-11.3292
▁introduction	-11.3292
▁wakefield	-11.3292
▁ringbearer	-11.3292
▁orphanage	-11.3292
▁peach	-11.3292
▁philosophy	-11.3292
free	-11.3292
▁halloween	-11.3292
▁joan	-11.3292
▁bloodshed	-11.3292
▁roster	-11.3293
▁delete	-11.3293
▁handshake	-11.3293
▁airfield	-11.3293
▁liftoff	-11.3293
▁vick	-11.3293
▁maze	-11.3293
itating	-11.3293
▁optical	-11.3293
▁reflection	-11.3293
▁conceal	-11.3293
▁racist	-11.3293
▁removal	-11.3293
▁rival	-11.3293
▁priority	-11.3293
▁slate	-11.3293
▁containment	-11.3293
▁jackass	-11.3293
▁moonlight	-11.3293
▁conscious	-11.3293
▁faci	-11.3293
▁alcoholic	-11.3293
▁lamp	-11.3293
▁unsub	-11.3294
▁wong	-11.3294
▁bragg	-11.3294
▁ogie	-11.3294
▁pole	-11.3294
▁inverter	-11.3294
▁superpower	-11.3294
▁motherinlaw	-11.3294
▁cowan	-11.3294
▁mlss	-11.3294
▁isa	-11.3294
▁psychic	-11.3294
▁zoom	-11.3294
xcuse	-11.3294
▁karate	-11.3294
▁brisket	-11.3294
▁chemistry	-11.3294
▁undone	-11.3294
▁stake	-11.3294
▁dispute	-11.3294
▁qualify	-11.3295
▁plum	-11.3295
▁retarded	-11.3295
▁homicide	-11.3295
▁rotting	-11.3295
▁royalty	-11.3295
▁suspense	-11.3295
▁seize	-11.3295
▁payroll	-11.3295
▁appearance	-11.3295
▁homo	-11.3295
▁revive	-11.3295
▁accurate	-11.3295
▁kong	-11.3295
▁brim	-11.3295
▁philippe	-11.3295
▁commence	-11.3296
▁percentage	-11.3296
hose	-11.3296
▁panty	-11.3296
▁luxury	-11.3296
▁pussy	-11.3296
▁temporary	-11.3296
▁slightest	-11.3296
roll	-11.3296
▁contamination	-11.3296
▁fran	-11.3296
▁ambition	-11.3296
▁robinson	-11.3296
▁governing	-11.3296
▁alley	-11.3296
▁reign	-11.3296
▁guan	-11.3296
▁poke	-11.3296
uva	-11.3296
▁pow	-11.3297
▁assemble	-11.3297
imately	-11.3297
▁underc	-11.3297
▁execution	-11.3298
▁stitches	-11.3298
▁spill	-11.3298
▁feedback	-11.3298
▁replacement	-11.3298
▁critical	-11.3298
▁seattle	-11.3298
▁finch	-11.3299
▁squash	-11.3299
▁calum	-11.3299
▁dwell	-11.3299
▁gently	-11.3299
▁kitty	-11.3299
▁villain	-11.33
▁castor	-11.33
▁charlle	-11.33
▁teasing	-11.33
▁buckle	-11.3301
▁peak	-11.3301
▁courageous	-11.3301
▁quitting	-11.3301
▁patty	-11.3301
▁spinning	-11.3301
▁rhyme	-11.3301
▁asian	-11.3301
▁taint	-11.3301
▁continent	-11.3302
▁spain	-11.3302
▁ultimately	-11.3302
▁kipp	-11.3302
▁yoga	-11.3302
▁sunny	-11.3302
▁harmless	-11.3302
▁resigned	-11.3302
▁bandage	-11.3303
▁berries	-11.3303
▁furn	-11.3303
▁anomaly	-11.3303
▁greedy	-11.3303
ility	-11.3303
▁broom	-11.3304
▁takin	-11.3304
▁cj	-11.3304
▁bribe	-11.3304
▁composed	-11.3305
▁opposed	-11.3305
▁adamant	-11.3305
▁alum	-11.3305
▁cosmo	-11.3306
▁warmth	-11.3307
▁villa	-11.3307
▁shark	-11.3307
▁crater	-11.3308
istic	-11.3308
▁preparation	-11.3308
▁carries	-11.3308
▁dried	-11.3308
▁tele	-11.3309
▁sway	-11.3309
▁shush	-11.3309
▁shattered	-11.331
▁downloaded	-11.331
▁development	-11.331
▁jap	-11.331
▁rejected	-11.331
▁bravery	-11.3311
▁formation	-11.3311
▁bubble	-11.3311
▁herd	-11.3312
▁countryside	-11.3312
▁conflict	-11.3312
▁pushup	-11.3313
▁drunken	-11.3313
▁adamian	-11.3314
▁parameters	-11.3314
▁prefects	-11.3314
▁flown	-11.3314
▁suppress	-11.3314
▁rubber	-11.3315
door	-11.3315
▁personality	-11.3315
▁qualified	-11.3315
blam	-11.3317
▁realizing	-11.3317
▁tout	-11.3317
▁traditional	-11.3317
▁dean	-11.3317
▁sunk	-11.3317
▁disconnected	-11.3318
▁registered	-11.3318
▁stray	-11.3318
ached	-11.3319
▁knott	-11.332
▁mustard	-11.332
▁rental	-11.3321
▁constantly	-11.3322
onig	-11.3322
▁ri	-11.3322
▁approaches	-11.3323
nut	-11.3324
▁hom	-11.3324
arus	-11.3324
▁faintly	-11.3325
▁ish	-11.3325
▁deadhead	-11.3326
▁collector	-11.3326
▁tart	-11.3328
▁robe	-11.3328
▁pinn	-11.3329
▁lola	-11.3329
▁christian	-11.3329
▁carine	-11.333
▁embe	-11.333
▁hobbitses	-11.3331
▁hiya	-11.3331
▁laughlng	-11.3331
▁starve	-11.3332
▁ravi	-11.3332
rien	-11.3333
▁dose	-11.3333
▁fulfilled	-11.3334
▁pam	-11.3334
▁awaken	-11.3335
▁deli	-11.3336
▁breeding	-11.3337
▁clacking	-11.3338
▁shutting	-11.3338
▁lever	-11.3339
▁grieve	-11.334
▁drugg	-11.3341
▁audited	-11.3341
▁thrilled	-11.3341
▁twisted	-11.3341
▁modif	-11.3343
▁pun	-11.3343
▁fasten	-11.3343
high	-11.3346
▁don	-11.3348
▁ew	-11.3349
▁helena	-11.3351
▁jules	-11.3353
nln	-11.3353
▁twister	-11.3353
▁discriminat	-11.3355
▁eel	-11.3356
▁neighs	-11.3356
▁ravagers	-11.3356
▁rumours	-11.3356
▁relics	-11.3356
▁calculations	-11.3356
▁stumbles	-11.3356
▁clatters	-11.3357
▁reserve	-11.3357
▁diver	-11.3359
essler	-11.3359
▁kindness	-11.3359
▁heroin	-11.336
▁marsh	-11.336
▁genes	-11.3361
▁formerly	-11.3361
▁annoy	-11.3362
▁taller	-11.3362
▁tomb	-11.3362
▁cord	-11.3364
ois	-11.3366
▁poster	-11.3368
▁virginian	-11.3369
▁traced	-11.3369
▁isi	-11.3373
▁printed	-11.3375
▁your	-11.3375
▁sole	-11.3378
▁forge	-11.3379
▁erase	-11.3379
▁usa	-11.3382
ckle	-11.3382
receptionist	-11.3383
illes	-11.3384
▁cried	-11.3384
▁sung	-11.3385
▁burnin	-11.3386
▁newton	-11.3387
▁tel	-11.3387
emen	-11.3388
▁treaty	-11.339
▁sinking	-11.3391
tal	-11.3392
▁ev	-11.3392
▁gale	-11.3392
▁affected	-11.3393
▁breed	-11.3395
▁dun	-11.3396
▁desired	-11.3396
▁locke	-11.3399
▁roots	-11.3399
▁expenses	-11.3399
▁symptoms	-11.3399
▁slay	-11.3401
▁unh	-11.3402
▁psycholog	-11.3402
▁dumped	-11.3404
▁lent	-11.3404
▁publishers	-11.3405
▁blown	-11.3406
▁aborigines	-11.3409
▁hump	-11.341
orris	-11.3412
▁confirming	-11.3412
▁claiming	-11.3413
erous	-11.3417
ologist	-11.3418
▁incl	-11.3423
holds	-11.3427
▁historical	-11.3427
▁practiced	-11.3431
mortality	-11.3431
▁deaths	-11.3432
▁texting	-11.3433
aki	-11.3434
▁sen	-11.3435
▁scratched	-11.3436
vet	-11.3436
this	-11.3436
▁ribs	-11.3438
▁shares	-11.3442
▁recognized	-11.3442
lay	-11.3443
▁immigrants	-11.3443
▁vodkas	-11.3443
▁hooked	-11.3443
▁flushing	-11.3444
▁sewers	-11.3446
▁halflings	-11.3446
▁rivers	-11.3459
▁maker	-11.346
▁kite	-11.346
▁brands	-11.3464
▁nesting	-11.3465
xma	-11.3466
▁closest	-11.3471
▁correction	-11.3473
▁mall	-11.3474
▁messy	-11.3478
▁expectation	-11.3478
▁poetic	-11.3479
pot	-11.3481
nen	-11.3484
▁scams	-11.3486
▁spiders	-11.3486
▁sling	-11.3486
▁pearls	-11.3486
▁cigars	-11.3486
▁jews	-11.3486
▁echoing	-11.3487
▁customers	-11.3489
▁lawn	-11.3496
▁pissing	-11.3499
nnie	-11.3503
▁moans	-11.3515
ological	-11.3516
▁urges	-11.3516
▁proceeding	-11.3519
▁prey	-11.3522
▁hurtin	-11.3523
▁surf	-11.3524
▁colored	-11.3531
unny	-11.3531
▁tricked	-11.3535
▁whoops	-11.3535
▁dealt	-11.3543
▁lil	-11.3543
▁agh	-11.3545
▁assumed	-11.3546
▁checkin	-11.3548
▁achieve	-11.355
▁curs	-11.3551
▁classy	-11.3551
▁rect	-11.3565
▁fugitives	-11.3574
▁pigeons	-11.3574
▁ditch	-11.358
▁gardener	-11.3584
▁ents	-11.3591
▁rein	-11.3594
▁sucker	-11.36
▁secretly	-11.36
▁county	-11.36
lem	-11.3601
job	-11.3607
▁whys	-11.3615
▁genetics	-11.3618
▁poems	-11.3618
▁neighbors	-11.3618
▁scrunts	-11.3618
▁hospitals	-11.3618
ash	-11.3626
edo	-11.3654
take	-11.3658
▁sab	-11.366
▁channels	-11.3662
▁sails	-11.3665
▁boo	-11.367
▁att	-11.3671
ilda	-11.3674
rian	-11.3675
▁gifted	-11.3689
kln	-11.3692
brah	-11.37
▁cont	-11.3702
▁procedures	-11.3706
▁traitors	-11.3706
▁lizards	-11.3706
▁lightly	-11.372
▁charl	-11.3743
▁cocks	-11.375
▁tugs	-11.3751
▁briefing	-11.3767
▁tales	-11.3771
ker	-11.3779
▁hallowe	-11.3779
az	-11.378
▁wondered	-11.3799
▁divers	-11.3804
▁ax	-11.3809
▁explained	-11.3813
▁negotiate	-11.3828
▁roads	-11.3837
▁effects	-11.384
▁fee	-11.3846
za	-11.385
llery	-11.3852
lat	-11.3853
▁sle	-11.3875
▁deed	-11.3901
▁ages	-11.3923
▁lists	-11.3925
▁shores	-11.3929
ata	-11.3937
▁nud	-11.394
rick	-11.395
▁cures	-11.3953
▁trad	-11.396
▁crowded	-11.3961
▁dents	-11.3962
pped	-11.3968
▁troubled	-11.3968
rock	-11.3971
▁adventures	-11.3972
▁oceans	-11.3975
▁snaps	-11.3975
▁unite	-11.3976
▁farts	-11.398
▁frankly	-11.3985
▁commanded	-11.3996
tract	-11.4
▁clarif	-11.4
latin	-11.4003
▁vol	-11.4012
▁settings	-11.402
▁hopp	-11.4056
▁perfected	-11.406
▁debts	-11.4065
▁noises	-11.4065
arian	-11.4086
ough	-11.4094
▁cooler	-11.41
list	-11.4127
berating	-11.4141
▁challenges	-11.4144
▁interven	-11.4145
▁whe	-11.4154
ets	-11.4155
▁winners	-11.4156
▁dian	-11.4164
▁apes	-11.4164
▁greas	-11.4167
▁pulls	-11.42
▁regrets	-11.4202
▁formal	-11.4208
▁handy	-11.4216
▁tol	-11.4235
▁chairs	-11.4248
▁devices	-11.4248
test	-11.425
▁keeper	-11.4252
▁decides	-11.4253
▁skys	-11.4276
▁xi	-11.4277
▁af	-11.428
your	-11.4306
▁pu	-11.4333
till	-11.4343
▁lander	-11.4358
ology	-11.4363
▁glori	-11.4363
▁eli	-11.4369
▁showers	-11.4384
▁missle	-11.4385
▁tips	-11.4387
▁translat	-11.4388
ahda	-11.4396
▁sincere	-11.44
ith	-11.44
▁mol	-11.4404
ani	-11.4406
▁slowing	-11.4411
▁ce	-11.4412
▁trac	-11.4425
▁trusts	-11.4434
▁keg	-11.4436
lce	-11.4464
▁sounding	-11.4465
hold	-11.4465
rich	-11.4466
▁rust	-11.4467
▁conditions	-11.4479
▁elizas	-11.4479
▁defendants	-11.4481
▁destroyer	-11.4485
▁contribute	-11.4488
▁flirt	-11.4493
▁magical	-11.4504
shit	-11.4514
▁pep	-11.4515
aver	-11.4516
▁towers	-11.453
oohoo	-11.4541
▁scrap	-11.4545
▁ci	-11.4553
▁ninety	-11.4569
tches	-11.4572
▁uniforms	-11.4573
▁mavericks	-11.4573
▁exists	-11.4573
ida	-11.4579
▁vivi	-11.459
gents	-11.4603
▁bio	-11.4606
▁vu	-11.4618
▁actions	-11.4622
▁pops	-11.4639
mill	-11.4646
uch	-11.466
▁smuggl	-11.4667
▁parted	-11.4671
▁deposit	-11.4682
▁nicely	-11.4709
shot	-11.4713
▁sakes	-11.4713
▁justices	-11.4714
▁lighting	-11.4715
▁wr	-11.4716
date	-11.4716
▁mmmm	-11.472
eak	-11.4721
now	-11.4722
hawk	-11.4726
ola	-11.4756
▁normans	-11.4761
▁dishonour	-11.4764
▁kar	-11.4769
▁cit	-11.4769
moi	-11.4772
atlon	-11.4785
mens	-11.4786
▁intervene	-11.4792
▁defi	-11.4801
▁undo	-11.4813
▁assassin	-11.4815
talk	-11.4822
▁etc	-11.4832
imb	-11.4839
▁killers	-11.4843
▁appointments	-11.4856
hill	-11.4857
▁sock	-11.4858
▁hog	-11.4879
▁juli	-11.4886
sis	-11.4912
mat	-11.493
▁just	-11.494
▁trusting	-11.4947
ggles	-11.4965
dale	-11.4967
usion	-11.4979
▁doo	-11.498
lle	-11.4982
shade	-11.4986
mic	-11.4995
▁cro	-11.5
ington	-11.5027
▁ter	-11.5049
▁readings	-11.5053
▁foods	-11.5065
rated	-11.5078
ront	-11.5078
bp	-11.5085
▁goggle	-11.5103
rake	-11.5103
▁mul	-11.5118
▁hugg	-11.513
itable	-11.5131
▁travels	-11.5135
▁marys	-11.5143
▁exception	-11.5144
uel	-11.515
▁fau	-11.5153
▁scalp	-11.5153
▁arti	-11.5153
▁hl	-11.516
▁rockets	-11.5181
▁screws	-11.5198
▁rubb	-11.5211
▁sights	-11.5217
nia	-11.5232
▁rib	-11.5263
▁mer	-11.5281
▁hum	-11.5286
ids	-11.5294
▁depress	-11.5305
orrow	-11.5315
yo	-11.5324
▁choos	-11.5325
▁fri	-11.5328
ford	-11.5328
▁promo	-11.5329
▁natha	-11.5333
ellen	-11.5349
ltlon	-11.5365
▁doe	-11.5367
alo	-11.5382
itis	-11.54
▁laz	-11.5405
▁stones	-11.5406
▁tha	-11.541
▁product	-11.5413
▁spots	-11.5436
▁rl	-11.5436
sk	-11.5459
▁maniac	-11.5462
▁snows	-11.5465
dian	-11.5466
ov	-11.5469
▁mali	-11.5475
▁bake	-11.5487
▁her	-11.5489
▁thinkin	-11.5491
orse	-11.551
met	-11.5525
▁falcon	-11.5529
nade	-11.5529
▁rational	-11.5538
▁exclaim	-11.5568
▁custom	-11.5568
▁fade	-11.5574
rog	-11.5577
▁spoil	-11.5581
▁autograph	-11.5584
▁individual	-11.5584
▁sweatshop	-11.5584
▁cocktail	-11.5584
▁elbow	-11.5584
▁comic	-11.5585
▁motel	-11.5585
▁companion	-11.5585
▁pillow	-11.5586
lngton	-11.5593
▁beacon	-11.5593
▁dragonslayer	-11.5593
▁essay	-11.5593
▁convention	-11.5593
▁carpet	-11.5593
▁immigrant	-11.5598
▁vodka	-11.5598
▁athlete	-11.5601
▁prototype	-11.5601
▁maggot	-11.5604
▁thumb	-11.5604
▁smokes	-11.5606
▁gladiator	-11.5607
▁sheet	-11.5611
▁pirate	-11.5611
▁resource	-11.5611
▁palm	-11.5612
▁suggestion	-11.5617
▁sewer	-11.562
▁je	-11.5626
tty	-11.5628
▁mend	-11.5629
▁conj	-11.5634
▁term	-11.5635
vitational	-11.5635
▁halfling	-11.5639
arms	-11.5645
▁ahhh	-11.5658
▁bean	-11.5659
eye	-11.5664
▁boob	-11.5673
keepers	-11.5673
▁elect	-11.5686
▁fianc	-11.5687
▁complain	-11.5694
▁lov	-11.5701
ground	-11.5714
▁drip	-11.5717
ssup	-11.5724
▁ideal	-11.5726
form	-11.5731
▁mot	-11.5733
▁hick	-11.5738
▁discover	-11.5742
▁squeal	-11.5746
kat	-11.5751
lich	-11.5752
▁forc	-11.5752
▁clank	-11.5753
▁crook	-11.5753
▁appoint	-11.5754
▁theo	-11.5755
▁register	-11.5755
beard	-11.5755
▁disconnect	-11.5756
mount	-11.5757
defeated	-11.5757
storm	-11.5758
trish	-11.576
josh	-11.576
▁recognise	-11.576
crowd	-11.576
around	-11.5761
ward	-11.5762
burg	-11.5762
ski	-11.5763
paid	-11.5763
print	-11.5763
three	-11.5763
level	-11.5763
kind	-11.5763
dead	-11.5764
▁locate	-11.5764
▁collapse	-11.5765
mother	-11.5766
▁expose	-11.5766
flynn	-11.5767
▁frau	-11.5768
cloth	-11.5769
word	-11.5769
▁improve	-11.577
ready	-11.5771
sque	-11.5772
ition	-11.5773
wayne	-11.5773
▁anomal	-11.5774
▁should	-11.5774
▁thorough	-11.5774
▁cloth	-11.5774
▁mode	-11.5774
good	-11.5775
▁genuine	-11.5775
▁necessar	-11.5775
▁ultimate	-11.5776
▁antenna	-11.5776
▁bore	-11.5776
soon	-11.5777
▁apparent	-11.5777
▁energ	-11.5777
tache	-11.5777
▁joel	-11.5778
▁squeez	-11.5778
▁employ	-11.5778
▁nurs	-11.5778
▁preach	-11.5779
▁debat	-11.5779
rawl	-11.578
stone	-11.5781
▁practical	-11.5782
▁norma	-11.5782
▁patricia	-11.5782
▁ambitio	-11.5783
taneous	-11.5784
▁disable	-11.5785
▁corporat	-11.5786
elimina	-11.5786
ternal	-11.5786
▁declare	-11.5786
▁fulfil	-11.5786
phone	-11.5787
▁selfdestruct	-11.5787
lala	-11.5787
▁pose	-11.5787
▁reflect	-11.5787
▁riva	-11.5787
▁chooses	-11.5787
▁abagna	-11.5788
eight	-11.5788
▁grocer	-11.5788
▁changin	-11.5788
▁valkyr	-11.5788
▁depart	-11.5788
▁deutsch	-11.5788
uring	-11.5788
▁disrespect	-11.5789
▁transmit	-11.5789
hony	-11.5789
▁accelera	-11.5789
▁disney	-11.579
▁joseph	-11.579
▁bacon	-11.579
▁optimis	-11.579
▁conspi	-11.579
▁endeav	-11.579
▁miraculous	-11.579
▁phenomen	-11.579
▁stagger	-11.579
▁abomination	-11.579
▁abroad	-11.579
▁absurd	-11.579
▁acoustic	-11.579
▁acquaintance	-11.579
▁advisor	-11.579
▁alabama	-11.579
▁americus	-11.579
▁andreiko	-11.579
▁antarctica	-11.579
▁antoinett	-11.579
▁anyhow	-11.579
▁aperitif	-11.579
▁arathorn	-11.579
▁architect	-11.579
▁arturo	-11.579
▁asano	-11.579
▁asylum	-11.579
▁authentic	-11.579
▁barricade	-11.579
▁bathtub	-11.579
▁bedlam	-11.579
▁bikini	-11.579
▁bounty	-11.579
▁bradshaw	-11.579
▁bravura	-11.579
▁brumby	-11.579
▁brushstrokes	-11.579
▁bureau	-11.579
▁cadogan	-11.579
▁cafeteria	-11.579
▁caiman	-11.579
▁calories	-11.579
▁cannelloni	-11.579
▁catastrophic	-11.579
▁cautious	-11.579
▁chandelier	-11.579
▁chaplain	-11.579
▁chattel	-11.579
▁chaucer	-11.579
▁chhote	-11.579
▁chump	-11.579
▁citadel	-11.579
▁claude	-11.579
▁clucking	-11.579
▁competitive	-11.579
▁concrete	-11.579
▁connecticut	-11.579
▁crocodile	-11.579
▁croissant	-11.579
▁crucial	-11.579
▁daladier	-11.579
▁darcelle	-11.579
▁deactivate	-11.579
▁defect	-11.579
▁devastati	-11.579
▁dowry	-11.579
▁duchess	-11.579
▁electrocuted	-11.579
▁elendil	-11.579
▁embark	-11.579
▁emmett	-11.579
▁engrav	-11.579
▁eothain	-11.579
▁espionage	-11.579
▁excellency	-11.579
▁extinction	-11.579
▁fitzgerald	-11.579
▁frampton	-11.579
▁frequent	-11.579
▁gamgee	-11.579
▁geometry	-11.579
▁gerbil	-11.579
▁glamour	-11.579
▁glasstipped	-11.579
▁grumpy	-11.579
▁haldir	-11.579
▁hasek	-11.579
▁hawthorne	-11.579
▁hemorrhoid	-11.579
▁houdini	-11.579
▁hydraulic	-11.579
▁ignoring	-11.579
▁impediment	-11.579
▁insanity	-11.579
▁insolence	-11.579
▁isolation	-11.579
▁itinerary	-11.579
▁jogging	-11.579
▁jupiter	-11.579
▁jurisdiction	-11.579
▁kangaroo	-11.579
▁karapetyan	-11.579
▁kombucha	-11.579
▁kraut	-11.579
▁kuraman	-11.579
▁ladakh	-11.579
▁landmark	-11.579
▁ldiot	-11.579
▁linney	-11.579
▁lloyd	-11.579
▁ludwig	-11.579
▁maureen	-11.579
▁meadow	-11.579
▁meatloaf	-11.579
▁mechanism	-11.579
▁meriadoc	-11.579
▁militia	-11.579
▁ministry	-11.579
▁minstrel	-11.579
▁misunderstand	-11.579
▁monstrous	-11.579
▁montreal	-11.579
▁morgul	-11.579
▁mortgage	-11.579
▁mushrooms	-11.579
▁nobrainer	-11.579
▁northeast	-11.579
▁norwegian	-11.579
▁okeydoke	-11.579
▁operatically	-11.579
▁opportunities	-11.579
▁pancaked	-11.579
▁paperhanger	-11.579
▁paragraph	-11.579
▁paranoid	-11.579
▁pardner	-11.579
▁picasso	-11.579
▁propaganda	-11.579
▁quarantine	-11.579
▁rebellion	-11.579
▁rebuilt	-11.579
▁recipe	-11.579
▁redfoo	-11.579
▁richmond	-11.579
▁rookie	-11.579
▁rosalie	-11.579
▁rousseau	-11.579
▁rrince	-11.579
▁rusticated	-11.579
▁rutaganda	-11.579
▁savior	-11.579
▁saxophone	-11.579
▁scenario	-11.579
▁seatbelt	-11.579
▁seawater	-11.579
▁sedgewick	-11.579
▁shockwave	-11.579
▁singularity	-11.579
▁specs	-11.579
▁spectacle	-11.579
▁submersible	-11.579
▁sudetenland	-11.579
▁suffragettes	-11.579
▁sumbitch	-11.579
▁sunglasses	-11.579
▁surname	-11.579
▁surviving	-11.579
▁tantrum	-11.579
▁tanzania	-11.579
▁technician	-11.579
▁thanksgiving	-11.579
▁theatre	-11.579
▁theft	-11.579
▁tissue	-11.579
▁trajectory	-11.579
▁tweezers	-11.579
▁understatement	-11.579
▁unwilling	-11.579
▁urineexpulsion	-11.579
▁utility	-11.579
▁valedictorian	-11.579
▁variety	-11.579
▁verheiden	-11.579
▁verify	-11.579
▁vesuvius	-11.579
▁wardrobe	-11.579
▁weasel	-11.579
▁wheelchair	-11.579
▁whinnying	-11.579
▁wichita	-11.579
▁wrestlemania	-11.579
▁wrinkle	-11.579
▁adorable	-11.579
▁blunt	-11.579
▁dmk	-11.579
▁hayao	-11.579
▁latrine	-11.579
▁leavln	-11.579
▁mandarin	-11.579
▁martyr	-11.579
▁obstacle	-11.579
▁outlast	-11.579
▁oyster	-11.579
▁pbc	-11.579
▁pianist	-11.579
▁prodig	-11.579
▁resort	-11.579
▁shotgun	-11.579
▁smudg	-11.579
▁stench	-11.579
▁theater	-11.579
▁torment	-11.579
▁ufc	-11.579
▁uncover	-11.579
▁amore	-11.579
▁chorus	-11.579
▁dairy	-11.579
▁elevate	-11.579
▁ethan	-11.579
▁extinguish	-11.579
▁features	-11.579
▁ivy	-11.579
▁jedda	-11.579
▁pneumonia	-11.579
▁retro	-11.579
▁staging	-11.579
▁stalking	-11.579
▁yankees	-11.579
▁ifit	-11.579
▁technological	-11.579
▁abyss	-11.579
▁arteries	-11.579
▁circuits	-11.579
▁droving	-11.579
▁exorcism	-11.579
▁hovercraft	-11.579
▁lucille	-11.579
▁mugg	-11.579
▁octavius	-11.579
▁scanners	-11.579
▁sweden	-11.579
▁triads	-11.579
▁flattered	-11.579
▁ghibli	-11.579
▁harmony	-11.579
▁idaho	-11.579
▁outgoing	-11.579
▁phasing	-11.579
▁collision	-11.579
▁emeril	-11.579
▁panicked	-11.579
▁decompress	-11.579
▁manifest	-11.579
▁diaper	-11.579
dadaiah	-11.579
datdada	-11.579
▁chiming	-11.579
▁lemonade	-11.579
▁straddle	-11.579
▁fanatic	-11.579
▁humiliating	-11.579
▁mearing	-11.579
▁susan	-11.579
oleum	-11.579
▁rusesabagina	-11.579
▁unseen	-11.579
▁contusion	-11.579
▁pandem	-11.579
▁devotion	-11.579
▁oracle	-11.579
▁lucius	-11.579
▁organics	-11.579
▁bavaria	-11.579
▁brutal	-11.579
▁disloyal	-11.579
▁vermont	-11.579
▁whines	-11.579
▁abrupt	-11.579
▁afterward	-11.579
▁assumption	-11.579
▁kevlar	-11.579
▁vandal	-11.579
▁counterearth	-11.579
▁revoir	-11.579
▁impertinent	-11.579
▁conclusion	-11.579
▁cunning	-11.579
▁downhill	-11.579
▁lobby	-11.579
▁retiring	-11.579
▁bleach	-11.5791
▁conserv	-11.5791
▁plunge	-11.5791
▁colville	-11.5791
quench	-11.5791
▁efficient	-11.5791
▁unstable	-11.5791
▁housing	-11.5791
▁summar	-11.5791
▁bradley	-11.5791
▁foreskin	-11.5791
▁relativity	-11.5791
▁underhill	-11.5791
▁turbo	-11.5791
▁coconut	-11.5791
▁parlor	-11.5791
▁unhook	-11.5791
▁blank	-11.5791
▁enforcement	-11.5791
▁involvement	-11.5791
▁detonator	-11.5791
▁trampled	-11.5791
▁cheep	-11.5791
▁stockade	-11.5791
▁elvish	-11.5791
▁saddlebag	-11.5791
▁snitch	-11.5791
▁dodge	-11.5791
▁prescription	-11.5791
▁fundamental	-11.5791
▁tunic	-11.5791
▁yank	-11.5791
▁louella	-11.5791
▁spicy	-11.5791
▁nobel	-11.5791
▁lutheran	-11.5791
▁premeditation	-11.5791
▁contrary	-11.5791
▁grill	-11.5791
▁scotch	-11.5791
▁flint	-11.5791
▁ipad	-11.5791
▁bogey	-11.5791
▁antique	-11.5791
▁hasty	-11.5791
▁galley	-11.5791
▁phew	-11.5791
▁moses	-11.5791
▁euro	-11.5791
▁haney	-11.5791
▁bonnie	-11.5791
▁worship	-11.5791
▁prix	-11.5791
▁brophy	-11.5791
▁zebra	-11.5791
▁strand	-11.5791
▁jolly	-11.5791
▁twentyeight	-11.5791
▁sltu	-11.5791
▁midget	-11.5791
▁gerald	-11.5791
▁accomplishment	-11.5791
▁fluke	-11.5791
▁nelson	-11.5791
▁cutters	-11.5791
▁outpost	-11.5791
sota	-11.5791
▁skipped	-11.5791
▁unconscious	-11.5791
▁xray	-11.5791
▁infantry	-11.5791
▁sprain	-11.5791
▁twitch	-11.5791
▁venture	-11.5791
▁stewardess	-11.5791
▁klds	-11.5791
▁jingle	-11.5791
▁crazi	-11.5791
▁codename	-11.5791
▁territories	-11.5791
weave	-11.5791
▁bloke	-11.5791
▁andand	-11.5791
▁shiny	-11.5791
▁foley	-11.5791
▁tragically	-11.5791
▁harsh	-11.5791
▁righteous	-11.5791
▁description	-11.5791
▁tranquility	-11.5791
▁festival	-11.5792
▁consciousness	-11.5792
▁evacuation	-11.5792
▁valve	-11.5792
timate	-11.5792
▁darla	-11.5792
▁delhi	-11.5792
▁fedens	-11.5792
▁administration	-11.5792
▁industrial	-11.5792
▁footprint	-11.5792
sident	-11.5792
▁rita	-11.5792
▁intr	-11.5792
▁chatting	-11.5792
▁avail	-11.5792
▁scorn	-11.5792
▁inspecti	-11.5792
▁utter	-11.5792
▁invaders	-11.5792
▁harass	-11.5792
▁treebeard	-11.5792
▁preferred	-11.5792
▁dutton	-11.5792
▁income	-11.5792
▁steak	-11.5792
libr	-11.5792
▁deutschland	-11.5792
▁nlce	-11.5792
▁diction	-11.5792
▁avalon	-11.5792
▁windmill	-11.5792
▁voil	-11.5792
▁disruption	-11.5792
▁voting	-11.5792
▁knit	-11.5792
oulet	-11.5792
▁oppression	-11.5793
▁ashland	-11.5793
▁sutton	-11.5793
▁fanboy	-11.5793
▁sequ	-11.5793
▁elder	-11.5793
▁elite	-11.5793
▁occasional	-11.5793
▁disobey	-11.5793
▁mercenary	-11.5793
▁obsession	-11.5793
▁fiber	-11.5793
▁bumble	-11.5793
▁spike	-11.5793
▁grima	-11.5793
▁madonna	-11.5793
▁starboard	-11.5793
▁herman	-11.5793
▁parachutes	-11.5793
▁poland	-11.5793
▁laces	-11.5793
▁domest	-11.5793
▁shook	-11.5793
▁basket	-11.5793
▁jock	-11.5793
▁notebook	-11.5794
▁merciless	-11.5794
▁artery	-11.5794
▁chemo	-11.5794
▁gangster	-11.5794
▁scroll	-11.5794
▁sniffling	-11.5794
▁lemon	-11.5794
▁operate	-11.5794
▁claw	-11.5794
▁programmable	-11.5794
▁milli	-11.5794
▁diversion	-11.5794
▁nina	-11.5794
▁armour	-11.5794
▁moanlng	-11.5794
▁oliver	-11.5794
▁auditor	-11.5795
▁rotty	-11.5795
▁commandments	-11.5795
▁lexie	-11.5795
▁mush	-11.5795
▁andre	-11.5795
▁barrier	-11.5795
▁fraction	-11.5795
▁spon	-11.5795
▁revelation	-11.5795
▁accusation	-11.5795
▁skinny	-11.5795
▁reich	-11.5795
▁award	-11.5795
▁glow	-11.5796
▁inhabit	-11.5796
▁bishop	-11.5796
▁blazing	-11.5796
▁inherit	-11.5796
▁swan	-11.5796
▁youngsoon	-11.5796
▁occupied	-11.5796
▁bleep	-11.5796
▁presume	-11.5796
▁european	-11.5796
▁duff	-11.5796
zaki	-11.5796
▁provoke	-11.5796
▁strapon	-11.5796
▁newsstand	-11.5796
▁reload	-11.5796
▁cnn	-11.5796
▁fume	-11.5797
▁grandson	-11.5797
▁contributor	-11.5797
amental	-11.5797
▁ridge	-11.5797
ummin	-11.5797
▁innit	-11.5797
▁vibration	-11.5797
raham	-11.5797
▁countdown	-11.5797
actic	-11.5797
▁unmanned	-11.5797
▁accur	-11.5797
▁marci	-11.5797
▁nosing	-11.5797
▁controversy	-11.5798
▁fuzzy	-11.5798
▁swell	-11.5798
▁bruin	-11.5798
yi	-11.5798
▁junkers	-11.5798
▁havo	-11.5798
▁clang	-11.5798
▁patrician	-11.5798
▁once	-11.5798
▁chunky	-11.5798
▁halr	-11.5798
▁jamie	-11.5798
▁beastie	-11.5798
▁gps	-11.5798
▁judgement	-11.5798
▁clueless	-11.5799
▁invo	-11.5799
▁tuco	-11.5799
▁raw	-11.5799
▁translator	-11.5799
▁believing	-11.5799
onic	-11.5799
▁standby	-11.5799
▁grownup	-11.5799
▁tomatoes	-11.5799
▁playfully	-11.5799
add	-11.5799
▁outrun	-11.5799
▁posh	-11.5799
▁deathbed	-11.5799
▁lining	-11.5799
▁wager	-11.58
mela	-11.58
▁alumn	-11.58
▁youse	-11.5801
▁juggl	-11.5801
▁chemical	-11.5801
▁slot	-11.5801
▁westside	-11.5801
▁vin	-11.5801
▁certainty	-11.5801
▁monk	-11.5802
▁conceived	-11.5802
▁frontier	-11.5802
▁employer	-11.5802
▁preacher	-11.5802
filtrat	-11.5802
▁gig	-11.5802
▁modesty	-11.5802
▁stub	-11.5802
▁firsthand	-11.5802
▁stern	-11.5803
▁glu	-11.5803
▁logical	-11.5803
▁lndian	-11.5803
▁holies	-11.5803
▁leeds	-11.5803
▁bible	-11.5803
▁motivate	-11.5804
▁ritz	-11.5804
▁tre	-11.5804
▁perish	-11.5804
monica	-11.5804
▁sexual	-11.5805
▁nothln	-11.5805
▁dwe	-11.5805
▁puppet	-11.5805
▁yaga	-11.5805
▁genuinely	-11.5805
▁spotting	-11.5806
▁skirt	-11.5806
icini	-11.5806
▁feb	-11.5806
▁steve	-11.5806
▁hippie	-11.5806
▁diehard	-11.5807
▁occasionally	-11.5807
▁darn	-11.5807
▁devon	-11.5807
▁mimic	-11.5807
chte	-11.5807
chment	-11.5808
▁greed	-11.5808
▁detonate	-11.5808
▁trainer	-11.5808
▁restart	-11.5808
▁marie	-11.5808
▁mega	-11.5808
iness	-11.5809
▁alan	-11.5809
▁tailor	-11.5809
▁underestimated	-11.5809
▁luke	-11.5809
▁topside	-11.581
▁cere	-11.581
▁luca	-11.581
▁initially	-11.581
een	-11.581
▁icon	-11.581
▁unfi	-11.5811
▁specialty	-11.5811
▁coverage	-11.5811
▁alas	-11.5811
▁globe	-11.5812
ummer	-11.5812
racks	-11.5812
▁cuse	-11.5812
▁hedge	-11.5812
▁taxman	-11.5812
▁toby	-11.5813
▁rigid	-11.5813
▁hindu	-11.5813
▁branches	-11.5813
pound	-11.5814
▁daylight	-11.5814
▁charter	-11.5814
▁indiana	-11.5814
▁investor	-11.5814
▁nightstand	-11.5815
▁eliminated	-11.5815
▁standoff	-11.5815
▁policemen	-11.5816
▁residu	-11.5816
▁slosh	-11.5816
▁plucked	-11.5816
▁disabled	-11.5817
alino	-11.5817
▁baked	-11.5817
▁mature	-11.5818
▁anton	-11.5818
▁manually	-11.5819
▁warlock	-11.5819
lude	-11.5819
▁elliott	-11.5819
▁litter	-11.5819
▁erin	-11.582
▁lyrics	-11.582
▁offen	-11.582
▁dough	-11.582
▁hup	-11.582
▁losin	-11.582
▁fulltime	-11.5821
▁deville	-11.5821
▁richie	-11.5822
▁sailor	-11.5822
▁eatlon	-11.5822
▁grifts	-11.5822
▁handcuffs	-11.5822
▁torres	-11.5822
udder	-11.5823
▁slugg	-11.5823
▁guin	-11.5824
▁gee	-11.5824
▁rlng	-11.5825
▁supporters	-11.5826
▁halftime	-11.5827
▁constitute	-11.5827
▁lastminute	-11.5827
▁emily	-11.5827
▁metro	-11.5828
▁tighten	-11.5828
▁coverup	-11.5828
▁hospitality	-11.5828
▁sum	-11.5829
▁encouraged	-11.583
▁educated	-11.583
▁clamp	-11.583
▁promoted	-11.583
▁toughest	-11.5831
▁sur	-11.5831
▁investigating	-11.5831
▁stripper	-11.5831
▁tortured	-11.5832
▁layers	-11.5832
▁improved	-11.5833
▁soda	-11.5833
▁dism	-11.5833
▁orcses	-11.5833
▁located	-11.5833
▁dew	-11.5834
wal	-11.5834
▁willy	-11.5835
uous	-11.5836
▁seas	-11.5836
▁badass	-11.5836
▁slaughtered	-11.5837
▁dedicated	-11.5837
▁neg	-11.5838
▁hangar	-11.5838
▁mortality	-11.5838
stage	-11.5839
▁cleansed	-11.584
count	-11.5841
▁roe	-11.5841
▁parish	-11.5842
▁dorm	-11.5843
▁nun	-11.5844
▁everyday	-11.5844
rous	-11.5846
▁advised	-11.5847
▁lame	-11.5847
dise	-11.5848
▁jon	-11.5849
▁fairest	-11.585
▁contractor	-11.5851
▁cooperation	-11.5851
▁wllly	-11.5851
▁elected	-11.5851
ryan	-11.5852
▁slacking	-11.5853
▁mentally	-11.5854
▁backyard	-11.5854
▁donate	-11.5854
▁brat	-11.5854
▁chatterlng	-11.5855
▁teed	-11.5855
gers	-11.5856
▁caref	-11.5857
▁matches	-11.5859
▁frenchman	-11.586
▁superman	-11.586
▁runaway	-11.5861
▁doorway	-11.5862
▁madman	-11.5863
ency	-11.5865
▁penn	-11.5865
▁singh	-11.5865
joon	-11.5865
▁baron	-11.5865
▁fearless	-11.5867
doo	-11.5868
▁salty	-11.5868
▁drowned	-11.5868
gow	-11.5868
▁proph	-11.5869
▁weighed	-11.5869
▁restored	-11.587
oit	-11.587
▁merce	-11.587
▁appointed	-11.5871
▁tada	-11.5874
▁perfection	-11.5875
▁postpone	-11.5876
fluent	-11.5876
▁cowardly	-11.5877
▁shutters	-11.5877
▁rivets	-11.5877
drin	-11.5877
▁knobs	-11.5877
▁candidates	-11.5877
▁involves	-11.5878
▁sailed	-11.588
ko	-11.5881
▁colli	-11.5881
▁mic	-11.5882
▁buses	-11.5883
▁lair	-11.5883
▁anna	-11.5883
▁warheads	-11.5885
▁persia	-11.5885
▁stretched	-11.5888
▁followers	-11.5888
▁visitation	-11.5889
▁inject	-11.5889
▁hah	-11.589
▁informed	-11.589
▁hitched	-11.589
▁implant	-11.589
▁increased	-11.5892
▁induce	-11.5892
▁firearm	-11.5894
▁inch	-11.5894
▁splashing	-11.5894
▁pry	-11.5897
▁shard	-11.5897
▁cleverly	-11.5897
▁brighter	-11.5898
▁linked	-11.5899
▁fiance	-11.5901
▁winch	-11.5901
▁weaker	-11.5902
▁sneaky	-11.5904
▁takedown	-11.5904
inner	-11.5905
▁basis	-11.5907
▁weaken	-11.5907
▁convinced	-11.5908
▁developing	-11.5908
▁rewarded	-11.5909
▁measured	-11.5915
tted	-11.5915
▁bounced	-11.5915
▁ros	-11.5915
▁shooters	-11.5917
▁booster	-11.5919
▁recommended	-11.592
▁willingly	-11.5924
▁fm	-11.5925
rett	-11.5926
▁stressed	-11.593
▁bumped	-11.5932
▁musician	-11.5932
▁stirr	-11.5934
▁delusions	-11.5934
▁ripples	-11.5934
▁thlngs	-11.5934
▁descends	-11.5935
▁pints	-11.5937
▁weakly	-11.5937
▁carne	-11.5941
▁damp	-11.5943
▁sportscast	-11.5947
▁foes	-11.595
▁scattering	-11.5951
▁collected	-11.5951
▁pent	-11.5953
▁starters	-11.5961
▁whack	-11.5966
▁tighter	-11.5967
tory	-11.5968
laborator	-11.597
▁import	-11.5973
▁breakers	-11.5975
▁trailer	-11.5978
▁insulting	-11.5978
gled	-11.5978
▁expressing	-11.5979
▁performing	-11.5991
▁beacons	-11.5991
▁carpets	-11.5991
▁conventions	-11.5991
▁dragonslayers	-11.5991
▁essays	-11.5991
▁falcons	-11.5993
▁ignored	-11.5998
▁hums	-11.5999
▁umm	-11.6
▁introduced	-11.6008
▁programme	-11.601
▁funding	-11.601
▁ellis	-11.6017
ahili	-11.6017
▁dimi	-11.6019
▁washing	-11.6021
▁peeing	-11.6022
vasive	-11.6027
▁faithful	-11.6027
▁imper	-11.6029
hapel	-11.6033
▁intended	-11.6035
▁aiming	-11.6035
ener	-11.6037
▁picket	-11.6038
▁experienced	-11.6043
▁fairy	-11.6047
▁shortly	-11.6047
▁bruises	-11.6049
▁patterns	-11.6049
▁balloons	-11.6049
▁cullens	-11.6049
▁decades	-11.6049
▁deceptions	-11.6049
▁instruments	-11.6049
▁plugs	-11.6049
▁yelled	-11.6049
▁farming	-11.605
▁binds	-11.6052
▁nets	-11.6053
uld	-11.6057
▁correspond	-11.6058
▁probes	-11.606
▁rld	-11.6061
▁spi	-11.6072
▁bothered	-11.6082
six	-11.6088
▁chaps	-11.6091
▁dealer	-11.6091
▁smashing	-11.6092
▁bagg	-11.6095
▁lem	-11.6096
▁deserved	-11.6098
elf	-11.61
▁severed	-11.61
▁remained	-11.6103
▁hans	-11.6103
▁mcc	-11.6104
▁jewels	-11.6107
▁chicks	-11.6107
▁nails	-11.6108
▁gy	-11.6114
▁camels	-11.6115
ppy	-11.6121
▁beard	-11.6126
▁wang	-11.6127
tv	-11.6131
▁slower	-11.6131
zed	-11.6136
rung	-11.6147
▁lrs	-11.6153
ari	-11.6163
▁illness	-11.6164
▁courts	-11.6172
▁nam	-11.6173
▁appreciated	-11.6174
▁kr	-11.6176
▁col	-11.6182
qualified	-11.6183
ships	-11.6191
hlee	-11.6193
▁focusing	-11.6194
▁dukey	-11.6199
▁gladly	-11.6204
they	-11.6205
▁groupie	-11.6207
▁expects	-11.6214
▁redhead	-11.6216
▁marines	-11.6224
▁haste	-11.6224
▁ankles	-11.6224
▁owners	-11.6224
heads	-11.6225
▁motives	-11.6225
▁cables	-11.623
▁assets	-11.6231
▁libb	-11.6231
▁proved	-11.6232
▁mute	-11.6248
pher	-11.6258
nosy	-11.6262
▁clan	-11.6263
▁sins	-11.6264
▁reno	-11.6271
▁exceptional	-11.6279
▁praying	-11.628
▁cuffs	-11.6283
▁hostages	-11.6283
▁standards	-11.6286
▁snacks	-11.6286
▁dos	-11.6287
▁whips	-11.6313
▁indicate	-11.6314
has	-11.6321
▁mutts	-11.6331
ooooo	-11.6332
▁soaps	-11.6342
▁valuables	-11.6342
▁now	-11.6357
nge	-11.636
▁examin	-11.6367
ians	-11.6367
▁blacker	-11.6371
▁strat	-11.6373
▁ofyou	-11.6374
▁prosecut	-11.6374
anti	-11.6377
▁lone	-11.6382
▁whl	-11.6385
▁span	-11.6393
▁spits	-11.64
▁treasures	-11.6401
▁bangs	-11.6403
▁scars	-11.6411
▁watchin	-11.6417
ebra	-11.6422
▁dots	-11.6429
iggy	-11.6433
▁cau	-11.6447
▁inte	-11.6453
▁mln	-11.6457
▁amounts	-11.646
▁ladders	-11.646
▁bikes	-11.646
uc	-11.6461
rain	-11.6464
▁archers	-11.6464
ofthe	-11.6472
▁ants	-11.6473
oth	-11.6477
▁respected	-11.6486
▁wither	-11.6493
▁pip	-11.6494
▁rates	-11.6499
▁gi	-11.6504
vel	-11.6504
avi	-11.6507
▁berth	-11.6508
▁flr	-11.6508
▁recorded	-11.6511
rice	-11.6516
▁messing	-11.6516
▁narfs	-11.652
▁graduates	-11.6525
▁communications	-11.6526
▁locking	-11.6546
▁ali	-11.6547
▁sorted	-11.655
▁glance	-11.6562
▁bark	-11.6563
▁edit	-11.657
▁pranc	-11.6575
▁marking	-11.6577
ited	-11.6577
▁spears	-11.658
▁objects	-11.658
▁legends	-11.658
▁seals	-11.6581
▁wounds	-11.6582
▁clues	-11.6585
ger	-11.659
▁gill	-11.6598
▁sham	-11.6611
rigging	-11.6618
ower	-11.6627
▁swat	-11.6631
ndi	-11.6638
▁subjects	-11.664
▁chocolates	-11.664
▁compar	-11.6644
hell	-11.6649
▁fare	-11.6665
▁sho	-11.6674
hero	-11.6676
▁tunes	-11.6696
pla	-11.6698
▁seasons	-11.67
▁wizards	-11.6701
▁salts	-11.6704
▁beautifully	-11.6712
ration	-11.6736
▁petr	-11.674
▁der	-11.6749
▁cheats	-11.675
▁finishing	-11.6756
▁spins	-11.676
cal	-11.6766
▁bums	-11.677
▁babysit	-11.6775
▁jer	-11.6779
cap	-11.6786
oze	-11.6787
ool	-11.6788
▁invade	-11.6811
▁lances	-11.6823
buddh	-11.6828
▁calam	-11.6828
▁nod	-11.6855
rie	-11.6864
▁ec	-11.6871
lands	-11.6873
▁aids	-11.6879
▁wires	-11.688
▁statements	-11.6887
▁defeats	-11.6887
▁fortunes	-11.689
▁cann	-11.6899
loo	-11.69
▁bal	-11.6908
▁commun	-11.6916
▁cowards	-11.6947
ejection	-11.6969
▁habits	-11.6973
allow	-11.699
doc	-11.6991
ket	-11.6991
▁interfer	-11.6994
▁crop	-11.7
▁investigations	-11.7007
▁titles	-11.7007
▁capt	-11.7018
rawlers	-11.7034
▁realise	-11.7052
▁shant	-11.7055
lage	-11.7057
▁mandat	-11.7071
▁workers	-11.7073
gli	-11.7101
lence	-11.7125
▁tutsis	-11.7131
▁cracks	-11.7176
▁viv	-11.7183
▁shite	-11.7202
ringing	-11.7223
▁ami	-11.7228
▁mes	-11.7231
aggle	-11.7243
▁ham	-11.7243
▁merma	-11.7247
ogs	-11.7264
▁radical	-11.7269
▁contribut	-11.7271
▁fra	-11.7281
igrade	-11.7296
ofa	-11.7309
▁cooks	-11.7316
grade	-11.7322
nam	-11.7348
▁bru	-11.7357
▁env	-11.7357
▁tans	-11.7358
tar	-11.7373
▁ir	-11.7378
▁swo	-11.7383
lings	-11.7384
field	-11.7385
▁tense	-11.7388
▁treats	-11.7392
▁posts	-11.7429
mote	-11.7432
▁investigat	-11.7447
▁contracts	-11.7447
▁bothers	-11.7459
▁fen	-11.7459
ita	-11.7476
mmit	-11.7477
eta	-11.7477
▁urg	-11.7497
▁ob	-11.7506
▁whoevers	-11.7509
▁gent	-11.7514
▁pokin	-11.7541
▁casin	-11.7585
was	-11.7604
ute	-11.7607
▁brawl	-11.7622
gger	-11.7625
ison	-11.7661
▁barb	-11.7688
▁elk	-11.7719
nium	-11.7723
rical	-11.7747
eep	-11.7764
rem	-11.7769
▁rep	-11.7773
ade	-11.7774
alien	-11.7775
▁grease	-11.7781
▁sn	-11.7792
mit	-11.781
▁topic	-11.7825
fall	-11.7826
▁veri	-11.7826
uf	-11.7852
equi	-11.7853
▁mas	-11.786
▁converti	-11.788
▁coordinate	-11.7887
▁ado	-11.7926
▁eu	-11.7928
▁duc	-11.7934
▁sanct	-11.7934
▁alo	-11.7966
▁dim	-11.7995
▁mop	-11.8
▁fal	-11.8037
apped	-11.8055
alem	-11.8066
▁here	-11.8069
▁clippe	-11.8072
▁derive	-11.8098
erto	-11.8102
▁rewrit	-11.8114
▁ooo	-11.8123
low	-11.8123
itter	-11.8143
angling	-11.8147
▁seventy	-11.8147
lev	-11.815
owed	-11.8158
abilities	-11.8158
▁smok	-11.8179
ava	-11.819
dot	-11.8215
pel	-11.822
▁rout	-11.8237
▁hun	-11.8279
▁ste	-11.8286
ckets	-11.8317
▁whit	-11.8366
uary	-11.8436
▁monte	-11.8477
esda	-11.8481
▁fortif	-11.8512
▁secur	-11.8549
▁propos	-11.8558
predictabl	-11.8586
ake	-11.8592
▁achiev	-11.86
▁aff	-11.8602
▁var	-11.8623
▁av	-11.8637
▁stra	-11.8642
ak	-11.8646
utler	-11.8655
utton	-11.8663
▁rape	-11.8687
▁straw	-11.8689
▁sor	-11.8712
▁temp	-11.8717
oft	-11.8722
▁nomin	-11.8732
oy	-11.8735
kable	-11.8749
▁gonza	-11.8752
▁chas	-11.8758
bon	-11.8761
▁corresponden	-11.8763
▁flu	-11.8768
▁croc	-11.877
rots	-11.8772
ramp	-11.8787
▁ammo	-11.8821
▁geor	-11.8829
netic	-11.8835
▁descend	-11.8838
come	-11.8839
ena	-11.8845
ional	-11.8848
▁consul	-11.8855
▁rac	-11.8857
▁marko	-11.8868
▁arc	-11.887
nla	-11.8872
grain	-11.8888
▁angl	-11.8888
otte	-11.8889
crack	-11.889
▁knot	-11.889
called	-11.89
▁grap	-11.8903
▁shatter	-11.8904
▁cough	-11.8909
▁comrade	-11.8917
▁principle	-11.8917
▁confound	-11.8917
▁sweep	-11.8918
▁detector	-11.8922
tomy	-11.8924
▁delusion	-11.8927
▁ripple	-11.8929
▁expense	-11.8932
▁symptom	-11.8932
▁tourist	-11.8933
▁jama	-11.8934
▁minim	-11.8934
▁root	-11.8934
▁enterprise	-11.8935
warming	-11.8937
▁plea	-11.8938
▁consequence	-11.8939
▁stammer	-11.8939
▁giggle	-11.8941
ically	-11.8942
▁survivor	-11.8943
▁guinea	-11.8946
▁diva	-11.8947
▁chime	-11.8947
▁brake	-11.8949
▁subtitle	-11.895
▁breakthrough	-11.895
iya	-11.895
▁viru	-11.895
▁bathe	-11.8953
▁burrito	-11.8953
▁gen	-11.8956
▁heel	-11.8957
plant	-11.8957
▁shipment	-11.8958
hey	-11.8959
▁other	-11.8959
▁documentar	-11.896
control	-11.8966
▁aborigine	-11.8967
▁pint	-11.8974
▁foe	-11.8975
▁publisher	-11.8977
▁quiz	-11.898
urned	-11.8985
▁pul	-11.8995
▁frog	-11.9014
phy	-11.9016
oodles	-11.9028
zer	-11.9034
rgl	-11.9035
▁griev	-11.9036
▁thlng	-11.9044
uffl	-11.9047
▁grub	-11.9047
hand	-11.9048
▁instruction	-11.9049
▁punctu	-11.9057
tender	-11.9063
▁pursu	-11.9068
▁ol	-11.9069
place	-11.9069
▁sacrific	-11.9073
▁trespass	-11.9073
▁cardi	-11.9073
friend	-11.9076
▁clam	-11.9079
▁decorat	-11.9079
▁arrang	-11.9079
▁disgust	-11.9079
▁applaud	-11.908
▁neutral	-11.9082
where	-11.9082
body	-11.9082
▁abort	-11.9083
▁disrupt	-11.9083
▁ambush	-11.9083
unks	-11.9083
sir	-11.9084
nflicted	-11.9084
▁swamp	-11.9085
▁reject	-11.9085
▁roar	-11.9086
craft	-11.9086
pipe	-11.9086
read	-11.9086
pitt	-11.9087
▁pluck	-11.9088
precedent	-11.9088
ffles	-11.9088
▁shre	-11.9088
▁download	-11.9089
▁exhaust	-11.909
elected	-11.909
bird	-11.909
▁teenage	-11.909
sham	-11.9091
closure	-11.9091
folk	-11.9091
brid	-11.9091
brush	-11.9091
punished	-11.9091
tail	-11.9091
cloud	-11.9092
clap	-11.9092
appropriate	-11.9092
▁halo	-11.9092
callahan	-11.9092
grateful	-11.9093
guide	-11.9093
▁cli	-11.9093
condition	-11.9093
tip	-11.9093
maiden	-11.9093
hundred	-11.9093
aware	-11.9093
third	-11.9093
program	-11.9093
▁initiate	-11.9093
▁manufacture	-11.9093
marked	-11.9093
smash	-11.9093
▁persuade	-11.9093
first	-11.9094
writer	-11.9094
claim	-11.9094
people	-11.9094
glen	-11.9094
wanted	-11.9094
bomb	-11.9094
plane	-11.9094
flame	-11.9094
distance	-11.9094
button	-11.9095
wood	-11.9095
okay	-11.9095
▁atta	-11.9096
bach	-11.9096
▁discharge	-11.9096
▁retrieve	-11.9096
▁supervise	-11.9096
villa	-11.9097
selling	-11.9097
▁underestimate	-11.9097
▁morn	-11.9098
boat	-11.9098
▁oppose	-11.9098
▁vanish	-11.9099
show	-11.9099
▁anticipate	-11.9099
▁eliminate	-11.91
▁educate	-11.91
bald	-11.9101
jet	-11.9102
hour	-11.9102
groom	-11.9103
▁compose	-11.9103
▁observ	-11.9103
post	-11.9104
▁assign	-11.9104
cake	-11.9105
▁heav	-11.9105
step	-11.9105
▁dop	-11.9105
retching	-11.9105
▁treacher	-11.9106
▁mild	-11.9107
metal	-11.9107
▁ceremon	-11.9108
▁filth	-11.9108
perative	-11.9108
▁ferr	-11.9109
▁precise	-11.9109
▁occurr	-11.9109
▁stead	-11.911
▁obscur	-11.911
▁qualit	-11.911
▁unfortunate	-11.911
store	-11.911
▁fletch	-11.9111
▁deliberate	-11.9111
▁modest	-11.9111
▁sensitiv	-11.9111
term	-11.9112
▁blar	-11.9112
inlaw	-11.9112
▁numb	-11.9113
▁samoa	-11.9114
▁vibrat	-11.9114
▁nip	-11.9114
▁neutr	-11.9115
look	-11.9115
bow	-11.9115
▁origin	-11.9115
▁brenna	-11.9115
▁convict	-11.9116
▁soci	-11.9116
▁acc	-11.9117
held	-11.9117
▁chem	-11.9117
▁commute	-11.9117
avit	-11.9117
▁celebr	-11.9119
▁prettie	-11.9119
tight	-11.912
mbling	-11.912
▁obstruct	-11.912
▁oppress	-11.912
▁crypt	-11.9121
▁contaminat	-11.9121
▁bask	-11.9121
atcher	-11.9121
lfred	-11.9121
▁winnin	-11.9121
sippi	-11.9121
▁mutat	-11.9121
▁manipulat	-11.9122
▁stoppin	-11.9122
▁dub	-11.9122
▁darlin	-11.9122
ficial	-11.9122
▁egypt	-11.9122
▁logic	-11.9122
▁extraordina	-11.9122
▁tur	-11.9122
ancho	-11.9122
▁swam	-11.9123
▁obedien	-11.9123
▁precede	-11.9123
▁infant	-11.9123
eutenant	-11.9123
▁insur	-11.9123
▁scram	-11.9123
▁heartbreak	-11.9123
▁confer	-11.9123
mbies	-11.9123
▁exorci	-11.9124
▁explosl	-11.9124
▁exceeding	-11.9124
diocese	-11.9124
erapis	-11.9124
greatgrandfather	-11.9124
liseo	-11.9124
▁abundant	-11.9124
▁admissions	-11.9124
▁ahuja	-11.9124
▁amerlc	-11.9124
▁ammunition	-11.9124
▁anarchist	-11.9124
▁antibiotic	-11.9124
▁antichrist	-11.9124
▁aquarius	-11.9124
▁aquitania	-11.9124
▁arnhem	-11.9124
▁ascension	-11.9124
▁assurance	-11.9124
▁astronom	-11.9124
▁automobile	-11.9124
▁autopilot	-11.9124
▁autopsy	-11.9124
▁auxiliar	-11.9124
▁aviator	-11.9124
▁bangladesh	-11.9124
▁barrister	-11.9124
▁becareful	-11.9124
▁bequeath	-11.9124
▁berkley	-11.9124
▁biscuit	-11.9124
▁bizarre	-11.9124
▁bizimungu	-11.9124
▁bonjour	-11.9124
▁boomerang	-11.9124
▁bouncing	-11.9124
▁brakish	-11.9124
▁brandybuck	-11.9124
▁brigade	-11.9124
▁cahstink	-11.9124
▁calendar	-11.9124
▁capricornia	-11.9124
▁capsule	-11.9124
▁carburetor	-11.9124
▁catapult	-11.9124
▁caviar	-11.9124
▁chernobyl	-11.9124
▁chimney	-11.9124
▁chrome	-11.9124
▁claudia	-11.9124
▁clumsy	-11.9124
▁cockpit	-11.9124
▁conclude	-11.9124
▁condemn	-11.9124
▁conjecture	-11.9124
▁conjurer	-11.9124
▁conseil	-11.9124
▁consistent	-11.9124
▁consolation	-11.9124
▁constellation	-11.9124
▁context	-11.9124
▁contradict	-11.9124
▁cookware	-11.9124
▁corridor	-11.9124
▁cougar	-11.9124
▁crease	-11.9124
▁credentials	-11.9124
▁cruise	-11.9124
▁cuisine	-11.9124
▁czechoslovakia	-11.9124
▁dadadadada	-11.9124
▁defcon	-11.9124
▁definition	-11.9124
▁despicable	-11.9124
▁devenne	-11.9124
▁dhillon	-11.9124
▁dhokla	-11.9124
▁diazepam	-11.9124
▁dictatorship	-11.9124
▁disadvantage	-11.9124
▁dispatch	-11.9124
▁disposal	-11.9124
▁dodging	-11.9124
▁dramamine	-11.9124
▁eacker	-11.9124
▁economic	-11.9124
▁economy	-11.9124
▁ecthelion	-11.9124
▁egelloc	-11.9124
▁elaborate	-11.9124
▁entanglement	-11.9124
▁enthusiastic	-11.9124
▁entrust	-11.9124
▁epidemic	-11.9124
▁errand	-11.9124
▁ethiopian	-11.9124
▁eureka	-11.9124
▁excellencies	-11.9124
▁excitement	-11.9124
▁exposure	-11.9124
▁extent	-11.9124
▁extort	-11.9124
▁eyebrow	-11.9124
▁famished	-11.9124
▁fascinated	-11.9124
▁february	-11.9124
▁fernandez	-11.9124
▁fidelity	-11.9124
▁fingernail	-11.9124
▁fridge	-11.9124
▁gaffer	-11.9124
▁gatesboro	-11.9124
▁genghis	-11.9124
▁genital	-11.9124
▁genocide	-11.9124
▁gideon	-11.9124
▁giovanni	-11.9124
▁gitarama	-11.9124
▁godzilla	-11.9124
▁grandchildren	-11.9124
▁grudge	-11.9124
▁grumbling	-11.9124
▁grunion	-11.9124
▁halothane	-11.9124
▁harbour	-11.9124
▁haymitch	-11.9124
▁hebrew	-11.9124
▁henceforth	-11.9124
▁historian	-11.9124
▁histories	-11.9124
▁hollywood	-11.9124
▁hopclop	-11.9124
▁huddle	-11.9124
▁hummus	-11.9124
▁icecream	-11.9124
▁inbreathiate	-11.9124
▁incinerate	-11.9124
▁inconsistent	-11.9124
▁ingenuit	-11.9124
▁ingredients	-11.9124
▁insensitive	-11.9124
▁intellectual	-11.9124
▁intimidate	-11.9124
▁invasion	-11.9124
▁jerilynn	-11.9124
▁jiha	-11.9124
▁jonathan	-11.9124
▁jukebox	-11.9124
▁kabul	-11.9124
▁kaiju	-11.9124
▁kathleen	-11.9124
▁kentucky	-11.9124
▁kindergarten	-11.9124
▁kipling	-11.9124
▁lesbian	-11.9124
▁liaison	-11.9124
▁liquor	-11.9124
▁lollipop	-11.9124
▁longitude	-11.9124
▁loscudo	-11.9124
▁lumberjack	-11.9124
▁lunatic	-11.9124
▁marathon	-11.9124
▁margaret	-11.9124
▁mathematician	-11.9124
▁megatron	-11.9124
▁mellark	-11.9124
▁mervyn	-11.9124
▁metapontum	-11.9124
▁mexican	-11.9124
▁miscarriage	-11.9124
▁misfits	-11.9124
▁misunderstood	-11.9124
▁mithrandir	-11.9124
▁mithril	-11.9124
▁mongoose	-11.9124
▁montrichard	-11.9124
▁mosquito	-11.9124
▁mussolini	-11.9124
▁negatlve	-11.9124
▁nightclub	-11.9124
▁nitrogen	-11.9124
▁nourish	-11.9124
▁nowadays	-11.9124
▁obnoxious	-11.9124
▁observatory	-11.9124
▁octopus	-11.9124
▁offduty	-11.9124
▁oklahoma	-11.9124
▁orefice	-11.9124
▁output	-11.9124
▁overwhelm	-11.9124
▁parallel	-11.9124
▁peculiar	-11.9124
▁penniless	-11.9124
▁pennsylvania	-11.9124
▁perceptive	-11.9124
▁perjur	-11.9124
▁picenum	-11.9124
▁pimple	-11.9124
▁pirouette	-11.9124
▁polynesia	-11.9124
▁prairie	-11.9124
▁precaution	-11.9124
▁precision	-11.9124
▁prejud	-11.9124
▁premise	-11.9124
▁pretense	-11.9124
▁prevail	-11.9124
▁profound	-11.9124
▁pummel	-11.9124
▁quintana	-11.9124
▁rabble	-11.9124
▁radiator	-11.9124
▁ramalingam	-11.9124
▁raymond	-11.9124
▁refrigerator	-11.9124
▁rehearsal	-11.9124
▁reimann	-11.9124
▁rejoice	-11.9124
▁renewed	-11.9124
▁revolver	-11.9124
▁risotto	-11.9124
▁roadblocks	-11.9124
▁roosevelt	-11.9124
▁rouen	-11.9124
▁rydell	-11.9124
▁sabbatical	-11.9124
▁salud	-11.9124
▁sanatorium	-11.9124
▁sapphire	-11.9124
▁schnapps	-11.9124
▁schnar	-11.9124
▁schopenhauer	-11.9124
▁scoop	-11.9124
▁scowl	-11.9124
▁selfesteem	-11.9124
▁serpent	-11.9124
▁seymour	-11.9124
▁shakespeare	-11.9124
▁shepherd	-11.9124
▁significance	-11.9124
▁singapore	-11.9124
▁snarls	-11.9124
▁sneeze	-11.9124
▁soaked	-11.9124
▁software	-11.9124
▁soiree	-11.9124
▁soundwave	-11.9124
▁speclal	-11.9124
▁spelunking	-11.9124
▁stimul	-11.9124
▁suffocate	-11.9124
▁supposition	-11.9124
▁sweetwater	-11.9124
▁sybil	-11.9124
▁tartutic	-11.9124
▁tchoupitoulas	-11.9124
▁terrifying	-11.9124
▁testosterone	-11.9124
▁thattaway	-11.9124
▁thoroughbred	-11.9124
▁threshold	-11.9124
▁tictactoe	-11.9124
▁toodle	-11.9124
▁toreador	-11.9124
▁trlck	-11.9124
▁tshirt	-11.9124
▁tumble	-11.9124
▁ultrasound	-11.9124
▁umbilical	-11.9124
▁unattended	-11.9124
▁unauthorized	-11.9124
▁undeniabl	-11.9124
▁undercarriage	-11.9124
▁underwater	-11.9124
▁unemployed	-11.9124
▁unfair	-11.9124
▁unforgivable	-11.9124
▁unnoticed	-11.9124
▁unpleasant	-11.9124
▁unscheduled	-11.9124
▁uproar	-11.9124
▁urukhai	-11.9124
▁valentin	-11.9124
▁velmano	-11.9124
▁virtual	-11.9124
▁visigoths	-11.9124
▁voshkod	-11.9124
▁wavelength	-11.9124
▁whereabouts	-11.9124
▁windshield	-11.9124
▁wretch	-11.9124
▁xanthium	-11.9124
dispose	-11.9124
jackhammer	-11.9124
▁acknowledg	-11.9124
▁advertis	-11.9124
▁argentin	-11.9124
▁arsenal	-11.9124
▁condescend	-11.9124
▁existential	-11.9124
▁hypnotize	-11.9124
▁hypothetical	-11.9124
▁intrigu	-11.9124
▁jiang	-11.9124
▁monument	-11.9124
▁nineteen	-11.9124
▁pediatric	-11.9124
▁pervert	-11.9124
▁quarrel	-11.9124
▁sketch	-11.9124
▁statistic	-11.9124
▁sunrise	-11.9124
▁vector	-11.9124
▁virtuos	-11.9124
▁zamb	-11.9124
orthodo	-11.9124
sensual	-11.9124
▁aaah	-11.9124
▁banned	-11.9124
▁binions	-11.9124
▁brink	-11.9124
▁cozy	-11.9124
▁creole	-11.9124
▁deducti	-11.9124
▁florins	-11.9124
▁foreseen	-11.9124
▁freyne	-11.9124
▁havana	-11.9124
▁hazel	-11.9124
▁hudson	-11.9124
▁irina	-11.9124
▁lembas	-11.9124
▁lraq	-11.9124
▁misdirect	-11.9124
▁multiply	-11.9124
▁niece	-11.9124
▁orgosentr	-11.9124
▁protein	-11.9124
▁rtlm	-11.9124
▁sleeve	-11.9124
▁soothe	-11.9124
▁speculat	-11.9124
▁trudg	-11.9124
▁undocking	-11.9124
▁utah	-11.9124
▁vernon	-11.9124
▁walrus	-11.9124
▁www	-11.9124
▁abbot	-11.9124
▁aorion	-11.9124
▁arterial	-11.9124
▁chrissie	-11.9124
▁detour	-11.9124
▁jujitsu	-11.9124
▁sauer	-11.9124
▁strategi	-11.9124
▁stunned	-11.9124
▁tampa	-11.9124
▁taurus	-11.9124
▁textbooks	-11.9124
▁timmon	-11.9124
▁tomcat	-11.9124
▁afghanistan	-11.9124
▁bayonet	-11.9124
▁caretaker	-11.9124
▁cynic	-11.9124
▁drongo	-11.9124
▁erotic	-11.9124
▁gail	-11.9124
▁otto	-11.9124
▁overhear	-11.9124
▁refreshments	-11.9124
▁reinforcements	-11.9124
▁retain	-11.9124
▁steiss	-11.9124
▁thanos	-11.9124
▁tutor	-11.9124
▁widf	-11.9124
▁yawns	-11.9124
▁apprentice	-11.9124
▁coroner	-11.9124
▁florence	-11.9124
▁pantlng	-11.9124
▁apologise	-11.9124
▁sonorous	-11.9124
▁cartoon	-11.9124
▁reassur	-11.9124
▁bliss	-11.9124
▁brooks	-11.9124
▁diving	-11.9124
▁edict	-11.9124
▁groov	-11.9124
▁rooftops	-11.9124
▁sloppy	-11.9124
▁dragging	-11.9124
▁flunk	-11.9124
▁metric	-11.9124
▁affirmative	-11.9124
▁hesitant	-11.9124
▁spyders	-11.9124
▁adios	-11.9124
▁brumbies	-11.9124
▁matsu	-11.9124
▁utopia	-11.9124
▁cyber	-11.9124
▁bradford	-11.9124
▁kyle	-11.9124
▁morphine	-11.9124
▁pattering	-11.9124
▁screenplay	-11.9124
ulein	-11.9124
▁akers	-11.9124
▁coils	-11.9124
▁eyedent	-11.9124
▁irritat	-11.9124
▁ninja	-11.9124
▁restoration	-11.9124
▁terrain	-11.9124
▁vitamins	-11.9124
▁coupons	-11.9124
▁firefighter	-11.9124
▁fraternity	-11.9124
▁sulli	-11.9124
▁walburn	-11.9124
▁whlsper	-11.9124
▁gulp	-11.9124
▁insight	-11.9124
▁paradise	-11.9124
▁imposter	-11.9124
changer	-11.9124
▁calculator	-11.9124
▁cipher	-11.9124
▁gamemakers	-11.9124
▁yelp	-11.9124
▁astrid	-11.9124
▁kittykat	-11.9124
▁astound	-11.9124
▁encode	-11.9124
▁interrogat	-11.9124
▁reunit	-11.9124
▁stewart	-11.9124
▁truss	-11.9124
ceptible	-11.9124
▁airbags	-11.9124
▁lilith	-11.9124
▁lynn	-11.9124
▁schei	-11.9124
▁stumbling	-11.9124
▁tornado	-11.9124
▁wreak	-11.9124
▁boytoy	-11.9124
▁ponytail	-11.9124
▁kidney	-11.9124
▁niko	-11.9124
▁sponsor	-11.9124
▁attached	-11.9124
▁noose	-11.9124
decimal	-11.9124
▁banquet	-11.9124
▁legitimate	-11.9124
▁onstage	-11.9124
▁realtor	-11.9124
▁slope	-11.9124
▁triangulate	-11.9124
▁crawf	-11.9124
▁hamlet	-11.9124
▁symp	-11.9124
▁boundaries	-11.9124
wis	-11.9124
▁committee	-11.9124
▁hurl	-11.9124
▁geese	-11.9124
▁pumpkin	-11.9124
▁seminar	-11.9124
▁tonlght	-11.9124
▁incense	-11.9124
▁resent	-11.9124
▁glint	-11.9124
▁appreciative	-11.9124
▁jeff	-11.9124
▁telegram	-11.9124
ssert	-11.9124
▁mascot	-11.9124
▁varens	-11.9124
▁lowood	-11.9124
▁oars	-11.9124
▁blimey	-11.9124
▁determination	-11.9124
▁fancie	-11.9124
▁barbara	-11.9124
▁unsold	-11.9124
▁auditorium	-11.9124
▁canals	-11.9124
▁gurgl	-11.9124
▁clark	-11.9124
▁compass	-11.9124
▁dallas	-11.9124
▁fantasies	-11.9124
▁subbay	-11.9124
▁compound	-11.9124
▁melrose	-11.9124
▁postmaster	-11.9124
bourne	-11.9124
▁darius	-11.9124
▁supernatural	-11.9124
▁underdog	-11.9124
▁vogue	-11.9124
▁imprinted	-11.9124
▁snorts	-11.9124
▁merde	-11.9124
▁willpower	-11.9124
▁donkey	-11.9124
▁meltdown	-11.9124
▁mumbling	-11.9124
▁prescribe	-11.9124
▁blair	-11.9124
▁basketball	-11.9124
▁inevitable	-11.9124
▁tubby	-11.9124
▁wannabe	-11.9124
▁fortyeight	-11.9124
▁appreciation	-11.9124
▁satisfaction	-11.9124
▁supervision	-11.9124
▁chute	-11.9124
▁intruders	-11.9124
▁limo	-11.9124
▁album	-11.9124
▁babble	-11.9124
▁worshipped	-11.9124
scape	-11.9124
▁casualty	-11.9124
▁stereogram	-11.9124
▁llsten	-11.9124
▁shiver	-11.9124
▁volley	-11.9124
▁ownership	-11.9124
▁requirements	-11.9124
▁osama	-11.9124
▁replie	-11.9124
▁discre	-11.9124
▁skinnydip	-11.9124
▁stomp	-11.9124
▁biology	-11.9124
▁zulu	-11.9124
▁exteri	-11.9124
▁podium	-11.9124
▁amigo	-11.9125
rview	-11.9125
▁revel	-11.9125
▁testament	-11.9125
▁olive	-11.9125
▁podell	-11.9125
▁flea	-11.9125
▁catalog	-11.9125
▁enlist	-11.9125
▁gamble	-11.9125
▁responsive	-11.9125
▁bleat	-11.9125
▁sparring	-11.9125
▁perceiv	-11.9125
▁caden	-11.9125
▁hamstr	-11.9125
▁farsighted	-11.9125
▁scarlet	-11.9125
▁latitude	-11.9125
▁lancelot	-11.9125
▁fender	-11.9125
▁vegeta	-11.9125
▁harley	-11.9125
▁nancy	-11.9125
▁chestnut	-11.9125
▁colos	-11.9125
▁blim	-11.9125
▁injuries	-11.9125
▁twentynine	-11.9125
▁subtle	-11.9125
▁claustrophobia	-11.9125
▁jackpot	-11.9125
▁bomp	-11.9125
▁tagged	-11.9125
▁ginger	-11.9125
▁tinkles	-11.9125
▁flair	-11.9125
▁intersection	-11.9125
▁obligation	-11.9125
▁comlng	-11.9125
▁promoting	-11.9125
▁flashpoint	-11.9125
odred	-11.9125
rmont	-11.9125
▁psychotic	-11.9125
▁recess	-11.9125
▁judg	-11.9125
▁pinpoint	-11.9125
▁suspicious	-11.9125
▁resurrection	-11.9125
▁therapist	-11.9125
▁attraction	-11.9126
▁concentration	-11.9126
▁vibe	-11.9126
▁cancelled	-11.9126
▁straightforward	-11.9126
▁theatrical	-11.9126
▁horseplay	-11.9126
▁wimp	-11.9126
▁afar	-11.9126
▁nece	-11.9126
▁goodfellas	-11.9126
▁remarried	-11.9126
▁snowstorm	-11.9126
▁escalator	-11.9126
▁slamm	-11.9126
apron	-11.9126
▁housekeeping	-11.9126
▁token	-11.9126
trix	-11.9126
▁necessit	-11.9126
▁tummy	-11.9126
▁dwp	-11.9126
▁klck	-11.9126
▁oak	-11.9126
▁twit	-11.9126
▁botch	-11.9126
▁repay	-11.9126
▁haircut	-11.9126
▁rico	-11.9126
▁rovers	-11.9126
▁sanitation	-11.9126
▁flipped	-11.9126
▁anita	-11.9126
▁diameter	-11.9126
▁philosopher	-11.9126
▁teapot	-11.9126
▁watson	-11.9126
▁leadership	-11.9126
▁mobster	-11.9126
▁persist	-11.9126
▁hornets	-11.9127
▁beam	-11.9127
▁penetrate	-11.9127
▁dislike	-11.9127
▁overload	-11.9127
▁obstruction	-11.9127
▁mutation	-11.9127
▁snickering	-11.9127
▁garb	-11.9127
▁twentytwo	-11.9127
▁void	-11.9127
▁flass	-11.9127
▁postcard	-11.9127
▁cherry	-11.9127
▁hq	-11.9127
▁groceries	-11.9127
▁independently	-11.9127
▁liability	-11.9127
▁seren	-11.9127
▁clayton	-11.9127
▁cruelty	-11.9127
▁mirv	-11.9127
▁underway	-11.9127
▁wiping	-11.9127
▁elght	-11.9127
▁confidential	-11.9127
▁yyou	-11.9127
ttori	-11.9127
▁crispy	-11.9127
▁twirly	-11.9127
▁decree	-11.9127
▁loco	-11.9128
▁attendance	-11.9128
▁ballistic	-11.9128
▁puke	-11.9128
▁confusion	-11.9128
▁cheapside	-11.9128
▁spank	-11.9128
▁shear	-11.9128
▁brotherinlaw	-11.9128
▁scru	-11.9128
▁industries	-11.9128
▁hds	-11.9128
▁molecules	-11.9128
▁benedict	-11.9128
▁morrow	-11.9128
▁composit	-11.9128
▁psr	-11.9128
▁intel	-11.9128
▁whirs	-11.9128
▁arrogant	-11.9128
acious	-11.9128
▁equat	-11.9128
▁detest	-11.9128
▁chili	-11.9129
▁partnership	-11.9129
▁wives	-11.9129
▁agalnst	-11.9129
▁rejection	-11.9129
▁luc	-11.9129
▁toil	-11.9129
▁mummy	-11.9129
▁edith	-11.9129
▁continuous	-11.9129
▁deport	-11.9129
▁minefield	-11.9129
▁troll	-11.9129
▁wasteland	-11.9129
▁levantus	-11.9129
▁somethlng	-11.913
▁comprehend	-11.913
▁leegs	-11.913
▁paralyzed	-11.913
▁kaas	-11.913
▁prettier	-11.913
▁awhile	-11.913
▁amends	-11.913
spoon	-11.913
▁ratty	-11.913
▁purity	-11.913
▁bronx	-11.913
▁gloin	-11.913
▁puff	-11.913
▁intro	-11.913
▁tramp	-11.913
▁casual	-11.9131
▁unison	-11.9131
▁bronco	-11.9131
▁atm	-11.9131
▁eyeballs	-11.9131
▁weaponized	-11.9131
▁courtroom	-11.9131
▁conviction	-11.9131
▁fireplace	-11.9131
▁reaper	-11.9131
▁pub	-11.9131
▁kidnapper	-11.9131
acci	-11.9131
▁endorse	-11.9131
▁plight	-11.9131
▁butterfl	-11.9131
▁lizzard	-11.9132
▁phrase	-11.9132
▁recognition	-11.9132
▁visibility	-11.9132
istress	-11.9132
▁memorable	-11.9132
▁chancellery	-11.9132
heimer	-11.9132
▁brennan	-11.9132
▁conversion	-11.9132
▁filing	-11.9132
▁elys	-11.9132
▁keycard	-11.9132
▁wack	-11.9132
▁delicate	-11.9132
▁apprehended	-11.9132
▁improvise	-11.9132
ummies	-11.9132
▁gutted	-11.9132
▁chow	-11.9132
▁conductor	-11.9132
▁lovin	-11.9132
▁suv	-11.9133
▁blur	-11.9133
▁rhe	-11.9133
▁contribution	-11.9133
▁rite	-11.9133
▁viable	-11.9133
▁pawn	-11.9133
▁heii	-11.9133
▁creator	-11.9133
▁boop	-11.9133
▁venus	-11.9134
▁tripping	-11.9134
▁morality	-11.9134
eggie	-11.9134
tobe	-11.9134
▁pause	-11.9134
▁cele	-11.9134
▁vast	-11.9134
▁fright	-11.9134
▁controller	-11.9134
▁entertainment	-11.9134
▁spoilt	-11.9134
▁gloria	-11.9135
▁bub	-11.9135
▁blushing	-11.9135
▁counterfeiting	-11.9135
▁lurking	-11.9135
▁broad	-11.9135
west	-11.9135
▁diplomatic	-11.9135
▁tapout	-11.9135
▁mwa	-11.9135
▁frock	-11.9135
▁blackjack	-11.9136
▁hence	-11.9136
▁highlight	-11.9136
▁wreckers	-11.9136
▁imagining	-11.9136
▁balin	-11.9136
▁brian	-11.9136
itzer	-11.9136
▁potter	-11.9136
▁clu	-11.9137
▁overtime	-11.9137
▁shushes	-11.9137
▁melas	-11.9137
▁chess	-11.9137
▁scent	-11.9137
▁posse	-11.9137
▁outline	-11.9137
▁gilles	-11.9137
▁oat	-11.9137
▁wasteful	-11.9137
▁gloat	-11.9137
urray	-11.9137
▁flamin	-11.9137
▁obscure	-11.9137
▁longterm	-11.9138
▁cocoon	-11.9138
▁rotation	-11.9138
▁esc	-11.9139
▁sidewalk	-11.9139
▁strive	-11.9139
▁deliberately	-11.914
▁eag	-11.914
arbarians	-11.914
▁refusal	-11.914
▁scribbl	-11.914
▁disengaged	-11.914
▁diesel	-11.914
▁stumbled	-11.914
▁danke	-11.9141
weet	-11.9141
▁yorktown	-11.9141
dotdashdot	-11.9141
▁dj	-11.9141
▁workplace	-11.9141
▁lordship	-11.9141
▁treachery	-11.9141
▁donation	-11.9142
▁enri	-11.9142
▁comb	-11.9142
▁bullshitting	-11.9142
▁aero	-11.9143
▁edw	-11.9143
▁bien	-11.9143
▁antennae	-11.9143
acle	-11.9143
▁clone	-11.9144
▁budge	-11.9144
▁bir	-11.9144
▁sleepier	-11.9144
▁restroom	-11.9144
leton	-11.9144
▁askew	-11.9144
▁vent	-11.9145
▁beatles	-11.9145
▁mlne	-11.9145
▁fictional	-11.9145
▁script	-11.9145
▁fuss	-11.9146
▁thoroughly	-11.9146
▁begln	-11.9146
▁content	-11.9146
▁attracted	-11.9146
▁tralned	-11.9146
▁legit	-11.9147
▁macar	-11.9147
▁jackie	-11.9147
▁intentionally	-11.9148
mature	-11.9148
▁roti	-11.9149
cre	-11.9149
▁auswe	-11.9149
▁expired	-11.9149
▁itit	-11.9149
▁alist	-11.9149
▁kii	-11.9149
▁vain	-11.9149
▁replacing	-11.9149
▁bluebe	-11.915
▁sustain	-11.9151
▁wanker	-11.9151
▁retrieved	-11.9151
▁lockout	-11.9151
▁discharged	-11.9152
▁payday	-11.9152
▁gaga	-11.9152
▁coff	-11.9152
▁compelling	-11.9153
grid	-11.9153
itary	-11.9153
▁gto	-11.9154
▁shack	-11.9154
▁coupe	-11.9154
▁cramming	-11.9154
▁litera	-11.9154
▁nipp	-11.9154
▁recruiting	-11.9154
▁vine	-11.9154
▁perch	-11.9154
▁hijack	-11.9155
▁cleansing	-11.9155
▁controlled	-11.9155
▁uncha	-11.9155
▁ingest	-11.9155
▁micro	-11.9156
▁everythin	-11.9157
cut	-11.9157
▁hash	-11.9157
▁dire	-11.9158
▁dine	-11.9158
custome	-11.9158
▁politely	-11.9158
▁worrie	-11.9159
▁anticipated	-11.916
▁stinger	-11.916
▁knockout	-11.916
▁keener	-11.916
▁fries	-11.916
▁deceived	-11.916
▁precedent	-11.916
▁occurred	-11.9161
▁agony	-11.9161
▁aborted	-11.9161
▁disrupted	-11.9161
▁hec	-11.9162
stein	-11.9163
mach	-11.9163
▁moonli	-11.9164
▁locket	-11.9164
▁realistic	-11.9164
▁euc	-11.9165
▁rapidly	-11.9165
▁suckle	-11.9165
▁buzzlng	-11.9165
▁trooper	-11.9167
▁burris	-11.9167
▁mouthful	-11.9167
▁machinery	-11.9169
▁stretcher	-11.9169
▁superb	-11.9169
most	-11.917
▁aspergers	-11.917
▁cosmonauts	-11.917
▁earthworms	-11.917
▁hallucinations	-11.917
▁postponed	-11.9171
▁grovel	-11.9171
meal	-11.9171
▁passionately	-11.9171
▁freezer	-11.9172
▁baffle	-11.9172
▁brainless	-11.9173
▁travell	-11.9174
▁orl	-11.9174
▁monica	-11.9174
▁snug	-11.9174
▁trespassing	-11.9174
▁limb	-11.9175
gave	-11.9175
under	-11.9176
▁rog	-11.9176
▁travelers	-11.9176
▁aut	-11.9176
▁crooked	-11.9176
illa	-11.9177
▁popup	-11.9177
▁doping	-11.9178
▁flve	-11.9179
▁iim	-11.9179
▁outsiders	-11.9179
▁parttime	-11.918
▁loath	-11.918
pede	-11.918
▁haw	-11.9181
ifled	-11.9181
▁leop	-11.9181
▁yow	-11.9183
his	-11.9184
▁instantly	-11.9184
▁tricksy	-11.9184
mada	-11.9184
oi	-11.9185
▁pastry	-11.9185
grading	-11.9185
best	-11.9186
▁quad	-11.9187
▁reel	-11.9188
▁identified	-11.9188
▁spite	-11.9188
▁whisk	-11.9189
▁bumper	-11.919
▁fitzy	-11.919
etus	-11.9191
▁puncture	-11.9191
▁headline	-11.9192
▁honorable	-11.9192
▁banksy	-11.9192
▁booty	-11.9193
▁masses	-11.9194
▁divided	-11.9195
▁wax	-11.9196
▁leftover	-11.9196
▁assembled	-11.9196
logged	-11.9196
▁rwandan	-11.9198
▁purge	-11.9198
▁seized	-11.9199
▁pickup	-11.9199
▁hisa	-11.9199
▁blackness	-11.92
▁executed	-11.9202
▁shaken	-11.9202
▁scraping	-11.9203
standing	-11.9204
▁anor	-11.9204
▁hola	-11.9205
▁established	-11.9206
▁flne	-11.9207
▁pez	-11.9207
▁easton	-11.9208
▁politically	-11.921
▁idol	-11.921
▁activated	-11.921
▁blo	-11.9211
▁brid	-11.9211
▁with	-11.9214
▁blackout	-11.9214
▁protector	-11.9215
▁tid	-11.9216
farthing	-11.9217
▁dull	-11.9217
▁weirdo	-11.9218
▁aen	-11.9219
▁sodomy	-11.9219
▁setup	-11.9221
▁peacefully	-11.9221
▁invested	-11.9222
▁threeone	-11.9222
▁silently	-11.9222
iously	-11.9223
▁charmed	-11.9223
lsed	-11.9224
▁clicked	-11.9225
gon	-11.9227
▁dup	-11.9228
▁proudest	-11.9229
bit	-11.9229
▁brad	-11.923
▁hmmm	-11.923
▁dill	-11.9231
▁cardio	-11.9232
seeing	-11.9233
▁perk	-11.9233
▁pine	-11.9234
mming	-11.9234
▁cre	-11.9236
gay	-11.9237
▁swallowed	-11.9237
▁flopp	-11.9237
▁subsid	-11.9246
▁bled	-11.9246
▁disgraced	-11.9247
▁writ	-11.9248
▁reminder	-11.9248
verybodys	-11.9249
▁boner	-11.925
▁rattles	-11.925
▁breakup	-11.925
▁carriages	-11.9251
▁mumbles	-11.9251
▁tentacles	-11.9251
▁testicles	-11.9251
▁wraiths	-11.9251
▁scholars	-11.9251
▁uk	-11.9251
▁squeaks	-11.9251
▁whims	-11.9251
▁splinters	-11.9251
▁claps	-11.9252
wei	-11.9255
▁referr	-11.9255
▁mocking	-11.9255
▁slipper	-11.9256
▁osa	-11.9256
nito	-11.9257
▁mourn	-11.9258
etta	-11.9258
▁tame	-11.9259
▁stamps	-11.9259
▁cutie	-11.926
▁guaranteed	-11.9261
▁socially	-11.9261
▁concentrated	-11.9262
▁hyper	-11.9265
▁leaked	-11.9266
gear	-11.9267
▁escorted	-11.9267
rence	-11.9267
▁poured	-11.9268
▁gained	-11.9268
▁paged	-11.9268
▁implicate	-11.9269
nickering	-11.927
▁peri	-11.9271
▁yorkers	-11.9276
▁pickle	-11.9276
▁swallowing	-11.9277
▁fang	-11.9277
▁downing	-11.9278
▁pipes	-11.9279
▁skiing	-11.928
▁softer	-11.9281
▁prevented	-11.9282
▁dusty	-11.9283
▁goodnight	-11.9283
▁sweaty	-11.9283
ently	-11.9283
rresist	-11.9286
▁vel	-11.9286
▁convers	-11.9292
hi	-11.9293
▁fable	-11.9294
lier	-11.9295
▁tougher	-11.9295
▁makeover	-11.9296
▁jen	-11.9297
▁talented	-11.9297
▁tabs	-11.9298
▁crate	-11.93
▁feli	-11.93
manned	-11.93
▁warmer	-11.93
rrington	-11.93
cracks	-11.9302
▁askln	-11.9307
▁laughin	-11.9309
ayed	-11.9312
▁squared	-11.9315
galad	-11.9315
exed	-11.9316
city	-11.9316
▁abandoning	-11.9318
▁gaining	-11.9318
▁crossword	-11.9319
▁carrot	-11.9324
▁dominate	-11.9329
fuse	-11.933
alling	-11.9331
▁undertak	-11.9331
▁philly	-11.9331
▁breakthroughs	-11.9334
▁confounds	-11.9334
▁sweeps	-11.9334
▁comrades	-11.9334
▁principles	-11.9334
▁detectors	-11.9335
sbee	-11.9335
▁tourists	-11.9337
▁presto	-11.9338
▁renovat	-11.9339
▁tickle	-11.934
▁shipments	-11.9342
▁sibl	-11.9342
▁deni	-11.9344
▁flre	-11.9344
▁forgiven	-11.9346
▁ast	-11.9347
▁ip	-11.9347
▁crest	-11.9349
hank	-11.935
▁redeem	-11.9351
▁privately	-11.9351
eyed	-11.9355
nder	-11.9356
shed	-11.9361
rose	-11.9362
▁generate	-11.9363
▁restructur	-11.9366
▁poole	-11.9368
petition	-11.937
▁discussed	-11.9374
cely	-11.9382
▁wandered	-11.9389
▁doctorate	-11.9389
▁marker	-11.9389
agnes	-11.9392
ridden	-11.9395
productive	-11.9399
▁indicates	-11.94
god	-11.9401
▁fireman	-11.9402
itrate	-11.9403
▁wildly	-11.9403
▁wearin	-11.9405
▁strippe	-11.9406
▁sadly	-11.9409
▁tearing	-11.9411
▁spoils	-11.9412
rcs	-11.9414
▁companions	-11.9416
▁comics	-11.9418
▁autographs	-11.9418
▁cocktails	-11.9418
▁elbows	-11.9418
▁individuals	-11.9418
▁pillows	-11.9418
▁sweatshops	-11.9418
▁stup	-11.9418
▁palms	-11.9418
▁motels	-11.9418
▁customs	-11.9418
▁athletes	-11.942
▁suggestions	-11.9422
▁porn	-11.9422
eyes	-11.9423
▁tenant	-11.9423
gel	-11.9427
▁faction	-11.9434
▁ammoni	-11.9435
▁triggered	-11.9436
▁alerted	-11.9436
▁hosting	-11.9442
▁jamm	-11.9442
dolf	-11.9444
▁pope	-11.9446
▁exceptions	-11.9451
sler	-11.9451
▁taco	-11.9452
▁bravely	-11.9455
▁cling	-11.9455
▁wal	-11.9456
▁blower	-11.9458
▁ramon	-11.9465
▁lifted	-11.9482
sub	-11.9482
▁retreating	-11.9483
▁smokey	-11.9484
▁rationaliz	-11.9488
erable	-11.949
▁raz	-11.9493
▁completed	-11.9498
▁journals	-11.95
▁thrives	-11.9503
▁dinosaurs	-11.9503
▁trainers	-11.9504
▁rating	-11.9505
▁guil	-11.9508
▁overlook	-11.9514
▁theori	-11.9516
onian	-11.9523
arlov	-11.9525
lty	-11.9527
▁healed	-11.953
▁dumbo	-11.9546
▁brandy	-11.9549
mates	-11.9581
▁bakers	-11.9582
▁cultures	-11.9588
▁jaws	-11.9589
▁patrols	-11.9589
▁compliments	-11.9589
▁kurokawas	-11.9589
▁representatives	-11.9589
eering	-11.96
tuna	-11.9601
▁boned	-11.9603
▁readin	-11.9605
▁strips	-11.9606
▁auctioned	-11.9607
▁corrected	-11.9609
▁dealers	-11.9612
▁happenin	-11.9615
ament	-11.9616
▁walkin	-11.9618
plicate	-11.9626
▁playin	-11.9636
▁dals	-11.9637
tie	-11.9644
rasse	-11.9649
▁quieter	-11.9651
same	-11.9656
teration	-11.9657
wd	-11.9657
hite	-11.9659
▁noo	-11.9663
▁when	-11.9664
▁bullsh	-11.9671
▁explosives	-11.9675
▁banners	-11.9675
▁hamsters	-11.9675
▁previsions	-11.9675
▁feathers	-11.9675
▁amazes	-11.9676
▁resi	-11.9678
tions	-11.9682
tell	-11.9684
▁warmed	-11.9685
▁affi	-11.9688
▁archiv	-11.9696
▁tubes	-11.9697
▁hive	-11.9699
▁bab	-11.9702
▁failing	-11.9704
▁masc	-11.9722
lords	-11.9732
▁institut	-11.9735
▁addressed	-11.9748
▁sacks	-11.9751
▁dials	-11.9761
▁bends	-11.9761
▁bursts	-11.9764
▁weighs	-11.9764
▁burgers	-11.9769
▁fuller	-11.9777
ards	-11.9788
▁headin	-11.9815
▁fli	-11.982
mmy	-11.9823
▁ave	-11.983
rode	-11.9862
▁mountaln	-11.9864
▁lout	-11.9878
▁liver	-11.9886
zee	-11.9892
▁suites	-11.9917
sky	-11.9935
▁stripe	-11.9937
lton	-11.9943
from	-11.995
self	-11.9954
▁hesitates	-11.996
▁foll	-11.9972
oche	-11.9982
rified	-11.9985
▁bul	-11.9986
unch	-12.0028
abolic	-12.0035
▁cuter	-12.0046
ado	-12.0047
easing	-12.0069
bris	-12.0083
▁scalpe	-12.0084
▁dang	-12.0089
▁cove	-12.0108
▁burg	-12.0111
nger	-12.0124
fo	-12.0131
▁bullie	-12.0137
▁tok	-12.0142
▁seeker	-12.0163
▁bearer	-12.0168
▁lass	-12.0171
yoshi	-12.0171
antos	-12.0175
apola	-12.0193
tox	-12.0194
▁extr	-12.0198
rubbing	-12.0207
▁clari	-12.0209
▁respectful	-12.0217
▁interfac	-12.0217
tlght	-12.0221
▁vale	-12.0242
ode	-12.0277
illng	-12.0293
anz	-12.0295
▁induct	-12.0305
▁slipp	-12.0323
▁possesse	-12.0334
▁compensat	-12.0334
▁mari	-12.0335
cet	-12.035
▁conver	-12.0353
liv	-12.0399
▁stun	-12.0416
start	-12.0417
hor	-12.0435
competent	-12.0449
▁nada	-12.047
▁ele	-12.0486
rang	-12.0506
oj	-12.0512
▁wrappe	-12.0515
▁twink	-12.052
equil	-12.0534
moto	-12.0542
▁cater	-12.0553
stlc	-12.0562
pensive	-12.0565
arg	-12.0585
bagginses	-12.0588
▁callin	-12.0603
▁quar	-12.0636
ffi	-12.064
▁aggravate	-12.0645
nfl	-12.0652
▁epi	-12.0662
aria	-12.0676
▁workin	-12.0679
olo	-12.069
▁periodic	-12.071
utu	-12.0716
▁vaca	-12.072
▁reserv	-12.073
ndan	-12.0773
▁rims	-12.0795
laid	-12.0803
▁pil	-12.081
▁sorcer	-12.0834
▁illustrat	-12.0842
▁participat	-12.0847
▁soyou	-12.0874
ffa	-12.0878
▁activat	-12.0893
▁deceive	-12.09
▁smuggle	-12.0928
cold	-12.0947
won	-12.0955
rotc	-12.0958
ckey	-12.0961
trapping	-12.1008
▁the	-12.1016
▁glo	-12.1024
▁scrape	-12.104
▁cra	-12.1059
ngton	-12.1068
lee	-12.1085
▁stor	-12.1101
omer	-12.1102
▁navigat	-12.1104
▁absen	-12.1114
▁wade	-12.1114
▁basi	-12.1158
fortunately	-12.1185
mee	-12.1239
ummy	-12.1264
vious	-12.1293
▁cu	-12.13
▁rov	-12.1342
here	-12.135
▁bugg	-12.1357
orr	-12.1429
▁bulldo	-12.1431
ermin	-12.1454
▁plac	-12.1471
lre	-12.1495
blo	-12.1501
ulu	-12.1502
shes	-12.1519
▁navigate	-12.154
▁distinct	-12.1544
▁fram	-12.1561
▁lapi	-12.1578
taking	-12.1596
▁tit	-12.1597
agan	-12.1606
nza	-12.1654
▁patel	-12.1665
jin	-12.1669
▁capabilit	-12.1674
hea	-12.1702
maine	-12.1718
llow	-12.1739
pathy	-12.1747
▁hind	-12.175
▁dem	-12.1758
moral	-12.1764
lk	-12.177
▁purchas	-12.1779
young	-12.1786
bel	-12.1787
▁participate	-12.1816
▁aug	-12.1827
▁sorcere	-12.183
ient	-12.1947
▁committ	-12.1988
▁humbl	-12.1997
yearold	-12.2024
▁levi	-12.2026
chen	-12.2115
amine	-12.2117
hel	-12.2127
ellar	-12.2133
▁sparkle	-12.2161
▁eff	-12.2167
▁dw	-12.2194
▁eric	-12.2199
veal	-12.2203
ork	-12.2224
▁dedicat	-12.2246
vance	-12.2251
▁gan	-12.2258
bya	-12.2268
gate	-12.2303
▁infra	-12.2336
▁chan	-12.234
communicated	-12.234
▁coloni	-12.236
▁sparkl	-12.2364
raine	-12.2418
mia	-12.2463
talki	-12.2488
enance	-12.2496
ound	-12.2508
hoppers	-12.2526
itted	-12.2535
▁ama	-12.2561
formed	-12.2569
ethical	-12.2574
course	-12.2628
ague	-12.2647
▁coo	-12.267
owns	-12.2675
▁execut	-12.2677
▁pipe	-12.2715
ocratic	-12.2718
▁reproduc	-12.2731
▁frat	-12.2747
lari	-12.2751
ante	-12.2782
gan	-12.2827
▁raci	-12.2855
mish	-12.286
rb	-12.2878
secution	-12.2881
▁sentenc	-12.2884
ggy	-12.2901
hall	-12.2916
▁embrac	-12.2983
ori	-12.2988
▁depressi	-12.3014
▁mountalns	-12.3019
▁nooo	-12.3021
uke	-12.3049
tit	-12.3067
onti	-12.3077
ovation	-12.3085
ett	-12.3105
maid	-12.3105
▁mori	-12.3116
▁them	-12.3131
▁shav	-12.3152
ige	-12.3164
ddam	-12.3172
oku	-12.3174
iggle	-12.3175
ille	-12.318
▁degenerat	-12.3189
▁nin	-12.3196
dryer	-12.3205
protected	-12.321
ulsion	-12.322
hee	-12.3222
located	-12.3225
eemed	-12.3227
berries	-12.3259
milk	-12.3264
arn	-12.3275
▁associat	-12.3285
diment	-12.3289
index	-12.3305
▁ledou	-12.3324
mino	-12.3336
harmed	-12.3343
ody	-12.3358
stripes	-12.3409
bby	-12.3443
heart	-12.3443
▁curv	-12.3445
iliation	-12.3454
▁gibb	-12.347
▁aggress	-12.3471
▁chippe	-12.3488
mph	-12.3502
▁karl	-12.351
▁zip	-12.3537
▁dag	-12.3546
vich	-12.3547
▁wil	-12.3564
▁arr	-12.3577
▁abra	-12.3599
▁flex	-12.3602
master	-12.3611
▁bh	-12.3625
▁suppl	-12.363
▁beln	-12.3676
scope	-12.3691
▁vali	-12.3707
▁unsha	-12.3723
leg	-12.374
hhhhhh	-12.381
escent	-12.3817
▁ratio	-12.3843
spective	-12.3848
▁irre	-12.3852
zzes	-12.386
bert	-12.3862
▁squeak	-12.3876
lking	-12.3877
▁stamp	-12.3878
▁troop	-12.3878
▁harri	-12.3887
caster	-12.3888
▁jiggl	-12.3889
▁clatter	-12.389
▁gene	-12.3895
doubted	-12.3901
▁involve	-12.3905
▁stumble	-12.3906
tiny	-12.391
verybody	-12.3917
▁wraith	-12.3919
▁carriage	-12.3919
▁testicle	-12.3919
▁improv	-12.3919
▁scholar	-12.392
▁tentacle	-12.392
▁splinter	-12.3924
▁rattle	-12.3925
▁whim	-12.3927
▁knob	-12.3928
▁candidate	-12.3929
▁rivet	-12.393
▁mumble	-12.3932
▁ravager	-12.3933
▁neigh	-12.3933
▁rumour	-12.3934
ifies	-12.3936
▁knuckle	-12.3937
▁tomahawk	-12.3937
▁peasant	-12.3937
▁hobb	-12.3938
imim	-12.3939
▁sedative	-12.3939
▁colleague	-12.3941
▁slam	-12.3942
▁franc	-12.3943
▁circumstance	-12.3946
▁copper	-12.3946
▁wolve	-12.3948
▁height	-12.3949
▁gramp	-12.3949
▁calculation	-12.395
▁overse	-12.3955
▁conner	-12.3959
istan	-12.396
▁occur	-12.3961
▁patent	-12.3961
person	-12.3962
plash	-12.3963
▁refer	-12.3965
▁twin	-12.3966
▁brownie	-12.3968
cast	-12.3968
▁compel	-12.397
▁relic	-12.3971
fda	-12.3978
▁assembl	-12.3981
tale	-12.3984
▁rasp	-12.3987
drops	-12.399
▁disco	-12.3992
▁seiz	-12.3998
▁clap	-12.4002
stopp	-12.4003
ography	-12.4006
▁flog	-12.4009
▁por	-12.4009
▁remov	-12.4013
easy	-12.4015
▁thruster	-12.4015
hro	-12.4018
▁warhead	-12.4021
abic	-12.4024
▁hysteric	-12.4026
▁calcul	-12.4028
▁modul	-12.4031
isation	-12.4039
▁constitu	-12.4041
▁stinkin	-12.4043
roache	-12.4046
▁grove	-12.4046
▁actor	-12.4049
averns	-12.4052
▁schw	-12.4053
▁slug	-12.4054
▁sav	-12.406
ption	-12.406
▁accus	-12.4061
earned	-12.4063
pelled	-12.4065
▁evacuat	-12.4067
▁complet	-12.4068
▁satisfy	-12.4068
▁graduat	-12.4068
▁revolt	-12.4069
▁negotia	-12.4069
▁tranquil	-12.407
▁concentrat	-12.4071
▁corrupt	-12.4072
▁recruit	-12.4073
▁convinc	-12.4076
stained	-12.4077
▁decid	-12.4078
▁clink	-12.4078
▁snor	-12.408
bearer	-12.4082
▁doublecross	-12.4083
woman	-12.4083
▁shutter	-12.4084
▁attract	-12.4084
wearing	-12.4084
▁obsess	-12.4084
forsake	-12.4084
▁merge	-12.4084
restricted	-12.4085
▁terminat	-12.4085
script	-12.4085
▁traln	-12.4086
definite	-12.4087
content	-12.4087
shake	-12.4088
intentionally	-12.4088
realistic	-12.4088
judg	-12.4088
▁injur	-12.4088
hood	-12.4089
style	-12.4089
▁resign	-12.4089
sexual	-12.409
educated	-12.409
factory	-12.409
experienced	-12.409
▁disappoint	-12.409
▁suspend	-12.409
▁chris	-12.409
charged	-12.409
▁scen	-12.409
▁dismiss	-12.409
married	-12.4091
skirt	-12.4091
development	-12.4091
continent	-12.4091
connect	-12.4091
culture	-12.4091
forward	-12.4091
whoosh	-12.4091
practicing	-12.4091
seventeen	-12.4091
simmons	-12.4091
screen	-12.4092
earth	-12.4092
promising	-12.4092
float	-12.4092
grandmother	-12.4092
dollar	-12.4092
sync	-12.4092
pillar	-12.4092
century	-12.4092
wreck	-12.4092
reasonable	-12.4092
significant	-12.4092
proof	-12.4093
tapes	-12.4093
fax	-12.4093
chanting	-12.4093
slgn	-12.4093
drones	-12.4093
sleep	-12.4093
growing	-12.4093
tlme	-12.4093
lunar	-12.4093
solution	-12.4093
season	-12.4093
available	-12.4093
chip	-12.4093
birth	-12.4093
pulse	-12.4093
practice	-12.4093
coach	-12.4093
review	-12.4093
naked	-12.4093
energy	-12.4093
scoffs	-12.4093
flesh	-12.4093
half	-12.4093
spirit	-12.4093
teacher	-12.4093
william	-12.4093
horse	-12.4093
chief	-12.4093
papa	-12.4094
closed	-12.4094
information	-12.4094
certain	-12.4094
shore	-12.4094
command	-12.4094
drago	-12.4094
▁discipline	-12.4094
▁humiliate	-12.4094
audience	-12.4094
lucky	-12.4094
screams	-12.4094
captain	-12.4094
grunts	-12.4094
second	-12.4094
lift	-12.4094
wife	-12.4094
party	-12.4094
gasps	-12.4094
quit	-12.4094
film	-12.4094
glass	-12.4094
selfish	-12.4094
spring	-12.4094
score	-12.4094
moment	-12.4094
▁exclude	-12.4095
drive	-12.4095
ural	-12.4095
maura	-12.4095
human	-12.4095
▁publi	-12.4095
tooth	-12.4095
little	-12.4095
launch	-12.4095
bridge	-12.4095
combat	-12.4095
mask	-12.4096
sorry	-12.4096
piece	-12.4096
players	-12.4096
version	-12.4096
front	-12.4096
▁disengage	-12.4096
speaker	-12.4097
neck	-12.4097
fuel	-12.4097
kick	-12.4098
▁milo	-12.4098
gra	-12.4098
type	-12.4098
beau	-12.4098
watch	-12.4098
zzled	-12.4099
marine	-12.4099
cuous	-12.4099
force	-12.4099
worthy	-12.4099
▁relieve	-12.4099
▁gaz	-12.4099
▁conceive	-12.41
mega	-12.41
▁relate	-12.41
▁hype	-12.41
▁combine	-12.41
▁applie	-12.41
▁beyon	-12.41
regular	-12.4101
▁hipp	-12.4101
comb	-12.4101
▁delight	-12.4101
baby	-12.4101
bolt	-12.4101
▁confuse	-12.4102
based	-12.4103
goo	-12.4103
▁notic	-12.4103
▁norm	-12.4103
proxim	-12.4103
▁distinguish	-12.4104
mile	-12.4104
hmm	-12.4104
produc	-12.4104
were	-12.4105
match	-12.4106
▁conclusive	-12.4106
zone	-12.4107
▁controvers	-12.4107
▁fuzz	-12.4107
▁defens	-12.4107
▁temporar	-12.4107
shire	-12.4107
finger	-12.4107
bold	-12.4108
▁frisk	-12.4108
hair	-12.4108
▁valle	-12.4109
wine	-12.4109
▁respons	-12.411
wash	-12.411
▁kidnap	-12.411
▁angr	-12.411
▁cran	-12.411
nheim	-12.4111
▁suspens	-12.4111
▁commenc	-12.4111
▁homicid	-12.4111
▁barbari	-12.4111
▁creativ	-12.4111
▁remarkabl	-12.4112
▁presum	-12.4112
ivate	-12.4112
pay	-12.4112
▁invert	-12.4112
▁cilicia	-12.4113
hung	-12.4113
▁unlik	-12.4113
▁interpret	-12.4113
▁disast	-12.4113
pm	-12.4114
▁quot	-12.4114
▁dagg	-12.4114
billy	-12.4114
ggling	-12.4114
obots	-12.4115
inky	-12.4115
ffy	-12.4116
▁grim	-12.4116
making	-12.4116
▁garde	-12.4116
▁convo	-12.4116
▁intent	-12.4116
▁molecul	-12.4116
tray	-12.4116
▁parachut	-12.4117
▁arrogan	-12.4117
▁beck	-12.4117
▁aspir	-12.4117
▁justif	-12.4117
athlete	-12.4117
▁reinstate	-12.4118
▁parad	-12.4118
▁juic	-12.4118
cock	-12.4118
▁estell	-12.4118
reliable	-12.4118
▁optic	-12.4118
▁scot	-12.4119
blood	-12.4119
stock	-12.4119
▁tram	-12.4119
▁centuri	-12.412
▁stride	-12.412
titude	-12.412
▁administrati	-12.412
scribe	-12.412
rought	-12.412
▁extensi	-12.412
▁intuiti	-12.412
scription	-12.412
▁resurrect	-12.412
uspicious	-12.412
▁construct	-12.4121
▁flutter	-12.4121
▁trump	-12.4121
▁trait	-12.4121
▁comln	-12.4121
ssassinations	-12.4121
steroid	-12.4121
minded	-12.4121
▁celebratin	-12.4121
▁fertil	-12.4121
▁situat	-12.4121
▁puss	-12.4121
▁plannin	-12.4122
ingham	-12.4122
playing	-12.4122
xactly	-12.4122
ographers	-12.4122
▁physici	-12.4122
autiful	-12.4122
▁sprinkle	-12.4122
▁belgi	-12.4122
clock	-12.4122
▁confide	-12.4122
rror	-12.4122
▁tribu	-12.4122
▁enlighten	-12.4123
▁compla	-12.4123
▁avenge	-12.4123
▁surveill	-12.4123
▁intrude	-12.4123
▁agua	-12.4123
snicker	-12.4123
whir	-12.4123
▁memoriz	-12.4123
redefini	-12.4123
lapping	-12.4123
astically	-12.4123
▁nico	-12.4123
▁indulge	-12.4123
▁occup	-12.4123
▁crucif	-12.4123
bbie	-12.4123
measur	-12.4123
raceable	-12.4123
▁cucko	-12.4123
▁affirm	-12.4123
▁theodo	-12.4123
▁enforce	-12.4123
mportant	-12.4123
▁withdr	-12.4123
utzen	-12.4123
rhaps	-12.4123
▁afghan	-12.4124
▁knox	-12.4124
▁cavalry	-12.4124
▁clergy	-12.4124
▁concussi	-12.4124
▁defraud	-12.4124
▁dlsquallf	-12.4124
▁gpsjamm	-12.4124
▁indirect	-12.4124
▁monopol	-12.4124
▁oversimplif	-12.4124
▁predetermin	-12.4124
▁propagat	-12.4124
▁reminisce	-12.4124
▁sophisticat	-12.4124
▁tranq	-12.4124
▁uncoupl	-12.4124
batul	-12.4124
behaving	-12.4124
counterclockwise	-12.4124
diagnos	-12.4124
dlsclpllne	-12.4124
elfdetermination	-12.4124
fallibility	-12.4124
hirri	-12.4124
missible	-12.4124
ocarbon	-12.4124
percussion	-12.4124
pregna	-12.4124
schnitzel	-12.4124
sseldorf	-12.4124
ulgar	-12.4124
warra	-12.4124
▁abbu	-12.4124
▁abduct	-12.4124
▁abolition	-12.4124
▁accommodati	-12.4124
▁accomplice	-12.4124
▁activist	-12.4124
▁adjacent	-12.4124
▁adjourned	-12.4124
▁administrator	-12.4124
▁aerodynamic	-12.4124
▁aeronautic	-12.4124
▁aerospace	-12.4124
▁afterburner	-12.4124
▁agencies	-12.4124
▁aglobe	-12.4124
▁ahahah	-12.4124
▁airspeed	-12.4124
▁aislinn	-12.4124
▁alaska	-12.4124
▁alfalfa	-12.4124
▁algorithm	-12.4124
▁alleged	-12.4124
▁alligator	-12.4124
▁alternatlve	-12.4124
▁amazon	-12.4124
▁antagonist	-12.4124
▁antifreeze	-12.4124
▁apparition	-12.4124
▁appetizer	-12.4124
▁applebaum	-12.4124
▁aristocrat	-12.4124
▁armchair	-12.4124
▁asfaloth	-12.4124
▁balaji	-12.4124
▁banshee	-12.4124
▁barbershop	-12.4124
▁beatboxing	-12.4124
▁befit	-12.4124
▁beriatha	-12.4124
▁beurre	-12.4124
▁bewitched	-12.4124
▁biblical	-12.4124
▁biometric	-12.4124
▁biopsied	-12.4124
▁biorhythm	-12.4124
▁birmingham	-12.4124
▁bladder	-12.4124
▁blaspheming	-12.4124
▁blasphemous	-12.4124
▁blasphemy	-12.4124
▁bloodstream	-12.4124
▁boogeyman	-12.4124
▁boulevard	-12.4124
▁bracegirdle	-12.4124
▁brainwave	-12.4124
▁briggs	-12.4124
▁brocklehurst	-12.4124
▁brunette	-12.4124
▁bystander	-12.4124
▁calcium	-12.4124
▁caribbean	-12.4124
▁carmichael	-12.4124
▁carpenter	-12.4124
▁cartilage	-12.4124
▁casserole	-12.4124
▁catalyst	-12.4124
▁cavanagh	-12.4124
▁cemeteries	-12.4124
▁cemetery	-12.4124
▁centimeter	-12.4124
▁charlemagne	-12.4124
▁chelsea	-12.4124
▁chickierun	-12.4124
▁chivalry	-12.4124
▁choonchun	-12.4124
▁christmassacre	-12.4124
▁cindy	-12.4124
▁cinnamon	-12.4124
▁civic	-12.4124
▁cllmb	-12.4124
▁cockadoodle	-12.4124
▁cojones	-12.4124
▁cologne	-12.4124
▁competitor	-12.4124
▁consolidat	-12.4124
▁constricting	-12.4124
▁convenience	-12.4124
▁corpulence	-12.4124
▁cosmetic	-12.4124
▁courier	-12.4124
▁covenant	-12.4124
▁cowbell	-12.4124
▁crescos	-12.4124
▁crumpets	-12.4124
▁culprit	-12.4124
▁curiosity	-12.4124
▁cylind	-12.4124
▁dadadadatda	-12.4124
▁daglish	-12.4124
▁debella	-12.4124
▁debrief	-12.4124
▁decipher	-12.4124
▁definitively	-12.4124
▁dehydrated	-12.4124
▁deodorant	-12.4124
▁derail	-12.4124
▁deserving	-12.4124
▁detention	-12.4124
▁diagnostic	-12.4124
▁dialect	-12.4124
▁dishonest	-12.4124
▁dishonor	-12.4124
▁dishwasher	-12.4124
▁dissertation	-12.4124
▁dissipate	-12.4124
▁dissolve	-12.4124
▁distrust	-12.4124
▁divisive	-12.4124
▁dorothy	-12.4124
▁draught	-12.4124
▁eccentric	-12.4124
▁eclair	-12.4124
▁eglamore	-12.4124
▁eloquen	-12.4124
▁emissions	-12.4124
▁encamp	-12.4124
▁encouraging	-12.4124
▁encyclopedia	-12.4124
▁enlarge	-12.4124
▁ensnare	-12.4124
▁entangled	-12.4124
▁entrails	-12.4124
▁entrepreneur	-12.4124
▁epidural	-12.4124
▁epstein	-12.4124
▁espress	-12.4124
▁eukaryotic	-12.4124
▁exaggerate	-12.4124
▁exaggerating	-12.4124
▁excellence	-12.4124
▁explicitly	-12.4124
▁exploding	-12.4124
▁exploring	-12.4124
▁exponential	-12.4124
▁extravagant	-12.4124
▁extravaganza	-12.4124
▁extremist	-12.4124
▁eyeopener	-12.4124
▁facilitate	-12.4124
▁fangorn	-12.4124
▁flickering	-12.4124
▁fragment	-12.4124
▁franchise	-12.4124
▁frederick	-12.4124
▁frlend	-12.4124
▁fundraiser	-12.4124
▁futile	-12.4124
▁galadhrim	-12.4124
▁galaxies	-12.4124
▁ghandi	-12.4124
▁gigantic	-12.4124
▁glddyap	-12.4124
▁grammar	-12.4124
▁greatgreat	-12.4124
▁guacamole	-12.4124
▁guffaw	-12.4124
▁hallucinating	-12.4124
▁happier	-12.4124
▁heidelberg	-12.4124
▁heiglemann	-12.4124
▁heritage	-12.4124
▁hideandseek	-12.4124
▁hilarious	-12.4124
▁hippopotamus	-12.4124
▁hoarse	-12.4124
▁hollingsworth	-12.4124
▁hopscotch	-12.4124
▁hormone	-12.4124
▁horrendous	-12.4124
▁horrific	-12.4124
▁hurdle	-12.4124
▁hyojung	-12.4124
▁hypocrite	-12.4124
▁identification	-12.4124
▁imladris	-12.4124
[...]
