<unk>	0
<s>	0
</s>	0
s	-4.07944
▁im	-4.37644
▁dont	-4.52402
▁know	-4.53565
▁get	-4.74714
▁go	-4.77298
▁like	-4.7828
▁right	-4.85276
▁oh	-4.87679
▁yeah	-4.95559
▁come	-4.98074
▁youre	-4.99106
▁well	-5.00885
▁got	-5.03929
▁one	-5.17894
▁want	-5.22531
▁thats	-5.23169
▁good	-5.23779
▁na	-5.25883
▁okay	-5.27919
▁think	-5.31677
▁see	-5.31915
ing	-5.43154
▁yes	-5.52222
▁going	-5.52713
▁gon	-5.56245
▁look	-5.58866
▁back	-5.59674
▁time	-5.59772
▁hey	-5.5998
▁us	-5.60867
▁man	-5.62847
▁cant	-5.66939
▁ill	-5.70448
▁take	-5.7078
▁hes	-5.76859
▁really	-5.77904
▁would	-5.78155
▁tell	-5.81371
▁say	-5.83326
ed	-5.84886
▁never	-5.86323
▁need	-5.89878
▁could	-5.91168
▁lets	-5.91573
▁love	-5.9186
▁way	-5.9199
▁make	-5.93782
▁something	-5.94014
▁little	-5.96686
▁thank	-5.97415
▁let	-5.99749
▁didnt	-6.02472
▁people	-6.03137
▁sorry	-6.04478
▁whats	-6.04936
▁give	-6.08205
▁god	-6.1022
▁mean	-6.10775
▁please	-6.11158
▁ive	-6.17581
▁theres	-6.18383
▁	-6.21125
▁sure	-6.22831
▁l	-6.28306
▁thing	-6.2832
d	-6.29317
▁said	-6.29546
▁shes	-6.30292
▁much	-6.32331
▁two	-6.32632
▁day	-6.35488
▁even	-6.35942
y	-6.40351
▁big	-6.41343
▁uh	-6.41823
▁still	-6.42496
▁first	-6.43156
▁mr	-6.4362
▁life	-6.43959
▁theyre	-6.44324
▁help	-6.44762
▁nothing	-6.47217
▁great	-6.47766
▁new	-6.48281
▁home	-6.48285
▁ever	-6.48639
▁sir	-6.49251
▁stop	-6.50533
▁wait	-6.50714
▁hell	-6.53245
▁call	-6.53322
▁talk	-6.54963
▁maybe	-6.55113
ly	-6.564
▁thought	-6.56967
▁always	-6.56996
▁work	-6.57681
▁keep	-6.57755
▁put	-6.5833
▁ok	-6.59232
▁guys	-6.60023
▁anything	-6.60285
▁away	-6.61082
▁better	-6.61275
▁things	-6.61464
▁told	-6.62473
▁must	-6.62668
▁hi	-6.63041
▁find	-6.6415
▁long	-6.64176
▁night	-6.6761
▁id	-6.67861
▁everything	-6.6825
e	-6.68516
▁feel	-6.69019
▁last	-6.69568
▁old	-6.70333
▁wan	-6.70777
▁every	-6.70825
▁years	-6.7334
▁believe	-6.74909
▁name	-6.75137
▁leave	-6.75532
▁around	-6.76012
▁baby	-6.76938
▁fine	-6.77249
▁listen	-6.77386
▁stay	-6.77412
▁nice	-6.77604
▁kind	-6.78098
▁remember	-6.79716
▁girl	-6.79872
▁hear	-6.79998
▁lot	-6.80676
▁ta	-6.81154
▁wont	-6.82427
▁youll	-6.83416
▁youve	-6.83664
▁move	-6.83748
▁show	-6.85102
▁wanted	-6.86352
▁today	-6.86433
▁made	-6.8671
▁doesnt	-6.86945
▁world	-6.87533
▁real	-6.87673
▁thanks	-6.8898
▁left	-6.90301
▁coming	-6.90636
▁dad	-6.90752
▁car	-6.92618
▁ready	-6.92848
▁boy	-6.93132
▁huh	-6.93579
▁place	-6.93796
▁guy	-6.94501
▁woman	-6.94685
er	-6.94694
▁house	-6.96096
▁course	-6.98067
▁hello	-6.98148
▁enough	-6.98932
▁mom	-6.9915
▁three	-7.00099
▁next	-7.00684
▁money	-7.01275
▁bad	-7.01424
▁best	-7.01878
▁trying	-7.02876
▁miss	-7.03159
▁wrong	-7.03371
▁done	-7.04594
▁mind	-7.04935
▁else	-7.05256
▁talking	-7.05291
▁kill	-7.06663
▁might	-7.06756
▁try	-7.07204
▁mother	-7.07756
▁ask	-7.08575
▁together	-7.08651
▁someone	-7.08724
▁excuse	-7.08971
▁getting	-7.09084
▁shit	-7.1022
▁men	-7.10283
▁play	-7.10824
▁isnt	-7.1091
▁another	-7.11893
▁whole	-7.11894
▁son	-7.12368
r	-7.12719
▁father	-7.13027
▁understand	-7.13451
▁came	-7.14503
▁pretty	-7.14566
▁kids	-7.15626
▁many	-7.16336
▁hold	-7.16842
▁guess	-7.17206
▁live	-7.18101
▁happened	-7.19224
▁meet	-7.197
▁job	-7.20415
▁may	-7.20611
▁family	-7.2121
▁music	-7.21295
▁morning	-7.21573
in	-7.21815
▁care	-7.22055
▁school	-7.22984
▁damn	-7.23115
▁door	-7.23728
▁turn	-7.24801
▁heard	-7.24808
▁looking	-7.24884
▁aint	-7.24895
▁without	-7.26026
▁saw	-7.26028
▁tomorrow	-7.26788
▁happy	-7.27171
▁actually	-7.27176
▁dead	-7.27414
▁head	-7.28413
▁went	-7.28722
▁beautiful	-7.29501
▁room	-7.29957
▁sit	-7.30077
▁ah	-7.30111
▁tonight	-7.30687
▁die	-7.31357
▁friend	-7.31779
▁run	-7.32828
▁seen	-7.34336
▁um	-7.34369
es	-7.34375
▁em	-7.34401
▁idea	-7.34494
▁wasnt	-7.35159
▁weve	-7.35161
▁war	-7.35792
▁hand	-7.36003
a	-7.36262
▁everybody	-7.36414
▁eat	-7.37011
▁hard	-7.3871
▁playing	-7.39105
▁took	-7.39406
▁late	-7.40243
▁wouldnt	-7.40316
▁called	-7.4051
▁drink	-7.40517
▁dr	-7.40699
▁knew	-7.40717
▁start	-7.41193
▁already	-7.41599
▁used	-7.41719
▁friends	-7.42446
▁true	-7.4249
▁end	-7.42832
▁found	-7.43062
▁matter	-7.43222
▁since	-7.43373
▁cause	-7.43532
▁face	-7.43667
▁hit	-7.44378
▁use	-7.44705
al	-7.46023
▁crazy	-7.46601
▁watch	-7.46735
▁says	-7.47022
▁forget	-7.47537
▁whos	-7.48952
▁youd	-7.48979
▁bring	-7.49432
▁yet	-7.49441
▁part	-7.50076
▁young	-7.50305
▁year	-7.50773
▁stuff	-7.51374
▁alone	-7.51378
▁bit	-7.51686
▁fire	-7.52624
▁hope	-7.52759
▁fight	-7.52779
▁havent	-7.52852
▁thinking	-7.5325
▁wife	-7.53355
▁whoa	-7.53356
▁women	-7.5385
n	-7.53891
▁kid	-7.54319
▁christmas	-7.54352
▁five	-7.5436
▁sighs	-7.54503
▁wants	-7.54585
▁open	-7.55125
▁read	-7.55179
▁business	-7.55343
▁laughs	-7.55343
▁worry	-7.55365
▁couldnt	-7.55405
▁laughing	-7.55497
▁mama	-7.55616
▁second	-7.56367
▁problem	-7.56374
▁doctor	-7.56378
▁four	-7.56384
▁everyone	-7.56928
▁town	-7.57459
▁somebody	-7.58467
▁la	-7.58485
▁dog	-7.58512
o	-7.58578
▁saying	-7.58813
▁honey	-7.58994
▁minute	-7.59012
▁dance	-7.59773
▁girls	-7.59801
▁days	-7.60651
▁rest	-7.60767
▁check	-7.60917
▁anyone	-7.61126
▁easy	-7.61127
▁phone	-7.61129
▁change	-7.61597
t	-7.61618
▁ago	-7.6168
▁heart	-7.61927
▁country	-7.62207
▁whatever	-7.6221
▁story	-7.62212
▁lost	-7.62772
▁vou	-7.63051
▁walk	-7.63088
▁eyes	-7.63392
▁chuckles	-7.64049
▁brother	-7.64528
▁boys	-7.64819
▁soon	-7.64903
▁important	-7.64972
▁probably	-7.64975
▁cool	-7.65194
▁looks	-7.65237
▁fun	-7.65333
▁minutes	-7.66084
▁king	-7.66438
▁set	-7.66628
▁also	-7.66668
▁welcome	-7.66684
▁different	-7.67658
▁later	-7.67929
▁dee	-7.68311
▁met	-7.68783
▁hands	-7.68817
▁gone	-7.68918
▁ass	-7.68972
▁word	-7.69158
▁stupid	-7.69558
▁supposed	-7.70205
▁pay	-7.70287
▁moment	-7.70978
▁children	-7.71579
▁lord	-7.716
▁hurt	-7.71724
▁break	-7.71753
▁point	-7.71865
▁wheres	-7.72758
▁death	-7.73144
▁bye	-7.73754
▁taking	-7.74382
▁un	-7.75043
▁happen	-7.75107
▁far	-7.75497
▁inside	-7.75605
▁exactly	-7.75613
▁party	-7.75818
▁free	-7.76216
▁shut	-7.76545
▁working	-7.77628
▁close	-7.77636
ll	-7.77865
▁mrs	-7.78334
▁nobody	-7.78484
▁blood	-7.78767
▁gun	-7.79135
▁deal	-7.79254
▁stand	-7.79374
▁sleep	-7.79378
▁full	-7.79674
▁line	-7.79871
▁makes	-7.80171
▁mine	-7.80385
▁wish	-7.80992
▁killed	-7.81309
▁half	-7.81367
▁wow	-7.81375
▁least	-7.81377
▁waiting	-7.8163
▁book	-7.82091
▁afraid	-7.82701
▁married	-7.82702
ve	-7.82813
▁sometimes	-7.83518
▁game	-7.83838
▁anyway	-7.83854
▁hate	-7.84026
▁max	-7.84074
▁side	-7.84612
▁jesus	-7.84767
▁high	-7.85116
▁number	-7.85217
▁chance	-7.85233
▁shot	-7.85243
▁dear	-7.85389
▁anymore	-7.85414
▁person	-7.8588
▁rock	-7.85938
▁light	-7.86013
▁goes	-7.86159
▁cut	-7.86558
▁elvis	-7.86798
▁sister	-7.87331
▁ladies	-7.88913
▁city	-7.88928
▁black	-7.89494
▁song	-7.89513
▁sweet	-7.89603
▁week	-7.90213
▁arent	-7.90345
▁pick	-7.91063
▁started	-7.91539
▁hair	-7.91624
▁six	-7.91786
▁shall	-7.91797
▁months	-7.91881
l	-7.91953
▁beat	-7.92098
▁shouldnt	-7.92534
▁daughter	-7.93201
▁daddy	-7.93967
▁sick	-7.9402
▁ooh	-7.94023
▁trouble	-7.94078
▁power	-7.9462
▁front	-7.94772
▁gave	-7.94779
▁lm	-7.94912
▁asked	-7.95445
▁hot	-7.95544
▁clear	-7.96011
▁reason	-7.96272
▁though	-7.96293
▁general	-7.963
▁water	-7.97061
▁majesty	-7.97063
▁special	-7.97187
▁s	-7.98131
▁office	-7.98528
▁white	-7.98636
▁luck	-7.99268
▁times	-7.99378
▁anybody	-7.99407
▁gentlemen	-7.99407
▁sound	-7.99418
▁movie	-7.99419
▁trust	-7.99443
▁hours	-8.00052
▁body	-8.002
▁funny	-8.00206
▁news	-8.00871
▁truth	-8.01
▁control	-8.01024
▁hang	-8.0132
▁ya	-8.01329
▁case	-8.01641
▁died	-8.0223
p	-8.02287
▁answer	-8.02372
▁telling	-8.02418
▁ahead	-8.02622
▁scared	-8.0267
▁bitch	-8.03401
st	-8.03497
▁shoot	-8.03783
v	-8.04139
▁write	-8.04174
▁hurry	-8.04266
▁president	-8.04268
▁air	-8.05012
▁behind	-8.05099
▁grunting	-8.05112
▁ha	-8.05154
▁star	-8.05515
▁outside	-8.0563
▁touch	-8.06052
▁comes	-8.06329
▁question	-8.06464
▁order	-8.06474
▁sort	-8.06789
▁glad	-8.06791
▁parents	-8.06808
▁almost	-8.07642
▁send	-8.08239
▁top	-8.08547
▁walls	-8.08589
▁husband	-8.08668
▁hour	-8.08681
▁american	-8.08775
▁red	-8.08935
▁jack	-8.09188
i	-8.09209
▁either	-8.09373
▁making	-8.09378
▁win	-8.0981
▁straight	-8.09865
▁ring	-8.10262
▁team	-8.10454
▁re	-8.10728
▁church	-8.10885
▁quite	-8.11205
▁lady	-8.11349
▁step	-8.11373
▁sounds	-8.12018
▁dream	-8.12132
▁gets	-8.12266
▁lives	-8.12438
est	-8.12709
▁hank	-8.12938
▁marry	-8.13404
▁speak	-8.13536
▁couple	-8.13838
▁goodbye	-8.13839
▁tried	-8.13846
▁heres	-8.13921
▁pain	-8.14147
▁bed	-8.14325
▁needs	-8.14386
▁lose	-8.14723
▁living	-8.14757
▁pull	-8.14965
▁feeling	-8.14993
▁means	-8.15442
▁fall	-8.15461
▁brought	-8.15682
▁cold	-8.15686
▁learn	-8.15893
▁ho	-8.17369
▁dinner	-8.1756
▁hmm	-8.1757
▁alive	-8.17574
▁promise	-8.17694
▁safe	-8.18276
▁theyll	-8.18513
▁running	-8.18515
▁screaming	-8.18627
on	-8.18675
▁c	-8.18718
▁follow	-8.18718
▁voice	-8.18857
▁serious	-8.19334
▁police	-8.19452
▁felt	-8.19475
▁itll	-8.19477
▁brian	-8.19478
▁able	-8.19689
▁buy	-8.19696
▁dick	-8.19833
▁ride	-8.203
▁leaving	-8.20446
▁sense	-8.20447
▁an	-8.20596
▁th	-8.20653
▁fast	-8.21337
c	-8.21495
g	-8.21904
▁knows	-8.21958
▁wear	-8.22066
en	-8.22313
▁york	-8.22415
▁maam	-8.22416
▁security	-8.22417
▁child	-8.22422
▁hows	-8.22464
▁captain	-8.22825
▁past	-8.23277
▁dark	-8.23405
able	-8.23408
ion	-8.23415
▁lucky	-8.23627
▁weeks	-8.24607
k	-8.24845
▁secret	-8.24871
▁peace	-8.25223
▁strong	-8.25355
▁kidding	-8.25448
▁drop	-8.2594
ic	-8.26139
▁proud	-8.26476
▁speaking	-8.26964
▁hospital	-8.26969
▁perfect	-8.27347
▁colonel	-8.27519
▁gasps	-8.27766
▁clean	-8.27798
▁peter	-8.27925
▁drive	-8.27961
▁become	-8.28043
▁roll	-8.2808
m	-8.28253
▁radio	-8.28493
▁buddy	-8.28571
▁food	-8.28578
▁sent	-8.28585
▁frank	-8.2897
▁soul	-8.29114
▁boat	-8.29134
▁ruth	-8.29621
▁lie	-8.29684
▁ten	-8.29911
▁short	-8.30074
▁fear	-8.30182
▁charles	-8.30701
▁somewhere	-8.3071
▁fly	-8.31751
▁seven	-8.31821
ers	-8.31983
▁horse	-8.32417
▁count	-8.32626
▁along	-8.32893
▁alex	-8.32896
▁goddamn	-8.32907
▁stage	-8.32921
▁save	-8.32995
▁kate	-8.33178
▁b	-8.3352
▁human	-8.33708
▁loved	-8.33841
▁sing	-8.33863
▁pop	-8.33888
▁small	-8.33906
▁wonderful	-8.34047
▁bet	-8.34117
▁seems	-8.34425
▁a	-8.34464
▁land	-8.34604
▁mouth	-8.34674
▁push	-8.34831
or	-8.35094
▁poor	-8.35139
▁master	-8.35155
▁train	-8.35171
▁plan	-8.35368
▁picture	-8.35828
▁test	-8.36249
▁amazing	-8.36279
▁cute	-8.36388
▁crying	-8.36578
▁surprise	-8.3678
▁taken	-8.37048
▁language	-8.37416
▁groans	-8.375
▁fact	-8.38074
▁throw	-8.38084
▁street	-8.38162
▁burn	-8.38534
▁sign	-8.39478
▁indistinct	-8.39614
▁south	-8.39751
▁eight	-8.39779
▁lucy	-8.39779
▁p	-8.39905
▁seem	-8.39991
▁uncle	-8.40936
▁finally	-8.41008
▁record	-8.41033
▁rules	-8.41065
▁ones	-8.41459
▁blue	-8.41782
▁agent	-8.41782
▁meeting	-8.41985
▁attention	-8.42151
▁till	-8.4216
▁words	-8.42983
▁attack	-8.43082
▁judy	-8.43381
▁cheering	-8.43497
▁lunch	-8.44595
▁drunk	-8.446
▁martha	-8.44605
▁less	-8.4489
▁age	-8.44913
▁changed	-8.45056
▁sell	-8.45094
▁choice	-8.45518
▁quick	-8.45614
▁ball	-8.45649
▁entire	-8.4571
▁m	-8.45833
▁future	-8.45857
▁wake	-8.45857
▁emma	-8.45875
▁asking	-8.46288
us	-8.46501
h	-8.4652
▁happening	-8.46726
▁million	-8.46808
▁french	-8.47127
▁panting	-8.47131
▁wed	-8.47271
▁act	-8.4729
▁cover	-8.47354
▁in	-8.47367
▁sad	-8.47555
▁teach	-8.47772
▁al	-8.47909
▁worth	-8.48216
▁rather	-8.48403
▁tv	-8.48428
▁grunts	-8.48476
▁kiss	-8.48782
▁d	-8.48804
▁meant	-8.48954
▁dress	-8.49059
▁prison	-8.49259
▁continues	-8.49303
▁quiet	-8.49555
▁weird	-8.49647
▁perhaps	-8.49701
▁joe	-8.49716
▁lena	-8.49718
le	-8.49876
▁art	-8.4993
▁ow	-8.49969
▁wonder	-8.5023
▁longer	-8.50309
▁figure	-8.50559
▁smart	-8.5089
▁forgot	-8.51015
▁sweetheart	-8.51017
▁merry	-8.51017
▁road	-8.51019
▁clothes	-8.51022
▁calm	-8.51024
▁shh	-8.51027
▁none	-8.51409
▁eye	-8.51627
▁worked	-8.51638
▁happens	-8.51714
▁arm	-8.51755
▁possible	-8.52351
▁simple	-8.52351
▁terrible	-8.52351
▁company	-8.52354
▁yall	-8.52422
▁state	-8.5255
▁pass	-8.52867
▁visit	-8.52926
▁pray	-8.53132
▁club	-8.53454
▁america	-8.53551
▁worse	-8.53702
▁anywhere	-8.53702
▁middle	-8.53702
▁moving	-8.53703
▁fault	-8.53707
man	-8.54006
▁expect	-8.54344
▁bill	-8.54603
▁missed	-8.54987
▁class	-8.54996
▁wedding	-8.55079
▁parker	-8.55123
▁shouting	-8.55177
▁born	-8.55183
ation	-8.55313
▁k	-8.55764
▁fair	-8.56293
▁strange	-8.56368
▁others	-8.56461
▁danny	-8.56462
▁singing	-8.57004
▁kat	-8.57353
▁catch	-8.57419
▁shell	-8.57705
▁month	-8.5772
▁piece	-8.57722
▁looked	-8.57751
▁matt	-8.57776
▁mad	-8.57807
▁doc	-8.57809
▁mmhmm	-8.57874
▁feet	-8.57877
▁unless	-8.579
▁known	-8.58148
▁calling	-8.58324
▁sea	-8.58331
▁spend	-8.58859
▁wall	-8.58975
▁crowd	-8.58988
▁heaven	-8.58992
▁john	-8.59103
▁rule	-8.59217
▁yesterday	-8.59298
▁dude	-8.59299
▁government	-8.59299
▁soo	-8.59305
▁native	-8.59339
▁crap	-8.59351
▁prom	-8.59352
▁greatest	-8.59545
▁breathe	-8.59991
▁fish	-8.60068
▁snow	-8.60252
▁whoo	-8.60303
▁liked	-8.60364
▁chris	-8.60419
▁watching	-8.60629
▁leg	-8.6063
▁presley	-8.60747
▁giving	-8.60748
▁earth	-8.60752
▁officer	-8.60757
▁mm	-8.60812
▁date	-8.60873
▁army	-8.6093
▁de	-8.60968
▁present	-8.61739
▁bell	-8.61881
▁slow	-8.62073
▁careful	-8.62138
▁bar	-8.6217
▁near	-8.62214
▁crumb	-8.62218
▁darling	-8.62221
▁aah	-8.62231
▁hide	-8.62253
▁ray	-8.62262
▁feels	-8.62444
▁given	-8.62916
▁fat	-8.6335
▁idiot	-8.63585
▁camera	-8.63632
▁afshin	-8.6371
▁farnaz	-8.6371
▁laughter	-8.63719
▁swear	-8.63725
▁building	-8.63863
▁wind	-8.63921
is	-8.63987
it	-8.64097
▁takes	-8.64217
▁enjoy	-8.6445
▁kick	-8.64815
▁finish	-8.6494
▁handle	-8.64994
w	-8.65022
▁imagine	-8.65029
▁minister	-8.65159
▁glass	-8.6522
▁mmm	-8.65225
▁isaac	-8.65225
▁bunny	-8.65226
▁absolutely	-8.65248
▁early	-8.65412
▁stick	-8.65657
▁lead	-8.6618
▁relax	-8.66279
▁g	-8.66308
▁evening	-8.66412
▁rain	-8.66464
▁questions	-8.66534
▁emperor	-8.66703
▁caitlyn	-8.66764
▁nelson	-8.66764
▁uhhuh	-8.66766
▁tough	-8.66777
▁alan	-8.66783
▁christ	-8.66895
▁standing	-8.67795
▁yo	-8.6799
el	-8.68025
▁smile	-8.68052
▁needed	-8.68141
▁trip	-8.68178
▁green	-8.68325
▁worried	-8.68326
▁werent	-8.68326
▁dangerous	-8.68331
▁completely	-8.68407
▁figured	-8.68547
▁bank	-8.68719
▁miles	-8.68753
▁join	-8.69017
▁blow	-8.69431
▁cry	-8.69445
re	-8.69474
▁film	-8.69885
▁broke	-8.69911
▁store	-8.69912
▁coffee	-8.69913
▁henry	-8.69913
▁toby	-8.69915
▁favorite	-8.69918
▁stone	-8.6993
▁tired	-8.69933
▁princess	-8.69978
▁seconds	-8.6998
▁lovely	-8.7056
▁screams	-8.70626
▁card	-8.70666
up	-8.70916
f	-8.70923
▁grow	-8.71021
▁band	-8.71033
▁seeing	-8.71071
▁plane	-8.71137
▁fool	-8.71246
▁f	-8.71259
▁agree	-8.7131
▁quit	-8.71407
▁except	-8.71499
▁forever	-8.71527
▁chuckling	-8.71527
▁hundred	-8.71528
▁hungry	-8.71533
▁rex	-8.71539
▁paid	-8.71553
▁stopped	-8.71564
ies	-8.71566
▁wine	-8.72002
▁laugh	-8.72502
▁e	-8.73032
▁states	-8.73046
▁german	-8.73067
▁audience	-8.73166
▁piranha	-8.73168
▁sun	-8.73186
▁guard	-8.73224
▁group	-8.73227
▁totally	-8.73232
▁brand	-8.7325
▁busy	-8.73314
▁bag	-8.73418
▁truck	-8.74375
▁turned	-8.74418
▁especially	-8.74836
▁tom	-8.74844
▁broken	-8.74892
▁smell	-8.74934
▁ship	-8.7497
ful	-8.75405
▁chatter	-8.76096
▁carry	-8.76145
▁n	-8.76306
▁return	-8.76326
▁deep	-8.76373
▁certain	-8.76374
▁fell	-8.7645
ie	-8.76477
▁jimmy	-8.76528
▁alright	-8.7653
▁accident	-8.76609
▁folks	-8.76652
▁t	-8.77224
▁lts	-8.77405
▁mess	-8.77462
▁lou	-8.77565
▁gold	-8.78226
▁theyve	-8.78253
▁race	-8.78256
▁beer	-8.78308
▁ground	-8.78351
▁low	-8.78407
▁tree	-8.78407
▁history	-8.78873
▁bomb	-8.78925
▁guns	-8.78999
▁brave	-8.79303
▁reach	-8.7964
▁sex	-8.79846
▁contact	-8.80006
▁sarafina	-8.80006
▁wrote	-8.80006
▁instead	-8.80006
▁lonely	-8.80006
▁david	-8.80006
▁sally	-8.80104
▁hed	-8.80221
▁seriously	-8.80264
▁breathing	-8.8035
▁ben	-8.80435
▁ms	-8.80565
u	-8.80703
▁seat	-8.80796
▁loves	-8.81592
▁richard	-8.81713
▁forgive	-8.81717
▁public	-8.8178
▁personal	-8.81793
▁bunch	-8.81794
▁caught	-8.81794
▁chief	-8.81818
▁hotel	-8.8183
▁decided	-8.81876
▁boss	-8.81953
▁fit	-8.8205
▁owe	-8.82156
▁pictures	-8.82487
▁lock	-8.82909
▁fighting	-8.83358
▁respect	-8.83475
▁gift	-8.83514
▁throat	-8.83612
▁larry	-8.83612
▁summer	-8.83616
▁definitely	-8.83629
▁duke	-8.83658
▁engine	-8.83697
▁jeannette	-8.8378
▁flight	-8.83802
▁target	-8.83829
▁law	-8.83858
▁table	-8.83937
▁lay	-8.84011
▁whose	-8.841
▁lights	-8.84103
▁bus	-8.84242
▁hero	-8.84532
▁talked	-8.8455
ment	-8.84819
▁suppose	-8.85278
▁super	-8.85456
▁driving	-8.85462
▁birthday	-8.85463
▁strength	-8.85464
▁dancing	-8.85464
▁kept	-8.85469
ch	-8.85696
▁station	-8.85757
▁thy	-8.85774
▁arms	-8.85812
▁awful	-8.85917
▁lived	-8.86452
an	-8.86586
▁st	-8.86821
▁offer	-8.86845
z	-8.86967
▁realize	-8.87209
▁english	-8.87323
▁grab	-8.87335
▁yussef	-8.87348
▁north	-8.87349
▁island	-8.87349
▁professor	-8.87351
▁third	-8.87351
▁private	-8.87353
▁prime	-8.87354
▁foot	-8.87354
▁idgie	-8.87362
▁earl	-8.87448
▁mission	-8.87591
▁promised	-8.87722
▁cell	-8.87752
▁shoes	-8.8789
▁training	-8.88076
▁bo	-8.88122
ist	-8.88285
▁rose	-8.88371
▁normal	-8.89129
▁favor	-8.89266
▁dying	-8.89273
▁highness	-8.8931
▁sake	-8.89554
▁floor	-8.89564
▁difference	-8.89569
▁bastard	-8.89615
▁chicken	-8.89616
▁patient	-8.89633
▁games	-8.89895
▁ringing	-8.90223
less	-8.90239
▁explain	-8.90455
▁walking	-8.90796
▁mike	-8.9106
▁nervous	-8.91082
b	-8.91158
▁pleasure	-8.91232
▁college	-8.91233
▁bullshit	-8.91233
▁outta	-8.91239
▁rafe	-8.91243
▁nine	-8.91255
▁creaking	-8.91271
▁groaning	-8.91271
▁legs	-8.91395
▁tour	-8.9159
▁spot	-8.91602
▁evil	-8.91613
▁list	-8.91831
▁taste	-8.91885
▁post	-8.92304
▁works	-8.92692
ness	-8.92921
▁charlie	-8.93232
▁claire	-8.93232
▁spent	-8.93234
▁barry	-8.93245
th	-8.93322
▁appreciate	-8.93333
▁tape	-8.93436
▁cop	-8.93497
▁holding	-8.93721
▁code	-8.93797
▁fix	-8.94526
▁report	-8.94869
▁honor	-8.94953
▁punch	-8.95198
▁grace	-8.95246
▁beginning	-8.95273
▁sergei	-8.95275
▁practice	-8.95276
▁information	-8.95276
▁thev	-8.95279
▁warm	-8.9528
▁putting	-8.9539
▁faster	-8.95475
▁allowed	-8.95553
▁round	-8.95696
▁product	-8.9572
▁extra	-8.95881
▁painting	-8.96156
▁choose	-8.96273
▁thinks	-8.9632
▁starts	-8.96363
ity	-8.96537
▁support	-8.96556
▁moved	-8.96819
▁box	-8.96824
▁travel	-8.96875
▁board	-8.96968
▁reading	-8.97034
▁allow	-8.97083
▁dreams	-8.97111
▁command	-8.97158
▁share	-8.9717
▁cure	-8.97177
▁rich	-8.97289
▁stuck	-8.97339
▁enemy	-8.97356
▁shame	-8.97364
▁director	-8.97367
▁tally	-8.97454
▁mary	-8.97456
▁united	-8.97473
▁court	-8.97751
▁hat	-8.97759
▁mistake	-8.97821
▁spirit	-8.97857
▁letter	-8.98074
ar	-8.98464
▁sam	-8.98743
▁over	-8.99026
▁honest	-8.9917
▁blind	-8.99476
▁battle	-8.99482
▁asleep	-8.99484
▁situation	-8.99484
▁upstairs	-8.99484
▁yellow	-8.99484
▁laura	-8.99486
▁rachel	-8.99487
▁everywhere	-8.99499
▁jim	-8.99501
▁france	-8.99529
▁national	-8.99542
▁sitting	-8.99548
▁goodnight	-8.99572
▁r	-8.99604
▁gasping	-8.99625
os	-8.99698
▁force	-8.99856
▁saved	-8.99962
▁asshole	-9.00014
▁learned	-9.00145
▁nation	-9.00168
▁students	-9.00337
▁mo	-9.00404
▁wearing	-9.00424
▁dare	-9.00725
▁knock	-9.00907
▁names	-9.01002
ary	-9.01289
▁orders	-9.01329
▁played	-9.01364
▁waste	-9.01465
▁paris	-9.01592
▁afternoon	-9.01658
▁friday	-9.01658
▁forward	-9.01658
▁harry	-9.01662
▁video	-9.0167
▁obviously	-9.01753
▁color	-9.01978
▁fan	-9.02214
▁machine	-9.02221
▁joke	-9.02273
▁begin	-9.02293
▁breath	-9.02375
▁ii	-9.02378
▁hanging	-9.02842
▁cross	-9.03132
ive	-9.03272
▁aw	-9.03295
▁brad	-9.03497
▁accept	-9.03538
▁starting	-9.03839
▁apart	-9.03863
▁lieutenant	-9.0388
▁often	-9.03881
▁jeannie	-9.03881
▁japanese	-9.03881
▁teeth	-9.03882
▁double	-9.03887
▁boyfriend	-9.03887
▁eric	-9.03889
▁scene	-9.03908
▁amen	-9.03914
▁single	-9.03919
led	-9.04231
▁gas	-9.04282
▁area	-9.04479
▁action	-9.0454
▁teacher	-9.04703
▁protect	-9.05217
▁jump	-9.05329
▁continue	-9.05407
▁plays	-9.05518
▁feelings	-9.05557
▁staying	-9.05761
▁books	-9.05979
▁major	-9.06153
▁pregnant	-9.06153
▁taught	-9.06162
▁message	-9.06163
▁sold	-9.06192
▁huge	-9.06212
▁interesting	-9.06498
▁bottom	-9.0678
▁system	-9.06814
▁tony	-9.06825
▁due	-9.06826
▁records	-9.06877
▁brain	-9.06888
▁field	-9.06894
▁ohh	-9.07351
▁fuck	-9.0767
▁w	-9.0822
▁divorce	-9.08284
▁brown	-9.08462
▁admit	-9.08471
▁erik	-9.08479
▁george	-9.08479
▁impossible	-9.08479
▁worst	-9.08479
▁congratulations	-9.08479
▁ethan	-9.0848
▁whether	-9.0848
▁ugly	-9.08481
▁jungle	-9.08484
▁jail	-9.08485
▁stories	-9.08487
▁space	-9.08499
▁steele	-9.08522
▁sweetie	-9.08528
▁quickly	-9.08743
▁billy	-9.0878
▁horn	-9.08832
▁flowers	-9.08926
▁knocking	-9.08945
▁paint	-9.09064
▁kinda	-9.09114
▁suit	-9.09151
▁service	-9.09238
▁ja	-9.09361
▁sleeping	-9.10058
▁rid	-9.10617
▁distance	-9.10859
▁london	-9.10859
▁bought	-9.1086
▁quinn	-9.10866
▁luke	-9.10869
▁mister	-9.10882
▁medical	-9.10923
▁michele	-9.10936
▁exhales	-9.1096
▁commander	-9.11011
▁mikey	-9.11075
▁interested	-9.11101
▁calls	-9.11348
▁dollars	-9.11542
▁marriage	-9.11635
▁shaw	-9.11673
▁window	-9.11696
▁cup	-9.11724
▁killing	-9.11763
▁experience	-9.11774
▁vour	-9.1192
▁shooting	-9.12132
▁destroy	-9.12548
▁press	-9.1295
ting	-9.12961
▁health	-9.13134
▁fresh	-9.13244
▁wild	-9.13247
▁steal	-9.13294
▁angry	-9.133
▁excited	-9.13302
▁beach	-9.13302
▁duty	-9.13307
▁doubt	-9.13313
▁pig	-9.13317
▁memphis	-9.13321
▁involved	-9.13338
▁mark	-9.13797
▁bro	-9.13884
▁sisters	-9.13885
▁decision	-9.1412
▁jean	-9.14126
▁position	-9.14192
▁soldier	-9.14207
▁russian	-9.14211
▁base	-9.14393
▁helping	-9.14611
▁screw	-9.15041
▁leavey	-9.15082
▁tea	-9.15344
▁risk	-9.15613
▁san	-9.15798
▁awesome	-9.15798
▁beyond	-9.15798
▁warren	-9.15799
▁hasnt	-9.15799
▁dauntless	-9.15799
▁neck	-9.15799
▁upset	-9.15799
▁sheryl	-9.158
▁truly	-9.15801
▁evelyn	-9.15802
▁famous	-9.15818
▁lying	-9.15825
▁studio	-9.15841
▁moon	-9.15853
▁yelling	-9.15893
▁wellington	-9.15958
▁gosh	-9.16257
▁besides	-9.1627
▁charge	-9.16511
▁van	-9.16524
▁tie	-9.16574
▁shop	-9.16775
▁lesson	-9.16793
▁cash	-9.16871
to	-9.17176
ah	-9.17588
▁ro	-9.17773
▁using	-9.17799
▁hunt	-9.17801
▁build	-9.17929
▁ran	-9.17972
▁stars	-9.18005
▁feed	-9.18013
▁focus	-9.1807
▁difficult	-9.1818
▁notice	-9.18191
▁match	-9.18288
▁chisolm	-9.18363
▁mohsen	-9.18363
▁television	-9.18363
▁became	-9.18363
▁philip	-9.18365
one	-9.18366
▁santa	-9.18372
▁girlfriend	-9.18374
▁incredible	-9.18389
▁sky	-9.18403
▁loud	-9.18408
▁dirty	-9.18429
▁clicks	-9.18595
▁shed	-9.18694
▁goin	-9.18749
▁surprised	-9.18783
▁prefer	-9.18815
▁gorgonites	-9.18889
▁bud	-9.1891
▁vote	-9.18916
▁shake	-9.1895
▁out	-9.19203
▁writing	-9.19293
▁prince	-9.19306
▁thousand	-9.19384
▁picked	-9.19385
▁flying	-9.19397
▁nobodys	-9.19511
▁papers	-9.19737
▁vi	-9.20011
way	-9.20064
te	-9.20195
▁brothers	-9.20455
▁across	-9.20994
▁mercy	-9.20994
▁neither	-9.20994
▁scoffs	-9.20994
▁memory	-9.20996
▁bathroom	-9.20996
▁desk	-9.20999
▁juice	-9.21004
▁pants	-9.21037
▁eating	-9.21042
▁eh	-9.21069
▁silly	-9.21101
▁suddenly	-9.21109
▁gotten	-9.21192
▁losing	-9.2131
▁wet	-9.21366
▁passed	-9.21576
▁closed	-9.21776
▁mommy	-9.22004
▁official	-9.22036
▁river	-9.22077
▁mountain	-9.22314
ter	-9.22382
▁li	-9.2305
▁listening	-9.23252
▁recognize	-9.23507
▁invite	-9.23509
▁movies	-9.23657
▁kantmiss	-9.23697
▁cancer	-9.23697
▁price	-9.23699
▁ronnie	-9.23699
▁abigail	-9.237
▁shouldve	-9.23701
▁nose	-9.23706
▁pressure	-9.23708
▁freeze	-9.23755
▁nature	-9.2376
▁problems	-9.23776
▁softly	-9.23784
▁hiding	-9.23833
▁hoping	-9.23835
▁beeping	-9.23872
▁complete	-9.23924
▁bearing	-9.24121
▁final	-9.24725
▁concert	-9.24793
▁exist	-9.24804
▁key	-9.24823
▁conversation	-9.2484
▁wouldve	-9.24972
▁falling	-9.24978
▁sh	-9.25539
▁cops	-9.25866
▁arrest	-9.26188
▁awake	-9.26285
▁beg	-9.26362
▁district	-9.26475
▁hadnt	-9.26475
▁nikki	-9.26475
▁somehow	-9.26475
▁within	-9.2648
▁sparkle	-9.26485
▁upon	-9.26491
▁arrived	-9.26509
▁christian	-9.2652
▁beth	-9.26534
▁manager	-9.2656
▁copy	-9.26704
rs	-9.26882
▁fucking	-9.27003
▁lucas	-9.27008
▁da	-9.27136
▁signed	-9.27155
ous	-9.27159
ty	-9.27537
▁older	-9.27718
▁sight	-9.27808
▁soldiers	-9.28285
▁cook	-9.28293
la	-9.28313
▁cost	-9.2834
▁joy	-9.28433
▁pa	-9.28458
▁fill	-9.28608
▁interest	-9.28622
ass	-9.28792
▁repeat	-9.28846
▁tight	-9.2897
▁mention	-9.29076
▁butt	-9.29204
▁thunder	-9.29326
▁advertising	-9.29332
▁bottle	-9.29332
▁europe	-9.29332
▁insane	-9.29332
▁request	-9.29332
▁empire	-9.29332
▁tiger	-9.29333
▁horrible	-9.29334
▁responsible	-9.29334
▁washington	-9.29334
▁sobbing	-9.29335
▁mandela	-9.29336
▁kitty	-9.29336
▁department	-9.29337
▁winner	-9.29345
▁confused	-9.29346
▁pam	-9.29366
▁corey	-9.29368
▁usually	-9.29445
▁turning	-9.29749
▁tou	-9.29776
▁finished	-9.29888
▁i	-9.30017
gest	-9.30029
um	-9.30222
▁interview	-9.30272
▁talent	-9.30274
▁wondering	-9.3029
▁consider	-9.30337
▁pageant	-9.30622
▁neighbor	-9.30629
▁pilot	-9.30644
▁animal	-9.30672
▁ex	-9.31219
▁magic	-9.31338
▁showing	-9.31369
▁bother	-9.31427
▁rings	-9.31665
▁bear	-9.31687
▁camp	-9.31777
▁opening	-9.31813
▁honk	-9.31846
▁faith	-9.31979
ta	-9.32033
though	-9.32054
▁angel	-9.32097
ant	-9.32107
▁paul	-9.3215
▁dig	-9.32177
▁africa	-9.32211
▁split	-9.32273
▁twice	-9.32273
▁crime	-9.32273
▁bravo	-9.32273
▁beauty	-9.32274
▁empty	-9.32274
▁boring	-9.32274
▁abby	-9.32275
▁detective	-9.32275
▁meat	-9.32275
▁peanut	-9.32275
▁sunday	-9.32277
▁thou	-9.32281
▁yep	-9.32283
▁pool	-9.32283
▁weekend	-9.32286
▁treatment	-9.32295
▁smoke	-9.3231
▁whatd	-9.32317
▁danger	-9.32325
▁planes	-9.32386
▁clears	-9.32416
▁opens	-9.32449
▁west	-9.32477
▁form	-9.32523
▁tires	-9.32589
▁powerful	-9.32641
▁seemed	-9.33156
▁acting	-9.33291
▁missing	-9.3355
▁strike	-9.33637
▁queen	-9.33662
▁artist	-9.33686
▁paper	-9.33711
▁cat	-9.33828
▁page	-9.34229
ry	-9.34647
se	-9.3467
▁roar	-9.3488
▁announce	-9.3509
▁sacrifice	-9.35138
▁cheap	-9.35196
▁chair	-9.35288
▁aunt	-9.3529
▁excellent	-9.35303
▁guitar	-9.35303
▁havana	-9.35303
▁heavy	-9.35303
▁possibly	-9.35303
▁style	-9.35303
▁bigger	-9.35304
▁holly	-9.35305
▁local	-9.35305
▁airport	-9.35307
▁weather	-9.35314
▁bible	-9.35319
▁bright	-9.35325
▁milk	-9.35328
▁chorus	-9.3533
▁trick	-9.35333
▁plus	-9.3539
▁butter	-9.35405
▁signal	-9.35455
▁lance	-9.35456
▁everythings	-9.35516
▁keeping	-9.35997
▁gods	-9.36143
▁lies	-9.36428
▁birds	-9.36454
▁remind	-9.36503
▁operation	-9.36759
▁park	-9.37537
▁ice	-9.37592
▁pretend	-9.38004
▁rob	-9.38084
▁dumb	-9.38107
▁sal	-9.38172
▁survive	-9.38242
▁escape	-9.38315
time	-9.38317
▁helen	-9.38353
▁drinking	-9.38367
▁research	-9.38401
▁swim	-9.38415
▁project	-9.38423
▁melissa	-9.38428
▁rumbling	-9.38428
▁satellite	-9.38428
▁senior	-9.38428
▁clarissa	-9.38431
▁silence	-9.38431
▁freedom	-9.38432
▁whore	-9.38433
▁fleet	-9.38436
▁center	-9.38439
▁address	-9.3844
▁shows	-9.38451
▁heat	-9.3848
▁doctors	-9.38505
▁gay	-9.38605
▁ar	-9.38697
▁nights	-9.38743
▁closer	-9.3883
▁lake	-9.38873
▁nuts	-9.38956
▁harder	-9.39136
▁chattering	-9.3924
▁trained	-9.39256
▁se	-9.3951
▁plans	-9.39687
▁ma	-9.39804
▁matters	-9.39881
▁fellow	-9.39953
▁album	-9.39963
▁whistle	-9.40008
▁relationship	-9.40014
▁remain	-9.40036
▁walked	-9.40081
▁tear	-9.40194
▁grand	-9.40252
li	-9.40692
▁murder	-9.41237
▁howd	-9.41502
▁sudden	-9.41513
▁obvious	-9.41513
▁ought	-9.41595
▁birth	-9.4165
▁advice	-9.41654
▁dillon	-9.41654
▁rita	-9.41654
▁rough	-9.41654
▁simply	-9.41654
▁understood	-9.41654
▁novel	-9.41654
▁jorge	-9.41654
▁hostage	-9.41656
▁principal	-9.41665
▁macon	-9.41665
▁angie	-9.41672
▁corner	-9.41681
▁papa	-9.41702
▁large	-9.41716
▁cab	-9.41748
▁whispers	-9.41895
▁terms	-9.42161
▁ned	-9.42329
id	-9.42332
ol	-9.42421
▁o	-9.42792
▁selling	-9.42794
▁so	-9.42822
▁pre	-9.42955
▁couldve	-9.42997
▁freak	-9.42998
▁keys	-9.43554
▁siren	-9.43824
▁helped	-9.43894
▁dads	-9.43941
▁pack	-9.4423
▁crack	-9.44235
▁boo	-9.44677
▁settle	-9.4479
▁damage	-9.44792
▁teen	-9.44827
▁cheese	-9.44987
▁chloe	-9.44987
▁django	-9.44987
▁purpose	-9.44987
▁tahime	-9.44987
▁stuart	-9.44987
▁sergeant	-9.44988
▁chug	-9.44988
▁nowhere	-9.44989
▁edward	-9.4499
▁noise	-9.4499
▁chess	-9.44991
▁earlier	-9.45001
▁meal	-9.45006
▁cia	-9.45011
▁professional	-9.45013
▁necessary	-9.45014
▁barking	-9.45032
▁dale	-9.45033
▁whispering	-9.45055
▁mv	-9.45076
▁lily	-9.4525
▁noticed	-9.45257
▁sexy	-9.45306
▁type	-9.45382
▁joey	-9.45483
ne	-9.458
son	-9.45883
▁fate	-9.45893
▁pulled	-9.46044
▁ld	-9.4605
▁lately	-9.4609
▁following	-9.46528
▁judge	-9.46622
▁apartment	-9.46743
▁tail	-9.4675
▁lt	-9.46785
▁weapon	-9.4679
ian	-9.46846
▁ed	-9.4692
▁leader	-9.46995
▁lab	-9.4707
▁breaking	-9.47452
▁kings	-9.4755
▁sil	-9.47606
ate	-9.4787
out	-9.47955
▁bum	-9.48058
▁schedule	-9.48237
▁meg	-9.48266
▁heads	-9.48297
▁total	-9.48298
▁hall	-9.48375
▁stole	-9.48381
▁nothin	-9.4841
▁apologize	-9.48436
▁easier	-9.48436
▁england	-9.48436
▁gordy	-9.48436
▁cream	-9.48436
▁however	-9.48436
▁sugar	-9.48436
▁mickey	-9.48437
▁community	-9.48437
▁babe	-9.48439
▁maria	-9.4844
▁breakfast	-9.4844
▁military	-9.4844
▁thatll	-9.48441
▁japan	-9.48442
▁built	-9.48448
▁alarm	-9.48448
▁royal	-9.48456
▁immediately	-9.48462
▁james	-9.4847
▁bogue	-9.48477
▁speed	-9.48479
▁doin	-9.4848
▁weight	-9.48579
▁raised	-9.48618
ism	-9.48662
▁personally	-9.48749
▁arrested	-9.48795
▁bull	-9.48804
▁lf	-9.48829
▁per	-9.49209
at	-9.4921
▁dressed	-9.49247
▁lots	-9.49322
▁balls	-9.49348
▁goodness	-9.49384
▁hook	-9.49534
▁pie	-9.49897
▁scream	-9.49978
▁garden	-9.50237
▁career	-9.5028
▁opinion	-9.50313
▁photo	-9.5035
ee	-9.50478
▁writer	-9.5075
▁h	-9.50802
▁mothers	-9.5138
▁serve	-9.51464
age	-9.51614
▁program	-9.51652
▁raise	-9.5182
▁introduce	-9.51821
▁dogs	-9.5187
▁usual	-9.51949
▁expensive	-9.52007
▁responsibility	-9.52007
▁sinestro	-9.52007
▁agency	-9.52007
▁roger	-9.52007
▁thirty	-9.52007
▁delicious	-9.52007
▁ugh	-9.52008
▁albert	-9.52008
▁attitude	-9.52008
▁nagra	-9.52008
▁surgery	-9.52008
▁ardi	-9.52011
▁madiba	-9.52012
▁miami	-9.5202
▁rush	-9.52033
▁boom	-9.52035
▁bob	-9.52052
▁buffy	-9.52059
▁disappeared	-9.52119
▁sean	-9.52194
▁honestly	-9.52248
▁indistinctly	-9.52446
▁showed	-9.52458
ier	-9.52461
▁sub	-9.52495
▁perfectly	-9.52501
▁higher	-9.52517
▁doors	-9.52518
▁x	-9.52815
▁moms	-9.52883
tic	-9.52898
▁eggs	-9.52962
▁likes	-9.53183
▁social	-9.5375
ge	-9.53974
▁size	-9.53996
▁cake	-9.54033
▁path	-9.54067
▁gate	-9.54069
▁guest	-9.54072
▁magazine	-9.54073
▁gunshot	-9.5408
▁partner	-9.54121
▁sucker	-9.54129
▁hurts	-9.54203
▁con	-9.54241
▁los	-9.54327
▁male	-9.54492
▁keeps	-9.54711
ton	-9.54738
▁headed	-9.54739
▁draw	-9.55045
▁separate	-9.55523
▁natural	-9.55585
▁avocado	-9.5563
▁loose	-9.55652
▁phil	-9.55709
▁downstairs	-9.55711
▁nuclear	-9.55711
▁subject	-9.55711
▁theater	-9.55711
▁piano	-9.55711
▁opportunity	-9.55711
british	-9.55711
▁fantastic	-9.55712
▁hannah	-9.55712
▁otherwise	-9.55712
▁mmmhmm	-9.55713
▁medicine	-9.55713
▁zach	-9.55713
▁diane	-9.55715
▁california	-9.55716
▁hyah	-9.55717
▁dropped	-9.55725
▁indeed	-9.55749
nt	-9.55787
▁willing	-9.55791
men	-9.5586
▁shams	-9.55867
▁flat	-9.55895
▁ad	-9.55904
ball	-9.55992
▁main	-9.56042
▁letting	-9.56096
▁screwed	-9.56142
▁locked	-9.56307
▁riding	-9.5639
▁wings	-9.56487
▁covered	-9.56558
▁toys	-9.57038
▁dry	-9.57174
▁tickets	-9.57222
▁secure	-9.57247
▁fran	-9.57435
▁chip	-9.57464
▁weapons	-9.57468
na	-9.57621
▁skate	-9.57756
▁ear	-9.57772
▁wrap	-9.57788
▁bridge	-9.57803
▁channel	-9.579
▁monster	-9.57913
▁issue	-9.57919
▁fathers	-9.5793
▁hole	-9.57977
▁moments	-9.58077
▁driver	-9.58218
▁fans	-9.58466
▁someones	-9.58672
▁search	-9.59114
▁pitch	-9.59352
▁release	-9.59365
▁regular	-9.59408
▁march	-9.59486
▁monsieur	-9.59557
▁whistling	-9.59557
▁knowledge	-9.59557
▁bennett	-9.59558
▁crew	-9.59559
▁bastian	-9.5956
▁trash	-9.5956
▁audition	-9.59561
▁hollywood	-9.59561
▁performance	-9.59562
▁johnny	-9.59566
▁funeral	-9.59568
▁legend	-9.59573
▁growling	-9.59573
▁spell	-9.59574
▁handsome	-9.5958
▁china	-9.59583
▁add	-9.59592
▁lift	-9.59592
▁pair	-9.59626
▁madame	-9.5964
▁received	-9.59649
▁dan	-9.59889
▁no	-9.60132
▁pro	-9.60168
▁ways	-9.60338
▁stayed	-9.604
▁v	-9.60537
▁lied	-9.60715
▁commercial	-9.60753
▁file	-9.608
▁treat	-9.60823
▁hardly	-9.60855
ally	-9.60912
▁lines	-9.61137
▁faces	-9.61181
▁loss	-9.61289
▁horses	-9.6129
and	-9.61384
▁tap	-9.61448
ine	-9.61595
▁prove	-9.61662
▁grady	-9.61792
ance	-9.61836
▁account	-9.61851
▁source	-9.61897
▁bullet	-9.61902
▁shirt	-9.61907
ng	-9.61938
land	-9.61948
▁ticket	-9.6195
▁student	-9.6196
▁reporter	-9.62021
ma	-9.62139
ted	-9.62194
▁shine	-9.62198
▁hill	-9.62735
ize	-9.62863
the	-9.62896
▁sin	-9.62905
▁bite	-9.6291
▁bringing	-9.63146
▁publish	-9.63264
▁en	-9.63331
▁create	-9.63368
▁sa	-9.63386
▁gross	-9.63463
ure	-9.63478
▁spoke	-9.635
▁cards	-9.63544
▁available	-9.63557
▁babies	-9.63557
▁defense	-9.63557
▁grandpa	-9.63557
▁niflheim	-9.63557
▁patrice	-9.63557
▁rancor	-9.63557
▁threadgoode	-9.63557
▁tongue	-9.63557
▁nope	-9.63557
▁according	-9.63557
▁cousin	-9.63557
▁juliette	-9.63557
▁planning	-9.63558
▁pacific	-9.63559
▁nyx	-9.63559
▁saint	-9.6356
▁amber	-9.63561
▁pardon	-9.63562
▁chrissy	-9.63565
▁whe	-9.63565
▁comfortable	-9.63566
▁fancy	-9.63569
▁written	-9.6357
▁mack	-9.63577
▁loving	-9.6358
▁mail	-9.63588
▁lila	-9.63594
▁unfortunately	-9.63601
▁liar	-9.63603
▁itd	-9.6361
▁oil	-9.63668
▁useless	-9.63682
▁tris	-9.63725
▁prepared	-9.63791
▁shy	-9.63804
▁east	-9.64002
▁hal	-9.64056
x	-9.6408
▁du	-9.64181
▁bucks	-9.64257
▁expected	-9.64416
▁co	-9.64732
ia	-9.6498
▁trap	-9.65038
▁closes	-9.65344
▁cheer	-9.65351
un	-9.6556
▁appointment	-9.65998
▁element	-9.65999
▁poem	-9.66004
▁suspect	-9.66024
▁level	-9.66032
▁ghost	-9.66073
▁belong	-9.6611
▁spare	-9.66118
go	-9.66401
▁bust	-9.66426
▁paintings	-9.66744
▁mis	-9.66848
et	-9.66848
▁where	-9.67401
▁answers	-9.67407
▁pet	-9.67414
▁spy	-9.67427
▁rent	-9.67479
▁ships	-9.67485
▁curse	-9.67505
▁scott	-9.67535
▁germans	-9.67558
▁prepare	-9.6756
▁russia	-9.67664
▁dust	-9.67676
▁twenty	-9.67709
▁aware	-9.67714
▁apache	-9.67724
▁applause	-9.67724
▁faraday	-9.67724
▁guarantee	-9.67724
▁nonsense	-9.67724
▁olivia	-9.67724
▁pizza	-9.67724
▁plenty	-9.67724
▁rosalyn	-9.67724
▁saturday	-9.67724
▁society	-9.67724
▁terrific	-9.67724
▁vegas	-9.67724
▁vehicle	-9.67724
▁knife	-9.67724
▁presence	-9.67724
▁ridiculous	-9.67724
▁mount	-9.67724
▁starving	-9.67724
▁duncan	-9.67724
▁oei	-9.67726
▁theme	-9.67726
▁hogue	-9.67726
▁selfish	-9.67727
▁soviet	-9.67729
▁candy	-9.67732
▁hayes	-9.67734
▁theyd	-9.67736
▁cassie	-9.67739
▁auntie	-9.67745
▁soup	-9.67746
▁ballet	-9.67748
▁complicated	-9.67751
▁taxi	-9.67753
▁skin	-9.67753
▁secretary	-9.67776
▁edge	-9.67784
ling	-9.6779
▁angeles	-9.67823
▁shape	-9.67831
▁laid	-9.67834
▁maid	-9.67836
▁changing	-9.67865
▁jealous	-9.67873
▁bleeding	-9.67883
▁hire	-9.67901
▁math	-9.68015
▁invited	-9.68023
▁powers	-9.68061
▁stronger	-9.68124
▁destroyed	-9.68223
▁honking	-9.68351
▁schools	-9.68362
▁offered	-9.68368
▁mans	-9.68393
▁j	-9.6858
▁parts	-9.68583
▁cares	-9.68721
▁seek	-9.68859
▁bones	-9.68909
▁mutants	-9.68943
▁fingers	-9.68943
▁track	-9.69189
▁belongs	-9.69356
▁lovell	-9.69561
▁concern	-9.69606
op	-9.69734
▁places	-9.6979
▁you	-9.69797
▁wound	-9.70104
▁decide	-9.70191
▁deserve	-9.7022
▁abbott	-9.70303
▁miracle	-9.70303
▁explosion	-9.70345
▁nurse	-9.7038
▁appear	-9.70441
▁bird	-9.70502
▁mistakes	-9.70978
ts	-9.7098
▁pen	-9.7104
▁hearing	-9.71167
▁discuss	-9.71187
▁under	-9.71255
▁nick	-9.71296
▁lack	-9.71446
▁trade	-9.71457
ho	-9.71459
▁sharp	-9.71649
▁market	-9.71684
co	-9.7169
▁bowl	-9.71699
▁soft	-9.71826
▁mood	-9.7186
▁positive	-9.7192
▁sp	-9.71972
▁dramatic	-9.72069
▁charlotte	-9.72071
▁enemies	-9.72071
▁italian	-9.72071
▁restaurant	-9.72071
▁pardeep	-9.72072
▁coast	-9.72072
▁afford	-9.72072
▁spanish	-9.72072
▁unbelievable	-9.72073
▁fought	-9.72073
▁among	-9.72073
▁example	-9.72073
▁cliff	-9.72074
▁coach	-9.72074
▁wherever	-9.72074
▁whoever	-9.72074
▁common	-9.72075
▁pearl	-9.72076
▁valley	-9.72076
▁roof	-9.72077
▁property	-9.72078
▁trial	-9.72081
▁apparently	-9.72081
▁material	-9.72087
▁askey	-9.72126
▁archer	-9.72135
▁murmuring	-9.72179
▁clicking	-9.7218
▁wide	-9.722
▁glasses	-9.72319
▁certainly	-9.72443
▁ate	-9.72472
▁germany	-9.72519
▁realized	-9.72593
ri	-9.72874
▁songs	-9.72937
▁el	-9.73189
▁growing	-9.73276
▁fellas	-9.73436
side	-9.73551
▁turns	-9.73641
▁burning	-9.73735
over	-9.73979
▁ends	-9.73998
▁partners	-9.74004
he	-9.74324
ap	-9.74394
as	-9.74776
▁ca	-9.74795
▁note	-9.74801
▁contest	-9.74838
▁contract	-9.74891
▁demand	-9.74915
▁jerk	-9.74933
▁computer	-9.74946
▁member	-9.75001
▁faction	-9.75022
▁chuckle	-9.75038
▁toy	-9.75118
▁there	-9.75233
▁ideas	-9.75297
never	-9.75386
▁hee	-9.75616
▁dancer	-9.75647
▁believed	-9.75794
▁wash	-9.75832
▁enter	-9.75874
▁wood	-9.75942
▁hearts	-9.7605
ent	-9.76078
▁bang	-9.76224
▁blame	-9.76419
▁chase	-9.76424
▁political	-9.76451
▁empress	-9.76617
▁familiar	-9.76617
▁female	-9.76617
▁geronimo	-9.76617
▁jeffords	-9.76617
▁vicki	-9.76617
▁voysey	-9.76617
▁maureen	-9.76617
▁teddy	-9.76617
▁insurance	-9.76617
▁midnight	-9.76618
▁disease	-9.76618
▁justice	-9.76618
▁joseph	-9.76618
▁warn	-9.76618
▁rugby	-9.76619
▁vacation	-9.76619
▁passport	-9.76621
▁tommy	-9.76622
▁clap	-9.76622
▁marco	-9.76622
▁fifteen	-9.76623
▁poetry	-9.76626
▁literally	-9.76628
▁beast	-9.76632
▁coz	-9.76634
▁pom	-9.76639
▁hughes	-9.76651
▁physical	-9.76654
▁impressive	-9.76661
▁chirping	-9.76668
▁embarrassed	-9.76678
▁victory	-9.76692
▁scary	-9.76694
▁giggles	-9.76731
▁successful	-9.76736
▁grown	-9.76774
▁parties	-9.76783
▁gives	-9.76794
▁walters	-9.76811
▁ham	-9.76882
▁fred	-9.76888
▁union	-9.76892
▁coughs	-9.7697
▁deeply	-9.77006
▁nd	-9.77067
▁y	-9.77157
▁metal	-9.77165
▁all	-9.7719
▁ahh	-9.77493
ro	-9.77498
▁drugs	-9.77574
ess	-9.77736
▁blowing	-9.77893
ster	-9.78078
▁br	-9.78094
▁gil	-9.78208
ow	-9.78633
▁he	-9.78818
▁tears	-9.78968
▁sending	-9.78979
▁animals	-9.7918
▁lu	-9.79244
▁condition	-9.79282
▁points	-9.7938
▁monkey	-9.7961
▁rip	-9.79679
▁apple	-9.79681
▁view	-9.79681
ell	-9.79694
▁bug	-9.79705
▁lawyer	-9.79733
▁shoulder	-9.79758
ka	-9.79951
▁stranger	-9.79987
▁self	-9.80045
▁poet	-9.80062
▁pu	-9.80525
▁piss	-9.80636
▁non	-9.80653
▁cast	-9.80667
▁fr	-9.8088
▁deliver	-9.80911
▁cancel	-9.8107
▁ruin	-9.81079
▁smells	-9.81111
il	-9.81117
sh	-9.81123
▁ignore	-9.81179
▁guards	-9.81179
▁correct	-9.81196
▁desperate	-9.81229
▁occasion	-9.81296
▁education	-9.81313
▁hawaii	-9.81363
▁village	-9.81371
▁admiral	-9.81377
▁bureau	-9.81379
▁borrow	-9.81379
▁gorgeous	-9.81379
▁grew	-9.81379
▁maintain	-9.81379
▁monday	-9.81379
▁moscow	-9.81379
▁pathetic	-9.81379
▁rifle	-9.81379
▁therefore	-9.81379
▁universe	-9.81379
▁gym	-9.81379
▁held	-9.81379
▁barbara	-9.81379
▁tobin	-9.8138
▁eliot	-9.8138
▁garland	-9.81381
▁onto	-9.81381
▁lori	-9.81383
▁swimming	-9.81385
▁outfit	-9.81385
▁romantic	-9.81387
▁lousy	-9.81387
▁raven	-9.81387
▁forgotten	-9.8139
ze	-9.81394
▁extreme	-9.81394
▁jason	-9.81396
▁frozen	-9.81399
▁heavily	-9.81403
▁cabinet	-9.81405
▁began	-9.81405
▁megan	-9.8141
▁mona	-9.81412
▁logan	-9.81415
▁thee	-9.81416
▁jp	-9.81434
▁celebrate	-9.81436
▁chanting	-9.81472
▁jar	-9.8149
▁footsteps	-9.81501
▁mills	-9.81504
▁dish	-9.81573
▁levi	-9.81694
▁concerned	-9.81702
▁up	-9.81785
▁carla	-9.8181
▁mate	-9.81865
▁filled	-9.81873
▁christy	-9.8197
▁mayor	-9.82024
▁pat	-9.82034
▁roaring	-9.82077
▁kicked	-9.82303
▁commandos	-9.82331
▁sur	-9.82341
▁cars	-9.82922
▁expecting	-9.82943
▁odd	-9.82992
▁ordered	-9.83057
▁meaning	-9.83123
▁fired	-9.83243
▁claim	-9.83885
▁staring	-9.8392
ial	-9.84131
▁thousands	-9.84394
▁di	-9.84405
ps	-9.84436
▁clock	-9.8453
▁represent	-9.84648
▁article	-9.84649
▁devil	-9.84676
▁rehearsal	-9.84727
ois	-9.84748
▁dis	-9.85021
▁paying	-9.85033
we	-9.851
oo	-9.85282
▁cow	-9.8529
▁load	-9.85681
▁bless	-9.857
▁charm	-9.85887
▁spread	-9.85911
▁study	-9.85963
▁harm	-9.86069
▁fa	-9.8611
▁chest	-9.86173
▁yi	-9.86221
▁hug	-9.86254
▁drag	-9.86258
▁wha	-9.86313
▁chose	-9.86323
▁drama	-9.86372
▁bush	-9.86373
▁ashamed	-9.86379
▁chocolate	-9.86379
▁emergency	-9.86379
▁evidence	-9.86379
▁families	-9.86379
▁including	-9.86379
▁madeleine	-9.86379
▁mousavi	-9.86379
▁newspaper	-9.86379
▁percent	-9.86379
▁slept	-9.86379
▁technology	-9.86379
▁claus	-9.86379
▁drove	-9.86379
▁morgan	-9.86379
▁banana	-9.8638
▁humming	-9.86381
▁joking	-9.86381
▁webster	-9.86381
▁flare	-9.86382
▁switch	-9.86382
▁blew	-9.86382
▁clever	-9.86383
▁trent	-9.86384
▁shirin	-9.86384
▁wilson	-9.86387
▁wong	-9.86387
▁fence	-9.86388
▁fbi	-9.86388
▁zone	-9.86389
▁strip	-9.86389
▁deck	-9.86391
▁bike	-9.86392
▁intelligence	-9.86396
▁energy	-9.864
▁alice	-9.86402
▁ba	-9.86403
▁tune	-9.86414
▁solve	-9.86414
▁fortune	-9.86419
▁wailing	-9.86436
▁misty	-9.86456
▁winter	-9.86477
▁embarrassing	-9.86481
▁pity	-9.86531
no	-9.86562
▁pm	-9.86585
▁troops	-9.8659
▁gim	-9.86596
▁downing	-9.86659
▁loaded	-9.8667
▁crashing	-9.86707
▁map	-9.86726
▁based	-9.86771
▁lips	-9.86829
▁bombs	-9.86896
▁heavens	-9.86923
▁agreed	-9.86977
ce	-9.86997
▁depends	-9.87008
▁led	-9.87222
▁hunting	-9.87252
▁unit	-9.87354
▁millions	-9.87655
▁bi	-9.87684
ick	-9.87723
▁sucks	-9.87777
▁rats	-9.87785
▁pal	-9.87805
▁maps	-9.8798
▁units	-9.88009
▁passing	-9.88053
▁po	-9.88123
▁teaching	-9.88146
▁streets	-9.88229
▁mar	-9.88234
▁talkin	-9.88303
▁planet	-9.88336
▁com	-9.88337
▁landing	-9.88391
▁judges	-9.88791
▁sigh	-9.89329
ad	-9.89433
▁waited	-9.89447
▁score	-9.8973
▁manage	-9.89764
▁scare	-9.8984
▁spit	-9.89852
ped	-9.8989
▁suicide	-9.8991
▁generation	-9.89941
▁threat	-9.89955
▁speaks	-9.90169
▁perform	-9.90175
▁sav	-9.90185
▁fella	-9.90202
▁steps	-9.90372
▁horne	-9.90451
▁rooms	-9.90922
ship	-9.91257
▁gal	-9.91293
▁hung	-9.91396
▁player	-9.9157
▁muff	-9.91595
me	-9.91598
▁process	-9.91609
▁somethin	-9.91613
▁blows	-9.91622
▁regret	-9.91633
▁expert	-9.9164
▁bruno	-9.91642
▁credit	-9.91642
▁egypt	-9.91642
▁equipment	-9.91642
▁giggling	-9.91642
▁innocent	-9.91642
▁morteza	-9.91642
▁reputation	-9.91642
▁sophia	-9.91642
▁bodies	-9.91642
▁buried	-9.91642
▁ocean	-9.91642
▁dalloway	-9.91642
▁circus	-9.91643
▁harbor	-9.91643
▁radar	-9.91644
▁rude	-9.91645
▁section	-9.91645
▁johnston	-9.91645
▁resistance	-9.91646
▁winston	-9.91646
▁university	-9.91647
▁basically	-9.91647
▁thursday	-9.91648
▁trapped	-9.91648
▁shadow	-9.91649
▁violence	-9.9165
▁mere	-9.91651
▁gentleman	-9.91652
▁champion	-9.91653
▁belt	-9.91656
▁annie	-9.91659
▁abc	-9.91662
▁grade	-9.91663
▁sniffles	-9.91666
▁dawn	-9.91667
▁bath	-9.91673
▁season	-9.91675
▁johnson	-9.91682
▁role	-9.91685
▁guilty	-9.91692
▁tiny	-9.91727
▁barely	-9.91731
▁kay	-9.91734
▁inhales	-9.91787
▁event	-9.91809
▁passion	-9.91836
▁legal	-9.9186
▁gum	-9.91915
▁placement	-9.91927
▁bridesmaids	-9.91954
▁buzzing	-9.91988
▁goat	-9.92013
▁pot	-9.92085
▁murdered	-9.92122
▁finding	-9.9216
▁talented	-9.92175
▁pretending	-9.92394
▁fixed	-9.92408
▁towards	-9.92487
▁quarters	-9.9249
▁makeup	-9.92563
▁details	-9.92578
oh	-9.92583
▁sooner	-9.92593
▁tip	-9.92631
▁ira	-9.92725
am	-9.92769
▁results	-9.92933
▁ol	-9.92971
▁carrying	-9.93042
▁numbers	-9.93143
▁knowing	-9.93236
ard	-9.93281
ang	-9.93711
▁ears	-9.93894
▁buying	-9.9411
tt	-9.94235
by	-9.9436
▁character	-9.94508
▁lover	-9.9454
▁cats	-9.94549
io	-9.94569
▁greater	-9.94674
▁ki	-9.94829
▁shout	-9.95091
▁ended	-9.95152
▁ep	-9.95155
▁punk	-9.95221
▁windows	-9.95265
▁spark	-9.95453
▁criminal	-9.95464
▁rope	-9.95464
▁grandma	-9.95468
▁feminist	-9.95468
▁plate	-9.95502
▁doll	-9.95572
▁mutant	-9.95584
▁finger	-9.95585
▁spring	-9.95594
▁shoe	-9.95644
▁dollar	-9.95666
▁forces	-9.95768
ping	-9.95915
▁letters	-9.9592
▁saving	-9.95956
ig	-9.9634
▁sweat	-9.9634
lv	-9.96404
▁cl	-9.96462
▁fail	-9.96466
▁foreign	-9.96509
▁minds	-9.96558
▁weak	-9.96659
▁wil	-9.9669
▁impress	-9.96854
▁adopt	-9.96895
field	-9.96975
▁convince	-9.97001
▁proper	-9.97085
▁pi	-9.97087
▁toast	-9.9709
▁genius	-9.97116
▁civil	-9.97134
▁robert	-9.97146
▁righteous	-9.97192
▁courage	-9.97194
▁abnegation	-9.97198
▁attorney	-9.97198
▁bread	-9.97198
▁confidence	-9.97198
▁declare	-9.97198
▁escort	-9.97198
▁horvath	-9.97198
▁jenkins	-9.97198
▁jersey	-9.97198
▁jordan	-9.97198
▁license	-9.97198
▁mistress	-9.97198
▁response	-9.97198
▁routine	-9.97198
▁thomas	-9.97198
▁chalk	-9.97198
▁uhuh	-9.97198
▁jerry	-9.97198
▁valdez	-9.97198
▁hawkins	-9.97198
▁forbidden	-9.97198
▁maggie	-9.97199
▁companies	-9.97199
▁vince	-9.97199
▁pride	-9.97199
▁cowboy	-9.972
▁location	-9.97203
▁elise	-9.97204
▁happiness	-9.97205
▁thirsty	-9.97205
▁grandmother	-9.97206
▁sentence	-9.97212
▁howard	-9.97213
▁gail	-9.97216
▁football	-9.97219
▁bound	-9.97232
▁indiana	-9.97235
▁rise	-9.97236
▁surrounded	-9.9724
▁bow	-9.97241
▁comedy	-9.97243
▁hm	-9.97246
▁satin	-9.97249
▁brighton	-9.97252
▁ramy	-9.97255
▁robbed	-9.97256
▁amin	-9.97256
▁ew	-9.97257
▁pure	-9.97259
▁chosen	-9.9726
▁martin	-9.97272
▁dean	-9.97273
▁disgusting	-9.97286
ba	-9.97348
▁fallen	-9.97361
▁ticking	-9.97363
▁port	-9.97377
▁designed	-9.97389
▁created	-9.97464
▁screeching	-9.97488
▁ruined	-9.97539
▁lang	-9.9757
▁bells	-9.97611
▁tied	-9.97698
▁warning	-9.97742
▁alien	-9.98013
▁shower	-9.98028
for	-9.98099
▁messed	-9.98161
▁clearly	-9.98266
▁evans	-9.98282
▁brings	-9.98381
▁jobs	-9.98477
▁backup	-9.98577
▁singer	-9.98642
▁bal	-9.98781
▁springs	-9.98849
▁spending	-9.98981
ra	-9.99092
▁members	-9.99227
▁cheers	-9.9943
▁concentrate	-9.99603
▁wa	-9.99642
▁va	-9.99815
▁writers	-9.99875
▁rat	-9.9989
▁badly	-9.99982
ized	-10.0034
of	-10.0054
▁childrens	-10.0064
▁watched	-10.0078
▁suck	-10.0093
ice	-10.0094
im	-10.0116
▁brains	-10.0123
▁effort	-10.013
▁screen	-10.0136
▁title	-10.0136
▁vision	-10.0141
▁duck	-10.0141
▁coward	-10.0141
▁affair	-10.0143
▁holiday	-10.0145
▁standard	-10.0148
lo	-10.0157
▁mile	-10.0159
▁bone	-10.0165
▁pan	-10.0204
▁drawing	-10.0207
▁changes	-10.0222
down	-10.0223
▁access	-10.0237
ak	-10.0247
▁trees	-10.0258
▁faint	-10.0276
▁wise	-10.0281
▁success	-10.0284
▁replace	-10.0288
▁lookin	-10.0289
▁do	-10.029
▁intense	-10.0292
▁grave	-10.0295
▁wh	-10.0296
▁sever	-10.0297
▁madam	-10.0297
▁ban	-10.0302
▁bat	-10.0304
▁label	-10.0307
▁abilities	-10.0308
▁barlow	-10.0308
▁combination	-10.0308
▁detention	-10.0308
▁exciting	-10.0308
▁gonggil	-10.0308
▁launch	-10.0308
▁library	-10.0308
▁literature	-10.0308
▁mexico	-10.0308
▁someplace	-10.0308
▁surrender	-10.0308
▁habibeh	-10.0308
▁rudolf	-10.0308
▁strict	-10.0308
▁navid	-10.0308
▁chinese	-10.0308
▁jeez	-10.0308
▁waffle	-10.0308
▁closing	-10.0308
▁jazz	-10.0308
▁bovs	-10.0308
▁competition	-10.0308
▁culture	-10.0308
▁hound	-10.0308
▁downtown	-10.0308
▁molly	-10.0308
▁telephone	-10.0308
▁value	-10.0308
▁navy	-10.0309
▁victim	-10.0309
▁amount	-10.0309
▁route	-10.0309
▁nathanial	-10.0309
▁giant	-10.0309
▁package	-10.0309
▁mira	-10.0309
▁fake	-10.031
▁cafe	-10.031
▁becky	-10.0311
▁praise	-10.0311
▁proof	-10.0311
▁winning	-10.0313
▁bored	-10.0314
▁clattering	-10.0318
▁cutting	-10.0318
▁lean	-10.032
▁recently	-10.032
▁coughing	-10.032
▁cabin	-10.0322
▁visa	-10.0328
▁richie	-10.033
▁sch	-10.0331
▁louder	-10.0332
▁stops	-10.0336
▁shutter	-10.0341
▁springboks	-10.0343
▁waves	-10.0345
▁approaching	-10.0347
▁beard	-10.0347
▁forced	-10.0361
▁jane	-10.0365
▁marketing	-10.0368
▁rocks	-10.0382
▁pieces	-10.0382
▁guts	-10.0391
▁guardians	-10.0393
▁bills	-10.0403
mo	-10.0414
▁fl	-10.0416
▁row	-10.043
▁burned	-10.0459
uck	-10.0479
em	-10.0491
▁hind	-10.0492
▁chips	-10.0563
▁rolling	-10.0564
▁hated	-10.0569
▁assume	-10.0578
▁learning	-10.0597
ur	-10.063
per	-10.0648
▁breaks	-10.0666
▁beating	-10.0676
▁pin	-10.0677
▁picking	-10.0681
▁flow	-10.0697
▁ac	-10.0716
▁worlds	-10.0753
▁advantage	-10.0755
▁colors	-10.0758
▁til	-10.076
▁tradition	-10.0761
▁dozen	-10.0764
▁mirror	-10.0766
▁yearold	-10.0767
▁runs	-10.0768
▁direction	-10.0768
▁coat	-10.0781
tion	-10.0781
▁who	-10.0782
▁reports	-10.079
▁uhh	-10.0846
▁suggest	-10.0856
val	-10.0857
▁suffer	-10.0859
ca	-10.0866
ti	-10.0866
▁avoid	-10.0887
town	-10.0892
▁collect	-10.0896
▁crown	-10.0902
▁twist	-10.0903
do	-10.0903
▁chill	-10.0903
▁towns	-10.0911
▁dirt	-10.0917
▁doug	-10.0922
▁violet	-10.0926
▁flash	-10.0928
▁capital	-10.0932
▁alexander	-10.0933
▁ambassador	-10.0933
▁bokke	-10.0933
▁campbell	-10.0933
▁ceremony	-10.0933
▁december	-10.0933
▁insomnia	-10.0933
▁jennifer	-10.0933
▁nightmare	-10.0933
▁november	-10.0933
▁offense	-10.0933
▁period	-10.0933
▁progress	-10.0933
▁rainbow	-10.0933
▁sheriff	-10.0933
▁sorrv	-10.0933
▁tattoo	-10.0933
▁threw	-10.0933
▁tuesday	-10.0933
▁zeke	-10.0933
▁byebye	-10.0933
▁stood	-10.0933
▁firing	-10.0933
▁revenge	-10.0933
▁yonggary	-10.0933
▁rosie	-10.0933
▁exchange	-10.0933
▁grandfather	-10.0933
▁invasion	-10.0933
▁atwater	-10.0933
▁precious	-10.0933
▁carolina	-10.0933
▁stress	-10.0933
▁network	-10.0933
▁imperial	-10.0933
▁palace	-10.0933
▁static	-10.0933
▁anytime	-10.0933
▁prize	-10.0934
▁chili	-10.0934
▁popular	-10.0934
▁kaos	-10.0934
▁deaf	-10.0934
▁shopping	-10.0934
▁fuel	-10.0935
▁grateful	-10.0935
▁storm	-10.0935
▁collection	-10.0936
▁carl	-10.0936
▁gunny	-10.0936
▁whv	-10.0936
▁dating	-10.0936
▁committed	-10.0937
▁decent	-10.0937
▁fifty	-10.0937
▁aaah	-10.0937
▁potter	-10.0937
▁preacher	-10.0939
▁safety	-10.0939
▁betty	-10.0939
▁religion	-10.0939
▁exit	-10.094
▁raid	-10.0941
▁smoking	-10.0941
▁original	-10.0942
▁range	-10.0942
▁stolen	-10.0943
▁aim	-10.0945
▁palm	-10.0945
▁mall	-10.0946
▁propose	-10.0954
▁jacket	-10.0957
▁suffered	-10.0962
▁reality	-10.0965
▁classes	-10.0966
▁settled	-10.097
▁pounds	-10.097
▁pissed	-10.0972
▁sweater	-10.0978
▁gettin	-10.0992
▁documents	-10.1002
▁missiles	-10.1002
▁carefully	-10.1003
▁heading	-10.1006
▁knocked	-10.1019
▁parking	-10.1024
▁county	-10.1032
ious	-10.1034
▁counter	-10.1044
▁cy	-10.1066
▁plant	-10.1085
▁ch	-10.1092
▁mel	-10.1112
▁cha	-10.1118
wa	-10.1133
▁agents	-10.1136
▁media	-10.1137
▁fur	-10.1138
work	-10.115
▁dressing	-10.1153
▁ab	-10.1155
▁friendly	-10.1167
ke	-10.1176
▁leaves	-10.1179
▁compete	-10.1215
▁nah	-10.1233
▁drinks	-10.1243
▁boats	-10.125
▁becomes	-10.1261
▁si	-10.1266
▁knee	-10.1272
▁pages	-10.128
▁artists	-10.1283
▁checked	-10.1285
▁rivers	-10.1325
▁med	-10.1327
ut	-10.1329
▁talks	-10.1347
▁unh	-10.1349
▁cap	-10.1352
▁review	-10.1367
▁cups	-10.1368
ns	-10.139
▁effect	-10.14
▁wire	-10.1401
▁gasp	-10.1406
▁jokes	-10.1412
▁behave	-10.142
▁pocket	-10.1429
▁snake	-10.1434
▁result	-10.1437
▁brake	-10.1439
▁tank	-10.1439
▁beep	-10.1442
iz	-10.1451
▁hells	-10.1468
▁closet	-10.1473
▁roses	-10.1485
▁prisoner	-10.1486
ot	-10.1495
▁drip	-10.1496
▁stations	-10.15
ga	-10.151
▁crash	-10.1516
▁buzz	-10.1536
▁approach	-10.1548
▁attend	-10.1549
▁respond	-10.1551
▁corps	-10.1551
▁cheat	-10.1551
▁eve	-10.1563
▁pee	-10.1567
▁alert	-10.1568
▁dump	-10.1568
just	-10.1569
▁advance	-10.158
▁demo	-10.1588
▁assure	-10.159
▁louis	-10.1594
▁confess	-10.1595
▁alcohol	-10.1596
▁journal	-10.1596
ible	-10.1597
▁z	-10.1598
▁sink	-10.1598
rquez	-10.16
▁beatrice	-10.16
▁beloved	-10.16
▁blackstone	-10.16
▁challenge	-10.16
▁chicago	-10.16
▁commission	-10.16
▁deborah	-10.16
▁destiny	-10.16
▁device	-10.16
▁embassy	-10.16
▁fabulous	-10.16
▁flew	-10.16
▁florida	-10.16
▁halifax	-10.16
▁hanssen	-10.16
▁kelekian	-10.16
▁kungfu	-10.16
▁lantern	-10.16
▁resign	-10.16
▁senator	-10.16
▁september	-10.16
▁someday	-10.16
▁twelve	-10.16
▁international	-10.16
▁jeff	-10.16
▁smash	-10.16
▁float	-10.16
▁mostly	-10.16
▁oclock	-10.16
▁whyd	-10.16
▁curious	-10.16
▁square	-10.16
▁rattling	-10.16
▁hisham	-10.16
▁piggy	-10.16
▁steady	-10.16
▁hidden	-10.16
▁digging	-10.16
▁museum	-10.16
▁inspector	-10.16
▁lisa	-10.16
▁balan	-10.16
▁edgar	-10.16
▁gatlin	-10.16
▁erudite	-10.16
▁glory	-10.16
▁fetch	-10.16
▁suitcase	-10.16
▁cycle	-10.16
▁conference	-10.1601
▁bobby	-10.1601
▁beggar	-10.1601
▁jewish	-10.1601
▁wrapped	-10.1601
▁dj	-10.1601
▁pike	-10.1601
▁silver	-10.1601
▁southern	-10.1601
▁critical	-10.1602
▁sanders	-10.1602
▁mental	-10.1602
▁yup	-10.1602
▁toss	-10.1602
▁pink	-10.1602
what	-10.1603
▁anna	-10.1603
▁barton	-10.1604
▁bitsy	-10.1604
▁mayday	-10.1604
▁border	-10.1605
▁fever	-10.1605
▁craft	-10.1606
▁bam	-10.1606
▁bugger	-10.1607
▁chain	-10.1608
▁whooping	-10.1609
▁factory	-10.161
▁blaring	-10.161
▁robbery	-10.1611
▁hopefully	-10.1611
▁vice	-10.1611
▁wipe	-10.1612
▁bitter	-10.1612
▁aye	-10.1615
wasting	-10.1616
▁discovered	-10.1617
▁coordinates	-10.1617
▁deny	-10.1617
▁matches	-10.1618
▁former	-10.1622
cient	-10.1629
▁ministers	-10.163
▁failed	-10.1635
▁survived	-10.1642
▁naser	-10.1642
▁eaten	-10.1643
▁melt	-10.1644
▁smarter	-10.1651
▁bitches	-10.1659
▁han	-10.1663
▁sale	-10.1668
▁cookie	-10.1673
▁ali	-10.1678
▁slams	-10.1686
▁her	-10.1693
▁sue	-10.1698
▁jam	-10.17
▁pills	-10.1708
▁walker	-10.1722
▁joined	-10.1727
▁movement	-10.1735
ph	-10.1747
ile	-10.1751
ue	-10.1776
▁den	-10.178
▁holidays	-10.1789
▁fishing	-10.1811
▁notes	-10.1849
▁fo	-10.1855
▁appears	-10.1858
▁su	-10.1865
▁om	-10.1871
▁bra	-10.188
▁sn	-10.1891
line	-10.1893
▁le	-10.1896
▁thin	-10.1913
ish	-10.1922
▁remains	-10.195
▁commit	-10.1956
▁reminds	-10.1961
▁touching	-10.1965
ker	-10.1965
▁bomber	-10.1969
▁sons	-10.1976
▁kan	-10.1979
cal	-10.2008
▁mi	-10.2025
▁positions	-10.2055
ner	-10.206
mi	-10.2071
▁block	-10.2074
▁at	-10.2112
▁teachers	-10.2115
▁sponsor	-10.2118
▁egg	-10.2122
ney	-10.2133
▁reservation	-10.2137
▁text	-10.2137
▁flag	-10.2138
▁to	-10.2141
▁roxy	-10.2144
▁servant	-10.2148
ming	-10.2152
▁wheel	-10.2152
▁teams	-10.2153
▁sometime	-10.2155
▁drift	-10.2155
bo	-10.2159
▁stink	-10.2176
▁elses	-10.2184
▁fin	-10.219
▁defend	-10.2204
▁skip	-10.2225
▁wig	-10.2233
our	-10.2268
▁recommend	-10.228
▁link	-10.2281
▁defeat	-10.2284
ves	-10.2285
▁award	-10.2287
▁michel	-10.2289
room	-10.2289
▁ge	-10.229
five	-10.2291
▁engage	-10.2293
▁teenage	-10.2293
▁distant	-10.2297
▁firm	-10.2297
▁recent	-10.23
▁ln	-10.2306
▁religio	-10.2307
▁india	-10.2309
▁iron	-10.231
▁despi	-10.2311
▁stones	-10.2312
▁basic	-10.2313
▁monk	-10.2314
▁transfer	-10.2314
▁ezekiel	-10.2314
▁apollo	-10.2314
▁barbecue	-10.2314
▁brilliant	-10.2314
▁corporal	-10.2314
▁daemon	-10.2314
▁dominique	-10.2314
▁flood	-10.2314
▁hallelujah	-10.2314
▁kurtz	-10.2314
▁lloyd	-10.2314
▁manchukuo	-10.2314
▁monitor	-10.2314
▁prophecy	-10.2314
▁retreat	-10.2314
▁shift	-10.2314
▁shrimp	-10.2314
▁toilet	-10.2314
▁underneath	-10.2314
▁whinnies	-10.2314
▁illegal	-10.2314
▁sensation	-10.2314
▁ultimate	-10.2314
▁snoring	-10.2314
▁stav	-10.2314
▁technique	-10.2314
▁debbie	-10.2314
▁journey	-10.2314
▁kelly	-10.2314
▁holmesburg	-10.2314
▁permission	-10.2314
▁sheila	-10.2314
▁couch	-10.2314
▁protest	-10.2314
▁aslo	-10.2314
▁becoming	-10.2314
▁assistant	-10.2314
▁francisco	-10.2314
▁describe	-10.2314
▁urgent	-10.2314
▁ashley	-10.2314
▁scholarship	-10.2314
▁dummy	-10.2314
▁heck	-10.2315
▁stix	-10.2315
▁authority	-10.2315
▁ibs	-10.2315
▁kingdom	-10.2315
▁fruit	-10.2315
▁appearance	-10.2315
▁elite	-10.2315
▁tits	-10.2315
▁trini	-10.2315
▁motion	-10.2315
▁swing	-10.2315
▁planned	-10.2315
▁reward	-10.2316
▁perry	-10.2316
▁hitler	-10.2316
▁youth	-10.2316
▁nasty	-10.2317
▁filthy	-10.2317
▁stock	-10.2317
▁julien	-10.2318
▁commitment	-10.2318
▁journalist	-10.2318
coming	-10.2318
▁barnes	-10.2318
▁poop	-10.2319
▁cave	-10.2321
▁jackson	-10.2321
▁protection	-10.2323
▁ruby	-10.2325
▁agreement	-10.2326
▁forty	-10.2327
▁fond	-10.233
▁somethings	-10.233
▁stopping	-10.2333
▁compared	-10.2333
▁confirmed	-10.2337
ou	-10.2337
▁abandoned	-10.2339
▁pump	-10.2341
▁blown	-10.2343
▁status	-10.2345
▁gae	-10.2347
▁thrown	-10.235
▁served	-10.2353
▁billion	-10.2355
▁claimed	-10.2357
▁healthy	-10.2365
▁treated	-10.2368
▁published	-10.2371
▁failing	-10.2372
ble	-10.2373
▁presents	-10.2374
▁safer	-10.2378
▁shared	-10.2382
▁site	-10.2383
▁slowly	-10.2386
▁considered	-10.2388
▁tracking	-10.239
▁subtitle	-10.2397
▁belly	-10.2401
▁lower	-10.2402
▁shelly	-10.2403
ite	-10.2403
▁colored	-10.2415
▁wally	-10.2418
▁squeals	-10.2419
ck	-10.2425
▁reached	-10.2437
run	-10.244
▁remembered	-10.2464
▁younger	-10.2464
lic	-10.2473
▁reporting	-10.2474
▁armed	-10.2481
▁hon	-10.2484
▁mc	-10.249
▁knees	-10.2497
▁leading	-10.2527
▁dreamed	-10.2555
▁touched	-10.2572
▁brat	-10.2622
▁para	-10.2631
▁tells	-10.2638
▁am	-10.2666
▁flip	-10.2668
▁pulling	-10.2673
▁es	-10.2678
ir	-10.2704
▁ver	-10.2732
ac	-10.2744
ey	-10.2751
fully	-10.2768
▁nicely	-10.2778
▁can	-10.279
▁russians	-10.2805
▁services	-10.2829
head	-10.2847
ever	-10.2854
▁hoo	-10.2854
▁volunteer	-10.2879
▁pr	-10.2889
▁mix	-10.2896
▁refuse	-10.2898
beat	-10.2905
▁products	-10.2905
▁drug	-10.2908
▁creature	-10.2912
▁nerve	-10.2912
▁adult	-10.2915
▁diamond	-10.2915
ab	-10.2918
▁sport	-10.292
▁gorgonite	-10.2923
▁caster	-10.2932
▁actor	-10.2933
▁bastards	-10.2943
▁exam	-10.2969
▁ann	-10.2975
ions	-10.2993
▁loser	-10.3008
off	-10.301
▁insist	-10.3023
more	-10.3026
cy	-10.3027
▁mock	-10.3038
▁traffic	-10.3041
▁heal	-10.3042
cr	-10.305
ade	-10.305
▁delay	-10.3052
▁recover	-10.3052
▁crush	-10.3053
▁gee	-10.3053
▁spoil	-10.3053
▁ob	-10.3054
house	-10.3056
helm	-10.3056
▁groups	-10.3057
▁approve	-10.3062
▁duk	-10.3068
▁rasp	-10.3069
▁exact	-10.307
▁speech	-10.3073
▁prior	-10.308
▁slip	-10.3081
▁mmhm	-10.3082
▁republic	-10.3082
▁revolution	-10.3082
▁cruel	-10.3082
▁sexual	-10.3082
away	-10.3083
▁ambulance	-10.3083
▁anderson	-10.3083
▁attached	-10.3083
▁charlene	-10.3083
▁charleshenri	-10.3083
▁cricket	-10.3083
▁cuch	-10.3083
▁democracy	-10.3083
▁dovlatov	-10.3083
▁easily	-10.3083
▁feihung	-10.3083
▁flesh	-10.3083
▁integrity	-10.3083
▁isabel	-10.3083
▁katrina	-10.3083
▁khanoum	-10.3083
▁negative	-10.3083
▁noctis	-10.3083
▁paradise	-10.3083
▁proceed	-10.3083
▁reverend	-10.3083
▁septimus	-10.3083
▁spectacular	-10.3083
▁stomach	-10.3083
▁terribly	-10.3083
▁thief	-10.3083
▁tournament	-10.3083
▁vernon	-10.3083
▁vodka	-10.3083
▁churchill	-10.3083
▁afghanistan	-10.3083
▁chew	-10.3083
▁warrant	-10.3083
▁whimpers	-10.3083
▁nephew	-10.3083
▁kitchen	-10.3083
▁sontee	-10.3083
▁recall	-10.3083
▁apology	-10.3083
▁benefit	-10.3083
▁kenny	-10.3083
▁mollie	-10.3083
▁influence	-10.3083
▁glaive	-10.3083
▁consent	-10.3083
▁neighborhood	-10.3083
▁georgia	-10.3083
▁parade	-10.3083
▁trina	-10.3084
▁garage	-10.3084
▁false	-10.3084
▁studies	-10.3084
▁potential	-10.3084
▁anxious	-10.3084
▁sentimental	-10.3084
▁academy	-10.3084
▁childhood	-10.3084
▁electricity	-10.3084
▁daily	-10.3084
▁portrait	-10.3084
▁margo	-10.3084
▁shelter	-10.3084
▁blast	-10.3084
▁knight	-10.3084
▁miller	-10.3084
▁dugan	-10.3085
▁down	-10.3085
▁rice	-10.3085
▁dax	-10.3085
▁identity	-10.3085
▁data	-10.3086
▁hammer	-10.3086
▁aside	-10.3088
▁magneto	-10.3088
▁bail	-10.3089
▁classic	-10.3089
▁plain	-10.309
▁exhausted	-10.3091
▁frightened	-10.3092
▁sec	-10.3092
▁fried	-10.3093
▁golden	-10.3096
▁threatened	-10.3097
▁shaking	-10.3097
▁stable	-10.3097
▁bucky	-10.3098
▁hunger	-10.3098
▁bride	-10.3104
▁gotcha	-10.3107
▁uhoh	-10.3109
▁leads	-10.311
▁tone	-10.311
▁bon	-10.3113
▁heroes	-10.3114
▁highest	-10.3119
▁fights	-10.312
▁wing	-10.312
▁pastor	-10.3123
▁snap	-10.3128
▁hired	-10.3129
▁goodlooking	-10.3131
▁cocks	-10.3143
▁fires	-10.3156
▁banging	-10.316
▁helpful	-10.3161
▁boot	-10.3163
▁entirely	-10.3176
▁fi	-10.3192
▁image	-10.3202
▁safely	-10.3205
▁cooking	-10.3207
▁marines	-10.321
▁feeding	-10.3221
▁heels	-10.3223
ened	-10.3233
▁protecting	-10.324
▁boots	-10.3247
▁figures	-10.325
▁sports	-10.325
▁traveling	-10.3253
▁sponsors	-10.3264
▁oooh	-10.3272
▁attacked	-10.3276
▁beeps	-10.3276
▁tube	-10.3288
▁prisoners	-10.3293
com	-10.3305
▁hates	-10.3346
ys	-10.3347
▁visiting	-10.3348
▁chi	-10.3353
▁shoulders	-10.3358
▁hits	-10.3366
ha	-10.3374
▁trusted	-10.3382
be	-10.3387
▁counting	-10.3408
▁sins	-10.3412
▁bullets	-10.3418
ily	-10.3436
▁cart	-10.3463
▁drops	-10.3519
▁pilots	-10.3533
▁ga	-10.356
hi	-10.358
▁bay	-10.3607
▁val	-10.3628
▁sales	-10.3667
▁dol	-10.3685
▁lee	-10.3705
▁photograph	-10.3722
ons	-10.3726
▁damned	-10.3733
▁script	-10.3737
▁connection	-10.374
▁uniform	-10.3742
▁chick	-10.3744
▁sailor	-10.3747
▁evils	-10.3751
▁husbands	-10.3753
▁americans	-10.3754
ec	-10.3754
▁mortal	-10.3754
▁beside	-10.3757
▁evan	-10.3757
▁button	-10.3762
▁visitor	-10.3763
▁luca	-10.3763
▁patients	-10.3765
▁flower	-10.377
▁commando	-10.3776
▁tall	-10.3782
▁ph	-10.3822
all	-10.3827
▁shock	-10.384
▁lo	-10.3842
▁sneak	-10.3848
▁mars	-10.3848
▁interrupt	-10.3853
ric	-10.3856
▁cases	-10.3862
▁sid	-10.3864
▁screech	-10.3865
▁witness	-10.3876
▁weigh	-10.3877
▁design	-10.3877
wood	-10.3882
board	-10.3884
▁q	-10.3887
▁brands	-10.3887
▁abandon	-10.3887
▁august	-10.3888
▁stretch	-10.3888
▁luc	-10.3889
▁las	-10.3889
▁blu	-10.389
▁bags	-10.389
▁grant	-10.3896
▁object	-10.39
ten	-10.3907
▁sandwich	-10.3908
end	-10.3909
▁ending	-10.3909
▁mum	-10.3912
▁sat	-10.3913
▁dull	-10.3914
▁livin	-10.3914
▁react	-10.3915
▁scholar	-10.3916
▁anchor	-10.3917
▁squeak	-10.3917
▁absurd	-10.3917
▁anthony	-10.3917
▁appeal	-10.3917
▁applaud	-10.3917
▁brodsky	-10.3917
▁campaign	-10.3917
▁eugene	-10.3917
▁favour	-10.3917
▁houston	-10.3917
▁melvin	-10.3917
▁modern	-10.3917
▁moira	-10.3917
▁mysterious	-10.3917
▁panama	-10.3917
▁pendant	-10.3917
▁policy	-10.3917
▁politics	-10.3917
▁rekker	-10.3917
▁satisfaction	-10.3917
▁seriozha	-10.3917
▁sheldon	-10.3917
▁stax	-10.3917
▁tshirt	-10.3917
▁tumnus	-10.3917
▁unfair	-10.3917
▁unhappy	-10.3917
▁vienna	-10.3917
▁zealand	-10.3917
▁awav	-10.3917
▁crystal	-10.3917
▁revving	-10.3917
▁lesbian	-10.3917
▁annoy	-10.3917
▁columbia	-10.3917
▁moaning	-10.3917
▁otis	-10.3917
▁smiling	-10.3917
▁susan	-10.3917
▁lazy	-10.3917
▁collins	-10.3917
▁committee	-10.3917
▁environment	-10.3917
▁appetite	-10.3917
▁creating	-10.3917
▁freezing	-10.3917
▁william	-10.3917
▁previous	-10.3917
▁burke	-10.3917
▁nicholson	-10.3917
▁violent	-10.3917
▁online	-10.3917
▁puppy	-10.3917
▁leather	-10.3917
▁gooz	-10.3917
▁hunch	-10.3917
▁nickname	-10.3917
▁wives	-10.3917
▁elevator	-10.3917
▁marvelous	-10.3917
▁survival	-10.3917
▁plot	-10.3917
▁solid	-10.3917
▁incompetent	-10.3917
▁junior	-10.3917
▁western	-10.3917
▁blah	-10.3917
▁foul	-10.3917
▁brennan	-10.3918
▁failure	-10.3918
▁noble	-10.3918
▁kidnapped	-10.3918
▁whiskey	-10.3918
▁paperwork	-10.3918
▁ramp	-10.3918
▁honour	-10.3918
▁observation	-10.3918
▁bucket	-10.3918
▁mask	-10.3918
▁begun	-10.3919
▁bonnie	-10.3919
▁sikh	-10.3919
▁clapping	-10.3919
▁mumbling	-10.3919
▁weakness	-10.3919
▁ashes	-10.3919
▁flies	-10.3919
▁charity	-10.3919
▁villa	-10.3919
▁unlike	-10.3919
▁bedroom	-10.392
▁cathy	-10.392
▁ego	-10.392
▁fantasy	-10.392
▁allen	-10.3922
▁poker	-10.3922
▁roberto	-10.3925
▁invented	-10.3926
▁emily	-10.3927
▁production	-10.3928
▁particularly	-10.3929
let	-10.3931
▁dougie	-10.3931
▁spoken	-10.3932
ip	-10.3933
▁sang	-10.3933
ley	-10.3933
▁connected	-10.3933
▁setting	-10.3934
▁sonia	-10.3934
▁dk	-10.3934
▁sincere	-10.3935
▁leak	-10.3936
▁waters	-10.3938
▁vampires	-10.3939
▁producer	-10.3939
▁fourth	-10.394
▁engaged	-10.3941
▁nailed	-10.3942
▁donne	-10.3942
▁marie	-10.3943
▁suite	-10.3948
▁yah	-10.3948
▁mixed	-10.3949
▁mass	-10.395
▁seth	-10.3955
▁chester	-10.3956
▁suggested	-10.3956
▁farm	-10.3958
▁released	-10.3959
▁lifetime	-10.3962
▁sobs	-10.3964
▁blessed	-10.3967
▁canceled	-10.3969
iy	-10.3971
▁idiots	-10.3972
▁nan	-10.3973
▁suffering	-10.3977
▁fu	-10.3979
▁bare	-10.3982
▁bars	-10.3987
▁anti	-10.3996
▁baron	-10.4004
▁mentioned	-10.4005
▁spin	-10.4011
▁officers	-10.4012
▁focused	-10.4016
▁fairy	-10.4023
▁frankly	-10.4035
you	-10.4037
▁yards	-10.4041
▁tend	-10.4047
▁cle	-10.4049
▁recording	-10.4058
▁cuba	-10.4059
▁hah	-10.4063
ul	-10.4068
▁cigarettes	-10.4069
ev	-10.4079
▁ding	-10.4091
▁fed	-10.4093
old	-10.4102
med	-10.411
▁wheels	-10.4113
▁brakes	-10.4128
▁effects	-10.4129
▁sings	-10.413
▁landed	-10.4146
▁chances	-10.415
▁choices	-10.4153
▁standards	-10.4157
▁psycho	-10.4169
▁feelin	-10.4205
▁conditions	-10.4216
ny	-10.4246
▁tracks	-10.4249
▁tests	-10.4257
▁testing	-10.4258
ern	-10.426
▁hu	-10.4262
▁stands	-10.4264
▁commercials	-10.4279
▁issues	-10.4289
ram	-10.4298
▁gunshots	-10.4304
▁magazines	-10.4304
▁rider	-10.4314
▁tal	-10.4349
▁vet	-10.4352
▁ranch	-10.4356
chi	-10.4357
▁dealer	-10.4366
▁opened	-10.4426
bi	-10.4446
▁lessons	-10.4485
▁and	-10.4485
▁voices	-10.449
▁bounce	-10.4511
looking	-10.4521
king	-10.4534
▁falls	-10.4536
da	-10.4554
tin	-10.4577
▁musical	-10.4578
▁disappear	-10.4579
▁gene	-10.4593
bra	-10.4597
aged	-10.4612
▁dun	-10.4617
▁walks	-10.4624
▁detail	-10.4633
▁spots	-10.4646
▁buck	-10.4648
▁riot	-10.4651
▁costume	-10.4651
▁client	-10.4652
▁woo	-10.4654
▁jo	-10.4655
▁shark	-10.4658
▁customer	-10.4659
▁citizen	-10.466
▁cigarette	-10.4661
▁limit	-10.4664
▁log	-10.4665
ero	-10.4671
▁heel	-10.4673
ina	-10.4674
▁flu	-10.4677
inesh	-10.4687
▁hid	-10.4721
▁fits	-10.4722
▁prayer	-10.4723
▁ye	-10.4735
▁steve	-10.4743
▁speaker	-10.4748
▁gather	-10.475
ito	-10.4751
▁hip	-10.4756
▁hop	-10.4766
inous	-10.4766
▁resist	-10.4774
▁brush	-10.4778
▁drown	-10.4781
▁lap	-10.4788
place	-10.4794
▁confirm	-10.4796
ets	-10.4802
seven	-10.4804
▁wanting	-10.4804
jar	-10.4806
▁lame	-10.481
▁rare	-10.4811
▁dip	-10.4812
▁wolf	-10.4813
▁absolute	-10.4814
mmy	-10.4817
ffe	-10.4822
▁rebel	-10.4823
▁hugh	-10.4823
▁zoo	-10.4823
▁chuck	-10.4824
▁germ	-10.4824
▁junk	-10.4825
▁permit	-10.4825
▁alpha	-10.4825
▁jung	-10.4825
▁slaughter	-10.4826
▁adolescent	-10.4826
▁aloha	-10.4826
▁alyssa	-10.4826
▁average	-10.4826
▁awkward	-10.4826
▁behalf	-10.4826
▁budapest	-10.4826
▁celebrity	-10.4826
▁cheerleading	-10.4826
▁choking	-10.4826
▁clifton	-10.4826
▁dammit	-10.4826
▁downhill	-10.4826
▁eleven	-10.4826
▁horror	-10.4826
▁hossein	-10.4826
▁inaudible	-10.4826
▁intelligent	-10.4826
▁kennedy	-10.4826
▁libertus	-10.4826
▁lincoln	-10.4826
▁marcia	-10.4826
▁massacre	-10.4826
▁mathalon	-10.4826
▁onao	-10.4826
▁phase	-10.4826
▁prevent	-10.4826
▁puppies	-10.4826
▁purple	-10.4826
▁relative	-10.4826
▁retard	-10.4826
▁sputter	-10.4826
▁stadium	-10.4826
▁staff	-10.4826
▁symbol	-10.4826
▁throughout	-10.4826
▁tissue	-10.4826
▁transmission	-10.4826
▁trunk	-10.4826
▁turkey	-10.4826
▁ulric	-10.4826
▁unique	-10.4826
▁velvet	-10.4826
▁vivian	-10.4826
▁whimpering	-10.4826
▁whirring	-10.4826
▁dinosaur	-10.4826
▁slice	-10.4826
▁aisle	-10.4826
▁cognac	-10.4826
▁jacob	-10.4826
▁typical	-10.4826
▁draft	-10.4826
▁facing	-10.4826
▁taafe	-10.4826
scrub	-10.4826
▁drew	-10.4826
▁michael	-10.4826
▁eternity	-10.4826
▁lemon	-10.4826
▁sabela	-10.4826
▁cried	-10.4826
▁skirt	-10.4826
▁zazz	-10.4826
▁struck	-10.4826
▁kasi	-10.4826
▁mexican	-10.4826
▁grey	-10.4826
▁series	-10.4826
▁ammo	-10.4826
▁erma	-10.4826
▁waking	-10.4826
▁abortion	-10.4826
▁generous	-10.4826
▁pulse	-10.4826
▁classified	-10.4826
▁nazi	-10.4826
▁wednesday	-10.4827
▁coke	-10.4827
▁ridley	-10.4827
▁century	-10.4827
▁patriot	-10.4827
▁wore	-10.4827
▁aircraft	-10.4827
▁patrol	-10.4827
▁canada	-10.4827
▁gram	-10.4827
▁lucis	-10.4828
▁background	-10.4828
▁foolish	-10.4828
▁gloomy	-10.4828
▁gunfire	-10.4828
▁exercise	-10.4828
▁choir	-10.4828
▁owner	-10.4828
▁juliana	-10.4829
▁keg	-10.4829
▁forth	-10.4829
▁pepper	-10.4829
▁adventure	-10.4829
▁anniversary	-10.4829
▁quote	-10.4829
▁plastic	-10.4829
▁capable	-10.4829
▁whew	-10.483
▁extraordinary	-10.483
ford	-10.483
▁skies	-10.483
▁katia	-10.483
▁stepped	-10.483
▁whinnying	-10.4832
▁roth	-10.4833
▁aww	-10.4833
▁heh	-10.4833
▁lyrics	-10.4835
▁traditional	-10.4835
▁inner	-10.4835
▁boil	-10.4835
▁constantly	-10.4835
▁bout	-10.4835
▁ease	-10.4835
▁howling	-10.4837
▁darkness	-10.4839
▁currently	-10.4839
▁bury	-10.4839
▁mmmm	-10.484
▁iii	-10.484
▁pounding	-10.4841
▁off	-10.4841
▁provided	-10.4843
▁required	-10.4845
▁fighter	-10.4846
▁shal	-10.4847
▁or	-10.4847
der	-10.4848
▁bond	-10.4849
▁pickup	-10.4849
▁properly	-10.485
▁fort	-10.4852
▁advanced	-10.4852
▁pager	-10.4853
▁tower	-10.4853
▁sharply	-10.4857
▁bee	-10.4858
▁moron	-10.4862
▁mustnt	-10.4864
▁whoops	-10.4866
▁mid	-10.4869
▁pace	-10.487
▁del	-10.4877
▁dresses	-10.4879
▁delivered	-10.4884
▁crawl	-10.4886
▁mini	-10.4887
▁cameras	-10.4888
▁buildings	-10.4888
▁suggesting	-10.4892
▁kidnappers	-10.4898
▁churches	-10.4902
▁sucking	-10.4903
▁sighing	-10.4906
▁studying	-10.4909
▁charming	-10.4909
▁wasted	-10.491
▁wd	-10.491
▁bend	-10.4919
▁daughters	-10.492
▁communications	-10.493
▁daggers	-10.493
▁zero	-10.4951
uerto	-10.4952
▁packing	-10.4953
▁freaking	-10.4954
▁greetings	-10.4962
▁fist	-10.4974
▁noon	-10.4992
▁discipline	-10.4995
bar	-10.4995
▁guide	-10.4996
▁actors	-10.5028
▁boarding	-10.503
▁needle	-10.5031
▁fighters	-10.5044
▁peaceful	-10.5048
rous	-10.5052
▁tanks	-10.5058
▁snakes	-10.506
▁sleepy	-10.5079
▁sand	-10.5082
▁affairs	-10.509
▁joining	-10.5097
▁followed	-10.5121
▁lawyers	-10.5155
▁signs	-10.5159
▁woods	-10.5168
▁burns	-10.5175
▁deserves	-10.5188
▁players	-10.5199
ko	-10.5234
face	-10.5247
▁suckers	-10.5257
ong	-10.5286
▁lion	-10.5301
▁marrying	-10.5302
ify	-10.5306
▁relationships	-10.5317
▁bv	-10.5326
▁bu	-10.5338
ated	-10.5364
▁costs	-10.5379
▁mayer	-10.5381
ace	-10.5391
▁ra	-10.5397
▁conversations	-10.5399
ists	-10.5423
ments	-10.5427
sta	-10.5447
▁vin	-10.5479
▁odds	-10.5487
▁dealing	-10.5499
▁inter	-10.5503
ence	-10.5511
▁rot	-10.5527
▁gr	-10.5527
▁slim	-10.5549
▁ap	-10.5553
▁lad	-10.5555
▁hy	-10.5574
▁spirits	-10.558
▁fart	-10.5597
ef	-10.5633
▁checking	-10.5637
▁dies	-10.5642
▁victor	-10.5646
▁instrument	-10.5647
▁clay	-10.5647
▁option	-10.5648
▁rabbit	-10.5655
▁slap	-10.5658
▁comrade	-10.5659
▁clown	-10.566
▁sock	-10.566
▁contestant	-10.5662
▁marine	-10.5663
▁toward	-10.5664
▁quarter	-10.5666
▁era	-10.5668
▁pill	-10.5668
▁african	-10.5672
▁ju	-10.5676
▁murderer	-10.5678
▁term	-10.5679
▁lea	-10.5699
rt	-10.5706
▁mu	-10.5707
iff	-10.572
▁seats	-10.5729
▁exception	-10.5731
lon	-10.5737
▁nail	-10.5739
▁min	-10.5744
▁rape	-10.5767
▁scratch	-10.5769
▁develop	-10.5769
▁bun	-10.577
▁nut	-10.5771
▁rach	-10.5776
▁skateboard	-10.5778
▁snarl	-10.578
▁fashion	-10.5795
▁punish	-10.5795
▁desert	-10.5796
ium	-10.5797
▁lend	-10.5798
▁goal	-10.58
▁rescue	-10.5804
free	-10.5804
two	-10.5804
▁remove	-10.5806
▁provide	-10.5806
▁capture	-10.5807
▁equal	-10.5809
▁fools	-10.5812
▁particular	-10.5813
▁current	-10.5813
▁groom	-10.5816
▁motor	-10.5817
▁require	-10.5821
▁wate	-10.5822
▁gentle	-10.5823
▁iris	-10.5823
▁disgrace	-10.5824
▁electric	-10.5824
▁jew	-10.5824
▁accent	-10.5826
▁aggressive	-10.5826
▁alabama	-10.5826
▁argue	-10.5826
▁atkins	-10.5826
▁battery	-10.5826
▁central	-10.5826
▁champagne	-10.5826
▁convoy	-10.5826
▁creek	-10.5826
▁custody	-10.5826
▁darwin	-10.5826
▁doorbell	-10.5826
▁exclaiming	-10.5826
▁furniture	-10.5826
▁institution	-10.5826
▁investigation	-10.5826
▁judgment	-10.5826
▁loretta	-10.5826
▁marilyn	-10.5826
▁mistletoe	-10.5826
▁muttering	-10.5826
▁negro	-10.5826
▁parviz	-10.5826
▁passengers	-10.5826
▁pellegrini	-10.5826
▁pomegranate	-10.5826
▁promotion	-10.5826
▁puppet	-10.5826
▁quality	-10.5826
▁skunk	-10.5826
▁smooth	-10.5826
▁solution	-10.5826
▁struggle	-10.5826
▁supreme	-10.5826
▁tetsuzo	-10.5826
▁towanda	-10.5826
▁traitor	-10.5826
▁tremendous	-10.5826
▁underwear	-10.5826
▁bleep	-10.5826
▁canyon	-10.5826
▁clerk	-10.5826
▁dahl	-10.5826
▁editor	-10.5826
▁essential	-10.5826
▁keiying	-10.5826
▁lomu	-10.5826
▁pleasant	-10.5826
▁sipsey	-10.5826
▁superior	-10.5826
▁worn	-10.5826
▁motherfuck	-10.5826
▁creative	-10.5826
▁sharing	-10.5826
▁underground	-10.5826
▁combat	-10.5826
▁consort	-10.5826
▁sweden	-10.5826
▁broadcast	-10.5826
▁mankind	-10.5826
▁tully	-10.5826
▁worship	-10.5826
▁tennis	-10.5826
▁kabul	-10.5826
▁destruction	-10.5826
▁addition	-10.5826
▁priest	-10.5826
▁measure	-10.5826
▁internet	-10.5826
▁orange	-10.5826
▁polish	-10.5826
▁shrink	-10.5826
▁suspicious	-10.5826
▁squad	-10.5826
▁walsh	-10.5826
▁frost	-10.5826
▁theory	-10.5826
▁hobbs	-10.5826
▁tryouts	-10.5826
▁signature	-10.5826
orna	-10.5826
▁primary	-10.5826
▁duties	-10.5826
▁obey	-10.5826
▁budget	-10.5826
▁gabe	-10.5826
▁panties	-10.5826
▁poking	-10.5826
▁levinson	-10.5826
▁bizarre	-10.5826
▁uncomfortable	-10.5826
▁assault	-10.5826
▁skinny	-10.5826
▁hush	-10.5827
▁broadway	-10.5827
▁towel	-10.5827
▁diana	-10.5827
▁existence	-10.5827
▁estate	-10.5827
▁habit	-10.5827
▁slightest	-10.5827
▁rotten	-10.5827
▁nora	-10.5827
▁countries	-10.5827
▁switzerland	-10.5827
▁deposit	-10.5827
▁fisherman	-10.5827
▁confident	-10.5827
▁jones	-10.5827
▁objective	-10.5827
▁rail	-10.5827
▁viva	-10.5827
▁naked	-10.5827
▁spray	-10.5827
▁satan	-10.5827
▁intention	-10.5828
▁dose	-10.5828
▁chaos	-10.5828
ville	-10.5828
▁paps	-10.5828
▁hungary	-10.5828
▁leeman	-10.5828
▁haircut	-10.5828
▁robber	-10.5829
▁gang	-10.5829
▁surgeon	-10.5829
▁lamb	-10.5829
▁perimeter	-10.5829
▁belcher	-10.5829
▁rally	-10.583
▁shore	-10.583
▁possession	-10.583
▁cue	-10.583
▁iran	-10.583
▁nathan	-10.583
▁blanket	-10.583
▁june	-10.5831
▁yong	-10.5831
▁injury	-10.5832
▁gray	-10.5832
▁carrier	-10.5833
▁chap	-10.5833
▁dug	-10.5833
▁confession	-10.5833
▁reno	-10.5834
▁alley	-10.5834
▁task	-10.5835
▁reckon	-10.5836
▁assigned	-10.5838
▁boers	-10.584
▁july	-10.584
▁discovery	-10.5841
▁coal	-10.5842
▁highway	-10.5842
▁fee	-10.5843
▁sincerely	-10.5843
▁disappointed	-10.5846
▁jet	-10.5846
▁anger	-10.5847
▁shaken	-10.585
▁grosser	-10.5851
▁manual	-10.5852
▁trumps	-10.5853
▁explosives	-10.5854
▁punished	-10.5856
▁teenager	-10.5857
▁lawn	-10.5858
▁bald	-10.5861
▁boxes	-10.5862
▁tender	-10.5862
▁witch	-10.5864
▁beaten	-10.5865
▁timing	-10.5865
▁demon	-10.5866
▁naturally	-10.5867
▁cryin	-10.5871
▁foundation	-10.5873
▁drowning	-10.5876
▁dia	-10.5876
ag	-10.588
▁howdy	-10.5881
▁separated	-10.5882
▁torture	-10.5883
▁vomit	-10.5884
▁beta	-10.5886
▁surely	-10.589
▁sniffs	-10.589
▁cheating	-10.5895
▁undress	-10.5899
▁recognized	-10.5902
▁op	-10.5902
▁willie	-10.5904
▁hooked	-10.5913
back	-10.5914
▁ka	-10.5917
▁rd	-10.5924
▁entering	-10.5928
▁faithful	-10.593
▁skills	-10.594
▁stairs	-10.5941
▁strain	-10.5956
▁colleagues	-10.5959
▁japs	-10.5962
▁farmers	-10.5963
▁diet	-10.5968
▁scar	-10.5969
cu	-10.5974
▁worthy	-10.5975
▁yells	-10.5977
▁pit	-10.5984
▁considering	-10.5987
▁lifes	-10.5994
▁clowns	-10.5995
▁contestants	-10.5995
▁fore	-10.601
▁screwing	-10.6015
▁gu	-10.6021
▁formula	-10.6022
▁humbl	-10.6028
▁tale	-10.6035
▁arts	-10.606
▁lookie	-10.6063
▁tryin	-10.6067
▁kissed	-10.6068
▁recorded	-10.6087
▁thinkin	-10.6089
▁messing	-10.6091
▁hips	-10.61
use	-10.6101
if	-10.6102
▁traditions	-10.6102
▁shots	-10.6104
fish	-10.6111
▁tin	-10.6121
▁cleaned	-10.6125
▁aliens	-10.6129
▁sticking	-10.6136
▁rankin	-10.6138
▁fund	-10.6153
▁threats	-10.6156
▁understanding	-10.6156
▁spits	-10.6157
▁gala	-10.6162
▁rode	-10.6173
▁evolution	-10.6177
▁arch	-10.6186
▁kissing	-10.6195
ington	-10.6214
jo	-10.6219
▁throwing	-10.6238
▁mal	-10.6245
▁ghosts	-10.6246
▁bb	-10.6258
▁ani	-10.628
▁cleaning	-10.6282
▁gi	-10.6286
▁drivers	-10.6294
▁guests	-10.63
eyed	-10.6304
▁caused	-10.6307
fa	-10.632
ov	-10.6321
▁psych	-10.6361
▁drives	-10.6373
▁whistles	-10.6373
▁mountains	-10.6375
za	-10.6406
▁nap	-10.6407
▁queens	-10.6409
▁pe	-10.641
▁sip	-10.641
▁neighbors	-10.6427
tory	-10.6444
yn	-10.6455
▁kindly	-10.6494
tech	-10.6501
ack	-10.6533
▁here	-10.6535
ez	-10.6561
▁suits	-10.6577
au	-10.6605
ai	-10.6612
kin	-10.6624
▁moves	-10.6627
ight	-10.6627
▁rem	-10.6633
▁nations	-10.665
▁we	-10.6669
ada	-10.6677
ber	-10.6678
hop	-10.6679
ors	-10.6683
▁surf	-10.6696
▁hum	-10.67
▁yell	-10.6702
si	-10.6708
▁wins	-10.6721
▁sends	-10.6723
▁squeal	-10.6727
▁involve	-10.6739
▁actual	-10.6753
▁cells	-10.6754
▁virgin	-10.6754
▁organ	-10.6757
▁division	-10.6758
▁smack	-10.6758
▁wagon	-10.6758
▁stiff	-10.6759
▁warrior	-10.6762
▁corporation	-10.6762
lin	-10.6763
▁scout	-10.6766
▁net	-10.6766
▁orphan	-10.6766
▁terrorist	-10.6766
▁degree	-10.6767
▁flame	-10.6767
▁indian	-10.6768
▁statement	-10.677
▁yard	-10.6773
▁guardian	-10.6781
▁easter	-10.6814
▁greeting	-10.6816
▁clinic	-10.6824
some	-10.6828
▁direct	-10.6831
▁vers	-10.6843
▁tricks	-10.6852
▁mor	-10.6853
ations	-10.6853
▁blessing	-10.6868
▁sol	-10.6875
▁comfort	-10.6885
▁barn	-10.6886
▁climb	-10.6888
▁discover	-10.6891
▁er	-10.6894
▁bleed	-10.6896
▁greet	-10.6899
▁deploy	-10.6904
ably	-10.6906
▁medic	-10.6907
▁mamas	-10.6908
girl	-10.6915
▁compromise	-10.6916
▁restore	-10.6917
▁moral	-10.6917
▁comment	-10.6918
▁creep	-10.6919
▁gut	-10.692
▁buff	-10.692
▁silent	-10.6922
gi	-10.6922
ward	-10.6922
▁associate	-10.6922
▁goddam	-10.6925
▁kinds	-10.6928
▁attract	-10.6929
▁fox	-10.6931
▁julie	-10.6933
▁lili	-10.6933
▁tug	-10.6933
▁express	-10.6935
▁regis	-10.6936
▁begg	-10.6936
▁loyal	-10.6936
▁visual	-10.6936
▁spiritual	-10.6936
▁holmes	-10.6937
▁afterwards	-10.6937
▁ansarafina	-10.6937
▁arguing	-10.6937
▁athens	-10.6937
▁australia	-10.6937
▁bonjour	-10.6937
▁chamberlain	-10.6937
▁credibility	-10.6937
▁dmitrich	-10.6937
▁draisen	-10.6937
▁dubai	-10.6937
▁duchannes	-10.6937
▁dunkirk	-10.6937
▁elaheh	-10.6937
▁elbow	-10.6937
▁eventually	-10.6937
▁exploit	-10.6937
▁fascinating	-10.6937
▁fifth	-10.6937
▁ghaffarian	-10.6937
▁gnarnia	-10.6937
▁grief	-10.6937
▁imagination	-10.6937
▁imminent	-10.6937
▁individual	-10.6937
▁inspiration	-10.6937
▁install	-10.6937
▁invitation	-10.6937
▁jeffrey	-10.6937
▁jonathan	-10.6937
▁kevin	-10.6937
▁laundry	-10.6937
▁leslie	-10.6937
▁liquor	-10.6937
▁loschek	-10.6937
▁lunafreya	-10.6937
▁manhattan	-10.6937
▁masembuko	-10.6937
▁matthew	-10.6937
▁minnesota	-10.6937
▁obsession	-10.6937
▁resume	-10.6937
▁roxeanne	-10.6937
▁sarafine	-10.6937
▁scattered	-10.6937
▁skating	-10.6937
▁surprising	-10.6937
▁telegram	-10.6937
▁tenebrae	-10.6937
▁theft	-10.6937
▁trigger	-10.6937
▁unusual	-10.6937
▁volume	-10.6937
▁wiggle	-10.6937
▁worries	-10.6937
▁arena	-10.6937
▁barrel	-10.6937
▁cosmos	-10.6937
▁gesture	-10.6937
▁improve	-10.6937
▁krstic	-10.6937
▁morris	-10.6937
▁tolerate	-10.6937
▁intercept	-10.6937
▁vital	-10.6937
▁gilbert	-10.6937
▁roast	-10.6937
▁rudy	-10.6937
▁squeeze	-10.6937
▁burden	-10.6937
▁actress	-10.6937
▁carrot	-10.6937
▁jody	-10.6937
▁memories	-10.6937
▁hazard	-10.6937
▁spurlock	-10.6937
▁occurred	-10.6937
▁whitney	-10.6937
▁johan	-10.6937
▁shakily	-10.6937
▁farewell	-10.6937
▁kidnapping	-10.6937
▁ardent	-10.6937
▁ability	-10.6937
▁splash	-10.6937
▁steak	-10.6937
▁executive	-10.6937
holom	-10.6937
▁sheetz	-10.6937
▁woke	-10.6937
▁banned	-10.6937
▁cherry	-10.6937
▁cuz	-10.6937
▁oops	-10.6937
▁retirement	-10.6937
▁virginia	-10.6937
▁pillow	-10.6937
▁ravenwood	-10.6937
▁colorado	-10.6938
▁stall	-10.6938
▁cannon	-10.6938
▁ouch	-10.6938
▁chika	-10.6938
▁specific	-10.6938
▁documentary	-10.6938
▁tribe	-10.6938
▁tehran	-10.6938
▁fame	-10.6938
▁wax	-10.6938
▁broad	-10.6938
▁brick	-10.6938
▁scum	-10.6938
▁adam	-10.6938
▁burt	-10.6938
▁cease	-10.6938
▁vincent	-10.6938
▁soda	-10.6939
▁whatll	-10.6939
▁grass	-10.6939
▁assignment	-10.6939
▁stores	-10.6939
▁crackling	-10.6939
▁loan	-10.6939
▁expectations	-10.6939
▁spoon	-10.6939
▁heartbreak	-10.6939
▁pork	-10.694
▁adore	-10.694
▁cries	-10.694
▁celebration	-10.694
▁lucian	-10.694
▁boze	-10.694
▁drank	-10.694
▁sector	-10.694
▁wales	-10.6941
▁aboard	-10.6941
day	-10.6941
▁diary	-10.6941
▁debate	-10.6941
▁humor	-10.6941
▁beam	-10.6941
▁slipper	-10.6941
▁childish	-10.6941
▁drunkard	-10.6942
▁baker	-10.6942
▁jose	-10.6942
▁castle	-10.6942
▁compare	-10.6942
▁grabbed	-10.6942
▁email	-10.6942
▁tapping	-10.6942
▁practically	-10.6943
▁thick	-10.6943
▁inch	-10.6943
▁kess	-10.6944
▁heartbeat	-10.6944
▁version	-10.6945
▁thatd	-10.6945
▁expression	-10.6945
▁personality	-10.6945
▁tina	-10.6947
▁showcase	-10.6947
▁badge	-10.6947
▁deeds	-10.6947
▁clue	-10.6947
▁pta	-10.6947
▁cheek	-10.6947
▁promoted	-10.6947
▁darn	-10.6947
▁shatters	-10.6948
▁stammers	-10.6948
▁pole	-10.6948
▁civilian	-10.6949
▁active	-10.6949
▁skipper	-10.6949
▁fulfill	-10.695
▁comin	-10.6952
▁friendship	-10.6952
▁assuming	-10.6952
▁terror	-10.6952
▁labor	-10.6956
▁generate	-10.6959
▁removed	-10.6959
▁captured	-10.6959
▁louise	-10.696
▁mud	-10.6961
▁thrilling	-10.6961
▁milo	-10.6963
▁momma	-10.6964
▁bea	-10.6965
▁texas	-10.6967
▁reasons	-10.697
▁carol	-10.6973
bs	-10.6973
▁gathered	-10.6974
▁morales	-10.6974
▁fry	-10.6974
▁refused	-10.6975
▁photographer	-10.6975
▁badass	-10.6977
▁scan	-10.6977
▁delivery	-10.6978
▁me	-10.6979
▁cable	-10.698
▁useful	-10.698
▁volunteered	-10.6981
▁presentation	-10.6982
▁spoiled	-10.6982
▁squealing	-10.6983
▁killer	-10.6984
▁kit	-10.699
ct	-10.6991
▁sticks	-10.6991
▁mag	-10.6995
▁nu	-10.6997
uf	-10.6998
▁vulgar	-10.6998
▁effective	-10.7001
▁diapers	-10.7007
▁manners	-10.7007
▁impressed	-10.701
▁ne	-10.7012
▁be	-10.7014
▁wounded	-10.7017
▁rub	-10.702
▁closest	-10.702
▁belonged	-10.702
▁busted	-10.7025
▁escaped	-10.7032
▁tim	-10.7034
▁divorced	-10.7035
▁cracked	-10.7041
▁sis	-10.7048
▁bowling	-10.7059
▁spying	-10.7063
▁quietly	-10.707
▁buen	-10.707
ical	-10.7082
▁drain	-10.7083
▁ny	-10.7092
▁crossed	-10.7095
▁hiss	-10.7096
▁jumped	-10.7098
▁instant	-10.7105
▁chin	-10.7108
▁peel	-10.7109
▁blo	-10.7112
▁whens	-10.7114
▁bothering	-10.7117
pin	-10.7125
▁comrades	-10.7127
▁socks	-10.7127
▁gain	-10.7127
▁rely	-10.7133
▁bunk	-10.7139
▁returned	-10.7143
▁citizens	-10.7145
▁katie	-10.715
▁laughed	-10.7151
▁sc	-10.7158
eight	-10.7161
▁chicks	-10.7167
▁buttons	-10.7168
▁jumping	-10.7172
▁crossing	-10.7177
▁any	-10.718
▁ace	-10.719
▁ku	-10.719
▁yay	-10.7191
▁highly	-10.7192
▁boxing	-10.7192
iki	-10.7195
zed	-10.72
j	-10.7202
▁wondered	-10.7206
▁servants	-10.7207
▁shown	-10.7208
▁blocks	-10.7209
▁painter	-10.7209
▁losers	-10.721
▁locker	-10.7223
▁toe	-10.7233
dle	-10.724
▁glue	-10.7244
▁lit	-10.7245
▁mirrors	-10.7247
▁directions	-10.7248
▁har	-10.7261
▁anyways	-10.728
▁dolls	-10.7288
ide	-10.7297
nal	-10.7299
urban	-10.7303
▁pals	-10.7315
▁rehearsals	-10.7328
▁blues	-10.733
▁shin	-10.7341
▁constantin	-10.7347
▁bugs	-10.7351
idge	-10.7352
upper	-10.7355
▁covering	-10.7357
▁pun	-10.7359
▁worker	-10.7374
▁facts	-10.7377
▁pens	-10.7382
ians	-10.7406
▁humans	-10.7421
ail	-10.7423
maker	-10.7426
stein	-10.7435
▁sources	-10.7446
▁chemotherap	-10.7448
▁monsters	-10.745
▁channels	-10.745
▁photos	-10.7491
ox	-10.7497
egged	-10.7506
▁encourage	-10.7514
▁eli	-10.7519
qui	-10.7526
▁souls	-10.7529
sk	-10.7531
▁leaders	-10.7532
▁dreaming	-10.7537
utti	-10.7571
▁abs	-10.7625
▁tr	-10.7652
▁pleased	-10.7654
mm	-10.7659
▁cord	-10.767
▁when	-10.7683
gs	-10.7686
▁charges	-10.7716
ike	-10.7721
▁peters	-10.7725
ester	-10.7737
enne	-10.775
▁she	-10.7798
▁placed	-10.78
▁choos	-10.7824
▁begins	-10.7843
▁cr	-10.7861
▁irre	-10.7868
int	-10.7886
▁ni	-10.7904
▁slam	-10.7916
▁codes	-10.7926
pped	-10.7933
▁regard	-10.796
▁chickens	-10.7964
▁depend	-10.7979
missary	-10.7979
que	-10.7984
▁rhythm	-10.8
▁instinct	-10.8007
▁muscle	-10.8007
▁desire	-10.8007
▁eboat	-10.8008
▁wrist	-10.8009
▁andrew	-10.8009
▁gear	-10.801
▁neigh	-10.8012
▁breast	-10.8012
▁cheerleader	-10.8018
▁daniel	-10.8018
▁cloud	-10.8019
▁colleague	-10.8021
▁trailer	-10.8021
▁ru	-10.8021
ham	-10.8023
▁chop	-10.8024
▁chang	-10.803
▁laws	-10.8031
▁gifts	-10.8033
▁farmer	-10.8038
▁jap	-10.8039
▁impression	-10.8046
▁gar	-10.8056
▁greg	-10.8063
ery	-10.808
▁manda	-10.8088
▁poison	-10.8103
▁disturb	-10.8104
▁shove	-10.8108
▁contain	-10.8109
▁returns	-10.8115
▁haw	-10.8125
▁of	-10.8125
night	-10.813
▁mil	-10.8131
lock	-10.8133
▁swell	-10.8142
▁caus	-10.8145
▁complain	-10.8147
▁affect	-10.815
som	-10.8151
▁corrupt	-10.8152
▁intend	-10.8153
▁inform	-10.8154
case	-10.8156
mark	-10.8161
piece	-10.8162
q	-10.8162
▁sail	-10.8165
▁choke	-10.8166
▁trace	-10.8167
▁include	-10.8168
four	-10.8168
well	-10.8171
▁earn	-10.8171
▁technical	-10.8172
▁emotional	-10.8174
▁incredibl	-10.8174
▁advertise	-10.8174
▁dodge	-10.8177
▁core	-10.8177
▁complex	-10.8179
▁branch	-10.8179
▁froze	-10.8181
▁olive	-10.8181
▁bands	-10.8182
▁blank	-10.8182
▁definite	-10.8184
▁darlin	-10.8184
▁reception	-10.8185
▁fright	-10.8186
▁brenn	-10.8186
▁gorgon	-10.8186
▁admire	-10.8186
▁fernand	-10.8187
▁instagram	-10.8187
▁acknowledge	-10.8187
▁adorable	-10.8187
▁airplane	-10.8187
▁almighty	-10.8187
▁amateur	-10.8187
▁arrogant	-10.8187
▁attempt	-10.8187
▁bellefontaine	-10.8187
▁cadillac	-10.8187
▁catholic	-10.8187
▁cripple	-10.8187
▁crisis	-10.8187
▁delicate	-10.8187
▁dispatch	-10.8187
▁dizzy	-10.8187
▁dynamite	-10.8187
▁eleanor	-10.8187
▁electronic	-10.8187
▁equikrom	-10.8187
▁festival	-10.8187
▁formavale	-10.8187
▁grammie	-10.8187
▁grenade	-10.8187
▁gypsy	-10.8187
▁happily	-10.8187
▁hokusai	-10.8187
▁hollister	-10.8187
▁hutterite	-10.8187
▁independence	-10.8187
▁lonesome	-10.8187
▁luggage	-10.8187
▁magnificent	-10.8187
▁mastronardi	-10.8187
▁mehdi	-10.8187
▁messenger	-10.8187
▁morphine	-10.8187
▁narrow	-10.8187
▁naughty	-10.8187
▁niece	-10.8187
▁nympho	-10.8187
▁october	-10.8187
▁oldfashioned	-10.8187
▁orchestra	-10.8187
▁orleans	-10.8187
▁oscar	-10.8187
▁philadelphia	-10.8187
▁pilates	-10.8187
▁pithons	-10.8187
▁possibility	-10.8187
▁powder	-10.8187
▁priscilla	-10.8187
▁proposal	-10.8187
▁purse	-10.8187
▁qualities	-10.8187
▁relief	-10.8187
▁rival	-10.8187
▁serving	-10.8187
▁siegfried	-10.8187
▁slug	-10.8187
▁socalled	-10.8187
▁soccer	-10.8187
▁sofoyan	-10.8187
▁sophisticated	-10.8187
▁starbucks	-10.8187
▁stiva	-10.8187
▁stubborn	-10.8187
▁tennessee	-10.8187
▁territory	-10.8187
▁therapy	-10.8187
▁thirteen	-10.8187
▁tokyo	-10.8187
▁tragic	-10.8187
▁triumph	-10.8187
▁tunnel	-10.8187
▁vetsera	-10.8187
▁accomplish	-10.8187
▁bodine	-10.8187
▁content	-10.8187
▁diplomat	-10.8187
▁doyle	-10.8187
▁exclaims	-10.8187
▁flirt	-10.8187
▁kaylee	-10.8187
▁mansoor	-10.8187
▁melanchol	-10.8187
▁miserable	-10.8187
▁phony	-10.8187
▁primitive	-10.8187
▁pussy	-10.8187
▁sorrow	-10.8187
▁stacy	-10.8187
▁yankees	-10.8187
▁amusing	-10.8187
▁bozo	-10.8187
▁impact	-10.8187
▁italy	-10.8187
▁scoot	-10.8187
▁sermon	-10.8187
▁temperature	-10.8187
▁ellen	-10.8187
▁gossip	-10.8187
▁headache	-10.8187
▁wicked	-10.8187
▁transport	-10.8187
▁terrified	-10.8187
▁casualties	-10.8187
▁remote	-10.8187
▁scoop	-10.8187
▁smith	-10.8187
▁stanley	-10.8187
▁enormous	-10.8187
▁revival	-10.8187
▁merrick	-10.8187
▁sauce	-10.8187
▁blade	-10.8187
▁onlv	-10.8187
▁snort	-10.8187
▁refrigerator	-10.8187
▁harold	-10.8187
▁candle	-10.8187
▁rubber	-10.8187
▁irish	-10.8187
▁yardner	-10.8187
▁lightning	-10.8187
▁growls	-10.8187
▁puzzle	-10.8187
▁dreadful	-10.8187
▁cooperate	-10.8187
▁joanna	-10.8187
▁mummy	-10.8187
▁nancy	-10.8187
▁slipped	-10.8187
▁cleaver	-10.8188
▁leash	-10.8188
▁entertainment	-10.8188
▁orson	-10.8188
▁unknown	-10.8188
▁robbie	-10.8188
▁interior	-10.8188
▁construction	-10.8188
▁infinite	-10.8188
▁mutation	-10.8188
▁malta	-10.8188
▁amma	-10.8188
▁facility	-10.8188
▁fuzzy	-10.8188
▁angle	-10.8188
▁scumbag	-10.8188
▁chasing	-10.8188
▁comma	-10.8188
▁singular	-10.8188
▁pep	-10.8188
▁babysitter	-10.8188
▁studied	-10.8189
▁punishment	-10.8189
▁sunset	-10.8189
▁massive	-10.8189
▁disaster	-10.8189
▁anthem	-10.8189
▁shook	-10.8189
▁burr	-10.8189
▁beef	-10.8189
▁pj	-10.819
▁pammie	-10.819
▁waist	-10.819
▁mule	-10.819
▁prof	-10.8191
▁priority	-10.8191
▁related	-10.8191
▁maud	-10.8191
▁reck	-10.8191
▁reaction	-10.8191
▁supper	-10.8191
▁identifi	-10.8192
▁governor	-10.8192
▁presume	-10.8192
▁dignity	-10.8192
▁salary	-10.8192
▁footage	-10.8192
▁suggestion	-10.8192
▁ordinary	-10.8193
▁tess	-10.8193
▁distraction	-10.8194
▁alongside	-10.8194
▁ellie	-10.8195
ology	-10.8195
▁rug	-10.8195
▁pea	-10.8195
▁chico	-10.8195
▁countess	-10.8196
▁precisely	-10.8196
▁apply	-10.8196
▁jury	-10.8196
▁fitting	-10.8196
▁tomar	-10.8197
▁injured	-10.8197
▁kent	-10.8198
liness	-10.8199
▁clearance	-10.8199
▁circumstances	-10.8199
zel	-10.82
▁doomed	-10.8201
▁crashes	-10.8201
aye	-10.8201
▁artistic	-10.8201
▁arranged	-10.8201
▁technically	-10.8202
eh	-10.8202
▁ahem	-10.8203
▁descend	-10.8204
▁meanwhile	-10.8204
▁dismissed	-10.8205
▁shiny	-10.8205
▁bass	-10.8206
▁included	-10.8206
▁dragon	-10.8209
▁freeway	-10.821
▁ink	-10.8214
▁salt	-10.8216
▁pete	-10.8217
▁drill	-10.8219
▁crowe	-10.8219
▁homework	-10.822
▁clothing	-10.822
▁factor	-10.8221
▁anne	-10.8221
▁deserted	-10.8225
▁ken	-10.8226
▁convinced	-10.8233
▁hood	-10.8234
▁host	-10.8237
▁insisted	-10.8238
▁emperors	-10.8241
▁marker	-10.8241
▁disc	-10.8243
▁defeated	-10.8243
▁ribs	-10.8244
▁lane	-10.8246
▁interfere	-10.8248
▁gathering	-10.8251
▁belles	-10.8252
ned	-10.8253
▁cage	-10.8256
▁hopes	-10.8257
▁bully	-10.8258
▁engineer	-10.826
▁kicks	-10.826
▁damaged	-10.8264
▁rumors	-10.8267
▁kindness	-10.8267
▁kin	-10.8273
▁warned	-10.8281
▁meantime	-10.8287
istic	-10.8287
▁specialist	-10.8291
▁drums	-10.8292
▁drawer	-10.8292
▁quicker	-10.8294
ties	-10.8298
▁performing	-10.8301
▁aires	-10.8303
▁packed	-10.8307
▁roots	-10.8311
▁tools	-10.8312
▁manure	-10.8313
▁corpse	-10.8315
▁geez	-10.8316
▁tons	-10.8317
▁formed	-10.8321
▁joint	-10.8328
▁treating	-10.8339
▁eu	-10.834
▁tracker	-10.834
▁musicians	-10.8344
▁je	-10.8349
▁asses	-10.8353
▁cheerleaders	-10.8358
▁daniels	-10.8358
▁bandy	-10.8359
▁imagined	-10.8359
▁clouds	-10.836
▁protected	-10.8363
▁bump	-10.8367
▁cracking	-10.8368
▁thoughts	-10.837
▁don	-10.8377
▁grav	-10.838
▁victoria	-10.8397
▁ste	-10.841
▁seated	-10.842
▁sharks	-10.8427
war	-10.8439
▁dings	-10.8447
▁photographs	-10.8448
▁vic	-10.8464
▁adults	-10.8473
▁diamonds	-10.8474
▁refuses	-10.8475
aries	-10.8483
▁tab	-10.8503
▁pushed	-10.8547
ters	-10.8552
▁achieve	-10.8559
▁visions	-10.8565
▁cowards	-10.8565
ok	-10.8566
▁u	-10.8567
ake	-10.8567
▁et	-10.8579
▁panic	-10.8579
▁raining	-10.8584
▁gin	-10.8586
▁au	-10.8602
▁it	-10.8603
▁establish	-10.8624
▁profit	-10.8631
zer	-10.8645
▁anyou	-10.8659
▁cos	-10.8661
▁strangers	-10.8669
▁tan	-10.8674
▁events	-10.8675
▁computers	-10.8681
ver	-10.8702
▁wounds	-10.8706
quid	-10.8707
▁signing	-10.8707
▁deadly	-10.871
▁dancers	-10.8711
▁spar	-10.872
ther	-10.8742
sia	-10.875
▁shirts	-10.8751
▁hills	-10.8751
▁accounts	-10.8751
▁mouths	-10.8756
ft	-10.8764
▁gates	-10.8798
oon	-10.883
alre	-10.8833
rus	-10.8864
rian	-10.8868
▁sirens	-10.8869
▁eats	-10.8898
▁questioning	-10.8917
▁und	-10.8921
▁qu	-10.8923
pers	-10.8946
▁lords	-10.8951
ump	-10.8961
▁pageants	-10.8963
▁rate	-10.898
▁mac	-10.8984
▁finals	-10.9008
atory	-10.9019
▁chat	-10.9029
▁realise	-10.9033
▁kim	-10.9036
ms	-10.9058
its	-10.9086
▁constant	-10.9089
▁finds	-10.9094
ire	-10.9094
▁rank	-10.911
▁promises	-10.9112
▁amy	-10.9115
ach	-10.9122
six	-10.9125
ug	-10.9131
▁homes	-10.9132
bor	-10.9183
▁glo	-10.9184
▁pale	-10.9209
top	-10.921
▁beds	-10.921
tar	-10.9215
▁assholes	-10.9248
▁rod	-10.9248
▁rear	-10.9256
die	-10.9263
▁ron	-10.9268
rious	-10.9306
den	-10.933
red	-10.9333
▁dar	-10.9339
boy	-10.9343
who	-10.9351
▁ripe	-10.9366
air	-10.9372
shit	-10.9387
hand	-10.9399
ating	-10.9404
▁hats	-10.9409
ette	-10.9411
▁tick	-10.9414
hu	-10.9421
▁arrive	-10.9423
▁rehearse	-10.9425
avity	-10.9431
▁tables	-10.9434
▁targets	-10.9434
▁author	-10.9435
▁spider	-10.9436
▁sonnet	-10.9438
▁tire	-10.9439
▁certificate	-10.9442
▁wallet	-10.9443
▁belief	-10.9445
▁election	-10.9445
▁shriek	-10.9446
▁debt	-10.9448
▁communication	-10.945
▁stair	-10.945
▁dagger	-10.9451
▁document	-10.9451
▁skill	-10.9456
▁bean	-10.9457
▁fade	-10.9458
▁sword	-10.946
▁as	-10.9465
▁string	-10.9472
▁missile	-10.9473
▁din	-10.9477
▁musician	-10.9482
▁stays	-10.9482
keeper	-10.9483
▁clam	-10.9507
corn	-10.9511
gh	-10.9513
▁ski	-10.9518
▁connect	-10.9522
▁ev	-10.9537
▁pour	-10.9542
▁escap	-10.9546
job	-10.9552
▁thump	-10.9567
▁jan	-10.9569
▁cruise	-10.9571
ility	-10.9571
▁distract	-10.9573
▁whip	-10.9576
▁disappoint	-10.9578
light	-10.9581
rows	-10.9584
▁swor	-10.9584
know	-10.9587
▁poke	-10.9587
▁delight	-10.9587
▁rattle	-10.9592
pack	-10.9592
▁chee	-10.9593
▁operate	-10.9594
chief	-10.9594
▁humiliate	-10.9595
▁inspire	-10.9595
right	-10.9597
▁concept	-10.9597
▁shave	-10.96
life	-10.9603
▁trail	-10.9603
▁interpret	-10.9604
oughs	-10.9605
▁reflect	-10.9612
▁asia	-10.9613
ruly	-10.9614
▁depr	-10.9614
▁runnin	-10.9614
▁assassin	-10.9615
▁forbid	-10.9615
▁hahaha	-10.9615
▁thud	-10.9615
▁chateau	-10.9615
▁pilgrim	-10.9615
▁aeroplane	-10.9615
▁applied	-10.9615
▁approval	-10.9615
▁belgium	-10.9615
▁butler	-10.9615
▁calais	-10.9615
▁caleb	-10.9615
▁caviar	-10.9615
▁challenging	-10.9615
▁chilton	-10.9615
▁compliment	-10.9615
▁conscience	-10.9615
▁contrary	-10.9615
▁council	-10.9615
▁deliberately	-10.9615
▁depressing	-10.9615
▁doolittle	-10.9615
▁dottie	-10.9615
▁eagle	-10.9615
▁entitled	-10.9615
▁esteban	-10.9615
▁excitement	-10.9615
▁extension	-10.9615
▁fossil	-10.9615
▁garrison	-10.9615
▁garsik	-10.9615
▁genevieve	-10.9615
▁giddy	-10.9615
▁graveyard	-10.9615
▁guidance	-10.9615
▁halberstrom	-10.9615
▁hobby	-10.9615
▁hustle	-10.9615
▁incident	-10.9615
▁industry	-10.9615
▁irene	-10.9615
▁jonah	-10.9615
▁kangaroo	-10.9615
▁kenneth	-10.9615
▁kilowog	-10.9615
▁merchandise	-10.9615
▁ministry	-10.9615
▁monica	-10.9615
▁omega	-10.9615
▁opposite	-10.9615
▁overthrow	-10.9615
▁parliament	-10.9615
▁patience	-10.9615
▁pattern	-10.9615
▁perspective	-10.9615
▁pineapple	-10.9615
▁principle	-10.9615
▁printing	-10.9615
▁procedure	-10.9615
▁radioactive	-10.9615
▁reschedule	-10.9615
▁reuben	-10.9615
▁riviera	-10.9615
▁santantonio	-10.9615
▁sensitive	-10.9615
▁shelby	-10.9615
▁storage	-10.9615
▁supply	-10.9615
▁tobias	-10.9615
▁tramp	-10.9615
▁turtle	-10.9615
▁ursula	-10.9615
▁valuable	-10.9615
▁vasquez	-10.9615
▁vronsky	-10.9615
▁warrensmith	-10.9615
▁widow	-10.9615
▁wisdom	-10.9615
▁worid	-10.9615
▁yaahh	-10.9615
▁ankle	-10.9615
▁bankrupt	-10.9615
▁breach	-10.9615
▁clamoring	-10.9615
▁craving	-10.9615
▁crunch	-10.9615
▁cuff	-10.9615
▁cultural	-10.9615
▁jingling	-10.9615
▁knives	-10.9615
▁lambert	-10.9615
▁mcbride	-10.9615
▁polite	-10.9615
▁scientist	-10.9615
▁similar	-10.9615
▁sperm	-10.9615
▁telepath	-10.9615
▁throne	-10.9615
▁imitating	-10.9615
▁intel	-10.9615
▁cootie	-10.9615
▁millionaire	-10.9615
▁nigger	-10.9615
▁oohwhee	-10.9615
▁jingle	-10.9615
▁brenda	-10.9615
▁eighteen	-10.9615
▁encounter	-10.9615
▁susie	-10.9615
▁karoli	-10.9615
▁swift	-10.9615
▁whining	-10.9615
▁minimum	-10.9615
▁montana	-10.9615
▁clink	-10.9615
▁petunia	-10.9615
▁science	-10.9615
▁trolley	-10.9615
▁salvation	-10.9615
▁briefcase	-10.9615
▁mcduff	-10.9615
▁preparations	-10.9615
▁depressed	-10.9615
▁bracelet	-10.9616
▁cairo	-10.9616
▁beware	-10.9616
▁shuffl	-10.9616
▁thanksgiving	-10.9616
▁sheep	-10.9616
▁conduct	-10.9616
▁instructions	-10.9616
▁proposition	-10.9616
▁edition	-10.9616
▁lunatic	-10.9616
▁display	-10.9616
▁golf	-10.9616
▁rising	-10.9616
▁chute	-10.9616
▁biological	-10.9616
▁broomball	-10.9616
▁taylor	-10.9616
▁multi	-10.9616
▁random	-10.9616
▁flashlight	-10.9616
▁departure	-10.9616
▁profile	-10.9616
▁steam	-10.9616
▁grip	-10.9616
▁item	-10.9616
▁francis	-10.9616
▁jeanpierre	-10.9616
▁organized	-10.9616
▁finley	-10.9616
▁cattle	-10.9616
▁linda	-10.9616
▁temple	-10.9616
▁snapping	-10.9616
▁visualize	-10.9616
▁misery	-10.9616
▁specifically	-10.9616
▁snuck	-10.9616
▁economic	-10.9616
▁goose	-10.9616
▁catherine	-10.9616
▁feminine	-10.9616
▁pitts	-10.9616
▁tempest	-10.9617
▁litter	-10.9617
▁whatre	-10.9617
▁seventeen	-10.9617
▁category	-10.9617
▁raising	-10.9617
▁overnight	-10.9617
▁bingo	-10.9617
▁upside	-10.9617
▁duper	-10.9617
▁shiro	-10.9617
▁analyst	-10.9617
▁truce	-10.9617
▁betcha	-10.9617
▁frustrated	-10.9617
▁robot	-10.9617
▁remarkable	-10.9617
▁happier	-10.9617
▁appropriate	-10.9617
▁embrace	-10.9617
▁mutters	-10.9617
▁vietnam	-10.9617
▁shade	-10.9618
▁passionate	-10.9618
▁leadership	-10.9618
▁revolutionary	-10.9618
ndez	-10.9618
▁dwell	-10.9618
▁atom	-10.9618
▁jessie	-10.9618
▁foil	-10.9619
▁skull	-10.9619
▁psychic	-10.9619
▁attractive	-10.9619
▁raw	-10.9619
▁morality	-10.9619
▁jocko	-10.9619
▁whine	-10.9619
▁franklin	-10.9619
▁cubes	-10.9619
▁stake	-10.9619
chard	-10.962
▁abo	-10.962
▁instructor	-10.962
▁graceland	-10.9621
▁marita	-10.9621
▁kansas	-10.9621
▁tooth	-10.9621
▁affection	-10.9622
▁onion	-10.9622
▁tries	-10.9622
▁carried	-10.9622
▁ninety	-10.9622
▁overwhelmed	-10.9622
▁christianity	-10.9623
▁jeb	-10.9623
▁chapter	-10.9623
▁announcement	-10.9623
▁slightly	-10.9623
▁micky	-10.9623
▁attraction	-10.9623
▁basement	-10.9625
▁coverage	-10.9625
art	-10.9625
▁yea	-10.9625
▁chairman	-10.9626
▁tor	-10.9626
▁quitting	-10.9626
▁glow	-10.9626
▁hail	-10.9627
▁solo	-10.9627
▁painful	-10.9627
▁haul	-10.9627
▁standby	-10.9628
▁soaked	-10.9628
▁burger	-10.9628
▁metro	-10.9629
▁wr	-10.963
▁lust	-10.963
▁hormones	-10.963
▁corny	-10.963
▁andrey	-10.963
▁consult	-10.9631
▁boob	-10.9632
▁perish	-10.9632
▁gig	-10.9632
▁levin	-10.9633
▁emotionally	-10.9633
that	-10.9633
▁haha	-10.9633
▁surrounding	-10.9633
▁designer	-10.9633
▁taller	-10.9634
▁disarm	-10.9635
▁glove	-10.9635
▁boxers	-10.9636
▁fearless	-10.9636
▁rejected	-10.9636
▁determined	-10.9637
▁creepy	-10.9638
▁bakery	-10.9639
▁hacking	-10.9642
▁tax	-10.9642
▁sickness	-10.9645
▁delighted	-10.9646
▁formal	-10.9647
▁graduate	-10.9647
▁clanging	-10.9647
▁unto	-10.9648
▁discussion	-10.9649
▁informed	-10.965
▁wit	-10.9651
▁bookie	-10.9653
▁threatening	-10.9654
▁seal	-10.9657
▁mistaken	-10.9658
▁prop	-10.9659
▁viper	-10.966
▁fuckin	-10.9662
▁desperately	-10.9663
▁stain	-10.9663
▁fold	-10.9664
▁weed	-10.9665
▁shocked	-10.9669
▁crushed	-10.9674
▁dominate	-10.9675
▁inn	-10.9677
▁replaced	-10.9678
▁awarded	-10.9679
▁hitch	-10.9679
▁weirdo	-10.968
▁blamed	-10.9681
▁eunuchs	-10.9682
▁inmates	-10.9682
▁emotions	-10.9682
▁circles	-10.9682
▁developing	-10.9683
▁snarling	-10.9683
▁robe	-10.9683
▁dearest	-10.9687
▁mccl	-10.9689
▁dolly	-10.969
▁mat	-10.9691
▁dock	-10.9693
▁decode	-10.9697
▁adopted	-10.9697
fire	-10.9701
mate	-10.9701
▁kisses	-10.9702
▁judged	-10.9706
▁smokey	-10.9706
▁introduced	-10.9707
▁epi	-10.9707
wept	-10.9708
▁passes	-10.9708
▁cents	-10.9708
▁drones	-10.9708
▁aha	-10.9709
los	-10.971
constructive	-10.9715
▁announced	-10.972
▁sued	-10.9725
▁avoiding	-10.9726
▁hardest	-10.9729
▁winds	-10.9729
▁nervously	-10.9732
▁reel	-10.9733
▁daddys	-10.9734
▁normally	-10.9735
▁skaters	-10.9739
▁sack	-10.974
▁spa	-10.974
ndo	-10.9742
▁mist	-10.9743
▁homeless	-10.9745
▁cling	-10.975
titude	-10.9754
▁smaller	-10.9755
▁claiming	-10.9756
▁awaits	-10.9761
▁twins	-10.9761
▁swallows	-10.9762
▁louie	-10.9764
▁adri	-10.977
▁waiter	-10.9773
▁ditch	-10.9778
▁hoop	-10.9786
▁wishes	-10.9787
▁elections	-10.9788
▁beliefs	-10.9788
▁shrieks	-10.9788
▁salad	-10.9796
▁oneil	-10.9798
ex	-10.9801
like	-10.9807
▁sha	-10.9813
▁chops	-10.9814
▁sniffl	-10.982
▁accepted	-10.9825
ille	-10.9826
▁oblig	-10.9827
▁scrap	-10.9831
hunk	-10.9838
▁degrees	-10.9841
▁flames	-10.9841
▁orphans	-10.9841
▁reported	-10.9843
las	-10.9843
▁honored	-10.9844
▁toes	-10.985
▁fe	-10.9852
▁longest	-10.9857
ray	-10.986
▁blacks	-10.9861
▁selfless	-10.9875
▁appa	-10.9889
▁ai	-10.9894
▁jackie	-10.9894
▁disappears	-10.9897
hy	-10.9899
▁clubs	-10.9905
▁visitors	-10.9925
▁enjoyed	-10.9926
cut	-10.9947
▁genetic	-10.9952
▁fare	-10.9959
▁fixing	-10.9964
▁endless	-10.9968
▁stinks	-10.9973
jan	-10.9983
▁persons	-10.9986
▁hairy	-10.9989
ane	-10.9994
▁sides	-10.9998
▁listened	-11.0008
▁ted	-11.0017
▁dozens	-11.0029
▁fet	-11.0031
ese	-11.0035
ities	-11.0037
▁wo	-11.0042
▁workers	-11.0058
▁shouts	-11.0085
▁now	-11.0096
▁scares	-11.0122
▁catching	-11.0124
tical	-11.013
▁wage	-11.0141
▁praying	-11.0147
▁owed	-11.0154
ji	-11.0158
▁meetings	-11.0161
▁mob	-11.0169
abb	-11.0173
▁dom	-11.0179
▁nicer	-11.0185
▁jerks	-11.0192
▁factions	-11.0198
▁danced	-11.02
▁observ	-11.021
ruce	-11.0222
▁concerns	-11.0223
▁web	-11.0227
gon	-11.0231
▁surprises	-11.0234
▁cleared	-11.0234
▁hom	-11.0235
uda	-11.0245
eur	-11.0255
sky	-11.0272
▁handy	-11.0272
▁proves	-11.028
▁files	-11.0285
can	-11.0294
rated	-11.0302
▁freaks	-11.0306
lect	-11.0314
star	-11.0321
▁paths	-11.0329
ual	-11.0342
▁rag	-11.035
burg	-11.0351
▁gardens	-11.0352
▁ven	-11.0363
▁lecture	-11.0375
▁fears	-11.0381
▁kai	-11.0391
▁labs	-11.0392
van	-11.0396
▁gl	-11.0401
master	-11.0442
▁hospitals	-11.0457
▁operations	-11.0467
logical	-11.0477
bre	-11.0487
ory	-11.0493
▁strikes	-11.0496
▁secrets	-11.0503
▁les	-11.051
ins	-11.0512
▁wars	-11.0513
▁ward	-11.053
▁missy	-11.0544
▁produce	-11.0559
ple	-11.0582
ids	-11.0604
▁officials	-11.0605
aging	-11.063
▁jeans	-11.069
▁marriages	-11.0717
▁helps	-11.0734
▁hopeless	-11.0739
▁systems	-11.0773
anche	-11.0785
con	-11.0791
▁actions	-11.0806
bb	-11.081
▁machines	-11.0829
▁par	-11.0838
▁hurting	-11.0841
hipped	-11.0851
▁ladys	-11.0873
▁courts	-11.0883
bit	-11.0884
▁grandmas	-11.0888
ii	-11.0898
era	-11.0911
▁chooses	-11.0917
▁rounds	-11.0918
▁tops	-11.0919
▁cons	-11.0931
▁brut	-11.0955
▁for	-11.0962
oro	-11.101
▁dada	-11.1011
nce	-11.102
▁model	-11.1043
▁spec	-11.1047
▁zeros	-11.1058
ound	-11.1061
shed	-11.1073
od	-11.1079
▁click	-11.1079
▁swallow	-11.1081
▁ideal	-11.1085
▁stab	-11.1091
▁carpet	-11.1094
▁radical	-11.1094
▁preview	-11.1095
▁communist	-11.1095
▁facial	-11.1096
▁will	-11.1097
▁custom	-11.1097
▁root	-11.11
▁session	-11.1102
▁reference	-11.1103
▁greek	-11.1103
▁twin	-11.1109
▁refugee	-11.111
▁resident	-11.111
▁shipment	-11.111
▁airline	-11.1111
▁await	-11.1114
ky	-11.1115
▁tool	-11.1116
▁complaint	-11.1118
▁curl	-11.1132
cra	-11.1139
▁dost	-11.1159
tial	-11.1163
ise	-11.1168
▁dam	-11.1181
▁brief	-11.1185
oi	-11.1187
▁accidents	-11.1196
fortunately	-11.12
▁ton	-11.1207
▁lip	-11.1214
▁threaten	-11.1216
▁houses	-11.1217
▁cloth	-11.1231
arian	-11.1235
▁lurk	-11.1235
▁andre	-11.1235
▁murmur	-11.1238
gie	-11.124
hearted	-11.1243
▁betray	-11.1247
burn	-11.1249
made	-11.1249
▁experiment	-11.1251
▁rap	-11.1252
load	-11.1252
▁reform	-11.1254
point	-11.1254
nuts	-11.1255
temporary	-11.1258
child	-11.1259
sources	-11.1259
plant	-11.1259
american	-11.126
speed	-11.126
heads	-11.126
▁arrange	-11.1261
while	-11.1261
▁negotiate	-11.1261
minute	-11.1261
home	-11.1262
▁ferr	-11.1262
water	-11.1263
▁locate	-11.1263
▁determine	-11.1264
▁unexpected	-11.1264
▁detect	-11.1264
▁receive	-11.1265
▁neat	-11.1265
▁guilt	-11.1265
▁eternal	-11.1266
▁thorough	-11.1267
▁brid	-11.1267
▁definit	-11.1267
hour	-11.1268
▁unfortunate	-11.1268
new	-11.1268
▁fog	-11.1269
▁dang	-11.127
▁numb	-11.1271
roll	-11.1271
▁paw	-11.1273
yearold	-11.1273
▁karenin	-11.1274
▁walrus	-11.1274
dog	-11.1274
orr	-11.1274
▁harris	-11.1274
▁mechanic	-11.1274
▁possess	-11.1275
▁convention	-11.1275
▁fiction	-11.1275
lalala	-11.1275
▁manchuria	-11.1276
term	-11.1277
▁corn	-11.1277
where	-11.1277
▁defect	-11.1279
▁violat	-11.1279
▁mont	-11.1279
kull	-11.1281
mperial	-11.1281
▁memo	-11.1282
▁tyler	-11.1282
▁abroad	-11.1282
▁aggression	-11.1282
▁alcazar	-11.1282
▁archduke	-11.1282
▁architect	-11.1282
▁argument	-11.1282
▁arrival	-11.1282
▁baggage	-11.1282
▁ballerina	-11.1282
▁behavior	-11.1282
▁bradshaw	-11.1282
▁brooklyn	-11.1282
▁bumblebee	-11.1282
▁canvas	-11.1282
▁clutter	-11.1282
▁cocktail	-11.1282
▁context	-11.1282
▁demonstration	-11.1282
▁dessert	-11.1282
▁earthquake	-11.1282
▁easiest	-11.1282
▁economy	-11.1282
▁eeew	-11.1282
▁estimate	-11.1282
▁explanation	-11.1282
▁flavor	-11.1282
▁flotilla	-11.1282
▁gaijin	-11.1282
▁ganthet	-11.1282
▁garbage	-11.1282
▁granddaughter	-11.1282
▁hallucinati	-11.1282
▁harbour	-11.1282
▁hayride	-11.1282
▁helicopter	-11.1282
▁henderson	-11.1282
▁hendry	-11.1282
▁honeymoon	-11.1282
▁hulett	-11.1282
▁identification	-11.1282
▁independent	-11.1282
▁infant	-11.1282
▁infection	-11.1282
▁infrared	-11.1282
▁ingredient	-11.1282
▁initial	-11.1282
▁inspiring	-11.1282
▁intimate	-11.1282
▁isolation	-11.1282
▁jackpot	-11.1282
▁janitor	-11.1282
▁kebab	-11.1282
▁kristine	-11.1282
▁league	-11.1282
▁lipstick	-11.1282
▁loudspeaker	-11.1282
▁malibu	-11.1282
▁mccawley	-11.1282
▁mercedes	-11.1282
▁merrell	-11.1282
▁mirhossein	-11.1282
▁necklace	-11.1282
▁obedient	-11.1282
▁onstage	-11.1282
▁orlando	-11.1282
▁ovaries	-11.1282
▁overseas	-11.1282
▁oxygen	-11.1282
▁password	-11.1282
▁pentagon	-11.1282
▁picasso	-11.1282
▁pienaar	-11.1282
▁prevail	-11.1282
▁probation	-11.1282
▁ralph	-11.1282
▁ranakar	-11.1282
▁regime	-11.1282
▁reinhardt	-11.1282
▁resuscitate	-11.1282
▁robicheaux	-11.1282
▁scrum	-11.1282
▁seoul	-11.1282
▁shanghai	-11.1282
▁shield	-11.1282
▁slick	-11.1282
▁slut	-11.1282
▁snezhana	-11.1282
▁soporific	-11.1282
▁spritze	-11.1282
▁squash	-11.1282
▁struthers	-11.1282
▁submarine	-11.1282
▁supermarket	-11.1282
▁surveillance	-11.1282
▁syrup	-11.1282
▁teresa	-11.1282
▁terranova	-11.1282
▁tragedy	-11.1282
▁tyranny	-11.1282
▁warfare	-11.1282
▁welch	-11.1282
▁wrath	-11.1282
▁xavier	-11.1282
▁yacov	-11.1282
▁yawpy	-11.1282
▁yevtushenko	-11.1282
▁analysis	-11.1282
▁congress	-11.1282
▁depth	-11.1282
▁echoing	-11.1282
▁gerard	-11.1282
▁google	-11.1282
▁gordon	-11.1282
▁motel	-11.1282
▁nashville	-11.1282
▁norway	-11.1282
▁savior	-11.1282
▁techno	-11.1282
▁weasel	-11.1282
▁wretch	-11.1282
▁coincidence	-11.1282
▁electro	-11.1282
▁envy	-11.1282
▁galahd	-11.1282
▁harvey	-11.1282
▁holland	-11.1282
▁marcus	-11.1282
▁microphone	-11.1282
▁unanimous	-11.1282
▁vessel	-11.1282
▁warehouse	-11.1282
▁gently	-11.1282
▁juilliard	-11.1282
▁autograph	-11.1282
▁buddies	-11.1282
▁dragged	-11.1282
▁joust	-11.1282
▁josie	-11.1282
▁tahoe	-11.1282
▁erotic	-11.1282
▁austria	-11.1282
▁ceiling	-11.1282
▁gomez	-11.1282
▁humiliating	-11.1282
▁mactaggert	-11.1282
▁yelp	-11.1282
▁institute	-11.1282
▁basis	-11.1282
▁fluffy	-11.1282
▁continent	-11.1282
▁nitro	-11.1282
▁margaret	-11.1282
▁urge	-11.1282
▁authorities	-11.1282
▁alwavs	-11.1282
▁arizona	-11.1282
▁compassion	-11.1282
▁outrageous	-11.1282
▁gogol	-11.1282
▁mixture	-11.1282
▁alternative	-11.1282
▁beaver	-11.1282
▁robinson	-11.1282
▁denise	-11.1282
▁fiji	-11.1282
▁conservative	-11.1282
▁scheme	-11.1282
▁esther	-11.1282
▁gallery	-11.1282
▁nipples	-11.1282
▁patron	-11.1282
▁ginger	-11.1282
▁operating	-11.1282
▁denmark	-11.1283
▁francine	-11.1283
▁connie	-11.1283
▁bacon	-11.1283
▁crucial	-11.1283
▁update	-11.1283
▁boundaries	-11.1283
▁sarah	-11.1283
▁jabu	-11.1283
▁bernard	-11.1283
▁veteran	-11.1283
▁bertie	-11.1283
▁comedian	-11.1283
▁define	-11.1283
▁kilman	-11.1283
▁sawyer	-11.1283
▁crane	-11.1283
▁rogue	-11.1283
▁beatles	-11.1283
▁tango	-11.1283
▁glide	-11.1283
▁rash	-11.1283
ehran	-11.1283
▁decade	-11.1283
▁globo	-11.1283
▁roadblock	-11.1283
▁banner	-11.1283
▁loyalty	-11.1283
▁brits	-11.1283
▁heir	-11.1283
▁twentyfive	-11.1284
▁filmore	-11.1284
▁randle	-11.1284
▁flaw	-11.1284
▁tutor	-11.1284
▁baba	-11.1284
▁frequency	-11.1284
▁pregnancy	-11.1284
▁tension	-11.1284
▁stove	-11.1284
▁youyou	-11.1284
▁delta	-11.1284
▁stump	-11.1284
▁agenda	-11.1284
▁percy	-11.1284
▁educated	-11.1284
▁executed	-11.1284
▁arise	-11.1284
juven	-11.1284
▁keen	-11.1284
▁after	-11.1284
▁joan	-11.1284
▁reverse	-11.1284
▁keon	-11.1284
▁activity	-11.1284
▁mcdonald	-11.1284
▁variety	-11.1284
▁judging	-11.1284
▁antonio	-11.1284
▁mustache	-11.1284
▁blueberry	-11.1284
▁extend	-11.1285
▁limo	-11.1285
▁facebook	-11.1285
▁tanya	-11.1285
▁courtney	-11.1285
▁roaches	-11.1285
▁hex	-11.1286
▁pushkin	-11.1286
▁stunt	-11.1286
▁minus	-11.1286
▁pinch	-11.1286
▁alison	-11.1286
▁lining	-11.1286
▁transmitter	-11.1286
▁rapid	-11.1287
▁trembling	-11.1287
▁stammering	-11.1287
▁iike	-11.1287
▁isolated	-11.1288
▁relieved	-11.1288
▁hallway	-11.1288
▁shipping	-11.1288
▁recon	-11.1288
▁factionless	-11.1288
▁exposed	-11.1288
▁swaddle	-11.1288
▁concede	-11.1288
▁greene	-11.1288
▁marina	-11.1288
▁conquer	-11.1289
▁bishop	-11.1289
▁patch	-11.1289
▁scalp	-11.129
▁bonus	-11.129
▁leap	-11.129
alalala	-11.129
▁maur	-11.129
▁dropping	-11.129
▁medication	-11.129
▁sacred	-11.129
▁disappointment	-11.1291
▁collapsed	-11.1291
▁spain	-11.1291
▁kitten	-11.1292
▁pigs	-11.1292
▁iv	-11.1293
▁dna	-11.1293
▁arrow	-11.1293
▁colony	-11.1293
▁engagement	-11.1293
▁trish	-11.1293
▁oliver	-11.1294
▁steer	-11.1295
▁increase	-11.1295
▁squawking	-11.1295
▁ruff	-11.1295
▁development	-11.1295
▁sore	-11.1296
▁monte	-11.1296
▁brownies	-11.1296
▁toure	-11.1296
▁kidney	-11.1296
▁wealthy	-11.1297
mmel	-11.1297
▁canal	-11.1297
▁forgiveness	-11.1297
▁copies	-11.1298
▁plead	-11.1298
▁frame	-11.1299
▁partiz	-11.1299
▁lilies	-11.1299
▁rocket	-11.1299
▁ancestors	-11.13
▁minstrels	-11.13
▁rooty	-11.13
▁bouncing	-11.13
▁penny	-11.1301
▁valve	-11.1301
▁carbs	-11.1301
▁sadness	-11.1302
▁everyday	-11.1303
▁whack	-11.1303
vous	-11.1304
▁peeking	-11.1304
▁grind	-11.1304
▁replacement	-11.1305
▁inspired	-11.1306
▁triple	-11.1307
▁halt	-11.1307
▁revealed	-11.1307
▁wrecked	-11.1307
▁located	-11.1308
▁augusta	-11.1311
▁wanda	-11.1311
▁tee	-11.1312
ption	-11.1312
▁reformed	-11.1313
▁swallowed	-11.1313
▁tag	-11.1313
▁objection	-11.1313
▁slayer	-11.1313
tom	-11.1314
▁films	-11.1314
▁hooting	-11.1315
▁edo	-11.1315
▁spank	-11.1315
▁muffin	-11.1315
▁govern	-11.1318
▁shoved	-11.1318
▁booma	-11.132
▁preaching	-11.1321
▁havin	-11.1324
▁paula	-11.1324
▁diver	-11.1325
aid	-11.1326
▁smartest	-11.1326
▁affected	-11.1326
▁disturbed	-11.1327
▁vouch	-11.1329
▁graphics	-11.133
▁balloons	-11.133
▁hopeful	-11.133
ladder	-11.1332
▁poly	-11.1332
vus	-11.1333
▁dispose	-11.1333
▁gardener	-11.1334
▁banks	-11.1335
▁followers	-11.1335
tients	-11.1337
▁blaze	-11.1337
tive	-11.1338
▁packer	-11.1339
▁setup	-11.134
▁detailed	-11.1342
▁kickin	-11.1343
▁knot	-11.1344
▁sleeve	-11.1345
▁depending	-11.1346
▁regarding	-11.1347
▁showtime	-11.1348
▁willy	-11.1349
▁scored	-11.135
▁gro	-11.1351
izer	-11.1354
▁buses	-11.1355
▁handful	-11.1356
▁homeland	-11.1357
▁blocked	-11.1359
▁hint	-11.1361
▁dorris	-11.1361
▁strays	-11.1362
▁chased	-11.1362
▁barks	-11.1362
▁exhibit	-11.1366
▁tow	-11.1367
▁burnt	-11.1375
▁tu	-11.1376
ied	-11.1376
▁jeweler	-11.1377
▁wholl	-11.1379
▁interrupting	-11.138
▁sneaking	-11.138
▁icon	-11.1387
▁hog	-11.1387
▁mocking	-11.1388
▁loudly	-11.1389
▁negotiations	-11.1393
▁clatters	-11.1394
▁dreamt	-11.1394
gan	-11.1395
▁medi	-11.14
ado	-11.1402
▁addie	-11.1403
▁awaken	-11.1407
▁payment	-11.1421
▁slave	-11.1422
▁posters	-11.1422
▁pancakes	-11.1425
▁sweating	-11.1432
▁wayne	-11.1453
▁residents	-11.1457
▁refugees	-11.1457
▁customs	-11.1457
▁complaints	-11.1458
ridge	-11.146
▁reminded	-11.1461
▁discre	-11.1463
luxe	-11.1467
self	-11.1468
▁bothered	-11.1471
▁ram	-11.1474
▁rev	-11.1475
▁sonic	-11.1486
▁debts	-11.149
▁peer	-11.1495
▁strings	-11.1497
▁searching	-11.15
▁inc	-11.1501
ison	-11.1503
show	-11.1504
▁zu	-11.1506
▁authoriz	-11.1506
▁johns	-11.1511
▁tease	-11.1512
ost	-11.1513
▁fucked	-11.1523
▁explore	-11.1535
▁dial	-11.1535
▁shortly	-11.1541
▁squ	-11.1552
▁scouts	-11.1553
▁blessings	-11.1553
▁terrorists	-11.1553
▁indians	-11.1554
▁posted	-11.1562
▁explained	-11.1568
▁cass	-11.1572
ware	-11.1573
▁clippe	-11.1573
ute	-11.1578
▁filling	-11.1579
▁rome	-11.1581
▁handled	-11.1583
▁options	-11.1585
▁rabbits	-11.1585
▁nails	-11.1587
▁respected	-11.1588
ye	-11.1592
▁detonate	-11.1616
▁limits	-11.1617
▁customers	-11.162
▁jud	-11.1629
▁destroying	-11.1631
▁mortals	-11.1649
▁sailors	-11.165
▁prayers	-11.1654
▁presented	-11.1663
list	-11.1664
▁dung	-11.1671
▁penn	-11.1672
▁deb	-11.1677
eral	-11.1681
▁creatures	-11.1681
▁nerves	-11.1681
▁insists	-11.1682
▁images	-11.1684
▁casters	-11.1692
▁visited	-11.17
▁posting	-11.171
ised	-11.1723
▁acted	-11.1726
▁reviews	-11.1748
▁pockets	-11.1749
▁covers	-11.1767
▁pra	-11.1768
▁coats	-11.1778
▁causes	-11.1796
▁sells	-11.1803
▁ducks	-11.1808
▁drawings	-11.1812
▁getty	-11.1829
▁savings	-11.1844
▁plates	-11.1845
▁my	-11.185
lia	-11.1854
god	-11.1865
▁sole	-11.1869
▁leti	-11.1873
▁generations	-11.1877
▁scores	-11.1877
▁zip	-11.1882
▁devils	-11.1909
▁buyer	-11.1912
▁mas	-11.1961
▁ange	-11.1962
verv	-11.1967
hold	-11.1971
▁advise	-11.1973
▁demands	-11.1975
▁outsider	-11.1975
▁kar	-11.1982
▁decides	-11.2011
▁nurses	-11.2012
ix	-11.2023
▁helpless	-11.2033
▁suspects	-11.204
▁pops	-11.2076
berg	-11.2085
af	-11.2103
▁goody	-11.2103
▁holes	-11.2106
▁skates	-11.2107
▁straighten	-11.2112
mons	-11.2114
woman	-11.2158
▁opinions	-11.2173
tman	-11.2196
▁bases	-11.2204
▁dur	-11.2216
▁height	-11.2232
▁franks	-11.2233
▁wmi	-11.2247
▁cooper	-11.2259
▁is	-11.2266
▁albums	-11.2272
ler	-11.2275
lan	-11.2276
col	-11.2281
▁pers	-11.2304
there	-11.2306
▁rec	-11.2313
▁ahhh	-11.2316
▁princes	-11.2327
▁forms	-11.2351
▁interviews	-11.2375
come	-11.2376
nda	-11.2376
card	-11.238
▁sights	-11.2401
▁oo	-11.2402
▁captains	-11.2411
▁refer	-11.2424
▁cal	-11.2429
▁clearing	-11.2429
▁exists	-11.244
▁concerts	-11.244
▁logic	-11.2452
occupied	-11.2459
chen	-11.2462
▁cared	-11.2472
state	-11.2474
poli	-11.2479
ob	-11.2491
long	-11.251
▁bah	-11.2533
mer	-11.2534
▁lighting	-11.2555
▁decisions	-11.2575
▁ana	-11.2588
▁ec	-11.2593
ei	-11.2605
▁rage	-11.2605
aw	-11.2612
abin	-11.2626
rate	-11.2645
▁kr	-11.2645
owing	-11.2647
cker	-11.2667
tre	-11.2675
▁fields	-11.2676
▁tonys	-11.2678
▁ang	-11.2699
oration	-11.2705
▁areas	-11.2711
▁banker	-11.2716
tumbling	-11.2731
▁verse	-11.2752
nie	-11.2753
nder	-11.2762
▁wen	-11.2765
get	-11.2766
▁sayin	-11.2784
▁qui	-11.2792
▁tellin	-11.2816
ces	-11.2828
iest	-11.285
atch	-11.2865
▁rep	-11.2868
▁scale	-11.2873
▁ups	-11.2877
hine	-11.2891
▁app	-11.2896
city	-11.29
▁bos	-11.29
▁moo	-11.291
▁differences	-11.2952
▁drum	-11.296
vie	-11.2974
▁singers	-11.2978
rat	-11.2981
▁jewel	-11.2983
▁vocal	-11.2986
via	-11.299
▁offers	-11.3004
▁flush	-11.3005
lobe	-11.3007
jama	-11.3026
ats	-11.3035
tz	-11.3037
▁critic	-11.3055
▁flights	-11.3056
▁scramble	-11.3058
▁pac	-11.3058
▁engines	-11.3059
▁cock	-11.3065
▁cough	-11.3077
▁whisper	-11.3077
▁upsta	-11.3079
▁groan	-11.3081
▁explode	-11.3082
▁tent	-11.3085
▁barb	-11.3085
▁comp	-11.3091
▁recruit	-11.3094
▁sausage	-11.3094
▁privilege	-11.3097
dressed	-11.31
▁initiate	-11.3102
▁manuscript	-11.3102
▁stream	-11.3102
▁burst	-11.3104
▁spivey	-11.3107
▁chopper	-11.3108
▁pancake	-11.311
▁sweep	-11.3111
▁audi	-11.3114
dance	-11.3116
▁kidnapper	-11.3117
▁folk	-11.3124
▁dive	-11.3142
▁controls	-11.3156
▁strap	-11.3158
▁grounds	-11.3159
rin	-11.316
▁skater	-11.3162
▁chart	-11.3164
▁pawn	-11.3174
ania	-11.3193
▁hunter	-11.3196
▁fal	-11.3197
▁disrespect	-11.32
▁embarrass	-11.32
ries	-11.3201
▁haunt	-11.3202
ork	-11.3206
▁preach	-11.3208
▁cone	-11.3208
▁slay	-11.3209
ana	-11.3217
▁tuck	-11.3218
▁receiv	-11.3228
▁mourn	-11.3231
▁thrill	-11.3238
▁creak	-11.3239
▁prepar	-11.3242
▁sim	-11.3242
▁clang	-11.3242
school	-11.3244
▁toll	-11.3249
▁translat	-11.325
▁register	-11.325
▁wreck	-11.3251
▁reveal	-11.3251
▁dismiss	-11.3252
▁elli	-11.3253
▁shoo	-11.3255
break	-11.3256
craft	-11.3256
origin	-11.3257
shot	-11.3258
▁prescribe	-11.3258
▁amuse	-11.3259
mortal	-11.3259
dollar	-11.3259
front	-11.326
patient	-11.326
mouth	-11.326
wife	-11.326
glasses	-11.3261
▁gir	-11.3261
ified	-11.3262
name	-11.3263
▁reject	-11.3263
▁plea	-11.3264
▁wealth	-11.3264
weight	-11.3264
ckey	-11.3265
▁exclusive	-11.3265
lapping	-11.3265
bury	-11.3266
▁brigad	-11.3266
▁promote	-11.3266
▁smuggl	-11.3267
cover	-11.3267
▁clark	-11.3268
▁blond	-11.3268
oa	-11.3269
▁regress	-11.327
▁precise	-11.327
▁offend	-11.327
▁norm	-11.3271
▁pape	-11.3273
yeah	-11.3274
▁stitch	-11.3274
▁wav	-11.3274
chat	-11.3274
▁tux	-11.3275
▁leni	-11.3275
▁adjust	-11.3276
▁jock	-11.3277
▁entertain	-11.3277
▁julian	-11.3277
▁champ	-11.3278
▁depart	-11.3278
▁grisha	-11.3279
▁marshal	-11.3279
aught	-11.3279
▁distribut	-11.3279
azz	-11.3279
▁leavin	-11.3279
bro	-11.3279
▁addict	-11.328
▁allerg	-11.328
elected	-11.328
▁ou	-11.328
▁babysit	-11.3281
▁makin	-11.3281
▁luther	-11.3281
▁glamo	-11.3281
▁afghan	-11.3282
▁ethno	-11.3282
responsibilities	-11.3282
▁accurate	-11.3282
▁acquaintance	-11.3282
▁activities	-11.3282
▁announcing	-11.3282
▁anxiety	-11.3282
▁auction	-11.3282
▁barriers	-11.3282
▁benjamin	-11.3282
▁bofferd	-11.3282
▁brazil	-11.3282
▁brezhnev	-11.3282
▁brunch	-11.3282
▁bypass	-11.3282
▁carnival	-11.3282
▁cautious	-11.3282
▁chemical	-11.3282
▁cheoseon	-11.3282
▁chipmunk	-11.3282
▁cindy	-11.3282
▁circuit	-11.3282
▁cleveland	-11.3282
▁clumsy	-11.3282
▁clutch	-11.3282
▁cockroach	-11.3282
▁contempt	-11.3282
▁crib	-11.3282
▁crust	-11.3282
▁dakota	-11.3282
▁daphne	-11.3282
▁deidre	-11.3282
▁description	-11.3282
▁disguise	-11.3282
▁dolores	-11.3282
▁donnahew	-11.3282
▁drautos	-11.3282
▁duguav	-11.3282
▁effmann	-11.3282
▁elizabeth	-11.3282
▁entrance	-11.3282
▁evervthing	-11.3282
▁exploding	-11.3282
▁exposure	-11.3282
▁feather	-11.3282
▁fimple	-11.3282
▁fingerprints	-11.3282
▁fontaine	-11.3282
▁frequently	-11.3282
▁gasoline	-11.3282
▁grape	-11.3282
▁greenbrier	-11.3282
▁grigori	-11.3282
▁gurls	-11.3282
▁handcuff	-11.3282
▁hieroglyphics	-11.3282
▁hukilau	-11.3282
▁incapable	-11.3282
▁insidious	-11.3282
▁instance	-11.3282
▁investigating	-11.3282
▁invisible	-11.3282
▁irrelevant	-11.3282
▁ismay	-11.3282
▁jagger	-11.3282
▁jetblue	-11.3282
▁kathleen	-11.3282
▁kingsglaive	-11.3282
▁kostya	-11.3282
▁kyeta	-11.3282
▁lamaze	-11.3282
▁leningrad	-11.3282
▁levade	-11.3282
▁lifestyle	-11.3282
▁lillian	-11.3282
▁louisiana	-11.3282
▁maintenance	-11.3282
▁mcansh	-11.3282
▁melody	-11.3282
▁microwave	-11.3282
▁monroe	-11.3282
▁murdock	-11.3282
▁muslim	-11.3282
▁mystery	-11.3282
▁namaste	-11.3282
▁nikolai	-11.3282
▁nonetheless	-11.3282
▁odessa	-11.3282
▁offensive	-11.3282
▁opponent	-11.3282
▁ordnance	-11.3282
▁orinoco	-11.3282
▁outnumbered	-11.3282
▁paramedic	-11.3282
▁parole	-11.3282
▁pelna	-11.3282
▁penthouse	-11.3282
▁pivot	-11.3282
▁population	-11.3282
▁practicing	-11.3282
▁protein	-11.3282
▁provoke	-11.3282
▁railroad	-11.3282
▁reconsider	-11.3282
▁resolve	-11.3282
▁rewrite	-11.3282
▁ritual	-11.3282
▁rubbish	-11.3282
▁schwow	-11.3282
▁scotch	-11.3282
▁scotland	-11.3282
▁seizure	-11.3282
▁shakespeare	-11.3282
▁shepherd	-11.3282
▁sorokina	-11.3282
▁strategy	-11.3282
▁superhero	-11.3282
▁suppress	-11.3282
▁sydney	-11.3282
▁syllabus	-11.3282
▁therapist	-11.3282
▁trauma	-11.3282
▁tucson	-11.3282
▁turmoil	-11.3282
▁ultrasound	-11.3282
▁unbearable	-11.3282
▁uncharted	-11.3282
▁unleash	-11.3282
▁vartan	-11.3282
▁veronique	-11.3282
▁wheelchair	-11.3282
▁whickering	-11.3282
▁whickers	-11.3282
▁wiggling	-11.3282
▁wimps	-11.3282
▁yoohoo	-11.3282
▁youtube	-11.3282
▁artificial	-11.3282
▁bapti	-11.3282
▁beverly	-11.3282
▁blooper	-11.3282
▁chocki	-11.3282
▁conceal	-11.3282
▁cotton	-11.3282
▁disagree	-11.3282
▁disqualifi	-11.3282
▁esteem	-11.3282
▁flutter	-11.3282
▁gavin	-11.3282
▁gennie	-11.3282
▁gospel	-11.3282
▁harvest	-11.3282
▁insult	-11.3282
▁juicy	-11.3282
▁lettuce	-11.3282
▁lvovich	-11.3282
▁maddox	-11.3282
▁mitch	-11.3282
▁nonstop	-11.3282
▁prints	-11.3282
▁psychopath	-11.3282
▁safeguard	-11.3282
▁scope	-11.3282
▁tackle	-11.3282
▁teii	-11.3282
▁twitter	-11.3282
▁adapt	-11.3282
▁precision	-11.3282
▁sharon	-11.3282
▁splend	-11.3282
▁swat	-11.3282
▁opportunities	-11.3282
▁promoting	-11.3282
▁resort	-11.3282
▁serum	-11.3282
▁staple	-11.3282
▁calorie	-11.3282
▁enlighten	-11.3282
▁hippie	-11.3282
▁klein	-11.3282
▁oven	-11.3282
▁racing	-11.3282
▁reopen	-11.3282
▁shuttle	-11.3282
▁worms	-11.3282
▁calendar	-11.3282
▁hoyos	-11.3282
▁rico	-11.3282
▁ryan	-11.3282
▁untie	-11.3282
▁gulp	-11.3282
▁vows	-11.3282
▁naomi	-11.3282
▁sideburns	-11.3282
▁kasper	-11.3282
▁troublemakers	-11.3282
▁defence	-11.3282
▁yummy	-11.3282
▁thudding	-11.3282
▁waitress	-11.3282
▁pigeon	-11.3282
▁pistol	-11.3282
▁huddle	-11.3282
▁assessment	-11.3282
▁disorder	-11.3282
▁stamp	-11.3282
▁forecast	-11.3282
▁introduction	-11.3282
▁tornado	-11.3282
andy	-11.3282
▁jerome	-11.3282
▁dialogue	-11.3282
▁omelet	-11.3282
▁titmarch	-11.3282
▁orient	-11.3282
▁bleating	-11.3282
▁method	-11.3282
▁thems	-11.3282
▁arcade	-11.3282
▁apsa	-11.3282
▁bunnies	-11.3282
▁deteriorat	-11.3282
▁hombre	-11.3282
▁jeep	-11.3282
▁argentina	-11.3282
▁chamber	-11.3282
▁rowboat	-11.3282
▁crazier	-11.3282
▁cursing	-11.3282
▁inquir	-11.3282
▁justify	-11.3282
▁profound	-11.3282
▁jelly	-11.3282
▁gracious	-11.3282
▁internship	-11.3282
▁sebastian	-11.3282
▁seattle	-11.3282
▁bolshevik	-11.3282
▁petersburg	-11.3282
▁civilization	-11.3282
▁cheesy	-11.3282
▁importance	-11.3282
▁swine	-11.3282
▁cloak	-11.3282
▁fragile	-11.3282
▁download	-11.3282
▁excessive	-11.3282
▁laptop	-11.3282
▁mushroom	-11.3282
▁timmy	-11.3282
▁northeast	-11.3282
▁urine	-11.3282
▁womb	-11.3282
▁opium	-11.3283
▁liberty	-11.3283
▁strut	-11.3283
▁compound	-11.3283
▁magda	-11.3283
▁mobile	-11.3283
▁napoleon	-11.3283
▁communism	-11.3283
owski	-11.3283
▁denver	-11.3283
▁filter	-11.3283
▁paso	-11.3283
▁portray	-11.3283
▁assistance	-11.3283
ftwa	-11.3283
▁raul	-11.3283
▁depression	-11.3283
▁supple	-11.3283
▁booboo	-11.3283
▁scam	-11.3283
▁snoop	-11.3283
▁persand	-11.3283
▁lothos	-11.3283
▁romance	-11.3283
▁emilia	-11.3283
▁jewelry	-11.3283
▁dickens	-11.3283
▁runnerup	-11.3283
▁sandra	-11.3283
▁operator	-11.3283
▁hiya	-11.3283
▁harsh	-11.3283
▁thinner	-11.3283
▁donate	-11.3283
ounty	-11.3283
▁twentytwo	-11.3283
▁tractor	-11.3283
▁vourself	-11.3283
▁prick	-11.3283
▁hmph	-11.3284
▁anticipation	-11.3284
▁colin	-11.3284
▁courtesan	-11.3284
▁tumor	-11.3284
▁sponsorship	-11.3284
acial	-11.3284
▁slot	-11.3284
▁beings	-11.3284
▁civilized	-11.3284
▁rican	-11.3284
▁flatter	-11.3284
▁pause	-11.3284
▁finance	-11.3284
▁championship	-11.3284
▁controversy	-11.3284
▁bandaid	-11.3284
▁bindle	-11.3284
▁canine	-11.3284
▁prank	-11.3284
▁buddha	-11.3284
▁oak	-11.3284
▁semion	-11.3284
▁sutton	-11.3284
▁contribution	-11.3285
▁unnatural	-11.3285
▁remark	-11.3285
▁booey	-11.3285
▁addiction	-11.3285
▁distribution	-11.3285
▁peach	-11.3285
▁cholesterol	-11.3285
▁whoohoo	-11.3285
▁atta	-11.3285
▁kung	-11.3285
▁vibe	-11.3285
▁stroke	-11.3285
▁karp	-11.3285
▁sixteen	-11.3285
▁gener	-11.3285
▁savage	-11.3285
▁violation	-11.3285
▁pettinger	-11.3285
▁poof	-11.3285
▁regional	-11.3285
▁hallowed	-11.3286
▁perfume	-11.3286
▁phys	-11.3286
▁cult	-11.3286
▁loner	-11.3286
▁disconnected	-11.3286
▁tendu	-11.3286
▁courageous	-11.3286
▁brotherhood	-11.3286
▁potatoes	-11.3286
▁catalog	-11.3286
▁swan	-11.3287
▁inevitable	-11.3287
▁participate	-11.3287
▁segu	-11.3287
▁structure	-11.3287
▁cities	-11.3287
▁booze	-11.3287
▁yum	-11.3287
▁organic	-11.3287
▁billboard	-11.3287
▁unison	-11.3287
▁battleship	-11.3288
▁twentyone	-11.3288
▁jangling	-11.3288
▁slurping	-11.3288
▁villagers	-11.3288
addle	-11.3288
▁luxury	-11.3288
▁payroll	-11.3288
▁zipper	-11.3288
▁classroom	-11.3288
▁conscious	-11.3289
▁creation	-11.3289
▁forged	-11.3289
▁funky	-11.3289
▁hawaiian	-11.3289
▁torn	-11.3289
▁tripping	-11.3289
▁dripping	-11.329
▁fuss	-11.329
rings	-11.329
▁hazel	-11.329
▁nearby	-11.329
▁satisfied	-11.329
▁zion	-11.3291
▁cher	-11.3291
▁nickel	-11.3291
▁occasionally	-11.3291
▁trim	-11.3291
▁ballad	-11.3291
▁harrison	-11.3291
▁overtime	-11.3292
▁bore	-11.3292
▁lesa	-11.3292
▁popping	-11.3292
▁tomas	-11.3292
▁gull	-11.3293
ulf	-11.3293
▁opposed	-11.3294
▁eine	-11.3294
▁chatting	-11.3294
▁josh	-11.3294
▁shah	-11.3294
▁consist	-11.3295
▁labella	-11.3295
▁duh	-11.3295
▁complexion	-11.3295
▁protective	-11.3295
▁rang	-11.3295
▁stealth	-11.3295
▁passage	-11.3295
▁odor	-11.3296
▁blonde	-11.3296
▁warden	-11.3296
▁pbr	-11.3296
▁cellar	-11.3297
uary	-11.3298
osity	-11.3298
▁hideous	-11.3298
▁decoy	-11.3298
▁balance	-11.3298
▁brace	-11.3298
▁qualified	-11.3298
▁fries	-11.3299
▁accused	-11.3299
▁campus	-11.33
▁bench	-11.33
▁breakdown	-11.33
▁weaponers	-11.33
▁thoroughly	-11.3301
▁pierre	-11.3301
▁immediate	-11.3301
▁screeches	-11.3301
▁controlling	-11.3302
▁leo	-11.3302
leg	-11.3302
▁roman	-11.3303
▁exploded	-11.3303
▁bodyguards	-11.3304
▁supplies	-11.3304
▁ferry	-11.3304
▁narcissist	-11.3305
▁diner	-11.3305
▁accountant	-11.3305
▁ula	-11.3305
▁harass	-11.3305
▁betsy	-11.3305
▁takin	-11.3306
▁approaches	-11.3306
▁frown	-11.3306
▁convicted	-11.3306
▁envelope	-11.3308
▁barf	-11.3308
▁audio	-11.3308
▁gust	-11.3309
▁ves	-11.331
▁sixty	-11.331
▁directly	-11.3311
▁humiliated	-11.3311
▁booby	-11.3311
▁alf	-11.3312
▁temporary	-11.3312
eem	-11.3313
izzi	-11.3313
▁ruthless	-11.3313
▁equally	-11.3315
▁snowman	-11.3315
▁decorate	-11.3315
▁choked	-11.3316
▁reviewer	-11.3316
▁loosen	-11.3318
▁shushing	-11.3319
▁wander	-11.3319
yov	-11.332
▁experimented	-11.332
▁betrayed	-11.332
▁sniffing	-11.3321
▁badged	-11.3321
nb	-11.3322
▁wal	-11.3322
▁goodwill	-11.3323
▁shutting	-11.3324
▁frag	-11.3325
▁losin	-11.3325
▁formation	-11.3326
▁armor	-11.3327
▁cape	-11.3328
ett	-11.3328
ease	-11.3329
▁oughta	-11.3329
▁loop	-11.333
▁haunting	-11.3331
▁controlled	-11.3333
▁dc	-11.3333
▁corrupted	-11.3334
▁severe	-11.3336
▁doe	-11.3337
▁earned	-11.3339
▁assist	-11.3339
▁por	-11.3339
▁plum	-11.3339
▁lurking	-11.334
▁briefing	-11.334
teral	-11.3341
▁hometown	-11.3341
▁flor	-11.3342
▁cramps	-11.3342
▁employees	-11.3342
▁stutters	-11.3342
▁thumbs	-11.3342
▁weakly	-11.3342
▁taco	-11.3344
ular	-11.3345
▁mur	-11.3345
real	-11.3345
▁bale	-11.3345
▁admirer	-11.3346
▁stirr	-11.3348
▁wiped	-11.3348
▁sealed	-11.3349
headed	-11.3349
stand	-11.3351
▁correctly	-11.3352
▁venue	-11.3353
▁coma	-11.3353
▁pouring	-11.3354
▁crawled	-11.3356
▁forgiven	-11.3356
▁gam	-11.3359
lip	-11.3359
▁courtes	-11.3359
▁sailing	-11.3362
▁sitch	-11.3363
▁harle	-11.3365
▁assured	-11.3365
▁delayed	-11.3369
▁regularly	-11.337
▁lamp	-11.3374
▁fortunate	-11.3376
▁smiles	-11.3377
▁sponsored	-11.3377
wan	-11.3379
coat	-11.3381
▁cigars	-11.3381
▁insects	-11.3381
▁talbots	-11.3381
▁semina	-11.3382
▁treaty	-11.3382
▁dumped	-11.3383
▁booly	-11.3383
▁richards	-11.3385
▁takeoff	-11.3385
▁emp	-11.3385
▁deserved	-11.3386
▁twisted	-11.339
▁meters	-11.3392
▁disappearing	-11.3395
▁did	-11.3396
▁bin	-11.3398
estic	-11.3399
onic	-11.34
▁holdup	-11.3402
▁shocking	-11.3404
table	-11.3405
▁warhead	-11.3409
▁coolest	-11.3412
▁proved	-11.3412
▁performed	-11.3412
▁container	-11.3413
▁anton	-11.3414
▁tres	-11.3415
▁dame	-11.3415
▁scheduled	-11.3416
▁daytime	-11.3417
ovich	-11.3419
▁applications	-11.342
see	-11.3421
▁arrangements	-11.3421
▁lam	-11.3422
▁sharpe	-11.3423
▁entered	-11.3433
▁washed	-11.3433
▁attending	-11.3436
▁polls	-11.3438
▁discussed	-11.344
▁sacrificed	-11.3441
▁tracked	-11.3442
▁rented	-11.3446
▁pipes	-11.3448
▁heights	-11.3449
step	-11.345
ture	-11.3451
▁horny	-11.3453
▁ian	-11.3454
▁starve	-11.3455
▁pawns	-11.346
▁spiveys	-11.346
▁charts	-11.346
▁fallin	-11.3462
▁choppers	-11.3463
▁slamm	-11.3465
▁honesty	-11.347
▁hunters	-11.3484
▁shootin	-11.3486
▁spreading	-11.3489
▁loading	-11.349
▁hangin	-11.349
▁clinical	-11.3498
▁char	-11.3499
▁pissing	-11.35
mat	-11.3502
▁graduat	-11.3503
▁spinn	-11.3503
▁tighten	-11.3508
▁tis	-11.3508
▁literar	-11.351
▁washing	-11.351
▁cured	-11.3511
▁hearth	-11.3517
▁interviewed	-11.3519
azoo	-11.3521
▁heavenly	-11.3522
▁discussing	-11.3522
▁exceptional	-11.3523
▁pitcher	-11.3524
▁cooked	-11.3526
▁weep	-11.3536
▁tinkl	-11.3537
▁meta	-11.3538
▁fades	-11.3539
▁swords	-11.354
▁arrives	-11.354
▁beans	-11.354
▁certificates	-11.354
▁stare	-11.3541
▁ranks	-11.3543
▁optimist	-11.3543
▁mild	-11.3547
▁instruct	-11.355
▁bait	-11.3553
▁mow	-11.3568
▁bold	-11.3568
▁careless	-11.3568
▁wince	-11.357
▁chan	-11.3571
▁examin	-11.3573
▁neighs	-11.3579
▁breasts	-11.3579
▁trailers	-11.3586
▁burm	-11.3592
marry	-11.3592
▁just	-11.3595
▁booing	-11.3595
▁motivat	-11.3598
test	-11.3598
▁raf	-11.3598
▁wi	-11.36
▁frick	-11.3602
▁ble	-11.3607
▁chant	-11.3611
▁dumbass	-11.3613
bul	-11.3615
▁supported	-11.3617
▁warriors	-11.3619
▁corporations	-11.3619
▁virgins	-11.3619
▁strapp	-11.3628
▁camping	-11.3639
▁carve	-11.3642
lly	-11.365
▁meaningful	-11.3652
▁handed	-11.3655
tuna	-11.3657
▁mes	-11.3662
▁africans	-11.3663
▁gifted	-11.3663
▁lads	-11.3677
▁camel	-11.3677
▁mast	-11.3682
▁sting	-11.3685
▁orderly	-11.3689
▁fists	-11.3693
▁illness	-11.3698
▁ay	-11.3699
▁clients	-11.37
▁costumes	-11.37
ipped	-11.3703
▁bees	-11.3711
▁bind	-11.3711
▁ape	-11.3711
▁fooled	-11.3714
▁pressing	-11.3714
▁serpent	-11.3717
▁patti	-11.372
▁divin	-11.3722
▁siri	-11.3727
▁uniforms	-11.374
sley	-11.3742
▁reader	-11.3742
▁by	-11.3744
▁dix	-11.3757
▁snaps	-11.3758
▁af	-11.3761
▁harp	-11.3767
▁on	-11.3778
▁volunteers	-11.3781
▁tame	-11.3789
▁supporting	-11.3793
▁sla	-11.3808
▁roxys	-11.3821
▁explaining	-11.3827
▁poll	-11.3829
about	-11.3832
▁jade	-11.3837
▁prisons	-11.3841
iation	-11.3884
▁tested	-11.3898
▁flows	-11.3903
▁cardi	-11.3914
▁acts	-11.3915
wing	-11.3924
▁capt	-11.3929
▁casey	-11.3938
▁screens	-11.3938
cho	-11.394
owns	-11.3941
▁str	-11.3954
▁guessing	-11.3962
▁span	-11.3976
▁ropes	-11.3983
▁criminals	-11.3983
▁feminists	-11.3984
▁enjoying	-11.3993
nit	-11.3995
roy	-11.401
▁bak	-11.401
▁magical	-11.401
ub	-11.4015
▁indicat	-11.402
▁suicides	-11.4024
otech	-11.4029
bon	-11.4033
met	-11.4037
ashi	-11.4044
▁trainer	-11.4048
awa	-11.4061
▁distinct	-11.4065
▁represents	-11.4065
▁clocks	-11.4066
▁articles	-11.4068
obbs	-11.4093
▁ic	-11.4094
▁views	-11.4103
▁poets	-11.4105
▁rav	-11.4106
▁apples	-11.4106
verge	-11.411
▁tro	-11.4135
▁contracts	-11.4147
▁pipe	-11.4148
▁sen	-11.4158
▁answered	-11.416
▁workin	-11.4166
ahu	-11.4174
▁explosions	-11.4189
nished	-11.4193
▁ke	-11.4227
▁levels	-11.423
▁elements	-11.423
▁appointments	-11.4231
▁poems	-11.4231
▁intervene	-11.4245
ini	-11.4255
▁shuts	-11.4261
▁mamamama	-11.4269
enge	-11.4273
act	-11.4298
▁steven	-11.4298
▁bets	-11.4299
▁reporters	-11.4304
▁lovers	-11.4311
▁hoped	-11.4317
port	-11.4325
▁heroin	-11.4329
▁cakes	-11.4355
earing	-11.436
hole	-11.4362
▁wished	-11.4378
▁plato	-11.4384
inkle	-11.4398
▁wink	-11.4412
shi	-11.4417
▁bulls	-11.4422
▁not	-11.4436
▁tut	-11.444
▁apartments	-11.4443
▁clo	-11.4448
▁hack	-11.4468
▁pointed	-11.448
▁conc	-11.4486
gar	-11.4524
▁fellows	-11.4525
ants	-11.4526
▁predict	-11.4537
▁wend	-11.456
vis	-11.4569
▁cooled	-11.4574
▁chum	-11.4609
▁braver	-11.4611
▁deco	-11.4615
phan	-11.4626
▁bites	-11.4637
▁smokes	-11.4639
mic	-11.4649
▁talents	-11.4654
▁trusting	-11.4678
▁divid	-11.4695
cha	-11.4698
▁franc	-11.4716
ogen	-11.4736
▁miner	-11.4741
nies	-11.4742
feit	-11.4748
▁mommys	-11.4779
hoppers	-11.478
oster	-11.4781
sick	-11.4787
ological	-11.4796
▁dicks	-11.48
▁secur	-11.4818
▁writings	-11.4821
bber	-11.4853
hea	-11.4855
▁narrati	-11.4864
lash	-11.4875
▁squat	-11.488
▁marks	-11.4885
bin	-11.49
▁gall	-11.492
▁founded	-11.4926
▁experiences	-11.4948
▁shaws	-11.4949
itting	-11.4957
hap	-11.4996
my	-11.5028
ained	-11.503
mart	-11.5035
▁bottoms	-11.5042
▁pul	-11.5066
rdin	-11.5087
gent	-11.5095
vine	-11.5115
▁fri	-11.5116
▁scarf	-11.5118
uba	-11.5134
ij	-11.5138
▁hur	-11.514
par	-11.5146
acked	-11.5158
tha	-11.5164
▁twink	-11.5175
▁sniff	-11.5177
▁jesu	-11.5188
teen	-11.5197
ook	-11.5202
▁knit	-11.5211
▁invest	-11.5219
vers	-11.526
▁poo	-11.5268
fly	-11.5274
agen	-11.5292
ola	-11.5324
his	-11.5325
ara	-11.5333
▁ash	-11.5338
▁cub	-11.5339
hen	-11.5348
▁tapes	-11.5351
▁tours	-11.536
▁floors	-11.5364
hn	-11.5365
lm	-11.5369
▁hoot	-11.5377
▁shak	-11.5378
▁liver	-11.5379
▁sakes	-11.539
▁poster	-11.5395
▁jun	-11.5405
▁nest	-11.5431
▁optim	-11.5457
rained	-11.5468
handed	-11.5473
▁fla	-11.5497
ppy	-11.5505
▁jeannettes	-11.5522
▁respects	-11.5523
going	-11.5528
dia	-11.5537
▁fianc	-11.5549
borne	-11.5558
▁crow	-11.5561
etty	-11.5564
▁clatter	-11.5566
▁levis	-11.5568
▁crawlin	-11.5574
bird	-11.5579
▁robb	-11.558
ready	-11.558
▁grunt	-11.5584
bag	-11.5589
▁fountain	-11.5594
▁length	-11.5594
▁function	-11.5594
▁snack	-11.5595
rst	-11.5598
▁obligation	-11.5599
▁masterpiece	-11.56
▁commun	-11.5602
▁pound	-11.5603
▁advertisement	-11.5606
▁application	-11.5607
▁arrangement	-11.561
▁negotiation	-11.561
▁rumor	-11.5616
▁diaper	-11.5616
▁springbok	-11.5619
▁bridesmaid	-11.562
▁cent	-11.562
ean	-11.5626
▁asset	-11.5638
▁subs	-11.564
ski	-11.5643
▁semi	-11.5658
▁wave	-11.5658
▁mcc	-11.5668
▁kn	-11.5672
▁that	-11.5677
gal	-11.5683
▁drone	-11.5688
ude	-11.569
▁hor	-11.5696
▁sew	-11.5696
▁invent	-11.5698
▁stir	-11.5704
under	-11.5706
▁frighten	-11.571
til	-11.5713
sibl	-11.5714
▁what	-11.5714
having	-11.5716
▁sci	-11.5716
▁stud	-11.572
▁craw	-11.5723
▁porn	-11.5731
▁steel	-11.5734
▁mug	-11.5735
▁shush	-11.5736
▁iraq	-11.5736
▁imply	-11.5737
▁disgust	-11.5738
▁celebrat	-11.5741
hood	-11.5745
▁thrash	-11.5745
▁avenge	-11.5746
▁anim	-11.5746
hair	-11.5747
▁martine	-11.5747
▁convict	-11.5747
mond	-11.5748
▁succeed	-11.5748
▁assign	-11.5749
▁yank	-11.5751
▁exhaust	-11.5753
play	-11.5756
claim	-11.5756
pierre	-11.5757
▁underestimate	-11.5758
jab	-11.5758
▁trucks	-11.5758
brid	-11.5758
rank	-11.5758
title	-11.5759
▁layer	-11.5759
worthy	-11.5759
crow	-11.5759
winning	-11.576
wind	-11.576
fortune	-11.576
physical	-11.576
jack	-11.576
boom	-11.576
necessary	-11.576
final	-11.576
famous	-11.576
foot	-11.576
▁investigate	-11.576
▁purchase	-11.576
space	-11.576
chorus	-11.576
level	-11.5761
forces	-11.5761
lookin	-11.5761
drop	-11.5761
three	-11.5761
bearing	-11.5761
▁increas	-11.5762
▁bord	-11.5762
▁chor	-11.5762
▁collaborat	-11.5762
▁colon	-11.5763
baby	-11.5764
fight	-11.5764
care	-11.5764
▁vibrat	-11.5764
check	-11.5764
▁nurs	-11.5765
paid	-11.5765
▁fertil	-11.5766
good	-11.5766
pump	-11.5766
▁should	-11.5766
▁permanent	-11.5766
ient	-11.5766
▁utter	-11.5767
▁heavi	-11.5768
mb	-11.5768
▁hump	-11.5768
bound	-11.5769
magneti	-11.5769
pit	-11.577
cott	-11.577
mill	-11.577
▁handler	-11.5771
▁butch	-11.5771
▁practical	-11.5771
▁yayayaya	-11.5772
▁slight	-11.5772
ogue	-11.5772
▁bolsh	-11.5773
▁manner	-11.5773
▁choi	-11.5774
▁tomato	-11.5774
burger	-11.5774
▁colla	-11.5775
▁shabb	-11.5775
▁origin	-11.5775
▁withdraw	-11.5776
emp	-11.5776
cake	-11.5776
▁profession	-11.5776
▁suns	-11.5777
▁magnet	-11.5777
say	-11.5779
▁raisin	-11.5779
▁schm	-11.578
▁trans	-11.578
▁kiddin	-11.578
▁retire	-11.578
▁kidnap	-11.578
▁marvel	-11.5781
▁scientific	-11.5781
ecutive	-11.5781
▁differ	-11.5781
historic	-11.5781
ifer	-11.5781
credible	-11.5781
▁dyna	-11.5781
▁vegeta	-11.5781
▁metaphor	-11.5782
▁occur	-11.5782
▁contradict	-11.5782
▁merci	-11.5782
▁troglo	-11.5782
sibility	-11.5782
▁powwow	-11.5782
▁prosecut	-11.5782
▁sopho	-11.5782
culty	-11.5782
sensitivity	-11.5782
▁abducted	-11.5782
▁aerobics	-11.5782
▁aleksandr	-11.5782
▁alkaseltzer	-11.5782
▁ambush	-11.5782
▁anvwav	-11.5782
▁apologies	-11.5782
▁appliance	-11.5782
▁april	-11.5782
▁arriving	-11.5782
▁aspect	-11.5782
▁atmosphere	-11.5782
▁bachelorette	-11.5782
▁beneath	-11.5782
▁beverage	-11.5782
▁beyonc	-11.5782
▁bicycle	-11.5782
▁bimbo	-11.5782
▁blink	-11.5782
▁boodikka	-11.5782
▁brilliance	-11.5782
▁britain	-11.5782
▁brotherinlaw	-11.5782
▁brunette	-11.5782
▁buttanda	-11.5782
▁cafeteria	-11.5782
▁casbah	-11.5782
▁chimney	-11.5782
▁citadel	-11.5782
▁clemmie	-11.5782
▁colada	-11.5782
▁compatible	-11.5782
▁competitor	-11.5782
▁comprende	-11.5782
▁conclusion	-11.5782
▁concussion	-11.5782
▁conflict	-11.5782
▁consequence	-11.5782
▁conspiracy	-11.5782
▁convenient	-11.5782
▁cosmopolitan	-11.5782
▁crocodile	-11.5782
▁dallas	-11.5782
▁decorations	-11.5782
▁deputies	-11.5782
▁despair	-11.5782
▁desperation	-11.5782
▁destination	-11.5782
▁devote	-11.5782
▁distorted	-11.5782
▁dorothy	-11.5782
▁doughnuts	-11.5782
▁endorsement	-11.5782
▁espionage	-11.5782
▁excavation	-11.5782
▁faggot	-11.5782
▁fierce	-11.5782
▁financial	-11.5782
▁forklift	-11.5782
▁frolov	-11.5782
▁frustrating	-11.5782
▁furthermore	-11.5782
▁gardner	-11.5782
▁genuine	-11.5782
▁gestapo	-11.5782
▁goddammit	-11.5782
▁godspell	-11.5782
▁gypsies	-11.5782
▁hampton	-11.5782
▁herbert	-11.5782
▁heritage	-11.5782
▁honeybelle	-11.5782
▁imagining	-11.5782
▁infirmary	-11.5782
▁initiation	-11.5782
▁innocence	-11.5782
▁insecure	-11.5782
▁intimidating	-11.5782
▁irresponsible	-11.5782
▁jorgito	-11.5782
▁jumbo	-11.5782
▁junction	-11.5782
▁kamata	-11.5782
▁kiwi	-11.5782
▁klerk	-11.5782
▁kuznetsov	-11.5782
▁lewis	-11.5782
▁liability	-11.5782
▁licorice	-11.5782
▁lobby	-11.5782
▁lothario	-11.5782
▁luanne	-11.5782
▁lucien	-11.5782
▁lucrative	-11.5782
▁mademoiselle	-11.5782
▁marseille	-11.5782
▁mehrtens	-11.5782
▁misunderstood	-11.5782
▁momentarily	-11.5782
▁montgomery	-11.5782
▁morgue	-11.5782
▁motorcycles	-11.5782
▁mozart	-11.5782
▁mujahideen	-11.5782
▁mussolini	-11.5782
▁mutual	-11.5782
▁mystique	-11.5782
▁necessarily	-11.5782
▁neuromarketing	-11.5782
▁nevada	-11.5782
▁noksu	-11.5782
▁nowadays	-11.5782
▁nureyev	-11.5782
▁obituary	-11.5782
▁obsessed	-11.5782
▁ovarian	-11.5782
▁palardis	-11.5782
▁parkinsons	-11.5782
▁pediatric	-11.5782
▁penalty	-11.5782
▁penguin	-11.5782
▁pepperoni	-11.5782
▁physician	-11.5782
▁picnic	-11.5782
▁platform	-11.5782
▁plesac	-11.5782
▁premier	-11.5782
▁premium	-11.5782
▁protegee	-11.5782
▁providing	-11.5782
▁pulitzer	-11.5782
▁punctuat	-11.5782
▁pursue	-11.5782
▁pursuit	-11.5782
▁radius	-11.5782
▁rafferty	-11.5782
▁reborn	-11.5782
▁recognise	-11.5782
▁reconcil	-11.5782
▁redundant	-11.5782
▁remarque	-11.5782
▁resembl	-11.5782
▁resolution	-11.5782
▁retaliat	-11.5782
▁rhyme	-11.5782
▁romiski	-11.5782
▁roosevelt	-11.5782
▁rosseter	-11.5782
▁rouge	-11.5782
▁sallyanne	-11.5782
▁schoolteacher	-11.5782
▁scorch	-11.5782
▁semester	-11.5782
▁singlespaced	-11.5782
▁sisterinlaw	-11.5782
▁skeptical	-11.5782
▁sklar	-11.5782
▁slope	-11.5782
▁smoote	-11.5782
▁solitary	-11.5782
▁sorority	-11.5782
▁soweto	-11.5782
▁stagger	-11.5782
▁striptease	-11.5782
▁struggling	-11.5782
▁subscription	-11.5782
▁substanti	-11.5782
▁substitute	-11.5782
▁suffocat	-11.5782
▁suspicion	-11.5782
▁tactics	-11.5782
▁tequila	-11.5782
▁territories	-11.5782
▁thieves	-11.5782
▁thigh	-11.5782
▁throttle	-11.5782
▁thurman	-11.5782
▁tonybear	-11.5782
▁transaction	-11.5782
▁transmitting	-11.5782
▁treasury	-11.5782
▁turf	-11.5782
▁ukiyoe	-11.5782
▁universal	-11.5782
▁unpleasant	-11.5782
▁uptight	-11.5782
▁viscount	-11.5782
▁vitamin	-11.5782
▁vitamix	-11.5782
▁volkswagen	-11.5782
▁vvedensky	-11.5782
▁warlord	-11.5782
▁westminster	-11.5782
▁wichita	-11.5782
▁wrestling	-11.5782
▁yakuza	-11.5782
▁yogurt	-11.5782
▁zenjirou	-11.5782
▁zucchini	-11.5782
▁antoine	-11.5782
▁anvone	-11.5782
▁bamboo	-11.5782
▁basij	-11.5782
▁bullseye	-11.5782
▁cannibalism	-11.5782
▁chainsaw	-11.5782
▁denali	-11.5782
▁devour	-11.5782
▁disinfect	-11.5782
▁dutv	-11.5782
▁dylan	-11.5782
▁emphasi	-11.5782
▁gauge	-11.5782
▁kgb	-11.5782
▁leverage	-11.5782
▁lizard	-11.5782
▁mccoy	-11.5782
▁otto	-11.5782
▁outstanding	-11.5782
▁razor	-11.5782
▁refresh	-11.5782
▁reunion	-11.5782
▁riley	-11.5782
▁satnin	-11.5782
▁shotgun	-11.5782
▁stalking	-11.5782
▁stereo	-11.5782
▁streak	-11.5782
▁taiwan	-11.5782
▁terminal	-11.5782
▁unofficial	-11.5782
▁vichv	-11.5782
▁violin	-11.5782
▁wacky	-11.5782
viloula	-11.5782
▁accompany	-11.5782
▁bruise	-11.5782
▁bulgaria	-11.5782
▁candor	-11.5782
▁dennys	-11.5782
▁destined	-11.5782
▁dutch	-11.5782
▁entry	-11.5782
▁jimmie	-11.5782
▁misunderstand	-11.5782
▁nerine	-11.5782
▁ovation	-11.5782
▁propaganda	-11.5782
▁rooney	-11.5782
▁sabotag	-11.5782
▁scurry	-11.5782
▁thisll	-11.5782
▁canoe	-11.5782
▁scandal	-11.5782
▁thonon	-11.5782
knuckle	-11.5782
▁brew	-11.5782
▁confusion	-11.5782
▁donald	-11.5782
▁fortress	-11.5782
▁gwend	-11.5782
▁ornament	-11.5782
▁unlocked	-11.5782
▁grasp	-11.5782
▁immature	-11.5782
▁probing	-11.5782
▁shiver	-11.5782
▁abyss	-11.5782
▁edited	-11.5782
▁paddles	-11.5782
▁rusty	-11.5782
▁whatsoever	-11.5782
historian	-11.5782
▁adios	-11.5782
▁editing	-11.5782
▁intruder	-11.5782
▁islam	-11.5782
▁abnormal	-11.5782
▁bureaucrat	-11.5782
▁chrissake	-11.5782
▁fosse	-11.5782
▁grocer	-11.5782
▁grueller	-11.5782
▁pimp	-11.5782
▁deflect	-11.5782
▁kyle	-11.5782
▁popsicle	-11.5782
▁donkey	-11.5782
▁liberals	-11.5782
▁radiation	-11.5782
▁reek	-11.5782
▁greasy	-11.5782
▁sarcastic	-11.5782
▁vear	-11.5782
▁improving	-11.5782
▁protocol	-11.5782
▁trophy	-11.5782
▁granny	-11.5782
▁acres	-11.5782
hsiu	-11.5782
▁knix	-11.5782
▁imbecile	-11.5782
▁maniac	-11.5782
▁inventory	-11.5782
▁sunshine	-11.5782
▁commandeer	-11.5782
▁opposition	-11.5782
▁wisconsin	-11.5782
▁illusion	-11.5782
▁lottery	-11.5782
▁natali	-11.5782
▁keats	-11.5782
▁slit	-11.5782
▁cameron	-11.5782
▁marathon	-11.5782
▁attaboy	-11.5782
▁blurry	-11.5782
▁jenny	-11.5782
▁mattress	-11.5782
▁peop	-11.5782
▁upgrade	-11.5782
▁whitmore	-11.5782
munition	-11.5782
▁penetrat	-11.5782
▁bridetobe	-11.5782
▁memoriz	-11.5782
▁estonia	-11.5782
▁multiple	-11.5782
▁ashford	-11.5782
▁moans	-11.5782
▁vault	-11.5782
▁housing	-11.5782
▁unstable	-11.5782
▁grease	-11.5782
▁blaming	-11.5782
▁aching	-11.5782
▁fireworks	-11.5782
▁metasta	-11.5782
▁landscape	-11.5782
▁pudding	-11.5782
▁behold	-11.5782
▁africanamerican	-11.5782
▁avenue	-11.5782
toxic	-11.5782
▁curry	-11.5782
▁deceiving	-11.5782
▁notebook	-11.5782
▁olympic	-11.5782
▁ambien	-11.5782
▁flank	-11.5782
▁quack	-11.5782
▁tread	-11.5782
▁global	-11.5782
block	-11.5782
▁coron	-11.5782
▁inviting	-11.5782
▁fading	-11.5782
▁lucii	-11.5782
▁jumpjump	-11.5783
▁restrain	-11.5783
▁alaska	-11.5783
▁sanctuary	-11.5783
▁upwind	-11.5783
▁grammy	-11.5783
▁crops	-11.5783
▁remake	-11.5783
▁loneliness	-11.5783
▁argent	-11.5783
▁pepsi	-11.5783
▁domingo	-11.5783
▁enforcement	-11.5783
▁chieh	-11.5783
▁pirate	-11.5783
▁neville	-11.5783
▁clar	-11.5783
▁denied	-11.5783
▁uncompromising	-11.5783
▁goofy	-11.5783
▁beads	-11.5783
▁administrat	-11.5783
▁brett	-11.5783
▁bullfight	-11.5783
▁abdicat	-11.5783
▁manlio	-11.5783
▁joko	-11.5783
▁offence	-11.5783
▁tobacco	-11.5783
▁tranquili	-11.5783
ggy	-11.5783
▁hostile	-11.5783
▁pumpkin	-11.5783
▁forehead	-11.5783
▁incoherent	-11.5783
▁phillip	-11.5783
▁software	-11.5783
▁ethic	-11.5783
▁prostate	-11.5783
▁transferred	-11.5783
▁nemo	-11.5783
▁gags	-11.5783
▁woochi	-11.5783
▁bebe	-11.5783
▁criticism	-11.5783
▁ofem	-11.5783
▁cellphone	-11.5783
▁valentina	-11.5783
▁buckoff	-11.5783
▁looting	-11.5783
▁tyra	-11.5783
▁torpedoes	-11.5783
▁companion	-11.5783
▁selection	-11.5783
▁dislike	-11.5783
▁debri	-11.5783
▁exwife	-11.5783
▁dacha	-11.5783
▁handwriting	-11.5783
▁jammed	-11.5783
▁iceberg	-11.5783
▁ricky	-11.5783
▁xray	-11.5783
▁gannon	-11.5783
▁marlin	-11.5783
▁interrogation	-11.5783
▁simulation	-11.5783
▁coleman	-11.5784
▁disturbance	-11.5784
▁cappie	-11.5784
▁hostess	-11.5784
▁recite	-11.5784
▁pigsty	-11.5784
▁slipping	-11.5784
▁babysitting	-11.5784
▁danj	-11.5784
▁hooves	-11.5784
▁mhm	-11.5784
▁blackberry	-11.5784
uhdu	-11.5784
▁consciousness	-11.5784
▁mmmmmm	-11.5784
▁raindrop	-11.5784
▁straw	-11.5784
▁polk	-11.5784
▁temptation	-11.5784
▁habitat	-11.5784
▁moonlight	-11.5784
▁footlong	-11.5784
▁snickers	-11.5784
▁poisonous	-11.5784
▁deport	-11.5784
▁consol	-11.5784
▁waltz	-11.5784
▁reich	-11.5784
▁detonator	-11.5784
▁diversion	-11.5784
▁yoshi	-11.5785
▁lens	-11.5785
▁spotlight	-11.5785
▁adrop	-11.5785
▁clich	-11.5785
▁superstar	-11.5785
▁revel	-11.5785
▁dumpster	-11.5785
▁artillery	-11.5785
▁prance	-11.5785
▁unarmed	-11.5785
▁dumpling	-11.5785
▁tendency	-11.5785
▁madison	-11.5785
▁ravus	-11.5785
▁receptionist	-11.5785
▁sinner	-11.5785
▁dedicated	-11.5785
▁sunlight	-11.5785
▁crank	-11.5785
▁authorization	-11.5785
▁dork	-11.5785
▁saba	-11.5786
▁diving	-11.5786
▁equality	-11.5786
▁adequate	-11.5786
▁daughterinlaw	-11.5786
▁einstein	-11.5786
▁expense	-11.5786
▁figuring	-11.5786
▁moderate	-11.5786
▁shelf	-11.5786
▁temporal	-11.5786
▁plasma	-11.5786
▁subtle	-11.5786
▁fax	-11.5786
▁mileage	-11.5786
▁whirl	-11.5786
▁diaz	-11.5786
▁factories	-11.5786
guine	-11.5786
enzy	-11.5786
▁spur	-11.5786
▁faun	-11.5786
▁graz	-11.5786
▁virginie	-11.5786
▁hopping	-11.5786
▁mccart	-11.5786
▁bandits	-11.5786
▁chic	-11.5786
▁stroll	-11.5787
▁detection	-11.5787
▁tide	-11.5787
▁angri	-11.5787
▁heap	-11.5787
▁delinquent	-11.5787
▁peril	-11.5787
▁worldwide	-11.5787
▁distinguished	-11.5787
▁overhead	-11.5787
▁error	-11.5787
▁rump	-11.5787
▁reflection	-11.5787
▁centuries	-11.5787
▁admiralty	-11.5788
▁masha	-11.5788
▁leaf	-11.5788
▁shellback	-11.5788
▁republican	-11.5788
▁motown	-11.5788
▁kong	-11.5788
▁thug	-11.5788
▁recipe	-11.5788
▁withdrawn	-11.5788
▁rca	-11.5788
▁cardboard	-11.5788
▁shek	-11.5788
▁woof	-11.5788
▁teammate	-11.5788
▁joyce	-11.5788
▁uncover	-11.5789
▁surge	-11.5789
▁kennelly	-11.5789
▁marshall	-11.5789
▁blar	-11.5789
▁righteousness	-11.5789
lipse	-11.5789
▁salesman	-11.579
▁temper	-11.579
▁unload	-11.579
▁dope	-11.579
sylv	-11.579
▁gurgling	-11.579
▁atlanta	-11.579
▁shattering	-11.579
▁developers	-11.579
▁doom	-11.579
▁highlight	-11.579
▁weaponry	-11.579
▁thong	-11.579
▁proto	-11.5791
▁romeo	-11.5791
▁subway	-11.5791
▁assembled	-11.5791
▁acceptance	-11.5791
▁spam	-11.5792
▁heist	-11.5792
▁manchurian	-11.5792
▁justin	-11.5792
▁admitted	-11.5792
▁broom	-11.5792
▁travelling	-11.5792
▁doorstep	-11.5792
▁betrayal	-11.5792
▁rockette	-11.5792
yayayaya	-11.5792
▁parkway	-11.5792
icious	-11.5793
▁butcher	-11.5793
▁ut	-11.5793
▁meaningless	-11.5793
▁hardware	-11.5793
▁indulge	-11.5793
▁significant	-11.5793
ould	-11.5793
▁galli	-11.5793
▁identities	-11.5793
▁galax	-11.5793
partment	-11.5793
▁despise	-11.5794
▁elf	-11.5794
▁grownup	-11.5794
▁stance	-11.5794
▁summon	-11.5794
▁hinge	-11.5794
▁spies	-11.5794
▁sober	-11.5794
▁dried	-11.5795
▁attendant	-11.5795
▁mason	-11.5795
▁stabbed	-11.5795
ounge	-11.5796
▁emmy	-11.5796
seek	-11.5796
▁arouse	-11.5796
▁jamie	-11.5796
▁roommate	-11.5796
eerie	-11.5796
▁essay	-11.5796
▁hideand	-11.5797
▁jur	-11.5797
▁pakistani	-11.5797
▁marion	-11.5798
▁vanity	-11.5798
▁rango	-11.5798
▁permanently	-11.5798
▁utterly	-11.5798
▁household	-11.5798
plies	-11.5798
▁apb	-11.5798
▁ironic	-11.5798
▁branches	-11.5798
stopp	-11.5799
▁grain	-11.5799
▁highfive	-11.5799
▁hairdo	-11.5799
▁alton	-11.5799
▁nig	-11.5799
▁gaines	-11.58
▁playboy	-11.58
▁optional	-11.58
▁bryan	-11.58
▁curt	-11.5801
▁inches	-11.5801
▁saddle	-11.5801
▁airship	-11.5801
unning	-11.5801
▁circled	-11.5801
▁selected	-11.5802
▁jc	-11.5802
▁leech	-11.5802
▁wool	-11.5803
▁chord	-11.5803
▁superb	-11.5804
▁mole	-11.5804
▁tailor	-11.5804
▁publicity	-11.5804
▁noodle	-11.5804
▁incen	-11.5804
fil	-11.5805
▁activated	-11.5805
▁imported	-11.5805
▁muse	-11.5805
▁manipulated	-11.5806
▁plumber	-11.5806
▁swimmer	-11.5807
▁eternally	-11.5807
▁briefly	-11.5807
knockknock	-11.5808
▁researchers	-11.5808
▁forest	-11.5809
▁bom	-11.5809
▁swore	-11.581
▁oysters	-11.5811
▁coon	-11.5811
▁auto	-11.5811
▁eyeb	-11.5812
▁exceed	-11.5812
▁zeb	-11.5813
▁unclear	-11.5814
▁ohhh	-11.5814
▁breeding	-11.5814
▁spilled	-11.5814
▁yanked	-11.5814
▁invested	-11.5815
▁negotiated	-11.5815
▁theo	-11.5816
▁pile	-11.5816
▁flashes	-11.5816
▁worthless	-11.5816
▁blooming	-11.5817
▁specialty	-11.5817
▁licking	-11.5817
▁consumer	-11.5818
▁reduced	-11.5818
▁curly	-11.5818
▁jogg	-11.5819
▁tore	-11.5819
▁sno	-11.5819
▁educational	-11.582
▁reduce	-11.582
▁poked	-11.5821
▁slime	-11.5821
▁hotter	-11.5823
▁mansion	-11.5823
▁athlete	-11.5823
▁haunted	-11.5823
▁hya	-11.5824
lap	-11.5824
▁wolfe	-11.5825
▁showoff	-11.5825
singi	-11.5825
trivi	-11.5826
▁traced	-11.5827
▁heroic	-11.5827
▁proven	-11.5828
▁drawn	-11.5829
▁clank	-11.5829
▁popup	-11.583
▁frightening	-11.5831
ank	-11.5832
▁humping	-11.5832
▁sewing	-11.5832
▁compromised	-11.5833
▁raspberr	-11.5833
▁quin	-11.5834
▁git	-11.5834
▁kh	-11.5834
▁cul	-11.5835
▁toaster	-11.5835
▁sewer	-11.5837
▁cove	-11.5837
▁paulo	-11.5837
▁dave	-11.5838
▁idiotic	-11.5838
▁ussr	-11.5838
lish	-11.5839
▁mint	-11.584
▁foe	-11.5841
▁poured	-11.5842
▁charmer	-11.5842
▁postp	-11.5842
▁bubbl	-11.5843
▁sneaky	-11.5843
▁ox	-11.5844
▁tortured	-11.5844
▁yipp	-11.5845
▁inde	-11.5845
▁luce	-11.5846
▁consideration	-11.5846
▁policeman	-11.5847
▁singh	-11.5847
▁hike	-11.5849
▁softer	-11.5851
▁poisoned	-11.5851
▁thus	-11.5853
▁batteri	-11.5854
▁leftover	-11.5855
▁via	-11.5856
▁approved	-11.5857
▁wisely	-11.5857
▁spill	-11.5857
▁sel	-11.5858
yder	-11.5859
▁frisk	-11.5859
▁toots	-11.586
▁bidd	-11.586
▁directed	-11.586
▁crab	-11.5861
▁spite	-11.5861
▁yelled	-11.5861
▁curtains	-11.5861
▁habsburgs	-11.5861
▁statistics	-11.5861
▁vegetables	-11.5861
▁relations	-11.5861
▁spectacles	-11.5861
▁nuns	-11.5861
▁consultants	-11.5861
rangle	-11.5863
▁nacho	-11.5864
▁spook	-11.5864
▁rumbles	-11.5865
▁salon	-11.5867
▁rations	-11.5867
▁coin	-11.5867
▁closeup	-11.5867
▁chrom	-11.5868
▁newsman	-11.5868
▁fashioned	-11.5869
▁pose	-11.5873
▁perfection	-11.5873
osta	-11.5877
▁connecting	-11.5877
ential	-11.5878
▁brighter	-11.5881
▁cheaper	-11.5881
any	-11.5882
▁geek	-11.5884
▁spectr	-11.5886
▁tempt	-11.5887
▁stretched	-11.5888
▁tighter	-11.5888
▁granted	-11.5888
▁punkd	-11.5888
▁disrespectful	-11.5888
▁punches	-11.5889
▁anthe	-11.5891
▁ford	-11.5891
▁recovered	-11.5897
▁whooo	-11.5898
▁trips	-11.5898
▁climbing	-11.5901
▁directing	-11.5901
▁breez	-11.5905
▁businessman	-11.5906
▁reaches	-11.5907
▁beet	-11.5911
▁mega	-11.5911
tage	-11.5913
▁hungarians	-11.5913
▁divergents	-11.5913
▁headquarters	-11.5913
▁intellectuals	-11.5913
▁regulations	-11.5913
▁substances	-11.5913
▁scaring	-11.5913
▁sheets	-11.5913
▁ur	-11.5914
▁skateboarding	-11.5914
▁scratching	-11.5915
▁alerted	-11.5915
▁cruiser	-11.5915
▁crashed	-11.5916
▁tourists	-11.5917
vsky	-11.5917
▁jest	-11.5919
▁ignored	-11.5919
▁sap	-11.592
▁coy	-11.592
▁massage	-11.592
▁tra	-11.5922
aki	-11.5924
▁collected	-11.5925
▁crowned	-11.5925
▁vest	-11.5931
▁gravel	-11.5932
▁carter	-11.5933
▁targ	-11.5933
▁fainted	-11.5934
▁traffick	-11.5934
▁dea	-11.5936
sparag	-11.5938
birds	-11.594
▁uglie	-11.5941
▁compar	-11.5941
▁soy	-11.5944
▁moody	-11.5946
▁fang	-11.5946
▁weaken	-11.5949
▁peep	-11.5951
▁teaches	-11.5955
▁hurl	-11.5957
▁angela	-11.5959
▁mixing	-11.5959
▁selfie	-11.5963
▁advertisements	-11.5965
▁gogh	-11.597
▁crows	-11.5972
▁rethink	-11.5973
▁blocking	-11.5974
▁mop	-11.5974
▁makeover	-11.5974
▁pond	-11.5977
▁hawk	-11.5977
▁stra	-11.5978
sked	-11.598
▁assets	-11.598
ites	-11.5984
▁jeopardiz	-11.5984
▁responding	-11.5985
▁sinking	-11.5986
▁difficulty	-11.5987
ept	-11.5989
▁risky	-11.5992
▁internal	-11.5995
▁lease	-11.5997
tro	-11.6001
▁eva	-11.6001
▁cheered	-11.6002
▁ooo	-11.6004
▁ching	-11.6004
▁utilit	-11.6005
▁beau	-11.6006
▁dosto	-11.6009
▁capp	-11.6012
▁charged	-11.6016
▁streams	-11.6017
▁bursts	-11.6017
▁initiates	-11.6017
▁manuscripts	-11.6017
▁sweeps	-11.6017
▁explodes	-11.6017
▁kisser	-11.6018
▁brutal	-11.6024
▁holders	-11.6026
▁greatness	-11.6033
▁coca	-11.6036
▁speci	-11.6036
▁ant	-11.6039
▁meth	-11.6046
▁gregor	-11.6046
icky	-11.605
▁thoughtful	-11.6053
▁exce	-11.6063
▁shorter	-11.6068
▁sessions	-11.607
▁airlines	-11.607
▁greeks	-11.607
▁references	-11.607
▁conditioning	-11.6072
ula	-11.6073
▁rockin	-11.6093
▁bla	-11.61
▁ard	-11.6102
▁concerning	-11.6103
▁cones	-11.6107
▁vol	-11.6113
▁cra	-11.6114
▁tickle	-11.6116
▁sonnets	-11.6122
▁spiders	-11.6123
▁que	-11.6125
▁wallets	-11.6129
▁rehears	-11.6138
▁profits	-11.6139
mish	-11.6145
▁marked	-11.6151
▁dais	-11.6157
terior	-11.6158
lessly	-11.6161
olo	-11.6166
▁smiled	-11.6166
▁cages	-11.6166
pound	-11.6168
▁gears	-11.6173
▁impressions	-11.6175
▁desires	-11.6175
▁instincts	-11.6175
▁eboats	-11.6175
▁andrews	-11.6175
▁muscles	-11.6175
▁wrists	-11.6176
▁hooking	-11.6176
▁rhythms	-11.6176
▁regards	-11.6177
▁rates	-11.6177
▁tol	-11.6182
▁lace	-11.6182
▁clearer	-11.6183
▁rul	-11.6185
▁var	-11.6186
▁walkin	-11.6186
▁tori	-11.6202
▁trad	-11.6223
▁organs	-11.6224
▁smacks	-11.6228
▁wagons	-11.6228
▁divisions	-11.6228
▁stiffs	-11.6228
▁involves	-11.6229
shop	-11.6233
▁statements	-11.6235
▁nets	-11.6235
▁ter	-11.6237
▁mus	-11.6249
▁annu	-11.6254
▁vene	-11.6257
tologist	-11.6261
▁sow	-11.6262
▁ied	-11.6264
▁dine	-11.6268
▁repeating	-11.6271
▁nicest	-11.6273
▁thankful	-11.6279
▁clays	-11.6281
▁instruments	-11.6282
▁eras	-11.6286
▁shithead	-11.6287
▁dime	-11.6295
▁meditat	-11.6299
▁murderers	-11.6307
ament	-11.6308
inde	-11.6309
▁nana	-11.631
▁neon	-11.6314
▁pollut	-11.6324
▁farts	-11.6326
oop	-11.6329
ization	-11.6333
lery	-11.6334
▁riots	-11.6335
▁fishie	-11.6344
investment	-11.6344
nstable	-11.635
▁uhm	-11.6389
▁connections	-11.639
▁recordings	-11.6392
closure	-11.6393
▁scripts	-11.6393
▁hay	-11.6423
sche	-11.6426
▁speakers	-11.6426
▁bandage	-11.6431
▁crowded	-11.6433
▁pros	-11.6437
slas	-11.644
▁lightly	-11.6448
radley	-11.6465
▁kneel	-11.6485
▁interce	-11.6489
wick	-11.6494
▁texts	-11.6494
▁reservations	-11.6496
▁flags	-11.6497
▁warming	-11.6502
moria	-11.6515
▁abu	-11.6515
▁medal	-11.6519
tami	-11.6527
▁offering	-11.653
▁cro	-11.6546
rome	-11.6551
▁wires	-11.6556
ung	-11.6559
xie	-11.6562
leys	-11.6571
▁rad	-11.6577
▁differently	-11.6592
▁bri	-11.6592
▁tast	-11.6592
ridden	-11.6594
▁yearolds	-11.6604
▁advantages	-11.6605
bbing	-11.6606
▁trucker	-11.6615
▁behav	-11.6621
take	-11.6645
▁karat	-11.6656
▁titles	-11.6657
▁efforts	-11.666
▁loo	-11.6666
cement	-11.6671
wig	-11.6678
quit	-11.6689
▁ag	-11.6694
▁relaxing	-11.6713
▁sparks	-11.6713
▁punks	-11.6716
▁characters	-11.6724
▁reserve	-11.6731
▁rott	-11.6748
rich	-11.6751
▁dot	-11.6757
▁pav	-11.676
▁snowing	-11.6764
▁scal	-11.6769
▁nomina	-11.677
▁scen	-11.6785
▁smok	-11.6804
▁sob	-11.6821
▁claims	-11.6831
▁domin	-11.6834
few	-11.6844
rez	-11.6845
▁improper	-11.6877
xious	-11.6879
▁monkeys	-11.688
▁gra	-11.6902
door	-11.6935
▁contests	-11.6936
▁criticiz	-11.694
▁aspir	-11.6942
owl	-11.6957
▁som	-11.6966
▁hare	-11.6978
▁whi	-11.699
▁abbotts	-11.6991
▁miracles	-11.6991
▁okes	-11.6998
▁callin	-11.7006
▁booth	-11.7006
▁divide	-11.7026
will	-11.7034
▁seeks	-11.7039
urray	-11.7056
▁defi	-11.7056
▁stan	-11.7073
▁tilt	-11.7081
▁sites	-11.7089
inky	-11.7094
tte	-11.7101
▁gradys	-11.7103
him	-11.7106
▁glute	-11.711
▁treats	-11.7115
▁convers	-11.7152
▁wraps	-11.7157
▁bridges	-11.7159
▁prep	-11.7163
▁lodge	-11.7169
▁sizes	-11.7219
cess	-11.723
agging	-11.7272
▁hooks	-11.7273
▁sai	-11.7295
▁rox	-11.7299
▁tails	-11.7317
lessness	-11.732
▁carlo	-11.7325
uous	-11.7331
▁understa	-11.7353
rie	-11.7374
▁tele	-11.7374
▁fil	-11.7379
ookie	-11.738
▁lectur	-11.739
▁ax	-11.74
gging	-11.7401
▁gallo	-11.7404
▁tre	-11.7409
▁hast	-11.7429
▁how	-11.7493
rock	-11.7498
▁lud	-11.752
▁assum	-11.756
actu	-11.7565
tobe	-11.7579
cola	-11.7586
▁concentrat	-11.7589
bie	-11.7593
▁oc	-11.7674
▁pla	-11.7679
▁aspire	-11.7695
but	-11.7708
mx	-11.7743
▁criticize	-11.7749
▁nox	-11.7787
arabe	-11.7789
mia	-11.7825
▁psychologi	-11.7831
insk	-11.7832
▁stevens	-11.7832
▁continu	-11.7835
▁topic	-11.7857
▁foo	-11.786
▁psycholog	-11.7868
▁establishe	-11.7893
▁snob	-11.7896
ucke	-11.7899
▁aaa	-11.7903
▁indicate	-11.7921
song	-11.7923
han	-11.7942
migration	-11.7976
▁comb	-11.7985
▁inhuman	-11.7986
oku	-11.7987
tract	-11.7989
rutti	-11.7996
▁pb	-11.7998
▁observe	-11.8015
nx	-11.8024
▁dove	-11.803
▁liber	-11.8065
▁bio	-11.8094
rapping	-11.8115
itty	-11.8124
oli	-11.8137
▁torme	-11.8163
▁glut	-11.8172
▁bart	-11.819
▁specializ	-11.8196
▁tub	-11.8211
escent	-11.8212
zen	-11.8221
▁compos	-11.8236
▁flyer	-11.8236
have	-11.8251
▁abd	-11.8252
lastic	-11.8354
▁tumblin	-11.8366
dale	-11.8383
▁ti	-11.839
ban	-11.8391
avo	-11.8391
▁pollute	-11.8407
▁mic	-11.8434
▁ava	-11.8435
▁nod	-11.8469
utton	-11.8472
ush	-11.8473
ello	-11.8484
▁eliminat	-11.8485
tty	-11.8493
▁embar	-11.8506
▁ji	-11.851
ologist	-11.852
▁frickin	-11.8525
▁synd	-11.8544
hause	-11.8545
▁tum	-11.8553
▁bol	-11.8554
veil	-11.857
▁xe	-11.858
▁prett	-11.8607
cca	-11.8612
quin	-11.862
ife	-11.8636
▁stat	-11.8649
▁fol	-11.866
immon	-11.8675
udge	-11.8677
▁stew	-11.868
onge	-11.8686
enas	-11.869
owed	-11.8709
ort	-11.8743
▁virtu	-11.8759
▁rube	-11.8759
ques	-11.8762
▁wee	-11.8766
mers	-11.8775
trained	-11.88
posed	-11.8807
▁za	-11.8808
▁alla	-11.8829
akers	-11.8852
▁construct	-11.886
gen	-11.887
zu	-11.8885
ndergar	-11.8887
ja	-11.89
▁advis	-11.8906
▁rib	-11.8911
hm	-11.8919
▁circle	-11.8925
▁dentist	-11.8928
▁cosmetic	-11.8928
▁loofah	-11.8928
▁parachute	-11.8928
▁skeleton	-11.8928
▁peasant	-11.8928
▁survivor	-11.8928
▁fluid	-11.8932
▁interfer	-11.8935
▁rami	-11.8936
reen	-11.8936
▁headquarter	-11.8936
▁intellectual	-11.8936
▁substance	-11.8936
mine	-11.8936
▁regulation	-11.8936
▁divergent	-11.8936
▁sheet	-11.8937
▁hungarian	-11.8937
▁analy	-11.8938
▁emotion	-11.894
▁cigar	-11.8941
▁insect	-11.8941
▁talbot	-11.8941
▁transform	-11.8945
▁eunuch	-11.8946
▁dorri	-11.8947
▁temp	-11.8949
▁inmate	-11.8952
▁advertiser	-11.8955
▁troop	-11.8955
▁screwup	-11.8959
itched	-11.896
▁walter	-11.8963
▁exhale	-11.8965
▁bark	-11.8965
▁tourist	-11.8968
▁sham	-11.8969
tral	-11.8973
▁stray	-11.8974
▁rin	-11.8976
ami	-11.8988
ampoo	-11.899
▁gaze	-11.8991
▁admir	-11.8997
range	-11.8998
▁wei	-11.9001
▁arc	-11.9013
mitt	-11.9031
wned	-11.9034
▁hydr	-11.9036
▁gambl	-11.9036
▁beck	-11.904
▁surround	-11.904
▁replac	-11.9047
▁bub	-11.9049
▁cod	-11.905
▁cre	-11.9052
rge	-11.9053
comm	-11.9056
umpy	-11.9058
▁refus	-11.9058
▁clan	-11.9062
mother	-11.9062
▁rum	-11.9063
▁bloom	-11.9067
arms	-11.9068
▁injur	-11.9069
▁amaz	-11.907
▁chirp	-11.9072
▁consul	-11.9073
▁trv	-11.9076
▁intern	-11.9077
▁howl	-11.9078
▁notic	-11.9078
▁wail	-11.908
▁abort	-11.9081
▁employ	-11.9081
▁condemn	-11.9082
▁accus	-11.9082
▁activat	-11.9083
▁peek	-11.9085
hock	-11.9086
▁pester	-11.9086
natural	-11.9088
connor	-11.9089
search	-11.909
izz	-11.9091
track	-11.9091
with	-11.9091
drum	-11.9091
controlled	-11.9091
authoriz	-11.9092
pole	-11.9092
passes	-11.9092
▁pru	-11.9092
phone	-11.9092
fund	-11.9092
▁inhal	-11.9092
view	-11.9092
jun	-11.9093
published	-11.9093
fifty	-11.9093
condition	-11.9093
professional	-11.9093
type	-11.9093
christian	-11.9093
loving	-11.9093
video	-11.9093
doctor	-11.9093
world	-11.9093
death	-11.9093
first	-11.9094
logan	-11.9094
itchy	-11.9094
decent	-11.9094
dom	-11.9095
strong	-11.9095
▁oppose	-11.9095
clude	-11.9095
▁collapse	-11.9095
dead	-11.9095
class	-11.9096
▁sympath	-11.9096
month	-11.9096
rai	-11.9097
passed	-11.9097
boil	-11.9097
▁casual	-11.9097
sucking	-11.9098
super	-11.9098
▁fantas	-11.9098
bitch	-11.9098
▁extraordinar	-11.9098
bank	-11.9099
odor	-11.9099
▁filth	-11.91
pping	-11.91
▁confuse	-11.91
▁edg	-11.9101
▁probabl	-11.9101
▁swaddl	-11.9102
▁energ	-11.9102
past	-11.9102
▁verb	-11.9103
fever	-11.9103
entities	-11.9103
wait	-11.9103
▁quart	-11.9103
▁ordinar	-11.9104
▁prov	-11.9104
came	-11.9106
▁swo	-11.9106
deep	-11.9107
▁preten	-11.9107
▁assur	-11.9108
▁greed	-11.9108
▁potato	-11.9108
▁centuri	-11.9108
▁coco	-11.9109
▁blok	-11.9109
▁ricard	-11.9109
▁slack	-11.9109
culating	-11.9109
▁region	-11.9109
stock	-11.911
▁confu	-11.9111
▁roach	-11.9111
cast	-11.9111
▁canad	-11.9112
▁stimulat	-11.9112
▁serge	-11.9112
▁opera	-11.9112
ssign	-11.9112
▁anticipat	-11.9112
▁economi	-11.9112
▁weddin	-11.9112
larissa	-11.9113
scribe	-11.9113
atherine	-11.9113
▁movin	-11.9113
jumped	-11.9113
▁scro	-11.9114
▁dread	-11.9114
▁nausea	-11.9114
annah	-11.9114
▁illustr	-11.9114
▁compass	-11.9115
prises	-11.9115
▁swap	-11.9115
▁congratulat	-11.9115
▁neighbour	-11.9115
▁vip	-11.9115
▁approximat	-11.9115
▁expans	-11.9115
allelu	-11.9115
dnik	-11.9115
eapfrog	-11.9115
rrific	-11.9115
uccin	-11.9115
▁abernathy	-11.9115
▁acacia	-11.9115
▁acquisition	-11.9115
▁affiliate	-11.9115
▁agricultur	-11.9115
▁aleluya	-11.9115
▁allegiance	-11.9115
▁alligator	-11.9115
▁amnesia	-11.9115
▁amputate	-11.9115
▁anvwhere	-11.9115
▁apartheid	-11.9115
▁apostle	-11.9115
▁appointed	-11.9115
▁arabic	-11.9115
▁arkadyevna	-11.9115
▁arrogance	-11.9115
▁ashlie	-11.9115
▁ashtray	-11.9115
▁ashurst	-11.9115
▁balcony	-11.9115
▁bamakal	-11.9115
▁belgian	-11.9115
▁believing	-11.9115
▁biochemistry	-11.9115
▁blurred	-11.9115
▁bopaloobop	-11.9115
▁boulevard	-11.9115
▁brainwashed	-11.9115
▁bricklayer	-11.9115
▁brussels	-11.9115
▁bukowski	-11.9115
▁caboose	-11.9115
▁cackling	-11.9115
▁camouflage	-11.9115
▁candace	-11.9115
▁carefui	-11.9115
▁cassandra	-11.9115
▁caution	-11.9115
▁celebrities	-11.9115
▁cemetery	-11.9115
▁centimeter	-11.9115
▁chauvinist	-11.9115
▁cheddar	-11.9115
▁chemistry	-11.9115
▁chitlin	-11.9115
▁chopstick	-11.9115
▁cilla	-11.9115
▁cinnamon	-11.9115
▁coldblooded	-11.9115
▁conform	-11.9115
▁congrats	-11.9115
▁congregation	-11.9115
▁convenience	-11.9115
▁convincing	-11.9115
▁cottage	-11.9115
▁courier	-11.9115
▁creator	-11.9115
▁curator	-11.9115
▁curiosity	-11.9115
▁custodian	-11.9115
▁czech	-11.9115
▁database	-11.9115
▁dauntlessborn	-11.9115
▁deceased	-11.9115
▁deceit	-11.9115
▁decency	-11.9115
▁deception	-11.9115
▁defensive	-11.9115
▁degenerate	-11.9115
▁delfont	-11.9115
▁delirious	-11.9115
▁detroit	-11.9115
▁dilemma	-11.9115
▁diplomacy	-11.9115
▁discharge	-11.9115
▁disown	-11.9115
▁distortion	-11.9115
▁doorknob	-11.9115
▁dopamine	-11.9115
▁ecstasy	-11.9115
▁efficient	-11.9115
▁eggleston	-11.9115
▁elephant	-11.9115
▁emerging	-11.9115
▁emptiness	-11.9115
▁encryption	-11.9115
▁envoy	-11.9115
▁episode	-11.9115
▁evacuate	-11.9115
▁evacuation	-11.9115
▁evaluation	-11.9115
▁execution	-11.9115
▁expanding	-11.9115
▁february	-11.9115
▁fingernail	-11.9115
▁flamethrower	-11.9115
▁fleuret	-11.9115
▁footprint	-11.9115
▁frankenstein	-11.9115
▁fraud	-11.9115
▁frivolous	-11.9115
▁fundraiser	-11.9115
▁gadbaw	-11.9115
▁gendarme	-11.9115
▁genocide	-11.9115
▁geometr	-11.9115
▁ghouls	-11.9115
▁gnarly	-11.9115
▁gnome	-11.9115
▁gobefren	-11.9115
▁grotesque	-11.9115
▁halloween	-11.9115
▁handicrafts	-11.9115
▁handshake	-11.9115
▁hasbeen	-11.9115
▁hawkeye	-11.9115
▁haystack	-11.9115
▁hector	-11.9115
▁hemingway	-11.9115
▁hendrix	-11.9115
▁hirohito	-11.9115
▁homicide	-11.9115
▁hsiaohsiu	-11.9115
▁humbug	-11.9115
▁hypothe	-11.9115
▁identify	-11.9115
▁impuls	-11.9115
▁industries	-11.9115
▁injunction	-11.9115
▁intact	-11.9115
▁interaction	-11.9115
▁intrigue	-11.9115
▁intuition	-11.9115
▁investigator	-11.9115
▁invincible	-11.9115
▁israel	-11.9115
▁kafka	-11.9115
▁kandinsky	-11.9115
▁ketchu	-11.9115
▁kreemo	-11.9115
▁kuninao	-11.9115
▁landlady	-11.9115
▁lawrence	-11.9115
▁lawsuit	-11.9115
▁lezignac	-11.9115
▁lidocaine	-11.9115
▁llfe	-11.9115
▁lorraine	-11.9115
▁lrwin	-11.9115
▁machete	-11.9115
▁maddogged	-11.9115
▁manjido	-11.9115
▁mariepaule	-11.9115
▁marijuana	-11.9115
▁marinka	-11.9115
▁martynov	-11.9115
▁marvellous	-11.9115
▁mashhad	-11.9115
▁mastallone	-11.9115
▁maturity	-11.9115
▁mcclellan	-11.9115
▁mediocre	-11.9115
▁memorial	-11.9115
▁mercenary	-11.9115
▁miguel	-11.9115
▁molecules	-11.9115
▁monobrow	-11.9115
▁mossad	-11.9115
▁muskies	-11.9115
▁nabokov	-11.9115
▁natasha	-11.9115
▁nielsen	-11.9115
▁nifontov	-11.9115
▁noogie	-11.9115
▁norris	-11.9115
▁nuhuh	-11.9115
▁nutrition	-11.9115
▁occupation	-11.9115
▁occurrence	-11.9115
▁octave	-11.9115
▁ortisky	-11.9115
▁output	-11.9115
▁overflow	-11.9115
▁paradox	-11.9115
▁paranoid	-11.9115
▁parrot	-11.9115
▁patricia	-11.9115
▁pencil	-11.9115
▁peoria	-11.9115
▁pharmaceutical	-11.9115
▁phenomenon	-11.9115
▁phoenix	-11.9115
▁piccadilly	-11.9115
▁pichon	-11.9115
▁pledge	-11.9115
▁pneumonia	-11.9115
▁pompadour	-11.9115
▁pontoon	-11.9115
▁pouch	-11.9115
▁practitioner	-11.9115
▁printed	-11.9115
▁pristine	-11.9115
▁privacy	-11.9115
▁propellers	-11.9115
▁prophecie	-11.9115
▁proportion	-11.9115
▁prospect	-11.9115
▁prostitute	-11.9115
▁pursuing	-11.9115
▁racket	-11.9115
▁ramadi	-11.9115
▁receptive	-11.9115
▁redirect	-11.9115
▁rehab	-11.9115
▁reinforce	-11.9115
▁relentless	-11.9115
▁reluctant	-11.9115
▁respiration	-11.9115
▁retail	-11.9115
▁retiring	-11.9115
▁rheingold	-11.9115
▁rizzolis	-11.9115
▁roissy	-11.9115
▁sapien	-11.9115
▁sayogoromo	-11.9115
▁scroggins	-11.9115
▁scully	-11.9115
▁secrecy	-11.9115
▁seleca	-11.9115
▁selfdefense	-11.9115
▁serenity	-11.9115
▁seventyfive	-11.9115
▁shambuck	-11.9115
▁shpilkes	-11.9115
▁shtarker	-11.9115
▁simpson	-11.9115
▁simultaneous	-11.9115
▁sizzling	-11.9115
▁sledding	-11.9115
▁sloven	-11.9115
▁smooch	-11.9115
▁somewhat	-11.9115
▁sorrier	-11.9115
▁spaghetti	-11.9115
▁spears	-11.9115
▁stalker	-11.9115
▁steinbeck	-11.9115
▁stimela	-11.9115
▁stockholm	-11.9115
▁stomping	-11.9115
▁stransky	-11.9115
▁submerged	-11.9115
▁supercharge	-11.9115
▁suspended	-11.9115
▁swag	-11.9115
▁sweatpants	-11.9115
▁tampons	-11.9115
▁tamtam	-11.9115
▁tarconi	-11.9115
▁teapot	-11.9115
▁theatre	-11.9115
▁thompson	-11.9115
▁thread	-11.9115
▁timberlake	-11.9115
▁titani	-11.9115
▁toffee	-11.9115
▁toulouse	-11.9115
▁treasure	-11.9115
▁twilight	-11.9115
▁twirl	-11.9115
▁ukrinsky	-11.9115
▁umbrella	-11.9115
▁unattended	-11.9115
▁unemployed	-11.9115
▁unemployment	-11.9115
▁unsafe	-11.9115
▁uprising	-11.9115
▁utagawa	-11.9115
▁utmost	-11.9115
▁vanilla	-11.9115
▁vibrant	-11.9115
▁vicinity	-11.9115
▁voicemail	-11.9115
▁volare	-11.9115
▁vonnegut	-11.9115
▁voyage	-11.9115
▁wannabe	-11.9115
▁wellrounded	-11.9115
▁whoohoohoo	-11.9115
▁wizard	-11.9115
▁woohoo	-11.9115
▁yergushovo	-11.9115
▁zeppelin	-11.9115
▁zindzi	-11.9115
authentic	-11.9115
▁baboon	-11.9115
▁besieg	-11.9115
▁credential	-11.9115
▁devastat	-11.9115
▁eradicat	-11.9115
▁flounder	-11.9115
▁hippo	-11.9115
▁inject	-11.9115
▁inseminat	-11.9115
▁kowtow	-11.9115
▁lmagine	-11.9115
▁migraine	-11.9115
▁nixon	-11.9115
▁redeploy	-11.9115
▁reneg	-11.9115
▁skewe	-11.9115
▁vacuum	-11.9115
▁apprais	-11.9115
▁beacons	-11.9115
▁befriend	-11.9115
▁buffalo	-11.9115
▁carriage	-11.9115
▁cartridges	-11.9115
▁competing	-11.9115
▁downstage	-11.9115
▁flinch	-11.9115
▁grandparents	-11.9115
▁hellraiser	-11.9115
▁hollow	-11.9115
▁infected	-11.9115
▁irritat	-11.9115
▁koran	-11.9115
▁logger	-11.9115
▁lonnie	-11.9115
▁madonna	-11.9115
▁neela	-11.9115
▁noisv	-11.9115
▁nomad	-11.9115
▁obscur	-11.9115
▁overreacti	-11.9115
▁purity	-11.9115
▁redecorat	-11.9115
▁rigged	-11.9115
▁rohmer	-11.9115
▁salvador	-11.9115
▁scheming	-11.9115
▁scottsdale	-11.9115
▁sensors	-11.9115
▁shrek	-11.9115
▁sicily	-11.9115
▁sidekick	-11.9115
▁token	-11.9115
▁virile	-11.9115
▁warbling	-11.9115
▁agnes	-11.9115
▁bmw	-11.9115
▁cartoons	-11.9115
▁charging	-11.9115
▁cheque	-11.9115
▁communicate	-11.9115
▁dickinson	-11.9115
▁disperse	-11.9115
▁festive	-11.9115
▁fishermen	-11.9115
▁gillesse	-11.9115
▁larkin	-11.9115
▁missouri	-11.9115
▁monstro	-11.9115
▁ninth	-11.9115
▁whereabouts	-11.9115
▁wilderness	-11.9115
▁willows	-11.9115
▁yield	-11.9115
▁bingham	-11.9115
▁eager	-11.9115
▁entity	-11.9115
▁expel	-11.9115
▁firstborn	-11.9115
▁hygien	-11.9115
▁lavene	-11.9115
▁loath	-11.9115
▁martyr	-11.9115
▁redeye	-11.9115
▁sterling	-11.9115
▁sustain	-11.9115
▁unsettl	-11.9115
▁varsity	-11.9115
terran	-11.9115
▁callahan	-11.9115
▁demonstrate	-11.9115
▁groomsmen	-11.9115
▁java	-11.9115
▁jensen	-11.9115
▁margin	-11.9115
▁sniper	-11.9115
▁spicy	-11.9115
▁tavern	-11.9115
▁treacher	-11.9115
▁vagina	-11.9115
▁waiver	-11.9115
▁barracks	-11.9115
▁coupon	-11.9115
▁posner	-11.9115
▁provision	-11.9115
rainin	-11.9115
▁hillbill	-11.9115
▁retain	-11.9115
▁applicable	-11.9115
▁curfew	-11.9115
▁hesitate	-11.9115
▁limp	-11.9115
▁notification	-11.9115
▁ransack	-11.9115
▁nachite	-11.9115
▁plagu	-11.9115
▁skv	-11.9115
▁stephens	-11.9115
▁thrive	-11.9115
▁viral	-11.9115
▁whooshing	-11.9115
▁cpa	-11.9115
▁dorm	-11.9115
▁flops	-11.9115
▁obtain	-11.9115
▁physics	-11.9115
▁telegraph	-11.9115
▁vikings	-11.9115
▁alloy	-11.9115
▁erections	-11.9115
▁proverb	-11.9115
▁floorboards	-11.9115
▁neighbourhood	-11.9115
▁transition	-11.9115
▁blockbuster	-11.9115
▁sizzle	-11.9115
▁shelve	-11.9115
policies	-11.9115
▁chaste	-11.9115
▁decoding	-11.9115
▁rudolph	-11.9115
▁temperament	-11.9115
▁flexib	-11.9115
▁rubles	-11.9115
▁feature	-11.9115
▁anyhow	-11.9115
▁boredom	-11.9115
▁overheat	-11.9115
▁slumber	-11.9115
therwise	-11.9115
remlin	-11.9115
▁hardworking	-11.9115
▁monol	-11.9115
▁pippin	-11.9115
▁whatcha	-11.9115
▁vandal	-11.9115
▁ramsay	-11.9115
▁scrapbook	-11.9115
▁tiara	-11.9115
▁decre	-11.9116
▁fraley	-11.9116
▁phyllis	-11.9116
▁testimon	-11.9116
▁gratitude	-11.9116
▁floss	-11.9116
▁knob	-11.9116
▁promising	-11.9116
▁circulating	-11.9116
▁chubby	-11.9116
▁midwest	-11.9116
▁plunge	-11.9116
▁realizing	-11.9116
▁thatthat	-11.9116
▁insert	-11.9116
▁reproduction	-11.9116
efying	-11.9116
▁blackboards	-11.9116
▁anthats	-11.9116
▁crappy	-11.9116
▁mecca	-11.9116
▁poozer	-11.9116
▁notified	-11.9116
▁organization	-11.9116
▁restrict	-11.9116
▁tweak	-11.9116
▁abomination	-11.9116
▁complement	-11.9116
▁cooing	-11.9116
▁immun	-11.9116
▁reenactment	-11.9116
▁yadada	-11.9116
▁aspirations	-11.9116
▁crawfish	-11.9116
▁noggin	-11.9116
▁resent	-11.9116
▁fender	-11.9116
▁textbook	-11.9116
▁whisk	-11.9116
▁mailbox	-11.9116
▁oxford	-11.9116
▁shamble	-11.9116
▁swapped	-11.9116
▁brisk	-11.9116
▁disneyland	-11.9116
▁nobodv	-11.9116
▁snowflakes	-11.9116
▁commenc	-11.9116
▁contender	-11.9116
▁distress	-11.9116
▁backyard	-11.9116
▁aswan	-11.9116
▁vulnerable	-11.9116
▁xbox	-11.9116
▁dictators	-11.9116
▁insufficient	-11.9116
▁agencies	-11.9116
▁looney	-11.9116
▁nannies	-11.9116
▁stairwell	-11.9116
▁stash	-11.9116
▁ignorant	-11.9116
▁drool	-11.9116
▁navigator	-11.9116
▁tactical	-11.9116
▁armani	-11.9116
▁radioactivity	-11.9116
▁humility	-11.9116
▁wuss	-11.9116
▁cherries	-11.9116
▁redemption	-11.9116
▁vacant	-11.9116
▁tummy	-11.9116
▁swordfish	-11.9116
▁thorn	-11.9116
▁henni	-11.9116
▁foryou	-11.9116
▁jinx	-11.9116
▁bookstore	-11.9116
▁reassur	-11.9116
▁girder	-11.9116
▁jamison	-11.9116
▁curb	-11.9116
▁extensive	-11.9116
▁backstabb	-11.9116
▁fundamentalist	-11.9116
▁bloated	-11.9116
▁creem	-11.9116
▁scanlon	-11.9116
▁backstage	-11.9116
▁napkin	-11.9116
▁plaster	-11.9116
▁impressionists	-11.9116
▁benedict	-11.9116
▁accessories	-11.9116
▁proclaim	-11.9116
rilla	-11.9116
▁claw	-11.9116
▁plaid	-11.9116
▁specimen	-11.9116
▁supervisor	-11.9116
▁snail	-11.9116
▁glamour	-11.9117
▁expertise	-11.9117
▁repent	-11.9117
▁cheeseburger	-11.9117
nika	-11.9117
agha	-11.9117
▁canned	-11.9117
▁venice	-11.9117
▁yacht	-11.9117
▁adultery	-11.9117
amese	-11.9117
▁annette	-11.9117
▁statute	-11.9117
▁viewpoint	-11.9117
▁minority	-11.9117
▁nominated	-11.9117
▁salsa	-11.9117
▁quota	-11.9117
▁pelvi	-11.9117
▁lexus	-11.9117
▁underdog	-11.9117
▁aff	-11.9117
▁leona	-11.9117
forsake	-11.9117
▁bribe	-11.9117
▁daddies	-11.9117
▁cyber	-11.9117
▁queue	-11.9117
▁allright	-11.9117
evski	-11.9117
▁deuce	-11.9117
zillion	-11.9117
▁chef	-11.9117
▁taboo	-11.9117
▁banjo	-11.9117
▁inspection	-11.9117
▁whirs	-11.9117
▁glance	-11.9117
▁blazing	-11.9117
▁griev	-11.9117
▁devise	-11.9117
▁yellowcake	-11.9117
▁counselor	-11.9117
▁ephra	-11.9117
▁aaaw	-11.9117
▁collectors	-11.9117
▁flogg	-11.9117
▁playground	-11.9117
acco	-11.9118
▁flee	-11.9118
▁stakeout	-11.9118
▁affectionate	-11.9118
▁backwards	-11.9118
torium	-11.9118
icular	-11.9118
▁choreographer	-11.9118
▁birthright	-11.9118
▁forum	-11.9118
▁notch	-11.9118
▁excon	-11.9118
▁salute	-11.9118
▁razz	-11.9118
▁liberation	-11.9118
▁colonies	-11.9118
▁porch	-11.9118
▁oohooh	-11.9118
▁heinous	-11.9118
▁coop	-11.9118
▁gutted	-11.9118
▁nsa	-11.9118
▁wench	-11.9118
▁luche	-11.9118
▁percepti	-11.9118
boat	-11.9118
▁cmon	-11.9118
▁danko	-11.9118
▁lutheran	-11.9118
▁pliers	-11.9118
▁unconscious	-11.9118
▁gangster	-11.9118
▁duds	-11.9119
▁convertible	-11.9119
▁corporate	-11.9119
▁psychiatri	-11.9119
▁captive	-11.9119
▁lsland	-11.9119
khan	-11.9119
▁tristen	-11.9119
▁permitted	-11.9119
▁cowardice	-11.9119
▁clarus	-11.9119
▁venture	-11.9119
▁psychotic	-11.9119
▁ambition	-11.9119
idated	-11.9119
rise	-11.9119
▁deprive	-11.9119
▁slob	-11.9119
▁dora	-11.9119
▁clockwork	-11.9119
arina	-11.9119
▁puke	-11.9119
▁abra	-11.9119
▁furious	-11.9119
▁examination	-11.9119
▁bummed	-11.9119
▁shred	-11.9119
▁davis	-11.9119
▁laurent	-11.9119
▁distinction	-11.9119
▁influen	-11.9119
▁curve	-11.912
▁collaboration	-11.912
▁stockings	-11.912
▁invention	-11.912
▁residency	-11.912
▁sketchy	-11.912
▁diagnosed	-11.912
▁alleg	-11.912
▁attic	-11.912
▁buts	-11.912
▁raah	-11.912
▁smother	-11.912
▁stung	-11.912
▁feedback	-11.912
fall	-11.912
▁thirtyfive	-11.912
▁trumpet	-11.912
ikov	-11.912
▁reaii	-11.912
▁tothe	-11.912
▁apprehend	-11.912
▁cruelty	-11.912
▁testified	-11.912
▁malar	-11.912
▁patent	-11.912
▁labour	-11.912
▁tush	-11.912
▁income	-11.912
▁pads	-11.912
▁alcoholism	-11.912
▁hungover	-11.912
▁carlton	-11.9121
book	-11.9121
▁pillar	-11.9121
▁wheez	-11.9121
▁hatred	-11.9121
▁bash	-11.9121
▁ratings	-11.9121
▁spice	-11.9121
▁scroll	-11.9121
▁barbie	-11.9121
▁sammy	-11.9121
▁outlet	-11.9121
betwee	-11.9121
▁acid	-11.9121
▁flier	-11.9121
▁drenched	-11.9121
▁haemostat	-11.9121
▁phrase	-11.9121
▁tidwell	-11.9121
▁voluntary	-11.9121
▁reliable	-11.9121
▁width	-11.9121
▁bradford	-11.9121
▁flock	-11.9121
▁mick	-11.9121
▁philosophy	-11.9121
▁filmmaker	-11.9121
▁tempo	-11.9121
▁shish	-11.9121
ophone	-11.9121
▁regretted	-11.9122
▁whys	-11.9122
▁luna	-11.9122
▁prettier	-11.9122
▁cork	-11.9122
▁firearms	-11.9122
▁dye	-11.9122
▁oui	-11.9122
▁archie	-11.9122
zero	-11.9122
▁braid	-11.9122
ethel	-11.9122
▁ripped	-11.9122
▁vanished	-11.9122
▁glen	-11.9122
▁revolver	-11.9122
▁samples	-11.9122
▁detai	-11.9122
▁disgraceful	-11.9122
▁norman	-11.9122
▁casing	-11.9122
▁niff	-11.9122
▁polo	-11.9123
ettle	-11.9123
▁cooperation	-11.9123
▁font	-11.9123
▁shortcut	-11.9123
▁coconut	-11.9123
imum	-11.9123
▁cocoa	-11.9123
▁stern	-11.9123
▁inherited	-11.9123
▁hotshot	-11.9123
▁brig	-11.9123
▁robberies	-11.9123
▁soil	-11.9123
▁dow	-11.9123
▁ajob	-11.9123
▁bulb	-11.9123
▁reload	-11.9123
▁stripped	-11.9123
▁samir	-11.9123
▁trop	-11.9123
▁damp	-11.9123
▁accusation	-11.9123
▁hamid	-11.9123
▁headband	-11.9123
▁delete	-11.9123
▁sanction	-11.9123
▁roam	-11.9124
▁benny	-11.9124
▁milton	-11.9124
▁chunk	-11.9124
band	-11.9124
▁quon	-11.9124
▁christina	-11.9124
▁controller	-11.9124
▁owned	-11.9124
▁bitterness	-11.9124
▁corruption	-11.9124
▁rig	-11.9125
▁coven	-11.9125
▁minor	-11.9125
▁fda	-11.9125
▁wireless	-11.9125
▁mash	-11.9125
▁jule	-11.9125
▁caption	-11.9125
zheni	-11.9125
▁colle	-11.9125
▁nursery	-11.9125
▁hysterically	-11.9125
▁thundercl	-11.9125
▁seduce	-11.9125
▁tonic	-11.9126
▁aza	-11.9126
▁fork	-11.9126
▁kold	-11.9126
isy	-11.9126
▁caf	-11.9126
▁crate	-11.9126
▁rebellio	-11.9126
▁howell	-11.9126
▁nina	-11.9126
▁silas	-11.9126
▁peak	-11.9126
▁submit	-11.9126
icero	-11.9126
▁tomatoes	-11.9127
▁chores	-11.9127
▁slacker	-11.9127
▁lockdown	-11.9127
▁anhey	-11.9127
▁grandson	-11.9127
▁troll	-11.9127
▁cancelled	-11.9127
▁riddle	-11.9128
▁rebe	-11.9128
▁panel	-11.9128
▁spitting	-11.9128
▁michelle	-11.9128
▁jeanine	-11.9128
▁oneill	-11.9128
▁fuse	-11.9128
▁checkpoint	-11.9128
pop	-11.9128
ssors	-11.9128
▁unpack	-11.9128
▁bowel	-11.9129
▁acquired	-11.9129
▁concluded	-11.9129
▁confined	-11.9129
▁combined	-11.9129
▁mello	-11.9129
▁zoom	-11.9129
▁kris	-11.9129
▁incoming	-11.9129
▁harmoni	-11.9129
cations	-11.9129
iggl	-11.9129
▁cashier	-11.913
▁tuxes	-11.913
▁awareness	-11.913
▁hairpin	-11.913
▁maryland	-11.913
▁conventional	-11.913
▁fictional	-11.913
▁squid	-11.913
▁adjustment	-11.913
ienne	-11.913
▁skim	-11.9131
▁hui	-11.9131
quisit	-11.9131
▁stitches	-11.9131
▁batch	-11.9131
▁deca	-11.9131
▁aii	-11.9131
▁sync	-11.9131
▁clench	-11.9131
vara	-11.9131
▁boycott	-11.9131
▁witty	-11.9131
▁knockout	-11.9132
▁equi	-11.9132
▁casually	-11.9132
▁spotted	-11.9132
iators	-11.9132
▁perth	-11.9133
▁walruses	-11.9133
▁alcoholic	-11.9133
▁copier	-11.9133
▁reins	-11.9133
▁payday	-11.9133
▁bel	-11.9134
▁benton	-11.9134
▁squish	-11.9134
▁scenery	-11.9134
▁sympathy	-11.9135
▁asian	-11.9135
▁allies	-11.9135
▁corsa	-11.9135
▁hedge	-11.9135
▁payback	-11.9135
▁blackwood	-11.9135
▁cole	-11.9136
▁stranded	-11.9136
▁rhythmic	-11.9136
▁brag	-11.9136
▁interrogated	-11.9136
▁ikeep	-11.9136
▁yada	-11.9136
gum	-11.9136
▁taxes	-11.9136
▁watchmaker	-11.9136
▁regression	-11.9137
kok	-11.9137
zmo	-11.9138
▁rockaway	-11.9138
▁dice	-11.9138
▁barker	-11.9138
jad	-11.9138
▁uter	-11.9139
▁imitate	-11.9139
▁virginal	-11.9139
mania	-11.9139
▁todd	-11.9139
▁wonderland	-11.9139
▁iranian	-11.914
▁bien	-11.914
erries	-11.914
▁correction	-11.914
▁shipped	-11.9141
▁berge	-11.9141
▁ladi	-11.9141
▁potion	-11.9141
▁connor	-11.9141
▁psychologist	-11.9141
▁fireplace	-11.9142
▁godmother	-11.9142
▁agony	-11.9143
▁tract	-11.9143
▁pli	-11.9143
▁forman	-11.9143
▁dodger	-11.9143
eckoning	-11.9144
▁maim	-11.9144
▁with	-11.9144
rien	-11.9144
▁tov	-11.9144
▁exclusively	-11.9145
▁realities	-11.9145
▁pear	-11.9145
▁sour	-11.9146
▁investigated	-11.9146
▁purchased	-11.9146
▁scratches	-11.9146
▁babbling	-11.9146
▁ignoring	-11.9146
▁wiring	-11.9146
▁wham	-11.9146
▁motorin	-11.9146
▁err	-11.9146
▁lush	-11.9147
▁sittin	-11.9147
▁hatch	-11.9147
▁tobe	-11.9147
▁lunchtime	-11.9147
▁gump	-11.9147
▁lacerat	-11.9148
▁raft	-11.9148
▁alas	-11.9148
▁burp	-11.9149
▁condemned	-11.9149
▁employed	-11.9149
▁aborted	-11.9149
▁flake	-11.9149
▁consumed	-11.9149
▁transformed	-11.9149
▁jaw	-11.9149
▁thally	-11.915
▁von	-11.915
▁jv	-11.915
▁cocky	-11.915
▁thru	-11.915
annon	-11.9151
▁dav	-11.9151
▁kiddo	-11.9152
▁salva	-11.9152
antali	-11.9152
▁bert	-11.9152
▁sandwiches	-11.9152
▁witnesses	-11.9152
▁hev	-11.9152
▁bein	-11.9153
▁bleeder	-11.9153
▁growth	-11.9153
▁midst	-11.9154
ribbon	-11.9154
erlock	-11.9155
▁homemade	-11.9155
▁receiver	-11.9156
▁xv	-11.9156
▁runner	-11.9156
▁drape	-11.9157
▁anil	-11.9157
▁ames	-11.9157
▁applicants	-11.9158
▁ricochets	-11.9158
mary	-11.9158
▁messinger	-11.9158
▁bedtime	-11.9159
▁leah	-11.9159
▁madness	-11.916
uela	-11.916
▁emerge	-11.9161
▁violeta	-11.9161
▁fellah	-11.9162
▁hut	-11.9162
▁thrashed	-11.9162
▁succeeded	-11.9162
▁headline	-11.9163
▁veter	-11.9163
▁sinus	-11.9163
▁guine	-11.9163
openh	-11.9165
nter	-11.9165
▁avenger	-11.9165
▁trving	-11.9166
▁pestering	-11.9166
adine	-11.9166
▁latte	-11.9166
▁boost	-11.9167
▁countryside	-11.9167
ieu	-11.9167
▁whom	-11.9167
▁bul	-11.9168
▁jen	-11.9168
anza	-11.9169
fricking	-11.9169
▁bellies	-11.9169
▁carny	-11.917
listen	-11.9171
▁silently	-11.9171
▁geniuses	-11.9172
▁shaved	-11.9172
▁samu	-11.9173
▁examined	-11.9173
▁operated	-11.9173
▁digest	-11.9173
▁vill	-11.9173
▁travelers	-11.9173
▁swe	-11.9174
▁bumpy	-11.9175
▁armies	-11.9175
▁translated	-11.9175
▁registered	-11.9175
meditate	-11.9175
vier	-11.9176
▁successor	-11.9176
▁halftime	-11.9176
▁honorable	-11.9176
mplified	-11.9176
▁acceptable	-11.9177
▁likewise	-11.9177
ubbed	-11.9178
▁bushes	-11.9178
▁complicate	-11.9178
▁jab	-11.9178
graph	-11.9179
▁painfully	-11.9179
taking	-11.918
▁buzzer	-11.918
▁iraqi	-11.9181
loud	-11.9181
▁glamm	-11.9181
harmony	-11.9182
▁mmh	-11.9183
▁auguste	-11.9184
▁rarely	-11.9185
▁sunk	-11.9185
▁salty	-11.9185
▁numberone	-11.9186
▁implying	-11.9187
▁voi	-11.9187
gorou	-11.9187
holder	-11.9188
▁comprehend	-11.9188
▁starch	-11.9189
▁briefed	-11.9189
▁restored	-11.919
conclusive	-11.9191
tron	-11.9191
▁animat	-11.9191
▁inventing	-11.9193
▁advised	-11.9195
▁glas	-11.9195
▁halo	-11.9195
▁associated	-11.9197
▁marches	-11.9197
▁jin	-11.9198
▁rescued	-11.9198
again	-11.9199
▁sixth	-11.92
▁statu	-11.92
▁avocadoes	-11.9201
▁sonof	-11.9201
▁layin	-11.9201
▁hick	-11.9202
▁distracted	-11.9202
▁madera	-11.9202
▁sweetness	-11.9203
▁linger	-11.9203
▁cower	-11.9203
▁sum	-11.9204
cio	-11.9204
▁distantly	-11.9204
▁firmly	-11.9204
▁moat	-11.9204
▁deceive	-11.9205
▁hud	-11.9206
eech	-11.9207
▁gown	-11.9207
▁mourning	-11.9207
▁slaying	-11.9207
▁cocking	-11.9207
▁tolling	-11.9208
▁your	-11.9208
illed	-11.9208
yda	-11.9209
▁debat	-11.9209
▁endure	-11.9209
▁helena	-11.9209
rugged	-11.921
▁freakin	-11.921
▁dustin	-11.9215
▁intended	-11.9216
▁complained	-11.9216
▁indi	-11.9216
▁pai	-11.9216
▁willi	-11.9219
▁pointless	-11.9222
▁tri	-11.9224
▁intensely	-11.9224
▁vald	-11.9226
▁tany	-11.9227
▁modeling	-11.9229
▁lick	-11.9229
▁deployed	-11.9229
▁bugg	-11.923
▁biscuits	-11.9231
▁columns	-11.9231
▁enhances	-11.9231
▁maneuvers	-11.9231
▁mtbs	-11.9231
▁politicians	-11.9231
▁souvenirs	-11.9231
▁wrinkles	-11.9231
▁errands	-11.9231
▁homosexuals	-11.9231
▁graduated	-11.9231
▁sentiments	-11.9231
▁keyes	-11.9231
▁cleaners	-11.9232
▁slide	-11.9232
rov	-11.9232
▁airman	-11.9234
bet	-11.9235
erra	-11.9235
▁smugglers	-11.9236
▁nda	-11.9237
▁begged	-11.9238
itous	-11.9241
▁tucker	-11.9244
ition	-11.9247
▁dunk	-11.9247
▁thumping	-11.9248
▁pest	-11.925
▁immigrants	-11.925
▁transformer	-11.9251
▁bluff	-11.9254
sistence	-11.9255
▁jumpin	-11.9256
▁helm	-11.9256
▁politically	-11.9258
ugger	-11.9258
▁nono	-11.9259
▁darts	-11.9262
▁hypocrit	-11.9262
dad	-11.9262
▁checkup	-11.9263
▁positively	-11.9264
▁wired	-11.9265
▁swelling	-11.9267
▁disturbing	-11.9268
▁poisoning	-11.9269
▁weighed	-11.9269
▁hass	-11.9269
▁witnessed	-11.927
▁hose	-11.9273
aby	-11.9273
audi	-11.9276
▁frat	-11.9276
▁logo	-11.9278
ooooo	-11.9278
▁commercially	-11.9281
▁solved	-11.9286
▁gamble	-11.9286
ydia	-11.9286
▁robin	-11.9287
▁advocat	-11.9287
▁lard	-11.9288
▁comforting	-11.9288
▁carton	-11.9294
▁linked	-11.9296
▁recommended	-11.9297
▁scotty	-11.9298
▁perks	-11.93
llies	-11.9302
▁shovel	-11.9303
▁undermin	-11.9304
▁cosmetics	-11.9306
▁loofahs	-11.9306
▁parachutes	-11.9306
▁skeletons	-11.9306
▁peasants	-11.9306
▁survivors	-11.9306
▁screwups	-11.9306
▁dentists	-11.9307
▁funding	-11.9307
▁fluids	-11.9307
▁lending	-11.9309
▁advertisers	-11.931
▁qualifi	-11.9312
▁import	-11.9313
▁princesses	-11.9318
▁ady	-11.9318
▁cursed	-11.9322
ooks	-11.9322
▁friggin	-11.9323
▁analyz	-11.9324
▁chilled	-11.9324
esis	-11.9328
▁brushing	-11.9329
▁resisting	-11.933
▁lan	-11.9332
▁parisian	-11.9333
smell	-11.9336
▁perk	-11.9343
▁tribu	-11.9344
▁teeny	-11.9345
mber	-11.9348
▁preserve	-11.9351
▁prey	-11.9353
▁meh	-11.9358
▁ode	-11.9359
bags	-11.9359
▁bigtime	-11.9363
▁whit	-11.9364
▁commune	-11.9365
▁tricky	-11.9368
▁healing	-11.937
▁noted	-11.937
▁seeds	-11.9375
▁gaga	-11.9379
▁fountains	-11.9383
▁functions	-11.9383
▁lengths	-11.9383
▁masterpieces	-11.9383
▁snacks	-11.9383
▁obligations	-11.9384
▁wildly	-11.9384
▁protector	-11.939
▁burnin	-11.9391
▁harmed	-11.9393
▁drifting	-11.9395
aux	-11.9396
▁clamp	-11.9403
▁lia	-11.9406
▁nipp	-11.9407
hmm	-11.9408
petition	-11.9409
▁girlie	-11.941
▁deeper	-11.941
▁hype	-11.9415
▁reviewing	-11.9416
▁handlers	-11.9417
▁prohibit	-11.9422
▁rollin	-11.9423
omen	-11.9427
▁bred	-11.9429
▁flowing	-11.9438
crap	-11.9439
▁layers	-11.9447
▁fiance	-11.9453
▁stings	-11.9453
rds	-11.9458
▁belche	-11.9458
▁critics	-11.9458
▁privileges	-11.9459
▁recruits	-11.9459
▁sausages	-11.9459
▁jewels	-11.9464
start	-11.947
ofthe	-11.9478
umber	-11.9479
▁virtue	-11.9485
crim	-11.949
▁dealt	-11.9494
choo	-11.9495
dler	-11.9499
▁server	-11.9506
ffy	-11.9518
iro	-11.9518
▁bolt	-11.952
▁brute	-11.9521
▁divers	-11.9525
▁curls	-11.9532
▁tener	-11.9535
▁radicals	-11.9537
▁facials	-11.9537
▁carpets	-11.9537
▁previews	-11.9537
▁communists	-11.9537
▁ruining	-11.9538
▁models	-11.9539
assed	-11.9541
▁shipments	-11.9545
▁yeeha	-11.9545
▁parked	-11.9545
▁outf	-11.9556
▁messy	-11.957
▁tags	-11.958
rink	-11.9589
▁roy	-11.9593
▁lefthand	-11.9597
▁foreigner	-11.9605
hys	-11.9608
▁dreamer	-11.9614
▁sleepin	-11.9619
▁tak	-11.9634
▁performer	-11.9635
▁milli	-11.9641
▁happenin	-11.9642
▁castrat	-11.9647
▁compress	-11.9675
▁referr	-11.9693
ency	-11.9707
hooters	-11.9745
▁keepers	-11.9763
▁characterize	-11.977
▁bei	-11.9798
tensive	-11.9806
date	-11.9809
▁rosar	-11.9811
▁watchin	-11.9816
duct	-11.9819
▁eliminate	-11.9826
humanity	-11.9829
▁terr	-11.9843
hung	-11.9845
suits	-11.985
▁anth	-11.987
▁sambo	-11.9876
dding	-11.9886
arious	-11.9918
▁aud	-11.9922
ndale	-11.9936
▁cli	-11.9945
ddie	-11.9946
▁intoleran	-11.995
acious	-11.9956
▁lik	-11.9967
ocus	-11.9968
ario	-11.9974
▁taped	-11.998
▁signor	-12.0013
icial	-12.0019
position	-12.0019
▁spun	-12.002
▁carrie	-12.0048
▁valer	-12.0053
▁deut	-12.0057
▁swi	-12.0076
▁gla	-12.008
imic	-12.0101
ssies	-12.0107
▁cuter	-12.0113
than	-12.0127
bia	-12.0134
▁overlook	-12.0152
▁dim	-12.0167
uga	-12.017
▁abdo	-12.019
▁revi	-12.0192
▁whoop	-12.0219
▁coug	-12.0223
ith	-12.0298
▁prim	-12.0302
clamation	-12.0326
▁horo	-12.0327
rry	-12.0355
▁knitte	-12.0386
aaah	-12.0418
ilk	-12.0454
armed	-12.046
zar	-12.0479
epic	-12.0485
▁bounc	-12.0493
▁disco	-12.051
▁joyful	-12.0512
▁replicat	-12.0515
rete	-12.0534
▁sampl	-12.0544
▁ante	-12.0566
globe	-12.0573
oka	-12.0582
▁shorten	-12.0596
oise	-12.0612
▁bullie	-12.0662
▁slapp	-12.0696
▁invade	-12.0701
▁pronounce	-12.0757
▁conceive	-12.0757
▁infiltrate	-12.0775
▁manufacture	-12.0775
▁sticker	-12.078
went	-12.0803
ordial	-12.0844
medi	-12.0865
▁produc	-12.0878
▁vine	-12.0882
ipping	-12.0889
▁kimb	-12.0894
match	-12.0902
quiz	-12.0907
▁pub	-12.1
ull	-12.1016
▁cath	-12.1055
orious	-12.1105
uce	-12.1117
hhh	-12.1132
▁pook	-12.1204
▁cooperati	-12.1247
ative	-12.1267
evich	-12.1279
ecu	-12.1284
eline	-12.1353
dental	-12.1355
▁dent	-12.138
▁socialist	-12.1434
▁ludi	-12.1445
rake	-12.1478
▁tense	-12.1478
quer	-12.1489
▁def	-12.1498
▁hacke	-12.1535
▁mav	-12.1538
west	-12.1541
lack	-12.1542
profitable	-12.1566
▁ando	-12.1569
▁celi	-12.1589
cute	-12.1592
ushi	-12.1601
▁abusi	-12.1629
▁herm	-12.1633
competent	-12.1653
▁bikin	-12.1658
▁kil	-12.1663
▁chemo	-12.169
hank	-12.1696
ether	-12.1709
aris	-12.1726
ished	-12.1732
▁interven	-12.1738
mon	-12.1743
▁sho	-12.1752
▁mamama	-12.1772
▁glu	-12.1794
▁vend	-12.182
handedly	-12.1831
▁twe	-12.1874
ule	-12.1886
▁twinkl	-12.1901
▁indo	-12.1904
hat	-12.1914
▁dart	-12.2019
rent	-12.2054
ision	-12.2066
itation	-12.2069
oir	-12.2072
youre	-12.2101
ila	-12.2108
morr	-12.2116
▁km	-12.2134
version	-12.2137
ndi	-12.2181
▁mau	-12.2188
ore	-12.2203
nish	-12.2226
plicate	-12.2253
uity	-12.2281
tious	-12.2291
eating	-12.2376
ku	-12.2385
▁proclam	-12.2403
stark	-12.2413
▁prima	-12.2419
vette	-12.246
turban	-12.247
▁achiev	-12.2474
undo	-12.2478
▁sadde	-12.2518
napped	-12.2524
▁pip	-12.2533
visor	-12.254
verse	-12.2544
▁maca	-12.2609
▁croc	-12.2615
tically	-12.2629
▁bake	-12.2655
▁drak	-12.2669
obbing	-12.2733
▁sto	-12.2762
▁bur	-12.2812
▁persist	-12.2827
nite	-12.2828
▁unli	-12.283
▁seduc	-12.2851
cious	-12.2904
person	-12.2942
ferred	-12.2961
▁immobilize	-12.2968
▁bl	-12.298
ulated	-12.2993
▁terminat	-12.3017
guided	-12.3032
disciplined	-12.3038
▁emil	-12.3043
▁hock	-12.3047
narchy	-12.3098
nson	-12.3105
pression	-12.3116
live	-12.3167
▁vot	-12.3182
iant	-12.3185
fulness	-12.3188
eah	-12.3208
▁gradua	-12.3208
▁rom	-12.3229
▁scrape	-12.3262
itches	-12.3294
▁complet	-12.3308
cell	-12.332
neva	-12.3331
how	-12.3334
▁doo	-12.3335
▁ahha	-12.3337
ooh	-12.3345
▁hun	-12.3347
▁sani	-12.3367
▁unfi	-12.3371
aline	-12.3379
key	-12.345
bur	-12.3466
dresser	-12.3472
▁kaz	-12.3475
ext	-12.348
jay	-12.3492
lev	-12.3529
▁mill	-12.3537
itude	-12.3547
▁belch	-12.356
parable	-12.356
rad	-12.3571
rack	-12.3584
▁perver	-12.3586
icle	-12.3601
▁manipulat	-12.3609
hao	-12.3625
▁troubl	-12.3631
▁slav	-12.3655
antic	-12.3663
eeze	-12.3667
▁jeopard	-12.3671
thinking	-12.3672
belonging	-12.3681
▁plat	-12.3696
erber	-12.3707
making	-12.3721
ample	-12.3728
ooze	-12.3729
▁clip	-12.3744
ault	-12.3752
▁qualif	-12.3757
▁poe	-12.3762
▁constitution	-12.3764
▁plu	-12.3765
▁monument	-12.3765
eference	-12.3794
▁appreciat	-12.3796
▁stri	-12.3813
▁antoni	-12.3816
hors	-12.3818
chia	-12.3822
▁cur	-12.3824
unting	-12.383
cab	-12.3831
iveness	-12.3831
wise	-12.3844
▁numer	-12.3855
pile	-12.3868
illin	-12.3868
cla	-12.3876
▁granddad	-12.3887
▁bluffin	-12.3892
witch	-12.3904
listed	-12.3919
rawl	-12.392
▁sentiment	-12.3927
▁biscuit	-12.3929
▁column	-12.3929
▁enhance	-12.3929
▁homosexual	-12.3929
▁maneuver	-12.3929
▁politician	-12.3929
▁souvenir	-12.3929
▁mtb	-12.3929
▁wrinkle	-12.393
▁welcom	-12.3931
▁errand	-12.3931
nati	-12.3936
▁relation	-12.3937
▁slid	-12.3937
▁habsburg	-12.3938
▁curtain	-12.3938
▁spectacle	-12.3938
tacle	-12.3938
▁statistic	-12.3938
▁rumble	-12.3938
writer	-12.3938
▁vegetable	-12.3939
code	-12.3941
▁toot	-12.3942
▁stutter	-12.3942
▁thumb	-12.3942
▁consultant	-12.3942
▁cramp	-12.3943
▁explosive	-12.3943
▁employee	-12.3944
▁trump	-12.3945
▁graphic	-12.3945
tated	-12.3951
ooked	-12.3952
lot	-12.3952
▁vampire	-12.3953
▁corp	-12.3953
▁texa	-12.3954
▁coordinate	-12.3954
duced	-12.3957
▁balloon	-12.3957
▁footstep	-12.3961
minated	-12.3961
▁parent	-12.3963
▁smuggler	-12.3965
migrants	-12.3966
▁reduc	-12.3973
▁inhale	-12.3981
now	-12.3984
nclusive	-12.3993
berry	-12.4
agra	-12.4001
▁cruis	-12.4002
pper	-12.4003
▁sacrific	-12.4004
gary	-12.4005
▁counterfeit	-12.4005
mile	-12.4007
▁nun	-12.4008
▁consum	-12.4018
▁ignor	-12.402
uffl	-12.4021
▁obli	-12.4029
mited	-12.4031
ought	-12.4032
idin	-12.4032
omin	-12.4034
▁giggle	-12.4035
▁swee	-12.4037
▁gree	-12.4039
▁morale	-12.404
otic	-12.4044
▁bogu	-12.4046
▁ration	-12.4046
▁wir	-12.4047
▁retriev	-12.4052
look	-12.4055
▁gran	-12.4057
jump	-12.406
▁unc	-12.4062
mony	-12.4064
▁undertake	-12.4064
lifter	-12.4064
▁babbl	-12.4065
color	-12.4066
▁plumb	-12.4067
▁dari	-12.4067
▁decid	-12.4068
▁breed	-12.4069
east	-12.4069
▁squawk	-12.4069
▁whinny	-12.4071
▁introduc	-12.4072
▁russ	-12.4075
▁plac	-12.4075
kill	-12.4078
▁disobey	-12.4079
▁imprison	-12.4079
▁perpet	-12.4079
▁repair	-12.408
▁confront	-12.4081
▁pakistan	-12.4082
▁consume	-12.4082
strings	-12.4083
▁shov	-12.4084
▁select	-12.4084
▁strand	-12.4085
▁essa	-12.4085
plifting	-12.4085
▁stun	-12.4085
▁overwhelm	-12.4085
aver	-12.4086
conscious	-12.4086
discretion	-12.4087
dispute	-12.4087
programmed	-12.4087
inhabit	-12.4087
lulu	-12.4087
retching	-12.4087
friendly	-12.4088
cles	-12.4088
clench	-12.409
significant	-12.4091
indulge	-12.4091
▁bailin	-12.4091
storm	-12.4091
breeding	-12.4091
balance	-12.4091
▁persuade	-12.4091
satisfied	-12.4091
▁shir	-12.4092
pipe	-12.4092
special	-12.4092
grown	-12.4092
frame	-12.4092
founded	-12.4092
▁contin	-12.4092
kansas	-12.4092
soaked	-12.4092
tooth	-12.4092
announced	-12.4092
conquer	-12.4092
appa	-12.4092
identifi	-12.4092
grade	-12.4093
perimeter	-12.4093
brush	-12.4093
▁slee	-12.4093
adventure	-12.4093
anniversary	-12.4093
quote	-12.4093
bishop	-12.4093
spoken	-12.4093
blown	-12.4093
effect	-12.4093
grateful	-12.4093
proof	-12.4093
▁forge	-12.4093
spending	-12.4093
material	-12.4093
driver	-12.4093
positive	-12.4093
built	-12.4093
ordered	-12.4093
principal	-12.4093
weather	-12.4093
juice	-12.4093
picking	-12.4093
complete	-12.4093
product	-12.4093
group	-12.4093
club	-12.4094
grand	-12.4094
protect	-12.4094
intelligence	-12.4094
secret	-12.4094
attack	-12.4094
▁acquire	-12.4094
stories	-12.4094
▁confine	-12.4094
white	-12.4094
tape	-12.4094
something	-12.4094
people	-12.4094
different	-12.4094
hammer	-12.4094
wide	-12.4094
theyre	-12.4094
talk	-12.4094
believe	-12.4094
▁sacr	-12.4094
nothing	-12.4094
meaning	-12.4094
▁exhal	-12.4094
dust	-12.4094
father	-12.4094
brother	-12.4094
paint	-12.4094
▁assemble	-12.4095
wedding	-12.4095
jacket	-12.4095
▁conclude	-12.4095
▁combine	-12.4095
▁expose	-12.4096
▁isolate	-12.4096
▁relieve	-12.4096
haul	-12.4096
palm	-12.4096
trust	-12.4096
miami	-12.4096
tender	-12.4096
▁relate	-12.4096
bomb	-12.4096
▁grandchild	-12.4096
joke	-12.4096
boot	-12.4097
▁soak	-12.4097
cause	-12.4097
park	-12.4097
wanted	-12.4097
varia	-12.4097
▁evident	-12.4097
▁miraculous	-12.4097
▁atlant	-12.4097
letter	-12.4098
▁luxur	-12.4098
brake	-12.4098
▁gloom	-12.4098
monster	-12.4099
▁hysterical	-12.4099
▁identit	-12.4099
▁crud	-12.4099
blem	-12.4099
▁compan	-12.4099
milk	-12.41
knit	-12.41
▁interrogate	-12.41
▁kennel	-12.41
▁somebod	-12.41
when	-12.41
▁grin	-12.4101
kept	-12.4101
▁summ	-12.4101
human	-12.4101
▁singlehanded	-12.4101
▁presid	-12.4101
▁absolut	-12.4101
▁apparent	-12.4102
▁inevitabl	-12.4102
▁participat	-12.4102
▁jessi	-12.4102
qua	-12.4102
▁recip	-12.4103
change	-12.4103
▁exile	-12.4103
ification	-12.4103
▁especial	-12.4104
iders	-12.4104
stoy	-12.4104
fill	-12.4105
▁rio	-12.4105
killer	-12.4105
▁wrestle	-12.4105
▁disast	-12.4105
zip	-12.4106
▁trench	-12.4107
max	-12.4107
plus	-12.4107
▁happie	-12.4107
fold	-12.4107
▁curren	-12.4108
▁contribut	-12.4108
olves	-12.4108
▁virgi	-12.4108
▁plugg	-12.4108
▁buddh	-12.4109
▁dignit	-12.4109
tub	-12.4109
▁revolv	-12.4109
▁journ	-12.4109
▁rabbi	-12.4109
▁neutr	-12.4109
▁feminis	-12.4109
▁julia	-12.411
▁rica	-12.411
▁quadr	-12.411
▁inspect	-12.411
▁mandel	-12.411
horse	-12.4111
▁sancti	-12.4111
▁manipulate	-12.4111
bean	-12.4112
▁orga	-12.4112
▁flog	-12.4112
▁inex	-12.4112
▁equat	-12.4112
▁enthusias	-12.4112
▁decisi	-12.4112
▁blazin	-12.4112
measur	-12.4112
▁infer	-12.4112
▁anythin	-12.4113
▁lauren	-12.4113
▁drivin	-12.4113
▁givin	-12.4113
uzzle	-12.4113
coherent	-12.4113
▁pacifi	-12.4113
exican	-12.4113
incin	-12.4113
▁negotia	-12.4113
ranquil	-12.4113
▁forgo	-12.4113
▁literal	-12.4114
▁spontane	-12.4114
▁fundamental	-12.4114
▁anshe	-12.4114
▁loneli	-12.4114
▁alternat	-12.4114
affle	-12.4114
▁uncertain	-12.4114
▁outrage	-12.4114
lamin	-12.4115
▁distr	-12.4115
mportant	-12.4115
attle	-12.4115
tribute	-12.4115
▁ameri	-12.4115
▁reproduc	-12.4115
athon	-12.4115
mobil	-12.4115
intellig	-12.4115
▁thresh	-12.4115
▁slum	-12.4115
toria	-12.4115
fur	-12.4115
cita	-12.4115
hwhee	-12.4115
communicat	-12.4115
▁gruel	-12.4115
▁insur	-12.4115
▁drippin	-12.4115
▁barrac	-12.4115
egreg	-12.4115
▁aggravat	-12.4115
▁anonym	-12.4115
▁discriminat	-12.4115
▁guarango	-12.4115
▁impregna	-12.4115
▁irritab	-12.4115
▁legislat	-12.4115
▁oldlady	-12.4115
▁recollect	-12.4115
▁scrutin	-12.4115
▁suspense	-12.4115
▁zapat	-12.4115
atriarchy	-12.4115
consuming	-12.4115
damntee	-12.4115
destructive	-12.4115
fiddlesticks	-12.4115
fuge	-12.4115
mortgage	-12.4115
nunciat	-12.4115
oscope	-12.4115
politan	-12.4115
provincial	-12.4115
reassignment	-12.4115
tanglement	-12.4115
ukil	-12.4115
▁accomplice	-12.4115
▁accountancy	-12.4115
▁accumulate	-12.4115
▁acknowledging	-12.4115
▁activist	-12.4115
▁aerospace	-12.4115
▁afrikaner	-12.4115
▁alannowshutup	-12.4115
▁alcatraz	-12.4115
▁aldercapt	-12.4115
▁alpaca	-12.4115
▁amakasu	-12.4115
▁amphion	-12.4115
▁analgesic	-12.4115
▁anecdotes	-12.4115
▁anstudent	-12.4115
▁antenna	-12.4115
▁antioxidants	-12.4115
▁apparatus	-12.4115
▁appeased	-12.4115
▁assembly	-12.4115
▁automobile	-12.4115
▁aviation	-12.4115
▁ayatollah	-12.4115
▁baccarat	-12.4115
▁badabom	-12.4115
▁banshee	-12.4115
▁barbeque	-12.4115
▁barricade	-12.4115
▁battalion	-12.4115
▁beagle	-12.4115
▁bedpans	-12.4115
▁berkeley	-12.4115
▁birmingham	-12.4115
▁bonerattling	-12.4115
▁bottleneck	-12.4115
▁bouillon	-12.4115
▁bourgeois	-12.4115
▁bradstreet	-12.4115
▁brittany	-12.4115
▁brochure	-12.4115
▁broomstick	-12.4115
▁bucharest	-12.4115
▁burgundy	-12.4115
▁cackle	-12.4115
▁capisce	-12.4115
▁capitol	-12.4115
▁cavalry	-12.4115
▁censored	-12.4115
▁censorship	-12.4115
▁ceremoni	-12.4115
▁chanchito	-12.4115
▁charisma	-12.4115
▁chauffeur	-12.4115
▁chechnya	-12.4115
▁chiquita	-12.4115
▁cinderella	-12.4115
▁cobrand	-12.4115
▁colombia	-12.4115
▁commotion	-12.4115
▁commute	-12.4115
▁condominiums	-12.4115
▁confetti	-12.4115
▁constrict	-12.4115
▁conundrum	-12.4115
▁coordinator	-12.4115
▁copromotion	-12.4115
▁corinne	-12.4115
▁corridor	-12.4115
▁corvette	-12.4115
▁countersuit	-12.4115
▁creativity	-12.4115
▁crisco	-12.4115
▁cristal	-12.4115
▁critter	-12.4115
▁crossroads	-12.4115
▁crotch	-12.4115
▁crouch	-12.4115
▁crupps	-12.4115
▁crusoe	-12.4115
▁crutch	-12.4115
▁csection	-12.4115
▁cuddl	-12.4115
▁cullen	-12.4115
▁cunnilingus	-12.4115
▁dafoe	-12.4115
▁dagneau	-12.4115
▁darryl	-12.4115
▁declaration	-12.4115
▁decorator	-12.4115
▁degrad	-12.4115
▁deluca	-12.4115
▁delusion	-12.4115
▁demographic	-12.4115
▁deputy	-12.4115
▁deviant	-12.4115
▁devotion	-12.4115
▁diarrhea	-12.4115
▁dictionary	-12.4115
▁dilated	-12.4115
▁dinatelli	-12.4115
▁disciple	-12.4115
▁discount	-12.4115
▁discouraged	-12.4115
▁discrepancy	-12.4115
▁dishwash	-12.4115
▁displease	-12.4115
▁domaine	-12.4115
▁douche	-12.4115
▁downstream	-12.4115
▁dysfunction	-12.4115
▁eduardo	-12.4115
▁elegant	-12.4115
▁elongated	-12.4115
▁emancipati	-12.4115
▁embalming	-12.4115
▁empathy	-12.4115
▁enslaved	-12.4115
▁ernesto	-12.4115
▁evaluate	-12.4115
▁evangelical	-12.4115
▁exaggerate	-12.4115
▁exaggerating	-12.4115
▁exboyfriend	-12.4115
▁excellency	-12.4115
▁exhusband	-12.4115
▁expire	-12.4115
▁facade	-12.4115
▁fascist	-12.4115
▁fellatio	-12.4115
▁fiddle	-12.4115
▁fischer	-12.4115
▁flaubert	-12.4115
▁fragrance	-12.4115
▁frustrations	-12.4115
▁fullbody	-12.4115
▁furisode	-12.4115
▁gatorade	-12.4115
▁gibson	-12.4115
▁glauca	-12.4115
▁glickman	-12.4115
▁glitch	-12.4115
▁greyhound	-12.4115
▁guacamole	-12.4115
▁guilbert	-12.4115
▁hairstyle	-12.4115
▁hashtag	-12.4115
▁hedgehog	-12.4115
▁hemisphere	-12.4115
▁hendrick	-12.4115
▁hernia	-12.4115
▁hierarch	-12.4115
▁highprofi	-12.4115
▁highrisk	-12.4115
▁hightailed	-12.4115
▁hollering	-12.4115
▁horizon	-12.4115
▁horrifying	-12.4115
▁hostilities	-12.4115
▁hotwire	-12.4115
▁hsien	-12.4115
▁huffs	-12.4115
▁hurricane	-12.4115
▁hymie	-12.4115
▁iginol	-12.4115
▁ignit	-12.4115
▁impartial	-12.4115
▁incarcerat	-12.4115
▁incompatible	-12.4115
▁inconspicuous	-12.4115
▁incorrect	-12.4115
▁indefinitely	-12.4115
▁indestructible	-12.4115
▁industrial	-12.4115
▁inferior	-12.4115
▁infringes	-12.4115
▁injustice	-12.4115
▁innuendo	-12.4115
▁insanity	-12.4115
▁insatiable	-12.4115
▁insufferable	-12.4115
▁intimidated	-12.4115
▁intoxicated	-12.4115
▁intuitive	-12.4115
▁jacuzzi	-12.4115
▁jordy	-12.4115
▁jukebox	-12.4115
▁jurisdiction	-12.4115
▁kabuki	-12.4115
▁kapoor	-12.4115
▁kikukawa	-12.4115
▁kilometers	-12.4115
▁lecithin	-12.4115
▁leprechaun	-12.4115
▁leukemia	-12.4115
▁leviticus	-12.4115
▁lifechanging	-12.4115
▁lindner	-12.4115
▁lobster	-12.4115
▁lolita	-12.4115
▁lopsided	-12.4115
▁mahalo	-12.4115
▁makeithappen	-12.4115
▁mammals	-12.4115
▁manifesto	-12.4115
▁marshmallows	-12.4115
▁marylouise	-12.4115
▁mastermind	-12.4115
▁mechanism	-12.4115
▁memorandum	-12.4115
▁merchant	-12.4115
▁mercury	-12.4115
▁merino	-12.4115
▁microscop	-12.4115
▁mikhailovich	-12.4115
▁milwaukee	-12.4115
▁mirabel	-12.4115
▁miscarri	-12.4115
▁modesty	-12.4115
▁mongrel	-12.4115
▁motherinlaw	-12.4115
▁moustache	-12.4115
▁multimillion	-12.4115
▁multitude	-12.4115
▁neanderthal	-12.4115
▁nebraska	-12.4115
▁necessity	-12.4115
▁neglected	-12.4115
▁nikolay	-12.4115
▁nineoneone	-12.4115
▁ninja	-12.4115
▁nishikie	-12.4115
▁nominees	-12.4115
▁noriega	-12.4115
▁nueveunouno	-12.4115
▁nuisance	-12.4115
▁obscenity	-12.4115
▁okeydoke	-12.4115
▁oodgay	-12.4115
▁overthetop	-12.4115
▁pamphlet	-12.4115
▁pantyhose	-12.4115
▁parcel	-12.4115
▁pebble	-12.4115
▁pedrito	-12.4115
▁peripheral	-12.4115
▁perseverance	-12.4115
▁petrovna	-12.4115
▁peugeot	-12.4115
▁pharmacy	-12.4115
▁phenomenal	-12.4115
▁phobia	-12.4115
▁photocopier	-12.4115
▁pinnacle	-12.4115
▁pocketknife	-12.4115
▁pollock	-12.4115
▁pompoms	-12.4115
▁portfolio	-12.4115
▁portugal	-12.4115
▁possibilities	-12.4115
▁predecessor	-12.4115
▁prejudice	-12.4115
▁premise	-12.4115
▁preregistered	-12.4115
▁presbyterian	-12.4115
▁prescription	-12.4115
▁privy	-12.4115
▁probabilit	-12.4115
▁proteas	-12.4115
▁pupils	-12.4115
▁rattlesnake	-12.4115
▁receipt	-12.4115
▁recycling	-12.4115
▁refractories	-12.4115
▁registration	-12.4115
▁regurg	-12.4115
▁relevant	-12.4115
▁retrospective	-12.4115
▁riebeeck	-12.4115
▁roberino	-12.4115
▁rostova	-12.4115
▁rubenstein	-12.4115
▁rumplemayers	-12.4115
▁sacramento	-12.4115
▁saintemarie	-12.4115
▁satirize	-12.4115
▁scapegoat	-12.4115
▁schlitz	-12.4115
▁schnapps	-12.4115
▁schwartz	-12.4115
▁sciatica	-12.4115
▁scorpio	-12.4115
▁scoundrel	-12.4115
▁scribble	-12.4115
▁scruff	-12.4115
▁scuzz	-12.4115
▁segregation	-12.4115
▁semiformal	-12.4115
▁sequence	-12.4115
▁serene	-12.4115
▁sholokhov	-12.4115
▁singapore	-12.4115
▁sloppy	-12.4115
▁smartypants	-12.4115
▁sondheim	-12.4115
▁soporfic	-12.4115
▁squeezing	-12.4115
▁squirrels	-12.4115
▁squirt	-12.4115
▁stamey	-12.4115
▁stanhope	-12.4115
▁stellar	-12.4115
▁stokau	-12.4115
▁stonehenge	-12.4115
▁strangling	-12.4115
▁strumming	-12.4115
▁strychnine	-12.4115
▁stryker	-12.4115
▁stumble	-12.4115
▁suhara	-12.4115
▁suisse	-12.4115
▁sullivan	-12.4115
▁sunscreen	-12.4115
▁sweepstakes	-12.4115
▁swindler	-12.4115
▁symposium	-12.4115
▁synchroniz	-12.4115
▁syphilis	-12.4115
▁tarantino	-12.4115
▁tarzan	-12.4115
▁tawdry	-12.4115
▁terrifying	-12.4115
▁theoretical	-12.4115
▁thermometer	-12.4115
▁threequarters	-12.4115
▁tiehhsin	-12.4115
▁tirade	-12.4115
▁tolik	-12.4115
▁toothpaste	-12.4115
▁tourniquet	-12.4115
▁townsfolk	-12.4115
▁tracheotomy	-12.4115
▁trampoline	-12.4115
▁transparency	-12.4115
▁trifle	-12.4115
▁trousseau	-12.4115
▁trussi	-12.4115
▁turbulence	-12.4115
▁turbulent	-12.4115
▁turrets	-12.4115
▁ultra	-12.4115
▁unadoptable	-12.4115
▁unavailable	-12.4115
▁uncontrollabl	-12.4115
▁undetect	-12.4115
▁unearth	-12.4115
▁unjam	-12.4115
▁unprepared	-12.4115
▁unprov	-12.4115
▁unseemly	-12.4115
▁uplink	-12.4115
▁uranium	-12.4115
▁vengeance	-12.4115
▁verdict	-12.4115
▁vesterdav	-12.4115
▁viatka	-12.4115
▁vineyard	-12.4115
▁vinplatin	-12.4115
▁vocabulary	-12.4115
▁walnut	-12.4115
▁wardrobe	-12.4115
▁watermelon	-12.4115
▁welfare	-12.4115
▁whitacker	-12.4115
▁whitbread	-12.4115
▁wickham	-12.4115
▁winchester	-12.4115
▁windshield	-12.4115
▁wondrous	-12.4115
▁wyoming	-12.4115
▁yawning	-12.4115
acquaint	-12.4115
consequent	-12.4115
▁absorb	-12.4115
▁adjourn	-12.4115
▁albany	-12.4115
▁amigo	-12.4115
▁ardennes	-12.4115
▁armistice	-12.4115
▁astonish	-12.4115
▁astound	-12.4115
▁balkan	-12.4115
▁betrav	-12.4115
▁boohoo	-12.4115
▁bozxphd	-12.4115
▁bracket	-12.4115
▁cherubs	-12.4115
▁chloroform	-12.4115
▁cisco	-12.4115
▁clinton	-12.4115
▁conceit	-12.4115
▁confiscat	-12.4115
▁decline	-12.4115
▁disrupt	-12.4115
▁dribbl	-12.4115
▁dvds	-12.4115
▁dwb	-12.4115
▁easv	-12.4115
▁elderly	-12.4115
▁expedit	-12.4115
▁fodder	-12.4115
▁godawful	-12.4115
▁gonzalo	-12.4115
▁grovel	-12.4115
▁impervious	-12.4115
▁incog	-12.4115
▁insinuati	-12.4115
▁integration	-12.4115
▁ireland	-12.4115
▁kofi	-12.4115
▁korea	-12.4115
▁lavatory	-12.4115
▁libertine	-12.4115
▁magnify	-12.4115
▁masculin	-12.4115
▁mashdi	-12.4115
▁microprocess	-12.4115
▁motorcar	-12.4115
▁neurosurge	-12.4115
▁ninny	-12.4115
▁nudity	-12.4115
▁oprah	-12.4115
▁prenup	-12.4115
▁promisebreaker	-12.4115
▁psychoanaly	-12.4115
▁quarrel	-12.4115
▁reagan	-12.4115
▁relocat	-12.4115
▁renech	-12.4115
▁satisfactor	-12.4115
▁scarsdale	-12.4115
▁sculpt	-12.4115
▁shipwreck	-12.4115
▁slurr	-12.4115
▁stepmom	-12.4115
▁swamp	-12.4115
▁tcb	-12.4115
▁tierney	-12.4115
▁toady	-12.4115
▁triumphantly	-12.4115
▁tusks	-12.4115
▁unaware	-12.4115
▁unicorn	-12.4115
▁urinal	-12.4115
▁wrenches	-12.4115
abeth	-12.4115
afrika	-12.4115
witz	-12.4115
youare	-12.4115
▁baaaa	-12.4115
▁berlin	-12.4115
▁bff	-12.4115
▁bryce	-12.4115
▁capabilit	-12.4115
▁coffin	-12.4115
▁cuttingedge	-12.4115
▁enema	-12.4115
▁fraternity	-12.4115
▁herpes	-12.4115
▁holster	-12.4115
▁housemaid	-12.4115
▁kabl	-12.4115
▁logistics	-12.4115
▁manifold	-12.4115
▁misfit	-12.4115
▁nawabi	-12.4115
▁profiling	-12.4115
▁repercussions	-12.4115
▁shriner	-12.4115
▁spiel	-12.4115
▁squadron	-12.4115
▁stench	-12.4115
▁twoforone	-12.4115
▁unluck	-12.4115
calypt	-12.4115
integrat	-12.4115
▁barrage	-12.4115
▁cafones	-12.4115
▁comfy	-12.4115
▁dabble	-12.4115
▁dullsville	-12.4115
▁generator	-12.4115
▁hercul	-12.4115
▁jasmine	-12.4115
▁lentil	-12.4115
▁nbc	-12.4115
▁outwit	-12.4115
▁plow	-12.4115
▁reign	-12.4115
▁robust	-12.4115
▁servettes	-12.4115
▁swivel	-12.4115
▁aleck	-12.4115
▁plug	-12.4115
saac	-12.4115
▁austin	-12.4115
▁cache	-12.4115
▁differentiate	-12.4115
▁dyke	-12.4115
▁essence	-12.4115
▁flashbacks	-12.4115
▁forcing	-12.4115
▁forgiving	-12.4115
▁kikik	-12.4115
▁legacy	-12.4115
▁microchip	-12.4115
[...]
