<unk>	0
<s>	0
</s>	0
s	-3.45129
▁know	-4.50994
▁im	-4.54103
▁dont	-4.556
▁get	-4.74456
▁got	-4.80972
▁right	-4.81384
▁like	-4.93641
▁yeah	-4.94678
▁go	-4.96341
▁youre	-5.04219
▁come	-5.08531
▁na	-5.09702
▁thats	-5.1628
ing	-5.18478
▁one	-5.20581
▁well	-5.26203
ed	-5.27308
▁oh	-5.30882
▁want	-5.32032
▁man	-5.32867
▁fucking	-5.34196
▁	-5.35324
▁good	-5.36406
▁gon	-5.37233
▁see	-5.47506
▁fuck	-5.47686
▁okay	-5.4979
▁think	-5.52701
▁hes	-5.56222
▁look	-5.59454
▁back	-5.59998
d	-5.64834
▁l	-5.66057
▁take	-5.71461
▁hey	-5.72247
▁time	-5.75903
▁tell	-5.77984
▁going	-5.78976
▁us	-5.81864
▁ill	-5.82117
▁say	-5.87299
▁yes	-5.88137
▁shit	-5.91029
y	-5.93014
▁would	-5.96343
▁need	-5.96995
▁cant	-5.98144
▁could	-5.99603
▁didnt	-6.01569
▁give	-6.02733
▁make	-6.03543
o	-6.03954
▁way	-6.04615
▁something	-6.07088
▁mean	-6.08263
▁let	-6.10305
▁little	-6.11036
▁never	-6.11133
e	-6.12751
▁whats	-6.13983
▁really	-6.14838
er	-6.15559
▁lets	-6.19022
▁two	-6.20372
▁sir	-6.20743
▁please	-6.23491
▁money	-6.27606
▁theres	-6.28365
▁people	-6.28493
▁sorry	-6.28828
▁said	-6.29504
▁thank	-6.30797
▁ive	-6.31628
▁thing	-6.34849
▁guy	-6.35605
▁god	-6.36753
▁mr	-6.37066
▁love	-6.37607
ly	-6.38487
in	-6.39727
▁put	-6.40435
▁call	-6.43352
a	-6.43475
▁much	-6.4574
▁sure	-6.46813
r	-6.4691
▁car	-6.48678
▁uh	-6.49104
▁anything	-6.49382
▁life	-6.52303
▁ta	-6.52314
▁help	-6.52518
▁nothing	-6.52884
▁even	-6.5332
▁theyre	-6.5389
▁day	-6.55577
▁name	-6.55762
▁keep	-6.56253
▁talk	-6.56464
t	-6.57789
▁find	-6.59711
▁stop	-6.62706
▁night	-6.62809
▁guys	-6.63301
▁work	-6.63432
▁big	-6.67421
i	-6.67855
▁wan	-6.6797
▁wait	-6.68026
▁home	-6.68226
▁away	-6.68255
▁around	-6.68737
▁first	-6.70077
▁maybe	-6.71963
p	-6.72122
▁ever	-6.72431
▁still	-6.72647
n	-6.73576
▁old	-6.74553
▁new	-6.74922
▁listen	-6.75091
▁shes	-6.76288
▁kill	-6.77222
▁last	-6.77656
▁house	-6.7802
▁hell	-6.78491
m	-6.79769
▁boy	-6.79983
▁years	-6.80001
▁better	-6.80969
▁bad	-6.81539
▁everything	-6.81902
▁thought	-6.82724
▁hear	-6.83711
▁lot	-6.83905
▁long	-6.84205
▁always	-6.84218
▁baby	-6.8422
l	-6.84519
es	-6.8488
▁understand	-6.85
▁things	-6.85534
▁told	-6.86384
▁three	-6.86398
▁move	-6.86411
▁dead	-6.86607
▁great	-6.87347
▁place	-6.87655
▁nice	-6.87794
▁door	-6.88376
▁id	-6.88439
▁aint	-6.88597
▁every	-6.90954
▁leave	-6.91696
▁fuckin	-6.91886
▁real	-6.92592
▁son	-6.92714
u	-6.94158
▁wont	-6.96645
▁youve	-6.9709
▁made	-6.97355
▁youll	-6.97981
▁stay	-6.98038
▁father	-6.98356
▁done	-6.99344
▁feel	-7.00435
▁ask	-7.02428
▁believe	-7.029
▁job	-7.02967
▁left	-7.03017
▁doesnt	-7.03961
▁huh	-7.03961
▁girl	-7.04494
▁hi	-7.04586
al	-7.0472
▁talking	-7.04858
▁kind	-7.05717
▁remember	-7.06831
▁care	-7.07358
▁business	-7.09322
▁friend	-7.09346
▁ok	-7.09875
g	-7.1016
▁phone	-7.11879
▁ass	-7.12459
▁hold	-7.12636
▁coming	-7.12694
b	-7.13337
▁happened	-7.1389
▁fine	-7.13909
▁wrong	-7.13932
▁kid	-7.14312
▁family	-7.14458
▁enough	-7.15784
▁else	-7.15791
▁de	-7.15925
▁show	-7.15942
▁head	-7.16128
▁men	-7.16463
▁wanted	-7.17081
▁came	-7.18046
▁mother	-7.18226
▁must	-7.18725
▁world	-7.18771
▁hello	-7.19123
▁morning	-7.19318
▁em	-7.19415
▁open	-7.19431
▁run	-7.19805
▁getting	-7.20415
▁wife	-7.2043
▁course	-7.20991
▁trying	-7.21753
▁mind	-7.21854
▁gun	-7.22144
▁looking	-7.22657
▁wasnt	-7.22693
▁next	-7.22979
▁watch	-7.23244
▁shut	-7.23271
▁found	-7.23515
▁today	-7.25302
▁another	-7.25891
▁heard	-7.26426
▁hard	-7.27826
▁deal	-7.27869
or	-7.28254
▁problem	-7.28921
▁best	-7.29221
c	-7.29417
▁might	-7.29503
▁went	-7.3043
▁hand	-7.30491
▁knew	-7.31043
▁took	-7.31355
▁isnt	-7.32296
▁hit	-7.33046
▁woman	-7.33565
▁seen	-7.33697
▁someone	-7.33883
▁tony	-7.34214
▁room	-7.34875
▁may	-7.35208
ll	-7.35479
▁try	-7.36116
▁thanks	-7.36667
▁saw	-7.37144
▁n	-7.37224
▁wouldnt	-7.37236
ie	-7.37574
▁jesus	-7.37804
▁police	-7.38101
▁sit	-7.38212
▁whos	-7.38252
▁shot	-7.39184
▁killed	-7.39738
▁re	-7.39784
▁meet	-7.40287
ion	-7.40704
ar	-7.41017
f	-7.4109
▁case	-7.41629
an	-7.4185
▁cause	-7.41863
▁goddamn	-7.42221
▁dad	-7.42439
▁whole	-7.42571
v	-7.42634
▁end	-7.42748
▁ready	-7.4276
▁bitch	-7.43199
▁bring	-7.43361
▁brother	-7.43412
▁um	-7.43674
▁turn	-7.44554
▁tonight	-7.44686
▁five	-7.45784
▁face	-7.45806
▁nobody	-7.46034
▁saying	-7.46639
▁start	-7.46829
▁together	-7.47213
▁jimmy	-7.47214
▁un	-7.4776
▁die	-7.47956
▁play	-7.48083
▁four	-7.48311
▁pay	-7.48533
▁used	-7.49045
▁idea	-7.4945
▁playing	-7.49613
▁everybody	-7.49792
▁bit	-7.50022
▁called	-7.50525
▁frank	-7.50865
ers	-7.51354
▁c	-7.5153
▁weve	-7.517
▁happy	-7.52085
le	-7.52956
▁days	-7.53175
▁matter	-7.53279
▁gone	-7.53469
▁lm	-7.53574
re	-7.53587
▁pretty	-7.5363
▁whoa	-7.5363
▁music	-7.53631
on	-7.54017
▁without	-7.54021
▁friends	-7.54102
▁hands	-7.55137
▁many	-7.55641
▁henry	-7.56397
▁cut	-7.5657
k	-7.56643
ic	-7.56982
▁says	-7.57001
▁guess	-7.57607
▁live	-7.5771
▁line	-7.57885
▁alright	-7.58016
▁somebody	-7.58295
▁couldnt	-7.58542
ve	-7.58711
▁second	-7.59083
▁excuse	-7.59656
▁crazy	-7.59656
▁a	-7.59853
▁set	-7.61005
▁shoot	-7.61041
it	-7.61627
▁point	-7.61728
▁worry	-7.61748
▁e	-7.62023
▁havent	-7.62172
▁hope	-7.62334
▁six	-7.62619
▁damn	-7.6294
▁gave	-7.63025
▁minutes	-7.63658
▁ah	-7.63823
▁la	-7.64482
▁check	-7.64556
▁stuff	-7.65192
▁use	-7.65465
▁alone	-7.65634
▁clean	-7.65883
▁dog	-7.66061
▁easy	-7.66069
▁half	-7.66502
▁anyone	-7.66955
▁fight	-7.67298
▁youd	-7.67463
ies	-7.68777
▁far	-7.68797
▁in	-7.68819
▁ago	-7.69193
▁beautiful	-7.69208
▁danny	-7.69666
▁drink	-7.69816
▁pick	-7.69948
▁supposed	-7.70226
▁black	-7.70343
▁kids	-7.70395
▁already	-7.70584
▁yet	-7.70611
▁forget	-7.71025
▁since	-7.71511
en	-7.71761
▁rest	-7.71809
▁john	-7.72427
▁tomorrow	-7.72449
▁million	-7.72464
▁close	-7.72869
▁que	-7.72916
▁minute	-7.73179
▁drive	-7.73238
▁sighs	-7.73395
▁wheres	-7.73775
▁bill	-7.74022
▁read	-7.74512
▁eyes	-7.74604
▁number	-7.74692
▁anybody	-7.7483
▁motherfucker	-7.7518
▁inside	-7.7532
ch	-7.75353
▁free	-7.75423
▁working	-7.75539
▁walk	-7.76013
h	-7.76061
▁cool	-7.76787
▁question	-7.77193
▁goes	-7.77639
▁boss	-7.77681
▁probably	-7.78762
▁fire	-7.78957
us	-7.79116
▁couple	-7.79264
▁funny	-7.7927
▁exactly	-7.79286
▁christ	-7.79375
▁part	-7.79745
▁anyway	-7.79769
▁lost	-7.79797
▁chance	-7.80282
▁answer	-7.80364
▁boys	-7.80425
▁thinking	-7.8053
▁captain	-7.80787
▁later	-7.80946
▁stand	-7.80988
▁buy	-7.81803
▁word	-7.82397
▁jack	-7.82635
▁hate	-7.82864
▁year	-7.82968
▁clear	-7.83358
▁game	-7.83528
▁mom	-7.83545
▁laughing	-7.8358
▁lord	-7.83906
▁school	-7.83921
▁side	-7.83991
▁week	-7.84
▁war	-7.84268
▁young	-7.84758
▁soon	-7.84775
▁ahead	-7.84978
▁red	-7.85024
▁ten	-7.85247
▁outside	-7.85502
▁pull	-7.85521
▁street	-7.85693
▁sleep	-7.86564
▁front	-7.87122
▁story	-7.87127
▁break	-7.87136
▁change	-7.87326
▁v	-7.87352
▁h	-7.87427
▁miss	-7.87444
▁behind	-7.87668
▁actually	-7.87681
▁blood	-7.87953
▁cop	-7.88005
▁ya	-7.88609
▁white	-7.88787
▁eat	-7.895
▁chuckles	-7.89512
▁wish	-7.89894
▁death	-7.89899
▁dude	-7.90458
▁speak	-7.90528
▁though	-7.90939
▁whatever	-7.91011
▁city	-7.9162
▁water	-7.92196
▁piece	-7.92613
▁truth	-7.92725
▁taking	-7.9278
▁mine	-7.92975
▁bullshit	-7.93304
▁making	-7.93309
▁trust	-7.9338
ra	-7.94438
▁touch	-7.94563
▁months	-7.94778
▁light	-7.94847
▁heart	-7.95037
▁k	-7.95202
est	-7.95463
il	-7.95569
▁stupid	-7.95649
▁happen	-7.96161
▁bet	-7.96316
▁high	-7.96417
th	-7.96646
▁send	-7.969
▁wants	-7.97442
▁tommy	-7.97452
▁town	-7.97458
▁se	-7.976
▁girls	-7.97907
ur	-7.98042
▁looks	-7.98137
▁th	-7.98839
▁bar	-7.98993
▁anymore	-7.99275
▁also	-7.9928
▁met	-7.99301
▁grunts	-7.995
▁asked	-7.9999
▁continues	-8.0018
▁tom	-8.00621
▁b	-8.00989
▁trouble	-8.01139
▁true	-8.0114
up	-8.01695
▁jordan	-8.01768
▁body	-8.01768
▁everyone	-8.0181
▁times	-8.02249
▁nigger	-8.02527
▁afraid	-8.03037
▁grand	-8.0306
▁sometimes	-8.0308
▁daughter	-8.03189
man	-8.03258
▁hurt	-8.03291
▁telling	-8.03782
▁least	-8.04342
at	-8.04933
▁grunting	-8.05669
▁doctor	-8.05884
▁important	-8.06285
▁alive	-8.06303
▁da	-8.06311
▁step	-8.06929
▁country	-8.0696
el	-8.0701
▁reason	-8.07587
▁started	-8.07872
▁dr	-8.07973
ck	-8.08892
▁eye	-8.09306
▁nick	-8.09349
z	-8.09393
▁office	-8.09467
▁hours	-8.09584
▁fucked	-8.09603
▁tv	-8.09676
▁bank	-8.09794
▁hows	-8.10328
▁person	-8.10645
▁g	-8.10859
▁gentlemen	-8.11016
▁order	-8.11625
▁club	-8.11712
▁groans	-8.1181
▁nicky	-8.11979
▁fun	-8.12025
te	-8.12111
▁either	-8.12409
▁arent	-8.1242
▁top	-8.12457
▁screaming	-8.12487
st	-8.12555
is	-8.13503
▁late	-8.13699
▁safe	-8.13806
ment	-8.13815
▁truck	-8.13824
▁tried	-8.13942
▁full	-8.1428
▁sick	-8.14535
▁michael	-8.14536
▁welcome	-8.15256
▁cash	-8.15268
▁sign	-8.16359
▁honey	-8.16717
w	-8.16783
▁bed	-8.16792
ia	-8.17234
▁special	-8.17453
▁m	-8.17492
ation	-8.17998
▁fast	-8.18733
▁makes	-8.18913
▁moment	-8.18947
▁roll	-8.19128
▁means	-8.19246
▁party	-8.19323
im	-8.1937
▁cops	-8.19371
▁almost	-8.19685
▁daddy	-8.19687
▁worth	-8.1973
▁hang	-8.19894
▁s	-8.19979
▁con	-8.20232
▁win	-8.20589
▁lts	-8.20889
ive	-8.20938
▁straight	-8.21163
▁crime	-8.21206
▁brought	-8.21206
▁company	-8.21215
▁power	-8.21256
▁blow	-8.21335
▁beat	-8.21396
id	-8.21546
ent	-8.21638
ity	-8.2195
▁along	-8.21975
▁table	-8.22025
ri	-8.2266
▁boat	-8.22811
▁hmm	-8.23431
▁hour	-8.23639
▁officer	-8.23794
▁they	-8.2392
▁husband	-8.24319
▁swear	-8.24319
▁calm	-8.24319
la	-8.24321
▁team	-8.24377
▁lll	-8.24389
▁ace	-8.24587
▁ha	-8.24643
able	-8.24735
▁prison	-8.2484
▁different	-8.25112
▁shall	-8.25116
▁asshole	-8.25256
▁died	-8.25319
▁heres	-8.25531
ii	-8.25823
▁radio	-8.25932
▁lose	-8.26547
▁serious	-8.2655
▁taken	-8.26592
▁sense	-8.26719
▁howard	-8.2672
▁dick	-8.26723
ous	-8.26841
▁past	-8.26881
▁act	-8.26918
▁sent	-8.26921
▁sell	-8.2706
▁promise	-8.27178
▁mrs	-8.27197
▁stan	-8.27474
▁private	-8.27532
▁stick	-8.27544
▁stem	-8.27564
▁j	-8.27868
▁save	-8.28017
▁running	-8.28361
▁waiting	-8.28626
▁hot	-8.28933
▁blue	-8.28992
to	-8.29154
▁drop	-8.29171
▁short	-8.29179
▁comes	-8.29254
▁book	-8.29804
▁living	-8.30042
▁happens	-8.30325
▁wake	-8.30879
co	-8.31299
ro	-8.31461
▁slow	-8.3154
et	-8.31639
▁voice	-8.317
▁itll	-8.31709
▁child	-8.32057
▁french	-8.32554
▁hed	-8.32642
▁road	-8.32656
▁scared	-8.32733
▁fat	-8.32926
se	-8.33254
um	-8.33302
▁wow	-8.3343
▁asking	-8.33732
nt	-8.34183
▁news	-8.34328
▁laughs	-8.34422
▁bastard	-8.34737
▁karen	-8.35163
▁smart	-8.35163
▁fact	-8.35167
▁floor	-8.35175
▁known	-8.35252
▁count	-8.35409
ta	-8.35439
ian	-8.35807
▁groaning	-8.3607
▁rock	-8.36075
▁holy	-8.36235
▁throw	-8.36385
▁watching	-8.36869
▁york	-8.3694
▁learn	-8.37331
▁state	-8.37787
▁hurry	-8.37841
▁iike	-8.37849
▁control	-8.37852
▁eight	-8.37852
▁pain	-8.3797
▁building	-8.38056
▁murder	-8.38075
▁bag	-8.38202
▁corleone	-8.3875
▁buddy	-8.3875
▁children	-8.38751
▁mary	-8.38922
▁respect	-8.39675
▁catch	-8.39713
▁till	-8.39714
▁aii	-8.39729
▁ho	-8.3978
▁co	-8.40004
▁hair	-8.40354
▁married	-8.40594
▁english	-8.40594
▁i	-8.40718
▁air	-8.40723
▁questions	-8.40738
▁quite	-8.40772
▁luck	-8.41378
▁follow	-8.414
▁pro	-8.41434
▁plan	-8.41446
▁mouth	-8.41576
do	-8.41887
as	-8.42082
▁green	-8.42467
▁lie	-8.43226
▁rat	-8.43353
▁thousand	-8.43424
sh	-8.43426
ter	-8.4345
▁lady	-8.43471
▁f	-8.43512
▁lucky	-8.43694
▁perfect	-8.44213
ting	-8.44344
▁agent	-8.44402
▁hotel	-8.44422
▁p	-8.44444
▁poor	-8.44444
ce	-8.44665
▁song	-8.44768
▁fair	-8.45096
▁pass	-8.45188
▁smell	-8.45253
▁al	-8.45265
ist	-8.45304
▁coffee	-8.45356
▁mitch	-8.45365
▁master	-8.45378
▁cell	-8.45403
▁ball	-8.4549
▁none	-8.45509
▁seems	-8.4562
ne	-8.4571
▁engine	-8.45817
▁st	-8.45963
▁weeks	-8.46135
ir	-8.46285
▁gold	-8.46305
▁hundred	-8.46337
▁food	-8.46354
▁owe	-8.46695
▁pop	-8.46697
▁vi	-8.46768
less	-8.46925
▁kidding	-8.47334
▁outta	-8.4734
▁handle	-8.47363
▁panting	-8.47366
▁calling	-8.47561
na	-8.47884
▁sister	-8.48279
▁speaking	-8.48306
▁ben	-8.49156
▁tires	-8.49338
▁choice	-8.49339
▁women	-8.4934
▁charlie	-8.49342
▁sort	-8.49412
▁feeling	-8.49665
▁yo	-8.50181
▁somewhere	-8.50357
▁glad	-8.50358
▁worked	-8.50519
▁sound	-8.50923
▁seven	-8.51464
▁cold	-8.51502
▁sam	-8.51738
▁explain	-8.51763
▁enjoy	-8.5243
▁bye	-8.52432
▁dinner	-8.52436
ness	-8.52654
▁mama	-8.52814
▁ride	-8.52825
▁eu	-8.52925
▁ringing	-8.52976
▁dream	-8.5305
▁quiet	-8.53314
▁knock	-8.53464
▁across	-8.53483
▁service	-8.53483
▁detective	-8.53485
▁report	-8.53491
▁dance	-8.53519
▁less	-8.53616
▁pa	-8.53634
▁rid	-8.53687
▁lives	-8.53696
▁seat	-8.53857
▁cam	-8.5388
▁train	-8.54605
▁picture	-8.54684
▁lawyer	-8.54686
▁d	-8.54702
▁ring	-8.54766
ha	-8.55056
li	-8.55062
▁finish	-8.55113
▁patrick	-8.55623
▁shouldnt	-8.55623
▁mmm	-8.55707
▁sweet	-8.56646
▁po	-8.56695
▁bell	-8.56754
▁sitting	-8.56793
▁machine	-8.56918
▁horse	-8.56925
▁dis	-8.57206
am	-8.57215
▁land	-8.57353
▁wall	-8.57369
▁guns	-8.57383
va	-8.57436
▁dark	-8.57805
▁present	-8.57808
▁leaving	-8.57813
▁max	-8.5782
▁jail	-8.57837
▁tape	-8.57958
▁balls	-8.57975
▁doc	-8.57994
▁bullet	-8.58062
ate	-8.58198
▁able	-8.5852
▁paul	-8.58708
go	-8.58917
▁except	-8.58918
▁grey	-8.58919
▁smoke	-8.58919
▁dave	-8.59007
▁ran	-8.59068
ig	-8.59405
▁mas	-8.59677
ass	-8.59805
▁rich	-8.59941
▁favor	-8.60034
▁hospital	-8.60042
▁moving	-8.60052
x	-8.60168
ful	-8.60323
▁window	-8.60373
▁given	-8.60442
▁box	-8.60542
▁sounds	-8.61156
▁lf	-8.61176
▁appreciate	-8.61179
▁mad	-8.6122
▁become	-8.61539
▁near	-8.62164
▁sake	-8.62345
▁james	-8.62355
▁mo	-8.62679
ty	-8.6279
▁talked	-8.62795
▁kiss	-8.62976
▁mess	-8.63002
▁lock	-8.63205
ol	-8.63302
▁quit	-8.63308
▁am	-8.63366
ut	-8.63417
ge	-8.63431
▁joel	-8.63458
▁casino	-8.63491
▁pleasure	-8.63491
▁ladies	-8.63501
ine	-8.63663
▁beer	-8.64
▁wear	-8.64109
age	-8.64165
ai	-8.64297
▁figure	-8.64316
lo	-8.64442
▁be	-8.64585
▁david	-8.64671
▁dollars	-8.64673
▁joke	-8.6563
▁broke	-8.65759
▁anywhere	-8.65858
▁ground	-8.65858
▁human	-8.65858
▁situation	-8.65858
▁giving	-8.65861
▁maam	-8.65866
ci	-8.65909
▁joe	-8.65932
▁paid	-8.66009
ant	-8.66009
▁hide	-8.66286
ca	-8.66606
▁small	-8.66845
▁hunt	-8.66904
▁mistake	-8.66944
▁tough	-8.67063
▁race	-8.67086
he	-8.67169
▁ex	-8.67216
▁busy	-8.67236
▁arm	-8.67271
▁reg	-8.67328
▁keys	-8.67364
▁needs	-8.6762
▁month	-8.67653
▁brothers	-8.67813
▁w	-8.67973
out	-8.68078
▁court	-8.68273
▁relax	-8.68282
▁bunch	-8.68288
▁missing	-8.68306
▁grab	-8.68332
▁offer	-8.68522
me	-8.68884
▁t	-8.68926
▁law	-8.68967
▁meeting	-8.69051
▁quick	-8.69132
▁information	-8.69522
▁killing	-8.69563
▁wed	-8.7003
▁partner	-8.70206
▁para	-8.70508
▁looked	-8.7051
ti	-8.70545
▁loved	-8.70585
lie	-8.70605
▁write	-8.70623
▁glass	-8.70652
▁crowd	-8.70767
▁driving	-8.7077
▁tired	-8.70771
▁feet	-8.70815
▁cr	-8.70883
▁charge	-8.71124
▁so	-8.71173
▁r	-8.71349
▁drug	-8.71405
▁wonder	-8.71456
▁american	-8.71594
▁key	-8.71691
▁sh	-8.71833
▁words	-8.71877
▁worse	-8.72033
▁felt	-8.72035
▁harry	-8.72042
▁horn	-8.72081
▁theyve	-8.72117
▁card	-8.72198
▁burn	-8.72201
▁mark	-8.72381
be	-8.72398
os	-8.72538
▁turned	-8.72556
▁meant	-8.72642
▁chatter	-8.72743
▁cover	-8.72837
ry	-8.73136
▁general	-8.73316
▁expect	-8.73532
▁dear	-8.73648
▁est	-8.73954
▁spend	-8.74045
▁paper	-8.74149
▁fall	-8.74257
▁movie	-8.74857
▁pe	-8.7496
▁si	-8.75209
▁mike	-8.75665
▁chief	-8.75929
▁proud	-8.7593
▁price	-8.75933
▁reggie	-8.75934
▁share	-8.75943
▁shouting	-8.76009
▁field	-8.76143
▁king	-8.76182
▁test	-8.76211
▁track	-8.76897
▁accident	-8.77262
▁london	-8.77262
▁beach	-8.77263
▁werent	-8.77263
▁history	-8.77263
▁goodbye	-8.77263
▁judge	-8.77265
▁forgive	-8.77265
▁spot	-8.7727
▁lt	-8.7728
▁message	-8.77284
▁born	-8.77324
▁longer	-8.77365
rs	-8.77393
▁lay	-8.77517
▁rose	-8.77608
▁parents	-8.77714
▁date	-8.77822
▁maya	-8.77971
j	-8.78538
▁italian	-8.78613
▁fault	-8.78614
▁terrible	-8.78614
▁cunt	-8.78614
▁prick	-8.78618
▁forever	-8.78618
▁soul	-8.78625
▁clothes	-8.78638
▁works	-8.78722
▁names	-8.78878
▁return	-8.7889
▁record	-8.79088
per	-8.79231
ng	-8.79397
▁killer	-8.79407
▁arrest	-8.79472
▁pre	-8.79587
▁sex	-8.79778
▁pen	-8.7982
iy	-8.79968
▁maurizio	-8.79984
▁fool	-8.79985
▁river	-8.79987
▁store	-8.79989
▁dangerous	-8.79997
▁dumb	-8.80004
▁treat	-8.80028
▁mons	-8.80047
▁needed	-8.80115
▁protect	-8.80226
▁post	-8.80386
ling	-8.80522
▁evening	-8.81169
▁careful	-8.81305
▁personal	-8.81349
▁gang	-8.81359
▁vincent	-8.81375
▁gasps	-8.81375
▁early	-8.81548
▁ca	-8.81796
▁drugs	-8.81989
men	-8.82228
▁seem	-8.82252
lng	-8.82372
▁indistinct	-8.82609
▁caught	-8.82781
▁peace	-8.82781
▁weird	-8.82781
▁german	-8.82781
▁mickey	-8.82792
▁rather	-8.82796
▁security	-8.82805
▁sun	-8.82817
▁cab	-8.82893
em	-8.82907
▁low	-8.82935
▁board	-8.82965
▁prove	-8.83084
▁ron	-8.83188
io	-8.83285
▁seconds	-8.83334
▁list	-8.8337
▁laugh	-8.83411
▁mm	-8.83612
and	-8.83801
▁wa	-8.84178
▁miles	-8.842
▁possible	-8.8421
▁emily	-8.84211
▁birthday	-8.84212
▁round	-8.84212
▁kept	-8.84224
▁hole	-8.84547
ary	-8.85392
▁strong	-8.85444
▁guard	-8.85468
▁visit	-8.85532
▁join	-8.8559
▁knife	-8.85659
▁gerry	-8.85659
▁apartment	-8.8567
▁brian	-8.8567
▁unless	-8.85743
▁doin	-8.85775
▁bob	-8.85857
▁walking	-8.85865
ho	-8.86258
▁age	-8.86625
▁dress	-8.86625
▁carry	-8.86755
▁sean	-8.86758
▁strange	-8.86953
▁certain	-8.86959
▁innocent	-8.87129
▁harley	-8.87166
▁lying	-8.87198
▁louis	-8.87215
▁crewe	-8.87299
▁ba	-8.87396
▁mate	-8.87414
▁cost	-8.87884
ure	-8.87957
ke	-8.88184
om	-8.88503
▁america	-8.88504
▁north	-8.88576
▁ooh	-8.88624
▁fear	-8.88653
ted	-8.88691
▁foot	-8.88746
▁fi	-8.88902
▁shop	-8.88907
▁starts	-8.89099
▁screams	-8.89568
▁attack	-8.89622
▁fish	-8.8967
▁stone	-8.89804
▁places	-8.89843
▁stole	-8.90026
▁missed	-8.90032
tic	-8.90094
one	-8.90119
▁uncle	-8.90137
▁single	-8.90156
▁brain	-8.90165
▁richie	-8.90281
ot	-8.90297
▁goin	-8.90674
time	-8.90992
▁honor	-8.91191
▁cl	-8.91218
ad	-8.91316
▁surprise	-8.9132
▁pal	-8.91398
ou	-8.91581
▁secret	-8.91661
▁django	-8.91676
▁doubt	-8.91676
▁position	-8.91676
▁earth	-8.91704
ma	-8.9176
mo	-8.91884
▁bo	-8.91979
▁lance	-8.92038
▁crying	-8.92168
▁driver	-8.922
▁legal	-8.92421
▁bloody	-8.92423
▁fix	-8.92744
▁no	-8.93083
ster	-8.93137
▁afternoon	-8.93238
▁drunk	-8.93238
▁especially	-8.93238
▁evidence	-8.93238
▁government	-8.93238
▁gucci	-8.93238
▁gift	-8.93241
▁tight	-8.93248
▁finally	-8.93336
▁rain	-8.93366
▁fit	-8.93823
▁named	-8.93857
▁bro	-8.94075
▁steal	-8.94243
▁ii	-8.94529
ow	-8.94582
▁mar	-8.94764
▁super	-8.94795
▁francis	-8.94825
▁worried	-8.94825
▁search	-8.94825
▁vegas	-8.94826
▁reach	-8.94826
▁christmas	-8.94827
▁east	-8.94892
ner	-8.94926
▁skin	-8.95092
▁nose	-8.95138
bo	-8.95155
▁du	-8.95373
by	-8.95419
▁tea	-8.95476
de	-8.9559
▁copy	-8.95594
ance	-8.95718
▁van	-8.95769
▁dig	-8.95977
▁suppose	-8.96093
▁entire	-8.96259
▁ow	-8.9633
▁nigga	-8.96438
▁president	-8.96438
▁tyler	-8.96438
▁lauda	-8.96438
▁others	-8.96439
▁imagine	-8.96439
▁howd	-8.96439
▁summer	-8.9644
▁address	-8.96443
▁idiot	-8.9645
▁mmhmm	-8.96485
▁closes	-8.96505
▁totally	-8.96572
▁di	-8.9661
▁bi	-8.96705
▁rule	-8.96719
▁putting	-8.9673
ton	-8.96746
ac	-8.96864
▁kick	-8.96965
▁push	-8.96996
▁plane	-8.97079
▁theyd	-8.97168
▁shed	-8.97174
ba	-8.97447
ish	-8.97541
▁deep	-8.97694
ki	-8.98002
▁future	-8.98078
▁middle	-8.98078
▁system	-8.98078
▁mick	-8.98078
▁pray	-8.98078
▁attention	-8.98079
▁niki	-8.98081
▁neck	-8.9809
▁wick	-8.98091
▁spent	-8.98095
▁wonderful	-8.98102
▁johnny	-8.98106
▁nine	-8.98502
▁shooting	-8.9861
▁cards	-8.98932
▁jan	-8.99136
ey	-8.99169
▁cat	-8.99178
▁cross	-8.99221
▁problems	-8.99572
▁honest	-8.99592
▁south	-8.99671
▁star	-8.99714
▁difference	-8.99744
▁throat	-8.99744
▁cousin	-8.99745
▁island	-8.99745
▁andy	-8.99746
▁heaven	-8.99751
▁west	-8.99793
ade	-8.99878
▁decided	-8.99902
▁split	-9.00001
▁ice	-9.00232
▁fathers	-9.00268
way	-9.00656
if	-9.00875
▁crack	-9.0091
▁block	-9.00937
▁noodles	-9.01439
▁blind	-9.0144
▁brody	-9.0144
▁wedding	-9.01442
▁cowboy	-9.01443
▁bought	-9.01444
▁bridge	-9.01449
▁shell	-9.01465
▁dirty	-9.01546
▁softly	-9.0159
▁el	-9.01617
▁yall	-9.01642
▁cheering	-9.01671
ping	-9.01676
▁army	-9.01815
▁where	-9.01888
▁letter	-9.02175
op	-9.02758
▁double	-9.03163
▁everywhere	-9.03163
▁morpheus	-9.03163
▁patrizia	-9.03163
▁pussy	-9.03164
▁forward	-9.03164
▁choose	-9.03166
▁shake	-9.0317
▁scene	-9.03218
▁ar	-9.03272
▁action	-9.033
▁press	-9.03393
▁singing	-9.03405
▁cock	-9.03622
▁sl	-9.03629
▁shoes	-9.03732
▁papers	-9.03807
▁orders	-9.03847
que	-9.04298
▁bomb	-9.04573
▁cry	-9.04794
▁public	-9.04889
▁yesterday	-9.04918
▁third	-9.04918
▁sweetheart	-9.0492
▁instead	-9.04921
▁voc	-9.05081
▁accept	-9.05429
▁dry	-9.0565
▁class	-9.05674
▁bear	-9.05697
▁ab	-9.0573
▁warm	-9.0583
pe	-9.06073
▁moved	-9.0627
▁leg	-9.06293
ina	-9.06357
▁per	-9.06527
▁account	-9.06685
▁major	-9.06703
▁russian	-9.06716
▁jackson	-9.06749
▁park	-9.06753
▁station	-9.06792
king	-9.06909
▁plays	-9.06946
▁fighting	-9.07138
▁consider	-9.07429
▁fell	-9.0779
▁lead	-9.07885
▁fo	-9.07933
▁cap	-9.08057
pl	-9.08074
▁hill	-9.08108
no	-9.08195
ts	-9.08519
▁college	-9.08522
▁pocket	-9.08522
▁amazing	-9.08522
▁whatd	-9.08523
▁area	-9.08523
▁contact	-9.08524
▁gasping	-9.08533
▁shh	-9.08581
▁stopped	-9.08632
▁wh	-9.08693
▁frankie	-9.08819
▁queen	-9.08873
▁joker	-9.08885
son	-9.09269
▁iii	-9.09283
▁bucks	-9.0932
▁ones	-9.0938
▁whose	-9.09735
▁bother	-9.09812
▁ear	-9.09904
▁realize	-9.10082
ag	-9.10157
▁pulled	-9.10267
▁narrat	-9.10302
▁lebowski	-9.10373
▁empty	-9.10374
▁fbi	-9.10374
▁paolo	-9.10374
▁held	-9.10374
▁soze	-9.10383
▁bright	-9.10395
▁upon	-9.10401
▁absolutely	-9.10407
lin	-9.1053
▁mum	-9.10806
▁over	-9.10922
▁bus	-9.11115
▁wind	-9.11229
off	-9.11254
▁ra	-9.1166
▁jump	-9.11741
ally	-9.11924
▁witness	-9.12146
▁conversation	-9.1226
▁sheriff	-9.1226
▁simple	-9.12261
▁dying	-9.12263
▁risk	-9.12267
▁department	-9.12269
▁trick	-9.12284
▁wheel	-9.12284
▁mommy	-9.12285
▁plus	-9.12287
ard	-9.12325
▁sonny	-9.12333
▁o	-9.12368
▁listening	-9.12466
▁certainly	-9.1248
▁union	-9.12579
▁breathing	-9.12804
▁jo	-9.12869
▁patient	-9.12982
▁saved	-9.13083
you	-9.1311
▁taste	-9.13236
▁changed	-9.13496
▁out	-9.13646
▁fill	-9.1378
▁niggers	-9.13797
▁normal	-9.1402
▁soft	-9.14022
▁folks	-9.14183
▁neither	-9.14183
▁whether	-9.14183
▁stephanie	-9.14183
▁neighborhood	-9.14184
▁honour	-9.1419
▁noise	-9.14191
▁darling	-9.14193
▁girlfriend	-9.14207
▁exist	-9.14212
our	-9.14217
▁cake	-9.14223
▁chicken	-9.14224
▁guards	-9.14394
▁anna	-9.14556
▁interested	-9.14617
line	-9.14873
▁breath	-9.14963
▁suspect	-9.14986
▁ticket	-9.14999
▁score	-9.15404
▁fired	-9.1557
ill	-9.15582
▁suck	-9.15602
▁mothers	-9.16029
▁decision	-9.16144
▁gustave	-9.16144
▁bigger	-9.16146
▁football	-9.16149
▁teii	-9.16171
▁involved	-9.16285
▁standing	-9.16314
▁pot	-9.16572
tra	-9.16616
▁mac	-9.16632
▁te	-9.16998
▁locked	-9.17013
▁wearing	-9.17086
▁finished	-9.17086
▁neo	-9.17194
▁roman	-9.17244
▁takes	-9.17282
▁following	-9.17326
▁piss	-9.17596
▁closed	-9.17619
che	-9.17729
▁dogs	-9.17836
▁seeing	-9.17906
▁lived	-9.17935
▁nothin	-9.18063
▁fly	-9.18106
▁background	-9.18144
▁bottle	-9.18144
▁breakfast	-9.18144
▁condition	-9.18144
▁kitchen	-9.18144
▁lieutenant	-9.18144
▁sergeant	-9.18147
▁sweat	-9.18151
▁chuckling	-9.18153
▁operation	-9.18165
▁milk	-9.18214
▁walter	-9.18287
sta	-9.18396
▁trip	-9.18399
▁unit	-9.18407
▁paulie	-9.18524
▁sal	-9.18725
▁lovely	-9.18938
▁he	-9.1925
▁wouldve	-9.19465
▁casey	-9.19699
ious	-9.19704
▁file	-9.19731
▁force	-9.19844
▁rules	-9.19968
▁happening	-9.20033
▁rob	-9.20055
▁form	-9.2014
▁church	-9.20185
▁creasy	-9.20185
▁sobbing	-9.20185
▁ronnie	-9.20185
▁yknow	-9.20185
▁ginger	-9.2019
▁alex	-9.202
▁zero	-9.2021
▁heavy	-9.20226
▁completely	-9.20317
▁brad	-9.20379
▁eh	-9.20396
▁picked	-9.20398
▁awful	-9.2043
▁ray	-9.20452
ever	-9.20464
▁dope	-9.20492
▁announce	-9.20578
▁interesting	-9.2069
eat	-9.20707
▁figured	-9.20804
red	-9.20819
▁art	-9.20902
▁teach	-9.21228
▁animal	-9.21235
▁weapon	-9.21249
▁gunshot	-9.21253
▁ver	-9.21268
▁tu	-9.21326
▁suit	-9.21441
▁camera	-9.21508
▁grow	-9.21576
head	-9.21699
▁do	-9.2173
ier	-9.2175
▁opens	-9.21807
▁agree	-9.21889
▁command	-9.2189
▁smile	-9.21999
cu	-9.22041
▁total	-9.22112
▁cars	-9.22237
▁became	-9.22268
▁definitely	-9.22268
▁group	-9.22268
▁investigation	-9.22268
▁justice	-9.22268
▁keaton	-9.22268
▁perhaps	-9.22268
▁remind	-9.22268
▁keller	-9.22268
▁weii	-9.22268
▁tongue	-9.22269
▁debt	-9.2227
▁tip	-9.22271
▁distance	-9.22273
▁sight	-9.22299
▁fresh	-9.22339
ee	-9.22383
ct	-9.2241
▁gary	-9.22431
▁cup	-9.22454
▁gas	-9.22472
▁holding	-9.22568
▁lights	-9.22615
▁camp	-9.22945
▁begin	-9.23209
▁continue	-9.23269
▁cute	-9.23424
▁billy	-9.23445
▁liked	-9.236
▁ln	-9.24211
▁george	-9.24392
▁forgot	-9.24393
▁calvin	-9.24396
▁collect	-9.24396
▁enemy	-9.24396
▁memory	-9.24396
▁senator	-9.24396
▁beginning	-9.24397
▁winning	-9.24398
▁rome	-9.24408
▁devil	-9.24412
▁extra	-9.24415
▁tank	-9.24431
▁wet	-9.2446
▁rent	-9.24621
▁broken	-9.24624
▁plant	-9.24691
▁reading	-9.24735
▁played	-9.25174
au	-9.25274
da	-9.25321
▁nuts	-9.25321
▁criminal	-9.2564
end	-9.25659
▁sa	-9.25697
▁tree	-9.257
▁tie	-9.25879
▁angel	-9.25906
▁non	-9.25954
▁chris	-9.26087
▁hero	-9.2631
▁afford	-9.2657
▁apologize	-9.2657
▁schultz	-9.2657
▁television	-9.2657
▁cocksucker	-9.2657
▁film	-9.2657
▁hungry	-9.26581
▁stock	-9.26582
▁coke	-9.26602
▁trade	-9.26612
▁mister	-9.26687
▁pete	-9.26687
▁laid	-9.2671
▁sold	-9.2671
▁sale	-9.26981
▁joy	-9.27005
▁seriously	-9.27036
▁numbers	-9.27259
ect	-9.27275
▁harm	-9.27406
▁pin	-9.27435
▁pi	-9.27527
▁en	-9.27668
▁starting	-9.27736
▁fucker	-9.27871
▁rings	-9.27908
▁client	-9.27912
▁selling	-9.2809
the	-9.28202
▁hat	-9.28311
▁discuss	-9.28728
▁spirit	-9.28788
▁insurance	-9.28792
▁jerry	-9.28792
▁teeth	-9.28792
▁scoffs	-9.28793
▁friday	-9.28794
▁loki	-9.28801
▁favorite	-9.28809
▁owner	-9.2881
▁stuck	-9.28815
▁aqui	-9.28816
▁stephen	-9.28823
▁chef	-9.28839
▁whistle	-9.28841
▁guilty	-9.28855
▁everybodys	-9.28873
▁jew	-9.29177
▁calls	-9.29182
▁dare	-9.294
▁motherfuckers	-9.29412
▁sad	-9.29426
ap	-9.29444
ring	-9.29548
▁beg	-9.29964
▁passed	-9.29973
▁interest	-9.30019
▁gra	-9.30205
▁bird	-9.30233
▁main	-9.30322
▁crap	-9.30515
▁pack	-9.30564
uc	-9.30922
▁loose	-9.30943
▁ye	-9.30952
▁muffled	-9.31065
▁support	-9.31065
▁local	-9.31065
▁strike	-9.31065
▁worst	-9.31065
▁teddy	-9.31065
▁impossible	-9.31067
▁aye	-9.31069
▁shouldve	-9.3107
▁property	-9.31077
▁clem	-9.31093
▁space	-9.31094
und	-9.3113
▁walked	-9.31138
▁color	-9.31147
▁lunch	-9.31169
▁weight	-9.31175
▁survive	-9.31231
▁row	-9.31353
▁joint	-9.31376
▁grave	-9.31457
▁pig	-9.31462
▁rip	-9.31485
▁ph	-9.31799
▁fingers	-9.31803
ern	-9.32168
▁sc	-9.32376
ated	-9.3255
▁heat	-9.3259
▁kinda	-9.32616
▁finger	-9.32644
▁build	-9.32834
▁waste	-9.33034
▁notice	-9.33041
▁load	-9.33083
▁crew	-9.33144
▁correct	-9.33326
▁whoo	-9.33378
▁kenny	-9.3339
▁project	-9.3339
▁miami	-9.33391
▁william	-9.33391
▁freedom	-9.33391
▁medal	-9.33392
▁faith	-9.33393
▁platt	-9.334
▁aunt	-9.33401
▁kickass	-9.33419
▁enter	-9.3342
▁blame	-9.33423
▁self	-9.33451
▁baker	-9.33473
▁motherfucking	-9.33496
▁large	-9.33505
▁corner	-9.33512
▁add	-9.33524
▁nail	-9.33539
▁cage	-9.3354
▁sp	-9.33546
▁mask	-9.33652
▁sirens	-9.3368
▁quickly	-9.33716
▁wild	-9.33747
▁agreed	-9.33788
zz	-9.33809
over	-9.34128
ial	-9.34191
▁staying	-9.34503
▁ob	-9.34545
▁ears	-9.34949
tion	-9.35028
▁san	-9.35042
▁soldier	-9.35054
▁lve	-9.35477
▁trace	-9.35527
▁me	-9.35585
▁mu	-9.35586
▁attorney	-9.35771
▁exhales	-9.35771
▁bodies	-9.35772
▁hadnt	-9.35772
▁rothstein	-9.35772
▁whore	-9.35773
▁hasnt	-9.35774
▁babe	-9.35798
▁license	-9.35812
▁shoulder	-9.35833
▁sleeping	-9.35838
▁jim	-9.35846
▁yep	-9.35892
▁itd	-9.35929
▁hiding	-9.3599
▁por	-9.36097
con	-9.36118
ff	-9.36184
gest	-9.36257
▁drinking	-9.36268
▁joey	-9.36324
▁pants	-9.36356
▁cor	-9.36371
▁bags	-9.36718
▁bare	-9.36834
▁bastards	-9.36975
▁paying	-9.36986
▁victim	-9.3756
▁bang	-9.37675
▁pounds	-9.37682
▁wound	-9.37701
▁har	-9.37798
ver	-9.37909
▁le	-9.38121
▁match	-9.38127
▁program	-9.38138
▁clementine	-9.3821
▁uhhuh	-9.3821
▁wrote	-9.3821
▁wailing	-9.38211
▁mountain	-9.38211
▁pyle	-9.38211
▁bathroom	-9.38213
▁provide	-9.38214
▁season	-9.38222
▁fellow	-9.38228
▁starling	-9.38233
▁operator	-9.38238
▁loud	-9.38248
▁warden	-9.38285
▁coughing	-9.38303
▁com	-9.38413
▁boom	-9.38422
▁lake	-9.38534
mos	-9.38715
▁ju	-9.38845
ors	-9.39074
▁yells	-9.39194
▁turns	-9.3923
▁pat	-9.3924
▁ad	-9.39271
▁va	-9.39472
▁books	-9.39905
▁foi	-9.3998
ther	-9.40026
▁vehicle	-9.4009
▁diamond	-9.40107
▁allow	-9.40218
▁mention	-9.40273
▁gettin	-9.40655
▁difficult	-9.4071
▁gorgeous	-9.4071
▁guarantee	-9.4071
▁otherwise	-9.4071
▁relationship	-9.4071
▁computer	-9.4071
▁threw	-9.4071
▁prefer	-9.40711
▁common	-9.40718
▁cream	-9.40724
▁castle	-9.40732
▁grace	-9.40735
▁jean	-9.40736
▁code	-9.40754
▁franklin	-9.40787
▁protection	-9.40823
▁barking	-9.40986
ped	-9.41065
land	-9.41221
▁county	-9.41468
▁breathe	-9.41512
▁ch	-9.41608
▁when	-9.4178
▁wondering	-9.41831
▁murdered	-9.42149
▁to	-9.42189
▁ed	-9.42277
ized	-9.4255
▁beeps	-9.42594
▁destroy	-9.4279
▁release	-9.42908
▁robert	-9.42961
fucking	-9.42981
boy	-9.43069
▁comp	-9.43262
▁built	-9.43274
▁however	-9.43274
▁mercedes	-9.43274
▁monroe	-9.43274
▁nowhere	-9.43274
▁target	-9.43274
▁thatll	-9.43275
▁conlon	-9.43275
▁upset	-9.43275
▁excited	-9.43307
▁type	-9.4332
▁penny	-9.43321
▁ought	-9.4337
▁pair	-9.43434
▁plate	-9.43462
▁honestly	-9.4354
▁wire	-9.43553
ex	-9.43749
▁losing	-9.43761
▁banging	-9.43868
▁you	-9.43947
led	-9.44019
▁clicks	-9.44075
eur	-9.44095
▁wood	-9.44127
▁map	-9.4414
ile	-9.44174
▁birds	-9.44268
▁promised	-9.4441
▁believed	-9.44572
▁bringing	-9.44776
▁learned	-9.44796
▁wine	-9.44905
▁fellas	-9.451
▁due	-9.45449
▁hearing	-9.4551
▁sat	-9.45591
▁complete	-9.45736
▁twenty	-9.45904
▁arthur	-9.45906
▁cassandra	-9.45906
▁responsible	-9.45906
▁rifle	-9.45906
▁traffic	-9.45906
▁javi	-9.45906
▁pardon	-9.45906
▁request	-9.45906
▁within	-9.45906
▁travel	-9.4591
▁colonel	-9.45913
▁view	-9.45918
▁lester	-9.45938
▁winner	-9.45958
▁alarm	-9.45976
▁fake	-9.45979
▁manager	-9.46034
▁usually	-9.46046
▁fredo	-9.46065
▁honking	-9.46142
▁hoping	-9.46208
▁points	-9.46275
▁squealing	-9.46289
▁diamonds	-9.46546
▁amen	-9.46573
▁united	-9.46581
▁os	-9.46657
ens	-9.46658
ven	-9.46674
ny	-9.46698
ria	-9.46717
▁ru	-9.46863
▁speaks	-9.46953
ude	-9.47086
▁not	-9.47505
▁deliver	-9.47814
▁legs	-9.47844
▁lu	-9.47959
▁daughters	-9.4796
ite	-9.47988
▁bullets	-9.48001
ations	-9.48017
▁dump	-9.48088
▁shots	-9.48254
▁settle	-9.48288
▁final	-9.4844
▁spoke	-9.48489
ug	-9.48515
▁danger	-9.48583
▁jerk	-9.48601
▁ambulance	-9.48609
▁audience	-9.48609
▁bottom	-9.48609
▁contract	-9.48609
▁downtown	-9.48609
▁nervous	-9.48609
▁upstairs	-9.48609
▁kray	-9.48609
▁credit	-9.48609
▁garden	-9.48612
▁earlier	-9.48613
▁lift	-9.48614
▁papa	-9.4862
▁rush	-9.48633
▁connection	-9.48637
▁breaking	-9.48663
▁meat	-9.48686
▁statement	-9.48698
▁obviously	-9.4871
▁bust	-9.48777
▁hup	-9.48781
▁leon	-9.48956
▁quietly	-9.49054
▁states	-9.49083
▁parking	-9.49466
▁besides	-9.49627
▁draw	-9.49795
▁knees	-9.49868
jo	-9.49914
▁arms	-9.50024
▁experience	-9.50338
▁shoe	-9.50475
ize	-9.50747
▁horses	-9.50833
▁screw	-9.50869
▁wash	-9.50964
▁showed	-9.51042
▁yard	-9.51078
tro	-9.51281
▁blows	-9.51288
▁rug	-9.51318
▁boyfriend	-9.51387
▁clarice	-9.51387
▁congratulations	-9.51387
▁ghost	-9.51387
▁murray	-9.51387
▁several	-9.51387
▁stories	-9.51387
▁cheese	-9.51387
▁derek	-9.51387
▁eddie	-9.51387
▁odd	-9.51388
▁cheap	-9.51397
▁juice	-9.514
sa	-9.51415
▁virginie	-9.51422
▁sky	-9.51422
▁button	-9.51428
▁ter	-9.51668
▁jane	-9.5193
▁gotten	-9.52055
▁nah	-9.52082
▁feed	-9.52089
▁stayed	-9.52094
com	-9.52259
▁closer	-9.52328
▁whispers	-9.52347
mon	-9.524
ice	-9.52453
▁fa	-9.52547
▁an	-9.52587
▁bat	-9.52948
▁che	-9.53017
▁bite	-9.53132
▁pr	-9.53135
▁crash	-9.53155
▁gods	-9.53327
▁belong	-9.5348
▁las	-9.5356
▁taik	-9.53678
house	-9.5373
▁concern	-9.53735
▁fe	-9.53848
▁pictures	-9.53871
▁bl	-9.53891
▁cigarette	-9.54022
▁gangster	-9.5404
▁sometime	-9.54052
▁freeze	-9.54071
▁gate	-9.54079
▁suggest	-9.54179
▁advice	-9.54244
▁airport	-9.54244
▁anthony	-9.54244
▁insane	-9.54244
▁mexican	-9.54244
▁official	-9.54244
▁pistol	-9.54244
▁taught	-9.54244
▁admit	-9.54244
▁hammer	-9.54247
▁costello	-9.54248
▁twice	-9.54249
▁liar	-9.54252
▁flight	-9.54259
▁jewish	-9.5426
▁immediately	-9.54286
▁filthy	-9.54294
▁size	-9.54304
▁flat	-9.54311
▁fitz	-9.54312
▁annie	-9.54353
▁magic	-9.54443
▁stolen	-9.54469
▁ship	-9.54482
▁robbery	-9.54503
▁indistinctly	-9.54595
▁chop	-9.54706
ram	-9.54778
▁manny	-9.54792
▁gear	-9.54842
▁victims	-9.55013
▁faster	-9.55081
kin	-9.55087
▁arrested	-9.55328
▁weapons	-9.55664
▁mon	-9.56227
cy	-9.56237
ja	-9.56489
▁moms	-9.56496
gged	-9.56498
▁walt	-9.56538
▁tri	-9.56576
fi	-9.56594
▁pretend	-9.56606
▁remain	-9.56606
▁sea	-9.56614
field	-9.56705
▁lookin	-9.56743
ism	-9.56829
▁metal	-9.56886
▁robber	-9.56929
▁officers	-9.56952
▁bruce	-9.57185
▁divorce	-9.57185
▁europe	-9.57185
▁newspaper	-9.57185
▁donnie	-9.57185
▁grew	-9.57185
▁trinity	-9.57185
▁roof	-9.57185
▁cancer	-9.57185
▁allison	-9.57188
▁often	-9.57188
▁eating	-9.57188
▁dramatic	-9.57189
▁priest	-9.57189
▁mental	-9.57203
▁clock	-9.57227
▁weekend	-9.57239
▁evey	-9.57285
▁ma	-9.57334
▁sisters	-9.5736
▁chill	-9.5737
ight	-9.57393
▁yelling	-9.57398
▁pita	-9.57491
▁pm	-9.57563
▁blessed	-9.57625
tle	-9.57866
ah	-9.58055
▁mil	-9.58126
▁siren	-9.58335
▁sooner	-9.58378
▁all	-9.58399
▁tr	-9.58607
▁helped	-9.58766
▁sin	-9.58818
▁guts	-9.5883
bs	-9.59056
▁ne	-9.59512
▁buzz	-9.59534
▁cheers	-9.59537
itch	-9.5962
▁chi	-9.59638
▁stars	-9.59782
cha	-9.59997
▁lots	-9.60091
▁fl	-9.60141
▁farm	-9.60166
▁mmmhmm	-9.60215
▁roulet	-9.60215
▁whoever	-9.60215
▁shirt	-9.60215
▁sugar	-9.60215
▁warrant	-9.60215
▁regret	-9.60216
▁social	-9.60216
▁candie	-9.60216
▁whirring	-9.60218
▁switch	-9.60221
▁snow	-9.60222
▁repeat	-9.60222
▁shame	-9.60227
▁garage	-9.60227
▁sunday	-9.60228
▁desk	-9.60234
▁aware	-9.60241
▁pressure	-9.60246
▁shows	-9.60263
▁silly	-9.6027
▁powerful	-9.6029
▁storm	-9.60298
▁dollar	-9.60358
▁straighten	-9.60392
▁talkin	-9.60489
▁under	-9.6063
▁beeping	-9.6063
▁kg	-9.60642
▁checked	-9.60731
▁rats	-9.60804
▁slave	-9.60846
▁ser	-9.60848
▁badge	-9.60909
▁records	-9.60951
▁pl	-9.6096
▁pissed	-9.61002
▁br	-9.61005
▁boyle	-9.61062
▁oil	-9.61102
▁ele	-9.61219
▁port	-9.61222
▁armed	-9.61617
▁ends	-9.61624
▁shower	-9.61643
▁gunshots	-9.61725
▁pu	-9.61909
ber	-9.62104
▁los	-9.62189
▁streets	-9.62204
▁cook	-9.62262
ky	-9.62376
▁for	-9.62531
▁freak	-9.62763
mer	-9.62812
my	-9.6287
▁mai	-9.62939
▁deserve	-9.62974
▁attempt	-9.6334
▁beauty	-9.6334
▁california	-9.6334
▁dixon	-9.6334
▁helicopter	-9.6334
▁horrible	-9.6334
▁mexico	-9.6334
▁positive	-9.6334
▁regular	-9.6334
▁spanish	-9.6334
▁federal	-9.6334
▁caesar	-9.6334
▁spider	-9.6334
▁truly	-9.6334
▁proceed	-9.63341
▁ugh	-9.63341
▁clark	-9.63341
▁kay	-9.63344
▁bunny	-9.63344
▁blew	-9.63345
▁fancy	-9.63347
▁brown	-9.6335
▁leonard	-9.63353
▁molly	-9.63353
▁jury	-9.63363
▁paris	-9.63363
▁shotgun	-9.63366
▁sarah	-9.63372
▁strip	-9.63385
▁lies	-9.63386
▁cha	-9.63396
▁guest	-9.63412
▁weed	-9.6344
▁norman	-9.63461
▁cj	-9.63468
▁steve	-9.63577
▁arrived	-9.63607
ze	-9.63648
▁approaching	-9.63834
▁dar	-9.64047
▁ant	-9.64053
▁bosses	-9.64071
▁surprised	-9.64072
ph	-9.6424
bra	-9.6444
▁dressed	-9.64486
▁chest	-9.64528
▁jews	-9.64549
▁carrying	-9.64555
▁bay	-9.646
▁burned	-9.64615
▁uma	-9.64629
▁sw	-9.64701
▁chattering	-9.64736
▁reporter	-9.64971
▁followed	-9.65081
▁instrumenta	-9.65339
▁mc	-9.65512
▁acting	-9.65569
▁feels	-9.65783
▁announc	-9.65945
der	-9.66115
▁helping	-9.66166
▁weak	-9.66366
▁usual	-9.66398
▁marshal	-9.66493
▁hutch	-9.66566
▁border	-9.66566
▁cease	-9.66566
▁families	-9.66566
▁hollywood	-9.66566
▁inspector	-9.66566
▁iook	-9.66566
▁japanese	-9.66566
▁jungle	-9.66566
▁rachel	-9.66566
▁recognize	-9.66566
▁rough	-9.66566
▁telephone	-9.66566
▁outfit	-9.66566
▁russell	-9.66566
▁simply	-9.66566
▁writing	-9.66566
▁sionis	-9.66566
▁funeral	-9.66567
▁jeez	-9.66568
▁monkey	-9.66569
▁terrorist	-9.66571
▁heads	-9.66589
▁sentence	-9.66589
▁marry	-9.66602
▁dropped	-9.66604
▁stage	-9.66627
▁tune	-9.66629
▁rise	-9.6665
▁professional	-9.66659
▁lo	-9.66671
▁meal	-9.66685
▁marion	-9.66691
▁huge	-9.66708
▁rv	-9.66732
▁sweetie	-9.66752
▁vote	-9.66909
tes	-9.66947
▁concerned	-9.67148
▁off	-9.6722
▁usa	-9.67228
▁gi	-9.67352
▁wise	-9.67361
▁fan	-9.67593
side	-9.67845
▁paint	-9.67915
her	-9.67957
▁ir	-9.68183
▁ti	-9.68188
▁lied	-9.6819
▁dan	-9.6826
▁mis	-9.68298
▁can	-9.68348
▁turning	-9.68396
▁passing	-9.68469
▁ld	-9.68882
nce	-9.68911
▁su	-9.68911
▁windows	-9.68938
vy	-9.69077
▁details	-9.69182
ung	-9.69351
▁salt	-9.6941
ka	-9.6959
though	-9.69596
▁complain	-9.69603
▁val	-9.6982
▁object	-9.69835
▁asleep	-9.69899
▁beyond	-9.69899
▁character	-9.69899
▁crawford	-9.69899
▁expensive	-9.69899
▁faggot	-9.69899
▁language	-9.69899
▁restaurant	-9.69899
▁strength	-9.69899
▁thursday	-9.69899
▁insult	-9.69899
▁plenty	-9.69899
▁thunder	-9.69899
▁motel	-9.69899
▁raymond	-9.699
▁model	-9.699
▁ugly	-9.699
▁exchange	-9.69901
▁marriage	-9.69903
▁punch	-9.6991
▁irish	-9.69913
▁medical	-9.69916
▁anson	-9.69916
▁lila	-9.69919
▁slip	-9.69924
▁band	-9.69942
▁brave	-9.69962
▁fu	-9.69962
▁highway	-9.6997
▁famous	-9.69982
▁duck	-9.69984
▁center	-9.69997
▁russ	-9.70024
▁pulling	-9.70027
▁exit	-9.70036
▁comin	-9.70047
uck	-9.70049
▁pure	-9.70098
▁gim	-9.70156
▁ze	-9.7016
▁bush	-9.70203
▁hired	-9.70205
▁earn	-9.70214
▁note	-9.70332
▁cos	-9.70401
▁noticed	-9.70415
▁ford	-9.70515
▁allowed	-9.70591
▁ke	-9.70614
▁peter	-9.70671
▁letting	-9.70707
▁asses	-9.71403
tu	-9.71484
▁frances	-9.71496
▁my	-9.71696
▁lou	-9.7172
az	-9.71772
▁ahh	-9.7189
▁hon	-9.72052
▁bless	-9.72391
▁ordered	-9.72399
▁games	-9.72532
ities	-9.72753
▁assholes	-9.72758
▁disappear	-9.72817
▁at	-9.72827
ept	-9.72866
▁chuck	-9.73073
▁corps	-9.7309
ence	-9.73257
▁proper	-9.73309
▁boo	-9.73336
▁base	-9.73339
▁chair	-9.7334
▁andrew	-9.73348
▁angry	-9.73348
▁downstairs	-9.73348
▁example	-9.73348
▁garbage	-9.73348
▁muscle	-9.73348
▁ridiculous	-9.73348
▁saburo	-9.73348
▁twelve	-9.73348
▁clown	-9.73348
▁fifth	-9.73348
▁zasa	-9.73348
▁damage	-9.73348
▁roger	-9.73348
▁toilet	-9.73348
▁dancing	-9.73348
▁ricky	-9.73348
▁opportunity	-9.7335
▁changing	-9.7335
▁lecter	-9.73351
▁awake	-9.73352
▁basic	-9.73353
▁buried	-9.73354
▁monday	-9.73355
▁square	-9.73371
▁clever	-9.73372
▁nope	-9.73375
ise	-9.73376
▁duty	-9.73388
▁whip	-9.73396
▁tax	-9.73405
▁necessary	-9.73408
▁hung	-9.73409
▁vito	-9.73461
▁sub	-9.73485
▁angeles	-9.73531
▁ja	-9.73607
▁sue	-9.73633
▁taxi	-9.73645
▁sec	-9.73741
▁stops	-9.73742
▁keyser	-9.73985
▁mile	-9.73994
▁sand	-9.73997
▁aw	-9.74005
▁slowly	-9.7406
▁picking	-9.74105
▁gu	-9.74264
▁artist	-9.74456
▁sons	-9.74556
▁clients	-9.74737
ied	-9.75067
day	-9.75226
▁units	-9.75263
▁bum	-9.75501
ble	-9.75706
lam	-9.75789
▁ap	-9.75817
down	-9.76066
theme	-9.7614
▁ac	-9.76221
ub	-9.76269
▁approach	-9.76357
▁up	-9.76373
▁career	-9.76422
▁introduce	-9.76581
▁butt	-9.76652
▁health	-9.76665
for	-9.7672
▁sco	-9.76773
▁cackling	-9.76919
▁enemies	-9.76919
▁florida	-9.76919
▁miracle	-9.76919
▁spread	-9.76919
▁texas	-9.76919
▁trigger	-9.76919
▁trunk	-9.76919
▁bravo	-9.76919
▁bread	-9.76919
▁fortune	-9.76919
▁process	-9.76919
▁flesh	-9.76919
▁ramona	-9.76919
▁hoffa	-9.76919
▁video	-9.76919
▁illegal	-9.76919
▁profit	-9.76919
▁stairs	-9.76919
▁silence	-9.76921
▁print	-9.76921
▁yellow	-9.76925
▁bailey	-9.76929
▁poison	-9.76929
▁forgotten	-9.76929
▁comfortable	-9.76943
▁arno	-9.76944
▁gunfire	-9.7695
▁friendship	-9.7697
▁roth	-9.7698
▁rabbit	-9.76982
▁caii	-9.76989
▁market	-9.76989
▁oui	-9.76998
▁study	-9.77002
▁assume	-9.77008
▁suddenly	-9.77023
▁hack	-9.77058
▁rot	-9.77067
▁pool	-9.77068
▁inter	-9.77073
▁invited	-9.77082
▁wave	-9.77104
▁steph	-9.77105
▁yearold	-9.77105
ries	-9.7711
▁trap	-9.7715
ten	-9.77161
▁haller	-9.77188
▁rag	-9.77331
right	-9.7743
▁forced	-9.7755
▁older	-9.77617
▁bath	-9.77681
▁nobodys	-9.77811
▁stranger	-9.77824
▁wayne	-9.77838
▁sch	-9.78026
▁bitches	-9.78109
▁charges	-9.78534
▁dia	-9.78667
▁knocking	-9.78863
▁vern	-9.78986
▁mer	-9.78987
▁sn	-9.79131
ley	-9.79487
▁using	-9.7954
ft	-9.7959
▁wi	-9.79919
tre	-9.79924
▁there	-9.79942
▁lover	-9.79993
▁mal	-9.80143
▁dreams	-9.80172
▁decide	-9.8027
▁matt	-9.80365
▁ideas	-9.80523
▁apart	-9.80607
▁according	-9.80623
▁easier	-9.80623
▁elevator	-9.80623
▁explosiveskull	-9.80623
▁interview	-9.80623
▁marsellus	-9.80623
▁montoya	-9.80623
▁sandwich	-9.80623
▁smoking	-9.80623
▁gross	-9.80623
▁pilot	-9.80623
▁vacation	-9.80623
▁wolf	-9.80623
▁mostly	-9.80623
▁doorbell	-9.80623
▁coisa	-9.80623
▁tiger	-9.80624
▁desire	-9.80624
▁whyd	-9.80625
▁suitcase	-9.80625
▁mood	-9.80625
▁sexual	-9.80626
▁muito	-9.80629
▁piease	-9.8063
▁chick	-9.80633
▁champion	-9.80637
▁spring	-9.80638
▁policy	-9.80658
▁luca	-9.80663
▁value	-9.80669
▁nature	-9.80674
▁laughter	-9.80681
▁marla	-9.80684
▁psycho	-9.80697
▁aldo	-9.80714
▁rare	-9.80741
▁broad	-9.80751
▁golden	-9.80793
ath	-9.80803
▁gina	-9.80832
▁loss	-9.80855
ose	-9.80892
▁buying	-9.8093
▁raised	-9.8094
▁prepared	-9.80967
▁fourth	-9.8098
▁gives	-9.81056
pped	-9.81093
▁carson	-9.81094
▁personally	-9.81151
▁hall	-9.81158
▁mail	-9.81169
▁rec	-9.81176
▁wipe	-9.81243
▁murderer	-9.81297
▁greatest	-9.81303
▁dies	-9.81343
▁lower	-9.8138
▁path	-9.81454
▁drove	-9.81537
ni	-9.82251
▁char	-9.82401
▁terms	-9.82513
▁col	-9.82559
▁runs	-9.82638
▁lads	-9.82849
af	-9.8285
▁mi	-9.82854
ging	-9.8287
ora	-9.82996
ado	-9.83121
▁player	-9.83481
▁watched	-9.83526
vel	-9.83761
▁dealing	-9.83856
just	-9.83874
▁squeal	-9.83908
board	-9.83962
back	-9.84008
▁pigs	-9.84012
cia	-9.84089
▁prepare	-9.84112
▁ruin	-9.84194
▁hated	-9.84226
▁ted	-9.84246
▁sharp	-9.84289
▁exact	-9.84299
▁mmhm	-9.84357
▁somethin	-9.84388
▁favour	-9.8446
▁flash	-9.84466
▁defense	-9.84469
▁fantastic	-9.84469
▁fontaine	-9.84469
▁military	-9.84469
▁oclock	-9.84469
▁saturday	-9.84469
▁sneak	-9.84469
▁travis	-9.84469
▁understood	-9.84469
▁heavily	-9.84469
▁fireworks	-9.8447
▁babies	-9.8447
▁desert	-9.8447
▁permission	-9.84472
▁route	-9.84474
▁insist	-9.84475
▁failure	-9.84481
▁gook	-9.84486
▁brick	-9.84487
▁bedroom	-9.84489
▁belt	-9.8449
▁reward	-9.84492
▁boring	-9.84496
▁apparently	-9.84499
▁soap	-9.845
▁secretary	-9.84506
▁national	-9.84516
▁direction	-9.84522
▁confession	-9.84527
▁loan	-9.84549
▁disgusting	-9.84569
▁began	-9.84574
za	-9.84583
▁drivers	-9.84595
▁willing	-9.84612
▁vice	-9.84613
▁mable	-9.84624
▁page	-9.84637
▁squad	-9.84644
▁simon	-9.84736
▁cow	-9.84741
▁cigarettes	-9.8477
▁sink	-9.84846
▁wide	-9.84873
▁forth	-9.84903
▁signal	-9.84981
▁detail	-9.85305
▁loaded	-9.85333
▁pound	-9.85416
▁plans	-9.85542
▁flying	-9.85575
▁higher	-9.8587
▁carrie	-9.85934
▁x	-9.8615
▁lee	-9.86169
▁thy	-9.8619
▁bra	-9.86193
▁laws	-9.86449
▁ri	-9.86463
▁sm	-9.86543
▁log	-9.86658
▁tao	-9.86863
▁scar	-9.86892
lt	-9.86934
▁ros	-9.87068
▁bend	-9.87234
▁fund	-9.8725
▁eggs	-9.87398
▁clears	-9.87436
hand	-9.87494
▁mill	-9.87623
▁opened	-9.87724
▁stra	-9.87829
▁martin	-9.87973
▁parts	-9.87983
▁prime	-9.88017
face	-9.88029
▁ward	-9.88109
▁rocks	-9.88263
▁natural	-9.88293
▁players	-9.88381
▁among	-9.88431
▁comfort	-9.88442
▁amount	-9.88469
▁avoid	-9.88469
▁bodyguard	-9.88469
▁circle	-9.88469
▁dispatch	-9.88469
▁genius	-9.88469
▁iittie	-9.88469
▁mathilda	-9.88469
▁nephew	-9.88469
▁purpose	-9.88469
▁subject	-9.88469
▁whimpering	-9.88469
▁document	-9.88469
▁kevin	-9.88469
▁stood	-9.88469
▁zach	-9.88469
▁aiex	-9.88469
▁katie	-9.8847
▁limit	-9.8847
▁marcus	-9.8847
▁electronic	-9.8847
▁charles	-9.88471
▁steak	-9.88473
▁practice	-9.88474
▁blaring	-9.88476
▁pride	-9.88476
▁curious	-9.88477
▁formula	-9.88479
▁choking	-9.88479
▁shock	-9.88486
▁motion	-9.88497
▁electric	-9.88499
▁duke	-9.88503
▁chopper	-9.88505
▁stretch	-9.88519
▁heck	-9.88526
▁unfortunately	-9.88561
▁coat	-9.88603
▁everythings	-9.88611
▁feei	-9.88615
▁quarter	-9.8862
▁bates	-9.88649
▁chain	-9.88665
▁trial	-9.88671
▁lesson	-9.88688
▁heading	-9.88733
▁lane	-9.88737
▁serve	-9.88749
▁pops	-9.88837
▁yards	-9.88924
▁addy	-9.88936
▁cleaned	-9.89095
▁cheer	-9.89216
nic	-9.89275
▁boot	-9.89649
ak	-9.89673
▁somebodys	-9.8974
▁jobs	-9.89921
▁mor	-9.89971
ue	-9.90154
▁bugs	-9.90179
▁beep	-9.90328
ide	-9.90477
▁files	-9.90543
▁tra	-9.90624
▁nu	-9.90626
▁fra	-9.90771
aw	-9.90779
▁tickets	-9.9089
▁pipe	-9.90905
▁depends	-9.91041
▁throwing	-9.91068
▁ski	-9.91197
▁bur	-9.91308
▁friendly	-9.91388
▁harder	-9.9139
▁customers	-9.91506
▁hanging	-9.91545
▁bu	-9.91609
ked	-9.91623
q	-9.91812
▁letters	-9.91829
▁movies	-9.91847
ndo	-9.91871
▁confess	-9.92048
▁headed	-9.92124
what	-9.92139
▁pai	-9.92259
▁raise	-9.92292
▁dirt	-9.92371
▁junk	-9.92396
▁birth	-9.9263
▁access	-9.92636
▁advantage	-9.92636
▁borrow	-9.92636
▁broomhilda	-9.92636
▁coincidence	-9.92636
▁deposit	-9.92636
▁fletcher	-9.92636
▁fruit	-9.92636
▁laeddis	-9.92636
▁particular	-9.92636
▁photograph	-9.92636
▁respond	-9.92636
▁servant	-9.92636
▁somehow	-9.92636
▁current	-9.92636
▁punk	-9.92636
▁fbl	-9.92636
▁incident	-9.92636
▁england	-9.92638
▁winston	-9.92638
▁shape	-9.92638
▁edward	-9.9264
▁fought	-9.92643
▁golf	-9.92645
ified	-9.9265
▁sara	-9.92661
▁unbelievable	-9.92663
▁wiii	-9.92666
▁shopping	-9.92673
▁rude	-9.92686
▁battle	-9.92688
▁wade	-9.92722
▁shine	-9.92763
▁bull	-9.92823
▁tower	-9.9284
▁jacket	-9.92877
▁stab	-9.9288
▁bond	-9.92884
▁male	-9.92936
▁assure	-9.93005
▁qual	-9.93017
wn	-9.93022
ock	-9.93028
▁doors	-9.93158
▁scare	-9.93265
▁blown	-9.93294
hi	-9.93339
▁sant	-9.93626
▁lately	-9.93677
▁tw	-9.93706
▁ol	-9.9371
zer	-9.93734
▁growing	-9.93788
▁egg	-9.93788
▁customer	-9.93924
let	-9.9411
▁sing	-9.94128
▁flowers	-9.94132
▁seemed	-9.94255
▁rap	-9.94316
▁tro	-9.94542
qu	-9.94628
▁speaker	-9.94722
▁cameras	-9.94754
▁sucks	-9.95112
▁nights	-9.95566
▁heh	-9.95624
▁keeping	-9.95838
▁tools	-9.96158
▁hates	-9.96191
▁pie	-9.96359
▁screech	-9.96416
ator	-9.9649
all	-9.9652
uff	-9.96548
▁fred	-9.96553
▁escape	-9.96615
lip	-9.96649
▁mag	-9.96863
ula	-9.96905
▁percent	-9.96964
▁defend	-9.96965
▁bounty	-9.96983
▁education	-9.96983
▁eliza	-9.96983
▁godfather	-9.96983
▁homicide	-9.96983
▁kennedy	-9.96983
▁magazine	-9.96983
▁matthew	-9.96983
▁ocean	-9.96983
▁original	-9.96983
▁skull	-9.96983
▁spook	-9.96983
▁stratton	-9.96983
▁terrific	-9.96983
▁thomas	-9.96983
▁violence	-9.96983
▁byron	-9.96983
▁footsteps	-9.96983
▁wouid	-9.96983
▁spray	-9.96984
▁claim	-9.96984
▁akim	-9.96984
▁chancellor	-9.96984
▁nurse	-9.96984
▁firm	-9.96984
▁mouse	-9.96984
▁starving	-9.96984
▁equal	-9.96984
▁nancy	-9.96985
▁boston	-9.96985
▁pump	-9.96986
▁asha	-9.9699
▁student	-9.96994
▁pink	-9.96995
▁woke	-9.96998
▁morrie	-9.9701
▁joking	-9.97011
▁paso	-9.97015
▁location	-9.97015
▁benny	-9.97019
▁basement	-9.97021
▁bobby	-9.97025
▁leeds	-9.97027
▁fox	-9.97028
▁role	-9.97048
▁skill	-9.97055
▁aah	-9.97056
▁wallet	-9.97081
▁estate	-9.97098
▁bone	-9.97109
▁deny	-9.9712
▁proof	-9.97126
▁march	-9.97137
▁toss	-9.97155
▁reasonable	-9.97161
▁brand	-9.97199
▁regan	-9.97204
▁gent	-9.97214
▁doll	-9.97232
▁heroin	-9.97324
▁belongs	-9.97352
▁grant	-9.97417
▁policeman	-9.97429
ative	-9.97485
▁snap	-9.97609
▁nearly	-9.97651
▁perfectly	-9.97783
▁woods	-9.97797
▁sexy	-9.97852
▁chap	-9.97893
▁amy	-9.98087
mble	-9.98188
▁charged	-9.9824
▁sport	-9.9833
▁member	-9.98347
▁chips	-9.98364
▁marine	-9.98375
▁corpse	-9.98411
▁tied	-9.98411
sto	-9.98449
uit	-9.9847
ame	-9.98513
amin	-9.9861
▁pills	-9.98638
▁spa	-9.98733
gen	-9.9883
ville	-9.98888
▁falling	-9.98926
▁expecting	-9.98933
▁americans	-9.98938
▁era	-9.9896
gh	-9.98986
▁tall	-9.99148
▁training	-9.99344
▁din	-9.99622
ney	-9.99623
▁cho	-9.99885
lly	-10
▁signed	-10.0013
rate	-10.0016
▁fella	-10.0024
▁woo	-10.008
▁mel	-10.0096
▁cra	-10.0098
▁direct	-10.0099
▁mob	-10.0099
▁fail	-10.0104
▁nada	-10.0112
▁convince	-10.0117
den	-10.0118
▁sending	-10.0122
▁refuse	-10.0127
▁vo	-10.013
▁obvious	-10.0136
▁phil	-10.0142
▁advance	-10.0153
▁anderson	-10.0153
▁associate	-10.0153
▁beckett	-10.0153
▁celebrate	-10.0153
▁dozen	-10.0153
▁gambling	-10.0153
▁jersey	-10.0153
▁league	-10.0153
▁maximus	-10.0153
▁mcmanus	-10.0153
▁memories	-10.0153
▁occasion	-10.0153
▁revenge	-10.0153
▁violent	-10.0153
▁anytime	-10.0153
▁eventually	-10.0153
▁expert	-10.0153
▁morgan	-10.0153
▁period	-10.0153
▁verbal	-10.0153
▁vietnamese	-10.0153
▁poker	-10.0153
▁jimmie	-10.0153
▁kiii	-10.0153
▁swiss	-10.0153
▁whod	-10.0153
▁demand	-10.0153
▁gay	-10.0153
▁saint	-10.0153
▁greet	-10.0153
▁dealer	-10.0153
▁pikey	-10.0153
▁authority	-10.0153
▁parole	-10.0154
▁title	-10.0154
▁level	-10.0154
▁owns	-10.0154
▁leak	-10.0154
▁begging	-10.0155
▁solid	-10.0155
▁eyeball	-10.0156
▁package	-10.0157
▁sosa	-10.0159
▁familiar	-10.0159
▁spare	-10.0159
▁incredible	-10.016
▁drill	-10.0161
▁opal	-10.0161
▁wo	-10.0162
▁tour	-10.0162
▁allen	-10.0163
▁winter	-10.0167
▁echoing	-10.0175
▁hola	-10.0176
▁range	-10.0177
▁witnesses	-10.0181
▁passion	-10.0183
▁sim	-10.0191
urn	-10.0192
qui	-10.0199
▁toy	-10.0201
▁alcohol	-10.0204
▁bem	-10.0208
▁gotham	-10.0217
▁mission	-10.0219
▁writer	-10.0221
▁pieces	-10.0268
atch	-10.0272
▁cleaning	-10.0278
▁cre	-10.028
▁spit	-10.0287
▁tara	-10.0288
▁hairy	-10.0288
▁kicked	-10.03
▁fee	-10.0301
▁fixed	-10.0306
▁jackie	-10.032
▁lap	-10.0323
▁bookies	-10.0324
▁gar	-10.0327
▁slams	-10.0328
bit	-10.0331
▁offered	-10.0349
▁suspensefu	-10.0382
▁dust	-10.0391
▁the	-10.0405
▁photos	-10.0418
wa	-10.0426
▁dos	-10.0426
▁issues	-10.0435
ole	-10.0452
▁tan	-10.0464
gie	-10.0467
▁pode	-10.0546
▁register	-10.0577
job	-10.0597
mark	-10.0615
▁virgin	-10.062
▁offend	-10.0624
▁commit	-10.0624
▁perform	-10.0628
▁specific	-10.0628
▁ohh	-10.0628
▁vietnam	-10.0629
▁horror	-10.0629
▁available	-10.0629
▁belfort	-10.0629
▁brilliant	-10.0629
▁effort	-10.0629
▁grandmother	-10.0629
▁hildi	-10.0629
▁individual	-10.0629
▁jewelry	-10.0629
▁lansky	-10.0629
▁ofelia	-10.0629
▁orange	-10.0629
▁pizza	-10.0629
▁pregnant	-10.0629
▁probiem	-10.0629
▁scratch	-10.0629
▁sollozzo	-10.0629
▁weather	-10.0629
▁written	-10.0629
▁companies	-10.0629
▁detroit	-10.0629
▁ralph	-10.0629
▁committee	-10.0629
▁crush	-10.0629
▁evil	-10.0629
▁sicily	-10.0629
▁steady	-10.0629
▁coach	-10.0629
▁marquis	-10.0629
▁whatre	-10.0629
▁karl	-10.0629
▁indeed	-10.0629
▁piano	-10.0629
▁smash	-10.0629
▁isso	-10.0629
▁billboards	-10.0629
▁hayes	-10.0629
▁assassin	-10.0629
▁speed	-10.0629
▁papi	-10.0629
▁recall	-10.063
▁sauce	-10.063
▁pee	-10.063
▁flush	-10.0631
▁vamos	-10.0631
▁skinny	-10.0632
▁twist	-10.0632
▁intention	-10.0632
▁possession	-10.0632
▁tits	-10.0632
▁dawn	-10.0633
▁blast	-10.0634
▁swat	-10.0634
▁beef	-10.0634
▁technically	-10.0634
▁dragon	-10.0634
▁eron	-10.0634
▁royal	-10.0635
▁confused	-10.0635
▁princess	-10.0637
▁aside	-10.0637
▁plain	-10.0638
▁porch	-10.0638
shore	-10.0639
▁bail	-10.0639
▁iron	-10.064
▁lean	-10.0642
▁kara	-10.0642
▁marshall	-10.0645
▁sins	-10.0648
▁twin	-10.065
▁moon	-10.065
▁lago	-10.0651
▁forty	-10.0653
▁singer	-10.0655
bel	-10.0659
▁bury	-10.0662
▁mere	-10.0674
▁rub	-10.0675
▁casa	-10.0675
▁feelings	-10.0677
▁deeply	-10.068
▁smells	-10.0681
▁ira	-10.0684
▁screeching	-10.0692
row	-10.0695
▁disappeared	-10.0701
ory	-10.0702
▁wasted	-10.0704
▁naked	-10.0707
bag	-10.0716
▁taro	-10.0717
▁coin	-10.0718
▁chase	-10.0721
▁painting	-10.0725
▁drawing	-10.073
▁wounded	-10.0732
▁sheets	-10.0733
itz	-10.0741
▁scream	-10.0758
▁filled	-10.076
▁qua	-10.0789
▁clearly	-10.079
▁feds	-10.0802
▁victor	-10.0805
▁interrupt	-10.081
▁leader	-10.0811
ada	-10.0815
▁depend	-10.0815
▁younger	-10.0826
▁expected	-10.0836
▁lit	-10.0836
▁drinks	-10.0858
▁hunting	-10.086
▁op	-10.0867
▁animals	-10.0873
▁jam	-10.0915
fully	-10.0934
▁prisoners	-10.0947
▁ann	-10.0971
▁hook	-10.0974
▁hurts	-10.0988
▁banker	-10.1015
▁mau	-10.1038
nder	-10.1072
▁focus	-10.1077
▁ge	-10.1077
▁mix	-10.108
▁commission	-10.1087
ew	-10.1116
▁cuba	-10.1117
▁hug	-10.1119
▁dea	-10.1127
▁almighty	-10.1129
▁appointment	-10.1129
▁assault	-10.1129
▁auction	-10.1129
▁challenge	-10.1129
▁community	-10.1129
▁destiny	-10.1129
▁dynamite	-10.1129
▁emergency	-10.1129
▁exciting	-10.1129
▁expense	-10.1129
▁humming	-10.1129
▁peggy	-10.1129
▁precious	-10.1129
▁routine	-10.1129
▁shouid	-10.1129
▁solomon	-10.1129
▁stomach	-10.1129
▁subtitle	-10.1129
▁tuddy	-10.1129
▁tuesday	-10.1129
▁willoughby	-10.1129
▁opinion	-10.1129
▁fifty	-10.1129
▁gather	-10.1129
▁staff	-10.1129
▁tattoo	-10.1129
▁couch	-10.1129
▁text	-10.1129
▁rumor	-10.1129
▁heip	-10.1129
▁lonely	-10.1129
▁planning	-10.1129
▁planned	-10.1129
▁apology	-10.1129
▁british	-10.113
▁chamber	-10.113
▁fisk	-10.113
▁snake	-10.113
▁pension	-10.113
▁argue	-10.113
▁mercy	-10.113
▁estava	-10.113
away	-10.1131
▁describe	-10.1131
▁tem	-10.1131
▁castro	-10.1131
▁onto	-10.1131
▁trash	-10.1132
▁confirm	-10.1133
▁growling	-10.1133
▁sobs	-10.1133
▁habit	-10.1134
▁ability	-10.1134
▁toid	-10.1134
▁sail	-10.1137
▁cmon	-10.1139
▁brains	-10.1141
▁sock	-10.1147
▁upb	-10.1147
▁grass	-10.1151
▁retired	-10.1154
▁useless	-10.1155
▁grown	-10.1156
▁created	-10.1157
▁moments	-10.1158
cl	-10.1159
▁tense	-10.1167
▁lab	-10.1167
▁sua	-10.1167
▁gene	-10.1168
▁bleeding	-10.1169
▁walks	-10.117
▁gangsters	-10.117
▁served	-10.1174
▁angela	-10.1176
▁boxes	-10.1181
▁drag	-10.1182
▁of	-10.1186
▁events	-10.1188
▁ruined	-10.1197
▁carefully	-10.1202
▁buzzing	-10.1224
▁destroyed	-10.1232
▁porn	-10.1233
▁shy	-10.1235
▁miller	-10.1235
tter	-10.1237
ature	-10.1245
▁realized	-10.1248
▁til	-10.1261
nd	-10.1262
▁don	-10.127
▁teacher	-10.1271
▁parked	-10.1277
▁soldiers	-10.1286
▁brings	-10.1319
nte	-10.1321
▁returned	-10.1324
lock	-10.133
▁persons	-10.1337
▁issue	-10.1337
▁trees	-10.136
▁partners	-10.1372
▁reported	-10.138
bble	-10.1381
pin	-10.14
▁dreaming	-10.1404
ball	-10.1404
ties	-10.1422
▁wing	-10.1426
▁suspects	-10.1436
▁sol	-10.1442
▁doctors	-10.1446
▁rep	-10.1468
▁par	-10.151
▁beating	-10.1513
pro	-10.1519
ical	-10.1524
▁hm	-10.1526
▁walls	-10.1535
▁butch	-10.1551
▁machines	-10.1552
▁answers	-10.1563
▁ana	-10.1568
▁lawyers	-10.1586
▁cats	-10.159
▁disappoint	-10.1603
foot	-10.1603
▁und	-10.1608
▁arrive	-10.161
point	-10.1611
▁je	-10.1619
▁threat	-10.1643
▁gordo	-10.1644
▁motherfuckin	-10.1647
▁institution	-10.1653
▁civil	-10.1653
▁affair	-10.1655
▁aronoff	-10.1655
▁awesome	-10.1655
▁banana	-10.1655
▁benefit	-10.1655
▁bonjour	-10.1655
▁buffalo	-10.1655
▁dufresne	-10.1655
▁energy	-10.1655
▁excellent	-10.1655
▁garnett	-10.1655
▁including	-10.1655
▁intelligence	-10.1655
▁kurtz	-10.1655
▁literally	-10.1655
▁matrix	-10.1655
▁montana	-10.1655
▁nonsense	-10.1655
▁norcut	-10.1655
▁paranoid	-10.1655
▁rebecca	-10.1655
▁represent	-10.1655
▁responsibility	-10.1655
▁shrink	-10.1655
▁smooth	-10.1655
▁someplace	-10.1655
▁squeeze	-10.1655
▁tangiers	-10.1655
▁tunnel	-10.1655
▁becca	-10.1655
▁fenster	-10.1655
▁mildred	-10.1655
▁screen	-10.1655
▁superhero	-10.1655
▁testify	-10.1655
▁impressive	-10.1655
▁plastic	-10.1655
▁closing	-10.1655
▁decent	-10.1655
▁daniel	-10.1655
▁wallace	-10.1655
▁style	-10.1655
▁nightmare	-10.1656
▁burger	-10.1656
▁faint	-10.1656
▁grandpa	-10.1656
▁breast	-10.1656
▁jules	-10.1656
▁internet	-10.1656
▁theory	-10.1656
▁wives	-10.1656
▁candyland	-10.1656
▁silent	-10.1657
▁recover	-10.1657
▁psychiatrist	-10.1657
▁lick	-10.1658
▁surf	-10.1659
▁isto	-10.166
▁edge	-10.1661
▁kidnapping	-10.1663
▁moron	-10.1664
▁monster	-10.1667
▁gordon	-10.1667
▁barry	-10.1671
▁pub	-10.1673
▁queenan	-10.1673
▁smith	-10.1674
▁directly	-10.1676
▁sniper	-10.1676
▁spoken	-10.1679
▁hail	-10.168
▁bound	-10.1681
▁clicking	-10.1685
▁cutting	-10.1686
▁whispering	-10.1689
▁jet	-10.1694
▁quote	-10.1697
▁payment	-10.1699
▁stopping	-10.1701
▁mat	-10.1701
iest	-10.1702
▁glasses	-10.1705
▁remo	-10.1714
▁batt	-10.1727
ppy	-10.1742
▁ruth	-10.1742
▁z	-10.1746
▁les	-10.1751
▁tool	-10.1761
▁taiking	-10.1762
▁mikey	-10.1766
▁ela	-10.1769
sty	-10.1773
▁tail	-10.1784
▁nos	-10.1794
▁pit	-10.18
ake	-10.1809
▁moe	-10.1824
▁cabin	-10.184
▁thin	-10.1849
▁product	-10.1858
▁str	-10.1863
bie	-10.1864
▁pope	-10.1869
▁protecting	-10.1878
▁marks	-10.1885
▁laying	-10.1886
▁photo	-10.1894
▁appear	-10.1895
▁burning	-10.1896
▁counts	-10.1905
▁pet	-10.191
▁fate	-10.1911
▁volt	-10.1924
▁suits	-10.1925
mber	-10.1934
▁romans	-10.1958
▁gal	-10.1959
▁childs	-10.1972
▁qu	-10.1981
hood	-10.1984
▁hip	-10.2001
▁spin	-10.2022
▁thee	-10.2024
▁becomes	-10.2033
▁leads	-10.2037
▁prisoner	-10.2042
▁loser	-10.2057
▁blowing	-10.2057
ium	-10.2062
low	-10.2077
win	-10.2101
pace	-10.2108
fuck	-10.2118
▁grin	-10.214
▁drown	-10.2158
room	-10.2163
two	-10.2164
lia	-10.2171
pol	-10.2176
▁dist	-10.2184
▁madam	-10.2198
ral	-10.22
▁effect	-10.2208
▁occur	-10.221
▁denni	-10.2211
▁bollocks	-10.2211
▁catherine	-10.2211
▁champagne	-10.2211
▁chicago	-10.2211
▁circumstances	-10.2211
▁corrupt	-10.2211
▁custody	-10.2211
▁district	-10.2211
▁division	-10.2211
▁fifteen	-10.2211
▁goldfarb	-10.2211
▁lifeguard	-10.2211
▁organization	-10.2211
▁political	-10.2211
▁procedure	-10.2211
▁separate	-10.2211
▁society	-10.2211
▁tyrone	-10.2211
▁undercover	-10.2211
▁whistling	-10.2211
▁desperate	-10.2211
▁epps	-10.2211
▁guinea	-10.2211
▁supper	-10.2211
▁viggo	-10.2211
▁becoming	-10.2211
▁disturb	-10.2211
▁gordie	-10.2211
▁patrol	-10.2211
▁finch	-10.2211
▁crawl	-10.2211
▁barrel	-10.2211
▁thatd	-10.2211
▁avi	-10.2211
▁explosion	-10.2211
▁anger	-10.2211
▁robbed	-10.2211
▁connie	-10.2211
▁physical	-10.2211
▁creedy	-10.2211
▁owned	-10.2211
▁scumbag	-10.2211
▁medicine	-10.2212
load	-10.2212
▁glory	-10.2212
▁merci	-10.2212
▁root	-10.2212
▁loyalty	-10.2212
▁hostage	-10.2213
▁item	-10.2213
▁beast	-10.2213
▁committed	-10.2213
▁gentleman	-10.2213
▁shaw	-10.2213
▁canary	-10.2214
▁blair	-10.2214
▁degree	-10.2214
▁towel	-10.2214
▁legend	-10.2214
▁olive	-10.2215
▁wagon	-10.2215
▁minton	-10.2215
▁romantic	-10.2215
▁bored	-10.2215
▁scum	-10.2217
▁alley	-10.2217
▁youse	-10.2218
ency	-10.2218
▁embarrassed	-10.2218
▁auto	-10.2219
▁pitch	-10.222
▁grandma	-10.2223
▁brake	-10.2226
▁giuseppe	-10.2226
▁tim	-10.2227
▁kate	-10.2229
▁retai	-10.2232
▁fold	-10.2235
▁ignore	-10.2239
▁pole	-10.2241
▁blonde	-10.2241
▁colin	-10.2244
▁director	-10.2249
▁showing	-10.2252
▁hitting	-10.2252
▁she	-10.2254
▁lapd	-10.2255
▁denied	-10.2257
▁yup	-10.2258
▁warning	-10.2262
▁pile	-10.2263
▁gut	-10.2265
▁lifetime	-10.2267
▁delivery	-10.2268
▁string	-10.2277
▁prize	-10.2289
▁actor	-10.2294
▁blessing	-10.2305
▁lad	-10.2313
▁mentioned	-10.2329
▁belly	-10.2355
▁towards	-10.2371
▁tracks	-10.2372
▁bombing	-10.2395
▁manage	-10.2396
▁hop	-10.2418
ax	-10.2425
▁ste	-10.2425
▁protected	-10.2426
▁fishing	-10.2426
ich	-10.2428
well	-10.2429
▁erase	-10.2435
▁ni	-10.2447
▁criminals	-10.2461
▁cents	-10.2464
▁pan	-10.2465
▁kissed	-10.2468
▁trained	-10.249
▁apple	-10.2491
▁mist	-10.2497
▁carlos	-10.2507
▁seek	-10.2513
▁riding	-10.2521
▁appears	-10.2536
▁victoria	-10.2552
▁tag	-10.2555
▁finding	-10.2569
▁patients	-10.2573
▁here	-10.2577
ya	-10.2578
▁grease	-10.2586
▁members	-10.2617
▁gosh	-10.2668
▁rate	-10.2673
▁anti	-10.2692
mate	-10.2708
ito	-10.2715
▁touched	-10.2722
▁trusted	-10.2729
▁connect	-10.2741
ship	-10.2741
itt	-10.2742
wood	-10.275
phone	-10.2754
▁surviv	-10.2756
▁tick	-10.2758
▁success	-10.2759
▁scott	-10.2765
▁dim	-10.2767
▁tow	-10.2767
bility	-10.2768
▁seu	-10.277
▁sudden	-10.2782
▁maze	-10.2789
▁guests	-10.2792
orted	-10.2795
▁transfer	-10.2798
▁candy	-10.2799
▁achieve	-10.2799
▁bacall	-10.2799
▁budapest	-10.2799
▁escort	-10.2799
▁experiment	-10.2799
▁jealous	-10.2799
▁negative	-10.2799
▁reaction	-10.2799
▁revving	-10.2799
▁surveillance	-10.2799
▁swallow	-10.2799
▁temptation	-10.2799
▁uniform	-10.2799
▁century	-10.2799
▁climb	-10.2799
▁courage	-10.2799
▁mistress	-10.2799
▁peopie	-10.2799
▁cotton	-10.2799
▁identity	-10.2799
▁sharon	-10.2799
▁superstar	-10.2799
▁reckon	-10.2799
▁thief	-10.2799
▁incoming	-10.2799
▁shift	-10.2799
▁coast	-10.2799
▁indio	-10.2799
▁ernie	-10.2799
▁vinnie	-10.2799
▁spell	-10.2799
▁briefcase	-10.2799
▁scrap	-10.2799
▁racing	-10.2799
▁depart	-10.2799
▁practical	-10.2799
▁todd	-10.2799
▁nerve	-10.28
▁boris	-10.28
▁kidnapped	-10.28
▁boogie	-10.28
▁urgent	-10.28
▁lalala	-10.28
▁rope	-10.28
▁bingo	-10.2801
▁arrow	-10.2801
▁hahaha	-10.2801
▁opening	-10.2801
▁burke	-10.2801
▁slept	-10.2801
▁blake	-10.2801
▁jason	-10.2801
▁childhood	-10.2802
▁civilian	-10.2802
▁factory	-10.2802
▁rod	-10.2803
▁swim	-10.2804
ware	-10.2804
▁handsome	-10.2805
▁emotional	-10.2806
▁embarrassing	-10.2808
▁capable	-10.2808
▁recently	-10.2808
▁jamie	-10.281
▁slim	-10.281
▁personality	-10.2811
▁booth	-10.2812
▁on	-10.2812
▁receiver	-10.2812
▁it	-10.2814
▁roy	-10.2815
▁cured	-10.2816
▁cast	-10.2818
▁linda	-10.282
▁gig	-10.2832
▁junkie	-10.2834
▁tries	-10.2835
ini	-10.2836
▁tone	-10.2842
▁lack	-10.2842
▁aim	-10.2844
▁cane	-10.285
▁gates	-10.285
▁pity	-10.2853
▁carried	-10.2855
▁toe	-10.2858
▁narc	-10.2858
▁au	-10.2864
▁billion	-10.2872
▁campo	-10.2879
▁nest	-10.2886
▁sei	-10.289
▁movement	-10.2891
▁meantime	-10.2892
▁mud	-10.2892
▁screwed	-10.2912
▁bud	-10.2917
▁mustve	-10.2918
▁jingles	-10.2929
▁stoned	-10.2943
▁stacks	-10.2949
▁planet	-10.2956
▁highly	-10.2977
▁jai	-10.2983
▁ou	-10.3009
▁vin	-10.3014
▁counter	-10.3015
▁stealing	-10.3018
▁bark	-10.302
▁neighbors	-10.3029
iu	-10.3058
▁operat	-10.306
ette	-10.313
▁carlo	-10.3131
mar	-10.3133
▁tend	-10.3137
▁toes	-10.3148
▁flo	-10.3172
▁chat	-10.322
too	-10.3226
▁sports	-10.3232
▁term	-10.3233
air	-10.3255
▁bones	-10.3256
wi	-10.3258
▁rolling	-10.3264
berry	-10.3284
▁fort	-10.3303
▁tear	-10.3304
▁oi	-10.3315
▁jos	-10.3316
ham	-10.3317
▁ao	-10.3336
▁strangers	-10.3342
looking	-10.3344
▁tin	-10.3365
▁inform	-10.3367
▁talent	-10.3371
gue	-10.3376
book	-10.3376
three	-10.3377
▁design	-10.3381
▁include	-10.3387
▁touching	-10.3397
▁weigh	-10.3411
▁cloth	-10.3413
▁prince	-10.3414
▁refer	-10.3424
▁brief	-10.3424
▁admire	-10.3424
▁agatha	-10.3424
▁attend	-10.3424
▁behalf	-10.3424
▁collignon	-10.3424
▁description	-10.3424
▁destination	-10.3424
▁dhazghig	-10.3424
▁easily	-10.3424
▁empire	-10.3424
▁ferrari	-10.3424
▁international	-10.3424
▁liquor	-10.3424
▁moustafa	-10.3424
▁november	-10.3424
▁possibly	-10.3424
▁someday	-10.3424
▁speech	-10.3424
▁suicide	-10.3424
▁symbol	-10.3424
▁tattaglia	-10.3424
▁thirty	-10.3424
▁tragedy	-10.3424
▁twentyfive	-10.3424
▁wealth	-10.3424
▁whimpers	-10.3424
▁corliss	-10.3424
▁eagle	-10.3424
▁environment	-10.3424
▁greek	-10.3424
▁merrily	-10.3424
▁miserable	-10.3424
▁pablo	-10.3424
▁pattern	-10.3424
▁transport	-10.3424
▁byebye	-10.3424
▁gabriel	-10.3424
▁ghetto	-10.3424
▁kumar	-10.3424
▁lardass	-10.3424
▁piace	-10.3424
▁sarge	-10.3424
▁washington	-10.3424
▁chinese	-10.3424
▁fetch	-10.3424
▁warehouse	-10.3424
▁courtesan	-10.3424
▁knowledge	-10.3424
▁presence	-10.3424
▁saving	-10.3424
▁connor	-10.3424
▁tomato	-10.3424
▁authorities	-10.3424
▁grabbed	-10.3424
▁meyer	-10.3425
▁championship	-10.3425
▁quando	-10.3425
▁sample	-10.3425
▁lisa	-10.3425
▁robbie	-10.3425
▁guide	-10.3426
▁chacon	-10.3426
▁zone	-10.3426
▁construction	-10.3426
▁geek	-10.3427
▁defendant	-10.3427
▁madden	-10.3427
▁merry	-10.3427
▁wherever	-10.3427
▁glove	-10.3428
▁regard	-10.3428
▁willie	-10.3428
▁bible	-10.3428
▁tyre	-10.3429
▁fence	-10.343
▁scam	-10.343
▁chew	-10.3432
▁facility	-10.3432
▁panic	-10.3433
▁rice	-10.3434
▁homework	-10.3436
▁plantation	-10.3438
▁bever	-10.344
▁iet	-10.3443
▁fuss	-10.3444
▁betty	-10.3445
▁sword	-10.3446
▁china	-10.3449
▁takin	-10.345
▁palm	-10.3451
▁gem	-10.3453
▁received	-10.3456
▁deni	-10.3456
▁setting	-10.3459
▁victory	-10.3459
▁fuckedup	-10.346
▁warn	-10.346
▁continu	-10.3465
▁remembered	-10.3472
▁limo	-10.3473
▁sandy	-10.3474
▁fried	-10.3474
run	-10.3475
▁warned	-10.3477
▁celtics	-10.3478
▁connected	-10.348
▁normally	-10.3483
▁flow	-10.3487
▁mixed	-10.349
▁oid	-10.3491
▁min	-10.3493
▁como	-10.3498
▁based	-10.3498
▁passes	-10.3501
▁roberto	-10.3503
▁martini	-10.3503
▁down	-10.3514
list	-10.3517
▁ate	-10.3518
▁nasty	-10.3518
▁stronger	-10.352
▁bla	-10.3534
▁butcher	-10.3551
▁coughs	-10.3563
▁bon	-10.3573
but	-10.3578
▁vu	-10.3581
▁shitty	-10.3584
gling	-10.3595
▁wr	-10.3597
▁jumped	-10.3602
shit	-10.3607
▁honk	-10.3613
▁walkin	-10.3639
▁attacked	-10.3647
▁drawer	-10.3668
ux	-10.367
▁diet	-10.3677
▁operate	-10.3684
▁covered	-10.3688
▁results	-10.3691
▁stinks	-10.3714
▁ended	-10.3716
▁bump	-10.3724
▁fal	-10.3741
▁knocked	-10.3744
▁tears	-10.3761
▁hills	-10.3766
▁corn	-10.377
▁france	-10.3775
rica	-10.3784
▁hal	-10.3784
▁knee	-10.3786
ome	-10.3807
▁bid	-10.3817
▁cocks	-10.3819
▁anne	-10.3839
▁bee	-10.3855
▁marian	-10.3859
▁organ	-10.3877
▁marines	-10.3886
net	-10.391
▁gram	-10.3944
▁naive	-10.3955
▁lamb	-10.4006
▁shove	-10.4021
▁rig	-10.404
free	-10.4043
press	-10.4053
▁create	-10.4058
▁flu	-10.406
▁remove	-10.4061
bar	-10.4064
night	-10.4065
▁creep	-10.4065
▁actual	-10.4074
▁affect	-10.4084
▁chose	-10.4085
▁grocer	-10.4086
▁debora	-10.4086
▁altobello	-10.4091
▁avenue	-10.4091
▁belfast	-10.4091
▁conflict	-10.4091
▁develop	-10.4091
▁extraordinary	-10.4091
▁hysterical	-10.4091
▁laundry	-10.4091
▁library	-10.4091
▁mechanic	-10.4091
▁offense	-10.4091
▁paddy	-10.4091
▁potential	-10.4091
▁professor	-10.4091
▁reputation	-10.4091
▁response	-10.4091
▁sacrifice	-10.4091
▁scattered	-10.4091
▁schedule	-10.4091
▁struggling	-10.4091
▁vargas	-10.4091
▁wiseguys	-10.4091
▁beneath	-10.4091
▁franco	-10.4091
▁initial	-10.4091
▁miiiion	-10.4091
▁paradise	-10.4091
▁mirror	-10.4091
▁shatter	-10.4091
▁bribe	-10.4091
▁medium	-10.4091
▁quinn	-10.4091
▁solando	-10.4091
▁tolan	-10.4091
▁bunk	-10.4091
▁spoon	-10.4091
▁hazen	-10.4091
▁collins	-10.4091
▁spud	-10.4091
▁indian	-10.4091
▁iove	-10.4091
▁demany	-10.4091
▁opposite	-10.4091
▁daily	-10.4091
▁naomi	-10.4091
▁willard	-10.4091
▁alguma	-10.4092
▁alexander	-10.4092
▁inquir	-10.4092
▁struck	-10.4092
▁jazz	-10.4093
▁wrist	-10.4093
▁marble	-10.4094
▁choke	-10.4094
▁coward	-10.4094
▁dough	-10.4095
▁giant	-10.4095
▁unlike	-10.4096
▁salad	-10.4096
▁potatoes	-10.4096
▁shelley	-10.4096
▁ramos	-10.4096
▁vanish	-10.4097
▁slight	-10.4098
▁marty	-10.4099
▁pathetic	-10.4099
▁dover	-10.41
▁raid	-10.41
▁fever	-10.4101
▁rebel	-10.4101
▁dj	-10.4102
▁booze	-10.4103
▁serk	-10.4104
▁barish	-10.4106
▁haha	-10.4107
▁thou	-10.4107
how	-10.4108
▁safety	-10.4109
▁arch	-10.411
ford	-10.4111
▁brass	-10.4113
▁edie	-10.4114
▁eva	-10.4135
▁quid	-10.4136
▁discovered	-10.4136
▁gum	-10.4138
ith	-10.4139
▁unable	-10.4141
▁healthy	-10.4143
▁steer	-10.4145
▁inch	-10.4145
▁host	-10.4149
▁hood	-10.4152
▁sally	-10.4169
▁lib	-10.417
▁hid	-10.4182
▁dime	-10.4203
▁disse	-10.4209
▁sayin	-10.4211
▁pinch	-10.4213
▁yi	-10.4217
▁reai	-10.4222
▁instruct	-10.4223
▁dumped	-10.4223
len	-10.4224
▁nd	-10.4227
▁damned	-10.4228
▁tate	-10.4248
▁vehicles	-10.4262
▁rust	-10.4268
▁ham	-10.4274
ron	-10.4283
car	-10.4284
▁sniffs	-10.4286
▁considered	-10.429
▁checking	-10.4296
light	-10.4312
▁pushed	-10.4312
▁shouts	-10.4332
▁manners	-10.4335
▁fri	-10.4338
ison	-10.4344
▁seal	-10.4354
▁maria	-10.4362
ega	-10.4365
tte	-10.4369
▁ro	-10.4389
▁gin	-10.4398
▁stink	-10.4425
▁sounded	-10.4441
▁tryin	-10.4443
▁gam	-10.4454
▁apples	-10.4471
▁buck	-10.4494
▁cent	-10.4528
▁trauma	-10.4634
tory	-10.464
▁rape	-10.4645
iac	-10.4665
hole	-10.4681
▁suffer	-10.4695
▁dealers	-10.4729
work	-10.4742
▁nut	-10.4746
▁bleed	-10.4749
▁receive	-10.4753
▁rode	-10.4757
water	-10.4761
▁cheat	-10.4764
▁retire	-10.4766
▁image	-10.4774
▁prior	-10.4792
▁trans	-10.4795
▁sittin	-10.4798
▁smit	-10.4798
▁express	-10.4801
▁loyal	-10.4803
▁mount	-10.4805
▁hump	-10.4805
▁communist	-10.4805
▁measure	-10.4805
▁reject	-10.4805
▁advisor	-10.4805
▁aggressive	-10.4805
▁alessandra	-10.4805
▁arbogast	-10.4805
▁brooklyn	-10.4805
▁citizen	-10.4805
▁corporal	-10.4805
▁cripple	-10.4805
▁crook	-10.4805
▁culture	-10.4805
▁delicious	-10.4805
▁despite	-10.4805
▁disguise	-10.4805
▁eternal	-10.4805
▁exercise	-10.4805
▁fantasy	-10.4805
▁judgment	-10.4805
▁kansas	-10.4805
▁knauer	-10.4805
▁leparq	-10.4805
▁llewelyn	-10.4805
▁lobby	-10.4805
▁nylon	-10.4805
▁oracle	-10.4805
▁pancakes	-10.4805
▁previous	-10.4805
▁purchase	-10.4805
▁recommend	-10.4805
▁rodolfo	-10.4805
▁surgery	-10.4805
▁torrance	-10.4805
▁tournament	-10.4805
▁vaughn	-10.4805
▁vengeance	-10.4805
▁volunteer	-10.4805
▁zsasz	-10.4805
▁defence	-10.4805
▁hmong	-10.4805
▁popular	-10.4805
▁smack	-10.4805
▁thuds	-10.4805
▁stiff	-10.4805
▁crown	-10.4805
▁haunt	-10.4805
▁madeleine	-10.4805
▁emperor	-10.4805
▁ezra	-10.4805
▁zeena	-10.4805
▁random	-10.4805
▁mayhem	-10.4805
▁stabbed	-10.4805
▁swimming	-10.4805
▁thick	-10.4805
▁pursue	-10.4805
▁pedro	-10.4805
▁prevent	-10.4805
▁protest	-10.4805
▁rescue	-10.4805
▁snort	-10.4805
▁brittle	-10.4805
▁donkey	-10.4805
▁material	-10.4806
▁granny	-10.4806
▁silver	-10.4806
▁cheek	-10.4806
▁impressed	-10.4806
▁zoo	-10.4806
▁addict	-10.4806
▁jones	-10.4806
▁midget	-10.4806
▁rubber	-10.4806
▁flew	-10.4806
▁option	-10.4806
▁begbie	-10.4806
▁gamma	-10.4807
▁cruel	-10.4807
▁vision	-10.4807
▁racket	-10.4807
▁section	-10.4807
▁shark	-10.4807
▁portland	-10.4807
▁lungs	-10.4808
▁purse	-10.4808
▁flip	-10.4808
▁cheque	-10.4808
▁spill	-10.4808
▁teammate	-10.4809
▁management	-10.4809
▁obey	-10.4809
▁selfish	-10.4809
▁cried	-10.4809
▁drew	-10.481
▁accus	-10.481
▁firing	-10.481
▁kowalski	-10.4811
▁award	-10.4811
▁punish	-10.4811
▁false	-10.4813
▁nearby	-10.4814
▁wore	-10.4814
▁diaz	-10.4814
▁gourd	-10.4814
▁clip	-10.4815
▁wrapped	-10.4815
▁labor	-10.4816
▁bent	-10.4816
▁chosen	-10.4818
▁dings	-10.482
▁treatment	-10.4821
▁standard	-10.4822
▁bow	-10.4822
▁apply	-10.4822
istic	-10.4824
▁series	-10.4825
▁taps	-10.4825
▁johnson	-10.4827
▁vow	-10.4827
▁approve	-10.4827
▁heiio	-10.4828
▁ciao	-10.4828
▁involve	-10.4829
▁highness	-10.4831
▁soup	-10.4833
▁heal	-10.4834
▁charm	-10.4834
▁bout	-10.4836
▁task	-10.4838
▁tiny	-10.4839
▁nickel	-10.484
▁prop	-10.4844
▁retarded	-10.4846
▁threatened	-10.4846
▁noone	-10.4852
▁convinced	-10.4863
▁agora	-10.4864
▁tempo	-10.4867
▁mistaken	-10.4879
▁shovel	-10.488
▁former	-10.4885
▁deck	-10.4889
▁gray	-10.4893
▁spic	-10.49
▁deeper	-10.4903
▁reality	-10.4904
▁lara	-10.4904
▁stutter	-10.4905
▁comic	-10.4909
▁foundation	-10.4924
▁glori	-10.4925
▁hun	-10.4952
▁este	-10.4953
▁hooker	-10.4954
gun	-10.4966
▁tent	-10.4966
▁packed	-10.4975
▁fairy	-10.5014
▁sucking	-10.5021
▁elvis	-10.5039
▁considering	-10.504
▁staring	-10.5055
▁honored	-10.5058
▁mayor	-10.5103
▁blades	-10.5114
▁sucker	-10.5132
▁nation	-10.5134
ez	-10.5146
▁dispos	-10.5147
tima	-10.5159
▁earl	-10.516
▁fully	-10.5165
▁et	-10.5168
▁mei	-10.5174
lace	-10.5182
▁boxing	-10.5183
▁needle	-10.5204
▁yell	-10.5229
▁bug	-10.5234
▁app	-10.5234
▁content	-10.5251
▁result	-10.5253
rick	-10.5256
▁blade	-10.5257
abie	-10.5303
▁wag	-10.531
▁hunter	-10.5332
▁wil	-10.5348
▁slaver	-10.5412
fui	-10.5417
▁killa	-10.5446
▁stu	-10.5448
▁hol	-10.5461
▁hurting	-10.548
▁ey	-10.5482
dor	-10.5505
ably	-10.5519
▁stress	-10.5522
▁discover	-10.5523
worth	-10.5526
▁blond	-10.5527
play	-10.5528
▁squa	-10.5535
▁invite	-10.5539
▁sew	-10.5541
boat	-10.5542
▁doug	-10.5547
▁custom	-10.5547
▁barn	-10.5551
▁unfortunate	-10.5557
▁heii	-10.556
▁site	-10.5562
▁emotion	-10.5565
▁plea	-10.5567
unch	-10.5568
ograph	-10.5574
▁argument	-10.5574
▁assigned	-10.5574
▁brooks	-10.5574
▁campaign	-10.5574
▁caravan	-10.5574
▁carlisle	-10.5574
▁carolyn	-10.5574
▁catholic	-10.5574
▁cemetery	-10.5574
▁clattering	-10.5574
▁colleague	-10.5574
▁complicated	-10.5574
▁concentrate	-10.5574
▁convicted	-10.5574
▁crucifixion	-10.5574
▁cypher	-10.5574
▁dorothy	-10.5574
▁explosives	-10.5574
▁fragile	-10.5574
▁furniture	-10.5574
▁headquarters	-10.5574
▁investigating	-10.5574
▁lunatic	-10.5574
▁lundegaard	-10.5574
▁macready	-10.5574
▁michigan	-10.5574
▁multiple	-10.5574
▁nunca	-10.5574
▁october	-10.5574
▁ordinary	-10.5574
▁proposition	-10.5574
▁recognise	-10.5574
▁review	-10.5574
▁sahib	-10.5574
▁sausage	-10.5574
▁sponsor	-10.5574
▁sutler	-10.5574
▁sweeney	-10.5574
▁switzerland	-10.5574
▁talvez	-10.5574
▁typical	-10.5574
▁vatican	-10.5574
▁assistant	-10.5574
▁bruno	-10.5574
▁cliff	-10.5574
▁conduct	-10.5574
▁durden	-10.5574
▁engage	-10.5574
▁lopez	-10.5574
▁poiice	-10.5574
▁source	-10.5574
▁addition	-10.5574
▁caretaker	-10.5574
▁extend	-10.5574
▁extreme	-10.5574
▁pencil	-10.5574
▁pulse	-10.5574
▁pursuit	-10.5574
▁relative	-10.5574
▁vomit	-10.5574
▁couid	-10.5574
▁harbor	-10.5574
▁stereo	-10.5574
▁trooper	-10.5574
▁phase	-10.5574
▁stamp	-10.5574
▁brutal	-10.5574
▁headache	-10.5574
▁fraud	-10.5574
▁intend	-10.5574
▁jiro	-10.5574
▁santino	-10.5574
▁troops	-10.5574
▁stash	-10.5574
▁loving	-10.5574
▁innit	-10.5574
▁ashamed	-10.5574
▁hyman	-10.5574
▁conquer	-10.5575
▁misery	-10.5575
▁ninth	-10.5575
▁facing	-10.5575
▁motor	-10.5575
▁media	-10.5575
▁freezing	-10.5575
▁whiskey	-10.5575
▁drain	-10.5575
▁entrance	-10.5575
▁cartel	-10.5575
▁toast	-10.5575
▁replace	-10.5575
▁teamsters	-10.5575
▁wholl	-10.5575
▁repair	-10.5575
▁primary	-10.5575
▁studio	-10.5575
▁organized	-10.5575
▁councilman	-10.5576
▁rotten	-10.5576
▁ofthe	-10.5576
▁omar	-10.5576
▁combat	-10.5576
▁blanket	-10.5576
▁arrangement	-10.5576
▁chanting	-10.5577
▁slipped	-10.5577
▁margie	-10.5577
▁slide	-10.5577
▁investment	-10.5577
▁flag	-10.5577
reign	-10.5577
▁lips	-10.5577
▁trapped	-10.5578
▁retirement	-10.5578
▁nazi	-10.5578
▁huntley	-10.5578
▁digging	-10.5579
▁steel	-10.5579
▁sober	-10.5579
▁revs	-10.5579
▁whooping	-10.5579
▁bolt	-10.5579
▁ditch	-10.558
▁negotiate	-10.558
▁legitimate	-10.5582
▁chairman	-10.5582
▁element	-10.5582
ology	-10.5583
▁batman	-10.5583
▁tuco	-10.5583
▁unlock	-10.5583
▁slice	-10.5584
▁wel	-10.5584
▁fuel	-10.5584
▁chocolate	-10.5584
▁grateful	-10.5584
▁ahhh	-10.5584
▁behavior	-10.5585
▁burst	-10.5585
▁hideout	-10.5586
seven	-10.5587
▁link	-10.5589
▁redhead	-10.559
▁superman	-10.5591
▁tailor	-10.5592
▁moral	-10.5593
▁eve	-10.5596
▁math	-10.5596
▁caused	-10.5599
▁related	-10.56
▁caine	-10.5604
▁naturally	-10.5609
▁useful	-10.561
▁ridge	-10.5622
▁butter	-10.5623
▁managed	-10.5627
▁successful	-10.5627
▁suffered	-10.5632
▁fig	-10.5634
▁dial	-10.5635
▁mesm	-10.5637
▁suffering	-10.5637
▁sur	-10.564
▁missus	-10.5641
▁mia	-10.5644
▁bench	-10.5646
▁this	-10.565
▁registered	-10.5661
▁lawn	-10.5662
▁failed	-10.5665
▁riot	-10.5666
▁politicians	-10.5667
spect	-10.5668
▁confessed	-10.5674
▁ram	-10.5675
▁pedi	-10.5682
▁helpful	-10.5683
▁mid	-10.5683
▁finest	-10.5685
oh	-10.5686
like	-10.5687
▁pork	-10.5715
▁quicker	-10.5715
▁tre	-10.572
mobile	-10.572
▁cia	-10.5729
▁rib	-10.5735
▁busted	-10.5736
state	-10.574
▁dean	-10.5776
card	-10.5779
rio	-10.5811
▁illness	-10.5814
▁bothering	-10.5823
▁pushing	-10.5858
▁lighter	-10.587
ovi	-10.5879
▁tons	-10.588
▁candles	-10.5882
▁makeup	-10.5894
tention	-10.5907
eep	-10.5907
▁recording	-10.5911
▁spending	-10.5932
▁offering	-10.5953
▁tub	-10.5966
▁grunt	-10.6044
inner	-10.6048
▁dom	-10.6071
onde	-10.6077
▁candle	-10.6084
▁neighbor	-10.6086
▁oni	-10.6089
▁require	-10.6093
▁beside	-10.6096
▁counting	-10.6101
▁conc	-10.6109
▁slam	-10.6109
▁pill	-10.6125
▁esta	-10.6169
rus	-10.6175
rez	-10.6307
▁exclaim	-10.6349
▁squeak	-10.6349
nel	-10.6352
know	-10.636
▁bak	-10.6361
▁gamble	-10.6361
▁bowl	-10.6362
fire	-10.637
nite	-10.6376
▁sacr	-10.6376
stand	-10.6383
take	-10.6384
▁vai	-10.6386
▁noon	-10.639
▁psych	-10.6391
▁moan	-10.6393
▁plug	-10.6403
▁locat	-10.6403
▁appro	-10.6405
▁holiday	-10.6408
▁motivat	-10.6408
▁oklahoma	-10.6408
▁smuggle	-10.6408
▁accent	-10.6408
▁activity	-10.6408
▁ambush	-10.6408
▁anxious	-10.6408
▁appetite	-10.6408
▁applause	-10.6408
▁arguing	-10.6408
▁arizona	-10.6408
▁august	-10.6408
▁barzini	-10.6408
▁bracelet	-10.6408
▁chemical	-10.6408
▁cocaine	-10.6408
▁competition	-10.6408
▁compliment	-10.6408
▁continental	-10.6408
▁cortez	-10.6408
▁desculpa	-10.6408
▁disrespect	-10.6408
▁dmitri	-10.6408
▁domenico	-10.6408
▁embrace	-10.6408
▁exhaust	-10.6408
▁fashion	-10.6408
▁financial	-10.6408
▁harvard	-10.6408
▁havana	-10.6408
▁hockney	-10.6408
▁immobiliare	-10.6408
▁inhales	-10.6408
▁instinct	-10.6408
▁interfere	-10.6408
▁investigate	-10.6408
▁invisible	-10.6408
▁joseph	-10.6408
▁length	-10.6408
▁leprechaun	-10.6408
▁liberty	-10.6408
▁macneil	-10.6408
▁melissa	-10.6408
▁mierzwiak	-10.6408
▁narcotics	-10.6408
▁possibility	-10.6408
▁principle	-10.6408
▁satisfaction	-10.6408
▁similar	-10.6408
▁surgeon	-10.6408
▁temporary	-10.6408
▁terribly	-10.6408
▁tradition	-10.6408
▁underground	-10.6408
▁wednesday	-10.6408
▁wladek	-10.6408
▁yourseif	-10.6408
▁declar	-10.6408
▁mystery	-10.6408
▁polite	-10.6408
▁reeves	-10.6408
▁widow	-10.6408
ification	-10.6408
▁broadcast	-10.6408
▁polish	-10.6408
▁scotch	-10.6408
▁traitor	-10.6408
▁venice	-10.6408
▁appeal	-10.6408
▁ifyou	-10.6408
▁modern	-10.6408
▁monaco	-10.6408
▁razor	-10.6408
▁speck	-10.6408
▁drank	-10.6408
▁resume	-10.6408
▁thumb	-10.6408
▁dread	-10.6408
▁coffin	-10.6408
▁ballister	-10.6408
▁korea	-10.6408
▁method	-10.6408
▁felon	-10.6408
▁session	-10.6408
▁condom	-10.6408
▁iife	-10.6408
▁yacht	-10.6408
▁iisten	-10.6408
▁shave	-10.6408
▁sniffles	-10.6408
▁patsey	-10.6408
▁shaking	-10.6408
▁instructions	-10.6408
▁kyle	-10.6408
▁plague	-10.6408
▁rudy	-10.6408
▁ieav	-10.6408
▁ransom	-10.6408
▁coroner	-10.6408
▁gain	-10.6408
▁resist	-10.6408
▁wasting	-10.6408
▁curse	-10.6408
▁richardson	-10.6408
▁martinez	-10.6408
▁bubble	-10.6408
▁suspicious	-10.6409
▁snatch	-10.6409
▁snowball	-10.6409
▁whoops	-10.6409
▁clink	-10.6409
▁haul	-10.6409
▁snitch	-10.6409
▁valley	-10.6409
▁occurred	-10.641
▁corporation	-10.641
▁appearance	-10.641
▁specifically	-10.641
▁comedian	-10.641
▁ficar	-10.641
▁reverse	-10.641
▁steam	-10.6411
▁peak	-10.6411
▁cabinet	-10.6412
▁loop	-10.6412
▁rising	-10.6412
▁glen	-10.6412
▁gallo	-10.6413
▁hagen	-10.6413
▁secure	-10.6413
▁charity	-10.6414
▁jurisdiction	-10.6414
▁julie	-10.6414
▁prosecutor	-10.6414
▁blondie	-10.6415
▁acid	-10.6415
▁straw	-10.6415
▁blah	-10.6416
▁unload	-10.6417
▁armand	-10.6418
▁samson	-10.6419
▁betsy	-10.642
▁stepped	-10.6421
▁guardian	-10.6422
nior	-10.6423
▁inches	-10.6423
▁shep	-10.6426
▁dna	-10.6427
▁freeway	-10.6431
uel	-10.6432
▁copper	-10.6434
pic	-10.6436
▁philly	-10.6441
▁abandoned	-10.6442
▁shootout	-10.6445
▁chin	-10.6445
▁metro	-10.6445
▁vou	-10.6445
▁cave	-10.6446
▁madame	-10.6446
▁scotty	-10.6447
▁properly	-10.6452
▁deke	-10.6453
▁bean	-10.6453
▁prom	-10.6454
▁brat	-10.6455
▁mall	-10.6459
▁threatening	-10.6461
▁july	-10.6469
▁jay	-10.6473
▁charming	-10.6476
▁gru	-10.6478
▁informed	-10.6479
▁sum	-10.6484
▁geezer	-10.6492
▁disappointed	-10.6492
▁timing	-10.6497
▁focused	-10.6498
▁pur	-10.6499
▁q	-10.6499
▁marsh	-10.6519
▁cass	-10.6542
▁raped	-10.6562
▁lend	-10.6565
▁clouds	-10.6567
▁crashed	-10.6568
▁cooking	-10.6568
▁washed	-10.6572
▁hire	-10.6574
▁delivered	-10.6576
▁rear	-10.6578
ility	-10.658
▁crashing	-10.6583
▁liver	-10.6584
▁lina	-10.6596
▁employees	-10.6597
log	-10.6601
▁carat	-10.6605
▁dele	-10.6638
erial	-10.665
▁shooter	-10.6686
▁minh	-10.6694
bul	-10.6705
▁kicking	-10.6717
▁dodge	-10.6719
▁ambi	-10.6729
▁requires	-10.6733
▁meter	-10.6739
▁melt	-10.6755
▁watches	-10.6764
▁chor	-10.6768
▁returning	-10.6779
▁dive	-10.6793
▁messed	-10.6804
▁ton	-10.6806
▁yu	-10.6853
key	-10.6864
▁coz	-10.6868
▁ally	-10.6897
▁nod	-10.6908
▁whisper	-10.6942
▁shout	-10.695
▁ty	-10.6972
ella	-10.7001
▁parent	-10.7008
▁chuckle	-10.7018
▁stare	-10.7036
▁flower	-10.706
ander	-10.7109
mph	-10.7156
▁wrap	-10.7158
▁deai	-10.7206
▁threaten	-10.7227
▁dot	-10.7256
▁manner	-10.7262
▁whack	-10.7263
▁betray	-10.7264
▁retard	-10.7264
yearold	-10.7268
mouth	-10.7269
▁chan	-10.7277
▁torture	-10.728
▁invest	-10.7289
▁suppl	-10.7289
▁solve	-10.729
▁guilt	-10.729
▁pow	-10.7296
▁absolute	-10.73
▁cul	-10.7303
▁movin	-10.7309
▁consult	-10.7315
knuckle	-10.7317
▁applaud	-10.7317
▁israel	-10.7317
▁tobacco	-10.7317
pulsive	-10.7317
through	-10.7317
▁africa	-10.7317
▁aiways	-10.7317
▁alibi	-10.7317
▁application	-10.7317
▁assignment	-10.7317
▁attitude	-10.7317
▁beethoven	-10.7317
▁bertinelli	-10.7317
▁cadillac	-10.7317
▁certificate	-10.7317
▁circuit	-10.7317
▁circus	-10.7317
▁cocktail	-10.7317
▁consigliere	-10.7317
▁cooperate	-10.7317
▁deputy	-10.7317
▁disagree	-10.7317
▁disease	-10.7317
▁disgrace	-10.7317
▁fanucci	-10.7317
▁female	-10.7317
▁firearms	-10.7317
▁hungarian	-10.7317
▁immunity	-10.7317
▁increase	-10.7317
▁inspire	-10.7317
▁intelligent	-10.7317
▁kobayashi	-10.7317
▁kujan	-10.7317
▁ludwig	-10.7317
▁meanwhile	-10.7317
▁motorcycle	-10.7317
▁museum	-10.7317
▁passenger	-10.7317
▁pessoa	-10.7317
▁phoenix	-10.7317
▁precise	-10.7317
▁privacy	-10.7317
▁proposal	-10.7317
▁randazzo	-10.7317
▁receipt	-10.7317
▁recruit	-10.7317
▁refuge	-10.7317
▁research	-10.7317
▁revolution	-10.7317
▁rumbling	-10.7317
▁shadow	-10.7317
▁shawshank	-10.7317
▁shepherd	-10.7317
▁shook	-10.7317
▁territory	-10.7317
▁underwear	-10.7317
▁worship	-10.7317
▁behave	-10.7317
▁bonnie	-10.7317
▁bureau	-10.7317
▁crossbow	-10.7317
▁generous	-10.7317
▁humble	-10.7317
▁lachance	-10.7317
▁mafia	-10.7317
▁meredith	-10.7317
▁outstanding	-10.7317
▁peanut	-10.7317
▁pearson	-10.7317
▁sparma	-10.7317
▁storage	-10.7317
▁stroke	-10.7317
▁sunrise	-10.7317
▁trousers	-10.7317
▁brush	-10.7317
▁bugger	-10.7317
▁hidetora	-10.7317
▁nelson	-10.7317
▁alpha	-10.7317
▁cirk	-10.7317
▁crystal	-10.7317
▁dentist	-10.7317
▁virtu	-10.7317
▁wreck	-10.7317
▁crease	-10.7317
▁spleen	-10.7317
▁religio	-10.7317
▁kingdom	-10.7317
▁amigo	-10.7317
▁errol	-10.7317
▁roast	-10.7317
▁pimp	-10.7317
▁italy	-10.7317
▁delta	-10.7317
▁grid	-10.7317
▁levin	-10.7317
▁network	-10.7317
▁courtesy	-10.7317
▁laura	-10.7317
▁clang	-10.7317
▁iast	-10.7317
▁claus	-10.7317
▁tarde	-10.7317
▁whale	-10.7317
▁backyard	-10.7317
▁blink	-10.7317
▁central	-10.7317
▁sunset	-10.7317
▁statie	-10.7317
▁foul	-10.7317
▁basis	-10.7317
▁stalk	-10.7317
▁bald	-10.7318
▁massive	-10.7318
▁rossi	-10.7318
▁village	-10.7318
▁theft	-10.7318
▁arab	-10.7318
▁iong	-10.7318
▁donny	-10.7318
▁device	-10.7318
▁jeff	-10.7318
▁sheep	-10.7319
▁paperwork	-10.7319
▁promote	-10.7319
▁pierce	-10.7319
▁entertainment	-10.7319
▁palace	-10.7319
▁flare	-10.732
▁oak	-10.732
▁cooperation	-10.732
▁hallway	-10.732
▁distant	-10.732
▁lousy	-10.732
▁harris	-10.732
▁nino	-10.7321
▁wanker	-10.7321
▁costume	-10.7321
▁vlog	-10.7321
▁severe	-10.7322
▁bacon	-10.7322
▁toad	-10.7322
▁southern	-10.7322
▁terry	-10.7323
▁quality	-10.7323
▁anci	-10.7323
▁chaos	-10.7324
▁rattle	-10.7324
▁inmate	-10.7325
▁guardsmen	-10.7325
▁yessir	-10.7325
▁todo	-10.7326
▁ox	-10.7327
▁minor	-10.7327
▁delight	-10.7328
▁lois	-10.7328
▁clue	-10.7328
▁comment	-10.7329
▁dickhead	-10.7329
▁cameron	-10.7329
▁luis	-10.7329
▁aboard	-10.733
▁bandit	-10.7331
▁flies	-10.7332
▁abuse	-10.7333
▁stanton	-10.7333
▁satisfied	-10.7334
▁passage	-10.7335
▁chow	-10.7336
bone	-10.7338
▁tech	-10.7338
▁fries	-10.7339
▁explode	-10.7344
▁arranged	-10.7347
ello	-10.7347
▁taxes	-10.7349
▁morte	-10.735
▁barker	-10.735
▁reno	-10.7351
▁outra	-10.7352
▁tortured	-10.7354
▁stable	-10.7354
▁shithole	-10.7355
▁surrounded	-10.7355
▁spain	-10.7355
▁conta	-10.7355
▁ego	-10.7362
▁emma	-10.7364
▁removed	-10.7368
▁gambler	-10.7369
▁betrayed	-10.737
▁moaning	-10.7381
▁owl	-10.7381
▁bowling	-10.7383
▁scary	-10.7388
▁pickup	-10.7389
▁goodlooking	-10.739
▁dialing	-10.739
skim	-10.7392
▁robin	-10.7395
▁coma	-10.7395
▁fredd	-10.7396
berg	-10.7396
▁louder	-10.7403
▁diner	-10.7406
▁reel	-10.741
▁cain	-10.7415
▁spy	-10.742
▁triple	-10.7425
▁tracey	-10.7426
▁swing	-10.7426
▁qui	-10.7427
▁deserved	-10.7427
gram	-10.7428
▁leo	-10.7429
▁introduced	-10.7431
▁homeless	-10.7444
▁released	-10.7452
post	-10.7463
▁angelo	-10.7469
maker	-10.7473
▁quo	-10.7477
▁commander	-10.749
▁belonged	-10.7491
▁nitro	-10.7499
▁pretending	-10.7504
▁remaining	-10.7504
▁cable	-10.7565
▁teaching	-10.7583
▁blocked	-10.7612
▁cracked	-10.7613
▁sabe	-10.7615
▁fed	-10.7618
▁leading	-10.7619
▁crossed	-10.7619
uttering	-10.763
▁porqu	-10.7669
▁lris	-10.7691
▁parker	-10.7693
▁pd	-10.7712
▁farmer	-10.7725
▁rank	-10.7822
▁engineer	-10.7834
▁marker	-10.7841
not	-10.7877
▁classic	-10.7936
▁click	-10.7943
▁elvi	-10.7994
▁chip	-10.8039
▁bookie	-10.8076
▁vol	-10.8095
hot	-10.8115
entry	-10.8177
▁glo	-10.8193
▁boob	-10.8215
▁geez	-10.8219
ural	-10.8226
piece	-10.8261
ward	-10.8265
break	-10.8269
born	-10.8269
life	-10.827
count	-10.8273
class	-10.8273
keep	-10.8281
wise	-10.8283
▁explo	-10.8286
▁hustle	-10.8288
▁radi	-10.8292
▁numb	-10.8296
▁detect	-10.83
▁runnin	-10.8309
▁possess	-10.8311
▁kidnap	-10.8313
▁swor	-10.8313
▁blank	-10.8314
▁dominic	-10.8315
▁zip	-10.8317
▁uhuh	-10.8317
▁accomplish	-10.8317
▁adult	-10.8317
▁affirmative	-10.8317
▁afterwards	-10.8317
▁appreciation	-10.8317
▁beloved	-10.8317
▁bubba	-10.8317
▁cackles	-10.8317
▁catherlne	-10.8317
▁celebrit	-10.8317
▁conclusion	-10.8317
▁conscience	-10.8317
▁december	-10.8317
▁determine	-10.8317
▁dolores	-10.8317
▁dufayel	-10.8317
▁forensics	-10.8317
▁frozen	-10.8317
▁genuine	-10.8317
▁governor	-10.8317
▁guildford	-10.8317
▁guillermo	-10.8317
▁hamilton	-10.8317
▁imagination	-10.8317
▁industry	-10.8317
▁jonathan	-10.8317
▁mackenzie	-10.8317
▁marijuana	-10.8317
▁mclaren	-10.8317
▁mortgage	-10.8317
▁naughty	-10.8317
▁nightclub	-10.8317
▁occupied	-10.8317
▁participat	-10.8317
▁patience	-10.8317
▁peirce	-10.8317
▁pembry	-10.8317
▁prostitute	-10.8317
▁sempre	-10.8317
▁sensitive	-10.8317
▁sonofabitch	-10.8317
▁stensland	-10.8317
▁succeed	-10.8317
▁sunshine	-10.8317
▁surrender	-10.8317
▁taylor	-10.8317
▁technique	-10.8317
▁testimony	-10.8317
▁therapy	-10.8317
▁tissue	-10.8317
▁treasure	-10.8317
▁vegetable	-10.8317
▁withdraw	-10.8317
▁amateur	-10.8317
▁bargain	-10.8317
▁chirping	-10.8317
▁gould	-10.8317
▁inherit	-10.8317
▁pamela	-10.8317
▁pepper	-10.8317
▁poulain	-10.8317
▁predict	-10.8317
▁purple	-10.8317
▁science	-10.8317
▁seventeen	-10.8317
▁ultimate	-10.8317
▁unknown	-10.8317
▁vagina	-10.8317
▁valuable	-10.8317
▁bamba	-10.8317
▁bounce	-10.8317
▁cannon	-10.8317
▁expose	-10.8317
▁mattress	-10.8317
▁cherry	-10.8317
▁constant	-10.8317
▁harold	-10.8317
▁humor	-10.8317
▁instant	-10.8317
▁produce	-10.8317
▁creaks	-10.8317
▁dallas	-10.8317
▁dignam	-10.8317
▁fleck	-10.8317
▁hector	-10.8317
▁smiling	-10.8317
▁flames	-10.8317
▁licence	-10.8317
▁loony	-10.8317
▁thrill	-10.8317
▁senate	-10.8317
▁sierra	-10.8317
▁actress	-10.8317
▁stiii	-10.8317
▁stomp	-10.8317
▁impression	-10.8317
▁lewis	-10.8317
▁piggy	-10.8317
▁arnold	-10.8317
▁decade	-10.8317
▁tapping	-10.8317
▁campsite	-10.8317
▁consum	-10.8317
▁compared	-10.8317
▁conspiracy	-10.8317
▁superior	-10.8317
▁critic	-10.8317
▁vital	-10.8317
▁adopt	-10.8317
▁internal	-10.8317
▁enorm	-10.8317
▁strangle	-10.8317
▁kimball	-10.8317
▁judy	-10.8317
▁thirst	-10.8317
▁decorat	-10.8317
▁midnight	-10.8317
▁brainerd	-10.8317
▁giggling	-10.8317
▁turkey	-10.8317
▁enforcement	-10.8318
▁stain	-10.8318
▁hidden	-10.8318
▁sweep	-10.8318
▁jelly	-10.8318
▁basket	-10.8318
▁oscar	-10.8318
▁minister	-10.8318
sync	-10.8318
lcer	-10.8318
▁apoc	-10.8318
▁unger	-10.8318
▁hatchet	-10.8318
▁kidnapper	-10.8319
▁overnight	-10.8319
▁sidewalk	-10.8319
▁online	-10.8319
▁transferred	-10.8319
▁attractive	-10.8319
▁reaiiy	-10.8319
▁righteous	-10.8319
▁performance	-10.832
▁fond	-10.832
▁alert	-10.832
▁bucket	-10.832
▁subway	-10.8321
▁toot	-10.8321
▁claw	-10.8321
▁disappearance	-10.8321
▁medication	-10.8321
▁whys	-10.8322
▁plot	-10.8322
▁tango	-10.8322
▁interrogation	-10.8322
▁tourist	-10.8322
▁pond	-10.8322
▁atta	-10.8322
▁loom	-10.8322
▁gutter	-10.8322
▁chapter	-10.8322
▁ripped	-10.8323
▁signature	-10.8323
▁commitment	-10.8323
▁deborah	-10.8323
▁alike	-10.8324
▁sammy	-10.8324
▁vez	-10.8324
▁gentle	-10.8324
▁groceries	-10.8325
▁swell	-10.8325
▁grade	-10.8325
▁julia	-10.8325
▁puff	-10.8325
cular	-10.8325
▁alice	-10.8326
▁june	-10.8326
▁junior	-10.8327
▁villain	-10.8327
▁murphy	-10.8327
▁foolish	-10.8327
▁fax	-10.8328
▁compet	-10.8328
▁cuff	-10.8329
▁illusion	-10.8331
▁sack	-10.8331
▁yum	-10.8331
▁poop	-10.8331
▁examine	-10.8332
▁jaw	-10.8332
▁gap	-10.8334
▁fazer	-10.8334
▁ww	-10.8335
▁greedy	-10.8336
▁powder	-10.8336
▁iad	-10.8337
▁darkness	-10.8337
▁stir	-10.8339
▁uhoh	-10.8339
▁culpa	-10.8341
▁silk	-10.8344
▁investor	-10.8344
▁momma	-10.8344
▁piaying	-10.8345
ancho	-10.8346
▁discussion	-10.8347
▁halfway	-10.8347
▁supply	-10.8347
▁comedy	-10.8348
▁frightened	-10.8348
▁slap	-10.8348
▁mint	-10.8348
▁madman	-10.8349
▁employer	-10.8349
▁soil	-10.835
▁executed	-10.835
▁brandt	-10.835
▁dismissed	-10.8353
▁wig	-10.8355
robbing	-10.8356
▁angle	-10.8356
▁drum	-10.8357
▁floating	-10.8357
▁narrator	-10.8357
▁betting	-10.8357
▁solved	-10.8358
▁recon	-10.8358
▁palmer	-10.8358
▁obsessed	-10.8359
▁creepy	-10.8359
▁willy	-10.836
▁bueno	-10.8361
inda	-10.8361
▁neat	-10.8363
▁invented	-10.8364
▁matches	-10.8367
▁fist	-10.8368
▁tender	-10.8371
▁weep	-10.8372
▁handling	-10.8372
▁weakly	-10.8374
▁plank	-10.8379
▁beaten	-10.8379
▁chuckie	-10.8382
▁payne	-10.8382
▁bitter	-10.8384
▁pinky	-10.8386
▁squeaking	-10.8388
▁chen	-10.8394
▁skim	-10.8402
▁dana	-10.8404
▁escaped	-10.8404
▁lineup	-10.8408
▁freezer	-10.8408
▁bog	-10.8409
▁complaint	-10.841
▁visitor	-10.841
▁sewer	-10.8421
▁refused	-10.8426
▁hooked	-10.8428
▁ink	-10.8446
▁smiley	-10.8456
▁settled	-10.8459
▁blo	-10.8466
▁moh	-10.8469
▁hmmm	-10.8474
▁seth	-10.849
ggs	-10.8501
▁painted	-10.8504
▁earned	-10.8507
▁smaller	-10.8509
▁freaking	-10.8511
gging	-10.8528
▁misses	-10.8546
▁blueberr	-10.8557
▁shitting	-10.8634
▁rd	-10.8644
lain	-10.8677
▁ringer	-10.8701
iam	-10.8727
donna	-10.8794
▁fam	-10.8799
cut	-10.8821
▁mini	-10.894
▁sniff	-10.9046
▁spl	-10.9046
▁sic	-10.9053
▁meu	-10.9084
▁journal	-10.911
▁toward	-10.911
gua	-10.9133
vid	-10.9173
quint	-10.92
▁fre	-10.9214
▁mutt	-10.9269
▁pla	-10.9328
▁suite	-10.9346
▁wee	-10.9347
▁chic	-10.9364
▁echo	-10.9372
ridge	-10.9373
bound	-10.9378
tempo	-10.9378
fold	-10.9379
▁mir	-10.938
power	-10.938
called	-10.9381
▁invent	-10.9381
▁arrange	-10.9388
▁div	-10.939
▁execute	-10.9391
▁trail	-10.9392
▁immediate	-10.9411
acho	-10.9411
four	-10.9419
▁recent	-10.9419
▁executi	-10.9422
▁entertain	-10.9425
▁drama	-10.9427
▁academy	-10.9428
▁alleged	-10.9428
▁anyhow	-10.9428
▁atlanta	-10.9428
▁atlantic	-10.9428
▁babysitter	-10.9428
▁bartender	-10.9428
▁baywatch	-10.9428
▁believing	-10.9428
▁buiiet	-10.9428
▁cambodia	-10.9428
▁civilization	-10.9428
▁clatters	-10.9428
▁clemenza	-10.9428
▁cockroach	-10.9428
▁commercial	-10.9428
▁concrete	-10.9428
▁conference	-10.9428
▁confidence	-10.9428
▁convincing	-10.9428
▁deceased	-10.9428
▁depois	-10.9428
▁desculpe	-10.9428
▁doughnut	-10.9428
▁ecoust	-10.9428
▁eivira	-10.9428
▁fabric	-10.9428
▁fingerprint	-10.9428
▁flakka	-10.9428
▁forbid	-10.9428
▁grenade	-10.9428
▁hypocrite	-10.9428
▁identify	-10.9428
▁intense	-10.9428
▁invitation	-10.9428
▁jennifer	-10.9428
▁kurogane	-10.9428
▁larkhill	-10.9428
▁lchimonji	-10.9428
▁lincoln	-10.9428
▁liquid	-10.9428
▁marseille	-10.9428
▁mathematic	-10.9428
▁murmuring	-10.9428
▁nevada	-10.9428
▁oakmont	-10.9428
▁obstacle	-10.9428
▁olivia	-10.9428
▁orleans	-10.9428
▁pacific	-10.9428
▁passport	-10.9428
▁perimeter	-10.9428
▁persuade	-10.9428
▁piscano	-10.9428
▁platoon	-10.9428
▁precinct	-10.9428
▁premises	-10.9428
▁progress	-10.9428
▁protocol	-10.9428
▁rasul	-10.9428
▁reflect	-10.9428
▁rhythm	-10.9428
▁schmuck	-10.9428
▁seideibaum	-10.9428
▁sergio	-10.9428
▁sleeve	-10.9428
▁sorority	-10.9428
▁sozinha	-10.9428
▁subpoena	-10.9428
▁suspicion	-10.9428
▁technology	-10.9428
▁thorough	-10.9428
▁tremendous	-10.9428
▁troubie	-10.9428
▁uncomfortable	-10.9428
▁underneath	-10.9428
▁unhappy	-10.9428
▁universe	-10.9428
▁assistance	-10.9428
▁bruise	-10.9428
▁costigan	-10.9428
▁delusion	-10.9428
▁dunno	-10.9428
▁fuentes	-10.9428
▁instance	-10.9428
▁ozzie	-10.9428
▁parece	-10.9428
▁praise	-10.9428
▁sorrow	-10.9428
▁status	-10.9428
▁vinyard	-10.9428
▁worries	-10.9428
▁bronx	-10.9428
▁bruv	-10.9428
▁messiah	-10.9428
▁panama	-10.9428
▁swamp	-10.9428
▁volume	-10.9428
▁balance	-10.9428
▁brotherfucker	-10.9428
▁expand	-10.9428
▁rattling	-10.9428
▁supervisor	-10.9428
▁finance	-10.9428
▁noyce	-10.9428
▁bateman	-10.9428
▁fortico	-10.9428
▁valerie	-10.9428
▁worid	-10.9428
▁ferry	-10.9428
▁retreat	-10.9428
▁jacob	-10.9428
educated	-10.9428
▁kobe	-10.9428
▁theater	-10.9428
▁gracias	-10.9428
▁sofa	-10.9428
▁branch	-10.9428
▁whatll	-10.9428
▁absence	-10.9428
▁columb	-10.9428
▁flaming	-10.9428
▁tackle	-10.9428
▁brower	-10.9428
▁eighteen	-10.9428
▁perkins	-10.9428
▁carmine	-10.9428
▁flood	-10.9428
graduate	-10.9428
▁aiso	-10.9428
▁mandingo	-10.9428
▁chimes	-10.9428
▁waving	-10.9428
▁untie	-10.9428
▁violation	-10.9428
▁warsaw	-10.9428
▁granville	-10.9428
▁lazy	-10.9428
▁drift	-10.9428
▁whining	-10.9428
▁saddle	-10.9429
▁onions	-10.9429
▁turkish	-10.9429
▁reform	-10.9429
▁cancel	-10.9429
▁consist	-10.9429
▁venha	-10.9429
▁version	-10.9429
▁dimmy	-10.9429
▁burden	-10.9429
▁paulsen	-10.9429
▁woah	-10.943
▁zipper	-10.943
▁harle	-10.943
▁esper	-10.943
▁tracy	-10.943
▁fridge	-10.943
▁halloween	-10.943
▁antique	-10.943
▁lease	-10.9431
▁quentin	-10.9431
▁helen	-10.9431
▁divide	-10.9431
▁burnham	-10.9431
▁virus	-10.9431
▁classified	-10.9431
▁clinic	-10.9431
▁colour	-10.9432
▁serving	-10.9432
▁broadway	-10.9432
▁garry	-10.9433
▁royalty	-10.9433
▁clemens	-10.9433
▁craig	-10.9433
▁counselor	-10.9433
▁serge	-10.9434
▁upper	-10.9434
▁agua	-10.9434
▁fiber	-10.9434
▁vouch	-10.9434
▁chasing	-10.9434
▁judea	-10.9434
wait	-10.9435
▁mutters	-10.9435
▁lily	-10.9435
▁virginia	-10.9435
▁elder	-10.9435
▁rory	-10.9436
▁grownup	-10.9436
▁structure	-10.9437
▁soda	-10.9437
▁flatter	-10.9438
▁adam	-10.9438
▁expression	-10.9438
▁jake	-10.9439
▁dummy	-10.9439
▁weeknd	-10.944
▁employment	-10.944
▁controlled	-10.944
▁anos	-10.944
▁whir	-10.944
▁aurelio	-10.9441
▁forest	-10.9442
▁colon	-10.9442
▁detector	-10.9443
▁import	-10.9443
▁thug	-10.9444
▁established	-10.9444
▁parade	-10.9445
▁hence	-10.9445
▁popped	-10.9445
▁payback	-10.9446
▁dropping	-10.9447
▁cities	-10.9447
▁native	-10.9447
tual	-10.9448
▁madness	-10.945
▁objection	-10.945
▁eise	-10.945
▁stud	-10.9453
▁suggestion	-10.9454
▁dice	-10.9454
▁fag	-10.9455
▁acha	-10.9455
▁northup	-10.9456
▁advised	-10.9456
▁penis	-10.9458
▁sway	-10.9459
▁correction	-10.946
▁hustler	-10.9461
▁ruben	-10.9461
dental	-10.9461
▁demon	-10.9462
▁bien	-10.9462
▁sickness	-10.9463
▁vibrating	-10.9466
▁deaf	-10.9468
▁spoiled	-10.9469
▁rio	-10.947
▁patch	-10.9472
▁southie	-10.9473
▁darn	-10.9474
▁identified	-10.9478
▁hose	-10.9479
▁lime	-10.9481
▁iearn	-10.9484
▁kim	-10.9485
▁forgetting	-10.9487
▁sniffing	-10.9488
▁latest	-10.9489
▁heroes	-10.9492
▁bom	-10.9494
▁whacked	-10.9494
▁included	-10.9495
▁puke	-10.9495
▁cutter	-10.9497
▁pisses	-10.9497
▁swinging	-10.9501
▁highest	-10.9502
▁designer	-10.9506
▁stressed	-10.9507
▁mim	-10.9512
▁titt	-10.9514
▁cheated	-10.9517
▁stinking	-10.9524
▁talented	-10.9526
▁commissioner	-10.9527
▁unto	-10.9527
aga	-10.9528
▁copies	-10.9537
▁drowned	-10.9538
▁gag	-10.9538
▁lust	-10.9542
herefore	-10.9542
▁sole	-10.9542
▁accused	-10.9546
▁hint	-10.9558
▁entirely	-10.9558
▁burnt	-10.9566
▁ew	-10.9631
▁fled	-10.9635
▁grind	-10.9644
▁iti	-10.9647
▁nem	-10.9717
▁seize	-10.9736
▁painful	-10.9746
nia	-10.9757
▁janie	-10.9828
shak	-10.9871
▁instrument	-10.988
east	-11.0009
▁forg	-11.0021
▁gran	-11.0024
▁net	-11.0119
ible	-11.013
nine	-11.0135
▁sil	-11.0278
maid	-11.0336
icate	-11.0353
▁stack	-11.0357
timate	-11.0388
▁corp	-11.0418
horn	-11.044
with	-11.0465
▁devia	-11.0504
▁combin	-11.0514
armed	-11.0532
▁accuse	-11.0537
▁roma	-11.0543
ought	-11.0552
▁duel	-11.0581
▁sou	-11.0585
▁obsess	-11.0625
▁abandon	-11.0625
▁surround	-11.0625
▁quart	-11.0627
dollar	-11.0629
clear	-11.063
▁employ	-11.0633
pants	-11.0634
six	-11.0634
▁tripp	-11.0642
▁heav	-11.0649
▁strippe	-11.0662
▁attract	-11.0668
▁interrogat	-11.0671
▁champ	-11.0672
etched	-11.0674
▁psychiatri	-11.0674
▁contest	-11.0676
▁adventur	-11.0678
▁awkward	-11.0678
▁contradict	-11.0678
cliffe	-11.0678
curtain	-11.0678
▁accurate	-11.0678
▁apologies	-11.0678
▁armstrong	-11.0678
▁ayabe	-11.0678
▁baltimore	-11.0678
▁brandnew	-11.0678
▁breach	-11.0678
▁bretodeau	-11.0678
▁butler	-11.0678
▁carpenter	-11.0678
▁cavalry	-11.0678
▁centurion	-11.0678
▁coldblooded	-11.0678
▁concierge	-11.0678
▁condolences	-11.0678
▁consequences	-11.0678
▁convenient	-11.0678
▁coordinat	-11.0678
▁crucified	-11.0678
▁damien	-11.0678
▁degenerate	-11.0678
▁demolition	-11.0678
▁devons	-11.0678
▁domestic	-11.0678
▁elaborate	-11.0678
▁elizabeth	-11.0678
▁enugu	-11.0678
▁exorcism	-11.0678
▁expired	-11.0678
▁felix	-11.0678
▁fitzsimmons	-11.0678
▁flavor	-11.0678
▁flawless	-11.0678
▁fujimaki	-11.0678
▁hannibal	-11.0678
▁happiness	-11.0678
▁harbinger	-11.0678
▁independent	-11.0678
▁investigator	-11.0678
▁jarvis	-11.0678
▁jehovah	-11.0678
▁jordy	-11.0678
▁kamasutra	-11.0678
▁karras	-11.0678
▁lebron	-11.0678
▁lombardo	-11.0678
▁lsaiah	-11.0678
▁lucchesi	-11.0678
▁messenger	-11.0678
▁moggy	-11.0678
▁mysterious	-11.0678
▁oldfashioned	-11.0678
▁orphan	-11.0678
▁parliament	-11.0678
▁perfume	-11.0678
▁philosoph	-11.0678
▁pittsburgh	-11.0678
▁politics	-11.0678
▁poverty	-11.0678
▁rebenga	-11.0678
▁reggiani	-11.0678
▁registration	-11.0678
▁rehabilitat	-11.0678
▁reservation	-11.0678
▁residence	-11.0678
▁rocco	-11.0678
▁rodriguez	-11.0678
▁schooi	-11.0678
▁sherbert	-11.0678
▁sicilian	-11.0678
▁significant	-11.0678
▁spencer	-11.0678
▁stockbroker	-11.0678
▁struggle	-11.0678
▁sullivan	-11.0678
▁suprem	-11.0678
▁susieq	-11.0678
▁terrifying	-11.0678
▁tommasino	-11.0678
▁trespass	-11.0678
▁underestimate	-11.0678
▁university	-11.0678
▁unusual	-11.0678
▁verdict	-11.0678
▁vincennes	-11.0678
▁visual	-11.0678
▁wendell	-11.0678
▁airborne	-11.0678
▁blackmail	-11.0678
▁brett	-11.0678
▁cierra	-11.0678
▁dorsia	-11.0678
▁douche	-11.0678
▁droog	-11.0678
▁duchess	-11.0678
▁elbow	-11.0678
▁encontra	-11.0678
▁hobby	-11.0678
▁judith	-11.0678
▁mortimer	-11.0678
▁overseas	-11.0678
▁parasites	-11.0678
▁penthouse	-11.0678
▁prevail	-11.0678
▁rainbow	-11.0678
▁recipe	-11.0678
▁salvation	-11.0678
▁sanitation	-11.0678
▁stuart	-11.0678
▁tucson	-11.0678
▁vienna	-11.0678
▁article	-11.0678
▁barbara	-11.0678
▁dizzy	-11.0678
▁error	-11.0678
▁farewell	-11.0678
▁infect	-11.0678
▁jeffrey	-11.0678
▁kaede	-11.0678
▁maintain	-11.0678
▁reliable	-11.0678
▁thorpe	-11.0678
▁whinny	-11.0678
▁agency	-11.0678
▁album	-11.0678
▁clamoring	-11.0678
▁frog	-11.0678
▁hayley	-11.0678
▁massacre	-11.0678
▁oldtimers	-11.0678
▁promising	-11.0678
▁randall	-11.0678
▁roach	-11.0678
▁snack	-11.0678
▁stream	-11.0678
▁terminal	-11.0678
▁buddies	-11.0678
▁generation	-11.0678
▁ledger	-11.0678
▁monitor	-11.0678
▁philip	-11.0678
▁womb	-11.0678
▁dawg	-11.0678
▁gesture	-11.0678
▁pilate	-11.0678
▁renteria	-11.0678
▁denny	-11.0678
▁unique	-11.0678
▁chloe	-11.0678
▁denver	-11.0678
▁huntress	-11.0678
▁permit	-11.0678
▁depot	-11.0678
▁depressed	-11.0678
▁domino	-11.0678
▁peach	-11.0678
▁collar	-11.0678
▁treach	-11.0678
▁cohen	-11.0678
▁dennings	-11.0678
▁howie	-11.0678
▁repay	-11.0678
▁salute	-11.0678
▁skirt	-11.0678
▁penetrat	-11.0678
▁hush	-11.0678
▁balloon	-11.0678
▁granddad	-11.0678
▁modest	-11.0678
▁warrior	-11.0678
▁intel	-11.0678
▁dragged	-11.0678
▁insert	-11.0678
▁arsehole	-11.0678
▁biggus	-11.0678
▁narrow	-11.0678
▁canvas	-11.0678
▁neighbourhood	-11.0678
dolph	-11.0678
▁channel	-11.0678
▁deleye	-11.0678
▁shears	-11.0678
▁stool	-11.0678
▁turd	-11.0678
▁sinners	-11.0678
▁spades	-11.0678
▁carpet	-11.0678
▁hawk	-11.0678
▁hoyt	-11.0678
▁fuchs	-11.0678
▁stale	-11.0678
▁clay	-11.0679
▁mansell	-11.0679
▁overlook	-11.0679
orphine	-11.0679
▁confidential	-11.0679
▁studied	-11.0679
▁millionaire	-11.0679
▁yyou	-11.0679
▁shining	-11.0679
▁slurping	-11.0679
▁fading	-11.0679
▁sandals	-11.0679
▁morgue	-11.0679
▁lamp	-11.0679
culate	-11.0679
▁maggie	-11.0679
▁southeast	-11.0679
▁skylight	-11.0679
▁creative	-11.0679
▁lightning	-11.0679
▁holland	-11.0679
▁nicol	-11.0679
▁snuff	-11.0679
▁souad	-11.068
▁tyran	-11.068
▁swimmer	-11.068
▁contestant	-11.068
▁propose	-11.068
▁georgette	-11.068
▁wilson	-11.068
▁necklace	-11.068
▁musl	-11.068
▁latin	-11.068
▁massage	-11.0681
▁asian	-11.0681
▁masterpiece	-11.0681
▁rookie	-11.0681
▁favourite	-11.0681
▁windsor	-11.0681
▁samuel	-11.0681
▁eleven	-11.0681
▁informant	-11.0682
▁partnership	-11.0682
▁cabbie	-11.0682
▁regardless	-11.0683
▁herr	-11.0683
▁panties	-11.0683
▁ruthless	-11.0683
▁punishment	-11.0684
▁tooth	-11.0684
▁jerkoff	-11.0684
▁ludes	-11.0684
▁cluck	-11.0684
▁eightball	-11.0684
▁execution	-11.0684
▁cicc	-11.0685
▁entra	-11.0685
▁apiece	-11.0685
▁exley	-11.0685
▁thieves	-11.0685
▁algu	-11.0686
▁morto	-11.0687
▁rita	-11.0687
▁diane	-11.0687
▁minus	-11.0688
▁salary	-11.0688
▁raj	-11.0688
▁aww	-11.0689
▁arson	-11.0689
▁dishes	-11.0689
▁imitate	-11.0689
▁tide	-11.069
▁affection	-11.069
▁shred	-11.0691
▁valet	-11.0691
udge	-11.0691
▁playmate	-11.0691
▁scottie	-11.0692
▁heist	-11.0692
▁cure	-11.0693
▁zion	-11.0694
▁lighthouse	-11.0695
▁rack	-11.0695
▁spur	-11.0696
▁offenders	-11.0696
▁massa	-11.0698
▁agreement	-11.0698
▁beings	-11.0698
▁dumbass	-11.0698
▁azu	-11.0699
▁broom	-11.0699
▁publicity	-11.07
▁haif	-11.07
▁guv	-11.0701
▁entre	-11.0703
▁raw	-11.0703
▁viva	-11.0704
▁robot	-11.0704
▁crane	-11.0705
▁brock	-11.0707
▁bike	-11.0707
this	-11.0708
▁drone	-11.0708
▁howl	-11.0709
▁liz	-11.0709
▁boil	-11.071
▁teenager	-11.0711
▁alter	-11.0712
▁toll	-11.0714
▁arse	-11.0714
▁dougie	-11.0721
▁kir	-11.0728
▁clamp	-11.0729
▁cue	-11.073
▁buzzes	-11.073
▁trailer	-11.073
▁pour	-11.0737
▁sharply	-11.0739
▁mansion	-11.0741
▁mason	-11.075
▁loosen	-11.0751
▁colt	-11.0752
▁sore	-11.0755
angle	-11.0759
▁lala	-11.0764
▁alan	-11.0766
▁exclaiming	-11.0768
▁dock	-11.0786
levar	-11.0794
▁gur	-11.0805
▁viu	-11.0818
▁prim	-11.0842
▁devi	-11.087
▁opera	-11.0888
▁marie	-11.0892
▁peek	-11.0902
▁scan	-11.0965
▁pier	-11.101
▁scor	-11.1029
▁divin	-11.1202
▁tot	-11.1211
▁indicate	-11.1233
▁anton	-11.1316
▁comb	-11.133
▁disco	-11.1341
nois	-11.135
▁aid	-11.1362
▁pint	-11.1374
unning	-11.1413
tinha	-11.1564
▁gee	-11.1681
pita	-11.17
▁cough	-11.1727
▁num	-11.1728
▁employee	-11.1783
▁jingle	-11.1786
▁sheet	-11.1793
▁flee	-11.1925
▁liv	-11.1944
abi	-11.2033
▁norm	-11.2039
cede	-11.2051
▁spoil	-11.2053
▁dismiss	-11.2053
▁temp	-11.2055
flower	-11.2057
related	-11.2057
proof	-11.2058
▁float	-11.2058
school	-11.2059
fresh	-11.2059
▁buen	-11.2059
scene	-11.206
write	-11.2061
year	-11.2061
▁giusepp	-11.2065
▁teenage	-11.2068
▁advise	-11.2069
tore	-11.2075
box	-11.2077
▁greed	-11.208
▁filth	-11.208
▁incredibl	-11.2084
▁clam	-11.2094
▁prosecut	-11.2095
▁potato	-11.2095
▁juni	-11.2097
▁counsel	-11.2099
▁abduct	-11.21
▁distribut	-11.21
▁makin	-11.2102
onica	-11.2103
▁org	-11.2103
▁terror	-11.2104
tribution	-11.2104
▁infant	-11.2105
inished	-11.2105
▁confident	-11.2106
▁neighbour	-11.2106
▁incarcerat	-11.2106
▁reinforce	-11.2106
dwarf	-11.2106
wofourthreeseven	-11.2106
▁alejandro	-11.2106
▁amsterdam	-11.2106
▁andretti	-11.2106
▁annabelle	-11.2106
▁architect	-11.2106
▁association	-11.2106
▁bazooka	-11.2106
▁beaucoup	-11.2106
▁beautifui	-11.2106
▁bleach	-11.2106
▁bogdanski	-11.2106
▁bredoteau	-11.2106
▁bufalino	-11.2106
▁burglar	-11.2106
▁cannibal	-11.2106
▁carnival	-11.2106
▁cawley	-11.2106
▁cecil	-11.2106
▁ceiling	-11.2106
▁colombia	-11.2106
▁commodus	-11.2106
▁confusion	-11.2106
▁curfew	-11.2106
▁damico	-11.2106
▁dartagnan	-11.2106
▁dascomb	-11.2106
▁deliberately	-11.2106
▁distinguished	-11.2106
▁dorrie	-11.2106
▁dripping	-11.2106
▁elsewhere	-11.2106
▁encourage	-11.2106
▁equipment	-11.2106
▁extortion	-11.2106
▁finneran	-11.2106
▁graduation	-11.2106
▁grief	-11.2106
▁guidance	-11.2106
▁helmet	-11.2106
▁humiliate	-11.2106
▁hurricane	-11.2106
▁immigrant	-11.2106
▁infirmary	-11.2106
▁influence	-11.2106
▁inglewood	-11.2106
▁injury	-11.2106
▁koji	-11.2106
▁lorenzo	-11.2106
▁lucien	-11.2106
▁luggage	-11.2106
▁magnificent	-11.2106
▁maguire	-11.2106
▁majesty	-11.2106
▁melody	-11.2106
▁microprocessors	-11.2106
▁midwest	-11.2106
▁moguy	-11.2106
▁negotiation	-11.2106
▁nowadays	-11.2106
▁overlapping	-11.2106
▁paramedic	-11.2106
▁philadelphia	-11.2106
▁population	-11.2106
▁preacher	-11.2106
▁pronounce	-11.2106
▁prostitution	-11.2106
▁railroad	-11.2106
▁regazzoni	-11.2106
▁republic	-11.2106
▁rollercoaster	-11.2106
▁rosalind	-11.2106
▁santiago	-11.2106
▁sheehan	-11.2106
▁shekel	-11.2106
▁shirley	-11.2106
▁shushing	-11.2106
▁snarling	-11.2106
▁soccer	-11.2106
▁spectacular	-11.2106
▁stardust	-11.2106
▁statue	-11.2106
▁terminator	-11.2106
▁thanksgiving	-11.2106
▁ticktock	-11.2106
▁toothbrush	-11.2106
▁treason	-11.2106
▁upgrade	-11.2106
▁valentine	-11.2106
▁veteran	-11.2106
▁wardrobe	-11.2106
▁website	-11.2106
▁welfare	-11.2106
▁whereabouts	-11.2106
▁zlotys	-11.2106
▁approval	-11.2106
▁average	-11.2106
▁bishop	-11.2106
▁clanking	-11.2106
▁convention	-11.2106
▁criminai	-11.2106
▁delicate	-11.2106
▁demonstrat	-11.2106
▁doublecross	-11.2106
▁forecast	-11.2106
▁grazie	-11.2106
▁hammond	-11.2106
▁hmhm	-11.2106
▁intimidat	-11.2106
▁january	-11.2106
▁jenny	-11.2106
▁kimmie	-11.2106
▁lawrence	-11.2106
▁lobster	-11.2106
▁magnum	-11.2106
▁resign	-11.2106
▁ribbon	-11.2106
▁solidarity	-11.2106
▁tessio	-11.2106
▁twinkle	-11.2106
▁absurd	-11.2106
▁aconteceu	-11.2106
▁essential	-11.2106
▁evaluat	-11.2106
▁furious	-11.2106
▁griev	-11.2106
▁jerome	-11.2106
▁mofet	-11.2106
▁prix	-11.2106
▁pussies	-11.2106
▁solicit	-11.2106
▁sustain	-11.2106
▁thread	-11.2106
▁viddy	-11.2106
▁vivian	-11.2106
▁ballpeen	-11.2106
▁heartbreaker	-11.2106
▁sensation	-11.2106
▁tragic	-11.2106
▁transform	-11.2106
▁bennings	-11.2107
▁demais	-11.2107
▁hooray	-11.2107
▁horrorshow	-11.2107
▁palermo	-11.2107
▁poiitic	-11.2107
▁reopen	-11.2107
▁rival	-11.2107
▁sheeran	-11.2107
▁submit	-11.2107
▁yolanda	-11.2107
▁disaster	-11.2107
▁hadley	-11.2107
▁prothero	-11.2107
▁cornell	-11.2107
▁davis	-11.2107
▁jackpot	-11.2107
▁violet	-11.2107
▁dunk	-11.2107
▁exotic	-11.2107
▁feather	-11.2107
▁skylar	-11.2107
▁stalling	-11.2107
▁trump	-11.2107
▁decline	-11.2107
▁motive	-11.2107
▁norton	-11.2107
▁rosato	-11.2107
▁shaii	-11.2107
▁curb	-11.2107
▁howre	-11.2107
▁pleasant	-11.2107
▁ariel	-11.2107
▁sliding	-11.2107
▁tramp	-11.2107
▁breez	-11.2107
▁sector	-11.2107
▁acquir	-11.2107
▁draft	-11.2107
▁prophet	-11.2107
▁shack	-11.2107
▁allerg	-11.2107
▁worn	-11.2107
▁after	-11.2107
▁albert	-11.2107
▁cartoon	-11.2107
▁define	-11.2107
▁havin	-11.2107
▁rookwood	-11.2107
▁reveal	-11.2107
▁pbr	-11.2107
▁depth	-11.2107
▁mushroom	-11.2107
▁posso	-11.2107
▁slope	-11.2107
▁bloodshed	-11.2107
▁ankle	-11.2107
▁napkin	-11.2107
▁whatsoever	-11.2107
▁temperature	-11.2107
▁wandering	-11.2107
▁thump	-11.2107
▁observation	-11.2107
▁humphr	-11.2107
▁bold	-11.2107
▁waitress	-11.2107
▁update	-11.2107
▁worm	-11.2107
▁ellis	-11.2107
▁jewels	-11.2107
▁exclusive	-11.2107
▁terrorism	-11.2107
▁townsend	-11.2107
▁barfed	-11.2107
▁hollow	-11.2107
▁ease	-11.2107
▁yankee	-11.2108
▁insect	-11.2108
▁flashlight	-11.2108
▁reese	-11.2108
▁romina	-11.2108
▁kint	-11.2108
▁antonio	-11.2108
▁email	-11.2108
▁recess	-11.2108
▁romy	-11.2108
▁southbound	-11.2108
▁austr	-11.2109
▁meaningless	-11.2109
▁quarterback	-11.2109
▁robinson	-11.2109
▁resistance	-11.2109
▁destruction	-11.2109
▁charging	-11.2109
▁deacon	-11.2109
▁bride	-11.2109
▁corpos	-11.211
▁cutler	-11.211
▁monica	-11.211
▁adjust	-11.211
▁haircut	-11.211
▁whew	-11.211
▁begun	-11.211
▁swap	-11.211
▁sermon	-11.2111
ologist	-11.2111
▁corky	-11.2111
▁automatic	-11.2111
▁courtroom	-11.2111
▁invad	-11.2111
▁rathole	-11.2111
▁roam	-11.2111
▁aiden	-11.2112
▁temple	-11.2112
▁suzanne	-11.2112
▁hesitate	-11.2112
▁petty	-11.2112
▁knot	-11.2113
▁sentimental	-11.2113
▁phuc	-11.2113
▁albie	-11.2113
▁percentage	-11.2113
▁lsland	-11.2113
▁effective	-11.2114
▁motre	-11.2114
▁greenville	-11.2115
▁rapist	-11.2115
▁chinaman	-11.2115
▁knight	-11.2115
▁rebound	-11.2115
▁distribution	-11.2115
▁noite	-11.2115
▁exam	-11.2116
▁iaw	-11.2116
▁weakness	-11.2117
▁wheat	-11.2117
▁launch	-11.2117
▁dominick	-11.2117
case	-11.2118
▁sunny	-11.2118
▁acceptance	-11.2118
▁pony	-11.2118
▁redfoot	-11.2119
▁waking	-11.212
▁toke	-11.212
▁giri	-11.212
▁mailman	-11.2121
▁vince	-11.2121
▁crackling	-11.2122
▁barney	-11.2122
▁neri	-11.2122
▁shade	-11.2122
▁tudo	-11.2123
▁accountant	-11.2123
▁touchdown	-11.2123
▁packet	-11.2124
▁ninety	-11.2125
▁chatterlng	-11.2125
▁faz	-11.2126
▁footage	-11.2126
▁youth	-11.2129
▁outro	-11.2129
▁hue	-11.2129
▁mug	-11.2129
▁delia	-11.213
▁buon	-11.2132
▁temper	-11.2134
▁sair	-11.2134
▁mazel	-11.2135
▁brit	-11.2136
▁fry	-11.2137
▁morre	-11.2141
▁stealth	-11.2142
▁cuban	-11.2144
▁keen	-11.2148
▁boost	-11.2149
▁hatch	-11.2149
▁rocket	-11.215
▁skies	-11.215
▁rash	-11.2153
▁sym	-11.2153
▁artie	-11.2156
▁bait	-11.2159
▁dame	-11.2161
▁urge	-11.2169
self	-11.2171
part	-11.2174
▁iate	-11.2176
▁cran	-11.22
▁camil	-11.2203
▁vari	-11.2207
▁dish	-11.2214
▁tickle	-11.2225
grim	-11.2259
▁fleet	-11.2297
litter	-11.2314
▁pant	-11.2317
▁skipp	-11.2321
▁cookie	-11.2355
aroon	-11.2362
▁guit	-11.2364
fish	-11.2411
last	-11.2417
▁peep	-11.2466
craz	-11.2513
elle	-11.2536
jah	-11.2761
▁tive	-11.281
▁mute	-11.2835
orris	-11.2844
til	-11.2992
servi	-11.3001
odoo	-11.3066
▁will	-11.3087
step	-11.3091
▁signor	-11.3153
▁dishonor	-11.3262
▁tamb	-11.3322
sort	-11.3373
gree	-11.3418
▁cloud	-11.3448
▁improv	-11.3513
▁plac	-11.3529
▁gab	-11.3564
▁sadde	-11.3594
▁fortunate	-11.3623
hatt	-11.3646
▁vibrat	-11.3715
▁identifi	-11.372
▁frighten	-11.372
▁profession	-11.3722
storm	-11.3725
white	-11.3725
yeah	-11.3726
heart	-11.3729
weigh	-11.3738
mission	-11.3752
▁villa	-11.3754
▁medic	-11.3755
▁technical	-11.3756
▁leavin	-11.3765
▁mornin	-11.3765
▁cooperati	-11.3768
▁automat	-11.3769
▁scarboro	-11.377
▁conscious	-11.3771
▁domini	-11.3771
▁acontec	-11.3773
▁hehheh	-11.3773
iological	-11.3773
ribbling	-11.3773
▁activities	-11.3773
▁administer	-11.3773
▁airplane	-11.3773
▁andolini	-11.3773
▁anonymous	-11.3773
▁aparece	-11.3773
▁arrogant	-11.3773
▁autograph	-11.3773
▁autopsy	-11.3773
▁baufort	-11.3773
▁beauties	-11.3773
▁bimmel	-11.3773
▁biood	-11.3773
▁blackandwhites	-11.3773
▁blasphem	-11.3773
▁bonsoir	-11.3773
▁byandby	-11.3773
▁celebration	-11.3773
▁cetera	-11.3773
▁clarlce	-11.3773
▁claudia	-11.3773
▁communicate	-11.3773
▁compromise	-11.3773
▁conviction	-11.3773
▁cubber	-11.3773
▁deciding	-11.3773
▁delgado	-11.3773
▁dilemma	-11.3773
▁dipshit	-11.3773
▁disneyland	-11.3773
▁disobey	-11.3773
▁doorknob	-11.3773
▁dorfman	-11.3773
▁eccentric	-11.3773
▁elephant	-11.3773
▁excellenc	-11.3773
▁excessive	-11.3773
▁exwife	-11.3773
▁fabulous	-11.3773
▁fertilize	-11.3773
▁fontane	-11.3773
▁footprint	-11.3773
▁gustafson	-11.3773
▁gypsies	-11.3773
▁haggle	-11.3773
▁halberstram	-11.3773
▁hancock	-11.3773
▁happily	-11.3773
▁hercules	-11.3773
▁hermandad	-11.3773
▁household	-11.3773
▁huddle	-11.3773
▁humiliati	-11.3773
▁indictment	-11.3773
▁injured	-11.3773
▁injuries	-11.3773
▁journey	-11.3773
▁ketchup	-11.3773
▁kilometer	-11.3773
▁knives	-11.3773
▁landlord	-11.3773
▁lefferts	-11.3773
▁leisure	-11.3773
▁lindsey	-11.3773
▁loneliness	-11.3773
▁loretta	-11.3773
▁mccluskey	-11.3773
▁mechanism	-11.3773
▁medevac	-11.3773
▁miguel	-11.3773
▁montauk	-11.3773
▁myseif	-11.3773
▁nebelsbad	-11.3773
▁nigeria	-11.3773
▁nitroglycerin	-11.3773
▁obligation	-11.3773
▁ogura	-11.3773
▁olympic	-11.3773
▁orchestra	-11.3773
▁outrageous	-11.3773
▁outreach	-11.3773
▁palantine	-11.3773
▁pasternak	-11.3773
▁pensacola	-11.3773
▁pentangeli	-11.3773
▁pieasure	-11.3773
▁possibilities	-11.3773
▁quincampoix	-11.3773
▁raffle	-11.3773
▁raspail	-11.3773
▁receiving	-11.3773
▁script	-11.3773
▁serrano	-11.3773
▁shabbos	-11.3773
▁shield	-11.3773
▁shrieking	-11.3773
▁sisterinlaw	-11.3773
▁sizzling	-11.3773
▁skunk	-11.3773
▁slaughter	-11.3773
▁smidge	-11.3773
▁smooch	-11.3773
▁solution	-11.3773
▁somerset	-11.3773
▁spaniard	-11.3773
▁squawking	-11.3773
▁squirt	-11.3773
▁stammering	-11.3773
▁stammers	-11.3773
▁stonesipher	-11.3773
▁strategic	-11.3773
▁superficial	-11.3773
▁suspended	-11.3773
▁szpilman	-11.3773
▁tangerine	-11.3773
▁teiephone	-11.3773
▁therapist	-11.3773
▁thudding	-11.3773
▁torino	-11.3773
▁transaction	-11.3773
▁trucoat	-11.3773
▁tshirt	-11.3773
▁unemployed	-11.3773
▁videotape	-11.3773
▁vincenzo	-11.3773
▁vioience	-11.3773
▁vulture	-11.3773
▁webb	-11.3773
▁wheelchair	-11.3773
▁wheezing	-11.3773
▁wisdom	-11.3773
▁xerife	-11.3773
▁abortion	-11.3773
▁aslan	-11.3773
▁authentic	-11.3773
▁baxter	-11.3773
▁cicero	-11.3773
▁cinema	-11.3773
▁courier	-11.3773
▁crucify	-11.3773
▁delaware	-11.3773
▁disorder	-11.3773
▁edmund	-11.3773
▁fuji	-11.3773
▁gorilla	-11.3773
▁hydro	-11.3773
▁industri	-11.3773
▁inspection	-11.3773
▁iosef	-11.3773
▁kettle	-11.3773
▁kitten	-11.3773
▁lizzy	-11.3773
▁minimum	-11.3773
▁oooh	-11.3773
▁panache	-11.3773
▁picnic	-11.3773
▁poetry	-11.3773
▁promotion	-11.3773
▁psychological	-11.3773
▁raquel	-11.3773
▁resident	-11.3773
▁rooster	-11.3773
▁saigon	-11.3773
▁scrub	-11.3773
▁sloppy	-11.3773
▁smother	-11.3773
▁sufficient	-11.3773
▁surprising	-11.3773
▁turtle	-11.3773
▁unfair	-11.3773
▁vazir	-11.3773
▁whatwhat	-11.3773
▁yulian	-11.3773
▁akira	-11.3773
▁balcon	-11.3773
▁battalion	-11.3773
▁buddha	-11.3773
▁complex	-11.3773
▁creaking	-11.3773
▁debbie	-11.3773
▁entitle	-11.3773
▁forehead	-11.3773
▁honeymoon	-11.3773
▁lynn	-11.3773
▁slippery	-11.3773
▁theories	-11.3773
▁applied	-11.3773
▁audio	-11.3773
▁budget	-11.3773
▁cristal	-11.3773
▁distress	-11.3773
▁hijack	-11.3773
▁lifestyle	-11.3773
▁muffin	-11.3773
▁ongoing	-11.3773
▁remorse	-11.3773
▁resolve	-11.3773
▁shelter	-11.3773
▁toledo	-11.3773
▁blush	-11.3773
▁cruz	-11.3773
▁dignity	-11.3773
▁ellerb	-11.3773
▁function	-11.3773
▁lounge	-11.3773
▁prairie	-11.3773
▁probable	-11.3773
▁reckless	-11.3773
▁vicious	-11.3773
▁depriv	-11.3773
▁leather	-11.3773
▁suzy	-11.3773
▁sylv	-11.3773
▁devote	-11.3773
▁interior	-11.3773
▁missouri	-11.3773
▁pervert	-11.3773
▁rugrat	-11.3773
▁fourteen	-11.3773
▁kitty	-11.3773
▁sixteen	-11.3773
▁iawyer	-11.3773
▁trench	-11.3773
▁amendment	-11.3773
▁janitor	-11.3773
▁spun	-11.3773
▁capital	-11.3773
▁dedicate	-11.3773
▁faun	-11.3773
▁precisa	-11.3773
▁rehab	-11.3773
▁cyber	-11.3773
▁pigeon	-11.3773
▁coiombians	-11.3773
▁donald	-11.3773
▁marvin	-11.3773
▁throne	-11.3773
▁cayman	-11.3773
▁chivo	-11.3773
▁majorek	-11.3773
▁stacy	-11.3773
▁debate	-11.3773
▁dmv	-11.3773
imately	-11.3773
▁clerk	-11.3773
xtradition	-11.3773
▁ponies	-11.3773
▁stroll	-11.3773
▁confine	-11.3773
▁ferri	-11.3773
▁flirt	-11.3773
▁ciear	-11.3773
▁lugar	-11.3773
▁manifest	-11.3773
▁hollis	-11.3773
▁lutz	-11.3773
▁lodge	-11.3773
▁snoring	-11.3773
▁goodwill	-11.3773
▁madrid	-11.3773
▁spinning	-11.3773
▁urine	-11.3773
▁daisy	-11.3773
▁fink	-11.3773
▁floyd	-11.3773
▁poach	-11.3773
▁frost	-11.3773
▁muita	-11.3773
▁torn	-11.3773
▁mumbles	-11.3773
▁asshoie	-11.3773
▁translate	-11.3773
▁causing	-11.3773
▁octa	-11.3773
▁blaming	-11.3774
▁sincerely	-11.3774
▁relay	-11.3774
▁consegu	-11.3774
▁oops	-11.3774
▁caroline	-11.3774
▁holler	-11.3774
▁larry	-11.3774
▁multi	-11.3774
▁contingenc	-11.3774
▁reemer	-11.3774
▁helos	-11.3774
fraction	-11.3774
▁nanny	-11.3774
▁pinned	-11.3774
▁mailbox	-11.3774
▁basketball	-11.3774
▁ipo	-11.3774
▁concert	-11.3774
▁harvest	-11.3774
▁precaution	-11.3774
▁violated	-11.3774
▁twentysix	-11.3774
▁moonlight	-11.3774
▁nathan	-11.3774
▁swapped	-11.3774
▁semi	-11.3774
▁exceptional	-11.3774
▁embarrassment	-11.3775
▁establishment	-11.3775
▁breed	-11.3775
▁orderlies	-11.3775
▁reference	-11.3775
▁marcel	-11.3775
▁scheme	-11.3775
▁brasi	-11.3775
▁gooey	-11.3775
▁organism	-11.3775
▁consciousness	-11.3775
▁ounce	-11.3775
▁baseball	-11.3775
▁infantry	-11.3775
▁puppy	-11.3776
▁surface	-11.3776
hopper	-11.3776
▁flipped	-11.3776
▁yank	-11.3776
▁craft	-11.3776
▁patron	-11.3776
borough	-11.3776
▁feature	-11.3776
▁welby	-11.3776
▁ladder	-11.3777
▁upside	-11.3777
▁consultant	-11.3777
▁ramone	-11.3777
▁dork	-11.3777
▁loaf	-11.3777
▁manual	-11.3777
▁sieep	-11.3777
▁subtle	-11.3777
▁crunch	-11.3777
▁essa	-11.3777
▁combination	-11.3777
▁otter	-11.3778
▁wiggl	-11.3778
▁resent	-11.3778
▁stevens	-11.3778
▁heather	-11.3779
▁compensation	-11.3779
▁frustration	-11.3779
▁existence	-11.3779
▁envy	-11.3779
▁ballistic	-11.3779
▁dizer	-11.3779
▁chega	-11.3779
▁lucy	-11.3779
verge	-11.3779
▁merciful	-11.378
zano	-11.378
▁precl	-11.378
▁lemon	-11.378
▁morality	-11.378
▁tension	-11.378
▁trang	-11.3781
▁aquel	-11.3781
▁courtney	-11.3781
▁vacan	-11.3781
▁abduction	-11.3781
▁grindle	-11.3781
▁attic	-11.3782
▁scag	-11.3782
▁heap	-11.3782
▁attraction	-11.3782
▁pawn	-11.3782
▁remote	-11.3784
▁witch	-11.3784
▁babu	-11.3784
▁loot	-11.3784
▁chink	-11.3785
▁northern	-11.3786
▁rasa	-11.3786
▁buckle	-11.3787
▁leper	-11.3787
▁pillar	-11.3787
▁herb	-11.3787
▁taint	-11.3787
▁centre	-11.3788
ulla	-11.3788
▁capone	-11.3788
▁liberat	-11.3789
▁amongst	-11.379
▁richard	-11.3791
▁stake	-11.3791
▁mush	-11.3792
▁fitts	-11.3793
▁marge	-11.3794
▁pelle	-11.3797
▁brah	-11.3798
▁poem	-11.3799
▁transit	-11.38
▁fuse	-11.3801
▁zap	-11.3803
▁creation	-11.3804
▁wax	-11.3804
▁compel	-11.3805
▁slur	-11.3808
▁capri	-11.381
iot	-11.3812
▁improvis	-11.3827
▁lank	-11.383
▁programme	-11.3831
▁pouc	-11.3839
▁snip	-11.387
izard	-11.3933
▁suburb	-11.3961
finite	-11.397
mellow	-11.4005
ickers	-11.4042
▁coco	-11.4083
▁whwh	-11.4187
burg	-11.4213
odger	-11.4216
▁pensa	-11.4235
▁gaggi	-11.4246
journalist	-11.4284
▁ensu	-11.432
organise	-11.4361
▁greas	-11.4439
corn	-11.4444
uggin	-11.4727
stein	-11.4805
aaah	-11.4881
▁fidel	-11.5333
▁groan	-11.5403
roads	-11.5484
earned	-11.5486
snick	-11.5489
alcoholic	-11.5533
holder	-11.554
▁involv	-11.5546
▁refus	-11.5667
▁should	-11.5709
look	-11.5712
▁piay	-11.5716
▁disgust	-11.5717
walk	-11.5721
expected	-11.5725
friendly	-11.5725
famous	-11.5725
minute	-11.5725
whistle	-11.5725
leader	-11.5725
pool	-11.5725
world	-11.5725
around	-11.5726
control	-11.5726
sound	-11.5733
▁rabbi	-11.5735
▁facilit	-11.5746
equen	-11.5747
▁speci	-11.5748
luded	-11.5754
▁apparent	-11.5756
▁sentiment	-11.5764
▁frustrat	-11.5767
▁construct	-11.5767
▁compensat	-11.5767
believable	-11.5767
▁curio	-11.5769
▁puttin	-11.577
▁council	-11.577
▁author	-11.577
▁turk	-11.5771
▁romi	-11.5771
▁georgie	-11.5772
▁oppos	-11.5773
▁electro	-11.5773
▁cigar	-11.5773
nscript	-11.5773
▁exhibit	-11.5773
▁manipulat	-11.5773
▁pretzel	-11.5773
intellectual	-11.5773
puncture	-11.5773
▁absolve	-11.5773
▁accelerate	-11.5773
▁accomplice	-11.5773
▁adjourned	-11.5773
▁adrenalin	-11.5773
▁advertising	-11.5773
▁afghan	-11.5773
▁alimony	-11.5773
▁allegation	-11.5773
▁anniversary	-11.5773
▁annoying	-11.5773
▁antibiotic	-11.5773
▁archbishop	-11.5773
▁aristocrat	-11.5773
▁asylum	-11.5773
▁atmosphere	-11.5773
▁avalon	-11.5773
▁barracks	-11.5773
▁behold	-11.5773
▁beiieve	-11.5773
▁bolivia	-11.5773
▁bourbon	-11.5773
▁brantner	-11.5773
▁breadcrumbs	-11.5773
▁brotherinlaw	-11.5773
▁cannoli	-11.5773
▁cartagena	-11.5773
▁casual	-11.5773
▁cecelia	-11.5773
▁ceremony	-11.5773
▁circling	-11.5773
▁cobolt	-11.5773
▁cognac	-11.5773
▁creativity	-11.5773
▁croix	-11.5773
▁cuddl	-11.5773
▁deploy	-11.5773
▁dessert	-11.5773
▁dictate	-11.5773
▁disconnect	-11.5773
▁economic	-11.5773
▁efficien	-11.5773
▁enthusias	-11.5773
▁envelope	-11.5773
▁erinmore	-11.5773
▁errand	-11.5773
▁ethiopia	-11.5773
▁evolution	-11.5773
▁fabienne	-11.5773
▁fazendo	-11.5773
▁fingernails	-11.5773
▁fischer	-11.5773
▁flinching	-11.5773
▁fugitive	-11.5773
▁generator	-11.5773
▁gypsy	-11.5773
▁handwriting	-11.5773
▁horribie	-11.5773
▁hushhush	-11.5773
▁imbecile	-11.5773
▁immune	-11.5773
▁impact	-11.5773
▁infiltrat	-11.5773
▁inject	-11.5773
▁integrity	-11.5773
▁intersection	-11.5773
▁isabelle	-11.5773
▁judicial	-11.5773
▁jukebox	-11.5773
▁justify	-11.5773
▁kalfus	-11.5773
▁kalliste	-11.5773
▁kennefick	-11.5773
▁kovacs	-11.5773
▁laundering	-11.5773
▁libertad	-11.5773
▁lippman	-11.5773
▁lnfantry	-11.5773
▁loxley	-11.5773
▁marilyn	-11.5773
▁mauricio	-11.5773
▁mcpherson	-11.5773
▁memorial	-11.5773
▁memphis	-11.5773
▁microwave	-11.5773
▁migraine	-11.5773
▁misunderstood	-11.5773
▁mozart	-11.5773
▁necessarily	-11.5773
▁norwegian	-11.5773
▁offensive	-11.5773
▁organisation	-11.5773
▁overthrow	-11.5773
▁oxygen	-11.5773
▁paratroopers	-11.5773
▁peckerwood	-11.5773
▁peculiar	-11.5773
▁penitentiar	-11.5773
▁persuasive	-11.5773
▁pheasant	-11.5773
▁preciso	-11.5773
▁prescription	-11.5773
▁presume	-11.5773
▁principal	-11.5773
▁privilege	-11.5773
▁prohibition	-11.5773
▁psychopath	-11.5773
▁reassigned	-11.5773
▁reclamation	-11.5773
▁refrigerator	-11.5773
▁relevant	-11.5773
▁replica	-11.5773
▁reunion	-11.5773
▁reutemann	-11.5773
▁reynaldo	-11.5773
▁rhonda	-11.5773
▁rhyme	-11.5773
▁ricocheting	-11.5773
▁rockefeller	-11.5773
▁rollsroyce	-11.5773
▁roosevelt	-11.5773
▁rubbish	-11.5773
▁saucier	-11.5773
▁scenario	-11.5773
▁schizophreni	-11.5773
▁seagull	-11.5773
▁shakespeare	-11.5773
▁shokner	-11.5773
▁skateboard	-11.5773
▁sledgehammer	-11.5773
▁smuggling	-11.5773
▁solitary	-11.5773
▁somewhat	-11.5773
▁spectacle	-11.5773
▁squirrel	-11.5773
▁stacey	-11.5773
▁stagecoach	-11.5773
▁strategy	-11.5773
▁substance	-11.5773
▁sybil	-11.5773
▁symphony	-11.5773
▁syrup	-11.5773
▁talbot	-11.5773
▁tallahassee	-11.5773
▁telegraph	-11.5773
▁tequila	-11.5773
▁tractor	-11.5773
▁tuberculosis	-11.5773
▁tucumcari	-11.5773
▁tumbling	-11.5773
▁unlucky	-11.5773
▁unsolv	-11.5773
▁vegetarian	-11.5773
▁veterinarian	-11.5773
▁weasel	-11.5773
▁woltz	-11.5773
▁wouah	-11.5773
▁wriggle	-11.5773
agonizing	-11.5773
▁adapt	-11.5773
▁confront	-11.5773
▁correlat	-11.5773
▁crotch	-11.5773
▁dahlia	-11.5773
▁discreet	-11.5773
▁distinct	-11.5773
▁distract	-11.5773
▁dwayne	-11.5773
▁einstein	-11.5773
▁election	-11.5773
▁fawkes	-11.5773
▁gibson	-11.5773
▁gunderson	-11.5773
▁hamburger	-11.5773
▁hampton	-11.5773
▁homosexual	-11.5773
▁identical	-11.5773
▁implants	-11.5773
▁intact	-11.5773
▁intercept	-11.5773
▁intrigu	-11.5773
▁itzak	-11.5773
▁ivory	-11.5773
▁jeopardiz	-11.5773
▁lambeau	-11.5773
▁napalm	-11.5773
▁negro	-11.5773
▁nipple	-11.5773
▁orient	-11.5773
▁resettle	-11.5773
▁rizzi	-11.5773
▁scorpion	-11.5773
▁slogan	-11.5773
▁tactics	-11.5773
▁tennessee	-11.5773
▁terrified	-11.5773
▁thrust	-11.5773
▁toxic	-11.5773
▁trophy	-11.5773
▁tuscan	-11.5773
▁vault	-11.5773
▁wrestle	-11.5773
▁belief	-11.5773
▁blunt	-11.5773
▁cassidy	-11.5773
▁chegou	-11.5773
▁davina	-11.5773
▁elegant	-11.5773
▁evacuate	-11.5773
▁fireplace	-11.5773
▁gaius	-11.5773
▁japan	-11.5773
▁kraut	-11.5773
▁maestro	-11.5773
▁melhor	-11.5773
▁mwah	-11.5773
▁nineteen	-11.5773
▁northwest	-11.5773
▁osaka	-11.5773
▁patchett	-11.5773
▁sibling	-11.5773
▁splash	-11.5773
▁variety	-11.5773
▁clutch	-11.5773
▁frantic	-11.5773
▁graveyard	-11.5773
▁heaith	-11.5773
▁insecure	-11.5773
▁outcome	-11.5773
▁overcome	-11.5773
▁parlay	-11.5773
▁penalty	-11.5773
▁racist	-11.5773
▁tribute	-11.5773
▁whiff	-11.5773
▁whoohoo	-11.5773
voluntar	-11.5773
▁fiction	-11.5773
▁hallelu	-11.5773
▁maggot	-11.5773
▁reserve	-11.5773
▁shaft	-11.5773
▁assurance	-11.5773
▁baggage	-11.5773
▁cartridge	-11.5773
▁croak	-11.5773
▁cruise	-11.5773
▁essence	-11.5773
▁probation	-11.5773
▁april	-11.5773
▁banner	-11.5773
▁beggar	-11.5773
▁ciclo	-11.5773
▁install	-11.5773
▁leash	-11.5773
▁testicle	-11.5773
▁xray	-11.5773
intervention	-11.5773
▁attached	-11.5773
▁comigo	-11.5773
▁demise	-11.5773
▁evelyn	-11.5773
▁handbill	-11.5773
▁scandal	-11.5773
▁synthe	-11.5773
▁acidente	-11.5773
▁acredit	-11.5773
▁creek	-11.5773
▁crisp	-11.5773
▁freud	-11.5773
▁pledge	-11.5773
▁shady	-11.5773
▁embora	-11.5773
▁excop	-11.5773
▁gerard	-11.5773
▁bloodstain	-11.5773
▁catalog	-11.5773
▁galante	-11.5773
audible	-11.5773
▁meatballs	-11.5773
▁commend	-11.5773
▁elected	-11.5773
▁input	-11.5773
▁iowa	-11.5773
▁pearl	-11.5773
▁biack	-11.5773
▁ciose	-11.5773
▁niece	-11.5773
▁protein	-11.5773
▁slack	-11.5773
▁perpetu	-11.5773
▁roaring	-11.5773
▁turf	-11.5773
▁depressing	-11.5773
▁tabletop	-11.5773
▁violin	-11.5773
▁zane	-11.5773
physic	-11.5773
▁polio	-11.5773
▁saloon	-11.5773
▁whatve	-11.5773
ximo	-11.5773
▁sportscast	-11.5773
▁whiie	-11.5773
▁examining	-11.5773
▁oof	-11.5773
▁reenie	-11.5773
▁hottest	-11.5773
▁margin	-11.5773
▁disabled	-11.5773
▁creating	-11.5773
▁clyde	-11.5773
▁ouais	-11.5773
▁douglas	-11.5773
▁slick	-11.5773
descend	-11.5773
▁cherie	-11.5773
▁jingling	-11.5773
▁blouse	-11.5773
▁jammed	-11.5773
▁radar	-11.5773
▁klein	-11.5773
▁covet	-11.5773
▁restrain	-11.5773
▁opportunities	-11.5774
▁sieve	-11.5774
▁terminate	-11.5774
▁hubba	-11.5774
▁devastat	-11.5774
▁garces	-11.5774
▁renee	-11.5774
▁adios	-11.5774
▁acquaintance	-11.5774
▁anchor	-11.5774
▁fanning	-11.5774
▁senor	-11.5774
▁straining	-11.5774
▁balm	-11.5774
▁fiddl	-11.5774
▁ouvi	-11.5774
▁ivan	-11.5774
▁mustang	-11.5774
▁nassau	-11.5774
▁yeyo	-11.5774
▁compound	-11.5774
▁kdk	-11.5774
▁fitzgerald	-11.5774
▁lottery	-11.5774
▁luckily	-11.5774
▁steward	-11.5774
▁proving	-11.5774
▁grove	-11.5774
▁georgieboy	-11.5774
▁roderick	-11.5774
▁chisel	-11.5774
▁remand	-11.5774
▁italianamerican	-11.5774
▁digital	-11.5774
▁liberal	-11.5774
▁ritual	-11.5774
gerald	-11.5774
uhuhuh	-11.5774
▁bragging	-11.5774
▁trading	-11.5774
▁centerfold	-11.5774
▁meself	-11.5774
▁susan	-11.5775
ternity	-11.5775
▁yummy	-11.5775
▁specimen	-11.5775
▁leadership	-11.5775
▁liable	-11.5775
▁interstate	-11.5775
▁knick	-11.5775
▁lark	-11.5775
▁opium	-11.5775
▁grit	-11.5775
▁bentley	-11.5775
▁thiev	-11.5776
▁tenants	-11.5776
▁estamos	-11.5776
▁valium	-11.5776
▁logical	-11.5776
▁properties	-11.5776
▁timmy	-11.5776
▁hostile	-11.5776
▁strapped	-11.5776
▁scarface	-11.5776
▁bloom	-11.5776
▁canada	-11.5776
▁typing	-11.5777
▁enlist	-11.5777
▁offence	-11.5777
▁rasp	-11.5778
supervis	-11.5778
▁canteen	-11.578
▁oath	-11.578
▁metres	-11.5781
▁dorm	-11.5782
▁hallowe	-11.5782
▁strand	-11.5783
ihua	-11.5785
▁tart	-11.5795
asket	-11.5797
▁reduce	-11.5799
mortal	-11.58
▁scale	-11.5802
metric	-11.584
ullet	-11.584
cristy	-11.5874
flat	-11.5887
ppies	-11.5897
illiard	-11.59
high	-11.5912
drugged	-11.5929
verse	-11.5968
flake	-11.6043
▁dye	-11.6134
stead	-11.6241
▁yahoo	-11.6483
span	-11.6642
proved	-11.6745
ehen	-11.6997
▁blackjack	-11.7012
▁bookmak	-11.7037
were	-11.7141
▁dodg	-11.7319
▁utter	-11.7428
acceptable	-11.7467
▁nitr	-11.7786
▁politician	-11.7949
urban	-11.8018
▁igno	-11.8136
▁introduc	-11.8198
powder	-11.8223
satisfied	-11.8223
pound	-11.8224
unny	-11.8224
necessary	-11.8225
license	-11.8225
brother	-11.8225
security	-11.8225
birds	-11.8225
food	-11.8225
million	-11.8226
jesus	-11.8226
trial	-11.8226
found	-11.8226
▁polic	-11.8227
pong	-11.8234
▁confuse	-11.8237
▁excite	-11.8238
trust	-11.8241
▁aureli	-11.8242
▁murph	-11.8246
▁dumm	-11.8246
paid	-11.8254
▁servin	-11.8265
▁drivin	-11.8265
▁givin	-11.8265
▁rook	-11.8266
change	-11.8267
idget	-11.8269
▁practi	-11.8269
▁corporat	-11.827
▁engl	-11.8271
▁engi	-11.8272
▁observa	-11.8272
▁whisk	-11.8273
eeniem	-11.8273
▁congress	-11.8273
crimination	-11.8273
ferocious	-11.8273
junction	-11.8273
misunderstanding	-11.8273
rcraft	-11.8273
▁abrupt	-11.8273
▁accumulat	-11.8273
▁agencies	-11.8273
▁aggression	-11.8273
▁aiberto	-11.8273
▁ajudar	-11.8273
▁algorithm	-11.8273
▁alternative	-11.8273
▁appliance	-11.8273
▁appraisal	-11.8273
▁aqueduct	-11.8273
▁artichoke	-11.8273
▁artificial	-11.8273
▁artillery	-11.8273
▁ascertain	-11.8273
▁backpack	-11.8273
▁baldassari	-11.8273
▁bartletts	-11.8273
▁bizarre	-11.8273
▁bouncing	-11.8273
▁brodsky	-11.8273
▁bypass	-11.8273
▁caffeine	-11.8273
▁caliber	-11.8273
▁camelhair	-11.8273
▁casitas	-11.8273
▁caviar	-11.8273
▁cerebr	-11.8273
▁chauffeur	-11.8273
▁christopher	-11.8273
▁chunk	-11.8273
▁ciseau	-11.8273
▁cleveland	-11.8273
▁collapse	-11.8273
▁commune	-11.8273
▁complication	-11.8273
▁concubine	-11.8273
▁condemn	-11.8273
▁contempt	-11.8273
▁corcoran	-11.8273
▁corroborat	-11.8273
▁courtmartial	-11.8273
▁crescendo	-11.8273
▁croisilles	-11.8273
▁cuidado	-11.8273
▁cupcake	-11.8273
▁cyborg	-11.8273
▁database	-11.8273
▁decree	-11.8273
▁deitrich	-11.8273
▁desaparece	-11.8273
▁dialectic	-11.8273
▁dinosaur	-11.8273
▁disqualified	-11.8273
▁dynasty	-11.8273
▁ebbing	-11.8273
▁enlighten	-11.8273
▁enquanto	-11.8273
▁eyewitness	-11.8273
▁fascinating	-11.8273
▁ferreiro	-11.8273
▁financing	-11.8273
▁firefighter	-11.8273
▁forfeit	-11.8273
▁fountain	-11.8273
▁francs	-11.8273
▁frederick	-11.8273
▁frequent	-11.8273
▁fugazi	-11.8273
▁generosity	-11.8273
▁genitals	-11.8273
▁geoffrey	-11.8273
▁georgia	-11.8273
▁gestapo	-11.8273
▁godfrey	-11.8273
▁granddaughter	-11.8273
▁grifter	-11.8273
▁groggy	-11.8273
▁groovy	-11.8273
▁grouch	-11.8273
▁guerrero	-11.8273
▁guiiiver	-11.8273
▁gutierrez	-11.8273
▁hammock	-11.8273
▁harlequin	-11.8273
▁havoc	-11.8273
▁heehaw	-11.8273
▁helenowski	-11.8273
▁horrific	-11.8273
▁hubert	-11.8273
▁hurrah	-11.8273
▁hustling	-11.8273
▁hypocrisy	-11.8273
▁iaugh	-11.8273
▁ibiza	-11.8273
▁ignorant	-11.8273
▁impulse	-11.8273
▁innocence	-11.8273
▁insignificant	-11.8273
▁inspiration	-11.8273
▁invincible	-11.8273
▁inviting	-11.8273
▁jeremiah	-11.8273
▁juvenile	-11.8273
▁keeyai	-11.8273
▁keinszig	-11.8273
▁kendricks	-11.8273
▁klubecks	-11.8273
▁kyoami	-11.8273
▁lkoma	-11.8273
▁lollipop	-11.8273
▁lonesome	-11.8273
▁lourdes	-11.8273
▁luxury	-11.8273
▁lyrics	-11.8273
▁maintenance	-11.8273
▁malchick	-11.8273
▁marlboro	-11.8273
▁maserati	-11.8273
▁mcandrew	-11.8273
▁mccowan	-11.8273
▁mclanden	-11.8273
▁meditation	-11.8273
▁minnesota	-11.8273
▁mississippi	-11.8273
▁moulins	-11.8273
▁mouthwash	-11.8273
▁munroe	-11.8273
▁nazareth	-11.8273
▁nedjma	-11.8273
▁neglected	-11.8273
▁negotiator	-11.8273
▁nicholas	-11.8273
▁nixon	-11.8273
▁nurburgring	-11.8273
▁oblivio	-11.8273
▁obrigada	-11.8273
▁optimistic	-11.8273
▁oswald	-11.8273
▁outdoors	-11.8273
▁paddle	-11.8273
▁peasants	-11.8273
▁pendejo	-11.8273
▁pennsylvania	-11.8273
▁persistent	-11.8273
▁phenomenon	-11.8273
▁postmortem	-11.8273
▁preocup	-11.8273
▁priviledge	-11.8273
▁probability	-11.8273
▁propaganda	-11.8273
▁prophecy	-11.8273
▁psychiatry	-11.8273
▁pyjamas	-11.8273
▁quaalude	-11.8273
▁quadriplegic	-11.8273
▁quarantine	-11.8273
▁quarterpounder	-11.8273
▁rafterman	-11.8273
▁ramirez	-11.8273
▁rascal	-11.8273
▁recipient	-11.8273
▁reconsider	-11.8273
▁refrain	-11.8273
▁relentless	-11.8273
▁renounce	-11.8273
▁resurfac	-11.8273
▁retrieve	-11.8273
▁sabrina	-11.8273
▁sanchez	-11.8273
▁satellite	-11.8273
▁seidelbaum	-11.8273
▁seymour	-11.8273
▁shaving	-11.8273
▁shrapnel	-11.8273
▁shrieks	-11.8273
▁shrimp	-11.8273
▁shuddering	-11.8273
▁significance	-11.8273
▁simultaneous	-11.8273
▁skank	-11.8273
▁sketch	-11.8273
▁sodomize	-11.8273
▁sophisticat	-11.8273
▁splendid	-11.8273
▁statistics	-11.8273
▁stronghold	-11.8273
▁subterfuge	-11.8273
▁suspension	-11.8273
▁swanney	-11.8273
▁sweatshirt	-11.8273
▁throttle	-11.8273
▁tranquil	-11.8273
▁transsexual	-11.8273
▁triumph	-11.8273
▁ullman	-11.8273
▁unhappiness	-11.8273
▁unreasonable	-11.8273
▁uptown	-11.8273
▁urchin	-11.8273
▁vacuum	-11.8273
▁versace	-11.8273
▁vicinity	-11.8273
▁viddied	-11.8273
▁vocalizing	-11.8273
▁vulgar	-11.8273
▁whoohoohoo	-11.8273
▁wiggins	-11.8273
▁windshield	-11.8273
▁xanax	-11.8273
▁zombie	-11.8273
▁appraise	-11.8273
▁argentin	-11.8273
▁bathtub	-11.8273
▁bennett	-11.8273
▁brendan	-11.8273
▁bullseye	-11.8273
▁capacity	-11.8273
▁centuries	-11.8273
▁chopchop	-11.8273
▁compassion	-11.8273
▁contrary	-11.8273
▁coworkers	-11.8273
▁dimples	-11.8273
▁diversion	-11.8273
▁emerald	-11.8273
▁erika	-11.8273
▁escalat	-11.8273
▁explanation	-11.8273
▁florence	-11.8273
▁flynns	-11.8273
▁formalities	-11.8273
▁forrester	-11.8273
▁google	-11.8273
▁gossip	-11.8273
▁humour	-11.8273
▁imprison	-11.8273
▁incompeten	-11.8273
▁jagoff	-11.8273
▁knucklehead	-11.8273
▁landscape	-11.8273
▁literature	-11.8273
▁newscaster	-11.8273
▁nipper	-11.8273
▁oasis	-11.8273
▁paranoia	-11.8273
▁parlance	-11.8273
▁pepsi	-11.8273
▁proprietor	-11.8273
▁publish	-11.8273
▁scatting	-11.8273
▁sculpt	-11.8273
▁thailand	-11.8273
▁thirtyfive	-11.8273
▁tolerate	-11.8273
▁vermont	-11.8273
emption	-11.8273
nomination	-11.8273
▁bogart	-11.8273
▁chilton	-11.8273
▁commute	-11.8273
▁depression	-11.8273
▁dixie	-11.8273
▁judging	-11.8273
▁permanent	-11.8273
▁premature	-11.8273
▁senhor	-11.8273
▁suppress	-11.8273
▁whizz	-11.8273
▁bridie	-11.8273
▁paddie	-11.8273
▁streak	-11.8273
▁austin	-11.8273
▁deixa	-11.8273
▁estrada	-11.8273
▁fairvale	-11.8273
▁fortress	-11.8273
▁grudge	-11.8273
▁klick	-11.8273
▁serpent	-11.8273
▁sipping	-11.8273
▁sodium	-11.8273
▁swift	-11.8273
▁swoop	-11.8273
▁benedict	-11.8273
▁bianca	-11.8273
▁bracken	-11.8273
▁dudley	-11.8273
▁gasoline	-11.8273
▁goofy	-11.8273
▁hallucinati	-11.8273
▁hippie	-11.8273
▁houston	-11.8273
▁kilgo	-11.8273
▁multiply	-11.8273
▁overture	-11.8273
▁practicing	-11.8273
▁redneck	-11.8273
▁solemn	-11.8273
▁carolina	-11.8273
▁clinton	-11.8273
▁degrad	-11.8273
▁doutor	-11.8273
▁emilio	-11.8273
▁micro	-11.8273
▁okonedo	-11.8273
▁pfft	-11.8273
▁survey	-11.8273
▁upwards	-11.8273
▁verify	-11.8273
▁denham	-11.8273
▁gareth	-11.8273
▁nevertheless	-11.8273
▁awaiting	-11.8273
▁deceive	-11.8273
▁defeat	-11.8273
▁digestion	-11.8273
▁henchm	-11.8273
▁kathy	-11.8273
▁reagan	-11.8273
▁tompson	-11.8273
ermilk	-11.8273
▁angei	-11.8273
▁collier	-11.8273
▁doida	-11.8273
▁piercing	-11.8273
▁legacy	-11.8273
▁radlo	-11.8273
desirable	-11.8273
▁agitat	-11.8273
▁audit	-11.8273
▁historical	-11.8273
▁motto	-11.8273
▁pulp	-11.8273
▁sobre	-11.8273
▁torche	-11.8273
▁dyke	-11.8273
▁emblem	-11.8273
▁storytell	-11.8273
▁canyon	-11.8273
▁grip	-11.8273
▁hardcore	-11.8273
▁stump	-11.8273
▁aisle	-11.8273
▁grill	-11.8273
▁hanna	-11.8273
▁heartache	-11.8273
▁settling	-11.8273
▁flaws	-11.8273
▁visible	-11.8273
▁franz	-11.8273
▁santoro	-11.8273
▁inequ	-11.8273
▁index	-11.8273
▁lenny	-11.8273
sensible	-11.8273
▁shaman	-11.8273
▁merrin	-11.8273
▁teresa	-11.8273
▁applies	-11.8273
▁caramel	-11.8273
▁drool	-11.8273
securities	-11.8273
▁hesketh	-11.8273
▁paola	-11.8273
▁quaker	-11.8273
▁ieft	-11.8273
▁containing	-11.8273
▁rational	-11.8273
▁fascinate	-11.8273
▁ashes	-11.8273
▁requirements	-11.8273
▁tavern	-11.8273
▁flank	-11.8273
▁anita	-11.8273
▁chlor	-11.8273
▁spouse	-11.8273
▁hull	-11.8274
▁seminar	-11.8274
▁huds	-11.8274
▁radical	-11.8274
▁pronto	-11.8274
▁slob	-11.8274
▁dyle	-11.8274
▁porsche	-11.8274
▁vivo	-11.8274
▁sedated	-11.8274
▁judas	-11.8274
▁altar	-11.8274
▁padre	-11.8274
▁overseer	-11.8274
▁sissy	-11.8274
▁container	-11.8274
▁amusing	-11.8274
▁damp	-11.8274
▁proverb	-11.8274
▁sensor	-11.8274
▁birch	-11.8274
▁feces	-11.8274
▁yarbi	-11.8274
▁blares	-11.8274
▁kerb	-11.8274
▁dandy	-11.8274
▁begets	-11.8274
▁biind	-11.8274
▁bliss	-11.8274
▁vidal	-11.8274
▁speculat	-11.8274
▁dumas	-11.8274
rview	-11.8274
▁flea	-11.8274
▁srt	-11.8275
▁heels	-11.8275
▁fasci	-11.8275
▁jeannie	-11.8275
▁puddin	-11.8275
▁cruci	-11.8276
▁cramp	-11.8276
explic	-11.8277
sumption	-11.8277
roids	-11.8277
▁ponti	-11.8277
▁spiritual	-11.8278
▁hassle	-11.828
▁gaze	-11.828
disput	-11.828
▁viola	-11.828
caution	-11.8282
▁ganj	-11.8282
tagoni	-11.8284
▁amaze	-11.8286
nstitutionalized	-11.8287
▁amari	-11.8291
▁measl	-11.8291
colat	-11.8295
mnh	-11.8297
actical	-11.8308
▁velh	-11.8326
▁baume	-11.8335
arriage	-11.8336
trip	-11.8344
▁hebr	-11.8354
