<unk>	0
<s>	0
</s>	0
s	-3.41994
▁im	-4.55666
▁dont	-4.61675
▁know	-4.71454
▁get	-4.7583
▁go	-4.79959
▁oh	-4.92514
▁come	-4.9268
▁right	-4.94842
▁got	-5.03057
▁well	-5.03169
▁like	-5.06664
ing	-5.07363
▁youre	-5.13553
▁thats	-5.17982
▁one	-5.22645
▁yeah	-5.24464
ed	-5.27128
▁good	-5.3324
▁think	-5.3904
▁na	-5.429
▁see	-5.43064
▁want	-5.47527
▁hey	-5.51333
▁yes	-5.54772
▁look	-5.55769
d	-5.5733
▁ill	-5.58218
▁okay	-5.61094
▁back	-5.61852
▁us	-5.67119
▁time	-5.679
▁going	-5.68327
▁gon	-5.69292
▁take	-5.75967
▁hes	-5.76859
▁cant	-5.77282
y	-5.80983
▁say	-5.86043
▁man	-5.90716
▁would	-5.92874
▁way	-5.93759
▁little	-5.95849
▁mr	-5.96336
▁never	-5.96959
▁lets	-5.97673
▁tell	-5.98883
▁really	-5.989
▁thank	-5.99202
▁could	-6.02328
er	-6.02882
▁l	-6.0429
▁ive	-6.04508
▁make	-6.05366
▁sir	-6.05456
▁whats	-6.0768
▁let	-6.07779
▁something	-6.08477
▁need	-6.137
e	-6.15445
▁mean	-6.19367
▁give	-6.1947
▁love	-6.20376
▁didnt	-6.2043
▁theres	-6.20748
▁sorry	-6.21613
▁wait	-6.2328
▁please	-6.25739
▁	-6.27351
▁two	-6.27496
ly	-6.28148
▁help	-6.29154
▁sure	-6.3824
▁theyre	-6.41139
▁people	-6.41416
▁said	-6.41707
t	-6.42511
▁night	-6.43057
▁thing	-6.43548
▁much	-6.44213
▁uh	-6.44748
in	-6.45103
▁must	-6.45242
▁great	-6.45968
▁stop	-6.48645
▁find	-6.48801
▁day	-6.48949
a	-6.49853
▁home	-6.50207
▁first	-6.5196
n	-6.52934
▁away	-6.55084
▁guys	-6.55385
▁life	-6.57406
▁even	-6.58213
▁keep	-6.59001
▁boy	-6.60223
▁put	-6.60517
▁old	-6.61013
▁thought	-6.61457
▁call	-6.6271
▁ever	-6.6273
▁ta	-6.63208
▁nothing	-6.63209
▁work	-6.63476
▁still	-6.6357
▁big	-6.64479
▁better	-6.65767
r	-6.66496
▁shes	-6.66523
▁new	-6.67118
▁wont	-6.68388
▁id	-6.68465
▁anything	-6.68577
o	-6.69939
▁hi	-6.70038
▁youve	-6.70887
▁always	-6.71866
▁god	-6.72504
▁coming	-6.72513
▁youll	-6.72854
▁maybe	-6.72867
▁hello	-6.7337
▁told	-6.73653
▁last	-6.74292
▁long	-6.77302
▁house	-6.77334
▁place	-6.79159
▁dad	-6.79204
▁name	-6.80506
▁everything	-6.80916
▁play	-6.81223
▁hear	-6.81444
▁nice	-6.82438
▁stay	-6.83731
▁around	-6.84645
▁isnt	-6.85543
al	-6.85908
▁talk	-6.86758
▁move	-6.87227
▁thanks	-6.87395
▁hold	-6.87428
es	-6.87479
▁things	-6.88611
p	-6.89316
i	-6.89591
▁every	-6.90064
▁girl	-6.90563
▁run	-6.91378
▁ready	-6.92925
▁fine	-6.93053
▁show	-6.93733
▁believe	-6.94365
▁leave	-6.95483
▁made	-6.97077
g	-6.97392
▁money	-6.97759
▁lot	-6.97858
▁doesnt	-6.98014
▁may	-6.98311
▁father	-6.98837
▁hell	-6.99159
▁huh	-7.00339
▁mom	-7.00574
▁kind	-7.00709
▁mother	-7.00741
▁car	-7.00778
▁course	-7.01129
▁listen	-7.01301
▁world	-7.01552
▁bad	-7.01767
▁wrong	-7.0192
▁years	-7.02167
▁ok	-7.02732
▁miss	-7.0318
▁left	-7.03257
▁might	-7.0541
▁room	-7.05441
m	-7.0579
▁three	-7.06263
▁feel	-7.07318
▁mind	-7.07679
▁remember	-7.0799
▁school	-7.08513
▁understand	-7.08728
▁real	-7.0908
▁enough	-7.10513
▁weve	-7.10516
▁guy	-7.1145
▁whoa	-7.1198
l	-7.12326
k	-7.12512
▁wan	-7.14001
▁next	-7.14348
▁care	-7.15947
▁watch	-7.15949
▁happened	-7.16399
▁son	-7.16746
▁today	-7.17094
▁done	-7.17115
le	-7.18228
▁excuse	-7.19597
▁best	-7.19638
ll	-7.19803
▁wanted	-7.19898
▁another	-7.19914
▁else	-7.19918
c	-7.20074
▁try	-7.2018
▁talking	-7.20788
or	-7.211
b	-7.2146
▁friend	-7.22383
▁ah	-7.22781
▁ha	-7.2287
ion	-7.23667
▁s	-7.24257
▁someone	-7.24801
▁dead	-7.24933
▁meet	-7.2519
en	-7.25358
▁head	-7.25595
▁start	-7.2572
▁morning	-7.25811
▁family	-7.26145
▁came	-7.26451
▁together	-7.26484
▁live	-7.26563
▁guess	-7.26825
▁hope	-7.27495
▁wouldnt	-7.2758
▁tonight	-7.29589
▁baby	-7.2959
▁men	-7.30219
▁fire	-7.30283
▁music	-7.31231
▁playing	-7.32023
▁hand	-7.32209
on	-7.32416
▁minute	-7.3251
▁matter	-7.32792
f	-7.33013
▁pretty	-7.34249
▁getting	-7.34581
▁ask	-7.34591
▁found	-7.36101
▁turn	-7.36386
▁kid	-7.37084
▁seen	-7.37861
▁kids	-7.38143
▁idea	-7.38267
▁chuckles	-7.38898
▁bring	-7.38901
▁hard	-7.38902
▁wish	-7.39027
▁whole	-7.39143
▁em	-7.39285
▁laughing	-7.39668
▁story	-7.39911
▁saw	-7.40708
▁kill	-7.41189
▁wasnt	-7.41476
w	-7.41971
re	-7.41975
▁gone	-7.42131
▁worry	-7.42268
▁yet	-7.42279
▁everyone	-7.42287
h	-7.43155
▁friends	-7.43362
▁heard	-7.43365
▁without	-7.43871
▁havent	-7.45092
▁many	-7.45261
▁george	-7.45501
▁bit	-7.4555
▁tomorrow	-7.45912
▁eat	-7.46067
ers	-7.46504
▁mrs	-7.46655
▁door	-7.46716
▁trying	-7.46726
▁happy	-7.47575
▁use	-7.47575
▁shut	-7.48374
ve	-7.49647
▁water	-7.49707
▁check	-7.49836
▁job	-7.50561
▁lost	-7.51436
▁days	-7.51476
▁everybody	-7.51818
▁knew	-7.51859
▁children	-7.52738
▁alone	-7.52739
▁five	-7.52767
▁went	-7.53635
▁looking	-7.53635
▁second	-7.54054
▁whos	-7.54162
▁youd	-7.5497
▁face	-7.55058
▁stand	-7.55249
▁mine	-7.55907
▁town	-7.56343
▁re	-7.56371
▁hurry	-7.56792
▁red	-7.5735
▁actually	-7.58194
▁end	-7.58259
▁since	-7.5858
▁took	-7.59118
▁dear	-7.59149
▁game	-7.5928
▁b	-7.5981
▁dance	-7.60399
▁easy	-7.6054
▁problem	-7.61242
▁heart	-7.61426
st	-7.61475
▁beautiful	-7.615
▁true	-7.61553
▁close	-7.61683
▁dr	-7.61913
▁anyone	-7.61982
▁shall	-7.61993
▁open	-7.6208
▁young	-7.62226
▁trouble	-7.62481
▁die	-7.63379
▁wow	-7.63455
▁king	-7.63966
▁brother	-7.64762
▁number	-7.64806
▁set	-7.65346
▁lm	-7.6538
▁business	-7.65431
▁wife	-7.65431
est	-7.65665
▁dog	-7.66354
▁aint	-7.66441
▁couldnt	-7.66535
▁called	-7.66856
ie	-7.66895
u	-7.66998
▁later	-7.67114
▁wheres	-7.67301
ic	-7.67404
ies	-7.67496
▁grunts	-7.67788
▁laughs	-7.67938
▁stuff	-7.67969
▁ray	-7.68072
▁sit	-7.68244
▁c	-7.68419
▁already	-7.69003
▁un	-7.6906
▁hit	-7.69161
▁party	-7.69291
▁cause	-7.69664
▁four	-7.70035
▁used	-7.70169
▁fight	-7.7048
▁forget	-7.70548
▁afraid	-7.70573
▁doctor	-7.7062
▁soon	-7.70876
▁damn	-7.7112
▁read	-7.71257
▁late	-7.71351
▁pay	-7.71632
▁honey	-7.71636
▁woman	-7.71636
▁ago	-7.72193
▁far	-7.72428
▁break	-7.72473
▁boys	-7.73234
▁anyway	-7.73247
▁year	-7.73305
▁part	-7.73522
▁st	-7.73559
▁lady	-7.73844
▁de	-7.74036
▁eyes	-7.74237
▁phone	-7.74914
▁high	-7.74925
an	-7.75266
▁somebody	-7.75439
▁cool	-7.75439
▁chance	-7.7545
▁um	-7.7554
▁side	-7.75666
▁light	-7.75675
▁walk	-7.76562
▁looks	-7.7686
▁fun	-7.77174
▁point	-7.77689
▁sighs	-7.78249
▁sleep	-7.78763
▁free	-7.78815
▁gentlemen	-7.78821
▁change	-7.79016
ation	-7.79082
▁pick	-7.79416
▁screaming	-7.79537
▁book	-7.79574
▁funny	-7.7998
▁arent	-7.79982
▁parents	-7.80308
▁stupid	-7.80554
▁howard	-7.80557
▁girls	-7.80726
▁thinking	-7.81042
▁cut	-7.83198
▁hurt	-7.83383
▁moment	-7.83586
▁cat	-7.83995
▁crazy	-7.84115
▁hmm	-7.84115
▁taking	-7.84146
▁pull	-7.84186
▁supposed	-7.84345
▁minutes	-7.84592
▁gasps	-7.8461
ra	-7.8532
▁cheering	-7.85388
ch	-7.85816
▁drink	-7.85933
▁probably	-7.85944
▁hate	-7.86766
▁welcome	-7.87183
▁rest	-7.87255
▁in	-7.87339
▁line	-7.87381
▁half	-7.87806
▁important	-7.8781
▁joe	-7.87912
▁war	-7.88293
▁making	-7.88446
▁quite	-7.89141
▁k	-7.89169
▁fast	-7.89491
▁computer	-7.89707
▁least	-7.89708
▁itll	-7.90362
▁heres	-7.90634
▁luck	-7.90733
▁hands	-7.90859
ar	-7.91105
it	-7.91587
▁catch	-7.91685
▁hang	-7.91686
▁question	-7.91738
▁working	-7.91909
el	-7.91924
▁john	-7.92277
▁save	-7.92589
▁child	-7.9295
▁whatever	-7.92954
▁inside	-7.92967
▁city	-7.92993
▁g	-7.93323
▁continues	-7.93399
▁th	-7.93457
▁carl	-7.93556
▁exactly	-7.93633
▁they	-7.9384
▁almost	-7.94282
▁ball	-7.94351
▁met	-7.94362
▁sea	-7.94794
▁behind	-7.94954
▁crowd	-7.94954
▁bye	-7.94955
▁ooh	-7.94957
▁death	-7.9496
▁clear	-7.94969
▁dude	-7.94991
▁happen	-7.95389
▁aah	-7.95665
▁word	-7.95864
▁week	-7.95866
▁ahead	-7.96328
▁bob	-7.9641
▁six	-7.96958
us	-7.96969
▁chip	-7.97025
▁wonderful	-7.97041
▁throw	-7.97053
▁green	-7.97684
▁waiting	-7.97768
▁sound	-7.97986
▁duck	-7.98072
z	-7.98272
able	-7.98285
▁ladies	-7.98389
▁hot	-7.98488
▁bed	-7.98565
▁deal	-7.98572
▁team	-7.99131
is	-7.99278
man	-7.99372
▁sweet	-7.99735
▁plan	-7.99844
▁a	-8.00148
▁news	-8.00314
▁frank	-8.01043
▁says	-8.01066
▁different	-8.01206
▁goodbye	-8.01206
▁country	-8.01223
▁hair	-8.01243
▁step	-8.01253
▁secret	-8.0191
▁dale	-8.01954
▁makes	-8.0231
▁million	-8.02405
▁special	-8.0265
▁couple	-8.02658
▁send	-8.0279
▁ya	-8.02971
▁dream	-8.03007
▁full	-8.03105
▁along	-8.03381
▁trust	-8.03385
▁lose	-8.03881
▁write	-8.03969
▁anymore	-8.04115
▁reason	-8.04115
▁nobody	-8.04666
▁police	-8.0482
▁anybody	-8.04856
▁boss	-8.04898
▁speak	-8.06077
▁sister	-8.06213
▁general	-8.07116
▁promise	-8.07497
▁gave	-8.07875
▁puss	-8.07906
▁air	-8.08055
▁drive	-8.0853
▁answer	-8.08569
ity	-8.08605
▁ship	-8.08658
▁win	-8.08693
▁grunting	-8.08741
▁ow	-8.08764
ment	-8.08846
▁star	-8.09246
▁small	-8.09951
▁goes	-8.10111
▁fact	-8.10128
▁black	-8.102
▁safe	-8.1023
at	-8.10677
▁perfect	-8.10797
ator	-8.10818
▁power	-8.10987
▁brought	-8.10988
▁lord	-8.1099
▁captain	-8.11783
▁dinner	-8.11784
la	-8.12185
▁lts	-8.12239
▁quiet	-8.12388
▁glad	-8.12582
▁food	-8.12593
▁asked	-8.1289
▁earth	-8.13396
▁horse	-8.13466
▁n	-8.13646
▁touch	-8.13855
▁follow	-8.13868
th	-8.14159
▁sort	-8.14206
▁bear	-8.1439
▁sounds	-8.14666
▁quick	-8.14832
▁shoot	-8.15241
▁learn	-8.1552
ri	-8.15627
▁ch	-8.15872
▁land	-8.16552
▁ho	-8.16569
▁henry	-8.1668
▁perhaps	-8.1668
▁though	-8.17338
▁seven	-8.17528
▁top	-8.17717
▁saying	-8.17845
il	-8.1808
▁hows	-8.18371
▁tried	-8.18373
▁daddy	-8.18412
▁rock	-8.18569
▁seems	-8.18762
▁ben	-8.18842
▁e	-8.18946
▁drop	-8.19224
▁front	-8.19229
▁sometimes	-8.1992
▁either	-8.20085
▁also	-8.20086
▁coach	-8.2009
▁hours	-8.20372
li	-8.20447
▁wonder	-8.20626
▁bet	-8.20827
▁control	-8.20922
less	-8.20926
▁h	-8.20959
▁ten	-8.20994
▁sick	-8.21012
▁yi	-8.21372
▁white	-8.21838
▁poor	-8.21867
▁growling	-8.219
▁daughter	-8.22205
▁la	-8.22274
▁living	-8.22723
▁sent	-8.22819
v	-8.22839
▁mary	-8.22893
▁officer	-8.2323
▁married	-8.2361
▁uncle	-8.2361
▁sign	-8.23882
▁lovely	-8.24144
▁wants	-8.24242
▁bar	-8.24317
▁president	-8.24505
▁evil	-8.24516
▁till	-8.2466
▁miles	-8.25298
▁blue	-8.2542
ur	-8.25447
▁cold	-8.25494
▁telling	-8.25901
▁ride	-8.25993
▁truth	-8.2634
▁shouldnt	-8.26344
▁means	-8.26758
ent	-8.27087
▁rather	-8.27269
▁gun	-8.27323
ro	-8.27378
▁con	-8.27693
▁seem	-8.27917
▁human	-8.28187
▁outside	-8.28203
▁case	-8.28214
▁mad	-8.28435
▁screams	-8.2846
▁singing	-8.28715
▁office	-8.28999
▁song	-8.2909
▁hotel	-8.29188
▁killed	-8.29421
▁careful	-8.29964
▁darling	-8.30106
▁finally	-8.3021
▁groans	-8.30237
to	-8.30479
▁buy	-8.30533
▁lunch	-8.31055
▁kurt	-8.31056
ist	-8.31069
▁f	-8.31485
▁times	-8.31507
▁feeling	-8.31907
▁camp	-8.31995
▁leaving	-8.32028
▁mud	-8.32206
▁o	-8.32501
▁roll	-8.32535
▁stick	-8.33061
▁date	-8.33215
▁cats	-8.33275
ant	-8.3328
▁suppose	-8.33619
▁count	-8.3369
ry	-8.33836
▁p	-8.34081
▁fish	-8.34421
ce	-8.34446
▁needs	-8.34842
et	-8.3488
▁person	-8.34894
▁short	-8.34997
▁voice	-8.34997
▁buddy	-8.34998
▁fred	-8.35281
▁beat	-8.35637
▁lives	-8.35751
ting	-8.35813
up	-8.36052
▁wed	-8.36472
▁hour	-8.36729
se	-8.36776
out	-8.37006
▁theyve	-8.37113
▁started	-8.37566
▁mama	-8.3821
id	-8.38221
▁class	-8.38938
de	-8.38997
▁mmm	-8.39067
▁become	-8.39099
▁david	-8.39099
▁road	-8.39132
▁serious	-8.39962
▁jeremy	-8.40152
▁harry	-8.40152
▁alive	-8.40167
x	-8.40715
▁shh	-8.40888
ate	-8.40945
▁train	-8.41152
▁died	-8.41155
▁straight	-8.41216
▁wizard	-8.41216
▁piece	-8.41265
▁able	-8.41579
▁order	-8.4182
▁cover	-8.41912
▁happens	-8.41958
▁master	-8.42301
▁dangerous	-8.42302
▁push	-8.42316
▁shot	-8.4233
▁enjoy	-8.42737
▁wear	-8.42782
ness	-8.42828
▁tr	-8.42945
▁sp	-8.43089
▁witch	-8.43263
▁karen	-8.43378
▁body	-8.43384
▁running	-8.43389
▁comment	-8.43391
▁boat	-8.43406
▁calm	-8.43412
ca	-8.43679
ous	-8.43999
▁pass	-8.44343
▁taken	-8.44356
▁explain	-8.44477
▁kermit	-8.44477
▁law	-8.44484
▁bank	-8.44488
▁smell	-8.44605
▁grow	-8.4472
▁aunt	-8.45209
▁potter	-8.45594
▁christian	-8.45597
▁maam	-8.45598
▁loved	-8.45787
▁meant	-8.45988
ge	-8.46033
▁lucky	-8.46109
▁fall	-8.46243
▁wind	-8.46323
▁engine	-8.46336
ine	-8.46534
▁happening	-8.46615
▁mistake	-8.46712
▁bees	-8.46844
▁jellicle	-8.46918
▁eye	-8.4692
ne	-8.47122
▁fool	-8.47302
▁bill	-8.47336
▁finish	-8.47339
ter	-8.47834
▁christmas	-8.47848
▁dark	-8.47871
▁shouting	-8.47947
▁art	-8.48417
▁women	-8.48999
▁charge	-8.49014
▁bag	-8.4912
ick	-8.49213
▁past	-8.49219
te	-8.49275
▁scared	-8.49276
▁picture	-8.49285
ful	-8.49708
▁slow	-8.49989
▁handle	-8.50036
▁sing	-8.50139
▁greg	-8.5016
▁dorothy	-8.5016
▁security	-8.5016
▁shell	-8.5016
ive	-8.50684
▁sh	-8.50717
▁test	-8.50763
▁yo	-8.50961
▁somewhere	-8.51337
▁tight	-8.51342
▁hungry	-8.51348
▁mouse	-8.5138
▁tom	-8.51522
▁billy	-8.5165
▁street	-8.51705
co	-8.51929
▁none	-8.52082
▁figure	-8.52146
▁worth	-8.52203
▁books	-8.52288
▁clean	-8.52412
▁jack	-8.52493
▁fault	-8.52527
▁wake	-8.52533
▁moving	-8.5254
▁field	-8.52566
▁gene	-8.52719
me	-8.53065
▁return	-8.53208
▁ground	-8.53217
▁fly	-8.53514
▁strange	-8.5359
▁brain	-8.53637
▁join	-8.53657
▁radio	-8.53775
▁ass	-8.53931
you	-8.53993
▁turned	-8.54165
▁months	-8.54344
▁box	-8.54885
▁relax	-8.54951
▁forever	-8.54956
▁marry	-8.54969
▁feet	-8.54984
▁dress	-8.55033
▁rid	-8.5546
▁saved	-8.55658
ish	-8.56265
▁expect	-8.56284
um	-8.56306
▁chattering	-8.56448
▁tim	-8.56669
▁window	-8.56754
▁evening	-8.56959
▁butt	-8.57127
▁lll	-8.57127
▁ones	-8.57263
time	-8.57374
▁coffee	-8.57436
▁company	-8.57436
▁weird	-8.57436
▁others	-8.57436
▁act	-8.57458
▁planet	-8.57617
▁pa	-8.57756
▁leg	-8.58058
▁key	-8.58098
▁names	-8.58105
▁words	-8.58289
▁protect	-8.58628
▁rowley	-8.58705
▁kick	-8.58743
▁fat	-8.58753
nt	-8.59305
▁sun	-8.59566
▁dollars	-8.59698
▁pleasure	-8.59984
▁summer	-8.59984
▁alex	-8.59985
▁round	-8.59992
▁van	-8.60085
▁busy	-8.60221
▁mo	-8.60296
▁lead	-8.60307
ling	-8.60493
▁tea	-8.60832
▁blood	-8.60981
▁report	-8.61178
▁brenda	-8.61283
▁chief	-8.61283
▁cheese	-8.61283
▁birthday	-8.61284
▁queen	-8.61296
▁super	-8.61306
▁except	-8.61344
▁oz	-8.61359
▁map	-8.61528
▁post	-8.61584
▁building	-8.61706
▁attack	-8.62076
▁weeks	-8.62168
▁sense	-8.62522
ow	-8.6256
▁middle	-8.62598
▁present	-8.62599
▁blow	-8.62622
▁terrible	-8.62648
▁princess	-8.62687
▁finished	-8.63196
▁player	-8.63503
▁aw	-8.6362
▁strong	-8.63636
▁ro	-8.63694
▁trip	-8.63737
▁foot	-8.63913
▁eight	-8.63916
▁across	-8.63932
▁granny	-8.63932
▁major	-8.63932
▁proud	-8.63932
▁island	-8.63932
▁kidding	-8.63947
▁over	-8.63955
▁bell	-8.63972
▁w	-8.63984
▁share	-8.64123
mo	-8.64817
▁magic	-8.64943
▁near	-8.651
▁cop	-8.65122
▁friday	-8.65283
▁scott	-8.65283
▁york	-8.65283
▁jesus	-8.65283
▁mouth	-8.65302
ul	-8.65402
▁cute	-8.65493
▁lt	-8.6552
▁known	-8.65726
▁faster	-8.658
▁calling	-8.65893
ver	-8.6594
▁ba	-8.66044
▁jump	-8.66139
▁tree	-8.6622
▁worked	-8.6637
▁space	-8.66647
▁gadget	-8.66652
▁favorite	-8.66659
▁josh	-8.66661
▁bomb	-8.667
▁low	-8.66716
▁unless	-8.66726
▁table	-8.66758
▁manny	-8.66776
▁quickly	-8.6697
▁whoo	-8.66989
ts	-8.67147
▁fair	-8.67701
▁speaking	-8.67801
▁rich	-8.67815
▁entire	-8.67847
▁mark	-8.67905
▁hero	-8.67948
▁forgot	-8.68027
▁alvin	-8.68042
▁bailey	-8.68043
▁chicken	-8.68057
▁absolutely	-8.68059
▁goddamn	-8.68061
▁shit	-8.68131
no	-8.68144
▁early	-8.6818
ir	-8.68442
▁ran	-8.68634
▁fear	-8.69437
▁afternoon	-8.6945
▁amazing	-8.6945
▁mountain	-8.6945
▁possible	-8.6945
▁rescue	-8.6945
▁worse	-8.6945
▁giving	-8.69452
▁tired	-8.69492
do	-8.695
▁born	-8.69507
▁kiss	-8.69589
▁hide	-8.69627
▁longer	-8.69665
▁ra	-8.69796
ance	-8.69888
▁imagine	-8.7051
▁monster	-8.70552
ta	-8.70599
age	-8.70614
▁hed	-8.70625
▁grand	-8.70865
▁caught	-8.70879
▁monkey	-8.7088
▁wilma	-8.70883
▁football	-8.70885
▁gary	-8.7099
▁certainly	-8.71057
▁board	-8.71741
na	-8.71843
▁susan	-8.72329
▁peach	-8.72354
▁stone	-8.7243
▁camera	-8.72497
▁reach	-8.73306
▁deep	-8.73358
▁bird	-8.73389
mp	-8.73512
▁animal	-8.73558
▁third	-8.73799
▁werent	-8.73799
▁tv	-8.73821
▁heh	-8.7392
▁broken	-8.73939
▁dreams	-8.74282
▁i	-8.74655
▁sell	-8.74708
▁pop	-8.74708
▁killer	-8.75084
▁age	-8.75202
▁choice	-8.75291
▁scene	-8.75291
▁throat	-8.75291
▁harold	-8.75291
▁grab	-8.75291
▁walter	-8.75296
▁panting	-8.7542
ci	-8.75532
▁eh	-8.75905
▁ma	-8.76013
▁pain	-8.76102
▁per	-8.76323
▁asking	-8.76336
ot	-8.76431
▁ar	-8.76493
▁certain	-8.76617
▁broke	-8.76664
▁state	-8.76732
▁machine	-8.76781
▁appreciate	-8.76806
▁practice	-8.76806
▁ernie	-8.76806
▁alan	-8.76825
▁ahh	-8.7687
▁wild	-8.76939
▁vi	-8.77453
▁surprise	-8.77964
▁smart	-8.78093
▁meeting	-8.78129
▁alexander	-8.78345
▁ellie	-8.78348
▁message	-8.78359
▁mister	-8.78365
▁soul	-8.78365
▁draw	-8.7837
▁press	-8.78413
▁ice	-8.78492
▁bee	-8.78798
▁offer	-8.78848
▁unit	-8.79327
▁form	-8.79727
▁final	-8.79752
▁works	-8.79794
▁prince	-8.79802
▁record	-8.79843
▁hunt	-8.79851
▁felt	-8.79907
▁idiot	-8.79908
▁tough	-8.79911
▁service	-8.79915
▁grandma	-8.79922
▁beach	-8.79934
ut	-8.79984
▁yelling	-8.80075
▁warner	-8.80103
▁letter	-8.80172
▁lie	-8.80262
▁holy	-8.80265
▁pal	-8.80593
▁fix	-8.80979
▁arm	-8.81478
▁movie	-8.8149
▁attention	-8.81495
▁forgive	-8.81495
▁future	-8.81495
▁wedding	-8.81498
▁stuck	-8.81513
▁nose	-8.81569
▁anna	-8.81584
▁looked	-8.81657
▁bitch	-8.81678
▁fit	-8.81772
ee	-8.81867
▁mate	-8.82222
▁wearing	-8.82419
and	-8.82441
▁seat	-8.82462
▁lights	-8.82587
▁he	-8.82624
▁questions	-8.82887
▁doug	-8.82998
be	-8.83012
▁mm	-8.83091
▁excellent	-8.83107
▁hasnt	-8.8311
▁spot	-8.83115
▁area	-8.83117
▁honor	-8.83135
▁risk	-8.83142
▁frog	-8.83147
▁race	-8.83152
▁groaning	-8.83155
▁wall	-8.83197
▁given	-8.83484
▁awful	-8.83542
led	-8.83951
▁gr	-8.84041
as	-8.84103
▁laugh	-8.84213
▁gold	-8.84265
▁wa	-8.84481
▁dis	-8.84541
▁treat	-8.84722
▁river	-8.84739
ba	-8.84739
▁upon	-8.84793
▁decided	-8.84932
▁t	-8.84974
▁less	-8.84995
▁bat	-8.85029
▁joke	-8.85091
▁growls	-8.85274
▁missing	-8.85281
▁j	-8.85377
ted	-8.85494
▁owe	-8.85623
ary	-8.8586
▁wondering	-8.85936
▁track	-8.85991
▁fell	-8.86263
▁sad	-8.86343
▁anywhere	-8.86413
▁definitely	-8.86413
▁escape	-8.86413
▁simple	-8.86413
▁boots	-8.86435
▁po	-8.86439
▁carmen	-8.86504
▁station	-8.86558
▁thousand	-8.86568
▁egg	-8.86581
ty	-8.86582
▁dogs	-8.86781
▁bus	-8.86817
ho	-8.87216
▁mar	-8.87433
ten	-8.875
▁changed	-8.87526
men	-8.87784
pe	-8.87841
▁martin	-8.87887
▁ought	-8.88109
▁speed	-8.88111
▁mike	-8.88143
▁dirty	-8.88183
▁sword	-8.88184
▁lived	-8.883
▁husband	-8.8831
▁paper	-8.88352
rs	-8.88399
▁teach	-8.88638
▁brothers	-8.88694
▁cops	-8.88711
▁higher	-8.88854
ga	-8.88897
ian	-8.89109
▁cry	-8.89285
▁ab	-8.89499
ton	-8.89523
▁angus	-8.89832
▁swear	-8.89832
▁battle	-8.89833
▁bright	-8.8984
▁nine	-8.89934
▁band	-8.89936
ure	-8.90257
▁el	-8.90271
▁ringing	-8.90289
▁spy	-8.90312
▁locked	-8.90333
per	-8.90352
▁cost	-8.90403
am	-8.90614
▁shoes	-8.90906
by	-8.90979
▁carry	-8.91113
▁cross	-8.91201
▁dare	-8.9129
▁ohh	-8.91522
▁christ	-8.91551
▁zach	-8.9158
▁hannah	-8.91587
▁hospital	-8.91587
▁public	-8.91587
▁system	-8.91587
▁meimei	-8.91587
▁papa	-8.91587
▁truck	-8.91601
▁robin	-8.91634
▁seconds	-8.91662
▁west	-8.91671
▁horn	-8.91671
▁sitting	-8.91677
▁ii	-8.91734
▁pete	-8.91794
▁suit	-8.91818
ung	-8.91823
ac	-8.91851
▁army	-8.91922
▁knock	-8.92212
▁r	-8.92255
ard	-8.92273
▁si	-8.92424
▁lock	-8.92564
▁fu	-8.92578
▁boo	-8.92673
▁mention	-8.92848
▁allow	-8.9287
▁fr	-8.92982
▁indistinct	-8.9318
▁do	-8.93199
lo	-8.93203
▁bo	-8.93303
▁worried	-8.93373
▁yesterday	-8.93373
▁floor	-8.93373
▁dennis	-8.93373
▁besides	-8.93373
▁french	-8.93375
▁nope	-8.93384
▁action	-8.93476
▁pe	-8.93662
▁heaven	-8.93791
▁pat	-8.94038
po	-8.9404
▁cell	-8.94723
▁gus	-8.94786
▁co	-8.94804
▁realize	-8.94868
▁pro	-8.94916
sh	-8.95053
ma	-8.95165
▁accident	-8.95191
▁south	-8.95192
qu	-8.95244
▁doubt	-8.9526
▁single	-8.95336
▁tony	-8.95424
▁hole	-8.95533
▁hundred	-8.95668
▁park	-8.95679
▁folks	-8.95772
▁beer	-8.95772
▁plans	-8.96085
▁spend	-8.96399
▁normal	-8.96845
▁history	-8.97043
▁impossible	-8.97043
▁kept	-8.97043
▁zack	-8.97043
▁bridge	-8.97043
▁clever	-8.97043
▁smile	-8.97043
▁uhhuh	-8.97043
▁personal	-8.97046
side	-8.97071
▁watching	-8.97114
▁stopped	-8.97189
▁to	-8.97238
▁leo	-8.97326
▁animals	-8.97347
▁cook	-8.97356
▁mess	-8.9748
▁lay	-8.97621
▁where	-8.97811
▁trick	-8.97936
▁hill	-8.98362
ec	-8.98695
ster	-8.98701
▁glass	-8.98813
▁congratulations	-8.9893
▁crusoe	-8.9893
▁melissa	-8.9893
▁situation	-8.9893
▁whistle	-8.9893
▁film	-8.9893
▁thunder	-8.9893
▁upset	-8.9893
▁steal	-8.98931
▁forward	-8.98932
▁outta	-8.98945
▁chess	-8.98986
▁totally	-8.99036
▁mighty	-8.99106
▁walking	-8.99139
▁roy	-8.99245
▁roger	-8.99535
▁greatest	-8.99538
▁pig	-8.99609
▁base	-8.997
▁promised	-8.99884
▁be	-9.00022
▁continue	-9.00112
▁v	-9.0013
ha	-9.00153
▁build	-9.00227
▁rain	-9.00407
▁extra	-9.00594
▁horses	-9.0072
em	-9.00749
▁swim	-9.00845
▁crime	-9.00851
▁angry	-9.00852
▁private	-9.00852
▁spirit	-9.00852
▁search	-9.00853
▁legend	-9.00853
▁howd	-9.00854
▁alarm	-9.00855
▁richard	-9.00861
▁deserve	-9.00996
▁respect	-9.01227
▁tail	-9.01232
▁feed	-9.01277
▁bastard	-9.01523
▁american	-9.01629
▁consider	-9.02289
▁destroy	-9.02296
tic	-9.02362
▁quit	-9.02631
head	-9.02638
▁plane	-9.02702
▁pre	-9.02735
▁eagle	-9.02798
▁not	-9.02801
▁double	-9.02813
▁instead	-9.02813
▁kitchen	-9.02813
▁indeed	-9.02814
▁aye	-9.02816
▁mmhmm	-9.02836
▁sky	-9.02856
▁sake	-9.02856
▁todd	-9.02935
▁peter	-9.03215
▁interested	-9.03261
▁bloody	-9.03272
▁mu	-9.03334
ber	-9.03375
▁teacher	-9.03546
▁warm	-9.03806
▁z	-9.03871
▁begin	-9.03995
▁hat	-9.04331
ated	-9.04399
▁missed	-9.0462
▁court	-9.04803
▁account	-9.04813
▁sergeant	-9.04813
▁store	-9.04825
▁size	-9.04884
▁lake	-9.05007
ni	-9.05117
▁hall	-9.05262
▁arms	-9.05339
▁se	-9.05422
▁crying	-9.05548
▁pants	-9.05643
▁needed	-9.0599
▁moved	-9.06107
▁enter	-9.0623
▁agree	-9.06439
▁starting	-9.06591
▁eggs	-9.0665
▁church	-9.06844
▁wrote	-9.06854
▁club	-9.06859
▁kitty	-9.06861
▁north	-9.06868
▁position	-9.06893
▁stars	-9.06991
▁fl	-9.07115
ped	-9.07148
▁du	-9.07173
ia	-9.07178
▁gasping	-9.07182
▁prove	-9.07195
▁fighting	-9.07234
▁force	-9.07238
▁heads	-9.0724
▁talked	-9.07334
▁goin	-9.07542
▁gosh	-9.07957
ig	-9.08081
he	-9.08434
▁ju	-9.0876
▁paul	-9.08795
▁bruce	-9.08937
▁especially	-9.08937
▁soccer	-9.08937
▁spongebob	-9.08937
▁group	-9.08938
▁stories	-9.08938
▁visit	-9.08939
▁noise	-9.08944
▁brown	-9.08947
▁candy	-9.08948
▁often	-9.08951
▁meh	-9.08972
▁lying	-9.08997
▁danger	-9.09024
▁code	-9.09055
▁crash	-9.0915
▁dar	-9.09548
go	-9.09721
▁month	-9.10032
▁theyd	-9.10142
▁rule	-9.10228
ran	-9.10398
▁bother	-9.10428
▁waste	-9.10682
▁bite	-9.10957
▁brave	-9.11039
▁english	-9.11065
▁famous	-9.11065
▁lloyd	-9.11065
▁grace	-9.11065
▁washington	-9.11065
▁vegas	-9.11065
▁rangers	-9.11071
▁common	-9.11072
▁blame	-9.11078
▁tuck	-9.11101
▁betty	-9.11103
▁yep	-9.11104
▁forest	-9.11121
wa	-9.11181
▁taste	-9.114
one	-9.11508
▁farm	-9.11524
▁out	-9.11555
ally	-9.11761
▁m	-9.11805
▁huge	-9.1203
▁ln	-9.12262
▁climb	-9.12592
way	-9.12601
▁pack	-9.12671
▁fill	-9.12677
im	-9.13153
▁peace	-9.13232
▁contact	-9.13239
▁kevin	-9.13239
▁language	-9.13239
▁harper	-9.13239
▁otis	-9.13239
▁marnie	-9.13242
▁rudy	-9.13243
▁cor	-9.13255
▁fellow	-9.13263
▁paid	-9.13279
▁obviously	-9.13308
▁dying	-9.13371
▁james	-9.13419
▁lab	-9.13612
▁sam	-9.14056
▁remind	-9.14929
▁so	-9.15072
▁lee	-9.15137
ill	-9.15156
▁papers	-9.15167
▁large	-9.15326
ite	-9.15343
bo	-9.15433
▁college	-9.15461
▁committee	-9.15461
▁decision	-9.15461
▁england	-9.15461
▁rumbling	-9.15461
▁simply	-9.15461
▁wolf	-9.15461
▁bunch	-9.15461
▁nowhere	-9.15463
▁of	-9.1547
▁girlfriend	-9.15476
▁thatll	-9.15478
▁france	-9.15487
▁dave	-9.15516
▁cow	-9.15554
▁wash	-9.15562
▁fired	-9.15632
▁moon	-9.15633
ip	-9.15722
▁doin	-9.1586
▁experience	-9.15933
che	-9.15945
▁seeing	-9.16068
▁mei	-9.16401
▁rat	-9.16485
ah	-9.16559
▁interest	-9.16616
▁eating	-9.16646
▁andy	-9.16724
▁ne	-9.16866
▁arrest	-9.17214
▁no	-9.17238
line	-9.17259
▁command	-9.17262
rt	-9.17273
▁can	-9.17516
▁max	-9.17717
▁arthur	-9.17734
▁floop	-9.17734
▁ridiculous	-9.17734
▁alright	-9.17735
▁robert	-9.17737
▁stargirl	-9.17741
▁match	-9.1775
▁clothes	-9.17751
▁rogo	-9.17754
▁everywhere	-9.17755
▁snow	-9.17764
▁cake	-9.17764
▁wheel	-9.17767
▁national	-9.17782
▁spent	-9.17788
▁bond	-9.17929
▁rub	-9.18004
▁tip	-9.18062
▁tu	-9.1827
▁closer	-9.18348
▁interesting	-9.1837
▁birds	-9.18409
▁all	-9.18453
▁card	-9.18469
▁en	-9.18662
▁travel	-9.18682
▁due	-9.18895
ki	-9.18977
ay	-9.19192
▁da	-9.19388
▁pictures	-9.19478
▁accept	-9.19494
▁fail	-9.19566
cy	-9.1968
▁raise	-9.19684
▁madam	-9.19875
j	-9.2003
▁brace	-9.20054
▁driving	-9.2006
▁fahmarr	-9.2006
▁london	-9.2006
▁nicole	-9.2006
▁beginning	-9.20061
▁foster	-9.20067
▁vote	-9.20068
▁block	-9.20078
▁operation	-9.20078
▁spring	-9.20079
▁cash	-9.20094
▁ca	-9.20095
▁mommy	-9.20106
▁sight	-9.20115
▁center	-9.20148
▁fay	-9.20263
▁breaking	-9.2047
▁bu	-9.21134
we	-9.21147
▁up	-9.21255
▁keys	-9.21286
▁killing	-9.2145
▁guard	-9.21617
ai	-9.2162
▁belong	-9.21647
ey	-9.21694
▁murder	-9.21912
▁ring	-9.22037
▁bro	-9.22361
▁favor	-9.22429
▁awesome	-9.22441
▁bottom	-9.22441
▁neither	-9.22441
▁twenty	-9.22441
▁twice	-9.22441
▁silly	-9.22442
▁bigger	-9.22444
▁rabbit	-9.2245
▁maddy	-9.22469
▁merr	-9.22475
▁season	-9.22477
▁string	-9.2248
▁suck	-9.22523
▁loose	-9.22576
▁losing	-9.22646
▁file	-9.22836
▁seriously	-9.22875
▁lifting	-9.22921
▁mission	-9.2308
io	-9.23257
▁blows	-9.23432
▁breath	-9.23528
ble	-9.23565
▁passed	-9.23569
▁ted	-9.23887
▁closed	-9.24348
bl	-9.24382
▁notice	-9.24506
▁prepare	-9.24586
▁hung	-9.24644
▁ac	-9.2477
▁juni	-9.24818
▁beatrix	-9.2488
▁department	-9.2488
▁hamilton	-9.2488
▁theatre	-9.2488
▁vacation	-9.2488
▁ugly	-9.2488
▁within	-9.2488
▁dumb	-9.2488
▁program	-9.24882
▁garden	-9.24883
▁breakfast	-9.24886
▁shop	-9.249
▁type	-9.24956
▁ugh	-9.24975
▁involved	-9.2502
▁snap	-9.25032
▁corner	-9.25066
▁barn	-9.25153
▁woods	-9.2524
▁trees	-9.25693
ating	-9.25734
dy	-9.25996
▁shouts	-9.26003
▁scream	-9.26056
▁legs	-9.26167
un	-9.26236
▁com	-9.2684
▁loud	-9.26937
ach	-9.27199
ru	-9.27215
▁jj	-9.27315
va	-9.27315
▁organ	-9.27337
▁fresh	-9.27344
ize	-9.27372
▁bottle	-9.2738
▁courage	-9.2738
▁plenty	-9.2738
▁project	-9.2738
▁science	-9.2738
▁speech	-9.2738
▁jerry	-9.2738
▁devil	-9.2738
▁kingdom	-9.2738
▁desert	-9.2738
▁hadnt	-9.2738
▁biggest	-9.2738
▁crap	-9.27381
▁monty	-9.27388
▁chuckling	-9.27392
▁jill	-9.27398
▁exist	-9.27399
▁feels	-9.27422
▁mi	-9.27565
▁beeping	-9.27583
▁cup	-9.27599
▁squeaking	-9.27676
▁exclaims	-9.27678
▁tie	-9.27798
land	-9.278
▁gas	-9.27901
▁fan	-9.27992
▁breathing	-9.28034
▁opening	-9.28099
▁cl	-9.28341
▁goodness	-9.28532
▁whose	-9.28627
▁heat	-9.28746
▁pu	-9.28914
▁games	-9.2907
▁burn	-9.29309
▁named	-9.29323
what	-9.29413
▁bowl	-9.29482
▁picked	-9.29658
▁angel	-9.29684
▁prom	-9.29754
▁daniel	-9.29944
▁diamond	-9.29944
▁mitchell	-9.29944
▁possibly	-9.29944
▁support	-9.29944
▁excited	-9.29944
▁teeth	-9.29944
▁nancy	-9.29944
▁ronnie	-9.29944
▁prefer	-9.29949
▁elizabeth	-9.29951
▁patrick	-9.29951
▁panda	-9.29952
▁iron	-9.29952
▁aaah	-9.29956
▁information	-9.2996
▁color	-9.29977
▁powerful	-9.30011
▁bike	-9.30012
▁button	-9.30082
▁list	-9.30538
▁surprised	-9.30585
▁chipmunks	-9.30596
om	-9.30655
▁breathe	-9.30708
▁problems	-9.31339
▁wings	-9.31547
▁dry	-9.31601
▁should	-9.31814
ock	-9.31852
▁guest	-9.32043
red	-9.32175
▁ve	-9.32218
▁ed	-9.32258
▁mis	-9.32315
▁nervous	-9.32376
▁soft	-9.32386
▁tickets	-9.32435
▁beg	-9.32467
▁choose	-9.32575
▁difficult	-9.32575
▁fantastic	-9.32575
▁focus	-9.32575
▁upstairs	-9.32575
▁dancing	-9.32575
▁blind	-9.32576
▁price	-9.32579
▁philip	-9.32581
▁comfortable	-9.32601
▁memory	-9.32604
▁nasty	-9.32606
▁mice	-9.32609
▁drunk	-9.32611
▁partner	-9.32625
▁milk	-9.32765
▁sa	-9.32803
▁nearly	-9.32949
op	-9.33245
▁va	-9.3351
▁standing	-9.33592
os	-9.33866
▁mel	-9.34116
▁fi	-9.34116
our	-9.34542
▁shooting	-9.34629
▁bucks	-9.34643
▁gift	-9.34766
ner	-9.34807
▁honest	-9.35118
▁harm	-9.35267
▁beauty	-9.35278
▁daphne	-9.35278
▁evidence	-9.35278
▁foreign	-9.35278
▁heavy	-9.35278
▁keller	-9.35278
▁monroe	-9.35278
▁travis	-9.35278
▁byebye	-9.35278
▁remain	-9.35278
▁pardon	-9.35278
▁lawyer	-9.35282
▁property	-9.35291
▁jim	-9.35292
▁tour	-9.35329
▁thas	-9.35359
old	-9.35389
▁sold	-9.35464
▁softly	-9.35474
▁te	-9.35554
▁an	-9.35561
av	-9.35704
▁reading	-9.35769
ized	-9.36219
▁played	-9.36249
tor	-9.36394
▁gu	-9.36411
▁lf	-9.37091
▁deliver	-9.3721
▁zoo	-9.37317
▁wh	-9.37506
▁ear	-9.37544
▁helping	-9.37576
▁america	-9.3791
▁stole	-9.37911
▁village	-9.38036
▁poison	-9.38038
▁asleep	-9.38056
▁became	-9.38056
▁conversation	-9.38056
▁macavity	-9.38056
▁member	-9.38056
▁strike	-9.38056
▁theodore	-9.38056
▁crane	-9.38056
▁giant	-9.38056
▁wicked	-9.38056
▁kelly	-9.38056
▁smoke	-9.38056
▁print	-9.38057
▁jason	-9.38062
▁piggy	-9.38063
▁fancy	-9.38067
▁shake	-9.38073
▁loan	-9.38082
▁paris	-9.38088
▁clock	-9.38088
▁batman	-9.38114
▁uhoh	-9.3814
▁comin	-9.38142
▁circle	-9.38142
▁usually	-9.38166
▁whales	-9.38189
▁royal	-9.38214
▁rope	-9.38239
▁page	-9.38269
▁cole	-9.38552
▁pray	-9.38589
king	-9.38604
nce	-9.3864
und	-9.38675
▁figured	-9.38958
▁note	-9.38963
▁shed	-9.39338
▁acting	-9.39486
ail	-9.39504
▁le	-9.39687
ps	-9.39721
▁learned	-9.39822
▁players	-9.40041
▁crack	-9.40261
▁di	-9.40511
fi	-9.40635
▁nah	-9.40741
▁collect	-9.40839
▁robot	-9.40872
▁neighbor	-9.40909
▁amanda	-9.40913
▁audience	-9.40913
▁challenge	-9.40913
▁character	-9.40913
▁emergency	-9.40913
▁female	-9.40913
▁lerigot	-9.40913
▁source	-9.40913
▁telephone	-9.40913
▁terrific	-9.40913
▁violet	-9.40913
▁built	-9.40913
▁release	-9.40913
▁worst	-9.40913
▁interview	-9.40915
▁winnie	-9.40923
▁cream	-9.40923
▁toast	-9.40925
▁correct	-9.40927
▁duty	-9.40932
▁view	-9.40968
▁gate	-9.41
▁hook	-9.41055
▁flowers	-9.41156
mon	-9.41188
▁states	-9.41269
▁pie	-9.41271
▁monsters	-9.41584
▁mayor	-9.41748
▁ate	-9.41759
▁rec	-9.41768
▁feelings	-9.41913
▁songs	-9.41998
▁couldve	-9.426
▁fund	-9.42922
▁study	-9.43213
▁pan	-9.43237
▁chatter	-9.43238
the	-9.43388
▁ruin	-9.43406
▁student	-9.43609
down	-9.43647
▁flower	-9.43654
▁proper	-9.43666
back	-9.4369
▁helped	-9.43696
▁orders	-9.43735
▁bought	-9.43854
▁ocean	-9.43854
▁whether	-9.43854
▁witness	-9.43854
▁sugar	-9.43854
▁gather	-9.43854
▁jerk	-9.43855
▁charlie	-9.43856
▁judge	-9.43858
▁bathroom	-9.43858
▁cruel	-9.43864
▁apartment	-9.43879
▁immediately	-9.4388
▁pressure	-9.43883
▁incredible	-9.43883
▁market	-9.43907
▁tomatoes	-9.43917
▁dame	-9.43994
▁wave	-9.44065
▁signal	-9.44208
▁mustnt	-9.44231
▁arrived	-9.44257
▁metal	-9.4433
▁butter	-9.44489
▁destroyed	-9.44638
▁places	-9.44655
▁nuts	-9.44785
▁takes	-9.44813
▁listening	-9.44955
der	-9.45048
ng	-9.4506
▁am	-9.45135
ral	-9.45554
▁hug	-9.45569
ring	-9.45856
▁bath	-9.45907
▁clears	-9.45942
bra	-9.4595
▁sail	-9.46271
▁introduce	-9.46487
▁finger	-9.46762
▁whale	-9.46786
▁scare	-9.46795
▁discuss	-9.46809
kin	-9.4682
▁advance	-9.46884
▁brilliant	-9.46884
▁hubbell	-9.46884
▁issue	-9.46884
▁mmmhmm	-9.46884
▁whimpers	-9.46884
▁beverly	-9.46884
▁linda	-9.46884
▁reavis	-9.46884
▁stahr	-9.46884
▁switch	-9.46884
▁punch	-9.46885
▁cousin	-9.46885
▁tiger	-9.46885
▁jones	-9.46886
▁weak	-9.46886
▁danny	-9.46888
▁woodward	-9.46889
▁precious	-9.46889
▁difference	-9.46894
▁colonel	-9.46899
▁hooch	-9.46903
▁pool	-9.46906
▁touchdown	-9.46915
▁barking	-9.46916
▁jail	-9.46917
▁alien	-9.46919
▁began	-9.46933
▁bang	-9.46937
▁truly	-9.46946
▁professional	-9.4695
▁mail	-9.46957
▁pen	-9.46973
▁fingers	-9.47013
▁suddenly	-9.47017
▁ford	-9.47187
▁yall	-9.47207
▁coughing	-9.47256
▁whispering	-9.47265
pping	-9.47277
▁sub	-9.47282
▁ian	-9.47323
▁starts	-9.47505
▁turns	-9.47587
away	-9.47637
ical	-9.47689
▁doo	-9.4778
▁ex	-9.47882
▁lately	-9.47993
ley	-9.48124
ea	-9.48349
▁cos	-9.48353
ast	-9.48478
for	-9.48618
ze	-9.48739
▁wouldve	-9.48857
▁d	-9.49179
▁freak	-9.49368
▁lift	-9.49381
▁jellicles	-9.49432
▁dig	-9.49442
▁disappear	-9.49492
▁creep	-9.49702
ging	-9.49713
▁warne	-9.49762
▁suggest	-9.49934
▁pieces	-9.49945
▁lads	-9.49947
▁quarter	-9.50001
off	-9.50001
▁advice	-9.50009
▁british	-9.50009
▁genius	-9.50009
▁lieutenant	-9.50009
▁literally	-9.50009
▁majesty	-9.50009
▁randall	-9.50009
▁scoffs	-9.50009
▁squawking	-9.50009
▁turbo	-9.50009
▁universe	-9.50009
▁enemy	-9.50009
▁exciting	-9.50009
▁mostly	-9.5001
▁thomas	-9.5001
▁weekend	-9.50011
▁bedders	-9.50012
▁clue	-9.50014
▁neck	-9.50018
▁willing	-9.50022
▁crown	-9.50022
▁written	-9.50025
▁awake	-9.50025
▁filthy	-9.50034
▁positive	-9.50042
▁johnny	-9.50047
▁winner	-9.50056
▁wire	-9.50059
if	-9.50113
son	-9.50131
▁hatch	-9.50134
▁stine	-9.50135
▁oil	-9.50164
▁stolen	-9.50173
▁wet	-9.50184
unt	-9.50243
▁showed	-9.50252
▁whatd	-9.50279
fe	-9.50385
▁noticed	-9.50503
▁reporter	-9.5051
▁prisoner	-9.50558
▁x	-9.50593
▁sla	-9.50596
▁pet	-9.50648
▁aim	-9.50759
ial	-9.50971
▁stage	-9.51146
▁uhh	-9.51244
▁tall	-9.51596
▁expecting	-9.51625
▁cur	-9.51702
▁falling	-9.51791
▁kinda	-9.51842
▁turning	-9.52117
use	-9.52324
▁san	-9.52365
▁staying	-9.52636
▁complete	-9.52646
ny	-9.52819
▁settle	-9.52851
▁me	-9.5303
▁bow	-9.53225
▁attempt	-9.53235
▁energy	-9.53235
▁haldeman	-9.53235
▁license	-9.53235
▁pocket	-9.53235
▁regret	-9.53235
▁restaurant	-9.53235
▁sacrifice	-9.53235
▁writing	-9.53235
▁local	-9.53235
▁score	-9.53235
▁gross	-9.53236
▁someday	-9.53237
▁photo	-9.53241
▁movies	-9.53245
▁inspector	-9.53246
▁blart	-9.53247
▁heck	-9.53248
▁tommy	-9.53251
▁aboard	-9.53257
▁dump	-9.53261
▁laughter	-9.53279
▁crew	-9.5328
▁dropped	-9.53282
▁shame	-9.53282
▁maid	-9.53289
▁direction	-9.53296
▁secretary	-9.53302
▁herring	-9.53454
▁honestly	-9.53464
▁invited	-9.53509
▁doors	-9.53714
▁ears	-9.53732
▁comp	-9.53852
▁wally	-9.53965
▁keeps	-9.54093
ka	-9.54115
▁rings	-9.54383
▁older	-9.54421
▁it	-9.54544
▁fur	-9.54783
▁rules	-9.5484
▁flying	-9.54965
▁u	-9.54993
▁fellas	-9.5509
▁keeping	-9.55169
▁lad	-9.55445
▁gods	-9.55757
▁port	-9.559
▁prison	-9.55988
▁serve	-9.56173
▁decide	-9.56189
▁fletch	-9.56326
▁natural	-9.56368
▁total	-9.56379
▁hanging	-9.56448
ight	-9.56462
▁bust	-9.56499
▁self	-9.56549
▁alphonse	-9.56568
▁applause	-9.56568
▁appointment	-9.56568
▁eleanor	-9.56568
▁sweetheart	-9.56568
▁austin	-9.56569
▁steiner	-9.56569
▁address	-9.56569
▁cloud	-9.56569
▁costume	-9.56569
▁novel	-9.56569
▁tongue	-9.5657
▁jenning	-9.56571
▁apologize	-9.56573
▁norman	-9.56578
▁yellow	-9.56579
▁talent	-9.56584
▁trade	-9.56585
▁boyfriend	-9.56599
▁baker	-9.56612
▁hut	-9.56625
▁castle	-9.56637
▁solo	-9.56644
▁lars	-9.5668
▁row	-9.56746
▁ticket	-9.56747
▁completely	-9.56767
▁brains	-9.56836
▁students	-9.56847
▁ann	-9.56977
▁wood	-9.5702
▁wee	-9.57053
▁skin	-9.57106
▁disappeared	-9.57124
▁rent	-9.5715
▁tub	-9.57213
▁prepared	-9.57264
di	-9.57287
▁main	-9.5751
▁bligh	-9.57851
aw	-9.58031
▁opens	-9.58091
▁bull	-9.58191
▁announce	-9.58337
▁toy	-9.58422
▁yells	-9.58466
▁fe	-9.58481
▁training	-9.58577
lic	-9.58628
▁liked	-9.58709
▁harder	-9.58718
▁su	-9.5907
▁following	-9.59222
▁event	-9.59271
▁bl	-9.59462
pp	-9.59531
▁par	-9.59682
▁health	-9.59722
art	-9.59896
▁andre	-9.59922
▁champ	-9.59944
▁perform	-9.59999
▁clarence	-9.60017
▁condition	-9.60017
▁current	-9.60017
▁easier	-9.60017
▁exhales	-9.60017
▁holmes	-9.60017
▁however	-9.60017
▁insane	-9.60017
▁justice	-9.60017
▁merlin	-9.60017
▁pizza	-9.60017
▁purpose	-9.60017
▁social	-9.60017
▁stomach	-9.60017
▁tiktok	-9.60017
▁stretch	-9.60017
▁mystery	-9.60017
▁candle	-9.60017
▁tower	-9.60017
▁refuse	-9.60017
▁grave	-9.60017
▁lonely	-9.60017
▁priest	-9.6002
▁steel	-9.60023
▁gum	-9.60023
▁penny	-9.60026
▁desk	-9.60033
▁sever	-9.60036
▁defense	-9.60041
▁bread	-9.60043
▁soup	-9.60054
▁daffy	-9.60054
▁hiding	-9.6006
▁add	-9.60064
▁emily	-9.60065
▁stink	-9.60066
▁beast	-9.60074
▁assure	-9.60079
▁jacket	-9.60087
▁disgusting	-9.60117
▁sale	-9.60129
▁prize	-9.60132
▁manager	-9.60156
▁african	-9.60157
▁fourth	-9.60213
▁belt	-9.60219
▁fletcher	-9.60268
▁charming	-9.60301
▁joy	-9.60418
hh	-9.60464
▁ad	-9.60477
▁paint	-9.60513
▁trap	-9.60765
▁shoulder	-9.61002
▁para	-9.61037
wee	-9.61589
▁sooner	-9.61631
▁bi	-9.61636
ou	-9.61653
▁denys	-9.61855
▁loves	-9.61919
den	-9.62108
▁calls	-9.62115
▁don	-9.62374
ake	-9.62429
▁al	-9.62557
ina	-9.62667
ming	-9.62698
▁tires	-9.63147
ub	-9.63265
▁africa	-9.63443
▁ld	-9.63544
▁confirm	-9.63556
▁bernard	-9.63588
▁curious	-9.63588
▁delicious	-9.63588
▁giggles	-9.63588
▁guitar	-9.63588
▁journey	-9.63588
▁knife	-9.63588
▁marriage	-9.63588
▁opinion	-9.63588
▁spanish	-9.63588
▁species	-9.63588
▁strength	-9.63588
▁studio	-9.63588
▁empty	-9.63588
▁split	-9.63588
▁assistant	-9.63594
▁spread	-9.636
▁trash	-9.63602
▁coast	-9.63605
▁thumb	-9.63614
▁nature	-9.63615
▁forgotten	-9.63626
▁katie	-9.63626
▁babe	-9.63633
▁necessary	-9.63638
▁spit	-9.63681
▁freeze	-9.63684
▁sha	-9.63698
▁ella	-9.63709
▁flat	-9.63713
▁shape	-9.63718
▁coat	-9.63722
▁manage	-9.63727
▁sand	-9.63779
▁je	-9.63805
▁under	-9.63918
ier	-9.63943
▁plus	-9.63964
▁witches	-9.6397
▁yard	-9.63974
▁les	-9.63993
▁ghost	-9.64002
▁richie	-9.64107
▁dads	-9.64119
zz	-9.64192
▁notes	-9.64262
cr	-9.64326
▁din	-9.64372
▁letting	-9.64461
▁gee	-9.6448
▁zoot	-9.64554
▁allowed	-9.64652
▁pee	-9.6475
▁chase	-9.64789
▁elm	-9.64861
▁surely	-9.64889
▁dressed	-9.65129
ham	-9.65201
▁lies	-9.65393
ism	-9.65485
▁app	-9.65865
▁ski	-9.65904
▁bringing	-9.65915
unk	-9.65941
ther	-9.66035
▁pigs	-9.66081
▁pretend	-9.66638
▁screw	-9.66767
▁faith	-9.66783
tain	-9.67029
ship	-9.67031
ice	-9.6709
uck	-9.67092
james	-9.67095
house	-9.6711
▁odd	-9.67153
▁hum	-9.67215
▁electric	-9.6726
▁apart	-9.67267
▁neighbour	-9.67288
▁chocolate	-9.67292
▁dracula	-9.67292
▁scientist	-9.67292
▁ingrid	-9.67292
▁section	-9.67292
▁shirt	-9.67292
▁credit	-9.67292
▁taught	-9.67292
▁fbi	-9.67292
▁nerve	-9.67293
▁desperate	-9.67294
▁referee	-9.67298
▁swimming	-9.67306
▁sunday	-9.67311
▁georgia	-9.67312
▁viva	-9.67316
▁loving	-9.67318
▁dick	-9.67318
▁shock	-9.67321
▁model	-9.67328
▁fake	-9.67329
▁marshal	-9.67334
▁stock	-9.67355
▁gim	-9.67358
▁director	-9.67363
▁champion	-9.67364
▁cast	-9.67388
▁mum	-9.67471
▁weight	-9.67473
▁actor	-9.67527
▁pea	-9.6754
▁german	-9.67562
▁bug	-9.67563
▁hoping	-9.67712
▁creature	-9.67853
▁jan	-9.6787
▁ruined	-9.67952
▁copy	-9.68135
▁mile	-9.68179
▁perfectly	-9.6821
ving	-9.68299
▁meaning	-9.68404
cks	-9.68458
day	-9.68483
▁plant	-9.68553
of	-9.68602
▁cu	-9.6862
ink	-9.68673
gie	-9.68715
▁sports	-9.68757
▁au	-9.68822
teen	-9.68949
▁ver	-9.69734
▁jam	-9.69783
▁rose	-9.69836
gen	-9.70115
▁nights	-9.70283
▁pounds	-9.703
▁fathers	-9.70336
▁for	-9.70462
▁creatures	-9.70558
▁stops	-9.70586
▁design	-9.70618
ise	-9.70666
jo	-9.70714
▁lion	-9.70819
▁direct	-9.7082
▁survive	-9.70897
▁las	-9.70899
▁julie	-9.70995
▁pi	-9.71062
▁chuck	-9.71072
▁europe	-9.71093
▁slip	-9.7111
▁anthony	-9.71138
▁apparently	-9.71138
▁bernstein	-9.71138
▁beyond	-9.71138
▁cackling	-9.71138
▁crawl	-9.71138
▁jealous	-9.71138
▁league	-9.71138
▁research	-9.71138
▁scolex	-9.71138
▁bookshop	-9.71138
▁jeez	-9.71138
▁launch	-9.71138
▁sarah	-9.71138
▁video	-9.71138
▁defeat	-9.71138
▁palace	-9.71138
▁snail	-9.71138
▁aware	-9.71138
▁toilet	-9.71138
▁roaring	-9.71139
▁chanting	-9.71139
▁sponge	-9.71139
▁chain	-9.7114
▁underwater	-9.7114
▁louis	-9.71141
▁horrible	-9.71141
▁grandpa	-9.71143
▁admit	-9.71143
▁buried	-9.71144
▁niki	-9.71148
▁uhuh	-9.71151
▁barney	-9.71155
▁roof	-9.71157
▁fever	-9.71158
▁sloan	-9.71158
▁zone	-9.71162
▁russian	-9.7117
▁sharp	-9.71171
▁unbelievable	-9.71177
▁script	-9.71182
▁blah	-9.71184
▁crush	-9.71187
▁carol	-9.71187
▁inter	-9.71226
▁square	-9.71226
▁factory	-9.71228
▁wise	-9.71248
▁mortal	-9.71255
▁toby	-9.71255
▁rosen	-9.71293
▁marion	-9.71307
▁scary	-9.71385
▁gasp	-9.71403
▁coin	-9.71485
vis	-9.71621
▁putting	-9.71696
▁native	-9.71832
▁lance	-9.71837
▁agreed	-9.71871
▁sometime	-9.71895
▁agent	-9.71897
▁sisters	-9.71919
▁failed	-9.72006
▁realized	-9.72083
▁path	-9.72163
▁leader	-9.72253
▁adventure	-9.72531
▁skip	-9.72702
▁cars	-9.72769
▁at	-9.72835
ett	-9.72866
▁ai	-9.73013
▁mor	-9.73171
▁tan	-9.73186
▁fa	-9.73344
▁officers	-9.73417
▁ls	-9.73438
ile	-9.73474
act	-9.73546
▁ends	-9.73704
boo	-9.73812
▁pot	-9.73885
▁ni	-9.73993
▁che	-9.74189
your	-9.74291
▁warn	-9.74412
▁rum	-9.7451
▁lions	-9.74557
▁bur	-9.74706
▁east	-9.74887
▁success	-9.74903
ste	-9.74973
▁bel	-9.7501
▁shower	-9.75058
▁develop	-9.75106
▁eric	-9.75136
▁alpha	-9.75136
▁bravo	-9.75138
▁community	-9.75138
▁emerald	-9.75138
▁giggling	-9.75138
▁headquarters	-9.75138
▁intelligent	-9.75138
▁jacob	-9.75138
▁mammoth	-9.75138
▁miracle	-9.75138
▁newspaper	-9.75138
▁nonsense	-9.75138
▁proctor	-9.75138
▁sandwich	-9.75138
▁shaolin	-9.75138
▁whimpering	-9.75138
▁william	-9.75138
▁nightmare	-9.75138
▁freedom	-9.75138
▁limit	-9.75139
▁onto	-9.75139
▁brand	-9.75139
▁miami	-9.75141
▁repeat	-9.75142
▁style	-9.75144
▁bedroom	-9.75163
▁flight	-9.7517
▁trail	-9.75175
▁rush	-9.75184
▁handsome	-9.75199
▁minion	-9.75203
▁shine	-9.75217
▁fearless	-9.75218
▁worm	-9.75224
▁bess	-9.75389
▁sweetie	-9.75413
▁sandy	-9.75495
▁hood	-9.75511
▁picking	-9.75513
▁male	-9.75575
▁warning	-9.75784
▁knight	-9.75979
▁criminal	-9.75992
▁plate	-9.75992
▁pound	-9.76038
▁buck	-9.76057
▁dollar	-9.76085
▁cap	-9.7631
com	-9.76337
▁dep	-9.76396
▁guns	-9.7679
▁del	-9.76796
▁rats	-9.76988
▁checking	-9.77055
▁kit	-9.77446
▁growing	-9.77479
▁dec	-9.77743
▁net	-9.77749
▁streets	-9.7799
▁cre	-9.77999
▁bugs	-9.78656
▁ri	-9.78681
▁germans	-9.7869
pi	-9.78823
▁load	-9.78894
phone	-9.7911
wood	-9.7912
▁sneak	-9.79235
▁gettin	-9.79253
▁campaign	-9.79305
▁champagne	-9.79305
▁dixon	-9.79305
▁emoji	-9.79305
▁equipment	-9.79305
▁explosion	-9.79305
▁felix	-9.79305
▁hollywood	-9.79305
▁instrument	-9.79305
▁magazine	-9.79305
▁nixon	-9.79305
▁saturday	-9.79305
▁scratch	-9.79305
▁sheriff	-9.79305
▁shrieking	-9.79305
▁snoring	-9.79305
▁stanwyk	-9.79305
▁value	-9.79305
▁interrupt	-9.79305
▁target	-9.79305
▁nurse	-9.79305
▁spider	-9.79305
▁grew	-9.79305
▁held	-9.79306
▁charles	-9.79307
▁fryer	-9.79307
▁flood	-9.79308
▁acres	-9.79308
▁ericka	-9.79313
▁piano	-9.79313
▁detective	-9.79317
▁gang	-9.79318
▁dj	-9.79321
▁gentleman	-9.79325
▁bride	-9.79341
▁coward	-9.79342
▁nickel	-9.79345
▁commandant	-9.7935
▁safety	-9.79383
▁ob	-9.79394
▁guilty	-9.79402
▁exclaiming	-9.79403
▁jesse	-9.79405
▁pink	-9.79419
▁meal	-9.79435
▁original	-9.79445
▁doll	-9.79459
▁frightened	-9.79495
▁sniffing	-9.79514
▁ja	-9.79568
▁pin	-9.79679
ium	-9.79689
▁perro	-9.79752
▁ended	-9.79758
▁horner	-9.79887
▁slowly	-9.80005
hu	-9.80094
▁guests	-9.80235
▁fairy	-9.80237
▁jd	-9.80306
▁mid	-9.80469
▁ge	-9.80532
▁oi	-9.80674
▁mon	-9.80684
ball	-9.80728
▁carrying	-9.80847
▁panic	-9.8093
▁fore	-9.80947
▁expected	-9.8109
▁jo	-9.81301
▁blowing	-9.81343
her	-9.81409
ark	-9.81513
▁daughters	-9.81847
▁talkin	-9.82234
ties	-9.82585
▁falls	-9.82927
▁suffer	-9.82999
▁float	-9.82999
▁sy	-9.83006
▁ghosts	-9.8315
▁sweat	-9.83197
▁thousands	-9.83246
▁schedule	-9.83268
▁sudden	-9.83462
▁spoke	-9.83506
▁express	-9.83577
▁airport	-9.83652
▁borrow	-9.83652
▁california	-9.83652
▁centipede	-9.83652
▁ceremony	-9.83652
▁complex	-9.83652
▁destiny	-9.83652
▁grandfather	-9.83652
▁innocent	-9.83652
▁insurance	-9.83652
▁jeanluc	-9.83652
▁sefton	-9.83652
▁whoever	-9.83652
▁changing	-9.83653
▁slappy	-9.83653
▁dawn	-9.83653
▁romantic	-9.83653
▁thief	-9.83653
▁smash	-9.83653
▁lassard	-9.83653
▁spell	-9.83654
▁extreme	-9.83654
▁whooping	-9.83655
▁storm	-9.83655
▁pirate	-9.83657
▁feather	-9.8366
▁kidnapped	-9.8366
▁junk	-9.8367
▁guardian	-9.83679
▁dragon	-9.8369
▁rome	-9.83727
▁nick	-9.8373
▁seats	-9.83757
▁pawn	-9.8376
▁drac	-9.83778
▁madeline	-9.83839
▁hon	-9.8386
▁discovered	-9.83873
▁blast	-9.83874
▁created	-9.83948
▁lo	-9.83968
▁drown	-9.83987
▁ideas	-9.83989
▁everybodys	-9.84071
▁deck	-9.84159
▁gotcha	-9.84183
▁laser	-9.84192
▁grown	-9.84226
ied	-9.84337
▁belle	-9.84463
▁fo	-9.84549
▁arrested	-9.84666
▁hire	-9.84679
▁magical	-9.84723
▁mc	-9.84751
▁troops	-9.84921
▁crashing	-9.84992
▁lesson	-9.85069
▁ce	-9.85136
▁cares	-9.8528
▁loser	-9.85758
▁ordered	-9.85803
▁there	-9.85855
▁pipe	-9.85952
▁headed	-9.85972
▁lookin	-9.85982
▁bon	-9.86043
▁vampires	-9.86144
▁seemed	-9.86178
▁non	-9.86234
▁friendly	-9.86283
▁coughs	-9.86466
umble	-9.86467
▁mil	-9.86743
ible	-9.86795
ong	-9.86845
▁und	-9.87121
▁lots	-9.87423
▁using	-9.87488
▁grant	-9.87728
ja	-9.87803
▁invite	-9.87823
▁doc	-9.88001
▁seek	-9.88135
▁among	-9.88147
▁finding	-9.88147
▁joseph	-9.88175
▁term	-9.88195
▁banana	-9.88198
▁bunny	-9.88198
▁device	-9.88198
▁disturb	-9.88198
▁familiar	-9.88198
▁florence	-9.88198
▁fortune	-9.88198
▁fought	-9.88198
▁garbage	-9.88198
▁gorilla	-9.88198
▁incident	-9.88198
▁opportunity	-9.88198
▁principal	-9.88198
▁scarecrow	-9.88198
▁swarm	-9.88198
▁thursday	-9.88198
▁ultimate	-9.88198
▁access	-9.88198
▁defend	-9.88198
▁mercy	-9.88198
▁patient	-9.88198
▁recently	-9.88198
▁throne	-9.88198
▁watergate	-9.88198
▁expert	-9.88198
▁alert	-9.88199
▁equal	-9.88199
▁demand	-9.88199
▁weather	-9.88204
▁formula	-9.88205
▁suspect	-9.88209
▁contract	-9.88212
▁hissing	-9.88214
▁moves	-9.88217
▁adam	-9.88218
▁billina	-9.88227
▁precisely	-9.88256
▁flush	-9.88258
▁chew	-9.88267
▁basement	-9.88275
▁therell	-9.88277
▁tune	-9.88303
▁phil	-9.8831
▁screeching	-9.88332
▁heavily	-9.88346
▁according	-9.88362
▁lines	-9.88414
pro	-9.88478
▁who	-9.88494
▁dust	-9.88523
▁bri	-9.88571
▁received	-9.88609
▁sleeping	-9.88662
▁indistinctly	-9.88696
ov	-9.88716
mer	-9.88736
▁settled	-9.88746
▁deeply	-9.88805
▁designed	-9.88818
▁ranch	-9.88853
▁cheat	-9.88854
▁busted	-9.88961
▁painting	-9.89115
hoo	-9.89219
▁burning	-9.89343
▁char	-9.89775
▁knocking	-9.89865
tan	-9.89906
▁muppets	-9.90014
ath	-9.90017
▁worlds	-9.90118
▁tale	-9.90213
▁reports	-9.90299
▁cards	-9.90308
▁rev	-9.90326
▁pr	-9.90364
▁chi	-9.90449
▁bea	-9.90495
▁windows	-9.90839
▁the	-9.90879
▁cal	-9.9099
▁followed	-9.91204
▁maya	-9.91338
▁den	-9.91358
cro	-9.91397
▁ap	-9.9161
▁holding	-9.91635
▁scar	-9.91705
▁image	-9.91792
▁heavens	-9.91887
▁ms	-9.92111
▁pulled	-9.92256
▁or	-9.92324
▁concern	-9.92433
▁doctors	-9.92537
▁pl	-9.92611
let	-9.92636
ade	-9.92735
▁usual	-9.92773
book	-9.92864
▁somethin	-9.92869
▁nothin	-9.92869
▁connect	-9.92885
▁cigar	-9.92956
▁advantage	-9.9296
▁afford	-9.9296
▁behave	-9.9296
▁bradford	-9.9296
▁brundish	-9.9296
▁coconut	-9.9296
▁communist	-9.9296
▁effort	-9.9296
▁fabulous	-9.9296
▁frankenstein	-9.9296
▁guarantee	-9.9296
▁harris	-9.9296
▁helicopter	-9.9296
▁intelligence	-9.9296
▁library	-9.9296
▁lizzie	-9.9296
▁michael	-9.9296
▁military	-9.9296
▁monitor	-9.9296
▁museum	-9.9296
▁ordinary	-9.9296
▁pamela	-9.9296
▁pancake	-9.9296
▁penguin	-9.9296
▁screen	-9.9296
▁somehow	-9.9296
▁temple	-9.9296
▁wreck	-9.9296
▁claim	-9.9296
▁disguise	-9.9296
▁dozen	-9.9296
▁policy	-9.9296
▁process	-9.9296
▁threw	-9.9296
▁duke	-9.9296
▁larue	-9.9296
▁motion	-9.9296
▁drew	-9.92961
▁gadgetmobile	-9.92963
▁liar	-9.92963
▁insist	-9.92966
▁planning	-9.92966
▁clang	-9.92967
▁saving	-9.92973
▁garage	-9.92975
▁mavis	-9.92979
▁bonnet	-9.92984
▁text	-9.92985
▁purse	-9.92985
▁simon	-9.92985
▁bullet	-9.92995
▁jean	-9.93013
▁meat	-9.93014
▁flash	-9.93014
▁china	-9.9302
▁maria	-9.93021
▁commissioner	-9.93093
▁squad	-9.9312
▁wrap	-9.93133
▁drum	-9.93158
▁letters	-9.93167
▁cage	-9.93167
▁spies	-9.93177
▁tiny	-9.93205
▁ahhh	-9.93258
▁rob	-9.93312
▁answers	-9.93432
▁buzzing	-9.93444
stone	-9.93464
mu	-9.93494
▁painful	-9.93599
▁hired	-9.9364
well	-9.93762
▁grunt	-9.94094
▁numbers	-9.9419
ily	-9.94195
▁nobodys	-9.94212
▁locker	-9.94324
▁owls	-9.94371
▁wine	-9.94424
▁wil	-9.94536
▁belongs	-9.94593
▁boom	-9.9461
▁millions	-9.94681
▁gloves	-9.947
▁drugs	-9.94708
▁rams	-9.94745
▁solve	-9.94799
iest	-9.94837
▁cure	-9.95067
▁mothers	-9.95284
▁gen	-9.95295
gged	-9.95389
ank	-9.95424
▁cheers	-9.95459
▁driver	-9.95489
gy	-9.95507
▁wha	-9.9551
▁tears	-9.95567
just	-9.95646
▁wondered	-9.95898
▁begins	-9.95984
▁rap	-9.96319
▁chas	-9.96465
▁tape	-9.96566
but	-9.96787
▁touching	-9.96826
ward	-9.97041
▁arrive	-9.97272
ron	-9.97274
▁whisper	-9.97329
▁loyal	-9.97489
▁walked	-9.97533
▁recognize	-9.97559
▁require	-9.97562
ugh	-9.97663
▁frogs	-9.97836
▁gal	-9.97861
▁cooper	-9.97903
▁object	-9.97938
▁affect	-9.9796
▁affair	-9.9796
▁bullshit	-9.9796
▁citizen	-9.9796
▁concert	-9.9796
▁elevator	-9.9796
▁flintstone	-9.9796
▁florida	-9.9796
▁grandmother	-9.9796
▁potential	-9.9796
▁ritual	-9.9796
▁routine	-9.9796
▁simmons	-9.9796
▁society	-9.9796
▁squawks	-9.9796
▁subject	-9.9796
▁surrender	-9.9796
▁transform	-9.9796
▁trevor	-9.9796
▁twelve	-9.9796
▁upbeat	-9.9796
▁whirring	-9.9796
▁zaphod	-9.9796
▁attend	-9.9796
▁distance	-9.9796
▁illegal	-9.9796
▁nerak	-9.9796
▁period	-9.9796
▁wryn	-9.9796
▁false	-9.9796
▁level	-9.9796
▁shift	-9.9796
▁arena	-9.9796
▁hidden	-9.97961
▁blew	-9.97961
▁steam	-9.97961
▁saint	-9.97961
▁medal	-9.97962
▁morris	-9.97963
▁lisa	-9.97963
▁chubby	-9.97965
▁claw	-9.97965
▁guide	-9.97966
▁supper	-9.97966
▁swing	-9.97966
▁martian	-9.97968
▁steer	-9.97969
▁journalist	-9.97973
▁publish	-9.97976
▁imagination	-9.97976
▁otto	-9.97976
▁sunny	-9.97992
▁dramatic	-9.98025
▁bound	-9.98081
▁collection	-9.98091
▁piss	-9.98099
▁march	-9.98122
▁spoken	-9.98129
▁leaves	-9.98132
▁nation	-9.98136
▁chill	-9.98145
▁records	-9.9817
car	-9.98211
▁angelo	-9.98239
▁ash	-9.98256
▁link	-9.98315
▁dean	-9.98353
▁slave	-9.98363
▁raised	-9.98806
▁mood	-9.9882
▁stronger	-9.98898
▁gifts	-9.98925
▁fate	-9.98992
▁tend	-9.99218
▁fin	-9.99229
▁sniffs	-9.99274
▁cough	-9.99292
▁fans	-9.99371
urg	-9.99448
▁lied	-9.9955
▁stayed	-9.99568
▁we	-9.99766
▁guards	-9.99786
▁zing	-9.99798
▁shoe	-9.99961
▁hunting	-10.0005
▁loss	-10.0041
▁bone	-10.0043
▁stranger	-10.0048
▁appears	-10.0051
▁assume	-10.0054
▁inf	-10.0083
▁deadly	-10.0095
ame	-10.0097
▁gale	-10.0106
▁forces	-10.0126
▁touched	-10.0128
zing	-10.0133
▁bones	-10.0133
▁ton	-10.015
▁hundreds	-10.0187
que	-10.0189
▁horns	-10.0224
▁bless	-10.0236
▁legal	-10.0248
doo	-10.025
▁sending	-10.0252
▁squeak	-10.0259
▁smells	-10.026
▁moo	-10.0265
▁sis	-10.0298
▁particular	-10.0303
oh	-10.0303
▁qui	-10.0303
my	-10.0309
▁tomato	-10.0311
mit	-10.0315
▁wing	-10.0319
▁germ	-10.0322
▁represent	-10.0322
▁japan	-10.0322
▁baudelaire	-10.0322
▁brush	-10.0322
▁buffalo	-10.0322
▁caxton	-10.0322
▁circumstances	-10.0322
▁cortez	-10.0322
▁enormous	-10.0322
▁explanation	-10.0322
▁families	-10.0322
▁fidgit	-10.0322
▁gardner	-10.0322
▁glinda	-10.0322
▁government	-10.0322
▁kansas	-10.0322
▁lorraine	-10.0322
▁mirror	-10.0322
▁otherwise	-10.0322
▁parrish	-10.0322
▁photograph	-10.0322
▁reelect	-10.0322
▁ruettiger	-10.0322
▁satellite	-10.0322
▁silence	-10.0322
▁tragedy	-10.0322
▁tunnel	-10.0322
▁vehicle	-10.0322
▁whistling	-10.0322
▁confess	-10.0322
▁dominic	-10.0322
▁fifth	-10.0322
▁utah	-10.0322
▁fetch	-10.0322
▁krab	-10.0322
▁regard	-10.0322
▁eddie	-10.0322
▁theater	-10.0322
▁plain	-10.0322
▁zero	-10.0322
▁goodnight	-10.0322
▁philsie	-10.0322
▁lunna	-10.0323
▁surface	-10.0323
▁dashwood	-10.0323
▁cancel	-10.0323
▁border	-10.0323
▁planned	-10.0323
▁winning	-10.0323
▁roars	-10.0323
▁accent	-10.0323
▁kitka	-10.0323
▁sid	-10.0323
▁wide	-10.0323
▁rotten	-10.0323
▁honking	-10.0323
▁attractive	-10.0324
▁lewis	-10.0324
▁ohara	-10.0324
▁peterson	-10.0325
▁spare	-10.0325
▁chair	-10.0326
▁wig	-10.0327
▁wherever	-10.0327
▁shark	-10.0328
▁dork	-10.0329
▁stake	-10.0329
▁pair	-10.033
▁johnson	-10.0331
▁unfortunately	-10.0333
▁bobby	-10.0334
▁tolly	-10.0335
▁missile	-10.0335
▁cave	-10.0336
▁qua	-10.0338
▁es	-10.0352
▁gar	-10.0359
▁cable	-10.0361
▁bush	-10.0363
▁customer	-10.037
▁pier	-10.0384
▁noon	-10.0398
rate	-10.0403
▁eaten	-10.0418
▁arch	-10.0419
▁checked	-10.0433
▁carefully	-10.0438
▁jet	-10.0443
▁packed	-10.0452
▁wayne	-10.0454
▁curse	-10.0473
▁clearly	-10.0477
▁knocked	-10.0482
▁wishes	-10.0485
▁observe	-10.0497
eau	-10.0498
▁rep	-10.0498
▁ye	-10.0499
▁highly	-10.0513
za	-10.0523
▁ming	-10.0538
▁jane	-10.0549
▁parent	-10.0557
▁fully	-10.0568
▁covered	-10.0587
its	-10.062
▁writers	-10.0639
▁signed	-10.0639
▁strangers	-10.0672
▁counting	-10.0673
ello	-10.0681
▁drivers	-10.0695
▁rogers	-10.0698
▁whi	-10.0709
▁landing	-10.0742
igh	-10.0743
▁agents	-10.0778
▁faces	-10.0787
▁spin	-10.0801
fish	-10.0805
▁approach	-10.0814
ify	-10.082
▁request	-10.0824
▁aha	-10.0843
▁thin	-10.0843
room	-10.0848
▁heal	-10.0861
▁col	-10.0873
▁resist	-10.0877
▁adorable	-10.0878
▁arrival	-10.0878
▁aylwood	-10.0878
▁bruno	-10.0878
▁clemson	-10.0878
▁daxiat	-10.0878
▁disease	-10.0878
▁division	-10.0878
▁gregorio	-10.0878
▁malfunction	-10.0878
▁maligore	-10.0878
▁professor	-10.0878
▁reputation	-10.0878
▁responsibility	-10.0878
▁result	-10.0878
▁rodrick	-10.0878
▁smooth	-10.0878
▁traffic	-10.0878
▁victim	-10.0878
▁vincent	-10.0878
▁adult	-10.0878
▁creaking	-10.0878
▁celia	-10.0878
▁material	-10.0878
▁daisy	-10.0878
▁succeed	-10.0878
▁squidward	-10.0878
▁betray	-10.0878
▁anger	-10.0878
▁moaning	-10.0878
▁scholarship	-10.0878
▁urgent	-10.0878
▁dummy	-10.0878
▁hayden	-10.0879
▁option	-10.0879
▁colson	-10.0879
▁jimmy	-10.0879
▁curtain	-10.0879
▁humming	-10.0879
▁assignment	-10.0879
▁orange	-10.0879
▁chapter	-10.0879
▁greetings	-10.0879
▁jewish	-10.0879
▁rough	-10.088
▁capture	-10.088
▁cube	-10.088
▁secure	-10.088
▁churchill	-10.0881
▁alice	-10.0881
▁roast	-10.0881
▁poop	-10.0882
▁wore	-10.0882
▁corps	-10.0882
▁loch	-10.0883
▁edge	-10.0883
▁rare	-10.0883
ities	-10.0884
▁proof	-10.0885
▁merely	-10.0886
▁complicated	-10.0887
▁skull	-10.0889
▁darkness	-10.0889
▁artist	-10.089
bag	-10.0891
▁winter	-10.0895
▁career	-10.0898
▁dom	-10.09
▁ka	-10.0903
▁hitting	-10.0906
▁setting	-10.0907
▁reverse	-10.0911
▁mass	-10.0916
▁useless	-10.0917
▁rear	-10.0925
▁chopper	-10.0925
▁pity	-10.0925
bar	-10.0928
▁bully	-10.0929
▁creepy	-10.0933
▁latest	-10.0941
▁hop	-10.0967
▁bay	-10.0972
▁paying	-10.0987
▁burned	-10.0994
bble	-10.0995
▁hurts	-10.1002
▁concentrate	-10.1013
▁messed	-10.1038
▁guts	-10.1043
▁fla	-10.1051
▁towards	-10.1063
loo	-10.1066
han	-10.107
▁counter	-10.1074
▁yell	-10.1082
▁knees	-10.1083
▁pills	-10.1122
▁snake	-10.1133
▁vampire	-10.1136
▁tryin	-10.1162
▁fella	-10.1192
▁occasion	-10.1198
▁diet	-10.1209
▁writer	-10.1245
▁fishing	-10.1248
light	-10.1248
▁watched	-10.1277
▁rocks	-10.1297
▁caused	-10.1306
▁site	-10.1311
▁nu	-10.1316
put	-10.1331
ked	-10.1378
▁nail	-10.1408
▁convince	-10.1427
▁create	-10.1431
▁helen	-10.1445
board	-10.1446
field	-10.1446
▁heavi	-10.1447
▁obvious	-10.1447
like	-10.145
▁australia	-10.1451
ably	-10.1455
q	-10.1458
▁dive	-10.1458
▁cabin	-10.1464
▁powers	-10.1465
▁whee	-10.1465
▁amount	-10.1466
▁april	-10.1466
▁aquitaine	-10.1466
▁attorney	-10.1466
▁benefit	-10.1466
▁chamber	-10.1466
▁cinderella	-10.1466
▁deuteronomy	-10.1466
▁eclipse	-10.1466
▁footsteps	-10.1466
▁galaxy	-10.1466
▁include	-10.1466
▁international	-10.1466
▁jonathan	-10.1466
▁kaycee	-10.1466
▁mechanic	-10.1466
▁midnight	-10.1466
▁offense	-10.1466
▁permission	-10.1466
▁political	-10.1466
▁quentin	-10.1466
▁rhino	-10.1466
▁rudolph	-10.1466
▁schnitzel	-10.1466
▁tinkles	-10.1466
▁trigger	-10.1466
▁ashamed	-10.1466
▁bernie	-10.1466
▁honeymoon	-10.1466
▁houston	-10.1466
▁insult	-10.1466
▁jungle	-10.1466
▁senior	-10.1466
▁separate	-10.1466
▁shatter	-10.1466
▁valley	-10.1466
▁article	-10.1466
▁complain	-10.1466
▁silver	-10.1466
▁bugger	-10.1466
▁dilly	-10.1466
▁jewels	-10.1466
▁grass	-10.1466
▁attitude	-10.1466
▁cigarette	-10.1467
▁taxi	-10.1467
▁blaring	-10.1467
▁denied	-10.1467
▁memories	-10.1467
▁cia	-10.1467
▁wilson	-10.1467
▁electronic	-10.1467
▁medicine	-10.1467
▁brad	-10.1467
▁lemon	-10.1468
▁slim	-10.1468
▁happiness	-10.1468
▁trapped	-10.1468
▁lazy	-10.1468
▁salt	-10.1469
▁sack	-10.1469
▁fox	-10.1469
▁pump	-10.1469
▁logan	-10.1469
▁weli	-10.1469
▁gray	-10.147
▁shane	-10.147
▁grandson	-10.147
▁plot	-10.1471
▁announcement	-10.1472
mate	-10.1472
▁investigation	-10.1472
▁toto	-10.1474
▁decent	-10.1474
▁practically	-10.1475
▁aside	-10.1477
▁friendship	-10.1478
▁cellar	-10.1479
▁dega	-10.1482
▁pleased	-10.1484
▁paw	-10.1485
▁thick	-10.1485
▁sexy	-10.1488
▁thatd	-10.1489
▁ahem	-10.1489
▁pure	-10.1489
▁marty	-10.1491
▁bandit	-10.1492
▁dun	-10.1492
▁clicking	-10.1492
▁role	-10.1501
▁rise	-10.1501
▁fuss	-10.1503
▁billion	-10.1506
▁lame	-10.1507
▁mmmm	-10.1507
▁ew	-10.1508
▁jay	-10.1513
▁nest	-10.1523
boy	-10.1528
▁personally	-10.1536
▁ph	-10.1536
▁loaded	-10.1541
▁host	-10.1543
ash	-10.1544
▁seth	-10.1546
▁screwed	-10.1551
▁prey	-10.1565
▁lover	-10.1566
fu	-10.1569
▁sat	-10.1577
▁oops	-10.158
ima	-10.1596
▁kin	-10.1622
▁breakin	-10.164
▁recipes	-10.1642
▁county	-10.1655
▁hack	-10.1658
▁paulas	-10.1668
▁offered	-10.1671
▁cooking	-10.1675
▁ending	-10.1679
▁kissed	-10.1691
▁dings	-10.1701
▁attacked	-10.1709
▁prayer	-10.171
▁mal	-10.1725
▁returned	-10.1733
▁pod	-10.174
▁announc	-10.1757
▁weapon	-10.1758
▁soldier	-10.1759
▁grade	-10.1765
▁cookie	-10.1769
▁hahaha	-10.1792
▁believed	-10.1803
▁deny	-10.1811
nda	-10.1812
▁closet	-10.1826
cent	-10.1831
cha	-10.1835
▁sch	-10.1846
▁landed	-10.1852
▁min	-10.1853
▁americans	-10.187
▁lu	-10.1899
▁tor	-10.1905
▁stu	-10.1906
val	-10.1921
▁receive	-10.1931
▁tear	-10.1949
▁mall	-10.1968
▁staring	-10.197
▁rate	-10.1977
▁tod	-10.1997
▁husbands	-10.2015
▁dor	-10.2017
▁buzz	-10.2028
▁impress	-10.2029
▁dealing	-10.2035
▁sink	-10.2045
▁tin	-10.205
▁off	-10.2052
▁rook	-10.2053
road	-10.2066
lot	-10.2069
▁ali	-10.2072
keep	-10.2072
box	-10.2075
▁walls	-10.2079
▁inform	-10.2087
▁commit	-10.2087
▁quest	-10.2089
▁attract	-10.2089
▁academy	-10.2091
▁avoid	-10.2091
▁chicago	-10.2091
▁destruction	-10.2091
▁divorce	-10.2091
▁elliot	-10.2091
▁episode	-10.2091
▁holiday	-10.2091
▁poseidon	-10.2091
▁quality	-10.2091
▁regular	-10.2091
▁rehearsal	-10.2091
▁relationship	-10.2091
▁ruff	-10.2091
▁semester	-10.2091
▁slept	-10.2091
▁someplace	-10.2091
▁temporary	-10.2091
▁thieves	-10.2091
▁uniform	-10.2091
▁century	-10.2091
▁farewell	-10.2091
▁instant	-10.2091
▁polite	-10.2091
▁possum	-10.2091
▁shadow	-10.2091
▁steady	-10.2091
▁anytime	-10.2091
▁babies	-10.2091
▁knuck	-10.2091
▁puppet	-10.2091
▁largo	-10.2091
▁snack	-10.2091
▁spoil	-10.2091
▁derek	-10.2091
▁haunted	-10.2091
▁lucas	-10.2091
▁cancer	-10.2091
▁chipettes	-10.2091
▁lamb	-10.2091
▁nanny	-10.2091
▁activity	-10.2091
▁twin	-10.2091
fer	-10.2092
▁outfit	-10.2092
▁savage	-10.2092
▁railway	-10.2092
▁garlic	-10.2092
▁whyd	-10.2092
▁monday	-10.2092
▁competition	-10.2092
▁popular	-10.2092
▁mummy	-10.2092
▁construction	-10.2093
▁ouch	-10.2093
▁lend	-10.2093
▁stans	-10.2093
▁firing	-10.2093
▁punishment	-10.2093
▁heather	-10.2094
▁indian	-10.2094
eight	-10.2094
▁define	-10.2095
▁gower	-10.2095
▁mmmmmm	-10.2095
▁bucket	-10.2095
▁failure	-10.2095
▁rj	-10.2095
▁ti	-10.2095
▁chairman	-10.2095
▁location	-10.2096
▁whatll	-10.2096
▁height	-10.2097
▁gear	-10.2097
▁copper	-10.2098
▁freddy	-10.2098
▁classical	-10.2102
▁confused	-10.2102
▁neat	-10.2103
▁potion	-10.2103
▁chick	-10.2104
▁apple	-10.2105
▁pour	-10.2107
▁drinking	-10.2109
▁debt	-10.211
▁hoo	-10.2112
▁marine	-10.2113
▁sally	-10.2115
istic	-10.2117
▁boring	-10.2123
▁archy	-10.2127
▁glasses	-10.2131
▁sock	-10.2132
▁victoria	-10.214
▁impressed	-10.2144
▁sage	-10.2144
▁og	-10.2152
▁and	-10.2158
▁loo	-10.2165
▁badge	-10.2172
ang	-10.218
▁sur	-10.2181
▁chest	-10.2193
▁former	-10.2193
▁lower	-10.2207
▁inch	-10.2229
iff	-10.2232
▁clicks	-10.2235
▁tied	-10.2242
pped	-10.2249
ically	-10.2265
▁traveling	-10.2268
▁crossed	-10.2284
▁fart	-10.2291
arm	-10.2298
▁armed	-10.2302
▁parking	-10.2319
▁auntie	-10.2322
▁reached	-10.2323
▁rocky	-10.2325
▁seal	-10.2343
▁ax	-10.2354
▁corn	-10.2357
▁appear	-10.237
▁selling	-10.2371
fully	-10.2385
lapping	-10.2387
▁cheer	-10.24
▁trained	-10.241
▁admir	-10.2416
▁servant	-10.2423
▁depend	-10.2427
ire	-10.2428
▁que	-10.243
▁weapons	-10.2435
▁grades	-10.2435
▁cleaning	-10.2441
▁snakes	-10.2458
▁passing	-10.2471
▁jokes	-10.2499
▁gall	-10.2507
▁ape	-10.2515
▁bla	-10.2517
▁moor	-10.2517
▁demons	-10.252
low	-10.2542
▁tum	-10.255
▁hills	-10.2558
▁siren	-10.2566
▁pit	-10.2584
ini	-10.2608
▁centr	-10.2631
▁embarrass	-10.264
▁math	-10.265
▁mix	-10.2711
▁hay	-10.2716
▁wipe	-10.2718
▁explode	-10.2718
eat	-10.2721
work	-10.2729
▁dirt	-10.273
▁terribl	-10.2732
▁dang	-10.2735
▁strip	-10.2738
▁actual	-10.2739
read	-10.2741
year	-10.2744
face	-10.2747
▁product	-10.275
▁effect	-10.2756
▁constant	-10.2756
▁happi	-10.2756
▁fifty	-10.2757
▁specific	-10.2757
▁detect	-10.2757
▁absurd	-10.2758
▁ancient	-10.2758
▁arnhem	-10.2758
▁boggis	-10.2758
▁brittany	-10.2758
▁confidence	-10.2758
▁convention	-10.2758
▁dahlberg	-10.2758
▁democrat	-10.2758
▁devereaux	-10.2758
▁divatox	-10.2758
▁doberman	-10.2758
▁dolph	-10.2758
▁enemies	-10.2758
▁entrance	-10.2758
▁extraordinary	-10.2758
▁hustle	-10.2758
▁including	-10.2758
▁individual	-10.2758
▁ireland	-10.2758
▁jenny	-10.2758
▁julian	-10.2758
▁muffin	-10.2758
▁mysterious	-10.2758
▁plastic	-10.2758
▁puckett	-10.2758
▁purple	-10.2758
▁retreat	-10.2758
▁stammers	-10.2758
▁submarine	-10.2758
▁subtitle	-10.2758
▁sukarno	-10.2758
▁sunshine	-10.2758
▁sydney	-10.2758
▁texas	-10.2758
▁volunteer	-10.2758
▁whenever	-10.2758
▁glue	-10.2758
▁greek	-10.2758
▁olaf	-10.2758
▁repair	-10.2758
▁sacred	-10.2758
▁scientific	-10.2758
▁deputy	-10.2758
▁disaster	-10.2758
▁miserable	-10.2758
▁reverend	-10.2758
▁title	-10.2758
▁chaos	-10.2758
▁sentence	-10.2758
▁cheek	-10.2758
▁raymond	-10.2758
▁element	-10.2758
▁sheet	-10.2758
▁jolly	-10.2758
▁flew	-10.2758
▁justin	-10.2758
▁knowledge	-10.2758
▁eerie	-10.2758
▁jelly	-10.2758
▁dardis	-10.2758
▁combin	-10.2758
▁desire	-10.2758
▁funeral	-10.2758
▁faint	-10.2758
▁barely	-10.2758
▁earlier	-10.2758
▁karate	-10.2758
▁jailbreak	-10.2759
▁assistance	-10.2759
▁neighborhood	-10.2759
▁pumpkin	-10.2759
▁cliff	-10.2759
▁lightning	-10.2759
▁pond	-10.2759
▁chinese	-10.2759
▁damage	-10.2759
▁pillow	-10.2759
▁solid	-10.276
▁stood	-10.276
▁delay	-10.276
▁zip	-10.276
▁constantine	-10.276
▁slipped	-10.276
▁litter	-10.276
▁whoohoo	-10.276
▁begun	-10.276
▁slipper	-10.276
▁chapel	-10.2761
▁noble	-10.2761
▁pickles	-10.2761
▁mock	-10.2761
▁muckle	-10.2761
▁review	-10.2761
▁glow	-10.2761
▁selfish	-10.2762
▁motor	-10.2763
▁smith	-10.2763
▁mush	-10.2763
▁compare	-10.2763
▁package	-10.2763
▁operator	-10.2764
▁examine	-10.2768
▁annie	-10.2768
▁wallet	-10.2769
▁lack	-10.2769
▁foolish	-10.277
▁boil	-10.277
▁exhausted	-10.2771
▁humor	-10.2772
▁moron	-10.2772
▁australian	-10.2775
▁aii	-10.2776
▁junior	-10.2779
▁celebrate	-10.2782
▁von	-10.2782
▁howling	-10.2782
▁helena	-10.2782
▁odds	-10.2784
▁beef	-10.2788
▁chat	-10.2789
▁unh	-10.279
hood	-10.2793
▁bert	-10.2793
▁vest	-10.2794
▁protection	-10.2798
▁bror	-10.2804
▁reporters	-10.2808
▁range	-10.2811
▁mixed	-10.2811
▁goat	-10.2811
▁down	-10.2811
▁sec	-10.2813
▁heroes	-10.2815
▁bored	-10.2816
▁kindness	-10.2818
▁snarling	-10.2818
▁bury	-10.2824
▁madame	-10.2826
▁concerned	-10.2833
can	-10.2833
▁blown	-10.2834
▁hog	-10.2841
▁bump	-10.2857
▁ag	-10.2864
▁goldilo	-10.2867
▁woo	-10.288
▁ru	-10.2881
▁wal	-10.2882
▁martini	-10.2883
▁understanding	-10.2912
▁hoped	-10.2912
▁anti	-10.2913
▁makeup	-10.2923
cher	-10.2924
▁mentioned	-10.2962
▁sen	-10.2962
▁bars	-10.2999
▁dan	-10.3005
▁burglars	-10.3007
▁jew	-10.3014
▁backup	-10.3016
▁lit	-10.3017
▁tricks	-10.3021
▁jumped	-10.3024
▁yay	-10.3025
ison	-10.304
▁singer	-10.3049
ette	-10.3057
▁beeps	-10.3057
▁joined	-10.306
▁shout	-10.3095
▁depends	-10.3103
ctic	-10.3104
▁prim	-10.3116
▁rot	-10.3122
▁dressing	-10.3123
▁soldiers	-10.3127
▁psycho	-10.3128
▁habit	-10.3134
▁civil	-10.3157
▁stat	-10.3159
▁bud	-10.3165
▁enjoying	-10.3172
ique	-10.318
▁bastards	-10.322
▁whas	-10.3224
▁buying	-10.3228
bed	-10.3257
▁here	-10.3262
▁radi	-10.327
▁lessons	-10.3273
some	-10.3303
▁criminals	-10.3321
▁knights	-10.3321
▁natives	-10.3346
▁remembered	-10.3346
▁dreaming	-10.3372
▁gin	-10.3387
▁yards	-10.3395
▁cove	-10.3406
▁snarl	-10.3408
ead	-10.3424
▁my	-10.3425
▁trib	-10.3436
▁tent	-10.3442
load	-10.3452
break	-10.3454
looking	-10.3454
▁official	-10.3454
▁exact	-10.3455
ative	-10.3457
▁earn	-10.3457
▁mmhm	-10.3464
▁threat	-10.3464
▁gentle	-10.3467
▁comfort	-10.3469
▁greet	-10.347
▁kidnap	-10.3471
▁draft	-10.3472
▁fashion	-10.3472
▁battalion	-10.3472
▁claude	-10.3472
▁clayton	-10.3472
▁downstairs	-10.3472
▁elephant	-10.3472
▁excalibur	-10.3472
▁gamart	-10.3472
▁geoffrey	-10.3472
▁glory	-10.3472
▁gorgeous	-10.3472
▁grateful	-10.3472
▁kelmot	-10.3472
▁murmuring	-10.3472
▁nephew	-10.3472
▁nuclear	-10.3472
▁responsible	-10.3472
▁sauce	-10.3472
▁shelter	-10.3472
▁shrieks	-10.3472
▁thirty	-10.3472
▁thompson	-10.3472
▁valuable	-10.3472
▁vogon	-10.3472
▁welker	-10.3472
▁winifred	-10.3472
▁worries	-10.3472
▁yawns	-10.3472
▁airborne	-10.3472
▁pathetic	-10.3472
▁robbery	-10.3472
▁stream	-10.3472
▁woke	-10.3472
▁combat	-10.3472
▁distant	-10.3472
▁doorbell	-10.3472
▁liddy	-10.3472
▁describe	-10.3472
▁actress	-10.3472
▁generous	-10.3472
▁youth	-10.3472
▁cartoon	-10.3472
▁superior	-10.3472
▁bodies	-10.3472
▁content	-10.3472
▁spray	-10.3472
▁gently	-10.3472
▁await	-10.3472
▁stove	-10.3472
▁recall	-10.3472
▁nonnie	-10.3472
▁backyard	-10.3473
▁hisses	-10.3473
▁dropping	-10.3473
▁invad	-10.3473
▁shining	-10.3473
▁fond	-10.3473
▁hitler	-10.3473
▁navy	-10.3473
▁damian	-10.3473
▁honour	-10.3474
▁joking	-10.3474
▁feast	-10.3474
▁quarterback	-10.3474
▁ladder	-10.3474
▁juice	-10.3474
▁brick	-10.3474
▁impressive	-10.3474
▁finance	-10.3475
▁lips	-10.3475
▁rude	-10.3475
▁tide	-10.3475
▁dunne	-10.3475
▁spaceship	-10.3476
▁santa	-10.3476
▁severine	-10.3477
▁slight	-10.3477
▁slater	-10.3477
▁contain	-10.3477
▁colon	-10.3477
▁trial	-10.3477
▁creation	-10.3479
▁goose	-10.3481
▁version	-10.3481
▁christine	-10.3481
▁coco	-10.3481
▁owner	-10.3482
▁nome	-10.3482
▁greedy	-10.3482
▁highway	-10.3487
▁ox	-10.3488
▁squealing	-10.3489
▁surrounded	-10.349
▁diego	-10.349
▁capt	-10.3491
▁sore	-10.3493
▁arranged	-10.3494
▁when	-10.3494
▁skies	-10.3495
▁fade	-10.3495
▁wah	-10.3499
▁campus	-10.3501
▁riddler	-10.3502
▁millie	-10.3506
▁useful	-10.351
trap	-10.3514
▁poe	-10.3515
▁haha	-10.3515
▁payment	-10.3517
▁fallen	-10.352
top	-10.3525
▁blade	-10.3532
▁germany	-10.3532
visible	-10.3538
▁highest	-10.3539
▁parties	-10.354
▁embarrassing	-10.3542
▁louder	-10.3545
key	-10.3558
omic	-10.3559
▁lawn	-10.3572
▁entirely	-10.3576
▁weep	-10.3578
▁bid	-10.3584
▁klopeks	-10.3587
▁hah	-10.3599
tail	-10.36
▁warriors	-10.3612
▁freaking	-10.3624
▁andi	-10.3626
▁degrees	-10.3638
▁praying	-10.3642
▁investigat	-10.3649
▁finest	-10.3659
▁warned	-10.3662
▁pad	-10.3671
▁goldi	-10.3672
rey	-10.3695
▁spending	-10.3731
▁demon	-10.3754
ome	-10.3791
vol	-10.381
bit	-10.3812
raz	-10.3826
▁psych	-10.3831
▁cro	-10.3852
ute	-10.3853
▁admire	-10.3853
▁hesitate	-10.3861
▁ignore	-10.3864
▁maker	-10.3864
▁tap	-10.3865
▁speaker	-10.3879
▁pill	-10.393
▁una	-10.3942
▁hunter	-10.3958
▁observ	-10.3995
▁nails	-10.4004
zy	-10.4007
▁continu	-10.4011
▁beep	-10.406
▁learning	-10.4062
▁plates	-10.408
hen	-10.4106
▁dancer	-10.4122
pit	-10.4148
▁victor	-10.4151
▁plants	-10.4153
▁meow	-10.4181
▁bend	-10.4187
▁charm	-10.4196
▁provide	-10.4201
▁weigh	-10.4207
▁log	-10.422
▁mill	-10.4221
▁griff	-10.4226
▁damned	-10.4229
ssey	-10.4234
▁drag	-10.4236
▁retire	-10.4238
▁blank	-10.424
▁birth	-10.4241
▁congress	-10.4241
▁acquaintance	-10.4241
▁although	-10.4241
▁annoying	-10.4241
▁apologies	-10.4241
▁approve	-10.4241
▁atlantic	-10.4241
▁cemetery	-10.4241
▁channing	-10.4241
▁demonstration	-10.4241
▁descend	-10.4241
▁escort	-10.4241
▁eventually	-10.4241
▁exchange	-10.4241
▁financial	-10.4241
▁italian	-10.4241
▁libby	-10.4241
▁magrathea	-10.4241
▁measure	-10.4241
▁mistoffelees	-10.4241
▁passenger	-10.4241
▁patience	-10.4241
▁perrito	-10.4241
▁plague	-10.4241
▁schooi	-10.4241
▁select	-10.4241
▁staff	-10.4241
▁torture	-10.4241
▁treasure	-10.4241
▁triangle	-10.4241
▁university	-10.4241
▁unusual	-10.4241
▁zuzu	-10.4241
▁arnold	-10.4241
▁beneath	-10.4241
▁brake	-10.4241
▁enchant	-10.4241
▁eternal	-10.4241
▁example	-10.4241
▁fortunate	-10.4241
▁gnome	-10.4241
▁gulag	-10.4241
▁prevent	-10.4241
▁recover	-10.4241
▁shortcut	-10.4241
▁spook	-10.4241
▁twist	-10.4241
▁chitter	-10.4241
▁coffin	-10.4241
▁crunch	-10.4241
▁fruit	-10.4241
▁slide	-10.4241
▁cease	-10.4241
▁crook	-10.4241
▁utter	-10.4241
▁scale	-10.4241
▁proceed	-10.4241
▁knot	-10.4241
▁stress	-10.4241
▁deaf	-10.4241
▁compass	-10.4241
▁revolution	-10.4241
▁tickle	-10.4241
▁spain	-10.4241
▁apology	-10.4242
▁tool	-10.4242
▁cannonball	-10.4242
▁baroness	-10.4242
▁choke	-10.4242
▁yank	-10.4242
▁arab	-10.4242
▁kennedy	-10.4242
▁gulls	-10.4242
▁cowgirl	-10.4242
▁pride	-10.4243
▁cowboy	-10.4243
▁golf	-10.4243
▁trace	-10.4243
▁relative	-10.4243
▁authority	-10.4243
▁halt	-10.4243
▁daily	-10.4243
▁fence	-10.4243
▁personnel	-10.4243
▁hue	-10.4244
▁madison	-10.4244
▁stopping	-10.4245
▁pimp	-10.4245
▁ofthe	-10.4245
▁education	-10.4245
▁performance	-10.4245
▁scrap	-10.4245
▁flesh	-10.4246
▁strain	-10.4246
▁rubber	-10.4246
▁limo	-10.4246
▁punk	-10.4247
▁diary	-10.4247
▁moles	-10.4248
▁abby	-10.4248
▁capable	-10.4248
▁delete	-10.4248
▁disco	-10.4248
▁burro	-10.4249
▁dice	-10.425
▁sandra	-10.425
▁tech	-10.4252
▁drake	-10.4253
▁morgana	-10.4253
▁chosen	-10.4254
▁yearold	-10.4254
▁fascinating	-10.4254
▁ability	-10.4255
▁flame	-10.4257
cious	-10.4258
▁drill	-10.4259
▁scan	-10.426
▁daylight	-10.4263
▁generation	-10.4263
▁mansion	-10.4263
▁bleeding	-10.4265
▁hollow	-10.4267
two	-10.427
▁visitor	-10.427
▁yee	-10.4272
▁yaya	-10.4272
▁musician	-10.4274
▁jackie	-10.4274
▁neighing	-10.4275
▁sixth	-10.4276
▁aww	-10.4278
▁athlete	-10.4282
▁lang	-10.4284
five	-10.4285
▁palm	-10.4286
▁pulling	-10.4286
▁vice	-10.4288
▁opened	-10.4297
▁baron	-10.4304
▁centre	-10.4304
▁putty	-10.4309
▁los	-10.4311
▁pile	-10.4322
▁hail	-10.4323
tto	-10.4327
▁tone	-10.4329
▁oss	-10.433
▁approaching	-10.4332
▁liver	-10.4334
▁syne	-10.4344
▁joint	-10.4351
▁fee	-10.4363
▁stairs	-10.4365
▁sonic	-10.4367
▁dime	-10.4377
▁forced	-10.4392
▁ken	-10.4396
ada	-10.4405
▁studying	-10.4416
▁skills	-10.4421
ifl	-10.443
ular	-10.4444
▁bowling	-10.4447
▁pant	-10.4462
▁belly	-10.4466
ue	-10.447
▁entering	-10.4496
▁fixed	-10.451
▁engineer	-10.4511
▁jar	-10.4527
▁pine	-10.4535
▁cents	-10.4553
▁deb	-10.4556
▁til	-10.4568
▁grounded	-10.4597
▁boarding	-10.4602
▁chem	-10.4609
▁dancers	-10.4616
▁jews	-10.4616
itates	-10.4641
▁leading	-10.4644
▁servants	-10.4645
uld	-10.4664
▁joining	-10.4675
▁muppet	-10.4744
▁sport	-10.4746
lie	-10.4765
▁chuckle	-10.4767
fore	-10.4771
poli	-10.4775
▁ren	-10.4818
▁hav	-10.4836
▁slo	-10.4838
▁badly	-10.4847
▁pia	-10.4861
▁dam	-10.4895
▁cent	-10.4922
▁pest	-10.4961
▁intend	-10.5021
▁hated	-10.5023
▁ham	-10.5029
▁remove	-10.5035
power	-10.5055
fall	-10.5055
▁involve	-10.506
▁sex	-10.5061
▁iris	-10.5069
▁punish	-10.5071
▁glori	-10.5072
▁expos	-10.5073
▁munch	-10.5074
▁experiment	-10.5075
▁extinct	-10.5075
▁register	-10.5075
▁tradition	-10.5075
▁average	-10.5075
▁blindfold	-10.5075
▁bloke	-10.5075
▁breeze	-10.5075
▁broadcast	-10.5075
▁casino	-10.5075
▁cavanaugh	-10.5075
▁coincidence	-10.5075
▁compliment	-10.5075
▁conference	-10.5075
▁council	-10.5075
▁diablo	-10.5075
▁disgrace	-10.5075
▁eberhardt	-10.5075
▁encourage	-10.5075
▁forbid	-10.5075
▁fregley	-10.5075
▁fronkonsteen	-10.5075
▁harvest	-10.5075
▁increase	-10.5075
▁infinite	-10.5075
▁injured	-10.5075
▁macgregor	-10.5075
▁matthias	-10.5075
▁monsieur	-10.5075
▁mowbray	-10.5075
▁opponent	-10.5075
▁organization	-10.5075
▁orleans	-10.5075
▁ornament	-10.5075
▁peculiar	-10.5075
▁popcorn	-10.5075
▁ralph	-10.5075
▁rockefeller	-10.5075
▁saigon	-10.5075
▁scotland	-10.5075
▁segretti	-10.5075
▁sobbing	-10.5075
▁splendid	-10.5075
▁squeeze	-10.5075
▁strutter	-10.5075
▁suspicious	-10.5075
▁terrified	-10.5075
▁tricia	-10.5075
▁turtle	-10.5075
▁understood	-10.5075
▁cramp	-10.5075
▁dedicate	-10.5075
▁klaus	-10.5075
▁nashville	-10.5075
▁remote	-10.5075
▁rifle	-10.5075
▁towel	-10.5075
▁beatrice	-10.5075
▁branch	-10.5075
▁clown	-10.5075
▁helsing	-10.5075
▁marvin	-10.5075
▁pattern	-10.5075
▁supply	-10.5075
▁brief	-10.5075
▁dutch	-10.5075
▁patrol	-10.5075
▁pleasant	-10.5075
▁salmon	-10.5075
▁fischer	-10.5075
▁identity	-10.5075
▁silent	-10.5075
▁serving	-10.5075
▁oldknow	-10.5075
▁shaft	-10.5075
▁yacht	-10.5075
▁cherry	-10.5075
▁sighing	-10.5075
▁chancellor	-10.5075
▁alais	-10.5075
▁propose	-10.5075
▁kaye	-10.5075
▁cattle	-10.5075
▁bradbury	-10.5075
▁hawkins	-10.5075
▁western	-10.5075
▁stiles	-10.5075
▁brat	-10.5075
▁mombi	-10.5075
▁calculat	-10.5075
▁yup	-10.5075
▁honks	-10.5075
▁carried	-10.5075
▁sunset	-10.5075
▁modern	-10.5075
▁gregory	-10.5075
▁celebrating	-10.5075
▁chad	-10.5075
▁display	-10.5076
▁bingo	-10.5076
▁coup	-10.5076
▁argh	-10.5076
▁sync	-10.5076
▁ginger	-10.5077
▁milton	-10.5077
▁ease	-10.5077
▁mask	-10.5077
▁babysit	-10.5078
▁humma	-10.5078
with	-10.5078
▁stalk	-10.5078
▁scum	-10.5079
▁theme	-10.5079
▁betcha	-10.5079
▁physical	-10.5079
▁spark	-10.5079
▁narrat	-10.508
shot	-10.508
▁irish	-10.5081
▁dash	-10.5081
▁dyou	-10.5082
▁lois	-10.5082
▁humble	-10.5082
▁peaceful	-10.5083
▁geez	-10.5083
▁beings	-10.5084
▁minor	-10.5085
▁stunt	-10.5085
▁dip	-10.5086
▁scent	-10.5086
▁freshman	-10.5087
▁web	-10.5088
▁connection	-10.5088
▁agreement	-10.5088
▁soviet	-10.509
▁relieved	-10.509
▁monte	-10.509
▁rumor	-10.5091
▁buckle	-10.5092
▁kim	-10.5092
▁ferr	-10.5093
▁statement	-10.5093
▁shave	-10.5093
▁homework	-10.5094
▁rail	-10.5095
▁worthless	-10.5095
▁bait	-10.5098
▁chum	-10.51
spiker	-10.5102
▁standard	-10.5102
▁deadline	-10.5103
▁hans	-10.5104
▁duh	-10.5107
▁victory	-10.5109
▁beam	-10.5112
▁pitch	-10.5113
▁tries	-10.5114
▁poll	-10.5115
▁forgetting	-10.5117
▁cheap	-10.5118
▁gump	-10.5118
▁chap	-10.5121
▁medical	-10.5129
▁convinced	-10.5131
▁usses	-10.5132
▁unable	-10.5135
get	-10.5139
▁defi	-10.5142
▁loudly	-10.5142
▁embarrassed	-10.5142
▁meowing	-10.5146
fire	-10.5151
▁dock	-10.5151
▁mode	-10.5153
▁pm	-10.5155
▁hunger	-10.5163
▁sinking	-10.5164
▁critters	-10.518
did	-10.5181
▁lil	-10.5183
▁layer	-10.5191
▁dup	-10.5196
▁tapes	-10.5198
▁drowning	-10.52
▁ding	-10.5201
gue	-10.5213
tract	-10.5223
▁joker	-10.5225
▁wasted	-10.5235
▁prayed	-10.5239
▁delivered	-10.524
▁rhythmic	-10.5244
ological	-10.5256
▁murdered	-10.5268
▁arrangements	-10.5271
▁accepted	-10.5272
▁rank	-10.5286
▁myst	-10.5297
▁worthy	-10.5303
▁zed	-10.5307
▁considered	-10.5308
▁ambi	-10.5316
▁flak	-10.5316
▁bothering	-10.5339
▁realm	-10.5344
▁tanks	-10.5362
▁raining	-10.5369
▁messing	-10.5378
hand	-10.5381
▁operat	-10.5384
▁farmers	-10.5387
▁orphans	-10.5392
▁cart	-10.5401
zi	-10.5427
▁af	-10.5449
▁kissing	-10.5477
▁exc	-10.548
▁wo	-10.5483
▁fooled	-10.5484
▁younger	-10.5526
▁sin	-10.5553
▁testing	-10.5558
▁preserve	-10.5561
▁cleaner	-10.5576
▁divin	-10.5583
ita	-10.5593
rag	-10.5595
aah	-10.5602
▁sol	-10.5606
▁knee	-10.5609
▁et	-10.5617
▁bum	-10.5617
▁yii	-10.5638
▁orphan	-10.5647
▁beating	-10.5648
▁burglar	-10.565
▁drug	-10.5651
▁glove	-10.5653
gram	-10.5707
▁var	-10.5726
▁pup	-10.578
cure	-10.5796
▁skipp	-10.5829
▁what	-10.5849
▁gab	-10.5879
▁suite	-10.5892
nya	-10.5908
▁shove	-10.5909
▁herr	-10.5923
▁swallow	-10.593
▁medic	-10.593
▁wound	-10.5931
even	-10.5954
word	-10.5957
aging	-10.5958
born	-10.596
worm	-10.5964
town	-10.5964
jack	-10.5964
school	-10.5964
▁unfortunate	-10.5964
▁chose	-10.5969
▁riddl	-10.5971
▁mega	-10.5973
▁mornin	-10.5975
▁melt	-10.5976
▁locat	-10.5979
▁makin	-10.598
▁journal	-10.5981
▁employ	-10.5982
▁elect	-10.5983
▁basket	-10.5983
▁basic	-10.5984
▁achieve	-10.5984
▁barefoot	-10.5984
▁muscle	-10.5984
▁progress	-10.5984
▁suspend	-10.5984
▁terror	-10.5984
▁activate	-10.5984
▁approval	-10.5984
▁association	-10.5984
▁auction	-10.5984
▁automatic	-10.5984
▁bartender	-10.5984
▁berkeley	-10.5984
▁brooks	-10.5984
▁cahill	-10.5984
▁certificate	-10.5984
▁chirping	-10.5984
▁clumsy	-10.5984
▁communication	-10.5984
▁coyote	-10.5984
▁delinquent	-10.5984
▁distorted	-10.5984
▁earthquake	-10.5984
▁expensive	-10.5984
▁explosive	-10.5984
▁fitzhume	-10.5984
▁glynnis	-10.5984
▁gracie	-10.5984
▁grasshopper	-10.5984
▁hardborough	-10.5984
▁huddle	-10.5984
▁infantry	-10.5984
▁instinct	-10.5984
▁jakarta	-10.5984
▁jeanloup	-10.5984
▁kermie	-10.5984
▁krauts	-10.5984
▁lasalles	-10.5984
▁liquid	-10.5984
▁mcashton	-10.5984
▁mcelrathbey	-10.5984
▁metaphor	-10.5984
▁muffled	-10.5984
▁muskie	-10.5984
▁outstanding	-10.5984
▁overreact	-10.5984
▁prawn	-10.5984
▁prophecy	-10.5984
▁response	-10.5984
▁revenge	-10.5984
▁russell	-10.5984
▁sequence	-10.5984
▁shrimp	-10.5984
▁smiling	-10.5984
▁stepmother	-10.5984
▁suicide	-10.5984
▁supplies	-10.5984
▁surgery	-10.5984
▁tahiti	-10.5984
▁technology	-10.5984
▁thunderclap	-10.5984
▁tintagel	-10.5984
▁tuesday	-10.5984
▁unfair	-10.5984
▁wealth	-10.5984
▁wednesday	-10.5984
▁widow	-10.5984
▁wisdom	-10.5984
▁gulps	-10.5984
▁jonah	-10.5984
▁nelson	-10.5984
▁outlaw	-10.5984
▁poetry	-10.5984
▁resort	-10.5984
▁sherlock	-10.5984
▁snoop	-10.5984
▁spawn	-10.5984
hearted	-10.5984
▁buddies	-10.5984
▁capital	-10.5984
▁client	-10.5984
▁curtis	-10.5984
▁empire	-10.5984
▁granger	-10.5984
▁maax	-10.5984
▁puzzle	-10.5984
▁watson	-10.5984
▁grape	-10.5984
▁rumsfield	-10.5984
▁ceiling	-10.5984
▁pearl	-10.5984
▁ricky	-10.5984
▁crab	-10.5984
▁conquer	-10.5984
▁incoming	-10.5984
▁tyler	-10.5984
▁seattle	-10.5984
▁kidnapping	-10.5984
▁audit	-10.5984
▁contest	-10.5984
▁radar	-10.5984
▁robbers	-10.5984
▁fiend	-10.5984
▁estate	-10.5984
▁wolves	-10.5984
▁flora	-10.5984
▁sweep	-10.5984
▁adopt	-10.5984
▁reveal	-10.5984
▁relay	-10.5984
▁albert	-10.5984
▁authorities	-10.5984
▁racing	-10.5984
▁estimate	-10.5984
▁transport	-10.5984
▁typewriter	-10.5984
▁drain	-10.5984
▁basketball	-10.5984
▁gain	-10.5984
▁winston	-10.5984
▁wasting	-10.5984
▁hammer	-10.5984
▁shore	-10.5984
▁turkey	-10.5985
▁moans	-10.5985
▁blaze	-10.5985
▁permit	-10.5985
▁championship	-10.5985
▁maintain	-10.5986
▁diane	-10.5986
▁prickl	-10.5986
▁magnet	-10.5986
▁glorious	-10.5986
▁hostage	-10.5986
▁lump	-10.5987
▁baseball	-10.5987
▁luci	-10.5987
▁barks	-10.5987
▁pansy	-10.5987
▁decorat	-10.5987
▁subway	-10.5987
▁fried	-10.5987
▁vision	-10.5988
▁commitment	-10.5988
▁garth	-10.5989
▁sector	-10.5989
▁refer	-10.599
▁grip	-10.599
▁frame	-10.599
▁technically	-10.599
▁tuna	-10.5991
▁flip	-10.5991
▁thirsty	-10.5991
▁mount	-10.5992
▁clam	-10.5993
▁gday	-10.5993
▁hawke	-10.5993
▁nearby	-10.5994
▁reward	-10.5994
▁impression	-10.5995
▁amongst	-10.5996
▁root	-10.5996
▁producer	-10.5998
▁chef	-10.6
▁award	-10.6
▁heel	-10.6001
▁mart	-10.6002
▁gig	-10.6002
▁treatment	-10.6002
▁facility	-10.6003
▁bedtime	-10.6011
▁delighted	-10.6012
▁exit	-10.6013
▁replaced	-10.6013
▁prime	-10.6013
▁inga	-10.6014
▁stir	-10.6014
▁humanity	-10.6017
▁earl	-10.6019
▁menu	-10.6022
▁highness	-10.6024
▁cutting	-10.6024
▁pole	-10.6025
▁some	-10.6026
▁amen	-10.6026
▁abandoned	-10.6032
▁vibrations	-10.6034
▁triple	-10.604
▁toes	-10.6042
▁properly	-10.6047
▁kisses	-10.6063
sky	-10.6064
▁cackles	-10.6067
▁healthy	-10.6069
▁dial	-10.6077
▁tru	-10.6078
▁blessed	-10.6079
▁classes	-10.6091
▁carter	-10.6092
▁reality	-10.6093
▁blasted	-10.6097
▁emotions	-10.61
▁media	-10.6107
▁hash	-10.6115
▁por	-10.6117
▁rever	-10.6126
▁sincere	-10.6131
▁pope	-10.6135
▁painted	-10.6138
▁deeper	-10.6145
▁atta	-10.6151
▁marker	-10.6154
▁yea	-10.6171
▁plum	-10.6192
▁porter	-10.6198
oma	-10.6202
run	-10.6204
▁rd	-10.6206
ograph	-10.6214
▁shy	-10.6235
xie	-10.6244
▁filling	-10.627
▁exp	-10.6281
▁ram	-10.6282
▁imagined	-10.6287
ama	-10.6292
▁teaching	-10.635
▁hike	-10.6354
ex	-10.6359
▁reported	-10.6375
▁offering	-10.6387
▁nate	-10.6395
▁bore	-10.6416
▁ducky	-10.6419
uch	-10.6426
trum	-10.6439
▁sala	-10.6448
▁ignor	-10.6452
coat	-10.6467
▁tag	-10.6489
▁assum	-10.6491
witt	-10.6492
lock	-10.6496
▁rolled	-10.6506
▁rip	-10.6509
▁nod	-10.651
hat	-10.6512
▁compete	-10.661
shed	-10.6611
mph	-10.6634
ologist	-10.6642
▁toward	-10.6654
▁folk	-10.6657
▁mati	-10.6659
▁rocket	-10.667
▁growl	-10.6671
tty	-10.6671
▁tank	-10.6672
▁that	-10.6689
▁paula	-10.6727
oui	-10.6732
▁sneeze	-10.6762
▁farmer	-10.6777
ament	-10.6778
ench	-10.6783
▁transfer	-10.682
than	-10.682
▁ron	-10.6839
position	-10.6858
tical	-10.6879
▁prepar	-10.6894
▁flee	-10.6911
▁medi	-10.692
▁abandon	-10.693
▁discover	-10.6935
▁attach	-10.6941
▁swor	-10.6946
nie	-10.6948
▁wander	-10.6952
▁stag	-10.6956
view	-10.6958
▁clap	-10.6958
iii	-10.6959
girl	-10.696
skull	-10.6964
world	-10.6964
play	-10.6967
▁morgan	-10.6968
▁goddam	-10.6969
▁drama	-10.6977
▁distract	-10.6978
▁flap	-10.6981
ville	-10.6981
▁mou	-10.6981
▁favour	-10.6983
▁occur	-10.6983
vious	-10.6983
▁invest	-10.6984
▁appropriate	-10.6984
▁aquarium	-10.6984
▁arriving	-10.6984
▁assassin	-10.6984
▁autograph	-10.6984
▁available	-10.6984
▁babbling	-10.6984
▁barricade	-10.6984
▁becky	-10.6984
▁behavior	-10.6984
▁behold	-10.6984
▁blixen	-10.6984
▁blotz	-10.6984
▁cheerleader	-10.6984
▁commercial	-10.6984
▁commodore	-10.6984
▁comrade	-10.6984
▁concierge	-10.6984
▁conclusion	-10.6984
▁conduct	-10.6984
▁conservancy	-10.6984
▁delamere	-10.6984
▁depressed	-10.6984
▁destination	-10.6984
▁district	-10.6984
▁document	-10.6984
▁entitle	-10.6984
▁eternity	-10.6984
▁evacuate	-10.6984
▁exhibit	-10.6984
▁famiiy	-10.6984
▁fulfill	-10.6984
▁heehaw	-10.6984
▁industri	-10.6984
▁influence	-10.6984
▁injury	-10.6984
▁kazuhiko	-10.6984
▁kilbourne	-10.6984
▁luggage	-10.6984
▁magruder	-10.6984
▁multipl	-10.6984
▁napoleon	-10.6984
▁necklace	-10.6984
▁obligat	-10.6984
▁picnic	-10.6984
▁pitcairn	-10.6984
▁powder	-10.6984
▁presence	-10.6984
▁recommend	-10.6984
▁rehearse	-10.6984
▁relief	-10.6984
▁reynolds	-10.6984
▁rueland	-10.6984
▁shield	-10.6984
▁slaghoople	-10.6984
▁smuntz	-10.6984
▁sophie	-10.6984
▁supreme	-10.6984
▁symbol	-10.6984
▁temperature	-10.6984
▁tragic	-10.6984
▁underneath	-10.6984
▁violin	-10.6984
▁worship	-10.6984
▁beloved	-10.6984
▁bertram	-10.6984
▁cotton	-10.6984
▁establish	-10.6984
▁hunch	-10.6984
▁permanent	-10.6984
▁studied	-10.6984
▁wegman	-10.6984
▁whinny	-10.6984
▁yowling	-10.6984
▁gavin	-10.6984
▁kirk	-10.6984
▁squish	-10.6984
▁waitzkin	-10.6984
▁fierce	-10.6984
▁hooray	-10.6984
▁odile	-10.6984
▁vinci	-10.6984
▁worid	-10.6984
▁legacy	-10.6984
▁lemur	-10.6984
▁puppy	-10.6984
▁tattoo	-10.6984
▁presume	-10.6984
▁ashore	-10.6984
▁bedford	-10.6984
▁frederick	-10.6984
▁robbie	-10.6984
▁sikes	-10.6984
▁flippers	-10.6984
▁lenny	-10.6984
▁morph	-10.6984
▁mourn	-10.6984
▁raven	-10.6984
▁marysville	-10.6984
▁balloon	-10.6984
▁crank	-10.6984
▁oven	-10.6984
▁region	-10.6984
▁improve	-10.6984
▁tinker	-10.6984
▁northern	-10.6984
▁serum	-10.6984
▁slipping	-10.6984
▁menace	-10.6984
▁scat	-10.6984
▁details	-10.6984
▁whinnies	-10.6984
▁dodge	-10.6984
▁virus	-10.6984
▁nadya	-10.6984
▁jacque	-10.6984
▁paradise	-10.6984
▁illusion	-10.6984
▁wives	-10.6984
▁broadway	-10.6984
▁undead	-10.6985
▁bounce	-10.6985
▁consist	-10.6985
▁wages	-10.6985
▁chemical	-10.6985
▁pilot	-10.6985
▁favourite	-10.6985
▁dreadful	-10.6985
▁ahoy	-10.6985
ification	-10.6985
▁decade	-10.6985
▁basically	-10.6985
▁executive	-10.6985
▁pluck	-10.6985
▁martha	-10.6985
▁tummy	-10.6985
▁consultant	-10.6985
▁bubble	-10.6986
▁burden	-10.6986
▁vicious	-10.6986
▁after	-10.6986
▁reception	-10.6987
▁duties	-10.6987
▁resistance	-10.6987
▁gunshot	-10.6987
▁blanket	-10.6987
▁tasty	-10.6987
▁kitten	-10.6988
▁item	-10.6988
▁tada	-10.6989
▁drove	-10.699
▁vexin	-10.6991
▁cooi	-10.6991
▁alley	-10.6991
▁fuck	-10.6991
▁silo	-10.6992
▁torpedoes	-10.6992
▁data	-10.6992
▁development	-10.6992
▁satan	-10.6994
▁whoops	-10.6994
▁patty	-10.6994
▁tray	-10.6995
▁magician	-10.6995
▁confirmation	-10.6996
▁yoho	-10.6997
▁jamie	-10.6997
▁surf	-10.6998
▁whore	-10.6998
▁relat	-10.7
▁fame	-10.7
▁megan	-10.7
▁swell	-10.7001
▁expression	-10.7002
▁label	-10.7002
▁steven	-10.7002
▁stepped	-10.7002
▁halfway	-10.7003
▁sanders	-10.7004
▁griffin	-10.7006
▁fog	-10.7006
▁jock	-10.7006
▁background	-10.7006
▁allies	-10.7006
▁fuel	-10.7006
▁fran	-10.7007
▁suggestion	-10.7009
▁discussion	-10.701
▁sailor	-10.701
▁mayday	-10.7011
▁officially	-10.7012
▁ditch	-10.7012
▁disappointed	-10.7015
▁chopp	-10.7015
▁marsh	-10.7018
stick	-10.7022
▁particularly	-10.7022
▁peru	-10.7023
▁julien	-10.7024
▁dana	-10.7028
▁tug	-10.7029
nel	-10.703
▁travell	-10.703
▁policeman	-10.7034
▁barnes	-10.7035
▁directly	-10.7037
▁attached	-10.7038
▁restore	-10.7038
▁apply	-10.704
▁frightening	-10.7043
▁toss	-10.7043
▁wounded	-10.7043
▁haul	-10.7045
▁vip	-10.7049
▁wandering	-10.705
▁dusty	-10.7055
▁thee	-10.7059
▁realise	-10.7065
▁naked	-10.7077
▁boxes	-10.7086
▁normally	-10.7096
nna	-10.7099
▁managed	-10.7099
▁blessing	-10.7113
▁kat	-10.7114
▁brag	-10.7122
▁survived	-10.7127
cou	-10.7128
▁indi	-10.7129
▁iii	-10.713
▁dy	-10.7131
berg	-10.7132
▁union	-10.7137
▁suffering	-10.714
▁floating	-10.714
▁planted	-10.7155
▁anne	-10.7162
▁statu	-10.7163
▁nut	-10.7167
▁pretending	-10.7168
▁ink	-10.718
▁robe	-10.7185
▁sailing	-10.7211
▁cracking	-10.7225
▁bou	-10.7238
▁frankie	-10.7244
▁quietly	-10.7246
▁ty	-10.7286
▁climbing	-10.7299
▁musical	-10.7313
bound	-10.7315
tribute	-10.7317
▁smaller	-10.7324
▁cru	-10.7339
▁cape	-10.7372
▁mat	-10.7373
▁workers	-10.7387
▁rode	-10.7391
▁eu	-10.7402
▁peek	-10.7408
▁habitat	-10.7496
olley	-10.7518
▁ku	-10.7564
▁dia	-10.7577
▁crashe	-10.7635
rations	-10.7636
▁sue	-10.765
▁recipe	-10.7762
▁troop	-10.7767
col	-10.7785
▁pip	-10.7829
▁mort	-10.7885
▁owl	-10.789
inner	-10.7922
▁chop	-10.798
▁frighten	-10.7985
▁fright	-10.8009
addie	-10.8022
▁squa	-10.8033
▁tomb	-10.8057
▁spike	-10.8059
owned	-10.8063
▁shoo	-10.807
▁magn	-10.8071
soviet	-10.8074
ability	-10.8075
class	-10.8075
free	-10.8076
piece	-10.8077
▁produce	-10.8077
▁steve	-10.808
▁exam	-10.8083
water	-10.8084
▁accomplish	-10.8091
▁dispos	-10.8091
▁turk	-10.8094
▁companion	-10.8094
▁horri	-10.8095
▁grocer	-10.8095
▁tranquil	-10.8095
▁allergic	-10.8095
▁altogether	-10.8095
▁antidote	-10.8095
▁arguing	-10.8095
▁artichokie	-10.8095
▁breadfruit	-10.8095
▁buffet	-10.8095
▁channel	-10.8095
▁cinnamon	-10.8095
▁clarissa	-10.8095
▁clattering	-10.8095
▁confusion	-10.8095
▁conscience	-10.8095
▁crippl	-10.8095
▁critical	-10.8095
▁dessert	-10.8095
▁dialogue	-10.8095
▁dinosaurs	-10.8095
▁discipline	-10.8095
▁dismiss	-10.8095
▁dumdum	-10.8095
▁easily	-10.8095
▁essential	-10.8095
▁exercise	-10.8095
▁eyebrows	-10.8095
▁feature	-10.8095
▁footprints	-10.8095
▁fortress	-10.8095
▁fozzie	-10.8095
▁furniture	-10.8095
▁gamble	-10.8095
▁gambling	-10.8095
▁genuine	-10.8095
▁godfather	-10.8095
▁governor	-10.8095
▁gradenko	-10.8095
▁gremlin	-10.8095
▁harbor	-10.8095
▁hilarious	-10.8095
▁himmel	-10.8095
▁identification	-10.8095
▁insect	-10.8095
▁intruder	-10.8095
▁isaac	-10.8095
▁jeff	-10.8095
▁jennyanydots	-10.8095
▁keynote	-10.8095
▁kikuyu	-10.8095
▁laundry	-10.8095
▁length	-10.8095
▁negative	-10.8095
▁neglect	-10.8095
▁nemesis	-10.8095
▁oclock	-10.8095
▁olivia	-10.8095
▁overlord	-10.8095
▁perimeter	-10.8095
▁privilege	-10.8095
▁procedure	-10.8095
▁pronounce	-10.8095
▁pursuit	-10.8095
▁recruit	-10.8095
▁refresh	-10.8095
▁reservation	-10.8095
▁respond	-10.8095
▁roosevelt	-10.8095
▁schirmer	-10.8095
▁schuyler	-10.8095
▁sentimental	-10.8095
▁sequel	-10.8095
▁shermin	-10.8095
▁sketch	-10.8095
▁skimbleshanks	-10.8095
▁sorrow	-10.8095
▁splash	-10.8095
▁squirrel	-10.8095
▁stereo	-10.8095
▁strict	-10.8095
▁stroke	-10.8095
▁surgeon	-10.8095
▁technique	-10.8095
▁thorough	-10.8095
▁transylvania	-10.8095
▁undercover	-10.8095
▁unexpected	-10.8095
▁unnatural	-10.8095
▁villain	-10.8095
▁vogel	-10.8095
▁vomit	-10.8095
▁voyage	-10.8095
▁wimbo	-10.8095
▁agency	-10.8095
▁bippityboppity	-10.8095
▁bishop	-10.8095
▁column	-10.8095
▁elbow	-10.8095
▁jersey	-10.8095
▁naughty	-10.8095
▁peanut	-10.8095
▁zordon	-10.8095
▁annual	-10.8095
▁emmett	-10.8095
▁grief	-10.8095
▁hardware	-10.8095
▁heartbeat	-10.8095
▁instance	-10.8095
▁kaiser	-10.8095
▁marcus	-10.8095
▁mumbling	-10.8095
▁mvp	-10.8095
▁potato	-10.8095
▁preacher	-10.8095
▁welch	-10.8095
▁whiskey	-10.8095
▁clinic	-10.8095
▁holland	-10.8095
▁tugger	-10.8095
▁infect	-10.8095
▁battery	-10.8095
▁bloom	-10.8095
▁disney	-10.8095
▁whew	-10.8095
▁firm	-10.8095
▁fraser	-10.8095
▁frau	-10.8095
▁grasp	-10.8095
▁straw	-10.8095
▁krim	-10.8095
▁bacon	-10.8095
▁crystal	-10.8095
▁indicate	-10.8095
▁lecture	-10.8095
▁barrel	-10.8095
▁declare	-10.8095
▁scout	-10.8095
▁tempt	-10.8095
▁larry	-10.8095
▁peck	-10.8095
▁leap	-10.8095
▁ryan	-10.8095
▁instructions	-10.8095
▁explore	-10.8095
▁sniffles	-10.8095
▁facing	-10.8095
▁kidney	-10.8095
▁tropic	-10.8095
▁coleye	-10.8095
▁gokart	-10.8095
▁grove	-10.8095
▁stray	-10.8095
▁shopping	-10.8095
▁physi	-10.8095
▁bidding	-10.8095
▁fommy	-10.8095
▁downtown	-10.8095
▁lisp	-10.8095
▁erase	-10.8095
▁gym	-10.8095
▁batmobile	-10.8095
▁polar	-10.8096
▁jeanette	-10.8096
▁woohoo	-10.8096
▁abort	-10.8096
▁robbed	-10.8096
▁discount	-10.8096
▁munchkin	-10.8096
▁vital	-10.8096
▁glide	-10.8096
▁muttering	-10.8096
▁delightful	-10.8096
▁reef	-10.8096
▁teenagers	-10.8096
▁proposition	-10.8096
▁gazoo	-10.8096
▁adjust	-10.8097
▁marvelous	-10.8097
▁herd	-10.8097
▁asshole	-10.8097
▁jazz	-10.8097
▁lucy	-10.8097
▁closing	-10.8097
▁pacific	-10.8097
▁stall	-10.8098
rimmer	-10.8098
▁skinny	-10.8098
▁cluck	-10.8098
▁digging	-10.8098
▁appearance	-10.8098
▁reflection	-10.8098
▁shaking	-10.8098
▁hmph	-10.8098
▁attic	-10.8099
▁vocaliz	-10.8099
▁oome	-10.8099
▁slice	-10.8099
▁oooh	-10.8099
▁foul	-10.81
▁cabinet	-10.81
▁myth	-10.81
▁flea	-10.81
inlaw	-10.81
▁invention	-10.8101
▁judy	-10.8101
▁childhood	-10.8101
▁rumble	-10.8102
scot	-10.8102
▁flatter	-10.8102
▁charity	-10.8103
▁elsewhere	-10.8103
▁villagers	-10.8103
▁mexico	-10.8104
▁depth	-10.8104
▁swis	-10.8104
▁unlike	-10.8104
▁poisonous	-10.8104
▁riverton	-10.8105
▁pork	-10.8105
▁benny	-10.8106
▁grim	-10.8106
▁spotted	-10.8106
▁inspired	-10.8107
▁bandage	-10.8107
▁jury	-10.8109
handed	-10.8109
▁mick	-10.8111
▁lew	-10.8112
▁bible	-10.8112
▁dating	-10.8112
inister	-10.8113
right	-10.8115
▁adore	-10.8115
▁divided	-10.8116
▁plug	-10.8118
▁wholl	-10.8118
▁hamburg	-10.812
▁vent	-10.812
▁sixty	-10.812
▁oak	-10.8121
▁burst	-10.8121
▁crop	-10.8121
▁cocky	-10.8124
range	-10.8125
▁whip	-10.8126
▁sonny	-10.8126
▁comic	-10.8126
▁laid	-10.8127
▁lane	-10.8128
▁headline	-10.8133
▁assigned	-10.8136
▁invented	-10.8136
▁fairies	-10.8137
▁richest	-10.8138
▁echoing	-10.8138
▁tense	-10.8139
▁classic	-10.8139
▁dough	-10.8142
▁shipment	-10.8144
▁kneel	-10.8148
▁runner	-10.8148
▁removed	-10.8149
▁angeles	-10.815
▁easter	-10.8152
▁provided	-10.8154
▁bench	-10.8156
▁bail	-10.8159
▁bitter	-10.816
▁cue	-10.8161
▁swallowed	-10.8162
▁exploded	-10.8163
▁successful	-10.8163
▁rookie	-10.8164
▁intended	-10.8168
▁fork	-10.8168
▁earned	-10.8181
▁nervously	-10.8183
▁mee	-10.8183
▁required	-10.8187
▁dim	-10.8188
▁shovel	-10.8188
▁appeared	-10.819
▁showtime	-10.819
▁sniper	-10.8193
▁scheduled	-10.8201
▁requested	-10.8207
▁healed	-10.8207
▁bam	-10.8208
▁sweater	-10.8216
▁passes	-10.8222
▁delivery	-10.8228
▁granted	-10.8232
▁completed	-10.8239
▁addie	-10.8242
▁ec	-10.8244
rown	-10.8247
▁served	-10.8248
▁introduced	-10.8248
▁grin	-10.8248
▁resolve	-10.8255
▁authorize	-10.8264
▁lung	-10.8266
▁dent	-10.8266
▁gut	-10.8287
▁smarter	-10.8288
▁tricky	-10.8292
▁messy	-10.8294
▁helpful	-10.8294
▁hitch	-10.8295
nile	-10.8309
▁commander	-10.8327
▁hare	-10.8342
▁dreamt	-10.8363
where	-10.8374
▁ideal	-10.8376
▁reminded	-10.8382
▁tracker	-10.841
▁traveler	-10.8422
▁vern	-10.8426
▁stab	-10.8536
▁occasional	-10.8636
▁parker	-10.8645
▁chim	-10.8646
▁sup	-10.865
ux	-10.8659
▁preserv	-10.8674
▁clo	-10.8739
▁jin	-10.8756
▁cock	-10.8775
list	-10.8844
opat	-10.8851
udge	-10.8879
epo	-10.8885
▁hose	-10.8934
▁sniff	-10.8948
aper	-10.9009
▁chipmunk	-10.9017
nows	-10.9067
uttering	-10.9077
ilia	-10.9081
▁vic	-10.9097
▁deposit	-10.9142
▁mir	-10.9152
▁rag	-10.9157
▁via	-10.9189
▁imagin	-10.9192
itched	-10.9233
▁snip	-10.9235
▁celebr	-10.9298
▁replace	-10.9302
▁threaten	-10.9304
▁arrange	-10.9304
▁flu	-10.9305
▁nor	-10.9309
▁guilt	-10.9314
▁profession	-10.9316
bug	-10.932
bird	-10.9325
▁practical	-10.9325
▁invi	-10.9327
half	-10.9328
▁whwh	-10.9329
▁heave	-10.933
suit	-10.9335
▁pho	-10.9335
▁livin	-10.9336
▁instruct	-10.9337
▁counsel	-10.9337
titude	-10.9343
▁cannon	-10.9344
▁prior	-10.9344
▁circulat	-10.9345
▁inject	-10.9345
▁porridge	-10.9345
▁suspens	-10.9345
▁visual	-10.9345
occupied	-10.9345
▁allamerican	-10.9345
▁anonymous	-10.9345
▁appetite	-10.9345
▁apprentice	-10.9345
▁awkward	-10.9345
▁bayonets	-10.9345
▁belgium	-10.9345
▁believing	-10.9345
▁braxton	-10.9345
▁burrito	-10.9345
▁cabillo	-10.9345
▁catwoman	-10.9345
▁caviar	-10.9345
▁centuries	-10.9345
▁consequence	-10.9345
▁convenient	-10.9345
▁crikey	-10.9345
▁curiosity	-10.9345
▁denmark	-10.9345
▁despite	-10.9345
▁diddly	-10.9345
▁disagree	-10.9345
▁disrespect	-10.9345
▁doublecross	-10.9345
▁dungeon	-10.9345
▁embassy	-10.9345
▁enterprise	-10.9345
▁environment	-10.9345
▁fairchild	-10.9345
▁falafel	-10.9345
▁fooglie	-10.9345
▁frozen	-10.9345
▁furnace	-10.9345
▁galactic	-10.9345
▁gardiner	-10.9345
▁improbability	-10.9345
▁inhales	-10.9345
▁inherit	-10.9345
▁inspiration	-10.9345
▁introduction	-10.9345
▁jewelry	-10.9345
▁kirstie	-10.9345
▁koobeeday	-10.9345
▁librarian	-10.9345
▁lightfoot	-10.9345
▁lsabel	-10.9345
▁meadow	-10.9345
▁minimum	-10.9345
▁montana	-10.9345
▁phillips	-10.9345
▁platoon	-10.9345
▁pneumonia	-10.9345
▁politics	-10.9345
▁possibility	-10.9345
▁privacy	-10.9345
▁proposal	-10.9345
▁resumes	-10.9345
▁rhyme	-10.9345
▁roadblock	-10.9345
▁safari	-10.9345
▁satisfaction	-10.9345
▁scrub	-10.9345
▁separation	-10.9345
▁september	-10.9345
▁shudder	-10.9345
▁slaughter	-10.9345
▁sleeve	-10.9345
▁snicker	-10.9345
▁socalled	-10.9345
▁sophisticat	-10.9345
▁spectre	-10.9345
▁struggle	-10.9345
▁struther	-10.9345
▁supervisor	-10.9345
▁telegram	-10.9345
▁terence	-10.9345
▁terrify	-10.9345
▁theodora	-10.9345
▁therapy	-10.9345
▁trespass	-10.9345
▁umezaki	-10.9345
▁unconscious	-10.9345
▁unhappy	-10.9345
▁unpleasant	-10.9345
▁vegetable	-10.9345
▁violent	-10.9345
▁wakati	-10.9345
▁werewolf	-10.9345
▁withdraw	-10.9345
▁zombie	-10.9345
▁accelerat	-10.9345
▁anchor	-10.9345
▁assault	-10.9345
▁chimney	-10.9345
▁connors	-10.9345
▁identify	-10.9345
▁liliane	-10.9345
▁maude	-10.9345
▁maureen	-10.9345
▁melody	-10.9345
▁overseas	-10.9345
▁polish	-10.9345
▁puddle	-10.9345
▁reaction	-10.9345
▁signature	-10.9345
▁smoking	-10.9345
▁summon	-10.9345
▁trading	-10.9345
xious	-10.9345
▁airplane	-10.9345
▁barnyard	-10.9345
▁caesar	-10.9345
▁derval	-10.9345
▁existence	-10.9345
▁gordon	-10.9345
▁grady	-10.9345
▁judging	-10.9345
▁ltalian	-10.9345
▁phase	-10.9345
▁salute	-10.9345
▁sheep	-10.9345
▁tempo	-10.9345
▁venom	-10.9345
▁beacon	-10.9345
▁becoming	-10.9345
▁carriage	-10.9345
▁corrupt	-10.9345
▁household	-10.9345
▁lavender	-10.9345
▁liberty	-10.9345
▁melvin	-10.9345
▁typical	-10.9345
▁violat	-10.9345
▁dawg	-10.9345
▁phew	-10.9345
▁ufo	-10.9345
▁wiggin	-10.9345
▁dairy	-10.9345
▁guinea	-10.9345
▁indoor	-10.9345
▁vermin	-10.9345
▁butterfly	-10.9345
▁iowa	-10.9345
▁balance	-10.9345
▁chorus	-10.9345
▁clamoring	-10.9345
▁bunion	-10.9345
▁kelp	-10.9345
▁nfl	-10.9345
▁stallyn	-10.9345
▁vlad	-10.9345
▁clerk	-10.9345
▁online	-10.9345
▁slick	-10.9345
▁vault	-10.9345
▁dragged	-10.9345
▁appeal	-10.9345
▁reboot	-10.9345
▁cherish	-10.9345
▁poacher	-10.9345
▁iike	-10.9345
▁worn	-10.9345
▁rustle	-10.9345
▁puff	-10.9345
▁slug	-10.9345
▁panero	-10.9345
▁bleh	-10.9345
▁frost	-10.9345
▁warrant	-10.9345
▁italy	-10.9345
▁smack	-10.9345
▁maniac	-10.9345
▁soda	-10.9345
▁keen	-10.9345
▁epic	-10.9345
▁harsh	-10.9345
▁memorial	-10.9345
▁dishes	-10.9345
▁hitchhikers	-10.9345
▁internal	-10.9345
▁fireworks	-10.9345
▁waddl	-10.9345
▁carries	-10.9345
▁defy	-10.9345
▁interfere	-10.9345
▁reject	-10.9345
▁zords	-10.9345
▁underground	-10.9345
▁exterminator	-10.9345
▁representative	-10.9346
▁coke	-10.9346
▁breed	-10.9346
▁willie	-10.9346
▁ltaly	-10.9346
▁lobby	-10.9346
▁lunatic	-10.9346
▁martial	-10.9346
▁pedal	-10.9346
▁neighbourhood	-10.9346
▁occurred	-10.9346
▁neville	-10.9346
▁prank	-10.9346
▁whatwhat	-10.9346
▁sobs	-10.9346
▁seville	-10.9346
▁limb	-10.9347
▁update	-10.9347
▁diana	-10.9347
▁ashley	-10.9347
▁colour	-10.9347
▁festival	-10.9347
▁comedian	-10.9347
▁moonlight	-10.9347
▁administration	-10.9347
▁theory	-10.9347
▁humina	-10.9347
▁civilian	-10.9348
▁clawson	-10.9348
▁paperwork	-10.9348
▁wyl	-10.9348
▁zipper	-10.9348
▁inaudible	-10.9348
▁yeeha	-10.9348
▁backwards	-10.9348
▁replacement	-10.9348
▁television	-10.9348
▁committed	-10.9348
▁begging	-10.9349
▁munk	-10.9349
▁ladybug	-10.9349
▁forty	-10.935
▁mere	-10.935
▁heelis	-10.935
▁retirement	-10.935
▁mutters	-10.9351
▁manual	-10.9351
▁manners	-10.9351
▁courtland	-10.9351
▁possession	-10.9351
▁execution	-10.9351
▁unborn	-10.9352
▁potty	-10.9352
▁sensitive	-10.9352
▁inventor	-10.9352
▁programmed	-10.9352
▁oath	-10.9352
▁wasp	-10.9352
▁colley	-10.9352
▁counselor	-10.9353
▁alike	-10.9353
▁hank	-10.9353
▁mental	-10.9353
▁amuse	-10.9354
▁crust	-10.9354
▁slightest	-10.9354
▁mason	-10.9354
▁twa	-10.9354
▁didi	-10.9355
▁porch	-10.9356
▁zachary	-10.9356
▁eastman	-10.9357
▁starving	-10.9357
▁presidential	-10.9357
▁tonic	-10.9357
▁rice	-10.9358
▁engaged	-10.9358
▁june	-10.9359
▁mullet	-10.9359
▁production	-10.936
type	-10.936
▁through	-10.936
▁pki	-10.936
▁grey	-10.9361
▁benson	-10.9362
▁gumb	-10.9362
▁feei	-10.9362
▁footage	-10.9363
quaint	-10.9363
▁determined	-10.9364
▁rug	-10.9364
▁woodsman	-10.9365
tious	-10.9365
▁roommate	-10.9365
▁bunk	-10.9365
▁ego	-10.9366
▁flag	-10.9366
▁raid	-10.9366
▁milles	-10.9366
▁passage	-10.9366
▁sneakers	-10.9367
▁folder	-10.9367
▁machinery	-10.9367
▁applauding	-10.9367
▁gay	-10.9369
▁isolated	-10.9369
▁toll	-10.937
▁pinch	-10.937
▁poem	-10.9371
▁ana	-10.9372
▁ciao	-10.9374
▁demo	-10.9374
▁theo	-10.9381
hole	-10.9385
▁dougie	-10.9386
▁bora	-10.9389
▁rarely	-10.9392
point	-10.9392
▁thrilled	-10.9392
▁andrea	-10.9393
▁dull	-10.9394
▁reai	-10.9397
▁hugh	-10.9398
▁threatened	-10.9399
▁cruci	-10.94
▁eighth	-10.9411
▁momma	-10.9417
▁evi	-10.9421
▁wiped	-10.9423
▁thus	-10.9423
▁naturally	-10.9424
▁larger	-10.9425
▁kate	-10.9427
▁sole	-10.9428
▁patch	-10.9432
odle	-10.9432
▁passion	-10.9435
▁lace	-10.9435
asser	-10.9437
▁spite	-10.9443
▁swat	-10.9446
▁factor	-10.9446
▁recognized	-10.945
▁sensei	-10.9452
▁starve	-10.9455
▁yah	-10.9456
▁mating	-10.9457
▁lily	-10.9468
fit	-10.9468
▁dreamers	-10.9472
ella	-10.948
▁tire	-10.9486
▁lifetime	-10.9502
▁faithful	-10.9526
▁statue	-10.9537
ami	-10.9539
▁foryou	-10.9541
▁funk	-10.9555
▁transferr	-10.9557
llowed	-10.9563
▁tob	-10.9583
var	-10.9596
plan	-10.9648
rpent	-10.9682
▁gato	-10.9687
▁aa	-10.9716
▁scramble	-10.9732
elli	-10.9736
mic	-10.9778
bach	-10.9798
▁shar	-10.9884
four	-10.9887
denial	-10.9919
jinx	-10.9958
▁fianc	-10.9962
▁bullie	-10.998
▁pent	-11.0043
▁graduate	-11.0055
▁remarkabl	-11.0101
ammed	-11.0134
▁pint	-11.0141
▁wool	-11.0147
active	-11.0173
▁slap	-11.0201
▁crud	-11.024
▁peel	-11.0244
▁abo	-11.0316
plication	-11.0381
▁click	-11.0389
▁investigate	-11.0397
▁degree	-11.0438
▁arrangement	-11.044
lumber	-11.0458
▁skill	-11.047
▁author	-11.0553
▁jac	-11.0625
▁custom	-11.0638
▁surviv	-11.066
gai	-11.0669
▁invent	-11.0704
▁neigh	-11.0712
▁assign	-11.0716
▁thrill	-11.0719
friend	-11.073
▁commission	-11.0731
▁facilit	-11.0742
▁ofyou	-11.0744
ology	-11.0745
daughter	-11.0752
plus	-11.0754
worth	-11.0754
▁precise	-11.0754
▁absolute	-11.0754
guy	-11.0755
maker	-11.0755
minded	-11.0757
chair	-11.0758
▁torpedo	-11.0762
▁fold	-11.0763
▁execut	-11.0764
▁movin	-11.0764
▁possess	-11.0766
▁educat	-11.0766
▁runnin	-11.0766
▁cloth	-11.0766
ption	-11.0767
human	-11.0768
train	-11.077
▁consult	-11.0771
▁teenage	-11.0771
▁scram	-11.0772
▁confident	-11.0773
▁vandal	-11.0773
greatgrandfather	-11.0773
misunderstanding	-11.0773
▁advisor	-11.0773
▁almighty	-11.0773
▁arizona	-11.0773
▁august	-11.0773
▁automated	-11.0773
▁bissinger	-11.0773
▁brannit	-11.0773
▁bulldozer	-11.0773
▁chandelier	-11.0773
▁chauffeur	-11.0773
▁circuit	-11.0773
▁circus	-11.0773
▁civilization	-11.0773
▁clarinet	-11.0773
▁cockroach	-11.0773
▁contradiction	-11.0773
▁cornwall	-11.0773
▁cottage	-11.0773
▁culture	-11.0773
▁curfew	-11.0773
▁custody	-11.0773
▁description	-11.0773
▁dimension	-11.0773
▁disapprove	-11.0773
▁distinguished	-11.0773
▁dynamic	-11.0773
▁ecstasy	-11.0773
▁escaping	-11.0773
▁eugene	-11.0773
▁evanora	-11.0773
▁exploding	-11.0773
▁extensive	-11.0773
▁fantasies	-11.0773
▁fifteen	-11.0773
▁fragile	-11.0773
▁gibson	-11.0773
▁globe	-11.0773
▁granada	-11.0773
▁guignol	-11.0773
▁hightower	-11.0773
▁humphrey	-11.0773
▁indonesia	-11.0773
▁jenkins	-11.0773
▁kavula	-11.0773
▁kovac	-11.0773
▁lincoln	-11.0773
▁luxury	-11.0773
▁machete	-11.0773
▁mcgovern	-11.0773
▁mcmillan	-11.0773
▁meanwhile	-11.0773
▁mortgage	-11.0773
▁mungojerrie	-11.0773
▁nassau	-11.0773
▁negotiat	-11.0773
▁nitwit	-11.0773
▁obliged	-11.0773
▁occupation	-11.0773
▁offensive	-11.0773
▁orchestra	-11.0773
▁osmosis	-11.0773
▁outnumber	-11.0773
▁papillon	-11.0773
▁perfume	-11.0773
▁periscope	-11.0773
▁predict	-11.0773
▁premises	-11.0773
▁province	-11.0773
▁pursue	-11.0773
▁qualified	-11.0773
▁reference	-11.0773
▁rehydrate	-11.0773
▁rumpelteazer	-11.0773
▁sabotage	-11.0773
▁saliva	-11.0773
▁shelves	-11.0773
▁shivers	-11.0773
▁softpaws	-11.0773
▁spectroscope	-11.0773
▁stadium	-11.0773
▁stepsisters	-11.0773
▁sunflower	-11.0773
▁swirl	-11.0773
▁temporarily	-11.0773
▁throttle	-11.0773
▁tissue	-11.0773
▁tornado	-11.0773
▁tournament	-11.0773
▁traitor	-11.0773
▁transmission	-11.0773
▁vacuum	-11.0773
▁vegetarian	-11.0773
▁violence	-11.0773
▁volante	-11.0773
▁volcano	-11.0773
▁wainwright	-11.0773
▁whiskers	-11.0773
▁wisconsin	-11.0773
▁wyoming	-11.0773
▁yummy	-11.0773
▁aspirin	-11.0773
▁capsule	-11.0773
▁condemn	-11.0773
▁federal	-11.0773
▁handcuff	-11.0773
▁initial	-11.0773
▁install	-11.0773
▁intention	-11.0773
▁invitation	-11.0773
▁jefferson	-11.0773
▁leopard	-11.0773
▁mertin	-11.0773
▁narrow	-11.0773
▁rapidly	-11.0773
▁revoir	-11.0773
▁rubbish	-11.0773
▁rupert	-11.0773
▁speculat	-11.0773
▁thuds	-11.0773
▁twitchy	-11.0773
▁beryl	-11.0773
▁edition	-11.0773
▁fuzzy	-11.0773
▁kramer	-11.0773
▁leonard	-11.0773
▁monstro	-11.0773
▁negus	-11.0773
▁southwest	-11.0773
▁wharton	-11.0773
▁zamu	-11.0773
▁dwar	-11.0773
▁constable	-11.0773
▁swipe	-11.0773
▁eager	-11.0773
▁couid	-11.0773
▁lodge	-11.0773
▁reign	-11.0773
▁snuck	-11.0773
▁aruk	-11.0773
▁gulf	-11.0773
▁ncaa	-11.0773
▁quack	-11.0773
▁sample	-11.0773
▁applied	-11.0773
▁felon	-11.0773
▁ankle	-11.0773
▁drix	-11.0773
▁scandal	-11.0773
▁wagon	-11.0773
▁waltz	-11.0773
▁angle	-11.0773
▁motel	-11.0773
▁hypo	-11.0773
▁sofa	-11.0774
▁addict	-11.0774
▁rusty	-11.0774
▁strait	-11.0774
▁giri	-11.0774
▁silk	-11.0774
▁bbc	-11.0774
▁stack	-11.0774
▁tarik	-11.0774
▁bradlee	-11.0774
▁winslow	-11.0774
▁jeep	-11.0774
▁omg	-11.0774
▁buoy	-11.0774
▁henk	-11.0774
▁holt	-11.0774
▁survivors	-11.0774
▁wailing	-11.0774
▁extend	-11.0774
▁puke	-11.0774
▁restrain	-11.0774
▁fortyfive	-11.0774
▁crows	-11.0774
▁regiment	-11.0774
▁misery	-11.0774
▁carrot	-11.0774
▁leak	-11.0774
▁opposite	-11.0774
▁headache	-11.0774
▁budget	-11.0774
▁series	-11.0774
▁coloma	-11.0774
▁download	-11.0774
▁gagging	-11.0774
▁slack	-11.0774
▁andrews	-11.0774
▁waitress	-11.0774
▁yyou	-11.0774
▁whorehouse	-11.0774
▁lousy	-11.0774
▁francisco	-11.0775
▁dibs	-11.0775
▁carpet	-11.0775
▁network	-11.0775
▁rattling	-11.0775
▁nuns	-11.0775
▁quarr	-11.0775
▁gravity	-11.0775
▁recess	-11.0775
▁canada	-11.0776
▁triumphant	-11.0776
▁haveyou	-11.0776
▁britain	-11.0776
▁fern	-11.0776
▁avenue	-11.0776
▁profit	-11.0776
▁disappointment	-11.0776
▁employee	-11.0776
▁cozy	-11.0776
▁argue	-11.0776
▁franco	-11.0776
▁minister	-11.0776
▁gummy	-11.0777
▁riff	-11.0777
▁blake	-11.0777
▁diaper	-11.0777
▁mammal	-11.0777
▁operative	-11.0777
▁obey	-11.0777
▁salary	-11.0777
▁swan	-11.0777
▁gangway	-11.0778
▁intensi	-11.0778
▁album	-11.0778
▁cheerful	-11.0778
▁inspection	-11.0779
▁robbing	-11.0779
▁visa	-11.0779
▁organized	-11.0779
▁massive	-11.0779
wise	-11.078
▁emotional	-11.078
▁objective	-11.078
▁stuntman	-11.078
▁tutor	-11.078
▁timmy	-11.078
▁ruth	-11.0781
▁pony	-11.0781
▁teddy	-11.0781
timate	-11.0781
▁portrait	-11.0782
▁rubble	-11.0782
▁hurl	-11.0782
▁mold	-11.0782
▁richardson	-11.0782
▁instructor	-11.0782
▁robinson	-11.0783
▁upper	-11.0783
▁marvel	-11.0783
▁owns	-11.0783
▁creative	-11.0784
▁echoes	-11.0784
▁whatre	-11.0784
▁berlin	-11.0785
▁craft	-11.0785
▁mobile	-11.0785
berty	-11.0785
▁eagleton	-11.0785
▁leaderless	-11.0785
▁yahoo	-11.0785
▁luna	-11.0785
▁chub	-11.0785
▁exterminate	-11.0786
▁forth	-11.0786
▁ninety	-11.0786
▁religion	-11.0786
▁mica	-11.0787
▁freezing	-11.0787
▁electricity	-11.0787
▁trill	-11.0787
▁mmmmm	-11.0788
▁jess	-11.0788
▁broad	-11.0788
▁hors	-11.0788
▁woof	-11.079
▁heir	-11.079
eather	-11.0792
▁itch	-11.0792
▁shade	-11.0793
▁quitting	-11.0794
ride	-11.0794
▁kart	-11.0796
▁torch	-11.0796
▁crate	-11.0797
▁eva	-11.0799
▁urin	-11.0799
▁robotic	-11.08
▁booth	-11.08
▁rib	-11.0801
▁assist	-11.0802
▁chapin	-11.0803
▁gill	-11.0804
▁squash	-11.0804
▁twit	-11.0807
▁verse	-11.0808
▁maxie	-11.081
▁semi	-11.0811
▁quote	-11.0813
▁mustang	-11.0815
▁ramp	-11.0816
▁spur	-11.0816
▁juve	-11.0816
▁stung	-11.0816
▁vine	-11.0818
▁dc	-11.0819
itive	-11.0823
▁packers	-11.0823
▁pail	-11.0825
bone	-11.0826
ood	-11.0827
▁nora	-11.0829
▁pose	-11.0829
▁strongest	-11.0833
▁chivalr	-11.0835
▁controll	-11.0835
▁casa	-11.0836
nette	-11.0837
▁zit	-11.0838
▁caw	-11.0839
▁conch	-11.0839
▁vari	-11.0841
▁iive	-11.0847
▁fist	-11.0852
▁rl	-11.0853
▁grumbl	-11.0855
▁kenne	-11.0861
▁ami	-11.0865
▁viper	-11.0866
▁poke	-11.087
mmy	-11.0882
▁fleet	-11.0893
cru	-11.0898
flex	-11.092
▁bio	-11.0925
flint	-11.0935
▁damp	-11.0952
▁temper	-11.099
▁beak	-11.1001
▁thou	-11.1001
▁bor	-11.1049
▁petit	-11.1108
lore	-11.1177
food	-11.1181
pack	-11.1204
ripping	-11.1233
▁gag	-11.1291
▁ooo	-11.1299
▁iv	-11.1349
▁sag	-11.1361
▁mini	-11.1397
▁navigate	-11.1406
jour	-11.1444
meter	-11.1447
▁oof	-11.1452
▁agh	-11.1465
ttling	-11.1508
▁torn	-11.1523
▁untie	-11.1543
▁fau	-11.1545
acker	-11.1585
▁troll	-11.1596
ctur	-11.1733
▁axe	-11.1791
nders	-11.1892
▁purchase	-11.2016
script	-11.204
▁experienc	-11.2067
▁warrior	-11.2105
▁oop	-11.2128
served	-11.2226
▁whil	-11.225
lush	-11.2302
logy	-11.2344
▁echo	-11.2365
doubted	-11.2372
▁howl	-11.2376
▁accord	-11.2376
▁origin	-11.238
ground	-11.2381
▁disappoint	-11.2383
▁coop	-11.239
▁delight	-11.2402
▁flow	-11.2419
through	-11.2419
bury	-11.242
guard	-11.242
mouth	-11.2421
version	-11.2422
▁religio	-11.2425
▁russia	-11.2425
▁joann	-11.2426
▁cruise	-11.2427
▁lovin	-11.2431
▁darlin	-11.2431
▁distinct	-11.2432
person	-11.2432
▁vocal	-11.2434
▁kiddin	-11.2434
▁triumph	-11.2437
▁contra	-11.2438
track	-11.2438
wire	-11.2439
▁bootleg	-11.2439
▁liquor	-11.2439
▁succ	-11.244
▁mutt	-11.244
▁prosecut	-11.244
▁transmitt	-11.244
jurisdiction	-11.244
▁accurate	-11.244
▁activities	-11.244
▁admission	-11.244
▁aggressive	-11.244
▁alternative	-11.244
▁anastasia	-11.244
▁anniversary	-11.244
▁armonica	-11.244
▁barbarian	-11.244
▁barbecue	-11.244
▁beeblebrox	-11.244
▁bluebeard	-11.244
▁bourbon	-11.244
▁bustopher	-11.244
▁cadillac	-11.244
▁camouflage	-11.244
▁circumnavigat	-11.244
▁collapse	-11.244
▁colleague	-11.244
▁compartment	-11.244
▁contempt	-11.244
▁contribution	-11.244
▁corporation	-11.244
▁dedication	-11.244
▁dictate	-11.244
▁doughnut	-11.244
▁eccentric	-11.244
▁eisenhower	-11.244
▁entertainment	-11.244
▁error	-11.244
▁erwin	-11.244
▁esquire	-11.244
▁excitement	-11.244
▁eyewitness	-11.244
▁fanfare	-11.244
▁fascist	-11.244
▁figuring	-11.244
▁fountain	-11.244
▁glimpse	-11.244
▁groove	-11.244
▁guidance	-11.244
▁gurney	-11.244
▁halloween	-11.244
▁hartmann	-11.244
▁heffley	-11.244
▁hibernate	-11.244
▁hubbard	-11.244
▁ingenious	-11.244
▁intellectual	-11.244
▁iook	-11.244
▁isabel	-11.244
▁jumanji	-11.244
▁kangaroo	-11.244
▁kathleen	-11.244
▁kindergarten	-11.244
▁knives	-11.244
▁lolita	-11.244
▁macmorrow	-11.244
▁madagascar	-11.244
▁magnificent	-11.244
▁makebelieve	-11.244
▁margaret	-11.244
▁mccord	-11.244
▁melanchol	-11.244
▁melodrama	-11.244
▁merchandise	-11.244
▁mistress	-11.244
▁monstrule	-11.244
▁montgomery	-11.244
▁moscow	-11.244
▁muslim	-11.244
▁nagamaki	-11.244
▁neviile	-11.244
▁nickname	-11.244
▁nijmegen	-11.244
▁nutmeg	-11.244
▁octopus	-11.244
▁oldfashioned	-11.244
▁optim	-11.244
▁orchard	-11.244
▁overthrow	-11.244
▁patriot	-11.244
▁pentagon	-11.244
▁peopie	-11.244
▁petunia	-11.244
▁pregnant	-11.244
▁propeller	-11.244
▁quintel	-11.244
▁raccoons	-11.244
▁reproducti	-11.244
▁republican	-11.244
▁residence	-11.244
▁rinaldi	-11.244
▁satisfied	-11.244
▁scalp	-11.244
▁scaredycat	-11.244
▁schmidlapp	-11.244
▁schuster	-11.244
▁shuffle	-11.244
▁similar	-11.244
▁slurp	-11.244
▁snorts	-11.244
▁solution	-11.244
▁steckler	-11.244
▁strategy	-11.244
▁stubborn	-11.244
▁suspicion	-11.244
▁tolerate	-11.244
▁translate	-11.244
▁transplant	-11.244
▁tremendous	-11.244
▁trophy	-11.244
▁twentysix	-11.244
▁umbrella	-11.244
▁underhill	-11.244
▁underwear	-11.244
▁unknown	-11.244
▁unmarried	-11.244
▁vigusian	-11.244
▁vitamin	-11.244
▁weasel	-11.244
▁wellknown	-11.244
▁whatsoever	-11.244
▁wondrous	-11.244
▁yowls	-11.244
▁amateur	-11.244
▁arrogan	-11.244
▁beverage	-11.244
▁blonde	-11.244
▁bruise	-11.244
▁censor	-11.244
▁chitchat	-11.244
▁comanche	-11.244
▁devot	-11.244
▁dublin	-11.244
▁embrace	-11.244
▁enclos	-11.244
▁ghoul	-11.244
▁godmother	-11.244
▁gracious	-11.244
▁greenbaum	-11.244
▁grotto	-11.244
▁gypsy	-11.244
▁intense	-11.244
▁mombasa	-11.244
▁oould	-11.244
▁opposition	-11.244
▁overwhelm	-11.244
▁pudding	-11.244
▁purrfect	-11.244
▁ribbon	-11.244
▁shabby	-11.244
▁squirt	-11.244
▁ultra	-11.244
▁uuh	-11.244
▁yoohoo	-11.244
▁gibb	-11.244
▁gipping	-11.244
▁hanover	-11.244
▁hobby	-11.244
▁portsmouth	-11.244
▁rainbow	-11.244
▁steak	-11.244
▁sunrise	-11.244
▁undertake	-11.244
▁banner	-11.244
▁bookkeeper	-11.244
▁bounty	-11.244
▁choking	-11.244
▁dignity	-11.244
▁monaster	-11.244
▁nigel	-11.244
▁pulse	-11.244
▁reckon	-11.244
▁romance	-11.244
▁vessel	-11.244
▁willat	-11.244
▁bellhop	-11.244
▁lajoie	-11.244
▁shelf	-11.244
▁tooth	-11.244
▁waiver	-11.244
▁bargain	-11.244
▁conceal	-11.244
voluntar	-11.244
▁jackpot	-11.244
▁wrist	-11.244
▁brink	-11.244
▁domino	-11.244
▁hysterical	-11.244
▁mutant	-11.244
▁oohooh	-11.244
▁random	-11.244
▁swap	-11.244
cadabra	-11.244
▁martinez	-11.244
▁yelp	-11.244
▁blob	-11.244
▁nutritio	-11.244
▁rack	-11.244
▁thump	-11.244
▁banish	-11.244
▁generator	-11.244
▁japanese	-11.244
▁marries	-11.244
▁protest	-11.244
▁smog	-11.244
▁hush	-11.244
▁sedative	-11.244
▁sexual	-11.244
responsibilities	-11.244
▁smite	-11.244
▁entry	-11.244
▁amusing	-11.244
▁vanished	-11.244
▁blend	-11.244
▁method	-11.244
▁pigeon	-11.244
▁barrier	-11.244
urban	-11.244
▁kiri	-11.244
▁prettie	-11.244
▁adios	-11.244
▁lease	-11.244
▁liking	-11.244
▁linden	-11.244
▁rookery	-11.244
▁sansho	-11.244
▁taxes	-11.244
▁eighteen	-11.244
▁yuck	-11.244
▁offended	-11.244
▁stomp	-11.244
▁masai	-11.244
▁grain	-11.2441
▁mustache	-11.2441
▁brigad	-11.2441
▁bicycle	-11.2441
▁molly	-11.2441
▁columbia	-11.2441
▁application	-11.2441
▁function	-11.2441
▁gossip	-11.2441
▁milli	-11.2441
▁vandalism	-11.2441
▁drift	-11.2441
▁diversion	-11.2441
▁wrinkle	-11.2441
▁ransom	-11.2441
▁dickens	-11.2441
▁gonzo	-11.2441
▁moines	-11.2441
▁aisle	-11.2441
audible	-11.2441
▁lethal	-11.2441
▁latin	-11.2442
▁outrageous	-11.2442
▁engagement	-11.2442
▁lemonade	-11.2442
▁supposi	-11.2442
▁rustlin	-11.2442
▁stern	-11.2442
▁trillian	-11.2442
▁referring	-11.2442
▁friggin	-11.2442
▁granddaughter	-11.2442
▁aircraft	-11.2442
▁luther	-11.2442
▁carniv	-11.2442
▁flaming	-11.2442
▁baffle	-11.2443
▁mature	-11.2443
▁contrary	-11.2443
▁tramp	-11.2443
▁nadine	-11.2443
▁ahmed	-11.2443
▁permitted	-11.2443
▁passionate	-11.2443
▁rebel	-11.2444
▁blink	-11.2444
▁edward	-11.2444
▁bugging	-11.2444
luja	-11.2444
▁edgy	-11.2444
▁rummag	-11.2444
▁humour	-11.2445
▁route	-11.2445
▁organism	-11.2445
▁accomplishment	-11.2445
▁investigative	-11.2445
▁begged	-11.2445
▁sammy	-11.2445
▁whack	-11.2446
▁regulator	-11.2447
▁drinkwater	-11.2447
▁riot	-11.2447
▁hades	-11.2447
▁crav	-11.2447
▁gateway	-11.2448
▁leah	-11.2448
▁hooting	-11.2448
▁distinction	-11.2448
▁grub	-11.2448
▁classroom	-11.2448
▁iong	-11.2448
▁clip	-11.2448
▁dropbox	-11.2449
▁hq	-11.2449
▁josephine	-11.2449
▁rising	-11.2449
▁rapping	-11.245
▁grownup	-11.2451
dont	-11.2451
▁rita	-11.2451
▁wewe	-11.2451
▁minus	-11.2452
▁missionary	-11.2452
▁pact	-11.2453
▁groom	-11.2453
▁distraction	-11.2454
▁cruiser	-11.2454
▁dread	-11.2454
▁infra	-11.2455
▁flown	-11.2456
▁joanna	-11.2456
▁management	-11.2457
▁homing	-11.2457
▁brian	-11.2458
▁chimes	-11.2458
▁organist	-11.2459
▁acid	-11.2459
▁alter	-11.2459
▁appar	-11.246
▁harmless	-11.246
▁perrin	-11.246
▁caption	-11.2461
fast	-11.2461
▁european	-11.2461
▁bravery	-11.2462
▁doyou	-11.2462
▁warden	-11.2462
ector	-11.2462
▁lsnt	-11.2463
▁roam	-11.2463
▁eastern	-11.2464
▁broom	-11.2465
▁soil	-11.2465
▁wax	-11.2466
▁tackle	-11.2466
▁barber	-11.2466
▁bev	-11.2466
▁proto	-11.2467
▁task	-11.2468
▁reub	-11.2468
▁bellow	-11.2469
▁crest	-11.2469
▁acceptable	-11.2469
▁slit	-11.247
▁hoof	-11.2475
▁perth	-11.2478
made	-11.248
▁stain	-11.2482
▁workshop	-11.2487
▁gutter	-11.2487
▁lens	-11.2491
▁razo	-11.2493
▁historical	-11.2493
▁kam	-11.2493
▁mutat	-11.2494
▁lob	-11.2508
zord	-11.2508
vili	-11.251
▁logical	-11.2517
▁cooperat	-11.2523
▁bik	-11.2548
▁scu	-11.258
▁asia	-11.2581
▁ensur	-11.2589
▁frequent	-11.262
▁receiv	-11.2737
nnies	-11.2758
▁preston	-11.2768
▁seize	-11.2777
▁provo	-11.2872
gui	-11.2875
cathed	-11.3009
▁parad	-11.3052
▁identifie	-11.3131
▁rival	-11.3157
civilized	-11.3253
▁bake	-11.3255
▁remark	-11.3296
▁primar	-11.3321
valry	-11.3558
ception	-11.3639
identified	-11.3657
▁opera	-11.3675
oooo	-11.3721
ivan	-11.3766
▁cobb	-11.3782
oint	-11.3818
▁contri	-11.3881
spective	-11.4022
▁groan	-11.4051
▁penetrate	-11.4083
▁stair	-11.4104
▁klopek	-11.4105
▁felin	-11.4144
ggin	-11.417
▁visi	-11.4248
allah	-11.4295
▁athlet	-11.4339
writer	-11.4357
▁alleg	-11.4373
▁screech	-11.4377
▁disgust	-11.4377
▁bleed	-11.4379
▁surround	-11.4387
▁isolate	-11.44
▁divide	-11.44
▁relieve	-11.4401
▁confuse	-11.4401
▁necessar	-11.441
▁greed	-11.4412
▁positiv	-11.4417
▁unbelievabl	-11.4418
▁incredibl	-11.442
minute	-11.442
would	-11.4421
▁immediate	-11.4421
▁hawk	-11.4422
proof	-11.4423
▁mexic	-11.4424
▁inspect	-11.4425
▁regulat	-11.4432
▁electron	-11.4437
▁immortal	-11.4437
cycle	-11.4438
▁jenni	-11.4439
venue	-11.444
▁lollygagg	-11.444
frequenc	-11.444
▁bankrupt	-11.444
▁hendri	-11.444
▁rewind	-11.444
adequate	-11.444
bolical	-11.444
▁abbott	-11.444
▁absence	-11.444
▁accommodat	-11.444
▁admiralty	-11.444
▁airdrop	-11.444
▁alabama	-11.444
▁alcohol	-11.444
▁allergies	-11.444
▁ambulance	-11.444
▁ambush	-11.444
▁anglosaxon	-11.444
▁apologise	-11.444
▁appreciation	-11.444
▁aristocrat	-11.444
▁arlette	-11.444
▁artillery	-11.444
▁ashtray	-11.444
▁assemble	-11.444
▁atlantis	-11.444
▁ausfahrt	-11.444
▁aviation	-11.444
▁behaviour	-11.444
▁berserk	-11.444
▁biscuit	-11.444
▁bluffing	-11.444
▁brisbane	-11.444
▁broussard	-11.444
▁butler	-11.444
▁bypass	-11.444
▁calendar	-11.444
▁caribbean	-11.444
▁catholic	-11.444
▁charleshenri	-11.444
▁choosing	-11.444
▁concludes	-11.444
▁constitution	-11.444
▁convenience	-11.444
▁corridor	-11.444
▁criticism	-11.444
▁croaking	-11.444
▁crustacean	-11.444
▁defence	-11.444
▁degenerate	-11.444
▁demonstrate	-11.444
▁dempsey	-11.444
▁depression	-11.444
▁destructive	-11.444
▁diorama	-11.444
▁diplomat	-11.444
▁disorderly	-11.444
▁dispatch	-11.444
▁doeuvre	-11.444
▁drisella	-11.444
▁dubbing	-11.444
▁easiest	-11.444
▁economy	-11.444
▁eindhoven	-11.444
▁envelope	-11.444
▁equipped	-11.444
▁espionage	-11.444
▁everlasting	-11.444
▁exclusive	-11.444
▁expenses	-11.444
▁exploring	-11.444
▁extension	-11.444
▁fantasy	-11.444
▁fiction	-11.444
▁finletter	-11.444
▁fireplace	-11.444
▁fluffy	-11.444
▁frenzy	-11.444
▁fruitcake	-11.444
▁frustrat	-11.444
▁geographic	-11.444
▁gertrude	-11.444
▁glamour	-11.444
▁glitter	-11.444
▁gracias	-11.444
▁grandchildren	-11.444
▁grieving	-11.444
▁hawaii	-11.444
▁helmet	-11.444
▁hideandseek	-11.444
▁horizon	-11.444
▁horror	-11.444
▁humiliating	-11.444
▁imbecile	-11.444
▁impeccabl	-11.444
▁imprisoned	-11.444
▁impulse	-11.444
▁inconvenience	-11.444
▁independent	-11.444
▁industry	-11.444
▁infirmary	-11.444
▁institution	-11.444
▁invasion	-11.444
▁jacuzzi	-11.444
▁karaoke	-11.444
▁karlin	-11.444
▁knapp	-11.444
▁lizard	-11.444
▁lombok	-11.444
▁loneliness	-11.444
▁matilda	-11.444
▁maximum	-11.444
▁mckeltch	-11.444
▁meerkat	-11.444
▁microwave	-11.444
▁mongrel	-11.444
▁monopoly	-11.444
▁morocco	-11.444
▁morosky	-11.444
▁muiranthias	-11.444
▁nevilie	-11.444
▁nourishment	-11.444
▁nowadays	-11.444
▁okeydoke	-11.444
▁pakistan	-11.444
▁parseghian	-11.444
▁passport	-11.444
▁pellets	-11.444
▁phantom	-11.444
▁pingpong	-11.444
▁pittsburgh	-11.444
▁platform	-11.444
▁priya	-11.444
▁profound	-11.444
▁pyjamas	-11.444
▁quimby	-11.444
▁receipt	-11.444
▁recognise	-11.444
▁reinforcements	-11.444
▁relentless	-11.444
▁rendezvous	-11.444
▁reshoot	-11.444
▁ritchie	-11.444
▁robaire	-11.444
▁robogadget	-11.444
▁rochester	-11.444
▁rosamund	-11.444
▁sanctuary	-11.444
▁satisfactory	-11.444
▁schmuck	-11.444
▁selfrespect	-11.444
▁shepherd	-11.444
▁shirley	-11.444
▁shredding	-11.444
▁sidewalk	-11.444
▁snores	-11.444
▁soothing	-11.444
▁sponsor	-11.444
▁staircase	-11.444
▁struggling	-11.444
▁substitut	-11.444
▁sunblock	-11.444
▁superstition	-11.444
▁surprising	-11.444
▁taylor	-11.444
▁thornton	-11.444
▁tiffany	-11.444
▁tokyo	-11.444
▁tolstoy	-11.444
▁toothbrush	-11.444
▁translati	-11.444
▁trumpet	-11.444
▁tynah	-11.444
▁unemployed	-11.444
▁unicorn	-11.444
▁unnecessary	-11.444
▁veryfar	-11.444
▁veterinarian	-11.444
▁virtual	-11.444
▁virtue	-11.444
▁volume	-11.444
▁vulture	-11.444
▁wallpaper	-11.444
▁westminster	-11.444
▁whittle	-11.444
▁wretch	-11.444
▁yabbadabba	-11.444
▁yawning	-11.444
▁yogurt	-11.444
▁yoriko	-11.444
jeopardy	-11.444
▁absorb	-11.444
▁analyze	-11.444
▁appointed	-11.444
▁beware	-11.444
▁brandnew	-11.444
▁carpenter	-11.444
▁cheesecake	-11.444
▁chelina	-11.444
▁cradle	-11.444
▁cushion	-11.444
▁delusion	-11.444
▁despise	-11.444
▁doktor	-11.444
▁drool	-11.444
▁garcia	-11.444
▁gasoline	-11.444
▁intercept	-11.444
▁lounge	-11.444
▁lyric	-11.444
▁mackerel	-11.444
▁matteo	-11.444
▁monument	-11.444
▁penalty	-11.444
▁philosoph	-11.444
▁pitiful	-11.444
▁population	-11.444
▁promotion	-11.444
▁resident	-11.444
▁sausage	-11.444
▁scoop	-11.444
▁scotch	-11.444
▁sloppy	-11.444
▁swamp	-11.444
▁tennessee	-11.444
▁toronto	-11.444
▁trauma	-11.444
▁velma	-11.444
▁vicinity	-11.444
▁yippee	-11.444
▁zubi	-11.444
▁addition	-11.444
▁chalice	-11.444
▁defensi	-11.444
▁dowry	-11.444
▁juggl	-11.444
▁lipstick	-11.444
▁manipulat	-11.444
▁overnight	-11.444
▁polluted	-11.444
▁profile	-11.444
▁shrink	-11.444
▁unaji	-11.444
einstein	-11.444
▁ahchoo	-11.444
▁anderson	-11.444
▁janitor	-11.444
▁lippe	-11.444
▁premier	-11.444
▁scoot	-11.444
▁shotgun	-11.444
▁stephano	-11.444
▁struck	-11.444
▁syrup	-11.444
▁vinny	-11.444
▁womb	-11.444
▁bedrock	-11.444
▁blimp	-11.444
▁blouse	-11.444
▁famine	-11.444
▁hermit	-11.444
▁intact	-11.444
▁reopen	-11.444
▁reunion	-11.444
▁scheme	-11.444
▁superstar	-11.444
▁sweetiepie	-11.444
▁theories	-11.444
▁beddersvere	-11.444
▁ferrell	-11.444
▁globa	-11.444
▁herald	-11.444
▁theft	-11.444
▁elgar	-11.444
▁firewall	-11.444
▁gaze	-11.444
▁ifyou	-11.444
▁inhabitants	-11.444
▁parlor	-11.444
▁handicap	-11.444
▁kodo	-11.444
▁token	-11.444
▁wept	-11.444
▁envy	-11.444
▁keble	-11.444
▁niece	-11.444
▁stroll	-11.444
▁vinton	-11.444
▁paddle	-11.444
▁subtle	-11.444
erature	-11.444
▁plumbing	-11.444
▁postpone	-11.444
▁ellman	-11.444
▁session	-11.444
▁creaks	-11.444
▁howre	-11.444
▁initiati	-11.444
▁mawr	-11.444
▁bulk	-11.444
▁elegan	-11.444
▁maroon	-11.444
▁dyke	-11.444
▁thug	-11.444
dolf	-11.444
▁northwest	-11.444
▁panzer	-11.444
▁essay	-11.444
▁meilin	-11.444
▁babbles	-11.444
▁countries	-11.444
▁frodo	-11.444
▁chooch	-11.444
▁soap	-11.444
▁donald	-11.444
▁tampa	-11.444
abilities	-11.444
▁loaf	-11.444
▁wither	-11.444
▁oscar	-11.444
▁chinon	-11.444
▁muck	-11.444
▁brass	-11.444
▁exceed	-11.444
▁courtesy	-11.444
▁leeches	-11.444
▁advers	-11.444
▁stunning	-11.444
▁cherie	-11.4441
▁imitating	-11.4441
▁reilly	-11.4441
▁autops	-11.4441
▁leftover	-11.4441
▁rubbing	-11.4441
▁aaaah	-11.4441
▁confin	-11.4441
▁cocktail	-11.4441
▁wager	-11.4441
▁prosper	-11.4441
▁ritz	-11.4441
▁boston	-11.4441
▁lottery	-11.4441
▁cunning	-11.4441
▁eligib	-11.4441
▁musnt	-11.4441
▁cried	-11.4441
▁farrar	-11.4441
▁priorities	-11.4441
▁upgrade	-11.4441
▁joelle	-11.4441
▁fuji	-11.4441
▁excess	-11.4441
▁gao	-11.4441
▁bootlegging	-11.4441
▁tennis	-11.4441
▁biood	-11.4441
▁confidential	-11.4441
▁alumn	-11.4441
▁whining	-11.4441
▁altitude	-11.4441
▁companionship	-11.4441
▁gap	-11.4441
▁bonnie	-11.4441
▁wack	-11.4441
▁whims	-11.4441
▁wildlife	-11.4442
▁orbit	-11.4442
▁antique	-11.4442
▁domain	-11.4442
▁earthlings	-11.4442
▁kippe	-11.4442
▁stoke	-11.4442
▁shipping	-11.4442
▁flashlight	-11.4442
▁basis	-11.4442
▁terminate	-11.4442
▁kenny	-11.4442
▁murr	-11.4442
▁jagged	-11.4443
▁blaming	-11.4443
▁moreau	-11.4443
▁bleat	-11.4443
▁prompt	-11.4443
▁athen	-11.4443
▁cooing	-11.4443
▁pesky	-11.4443
▁immortality	-11.4443
▁couch	-11.4444
▁iceberg	-11.4444
▁streak	-11.4444
▁cupboard	-11.4444
▁specifically	-11.4444
▁fiftyone	-11.4444
▁whipped	-11.4444
▁tidy	-11.4444
▁fluid	-11.4444
▁dwell	-11.4444
▁rodent	-11.4445
▁resent	-11.4445
▁respectfully	-11.4445
▁psst	-11.4445
oxide	-11.4445
▁pindi	-11.4445
▁sacco	-11.4445
▁dentist	-11.4445
▁ripped	-11.4445
▁buzzard	-11.4445
▁notify	-11.4445
▁clark	-11.4445
▁measl	-11.4445
▁beady	-11.4445
▁bracelet	-11.4446
▁valve	-11.4446
▁dday	-11.4446
▁davis	-11.4446
▁oiwa	-11.4447
▁pompo	-11.4447
▁norton	-11.4447
▁quadr	-11.4447
▁effective	-11.4447
▁nbs	-11.4447
atherine	-11.4448
▁senate	-11.4448
▁sloth	-11.4448
▁waving	-11.445
▁bind	-11.445
▁amos	-11.4452
▁mumble	-11.4453
nintend	-11.4454
honkin	-11.4454
▁compos	-11.4454
▁slant	-11.4455
▁cassi	-11.4455
burger	-11.4455
▁lyn	-11.4456
lanche	-11.4458
crib	-11.4466
▁muert	-11.4474
▁sava	-11.448
▁pinoc	-11.4483
▁tings	-11.4485
▁boingo	-11.45
▁gau	-11.4501
oolah	-11.4505
▁voi	-11.4509
▁mulle	-11.4515
appl	-11.458
▁frightful	-11.4604
▁hassl	-11.461
▁plea	-11.4618
▁debate	-11.4632
▁architectur	-11.4664
opsy	-11.4697
eroni	-11.477
nning	-11.4816
▁concept	-11.4823
▁sadde	-11.4845
▁croc	-11.4883
▁biolog	-11.4958
▁verif	-11.4992
ended	-11.4993
▁trippin	-11.5036
▁kane	-11.5135
lves	-11.5147
life	-11.5169
ushi	-11.5209
competent	-11.5276
fax	-11.5372
cuse	-11.5412
utters	-11.5655
▁unti	-11.5661
▁concentrat	-11.6294
▁rhythm	-11.6406
enomination	-11.6491
▁exclaim	-11.6548
▁emotion	-11.6591
▁critter	-11.6603
▁architect	-11.666
ftin	-11.6751
frig	-11.6836
▁circl	-11.6854
▁quot	-11.6867
▁neuro	-11.6873
▁squeal	-11.6876
▁exhaust	-11.6887
▁satscram	-11.6891
▁determine	-11.69
▁memor	-11.6905
▁daff	-11.691
jui	-11.6911
craft	-11.6916
mobile	-11.6916
talk	-11.6919
charge	-11.692
defense	-11.692
thumb	-11.692
hundred	-11.692
▁technical	-11.692
nature	-11.6921
smith	-11.6921
direct	-11.6921
berlin	-11.6922
course	-11.6922
grade	-11.6922
lived	-11.6923
burn	-11.6923
front	-11.6923
pool	-11.6926
▁georgi	-11.6927
maybe	-11.6927
▁robbin	-11.693
▁albu	-11.6931
▁reflect	-11.6932
▁sittin	-11.6932
▁construct	-11.6933
▁televisi	-11.6933
ravity	-11.6936
azoo	-11.6936
▁outrage	-11.6938
▁francis	-11.6938
ncredibl	-11.6938
calcula	-11.6938
▁oppos	-11.6939
▁transpo	-11.6939
▁scholar	-11.6939
▁pict	-11.694
▁inhabit	-11.694
▁phenomen	-11.694
▁blubber	-11.694
▁contemplat	-11.694
▁exaggerat	-11.694
▁huff	-11.694
▁satisfy	-11.694
▁slobber	-11.694
anthrop	-11.694
discretion	-11.694
enthusiastic	-11.694
naissance	-11.694
▁aargh	-11.694
▁abruptly	-11.694
▁academic	-11.694
▁accompani	-11.694
▁accompany	-11.694
▁accomplice	-11.694
▁acknowledge	-11.694
▁adelaide	-11.694
▁affirmative	-11.694
▁afloat	-11.694
▁alaska	-11.694
▁albany	-11.694
▁algebra	-11.694
▁ambassador	-11.694
▁ammunition	-11.694
▁amulet	-11.694
▁antibiotic	-11.694
▁anticipat	-11.694
▁applesauce	-11.694
▁arjuna	-11.694
▁artificial	-11.694
▁asylum	-11.694
▁atmosphere	-11.694
▁authentic	-11.694
▁authorization	-11.694
▁balcony	-11.694
▁banquet	-11.694
▁bittrich	-11.694
▁bizarre	-11.694
▁blueprint	-11.694
▁brethren	-11.694
▁briefcase	-11.694
▁budapest	-11.694
▁buffoon	-11.694
▁cabbage	-11.694
▁cafeteria	-11.694
▁canadian	-11.694
▁candidate	-11.694
▁cannibal	-11.694
▁cardiopep	-11.694
▁catalogue	-11.694
▁cautious	-11.694
▁cecilia	-11.694
▁charlotte	-11.694
▁classified	-11.694
▁cockatoo	-11.694
▁collateral	-11.694
▁communicate	-11.694
▁completion	-11.694
▁comprehend	-11.694
▁concession	-11.694
▁conflict	-11.694
▁controversial	-11.694
▁convict	-11.694
▁corporate	-11.694
▁counterattack	-11.694
▁creedmore	-11.694
▁crisis	-11.694
▁dandelion	-11.694
▁dawdle	-11.694
▁dazzling	-11.694
▁december	-11.694
▁deliberate	-11.694
▁delirious	-11.694
▁demolition	-11.694
▁deodorant	-11.694
▁determination	-11.694
▁devlin	-11.694
▁distress	-11.694
▁donnagon	-11.694
▁dottie	-11.694
▁dumbdumb	-11.694
▁dushanbe	-11.694
▁eliminate	-11.694
▁encounter	-11.694
▁endangered	-11.694
▁endeavour	-11.694
▁enthusiasm	-11.694
▁exquisite	-11.694
▁falcon	-11.694
▁felicity	-11.694
▁finstock	-11.694
▁furnished	-11.694
▁galvanized	-11.694
▁generosity	-11.694
▁giddap	-11.694
▁gigantic	-11.694
▁grammar	-11.694
▁gretchen	-11.694
▁griddle	-11.694
▁harbour	-11.694
▁henderson	-11.694
▁hiphop	-11.694
▁hopalong	-11.694
▁hurricane	-11.694
▁hyperspace	-11.694
▁hypothalamus	-11.694
▁hypothetically	-11.694
▁implement	-11.694
▁improbable	-11.694
▁impulsive	-11.694
▁indecent	-11.694
▁initiate	-11.694
▁insubordination	-11.694
▁intimidate	-11.694
▁intolerant	-11.694
▁introducing	-11.694
▁jadoube	-11.694
▁jaguar	-11.694
▁keypad	-11.694
▁knucklehead	-11.694
▁krishna	-11.694
▁laboratory	-11.694
▁lantern	-11.694
▁lapcat	-11.694
▁leaflets	-11.694
▁lemchek	-11.694
▁macarena	-11.694
▁magnifique	-11.694
▁mcgregor	-11.694
▁meteorite	-11.694
▁metropoli	-11.694
▁microchip	-11.694
▁millbarge	-11.694
▁mmmmmmmmm	-11.694
▁modified	-11.694
▁mosquito	-11.694
▁moustache	-11.694
▁mowgli	-11.694
▁muthaiga	-11.694
▁mutineers	-11.694
▁neenurt	-11.694
▁newyork	-11.694
▁nogood	-11.694
▁nokitofa	-11.694
▁nomolos	-11.694
▁nonlethal	-11.694
▁notorious	-11.694
▁okeysolo	-11.694
▁pajamas	-11.694
▁panorama	-11.694
▁penicillin	-11.694
▁pesticide	-11.694
▁philadelphia	-11.694
▁phineus	-11.694
▁pistol	-11.694
▁porcupine	-11.694
▁prehistor	-11.694
▁prestigious	-11.694
▁principle	-11.694
▁probability	-11.694
▁proclaim	-11.694
▁proportion	-11.694
▁prostitute	-11.694
▁radioactivity	-11.694
▁relapse	-11.694
▁reluctant	-11.694
▁repulsive	-11.694
▁resemblance	-11.694
▁resign	-11.694
▁rottweiler	-11.694
▁sapporo	-11.694
▁scenario	-11.694
▁schroeder	-11.694
▁seamstress	-11.694
▁seatbelt	-11.694
▁sensational	-11.694
▁shakespeare	-11.694
▁shirazi	-11.694
▁shoplift	-11.694
▁siberia	-11.694
▁sidekicks	-11.694
▁sinatra	-11.694
▁slender	-11.694
▁slump	-11.694
▁snatched	-11.694
▁snorting	-11.694
▁solitary	-11.694
▁sourpuss	-11.694
▁spectacular	-11.694
▁splinter	-11.694
▁stammering	-11.694
▁stonehenge	-11.694
▁stool	-11.694
▁strawberry	-11.694
▁suburbs	-11.694
▁sufficient	-11.694
▁supernatural	-11.694
▁swarthout	-11.694
▁swift	-11.694
▁swollen	-11.694
▁sympathy	-11.694
▁syndicat	-11.694
▁tackleberry	-11.694
▁terrace	-11.694
▁textopolis	-11.694
▁thrift	-11.694
▁toichi	-11.694
▁toothpaste	-11.694
▁treacherous	-11.694
▁trowbridge	-11.694
▁tunnei	-11.694
▁tuxedo	-11.694
▁underestimate	-11.694
▁vaccine	-11.694
▁valentine	-11.694
▁varmints	-11.694
▁voltage	-11.694
▁watermelon	-11.694
▁whereabouts	-11.694
▁wimoweh	-11.694
▁worldwide	-11.694
▁wrestle	-11.694
▁wynn	-11.694
▁yourjob	-11.694
▁ziegler	-11.694
hypnoti	-11.694
structure	-11.694
▁aloft	-11.694
▁animation	-11.694
▁apiary	-11.694
▁awhile	-11.694
▁bathtub	-11.694
▁brutal	-11.694
▁charcoal	-11.694
▁chowder	-11.694
▁compound	-11.694
▁cottonmouths	-11.694
▁crotche	-11.694
▁dbob	-11.694
▁dietrich	-11.694
▁eileen	-11.694
▁evolve	-11.694
▁gipper	-11.694
▁glgs	-11.694
▁gratitude	-11.694
▁grizzl	-11.694
▁incub	-11.694
▁instagram	-11.694
▁january	-11.694
▁kimberly	-11.694
▁miriam	-11.694
▁ninetynine	-11.694
▁nugent	-11.694
▁oxygen	-11.694
▁participat	-11.694
▁praise	-11.694
▁provision	-11.694
▁recordplayer	-11.694
▁refuge	-11.694
▁respirat	-11.694
▁saunders	-11.694
▁sliding	-11.694
▁spoons	-11.694
▁subdue	-11.694
▁volts	-11.694
bbidibo	-11.694
▁alfred	-11.694
▁batteries	-11.694
▁casual	-11.694
▁cynical	-11.694
▁demolish	-11.694
▁duchess	-11.694
▁examination	-11.694
▁fivefoot	-11.694
▁forevermore	-11.694
▁guiana	-11.694
▁hillbill	-11.694
▁jeopardi	-11.694
▁kattie	-11.694
▁licence	-11.694
▁minimal	-11.694
▁offence	-11.694
▁saloon	-11.694
▁samuel	-11.694
▁stanley	-11.694
▁striking	-11.694
▁trough	-11.694
▁ucla	-11.694
▁variety	-11.694
▁furious	-11.694
▁michel	-11.694
▁snoot	-11.694
▁thwart	-11.694
▁uncover	-11.694
▁alibi	-11.694
▁almond	-11.694
▁glute	-11.694
▁handshake	-11.694
▁infinity	-11.694
▁ounce	-11.694
▁sodium	-11.694
▁solemn	-11.694
▁trousers	-11.694
▁wouid	-11.694
▁afterwards	-11.694
▁breach	-11.694
▁conjur	-11.694
▁femur	-11.694
▁filter	-11.694
▁gesture	-11.694
▁madonna	-11.694
▁reactor	-11.694
▁ivory	-11.694
▁kumar	-11.694
▁olympi	-11.694
▁palmyra	-11.694
▁plankton	-11.694
▁dealership	-11.694
▁deceive	-11.694
▁interior	-11.694
▁munro	-11.694
▁shawl	-11.694
▁bambi	-11.694
▁elaine	-11.694
▁glance	-11.694
▁rehab	-11.694
▁rufus	-11.694
▁sensible	-11.694
▁wieder	-11.694
▁beggar	-11.694
▁crusade	-11.694
▁motive	-11.694
▁reduce	-11.694
▁sicily	-11.694
▁swab	-11.694
▁watertight	-11.694
▁bookstore	-11.694
▁choir	-11.694
▁falter	-11.694
▁levy	-11.694
▁skating	-11.694
▁sarge	-11.694
▁textbooks	-11.694
▁bozo	-11.694
▁guiet	-11.694
▁noseholes	-11.694
▁unarmed	-11.694
▁unstable	-11.694
▁creek	-11.694
▁missouri	-11.694
▁wallace	-11.694
▁noisy	-11.694
▁bulb	-11.694
▁fleming	-11.694
▁hyah	-11.694
▁spleen	-11.694
▁hallucinations	-11.694
▁cretin	-11.694
▁horde	-11.694
▁piasters	-11.694
▁grease	-11.694
▁clinks	-11.694
▁brew	-11.694
▁christoph	-11.694
▁clack	-11.694
▁comfy	-11.694
▁imposter	-11.694
▁sewer	-11.694
▁virgi	-11.694
▁inferna	-11.694
▁zab	-11.694
▁cheesy	-11.694
▁beetle	-11.694
▁ovo	-11.694
▁wimp	-11.694
▁hadley	-11.694
▁hull	-11.694
▁duct	-11.694
▁eldest	-11.694
▁cinch	-11.694
▁gallery	-11.694
▁harass	-11.694
▁igor	-11.694
▁aggr	-11.694
▁blabb	-11.6941
▁overall	-11.6941
▁conrad	-11.6941
▁motorcycle	-11.6941
▁ellen	-11.6941
▁perkins	-11.6941
▁retri	-11.6941
▁troupe	-11.6941
▁freddie	-11.6941
▁fiddl	-11.6941
▁peasant	-11.6941
▁holler	-11.6941
▁relations	-11.6941
▁sperm	-11.6941
▁francs	-11.6941
▁ninetyeight	-11.6941
▁overhear	-11.6941
▁impact	-11.6941
▁yodel	-11.6941
▁stalin	-11.6941
▁liquorice	-11.6941
▁digger	-11.6941
▁recurr	-11.6941
▁gunners	-11.6941
▁bolt	-11.6941
▁whines	-11.6942
▁convert	-11.6942
▁harmoniz	-11.6942
▁styli	-11.6942
▁wills	-11.6943
▁lgor	-11.6943
▁toad	-11.6943
▁olive	-11.6943
▁fabr	-11.6944
▁idol	-11.6944
▁saddle	-11.6948
▁watt	-11.6948
ucci	-11.695
▁gargl	-11.695
▁weave	-11.6953
▁mitt	-11.696
probation	-11.696
▁vinnie	-11.6961
▁quake	-11.6962
▁emerge	-11.6963
embark	-11.6964
anford	-11.6968
▁pasad	-11.6975
▁urge	-11.6981
reak	-11.6982
egory	-11.7025
oars	-11.7105
loyalty	-11.7205
▁imperi	-11.7225
rpet	-11.7319
▁purchas	-11.7643
▁decompos	-11.7713
tipping	-11.7966
iku	-11.835
▁graduat	-11.8421
righteous	-11.8659
▁navigat	-11.8809
nova	-11.9123
tempered	-11.9738
equently	-11.9893
▁cackle	-11.9936
watch	-11.9961
▁involv	-12.0114
placed	-12.0135
bombs	-12.0138
▁historic	-12.0159
▁troubl	-12.0168
▁applaud	-12.0207
▁fascinat	-12.0209
▁engage	-12.023
▁inspire	-12.0234
ootie	-12.0235
ercepti	-12.0241
▁thirst	-12.0242
▁filth	-12.0243
turned	-12.0249
portrait	-12.0253
programmed	-12.0253
sensitive	-12.0253
physical	-12.0253
flesh	-12.0253
bonnet	-12.0254
▁creativ	-12.0254
written	-12.0254
correct	-12.0254
comfortable	-12.0254
text	-12.0254
service	-12.0254
second	-12.0254
scrap	-12.0256
spects	-12.0257
▁leavin	-12.0264
▁mamma	-12.0265
▁beautifu	-12.0265
▁pacifi	-12.0265
▁administrat	-12.0266
▁competit	-12.0267
affle	-12.0268
tivity	-12.0269
▁offici	-12.027
ngeles	-12.027
rinkle	-12.0272
eject	-12.0272
nction	-12.0273
▁columb	-12.0273
▁squid	-12.0273
▁responsibi	-12.0273
▁hallucinati	-12.0273
▁hysteri	-12.0273
▁drygulch	-12.0273
▁flamethrow	-12.0273
▁prospect	-12.0273
activating	-12.0273
conspicuous	-12.0273
incomprehensible	-12.0273
nforcement	-12.0273
prehension	-12.0273
significant	-12.0273
substantiate	-12.0273
youyouyou	-12.0273
▁advertising	-12.0273
▁aeroplane	-12.0273
▁aerosol	-12.0273
▁agencies	-12.0273
▁alistair	-12.0273
▁andromeda	-12.0273
▁argentin	-12.0273
▁argument	-12.0273
▁asthma	-12.0273
▁auxiliary	-12.0273
▁babinot	-12.0273
▁bachelor	-12.0273
▁bartending	-12.0273
▁batsignal	-12.0273
▁beastmaster	-12.0273
▁beepbeep	-12.0273
▁belknap	-12.0273
▁benedict	-12.0273
▁beneficiary	-12.0273
▁bennington	-12.0273
▁binoculars	-12.0273
▁bjornson	-12.0273
▁blossom	-12.0273
▁blumburtt	-12.0273
▁boombastic	-12.0273
▁brantford	-12.0273
▁brooklyn	-12.0273
▁bungalow	-12.0273
▁burlesque	-12.0273
▁butterfingers	-12.0273
▁cabaret	-12.0273
▁capitol	-12.0273
▁carpathian	-12.0273
▁ceramic	-12.0273
▁challenging	-12.0273
▁chappaquiddick	-12.0273
▁charlemagne	-12.0273
▁cheetah	-12.0273
▁cholesterol	-12.0273
▁clatters	-12.0273
▁cleopatra	-12.0273
▁cocktoast	-12.0273
▁colombia	-12.0273
▁commonplace	-12.0273
▁conceited	-12.0273
▁concussion	-12.0273
▁conspiracy	-12.0273
▁contagious	-12.0273
▁convincing	-12.0273
▁coordinator	-12.0273
▁cottins	-12.0273
▁credentials	-12.0273
▁cricket	-12.0273
▁daydream	-12.0273
▁deborah	-12.0273
▁declaration	-12.0273
▁decrease	-12.0273
▁delbruck	-12.0273
▁departure	-12.0273
▁despair	-12.0273
▁dialects	-12.0273
▁dictionary	-12.0273
▁disclosure	-12.0273
▁discourage	-12.0273
▁distribution	-12.0273
▁divulg	-12.0273
▁doorknob	-12.0273
▁dormez	-12.0273
▁dosido	-12.0273
▁dwayne	-12.0273
▁dynamite	-12.0273
▁ecosystem	-12.0273
▁elmendorf	-12.0273
▁embroider	-12.0273
▁enlightened	-12.0273
▁enquire	-12.0273
▁envoy	-12.0273
▁equivalent	-12.0273
▁escapo	-12.0273
▁falko	-12.0273
▁falkstein	-12.0273
▁fenderbaum	-12.0273
▁ferguson	-12.0273
▁fertili	-12.0273
▁fingerprint	-12.0273
▁firefrorefiddle	-12.0273
▁floyd	-12.0273
▁frambois	-12.0273
▁fraternity	-12.0273
▁fugitive	-12.0273
▁gauntlet	-12.0273
▁gazpacho	-12.0273
▁gingerbread	-12.0273
▁gizmo	-12.0273
▁glaucus	-12.0273
▁gloomy	-12.0273
▁goosebumps	-12.0273
▁grizabella	-12.0273
▁halfbreed	-12.0273
▁hamstring	-12.0273
▁harlem	-12.0273
▁hebertot	-12.0273
▁heehee	-12.0273
▁heirloom	-12.0273
▁hemorrhoid	-12.0273
▁highstrung	-12.0273
▁hiphip	-12.0273
▁hitchhiking	-12.0273
▁hogwash	-12.0273
