<unk>	0
<s>	0
</s>	0
s	-3.9281
▁im	-4.44102
▁dont	-4.56164
▁know	-4.63465
▁go	-4.76297
▁get	-4.8184
▁right	-4.92164
▁come	-4.95801
▁like	-5.01511
▁youre	-5.02473
▁oh	-5.05756
▁got	-5.06234
▁yeah	-5.09327
▁one	-5.09965
▁well	-5.16828
▁thats	-5.21375
▁na	-5.22846
▁okay	-5.29275
▁good	-5.35136
▁see	-5.35463
ing	-5.41099
▁back	-5.44521
▁want	-5.45371
▁gon	-5.49255
▁us	-5.5153
▁think	-5.53421
▁hey	-5.54901
▁yes	-5.54913
▁hes	-5.56808
▁going	-5.57735
▁look	-5.61254
▁take	-5.61715
▁time	-5.64588
▁man	-5.64966
ed	-5.64994
▁ill	-5.72627
▁cant	-5.73849
▁	-5.7629
▁l	-5.76869
▁need	-5.83579
▁tell	-5.84971
▁would	-5.90858
▁please	-5.92632
▁could	-5.93233
▁way	-5.93441
▁say	-5.93804
▁sorry	-5.97043
▁lets	-5.97849
▁sir	-6.00252
▁make	-6.01142
▁never	-6.01184
▁thank	-6.02428
▁really	-6.04653
d	-6.05326
▁two	-6.07028
▁let	-6.08522
▁something	-6.09717
▁whats	-6.10531
▁theres	-6.11224
▁love	-6.13538
▁little	-6.13882
▁didnt	-6.14622
▁god	-6.19045
▁mean	-6.19237
▁give	-6.19465
▁ive	-6.22239
▁uh	-6.24248
▁people	-6.24741
▁mr	-6.26626
▁wait	-6.28369
▁thing	-6.29113
y	-6.38025
▁stop	-6.38469
▁said	-6.38924
▁help	-6.3954
▁theyre	-6.39881
▁shes	-6.41207
▁keep	-6.43886
▁work	-6.46624
▁much	-6.46817
▁home	-6.47215
▁new	-6.47948
▁even	-6.48734
▁sure	-6.50339
▁find	-6.50527
▁life	-6.51542
▁great	-6.52289
▁put	-6.53353
▁name	-6.54889
▁call	-6.55331
▁first	-6.55758
▁day	-6.56218
▁night	-6.57715
▁still	-6.5784
▁maybe	-6.59383
▁away	-6.594
ly	-6.60343
▁nothing	-6.60356
▁must	-6.6092
er	-6.61073
▁last	-6.61543
e	-6.6345
▁anything	-6.65173
▁ever	-6.66248
▁stay	-6.66464
▁guys	-6.6686
▁hell	-6.68389
▁long	-6.69678
▁thought	-6.70949
▁hi	-6.7155
▁talk	-6.72849
▁coming	-6.73317
▁ta	-6.73386
▁around	-6.73526
▁kill	-6.73659
▁world	-6.73857
▁guy	-6.73942
▁always	-6.73973
▁three	-6.74419
▁wan	-6.74964
▁leave	-6.74976
▁everything	-6.75329
▁told	-6.76015
▁place	-6.77054
▁nice	-6.78421
▁wont	-6.79274
▁youve	-6.79274
▁every	-6.79455
▁years	-6.79907
▁move	-6.83181
▁dad	-6.83909
▁listen	-6.84086
▁things	-6.84554
▁better	-6.84623
▁baby	-6.85124
▁show	-6.8587
▁hear	-6.86025
▁done	-6.88183
▁youll	-6.88443
▁may	-6.89342
▁feel	-6.89572
▁hold	-6.90818
▁big	-6.91035
▁hello	-6.91658
▁remember	-6.92059
▁id	-6.92203
▁old	-6.9256
▁fine	-6.93749
▁doesnt	-6.9459
▁understand	-6.95249
▁made	-6.9574
▁believe	-6.96701
▁left	-6.97382
▁ok	-6.98263
▁enough	-7.00265
▁woman	-7.0041
▁house	-7.01398
▁real	-7.03323
▁another	-7.03529
▁ready	-7.03625
▁men	-7.03794
▁watch	-7.03818
▁lot	-7.04575
▁might	-7.06106
▁car	-7.06999
▁talking	-7.07522
▁shit	-7.08465
▁son	-7.08637
▁dead	-7.08644
▁door	-7.0957
▁bad	-7.0963
▁lm	-7.10052
▁someone	-7.10074
▁run	-7.10572
▁try	-7.1087
▁girl	-7.11188
▁boy	-7.11859
▁thanks	-7.11863
▁ask	-7.12146
▁best	-7.12707
▁room	-7.14303
▁kind	-7.14663
▁wrong	-7.14683
▁friend	-7.15089
▁getting	-7.15123
▁fight	-7.15356
▁wanted	-7.15537
▁father	-7.1562
▁excuse	-7.15705
▁isnt	-7.16388
▁today	-7.16388
▁playing	-7.16671
▁money	-7.16732
▁tonight	-7.18468
▁seen	-7.18595
n	-7.18648
▁die	-7.18836
▁um	-7.18867
▁live	-7.20975
▁looking	-7.213
▁happened	-7.21538
▁weve	-7.21672
▁mind	-7.21799
▁bring	-7.22053
▁came	-7.22113
▁music	-7.23048
▁care	-7.23233
▁everybody	-7.24237
ll	-7.24281
▁trying	-7.25111
▁miss	-7.25384
▁turn	-7.25412
▁aint	-7.25731
▁sam	-7.27066
▁open	-7.27353
▁course	-7.27632
▁face	-7.2787
▁meet	-7.27964
▁huh	-7.28403
▁head	-7.28566
▁else	-7.28791
▁next	-7.29179
a	-7.30333
▁whos	-7.30338
▁mom	-7.30565
▁job	-7.31046
▁gone	-7.31218
▁whoa	-7.3196
▁morning	-7.33157
▁cause	-7.33323
▁family	-7.33562
▁together	-7.33564
in	-7.34083
▁without	-7.3438
▁war	-7.34901
▁chuckles	-7.35309
▁found	-7.35985
▁john	-7.36034
▁alone	-7.36456
▁end	-7.36821
▁hand	-7.36899
t	-7.36967
▁fire	-7.37161
▁hope	-7.37478
▁called	-7.3808
▁happy	-7.38147
▁saw	-7.38575
▁yet	-7.38587
▁side	-7.38595
▁mother	-7.39379
▁tomorrow	-7.39434
▁damn	-7.39517
es	-7.40134
▁days	-7.40164
▁whole	-7.40306
▁speak	-7.42343
▁school	-7.4261
▁went	-7.42953
▁four	-7.42956
▁story	-7.43403
▁friends	-7.44031
▁dr	-7.44062
▁heart	-7.4513
▁knew	-7.45214
▁five	-7.45237
▁phone	-7.4529
▁second	-7.45687
▁lost	-7.45688
al	-7.46083
▁matter	-7.46207
▁city	-7.47074
▁hard	-7.48656
▁late	-7.48826
▁un	-7.49018
▁many	-7.49055
▁start	-7.49207
▁far	-7.49332
▁killed	-7.49671
▁ring	-7.49851
▁shut	-7.49892
▁use	-7.50226
▁took	-7.5038
▁minutes	-7.50979
▁em	-7.50982
▁break	-7.51025
▁already	-7.51836
▁actually	-7.51844
r	-7.51894
▁used	-7.52157
▁eat	-7.52364
▁wasnt	-7.52818
▁sighs	-7.5286
▁laughing	-7.52955
▁beautiful	-7.53314
▁wouldnt	-7.53878
▁easy	-7.54313
▁guess	-7.54347
▁kid	-7.55011
▁frank	-7.55156
▁ago	-7.55334
▁eyes	-7.56832
▁anyone	-7.57364
▁change	-7.57946
▁saying	-7.5804
▁death	-7.58247
▁worry	-7.58403
▁problem	-7.58685
▁f	-7.58744
▁wheres	-7.5881
▁hit	-7.58845
▁welcome	-7.58928
▁inside	-7.58929
▁everyone	-7.60342
▁shot	-7.60342
▁play	-7.60354
▁heard	-7.60471
▁close	-7.60834
▁happen	-7.61614
▁looks	-7.61787
▁lady	-7.62699
▁roy	-7.62924
▁check	-7.6309
▁president	-7.63217
▁pretty	-7.63217
▁tommy	-7.63218
▁sit	-7.63328
▁ah	-7.63359
▁nobody	-7.63767
▁youd	-7.63811
▁wish	-7.64259
▁havent	-7.64319
▁read	-7.65326
▁wants	-7.65664
▁young	-7.65889
▁idea	-7.66372
▁minute	-7.66434
▁part	-7.66716
▁alive	-7.67703
▁walk	-7.68064
▁black	-7.68244
▁bob	-7.68851
▁stand	-7.68932
▁clear	-7.69072
▁mine	-7.69121
▁set	-7.69962
▁line	-7.70086
▁lose	-7.70565
▁power	-7.70729
▁case	-7.71029
▁says	-7.71049
▁company	-7.71198
▁cut	-7.71347
▁since	-7.71795
▁hands	-7.72286
▁six	-7.72997
o	-7.73029
▁crazy	-7.73601
▁lord	-7.73711
▁safe	-7.74002
▁soon	-7.74091
▁bit	-7.74612
▁control	-7.74823
▁frodo	-7.75442
▁word	-7.75482
▁water	-7.7552
▁hurt	-7.75615
▁save	-7.75833
▁high	-7.75886
▁somebody	-7.76063
▁gentlemen	-7.76064
▁taking	-7.76081
▁pay	-7.76406
▁boys	-7.76415
▁bye	-7.76689
▁afraid	-7.76689
▁exactly	-7.76701
▁shall	-7.76707
▁true	-7.77317
▁wife	-7.7732
▁free	-7.77442
▁promise	-7.77823
▁ass	-7.77898
▁supposed	-7.78011
▁working	-7.78293
▁business	-7.78587
▁number	-7.78684
▁whatever	-7.79228
▁rest	-7.79627
▁chance	-7.80022
▁half	-7.80508
▁couldnt	-7.81262
▁brother	-7.81321
▁waiting	-7.81874
▁voice	-7.82004
▁party	-7.82034
▁stuff	-7.82694
▁trust	-7.83026
▁they	-7.83143
▁kids	-7.83582
▁later	-7.83919
▁moment	-7.84033
▁wow	-7.84511
▁gave	-7.8519
▁question	-7.85414
▁year	-7.86112
▁win	-7.86211
▁doctor	-7.86795
▁hang	-7.87563
▁means	-7.8782
▁miles	-7.88111
▁deal	-7.88355
▁behind	-7.88662
▁plan	-7.89149
▁honey	-7.89373
▁mrs	-7.89983
▁ride	-7.90072
▁forget	-7.90082
▁till	-7.90093
▁makes	-7.90569
▁goes	-7.90899
▁shoot	-7.91215
▁full	-7.91346
▁white	-7.91359
▁country	-7.91533
▁sleep	-7.92035
▁radio	-7.92259
▁probably	-7.9226
▁send	-7.92565
▁thinking	-7.92575
▁hours	-7.92784
▁person	-7.9294
▁continues	-7.9303
▁point	-7.93414
▁king	-7.93634
▁truth	-7.93736
▁started	-7.94272
▁light	-7.9433
▁fun	-7.94669
▁gun	-7.94795
▁pull	-7.95696
▁husband	-7.95698
▁though	-7.95922
▁boss	-7.95999
▁laughs	-7.96113
▁ha	-7.97186
▁game	-7.97244
▁blood	-7.97362
▁fall	-7.97589
▁almost	-7.98299
▁ten	-7.983
▁peter	-7.98342
c	-7.98452
▁deep	-7.98812
▁follow	-7.98849
▁pick	-7.98958
▁trouble	-8.00185
p	-8.0079
▁grunts	-8.00821
▁times	-8.0095
▁week	-8.01227
▁captain	-8.01465
▁daddy	-8.01467
▁fear	-8.01687
▁hate	-8.0188
▁dog	-8.0207
▁hurry	-8.02268
▁professor	-8.02268
▁body	-8.02273
▁roger	-8.02274
m	-8.02299
▁answer	-8.02883
▁important	-8.02938
▁dark	-8.03068
▁front	-8.03078
▁children	-8.03081
▁women	-8.03081
▁b	-8.03432
▁anymore	-8.039
▁outside	-8.03902
est	-8.04261
▁died	-8.0455
▁least	-8.04738
▁touch	-8.04756
▁asked	-8.04763
▁heres	-8.04798
▁re	-8.05042
▁max	-8.05564
▁air	-8.05572
▁land	-8.05926
▁th	-8.06135
▁paul	-8.06318
▁claire	-8.06401
▁running	-8.06403
▁tony	-8.06414
▁rocky	-8.06569
st	-8.06944
▁rock	-8.06959
▁happening	-8.07084
▁couple	-8.07248
▁buddy	-8.07248
▁making	-8.07254
▁quite	-8.0729
ers	-8.07772
▁met	-8.07898
▁fat	-8.08049
▁along	-8.08103
▁jesus	-8.08107
▁married	-8.08107
▁ladies	-8.08112
▁scared	-8.08186
g	-8.08548
▁daughter	-8.08866
▁york	-8.08921
▁also	-8.08965
▁leaving	-8.08965
▁future	-8.08965
▁tried	-8.09008
▁drink	-8.09313
▁team	-8.09764
▁arent	-8.09836
▁c	-8.10541
▁feet	-8.10714
▁p	-8.11082
▁sound	-8.11179
▁brought	-8.11597
▁different	-8.12345
▁living	-8.12519
▁needs	-8.12788
us	-8.12801
l	-8.12899
▁cooper	-8.13139
▁fly	-8.132
▁food	-8.13386
▁anybody	-8.1339
▁goodbye	-8.1339
▁army	-8.13474
▁news	-8.13735
▁drive	-8.13924
i	-8.14135
▁earth	-8.14312
▁dream	-8.14338
▁knows	-8.14341
en	-8.14345
▁horse	-8.14435
▁seem	-8.14452
▁telling	-8.14937
▁fast	-8.14948
▁luck	-8.15063
▁quiet	-8.15082
on	-8.15107
▁master	-8.15243
▁cheering	-8.15285
▁happens	-8.15573
▁girls	-8.15758
▁stupid	-8.16143
▁anyway	-8.16143
▁office	-8.17008
▁past	-8.17037
▁dear	-8.17056
▁bed	-8.17604
▁dance	-8.17958
▁hmm	-8.17991
▁grunting	-8.18065
▁comes	-8.18794
▁perfect	-8.18814
le	-8.1896
▁harold	-8.18973
▁ahead	-8.18978
▁seven	-8.18985
▁reason	-8.19031
▁sister	-8.19057
▁ship	-8.19694
▁buy	-8.19885
▁road	-8.19935
▁neil	-8.19936
▁pass	-8.20034
▁general	-8.2005
▁slow	-8.20294
▁special	-8.2055
h	-8.20634
able	-8.20675
▁strong	-8.2074
▁cool	-8.20781
▁de	-8.20892
▁red	-8.21264
▁either	-8.21886
▁itll	-8.21895
▁eye	-8.21915
▁song	-8.22122
▁wear	-8.22188
▁fact	-8.22204
▁murder	-8.22356
▁quick	-8.23606
▁book	-8.23834
▁police	-8.23851
▁lives	-8.23961
▁flight	-8.24062
▁able	-8.24219
▁wake	-8.24886
▁none	-8.24931
▁taken	-8.24935
▁mama	-8.24996
▁sign	-8.25256
ion	-8.25536
▁write	-8.25829
▁super	-8.25874
▁blue	-8.25907
▁sometimes	-8.26206
▁glass	-8.26879
▁moving	-8.26939
▁cover	-8.2707
▁sent	-8.27227
▁a	-8.27864
▁mad	-8.27921
▁moon	-8.27976
▁secret	-8.28239
▁pain	-8.28251
▁pop	-8.28348
▁order	-8.28838
▁major	-8.29014
▁english	-8.29032
▁hows	-8.29032
▁khan	-8.29035
▁breathe	-8.29294
▁human	-8.29309
▁small	-8.29963
▁hotel	-8.30108
▁hour	-8.30425
▁step	-8.30666
▁count	-8.31123
▁space	-8.31166
▁french	-8.31171
▁christmas	-8.31173
▁sick	-8.31174
▁eight	-8.31184
▁jet	-8.31188
▁top	-8.3122
▁seems	-8.31239
▁piece	-8.31514
▁mission	-8.31573
▁crowd	-8.31941
▁months	-8.32324
▁german	-8.32431
▁join	-8.32444
▁lie	-8.32656
▁worth	-8.33042
▁ya	-8.33077
▁shouldnt	-8.33357
▁dinner	-8.33358
▁return	-8.33664
▁yo	-8.3379
f	-8.33827
b	-8.33827
▁d	-8.34053
lng	-8.34235
▁seconds	-8.34432
▁bruce	-8.34468
▁target	-8.34468
▁hot	-8.34616
man	-8.34832
▁clean	-8.35158
▁protect	-8.35201
▁glad	-8.35447
▁throw	-8.35495
▁relax	-8.35591
▁panting	-8.35595
▁feeling	-8.35598
▁lead	-8.36581
▁child	-8.36722
▁funny	-8.36736
▁duke	-8.36741
▁ho	-8.36795
▁groans	-8.3687
▁ann	-8.36881
▁calling	-8.37107
▁across	-8.37877
▁enemy	-8.37877
▁history	-8.37877
▁machine	-8.38344
▁catch	-8.38589
▁cold	-8.38923
▁sing	-8.38932
▁gets	-8.3897
or	-8.39044
▁drop	-8.39058
▁g	-8.39224
▁ln	-8.39273
▁weeks	-8.39379
▁building	-8.39705
▁lts	-8.39788
▁lt	-8.40351
▁choice	-8.4075
▁sherman	-8.41407
▁hair	-8.41411
▁gasps	-8.4156
▁pa	-8.42455
▁speaking	-8.42592
▁somewhere	-8.42612
▁others	-8.42669
▁town	-8.42674
▁wed	-8.42812
▁parents	-8.4292
▁bet	-8.43409
▁words	-8.43775
▁straight	-8.43801
▁hitler	-8.43834
▁calm	-8.43839
▁tv	-8.43854
ic	-8.44055
ies	-8.44086
▁swear	-8.45068
▁theyve	-8.45104
▁mmm	-8.45114
▁suit	-8.45658
▁sweet	-8.46264
▁alright	-8.46317
▁born	-8.46338
▁t	-8.46832
▁teach	-8.46979
▁present	-8.46993
▁agent	-8.47017
▁in	-8.47072
▁entire	-8.47435
▁an	-8.4801
▁less	-8.48025
▁singing	-8.48062
▁field	-8.48312
▁command	-8.48652
▁peace	-8.48696
▁amazing	-8.48864
▁anderton	-8.48864
▁pie	-8.49
▁felt	-8.49055
▁blow	-8.49092
▁hide	-8.49117
▁asking	-8.49291
▁round	-8.49606
▁system	-8.49624
ve	-8.49694
▁letter	-8.49754
▁finish	-8.49818
▁indistinct	-8.50027
▁bitch	-8.50122
▁tom	-8.50149
▁hamilton	-8.50162
▁ground	-8.50173
▁broke	-8.50568
▁engine	-8.50782
▁mouth	-8.51019
▁honor	-8.51126
▁strange	-8.51266
▁loved	-8.5133
▁gandalf	-8.51478
▁possible	-8.51478
▁sort	-8.51479
▁mia	-8.51522
▁meeting	-8.5166
▁kiss	-8.51928
▁become	-8.52312
▁marry	-8.52346
▁murph	-8.52618
▁age	-8.52771
▁brendan	-8.52833
▁sounds	-8.52907
▁burn	-8.52995
▁given	-8.53603
▁bag	-8.53673
▁careful	-8.54087
▁maam	-8.54163
▁knock	-8.5422
▁destroy	-8.54352
▁sun	-8.54403
▁lucky	-8.54422
▁fighting	-8.5455
▁takes	-8.5457
▁fool	-8.54661
▁chatter	-8.5506
▁caught	-8.55533
▁cruella	-8.55534
▁respect	-8.55535
▁wonderful	-8.55548
▁rome	-8.55577
▁wayne	-8.55679
▁hed	-8.5573
▁beat	-8.55989
▁learn	-8.5612
▁america	-8.56205
▁river	-8.56357
▁push	-8.56457
▁green	-8.56922
▁poor	-8.56947
▁watching	-8.57547
▁plane	-8.5789
▁needed	-8.57952
▁key	-8.5796
▁known	-8.58025
▁class	-8.58073
u	-8.58294
▁report	-8.58297
▁georgia	-8.5833
▁audience	-8.58333
▁forward	-8.58337
▁station	-8.58371
▁ice	-8.58393
▁record	-8.58519
um	-8.58703
▁rain	-8.59294
▁adam	-8.59311
ation	-8.59332
▁thousand	-8.59347
▁officer	-8.59423
▁serious	-8.59625
▁worked	-8.59752
▁perhaps	-8.59759
▁coffee	-8.59759
▁terrible	-8.59779
▁absolutely	-8.59779
▁ones	-8.59797
▁drover	-8.5983
▁bowl	-8.5983
▁copy	-8.59878
▁meant	-8.6048
less	-8.60566
▁mistake	-8.60732
▁street	-8.60817
▁goddamn	-8.61208
▁charlie	-8.61214
▁director	-8.61244
▁e	-8.61293
▁screaming	-8.6142
▁saved	-8.61768
▁wonder	-8.61848
▁changed	-8.61863
▁magic	-8.61899
▁train	-8.62147
▁looked	-8.62154
▁sky	-8.6231
▁burr	-8.62656
▁south	-8.62673
▁michael	-8.62679
▁sense	-8.62682
▁worried	-8.62684
▁attack	-8.62977
▁longer	-8.63577
▁questions	-8.63683
▁law	-8.63792
▁message	-8.63812
▁bud	-8.64005
▁forgive	-8.64067
▁planet	-8.6409
▁joe	-8.64093
▁forever	-8.64172
▁finally	-8.64279
▁nine	-8.64584
▁names	-8.65055
▁bar	-8.65361
▁turned	-8.65553
▁da	-8.65629
▁middle	-8.65683
▁george	-8.65687
▁merry	-8.65687
▁hungry	-8.65689
▁unless	-8.65746
ity	-8.66167
▁st	-8.66433
▁court	-8.66888
▁rise	-8.66893
▁guard	-8.66934
▁smile	-8.66963
▁near	-8.67082
▁ball	-8.67166
▁hasnt	-8.67225
▁security	-8.67232
▁paddy	-8.67235
▁archie	-8.67242
▁share	-8.67349
▁anne	-8.67479
▁seat	-8.68237
▁band	-8.68541
▁floor	-8.68787
▁service	-8.68787
▁throat	-8.68787
▁simple	-8.68788
▁washington	-8.68789
▁dangerous	-8.68796
▁slr	-8.68812
▁ooh	-8.68816
▁choose	-8.69024
▁laugh	-8.69199
▁explain	-8.69209
▁reach	-8.69574
▁state	-8.69611
▁screams	-8.69767
ful	-8.69884
▁million	-8.70117
▁tree	-8.70129
▁fair	-8.70249
▁cell	-8.70301
▁fell	-8.7032
▁ray	-8.7038
▁charles	-8.70384
▁birdie	-8.70403
▁mark	-8.70745
▁kick	-8.70913
▁act	-8.71323
▁seeing	-8.71409
▁grab	-8.71634
▁m	-8.71665
▁smart	-8.71852
▁proud	-8.71952
▁christ	-8.71966
ie	-8.71968
▁list	-8.71992
▁mike	-8.72006
▁billy	-8.72105
▁early	-8.72119
▁jump	-8.72818
▁smoke	-8.72829
▁cry	-8.7315
▁short	-8.73227
▁realize	-8.73409
▁shell	-8.73626
▁amelia	-8.73627
▁werent	-8.73627
▁congratulations	-8.7363
▁heh	-8.7364
▁breathing	-8.73981
▁lee	-8.73984
▁expect	-8.74291
▁gods	-8.74614
▁roll	-8.74708
▁enjoy	-8.74929
▁picture	-8.75122
▁low	-8.75266
▁contact	-8.75293
▁strength	-8.75293
▁viktor	-8.75293
▁dude	-8.75309
▁sweetie	-8.75315
▁sitting	-8.75323
▁shouting	-8.75373
▁gold	-8.75444
▁seriously	-8.7545
▁date	-8.75552
ch	-8.75824
▁form	-8.76098
▁standing	-8.76581
▁la	-8.7671
▁imagine	-8.76746
▁wall	-8.76762
▁gate	-8.76855
▁carl	-8.76864
▁gas	-8.76975
▁anywhere	-8.76988
▁government	-8.76988
▁zak	-8.7699
▁spend	-8.76992
▁totally	-8.77038
▁rule	-8.7735
▁wind	-8.776
▁s	-8.77649
▁hospital	-8.78542
▁paper	-8.78597
▁month	-8.7861
▁andi	-8.78621
▁college	-8.78712
▁pleasure	-8.78712
▁bloom	-8.78713
▁darling	-8.78713
▁weekend	-8.78719
▁upon	-8.78723
▁american	-8.789
▁lou	-8.79026
▁continue	-8.80146
▁sea	-8.80149
▁books	-8.8017
▁bank	-8.8037
▁balboa	-8.80467
▁bridge	-8.80469
▁snow	-8.8047
▁fault	-8.8047
▁alarm	-8.80471
▁mommy	-8.80474
▁june	-8.80514
▁quickly	-8.80704
▁pack	-8.81492
▁star	-8.81656
is	-8.81749
▁press	-8.81853
▁brand	-8.82061
▁killing	-8.82156
▁knight	-8.82172
▁lawyer	-8.82183
▁weird	-8.822
▁code	-8.82213
▁forgot	-8.8225
▁island	-8.82253
▁jason	-8.82254
▁within	-8.82256
▁chicken	-8.82256
▁west	-8.823
▁broken	-8.82362
▁k	-8.82715
▁lf	-8.82737
re	-8.83188
▁tickets	-8.83259
▁arm	-8.83404
▁loud	-8.84037
▁cost	-8.84068
▁paige	-8.84071
▁foot	-8.84083
▁brave	-8.84102
▁busy	-8.84209
ous	-8.84373
▁crying	-8.84563
▁lock	-8.84656
▁per	-8.85011
▁fix	-8.85113
▁fish	-8.85511
▁smell	-8.85526
▁carry	-8.8554
▁figure	-8.85682
▁raise	-8.85695
▁lay	-8.85703
▁final	-8.85789
▁certain	-8.85789
▁soldiers	-8.85829
▁uncle	-8.85884
▁price	-8.8591
▁brain	-8.85916
▁accident	-8.85923
▁babe	-8.85953
▁lovely	-8.86079
▁lab	-8.86134
it	-8.86225
▁hat	-8.8671
▁program	-8.86783
▁cat	-8.87215
▁stick	-8.87362
▁n	-8.87455
▁gift	-8.87457
ri	-8.87563
▁ex	-8.87614
▁kit	-8.877
▁jane	-8.87781
▁personal	-8.87803
▁spartacus	-8.87809
▁favorite	-8.87812
▁payne	-8.87841
▁tank	-8.87852
▁arms	-8.87853
▁position	-8.87873
▁completely	-8.87882
▁lying	-8.8789
▁bella	-8.87931
▁parker	-8.88022
▁handle	-8.88197
k	-8.88579
ln	-8.88635
▁race	-8.8869
▁force	-8.88999
▁offer	-8.89016
ness	-8.89124
▁box	-8.89207
▁allow	-8.89404
▁east	-8.89413
▁appreciate	-8.89478
▁tight	-8.89623
▁colonel	-8.89735
▁kidding	-8.89736
▁airport	-8.89738
▁fletcher	-8.89742
▁champion	-8.89753
▁pants	-8.89771
▁single	-8.89787
▁window	-8.89813
▁soldier	-8.89833
▁russian	-8.8984
▁bloody	-8.90163
ar	-8.90266
el	-8.90298
▁ls	-8.904
▁throwing	-8.90487
▁flying	-8.90686
▁visit	-8.91208
▁escape	-8.91453
▁normal	-8.91559
▁bell	-8.91571
▁stole	-8.91618
▁shh	-8.91675
▁lunch	-8.91683
▁evil	-8.91693
▁fought	-8.91693
▁lieutenant	-8.91694
▁type	-8.91694
▁situation	-8.91695
▁third	-8.91697
▁giving	-8.91698
▁forest	-8.91722
▁golden	-8.91727
▁tars	-8.91808
▁mountain	-8.91817
▁hundred	-8.91836
▁united	-8.9199
▁states	-8.9243
▁prime	-8.92569
▁evening	-8.92695
▁holding	-8.92971
▁sell	-8.93269
v	-8.93353
▁pat	-8.93433
ut	-8.93436
▁missed	-8.9353
▁clothes	-8.93693
▁difference	-8.93693
▁shirley	-8.93693
▁yesterday	-8.93693
▁alexander	-8.93693
▁attention	-8.93694
▁wrote	-8.93697
▁chuckling	-8.93699
▁rather	-8.93701
▁data	-8.93725
▁rancho	-8.93796
▁william	-8.93829
▁truck	-8.93849
▁joey	-8.93925
▁works	-8.94177
▁learned	-8.94208
▁finished	-8.94231
▁lights	-8.94585
▁rings	-8.94587
▁breath	-8.94937
up	-8.95042
▁park	-8.95077
▁cute	-8.95255
▁accept	-8.95377
▁ringing	-8.95553
▁whoo	-8.95625
▁charge	-8.95659
▁flat	-8.95721
▁afternoon	-8.95734
▁jenna	-8.95734
▁worse	-8.95735
▁north	-8.95735
▁shouldve	-8.95735
▁mulan	-8.95736
▁thomas	-8.95738
▁area	-8.95745
▁doin	-8.95759
▁groaning	-8.95794
▁dying	-8.95799
▁tired	-8.95806
▁battle	-8.95814
▁rules	-8.95897
▁partner	-8.9592
▁stone	-8.95944
▁san	-8.96301
w	-8.97185
▁ran	-8.97262
▁tea	-8.97352
▁board	-8.97466
▁prove	-8.97497
▁eating	-8.97598
▁village	-8.97804
▁spot	-8.97813
▁apollo	-8.97817
▁neither	-8.97817
▁uhhuh	-8.97817
▁ulrich	-8.97817
▁outta	-8.97821
▁jim	-8.97822
▁taught	-8.97831
▁doubt	-8.97881
▁stopped	-8.97901
▁camera	-8.98129
▁signal	-8.98146
▁cop	-8.98698
▁scott	-8.99773
▁mandira	-8.99945
▁rizvan	-8.99945
▁llttle	-8.99945
▁conlon	-8.99948
▁surprise	-8.99949
▁princess	-8.99965
nt	-9.00116
▁figured	-9.0023
▁pilot	-9.00239
▁germany	-9.00279
▁hall	-9.00574
▁wondering	-9.00591
▁mess	-9.01135
ial	-9.01562
▁out	-9.01589
▁walking	-9.01592
▁brothers	-9.01635
▁al	-9.01737
▁tim	-9.01811
▁group	-9.01959
▁hero	-9.01985
▁belong	-9.021
▁dawn	-9.02119
▁definitely	-9.02119
▁albert	-9.02119
▁rumbling	-9.0212
▁bathroom	-9.0212
▁kept	-9.0212
▁wedding	-9.02121
▁military	-9.02129
▁fbi	-9.0213
▁laughter	-9.02135
▁putting	-9.02231
▁beeping	-9.02242
▁i	-9.02308
▁dollars	-9.0239
▁pounds	-9.026
ter	-9.02637
▁teacher	-9.02669
▁art	-9.02757
▁sad	-9.02934
ive	-9.03389
▁dress	-9.03464
▁fresh	-9.03526
ry	-9.03532
ist	-9.03545
▁mate	-9.03777
▁risk	-9.04161
▁starting	-9.04165
▁dumb	-9.04335
▁address	-9.04341
▁ashley	-9.04343
▁information	-9.04357
▁producer	-9.04362
▁rocket	-9.04397
▁betty	-9.04404
▁whispering	-9.04407
▁virus	-9.04448
▁trip	-9.04592
▁test	-9.04627
▁fate	-9.04649
▁missing	-9.04723
▁destroyed	-9.04915
▁lve	-9.05028
▁begin	-9.05325
▁plates	-9.05392
an	-9.05505
▁sleeping	-9.05696
▁bus	-9.05747
▁starts	-9.06155
▁o	-9.06216
▁r	-9.06399
▁base	-9.0643
▁path	-9.06474
▁except	-9.06494
▁dan	-9.06582
▁difficult	-9.06614
▁driving	-9.06614
▁instead	-9.06614
▁teeth	-9.06614
▁bought	-9.06614
▁spoke	-9.06615
▁detective	-9.06616
▁dreams	-9.06621
▁beyond	-9.06627
▁james	-9.06633
▁sight	-9.06635
▁wild	-9.06637
▁j	-9.0667
▁janet	-9.06714
▁dressed	-9.06972
▁project	-9.0698
▁grow	-9.07247
out	-9.08046
▁students	-9.08077
▁hole	-9.08261
▁ba	-9.08711
▁blind	-9.08781
▁helen	-9.08866
▁repeat	-9.08939
▁precious	-9.08939
▁impossible	-9.0894
▁serve	-9.0894
▁benoit	-9.0894
▁calvin	-9.0894
▁steady	-9.0895
▁maura	-9.08951
▁papa	-9.08959
▁taste	-9.09028
▁certainly	-9.09109
▁lii	-9.09146
▁bill	-9.09247
▁strike	-9.0937
▁dare	-9.09412
▁animal	-9.09448
▁where	-9.0958
▁dragon	-9.09612
▁ends	-9.09614
▁bite	-9.09758
▁promised	-9.0981
rs	-9.10307
▁lived	-9.10478
▁mann	-9.10604
▁horses	-9.10975
▁suppose	-9.11087
▁notice	-9.11092
▁prison	-9.11152
▁genius	-9.11249
▁neck	-9.11277
▁sauron	-9.1132
▁automat	-9.11321
▁thls	-9.11322
▁spent	-9.11323
▁club	-9.11323
▁nullah	-9.11325
▁everywhere	-9.11328
▁gay	-9.11328
▁robin	-9.11331
▁chief	-9.11332
▁lucy	-9.11336
▁mmhmm	-9.11341
▁bother	-9.11345
▁paulie	-9.11368
▁softly	-9.11416
▁bev	-9.11466
▁beer	-9.11526
men	-9.11529
▁shed	-9.11618
▁heading	-9.11629
▁shoes	-9.11756
▁greatest	-9.11756
▁queen	-9.11845
▁spirit	-9.11851
▁alien	-9.11865
▁idiot	-9.11868
▁sword	-9.11908
▁named	-9.11939
▁heads	-9.12344
▁guns	-9.12375
▁feed	-9.12702
▁brief	-9.12892
▁weapons	-9.13085
th	-9.13136
▁rich	-9.13186
▁travel	-9.1326
▁doc	-9.13344
▁suck	-9.13385
▁match	-9.13416
▁survive	-9.13521
▁nervous	-9.1362
▁nothin	-9.13728
▁drunk	-9.13729
la	-9.13742
▁reading	-9.1375
▁broadway	-9.13759
▁emergency	-9.13759
▁heavily	-9.13759
▁jefferson	-9.13759
▁lynch	-9.13759
▁purpose	-9.13759
▁universe	-9.13759
▁whirring	-9.1376
▁journey	-9.1376
▁whether	-9.1376
▁nowhere	-9.1376
▁lionel	-9.13761
▁cattle	-9.13762
▁pool	-9.13765
▁hank	-9.13769
▁katie	-9.13781
▁incredible	-9.13785
▁paid	-9.13796
▁mary	-9.13832
▁dave	-9.1397
as	-9.14228
▁sheriff	-9.14281
▁angela	-9.14315
▁ghost	-9.14358
▁table	-9.14554
▁closes	-9.14662
▁games	-9.14688
▁van	-9.14692
▁wearing	-9.14868
▁over	-9.15389
ur	-9.15416
▁opens	-9.15474
▁bomb	-9.15648
▁unit	-9.15759
▁pre	-9.16059
▁empty	-9.16259
▁mordor	-9.16259
▁truly	-9.16259
▁friday	-9.1626
▁birthday	-9.16261
▁writing	-9.16261
▁stuck	-9.16262
▁apologize	-9.16265
▁liar	-9.16269
▁minister	-9.16272
▁chosen	-9.16288
▁deck	-9.16314
▁yall	-9.16426
▁nash	-9.16572
▁warm	-9.16688
▁allowed	-9.16714
▁kinda	-9.16774
▁favor	-9.16891
▁goodness	-9.16892
▁crime	-9.16897
▁soul	-9.16916
▁dogs	-9.1693
▁weapon	-9.16957
▁slave	-9.17023
▁plays	-9.17276
ra	-9.17287
▁closed	-9.17383
▁store	-9.17537
▁sisters	-9.18607
▁sex	-9.18656
▁public	-9.18679
▁switch	-9.18773
▁support	-9.18784
▁bullshit	-9.18814
▁capitol	-9.18824
▁church	-9.18824
▁heavy	-9.18824
▁horace	-9.18824
▁baroness	-9.18824
▁especially	-9.18828
▁danger	-9.18829
▁meat	-9.18833
▁raju	-9.18834
▁technology	-9.18835
▁center	-9.18842
▁skin	-9.18863
▁bigger	-9.18865
▁huge	-9.18909
age	-9.18942
▁size	-9.18983
▁interested	-9.18992
▁manage	-9.19029
▁deer	-9.1919
▁faster	-9.19196
▁stars	-9.19223
▁trees	-9.19234
▁commander	-9.19264
▁nurse	-9.19522
▁asshole	-9.1956
▁sm	-9.20068
▁woods	-9.2014
▁feels	-9.2078
▁steal	-9.20995
▁agree	-9.21205
▁tough	-9.21272
▁screw	-9.21357
▁somethin	-9.21423
▁onto	-9.21429
▁pregnant	-9.21455
▁excited	-9.2146
▁common	-9.21466
▁shaw	-9.2148
▁announcer	-9.21487
▁cake	-9.21488
▁double	-9.21583
▁bare	-9.21733
▁sacrifice	-9.21926
il	-9.21945
▁grandma	-9.22023
▁computer	-9.22198
▁spiderman	-9.22253
▁horn	-9.2227
▁weight	-9.22308
▁leg	-9.22684
▁draw	-9.23095
▁bro	-9.23331
▁fighter	-9.2334
▁track	-9.23534
▁march	-9.23697
▁numbers	-9.23742
▁dis	-9.23794
▁drago	-9.23968
▁quit	-9.24039
▁camp	-9.24134
▁byrd	-9.24158
▁navorski	-9.24158
▁wrestling	-9.24158
▁sweetheart	-9.24159
▁phil	-9.2416
▁gondor	-9.24161
▁pressure	-9.24166
▁fuel	-9.24182
hrer	-9.24233
▁decided	-9.24333
▁hobbs	-9.2434
▁losing	-9.24379
z	-9.24381
▁helpless	-9.2448
▁remain	-9.24585
▁wine	-9.24712
▁corner	-9.25043
▁heaven	-9.25056
▁guest	-9.25062
to	-9.25067
▁problems	-9.25431
▁talked	-9.25655
▁ii	-9.25884
▁freak	-9.26053
▁di	-9.2617
▁humans	-9.26182
▁suggest	-9.26446
ne	-9.2658
▁prepare	-9.26779
▁drove	-9.26824
▁alex	-9.26863
▁courage	-9.26919
▁extra	-9.26923
▁excellent	-9.26936
▁justice	-9.26936
▁plenty	-9.26936
▁rochester	-9.26936
▁search	-9.26936
▁upset	-9.26936
▁cliff	-9.26936
▁contest	-9.26937
▁llke	-9.26937
▁rush	-9.26937
▁milk	-9.26937
▁negative	-9.26937
agol	-9.26937
▁worst	-9.26938
▁france	-9.26951
▁button	-9.26959
▁national	-9.26987
▁color	-9.27468
▁locked	-9.27517
▁couldve	-9.27521
▁fathers	-9.2765
▁thousands	-9.27747
▁points	-9.28243
▁doors	-9.28537
▁ed	-9.28571
▁hearing	-9.29015
▁grand	-9.29169
▁pan	-9.29238
▁spell	-9.2933
▁climb	-9.29333
▁cash	-9.29391
▁arrest	-9.29445
▁weak	-9.29508
▁tall	-9.29575
you	-9.29594
▁private	-9.29634
▁cream	-9.29641
▁goin	-9.29644
▁shows	-9.29659
▁large	-9.29733
▁note	-9.29784
▁percent	-9.29784
▁aragorn	-9.29793
▁became	-9.29793
▁katniss	-9.29793
▁summer	-9.29793
▁creaking	-9.29793
▁insane	-9.29793
▁scene	-9.29793
▁beginning	-9.29793
▁dancing	-9.29793
▁koba	-9.29794
▁jake	-9.29794
▁roof	-9.29794
▁sake	-9.29795
▁hua	-9.29799
▁swim	-9.29802
▁sarah	-9.29805
▁shame	-9.29811
▁nose	-9.29811
▁badger	-9.29816
▁pia	-9.29833
▁gasping	-9.29878
▁whatd	-9.29913
▁mit	-9.30024
▁bear	-9.30077
▁staying	-9.30078
▁yelling	-9.30087
▁trick	-9.30261
▁owe	-9.306
▁shield	-9.30799
▁cup	-9.30802
▁passed	-9.30838
▁student	-9.30871
▁dies	-9.31045
▁picked	-9.31084
ting	-9.31133
▁lips	-9.31313
co	-9.32002
▁listening	-9.3203
▁turns	-9.32031
▁buzz	-9.3206
▁correct	-9.32082
ia	-9.32303
▁pro	-9.32345
▁fill	-9.32441
▁blame	-9.32488
▁howd	-9.32557
▁treat	-9.32716
▁crassus	-9.32734
▁language	-9.32734
▁london	-9.32734
▁matthew	-9.32734
▁orleans	-9.32734
▁precrime	-9.32734
▁tour	-9.32734
▁twice	-9.32734
▁estella	-9.32736
▁elise	-9.32736
▁madison	-9.32738
▁zoobi	-9.32738
▁piano	-9.32739
▁dick	-9.3274
▁farhan	-9.32741
▁angry	-9.32742
▁crew	-9.32742
▁fellow	-9.32743
ling	-9.32745
▁exist	-9.3275
▁launch	-9.32758
▁smith	-9.32781
▁obviously	-9.328
▁pete	-9.32837
▁sean	-9.32871
▁interesting	-9.3298
▁closer	-9.33054
▁w	-9.33111
▁opening	-9.33157
▁folks	-9.3333
▁wouldve	-9.3337
▁scream	-9.33459
▁eggs	-9.33482
▁training	-9.33631
▁signed	-9.3375
▁appointment	-9.33772
▁explosion	-9.33797
em	-9.33852
▁bird	-9.33867
▁level	-9.33885
▁pal	-9.3398
▁thinks	-9.34081
▁le	-9.34288
at	-9.34327
▁baggins	-9.344
▁falling	-9.34444
▁tells	-9.34817
ot	-9.34877
▁orders	-9.34961
▁design	-9.35102
ul	-9.35171
▁cook	-9.35315
ce	-9.35448
▁honest	-9.35464
away	-9.35492
▁paris	-9.35708
▁rig	-9.35715
▁doug	-9.35734
▁blanc	-9.35758
▁advice	-9.35764
▁british	-9.35764
▁built	-9.35764
▁david	-9.35764
▁emperor	-9.35764
▁houston	-9.35764
▁satisfied	-9.35764
▁indeed	-9.35764
▁bialystock	-9.35765
▁angelica	-9.35765
▁desk	-9.35765
▁simon	-9.35766
▁beauty	-9.35766
▁silly	-9.35766
▁opportunity	-9.3577
▁fuck	-9.35771
▁apartment	-9.35774
▁yep	-9.35777
▁speed	-9.3578
▁handsome	-9.35782
▁cia	-9.35806
▁shop	-9.3581
▁victory	-9.35884
▁honestly	-9.359
▁invited	-9.35937
▁quietly	-9.36216
ary	-9.3624
▁pen	-9.36268
▁who	-9.36318
▁ma	-9.36592
time	-9.36686
me	-9.36968
▁boat	-9.36979
▁shadow	-9.36999
▁action	-9.37118
▁using	-9.37225
▁wings	-9.37272
▁tie	-9.37313
▁leader	-9.3735
▁dry	-9.37672
oobi	-9.37726
▁earl	-9.37773
▁oil	-9.37866
▁tape	-9.37968
te	-9.38028
ro	-9.38051
▁pray	-9.38244
▁direct	-9.38444
▁punch	-9.38454
▁breaking	-9.38584
▁ships	-9.38599
▁experience	-9.38649
▁mi	-9.38655
▁bright	-9.38751
▁witness	-9.38824
▁contract	-9.38836
▁cab	-9.38851
▁alpha	-9.38889
▁beach	-9.38889
▁marriage	-9.38889
▁research	-9.38889
▁gravity	-9.38889
▁eliza	-9.3889
▁slim	-9.38895
▁freedom	-9.38898
▁distance	-9.38917
▁saving	-9.38918
▁carney	-9.38918
▁shire	-9.38931
▁ow	-9.39102
▁metal	-9.39135
▁letting	-9.39142
▁balls	-9.39559
▁tires	-9.39769
▁card	-9.39809
▁fail	-9.39845
▁keys	-9.39867
▁ted	-9.4005
▁tongue	-9.40145
▁secure	-9.4017
▁dagger	-9.40196
▁bastard	-9.40201
▁decision	-9.40213
▁pulled	-9.40345
▁nation	-9.40494
ment	-9.40674
▁thin	-9.40792
▁walked	-9.4081
▁crack	-9.41317
▁study	-9.4166
▁build	-9.4168
▁trap	-9.41891
▁moved	-9.41948
▁virgin	-9.42063
▁champ	-9.4208
▁access	-9.42093
▁federal	-9.42115
▁zero	-9.42115
▁chamberlain	-9.42115
▁district	-9.42115
▁evidence	-9.42115
▁speech	-9.42115
▁ridiculous	-9.42115
▁prize	-9.42117
▁often	-9.42122
▁suicide	-9.42122
▁garden	-9.42128
▁stage	-9.42137
▁spring	-9.4215
▁josh	-9.42156
▁cage	-9.42161
▁amen	-9.42163
▁chest	-9.42167
cient	-9.42311
▁due	-9.42382
▁rebels	-9.42707
▁ben	-9.42727
▁deserve	-9.43259
▁fan	-9.43437
▁movie	-9.43553
▁ticket	-9.43583
▁bottle	-9.43704
▁following	-9.43972
▁fit	-9.44113
▁birds	-9.44157
▁checked	-9.44201
▁mm	-9.4435
▁legs	-9.44388
▁sub	-9.44406
op	-9.44483
▁beg	-9.44559
▁cross	-9.44639
▁stops	-9.44949
ty	-9.44982
▁cops	-9.45003
▁soft	-9.4516
▁spare	-9.45228
▁waste	-9.4527
▁create	-9.45306
▁applause	-9.45448
▁bilbo	-9.45448
▁brilliant	-9.45448
▁bunch	-9.45448
▁hannibal	-9.45448
▁jersey	-9.45448
▁maverick	-9.45448
▁murdock	-9.45448
▁quigley	-9.45448
▁sergeant	-9.45448
▁someday	-9.45448
▁adrian	-9.45449
▁midnight	-9.45449
▁surface	-9.45449
▁split	-9.45451
▁memory	-9.45454
▁department	-9.45455
▁mav	-9.45465
▁defendant	-9.45467
▁involved	-9.45467
▁ulla	-9.45476
▁energy	-9.45481
▁storm	-9.45486
▁coat	-9.45495
▁wet	-9.45496
▁betrayed	-9.45573
▁scoffs	-9.45575
▁nature	-9.45575
▁ace	-9.45689
▁bone	-9.45826
▁main	-9.45988
▁deeply	-9.46035
▁higher	-9.46166
▁he	-9.46217
▁cheers	-9.46533
▁non	-9.46547
▁cars	-9.46589
se	-9.46904
▁plain	-9.46913
▁norman	-9.46936
▁defense	-9.46942
▁conversation	-9.46967
▁judge	-9.46982
id	-9.46989
▁tap	-9.47361
▁bend	-9.47528
▁career	-9.47614
▁helping	-9.47976
▁defend	-9.48052
▁ruin	-9.48081
▁leo	-9.48162
▁event	-9.4833
▁complete	-9.48512
▁aw	-9.48836
▁silence	-9.4884
▁jack	-9.4887
▁apart	-9.48889
▁thirty	-9.48895
▁england	-9.48897
▁jiro	-9.48897
▁klump	-9.48897
▁simply	-9.48897
▁tournament	-9.48897
▁upstairs	-9.48897
▁awake	-9.48897
▁science	-9.48897
▁whiskey	-9.48897
▁rohan	-9.48897
▁foreign	-9.48898
▁medicine	-9.48898
▁edward	-9.48898
▁alfred	-9.48899
▁bread	-9.48903
▁winning	-9.48903
▁lake	-9.48905
▁legat	-9.48908
▁bobby	-9.48917
▁boom	-9.48926
▁halt	-9.48943
▁angle	-9.48943
▁mum	-9.48956
▁powerful	-9.48997
▁manager	-9.49094
▁gettin	-9.49103
▁exhales	-9.49131
▁sold	-9.49137
▁bay	-9.49195
der	-9.49212
▁approaching	-9.49249
▁whispers	-9.49334
▁sol	-9.49687
▁post	-9.50091
▁showed	-9.50151
▁engineer	-9.50434
▁add	-9.50502
▁fellas	-9.50566
▁lip	-9.50815
▁lad	-9.50829
▁bones	-9.50869
▁paying	-9.51403
▁slaves	-9.51477
▁bid	-9.51652
▁v	-9.52132
ow	-9.52234
▁hearts	-9.52322
▁bow	-9.52333
▁prince	-9.52428
▁lift	-9.52464
▁extreme	-9.52468
▁eagle	-9.52468
▁fruit	-9.52468
▁italian	-9.52468
▁lelaina	-9.52468
▁possibly	-9.52468
▁snowflake	-9.52468
▁rooster	-9.52468
▁thunder	-9.5247
▁unbelievable	-9.52471
▁regret	-9.52471
▁henry	-9.52472
▁terrorist	-9.52473
▁forgotten	-9.52475
▁edge	-9.52476
▁understood	-9.52486
▁flesh	-9.52487
▁brady	-9.52509
▁thatll	-9.52521
▁con	-9.52554
▁heat	-9.52585
▁hiding	-9.52627
▁killer	-9.52632
▁dads	-9.52633
▁wood	-9.52708
▁warning	-9.52751
▁pictures	-9.52841
▁bigge	-9.52879
▁filled	-9.52896
▁arrested	-9.52908
▁sh	-9.52933
▁pot	-9.52971
▁helped	-9.53019
▁besides	-9.53128
▁siren	-9.53132
▁trained	-9.53329
▁expecting	-9.53441
▁ms	-9.53631
▁towards	-9.53754
▁account	-9.53816
▁girlfriend	-9.54174
▁tower	-9.54203
▁no	-9.54208
▁loves	-9.54223
▁patient	-9.54229
▁suspect	-9.54264
▁miller	-9.54284
▁bless	-9.5536
▁fighters	-9.55373
▁rid	-9.55441
ens	-9.55489
▁cameras	-9.55716
▁pretend	-9.5576
▁faith	-9.55807
▁focus	-9.55815
▁headed	-9.55827
▁load	-9.55864
▁recognize	-9.55914
▁iron	-9.55984
ca	-9.55994
▁threat	-9.56054
▁willing	-9.56134
▁mmhm	-9.5614
▁comin	-9.5617
▁alicia	-9.56172
▁bottom	-9.56172
▁breakfast	-9.56172
▁byebye	-9.56172
▁garrison	-9.56172
▁hattie	-9.56172
▁permission	-9.56172
▁someplace	-9.56172
▁tutsi	-9.56172
▁video	-9.56172
▁larry	-9.56172
▁morgan	-9.56172
▁local	-9.56173
▁reggie	-9.56173
▁monster	-9.56174
▁whoever	-9.56174
▁jail	-9.56175
▁aircraft	-9.56177
▁loose	-9.5618
▁springtime	-9.56182
▁investigation	-9.56182
▁gunfire	-9.56183
▁apparently	-9.56185
▁capable	-9.56195
▁fox	-9.56196
▁trish	-9.56224
▁applauding	-9.56231
▁medical	-9.56258
▁dld	-9.563
▁pity	-9.56318
▁hoping	-9.56474
▁walls	-9.56484
im	-9.56486
▁noticed	-9.56571
▁calls	-9.56787
▁talkin	-9.57209
▁knowing	-9.57363
▁mo	-9.57368
▁be	-9.57469
▁lied	-9.57521
▁remind	-9.57551
▁hobbits	-9.57577
▁vote	-9.57632
▁block	-9.57825
▁view	-9.5805
▁sl	-9.58058
▁reporter	-9.5844
▁mans	-9.58564
▁stayed	-9.58659
os	-9.58666
▁liked	-9.58825
▁moments	-9.58831
▁wing	-9.58941
na	-9.59151
▁ad	-9.59569
▁und	-9.59607
▁defeat	-9.5964
▁release	-9.5978
▁damage	-9.59788
▁solve	-9.59804
▁curse	-9.59855
ent	-9.59865
▁original	-9.59881
▁crick	-9.59976
▁harm	-9.59979
▁hatch	-9.59989
▁aunt	-9.60005
▁wlth	-9.60006
line	-9.60013
▁mattiece	-9.60018
▁tatiana	-9.60018
▁tuesday	-9.60018
▁whinnies	-9.60018
▁complicated	-9.60018
▁pardon	-9.60018
▁staff	-9.60018
▁heep	-9.60019
▁maggie	-9.60019
▁hyah	-9.60019
▁oclock	-9.60019
▁erik	-9.60019
▁sobbing	-9.60019
▁capcom	-9.6002
▁troy	-9.60022
▁noble	-9.60023
▁richard	-9.60024
▁fancy	-9.60025
▁avoid	-9.60025
▁tax	-9.60025
▁sunday	-9.60026
▁theory	-9.60035
▁coach	-9.60038
▁hugh	-9.60045
▁immediately	-9.60074
▁darkness	-9.60085
▁eh	-9.60091
go	-9.60101
▁aid	-9.60142
▁passion	-9.60146
▁swing	-9.60198
▁joy	-9.6027
▁agreed	-9.60367
▁created	-9.60397
ant	-9.60497
▁screwed	-9.6053
▁downs	-9.60559
▁nuts	-9.60623
▁li	-9.60742
▁bringing	-9.6084
▁prisoners	-9.6086
▁clearly	-9.60933
▁harder	-9.61111
▁checks	-9.61163
ha	-9.616
▁systems	-9.61671
▁letters	-9.61676
son	-9.61682
▁decide	-9.61807
▁file	-9.6187
▁cos	-9.61918
ord	-9.61955
▁devil	-9.62025
▁uniform	-9.62037
▁scientist	-9.62082
▁creature	-9.62126
▁whistle	-9.62128
▁roman	-9.62154
▁plate	-9.62191
▁fired	-9.62225
▁plans	-9.62254
▁you	-9.62345
▁fella	-9.62389
▁feelings	-9.62655
ped	-9.62862
▁heal	-9.63096
▁tests	-9.63299
▁believed	-9.63343
et	-9.63401
way	-9.63504
▁slip	-9.63588
▁opened	-9.63611
▁scratch	-9.6364
▁mention	-9.63708
▁clever	-9.63871
▁madam	-9.63882
▁awful	-9.6389
▁eve	-9.63916
do	-9.63975
▁congress	-9.63993
▁revolution	-9.64009
▁twenty	-9.64013
▁brixton	-9.64018
▁chinese	-9.64018
▁credit	-9.64018
▁enemies	-9.64018
▁fabulous	-9.64018
▁international	-9.64018
▁nonsense	-9.64018
▁soviet	-9.64018
▁subject	-9.64018
▁whistling	-9.64018
▁adele	-9.64018
▁gracie	-9.64018
▁april	-9.64018
▁awesome	-9.64018
▁teddy	-9.64019
▁bounce	-9.64019
▁kitchen	-9.64019
▁rough	-9.6402
▁assistant	-9.6402
▁written	-9.64022
▁personnel	-9.64023
▁circle	-9.64025
▁boyfriend	-9.64026
▁accountant	-9.64034
▁necessary	-9.64043
▁duty	-9.64044
▁shake	-9.64053
▁hug	-9.64059
▁statement	-9.64072
▁screeching	-9.64118
▁pet	-9.64123
▁dirty	-9.64134
▁received	-9.64138
▁von	-9.64214
▁pm	-9.6422
▁gotten	-9.64339
▁ate	-9.64376
▁led	-9.64415
▁failed	-9.64461
▁surprised	-9.64466
▁mothers	-9.64597
▁admit	-9.64659
▁turning	-9.64705
▁armed	-9.64798
▁streets	-9.65127
▁hardly	-9.6519
▁enter	-9.65388
▁loss	-9.65497
▁fingers	-9.65622
▁followed	-9.65841
▁tone	-9.66027
▁drinking	-9.66112
▁chair	-9.66206
▁pair	-9.66248
▁grade	-9.66362
▁shooting	-9.66545
▁hanging	-9.66633
▁played	-9.667
▁apple	-9.66941
▁animals	-9.67277
ho	-9.67349
▁nick	-9.6747
lt	-9.67556
ii	-9.67569
▁limit	-9.67998
▁krakozhia	-9.67999
▁health	-9.6802
▁social	-9.6803
▁forces	-9.6804
▁crap	-9.68154
▁coughing	-9.68185
▁device	-9.68185
▁eema	-9.68185
▁grantham	-9.68185
▁hanratty	-9.68185
▁morrison	-9.68185
▁phoenix	-9.68185
▁riordan	-9.68185
▁specific	-9.68185
▁sugar	-9.68185
▁cheese	-9.68185
▁shirt	-9.68185
▁altitude	-9.68185
▁hidden	-9.68186
▁gollum	-9.68186
▁connection	-9.68193
▁raven	-9.68193
▁plus	-9.68193
▁oath	-9.68196
▁forth	-9.68206
▁grandpa	-9.68207
▁peg	-9.68207
▁creed	-9.68232
▁penny	-9.68242
▁battery	-9.68255
▁whyd	-9.68261
▁confused	-9.68268
▁suddenly	-9.6828
▁self	-9.68296
▁former	-9.68366
▁harris	-9.68372
▁reality	-9.68432
▁santa	-9.68453
▁dock	-9.68535
▁indistinctly	-9.68628
▁daughters	-9.68673
▁stairs	-9.68715
▁bath	-9.68803
ton	-9.68828
▁fashion	-9.68943
▁guards	-9.69024
▁bi	-9.69151
▁hates	-9.69456
male	-9.69776
▁yell	-9.69828
▁wise	-9.69997
▁yells	-9.7003
▁paint	-9.70303
ine	-9.7037
▁butt	-9.70409
▁pocket	-9.70527
▁rose	-9.70537
▁criminal	-9.70595
▁interview	-9.70604
▁joke	-9.70608
▁sending	-9.70786
▁challenge	-9.70888
▁consider	-9.71721
oden	-9.71784
▁wash	-9.71784
▁sale	-9.71862
▁quant	-9.71866
▁hunt	-9.71954
▁approach	-9.72016
▁disappear	-9.72176
▁settle	-9.72283
▁schedule	-9.72288
▁lies	-9.72297
ally	-9.72351
▁victor	-9.72355
▁mu	-9.7241
▁ought	-9.72465
▁grace	-9.7253
▁adhemar	-9.72532
▁agatha	-9.72532
▁california	-9.72532
▁familiar	-9.72532
▁license	-9.72532
▁majesty	-9.72532
▁mystery	-9.72532
▁relationship	-9.72532
▁saruman	-9.72532
▁somehow	-9.72532
▁unusual	-9.72532
▁vegas	-9.72532
▁toast	-9.72533
▁cousin	-9.72533
▁stanford	-9.72533
▁afford	-9.72533
▁gotham	-9.72533
▁cap	-9.72534
▁monday	-9.72534
▁basically	-9.72535
▁imperial	-9.72536
▁female	-9.72537
▁property	-9.72539
▁yellow	-9.7254
▁gang	-9.7254
▁trigger	-9.72541
▁status	-9.72541
▁aah	-9.72543
▁batman	-9.72548
▁aside	-9.7255
▁jacket	-9.72553
▁retreat	-9.72557
▁tune	-9.72558
▁reaction	-9.72565
▁mount	-9.7257
▁gear	-9.72576
▁mayday	-9.72578
▁toll	-9.72578
▁blaring	-9.72582
▁fortune	-9.72593
▁subtitle	-9.72624
▁professional	-9.72632
▁itd	-9.72661
▁troops	-9.72664
▁clicking	-9.72743
▁chase	-9.72777
▁americans	-9.72838
▁shower	-9.72858
▁wh	-9.72878
▁personally	-9.72892
▁tied	-9.72975
▁based	-9.73029
▁lower	-9.73079
▁en	-9.7315
▁clicks	-9.73425
▁pills	-9.73428
▁ned	-9.73501
▁attacked	-9.73577
▁beeps	-9.73595
▁hls	-9.73613
▁staring	-9.73636
ma	-9.73808
▁co	-9.73878
▁dent	-9.73935
▁blowing	-9.74063
▁plant	-9.74254
▁blows	-9.74424
▁places	-9.74465
▁agents	-9.74586
ern	-9.7485
▁scare	-9.74987
▁habit	-9.75012
▁sentinel	-9.75092
▁winner	-9.75108
▁tip	-9.75119
▁tunnel	-9.75166
land	-9.75261
ee	-9.75508
▁fires	-9.75627
▁mal	-9.7566
▁si	-9.75699
▁bombs	-9.75871
▁crash	-9.76254
▁sneak	-9.76387
▁aim	-9.76622
▁smash	-9.76627
▁desert	-9.76664
▁hills	-9.76697
he	-9.7672
▁hundreds	-9.76782
▁ignore	-9.76824
▁practice	-9.76844
▁coward	-9.76923
▁dust	-9.76935
▁total	-9.76945
ate	-9.77072
▁under	-9.77075
▁chicago	-9.77078
▁closing	-9.77078
▁donald	-9.77078
▁finkle	-9.77078
▁intelligence	-9.77078
▁intelligent	-9.77078
▁lindsey	-9.77078
▁loxley	-9.77078
▁melinda	-9.77078
▁necklace	-9.77078
▁responsible	-9.77078
▁revenge	-9.77078
▁swimming	-9.77078
▁telephone	-9.77078
▁vacation	-9.77078
▁otherwise	-9.77078
▁robbie	-9.77078
▁senator	-9.77078
▁monitor	-9.77079
▁mmmhmm	-9.77079
▁memories	-9.77079
▁giant	-9.77079
▁slept	-9.77079
▁alert	-9.77079
▁extraordinary	-9.77079
▁joyner	-9.7708
▁pride	-9.7708
▁grey	-9.77084
▁earlier	-9.77085
▁audition	-9.77085
▁stallion	-9.77087
▁glory	-9.77095
▁adventure	-9.77098
▁agreement	-9.77101
▁style	-9.77102
▁skies	-9.77103
▁agena	-9.77103
▁wwe	-9.77104
▁classical	-9.77119
▁regular	-9.77133
▁stink	-9.77159
▁squad	-9.77167
▁whooshing	-9.77173
▁bout	-9.77177
▁keeps	-9.77211
▁bleeding	-9.77234
▁invitation	-9.77284
▁wide	-9.77289
▁lean	-9.7729
▁arrived	-9.77415
▁jad	-9.77417
▁union	-9.77424
▁lines	-9.77427
▁suffering	-9.77432
▁flip	-9.77576
ck	-9.77624
▁flowers	-9.77861
▁tag	-9.779
▁bron	-9.77977
▁reached	-9.78115
▁answers	-9.78182
▁legal	-9.78313
▁mistakes	-9.78351
▁meaning	-9.78567
▁chattering	-9.78598
ol	-9.78634
▁br	-9.78749
▁runs	-9.79029
▁kings	-9.79211
▁passing	-9.79237
▁leaves	-9.79686
▁official	-9.79783
▁condition	-9.79835
▁bullet	-9.79857
▁noise	-9.79876
▁hutu	-9.79897
▁hobbit	-9.7992
▁warrior	-9.79948
▁finger	-9.79988
▁doctors	-9.79994
▁up	-9.80073
▁gut	-9.80147
un	-9.80237
lon	-9.80394
▁showing	-9.80521
▁lots	-9.80554
▁voices	-9.80588
▁panic	-9.80664
if	-9.80744
ism	-9.80749
▁refuse	-9.8093
▁auction	-9.81297
▁deliver	-9.81299
▁proceed	-9.81356
sh	-9.81399
▁intend	-9.81431
▁wave	-9.81464
▁poison	-9.81467
▁coop	-9.81707
▁gentle	-9.81804
▁discuss	-9.81812
▁symbol	-9.81819
▁fifty	-9.81831
▁anthony	-9.8184
▁complex	-9.8184
▁desperate	-9.8184
▁destiny	-9.8184
▁dozen	-9.8184
▁garbage	-9.8184
▁guitar	-9.8184
▁miracle	-9.8184
▁miserable	-9.8184
▁orbit	-9.8184
▁pippin	-9.8184
▁eyre	-9.8184
▁whenever	-9.8184
▁hadnt	-9.8184
▁ugly	-9.8184
▁beverly	-9.8184
▁rlght	-9.81841
▁tanner	-9.81842
▁blew	-9.81842
▁blade	-9.81842
▁honour	-9.81843
▁process	-9.81844
▁marston	-9.81846
▁university	-9.81847
▁famous	-9.81849
▁wolf	-9.81849
▁blast	-9.81849
▁jazz	-9.81849
▁ladder	-9.81851
▁pike	-9.81853
▁gentleman	-9.81864
▁comfortable	-9.81865
▁bane	-9.81871
▁football	-9.81872
▁held	-9.81889
▁fourth	-9.81952
▁protection	-9.81953
▁codes	-9.81987
▁ricky	-9.81988
▁grown	-9.82012
▁glasses	-9.8216
▁decepticons	-9.82169
▁exclaims	-9.8217
▁armor	-9.82188
▁carla	-9.82203
▁survived	-9.82312
▁mustve	-9.8236
▁riding	-9.82423
▁marks	-9.82572
▁hol	-9.82591
ny	-9.8273
▁seats	-9.82747
▁expected	-9.82872
▁speakers	-9.83006
de	-9.83018
▁hips	-9.83035
▁burned	-9.83115
▁goat	-9.8319
▁records	-9.83308
▁beating	-9.83417
▁ordered	-9.83461
▁wire	-9.83609
▁driver	-9.83613
▁seemed	-9.83729
▁engines	-9.83822
▁hill	-9.8385
▁reed	-9.83926
▁spin	-9.83931
▁h	-9.84032
▁finding	-9.84073
▁mel	-9.84248
▁tan	-9.84286
▁trusted	-9.84419
▁fans	-9.84634
▁wheel	-9.84774
▁keeping	-9.84884
▁jun	-9.84898
ass	-9.84964
▁that	-9.84968
▁am	-9.85016
da	-9.85144
▁heavens	-9.85186
▁ear	-9.85539
ure	-9.85748
▁shock	-9.86014
ship	-9.86335
ish	-9.86401
▁request	-9.8645
▁mountains	-9.86519
▁remove	-9.86595
▁russians	-9.86618
▁assume	-9.86665
▁sharp	-9.8673
▁proper	-9.86745
▁brenda	-9.86756
▁masters	-9.86767
▁tradition	-9.86772
▁ash	-9.8679
▁mimi	-9.86802
▁taxi	-9.8684
▁disease	-9.8684
▁downstairs	-9.8684
▁elizabeth	-9.8684
▁experiment	-9.8684
▁however	-9.8684
▁inhales	-9.8684
▁melody	-9.8684
▁rattling	-9.8684
▁struggle	-9.8684
▁surrender	-9.8684
▁trunk	-9.8684
▁wednesday	-9.8684
▁impact	-9.8684
▁fantastic	-9.8684
▁italy	-9.8684
▁gym	-9.8684
▁funeral	-9.8684
▁commit	-9.86841
▁stress	-9.86841
▁groot	-9.86841
▁rosenberg	-9.86841
▁upbeat	-9.86841
▁francisco	-9.86841
▁franz	-9.86842
▁blanket	-9.86842
▁peeta	-9.86843
▁elves	-9.86844
▁several	-9.86845
▁planning	-9.86847
▁sniffles	-9.8685
▁benny	-9.86851
▁hustle	-9.86854
▁crackling	-9.86854
▁unfortunately	-9.86861
▁jerk	-9.86864
▁mister	-9.86877
▁bowen	-9.8688
▁market	-9.86881
▁trial	-9.86892
▁range	-9.86899
▁bury	-9.86912
▁usual	-9.86919
▁port	-9.8693
▁mail	-9.86935
▁tiny	-9.86948
▁hire	-9.86962
▁wander	-9.87019
▁mitch	-9.87043
▁powers	-9.87056
▁hood	-9.87064
▁pissed	-9.87122
ious	-9.87137
▁sexy	-9.87183
▁papers	-9.87207
ance	-9.87264
▁orcs	-9.87382
▁stands	-9.87492
▁prepared	-9.87529
▁gunn	-9.87535
▁slowly	-9.87561
▁details	-9.8758
▁watched	-9.87584
▁autobots	-9.87778
▁ideas	-9.87809
▁tryin	-9.87814
▁gosh	-9.87859
▁highly	-9.87967
▁likely	-9.88328
▁recording	-9.88453
▁knocking	-9.88522
▁min	-9.88644
▁nah	-9.88668
▁bags	-9.88725
▁guts	-9.88736
▁ch	-9.88751
▁lively	-9.88786
▁warriors	-9.88868
no	-9.8894
▁whistles	-9.89266
▁sire	-9.89312
ts	-9.89503
▁landing	-9.89581
▁attempt	-9.89638
▁appear	-9.89806
▁muscle	-9.89927
▁angel	-9.89979
▁operation	-9.90023
▁equal	-9.90116
▁ranger	-9.90142
j	-9.9018
▁victim	-9.90189
▁member	-9.90208
▁toward	-9.90223
▁so	-9.90284
▁guests	-9.90363
head	-9.91011
▁signs	-9.91012
▁ul	-9.91181
▁interest	-9.91362
▁songs	-9.91385
▁du	-9.91569
▁dump	-9.91716
▁off	-9.9172
ba	-9.91737
▁grant	-9.91781
▁crow	-9.91791
back	-9.9184
▁advance	-9.91878
▁kat	-9.91901
▁livin	-9.91929
▁mars	-9.91933
▁hm	-9.9205
▁grave	-9.92073
▁comfort	-9.92085
▁although	-9.92103
▁explosiveskull	-9.92103
▁gemini	-9.92103
▁gorgeous	-9.92103
▁jacob	-9.92103
▁joob	-9.92103
▁opinion	-9.92103
▁signature	-9.92103
▁thief	-9.92103
▁threw	-9.92103
▁toilet	-9.92103
▁unhappy	-9.92103
▁coughs	-9.92103
▁presence	-9.92103
▁nightmare	-9.92103
▁dylan	-9.92103
▁innocent	-9.92103
▁jessica	-9.92104
▁reese	-9.92104
▁jenny	-9.92104
▁spread	-9.92104
▁priest	-9.92106
▁mickey	-9.92106
▁willow	-9.92107
▁easier	-9.92108
▁chasing	-9.92108
▁custody	-9.92108
▁medication	-9.92111
▁tragedy	-9.92113
▁japanese	-9.92113
▁vow	-9.92115
▁kingdom	-9.92115
▁nope	-9.92117
▁whatre	-9.92117
▁doom	-9.9212
▁deke	-9.92124
▁zone	-9.92127
▁birth	-9.92128
▁anger	-9.9213
▁belt	-9.9213
▁medal	-9.92131
▁row	-9.92131
▁pig	-9.92142
▁fake	-9.92145
▁secretary	-9.92147
▁mona	-9.92163
▁aware	-9.92165
▁safety	-9.92168
▁jc	-9.92182
▁flag	-9.92184
▁craft	-9.92186
▁lins	-9.9219
▁bound	-9.92197
▁winter	-9.92198
▁mercy	-9.92199
▁butter	-9.92267
▁laser	-9.92279
▁according	-9.92286
▁fallen	-9.92304
▁wln	-9.92307
▁mixed	-9.92361
▁oi	-9.92479
▁bucks	-9.92676
▁designed	-9.92727
▁document	-9.92932
▁drugs	-9.92992
▁sooner	-9.9328
▁thuds	-9.93302
▁backup	-9.9331
lve	-9.9372
▁results	-9.9372
▁lately	-9.93811
▁members	-9.94034
▁me	-9.94153
▁becomes	-9.94221
▁jab	-9.94256
▁counting	-9.94358
▁fa	-9.94371
alnt	-9.94409
▁moms	-9.94667
▁u	-9.95095
▁picking	-9.95224
▁shape	-9.95283
▁hop	-9.95342
ball	-9.95379
lic	-9.95388
▁cleared	-9.95405
king	-9.95523
▁beast	-9.95654
▁chocolate	-9.95666
▁affair	-9.95688
▁source	-9.95715
x	-9.95718
▁setting	-9.95726
▁quarter	-9.95728
▁shoulder	-9.95788
▁mis	-9.95887
▁eject	-9.959
▁lance	-9.96041
les	-9.96254
▁thoughts	-9.96338
▁chi	-9.96362
ted	-9.9645
▁checking	-9.96568
▁los	-9.96581
▁rot	-9.96595
▁brings	-9.96694
▁lookin	-9.96767
off	-9.96785
▁matters	-9.96819
▁pilots	-9.96883
▁what	-9.96917
▁cast	-9.97297
▁desire	-9.97401
▁engage	-9.97408
▁perform	-9.97437
li	-9.97469
▁salt	-9.97512
▁physical	-9.97517
▁trans	-9.97537
ge	-9.97539
▁rick	-9.97581
▁among	-9.97628
▁helm	-9.97637
▁diet	-9.97642
▁prefer	-9.97656
▁bulgarian	-9.97658
▁deepcore	-9.97658
▁ducard	-9.97658
▁dwarf	-9.97658
▁fifth	-9.97658
▁governor	-9.97658
▁horizon	-9.97658
▁liberty	-9.97658
▁mcbride	-9.97658
▁mirror	-9.97658
▁pomatter	-9.97658
▁ranchhoddas	-9.97658
▁romilly	-9.97658
▁species	-9.97658
▁underneath	-9.97658
▁witwer	-9.97658
▁flood	-9.97659
▁serum	-9.97659
▁rachel	-9.97659
▁celebrate	-9.97659
▁weather	-9.97659
▁milady	-9.97659
▁allegra	-9.97659
▁renai	-9.97659
▁underground	-9.97659
▁location	-9.9766
▁fluid	-9.9766
▁loyal	-9.97661
▁wilson	-9.97662
▁gross	-9.97663
▁impressive	-9.97664
▁chatur	-9.97664
▁rising	-9.97666
▁lisa	-9.97667
▁brace	-9.97667
▁failure	-9.97668
▁punk	-9.97668
▁spacecom	-9.97669
▁cabinet	-9.97672
▁static	-9.97673
▁title	-9.97675
▁bedroom	-9.97676
▁mj	-9.97678
▁tech	-9.97686
▁available	-9.97692
▁literally	-9.97694
▁model	-9.97696
▁dube	-9.97712
▁yearold	-9.97719
▁elf	-9.9772
▁exit	-9.97759
▁stock	-9.9776
▁guilty	-9.97774
▁square	-9.97779
▁concerned	-9.97792
▁meal	-9.97807
▁usually	-9.97811
▁chill	-9.97843
▁dc	-9.97844
▁deny	-9.97851
▁stolen	-9.97885
▁beth	-9.98111
▁dash	-9.9818
ations	-9.98237
▁considering	-9.98241
▁hunting	-9.98241
▁image	-9.98263
▁sand	-9.98308
▁peaceful	-9.98408
▁warn	-9.98859
▁jumped	-9.9889
▁trade	-9.98916
▁seek	-9.99146
▁gives	-9.99362
▁bomber	-9.99499
▁ca	-9.9963
▁ears	-9.99807
▁cure	-9.99807
▁we	-9.99917
▁landed	-10.0006
one	-10.0022
▁creatures	-10.0037
▁older	-10.0048
just	-10.0063
ley	-10.0066
▁worlds	-10.0074
▁cheer	-10.009
▁pulling	-10.0106
▁gl	-10.0106
▁cards	-10.0115
▁fi	-10.0119
▁hook	-10.0122
▁demon	-10.0154
▁satellite	-10.0155
▁vehicle	-10.0158
▁einon	-10.0158
▁issue	-10.0161
▁shore	-10.0162
▁degree	-10.0164
▁gunshot	-10.0165
▁mask	-10.0166
▁pieces	-10.0171
▁lesson	-10.0171
be	-10.0183
▁secrets	-10.0201
▁swords	-10.0216
▁earn	-10.022
▁murderer	-10.024
che	-10.0246
▁sweat	-10.0251
ily	-10.0254
▁site	-10.0256
▁belongs	-10.0262
▁dive	-10.0271
▁goal	-10.0271
▁transport	-10.0272
▁suffer	-10.0273
▁au	-10.0276
▁contain	-10.0298
▁collect	-10.0302
▁function	-10.0306
▁echo	-10.0308
▁respond	-10.0308
ble	-10.0313
▁reveal	-10.0318
▁nest	-10.0324
face	-10.0325
▁farm	-10.0326
▁dirt	-10.0337
▁introduce	-10.0339
▁sudden	-10.0341
▁obvious	-10.0341
▁bum	-10.0346
ill	-10.0348
▁brown	-10.0349
▁surge	-10.035
▁martin	-10.0351
▁dramatic	-10.0353
▁ammi	-10.0354
▁ashitaka	-10.0354
▁coyote	-10.0354
▁eboshi	-10.0354
▁eventually	-10.0354
▁exchange	-10.0354
▁farewell	-10.0354
▁footsteps	-10.0354
▁gamora	-10.0354
▁garcia	-10.0354
▁including	-10.0354
▁knife	-10.0354
▁knowledge	-10.0354
▁monsieur	-10.0354
▁nuclear	-10.0354
▁pelican	-10.0354
▁rouran	-10.0354
▁snake	-10.0354
▁jensen	-10.0354
▁miami	-10.0354
▁ferry	-10.0354
▁nazg	-10.0354
▁rodney	-10.0354
▁central	-10.0354
▁cigarette	-10.0354
▁expensive	-10.0354
▁distant	-10.0354
▁measure	-10.0354
▁online	-10.0354
▁bride	-10.0354
▁tribe	-10.0354
▁woke	-10.0354
▁abagnale	-10.0355
▁romantic	-10.0355
▁joking	-10.0355
▁orange	-10.0355
▁slide	-10.0355
▁horrible	-10.0355
▁stories	-10.0355
▁sept	-10.0355
▁wherever	-10.0355
▁supply	-10.0355
▁rhythm	-10.0355
▁loving	-10.0355
▁solution	-10.0355
▁dragonhead	-10.0355
▁yup	-10.0356
▁rare	-10.0356
▁onion	-10.0356
▁witch	-10.0356
▁wore	-10.0357
▁treatment	-10.0357
▁therell	-10.0357
▁task	-10.0359
▁par	-10.036
▁proof	-10.036
▁mere	-10.036
▁castle	-10.0361
▁web	-10.0361
▁flash	-10.0361
▁season	-10.0362
▁mint	-10.0365
▁jay	-10.0366
▁billion	-10.0371
▁frankie	-10.0374
▁host	-10.0375
▁toss	-10.0375
▁fay	-10.0377
▁cello	-10.038
▁endless	-10.0381
▁confirmed	-10.0383
▁hon	-10.0385
▁shin	-10.0389
▁owen	-10.0391
▁fred	-10.0397
▁considered	-10.0403
▁scotty	-10.0403
▁joint	-10.0412
▁ruined	-10.0416
▁guineas	-10.043
▁inn	-10.043
▁finest	-10.0431
▁raised	-10.0432
▁sports	-10.044
ier	-10.0441
▁millions	-10.0453
▁offered	-10.0465
▁younger	-10.0498
▁laws	-10.0498
▁rip	-10.0498
▁mob	-10.0515
▁tr	-10.0516
vi	-10.053
▁troubles	-10.0531
over	-10.0548
ring	-10.0553
▁burning	-10.0557
▁murdered	-10.0572
ng	-10.0584
▁all	-10.0584
▁leading	-10.0593
▁cal	-10.0606
▁touched	-10.0614
▁hits	-10.0623
▁pee	-10.0688
ated	-10.07
▁pin	-10.07
▁machines	-10.0715
▁shadows	-10.0725
▁prim	-10.0728
▁bo	-10.0742
▁leaders	-10.0744
ite	-10.0744
▁jo	-10.0771
▁remains	-10.0774
▁chain	-10.0777
▁clue	-10.0777
▁guardian	-10.0778
▁legend	-10.0779
▁flame	-10.078
▁character	-10.0785
▁odd	-10.0788
▁result	-10.0789
▁rage	-10.0791
▁sometime	-10.0793
▁motor	-10.0832
pers	-10.0875
▁dat	-10.0883
▁tear	-10.0885
▁piss	-10.089
om	-10.0903
▁reasons	-10.0921
▁pats	-10.0933
▁ra	-10.0941
▁spy	-10.0947
annoy	-10.0948
▁hung	-10.0951
ian	-10.0955
▁flow	-10.0961
▁exact	-10.0966
▁nasa	-10.0967
▁mental	-10.0969
▁auctione	-10.097
▁sara	-10.0976
▁freeze	-10.0976
▁campaign	-10.0979
▁cancer	-10.0979
▁canyon	-10.0979
▁cepheus	-10.0979
▁champagne	-10.0979
▁grandfather	-10.0979
▁isengard	-10.0979
▁novalee	-10.0979
▁physics	-10.0979
▁positive	-10.0979
▁servant	-10.0979
▁sophie	-10.0979
▁thlnk	-10.0979
▁traffic	-10.0979
▁violent	-10.0979
▁guarantee	-10.0979
▁debt	-10.0979
▁enormous	-10.0979
▁pulse	-10.0979
▁coffey	-10.0979
▁firing	-10.098
▁lamar	-10.098
▁humor	-10.098
▁authority	-10.098
▁stopping	-10.098
▁regard	-10.0981
▁committed	-10.0981
unar	-10.0981
▁southern	-10.0982
▁began	-10.0982
▁virtue	-10.0982
▁hansen	-10.0982
▁combat	-10.0983
▁dropped	-10.0983
▁homework	-10.0983
▁herr	-10.0983
▁section	-10.0985
▁core	-10.0986
▁flynn	-10.0986
▁rode	-10.0986
▁discovered	-10.0987
▁laid	-10.0988
▁angeles	-10.0988
▁nasty	-10.0989
▁sa	-10.0991
▁gray	-10.0992
▁patch	-10.0992
▁parties	-10.1005
▁gathered	-10.1008
▁wa	-10.1012
▁recall	-10.1021
▁hired	-10.1024
▁loaded	-10.104
▁mid	-10.1043
▁smaller	-10.106
▁stronger	-10.1068
▁precogs	-10.1073
▁buzzing	-10.1077
▁realized	-10.1079
▁rooms	-10.1087
lock	-10.1104
▁growing	-10.1105
▁martians	-10.111
ns	-10.1127
ard	-10.1139
▁gus	-10.114
▁steps	-10.115
▁kim	-10.1164
▁gunshots	-10.1186
▁returned	-10.1186
▁teaching	-10.121
▁waited	-10.1238
▁maya	-10.124
▁changes	-10.1261
▁sue	-10.1268
▁vil	-10.1275
▁sons	-10.1276
ron	-10.129
▁do	-10.1301
▁mp	-10.1323
▁snap	-10.1323
side	-10.1324
▁pr	-10.1342
▁movies	-10.135
▁wipe	-10.135
▁rat	-10.1352
gh	-10.1353
▁events	-10.136
▁arrive	-10.14
▁spark	-10.1411
▁claim	-10.1411
▁knee	-10.1417
▁print	-10.1427
▁exam	-10.1434
▁tire	-10.1434
and	-10.1449
ga	-10.1472
▁rate	-10.1483
▁wins	-10.1493
▁fart	-10.1493
▁stark	-10.1499
red	-10.1504
▁loser	-10.1527
▁ended	-10.1527
▁closet	-10.1528
▁bat	-10.159
ified	-10.16
young	-10.1615
▁rescue	-10.1621
▁provide	-10.1621
▁convince	-10.1621
ir	-10.1624
ax	-10.1625
▁sodom	-10.1627
▁seal	-10.1628
▁particular	-10.1632
▁pum	-10.1632
▁graduate	-10.1636
▁russia	-10.1638
▁chose	-10.1639
▁incident	-10.1645
▁cheap	-10.1645
▁attorney	-10.1646
▁ceiling	-10.1646
▁chamber	-10.1646
▁chanchad	-10.1646
▁depth	-10.1646
▁equipment	-10.1646
▁example	-10.1646
▁fairfax	-10.1646
▁glabrus	-10.1646
▁helicopter	-10.1646
▁jasper	-10.1646
▁jealous	-10.1646
▁junior	-10.1646
▁kragen	-10.1646
▁lainie	-10.1646
▁legacy	-10.1646
▁library	-10.1646
▁okkoto	-10.1646
▁parcher	-10.1646
▁privacy	-10.1646
▁pyramid	-10.1646
▁radar	-10.1646
▁remote	-10.1646
▁senior	-10.1646
▁violence	-10.1646
▁walmart	-10.1646
▁weyland	-10.1646
▁coast	-10.1646
▁maintain	-10.1646
▁offense	-10.1646
▁starving	-10.1646
▁conference	-10.1646
▁eleven	-10.1646
▁varinia	-10.1646
▁vision	-10.1646
▁sparta	-10.1646
▁stood	-10.1646
▁stroke	-10.1646
▁boston	-10.1646
▁scheme	-10.1646
▁generous	-10.1646
▁grew	-10.1646
▁commercial	-10.1646
▁purty	-10.1646
▁senate	-10.1646
▁bucket	-10.1646
▁sameer	-10.1646
▁howard	-10.1646
▁catherine	-10.1647
▁borrow	-10.1647
▁unique	-10.1647
▁chugga	-10.1647
▁bhai	-10.1647
▁prick	-10.1647
▁plot	-10.1647
▁actors	-10.1647
▁diana	-10.1647
▁brick	-10.1647
▁broadcast	-10.1647
▁disaster	-10.1647
▁plow	-10.1647
▁beings	-10.1647
▁cockroaches	-10.1647
▁soup	-10.1648
▁heil	-10.1648
▁alma	-10.1648
▁booth	-10.1649
▁quill	-10.1649
▁drag	-10.1649
▁footage	-10.165
▁package	-10.165
▁jammer	-10.165
▁bait	-10.165
▁maid	-10.1651
▁grateful	-10.1654
▁blt	-10.1655
▁associate	-10.1655
▁crane	-10.1655
▁lois	-10.1655
▁taxes	-10.1658
▁leap	-10.166
▁scary	-10.1663
▁surrounded	-10.1664
▁bb	-10.1664
▁scan	-10.1665
▁divas	-10.1666
▁resources	-10.1666
▁madame	-10.1669
▁naked	-10.1669
▁lang	-10.1671
▁directly	-10.1676
▁ending	-10.1682
▁rocko	-10.1683
▁cursed	-10.1697
▁of	-10.1701
▁gloves	-10.1706
▁nearly	-10.1707
▁archer	-10.1708
▁gates	-10.1708
▁belly	-10.1711
▁blessed	-10.1711
▁safer	-10.1712
▁rocks	-10.1712
▁fights	-10.1713
▁treated	-10.1727
ti	-10.1728
▁escaped	-10.173
▁makeup	-10.1733
▁foundation	-10.1734
▁defending	-10.1735
▁disgrace	-10.1738
▁fund	-10.174
▁sec	-10.1744
▁perfectly	-10.1745
lo	-10.1748
▁po	-10.1755
▁fe	-10.1757
▁ie	-10.176
▁stealing	-10.1763
▁traveling	-10.1774
▁map	-10.1787
▁parking	-10.1799
▁chips	-10.1822
▁kicking	-10.1839
▁ways	-10.184
▁knees	-10.1841
ag	-10.185
▁tears	-10.1856
▁reports	-10.1857
▁pushing	-10.1871
▁falls	-10.1884
▁ph	-10.1885
ize	-10.1889
ew	-10.1894
▁holds	-10.1908
▁bullets	-10.1922
▁bull	-10.1927
▁tent	-10.1941
▁counter	-10.1945
▁wat	-10.1949
▁carly	-10.2022
▁touching	-10.2025
▁x	-10.2027
▁sp	-10.2045
▁buildings	-10.2045
▁nights	-10.2053
▁nations	-10.206
▁leads	-10.2077
▁pe	-10.208
▁breaks	-10.2101
▁shift	-10.2109
▁er	-10.2112
ington	-10.2112
ze	-10.2118
▁bee	-10.2129
▁cave	-10.213
▁wink	-10.213
ux	-10.2134
▁magazine	-10.2152
▁wizard	-10.2152
▁spear	-10.2152
▁holiday	-10.2157
lie	-10.216
▁duck	-10.2161
▁amount	-10.2161
▁breast	-10.2163
▁pace	-10.2164
▁photo	-10.2164
▁effort	-10.2166
▁toe	-10.2171
▁wrap	-10.2173
▁parent	-10.2175
ta	-10.2185
ru	-10.2191
▁idiots	-10.2193
▁chop	-10.2202
ction	-10.2205
hi	-10.2222
den	-10.2232
▁moves	-10.2234
▁arts	-10.2245
ette	-10.2249
▁trucks	-10.2303
town	-10.2321
▁confirm	-10.2323
▁mix	-10.2327
wise	-10.2327
▁photograph	-10.2328
▁retire	-10.2335
▁rent	-10.2337
▁comm	-10.2344
▁instant	-10.2344
▁natural	-10.2346
▁gifts	-10.2347
▁actual	-10.2348
▁invite	-10.2352
▁wrestle	-10.2353
▁whip	-10.2358
▁europe	-10.2359
▁ka	-10.2359
▁slap	-10.236
▁bachelor	-10.236
▁article	-10.236
▁atlanta	-10.236
▁atlantic	-10.236
▁australia	-10.236
▁brooklyn	-10.236
▁circumstances	-10.236
▁clamoring	-10.236
▁darby	-10.236
▁empire	-10.236
▁eteon	-10.236
▁firm	-10.236
▁florida	-10.236
▁hartmann	-10.236
▁inspire	-10.236
▁lafayette	-10.236
▁louisiana	-10.236
▁manhattan	-10.236
▁michelle	-10.236
▁optimus	-10.236
▁phase	-10.236
▁pizza	-10.236
▁recommend	-10.236
▁relations	-10.236
▁response	-10.236
▁responsibility	-10.236
▁silver	-10.236
▁succeed	-10.236
▁superior	-10.236
▁trophy	-10.236
▁twelve	-10.236
▁ventura	-10.236
▁voyles	-10.236
▁illegal	-10.236
▁africa	-10.236
▁bodies	-10.236
▁cletus	-10.236
▁wangdu	-10.236
▁scholarship	-10.236
▁pym	-10.236
▁wisdom	-10.236
▁forney	-10.236
▁financial	-10.236
▁burden	-10.236
▁overcome	-10.236
▁curious	-10.236
▁false	-10.236
▁japan	-10.236
▁punishment	-10.236
▁soap	-10.236
▁dutch	-10.2361
▁steel	-10.2361
▁garage	-10.2361
▁unknown	-10.2361
▁pork	-10.2361
▁crawl	-10.2361
▁changing	-10.2361
▁decent	-10.2361
▁princeton	-10.2361
▁warrant	-10.2361
▁ingram	-10.2361
▁goose	-10.2361
▁callahan	-10.2361
▁counsel	-10.2361
▁narrator	-10.2362
▁aggressive	-10.2362
▁remarkable	-10.2362
▁benson	-10.2362
▁film	-10.2362
▁rom	-10.2362
▁passport	-10.2362
▁cuff	-10.2362
▁coordinates	-10.2363
▁stepped	-10.2364
▁determined	-10.2365
▁macho	-10.2365
▁trapped	-10.2365
▁selfish	-10.2365
▁china	-10.2366
▁drax	-10.2366
▁hippy	-10.2367
▁jimmy	-10.2367
▁memo	-10.2368
▁commissioner	-10.2368
▁disgusting	-10.2369
▁mood	-10.2369
▁hail	-10.2369
▁barking	-10.2372
▁oughta	-10.2372
▁sonny	-10.2373
▁connected	-10.2375
▁chip	-10.2379
▁officially	-10.2381
▁drawn	-10.2382
▁wolves	-10.2382
art	-10.2382
▁rosen	-10.2383
▁robot	-10.2383
▁math	-10.2384
▁rev	-10.2385
▁lex	-10.2385
▁provided	-10.2386
▁carlin	-10.2394
▁advanced	-10.2395
▁shy	-10.2395
▁boobs	-10.2396
▁knots	-10.2397
▁eaten	-10.2404
▁creamy	-10.2405
▁ne	-10.2405
▁zed	-10.2414
▁washed	-10.242
▁pirates	-10.2425
▁legions	-10.2426
▁pretending	-10.2449
use	-10.2453
▁engineering	-10.2454
▁fort	-10.2467
bo	-10.247
▁ava	-10.2479
▁mayor	-10.248
▁freaking	-10.2482
▁borders	-10.2483
▁easter	-10.2492
▁pillars	-10.2497
tion	-10.2498
▁dings	-10.2522
▁kicked	-10.2523
▁z	-10.2526
▁selling	-10.2527
ied	-10.2537
▁den	-10.2543
nat	-10.2547
sp	-10.2558
▁reaching	-10.2572
▁rats	-10.2572
▁adams	-10.258
▁odds	-10.2584
▁degrees	-10.2599
▁it	-10.2609
ions	-10.2617
▁everyones	-10.2618
▁shots	-10.2618
▁wi	-10.2626
▁she	-10.2631
▁bust	-10.2641
▁cleaning	-10.266
▁dl	-10.266
▁returning	-10.2665
▁friendly	-10.2667
fl	-10.267
ke	-10.2679
▁fed	-10.2683
▁fields	-10.2692
ph	-10.2703
nic	-10.2705
oc	-10.2722
▁pure	-10.2727
▁mon	-10.2757
two	-10.2759
▁scar	-10.2763
mate	-10.2776
ug	-10.2804
▁fl	-10.2812
bs	-10.2822
▁hip	-10.2858
▁ant	-10.2859
▁jan	-10.2877
▁minor	-10.2894
▁page	-10.291
▁inter	-10.2914
▁ye	-10.2914
▁ocean	-10.2926
▁egg	-10.2931
▁beep	-10.2934
▁sucks	-10.294
▁ro	-10.2942
▁chuckle	-10.2946
▁bills	-10.2966
old	-10.297
ac	-10.297
▁transfer	-10.2976
▁gather	-10.2986
▁woo	-10.2996
▁promises	-10.2996
▁media	-10.3001
ating	-10.3004
▁phones	-10.3007
▁rob	-10.3017
▁tale	-10.3026
▁hurts	-10.3037
▁harve	-10.304
▁abandon	-10.3041
val	-10.3049
end	-10.3073
▁prepar	-10.3074
▁volunteer	-10.3088
▁separate	-10.3091
▁breach	-10.3092
▁success	-10.3103
▁increase	-10.3103
▁wlll	-10.3111
▁assure	-10.3111
▁political	-10.3114
▁bump	-10.3115
▁silent	-10.3115
▁essential	-10.3115
▁branch	-10.3122
▁weigh	-10.3122
▁chuck	-10.3125
▁progress	-10.3126
▁opera	-10.3127
▁brains	-10.3128
▁favour	-10.3129
▁almighty	-10.3129
▁ambulance	-10.3129
▁ashamed	-10.3129
▁atmosphere	-10.3129
▁behalf	-10.3129
▁belief	-10.3129
▁beneath	-10.3129
▁coincidence	-10.3129
▁connors	-10.3129
▁darwin	-10.3129
▁dolores	-10.3129
▁dwarves	-10.3129
▁envelope	-10.3129
▁exciting	-10.3129
▁gupta	-10.3129
▁hehhehheh	-10.3129
▁honghui	-10.3129
▁invisible	-10.3129
▁mcbain	-10.3129
▁narracott	-10.3129
▁obliged	-10.3129
▁ordinary	-10.3129
▁oxygen	-10.3129
▁peanut	-10.3129
▁procedure	-10.3129
▁radiation	-10.3129
▁restaurant	-10.3129
▁trevor	-10.3129
▁wicked	-10.3129
▁cmon	-10.3129
▁edmunds	-10.3129
▁flavor	-10.3129
▁motive	-10.3129
▁smiling	-10.3129
▁tatsi	-10.3129
▁crisis	-10.3129
▁exercise	-10.3129
▁candy	-10.3129
▁interrupt	-10.3129
▁august	-10.3129
▁neighborhood	-10.3129
▁trask	-10.3129
▁withdraw	-10.3129
▁surveillance	-10.3129
▁value	-10.3129
▁marino	-10.3129
▁shopping	-10.3129
▁behavior	-10.3129
▁martha	-10.313
▁chapter	-10.313
▁huit	-10.313
▁protest	-10.313
▁navy	-10.313
▁balance	-10.313
▁profit	-10.313
▁ugh	-10.313
▁overboard	-10.313
▁flew	-10.313
▁thieves	-10.313
▁denny	-10.313
▁sosa	-10.313
▁begun	-10.3131
▁conquer	-10.3131
▁heck	-10.3131
▁hlm	-10.3131
▁solid	-10.3131
▁thick	-10.3131
▁charity	-10.3131
▁mysterious	-10.3131
▁fitting	-10.3132
▁laura	-10.3132
▁impression	-10.3132
▁samoan	-10.3132
▁electrical	-10.3132
▁farther	-10.3133
▁sammy	-10.3133
▁squeeze	-10.3133
▁possession	-10.3133
▁practically	-10.3133
▁logan	-10.3133
▁touchdown	-10.3133
▁fence	-10.3134
▁injured	-10.3134
▁ivan	-10.3134
▁helmet	-10.3134
▁relative	-10.3135
▁explorer	-10.3135
▁exposed	-10.3136
▁resist	-10.3136
tch	-10.3137
min	-10.3137
▁highway	-10.3138
▁ink	-10.3138
pping	-10.314
▁restore	-10.3141
▁roaring	-10.3142
▁squeaking	-10.3142
▁mach	-10.3142
▁exclaiming	-10.3142
▁robert	-10.3144
▁moral	-10.3144
▁ticking	-10.3146
▁ability	-10.3147
▁forty	-10.3149
▁sweetest	-10.3151
▁invented	-10.3151
▁sharply	-10.3151
▁mille	-10.3151
▁divorced	-10.3153
▁kate	-10.3153
▁retired	-10.3157
▁engaged	-10.3163
▁healthy	-10.3164
▁abandoned	-10.3165
▁backwards	-10.3169
▁arab	-10.317
▁charming	-10.3171
▁unable	-10.3177
▁survivors	-10.3184
▁terms	-10.3184
ster	-10.3185
▁thankyou	-10.3199
▁teams	-10.3202
▁focused	-10.3205
▁carefully	-10.3214
▁jam	-10.3216
▁wasted	-10.3217
▁realm	-10.3217
▁or	-10.3227
▁ab	-10.3229
▁wishes	-10.3229
▁airlines	-10.3231
▁crossing	-10.3237
▁melt	-10.3238
▁fore	-10.3238
▁route	-10.3243
▁acts	-10.3245
▁rec	-10.3251
▁lands	-10.3274
▁fixed	-10.3284
▁drawer	-10.3288
▁thy	-10.3297
▁boarding	-10.3303
▁bl	-10.3329
▁knocked	-10.3338
ace	-10.3343
fusion	-10.3343
▁gim	-10.3362
▁tin	-10.3363
▁remembered	-10.3366
oo	-10.3376
▁officers	-10.3378
gie	-10.3382
▁hoo	-10.3398
▁fools	-10.3416
▁victims	-10.3419
▁appears	-10.3422
istic	-10.3424
ang	-10.3446
▁lover	-10.3457
▁planes	-10.346
▁str	-10.3465
▁tunnels	-10.3467
▁badly	-10.3478
▁grades	-10.35
▁buying	-10.3509
by	-10.3511
▁suits	-10.3519
▁millers	-10.3548
od	-10.3555
her	-10.3564
▁cha	-10.3576
▁judges	-10.3578
▁answering	-10.3579
▁communicate	-10.3579
▁decisions	-10.361
▁caused	-10.3612
ire	-10.3613
▁for	-10.3637
▁dealing	-10.3654
▁cheat	-10.3667
▁bang	-10.3698
▁cock	-10.3711
▁to	-10.3715
▁lo	-10.3724
▁pound	-10.3741
ath	-10.3749
po	-10.3756
▁bike	-10.3757
▁expert	-10.3762
▁channel	-10.3762
▁demand	-10.3762
▁valuable	-10.3764
▁chances	-10.3765
▁astronaut	-10.3769
▁client	-10.377
▁missile	-10.377
▁option	-10.377
▁toot	-10.3772
▁thud	-10.3773
▁sport	-10.3775
▁coin	-10.3776
▁container	-10.3781
▁mile	-10.379
▁hunter	-10.3796
▁boot	-10.3796
sa	-10.3799
▁stranger	-10.3805
our	-10.3806
▁ge	-10.3813
▁visual	-10.3862
▁poet	-10.3874
▁twist	-10.3882
ox	-10.3891
▁scatter	-10.3913
▁gain	-10.3915
▁text	-10.3919
▁charm	-10.392
▁talent	-10.3923
▁bells	-10.3923
▁inform	-10.3925
▁link	-10.3926
▁drill	-10.3926
▁wound	-10.3927
▁windows	-10.393
ey	-10.3931
ya	-10.3935
▁se	-10.3939
roll	-10.3943
▁guilt	-10.3946
▁spit	-10.3955
▁sandwich	-10.3956
through	-10.3957
▁leak	-10.3957
cy	-10.396
▁strict	-10.3963
▁ambassador	-10.3963
▁antoninus	-10.3963
▁arguing	-10.3963
▁arthur	-10.3963
▁audrey	-10.3963
▁beloved	-10.3963
▁benthic	-10.3963
▁carlisle	-10.3963
▁clattering	-10.3963
▁display	-10.3963
▁einhorn	-10.3963
▁elevator	-10.3963
▁encrypt	-10.3963
▁facility	-10.3963
▁gregoire	-10.3963
▁hartley	-10.3963
▁hector	-10.3963
▁hercules	-10.3963
▁ironworks	-10.3963
▁isildur	-10.3963
▁jocelyn	-10.3963
▁juilliard	-10.3963
▁levinson	-10.3963
▁lichtenstein	-10.3963
▁marilyn	-10.3963
▁prevent	-10.3963
▁rebuild	-10.3963
▁saturn	-10.3963
▁society	-10.3963
▁stadium	-10.3963
▁steam	-10.3963
▁stream	-10.3963
▁thursday	-10.3963
▁tremendous	-10.3963
▁gracchus	-10.3963
▁revving	-10.3963
▁everdeen	-10.3963
▁mostly	-10.3963
▁pascal	-10.3963
▁begged	-10.3963
▁rizu	-10.3963
▁tumor	-10.3963
▁attitude	-10.3963
▁doris	-10.3963
▁faramir	-10.3963
▁herald	-10.3963
▁neuf	-10.3963
▁sequence	-10.3963
▁dropping	-10.3963
▁repair	-10.3963
▁salad	-10.3963
▁insurance	-10.3963
▁bravo	-10.3963
▁wagon	-10.3963
▁narf	-10.3963
▁blah	-10.3963
▁television	-10.3963
▁await	-10.3963
▁league	-10.3963
martial	-10.3963
▁evolutionary	-10.3963
▁peacekeepers	-10.3963
▁sobs	-10.3963
▁fetch	-10.3963
▁rewind	-10.3963
▁existence	-10.3963
▁outfit	-10.3963
▁describe	-10.3963
▁tlg	-10.3963
▁update	-10.3963
▁penalty	-10.3963
▁urgent	-10.3964
▁massive	-10.3964
▁dummy	-10.3964
▁pepper	-10.3964
▁define	-10.3964
▁lima	-10.3964
▁wilhemina	-10.3964
▁daisy	-10.3964
▁juice	-10.3964
▁structure	-10.3964
▁surgery	-10.3964
▁zakir	-10.3965
▁theme	-10.3965
▁announcement	-10.3965
▁dignity	-10.3965
▁championship	-10.3965
▁thou	-10.3965
▁foolish	-10.3966
▁dig	-10.3966
▁interpreter	-10.3967
▁arrangement	-10.3967
▁weakness	-10.3967
▁frightened	-10.3967
▁psychological	-10.3967
▁lonely	-10.3968
▁filthy	-10.3968
▁collection	-10.3968
▁moder	-10.397
▁classic	-10.3971
▁wallet	-10.3971
▁uhuh	-10.3972
▁recently	-10.3972
▁blonde	-10.3972
▁denied	-10.3972
▁multiple	-10.3972
▁bugger	-10.3972
▁rice	-10.3973
▁review	-10.3973
▁coma	-10.3974
▁hysterical	-10.3975
▁planned	-10.3976
▁humanity	-10.3977
aft	-10.3979
▁beaten	-10.3981
▁honking	-10.3981
▁witnesses	-10.3982
▁wheeler	-10.3986
▁quest	-10.3986
▁hiller	-10.3986
▁compete	-10.3987
▁impressed	-10.3987
▁conners	-10.3988
▁surrounding	-10.3993
▁arranged	-10.3993
▁useful	-10.3994
▁wounded	-10.3999
▁tits	-10.3999
like	-10.4002
▁raya	-10.4002
▁vice	-10.4003
▁lifetime	-10.4006
▁barks	-10.4007
▁holo	-10.4008
▁ahh	-10.4011
▁howdy	-10.4014
▁released	-10.4017
▁sheets	-10.4023
ign	-10.4027
ical	-10.4033
rate	-10.4036
▁entered	-10.4037
▁products	-10.4039
▁painted	-10.404
▁rope	-10.4044
▁cookies	-10.4046
▁crashing	-10.4049
▁depends	-10.4057
▁entirely	-10.4058
▁entering	-10.4058
▁reg	-10.4061
▁parts	-10.4074
▁grass	-10.4075
▁forced	-10.4083
▁imagined	-10.4087
▁riders	-10.4097
▁yay	-10.4102
▁belonged	-10.4104
▁boars	-10.4108
▁accepted	-10.4115
▁purchase	-10.4124
▁dolphins	-10.4125
▁cart	-10.4129
of	-10.4133
▁ap	-10.415
lson	-10.415
▁ding	-10.4156
▁chopp	-10.4156
▁options	-10.4159
▁hunters	-10.4163
rid	-10.4164
ara	-10.4168
ator	-10.4173
▁va	-10.4176
ou	-10.4191
▁acting	-10.4208
▁shave	-10.4229
▁learning	-10.425
led	-10.4252
▁nat	-10.4258
▁gra	-10.4293
▁cow	-10.4294
ov	-10.4302
▁husbands	-10.4304
▁flush	-10.431
▁officials	-10.4314
▁sounded	-10.4316
ig	-10.4346
rt	-10.4369
▁dreaming	-10.4399
pat	-10.4414
ide	-10.4417
ardi	-10.4419
ex	-10.4451
▁bon	-10.4452
▁royal	-10.447
sta	-10.447
▁period	-10.4488
▁mar	-10.4498
key	-10.4524
▁nap	-10.453
▁merc	-10.4546
▁cam	-10.4556
the	-10.4576
▁assholes	-10.4609
▁not	-10.4614
▁shout	-10.4624
ten	-10.4634
we	-10.4639
▁grunt	-10.4641
▁tables	-10.4644
▁ghosts	-10.4644
▁click	-10.4654
▁civilian	-10.4663
▁effect	-10.4667
▁creep	-10.4668
▁orphan	-10.467
▁traitor	-10.4671
▁tug	-10.4673
▁score	-10.4673
▁indian	-10.4673
▁arrow	-10.4678
▁martian	-10.4681
▁farmer	-10.4689
▁pill	-10.469
▁folk	-10.4695
▁rank	-10.4705
▁begins	-10.4709
lc	-10.4717
▁prisoner	-10.4736
uk	-10.477
▁develop	-10.4781
table	-10.4782
▁waters	-10.4782
▁shove	-10.4794
izing	-10.4802
▁trail	-10.482
▁swallow	-10.4822
▁wast	-10.4823
▁burst	-10.4827
▁arch	-10.4828
ib	-10.483
house	-10.4834
▁betray	-10.4838
▁mutt	-10.4845
▁concentrate	-10.4846
▁arrange	-10.4846
▁divorce	-10.4848
power	-10.485
▁assum	-10.4851
▁colon	-10.4853
▁positions	-10.4856
▁constant	-10.4857
▁immediate	-10.4858
▁absolute	-10.4858
▁terribl	-10.4858
▁elliot	-10.4865
que	-10.4865
ware	-10.4869
▁coco	-10.487
die	-10.487
▁cruel	-10.487
▁sauce	-10.487
▁terror	-10.487
▁beautif	-10.4871
▁awkward	-10.4872
▁potential	-10.4872
▁supreme	-10.4872
▁ultimate	-10.4872
▁activity	-10.4872
▁admiral	-10.4872
▁application	-10.4872
▁avenue	-10.4872
▁barbecue	-10.4872
▁berkeley	-10.4872
▁boromir	-10.4872
▁brigman	-10.4872
▁cheyenne	-10.4872
▁cilician	-10.4872
▁cleveland	-10.4872
▁conscience	-10.4872
▁distress	-10.4872
▁divide	-10.4872
▁entrance	-10.4872
▁extend	-10.4872
▁fabric	-10.4872
▁fascinating	-10.4872
▁fifteen	-10.4872
▁fortress	-10.4872
▁google	-10.4872
▁gordon	-10.4872
▁joshua	-10.4872
▁judy	-10.4872
▁munich	-10.4872
▁newspaper	-10.4872
▁opposite	-10.4872
▁pattern	-10.4872
▁pierce	-10.4872
▁pittsburgh	-10.4872
▁reunion	-10.4872
▁rochelle	-10.4872
▁schmidt	-10.4872
▁schuyler	-10.4872
▁soccer	-10.4872
▁sordino	-10.4872
▁survival	-10.4872
▁swedish	-10.4872
▁wadia	-10.4872
▁zephyr	-10.4872
▁doyle	-10.4872
▁equation	-10.4872
▁thrill	-10.4872
▁deaf	-10.4872
▁fieri	-10.4872
▁bosco	-10.4872
▁families	-10.4872
▁gracious	-10.4872
▁titties	-10.4872
▁cadet	-10.4872
▁havens	-10.4872
▁throne	-10.4872
▁armstrong	-10.4872
▁bullseye	-10.4872
▁cassie	-10.4872
▁forbidden	-10.4872
▁ballad	-10.4872
▁stabbed	-10.4872
▁whimpers	-10.4872
▁choking	-10.4872
▁convention	-10.4872
▁carried	-10.4872
▁begging	-10.4872
▁waitress	-10.4872
▁civilization	-10.4872
▁downtown	-10.4872
▁rude	-10.4872
▁allah	-10.4872
▁flashlight	-10.4872
▁clack	-10.4872
▁misery	-10.4872
▁submit	-10.4872
▁philip	-10.4872
▁gimli	-10.4872
▁upside	-10.4872
▁graduation	-10.4872
▁hissing	-10.4872
▁foul	-10.4872
▁bronze	-10.4872
▁element	-10.4872
▁roland	-10.4872
▁foster	-10.4872
▁centre	-10.4873
▁cuba	-10.4873
▁massage	-10.4873
▁boring	-10.4873
▁clapping	-10.4873
▁morse	-10.4873
▁electricity	-10.4873
▁eddie	-10.4873
▁bolt	-10.4873
▁luis	-10.4873
▁atf	-10.4873
▁identity	-10.4873
▁couch	-10.4873
▁karen	-10.4873
▁valor	-10.4873
▁hostage	-10.4873
▁treasure	-10.4874
▁concert	-10.4874
ndez	-10.4874
▁slice	-10.4874
▁choke	-10.4874
▁pink	-10.4874
▁tlme	-10.4874
▁coke	-10.4874
▁neat	-10.4874
▁gunther	-10.4874
▁pathetic	-10.4874
▁moria	-10.4874
▁cycle	-10.4874
▁election	-10.4874
▁spotted	-10.4874
▁frame	-10.4874
▁hatred	-10.4874
▁howl	-10.4875
▁reactor	-10.4875
▁mick	-10.4875
▁beef	-10.4875
▁flies	-10.4875
▁plato	-10.4875
▁rally	-10.4875
▁potatoes	-10.4875
ative	-10.4875
▁ceremony	-10.4876
lar	-10.4876
▁century	-10.4877
▁marian	-10.4877
▁torn	-10.4877
▁pupp	-10.4878
▁abel	-10.4878
▁cases	-10.4878
▁humming	-10.4878
vous	-10.488
▁groom	-10.488
▁badge	-10.488
▁unlock	-10.488
▁tapped	-10.488
▁penis	-10.4881
▁geek	-10.4881
▁aye	-10.4882
▁comedy	-10.4882
▁politics	-10.4882
▁thirsty	-10.4883
▁armies	-10.4884
▁version	-10.4884
▁cue	-10.4885
▁solo	-10.4886
▁pit	-10.4886
▁hut	-10.4886
▁squealing	-10.4887
▁fleet	-10.4888
▁factor	-10.4889
▁hitting	-10.4889
▁wailing	-10.489
▁sacred	-10.4891
▁tucker	-10.4892
▁rub	-10.4892
▁captured	-10.4894
▁civil	-10.4894
▁sang	-10.4895
▁rear	-10.4896
▁mansion	-10.4896
▁movement	-10.4904
ville	-10.4905
▁mud	-10.4906
▁dearest	-10.4906
▁developed	-10.4908
▁kara	-10.4909
▁lawyers	-10.4909
▁bald	-10.4911
▁runway	-10.4912
long	-10.4912
▁instructions	-10.4918
▁classes	-10.4919
▁probe	-10.4924
▁gathering	-10.4927
nce	-10.4931
▁sat	-10.4936
▁responding	-10.4944
▁disappeared	-10.4949
▁fades	-10.4955
ver	-10.4956
▁mentioned	-10.4956
▁ar	-10.4958
▁herb	-10.4965
▁added	-10.4968
▁docking	-10.4976
room	-10.4982
▁passengers	-10.5012
▁cooking	-10.5014
tha	-10.5022
ium	-10.5028
▁drawing	-10.5035
▁mor	-10.5045
light	-10.5056
▁clients	-10.5088
ok	-10.5093
▁seated	-10.5094
▁tri	-10.5098
▁carrying	-10.5107
▁whitey	-10.5108
▁ach	-10.5116
▁fully	-10.5122
▁honored	-10.5133
▁imma	-10.5133
ld	-10.5136
▁jumping	-10.5139
▁writer	-10.5153
ual	-10.5157
▁bug	-10.5161
tic	-10.518
▁sc	-10.518
▁issues	-10.5182
ix	-10.5186
▁quarters	-10.5201
▁pleased	-10.5218
▁guide	-10.5219
▁burns	-10.5234
ell	-10.5244
▁dreamed	-10.5248
▁ld	-10.5255
▁del	-10.5268
▁gu	-10.5296
▁pos	-10.5298
▁lu	-10.5313
▁sams	-10.5319
▁files	-10.5336
▁sw	-10.534
▁reminds	-10.5355
▁blocks	-10.5359
▁suspects	-10.537
▁spa	-10.5392
▁somethings	-10.5412
▁mighty	-10.5428
ks	-10.5442
▁bastards	-10.5449
▁nu	-10.5454
mm	-10.5507
▁marc	-10.5513
▁chit	-10.5516
▁spidermans	-10.5565
vin	-10.5572
action	-10.5573
▁cri	-10.5585
▁hurting	-10.5587
▁greater	-10.5594
▁gum	-10.5621
▁insist	-10.5627
ik	-10.5635
▁aliens	-10.5642
▁object	-10.5655
▁kl	-10.5656
▁dragons	-10.5661
▁ankle	-10.5663
ized	-10.5668
▁communication	-10.5668
▁grows	-10.5673
▁receipt	-10.5673
▁mutant	-10.5677
▁clock	-10.5677
▁citizen	-10.5677
▁dolphin	-10.5679
▁skill	-10.5679
▁damned	-10.5681
▁anti	-10.5682
▁pillar	-10.5682
▁autobot	-10.5682
▁beside	-10.5684
▁rebel	-10.5685
▁generation	-10.5691
ama	-10.5718
lin	-10.5726
ral	-10.5752
day	-10.5759
ay	-10.5769
▁forg	-10.5776
down	-10.5776
▁shoe	-10.5777
▁partners	-10.5778
▁drown	-10.5781
▁insult	-10.5786
lor	-10.5796
va	-10.581
▁recover	-10.5818
▁publish	-10.582
what	-10.5826
port	-10.583
▁affect	-10.583
▁stretch	-10.5833
▁bail	-10.5835
▁rio	-10.5837
weight	-10.5837
life	-10.5837
all	-10.5844
▁announce	-10.5844
▁rabbi	-10.5845
▁q	-10.5847
▁capture	-10.5848
▁ja	-10.5856
▁tanks	-10.5856
boy	-10.5857
▁faint	-10.5857
▁unlike	-10.5864
spect	-10.5866
▁handles	-10.5866
▁thrust	-10.5868
▁confess	-10.5869
▁stubborn	-10.587
▁whoohoo	-10.587
▁sixteen	-10.587
▁trace	-10.587
▁basic	-10.5871
▁lamb	-10.5872
▁academy	-10.5872
▁arwen	-10.5872
▁average	-10.5872
▁beethoven	-10.5872
▁bicycle	-10.5872
▁brandnew	-10.5872
▁britain	-10.5872
▁britani	-10.5872
▁buffalo	-10.5872
▁burgess	-10.5872
▁capital	-10.5872
▁charging	-10.5872
▁comanche	-10.5872
▁cybertron	-10.5872
▁deploy	-10.5872
▁diamond	-10.5872
▁easily	-10.5872
▁emilie	-10.5872
▁endurance	-10.5872
▁episode	-10.5872
▁galaxy	-10.5872
▁gambling	-10.5872
▁gargantua	-10.5872
▁hurricane	-10.5872
▁identify	-10.5872
▁influence	-10.5872
▁isolate	-10.5872
▁legolas	-10.5872
▁lorraine	-10.5872
▁maximum	-10.5872
▁nahoko	-10.5872
▁napoleon	-10.5872
▁nebula	-10.5872
▁opponent	-10.5872
▁orgocorp	-10.5872
▁ounce	-10.5872
▁permanent	-10.5872
▁policy	-10.5872
▁possibility	-10.5872
▁protocol	-10.5872
▁purple	-10.5872
▁rastogi	-10.5872
▁samurai	-10.5872
▁saturday	-10.5872
▁shrink	-10.5872
▁spencer	-10.5872
▁teefs	-10.5872
▁tirith	-10.5872
▁volume	-10.5872
▁wheirdicht	-10.5872
▁zodiac	-10.5872
egrin	-10.5872
▁anytime	-10.5872
▁approval	-10.5872
▁ease	-10.5872
▁elephant	-10.5872
▁fourteen	-10.5872
▁ghul	-10.5872
▁imagination	-10.5872
▁oscar	-10.5872
▁thatcher	-10.5872
▁collines	-10.5872
▁dragged	-10.5872
▁gilbert	-10.5872
▁intercept	-10.5872
▁stomach	-10.5872
▁muttering	-10.5872
▁inspector	-10.5872
▁clothing	-10.5872
▁antonio	-10.5872
▁minuti	-10.5872
▁neuro	-10.5872
▁scrunt	-10.5872
▁tattoo	-10.5872
▁onboard	-10.5872
▁ignition	-10.5872
▁declare	-10.5872
▁lonnie	-10.5872
▁wormhole	-10.5872
▁lizard	-10.5872
▁buried	-10.5872
▁facing	-10.5872
▁hostile	-10.5872
▁series	-10.5872
▁joust	-10.5872
▁sprock	-10.5872
▁slick	-10.5872
▁lipstick	-10.5872
▁celebrating	-10.5872
▁temple	-10.5872
▁childhood	-10.5872
▁asleep	-10.5872
▁visa	-10.5872
▁resistance	-10.5872
▁ezra	-10.5872
▁qian	-10.5872
▁express	-10.5873
▁lounge	-10.5873
▁arena	-10.5873
▁mantis	-10.5873
▁geez	-10.5873
▁descent	-10.5873
▁budget	-10.5873
▁establish	-10.5873
▁ripped	-10.5873
▁palace	-10.5873
▁spacecraft	-10.5873
▁terrified	-10.5873
▁jewel	-10.5873
▁curve	-10.5873
▁assignment	-10.5873
▁walkabout	-10.5873
▁fanny	-10.5873
▁fellowship	-10.5874
▁dora	-10.5874
▁nickname	-10.5874
▁popular	-10.5874
▁comment	-10.5875
▁fitz	-10.5875
▁pitch	-10.5875
▁debate	-10.5875
▁classified	-10.5875
▁romance	-10.5875
▁thrusters	-10.5875
▁diner	-10.5875
▁comic	-10.5875
▁guild	-10.5875
▁mason	-10.5876
▁hunterson	-10.5876
▁july	-10.5877
▁whale	-10.5877
▁significant	-10.5877
▁franklin	-10.5877
▁grandmother	-10.5878
▁dice	-10.5878
▁smells	-10.5878
▁babies	-10.5879
▁figures	-10.5879
▁tung	-10.5879
▁draft	-10.5879
▁wis	-10.588
▁appropriate	-10.5881
ence	-10.5882
▁bedtime	-10.5882
▁bold	-10.5883
▁cole	-10.5883
▁cries	-10.5883
▁operational	-10.5884
▁apply	-10.5884
▁campus	-10.5884
▁cain	-10.5884
▁distracted	-10.5885
▁wealthy	-10.5886
▁bored	-10.5887
▁ras	-10.5887
▁ashes	-10.5888
▁eva	-10.5889
▁tempt	-10.5889
▁linger	-10.589
▁transform	-10.589
▁silencer	-10.589
▁crown	-10.5892
▁freakin	-10.5893
▁chanting	-10.5894
▁batter	-10.5895
▁narrow	-10.5896
▁falcone	-10.5896
▁straighten	-10.5897
▁stable	-10.5897
▁policeman	-10.5898
▁haha	-10.5898
▁pacific	-10.5898
▁murmuring	-10.5898
▁switches	-10.59
▁greetings	-10.5903
▁slams	-10.5903
▁sniffs	-10.5903
▁drama	-10.5904
▁threatened	-10.5904
▁canceled	-10.5904
▁wit	-10.5907
▁dial	-10.5907
▁insisted	-10.5908
▁boxes	-10.591
▁delivery	-10.591
uff	-10.5911
▁proven	-10.5913
▁magnet	-10.5913
▁pouring	-10.5913
▁drum	-10.5914
▁useless	-10.5915
▁kindness	-10.5917
▁lara	-10.592
▁removed	-10.5922
▁rap	-10.5923
▁giggles	-10.5924
▁busted	-10.5924
▁kisses	-10.5927
▁pounding	-10.5928
▁sealed	-10.5929
▁butcher	-10.5929
▁mistaken	-10.593
▁nervously	-10.5931
▁player	-10.5936
▁cane	-10.5937
▁warned	-10.5938
▁bandit	-10.5939
▁vi	-10.5941
▁francs	-10.5944
▁brakes	-10.5945
▁thrown	-10.5946
▁shocked	-10.5946
▁shining	-10.595
▁emotional	-10.595
▁solved	-10.5951
itates	-10.5953
▁casting	-10.5957
▁corn	-10.5961
▁driven	-10.5964
▁residents	-10.5965
▁drinks	-10.5967
▁burger	-10.5976
▁designer	-10.5978
▁wally	-10.5985
▁crossed	-10.5985
▁indicate	-10.5986
▁jones	-10.5987
▁asses	-10.5989
▁harvest	-10.599
▁bandy	-10.5991
▁singer	-10.5995
▁accounting	-10.6002
▁patriots	-10.6007
▁orderly	-10.6011
▁tracked	-10.6013
▁mass	-10.6029
▁mc	-10.6033
▁bearing	-10.6038
▁messed	-10.6047
▁interfere	-10.6051
▁painful	-10.6071
▁packed	-10.6085
▁and	-10.609
cess	-10.6094
▁timing	-10.6095
▁boots	-10.6104
▁congratulate	-10.6105
▁astronauts	-10.6112
▁safely	-10.6115
▁offering	-10.6124
▁messages	-10.6131
ible	-10.6139
▁comp	-10.6148
▁efforts	-10.6154
▁kissed	-10.6159
▁talks	-10.6166
rine	-10.6187
▁characters	-10.6196
▁shown	-10.6208
▁cleaned	-10.6211
eth	-10.6225
▁americas	-10.6233
▁kissing	-10.6239
▁images	-10.624
▁covered	-10.6241
rie	-10.6243
▁author	-10.6255
▁angels	-10.6259
▁wheels	-10.628
▁bra	-10.6281
lly	-10.6298
▁joining	-10.6319
ap	-10.6323
▁menu	-10.6338
ock	-10.6342
▁faces	-10.6343
▁interviews	-10.6343
▁fo	-10.635
▁dam	-10.6352
▁shine	-10.6365
ingly	-10.6371
▁pies	-10.6375
some	-10.6381
per	-10.6382
▁sis	-10.6387
▁whl	-10.6415
ah	-10.642
let	-10.6437
▁ir	-10.6445
ice	-10.6453
cu	-10.6458
▁choices	-10.6471
▁programm	-10.6472
tal	-10.648
▁worker	-10.65
▁throws	-10.6554
▁tricks	-10.656
▁hoped	-10.6567
▁com	-10.6571
▁cons	-10.6591
ius	-10.662
▁minds	-10.6629
▁tracks	-10.6632
star	-10.6645
▁curl	-10.6664
▁souls	-10.6685
▁lap	-10.6685
▁unto	-10.6686
▁powering	-10.6707
air	-10.6714
▁camel	-10.6715
▁surely	-10.6726
▁pale	-10.6729
▁spirits	-10.6729
▁queens	-10.6734
▁sch	-10.6749
ets	-10.6759
▁boar	-10.6765
▁require	-10.6767
▁fortunate	-10.6768
pe	-10.6769
▁towel	-10.6775
▁tool	-10.6776
▁hesitate	-10.678
▁tube	-10.6781
▁standard	-10.6782
▁puzzle	-10.6783
itched	-10.6784
▁represent	-10.6786
▁moan	-10.6786
▁hy	-10.6787
▁neighbor	-10.6787
▁shooter	-10.6788
▁border	-10.6793
▁cloud	-10.6796
▁highp	-10.6797
▁drug	-10.6798
▁facts	-10.6807
bi	-10.6813
▁dealer	-10.6814
▁cable	-10.6824
top	-10.6828
▁flower	-10.6844
▁string	-10.685
▁generals	-10.6852
▁dancer	-10.6858
ery	-10.686
▁direction	-10.6869
▁cu	-10.6886
▁wha	-10.6887
▁dra	-10.6891
▁crush	-10.6902
▁stab	-10.6902
▁pour	-10.6906
▁flop	-10.6912
▁era	-10.6926
▁reckon	-10.6932
q	-10.6933
▁sink	-10.6936
▁escort	-10.6942
▁cancel	-10.6946
▁reward	-10.6947
▁delay	-10.6948
point	-10.6949
fire	-10.695
girl	-10.695
four	-10.6952
▁attend	-10.6953
▁profession	-10.6955
well	-10.6956
▁virginia	-10.6956
▁hack	-10.6957
▁amaze	-10.6958
▁sip	-10.696
▁assemble	-10.6961
▁cabin	-10.6967
▁current	-10.6969
▁commission	-10.6969
▁keen	-10.6969
▁invest	-10.6972
▁ki	-10.6974
▁occasion	-10.6976
▁react	-10.6977
▁ange	-10.6977
▁stan	-10.6978
▁ego	-10.6979
▁mornin	-10.698
▁conduct	-10.698
▁junk	-10.698
imagin	-10.6981
▁choi	-10.6981
▁propose	-10.6981
▁mysterio	-10.6982
▁param	-10.6982
▁bialy	-10.6983
▁patrol	-10.6983
ucci	-10.6983
▁absorb	-10.6983
▁albie	-10.6983
▁argue	-10.6983
▁assault	-10.6983
▁autograph	-10.6983
▁batiatus	-10.6983
▁battalion	-10.6983
▁bunny	-10.6983
▁combination	-10.6983
▁compliment	-10.6983
▁compromise	-10.6983
▁concur	-10.6983
▁contlnue	-10.6983
▁cottage	-10.6983
▁delicious	-10.6983
▁eiffel	-10.6983
▁elegant	-10.6983
▁embassy	-10.6983
▁evaluation	-10.6983
▁fraud	-10.6983
▁gulapa	-10.6983
▁happiness	-10.6983
▁increasing	-10.6983
▁infinite	-10.6983
▁instinct	-10.6983
▁judgment	-10.6983
▁magarri	-10.6983
▁marcellus	-10.6983
▁marlak	-10.6983
▁mccain	-10.6983
▁milltary	-10.6983
▁mockingjay	-10.6983
▁moscow	-10.6983
▁nietzsche	-10.6983
▁nigger	-10.6983
▁override	-10.6983
▁pentagon	-10.6983
▁rivendell	-10.6983
▁semester	-10.6983
▁serving	-10.6983
▁session	-10.6983
▁smurf	-10.6983
▁solemn	-10.6983
▁stereo	-10.6983
▁sunshine	-10.6983
▁technique	-10.6983
▁terminal	-10.6983
▁texas	-10.6983
▁thermal	-10.6983
▁twilight	-10.6983
▁unacceptable	-10.6983
▁uncomfortable	-10.6983
▁vodka	-10.6983
▁yakul	-10.6983
▁yield	-10.6983
▁zhou	-10.6983
▁cardinal	-10.6983
▁daggett	-10.6983
▁hammer	-10.6983
▁odette	-10.6983
▁pleasant	-10.6983
▁smooth	-10.6983
▁summon	-10.6983
▁actress	-10.6983
▁grond	-10.6983
▁possibilities	-10.6983
▁taylor	-10.6983
▁adult	-10.6983
▁grind	-10.6983
▁column	-10.6983
▁tyranny	-10.6983
▁holmes	-10.6983
▁liebkind	-10.6983
▁rosie	-10.6983
▁cheek	-10.6983
▁buddies	-10.6983
▁network	-10.6983
▁salute	-10.6983
▁agency	-10.6983
▁jonah	-10.6983
▁advantage	-10.6983
▁jeez	-10.6983
▁snack	-10.6983
▁colvin	-10.6983
▁inaudible	-10.6983
▁obey	-10.6983
▁struck	-10.6983
▁terrific	-10.6983
▁spleen	-10.6983
▁statue	-10.6983
▁trois	-10.6983
▁education	-10.6983
▁snorting	-10.6983
▁accent	-10.6983
▁hamster	-10.6983
▁pencil	-10.6983
▁pistol	-10.6983
▁principal	-10.6983
▁boggs	-10.6983
▁dillings	-10.6983
▁sheep	-10.6983
▁shelf	-10.6983
▁previous	-10.6983
▁beau	-10.6983
▁flank	-10.6983
▁belgian	-10.6983
▁heels	-10.6983
▁silk	-10.6983
▁threaten	-10.6983
▁patience	-10.6983
▁disappointment	-10.6983
▁monkey	-10.6983
▁rainbow	-10.6983
▁extension	-10.6983
▁dope	-10.6983
▁snoop	-10.6983
▁favourite	-10.6983
▁bingo	-10.6983
▁purse	-10.6983
▁gown	-10.6983
▁entry	-10.6984
▁smack	-10.6984
▁negro	-10.6984
▁community	-10.6984
▁violation	-10.6984
▁overnight	-10.6984
▁uptown	-10.6984
▁random	-10.6984
▁eternal	-10.6984
▁email	-10.6984
▁jean	-10.6984
▁shortcut	-10.6984
▁employee	-10.6984
▁permit	-10.6984
▁narrat	-10.6984
▁laundry	-10.6984
▁creative	-10.6984
▁cinq	-10.6984
▁barrel	-10.6984
▁waking	-10.6984
▁distraction	-10.6984
▁alice	-10.6984
▁compare	-10.6984
▁suitcase	-10.6984
▁lamp	-10.6984
▁adolf	-10.6984
▁heather	-10.6984
phop	-10.6984
▁primary	-10.6984
▁worm	-10.6984
▁ladles	-10.6985
▁dotson	-10.6985
▁chef	-10.6985
▁supplies	-10.6985
▁feast	-10.6985
▁supper	-10.6985
▁podacter	-10.6985
▁maneuver	-10.6985
▁iraq	-10.6985
▁claus	-10.6985
▁attractive	-10.6985
▁jackson	-10.6985
▁ura	-10.6986
▁hallway	-10.6986
▁panem	-10.6987
▁related	-10.6988
▁alike	-10.6988
▁hlt	-10.6988
▁spies	-10.6988
▁float	-10.6989
▁parade	-10.6989
▁via	-10.6989
▁whore	-10.6989
▁seo	-10.6989
▁spice	-10.699
▁andrew	-10.699
▁production	-10.699
▁congressman	-10.699
▁artist	-10.699
▁dna	-10.6991
▁lecture	-10.6992
▁aisle	-10.6993
▁brush	-10.6993
▁tooth	-10.6993
▁abuse	-10.6993
▁fatty	-10.6993
▁flatbed	-10.6994
▁mouse	-10.6995
▁charl	-10.6995
▁tina	-10.6996
▁homecoming	-10.6996
▁czechs	-10.6996
uns	-10.6996
▁label	-10.6997
▁dean	-10.6999
▁johnny	-10.6999
▁prom	-10.7
▁coal	-10.7
▁tide	-10.7002
▁cutting	-10.7002
▁ll	-10.7002
▁disappointed	-10.7002
▁hid	-10.7003
▁majority	-10.7003
▁carol	-10.7003
▁johnson	-10.7004
▁countless	-10.7004
▁ahem	-10.7004
▁assist	-10.7005
▁photographer	-10.7005
▁bitter	-10.7005
▁colony	-10.7005
▁reduce	-10.7007
▁larger	-10.7007
▁factory	-10.7007
▁pledge	-10.7009
▁praise	-10.701
▁shitty	-10.7011
▁fold	-10.7012
▁properly	-10.7015
▁chin	-10.7015
▁successful	-10.7017
▁copies	-10.7018
▁twins	-10.7018
▁whens	-10.7019
▁fried	-10.7023
▁published	-10.7023
▁mechanical	-10.7025
▁showtime	-10.7025
▁hangman	-10.7025
▁originally	-10.7025
▁whooping	-10.7029
▁drowning	-10.7037
ji	-10.7041
▁heights	-10.7042
▁gladiators	-10.7042
▁hunger	-10.7044
▁drilling	-10.7046
▁voted	-10.7058
▁stammers	-10.7065
▁enterprises	-10.7065
▁normally	-10.7067
▁hardest	-10.7068
▁lawn	-10.7068
ors	-10.7069
▁whoop	-10.7069
▁delivered	-10.7071
▁artie	-10.7072
▁andis	-10.7077
▁blamed	-10.708
▁ton	-10.7082
qu	-10.7084
▁baker	-10.709
▁winds	-10.7099
▁cr	-10.7106
▁cents	-10.7111
▁scouts	-10.7112
▁distort	-10.7114
▁painting	-10.712
▁blessing	-10.713
▁concerns	-10.7136
ately	-10.7139
▁quicker	-10.7144
▁studying	-10.715
▁fr	-10.7151
▁severe	-10.7153
▁lure	-10.7157
▁pods	-10.7159
▁visitors	-10.716
▁speaker	-10.716
▁wars	-10.7162
handed	-10.7164
▁traveled	-10.7165
▁app	-10.7169
▁ver	-10.7171
▁tons	-10.7176
▁suggesting	-10.7178
▁remaining	-10.718
▁neighbors	-10.7182
▁squa	-10.7204
▁citizens	-10.7205
▁mutants	-10.7206
▁feeding	-10.7207
tin	-10.7212
▁hen	-10.7228
▁indians	-10.723
lip	-10.7232
▁vest	-10.7235
▁yu	-10.7238
▁spine	-10.7242
ike	-10.7248
▁marked	-10.7259
▁visiting	-10.7261
▁fears	-10.727
▁feelin	-10.7272
▁sentence	-10.7284
▁dal	-10.7289
▁packing	-10.7289
▁prints	-10.7323
rk	-10.7324
io	-10.7336
▁minorit	-10.7345
▁ram	-10.7356
▁joined	-10.7376
board	-10.7382
▁funk	-10.7384
wa	-10.7385
▁el	-10.7386
▁che	-10.7387
▁beats	-10.7391
▁murderers	-10.7413
ization	-10.7414
har	-10.7426
▁vl	-10.7436
▁cc	-10.7437
gram	-10.7456
▁ren	-10.7467
▁humble	-10.747
▁listened	-10.747
▁protecting	-10.7472
ms	-10.7482
▁dos	-10.7494
▁scares	-10.7502
▁sales	-10.7507
▁receive	-10.7508
▁jokes	-10.7514
▁criminals	-10.7514
▁roses	-10.7515
▁signing	-10.7522
nya	-10.7526
hard	-10.7535
▁presents	-10.7543
ip	-10.7558
more	-10.7559
▁scientists	-10.7562
▁waiter	-10.7584
▁hated	-10.7586
▁med	-10.7615
▁reporters	-10.7615
▁impress	-10.7634
▁conversations	-10.7658
▁cultur	-10.7659
▁engineers	-10.7668
▁strip	-10.7682
ich	-10.7682
▁deserves	-10.7684
cha	-10.7684
▁te	-10.769
▁possess	-10.7698
▁fails	-10.7704
▁daggers	-10.7707
gs	-10.7708
▁dove	-10.7709
▁que	-10.7725
eat	-10.7737
▁levels	-10.7754
▁tapes	-10.7755
ying	-10.7771
▁whi	-10.7773
▁notes	-10.7798
ez	-10.7835
▁missions	-10.785
▁dre	-10.7869
▁trauma	-10.7882
▁pops	-10.7883
▁def	-10.7911
▁tu	-10.7923
ste	-10.7932
▁op	-10.7946
▁clearing	-10.7947
for	-10.7976
▁hal	-10.798
mar	-10.7991
▁kin	-10.7994
▁flights	-10.7996
▁suite	-10.8005
bil	-10.801
▁pays	-10.8011
daily	-10.8013
▁nut	-10.802
ith	-10.8021
▁instrument	-10.8023
▁include	-10.8024
▁fugitive	-10.8029
▁marine	-10.8031
▁method	-10.8032
▁rogue	-10.8032
▁muslim	-10.8035
▁item	-10.8036
▁passenger	-10.8039
▁turd	-10.8042
▁precog	-10.8042
azy	-10.8042
▁down	-10.8043
▁detail	-10.8044
▁cares	-10.8048
▁dot	-10.8048
▁drone	-10.8051
ue	-10.8053
▁visitor	-10.8053
▁why	-10.8061
▁ay	-10.8064
▁dimension	-10.8066
▁prayer	-10.808
▁teachers	-10.8081
ded	-10.809
▁pod	-10.8091
ick	-10.8096
▁lords	-10.8114
▁charges	-10.8123
mill	-10.8126
ina	-10.8126
▁mlss	-10.8127
▁evacuate	-10.8131
ade	-10.8144
▁jj	-10.8147
thin	-10.815
▁surround	-10.8152
▁boost	-10.8154
▁continu	-10.8172
▁tor	-10.8178
▁creat	-10.8181
▁ward	-10.8181
yard	-10.8184
▁swell	-10.8185
▁bargain	-10.8185
fight	-10.8187
▁complain	-10.8188
▁accord	-10.8188
▁bleed	-10.8189
▁invent	-10.8189
book	-10.8191
right	-10.8194
▁tights	-10.8195
maker	-10.8197
spite	-10.8198
▁psych	-10.8199
john	-10.82
▁activate	-10.8205
▁riddle	-10.8205
▁transit	-10.8206
▁advise	-10.8206
▁achieve	-10.8207
five	-10.8212
▁medic	-10.8215
lfe	-10.8217
▁wealth	-10.8218
▁chart	-10.8219
ong	-10.8219
▁incredibl	-10.8219
lse	-10.8222
▁recent	-10.8223
▁gag	-10.8227
walk	-10.8227
▁cats	-10.8229
▁executi	-10.8229
▁givin	-10.823
▁hub	-10.823
▁diplomat	-10.8233
▁council	-10.8233
▁admire	-10.8233
▁alliance	-10.8233
▁amateur	-10.8233
▁applied	-10.8233
▁arrival	-10.8233
▁arriving	-10.8233
▁ausiello	-10.8233
▁baghdad	-10.8233
▁banana	-10.8233
▁benefit	-10.8233
▁billionaire	-10.8233
▁brundusium	-10.8233
▁capua	-10.8233
▁chubb	-10.8233
▁compartment	-10.8233
▁component	-10.8233
▁corporal	-10.8233
▁depressed	-10.8233
▁electronic	-10.8233
▁execute	-10.8233
▁explosive	-10.8233
▁forfeit	-10.8233
▁gherson	-10.8233
▁grenade	-10.8233
▁harbor	-10.8233
▁harvard	-10.8233
▁hawaii	-10.8233
▁hilbert	-10.8233
▁immigrant	-10.8233
▁inspiring	-10.8233
▁interahamwe	-10.8233
▁jupiter	-10.8233
▁kangaroo	-10.8233
▁kurokawa	-10.8233
▁lawsuit	-10.8233
▁lobster	-10.8233
▁magnificent	-10.8233
▁maitland	-10.8233
▁massacre	-10.8233
▁motel	-10.8233
▁neptune	-10.8233
▁november	-10.8233
▁outnumbered	-10.8233
▁pompey	-10.8233
▁privilege	-10.8233
▁profile	-10.8233
▁pruitt	-10.8233
▁quatre	-10.8233
▁reputation	-10.8233
▁reynolds	-10.8233
▁ritual	-10.8233
▁scientific	-10.8233
▁scoundrel	-10.8233
▁sesterces	-10.8233
▁shelter	-10.8233
▁studies	-10.8233
▁studio	-10.8233
▁swift	-10.8233
▁sync	-10.8233
▁tatopoulos	-10.8233
▁thornfield	-10.8233
▁throttle	-10.8233
▁umbrella	-10.8233
▁vacuum	-10.8233
▁vallelonga	-10.8233
▁verheek	-10.8233
▁wharf	-10.8233
▁whimpering	-10.8233
▁wullgar	-10.8233
▁appeal	-10.8233
▁balloon	-10.8233
▁bmw	-10.8233
▁doorbell	-10.8233
▁rehman	-10.8233
▁rumbles	-10.8233
▁costume	-10.8233
▁harness	-10.8233
▁harry	-10.8233
▁hineman	-10.8233
▁smuggl	-10.8233
▁tiger	-10.8233
▁wield	-10.8233
▁after	-10.8233
▁fireworks	-10.8233
▁triumph	-10.8233
▁microwave	-10.8233
▁convoy	-10.8233
▁disruptors	-10.8233
▁rottingham	-10.8233
▁gratitude	-10.8233
▁uhoh	-10.8233
▁estate	-10.8233
▁lylla	-10.8233
▁hlphop	-10.8233
▁luggage	-10.8233
▁competition	-10.8233
▁tingle	-10.8233
▁tribute	-10.8233
▁brazil	-10.8233
▁colour	-10.8233
▁division	-10.8233
▁clarity	-10.8233
▁fading	-10.8233
▁repeatedly	-10.8233
onnais	-10.8233
▁stepping	-10.8233
▁plug	-10.8233
▁riend	-10.8233
▁absence	-10.8233
▁spanish	-10.8233
▁routine	-10.8233
▁collar	-10.8233
▁interven	-10.8233
▁powder	-10.8233
▁salary	-10.8233
▁transmitter	-10.8233
▁middleearth	-10.8233
▁delta	-10.8233
▁storage	-10.8233
▁multi	-10.8233
▁nazi	-10.8233
▁dalton	-10.8233
▁shaking	-10.8233
▁jerry	-10.8234
▁skull	-10.8234
▁evade	-10.8234
▁paperwork	-10.8234
▁geoff	-10.8234
▁clop	-10.8234
▁hahaha	-10.8234
▁splash	-10.8234
▁toki	-10.8234
▁sponge	-10.8234
▁oven	-10.8234
▁confident	-10.8234
▁destruction	-10.8234
▁stabilize	-10.8234
▁reflection	-10.8234
▁vickie	-10.8234
▁pregnancy	-10.8234
▁courtney	-10.8234
▁centuries	-10.8234
▁referee	-10.8234
▁evacuation	-10.8234
▁adjust	-10.8234
▁wreck	-10.8235
▁raid	-10.8235
▁poetry	-10.8235
▁incoming	-10.8235
▁bryan	-10.8235
▁kali	-10.8235
▁feur	-10.8235
▁commitment	-10.8235
▁nonny	-10.8235
▁dickhead	-10.8235
▁pursuit	-10.8235
▁loan	-10.8235
▁chemistry	-10.8235
▁clown	-10.8235
▁grip	-10.8235
▁countries	-10.8236
▁obsessed	-10.8236
▁worn	-10.8236
▁scramble	-10.8236
▁jaw	-10.8236
▁lousy	-10.8236
▁proposal	-10.8236
▁quote	-10.8236
▁nearby	-10.8236
▁spaceport	-10.8236
consi	-10.8236
▁confirmation	-10.8236
▁shoutlng	-10.8236
▁soar	-10.8237
▁git	-10.8237
hole	-10.8237
▁gap	-10.8237
▁leah	-10.8237
▁substitute	-10.8238
▁intr	-10.8238
▁blight	-10.8238
▁relieved	-10.8238
▁scrapp	-10.8238
▁sworn	-10.8238
▁crank	-10.8239
▁becky	-10.8239
▁suspense	-10.8239
▁subway	-10.8239
▁colt	-10.824
▁martini	-10.824
▁dong	-10.824
▁exhausted	-10.824
▁marco	-10.824
▁rah	-10.8241
▁allen	-10.8241
ran	-10.8241
▁woe	-10.8241
▁invention	-10.8241
▁discovery	-10.8241
▁technically	-10.8241
▁baseball	-10.8242
▁feat	-10.8242
▁scooter	-10.8242
▁snoring	-10.8242
▁sensitive	-10.8243
▁reply	-10.8243
▁comet	-10.8243
▁drain	-10.8243
▁reservation	-10.8243
▁sandwiches	-10.8244
▁sharing	-10.8244
▁molly	-10.8245
▁sald	-10.8245
▁organized	-10.8245
▁clearance	-10.8245
▁collide	-10.8246
▁moron	-10.8247
▁lena	-10.8247
▁noon	-10.8247
▁protective	-10.8248
▁background	-10.8248
▁mose	-10.8249
▁moro	-10.8249
▁embarrassed	-10.825
▁examine	-10.825
▁sexual	-10.8251
▁madness	-10.8252
▁sew	-10.8252
▁bam	-10.8253
▁lvan	-10.8253
▁annoying	-10.8255
▁embarrassing	-10.8255
▁smoking	-10.8255
▁mankind	-10.8255
▁recovery	-10.8256
▁thered	-10.8256
▁hitch	-10.8257
▁detected	-10.8257
▁slipped	-10.8258
▁naturally	-10.8258
▁hawk	-10.8259
▁particularly	-10.826
▁highness	-10.8264
▁physically	-10.8266
▁lane	-10.8267
▁manual	-10.8268
▁yah	-10.8268
▁required	-10.8269
▁curt	-10.8269
▁costs	-10.827
▁relics	-10.8273
iff	-10.8274
▁assured	-10.8274
▁crushed	-10.8275
▁don	-10.8275
ound	-10.8278
▁ez	-10.8279
▁strongest	-10.828
▁payment	-10.828
▁rescued	-10.8281
▁fastest	-10.8283
▁log	-10.8284
▁gee	-10.8284
fit	-10.8286
▁ven	-10.8286
its	-10.8286
▁locke	-10.8287
mp	-10.8289
▁blink	-10.8291
▁formula	-10.8293
▁knights	-10.8294
lou	-10.8295
▁irony	-10.8297
▁tow	-10.8298
isal	-10.8298
▁beans	-10.8299
▁chimes	-10.83
▁barn	-10.8302
▁placed	-10.8304
▁banging	-10.8305
▁sweater	-10.8313
▁revealed	-10.8314
▁suffered	-10.8314
▁tricky	-10.8315
▁earned	-10.8321
▁hopeless	-10.8329
▁refugees	-10.8331
ever	-10.8332
▁echoing	-10.8336
ically	-10.8339
▁louder	-10.8339
▁sie	-10.834
▁risky	-10.834
▁smarter	-10.8346
▁paula	-10.8349
▁assumed	-10.8349
hr	-10.8351
▁honks	-10.8354
▁deeds	-10.8356
▁now	-10.8357
▁becom	-10.8359
▁jar	-10.8363
izz	-10.8367
▁sneaking	-10.8367
▁louis	-10.8371
▁binds	-10.8375
▁strangely	-10.8376
▁mule	-10.8376
▁swi	-10.8377
▁ana	-10.8378
iest	-10.8381
▁punched	-10.8387
▁net	-10.839
▁yards	-10.8406
▁crescen	-10.8406
▁bonds	-10.8407
▁freaked	-10.8408
ries	-10.8408
▁wrestlers	-10.8409
▁matt	-10.8416
▁scarf	-10.8425
▁sucked	-10.8431
▁matched	-10.8432
▁dimensions	-10.8433
▁drones	-10.8433
▁turds	-10.8433
▁ops	-10.8438
▁climbing	-10.8449
▁tested	-10.8449
▁clouds	-10.846
▁represents	-10.846
▁requires	-10.8462
▁deeper	-10.8469
▁irs	-10.8473
▁pad	-10.8479
▁cher	-10.848
▁shu	-10.8485
▁polo	-10.8492
ont	-10.8503
▁cows	-10.8526
▁enjoyed	-10.8526
▁toots	-10.8529
▁bou	-10.8535
▁riches	-10.8538
▁missiles	-10.8541
▁strangers	-10.8554
▁boxing	-10.8557
▁dy	-10.8558
com	-10.8568
▁fixing	-10.857
ony	-10.8586
▁closely	-10.8588
▁pressing	-10.8588
▁photos	-10.8595
▁jobs	-10.8598
lala	-10.8605
▁rolling	-10.8606
vo	-10.8606
▁cl	-10.862
▁claims	-10.8622
▁arrives	-10.8624
▁sn	-10.8625
ank	-10.8641
▁shad	-10.8641
▁sting	-10.8642
▁casey	-10.8643
▁auto	-10.865
kin	-10.865
▁attacking	-10.8653
▁raining	-10.8672
▁einons	-10.8677
▁vehicles	-10.8677
ture	-10.8689
aw	-10.8698
zer	-10.87
▁sources	-10.8704
▁shoulders	-10.8705
▁mouthing	-10.8711
▁oneal	-10.8716
night	-10.8717
▁marce	-10.872
dom	-10.8731
▁bees	-10.8738
▁embrace	-10.8747
▁gar	-10.8771
▁hells	-10.8773
▁catching	-10.8775
▁mini	-10.8781
▁hutus	-10.879
▁vet	-10.8797
▁tend	-10.8797
▁rounds	-10.8819
▁covering	-10.8841
erlin	-10.8844
▁sleeps	-10.8848
▁oops	-10.8859
ments	-10.8874
▁dun	-10.892
▁bagg	-10.8928
▁patients	-10.8951
ica	-10.896
▁trainer	-10.8965
rv	-10.8979
▁ko	-10.8979
▁compet	-10.8989
▁diver	-10.9007
ner	-10.902
▁vers	-10.9032
▁fits	-10.9037
▁verse	-10.9083
▁actions	-10.9092
bbing	-10.9098
▁can	-10.9107
ise	-10.9116
aboard	-10.9116
▁homes	-10.9119
▁gr	-10.9127
rang	-10.914
▁shields	-10.9145
▁bears	-10.9151
▁brok	-10.9152
active	-10.9156
ement	-10.9168
▁colors	-10.9175
▁resolve	-10.9185
▁les	-10.9195
tempo	-10.9201
imp	-10.9221
▁ve	-10.9225
▁resting	-10.9226
rock	-10.9252
▁nurses	-10.926
▁lea	-10.9264
▁at	-10.9275
▁crimes	-10.9284
▁wei	-10.9298
▁il	-10.9305
ives	-10.9329
inch	-10.9332
nto	-10.9346
▁intention	-10.9346
▁writes	-10.9348
▁sail	-10.936
upper	-10.9371
▁concern	-10.9382
range	-10.9387
▁mag	-10.9401
▁bur	-10.9412
▁andy	-10.9412
▁hum	-10.9415
lst	-10.9416
▁whisper	-10.9428
▁groan	-10.9431
ability	-10.9433
▁raj	-10.9434
▁thee	-10.9435
▁tore	-10.9442
▁there	-10.9447
▁rifle	-10.9452
▁deception	-10.9452
▁flour	-10.9453
▁exception	-10.9457
▁feather	-10.9457
▁wrist	-10.9458
▁gasp	-10.9459
▁genetic	-10.9461
▁airplane	-10.9462
▁poem	-10.9463
▁explode	-10.9463
▁rascal	-10.9463
▁patriot	-10.9468
▁guinea	-10.9471
▁asset	-10.9473
▁stair	-10.9475
▁su	-10.9476
▁wrestler	-10.9477
▁dollar	-10.9479
▁airline	-10.9482
▁boo	-10.9485
ory	-10.9488
▁lung	-10.949
coming	-10.9496
▁bond	-10.9504
▁yard	-10.9505
▁signals	-10.951
▁spoil	-10.951
▁bu	-10.9524
▁reception	-10.9528
▁skip	-10.954
▁breaths	-10.9554
▁pi	-10.9558
▁williams	-10.9566
lan	-10.958
▁will	-10.9592
▁medi	-10.9607
▁expand	-10.9609
▁stat	-10.9611
▁ski	-10.9618
▁descend	-10.9621
▁fulfill	-10.9622
▁adopt	-10.9623
▁punish	-10.9624
▁sack	-10.9624
dimension	-10.9627
flower	-10.9627
generation	-10.9627
wood	-10.9628
gen	-10.9629
▁rever	-10.963
stick	-10.9636
▁approve	-10.9636
▁pronounce	-10.9637
▁aborigin	-10.9638
▁flee	-10.9643
▁initial	-10.9646
▁glob	-10.9647
▁corps	-10.9647
▁rwanda	-10.9648
▁blond	-10.9648
▁explore	-10.9651
▁earths	-10.9651
▁india	-10.9652
▁electric	-10.9654
▁tomato	-10.9654
▁rider	-10.9654
▁environment	-10.9655
▁rag	-10.9656
betty	-10.9657
▁replace	-10.9657
▁rash	-10.9659
▁extract	-10.966
nderson	-10.966
▁evolution	-10.966
▁organ	-10.9661
dadadadaiahd	-10.9661
jacques	-10.9661
▁ahchoo	-10.9661
▁allegiance	-10.9661
▁amdursky	-10.9661
▁americus	-10.9661
▁ancestors	-10.9661
▁anonymous	-10.9661
▁appetite	-10.9661
▁baracus	-10.9661
▁caitlin	-10.9661
▁canada	-10.9661
▁cheerleader	-10.9661
▁cohorts	-10.9661
▁colleagues	-10.9661
▁companion	-10.9661
▁congrats	-10.9661
▁conspiracy	-10.9661
▁cradle	-10.9661
▁crixus	-10.9661
▁dadadadada	-10.9661
▁dalmatian	-10.9661
▁debri	-10.9661
▁demonstration	-10.9661
▁disagree	-10.9661
▁divine	-10.9661
▁ector	-10.9661
▁englne	-10.9661
▁essay	-10.9661
▁expedition	-10.9661
▁facilities	-10.9661
▁finnick	-10.9661
▁frozen	-10.9661
▁gelderland	-10.9661
▁genuine	-10.9661
▁glimpse	-10.9661
▁goolaj	-10.9661
▁grief	-10.9661
▁guido	-10.9661
▁honjo	-10.9661
▁incorrect	-10.9661
▁independence	-10.9661
▁indestructible	-10.9661
▁infra	-10.9661
▁intact	-10.9661
▁jonghoon	-10.9661
▁kennedy	-10.9661
▁liquid	-10.9661
▁lucullus	-10.9661
▁mademoiselle	-10.9661
▁malfunction	-10.9661
▁mercenary	-10.9661
▁messenger	-10.9661
▁metaphor	-10.9661
▁motorcycle	-10.9661
▁museum	-10.9661
▁operative	-10.9661
▁oprah	-10.9661
▁pebble	-10.9661
▁petrakis	-10.9661
▁pineapple	-10.9661
▁pudding	-10.9661
▁quesadilla	-10.9661
▁religious	-10.9661
▁sebastian	-10.9661
▁sensltlve	-10.9661
▁sneller	-10.9661
▁studied	-10.9661
▁tarmac	-10.9661
▁tartutic	-10.9661
▁temperature	-10.9661
▁territory	-10.9661
▁transmission	-10.9661
▁verdict	-10.9661
▁verheiden	-10.9661
▁vessel	-10.9661
▁vocal	-10.9661
▁vulture	-10.9661
▁cloak	-10.9661
▁consumed	-10.9661
▁crunch	-10.9661
▁error	-10.9661
▁giggling	-10.9661
▁mattress	-10.9661
▁ninth	-10.9661
▁pancakes	-10.9661
▁sector	-10.9661
▁sphere	-10.9661
▁statute	-10.9661
▁whatsoever	-10.9661
▁byron	-10.9661
▁material	-10.9661
▁orchestra	-10.9661
▁osborn	-10.9661
▁renown	-10.9661
▁roast	-10.9661
▁bruise	-10.9661
▁clerk	-10.9661
▁endanger	-10.9661
▁susan	-10.9661
▁ahab	-10.9661
▁anchor	-10.9661
▁kyle	-10.9661
▁hulk	-10.9661
▁literature	-10.9661
▁cocktail	-10.9661
▁elbow	-10.9661
▁farber	-10.9661
▁suhas	-10.9661
▁acquired	-10.9661
▁optimistic	-10.9661
▁registr	-10.9661
▁sweep	-10.9661
▁carpet	-10.9661
▁enrique	-10.9661
▁glrl	-10.9662
▁whining	-10.9662
▁inches	-10.9662
▁concept	-10.9662
▁spinning	-10.9662
▁cody	-10.9662
▁pollard	-10.9662
proxim	-10.9662
▁exclusive	-10.9662
▁lodge	-10.9662
▁muffled	-10.9662
▁sample	-10.9662
▁housing	-10.9662
▁norwi	-10.9662
▁jelly	-10.9662
▁lslam	-10.9662
▁bulletproof	-10.9662
▁colville	-10.9662
▁scrubbing	-10.9662
▁resent	-10.9662
▁bribe	-10.9662
▁lethal	-10.9662
▁altogether	-10.9662
▁carrier	-10.9662
▁garver	-10.9662
▁kidnapped	-10.9662
▁napkin	-10.9662
▁golf	-10.9662
▁regina	-10.9662
▁representative	-10.9662
▁mobile	-10.9662
▁celebration	-10.9662
▁alternative	-10.9662
▁obsession	-10.9662
▁duties	-10.9662
▁separation	-10.9662
▁freezing	-10.9662
▁panicked	-10.9662
▁campana	-10.9662
▁lightning	-10.9662
▁stunning	-10.9662
▁whatwhat	-10.9662
▁minimum	-10.9662
▁rattle	-10.9662
▁midtown	-10.9662
▁mitchell	-10.9662
▁patrick	-10.9662
▁depressing	-10.9662
▁offend	-10.9662
▁marshal	-10.9662
▁marvelous	-10.9662
▁adore	-10.9663
▁instance	-10.9663
▁timmy	-10.9663
▁eighteen	-10.9663
▁quarterback	-10.9663
▁cherry	-10.9663
▁inbound	-10.9663
▁strawberry	-10.9663
▁burch	-10.9663
▁grimes	-10.9663
▁orphanage	-10.9663
▁tendency	-10.9663
▁apologies	-10.9663
▁victorious	-10.9663
▁spiritual	-10.9663
▁starboard	-10.9663
▁tread	-10.9663
▁ruth	-10.9663
▁dinosaur	-10.9663
▁poop	-10.9663
▁popping	-10.9664
▁engagement	-10.9664
▁bragg	-10.9664
▁waltz	-10.9664
▁sunset	-10.9664
▁digit	-10.9664
▁psychic	-10.9664
▁chew	-10.9664
▁jimbo	-10.9664
▁scum	-10.9664
▁airborn	-10.9664
▁pension	-10.9664
▁settlement	-10.9664
▁length	-10.9664
▁module	-10.9664
▁typical	-10.9664
▁blanche	-10.9664
▁investment	-10.9665
▁overhead	-10.9665
▁tension	-10.9665
▁heartbeat	-10.9665
▁poker	-10.9665
▁dishes	-10.9665
▁sieg	-10.9665
▁stung	-10.9665
▁observation	-10.9665
▁worship	-10.9665
▁confession	-10.9665
▁cities	-10.9665
▁berlin	-10.9666
▁crust	-10.9666
▁priority	-10.9666
▁robbery	-10.9666
▁moonlight	-10.9666
▁yea	-10.9666
▁banner	-10.9666
▁portland	-10.9666
▁native	-10.9666
▁loop	-10.9666
▁walt	-10.9667
▁precisely	-10.9667
▁intense	-10.9667
▁seattle	-10.9667
▁allies	-10.9667
▁batch	-10.9668
▁aj	-10.9668
▁jess	-10.9668
▁objective	-10.9668
▁drownin	-10.9668
▁stealth	-10.9668
▁role	-10.9668
▁fong	-10.9668
▁liege	-10.9668
▁xp	-10.9669
▁internal	-10.9669
▁heir	-10.9669
▁alter	-10.967
▁promising	-10.967
▁screen	-10.967
▁teenager	-10.967
▁nightfall	-10.967
▁choir	-10.967
tle	-10.967
▁amongst	-10.9671
▁intern	-10.9671
▁breakthrough	-10.9672
▁whlstle	-10.9672
▁elliott	-10.9673
ised	-10.9673
▁lame	-10.9674
▁bog	-10.9674
▁payback	-10.9674
▁rotting	-10.9675
▁equi	-10.9675
ukh	-10.9675
▁corpse	-10.9676
▁dismissed	-10.9676
▁forgiveness	-10.9677
▁mous	-10.9677
▁shelley	-10.9678
▁roommate	-10.9678
▁clinking	-10.968
▁thumping	-10.968
▁currently	-10.968
▁pinch	-10.968
▁arse	-10.968
▁phony	-10.9681
▁uncles	-10.9681
▁brad	-10.9681
▁doll	-10.9683
▁starve	-10.9683
▁produced	-10.9683
lord	-10.9684
▁porc	-10.9685
▁approaches	-10.9686
▁friendship	-10.9687
▁clanking	-10.9687
▁glen	-10.9687
▁grid	-10.9687
▁barry	-10.9688
▁worthless	-10.9689
▁essentially	-10.9689
▁hatches	-10.9689
▁endure	-10.969
▁penn	-10.9691
▁korea	-10.9692
▁amazed	-10.9694
▁sighing	-10.9695
▁nightlock	-10.9696
▁transition	-10.9697
▁deadline	-10.9697
▁buzzes	-10.9698
▁halo	-10.97
▁rabbit	-10.9701
▁shutter	-10.9704
▁flirting	-10.9705
▁walks	-10.9706
▁geniuses	-10.9707
take	-10.9708
▁peel	-10.9708
▁peasants	-10.9709
▁patents	-10.9709
eather	-10.9709
▁sailing	-10.9709
▁assassinations	-10.971
▁delayed	-10.971
▁cath	-10.9711
▁heroes	-10.9711
▁coppers	-10.9712
▁bent	-10.9713
▁proposed	-10.9715
print	-10.9718
▁announced	-10.9718
▁mines	-10.9719
▁fry	-10.9722
▁voter	-10.9724
▁pic	-10.9725
▁fist	-10.9726
▁cur	-10.9727
▁yao	-10.9728
▁pump	-10.9728
▁informed	-10.9728
▁urge	-10.973
▁tail	-10.9731
▁graduated	-10.9732
▁breached	-10.9733
▁tate	-10.9734
▁bursting	-10.9737
▁consequences	-10.9739
▁banks	-10.9742
▁gras	-10.9747
▁pl	-10.9747
▁unh	-10.975
▁orc	-10.9751
▁introduced	-10.9751
▁honesty	-10.9753
▁region	-10.9761
▁takeoff	-10.9767
▁granted	-10.9767
▁damaged	-10.9769
▁maggots	-10.977
▁disturb	-10.9771
▁dreamt	-10.9778
gents	-10.978
▁loudly	-10.9782
▁weed	-10.9783
ile	-10.9784
▁deserted	-10.9784
▁crashed	-10.9785
▁stare	-10.9785
▁neg	-10.979
▁rein	-10.9791
mit	-10.9794
▁hospitals	-10.9795
▁attempting	-10.9798
▁planted	-10.9799
▁juli	-10.9801
▁thumbs	-10.9802
▁shocking	-10.9803
▁bush	-10.9808
▁closest	-10.9809
▁lily	-10.981
▁sacrificed	-10.9813
▁sy	-10.9814
▁prey	-10.982
kins	-10.9823
▁forms	-10.983
▁socks	-10.9832
▁lack	-10.9833
▁saints	-10.9833
ular	-10.9839
▁digg	-10.984
▁rd	-10.9841
▁nails	-10.9842
▁dee	-10.9848
▁manners	-10.9856
▁las	-10.9861
▁dates	-10.9863
▁explodes	-10.9864
▁rascals	-10.9864
▁lungs	-10.9864
▁meters	-10.9865
▁lem	-10.987
▁cracking	-10.9884
▁analyze	-10.9886
stra	-10.9889
sap	-10.9891
▁perk	-10.9892
▁muslims	-10.9895
▁items	-10.9895
▁negotiate	-10.991
▁lists	-10.9913
▁tracking	-10.9927
▁strings	-10.9927
ust	-10.9928
▁der	-10.9929
▁seeking	-10.9931
▁importantly	-10.9933
▁bulls	-10.9934
▁screwing	-10.9936
bar	-10.9937
▁dancers	-10.9948
▁skills	-10.9957
▁receipts	-10.9958
▁transferr	-10.9963
▁encourage	-10.9971
▁sni	-10.9977
▁dressing	-10.9989
bodi	-10.9993
▁rises	-10.9999
▁ps	-11.0006
▁scrap	-11.0015
▁mol	-11.0019
▁tracker	-11.0024
▁gri	-11.0024
▁pole	-11.0032
▁inc	-11.005
▁pages	-11.0054
▁fishing	-11.0054
ight	-11.0062
▁planets	-11.0063
▁attacks	-11.0063
▁recorder	-11.0064
▁players	-11.0069
▁cy	-11.0084
▁breasts	-11.0084
ther	-11.0093
▁caves	-11.0099
▁funds	-11.0111
▁follows	-11.0118
can	-11.0121
▁ru	-11.0122
▁alg	-11.0135
▁on	-11.0144
▁pens	-11.015
ven	-11.0153
▁troubled	-11.0154
▁rages	-11.0154
aba	-11.0177
▁masks	-11.0177
▁lessons	-11.0179
▁translat	-11.0185
ub	-11.0198
▁affairs	-11.0211
▁marrying	-11.0212
▁documents	-11.0221
▁shoo	-11.023
ai	-11.0239
▁vari	-11.0251
▁traveler	-11.0258
sance	-11.0261
▁flirt	-11.028
▁peoples	-11.0283
▁loo	-11.03
▁num	-11.0304
▁noises	-11.0307
▁pursue	-11.0322
▁reserve	-11.0324
▁mas	-11.0334
au	-11.0336
▁doo	-11.0358
ties	-11.0361
▁butts	-11.0368
▁deadly	-11.0371
ado	-11.0372
▁culture	-11.0377
▁prior	-11.0389
▁eu	-11.0394
thor	-11.0395
▁my	-11.0399
▁pairs	-11.0403
act	-11.0405
gan	-11.043
▁romans	-11.0432
▁nor	-11.0433
▁devils	-11.0436
▁cla	-11.045
oir	-11.0462
▁womans	-11.0478
▁accounts	-11.0502
ray	-11.0505
cloth	-11.0532
my	-11.0534
▁bets	-11.0538
▁lads	-11.0549
▁defenses	-11.0565
lnd	-11.0569
▁showers	-11.0591
▁bottles	-11.0596
▁mort	-11.0598
▁dim	-11.0613
▁buyer	-11.0623
▁understanding	-11.0657
▁pea	-11.0662
▁boats	-11.0663
▁sayin	-11.0671
▁sta	-11.0673
ishi	-11.0674
▁prep	-11.0675
pling	-11.0684
▁ag	-11.0686
ked	-11.0706
▁investigat	-11.072
pan	-11.0733
▁mat	-11.077
▁trusting	-11.0782
▁killers	-11.0786
▁corners	-11.0788
▁horns	-11.0821
lle	-11.0845
ula	-11.0853
▁ninety	-11.0879
ants	-11.089
▁ami	-11.0891
▁favors	-11.0893
▁shi	-11.0915
▁qua	-11.0916
▁cared	-11.0925
oy	-11.0926
▁rea	-11.0936
ooh	-11.0941
▁mega	-11.0953
▁travels	-11.0961
▁readings	-11.0963
▁toy	-11.0963
nning	-11.0978
ably	-11.0978
ode	-11.0979
▁gal	-11.0986
▁trie	-11.0993
headed	-11.1
horn	-11.1009
▁journal	-11.1055
▁kinds	-11.1079
▁depend	-11.1084
za	-11.1085
▁manns	-11.1087
▁buck	-11.1089
▁demo	-11.109
▁spider	-11.1116
dad	-11.1116
▁resume	-11.1118
▁val	-11.1121
▁owner	-11.1122
▁pigeon	-11.1124
▁jew	-11.1126
cent	-11.1127
▁curtain	-11.1127
▁nerve	-11.1127
▁surprises	-11.1128
▁kilo	-11.1129
▁saint	-11.1129
▁scout	-11.1135
itis	-11.1136
▁sock	-11.1137
▁fu	-11.1138
▁cape	-11.1139
gra	-11.1143
▁kills	-11.1153
terior	-11.1163
avi	-11.1164
▁bio	-11.1166
▁unre	-11.1171
▁cent	-11.1173
▁stones	-11.1186
▁bree	-11.119
▁drift	-11.1203
ka	-11.1205
ney	-11.1211
▁domin	-11.1222
▁flap	-11.1223
▁ri	-11.1227
▁butch	-11.123
stand	-11.1244
▁oft	-11.1248
▁blinkin	-11.1249
▁invit	-11.125
▁mechanic	-11.1264
form	-11.1264
bear	-11.1274
▁screech	-11.1275
jack	-11.1277
minute	-11.1279
▁weep	-11.128
with	-11.1281
▁manner	-11.1282
▁murmur	-11.1282
▁mock	-11.1286
▁produce	-11.1286
▁elect	-11.1286
▁fro	-11.129
▁slaughter	-11.129
▁haunt	-11.129
born	-11.1292
▁sacr	-11.1292
harlan	-11.1293
bean	-11.1294
fried	-11.1294
mouth	-11.1295
wear	-11.1296
class	-11.1296
burn	-11.1297
good	-11.1297
case	-11.1298
pack	-11.1299
▁connect	-11.1299
▁pep	-11.1299
fella	-11.13
▁plead	-11.1303
made	-11.1304
▁predict	-11.1305
foot	-11.1306
wave	-11.1308
▁bind	-11.1309
▁thirst	-11.131
▁stiff	-11.131
▁rum	-11.1311
▁bore	-11.1312
▁valle	-11.1313
▁passionate	-11.1315
▁patricia	-11.1319
▁psycho	-11.132
▁entertain	-11.132
▁potato	-11.1321
▁coordinat	-11.1321
▁constitution	-11.1322
▁expla	-11.1322
while	-11.1322
▁agaln	-11.1324
▁somethln	-11.1324
▁chug	-11.1325
▁runnin	-11.1325
▁disrespect	-11.1326
verybody	-11.1326
▁movin	-11.1326
▁enhance	-11.1327
▁tragic	-11.1327
▁depressi	-11.1327
ngbang	-11.1328
▁anxious	-11.1328
▁inject	-11.1328
▁obstacle	-11.1328
▁surprising	-11.1328
▁vietnam	-11.1328
▁aaaooo	-11.1328
▁abomination	-11.1328
▁acquaintance	-11.1328
▁anniversary	-11.1328
▁asylum	-11.1328
▁audio	-11.1328
▁balcony	-11.1328
▁billabong	-11.1328
▁blonsky	-11.1328
▁brisket	-11.1328
▁caesar	-11.1328
▁caiman	-11.1328
▁catastrophe	-11.1328
▁challenging	-11.1328
▁chirping	-11.1328
▁christopher	-11.1328
▁companies	-11.1328
▁conflict	-11.1328
▁coochle	-11.1328
▁curfew	-11.1328
▁deceased	-11.1328
▁declaration	-11.1328
▁definition	-11.1328
▁demonstrate	-11.1328
▁destination	-11.1328
▁destined	-11.1328
▁dialogue	-11.1328
▁dinkley	-11.1328
▁discount	-11.1328
▁dispute	-11.1328
▁dixon	-11.1328
▁domestic	-11.1328
▁doughnut	-11.1328
▁dungeon	-11.1328
▁elrond	-11.1328
▁exhibition	-11.1328
▁flaunt	-11.1328
▁forensic	-11.1328
▁fracture	-11.1328
▁gauge	-11.1328
▁gavin	-11.1328
▁guidance	-11.1328
▁halfcaste	-11.1328
▁harpsichord	-11.1328
▁hehheh	-11.1328
▁initiating	-11.1328
▁injustice	-11.1328
▁insect	-11.1328
▁install	-11.1328
▁invincible	-11.1328
▁isolation	-11.1328
▁kirby	-11.1328
▁kirsten	-11.1328
▁kraglin	-11.1328
▁kuchever	-11.1328
▁lunatic	-11.1328
▁mackerel	-11.1328
▁manufacture	-11.1328
▁mehnaz	-11.1328
▁melissa	-11.1328
▁mortgage	-11.1328
▁mulligan	-11.1328
▁multiverse	-11.1328
▁natasha	-11.1328
▁negotiations	-11.1328
▁nicholls	-11.1328
▁nitrogen	-11.1328
▁oldfashioned	-11.1328
▁operator	-11.1328
▁outrage	-11.1328
▁perfume	-11.1328
▁plutarch	-11.1328
▁psychiatri	-11.1328
▁quarantine	-11.1328
▁rabble	-11.1328
▁regulator	-11.1328
▁rehearsal	-11.1328
▁religion	-11.1328
▁salmon	-11.1328
▁samantha	-11.1328
▁sausage	-11.1328
▁schizophrenia	-11.1328
▁selfdefense	-11.1328
▁shamaldas	-11.1328
▁shazam	-11.1328
▁sherwood	-11.1328
▁shieid	-11.1328
▁similar	-11.1328
▁spectacular	-11.1328
▁syndrome	-11.1328
▁thirteen	-11.1328
▁thorough	-11.1328
▁tminus	-11.1328
▁trash	-11.1328
▁treacher	-11.1328
▁treasury	-11.1328
▁truce	-11.1328
▁turbulence	-11.1328
▁unexpected	-11.1328
▁unicorn	-11.1328
▁vampire	-11.1328
▁vengeance	-11.1328
▁virgil	-11.1328
▁wheelchair	-11.1328
▁wichita	-11.1328
▁witwicky	-11.1328
▁wretch	-11.1328
▁youtube	-11.1328
▁agenda	-11.1328
▁capacity	-11.1328
▁clunk	-11.1328
▁darla	-11.1328
▁fingerprints	-11.1328
▁hindu	-11.1328
▁infected	-11.1328
▁klear	-11.1328
▁vault	-11.1328
▁behave	-11.1328
▁bosom	-11.1328
▁deavers	-11.1328
▁delete	-11.1328
▁describing	-11.1328
▁emerge	-11.1328
▁imminent	-11.1328
▁jedda	-11.1328
▁nonstop	-11.1328
▁fbl	-11.1328
▁gently	-11.1328
▁yankees	-11.1328
▁gossip	-11.1328
▁ringtone	-11.1328
▁semi	-11.1328
▁adapt	-11.1328
▁tokyo	-11.1328
▁crystal	-11.1328
▁darn	-11.1328
▁innocence	-11.1328
▁sympathy	-11.1328
▁abrupt	-11.1328
▁casualties	-11.1328
▁dawes	-11.1328
▁generator	-11.1328
▁gunnars	-11.1328
▁naughty	-11.1328
▁oracle	-11.1328
▁sensation	-11.1328
▁wristwatch	-11.1328
▁davis	-11.1328
▁whitmore	-11.1328
▁afterward	-11.1328
▁berries	-11.1328
▁pollux	-11.1328
▁unhook	-11.1328
▁eternity	-11.1328
▁gaze	-11.1328
▁urn	-11.1328
▁institution	-11.1328
▁polite	-11.1328
▁dennis	-11.1328
▁genocide	-11.1328
▁cheep	-11.1328
▁sniffling	-11.1328
▁disconnect	-11.1328
▁fundamental	-11.1328
▁franny	-11.1328
▁breeze	-11.1328
▁crook	-11.1328
▁contrary	-11.1328
▁peggy	-11.1328
▁nlght	-11.1328
▁saddle	-11.1329
▁compassion	-11.1329
▁lawrence	-11.1329
▁calculations	-11.1329
▁diversion	-11.1329
▁einstein	-11.1329
▁ribs	-11.1329
▁mlght	-11.1329
▁bluff	-11.1329
▁egyptian	-11.1329
▁causing	-11.1329
▁rustling	-11.1329
▁unconscious	-11.1329
▁jewish	-11.1329
▁behold	-11.1329
▁antique	-11.1329
▁addition	-11.1329
▁jiko	-11.1329
▁snails	-11.1329
▁construction	-11.1329
▁holler	-11.1329
▁robbing	-11.1329
▁assistance	-11.1329
▁yuck	-11.1329
▁fond	-11.1329
▁ginger	-11.1329
▁saraya	-11.1329
ggy	-11.1329
▁roster	-11.1329
▁dosage	-11.1329
▁forehead	-11.1329
▁racist	-11.1329
▁jig	-11.1329
▁mugg	-11.1329
▁merchan	-11.1329
▁vick	-11.1329
▁grabbed	-11.133
▁instructor	-11.133
▁preferred	-11.133
▁oliver	-11.133
▁strider	-11.133
▁strain	-11.133
▁motherinlaw	-11.133
▁philosophy	-11.133
▁appearance	-11.133
▁rotate	-11.133
▁cassa	-11.133
▁rotten	-11.133
▁perkins	-11.133
▁commence	-11.133
▁airfield	-11.133
▁anais	-11.133
▁slight	-11.133
▁basket	-11.133
▁jewelry	-11.133
acco	-11.133
▁babum	-11.133
▁promotion	-11.133
▁apology	-11.1331
▁loyalty	-11.1331
▁stability	-11.1331
▁conj	-11.1331
▁containment	-11.1331
▁dread	-11.1331
▁karate	-11.1331
▁kong	-11.1331
▁strut	-11.1331
▁motion	-11.1331
▁european	-11.1331
▁thread	-11.1331
▁guan	-11.1331
▁slightest	-11.1332
▁immigration	-11.1332
▁kansas	-11.1332
▁lizzard	-11.1332
▁owns	-11.1332
▁squire	-11.1332
▁inverter	-11.1332
▁scent	-11.1332
▁feedback	-11.1332
▁critical	-11.1332
▁exile	-11.1332
▁revolutionary	-11.1332
▁corporation	-11.1332
▁wage	-11.1333
▁drives	-11.1333
▁liz	-11.1333
▁dentist	-11.1333
raising	-11.1333
mise	-11.1333
▁wlthout	-11.1334
▁hopefully	-11.1334
▁junkers	-11.1334
▁fax	-11.1334
▁effective	-11.1334
roud	-11.1334
▁extraction	-11.1334
▁yaga	-11.1334
nium	-11.1335
▁observe	-11.1335
▁analog	-11.1335
▁trumpet	-11.1335
▁rug	-11.1335
▁plg	-11.1335
▁sideways	-11.1335
▁vip	-11.1335
▁tess	-11.1335
▁castor	-11.1336
▁sore	-11.1336
▁stall	-11.1336
▁fever	-11.1336
▁tidy	-11.1336
▁quality	-11.1336
▁tolerate	-11.1337
▁patty	-11.1337
▁ross	-11.1337
▁bench	-11.1337
▁growth	-11.1337
▁harmless	-11.1337
ency	-11.1338
illam	-11.1338
▁complaint	-11.1338
▁drugg	-11.1338
▁continent	-11.1338
▁firsthand	-11.1338
▁barnes	-11.1338
▁skirt	-11.1338
▁assigned	-11.1338
▁swan	-11.1339
▁discussion	-11.1339
▁workshop	-11.1339
terre	-11.1339
▁temper	-11.1339
▁alley	-11.1339
▁feb	-11.1339
▁villagers	-11.134
▁spain	-11.134
▁cosmo	-11.134
▁mac	-11.1341
▁takin	-11.1342
▁pager	-11.1342
▁pony	-11.1342
▁cora	-11.1343
▁greedy	-11.1343
▁nightstand	-11.1343
▁collapsed	-11.1344
▁ledge	-11.1344
▁eel	-11.1345
▁rejected	-11.1345
▁decorated	-11.1345
▁vanished	-11.1346
uous	-11.1346
▁drew	-11.1347
looking	-11.1347
▁pushup	-11.1347
▁dury	-11.1347
▁haul	-11.1348
▁shrieks	-11.1349
▁dime	-11.1349
▁rlng	-11.1349
▁grieve	-11.1349
▁homicide	-11.1349
▁drunken	-11.135
▁portion	-11.1351
▁cricket	-11.1351
▁prices	-11.1351
▁christian	-11.1352
▁maiden	-11.1352
▁halftime	-11.1354
▁habe	-11.1357
check	-11.1357
▁encountered	-11.1359
▁swamp	-11.1359
▁hose	-11.1361
▁approved	-11.1362
▁bubble	-11.1363
▁breeding	-11.1367
▁punches	-11.1369
▁scale	-11.1371
▁cargo	-11.1373
▁photography	-11.1373
ught	-11.1373
▁jr	-11.1376
▁punished	-11.1376
▁the	-11.1378
▁achieved	-11.138
▁hitched	-11.138
▁shiny	-11.1382
▁perish	-11.1382
▁heroin	-11.1384
▁reasonable	-11.1384
▁booing	-11.1384
▁knuckles	-11.1385
▁sedatives	-11.1385
▁genes	-11.1385
nation	-11.1385
▁shitting	-11.1385
▁concerning	-11.1385
▁dresses	-11.1387
▁active	-11.1388
▁reverse	-11.1388
▁separated	-11.139
▁accus	-11.139
▁occur	-11.139
▁tender	-11.139
▁surf	-11.1391
▁recovered	-11.1393
▁insulted	-11.1393
▁homeland	-11.1395
▁placement	-11.1397
▁sod	-11.14
▁crushing	-11.1402
▁sinking	-11.1402
▁mainly	-11.1405
▁linked	-11.1406
▁sung	-11.1407
▁awe	-11.1408
ung	-11.1411
▁mortal	-11.142
▁rac	-11.142
▁mathematics	-11.1421
▁trolls	-11.1421
▁rented	-11.1421
▁shatters	-11.1421
▁tomahawks	-11.1421
▁rumors	-11.1422
▁sewers	-11.1426
▁publishers	-11.1428
▁gaining	-11.1428
▁printed	-11.1428
▁cocking	-11.1429
▁cheating	-11.143
▁kneel	-11.143
▁scheduled	-11.1432
▁settled	-11.1432
▁gotcha	-11.1435
▁treaty	-11.144
fyou	-11.1442
▁scaring	-11.1443
▁duel	-11.1446
▁shifting	-11.1447
▁blown	-11.1448
▁ideals	-11.145
arus	-11.1455
▁claiming	-11.1456
▁appeared	-11.1456
▁decades	-11.1459
▁spying	-11.1463
iers	-11.1467
▁poisoned	-11.1468
▁sweating	-11.1476
▁growls	-11.1476
▁tally	-11.1481
▁messy	-11.1482
sky	-11.1487
▁shortly	-11.1487
▁circus	-11.1493
sler	-11.1496
▁cannons	-11.1496
▁nail	-11.1503
free	-11.1509
▁ofyou	-11.151
▁smashing	-11.1515
▁poetic	-11.1518
▁col	-11.1519
▁contend	-11.1522
▁robe	-11.1529
lce	-11.1531
▁kilos	-11.1532
▁curtains	-11.1533
▁nerves	-11.1533
▁imper	-11.1535
ali	-11.1543
▁bal	-11.155
▁expectation	-11.1553
▁wee	-11.1555
▁rolls	-11.1557
▁sling	-11.1559
▁peek	-11.1561
▁tricked	-11.1561
▁gladly	-11.1563
▁vin	-11.157
▁kes	-11.157
▁genetics	-11.1571
▁poems	-11.1571
▁airplanes	-11.1571
▁colored	-11.1572
read	-11.1572
▁fla	-11.1576
▁ruining	-11.1578
▁invade	-11.1581
ack	-11.1585
▁wang	-11.1595
▁laz	-11.1607
▁briefed	-11.1607
▁methods	-11.1608
▁rogues	-11.1608
vanna	-11.1611
▁nago	-11.162
car	-11.1623
lrst	-11.1624
▁differently	-11.1624
▁amp	-11.1627
▁moans	-11.1641
▁county	-11.1642
▁directions	-11.1645
▁puzzles	-11.1646
▁marching	-11.1648
eye	-11.1649
tract	-11.165
▁authors	-11.1663
ane	-11.1678
▁fightin	-11.1684
▁objects	-11.1684
▁bothering	-11.1687
▁rep	-11.1694
▁askin	-11.1697
▁abs	-11.1703
▁spl	-11.171
▁needle	-11.1712
▁traitors	-11.1721
▁arrows	-11.1721
▁orphans	-11.1721
▁ranks	-11.1723
▁shares	-11.1724
▁lit	-11.1733
uru	-11.1737
▁verif	-11.1745
▁ropes	-11.1746
▁coins	-11.1759
▁valuables	-11.1759
▁demands	-11.1759
▁experts	-11.1759
▁channels	-11.1759
▁laughed	-11.1759
▁locker	-11.1764
▁containers	-11.177
▁atom	-11.1779
ological	-11.1786
▁bars	-11.1787
▁wondered	-11.1796
▁hay	-11.1801
▁laying	-11.1801
rad	-11.1804
▁qui	-11.1806
▁finds	-11.181
ak	-11.1828
▁myth	-11.183
▁ducks	-11.1835
▁das	-11.1836
▁feds	-11.1841
sup	-11.1855
▁frankly	-11.1858
▁att	-11.1858
▁cooperate	-11.1866
▁bidd	-11.187
▁trains	-11.1878
▁bats	-11.1879
▁snaps	-11.1883
▁deaths	-11.1886
inn	-11.1897
▁eli	-11.1899
rem	-11.191
▁flames	-11.1911
▁legends	-11.1911
▁secur	-11.1916
rles	-11.1928
balls	-11.1933
ker	-11.1947
▁shores	-11.1949
▁satellites	-11.195
fold	-11.1956
lk	-11.1963
cap	-11.1964
▁ce	-11.1967
▁ent	-11.197
add	-11.1972
▁chat	-11.1981
lm	-11.1985
▁chocolates	-11.1988
▁beasts	-11.1988
▁pulls	-11.1989
ttle	-11.2005
nge	-11.2006
▁knocks	-11.2011
▁revive	-11.2013
lde	-11.2018
bp	-11.2023
▁equals	-11.2025
cut	-11.2027
▁muscles	-11.2028
▁attempts	-11.2029
▁marsh	-11.2031
▁clan	-11.2034
▁workin	-11.2038
bra	-11.2041
▁ti	-11.2041
low	-11.2063
ways	-11.2063
▁workers	-11.2071
▁pla	-11.2091
tt	-11.2095
▁hog	-11.2108
mat	-11.2113
talk	-11.2121
▁swor	-11.2138
▁sentinels	-11.2142
▁winners	-11.2142
nine	-11.2155
▁blo	-11.2159
▁feared	-11.2188
▁kn	-11.2203
▁goggle	-11.2203
▁chairs	-11.222
uel	-11.2239
▁pur	-11.2239
tonic	-11.2239
▁fln	-11.2256
▁unite	-11.2258
▁uniforms	-11.2259
itation	-11.2262
▁decides	-11.2263
▁roc	-11.2264
lay	-11.2268
▁mer	-11.2281
position	-11.2295
▁votes	-11.2301
owl	-11.2305
anned	-11.2319
ook	-11.2339
▁ber	-11.2342
▁posts	-11.2374
▁clip	-11.2382
ison	-11.2398
▁normans	-11.2415
▁taps	-11.2417
till	-11.2424
▁barr	-11.2446
▁stir	-11.2481
▁believes	-11.2492
▁tongues	-11.2494
ront	-11.2515
▁lighting	-11.2522
▁ham	-11.2536
▁ci	-11.255
grade	-11.2563
fa	-11.2573
▁explosions	-11.2573
▁lion	-11.2585
▁translate	-11.2599
▁cleanse	-11.261
▁ties	-11.2624
fc	-11.2645
▁germans	-11.2656
stock	-11.2667
ept	-11.2669
▁stuffing	-11.2691
▁computers	-11.2732
▁weights	-11.2732
rose	-11.2736
etic	-11.2744
▁kay	-11.2748
hu	-11.2788
▁doe	-11.2793
▁stores	-11.2801
ates	-11.2805
▁suns	-11.2813
▁hl	-11.282
▁schools	-11.2825
esy	-11.2826
▁je	-11.2843
▁natha	-11.2847
▁carbon	-11.2851
▁bothers	-11.2885
nel	-11.2891
eak	-11.2896
omic	-11.2912
▁strikes	-11.2933
van	-11.2941
▁righthand	-11.2943
▁keeper	-11.2959
bone	-11.296
aries	-11.2964
▁holes	-11.2996
▁mend	-11.3006
▁aut	-11.3006
▁trips	-11.3019
uth	-11.3051
▁glori	-11.306
▁av	-11.306
sses	-11.3061
▁groups	-11.3063
▁audit	-11.3067
▁raw	-11.3071
▁falcon	-11.3073
▁sigh	-11.308
lster	-11.3085
▁halls	-11.3088
▁wav	-11.309
▁honk	-11.3091
tory	-11.3092
ani	-11.3092
test	-11.3093
zed	-11.3093
shes	-11.3101
▁custom	-11.3104
▁bake	-11.3106
bag	-11.3107
▁assassin	-11.312
ari	-11.3123
▁cannon	-11.3127
▁circu	-11.3129
▁thumb	-11.3129
▁customer	-11.3132
▁product	-11.3133
▁resident	-11.3136
▁pirate	-11.3137
▁glove	-11.314
▁clarif	-11.3141
▁cookie	-11.3151
▁boil	-11.3152
▁foe	-11.3153
yo	-11.3158
▁legion	-11.3159
▁tis	-11.3163
▁emotion	-11.3164
▁fianc	-11.3165
▁guessing	-11.3171
▁rout	-11.3179
▁beds	-11.3183
▁thlng	-11.3186
▁are	-11.3187
lage	-11.3205
▁historic	-11.3213
▁ranchos	-11.3217
nnie	-11.3219
▁here	-11.322
▁detr	-11.3236
foo	-11.3238
▁prob	-11.3243
look	-11.3256
▁introduc	-11.3256
ward	-11.3258
oke	-11.3262
ool	-11.3263
▁plac	-11.327
havin	-11.3271
▁detect	-11.3272
▁confus	-11.3273
▁slack	-11.3279
▁cor	-11.328
▁valkyr	-11.328
▁tick	-11.3282
know	-11.3287
▁anyth	-11.3287
▁tuck	-11.3288
craft	-11.3289
▁encounter	-11.3291
▁disappoint	-11.3291
mail	-11.3292
▁bab	-11.3294
planned	-11.3294
bound	-11.3294
chuckles	-11.3295
▁whoosh	-11.3295
smith	-11.3295
program	-11.3295
nln	-11.3295
dead	-11.3296
seven	-11.3296
level	-11.3298
kind	-11.3299
shot	-11.3299
poor	-11.3301
▁atten	-11.3302
pants	-11.3302
▁torture	-11.3303
mach	-11.3303
▁rod	-11.3303
▁refuge	-11.3306
band	-11.3308
due	-11.3309
▁greed	-11.331
soon	-11.331
▁bunk	-11.3311
▁nud	-11.3313
▁technical	-11.3314
▁tub	-11.3314
▁rapid	-11.3314
▁tob	-11.3315
▁energ	-11.3315
▁literal	-11.3316
ready	-11.3317
▁convict	-11.3317
nched	-11.3317
▁sham	-11.3317
jama	-11.3318
▁labor	-11.3319
▁micr	-11.3319
▁lndia	-11.332
▁scoot	-11.332
▁governess	-11.332
▁joel	-11.332
▁fiction	-11.3321
▁rog	-11.3322
▁chant	-11.3323
▁trench	-11.3324
ternal	-11.3324
▁industr	-11.3324
▁employ	-11.3325
▁disable	-11.3325
▁alcohol	-11.3325
▁lovin	-11.3326
verything	-11.3326
▁zoo	-11.3327
▁republic	-11.3327
▁reset	-11.3327
▁marvel	-11.3327
▁detach	-11.3328
▁flaw	-11.3328
▁discriminat	-11.3328
▁engrav	-11.3328
▁sketch	-11.3328
artolomeo	-11.3328
dadadatda	-11.3328
▁abroad	-11.3328
▁antidote	-11.3328
▁antoinett	-11.3328
▁asano	-11.3328
▁avalanche	-11.3328
▁barbosa	-11.3328
▁bascomb	-11.3328
▁basejumping	-11.3328
▁behaviour	-11.3328
▁benedict	-11.3328
▁bollocks	-11.3328
▁broomhilde	-11.3328
▁buffet	-11.3328
▁bureau	-11.3328
▁bypass	-11.3328
▁cadillac	-11.3328
▁chaplain	-11.3328
▁chernobyl	-11.3328
▁clatters	-11.3328
▁coconut	-11.3328
▁codename	-11.3328
▁coexist	-11.3328
▁competitive	-11.3328
▁concrete	-11.3328
▁confound	-11.3328
▁connecticut	-11.3328
▁correspond	-11.3328
▁daladier	-11.3328
▁darcy	-11.3328
▁database	-11.3328
▁deactivate	-11.3328
▁december	-11.3328
▁delusional	-11.3328
▁democracy	-11.3328
▁despair	-11.3328
▁disguise	-11.3328
▁dobkin	-11.3328
▁dowry	-11.3328
▁efficient	-11.3328
▁electrocuted	-11.3328
▁epps	-11.3328
▁excellency	-11.3328
▁exploration	-11.3328
▁finler	-11.3328
▁floyd	-11.3328
▁foxtrot	-11.3328
▁fragile	-11.3328
▁frankfurt	-11.3328
▁furniture	-11.3328
▁glamour	-11.3328
▁greece	-11.3328
▁gronk	-11.3328
▁headquarters	-11.3328
▁inspiration	-11.3328
▁intimidate	-11.3328
▁jogging	-11.3328
▁julep	-11.3328
▁karapetyan	-11.3328
▁lennox	-11.3328
▁lobby	-11.3328
▁loomis	-11.3328
▁loscudo	-11.3328
▁lupino	-11.3328
▁luxury	-11.3328
▁madonna	-11.3328
▁magnitude	-11.3328
▁margarita	-11.3328
▁merrily	-11.3328
▁militia	-11.3328
▁millimeter	-11.3328
▁mobilise	-11.3328
▁mutual	-11.3328
▁mystique	-11.3328
▁nevada	-11.3328
▁nobility	-11.3328
▁notify	-11.3328
▁nxt	-11.3328
▁october	-11.3328
▁oerstadt	-11.3328
▁oklahoma	-11.3328
▁opportunities	-11.3328
▁participat	-11.3328
▁penthouse	-11.3328
▁poverty	-11.3328
▁prescription	-11.3328
▁preserve	-11.3328
▁pupil	-11.3328
▁raccoon	-11.3328
▁raymond	-11.3328
▁recalibrating	-11.3328
▁recognise	-11.3328
▁regroup	-11.3328
▁rehearse	-11.3328
▁reliable	-11.3328
▁removal	-11.3328
▁rifemen	-11.3328
▁rupert	-11.3328
▁savior	-11.3328
▁scissors	-11.3328
▁splendid	-11.3328
▁strategy	-11.3328
▁struggling	-11.3328
▁summary	-11.3328
▁suspended	-11.3328
▁theft	-11.3328
▁therefore	-11.3328
▁tigranes	-11.3328
▁topgun	-11.3328
▁treason	-11.3328
▁trident	-11.3328
▁undercarriage	-11.3328
▁upstate	-11.3328
▁urban	-11.3328
▁urineexpulsion	-11.3328
▁vigilant	-11.3328
▁vogue	-11.3328
▁walburn	-11.3328
▁wardrobe	-11.3328
▁wheezing	-11.3328
▁wrench	-11.3328
▁xianniang	-11.3328
sneeze	-11.3328
▁bruun	-11.3328
▁butterfly	-11.3328
▁captive	-11.3328
▁chemo	-11.3328
▁creaks	-11.3328
▁deceit	-11.3328
▁duchess	-11.3328
▁ethel	-11.3328
▁gesture	-11.3328
▁kidnapping	-11.3328
▁latrine	-11.3328
▁mueller	-11.3328
▁oleg	-11.3328
▁omelet	-11.3328
▁prodig	-11.3328
▁scribbl	-11.3328
▁sober	-11.3328
▁sustain	-11.3328
▁vomit	-11.3328
▁zulu	-11.3328
▁abilities	-11.3328
▁anita	-11.3328
▁cease	-11.3328
▁eager	-11.3328
▁headache	-11.3328
▁jury	-11.3328
▁noisy	-11.3328
▁plastic	-11.3328
▁roam	-11.3328
▁tanzania	-11.3328
▁warehouse	-11.3328
▁consumer	-11.3328
▁oui	-11.3328
▁pandem	-11.3328
▁stephen	-11.3328
▁goblin	-11.3328
▁linney	-11.3328
▁austria	-11.3328
▁decoy	-11.3328
▁embedd	-11.3328
▁lulu	-11.3328
▁nevernever	-11.3328
▁rouge	-11.3328
▁utter	-11.3328
▁lyons	-11.3328
▁revolt	-11.3328
▁sabena	-11.3328
▁torres	-11.3328
▁twitch	-11.3328
▁rubber	-11.3328
▁schmuck	-11.3328
▁turtle	-11.3328
▁chiming	-11.3328
▁absurd	-11.3328
▁bliss	-11.3328
▁proportions	-11.3328
▁confidence	-11.3328
▁distinguished	-11.3328
▁hydrogen	-11.3328
▁affirmative	-11.3328
▁durbatul	-11.3328
▁mearing	-11.3328
▁stewardess	-11.3328
▁turkey	-11.3328
▁bankrupt	-11.3328
ague	-11.3328
▁finchberg	-11.3328
▁fritz	-11.3328
▁kiilln	-11.3328
▁quinn	-11.3328
▁reconstruct	-11.3328
▁douglas	-11.3328
▁jody	-11.3328
▁manifest	-11.3328
▁warren	-11.3328
▁clinic	-11.3328
▁cnn	-11.3328
▁spicy	-11.3328
osphere	-11.3328
▁downhill	-11.3328
▁owned	-11.3328
▁snickers	-11.3328
▁summit	-11.3328
▁untll	-11.3328
uveni	-11.3328
▁aguado	-11.3328
▁authorities	-11.3328
▁context	-11.3328
▁kevin	-11.3328
▁nobel	-11.3328
▁biology	-11.3328
▁shanti	-11.3328
▁dictator	-11.3328
▁basis	-11.3328
▁ronnie	-11.3328
▁sweatshop	-11.3328
▁robbed	-11.3328
▁trills	-11.3328
▁vesuvius	-11.3328
▁goofy	-11.3328
▁mentor	-11.3328
▁loeb	-11.3328
▁ambush	-11.3328
▁charr	-11.3328
▁olympic	-11.3329
▁boogie	-11.3329
▁laptop	-11.3329
▁josephine	-11.3329
▁bllnd	-11.3329
▁nerd	-11.3329
ovich	-11.3329
▁holiness	-11.3329
▁delightful	-11.3329
▁mellow	-11.3329
▁nancy	-11.3329
▁rcs	-11.3329
▁tawes	-11.3329
▁outcome	-11.3329
▁outstanding	-11.3329
▁riley	-11.3329
▁meltdown	-11.3329
▁theatrical	-11.3329
▁injuries	-11.3329
▁levant	-11.3329
▁exotic	-11.3329
▁fraction	-11.3329
▁maria	-11.3329
▁tranquility	-11.3329
▁spike	-11.3329
raham	-11.3329
▁dining	-11.3329
▁luke	-11.3329
▁disturbance	-11.3329
▁parlor	-11.3329
lect	-11.3329
▁prix	-11.3329
▁addict	-11.3329
▁nelson	-11.3329
▁steep	-11.3329
▁battlefield	-11.3329
▁lobo	-11.3329
▁retail	-11.3329
▁internet	-11.3329
▁squash	-11.3329
▁income	-11.3329
sota	-11.3329
▁veil	-11.3329
▁consent	-11.333
▁litter	-11.333
▁merciless	-11.333
▁tryouts	-11.333
▁dyne	-11.333
▁cupboard	-11.333
▁wreckage	-11.333
▁elder	-11.333
▁steak	-11.333
▁analysis	-11.333
▁establishment	-11.333
▁acid	-11.333
▁dodge	-11.333
▁gangster	-11.333
▁irish	-11.333
▁pavel	-11.333
▁andre	-11.333
▁performance	-11.333
▁armbar	-11.333
▁aspirin	-11.333
▁fesh	-11.333
▁halloween	-11.333
▁wong	-11.333
▁association	-11.3331
▁mithr	-11.3331
▁zap	-11.3331
▁sharon	-11.3331
▁retirement	-11.3331
▁strapon	-11.3331
▁ashland	-11.3331
▁extin	-11.3331
▁operating	-11.3331
▁bodyguard	-11.3331
▁icu	-11.3331
▁whirs	-11.3331
▁liftoff	-11.3331
▁shred	-11.3331
▁carmine	-11.3331
▁legendary	-11.3331
▁ogie	-11.3331
▁replicate	-11.3331
▁kinu	-11.3331
▁grima	-11.3331
▁oof	-11.3331
utton	-11.3331
▁junkie	-11.3331
▁tango	-11.3332
▁zoom	-11.3332
▁maze	-11.3332
▁sinner	-11.3332
▁fume	-11.3332
▁relay	-11.3332
▁handshake	-11.3332
▁hatchet	-11.3332
▁anderson	-11.3332
▁leadership	-11.3332
▁condom	-11.3332
▁soil	-11.3332
▁jock	-11.3332
▁dynamics	-11.3333
▁gugu	-11.3333
▁newsstand	-11.3333
▁villain	-11.3333
tache	-11.3333
▁seventeen	-11.3333
▁crucified	-11.3333
▁unload	-11.3333
▁brag	-11.3333
▁homo	-11.3333
▁jamie	-11.3333
▁confusion	-11.3333
▁landlord	-11.3333
▁skinny	-11.3333
amental	-11.3333
▁ditch	-11.3334
▁gutter	-11.3334
▁hull	-11.3334
▁marshall	-11.3334
▁flass	-11.3334
▁twee	-11.3334
▁contamination	-11.3334
▁grandson	-11.3334
▁oat	-11.3334
▁dumbass	-11.3334
▁fantasy	-11.3334
▁temporary	-11.3334
▁superpower	-11.3335
▁drool	-11.3335
▁kickoff	-11.3335
▁colli	-11.3335
▁slot	-11.3335
▁render	-11.3335
▁reich	-11.3335
▁calum	-11.3335
▁puppet	-11.3336
▁replacement	-11.3336
▁daring	-11.3336
uva	-11.3336
▁quitting	-11.3336
▁percentage	-11.3336
▁taint	-11.3336
▁lndian	-11.3337
▁finch	-11.3337
▁combined	-11.3337
▁milli	-11.3337
▁posh	-11.3337
▁reign	-11.3337
▁havo	-11.3337
▁kitty	-11.3337
▁environmental	-11.3337
▁sunny	-11.3338
▁dwell	-11.3338
hut	-11.3338
▁faden	-11.3338
▁translation	-11.3338
meal	-11.3338
▁revelation	-11.3338
▁spotting	-11.3339
▁therapy	-11.3339
▁foods	-11.3339
▁chunky	-11.3339
▁adamant	-11.3339
▁dj	-11.3339
▁dung	-11.334
▁alongside	-11.334
▁airlock	-11.334
▁development	-11.334
▁practicing	-11.334
▁simmons	-11.334
▁leeds	-11.334
▁micro	-11.3341
▁occasionally	-11.3341
▁courageous	-11.3341
▁tel	-11.3341
▁initiated	-11.3341
▁luce	-11.3341
▁laur	-11.3341
▁ascend	-11.3341
▁countryside	-11.3342
▁alum	-11.3342
▁turnip	-11.3342
▁jamm	-11.3342
▁cj	-11.3342
▁trio	-11.3342
▁opposed	-11.3342
▁underestimated	-11.3342
▁runner	-11.3343
ached	-11.3343
▁cere	-11.3343
▁pond	-11.3343
▁expression	-11.3343
▁investor	-11.3344
▁carries	-11.3344
▁bravery	-11.3344
▁surgeon	-11.3344
▁stu	-11.3345
▁dine	-11.3345
▁alan	-11.3346
▁vol	-11.3346
▁ignoring	-11.3346
▁sneakers	-11.3346
▁stripper	-11.3347
▁mice	-11.3347
▁ouch	-11.3347
▁latin	-11.3347
▁anton	-11.3347
▁neutralize	-11.3347
▁isi	-11.3347
▁improved	-11.3347
▁rental	-11.3348
▁tele	-11.3348
▁rwandan	-11.3348
dog	-11.3348
▁erin	-11.3348
▁dried	-11.3349
▁reck	-11.3349
▁dyer	-11.3349
▁suggestion	-11.335
▁realizing	-11.3351
▁tray	-11.3351
heel	-11.3351
▁outrun	-11.3351
▁valley	-11.3352
▁tipped	-11.3352
▁vine	-11.3352
▁heroic	-11.3352
▁losin	-11.3352
▁lsnt	-11.3353
▁hong	-11.3353
▁accurate	-11.3354
▁tortured	-11.3354
▁neighbours	-11.3354
▁suppress	-11.3354
▁gig	-11.3354
strial	-11.3354
owing	-11.3354
itor	-11.3355
▁sunk	-11.3355
▁tout	-11.3355
▁everyday	-11.3355
▁soda	-11.3356
▁flown	-11.3357
▁clay	-11.3358
▁registered	-11.3358
crack	-11.3358
▁collector	-11.3358
▁frightening	-11.3359
▁wither	-11.3359
▁faintly	-11.3359
▁unlikely	-11.3359
▁forgetting	-11.336
▁constantly	-11.3362
▁tighten	-11.3363
▁nuke	-11.3364
▁hiya	-11.3365
▁located	-11.3365
▁apes	-11.3366
▁parttime	-11.3366
▁sway	-11.3366
ewer	-11.3367
ky	-11.3368
▁fade	-11.3369
▁pun	-11.3369
▁encouraged	-11.3369
▁pronounced	-11.337
▁cord	-11.3371
▁hom	-11.3371
▁han	-11.3371
▁dur	-11.3372
▁tenth	-11.3372
▁haste	-11.3373
▁sets	-11.3373
▁pam	-11.3374
▁haunted	-11.3375
▁slaughtered	-11.3375
▁hangar	-11.3375
▁rul	-11.3376
▁carine	-11.3376
▁parish	-11.3377
▁booty	-11.3377
▁mustard	-11.3378
▁cooperation	-11.3378
▁psycholog	-11.3378
aron	-11.338
▁wllly	-11.338
▁justif	-11.3383
▁adopted	-11.3383
▁baron	-11.3383
▁superman	-11.3385
▁blackness	-11.3387
▁mocking	-11.3387
▁fork	-11.3389
▁knott	-11.339
▁whack	-11.339
precedent	-11.339
order	-11.3391
▁grasp	-11.3392
▁goodlooking	-11.3393
▁roe	-11.3395
▁descending	-11.3398
▁gramps	-11.3398
▁candidates	-11.3398
▁scanners	-11.3398
▁stumbles	-11.3399
▁helena	-11.3399
▁increased	-11.34
▁rewarded	-11.34
▁buses	-11.34
▁tomb	-11.3401
▁salty	-11.3402
▁grove	-11.3403
▁formerly	-11.3405
hill	-11.3406
▁cried	-11.3408
▁cleverly	-11.3408
▁vent	-11.3408
▁bargaining	-11.3409
▁drowned	-11.3409
▁awfully	-11.3409
▁okra	-11.341
gon	-11.3411
▁your	-11.3413
▁affected	-11.3413
▁possessed	-11.3414
urs	-11.3415
▁weaken	-11.3415
▁willingly	-11.3415
▁convinced	-11.3416
▁sneaky	-11.3418
▁lend	-11.3422
▁sym	-11.3423
rubbing	-11.3425
▁spite	-11.3427
laborator	-11.3427
▁desired	-11.3429
▁sonar	-11.3431
▁insulting	-11.3431
▁cling	-11.3433
▁sole	-11.3437
▁riot	-11.3437
▁correctly	-11.3439
▁shitheads	-11.3444
▁dragonslayers	-11.3444
▁expenses	-11.3444
▁historical	-11.3445
▁gale	-11.3446
▁trailer	-11.3449
lence	-11.345
▁seth	-11.3451
▁practiced	-11.3452
▁texting	-11.3452
▁carter	-11.3455
▁shipment	-11.3455
▁breed	-11.3458
▁moo	-11.3462
ore	-11.3463
▁gin	-11.3465
▁contained	-11.3468
▁hooked	-11.3471
▁filed	-11.3472
▁recognized	-11.348
▁dumped	-11.3485
▁funding	-11.3485
▁candles	-11.3487
▁scams	-11.3489
ntul	-11.3489
▁athletes	-11.349
▁neighs	-11.349
▁pearls	-11.349
▁previsions	-11.349
▁prototypes	-11.349
▁cigars	-11.349
▁thugs	-11.3491
mother	-11.3492
ition	-11.3494
▁evacuat	-11.3497
▁passes	-11.35
▁deserved	-11.35
▁meter	-11.35
berg	-11.3503
▁vivi	-11.3503
▁mall	-11.3504
▁peck	-11.3506
▁sportscast	-11.3507
▁seeds	-11.3518
▁dating	-11.3519
▁spared	-11.352
ndi	-11.3524
▁experienced	-11.3527
war	-11.3529
▁slipp	-11.3529
▁wail	-11.3532
▁assassinat	-11.3533
▁fairly	-11.3534
▁scratched	-11.3536
▁customs	-11.3537
▁healed	-11.3538
▁falcons	-11.3538
▁copa	-11.354
bed	-11.3541
▁peed	-11.3541
▁carve	-11.3549
▁proceeding	-11.3551
▁foes	-11.3551
ler	-11.3552
▁mute	-11.3562
ologist	-11.3562
▁defeated	-11.3565
▁defended	-11.3576
▁pigeons	-11.3583
▁jews	-11.3583
▁toys	-11.3585
▁helpful	-11.3587
▁fasten	-11.3593
▁span	-11.3594
▁cit	-11.3596
▁sum	-11.3597
▁colder	-11.3602
▁proved	-11.3603
▁wr	-11.3605
▁happenin	-11.3606
▁skipp	-11.3606
rick	-11.3616
▁charged	-11.3619
▁cashed	-11.3623
▁classy	-11.3625
▁promot	-11.3627
tz	-11.3627
▁wrists	-11.363
▁appreciated	-11.3631
▁mags	-11.3631
▁sails	-11.3633
▁intentions	-11.3634
▁assets	-11.3639
ification	-11.3649
▁lone	-11.3651
ummy	-11.3656
▁shorts	-11.3658
▁fur	-11.3659
▁whys	-11.3674
▁fugitives	-11.3677
▁marines	-11.3677
▁rely	-11.3677
▁clam	-11.3678
▁gio	-11.3679
▁vic	-11.3684
▁slay	-11.3701
▁spelling	-11.3705
▁correction	-11.371
anna	-11.3711
▁kicks	-11.3715
▁musical	-11.3718
brah	-11.3719
han	-11.3736
sits	-11.3738
thorn	-11.3738
▁sen	-11.3748
▁bombing	-11.3759
▁generations	-11.3771
▁communications	-11.3771
▁explains	-11.3775
▁pip	-11.3791
are	-11.3799
ities	-11.3802
▁hesitates	-11.3814
▁creeps	-11.3818
▁scores	-11.3818
▁effects	-11.3818
▁tugs	-11.3819
▁shouts	-11.382
▁courts	-11.3826
▁messing	-11.3829
▁ob	-11.3829
▁farmers	-11.3832
▁lick	-11.3855
▁ac	-11.3858
▁reference	-11.3859
▁bangs	-11.3863
▁bikes	-11.3868
▁explained	-11.3872
mann	-11.3874
▁watches	-11.3879
▁sle	-11.3883
▁shei	-11.3895
▁sleepy	-11.3907
was	-11.3909
▁oceans	-11.3913
cal	-11.3923
▁ramp	-11.3925
clap	-11.3937
aka	-11.3941
▁forge	-11.3942
▁cou	-11.3948
▁edit	-11.395
▁amounts	-11.3961
▁holidays	-11.3961
▁shifts	-11.3963
▁calculat	-11.3965
▁tales	-11.3971
▁skys	-11.3974
▁temp	-11.3976
▁toes	-11.3982
fully	-11.399
lene	-11.3999
his	-11.4006
▁sk	-11.4008
▁pu	-11.4011
▁marking	-11.4012
▁deed	-11.4018
▁explaining	-11.402
▁rates	-11.4035
▁bugg	-11.4037
▁closets	-11.4038
tted	-11.4039
▁farts	-11.4044
▁guardians	-11.4056
▁clues	-11.4061
▁chains	-11.4073
ye	-11.4073
▁losers	-11.4075
▁reporting	-11.4101
▁demons	-11.4105
▁investigate	-11.4118
▁crowded	-11.4124
▁needles	-11.4127
▁cures	-11.4135
▁ke	-11.4137
▁settings	-11.4153
▁lances	-11.4153
dest	-11.4165
rake	-11.4166
▁greas	-11.418
▁checkie	-11.4183
nfl	-11.4186
▁booked	-11.4188
▁brun	-11.419
▁operations	-11.4202
ellen	-11.4206
▁rangers	-11.4207
▁sull	-11.4223
▁rect	-11.4225
▁sin	-11.4235
oit	-11.4258
▁gil	-11.4266
lves	-11.427
▁ages	-11.4287
▁conditions	-11.4292
▁waves	-11.4293
▁tl	-11.4297
▁wo	-11.43
lands	-11.4325
rain	-11.4334
inner	-11.4339
▁tips	-11.4347
▁shipp	-11.4363
oulet	-11.4368
▁env	-11.4371
▁challenges	-11.4383
hote	-11.4385
▁rust	-11.439
▁answered	-11.4393
▁pockets	-11.4396
erous	-11.4417
vel	-11.442
ugg	-11.4426
uck	-11.4443
▁enters	-11.4457
ko	-11.4457
rigging	-11.4457
▁conv	-11.4471
▁slowing	-11.448
spel	-11.4483
▁sal	-11.4499
eb	-11.4519
uh	-11.4521
▁views	-11.4535
▁magical	-11.4546
fall	-11.4562
kh	-11.4591
▁plat	-11.4592
▁girlfriends	-11.4593
▁towers	-11.4599
▁jer	-11.4606
▁whit	-11.4614
▁sca	-11.4631
tty	-11.464
▁dishonour	-11.4663
▁coo	-11.4668
▁deposit	-11.4682
si	-11.4687
▁bel	-11.469
▁plains	-11.469
verge	-11.4696
enance	-11.4699
wei	-11.4708
fk	-11.4713
▁fra	-11.4728
cre	-11.4738
▁strap	-11.4761
▁destroyer	-11.4769
eous	-11.477
▁growl	-11.477
▁bin	-11.477
▁maker	-11.4792
▁nicely	-11.4797
▁stor	-11.4829
▁rl	-11.4833
guided	-11.4859
▁appointments	-11.4892
▁treats	-11.4901
▁tw	-11.4929
▁cups	-11.4937
nder	-11.4945
▁cra	-11.4964
▁tatt	-11.4983
▁stitch	-11.501
formed	-11.5032
hai	-11.5041
solved	-11.5045
▁qu	-11.5058
evo	-11.5069
lot	-11.5069
▁defi	-11.5084
pped	-11.5087
▁screws	-11.5097
▁sacrifices	-11.5101
moi	-11.5106
post	-11.5111
hold	-11.5141
ional	-11.5142
illes	-11.5175
▁swa	-11.518
▁scalp	-11.5181
▁squ	-11.5206
master	-11.5216
▁sheriffs	-11.5247
▁angelas	-11.5253
▁flr	-11.5268
▁ignoran	-11.5273
▁ale	-11.5291
▁doln	-11.5304
▁pose	-11.5321
imb	-11.5348
▁pipe	-11.535
▁propos	-11.5354
pic	-11.5361
rrow	-11.5375
▁unl	-11.5381
▁projects	-11.5386
ata	-11.5388
▁choos	-11.5411
tore	-11.543
lynn	-11.5437
▁pac	-11.5444
lified	-11.5457
ookie	-11.5458
▁mcc	-11.547
▁maniac	-11.5475
tender	-11.548
hanger	-11.548
stance	-11.548
escent	-11.5481
llen	-11.5492
▁jama	-11.5495
pie	-11.55
ished	-11.5511
▁promo	-11.5526
▁refer	-11.5553
aby	-11.5554
▁ze	-11.5572
▁fri	-11.5577
▁ideal	-11.5584
▁exclaim	-11.5595
▁thinkin	-11.5606
▁stamp	-11.5613
▁arc	-11.5614
called	-11.5614
▁chick	-11.5617
▁beacon	-11.5618
▁root	-11.5622
▁cigar	-11.5623
▁prevision	-11.5624
▁prototype	-11.5624
▁neigh	-11.5624
▁pearl	-11.5626
▁decade	-11.5627
▁candle	-11.5628
lsh	-11.5628
▁maggot	-11.563
▁allerg	-11.5631
▁stammer	-11.5633
▁enterprise	-11.5635
▁survivor	-11.5636
▁thug	-11.5636
▁sheet	-11.5638
▁decepticon	-11.5639
▁brake	-11.5639
▁athlete	-11.564
▁exhale	-11.564
▁plea	-11.5642
▁hobb	-11.5642
▁refugee	-11.565
▁term	-11.5652
▁ol	-11.5653
arms	-11.5653
▁fran	-11.5656
fer	-11.5671
▁this	-11.5676
cond	-11.5681
olo	-11.5703
hand	-11.571
▁mul	-11.5716
this	-11.5725
▁jon	-11.5725
elton	-11.5728
icini	-11.5732
wal	-11.5735
▁critic	-11.5738
▁distract	-11.5739
▁illustr	-11.5743
▁embarrass	-11.5745
racks	-11.5748
▁ration	-11.575
▁instruct	-11.5752
umbling	-11.5752
east	-11.5753
▁vapor	-11.5757
▁announc	-11.5764
ppy	-11.5764
▁luc	-11.5772
work	-11.5775
▁exploit	-11.5776
▁discover	-11.5776
ltlon	-11.5779
field	-11.5781
▁squeal	-11.5782
▁squeak	-11.5783
ridge	-11.5784
▁applaud	-11.5784
load	-11.5784
school	-11.5784
▁forc	-11.5785
break	-11.5786
▁download	-11.5787
▁roar	-11.5789
▁register	-11.579
guard	-11.579
nla	-11.5792
hawk	-11.5793
▁vain	-11.5793
glen	-11.5793
claim	-11.5793
sexual	-11.5794
phony	-11.5794
folk	-11.5794
nasty	-11.5795
grateful	-11.5795
▁clank	-11.5795
trish	-11.5795
bird	-11.5795
josh	-11.5795
review	-11.5795
blood	-11.5796
people	-11.5796
shore	-11.5796
regular	-11.5796
▁rational	-11.5796
▁angl	-11.5797
watch	-11.5797
year	-11.5797
shire	-11.5798
cake	-11.5799
boat	-11.5799
game	-11.5799
bank	-11.58
word	-11.58
person	-11.58
bush	-11.58
shop	-11.5801
three	-11.5801
cover	-11.5801
▁neutral	-11.5801
▁retrieve	-11.5802
▁rupture	-11.5802
okay	-11.5802
▁collapse	-11.5803
▁steve	-11.5804
retching	-11.5804
▁expose	-11.5804
▁organize	-11.5804
▁locate	-11.5805
▁dedicate	-11.5807
crowd	-11.5807
fish	-11.5807
▁crate	-11.5807
hour	-11.5808
coat	-11.5809
▁seize	-11.581
▁filth	-11.581
iness	-11.5811
▁necessar	-11.5811
tech	-11.5812
▁gran	-11.5812
▁modest	-11.5812
▁blg	-11.5813
▁franc	-11.5814
▁suspens	-11.5814
ois	-11.5814
▁squeez	-11.5814
phone	-11.5814
▁nurs	-11.5814
▁interpret	-11.5815
▁corrupt	-11.5817
eight	-11.5818
▁samoa	-11.5818
▁brenna	-11.5819
▁practical	-11.582
▁cockroach	-11.5821
▁corporat	-11.5822
agger	-11.5822
elimina	-11.5823
▁scoo	-11.5823
▁fulfil	-11.5824
cotton	-11.5825
▁frustrat	-11.5825
▁winnin	-11.5825
▁changin	-11.5825
▁deutsch	-11.5825
▁abort	-11.5825
▁reflect	-11.5825
▁revel	-11.5825
▁parad	-11.5826
▁logic	-11.5827
▁crus	-11.5827
pound	-11.5827
▁joseph	-11.5827
▁kidnap	-11.5827
▁enforce	-11.5827
▁presum	-11.5828
batul	-11.5828
distinguish	-11.5828
▁steward	-11.5828
▁amerlc	-11.5828
▁decompress	-11.5828
▁miraculous	-11.5828
daiahd	-11.5828
▁acoustic	-11.5828
▁activities	-11.5828
▁administrator	-11.5828
▁advertis	-11.5828
▁ahuja	-11.5828
▁alligator	-11.5828
▁amendola	-11.5828
▁ammunition	-11.5828
▁antarctica	-11.5828
▁antichrist	-11.5828
▁anyhow	-11.5828
▁argentin	-11.5828
▁argument	-11.5828
▁arizona	-11.5828
▁astonish	-11.5828
▁attaboy	-11.5828
▁attachment	-11.5828
▁autopsy	-11.5828
▁becareful	-11.5828
▁bikini	-11.5828
▁birmingham	-11.5828
▁bizimungu	-11.5828
▁bravura	-11.5828
▁brutal	-11.5828
▁butterflies	-11.5828
▁buttress	-11.5828
▁cadogan	-11.5828
▁calories	-11.5828
▁canopy	-11.5828
▁caproni	-11.5828
▁caradhras	-11.5828
▁catapult	-11.5828
▁cautious	-11.5828
▁chandelier	-11.5828
▁chlldren	-11.5828
▁chrissie	-11.5828
▁chump	-11.5828
▁columbia	-11.5828
▁condemn	-11.5828
▁confront	-11.5828
▁conjurer	-11.5828
▁contusion	-11.5828
▁copilot	-11.5828
▁coworker	-11.5828
▁creativity	-11.5828
▁cripple	-11.5828
▁croissant	-11.5828
▁czechoslovakia	-11.5828
▁delusions	-11.5828
▁description	-11.5828
▁dessert	-11.5828
▁diablo	-11.5828
▁dilemma	-11.5828
▁dishonest	-11.5828
▁edoras	-11.5828
▁eduardo	-11.5828
▁elvish	-11.5828
▁emmett	-11.5828
▁enmebaragesi	-11.5828
▁eothain	-11.5828
▁epidemic	-11.5828
▁epiglottis	-11.5828
▁estimate	-11.5828
▁excellence	-11.5828
▁excitement	-11.5828
▁famished	-11.5828
▁fanfare	-11.5828
▁ferruccio	-11.5828
▁fitzgerald	-11.5828
▁florence	-11.5828
▁frampton	-11.5828
▁gamble	-11.5828
▁gamgee	-11.5828
▁genghis	-11.5828
▁giminski	-11.5828
▁governing	-11.5828
▁grandkids	-11.5828
▁grifts	-11.5828
▁hallelujah	-11.5828
▁handwriting	-11.5828
▁happier	-11.5828
▁happily	-11.5828
▁harlem	-11.5828
▁hebrews	-11.5828
▁heirloom	-11.5828
▁hisham	-11.5828
▁honeymoon	-11.5828
▁hopclop	-11.5828
▁horikoshi	-11.5828
▁houdini	-11.5828
▁hydraulic	-11.5828
▁infection	-11.5828
▁inflict	-11.5828
▁insolence	-11.5828
▁inspection	-11.5828
▁invalid	-11.5828
▁isaac	-11.5828
▁jackpot	-11.5828
▁jordan	-11.5828
▁jujitsu	-11.5828
▁jurisdiction	-11.5828
▁khamel	-11.5828
▁kigali	-11.5828
▁kindergarten	-11.5828
▁koolaid	-11.5828
▁koppel	-11.5828
▁kuraman	-11.5828
▁landscape	-11.5828
▁ldiot	-11.5828
▁liquor	-11.5828
▁lucille	-11.5828
▁ludwig	-11.5828
▁lyrics	-11.5828
▁margaret	-11.5828
▁maurice	-11.5828
▁mcguckian	-11.5828
▁mellark	-11.5828
▁metapontum	-11.5828
▁mexico	-11.5828
▁michelangelo	-11.5828
▁michigan	-11.5828
▁mikado	-11.5828
▁minstrel	-11.5828
▁mononoke	-11.5828
▁monument	-11.5828
▁morphine	-11.5828
▁newlywed	-11.5828
▁nineteen	-11.5828
▁nobrainer	-11.5828
▁norwegian	-11.5828
▁nowadays	-11.5828
▁oasis	-11.5828
▁obtain	-11.5828
▁octavius	-11.5828
▁okeydoke	-11.5828
▁orefice	-11.5828
▁osgiliath	-11.5828
▁pancaked	-11.5828
▁paragraph	-11.5828
▁pardner	-11.5828
▁perimeter	-11.5828
▁perjur	-11.5828
▁picasso	-11.5828
▁pisceshite	-11.5828
▁postcard	-11.5828
▁primitive	-11.5828
▁propaganda	-11.5828
▁prostate	-11.5828
▁ravishing	-11.5828
▁relentless	-11.5828
▁relief	-11.5828
▁resigned	-11.5828
▁retiring	-11.5828
▁richmond	-11.5828
▁rosalie	-11.5828
▁rusticated	-11.5828
▁rutaganda	-11.5828
▁saxophone	-11.5828
▁scenario	-11.5828
▁scorn	-11.5828
▁sedgewick	-11.5828
▁september	-11.5828
▁shuddering	-11.5828
▁sltuatlon	-11.5828
▁snatch	-11.5828
▁sovereign	-11.5828
▁spandex	-11.5828
▁speclal	-11.5828
▁specs	-11.5828
▁spectacle	-11.5828
▁straddle	-11.5828
▁stutter	-11.5828
▁sudetenland	-11.5828
▁suffocate	-11.5828
▁sumbitch	-11.5828
▁supervisor	-11.5828
▁technician	-11.5828
▁thoroughbred	-11.5828
▁trajectory	-11.5828
▁tshirt	-11.5828
▁twitter	-11.5828
▁typing	-11.5828
▁ucla	-11.5828
▁umbutu	-11.5828
▁unattended	-11.5828
▁unwilling	-11.5828
▁vittorino	-11.5828
▁voyage	-11.5828
▁vulnerable	-11.5828
▁walrus	-11.5828
▁wannabe	-11.5828
▁whinnying	-11.5828
▁windshield	-11.5828
▁wraith	-11.5828
▁wrestlemania	-11.5828
▁wrinkle	-11.5828
▁zombie	-11.5828
rgl	-11.5828
▁abbot	-11.5828
▁bedlam	-11.5828
▁blunt	-11.5828
▁brophy	-11.5828
▁bruin	-11.5828
▁chancellery	-11.5828
▁clucking	-11.5828
▁didier	-11.5828
▁dishonor	-11.5828
▁dmk	-11.5828
▁elessar	-11.5828
▁elevate	-11.5828
▁eomer	-11.5828
▁facult	-11.5828
▁hasek	-11.5828
▁hayao	-11.5828
▁howre	-11.5828
▁hypnotize	-11.5828
▁intuiti	-11.5828
▁jungle	-11.5828
▁keycard	-11.5828
▁lraq	-11.5828
▁martyr	-11.5828
▁midget	-11.5828
▁momentarily	-11.5828
▁phenomen	-11.5828
▁pianist	-11.5828
▁protein	-11.5828
▁rebellion	-11.5828
▁resort	-11.5828
▁ringbearer	-11.5828
▁sensible	-11.5828
▁shotgun	-11.5828
▁southwest	-11.5828
▁steinway	-11.5828
▁sunrise	-11.5828
▁theater	-11.5828
▁thurman	-11.5828
▁vietnamese	-11.5828
▁warfare	-11.5828
▁widow	-11.5828
▁yeoman	-11.5828
▁zito	-11.5828
rumpy	-11.5828
▁carousel	-11.5828
▁chorus	-11.5828
▁embark	-11.5828
▁extinguish	-11.5828
▁gwen	-11.5828
▁klaus	-11.5828
▁koroku	-11.5828
▁lambert	-11.5828
▁misfits	-11.5828
▁observatory	-11.5828
▁parameter	-11.5828
▁pbc	-11.5828
▁recipe	-11.5828
▁retro	-11.5828
▁widf	-11.5828
ndra	-11.5828
▁fierce	-11.5828
▁kombucha	-11.5828
▁cartoon	-11.5828
▁cisco	-11.5828
▁dairy	-11.5828
▁flunk	-11.5828
▁gail	-11.5828
▁hurl	-11.5828
▁otto	-11.5828
▁sweden	-11.5828
▁arrogan	-11.5828
▁arteries	-11.5828
▁assessment	-11.5828
▁exorcism	-11.5828
▁fiber	-11.5828
▁scam	-11.5828
▁apprentice	-11.5828
▁disobe	-11.5828
▁jingling	-11.5828
▁testicle	-11.5828
▁convenient	-11.5828
▁idaho	-11.5828
▁overhear	-11.5828
▁proving	-11.5828
▁staging	-11.5828
▁subordinate	-11.5828
▁wiping	-11.5828
▁chancellor	-11.5828
▁droving	-11.5828
▁emeril	-11.5828
▁ghibli	-11.5828
▁oxford	-11.5828
▁premeditat	-11.5828
▁uruk	-11.5828
▁yummy	-11.5828
borough	-11.5828
▁ammonia	-11.5828
▁bloodshed	-11.5828
▁insight	-11.5828
▁ensure	-11.5828
▁restoration	-11.5828
definite	-11.5828
▁sponsor	-11.5828
▁spyders	-11.5828
▁loyalists	-11.5828
▁quintana	-11.5828
▁ransom	-11.5828
▁unseen	-11.5828
▁disengage	-11.5828
▁fanatic	-11.5828
▁rusesabagina	-11.5828
▁satomi	-11.5828
▁wreak	-11.5828
▁grudge	-11.5828
▁diaper	-11.5828
▁hasina	-11.5828
▁population	-11.5828
▁vandal	-11.5828
▁counterearth	-11.5828
▁threshold	-11.5828
▁disloyal	-11.5828
▁doping	-11.5828
▁vermont	-11.5828
▁attached	-11.5828
▁turbo	-11.5828
▁unsub	-11.5828
▁refreshments	-11.5828
▁veins	-11.5828
▁bleep	-11.5828
▁departure	-11.5828
▁bubba	-11.5828
▁blake	-11.5828
▁ritz	-11.5828
▁salvation	-11.5828
▁vegeta	-11.5828
▁bulk	-11.5828
▁relativity	-11.5828
▁mexican	-11.5828
▁snorts	-11.5828
▁wrath	-11.5828
▁confine	-11.5828
▁solitude	-11.5828
▁caution	-11.5828
▁elven	-11.5828
▁kelly	-11.5828
▁satisfaction	-11.5829
▁speculation	-11.5829
▁zebra	-11.5829
▁banville	-11.5829
▁submission	-11.5829
▁administration	-11.5829
▁monstrous	-11.5829
▁louella	-11.5829
▁rrincess	-11.5829
▁album	-11.5829
▁rival	-11.5829
▁sprain	-11.5829
▁validate	-11.5829
▁claudia	-11.5829
▁uphold	-11.5829
▁arise	-11.5829
▁bogey	-11.5829
▁bonnie	-11.5829
▁psychotic	-11.5829
▁donkey	-11.5829
▁twentyeight	-11.5829
▁transmitting	-11.5829
▁scrub	-11.5829
▁francis	-11.5829
▁lowood	-11.5829
▁slugg	-11.5829
▁comedian	-11.5829
▁halflings	-11.5829
▁valid	-11.5829
▁snitch	-11.5829
▁underdog	-11.5829
▁underhill	-11.5829
▁compound	-11.5829
▁tunic	-11.5829
▁jingle	-11.5829
▁venom	-11.5829
zaki	-11.5829
▁festival	-11.5829
▁limo	-11.5829
▁plumb	-11.5829
▁occasional	-11.5829
▁scarlet	-11.5829
▁fantasies	-11.5829
▁bloke	-11.5829
▁cult	-11.5829
▁tiles	-11.5829
▁snorlng	-11.5829
▁blend	-11.5829
▁gerald	-11.5829
▁stockade	-11.5829
▁territories	-11.5829
▁overload	-11.5829
▁subtle	-11.5829
▁refresh	-11.5829
▁venture	-11.5829
▁cherish	-11.5829
▁neville	-11.5829
drin	-11.5829
▁cutters	-11.5829
▁providence	-11.5829
▁foley	-11.5829
▁cyber	-11.5829
▁obligation	-11.5829
▁icon	-11.5829
▁masterpiece	-11.5829
blam	-11.5829
▁niko	-11.5829
▁tilt	-11.583
hlee	-11.583
▁strand	-11.583
▁klck	-11.583
▁harmony	-11.583
▁landmark	-11.583
▁euph	-11.583
▁indication	-11.583
▁sweetwater	-11.583
▁torment	-11.583
▁thigh	-11.583
sident	-11.583
▁industrial	-11.583
▁ammo	-11.583
berating	-11.583
rmont	-11.583
▁acceleration	-11.583
▁cookbook	-11.583
▁karl	-11.583
▁repay	-11.583
aggle	-11.583
▁metouch	-11.583
▁notebook	-11.583
▁erich	-11.583
▁caden	-11.583
▁vital	-11.583
▁avalon	-11.583
▁bumble	-11.583
▁fanboy	-11.5831
▁nlce	-11.5831
▁stove	-11.5831
▁royalty	-11.5831
▁spank	-11.5831
▁undock	-11.5831
actic	-11.5831
beard	-11.5831
▁ersa	-11.5831
▁conceal	-11.5831
▁claw	-11.5831
▁abortion	-11.5831
▁horror	-11.5831
▁wimp	-11.5831
▁chaos	-11.5831
▁prefect	-11.5831
▁burrito	-11.5831
▁assembly	-11.5831
▁industries	-11.5831
▁fedens	-11.5831
▁optical	-11.5831
▁commute	-11.5832
▁nina	-11.5832
▁reload	-11.5832
▁alvin	-11.5832
▁dislike	-11.5832
▁journalist	-11.5832
▁contributor	-11.5832
▁kha	-11.5832
▁concentration	-11.5832
▁shark	-11.5832
▁duckling	-11.5832
▁barrier	-11.5832
▁satan	-11.5832
taneous	-11.5832
▁mummy	-11.5832
▁mush	-11.5832
▁conscious	-11.5832
▁diction	-11.5832
▁cowan	-11.5832
▁chili	-11.5832
▁lockdown	-11.5833
atherine	-11.5833
▁suv	-11.5833
▁editor	-11.5833
▁skype	-11.5833
▁rail	-11.5833
▁unauthorized	-11.5833
▁fame	-11.5833
▁crop	-11.5833
▁wiggle	-11.5833
▁muff	-11.5833
▁undone	-11.5833
▁makln	-11.5833
▁monte	-11.5833
▁filing	-11.5833
▁joan	-11.5833
▁diplomatic	-11.5833
▁acre	-11.5833
▁accompany	-11.5833
▁hutch	-11.5834
▁jules	-11.5834
▁tuco	-11.5834
▁courtroom	-11.5834
▁chow	-11.5834
▁fridge	-11.5834
▁stake	-11.5834
▁bbbbbad	-11.5834
▁blazing	-11.5834
▁frlend	-11.5834
▁heathcoat	-11.5834
▁memorable	-11.5834
▁armour	-11.5834
▁delicate	-11.5834
▁conven	-11.5834
▁occupied	-11.5834
▁muck	-11.5834
▁elk	-11.5834
▁conductor	-11.5834
▁heii	-11.5834
▁bloodstained	-11.5834
▁intrigued	-11.5834
▁faci	-11.5834
▁sequ	-11.5834
▁innit	-11.5835
randa	-11.5835
▁uncover	-11.5835
▁moanlng	-11.5835
▁brim	-11.5835
▁calam	-11.5835
▁philippe	-11.5835
▁stale	-11.5835
▁haney	-11.5835
▁outback	-11.5835
▁conversion	-11.5835
▁reaper	-11.5835
▁regiment	-11.5835
▁nosing	-11.5835
▁biz	-11.5835
▁stitches	-11.5835
▁westside	-11.5835
▁coil	-11.5835
▁aero	-11.5835
▁playfully	-11.5835
▁logical	-11.5835
▁award	-11.5835
▁amore	-11.5836
▁judgement	-11.5836
▁superstar	-11.5836
▁duff	-11.5836
▁republican	-11.5836
▁nothln	-11.5836
▁merci	-11.5836
▁deathbed	-11.5836
▁believing	-11.5836
▁panty	-11.5836
▁attendant	-11.5836
▁glow	-11.5836
▁slde	-11.5836
▁hubers	-11.5836
▁bltch	-11.5836
▁barbar	-11.5837
▁melas	-11.5837
▁contribution	-11.5837
▁psst	-11.5837
▁chess	-11.5837
▁strat	-11.5837
▁pause	-11.5837
▁puff	-11.5837
▁beastie	-11.5837
orbid	-11.5837
▁clueless	-11.5837
▁frost	-11.5838
▁constitutional	-11.5838
▁drumm	-11.5838
▁vibration	-11.5838
▁iran	-11.5838
tomy	-11.5839
▁preacher	-11.5839
▁intro	-11.5839
▁lining	-11.5839
▁cosm	-11.5839
▁overtime	-11.5839
▁oldschool	-11.5839
▁clone	-11.5839
▁conceived	-11.584
▁paranoid	-11.584
▁knob	-11.584
austin	-11.584
▁stumbled	-11.584
▁tailor	-11.584
▁discharged	-11.584
▁harmoni	-11.584
▁alumn	-11.584
▁topside	-11.584
▁drip	-11.584
▁certainty	-11.584
▁teasing	-11.5841
▁workplace	-11.5841
▁xi	-11.5841
▁hup	-11.5841
▁buckeye	-11.5841
▁anomaly	-11.5842
▁controversy	-11.5842
▁tomatoes	-11.5842
▁warmth	-11.5842
▁stub	-11.5842
▁highlight	-11.5842
▁curb	-11.5843
behaving	-11.5843
▁childish	-11.5843
chment	-11.5843
▁hallowe	-11.5843
▁jackie	-11.5843
▁brlng	-11.5843
▁phrase	-11.5844
▁foam	-11.5844
▁santo	-11.5844
▁bayou	-11.5844
itzer	-11.5845
▁holies	-11.5845
▁attracted	-11.5845
▁delighted	-11.5845
▁pow	-11.5845
▁retarded	-11.5845
mund	-11.5845
▁agh	-11.5845
▁controlled	-11.5846
▁detector	-11.5846
▁snapping	-11.5846
▁acknowledge	-11.5846
▁standby	-11.5846
▁spill	-11.5846
▁restart	-11.5846
ility	-11.5847
▁ironic	-11.5847
▁geor	-11.5847
▁sailor	-11.5847
▁spon	-11.5848
▁rene	-11.5848
▁diehard	-11.5848
▁dip	-11.5848
▁grandp	-11.5849
▁donation	-11.5849
▁compelling	-11.5849
▁mimic	-11.5849
▁richie	-11.585
▁wanker	-11.585
▁hijack	-11.585
▁masses	-11.585
▁sniffing	-11.585
▁restricted	-11.585
▁plasm	-11.585
▁bandage	-11.5851
▁kayo	-11.5851
▁unclear	-11.5851
alino	-11.5851
▁strive	-11.5852
▁everythin	-11.5852
▁shard	-11.5852
▁qualified	-11.5852
▁betting	-11.5852
▁guin	-11.5853
▁condo	-11.5853
beat	-11.5853
▁tripped	-11.5853
▁cuse	-11.5854
▁retrieved	-11.5855
▁ruptured	-11.5855
▁closure	-11.5855
▁uncha	-11.5855
▁branches	-11.5855
▁bonus	-11.5855
abolic	-11.5856
▁plucked	-11.5856
▁accomplished	-11.5856
▁initially	-11.5856
▁shattered	-11.5856
▁personality	-11.5857
▁maylor	-11.5858
▁emily	-11.5858
▁rld	-11.5858
▁reno	-11.5859
▁somewh	-11.5859
▁deville	-11.5859
▁hospitality	-11.586
▁burris	-11.586
▁barge	-11.5861
▁aspergers	-11.5862
▁earthworms	-11.5862
▁adamian	-11.5863
▁rover	-11.5863
▁yow	-11.5863
▁bellies	-11.5864
▁limb	-11.5864
▁formation	-11.5864
▁suckle	-11.5864
▁badir	-11.5866
▁wrongside	-11.5868
▁dang	-11.5868
▁quid	-11.5868
▁lieb	-11.587
▁orcses	-11.587
osity	-11.587
▁supporters	-11.5871
▁puncture	-11.5871
▁willy	-11.5872
▁quad	-11.5872
▁seized	-11.5873
▁crater	-11.5874
▁pinn	-11.5875
▁generate	-11.5875
ando	-11.5876
▁modif	-11.5878
▁jammed	-11.5878
▁audited	-11.5879
▁peak	-11.5879
▁deadhead	-11.5879
imony	-11.5879
▁thel	-11.5884
▁chatterlng	-11.5884
▁contractor	-11.5884
▁advised	-11.5885
▁hobbitses	-11.5885
▁whisk	-11.5887
▁layers	-11.5888
aki	-11.5888
▁promoted	-11.5889
▁predicted	-11.5889
▁shutting	-11.589
doo	-11.5891
▁doorway	-11.5892
▁slacking	-11.5892
▁protector	-11.5893
▁boiling	-11.5893
▁topic	-11.5893
▁sab	-11.5895
▁mentally	-11.5895
▁hah	-11.5895
▁elected	-11.5895
talking	-11.5897
▁dup	-11.5899
weave	-11.59
▁ish	-11.59
▁setup	-11.5902
▁fearless	-11.5902
▁peeled	-11.5902
▁maint	-11.5904
▁tada	-11.5905
▁alexa	-11.5906
▁bullies	-11.5906
▁depending	-11.5907
▁sodomy	-11.5908
▁undo	-11.591
plicate	-11.591
▁cele	-11.5911
▁lai	-11.5912
▁complained	-11.5912
▁poke	-11.5915
▁affi	-11.5915
equat	-11.5919
▁sweaty	-11.5919
▁lesbians	-11.5921
▁mumbles	-11.5921
▁textbooks	-11.5921
▁flares	-11.5921
▁skiing	-11.5921
▁worries	-11.5921
▁tryln	-11.5922
▁involves	-11.5922
▁attended	-11.5923
▁poured	-11.5923
▁persia	-11.5923
▁pints	-11.5924
ament	-11.5925
▁implant	-11.5927
▁padd	-11.5929
aya	-11.5929
▁traced	-11.593
▁brownies	-11.5932
▁newton	-11.5933
▁nun	-11.5933
aine	-11.5933
etta	-11.5933
▁stretched	-11.5934
▁backyard	-11.5935
▁virginian	-11.5937
stone	-11.5937
▁hmmm	-11.5938
▁takedown	-11.5941
▁poster	-11.5946
▁skat	-11.5949
▁fang	-11.5949
esda	-11.595
▁annoy	-11.5951
▁ox	-11.5952
▁sto	-11.5955
▁freeway	-11.5955
▁negat	-11.5956
▁ai	-11.5959
roy	-11.596
▁brighter	-11.596
▁pry	-11.5961
▁musician	-11.5963
▁buzzer	-11.5969
▁bumped	-11.5971
▁capric	-11.5977
▁swallowing	-11.5978
▁crumbs	-11.5981
▁cullens	-11.5981
▁individuals	-11.5981
▁pillows	-11.5981
▁symptoms	-11.5981
▁ravagers	-11.5982
▁palms	-11.5984
▁tougher	-11.5986
▁chaps	-11.5986
owy	-11.5991
▁dominate	-11.5992
▁flushing	-11.5992
▁scattering	-11.5992
▁bitches	-11.5994
▁publicly	-11.5995
▁aborigines	-11.5995
▁fable	-11.5999
shit	-11.6002
▁ignored	-11.601
▁erase	-11.6013
▁missles	-11.6024
▁fm	-11.6025
▁caref	-11.6026
rian	-11.6028
exed	-11.6029
hlet	-11.603
self	-11.6038
▁roots	-11.6042
▁beacons	-11.6042
▁chicks	-11.6043
▁hoop	-11.6046
▁requested	-11.6047
▁gatherer	-11.6053
▁breakers	-11.6057
▁tearing	-11.6057
intentionally	-11.6058
▁tenant	-11.6058
▁completed	-11.6062
▁cau	-11.6066
▁sins	-11.6073
▁performing	-11.6077
lude	-11.6085
▁crapp	-11.6093
▁farting	-11.61
▁thlngs	-11.6104
▁customers	-11.6109
ener	-11.6109
▁ents	-11.6111
▁hans	-11.6113
▁curs	-11.6114
▁torp	-11.6119
▁marina	-11.6121
▁reminded	-11.6121
▁umm	-11.6123
▁unlt	-11.6124
▁pope	-11.6131
▁brandy	-11.6137
▁aiming	-11.6137
▁posted	-11.6144
▁hurtin	-11.6147
▁journals	-11.6147
▁washing	-11.6151
rey	-11.6153
▁owners	-11.6162
▁tramp	-11.6163
▁spiders	-11.6165
▁resumes	-11.6166
rawl	-11.6167
mbe	-11.6168
▁cracked	-11.6172
libr	-11.6177
moral	-11.6178
buddh	-11.6183
ofthe	-11.6184
▁checkin	-11.619
▁redhead	-11.6193
areyou	-11.6194
▁playin	-11.6199
▁capabilit	-11.6201
▁flours	-11.6227
▁deceptions	-11.6228
▁rifles	-11.6228
▁feathers	-11.6228
▁crypt	-11.6229
uch	-11.6233
▁murphy	-11.6246
▁healer	-11.6257
▁rack	-11.6258
▁vince	-11.6261
▁berth	-11.6262
▁cooler	-11.6262
sia	-11.6269
▁praying	-11.6284
▁wel	-11.6287
▁dots	-11.6288
▁includes	-11.6289
▁instruments	-11.629
ades	-11.6312
▁treating	-11.6313
ancho	-11.6314
▁ara	-11.6317
▁julie	-11.632
edic	-11.6321
▁smiled	-11.6322
gel	-11.6324
▁prayers	-11.6324
▁mari	-11.634
▁headin	-11.6341
▁commun	-11.6341
▁continued	-11.6346
inish	-11.6349
▁tools	-11.6352
▁towels	-11.6352
▁standards	-11.6352
▁cables	-11.6357
lease	-11.6361
▁tubes	-11.6362
▁refus	-11.6372
▁exceptional	-11.6373
▁lighter	-11.639
▁stated	-11.6392
rett	-11.6393
▁weary	-11.6401
love	-11.6412
▁clocks	-11.6415
▁ankles	-11.6415
▁insists	-11.6416
▁briefing	-11.6417
▁gifted	-11.6422
▁dod	-11.6427
▁smelled	-11.6434
aria	-11.6439
morrow	-11.6446
about	-11.6466
▁cre	-11.6469
▁suites	-11.647
▁civilians	-11.6478
hapel	-11.648
▁watchin	-11.6489
mee	-11.6494
▁sucker	-11.651
door	-11.6514
ja	-11.6518
▁libb	-11.6534
▁cocks	-11.654
▁cheats	-11.6542
bon	-11.6543
forsaken	-11.6573
▁interacti	-11.6587
▁sticking	-11.6592
▁partly	-11.6604
worthy	-11.6606
joon	-11.6612
eys	-11.6615
▁locking	-11.6616
▁naive	-11.6626
▁reported	-11.6628
▁wrapp	-11.6655
ough	-11.6656
▁fooled	-11.6659
▁spears	-11.6668
▁magazines	-11.6669
▁wizards	-11.6669
▁paces	-11.6676
▁maps	-11.6681
rasse	-11.6696
tar	-11.6713
eriad	-11.6716
▁killin	-11.672
▁exams	-11.6728
ejection	-11.6749
▁mln	-11.6771
▁pra	-11.6772
outer	-11.6773
▁earle	-11.6791
whir	-11.6837
ena	-11.6859
▁hooks	-11.6863
ida	-11.6864
rant	-11.6866
far	-11.687
▁fee	-11.6871
ana	-11.6879
unction	-11.6888
▁galle	-11.6891
pen	-11.6911
nicky	-11.6926
llison	-11.6941
▁possesse	-11.6943
win	-11.6954
lsten	-11.6982
lipped	-11.7007
ration	-11.7016
▁brawl	-11.7028
▁minu	-11.7034
hall	-11.7038
jin	-11.7043
▁spins	-11.7048
▁nada	-11.7051
▁cav	-11.7058
▁presto	-11.7075
▁fle	-11.7079
etti	-11.7089
arian	-11.709
aking	-11.7117
lngton	-11.7128
▁sho	-11.7132
illng	-11.716
▁mono	-11.7161
▁aug	-11.7172
dale	-11.719
▁swat	-11.7198
communicated	-11.7214
▁nod	-11.7216
▁waitin	-11.7244
▁flu	-11.7261
abra	-11.7276
▁smok	-11.7332
rice	-11.7344
ante	-11.7355
▁radical	-11.7393
anne	-11.74
▁spo	-11.7418
misunderstanding	-11.7436
eith	-11.7444
ggage	-11.7447
▁mandat	-11.7472
▁pile	-11.7472
▁receiv	-11.7473
igrade	-11.7474
ggles	-11.7478
▁clu	-11.7483
▁merce	-11.7497
▁terminat	-11.7505
iko	-11.7514
▁rewrit	-11.7516
▁formal	-11.7535
ians	-11.7556
tide	-11.7556
date	-11.7557
▁vu	-11.7559
▁lander	-11.76
tip	-11.7607
▁reserv	-11.7624
▁pursu	-11.7632
ahili	-11.7648
ola	-11.7649
erto	-11.7684
▁hump	-11.7695
omin	-11.7709
hero	-11.7725
ket	-11.7729
pathy	-11.7739
▁embrac	-11.7773
dge	-11.7778
▁hu	-11.7782
list	-11.7828
▁pol	-11.7834
▁casin	-11.787
▁grease	-11.7872
▁ethic	-11.7883
ston	-11.7943
▁swo	-11.7943
ave	-11.7951
ark	-11.796
▁mali	-11.7963
▁ripe	-11.7964
they	-11.7964
▁hopp	-11.801
▁travell	-11.8051
orrow	-11.8087
aving	-11.8098
▁trad	-11.8128
▁evolve	-11.813
▁authoriz	-11.8137
▁chap	-11.8138
▁pon	-11.8163
part	-11.8166
▁var	-11.8167
▁wir	-11.8173
roe	-11.8184
▁jul	-11.8193
tln	-11.821
▁mist	-11.826
duction	-11.8278
tit	-11.8278
▁scrape	-11.8299
usion	-11.8313
ees	-11.8342
lich	-11.8346
raci	-11.8348
▁upp	-11.8371
▁deduct	-11.8406
oni	-11.8423
▁smo	-11.8426
▁trac	-11.844
▁compensat	-11.8454
mino	-11.8461
won	-11.8471
keepers	-11.8477
clined	-11.8482
rio	-11.8486
▁interfer	-11.8514
bia	-11.8534
alem	-11.8594
lre	-11.8618
tant	-11.862
elf	-11.863
atche	-11.866
▁gonza	-11.8704
▁tram	-11.8715
▁sha	-11.8741
burgers	-11.8784
warming	-11.8791
▁beln	-11.88
awking	-11.8815
unge	-11.8815
nade	-11.882
net	-11.8828
where	-11.883
rous	-11.8848
▁viv	-11.8864
▁knot	-11.8881
acker	-11.8894
▁her	-11.8895
▁shatter	-11.8923
plash	-11.8924
▁nomin	-11.8927
▁cro	-11.893
caster	-11.8934
ntana	-11.8934
your	-11.8935
▁theor	-11.894
▁capsule	-11.8942
▁granddaughter	-11.8942
▁hardwick	-11.8942
▁oyster	-11.8942
▁thrive	-11.8942
▁introduction	-11.8943
▁rhyme	-11.8946
▁prospect	-11.8946
▁bark	-11.8947
▁dispos	-11.8948
▁crumb	-11.8951
gal	-11.8952
▁individual	-11.8952
▁symptom	-11.8952
▁cullen	-11.8952
▁convert	-11.8953
▁ravager	-11.8953
▁pillow	-11.8956
▁dragonslayer	-11.8957
▁expense	-11.8957
▁tourist	-11.896
▁tomahawk	-11.8961
▁mathematic	-11.8962
▁consequence	-11.8963
▁gladiator	-11.8966
▁rumor	-11.8967
▁giggle	-11.8968
▁height	-11.897
▁chime	-11.8972
ads	-11.8973
▁viru	-11.8976
▁boob	-11.8977
▁troll	-11.8977
plant	-11.8977
▁other	-11.898
▁urg	-11.8984
▁poll	-11.8985
▁violate	-11.8985
▁immortal	-11.8989
▁aborigine	-11.8992
hose	-11.8997
urned	-11.8997
vitational	-11.8997
▁warhead	-11.8998
▁palm	-11.9007
▁sewer	-11.901
ifies	-11.9011
▁fre	-11.9014
▁publisher	-11.9018
leton	-11.903
▁shithead	-11.903
▁graduat	-11.9037
mount	-11.9056
▁backward	-11.9061
lem	-11.9066
ddy	-11.9067
▁instruction	-11.9072
▁bean	-11.9073
▁hun	-11.9076
ground	-11.9083
▁smudg	-11.9084
▁rape	-11.9084
▁fau	-11.9091
friend	-11.9095
▁should	-11.9096
eep	-11.9097
▁pamp	-11.9097
place	-11.9098
▁swam	-11.9099
otic	-11.91
cast	-11.91
▁punctu	-11.9102
ffa	-11.9104
▁shush	-11.9104
▁frog	-11.9105
▁recruit	-11.911
▁trespass	-11.911
▁achiev	-11.911
world	-11.9112
▁arrang	-11.9113
▁decorat	-11.9113
▁merge	-11.9114
▁accomplish	-11.9115
▁disco	-11.9115
▁clink	-11.9115
▁thump	-11.9115
▁prai	-11.9116
▁disgust	-11.9117
body	-11.9117
▁inherit	-11.9121
▁appoint	-11.9121
▁reject	-11.9121
shake	-11.9122
cream	-11.9122
appointed	-11.9122
identified	-11.9123
script	-11.9123
content	-11.9123
▁multipl	-11.9123
hood	-11.9124
closure	-11.9125
▁dismiss	-11.9125
▁pluck	-11.9125
defeated	-11.9126
plane	-11.9126
predict	-11.9126
sleep	-11.9127
storm	-11.9127
brush	-11.9127
cloud	-11.9127
tipped	-11.9127
appropriate	-11.9127
speaker	-11.9127
writer	-11.9128
proof	-11.9128
▁crib	-11.9128
jimmy	-11.9128
season	-11.9128
water	-11.9128
drag	-11.9128
scoffs	-11.9129
launch	-11.9129
hundred	-11.9129
distance	-11.9129
slgn	-11.9129
heart	-11.9129
high	-11.9129
glass	-11.9129
version	-11.9129
playing	-11.9129
drop	-11.9129
bomb	-11.9129
maiden	-11.913
perfect	-11.913
bells	-11.913
force	-11.9131
trust	-11.9131
little	-11.9131
shaw	-11.9131
▁intent	-11.9131
maid	-11.9132
kick	-11.9133
job	-11.9134
▁expire	-11.9134
human	-11.9134
▁persuade	-11.9134
section	-11.9134
▁vanish	-11.9134
jet	-11.9134
who	-11.9135
around	-11.9135
▁oppose	-11.9136
▁underestimate	-11.9136
wire	-11.9136
▁mode	-11.9136
hung	-11.9136
▁compose	-11.9136
paid	-11.9137
show	-11.9137
▁educate	-11.9137
▁eliminate	-11.9137
▁postpone	-11.9137
▁observ	-11.9137
▁determine	-11.9137
▁wor	-11.9137
▁beyon	-11.9138
drive	-11.9138
bach	-11.9139
fair	-11.9139
▁gloom	-11.914
finger	-11.9141
▁frisk	-11.9141
▁blasphem	-11.9141
▁anticipate	-11.9142
▁fletch	-11.9142
▁anomal	-11.9142
▁controvers	-11.9142
▁milo	-11.9142
▁chunk	-11.9143
▁ceremon	-11.9144
▁qualit	-11.9144
▁stead	-11.9144
▁antenna	-11.9144
gow	-11.9146
▁preach	-11.9147
really	-11.9147
▁intens	-11.9147
▁precise	-11.9147
▁vibrat	-11.9147
▁substitut	-11.9147
▁unfortunate	-11.9148
▁apparent	-11.9148
anda	-11.9148
tight	-11.9148
bic	-11.9148
▁deliberate	-11.9149
▁accur	-11.9149
▁prosecut	-11.915
clock	-11.915
▁beck	-11.9151
▁ambitio	-11.9152
has	-11.9152
▁molecul	-11.9153
▁improve	-11.9153
marked	-11.9153
burg	-11.9154
▁prettie	-11.9156
▁dub	-11.9156
▁cerebr	-11.9156
▁trump	-11.9156
duct	-11.9157
▁convers	-11.9157
▁refi	-11.9158
▁flutter	-11.9158
▁poppin	-11.9158
▁oppress	-11.9158
mulate	-11.9158
▁abagna	-11.9159
▁contaminat	-11.9159
▁plannin	-11.9159
▁risin	-11.9159
▁disrupt	-11.9159
lfred	-11.9159
▁stoppin	-11.9159
▁grocer	-11.9159
▁bask	-11.9159
▁blar	-11.9159
▁theodo	-11.916
xcuse	-11.916
▁physici	-11.916
alysis	-11.916
▁avenge	-11.916
▁egypt	-11.916
▁extraordina	-11.916
▁replica	-11.916
▁transmit	-11.916
ficial	-11.9161
eutenant	-11.9161
▁claud	-11.9161
▁luther	-11.9161
▁scram	-11.9161
oshing	-11.9161
▁belgi	-11.9161
▁compass	-11.9161
▁expel	-11.9161
▁optimis	-11.9161
▁contr	-11.9161
▁exorci	-11.9161
▁diffract	-11.9161
▁exceeding	-11.9161
diocese	-11.9161
liseo	-11.9161
missible	-11.9161
sippi	-11.9161
trudging	-11.9161
ulgar	-11.9161
▁adjacent	-11.9161
▁advisor	-11.9161
▁afghanistan	-11.9161
▁alabama	-11.9161
▁algorithm	-11.9161
▁anarchist	-11.9161
▁anarchy	-11.9161
▁annihilat	-11.9161
▁aquarius	-11.9161
▁aquitania	-11.9161
▁armchair	-11.9161
▁arnhem	-11.9161
▁assumption	-11.9161
▁astronom	-11.9161
▁authentic	-11.9161
▁automobile	-11.9161
▁autopilot	-11.9161
▁aviator	-11.9161
▁aztec	-11.9161
▁baffle	-11.9161
▁bamboo	-11.9161
▁baptist	-11.9161
▁barricade	-11.9161
▁bathtub	-11.9161
▁beatboxing	-11.9161
▁beggars	-11.9161
▁berkley	-11.9161
▁blazevich	-11.9161
▁bonjour	-11.9161
▁bouncing	-11.9161
▁bracegirdle	-11.9161
▁brandybuck	-11.9161
▁briggs	-11.9161
▁brumbies	-11.9161
▁brushstrokes	-11.9161
▁butler	-11.9161
▁bystander	-11.9161
▁cafeteria	-11.9161
▁cahstink	-11.9161
▁candace	-11.9161
▁carburetor	-11.9161
▁carriages	-11.9161
▁catalog	-11.9161
▁catalyst	-11.9161
▁catastrophic	-11.9161
▁caterpillar	-11.9161
▁cavalry	-11.9161
▁cavanagh	-11.9161
▁centimeter	-11.9161
▁certificate	-11.9161
▁chattel	-11.9161
▁chaucer	-11.9161
▁chimney	-11.9161
▁cinnamon	-11.9161
▁citadel	-11.9161
▁cockpit	-11.9161
▁constellation	-11.9161
▁contradict	-11.9161
▁corridor	-11.9161
▁cosmonaut	-11.9161
▁cougar	-11.9161
▁cressida	-11.9161
▁crispy	-11.9161
▁crocodile	-11.9161
▁crucial	-11.9161
▁crucify	-11.9161
▁darcelle	-11.9161
▁desecrat	-11.9161
▁detention	-11.9161
▁devastati	-11.9161
▁dhillon	-11.9161
▁diazepam	-11.9161
▁dispatch	-11.9161
▁dorm	-11.9161
▁economic	-11.9161
▁economy	-11.9161
▁eff	-11.9161
▁elendil	-11.9161
▁enchant	-11.9161
▁enlargement	-11.9161
▁enlightened	-11.9161
▁entanglement	-11.9161
▁entrepreneur	-11.9161
▁errand	-11.9161
▁escalate	-11.9161
▁eureka	-11.9161
▁excellencies	-11.9161
▁exclude	-11.9161
▁exploslon	-11.9161
▁expulsion	-11.9161
▁eyebrow	-11.9161
▁famlly	-11.9161
▁fascinated	-11.9161
▁fernandez	-11.9161
▁fidelity	-11.9161
▁florins	-11.9161
▁forrester	-11.9161
▁fountain	-11.9161
▁gaffer	-11.9161
▁gamling	-11.9161
▁gatesboro	-11.9161
▁geometry	-11.9161
▁gitarama	-11.9161
▁glimmer	-11.9161
▁godzilla	-11.9161
▁grandchildren	-11.9161
▁greek	-11.9161
▁grunion	-11.9161
▁guacamole	-11.9161
▁hallucination	-11.9161
▁harbour	-11.9161
▁hawthorne	-11.9161
▁heiglemann	-11.9161
▁hellspawn	-11.9161
▁hemorrhoid	-11.9161
▁henceforth	-11.9161
▁hisaishi	-11.9161
▁hollywood	-11.9161
▁horseplay	-11.9161
▁huddle	-11.9161
▁humiliate	-11.9161
▁humiliating	-11.9161
▁hunnicutt	-11.9161
▁hurdle	-11.9161
▁identification	-11.9161
▁imbecile	-11.9161
▁impediment	-11.9161
▁incinerate	-11.9161
▁incomplete	-11.9161
▁infirm	-11.9161
▁inhaling	-11.9161
▁insanity	-11.9161
▁inseparable	-11.9161
▁integer	-11.9161
▁ironhide	-11.9161
▁itinerary	-11.9161
▁jeff	-11.9161
▁jenkins	-11.9161
▁jonathan	-11.9161
▁judging	-11.9161
▁kaiju	-11.9161
▁kentucky	-11.9161
▁kilometers	-11.9161
▁kraut	-11.9161
▁labeau	-11.9161
▁ladakh	-11.9161
▁librarian	-11.9161
▁lincoln	-11.9161
▁lloyd	-11.9161
▁lozano	-11.9161
▁magnificence	-11.9161
▁mandarin	-11.9161
▁marathon	-11.9161
▁maureen	-11.9161
▁meadow	-11.9161
▁meatloaf	-11.9161
▁midwest	-11.9161
▁montreal	-11.9161
▁montrichard	-11.9161
▁morgul	-11.9161
▁mosquito	-11.9161
▁munitions	-11.9161
▁mussolini	-11.9161
▁niece	-11.9161
▁ninja	-11.9161
▁nourish	-11.9161
▁nurtur	-11.9161
▁obnoxious	-11.9161
▁offgrid	-11.9161
▁offlcer	-11.9161
▁onstage	-11.9161
▁operatically	-11.9161
▁overreact	-11.9161
▁overthrow	-11.9161
▁paralyzed	-11.9161
▁parasite	-11.9161
▁pediatric	-11.9161
▁pendulum	-11.9161
▁phiillps	-11.9161
▁pirouette	-11.9161
▁porpoise	-11.9161
▁precaution	-11.9161
▁precision	-11.9161
▁premier	-11.9161
▁pretense	-11.9161
▁principle	-11.9161
▁pummel	-11.9161
▁pussycat	-11.9161
▁qureshi	-11.9161
▁radiator	-11.9161
▁rebuilt	-11.9161
▁refrigerator	-11.9161
▁rejoice	-11.9161
▁replacing	-11.9161
▁residence	-11.9161
▁revenue	-11.9161
▁revolver	-11.9161
▁rhetoric	-11.9161
▁ringwraiths	-11.9161
▁rochambeau	-11.9161
▁roosevelt	-11.9161
▁rouen	-11.9161
▁rousseau	-11.9161
▁rtlm	-11.9161
▁rydell	-11.9161
▁sabbatical	-11.9161
▁safari	-11.9161
▁salvor	-11.9161
▁sapphire	-11.9161
▁schopenhauer	-11.9161
▁screenplay	-11.9161
▁selection	-11.9161
▁serpent	-11.9161
▁shepherd	-11.9161
▁shoelace	-11.9161
▁sightseeing	-11.9161
▁significance	-11.9161
▁singularity	-11.9161
▁sllppery	-11.9161
▁sloppy	-11.9161
▁soaked	-11.9161
▁soiree	-11.9161
▁spelunking	-11.9161
▁splutter	-11.9161
▁sputnik	-11.9161
▁squeamish	-11.9161
▁squirrel	-11.9161
▁stewart	-11.9161
▁strangle	-11.9161
▁submersible	-11.9161
▁substantial	-11.9161
▁suffragettes	-11.9161
▁sunglasses	-11.9161
▁supernatural	-11.9161
▁surviving	-11.9161
▁suspicion	-11.9161
▁sylvia	-11.9161
▁taxicab	-11.9161
▁tchoupitoulas	-11.9161
▁teresa	-11.9161
▁terrifying	-11.9161
▁testosterone	-11.9161
▁thanksgiving	-11.9161
▁thattaway	-11.9161
▁theatre	-11.9161
▁tinkles	-11.9161
▁tragedies	-11.9161
▁tranq	-11.9161
▁tumble	-11.9161
▁understatement	-11.9161
▁unnatural	-11.9161
▁unnecessary	-11.9161
▁unpleasant	-11.9161
▁unscheduled	-11.9161
▁velmano	-11.9161
▁velvet	-11.9161
▁volcano	-11.9161
▁voshkod	-11.9161
▁weasel	-11.9161
▁withdrew	-11.9161
▁wobbles	-11.9161
▁wombat	-11.9161
▁xanthium	-11.9161
▁yawns	-11.9161
decimal	-11.9161
▁aggravat	-11.9161
▁aircondition	-11.9161
▁astound	-11.9161
▁bleach	-11.9161
▁decipher	-11.9161
▁disarm	-11.9161
▁existential	-11.9161
▁extort	-11.9161
▁fiddle	-11.9161
▁fragment	-11.9161
▁intimate	-11.9161
▁jiha	-11.9161
▁mascot	-11.9161
▁overwhelm	-11.9161
▁pervert	-11.9161
▁pulveri	-11.9161
▁responslb	-11.9161
▁resurrect	-11.9161
▁saddam	-11.9161
▁strategi	-11.9161
erapis	-11.9161
▁adorable	-11.9161
▁arsenal	-11.9161
▁brink	-11.9161
▁cartridges	-11.9161
▁committee	-11.9161
▁conseil	-11.9161
▁creole	-11.9161
▁darius	-11.9161
▁dwp	-11.9161
▁gorilla	-11.9161
▁gravy	-11.9161
▁ifwe	-11.9161
▁irritate	-11.9161
▁knicks	-11.9161
▁maroon	-11.9161
▁mushrooms	-11.9161
▁octopus	-11.9161
▁outlast	-11.9161
▁output	-11.9161
▁quarrel	-11.9161
▁radius	-11.9161
▁relish	-11.9161
▁retain	-11.9161
▁rumours	-11.9161
▁salud	-11.9161
▁sleeve	-11.9161
▁stench	-11.9161
▁synchroniz	-11.9161
▁terrain	-11.9161
▁tissue	-11.9161
▁trinity	-11.9161
▁twain	-11.9161
▁uav	-11.9161
▁unbearable	-11.9161
▁ateam	-11.9161
▁certifi	-11.9161
▁cozy	-11.9161
▁debut	-11.9161
▁detour	-11.9161
▁harley	-11.9161
▁importance	-11.9161
▁lurking	-11.9161
▁madeleine	-11.9161
▁pneumonia	-11.9161
▁ramsden	-11.9161
▁snarl	-11.9161
▁upgrades	-11.9161
▁utah	-11.9161
onarchy	-11.9161
▁arterial	-11.9161
▁drongo	-11.9161
▁kipp	-11.9161
▁loaf	-11.9161
▁organisms	-11.9161
▁orgosentr	-11.9161
▁outlive	-11.9161
▁resemb	-11.9161
▁steiss	-11.9161
▁unmanned	-11.9161
currency	-11.9161
▁ethan	-11.9161
▁ivy	-11.9161
▁settling	-11.9161
▁abyss	-11.9161
▁ernie	-11.9161
▁flint	-11.9161
▁hassle	-11.9161
▁pawn	-11.9161
▁phasing	-11.9161
ocratic	-11.9161
▁kurt	-11.9161
▁attain	-11.9161
▁nightwalker	-11.9161
▁redeem	-11.9161
▁rooftops	-11.9161
▁footprints	-11.9161
▁sauer	-11.9161
▁dragging	-11.9161
▁hovercraft	-11.9161
▁madeira	-11.9161
▁matsu	-11.9161
▁scoops	-11.9161
▁storytell	-11.9161
▁collateral	-11.9161
▁dallas	-11.9161
▁instill	-11.9161
▁elsie	-11.9161
▁eyedent	-11.9161
▁mathematicians	-11.9161
▁tagged	-11.9161
▁slope	-11.9161
▁tutor	-11.9161
▁invasi	-11.9162
▁meows	-11.9162
▁organics	-11.9162
▁pattering	-11.9162
▁rufus	-11.9162
▁airbags	-11.9162
oleum	-11.9162
▁everlast	-11.9162
▁flexib	-11.9162
▁insur	-11.9162
▁yourjob	-11.9162
ceptible	-11.9162
▁hugging	-11.9162
▁regain	-11.9162
▁thisthis	-11.9162
▁uber	-11.9162
▁akers	-11.9162
▁banquet	-11.9162
▁easing	-11.9162
ulein	-11.9162
▁gaul	-11.9162
▁auditorium	-11.9162
▁monopol	-11.9162
▁supposition	-11.9162
▁polka	-11.9162
▁saree	-11.9162
▁stupld	-11.9162
▁blimey	-11.9162
▁gamemakers	-11.9162
▁grownups	-11.9162
▁legitimate	-11.9162
▁ribb	-11.9162
▁amendment	-11.9162
▁lemonade	-11.9162
▁triangulate	-11.9162
▁devotion	-11.9162
▁yank	-11.9162
▁imposter	-11.9162
▁empti	-11.9162
▁reunit	-11.9162
scorp	-11.9162
▁appreciative	-11.9162
▁carni	-11.9162
▁zamb	-11.9162
▁impertinent	-11.9162
▁saddlebag	-11.9162
lance	-11.9162
▁bellows	-11.9162
▁alternat	-11.9162
▁grumbling	-11.9162
▁particle	-11.9162
▁prosper	-11.9162
shimla	-11.9162
▁probability	-11.9162
▁competitor	-11.9162
▁lucius	-11.9162
▁scumbag	-11.9162
▁glint	-11.9162
conquest	-11.9162
▁telegram	-11.9162
bourne	-11.9162
▁ethiopian	-11.9162
▁frantically	-11.9162
▁antonius	-11.9162
▁encode	-11.9162
▁farfe	-11.9162
▁gurgl	-11.9162
▁osama	-11.9162
▁twig	-11.9162
▁circuits	-11.9162
▁erotic	-11.9162
▁solitary	-11.9162
▁hamlet	-11.9162
▁trampled	-11.9162
▁exert	-11.9162
▁fluke	-11.9162
▁fortyeight	-11.9162
▁reassur	-11.9162
▁brazos	-11.9162
▁historian	-11.9162
▁pumpkin	-11.9162
▁ventilator	-11.9162
▁whlsper	-11.9162
▁fancie	-11.9162
▁involvement	-11.9162
▁selected	-11.9162
▁appreciation	-11.9162
▁compact	-11.9162
▁redefin	-11.9162
▁tubby	-11.9162
▁inevitable	-11.9162
▁prescribe	-11.9162
▁consistent	-11.9162
▁mumps	-11.9162
▁savage	-11.9162
▁reclamation	-11.9162
▁thethe	-11.9162
▁chalk	-11.9162
▁therapist	-11.9162
▁carolina	-11.9162
▁groov	-11.9162
▁infantry	-11.9162
▁managing	-11.9162
▁enlist	-11.9162
▁yyou	-11.9162
▁hush	-11.9162
aware	-11.9162
▁poppy	-11.9162
▁sprout	-11.9162
steroid	-11.9162
▁nip	-11.9162
ibald	-11.9162
▁lancelot	-11.9162
▁hanley	-11.9162
▁titty	-11.9162
▁revoir	-11.9162
▁boundaries	-11.9162
▁puke	-11.9162
▁quarry	-11.9162
▁podell	-11.9162
▁rita	-11.9162
▁scotch	-11.9162
▁leavln	-11.9162
▁mohawk	-11.9162
▁broads	-11.9163
▁mmmmmm	-11.9163
▁fortnight	-11.9163
▁monica	-11.9163
▁noose	-11.9163
douche	-11.9163
▁frequent	-11.9163
▁sought	-11.9163
▁upsidedown	-11.9163
torian	-11.9163
▁blair	-11.9163
▁cancelled	-11.9163
▁carcass	-11.9163
▁spray	-11.9163
▁trimm	-11.9163
▁elght	-11.9163
▁novel	-11.9163
▁fitzys	-11.9163
▁lutheran	-11.9163
▁expelled	-11.9163
▁tiring	-11.9163
▁tarts	-11.9163
▁bomp	-11.9163
▁avengers	-11.9163
▁binary	-11.9163
▁delhi	-11.9163
▁hubble	-11.9163
▁razor	-11.9163
▁suspicious	-11.9163
▁detonator	-11.9163
▁detachment	-11.9163
▁subdue	-11.9163
▁pinpoint	-11.9163
▁theodore	-11.9163
▁tragically	-11.9163
▁bacon	-11.9163
▁snowstorm	-11.9163
▁obstruction	-11.9163
▁snickering	-11.9163
▁mutation	-11.9163
▁testament	-11.9163
▁anfo	-11.9163
▁attraction	-11.9163
▁trifl	-11.9163
▁sisterinlaw	-11.9163
▁harass	-11.9163
▁loath	-11.9163
▁attendance	-11.9163
▁colos	-11.9163
▁northeast	-11.9164
▁replie	-11.9164
lphi	-11.9164
▁chatting	-11.9164
▁consciousness	-11.9164
▁liability	-11.9164
▁remarried	-11.9164
▁stylis	-11.9164
▁hq	-11.9164
▁marble	-11.9164
▁flair	-11.9164
quaint	-11.9164
wind	-11.9164
▁groceries	-11.9164
▁kor	-11.9164
sensual	-11.9164
equi	-11.9164
▁jiggl	-11.9164
▁beatrice	-11.9164
▁sparring	-11.9164
▁interface	-11.9164
▁treebeard	-11.9164
▁cheapside	-11.9164
▁mirv	-11.9164
▁sanitation	-11.9164
▁stagger	-11.9164
▁intersection	-11.9164
▁brotherinlaw	-11.9164
▁wasp	-11.9164
▁nece	-11.9164
▁bulldog	-11.9164
▁stumbling	-11.9164
▁clayton	-11.9164
lapping	-11.9164
▁avail	-11.9164
▁tanell	-11.9164
odred	-11.9164
▁disruption	-11.9164
▁oppression	-11.9164
▁freestyle	-11.9164
▁loneli	-11.9164
▁oooh	-11.9164
▁shack	-11.9164
▁valet	-11.9164
▁bathrobe	-11.9164
▁knit	-11.9164
▁boong	-11.9165
▁comb	-11.9165
brewing	-11.9165
▁amuse	-11.9165
▁dunne	-11.9165
jak	-11.9165
▁secre	-11.9165
▁consul	-11.9165
▁diameter	-11.9165
▁philosopher	-11.9165
▁whiz	-11.9165
▁cucko	-11.9165
▁independently	-11.9165
▁qualify	-11.9165
▁cruelty	-11.9165
▁sipping	-11.9165
▁derive	-11.9165
▁necessit	-11.9165
▁braid	-11.9165
▁polar	-11.9165
▁burial	-11.9165
▁gloss	-11.9165
▁witty	-11.9165
▁wives	-11.9165
▁commerc	-11.9165
▁squadron	-11.9165
▁variet	-11.9165
▁twentytwo	-11.9165
▁jiff	-11.9165
▁blank	-11.9165
▁hewe	-11.9165
▁billboard	-11.9166
▁purity	-11.9166
▁whew	-11.9166
▁riff	-11.9166
▁peach	-11.9166
▁sofa	-11.9166
sanctioned	-11.9166
▁salva	-11.9166
▁nipp	-11.9166
▁rico	-11.9166
▁deutschland	-11.9166
▁wakefield	-11.9166
▁bookshop	-11.9166
▁titan	-11.9166
▁twirly	-11.9166
▁utility	-11.9166
▁consist	-11.9166
▁giddy	-11.9166
▁password	-11.9166
▁calculator	-11.9166
▁foresee	-11.9166
▁alcoholic	-11.9166
▁poland	-11.9166
▁slamme	-11.9166
▁weaponized	-11.9166
▁combatant	-11.9166
▁dingoes	-11.9166
abul	-11.9166
▁brotherhood	-11.9166
▁spitting	-11.9166
▁teamwork	-11.9166
▁topthorn	-11.9166
▁rejection	-11.9167
▁dwe	-11.9167
▁sutton	-11.9167
▁bronx	-11.9167
spective	-11.9167
▁cerebro	-11.9167
▁gutted	-11.9167
▁devon	-11.9167
▁artery	-11.9167
greatgrandfather	-11.9167
▁decisi	-11.9167
▁yoyo	-11.9167
▁moto	-11.9167
▁ratty	-11.9167
changer	-11.9167
▁slx	-11.9167
▁flatb	-11.9167
▁toto	-11.9168
ummies	-11.9168
▁keg	-11.9168
uffl	-11.9168
rview	-11.9168
▁levantus	-11.9168
▁awhile	-11.9168
▁seaboard	-11.9168
same	-11.9168
▁prettier	-11.9168
▁dense	-11.9168
urray	-11.9168
▁molar	-11.9168
▁glue	-11.9169
▁casual	-11.9169
▁commandments	-11.9169
tobe	-11.9169
▁middleweight	-11.9169
▁posture	-11.9169
▁forbid	-11.9169
▁mainland	-11.9169
▁wasteland	-11.9169
pierre	-11.917
▁ingest	-11.917
▁readiness	-11.917
▁shushes	-11.917
▁once	-11.917
▁adol	-11.917
▁inhabit	-11.917
▁mistress	-11.917
▁recognition	-11.917
▁responsive	-11.917
▁uzman	-11.917
▁agalnst	-11.917
▁lemon	-11.917
▁sundown	-11.917
▁discretion	-11.917
▁taters	-11.917
▁elys	-11.917
▁longterm	-11.917
▁ambition	-11.917
▁brian	-11.917
▁refusal	-11.917
▁hogan	-11.917
▁fender	-11.9171
▁mwa	-11.9171
▁navigate	-11.9171
▁stroll	-11.9171
▁improvise	-11.9171
▁stray	-11.9171
▁ballistic	-11.9171
▁youngsoon	-11.9171
▁refin	-11.9171
ummin	-11.9172
▁barkin	-11.9172
▁execution	-11.9172
▁puppies	-11.9172
phet	-11.9172
▁glide	-11.9172
▁decoration	-11.9172
▁countdown	-11.9172
▁extradit	-11.9173
▁headphone	-11.9173
▁programmable	-11.9173
▁counterfeiting	-11.9173
▁partnership	-11.9173
▁rigid	-11.9173
▁blackjack	-11.9173
▁eta	-11.9173
▁seventyf	-11.9173
▁wreckers	-11.9174
▁decay	-11.9174
▁domino	-11.9174
▁pussy	-11.9174
▁fuzzy	-11.9174
▁brennan	-11.9174
ctory	-11.9174
▁tock	-11.9174
fighter	-11.9174
▁pub	-11.9174
▁ofit	-11.9174
▁asian	-11.9174
mature	-11.9175
▁robinson	-11.9175
▁viable	-11.9175
▁governesses	-11.9175
▁transportation	-11.9176
▁enri	-11.9176
▁cocoon	-11.9176
gear	-11.9176
▁fuss	-11.9176
▁fictional	-11.9176
▁yoga	-11.9176
▁loner	-11.9176
▁corruption	-11.9177
▁deliberately	-11.9177
▁potter	-11.9177
▁crab	-11.9177
▁invo	-11.9177
▁bullshitting	-11.9178
▁timid	-11.9178
▁rasp	-11.9178
▁mutters	-11.9178
▁void	-11.9179
▁colin	-11.9179
▁zur	-11.9179
▁stern	-11.9179
▁mlne	-11.918
▁canal	-11.918
▁posse	-11.918
▁bible	-11.918
▁begln	-11.918
▁translator	-11.9181
▁valve	-11.9181
▁payday	-11.9181
▁conviction	-11.9181
▁patrician	-11.9181
▁jap	-11.9181
▁blasphemy	-11.9181
▁restroom	-11.9181
▁lunchtime	-11.9182
come	-11.9182
▁pear	-11.9182
▁halr	-11.9182
▁sarai	-11.9182
▁primate	-11.9183
▁meaningless	-11.9183
▁sidewalk	-11.9183
▁nursery	-11.9184
▁macar	-11.9184
▁legit	-11.9184
▁moser	-11.9184
▁sour	-11.9184
stein	-11.9185
▁wasteful	-11.9185
▁coff	-11.9186
▁facebook	-11.9186
▁broom	-11.9186
▁burrow	-11.9186
▁scalper	-11.9186
▁eval	-11.9186
▁roti	-11.9187
▁frontier	-11.9187
▁lash	-11.9187
▁yoshi	-11.9188
▁entirety	-11.9188
▁jang	-11.9188
▁youse	-11.9188
▁ramon	-11.9189
▁colorful	-11.9189
▁expired	-11.9189
▁composed	-11.9189
▁persuaded	-11.9189
▁sleepover	-11.9189
▁modesty	-11.9189
▁alas	-11.9189
▁rapidly	-11.919
chte	-11.919
▁taxman	-11.919
▁sleepier	-11.919
▁emlly	-11.919
▁lockout	-11.919
▁gloat	-11.9191
▁hangover	-11.9191
▁litera	-11.9191
mela	-11.9192
▁tripping	-11.9192
▁herd	-11.9193
aeda	-11.9193
▁cramming	-11.9193
▁heartbreaking	-11.9193
▁polishing	-11.9193
▁departing	-11.9193
▁bien	-11.9193
▁underc	-11.9194
▁marie	-11.9194
ryan	-11.9195
▁cleansing	-11.9195
▁lastminute	-11.9196
▁prop	-11.9197
▁indiana	-11.9198
▁hash	-11.9198
▁eliminated	-11.9198
▁postponed	-11.9198
▁dire	-11.9198
▁rigor	-11.9198
▁passionately	-11.9199
blings	-11.9199
▁standoff	-11.9199
▁toby	-11.9199
▁deceived	-11.92
▁script	-11.92
▁content	-11.92
▁perch	-11.92
▁knockout	-11.92
▁archive	-11.9201
▁locket	-11.9201
▁fries	-11.9201
▁poodle	-11.9201
▁galad	-11.9201
odor	-11.9202
▁lordship	-11.9202
▁peep	-11.9202
▁globe	-11.9202
onig	-11.9203
esir	-11.9204
▁objection	-11.9204
mada	-11.9204
▁mortality	-11.9204
ebra	-11.9204
▁mature	-11.9204
▁anim	-11.9204
▁lola	-11.9205
estro	-11.9205
▁stiffy	-11.9205
▁coverage	-11.9206
▁identified	-11.9206
▁comma	-11.9207
▁charter	-11.9207
▁dough	-11.9207
▁stinger	-11.9207
▁sunup	-11.9207
▁brainless	-11.9208
▁with	-11.9208
▁fig	-11.9208
▁manually	-11.9209
▁luca	-11.9209
▁virtual	-11.9209
▁anticipated	-11.921
▁creation	-11.921
▁machinery	-11.9211
▁inherited	-11.9211
▁disabled	-11.9211
▁rallies	-11.9211
▁carpenters	-11.9211
▁virtuos	-11.9211
▁sur	-11.9211
▁moonli	-11.9212
▁bumme	-11.9213
▁damp	-11.9213
▁noo	-11.9213
▁trespassing	-11.9213
▁recruiting	-11.9213
▁whim	-11.9213
▁shushing	-11.9213
▁keener	-11.9214
▁traditional	-11.9214
▁rotor	-11.9215
lando	-11.9215
▁hama	-11.9216
▁baked	-11.9216
▁askew	-11.9216
▁bearers	-11.9217
▁constitute	-11.9217
▁fulltime	-11.9217
▁freezer	-11.9217
▁downloaded	-11.9218
▁toughest	-11.9219
▁stretcher	-11.9219
▁leop	-11.922
▁popup	-11.9221
▁mouthful	-11.9221
▁ridge	-11.9221
▁educated	-11.9222
▁coverup	-11.9222
▁tense	-11.9222
▁defy	-11.9223
▁wider	-11.9224
▁banksy	-11.9224
▁dedicated	-11.9225
▁nahor	-11.9225
unned	-11.9225
dise	-11.9226
▁dull	-11.9226
▁shhh	-11.9226
▁tid	-11.9227
▁klng	-11.9228
▁daylight	-11.923
▁crylng	-11.923
▁herman	-11.923
▁euc	-11.923
▁iim	-11.9231
▁laughlng	-11.9232
▁exploiting	-11.9234
▁bach	-11.9234
▁distracting	-11.9234
▁leftover	-11.9234
▁sche	-11.9235
▁dish	-11.9235
nito	-11.9236
bbie	-11.9236
▁dew	-11.9236
▁stance	-11.9237
vol	-11.9237
▁tricksy	-11.9239
▁petr	-11.9239
▁silently	-11.924
▁separately	-11.924
▁politically	-11.924
ori	-11.9241
▁appointed	-11.9241
standing	-11.9241
pd	-11.9243
▁headline	-11.9244
▁riddled	-11.9244
▁activated	-11.9244
illn	-11.9244
mpered	-11.9245
▁badass	-11.9246
▁kath	-11.9246
▁instantly	-11.9246
▁valkyrie	-11.9247
route	-11.9249
▁induce	-11.925
▁pleaded	-11.9251
▁okun	-11.9252
▁blackout	-11.9255
▁relying	-11.9255
▁proudest	-11.9255
▁mic	-11.9256
▁unbea	-11.9261
▁threeone	-11.9262
▁accelerat	-11.9262
▁willo	-11.9264
rican	-11.9264
▁assembled	-11.9264
▁pez	-11.9265
▁rainier	-11.9266
▁sacked	-11.9267
▁fulfilled	-11.9268
▁sailed	-11.9269
▁weeping	-11.9276
▁checkup	-11.9276
▁spar	-11.9276
▁syri	-11.9277
best	-11.9277
otine	-11.9278
▁weirdo	-11.9278
akln	-11.9278
imple	-11.9279
▁hola	-11.9279
▁severed	-11.9281
▁aging	-11.9283
beaver	-11.9283
villan	-11.9283
fiddy	-11.9283
▁dizz	-11.9284
▁perfection	-11.9288
▁hydro	-11.9289
▁cryo	-11.929
tag	-11.929
▁breakup	-11.9291
▁cutie	-11.9291
▁disturbing	-11.9292
▁momentum	-11.9292
▁carne	-11.9295
▁expanding	-11.9297
▁clari	-11.9297
▁rivets	-11.9297
▁kidneys	-11.9297
▁missle	-11.9297
▁comrades	-11.9297
▁filters	-11.9297
▁ripples	-11.9297
▁scholars	-11.9297
▁tentacles	-11.9297
▁musclehead	-11.9297
▁cowardly	-11.9297
▁endeavors	-11.9297
▁splinters	-11.9298
mortality	-11.9298
▁parachutes	-11.9299
▁escorted	-11.93
ckle	-11.9302
▁paged	-11.9302
▁concentrated	-11.9302
▁eyeballs	-11.9304
steem	-11.9305
▁dazzl	-11.9306
▁lace	-11.9307
▁socially	-11.931
▁gunman	-11.9311
▁anna	-11.9311
▁lair	-11.9311
▁swelling	-11.9316
▁bailed	-11.9317
▁downing	-11.9319
▁reminder	-11.932
▁mourn	-11.9323
▁goodnight	-11.9324
▁pickle	-11.9328
▁mitsu	-11.933
▁dit	-11.933
▁ado	-11.9333
▁dusty	-11.9334
▁krakozhian	-11.9335
▁tame	-11.9336
▁hacking	-11.9337
▁musl	-11.9338
fuse	-11.9339
dir	-11.934
▁laughin	-11.9342
▁softer	-11.9342
▁reckoning	-11.9347
resist	-11.9347
▁leaked	-11.9349
▁talented	-11.9349
▁yorkers	-11.935
▁firearm	-11.9351
▁gring	-11.9352
utz	-11.9352
▁cheated	-11.9354
▁askln	-11.9355
▁doctorate	-11.9357
▁rath	-11.9357
▁crossword	-11.9359
▁volunteered	-11.9366
rien	-11.9366
▁dill	-11.937
▁laces	-11.9372
▁crest	-11.9373
▁nighttime	-11.9376
▁developing	-11.938
▁privately	-11.938
▁weakly	-11.938
mpan	-11.9384
▁thrives	-11.9385
▁capsules	-11.9385
▁granddaughters	-11.9385
▁hardwicks	-11.9385
▁introductions	-11.9385
▁oysters	-11.9385
▁warheads	-11.9385
▁prospects	-11.9386
▁tourists	-11.9386
▁rhymes	-11.9387
▁flre	-11.939
▁renovat	-11.9392
▁ohio	-11.9394
▁restructur	-11.9394
eautiful	-11.9396
▁traded	-11.9397
eyed	-11.94
▁purv	-11.94
▁forgiven	-11.9403
▁flopp	-11.941
rapping	-11.9411
▁booster	-11.9411
▁cheerful	-11.9411
pollute	-11.9414
umn	-11.9415
▁stun	-11.9415
dolf	-11.9419
berry	-11.9421
▁abandoning	-11.9423
▁sid	-11.9426
ofa	-11.9427
▁rationaliz	-11.9428
▁fireman	-11.9429
now	-11.9429
▁zing	-11.943
▁blindly	-11.9431
▁collected	-11.9432
▁nominat	-11.9432
roscop	-11.9439
▁allergi	-11.9442
▁disc	-11.9442
god	-11.9444
▁sadly	-11.9446
▁tactic	-11.9447
▁wearin	-11.9454
fluent	-11.9461
▁covert	-11.9462
▁fiance	-11.9463
▁fled	-11.9465
▁stamps	-11.9469
▁dane	-11.9474
▁tighter	-11.9476
rites	-11.9484
▁winch	-11.9486
▁rating	-11.9486
▁pissing	-11.9489
▁seam	-11.9492
▁shovel	-11.9495
▁intended	-11.9498
wash	-11.95
tlght	-11.9502
▁starters	-11.9504
▁nesting	-11.9506
▁functioning	-11.9506
▁reme	-11.9508
▁taco	-11.9508
▁farming	-11.9509
▁kite	-11.9509
receptionist	-11.9512
doc	-11.9518
▁deni	-11.9533
▁yelled	-11.9537
▁twister	-11.9538
▁marker	-11.9543
ornia	-11.9552
▁faithful	-11.9553
▁referr	-11.9557
▁audits	-11.9559
iversity	-11.9564
▁bullsh	-11.9568
▁exteri	-11.957
pposition	-11.9589
▁beard	-11.9604
veal	-11.9617
een	-11.9626
visualize	-11.963
ient	-11.9633
▁anthi	-11.9638
▁abduct	-11.965
hite	-11.9652
▁hype	-11.9666
realistic	-11.9666
▁auctioned	-11.9674
urd	-11.9675
▁readin	-11.9682
▁transporter	-11.9698
flynn	-11.9716
▁evasi	-11.9722
ean	-11.9727
▁rumm	-11.9731
ender	-11.9742
itch	-11.9752
▁cho	-11.9764
oey	-11.9774
▁tok	-11.9794
apron	-11.9804
▁suppli	-11.9812
ether	-11.9829
wish	-11.9834
▁ave	-11.9844
tv	-11.985
oid	-11.9859
▁idealist	-11.987
scarred	-11.9874
etus	-11.9879
aise	-11.9891
▁schm	-11.992
▁aber	-11.992
ooooo	-11.9922
▁palat	-11.9927
ouch	-11.9948
▁groupie	-11.9961
tuna	-11.9963
tray	-11.9987
▁scro	-11.9989
from	-12.0002
steppe	-12.0007
elated	-12.0011
▁oral	-12.0012
allow	-12.0017
arrow	-12.0021
▁warg	-12.0043
ilda	-12.0048
leen	-12.0054
▁fet	-12.0055
which	-12.0087
▁hipp	-12.0097
qualified	-12.0101
▁pranc	-12.0134
kat	-12.0135
spense	-12.0161
▁phar	-12.0167
gender	-12.0185
rbon	-12.0185
ford	-12.0202
▁mori	-12.0225
▁moor	-12.0235
▁juggl	-12.0301
▁gro	-12.0304
▁pil	-12.032
▁obscur	-12.0325
lant	-12.034
were	-12.0366
▁grad	-12.0372
▁scr	-12.0372
▁kaya	-12.0376
lal	-12.0393
▁feeder	-12.0424
▁gill	-12.0436
ience	-12.0437
▁seeker	-12.0452
▁subsid	-12.0453
▁sti	-12.0487
nia	-12.0512
apped	-12.0527
▁megat	-12.0569
▁specialize	-12.0607
▁lapi	-12.062
ethical	-12.0627
▁diagnos	-12.0651
▁glo	-12.0653
▁resi	-12.0681
▁kam	-12.069
▁provoke	-12.0732
▁contribut	-12.0766
netic	-12.0769
▁cater	-12.077
eutic	-12.0782
▁overtur	-12.0814
uf	-12.0835
opath	-12.0838
▁az	-12.0864
rb	-12.089
▁glance	-12.0914
▁periodic	-12.0932
stripes	-12.0964
▁manipulat	-12.097
▁ele	-12.0989
determination	-12.099
competent	-12.1002
monk	-12.1009
▁tit	-12.1018
hili	-12.103
pah	-12.1031
des	-12.105
▁dian	-12.1051
▁alf	-12.1055
▁reassign	-12.1057
▁chan	-12.1058
▁shap	-12.1067
▁patel	-12.1104
▁dud	-12.1125
ique	-12.1138
oval	-12.1157
uv	-12.1163
ddling	-12.1189
▁glor	-12.1194
▁iti	-12.1207
▁misunderstand	-12.1243
pher	-12.1252
▁buckle	-12.1278
▁spi	-12.1292
▁deceive	-12.1304
▁documentar	-12.1323
▁schna	-12.1334
▁chippe	-12.1338
bug	-12.1339
▁kno	-12.1391
hem	-12.1406
uary	-12.1415
udge	-12.1479
▁wade	-12.1483
▁levi	-12.1488
nega	-12.1532
▁zu	-12.1543
▁gall	-12.1593
▁quar	-12.1621
▁flushe	-12.1627
rank	-12.1694
ckey	-12.1694
▁ellis	-12.1696
hel	-12.17
▁oz	-12.1721
rotc	-12.174
▁manipulate	-12.176
bow	-12.1765
vious	-12.1813
rawlers	-12.188
▁janu	-12.1885
▁za	-12.1912
▁rei	-12.1932
ermin	-12.1949
▁contribute	-12.1963
▁humbl	-12.1988
rium	-12.1995
lio	-12.201
▁stimulat	-12.2058
▁reviv	-12.2067
▁ste	-12.2079
ofk	-12.2085
▁cli	-12.2169
▁flne	-12.2174
▁sparkle	-12.223
gate	-12.2231
unning	-12.2247
zu	-12.2254
▁sparkl	-12.2263
▁rott	-12.2298
rim	-12.2312
loo	-12.2358
pur	-12.2401
▁shar	-12.2422
▁arr	-12.2462
ndoor	-12.2494
▁calcul	-12.2497
▁obscure	-12.2507
▁nooo	-12.2512
▁juggle	-12.2537
authorized	-12.2554
satisfying	-12.2598
▁enabl	-12.2614
oche	-12.2626
ige	-12.2639
▁sentenc	-12.2663
▁reproduc	-12.2683
▁sav	-12.271
niest	-12.2735
▁zet	-12.2741
▁schn	-12.2752
ology	-12.2789
▁forsake	-12.2805
▁frat	-12.2826
▁cavi	-12.2856
latin	-12.288
▁appr	-12.2889
hipped	-12.2928
mantle	-12.2936
▁when	-12.2938
▁imitat	-12.2939
▁edw	-12.2939
tif	-12.294
brat	-12.2974
▁sanct	-12.2975
othe	-12.2976
▁shav	-12.2992
▁lav	-12.3002
▁spr	-12.3022
▁defic	-12.3035
illion	-12.304
beta	-12.3046
▁tre	-12.3058
cid	-12.3064
▁anticipat	-12.3068
▁communi	-12.3069
beri	-12.308
groom	-12.3106
▁sever	-12.3121
▁destruct	-12.316
▁admitt	-12.3201
anti	-12.325
▁wil	-12.3279
thank	-12.3302
▁invad	-12.3311
tim	-12.3313
▁arti	-12.335
tom	-12.3364
oi	-12.3368
ecker	-12.3393
dryer	-12.3416
protected	-12.3432
▁elli	-12.3436
▁proc	-12.3439
▁deli	-12.3448
▁diggin	-12.3466
titude	-12.3467
vance	-12.347
▁fortif	-12.3492
rena	-12.3499
▁verba	-12.3533
▁aaa	-12.3534
oze	-12.3537
index	-12.3578
gent	-12.3578
otte	-12.3584
▁gibb	-12.3598
lght	-12.3625
mark	-12.3677
▁horr	-12.369
doves	-12.3694
mme	-12.3696
mor	-12.3724
aver	-12.3725
scope	-12.3727
▁tact	-12.3728
▁cui	-12.3732
delu	-12.3734
istle	-12.3734
▁testif	-12.3741
otsy	-12.3771
efied	-12.3788
▁scal	-12.3797
chen	-12.3803
taken	-12.3805
ovation	-12.3813
▁irre	-12.3818
▁troop	-12.3844
ava	-12.3846
▁harri	-12.3882
anz	-12.3884
▁raz	-12.3892
nsen	-12.3895
ngton	-12.3902
taking	-12.3905
▁zip	-12.3905
▁promote	-12.3907
▁accu	-12.3915
esville	-12.3919
▁sniff	-12.3919
ssie	-12.3923
▁stumble	-12.3933
▁allo	-12.3936
▁involve	-12.3936
▁worrie	-12.3938
▁grap	-12.3943
▁scholar	-12.3943
▁comrade	-12.3944
▁ripple	-12.3944
▁filter	-12.3944
▁tentacle	-12.3944
▁rivet	-12.3945
▁endeavor	-12.3945
▁surfin	-12.3946
utc	-12.3949
▁splinter	-12.395
▁parachute	-12.395
▁snoo	-12.395
▁detonat	-12.3951
▁lesbian	-12.3954
▁textbook	-12.3955
ocarbon	-12.3957
quake	-12.3958
▁candidate	-12.3959
▁flare	-12.3961
▁scanner	-12.3961
▁slam	-12.3962
▁knuckle	-12.3963
▁sedative	-12.3963
▁gene	-12.3964
▁gramp	-12.3964
▁mumble	-12.3964
▁peasant	-12.3965
▁aff	-12.3966
doubted	-12.3967
▁propo	-12.3968
▁kidney	-12.3969
▁greeting	-12.3969
▁wolve	-12.3974
▁resource	-12.3974
▁copper	-12.3975
▁brownie	-12.3976
olic	-12.3978
▁scoff	-12.3979
▁conner	-12.3979
▁diva	-12.398
▁assassination	-12.3981
▁precede	-12.3982
▁eyeball	-12.3984
▁twin	-12.3993
▁patent	-12.3994
control	-12.3995
ramp	-12.4011
▁relic	-12.4015
▁pledg	-12.4017
easy	-12.4017
▁gener	-12.4019
▁schw	-12.4021
pelled	-12.4029
ania	-12.4032
▁quo	-12.4035
▁compel	-12.4038
▁frighten	-12.4041
▁kar	-12.4046
▁pint	-12.4047
▁stinkin	-12.405
▁seren	-12.4058
▁hysteric	-12.407
▁associat	-12.407
▁constitu	-12.4071
▁affection	-12.4073
abic	-12.4078
fus	-12.4079
ashi	-12.4081
laborat	-12.4084
▁homicid	-12.4086
▁requir	-12.4087
▁experienc	-12.4089
charge	-12.4094
▁griev	-12.4094
teller	-12.4095
under	-12.4096
earned	-12.4096
tacks	-12.4097
▁concentrat	-12.4099
▁damag	-12.4101
▁complet	-12.4101
crow	-12.4103
nails	-12.4106
▁sacrific	-12.4106
▁aisl	-12.4109
▁seiz	-12.4109
▁dedicat	-12.4109
▁figur	-12.411
▁decid	-12.4111
▁polish	-12.4111
▁sei	-12.4112
spice	-12.4113
▁depart	-12.4114
luck	-12.4114
strid	-12.4114
▁cran	-12.4115
▁cramm	-12.4116
neck	-12.4116
gical	-12.4117
woman	-12.4119
▁humm	-12.4119
▁attract	-12.4119
oodles	-12.412
earth	-12.4121
▁rov	-12.4121
horse	-12.4122
▁retard	-12.4123
ealty	-12.4123
▁clea	-12.4123
educated	-12.4123
yoshi	-12.4123
galad	-12.4123
provoke	-12.4123
▁injur	-12.4124
athlete	-12.4125
foam	-12.4125
restricted	-12.4125
phrase	-12.4125
▁exhaust	-12.4125
style	-12.4125
connect	-12.4125
married	-12.4126
culture	-12.4126
pipe	-12.4126
practicing	-12.4126
simmons	-12.4126
located	-12.4126
deposit	-12.4126
continent	-12.4127
skirt	-12.4127
▁teenage	-12.4127
descend	-12.4127
promising	-12.4127
forward	-12.4127
▁heartbreak	-12.4127
text	-12.4127
examine	-12.4127
players	-12.4127
reservation	-12.4127
sensitive	-12.4127
wreck	-12.4127
float	-12.4128
andrew	-12.4128
screen	-12.4128
traveled	-12.4128
babies	-12.4128
grandmother	-12.4128
significant	-12.4128
century	-12.4128
together	-12.4128
fund	-12.4128
tapes	-12.4128
combat	-12.4128
available	-12.4129
birth	-12.4129
▁mop	-12.4129
piece	-12.4129
prepared	-12.4129
practice	-12.4129
tooth	-12.4129
coach	-12.4129
flesh	-12.4129
killer	-12.4129
understood	-12.4129
blocks	-12.4129
ecture	-12.4129
teacher	-12.4129
william	-12.4129
favor	-12.4129
invited	-12.4129
system	-12.4129
information	-12.4129
maura	-12.4129
papa	-12.4129
closed	-12.4129
certain	-12.4129
moment	-12.4129
forget	-12.4129
captain	-12.4129
jesus	-12.4129
gasps	-12.4129
smash	-12.4129
wife	-12.4129
maybe	-12.4129
yearold	-12.413
score	-12.413
lady	-12.413
selfish	-12.413
ladies	-12.413
duty	-12.413
daddy	-12.4131
tail	-12.4131
moto	-12.4131
chief	-12.4131
▁conclude	-12.4131
▁supervise	-12.4131
mask	-12.4133
fell	-12.4133
▁notic	-12.4134
spring	-12.4135
▁voi	-12.4135
amami	-12.4135
metal	-12.4135
▁paranoi	-12.4135
▁publi	-12.4136
worldly	-12.4136
▁initiate	-12.4136
mega	-12.4136
screams	-12.4137
▁discharge	-12.4137
▁conceive	-12.4137
▁relieve	-12.4137
bert	-12.4137
▁relate	-12.4137
▁combine	-12.4137
chip	-12.4138
plate	-12.4138
letter	-12.4138
ivan	-12.4139
▁frequenc	-12.414
speed	-12.414
based	-12.414
▁fantas	-12.414
▁garde	-12.4141
▁tranquil	-12.4141
▁fuzz	-12.4142
▁therap	-12.4142
mile	-12.4142
match	-12.4142
▁temporar	-12.4143
communicat	-12.4143
▁robber	-12.4144
▁marko	-12.4144
▁dignit	-12.4144
▁chemical	-12.4144
▁hypothetical	-12.4144
▁militar	-12.4145
▁dagg	-12.4145
▁regimen	-12.4145
▁delight	-12.4146
itude	-12.4146
▁charit	-12.4146
▁snor	-12.4146
▁navigat	-12.4146
abilit	-12.4146
▁improvis	-12.4147
▁flog	-12.4147
inlaw	-12.4147
▁flick	-12.4147
▁angr	-12.4147
obots	-12.4147
making	-12.4147
▁invert	-12.4148
▁sensitiv	-12.4148
▁mild	-12.4148
▁juic	-12.4148
▁remarkabl	-12.4148
▁disast	-12.4148
friendly	-12.4149
wayne	-12.4149
▁diploma	-12.415
produc	-12.4152
lucky	-12.4152
▁asia	-12.4153
▁trinke	-12.4153
▁reinstate	-12.4154
▁occup	-12.4154
tung	-12.4154
known	-12.4154
▁conserv	-12.4155
▁thiev	-12.4155
step	-12.4155
▁soci	-12.4155
▁origin	-12.4155
▁aspir	-12.4155
charged	-12.4155
▁ratio	-12.4155
▁heave	-12.4155
▁norm	-12.4156
cere	-12.4156
ceman	-12.4156
▁optic	-12.4157
▁scot	-12.4157
scribe	-12.4158
▁writin	-12.4158
▁sparrin	-12.4158
▁situat	-12.4158
▁selfdestruct	-12.4158
▁celebratin	-12.4158
▁obstruct	-12.4158
▁centuri	-12.4158
▁darlin	-12.4158
▁extensi	-12.4158
▁celebr	-12.4159
▁minimu	-12.4159
▁construct	-12.4159
pay	-12.4159
nounce	-12.4159
bold	-12.4159
ingham	-12.4159
penetra	-12.4159
▁stride	-12.416
▁easie	-12.416
plore	-12.416
▁infant	-12.416
cussion	-12.416
▁aggress	-12.416
▁tribu	-12.416
▁confid	-12.416
▁endorse	-12.416
▁kevl	-12.416
▁alleg	-12.4161
snicker	-12.4161
▁skul	-12.4161
▁agua	-12.4161
▁architect	-12.4161
▁vita	-12.4161
minded	-12.4161
▁surveill	-12.4161
▁mutat	-12.4161
▁financ	-12.4161
▁thresh	-12.4161
▁acqui	-12.4161
▁extravagan	-12.4161
▁puss	-12.4161
lapse	-12.4161
▁norma	-12.4161
sylv	-12.4161
▁obedien	-12.4161
▁perpetua	-12.4161
otape	-12.4161
▁amazon	-12.4161
▁circumcis	-12.4161
▁dissociat	-12.4161
▁distribut	-12.4161
▁legislati	-12.4161
▁ludicrous	-12.4161
▁profound	-12.4161
▁reluctant	-12.4161
▁shrunk	-12.4161
▁sophisticat	-12.4161
▁succinct	-12.4161
▁toxic	-12.4161
▁unconditional	-12.4161
▁unzip	-12.4161
▁uproar	-12.4161
▁valiant	-12.4161
against	-12.4161
andahalf	-12.4161
arbarians	-12.4161
enheim	-12.4161
esthetic	-12.4161
jackhammer	-12.4161
leonora	-12.4161
nedain	-12.4161
ntercourse	-12.4161
omaniac	-12.4161
orthodo	-12.4161
schnitzel	-12.4161
sseldorf	-12.4161
visibility	-12.4161
▁abbu	-12.4161
▁academi	-12.4161
▁accommodati	-12.4161
▁accomplice	-12.4161
▁activating	-12.4161
▁adjourned	-12.4161
▁admirabl	-12.4161
▁admissions	-12.4161
▁aeronautic	-12.4161
▁aerospace	-12.4161
▁afghan	-12.4161
▁aglobe	-12.4161
▁ahahah	-12.4161
▁alliteration	-12.4161
▁analytic	-12.4161
▁anesthesia	-12.4161
▁anguish	-12.4161
▁antifreeze	-12.4161
▁aperitif	-12.4161
▁appetizer	-12.4161
▁applebaum	-12.4161
▁apprehended	-12.4161
▁aqua	-12.4161
▁aristocrat	-12.4161
▁asfaloth	-12.4161
▁assurances	-12.4161
▁balaji	-12.4161
▁balrog	-12.4161
▁bangladesh	-12.4161
▁banished	-12.4161
▁banshee	-12.4161
▁barbershop	-12.4161
▁barrister	-12.4161
▁bassett	-12.4161
▁bedandbreakfast	-12.4161
▁beurre	-12.4161
▁bewitched	-12.4161
▁bialyhoos	-12.4161
▁biometric	-12.4161
▁biorhythm	-12.4161
▁bittersweet	-12.4161
▁blazer	-12.4161
▁blitz	-12.4161
▁bloodstream	-12.4161
▁bloodsucker	-12.4161
▁bolger	-12.4161
▁boogeyman	-12.4161
▁boulevard	-12.4161
▁brakish	-12.4161
▁brewster	-12.4161
▁brigade	-12.4161
▁brocklehurst	-12.4161
▁brumby	-12.4161
▁bundle	-12.4161
▁calcium	-12.4161
▁cannelloni	-12.4161
▁carmichael	-12.4161
▁casserole	-12.4161
▁centaurs	-12.4161
▁charlemagne	-12.4161
▁chickierun	-12.4161
▁choonchun	-12.4161
▁chrome	-12.4161
▁civilisation	-12.4161
▁clergy	-12.4161
▁cllmb	-12.4161
▁clumsy	-12.4161
▁cojones	-12.4161
▁coleslaw	-12.4161
▁cologne	-12.4161
▁commodius	-12.4161
▁complication	-12.4161
▁compulsion	-12.4161
▁conclusion	-12.4161
▁consecrate	-12.4161
▁consolidat	-12.4161
▁constrain	-12.4161
▁constricting	-12.4161
▁contraire	-12.4161
▁corinthian	-12.4161
▁countermeasures	-12.4161
▁coupons	-12.4161
▁cowbell	-12.4161
▁crease	-12.4161
▁crescos	-12.4161
▁critters	-12.4161
▁cruz	-12.4161
▁culprit	-12.4161
▁daglish	-12.4161
▁darren	-12.4161
▁daydream	-12.4161
▁debella	-12.4161
▁decommissioned	-12.4161
▁definitively	-12.4161
▁degenerate	-12.4161
▁depressuriz	-12.4161
▁depriv	-12.4161
▁deserving	-12.4161
▁desperation	-12.4161
▁despicable	-12.4161
▁dialect	-12.4161
▁disadvantage	-12.4161
▁disciplined	-12.4161
▁disembowel	-12.4161
▁disintegrat	-12.4161
▁dissipate	-12.4161
▁dlsquallf	-12.4161
▁dorothy	-12.4161
▁eccentric	-12.4161
▁eclair	-12.4161
▁ecthelion	-12.4161
▁egelloc	-12.4161
▁emancipat	-12.4161
▁enlightenment	-12.4161
▁ensnare	-12.4161
▁enthusiastic	-12.4161
▁epidural	-12.4161
▁escalator	-12.4161
▁escaping	-12.4161
▁espionage	-12.4161
▁espress	-12.4161
▁eukaryotic	-12.4161
▁evacuees	-12.4161
▁exerc	-12.4161
▁expedite	-12.4161
▁explicitly	-12.4161
▁exploring	-12.4161
▁exposure	-12.4161
▁extremist	-12.4161
▁eyeopener	-12.4161
▁eyewitnesses	-12.4161
▁facilitate	-12.4161
▁feminists	-12.4161
▁filtration	-12.4161
▁flybywire	-12.4161
▁fornication	-12.4161
▁fossil	-12.4161
▁frenzy	-12.4161
▁freyne	-12.4161
▁frlgld	-12.4161
▁fugue	-12.4161
▁fundraiser	-12.4161
▁futile	-12.4161
▁galaxies	-12.4161
▁garagiola	-12.4161
▁genital	-12.4161
▁ghandi	-12.4161
▁giraffe	-12.4161
▁gomorrah	-12.4161
▁grammar	-12.4161
▁guaymas	-12.4161
▁guffaw	-12.4161
▁hallucinating	-12.4161
▁hattori	-12.4161
▁hazard	-12.4161
▁heidelberg	-12.4161
▁hemorrhage	-12.4161
▁heritage	-12.4161
▁hickok	-12.4161
▁hideandseek	-12.4161
▁hilarious	-12.4161
▁hippopotamus	-12.4161
▁hollingsworth	-12.4161
▁hopscotch	-12.4161
▁hudson	-12.4161
▁humanitarian	-12.4161
▁hyojung	-12.4161
▁hyperbole	-12.4161
▁hypocrite	-12.4161
▁hypothesis	-12.4161
▁imprisonment	-12.4161
▁improper	-12.4161
▁inbreathiate	-12.4161
▁inconsistent	-12.4161
▁incriminat	-12.4161
▁indirect	-12.4161
▁indulge	-12.4161
▁inexhaustible	-12.4161
▁infamy	-12.4161
▁inferior	-12.4161
▁infiltrated	-12.4161
▁infinity	-12.4161
▁influential	-12.4161
▁ingenious	-12.4161
▁ingenuit	-12.4161
▁ingredients	-12.4161
▁inscription	-12.4161
▁insulin	-12.4161
▁integrity	-12.4161
▁intellect	-12.4161
▁intermission	-12.4161
▁interrogat	-12.4161
▁interstate	-12.4161
▁intestine	-12.4161
▁irresponsible	-12.4161
▁ishmael	-12.4161
▁isotoner	-12.4161
▁japheth	-12.4161
▁jeopardize	-12.4161
▁jeremiah	-12.4161
▁joneswatson	-12.4161
▁jukebox	-12.4161
▁kildare	-12.4161
▁kingsfoil	-12.4161
▁kmart	-12.4161
▁knoxville	-12.4161
▁krushkach	-12.4161
▁landslide	-12.4161
▁ledoux	-12.4161
▁lehnsherr	-12.4161
▁liberace	-12.4161
▁lollipop	-12.4161
▁lumberjack	-12.4161
▁macarthur	-12.4161
▁mascara	-12.4161
▁mccarthy	-12.4161
▁mechanism	-12.4161
▁mercenaries	-12.4161
▁merrygoround	-12.4161
▁mervyn	-12.4161
▁miscalculation	-12.4161
▁miscarriage	-12.4161
▁mlsslsslppl	-12.4161
▁mobilisation	-12.4161
▁mohamm	-12.4161
▁mongoose	-12.4161
▁moonshine	-12.4161
▁morgue	-12.4161
▁morrris	-12.4161
▁motivate	-12.4161
▁motivation	-12.4161
▁multiplication	-12.4161
▁munching	-12.4161
▁murdoch	-12.4161
▁mysteries	-12.4161
▁negotiator	-12.4161
▁nephew	-12.4161
▁nightclub	-12.4161
▁nlghtmare	-12.4161
▁nodules	-12.4161
▁nonetheless	-12.4161
▁nuisance	-12.4161
▁numbskull	-12.4161
▁nutrient	-12.4161
▁nymph	-12.4161
▁obliterate	-12.4161
▁ohohohohoh	-12.4161
▁oppenheimer	-12.4161
▁ordnance	-12.4161
▁orpheus	-12.4161
▁overpass	-12.4161
▁overshadowed	-12.4161
▁overslept	-12.4161
▁pahrump	-12.4161
▁parcel	-12.4161
▁patullus	-12.4161
▁peculiar	-12.4161
▁pedestal	-12.4161
▁penguin	-12.4161
▁penniless	-12.4161
▁perceptive	-12.4161
▁persecution	-12.4161
▁persistent	-12.4161
▁perverse	-12.4161
▁picenum	-12.4161
▁poconos	-12.4161
▁politburo	-12.4161
▁polynesia	-12.4161
▁pragmatic	-12.4161
▁precinct	-12.4161
▁premium	-12.4161
▁prestige	-12.4161
▁prevail	-12.4161
▁provisions	-12.4161
▁pulsating	-12.4161
▁qulck	-12.4161
▁raffle	-12.4161
▁rambling	-12.4161
▁rebecca	-12.4161
▁rebellious	-12.4161
▁reciprocate	-12.4161
▁recluse	-12.4161
▁reconfigure	-12.4161
▁recreation	-12.4161
▁redirect	-12.4161
▁refuel	-12.4161
▁regulate	-12.4161
▁reinforcements	-12.4161
▁remedied	-12.4161
▁remodel	-12.4161
▁reprimand	-12.4161
▁reprisal	-12.4161
▁reptile	-12.4161
▁rererere	-12.4161
▁residency	-12.4161
▁respirator	-12.4161
▁retribution	-12.4161
▁rhino	-12.4161
▁rhinoceros	-12.4161
▁salzburg	-12.4161
▁sanatorium	-12.4161
▁sarcastic	-12.4161
▁schnapps	-12.4161
▁scrawny	-12.4161
▁seatbelt	-12.4161
▁selfcentered	-12.4161
▁selfevident	-12.4161
▁seminar	-12.4161
▁sermon	-12.4161
▁seungjae	-12.4161
▁seymour	-12.4161
▁shakespeare	-12.4161
▁shiatsu	-12.4161
▁shivering	-12.4161
▁showstopper	-12.4161
▁shrimp	-12.4161
▁singapore	-12.4161
▁singularities	-12.4161
▁skateboard	-12.4161
▁skedaddle	-12.4161
▁sorcere	-12.4161
▁souvenir	-12.4161
▁speargun	-12.4161
▁sputter	-12.4161
▁stamina	-12.4161
▁starburst	-12.4161
▁stepdaughter	-12.4161
▁steptouch	-12.4161
▁stereotyp	-12.4161
▁stomachache	-12.4161
▁stooge	-12.4161
▁strudel	-12.4161
▁sublime	-12.4161
▁suffocating	-12.4161
▁superintendent	-12.4161
▁supermarket	-12.4161
▁supervision	-12.4161
▁surname	-12.4161
▁suzuki	-12.4161
▁svanson	-12.4161
▁sweatshirt	-12.4161
▁swimsuit	-12.4161
▁taggert	-12.4161
▁tampering	-12.4161
▁tantrum	-12.4161
▁tarantula	-12.4161
[...]
