<unk>	0
<s>	0
</s>	0
s	-3.83681
▁im	-4.58073
▁dont	-4.61906
▁know	-4.67413
▁get	-4.83158
▁oh	-4.87408
▁well	-4.89257
▁go	-4.90286
▁like	-4.90325
▁come	-4.98436
▁right	-4.98531
▁youre	-5.12122
▁one	-5.13024
▁got	-5.15436
▁thats	-5.24309
▁see	-5.2505
▁good	-5.29731
▁yeah	-5.29881
▁want	-5.40195
▁think	-5.40345
▁yes	-5.46397
▁na	-5.49835
▁back	-5.54766
▁time	-5.57628
▁us	-5.60634
▁going	-5.61299
▁okay	-5.61697
▁look	-5.62018
▁ill	-5.63163
ing	-5.65571
▁take	-5.674
▁hey	-5.72292
▁man	-5.72857
▁gon	-5.74799
▁cant	-5.74948
▁hes	-5.75655
▁would	-5.7605
▁way	-5.86586
▁say	-5.87049
▁tell	-5.87486
▁little	-5.8877
▁could	-5.90892
ed	-5.91572
▁really	-5.92762
▁never	-5.94022
▁make	-5.95446
▁love	-6.01114
▁lets	-6.02506
▁something	-6.03074
▁need	-6.07043
▁let	-6.07869
▁whats	-6.09896
▁mean	-6.11964
▁didnt	-6.11996
▁l	-6.14119
▁thank	-6.14894
▁ive	-6.15953
▁give	-6.17394
▁theres	-6.1936
▁please	-6.19991
▁two	-6.22113
d	-6.22441
▁mr	-6.22955
▁sure	-6.23242
▁people	-6.23393
▁help	-6.29489
▁sorry	-6.30097
▁said	-6.31447
▁much	-6.31837
▁day	-6.32565
▁sir	-6.34212
▁	-6.34483
▁thing	-6.35208
▁music	-6.36401
▁first	-6.38151
▁uh	-6.39126
▁even	-6.39967
▁must	-6.40772
▁find	-6.4222
▁wait	-6.43246
▁great	-6.46351
▁life	-6.46858
y	-6.47709
▁home	-6.48704
▁theyre	-6.49901
▁shes	-6.50882
▁new	-6.50931
▁away	-6.51838
▁still	-6.54
▁better	-6.54196
▁nothing	-6.54294
▁stop	-6.56095
▁ever	-6.56565
▁god	-6.56604
▁work	-6.58378
▁maybe	-6.58787
▁big	-6.59236
▁boy	-6.59517
▁keep	-6.60319
▁night	-6.61121
▁anything	-6.6242
▁thought	-6.62837
▁put	-6.63372
▁long	-6.63614
▁always	-6.64344
▁call	-6.66116
▁old	-6.66611
▁around	-6.67078
▁things	-6.68779
▁youll	-6.68983
er	-6.69702
▁wont	-6.71384
▁world	-6.72962
▁id	-6.73433
ly	-6.73818
▁talk	-6.73921
▁last	-6.74167
▁told	-6.76431
▁believe	-6.76524
▁guys	-6.77766
▁everything	-6.77884
▁youve	-6.79962
▁leave	-6.81613
▁name	-6.82128
e	-6.82283
▁made	-6.82543
▁feel	-6.82636
▁place	-6.83382
▁every	-6.83418
▁hear	-6.83533
▁years	-6.83782
in	-6.83816
▁nice	-6.83879
▁stay	-6.84793
▁three	-6.86141
▁father	-6.86274
▁fine	-6.86887
▁remember	-6.87701
▁hell	-6.87768
▁money	-6.88105
▁girl	-6.89977
▁lot	-6.90037
▁coming	-6.90403
▁hello	-6.91159
▁course	-6.92012
▁listen	-6.92118
▁show	-6.92832
▁kind	-6.93123
▁huh	-6.93231
▁dad	-6.93528
▁hi	-6.93584
▁may	-6.94404
▁enough	-6.95192
▁doesnt	-6.95782
▁ta	-6.96727
▁thanks	-6.97319
▁another	-6.99239
▁mother	-6.99599
▁isnt	-6.997
▁left	-7.0266
▁real	-7.0277
▁miss	-7.02815
▁done	-7.03539
▁try	-7.03572
▁ready	-7.03904
▁care	-7.04388
▁might	-7.05223
▁came	-7.05334
▁bad	-7.05534
▁hold	-7.05851
▁best	-7.06288
▁mom	-7.06535
▁ok	-7.06668
▁mind	-7.07892
a	-7.08716
▁today	-7.08866
▁wanted	-7.08877
▁getting	-7.09776
▁wrong	-7.09797
▁ah	-7.1117
▁car	-7.1138
▁house	-7.1169
▁together	-7.12031
▁son	-7.12283
▁understand	-7.13352
▁men	-7.13968
▁next	-7.14318
▁wan	-7.14536
▁morning	-7.14856
▁baby	-7.15298
▁woman	-7.16024
▁weve	-7.16112
▁move	-7.16451
▁family	-7.16931
▁else	-7.17296
▁many	-7.1813
▁friend	-7.18912
▁seen	-7.20642
▁guy	-7.20958
▁ask	-7.21483
▁trying	-7.21537
▁without	-7.22273
▁live	-7.24225
▁happened	-7.24854
▁run	-7.24875
▁found	-7.26278
▁hope	-7.26536
u	-7.26948
▁talking	-7.27189
▁play	-7.27695
▁ha	-7.27716
▁someone	-7.27951
▁beautiful	-7.28002
▁looking	-7.28097
▁whoa	-7.28135
▁head	-7.28408
▁la	-7.29396
▁whole	-7.29667
▁water	-7.29713
▁hand	-7.29731
▁went	-7.29979
▁pretty	-7.30709
▁saw	-7.3113
▁room	-7.3201
▁door	-7.32076
▁aint	-7.32293
▁guess	-7.32424
▁start	-7.32788
▁tomorrow	-7.33147
▁eat	-7.33665
▁bring	-7.34167
▁wouldnt	-7.34188
▁idea	-7.3426
▁heard	-7.34346
▁knew	-7.34444
▁playing	-7.34484
▁turn	-7.3492
▁matter	-7.34959
▁happy	-7.35871
▁school	-7.35989
▁tonight	-7.36199
▁job	-7.36317
▁hard	-7.36725
▁excuse	-7.36754
▁alone	-7.36755
▁young	-7.3693
▁use	-7.38259
es	-7.3827
▁meet	-7.38888
r	-7.39048
▁kill	-7.39219
▁yet	-7.39822
▁laughing	-7.40127
▁heart	-7.40128
▁kids	-7.40135
▁wasnt	-7.40959
t	-7.41966
▁em	-7.42273
▁true	-7.42362
▁far	-7.4239
o	-7.43454
▁watch	-7.43531
▁minute	-7.43626
▁days	-7.44792
▁worry	-7.45733
▁dead	-7.46328
▁open	-7.46376
▁friends	-7.46596
▁lost	-7.46822
▁bit	-7.47026
▁dog	-7.47401
▁everyone	-7.47415
▁dear	-7.47519
▁end	-7.48271
▁gone	-7.48484
▁used	-7.49275
▁already	-7.49307
▁since	-7.49667
▁havent	-7.50322
▁soon	-7.50336
▁part	-7.50794
▁cause	-7.51797
▁actually	-7.51869
▁girls	-7.5198
▁um	-7.52145
▁called	-7.52362
▁everybody	-7.52576
▁forget	-7.52901
▁kid	-7.53077
▁christmas	-7.53298
▁youd	-7.53455
▁sit	-7.5354
▁easy	-7.53561
▁late	-7.5368
▁took	-7.53693
▁face	-7.5399
▁couldnt	-7.55094
▁looks	-7.55608
▁year	-7.55662
▁brother	-7.5579
g	-7.55875
i	-7.56031
al	-7.56461
n	-7.56604
▁king	-7.58688
▁eyes	-7.58729
▁whos	-7.60063
▁mine	-7.61023
▁word	-7.61435
▁four	-7.61499
▁shall	-7.61502
▁problem	-7.62326
▁says	-7.6281
▁ago	-7.62973
▁later	-7.63311
▁die	-7.63826
▁wish	-7.6401
▁boys	-7.64418
▁pay	-7.65645
▁rest	-7.66138
▁town	-7.66476
▁stand	-7.66511
▁fun	-7.66541
l	-7.66547
▁change	-7.66662
▁anyone	-7.67527
▁read	-7.67702
▁damn	-7.67866
▁laughs	-7.67963
▁business	-7.68069
▁stuff	-7.6863
▁fire	-7.68812
▁crazy	-7.69206
▁second	-7.69306
▁mrs	-7.69422
▁hurry	-7.69669
▁saying	-7.69787
▁drink	-7.7027
▁lady	-7.70307
▁five	-7.70614
▁black	-7.70755
▁dr	-7.70759
▁ya	-7.70975
▁high	-7.71232
▁sighs	-7.71244
▁check	-7.71675
▁sleep	-7.71675
▁also	-7.71702
▁free	-7.72275
▁shit	-7.73117
▁horse	-7.73319
▁set	-7.73441
▁afraid	-7.73452
▁full	-7.73776
▁close	-7.7455
▁city	-7.75084
▁hurt	-7.75147
▁moment	-7.75348
▁story	-7.75401
▁fuck	-7.75569
▁hit	-7.7586
▁arent	-7.76222
▁number	-7.76498
▁important	-7.76929
▁honey	-7.7772
▁fight	-7.77768
▁least	-7.78227
▁dream	-7.78509
▁children	-7.78616
▁doctor	-7.78729
▁trouble	-7.78736
▁taking	-7.79072
▁chance	-7.79444
▁quite	-7.7962
▁wants	-7.80072
▁side	-7.80092
▁hands	-7.80217
▁chuckles	-7.80264
p	-7.80385
▁wheres	-7.80526
▁walk	-7.80857
▁welcome	-7.80956
▁light	-7.81235
▁wife	-7.81303
▁different	-7.81359
▁somebody	-7.81909
▁waiting	-7.8233
▁team	-7.82448
▁working	-7.82659
▁point	-7.827
▁inside	-7.82881
▁thinking	-7.83222
▁phone	-7.8324
▁goes	-7.83547
▁lm	-7.83648
▁probably	-7.83944
▁whatever	-7.84301
▁anyway	-7.852
▁captain	-7.85201
▁almost	-7.85382
▁exactly	-7.85574
▁country	-7.85929
▁happen	-7.86287
▁half	-7.86293
▁cool	-7.8652
▁wow	-7.86825
▁nobody	-7.87562
▁minutes	-7.87827
▁comes	-7.87887
▁y	-7.87912
▁bye	-7.87948
▁cut	-7.88704
▁gave	-7.88884
▁food	-7.89071
▁mama	-7.89398
▁shut	-7.89424
▁making	-7.89449
▁win	-7.89938
▁along	-7.90199
▁lord	-7.90827
▁break	-7.90892
▁makes	-7.90965
▁dance	-7.91466
▁deal	-7.91587
▁book	-7.91715
▁hmm	-7.92098
▁line	-7.92336
▁pick	-7.92855
▁case	-7.93067
▁special	-7.93102
▁clear	-7.93846
▁brought	-7.93877
▁supposed	-7.93994
▁asked	-7.94032
▁air	-7.94213
k	-7.94241
▁white	-7.9449
ers	-7.94658
▁wonderful	-7.94717
▁daddy	-7.94868
▁war	-7.9487
▁rock	-7.95135
▁earth	-7.95268
▁ahead	-7.95269
▁sweet	-7.95298
▁bed	-7.95621
▁women	-7.95667
▁perfect	-7.95928
▁started	-7.95973
▁times	-7.96227
▁promise	-7.96884
▁dinner	-7.9708
▁though	-7.97224
▁gentlemen	-7.97285
▁uncle	-7.9749
▁stupid	-7.97692
▁sound	-7.98349
▁death	-7.98723
▁jack	-7.98829
▁goodbye	-7.99136
▁killed	-7.99206
▁princess	-7.99402
▁speak	-7.99501
▁ooh	-7.99565
▁party	-7.99594
▁anymore	-7.99761
▁catch	-7.99849
▁week	-8
▁crowd	-8.00209
▁follow	-8.00369
▁sea	-8.00507
▁seems	-8.00649
▁game	-8.0152
▁land	-8.01549
▁ladies	-8.01876
▁child	-8.02296
▁bear	-8.02592
▁hate	-8.02867
▁means	-8.02992
▁anybody	-8.03162
▁speaking	-8.03304
en	-8.03659
▁person	-8.03726
▁funny	-8.03818
▁cold	-8.03835
▁met	-8.03899
▁shot	-8.03965
▁behind	-8.04468
▁bet	-8.04688
▁poor	-8.04693
▁fly	-8.05736
▁hot	-8.05807
▁luck	-8.05884
▁hours	-8.05903
▁sometimes	-8.05913
▁six	-8.05992
▁save	-8.06051
▁star	-8.06092
▁married	-8.06239
▁order	-8.06474
▁top	-8.06689
c	-8.06819
▁heres	-8.07214
▁power	-8.07303
▁sort	-8.07638
▁reason	-8.07788
▁theyll	-8.08036
b	-8.08073
▁gun	-8.08275
▁news	-8.08366
▁trust	-8.08449
▁either	-8.08491
▁fact	-8.09169
▁truth	-8.09346
▁sister	-8.09656
▁hang	-8.09771
▁lose	-8.10077
▁glad	-8.10684
▁safe	-8.11073
▁wonder	-8.11297
▁able	-8.11401
▁red	-8.12037
▁ball	-8.12099
▁learn	-8.12305
▁body	-8.12449
▁send	-8.12946
▁front	-8.13156
▁gasps	-8.13169
▁touch	-8.13265
▁sounds	-8.13408
▁screaming	-8.13474
▁un	-8.13804
▁feeling	-8.14285
ic	-8.14311
▁perhaps	-8.14361
▁alive	-8.14368
▁sing	-8.1439
▁sun	-8.14453
▁become	-8.14494
on	-8.14559
▁outside	-8.14604
▁th	-8.14841
▁ride	-8.1486
▁question	-8.14863
▁cheering	-8.14921
▁feet	-8.15096
▁scared	-8.16128
▁daughter	-8.16492
▁running	-8.16575
▁president	-8.16765
m	-8.16806
▁buy	-8.17222
▁de	-8.17455
▁shoot	-8.17609
▁fuckin	-8.17645
▁wake	-8.17808
man	-8.17829
▁fast	-8.18011
h	-8.18697
le	-8.18943
▁pull	-8.18961
or	-8.18983
▁dark	-8.1899
▁voice	-8.1905
▁beat	-8.1952
▁fall	-8.19619
▁needs	-8.19693
▁gold	-8.19817
▁itll	-8.19831
▁living	-8.19832
▁months	-8.20448
▁john	-8.20679
▁answer	-8.20763
▁boat	-8.21423
▁lead	-8.21437
▁couple	-8.21635
▁wed	-8.21724
▁seem	-8.21789
▁human	-8.22171
▁plan	-8.22357
▁tried	-8.22432
▁s	-8.22778
▁quiet	-8.22823
▁telling	-8.23132
▁song	-8.23695
▁strong	-8.24124
▁hair	-8.24144
▁step	-8.24366
▁office	-8.24461
▁professor	-8.25072
▁secret	-8.25321
▁aah	-8.25623
▁grunting	-8.25893
▁blood	-8.26002
▁lives	-8.26148
▁sick	-8.26402
▁amazing	-8.267
▁straight	-8.26751
▁write	-8.26907
▁alright	-8.2725
▁small	-8.27378
▁leaving	-8.27526
▁hour	-8.27684
▁group	-8.27692
▁prince	-8.27693
▁possible	-8.278
▁fish	-8.2787
▁police	-8.28317
▁shouldnt	-8.28355
▁lovely	-8.28383
▁max	-8.28686
▁knows	-8.28889
▁race	-8.2918
▁maam	-8.29195
▁evening	-8.29231
▁sign	-8.29253
▁ten	-8.29517
▁jesus	-8.29756
▁buddy	-8.29756
▁somewhere	-8.30038
▁continues	-8.30066
▁train	-8.30146
▁lucky	-8.30234
▁serious	-8.31058
▁past	-8.311
▁careful	-8.31401
▁control	-8.31445
▁majesty	-8.31463
▁died	-8.31944
ur	-8.32639
▁blue	-8.32725
▁till	-8.32951
▁ow	-8.33176
▁quick	-8.33249
▁words	-8.33346
▁ass	-8.33453
▁o	-8.33715
▁sam	-8.33828
▁finally	-8.34439
▁wind	-8.34523
▁master	-8.34603
v	-8.35006
▁fear	-8.35244
▁drive	-8.35352
▁sense	-8.3553
▁fucking	-8.35678
▁parents	-8.35967
▁sent	-8.3648
▁husband	-8.36524
▁frank	-8.36607
▁throw	-8.36671
▁marry	-8.37028
▁tree	-8.37128
▁deep	-8.37389
▁bird	-8.37796
▁bell	-8.37802
▁forever	-8.37984
▁known	-8.38095
▁drop	-8.38291
it	-8.38454
▁york	-8.38906
▁charlie	-8.38924
▁less	-8.38985
▁street	-8.39012
▁taken	-8.3907
▁boss	-8.39493
▁summer	-8.39831
▁count	-8.39967
▁worth	-8.40622
▁grunts	-8.40856
▁born	-8.41107
▁american	-8.41247
▁darling	-8.41415
▁return	-8.41625
▁fault	-8.41729
▁mary	-8.42089
▁seven	-8.42342
▁wear	-8.42513
st	-8.42892
▁felt	-8.43009
▁longer	-8.43419
▁proud	-8.43654
▁others	-8.43654
▁clothes	-8.43663
able	-8.43685
▁church	-8.43908
ie	-8.4392
▁moving	-8.43985
ies	-8.44001
est	-8.4434
▁lll	-8.44499
▁lts	-8.44535
▁hows	-8.44895
▁simple	-8.44959
▁radio	-8.4496
▁language	-8.45288
▁rather	-8.4529
▁giving	-8.45296
▁c	-8.45405
▁suppose	-8.45422
▁lie	-8.45627
▁meeting	-8.45629
▁eye	-8.45699
ion	-8.45798
▁kiss	-8.45949
▁singing	-8.46091
▁theyve	-8.46616
▁ice	-8.46664
ch	-8.46854
▁picture	-8.46891
▁george	-8.46949
▁hed	-8.47097
▁across	-8.47285
▁dreams	-8.47395
▁mad	-8.47694
▁general	-8.47839
▁ring	-8.47872
▁act	-8.47958
▁gets	-8.48048
▁strange	-8.48104
▁evil	-8.48288
▁early	-8.48394
▁billy	-8.4845
▁st	-8.48594
▁lunch	-8.48618
▁cat	-8.49274
▁bill	-8.49474
▁papa	-8.49701
▁million	-8.49895
▁short	-8.5012
▁certain	-8.50586
▁road	-8.50609
▁none	-8.50767
▁pass	-8.51042
▁calling	-8.51143
▁animals	-8.51147
▁weeks	-8.51356
▁state	-8.51364
▁happens	-8.51641
▁ho	-8.51781
re	-8.51992
▁warm	-8.51993
▁future	-8.52105
▁present	-8.52209
▁loved	-8.52387
▁shell	-8.52388
▁english	-8.5243
▁shh	-8.52629
▁clean	-8.52913
▁trip	-8.52919
▁expect	-8.53266
z	-8.53284
▁barking	-8.54319
▁forgive	-8.54536
▁kidding	-8.54609
▁finish	-8.54712
▁tired	-8.5499
▁class	-8.55012
▁worked	-8.55049
▁chief	-8.55336
▁join	-8.55686
▁middle	-8.55697
▁forgot	-8.56058
▁plane	-8.56128
▁green	-8.56431
▁miles	-8.56537
▁ship	-8.56555
ll	-8.5665
▁band	-8.56748
▁bank	-8.57012
▁groans	-8.57269
▁movie	-8.5733
▁turned	-8.57331
▁french	-8.57502
▁figure	-8.57529
▁pleasure	-8.57543
▁hungry	-8.57544
▁sell	-8.57585
▁pain	-8.57701
▁given	-8.57762
▁ones	-8.57877
▁surprise	-8.57907
▁fair	-8.58002
▁blow	-8.58075
▁coffee	-8.58289
▁film	-8.58331
▁law	-8.58889
▁changed	-8.59172
▁teach	-8.59247
us	-8.59393
▁hide	-8.59478
▁stick	-8.59534
▁in	-8.59649
▁rain	-8.59709
▁choice	-8.59741
ra	-8.60105
▁round	-8.60264
▁wild	-8.60328
▁slow	-8.60354
ity	-8.6036
▁explain	-8.6058
▁absolutely	-8.60585
is	-8.60925
▁sad	-8.60926
▁attention	-8.60951
▁date	-8.61031
▁certainly	-8.61082
▁looked	-8.61194
▁crying	-8.61239
▁handle	-8.61257
▁worse	-8.61337
▁david	-8.61724
▁mountain	-8.61902
▁mouth	-8.62037
▁bitch	-8.62114
▁mark	-8.62146
▁fool	-8.62167
▁record	-8.62618
▁tv	-8.62924
▁roll	-8.6294
▁bob	-8.6297
▁peace	-8.63043
▁ohh	-8.63307
▁mmm	-8.6334
▁america	-8.63589
▁birds	-8.63602
▁yesterday	-8.63685
▁throat	-8.6369
▁foot	-8.63704
up	-8.63998
▁meant	-8.64026
▁dangerous	-8.64092
▁i	-8.64336
▁company	-8.64481
▁tom	-8.64482
▁harry	-8.64489
▁spend	-8.64533
▁busy	-8.64571
▁near	-8.6461
▁caught	-8.64882
▁entire	-8.65163
▁except	-8.65237
▁dress	-8.65416
▁yo	-8.65549
▁eh	-8.65678
▁queen	-8.65689
▁re	-8.6576
▁ground	-8.65788
▁imagine	-8.65891
▁kept	-8.6609
▁asking	-8.66332
▁happening	-8.66448
▁missed	-8.66647
▁folks	-8.6677
▁pa	-8.6689
▁terrible	-8.67315
▁enjoy	-8.67521
▁cute	-8.67624
▁eight	-8.67713
an	-8.68048
▁piece	-8.68156
▁a	-8.68272
▁heaven	-8.68447
▁horses	-8.68501
▁snow	-8.68549
▁anywhere	-8.68554
▁history	-8.68555
▁unless	-8.68573
▁highness	-8.68595
▁bo	-8.68626
▁carry	-8.68686
▁watching	-8.68926
▁park	-8.69054
▁relax	-8.69115
▁joe	-8.69507
▁ahh	-8.69668
▁p	-8.70168
▁werent	-8.70232
▁groaning	-8.7025
▁reach	-8.70398
▁grow	-8.70412
▁chattering	-8.70438
▁age	-8.7057
▁sarah	-8.70658
▁smart	-8.70935
▁laugh	-8.7105
▁dogs	-8.71385
▁christ	-8.71645
▁visit	-8.71716
▁paul	-8.71821
▁finished	-8.71825
▁flowers	-8.71864
▁narrator	-8.71937
▁camp	-8.72152
▁honor	-8.72189
▁board	-8.72484
▁agree	-8.72586
w	-8.73025
▁afternoon	-8.73236
▁shouting	-8.73324
▁needed	-8.73548
▁attack	-8.73556
▁river	-8.73571
▁takes	-8.73571
▁elvis	-8.73673
▁ringing	-8.73681
▁quickly	-8.7385
▁push	-8.73948
▁swear	-8.74085
▁worried	-8.74111
▁lonely	-8.74111
ful	-8.74118
▁north	-8.74394
▁mike	-8.74399
▁j	-8.745
▁joy	-8.74558
▁dancing	-8.7456
▁calm	-8.74609
▁decided	-8.74664
▁peter	-8.7477
▁impossible	-8.74994
▁wall	-8.74996
▁bag	-8.75043
▁seeing	-8.75167
▁questions	-8.75216
▁royal	-8.75433
▁doubt	-8.75439
▁flight	-8.75441
▁magic	-8.75569
▁smell	-8.75704
▁k	-8.75816
▁g	-8.75839
▁island	-8.75887
▁realize	-8.76173
▁letter	-8.76206
▁major	-8.76318
▁instead	-8.76334
▁wedding	-8.76338
▁spirit	-8.76515
▁soul	-8.76527
▁fix	-8.76621
▁whoo	-8.76669
▁applause	-8.76784
▁hero	-8.7693
▁store	-8.77005
▁smile	-8.77013
▁club	-8.77015
▁flying	-8.77035
▁tea	-8.77222
▁engine	-8.77376
ar	-8.77445
▁pig	-8.77457
▁camera	-8.77525
▁west	-8.77746
▁completely	-8.77765
▁south	-8.77791
f	-8.77988
▁besides	-8.78095
▁laughter	-8.78158
▁moon	-8.78171
to	-8.78235
▁respect	-8.78332
▁tough	-8.78459
▁dan	-8.78515
▁lt	-8.7857
▁brave	-8.78597
il	-8.78604
▁double	-8.78664
▁low	-8.78995
▁court	-8.79057
ness	-8.79061
▁mister	-8.79087
▁fell	-8.7916
▁quit	-8.79818
▁france	-8.79998
▁cry	-8.80057
▁danny	-8.80466
▁hotel	-8.8049
▁ii	-8.80625
▁month	-8.80751
▁station	-8.80771
▁difference	-8.80932
▁grandpa	-8.80938
▁greatest	-8.81161
▁taste	-8.81226
▁yelling	-8.81488
▁field	-8.81738
▁college	-8.81878
▁awful	-8.81885
ri	-8.82305
▁hoo	-8.82639
▁upon	-8.82841
▁totally	-8.82886
▁lay	-8.8308
▁pop	-8.83087
▁monster	-8.83168
▁mess	-8.83212
ation	-8.83254
▁table	-8.8328
▁especially	-8.83313
▁wine	-8.83351
▁faster	-8.83549
▁shoes	-8.83727
▁bright	-8.84109
ist	-8.84124
▁knock	-8.84144
▁animal	-8.84159
▁santa	-8.8417
▁aw	-8.84224
▁paid	-8.84305
▁idiot	-8.84623
▁forward	-8.8477
▁chuckling	-8.84775
▁b	-8.84876
▁rich	-8.84908
▁interested	-8.84932
▁promised	-8.85243
▁brown	-8.85263
ne	-8.85317
▁charge	-8.85464
▁window	-8.85748
▁walking	-8.8575
▁e	-8.85812
▁arms	-8.86128
▁broke	-8.86269
▁grand	-8.86435
▁tight	-8.86499
▁glass	-8.86684
▁super	-8.86714
▁personal	-8.86725
▁hospital	-8.86726
▁interesting	-8.86959
ive	-8.87055
▁hat	-8.87131
▁dare	-8.87633
nt	-8.87638
▁saved	-8.87722
▁neither	-8.87747
▁sergeant	-8.87747
▁henry	-8.87751
▁panting	-8.87751
▁everywhere	-8.8776
▁angel	-8.88012
▁test	-8.88122
la	-8.88178
▁floor	-8.88256
▁beginning	-8.88257
▁sky	-8.88271
▁holy	-8.88422
▁guard	-8.88469
▁continue	-8.88531
▁rules	-8.88702
▁village	-8.88746
▁teacher	-8.88892
▁an	-8.89114
▁indistinct	-8.89152
▁third	-8.8927
▁cook	-8.8929
▁nose	-8.89296
▁vou	-8.8941
▁army	-8.89414
▁jump	-8.89582
▁share	-8.89593
▁cross	-8.89675
▁colonel	-8.89784
▁gods	-8.89904
▁kate	-8.89976
el	-8.90086
▁sex	-8.90213
ous	-8.90394
▁officer	-8.90415
▁grab	-8.90497
▁n	-8.9053
▁box	-8.90794
▁bottom	-8.90819
▁forest	-8.90831
ta	-8.90832
▁d	-8.90908
▁bar	-8.90942
▁works	-8.91166
▁legs	-8.91276
▁weird	-8.91276
▁merry	-8.91864
▁cave	-8.91866
▁doc	-8.92249
▁spot	-8.92425
▁cake	-8.92441
▁begin	-8.92507
▁scott	-8.92741
▁kick	-8.92832
▁cover	-8.92875
▁standing	-8.93073
th	-8.93289
▁definitely	-8.93457
▁mistake	-8.93459
▁service	-8.93518
▁list	-8.93536
▁per	-8.93562
▁leg	-8.93643
▁f	-8.93672
▁mm	-8.93793
▁final	-8.94298
▁x	-8.94304
▁pack	-8.94408
▁wrote	-8.94521
▁offer	-8.94567
▁mission	-8.94695
na	-8.94712
▁screams	-8.95019
▁marriage	-8.95061
ro	-8.95218
▁paris	-8.95341
▁became	-8.95605
▁indeed	-8.95605
▁stuck	-8.95611
▁dirty	-8.95646
▁hundred	-8.95721
▁brothers	-8.95743
rs	-8.95763
▁honest	-8.95881
▁walls	-8.95974
ve	-8.96087
▁outta	-8.96123
▁dick	-8.96131
▁richard	-8.96147
▁national	-8.96177
▁system	-8.96278
▁dee	-8.96346
▁stars	-8.9642
▁situation	-8.96701
▁security	-8.96702
▁wearing	-8.96743
▁arm	-8.9676
ry	-8.96773
▁sight	-8.96784
▁horn	-8.96787
▁area	-8.96988
▁lived	-8.97249
▁kitchen	-8.97253
▁broken	-8.97311
▁lock	-8.97314
▁burn	-8.97342
▁report	-8.97752
▁force	-8.97778
▁silly	-8.97841
▁truck	-8.97961
▁message	-8.97982
▁difficult	-8.98187
▁fresh	-8.9826
▁ran	-8.98301
▁building	-8.98308
▁al	-8.98318
▁taught	-8.98368
▁government	-8.98369
▁danger	-8.984
▁key	-8.98504
▁missing	-8.98561
▁names	-8.98624
um	-8.98752
▁san	-8.9887
te	-8.98993
▁art	-8.99096
▁inspector	-8.99496
▁owe	-8.99517
▁starting	-8.99635
▁aye	-8.99745
▁pray	-8.99854
▁ought	-8.99978
▁judge	-9.0004
▁build	-9.00056
▁charles	-9.00064
▁yall	-9.00147
▁soft	-9.00418
▁prison	-9.00475
at	-9.00526
▁hasnt	-9.00636
▁favorite	-9.00638
▁fighting	-9.00662
▁public	-9.01136
▁practice	-9.01208
▁sweetheart	-9.0121
▁speed	-9.01212
▁within	-9.01216
▁belong	-9.01402
▁seconds	-9.01404
▁coach	-9.01409
▁machine	-9.01436
▁dude	-9.01459
▁lf	-9.01651
▁protect	-9.01667
▁garden	-9.01791
▁winter	-9.01817
▁sake	-9.02049
▁loves	-9.021
se	-9.02214
▁prove	-9.02277
▁driving	-9.02372
▁uhhuh	-9.0238
▁mmhmm	-9.02393
▁stopped	-9.02422
▁liked	-9.02574
▁lights	-9.02859
▁breakfast	-9.02953
▁milk	-9.02953
▁often	-9.02954
▁cash	-9.02963
ling	-9.0307
▁rat	-9.03306
et	-9.03351
▁famous	-9.0355
ma	-9.03752
▁fat	-9.03903
▁bomb	-9.03993
▁nervous	-9.04012
▁fit	-9.04071
▁daisy	-9.04136
▁learned	-9.04216
▁single	-9.04297
▁heh	-9.04371
▁allowed	-9.04397
ty	-9.04532
▁position	-9.04692
▁swim	-9.04721
▁information	-9.04731
▁bang	-9.04745
▁emma	-9.04785
▁brand	-9.04894
▁rid	-9.04983
▁wolf	-9.05214
▁allow	-9.05304
▁choose	-9.05327
▁congratulations	-9.05327
▁london	-9.05327
minous	-9.05445
▁tour	-9.05564
▁played	-9.05698
▁aunt	-9.05812
▁sitting	-9.05976
▁feels	-9.06056
▁post	-9.061
▁gift	-9.06279
▁paper	-9.06313
▁private	-9.06412
▁bother	-9.06526
▁space	-9.06538
▁w	-9.06555
▁nine	-9.06605
▁eating	-9.06665
ii	-9.0673
▁rings	-9.06759
▁stage	-9.0688
▁whose	-9.0701
▁accident	-9.07139
▁beyond	-9.07145
▁bought	-9.07145
▁twice	-9.07145
▁benny	-9.07148
▁joke	-9.07579
▁risk	-9.076
▁using	-9.07642
▁extra	-9.07754
▁weather	-9.07761
▁goin	-9.07769
▁spring	-9.08147
id	-9.08156
▁faith	-9.08357
▁battle	-9.08375
▁teeth	-9.08378
▁yogi	-9.08379
▁trick	-9.08516
▁pal	-9.0852
▁boo	-9.08804
▁brain	-9.08859
▁stone	-9.08972
▁pardon	-9.08998
▁search	-9.09006
▁breathe	-9.09091
▁da	-9.09141
▁seriously	-9.09255
▁steal	-9.09261
▁figured	-9.09325
do	-9.09439
▁direction	-9.09445
▁growing	-9.09505
▁ms	-9.09611
▁books	-9.0982
▁thousand	-9.10067
▁chicken	-9.10084
▁thunder	-9.10252
▁jason	-9.10256
▁gasping	-9.10364
▁lve	-9.105
▁huge	-9.10607
▁shed	-9.10662
▁dramatic	-9.1088
ment	-9.1103
▁perfectly	-9.11258
▁feed	-9.11354
▁price	-9.1151
▁birthday	-9.11522
▁upset	-9.11523
▁castle	-9.11545
▁states	-9.11872
▁asleep	-9.12162
▁nature	-9.12162
▁bunch	-9.12172
▁destroy	-9.12186
▁fingers	-9.12221
▁arrived	-9.12283
▁chris	-9.12323
ia	-9.12405
▁se	-9.12445
▁favor	-9.12779
▁contact	-9.12807
▁guns	-9.12846
▁travel	-9.12919
▁staying	-9.12931
▁kings	-9.13343
▁admit	-9.13447
▁empty	-9.13456
▁video	-9.13456
▁built	-9.13459
▁tape	-9.13579
▁cost	-9.13644
ton	-9.14083
▁sheep	-9.14108
▁whether	-9.1411
▁dying	-9.14112
▁bible	-9.14116
▁consider	-9.14123
▁immediately	-9.14133
▁starts	-9.14165
▁ray	-9.14198
ate	-9.14289
▁gas	-9.14295
▁smoke	-9.14308
▁excellent	-9.14768
▁worst	-9.14768
▁dumb	-9.1479
less	-9.15124
▁suit	-9.15148
▁command	-9.15409
▁el	-9.15412
▁lieutenant	-9.1543
▁plenty	-9.1543
▁talked	-9.15748
▁german	-9.15874
▁track	-9.15893
▁experience	-9.15924
▁ocean	-9.16025
▁theyd	-9.16129
▁bigger	-9.16145
▁card	-9.16249
▁mountains	-9.16459
per	-9.16491
co	-9.16567
▁speaks	-9.16693
▁guitar	-9.16768
▁putting	-9.16885
▁closed	-9.16906
▁holding	-9.16911
ff	-9.16995
▁accept	-9.17146
▁hall	-9.17323
▁lots	-9.17345
▁grandfather	-9.17443
▁biggest	-9.17444
▁minister	-9.17445
▁wood	-9.17493
▁tony	-9.17519
▁study	-9.17785
▁calls	-9.17787
▁support	-9.17849
▁martin	-9.17946
▁bus	-9.17995
▁audience	-9.18124
▁cinderella	-9.18124
▁native	-9.18127
▁jim	-9.18129
▁lying	-9.18145
▁suddenly	-9.18203
▁named	-9.18295
▁matt	-9.18342
▁sal	-9.1842
▁rose	-9.18564
▁planet	-9.18574
▁games	-9.18601
▁england	-9.18809
▁rex	-9.18827
▁seat	-9.18857
▁breath	-9.19047
▁notice	-9.19302
▁heavy	-9.19498
▁ugh	-9.19499
▁beauty	-9.195
▁grace	-9.19738
▁parker	-9.19815
▁fill	-9.1982
▁bloody	-9.1989
▁talent	-9.19938
▁waste	-9.19997
ter	-9.20063
▁ed	-9.20169
▁cheese	-9.20194
▁beach	-9.20196
▁jail	-9.20197
▁neck	-9.20208
▁james	-9.20216
▁incredible	-9.20218
▁reading	-9.20384
▁trail	-9.20479
▁press	-9.20579
▁whispers	-9.20707
ine	-9.20828
▁drunk	-9.20855
▁champ	-9.2086
▁orders	-9.21037
▁following	-9.21342
▁mention	-9.21355
▁base	-9.2142
▁trees	-9.21463
▁listening	-9.21476
▁loud	-9.21513
▁pat	-9.21524
▁happiness	-9.21599
▁sand	-9.21666
▁stranger	-9.21766
▁chatter	-9.21964
▁corner	-9.22189
▁apart	-9.22278
ant	-9.22307
▁bastard	-9.22364
▁tiny	-9.22383
▁treat	-9.22457
▁strength	-9.22783
▁main	-9.22832
▁madam	-9.22902
▁angry	-9.23022
▁sold	-9.2305
▁decision	-9.23094
as	-9.23131
▁pictures	-9.2315
▁pre	-9.23181
▁tail	-9.23215
▁rule	-9.23503
▁yellow	-9.23747
▁cup	-9.23761
▁excited	-9.23764
▁fellow	-9.23839
▁problems	-9.23932
▁hunt	-9.23982
▁m	-9.2408
▁dig	-9.24088
▁complete	-9.24155
▁hole	-9.24157
▁tires	-9.24164
▁normal	-9.24348
▁dry	-9.2447
▁yep	-9.24497
▁ghost	-9.24562
▁scene	-9.24578
▁form	-9.24646
▁view	-9.25163
▁foreign	-9.25166
▁ridiculous	-9.25194
▁somehow	-9.25194
▁fathers	-9.25196
▁spent	-9.25198
▁tommy	-9.25202
▁smith	-9.25202
▁andy	-9.25225
▁heat	-9.25253
▁shame	-9.25515
▁hanging	-9.25556
ism	-9.25657
▁large	-9.25844
▁awesome	-9.25929
▁involved	-9.25957
▁robert	-9.25996
▁crap	-9.26011
▁sleeping	-9.26066
▁training	-9.26088
▁wondering	-9.26277
▁spell	-9.26315
os	-9.26468
▁hearts	-9.26542
▁serve	-9.26624
▁upstairs	-9.2667
▁inaudible	-9.26671
▁duty	-9.26678
▁pants	-9.26684
▁brian	-9.27409
▁melinda	-9.27416
▁truly	-9.27416
▁christian	-9.27417
▁journey	-9.27421
▁goddamn	-9.27423
▁valley	-9.27424
▁size	-9.2744
▁goodness	-9.27481
▁tigger	-9.27569
▁rope	-9.2763
▁gosh	-9.27981
ad	-9.28094
▁afford	-9.28168
▁sheriff	-9.28168
▁blind	-9.28168
▁spanish	-9.28168
▁flat	-9.28206
▁pool	-9.28211
▁rise	-9.28215
▁weight	-9.28229
▁growling	-9.28237
▁dollars	-9.28321
▁correct	-9.28353
▁giant	-9.2836
▁seemed	-9.28401
▁dressed	-9.2867
▁passed	-9.28749
▁match	-9.28867
▁helping	-9.28924
▁appreciate	-9.28926
▁competition	-9.28926
▁cornelius	-9.28926
▁stories	-9.28926
▁jungle	-9.2893
▁beg	-9.28945
▁ears	-9.28963
▁shop	-9.2913
the	-9.29222
▁necessary	-9.29689
▁project	-9.29689
▁friday	-9.29689
▁johnny	-9.29699
▁chirping	-9.29704
▁meat	-9.29717
ting	-9.29895
▁crew	-9.29922
▁action	-9.29958
▁farm	-9.30043
▁wouldve	-9.30134
▁prepare	-9.30261
▁storm	-9.30323
▁steve	-9.30368
out	-9.30404
▁rome	-9.30418
▁color	-9.30421
▁simply	-9.30458
▁common	-9.30462
▁balto	-9.30463
▁fred	-9.30569
▁united	-9.30574
▁maria	-9.30628
▁restaurant	-9.30696
▁winner	-9.30721
lo	-9.30771
▁keeping	-9.30927
▁keys	-9.31001
▁escape	-9.31036
▁plans	-9.31131
▁among	-9.31211
▁alex	-9.31239
ho	-9.31239
▁willing	-9.31308
▁obviously	-9.31309
▁strike	-9.31365
▁mothers	-9.31485
▁operation	-9.31492
▁bridge	-9.31885
▁students	-9.31971
▁howd	-9.32001
▁director	-9.32052
▁hardly	-9.32065
▁uhoh	-9.321
▁hill	-9.32131
▁path	-9.32239
▁mum	-9.32492
▁arrest	-9.32533
▁heidi	-9.32802
▁saturday	-9.32802
▁kingdom	-9.32802
▁memory	-9.32803
▁fantastic	-9.32804
▁handsome	-9.3283
▁dis	-9.32866
un	-9.32917
▁hoping	-9.33011
▁agent	-9.33129
▁due	-9.33132
▁loose	-9.33407
▁cap	-9.33442
▁rent	-9.33484
▁sisters	-9.33537
▁tall	-9.33547
ian	-9.33548
▁ancient	-9.33596
ted	-9.33604
▁thatll	-9.33607
▁champion	-9.3363
▁closer	-9.33891
▁whistle	-9.33914
▁interest	-9.34119
ol	-9.3432
▁asshole	-9.34401
▁began	-9.34414
▁writing	-9.34425
▁usually	-9.34494
▁ben	-9.34508
ce	-9.34544
▁di	-9.34641
▁falling	-9.34684
▁fairy	-9.34726
▁fellas	-9.34732
x	-9.34927
▁gee	-9.34977
▁hank	-9.35065
▁r	-9.35105
no	-9.35146
▁silver	-9.35196
▁luna	-9.35201
▁emergency	-9.35202
▁opportunity	-9.35202
▁horrible	-9.35202
▁steady	-9.35205
men	-9.35239
▁center	-9.35266
▁madame	-9.35356
▁surprised	-9.35628
▁create	-9.3582
▁natural	-9.35896
▁knowing	-9.35947
▁stole	-9.35966
▁male	-9.35967
▁whistling	-9.36015
▁miracle	-9.36016
▁department	-9.36017
▁tie	-9.36058
▁opens	-9.36518
go	-9.36557
▁claus	-9.36835
▁possibly	-9.36835
▁ugly	-9.36835
▁boris	-9.36835
▁cream	-9.36836
▁weekend	-9.36844
▁lena	-9.36845
▁style	-9.36879
ha	-9.369
▁sunday	-9.37234
▁ticket	-9.37237
▁where	-9.37293
▁address	-9.37597
▁wide	-9.37608
▁however	-9.37662
▁hyah	-9.37665
▁alarm	-9.37665
▁whatd	-9.37709
▁cop	-9.37782
▁older	-9.37836
▁wet	-9.37905
▁shooting	-9.3799
▁account	-9.38067
▁opening	-9.38329
▁crystal	-9.38495
▁purpose	-9.38495
▁bravo	-9.38495
▁bullshit	-9.38495
▁detective	-9.38497
▁alice	-9.38503
▁girlfriend	-9.38505
▁roof	-9.38511
▁h	-9.38988
▁health	-9.39184
▁fan	-9.39262
▁bro	-9.39273
▁distance	-9.39335
▁rainbow	-9.39335
▁someday	-9.39335
▁hadnt	-9.39335
▁giggling	-9.39335
▁romantic	-9.39339
▁dave	-9.39352
▁killing	-9.39352
▁studio	-9.3936
▁moved	-9.39464
▁bull	-9.39494
li	-9.39563
▁locked	-9.39743
▁bottle	-9.39794
▁cell	-9.39814
and	-9.39838
▁shake	-9.39935
▁survive	-9.39984
▁freedom	-9.40182
▁example	-9.40182
▁larry	-9.40196
▁sweetie	-9.40276
▁nearly	-9.40435
▁wash	-9.40481
▁devil	-9.40664
▁movies	-9.40668
▁pete	-9.40705
▁east	-9.40899
▁morgan	-9.41037
▁scoffs	-9.41037
▁written	-9.41044
▁mommy	-9.41085
▁clicks	-9.41104
▁repeat	-9.4127
▁exist	-9.41275
▁female	-9.41537
▁climb	-9.41562
▁grandma	-9.41624
▁en	-9.41661
▁rescue	-9.41698
▁introduce	-9.41712
ca	-9.41771
▁wings	-9.41867
▁chinese	-9.41899
▁midnight	-9.41899
▁jenny	-9.419
▁forgotten	-9.41909
▁noble	-9.41915
▁pair	-9.41928
▁picked	-9.42221
▁fella	-9.42238
▁patient	-9.42436
io	-9.42437
▁level	-9.4244
▁toy	-9.42471
son	-9.42475
▁murder	-9.42564
▁decide	-9.42608
▁chair	-9.42747
▁jean	-9.42758
▁coast	-9.42765
▁matilda	-9.42769
▁orchestra	-9.42769
▁pressure	-9.42784
▁gentleman	-9.42789
▁harder	-9.42855
▁honking	-9.42906
age	-9.42939
▁sally	-9.42941
you	-9.43032
ary	-9.43152
▁skin	-9.43163
▁bears	-9.43253
▁mayor	-9.43316
▁cow	-9.43333
▁raise	-9.43451
▁football	-9.43657
▁boyfriend	-9.43661
▁alan	-9.43708
▁kinda	-9.43787
▁losing	-9.43895
ent	-9.43907
▁breathing	-9.44089
▁fired	-9.44155
▁adventure	-9.44224
▁settle	-9.44335
▁code	-9.44375
▁over	-9.44403
▁apologize	-9.44531
▁nonsense	-9.44531
▁leader	-9.44631
▁coughing	-9.44633
▁beer	-9.44703
▁mac	-9.44725
▁lake	-9.44739
▁mate	-9.44829
▁gotten	-9.44833
▁realized	-9.44977
▁leaves	-9.45098
▁crime	-9.45123
▁noise	-9.45129
▁cock	-9.45146
▁gate	-9.45156
▁draw	-9.45265
▁opinion	-9.45424
▁nowhere	-9.45425
▁steele	-9.45492
▁turning	-9.45551
▁co	-9.45573
▁bringing	-9.45576
ee	-9.45841
▁ye	-9.45914
▁brazil	-9.46026
▁blame	-9.46124
▁cheers	-9.46212
▁according	-9.46325
▁gordy	-9.46325
▁jacob	-9.46325
▁akita	-9.46325
▁stanley	-9.46326
▁clock	-9.46328
▁mail	-9.46347
▁lies	-9.46354
▁self	-9.46365
▁beeping	-9.46432
▁hiding	-9.46433
▁bones	-9.46883
▁vote	-9.46926
▁desert	-9.46963
▁beast	-9.46987
▁season	-9.47012
▁grant	-9.47015
▁mi	-9.47097
▁humans	-9.47131
▁player	-9.47137
▁enemy	-9.47234
▁exciting	-9.47234
▁chef	-9.47239
▁tim	-9.4724
▁planned	-9.47245
▁ash	-9.47264
▁remain	-9.47271
▁heads	-9.47549
▁out	-9.47618
▁ex	-9.4766
▁walked	-9.47729
ish	-9.47776
▁bite	-9.4779
da	-9.47798
▁feelings	-9.47828
▁indian	-9.47854
▁expected	-9.47921
▁mile	-9.48042
▁driver	-9.48089
▁turns	-9.48227
▁add	-9.48242
▁li	-9.4826
▁hercules	-9.48319
▁everythings	-9.48435
tic	-9.48565
▁riding	-9.48685
▁soldier	-9.48862
▁plays	-9.48981
▁comin	-9.49053
▁europe	-9.4906
▁nuts	-9.49075
▁shouldve	-9.49078
▁proof	-9.49099
▁paint	-9.49181
▁screeching	-9.4924
▁discuss	-9.49321
▁earl	-9.49468
▁trap	-9.4948
▁rob	-9.49528
▁deserve	-9.49594
mi	-9.49674
▁weak	-9.49708
me	-9.49761
be	-9.4978
▁target	-9.49798
▁century	-9.50012
▁william	-9.50012
▁bathroom	-9.50014
▁andrea	-9.50021
▁rocks	-9.50096
▁meaning	-9.50284
▁ad	-9.50351
▁sa	-9.50402
mon	-9.50491
time	-9.50519
▁streets	-9.50642
▁partner	-9.50802
▁van	-9.50895
▁advice	-9.50955
▁onto	-9.5096
▁comfortable	-9.50963
▁annie	-9.50978
▁remind	-9.51114
▁softly	-9.51152
▁drinking	-9.51154
▁suggest	-9.51238
em	-9.51338
▁mo	-9.51753
▁laura	-9.51845
▁type	-9.51865
de	-9.51881
▁program	-9.51905
▁gadget	-9.51906
▁rumbling	-9.51907
▁responsible	-9.51909
▁dawn	-9.5191
▁jones	-9.51914
▁kelly	-9.51942
▁pole	-9.51947
▁bath	-9.51997
▁bucks	-9.52271
▁fans	-9.52357
▁letters	-9.52508
▁dads	-9.52634
▁wise	-9.52732
▁vi	-9.52812
▁prefer	-9.52863
▁universe	-9.52869
▁sobbing	-9.52869
▁usual	-9.52869
▁penny	-9.52872
▁woof	-9.52883
▁lips	-9.53145
▁slowly	-9.53168
▁papers	-9.53286
▁do	-9.53311
▁sharp	-9.53313
▁couldve	-9.53354
▁awake	-9.53371
▁recognize	-9.5364
▁rough	-9.53717
▁boots	-9.53731
▁lesson	-9.53797
▁millions	-9.53833
▁humming	-9.5384
▁wagon	-9.5384
▁local	-9.53841
▁monday	-9.53841
▁merlin	-9.53841
▁gang	-9.53846
▁duke	-9.53876
one	-9.5393
▁dean	-9.53956
▁whispering	-9.53959
▁pure	-9.54002
▁bike	-9.54033
he	-9.54048
▁commander	-9.5421
for	-9.54265
▁pretend	-9.54472
▁v	-9.54479
▁request	-9.54548
▁bow	-9.54613
▁shark	-9.54706
▁evidence	-9.5482
▁greek	-9.5482
▁creaking	-9.5484
▁eric	-9.54844
▁manager	-9.54904
▁you	-9.55173
▁pro	-9.55329
▁places	-9.55379
▁thy	-9.55447
▁challenge	-9.55472
▁rats	-9.55658
▁thinks	-9.55663
▁map	-9.55667
▁finger	-9.55721
▁emperor	-9.5581
▁knife	-9.5581
▁telephone	-9.5581
▁annabel	-9.55812
▁fancy	-9.55817
▁soup	-9.55834
▁butt	-9.55934
▁cops	-9.56321
land	-9.56351
▁sh	-9.56441
ier	-9.56466
▁breaking	-9.5661
▁no	-9.56664
▁russian	-9.56751
▁sooner	-9.56772
▁jordan	-9.5681
▁although	-9.56811
▁winning	-9.56848
▁prize	-9.5686
▁held	-9.56868
▁signal	-9.5691
▁believed	-9.57024
▁clears	-9.57223
▁so	-9.57368
ure	-9.57635
▁returned	-9.57659
▁explosion	-9.5776
▁snake	-9.57765
▁guest	-9.57777
▁nurse	-9.57807
▁brilliant	-9.5782
▁martha	-9.5782
▁mexico	-9.5782
▁regret	-9.5782
▁science	-9.5782
▁whenever	-9.57821
▁piano	-9.57821
▁medicine	-9.57821
▁grass	-9.57822
▁gamble	-9.57886
▁ear	-9.57917
▁invited	-9.5797
▁meal	-9.57995
▁ro	-9.58052
▁friendly	-9.58092
▁records	-9.581
▁t	-9.58109
▁noticed	-9.5811
sh	-9.58213
ul	-9.5839
▁anna	-9.58651
▁sudden	-9.58722
▁sword	-9.58797
▁silence	-9.58842
▁dropped	-9.58856
▁warren	-9.58864
▁ba	-9.58888
▁nobodys	-9.58926
▁golden	-9.5897
▁dusty	-9.58986
▁hook	-9.59061
▁lift	-9.59271
ated	-9.59422
▁chip	-9.59432
▁du	-9.59493
▁showed	-9.59567
▁killer	-9.59649
▁bee	-9.59762
oo	-9.598
▁nothin	-9.5982
▁albert	-9.59872
▁research	-9.59872
▁vacation	-9.59872
▁community	-9.59875
▁planning	-9.59889
▁molly	-9.59893
▁gives	-9.59918
▁amen	-9.59925
▁roaring	-9.59932
▁fate	-9.59996
▁shape	-9.60014
▁powerful	-9.60048
▁copy	-9.60061
▁indistinctly	-9.60113
▁followed	-9.60154
▁cl	-9.60354
ng	-9.6055
▁spread	-9.60561
▁ideas	-9.60565
▁port	-9.60672
▁lee	-9.6076
▁higher	-9.60786
▁mighty	-9.60801
sa	-9.60831
▁innocent	-9.60913
▁grew	-9.60914
▁saint	-9.60921
▁creature	-9.60927
▁stayed	-9.60939
▁barry	-9.60941
▁medical	-9.60947
▁rip	-9.60987
▁bud	-9.61255
▁ja	-9.61349
▁event	-9.61394
▁doin	-9.61633
▁celebrate	-9.61763
▁shows	-9.61769
▁total	-9.61852
▁arthur	-9.61966
▁junior	-9.61966
▁threw	-9.61966
▁chocolate	-9.61969
▁kitty	-9.61971
▁babe	-9.61972
▁roger	-9.61986
▁cousin	-9.61998
▁guilty	-9.62001
▁chase	-9.62004
▁hugo	-9.62018
▁wing	-9.6202
ring	-9.62099
▁giggles	-9.62113
▁coat	-9.62152
▁hm	-9.62153
▁paying	-9.62302
▁oil	-9.62333
▁heading	-9.62341
ti	-9.62527
▁ringle	-9.62555
▁pen	-9.62576
▁knocking	-9.62721
▁desire	-9.62827
▁louis	-9.62937
▁africa	-9.62968
▁square	-9.6303
▁thief	-9.6303
▁sugar	-9.63031
▁student	-9.63099
▁row	-9.63173
▁pup	-9.63274
▁soldiers	-9.63288
▁pounds	-9.63295
ba	-9.63359
ut	-9.63406
▁destroyed	-9.63476
▁enter	-9.6349
▁bless	-9.6351
▁agreed	-9.63517
▁artist	-9.63557
▁ruin	-9.63572
▁blows	-9.63581
▁burning	-9.63699
▁scream	-9.63846
▁appear	-9.63903
▁march	-9.64096
▁character	-9.64105
▁delicious	-9.64105
▁energy	-9.64105
▁japanese	-9.64105
▁british	-9.64106
▁birth	-9.64112
▁aboard	-9.64112
▁governor	-9.64115
▁mule	-9.6417
▁pope	-9.64208
▁towards	-9.64278
▁buzzing	-9.6434
by	-9.64497
▁crash	-9.64504
▁note	-9.64511
▁cars	-9.64707
▁belongs	-9.64745
▁dust	-9.65077
ize	-9.65175
▁cancer	-9.65192
▁interview	-9.65192
▁understood	-9.65192
▁teddy	-9.65193
▁hollywood	-9.65194
▁mercy	-9.65194
▁justice	-9.65194
▁plain	-9.65216
▁acting	-9.65216
▁depends	-9.65231
bo	-9.6526
▁claire	-9.65275
▁claw	-9.65305
▁whale	-9.65322
j	-9.65344
▁si	-9.65395
▁concerned	-9.65398
▁ordered	-9.65404
▁cares	-9.6584
▁switch	-9.66016
▁suspect	-9.66019
▁block	-9.66152
▁keeps	-9.66202
▁helped	-9.66259
▁prom	-9.66276
▁california	-9.66291
▁michael	-9.66291
▁neecro	-9.66291
▁split	-9.66291
▁murray	-9.66291
▁maddy	-9.66293
▁swing	-9.66297
▁contract	-9.66298
▁guards	-9.66378
▁computer	-9.66396
▁metal	-9.66551
▁ends	-9.66559
▁thousands	-9.6662
▁nation	-9.66632
▁itd	-9.66842
▁cast	-9.66917
▁ships	-9.66964
▁punch	-9.67062
▁iii	-9.67094
▁market	-9.6717
▁cheer	-9.67178
▁tara	-9.67324
▁iron	-9.67365
▁creatures	-9.67388
▁contest	-9.67393
▁clouseau	-9.67402
▁military	-9.67402
▁permission	-9.67402
▁edward	-9.67409
▁jimmy	-9.6741
▁emily	-9.6743
▁china	-9.67443
▁goodnight	-9.67462
im	-9.67509
▁received	-9.67525
▁treasure	-9.6754
▁duck	-9.67545
▁conversation	-9.67548
▁prepared	-9.67688
ah	-9.67788
▁lou	-9.67902
▁hunting	-9.67939
▁freak	-9.68015
▁nights	-9.68163
▁focus	-9.68254
▁woods	-9.68258
▁expecting	-9.68491
▁heavens	-9.68509
▁groove	-9.68526
▁sterling	-9.68526
▁tongue	-9.68526
▁bobby	-9.68545
▁pulled	-9.68591
▁disgusting	-9.68594
▁professional	-9.68629
▁relationship	-9.68687
▁dolly	-9.68691
▁hearing	-9.68815
▁filled	-9.68964
▁shower	-9.69038
▁smells	-9.69232
ga	-9.69568
▁chuck	-9.69621
▁pizza	-9.69662
▁wednesday	-9.69662
▁familiar	-9.69672
▁grandmother	-9.69686
▁announcer	-9.69689
▁apple	-9.69693
▁bout	-9.69703
▁sonny	-9.69708
▁priest	-9.69853
▁pilot	-9.69858
▁elephant	-9.69866
▁mei	-9.69916
▁flower	-9.69971
▁ways	-9.6998
om	-9.69985
▁surely	-9.70009
▁warning	-9.70028
vi	-9.70072
▁buying	-9.70108
▁carefully	-9.70177
led	-9.70324
▁headed	-9.70397
▁release	-9.70613
▁jealous	-9.70654
▁simon	-9.70714
▁byebye	-9.70811
▁stuart	-9.70812
▁jewish	-9.70814
▁earlier	-9.7082
▁scary	-9.70879
▁fang	-9.70896
▁charming	-9.71056
▁con	-9.71113
▁letting	-9.71155
▁prime	-9.71329
▁goal	-9.71414
▁warn	-9.71517
am	-9.71535
▁social	-9.71539
▁career	-9.71547
▁ln	-9.71749
ley	-9.71792
▁original	-9.71873
▁blowing	-9.71881
▁passing	-9.71964
▁legal	-9.71968
▁knowledge	-9.71974
▁taylor	-9.71974
▁candy	-9.71974
▁glory	-9.71975
▁davy	-9.71977
▁washington	-9.71978
▁bread	-9.71991
▁doors	-9.71996
▁whore	-9.72012
▁snoring	-9.72017
▁aii	-9.72038
▁howling	-9.72062
▁younger	-9.72086
▁taxi	-9.72104
▁canyon	-9.72231
▁shine	-9.72239
▁created	-9.72259
▁shoe	-9.72432
ge	-9.72455
▁pok	-9.72481
▁led	-9.72568
op	-9.72748
▁bay	-9.72749
▁sail	-9.72771
▁avoid	-9.72797
▁pleasant	-9.73151
▁theodore	-9.73151
▁bunny	-9.73152
▁joseph	-9.73152
▁pride	-9.73152
▁whoever	-9.73153
▁precious	-9.73154
▁wherever	-9.73156
▁intense	-9.73167
▁fur	-9.73229
▁lawyer	-9.73428
▁walter	-9.73488
▁crashing	-9.73529
▁pot	-9.7369
▁learning	-9.73695
▁ab	-9.73704
wa	-9.73738
▁barn	-9.73784
head	-9.73863
▁suck	-9.73876
▁pleased	-9.73899
▁pie	-9.74228
▁easier	-9.74341
▁joshua	-9.74341
▁otherwise	-9.74341
▁pregnant	-9.74341
▁tischendorf	-9.74341
▁whimpering	-9.74341
▁moses	-9.74343
▁trash	-9.74345
▁nope	-9.7435
▁desk	-9.74355
▁boring	-9.74361
▁changing	-9.7442
▁jane	-9.74556
▁discovered	-9.7456
▁le	-9.74576
▁trade	-9.74584
▁shirt	-9.74643
▁concert	-9.74647
▁rabbit	-9.74655
▁product	-9.74693
▁ty	-9.75284
▁success	-9.75349
▁cubs	-9.75416
▁particular	-9.75427
▁obvious	-9.75427
▁gentle	-9.75509
▁several	-9.75546
▁ronnie	-9.75546
▁staff	-9.75546
▁swimming	-9.75555
▁unfortunately	-9.75589
▁thirsty	-9.75617
▁lion	-9.75624
▁bound	-9.75642
▁laid	-9.75679
▁grown	-9.75697
▁ham	-9.75859
▁mustve	-9.75916
der	-9.76109
▁ned	-9.76447
▁showing	-9.76492
▁spare	-9.76576
▁harm	-9.76709
▁aware	-9.76759
▁courage	-9.76761
▁mount	-9.76765
▁bastian	-9.76766
▁footsteps	-9.76766
▁terrific	-9.76766
▁plus	-9.76769
▁swan	-9.7677
▁apparently	-9.76775
▁liar	-9.76787
▁safety	-9.76828
▁stolen	-9.76844
▁siren	-9.76903
▁pan	-9.76915
▁rare	-9.76931
▁score	-9.76949
▁eggs	-9.7696
▁cards	-9.76962
▁doll	-9.77014
▁credit	-9.77129
▁member	-9.77141
▁mu	-9.77171
▁ka	-9.77181
▁button	-9.77182
ner	-9.77403
▁brings	-9.77506
▁tears	-9.77628
pa	-9.77635
▁lately	-9.77876
off	-9.77902
▁signed	-9.77941
▁express	-9.77945
▁sat	-9.77951
▁pieces	-9.77996
▁amount	-9.78
▁fought	-9.78
▁krasta	-9.78
▁oclock	-9.78
▁lodge	-9.78
▁genius	-9.78
▁expensive	-9.78002
▁rotten	-9.78002
▁performance	-9.78005
▁property	-9.78011
▁jamie	-9.78051
▁victory	-9.7806
▁ko	-9.78191
▁deliver	-9.78321
▁spoke	-9.78335
▁tear	-9.78362
▁daniel	-9.78388
▁monkey	-9.7841
▁lower	-9.78496
▁los	-9.78711
▁balls	-9.78868
▁plant	-9.78922
▁fe	-9.7909
▁regular	-9.79126
▁helen	-9.79172
▁speech	-9.79172
▁destiny	-9.7925
▁invincible	-9.7925
▁italian	-9.7925
▁responsibility	-9.7925
▁stomach	-9.7925
▁airport	-9.7927
▁levi	-9.79284
▁apartment	-9.79303
▁aim	-9.79399
▁claim	-9.79424
▁pet	-9.79532
▁personally	-9.79582
▁hound	-9.79678
▁demand	-9.79685
▁lookin	-9.79746
▁to	-9.79807
▁perform	-9.79883
▁matters	-9.79885
▁clearly	-9.80007
ey	-9.80013
▁design	-9.80261
▁dressing	-9.80336
▁teaching	-9.80409
▁education	-9.80462
▁equipment	-9.80516
▁sunshine	-9.80516
▁whirring	-9.80516
▁international	-9.80517
▁ethan	-9.80519
▁bride	-9.80576
▁crown	-9.80656
back	-9.80727
▁jerk	-9.80985
▁tower	-9.81001
▁actor	-9.81086
▁cape	-9.81098
▁lines	-9.81192
▁nick	-9.81442
ally	-9.81506
ance	-9.81641
▁cheap	-9.8167
▁official	-9.8168
▁finding	-9.8168
ow	-9.81716
▁worlds	-9.81726
▁mood	-9.81735
▁ca	-9.81745
▁insane	-9.81798
▁puppy	-9.818
▁wire	-9.819
▁successful	-9.82008
▁scare	-9.82136
▁lily	-9.82139
cy	-9.82194
▁skate	-9.82205
ac	-9.8223
▁bi	-9.82253
▁growls	-9.82294
▁weapon	-9.8231
▁leo	-9.82321
▁tiggers	-9.82797
house	-9.82805
▁guide	-9.82895
▁cab	-9.82962
▁caitlyn	-9.83097
▁easily	-9.83097
▁glorious	-9.83097
▁humphrey	-9.83097
▁modern	-9.83097
▁donald	-9.83097
▁becoming	-9.83098
▁heck	-9.83099
▁knight	-9.83099
▁abby	-9.83104
▁ivy	-9.83123
▁loving	-9.83127
▁hallie	-9.8314
▁all	-9.83147
▁powers	-9.83219
▁glasses	-9.83277
ct	-9.83418
▁barks	-9.83423
▁sub	-9.83451
▁wheel	-9.83573
▁treated	-9.83588
▁photo	-9.83632
▁owner	-9.83648
▁ruth	-9.83789
▁bone	-9.83822
▁mar	-9.83836
▁pitch	-9.84138
▁painting	-9.84159
▁sacrifice	-9.84207
▁condition	-9.84352
▁who	-9.84354
▁hee	-9.84361
▁witch	-9.84366
▁album	-9.84412
▁beloved	-9.84412
▁university	-9.84412
▁presence	-9.84413
▁ryan	-9.84413
▁upbeat	-9.84413
▁screen	-9.84413
▁available	-9.84414
▁hidden	-9.84414
▁clever	-9.84416
▁circus	-9.84417
que	-9.84424
▁edge	-9.84425
▁barely	-9.84447
▁exhales	-9.84568
▁fort	-9.84572
▁salt	-9.84627
▁butter	-9.84638
▁gettin	-9.84773
▁toys	-9.8493
hi	-9.8497
▁holiday	-9.84987
▁stronger	-9.85022
▁knees	-9.85032
▁bat	-9.85086
▁saving	-9.85089
▁tickets	-9.85099
▁suffer	-9.85126
▁load	-9.85166
ai	-9.85215
po	-9.85217
di	-9.85251
▁invite	-9.85549
▁planes	-9.85569
▁proper	-9.85676
▁lied	-9.85734
▁channel	-9.85746
▁monsieur	-9.85746
▁audition	-9.85749
▁shift	-9.85762
▁deck	-9.85765
▁hal	-9.85781
ya	-9.85996
▁brad	-9.86007
lin	-9.86033
▁monsters	-9.86155
▁numbers	-9.86162
▁tied	-9.86283
▁generation	-9.86346
▁sometime	-9.86349
▁closes	-9.86387
▁spin	-9.86411
▁that	-9.86453
▁everybodys	-9.86459
▁fixed	-9.86548
▁coins	-9.86566
▁songs	-9.86771
▁or	-9.86816
▁moms	-9.8685
▁trained	-9.87029
▁flash	-9.87069
▁enemies	-9.87097
▁julio	-9.87097
▁raccoon	-9.87097
▁appointment	-9.871
▁tiger	-9.871
▁tj	-9.87106
▁voiceover	-9.87117
▁u	-9.87245
les	-9.87318
▁ra	-9.87406
▁woody	-9.87407
▁marshal	-9.87444
ip	-9.87475
▁arrive	-9.8748
▁cha	-9.875
od	-9.87509
ka	-9.87539
▁text	-9.876
▁catholic	-9.87712
▁snap	-9.87723
▁fruit	-9.87728
▁effort	-9.87734
▁medal	-9.8775
▁page	-9.87771
▁covered	-9.87804
▁rush	-9.87846
▁parts	-9.88105
▁selling	-9.88368
▁champagne	-9.88467
▁museum	-9.88467
▁mostly	-9.88467
▁unique	-9.88473
▁therell	-9.88481
▁moaning	-9.88542
▁unh	-9.88561
▁fake	-9.88654
▁forth	-9.88794
rat	-9.88826
▁clouds	-9.8883
▁faces	-9.88862
▁brains	-9.88908
▁arrested	-9.88938
▁refuse	-9.88938
▁hop	-9.89083
▁pocket	-9.8914
mo	-9.89144
ill	-9.8923
▁frog	-9.89261
▁mole	-9.89266
▁insist	-9.89588
ps	-9.89606
▁yay	-9.89682
▁rolling	-9.89683
ster	-9.89702
▁pink	-9.89765
ping	-9.8985
▁babies	-9.89856
▁fortune	-9.89856
▁nelson	-9.89856
▁television	-9.89856
▁forbidden	-9.89857
▁buried	-9.89858
▁marvelous	-9.89858
▁route	-9.89863
▁jeff	-9.89867
▁friendship	-9.89903
▁dex	-9.89906
▁murmuring	-9.89907
▁mans	-9.89924
▁file	-9.89937
▁squealing	-9.89962
▁gay	-9.9001
▁manage	-9.90032
▁heroes	-9.90056
▁honestly	-9.9016
▁divine	-9.90202
▁served	-9.90227
▁crack	-9.90451
▁offered	-9.90552
▁experiment	-9.90584
▁uhh	-9.90588
▁corn	-9.90863
▁reporter	-9.90867
▁loss	-9.90886
▁crow	-9.91037
▁julie	-9.91148
▁answers	-9.91209
▁abigail	-9.91264
▁therefore	-9.91264
▁unusual	-9.91264
▁toast	-9.91265
▁presley	-9.91265
▁picnic	-9.91265
▁authority	-9.91272
▁task	-9.91282
ball	-9.91284
▁oliver	-9.91294
▁guests	-9.91338
▁darkness	-9.9135
▁lucy	-9.91354
▁concern	-9.91381
▁title	-9.91407
▁counting	-9.91412
▁knee	-9.91431
▁hills	-9.91446
▁pity	-9.91458
▁disappeared	-9.91481
▁boom	-9.91665
▁lack	-9.91831
ke	-9.91864
▁sending	-9.91913
ized	-9.92017
▁sp	-9.92097
▁del	-9.92098
▁attacked	-9.92138
▁vo	-9.92143
▁someones	-9.92227
▁cooking	-9.92228
▁dump	-9.92461
▁details	-9.92561
▁soo	-9.926
▁india	-9.92624
▁cure	-9.92654
▁represent	-9.92675
▁twenty	-9.92692
▁proceed	-9.92693
▁quixote	-9.92693
▁society	-9.92693
▁whimpers	-9.92693
▁culture	-9.92695
▁palace	-9.92697
▁latin	-9.92697
▁toby	-9.927
▁theme	-9.92708
▁tin	-9.92726
▁sunk	-9.92794
▁opened	-9.92945
▁lad	-9.93014
▁ruined	-9.93052
▁flag	-9.93175
▁deeply	-9.93256
▁slip	-9.9349
▁stealing	-9.93495
▁searching	-9.93496
▁pigs	-9.93532
▁recording	-9.93968
▁notes	-9.94049
▁seek	-9.9409
▁harris	-9.94113
▁backup	-9.94114
▁crumb	-9.94129
▁popular	-9.94131
▁bounce	-9.94142
▁downstairs	-9.94142
▁elizabeth	-9.94142
▁heavily	-9.94142
▁magnificent	-9.94142
▁celebi	-9.94152
▁maid	-9.94153
▁reward	-9.94157
▁thou	-9.94158
▁starving	-9.94165
▁hans	-9.94167
▁robbery	-9.94188
▁firm	-9.94196
▁cabin	-9.9425
▁angels	-9.94289
▁mud	-9.94323
▁waves	-9.94347
▁tense	-9.94406
▁raised	-9.9447
▁woo	-9.9461
▁movement	-9.94627
▁roars	-9.9466
▁pulling	-9.94677
ni	-9.94695
▁chest	-9.94961
▁grave	-9.95144
▁discover	-9.95191
▁bells	-9.95193
▁image	-9.95198
▁pin	-9.95243
▁attempt	-9.95336
ite	-9.95386
▁bernie	-9.95392
pe	-9.95394
▁divorce	-9.95414
▁zoo	-9.95428
just	-9.95441
▁freeze	-9.95457
ci	-9.95476
▁bust	-9.95489
▁expert	-9.95609
▁closing	-9.95613
▁empire	-9.95613
▁suspense	-9.95613
▁including	-9.95614
▁botat	-9.95616
▁principal	-9.95619
▁false	-9.95621
▁legend	-9.95632
▁section	-9.95632
▁nasty	-9.95637
▁model	-9.95651
▁yells	-9.95737
▁odd	-9.95748
▁passion	-9.95857
▁tapes	-9.95945
▁fore	-9.95952
▁reality	-9.95959
▁gal	-9.96001
▁rub	-9.96104
▁it	-9.96108
if	-9.96195
▁tradition	-9.96201
▁subject	-9.96497
▁clue	-9.965
▁pumpkin	-9.96503
▁neighbor	-9.96504
▁trial	-9.96505
▁belt	-9.96509
▁members	-9.96643
▁bowl	-9.96676
▁lover	-9.96678
▁seal	-9.96681
▁talkin	-9.96735
▁youth	-9.96772
▁praise	-9.96899
▁honour	-9.97084
▁progress	-9.97105
▁struggle	-9.97105
▁extraordinary	-9.97107
▁vision	-9.97107
▁argh	-9.97107
▁broadway	-9.97108
▁goose	-9.97109
▁whip	-9.97112
▁trapped	-9.97114
▁savage	-9.97118
▁sanna	-9.97141
▁roman	-9.97145
▁smoking	-9.97146
▁lean	-9.97181
▁axel	-9.97207
▁buck	-9.97215
▁ni	-9.97219
▁tracks	-9.9725
▁thick	-9.97305
ts	-9.97321
▁naturally	-9.97325
▁kat	-9.97424
▁ne	-9.97723
▁ski	-9.97815
▁gather	-9.97998
▁steps	-9.9803
▁nightmare	-9.98034
▁ren	-9.98208
tt	-9.98346
▁witness	-9.98557
▁somethin	-9.98569
▁mon	-9.9858
▁basket	-9.98616
▁disaster	-9.9862
▁expedition	-9.9862
▁kevin	-9.9862
▁mystery	-9.9862
▁period	-9.9862
▁stood	-9.98621
▁jeannette	-9.98621
▁blew	-9.98621
▁surface	-9.98622
▁disease	-9.98622
▁virgil	-9.98625
▁parade	-9.98627
▁stroke	-9.98631
ph	-9.98676
▁recently	-9.98683
▁ken	-9.98861
▁jar	-9.98898
▁grade	-9.98915
▁hire	-9.99012
of	-9.99086
og	-9.99146
▁hurts	-9.99281
▁panic	-9.99413
▁screw	-9.99537
▁bearing	-9.99545
▁nah	-9.9959
▁cowboy	-9.99594
▁issue	-9.99604
▁andrew	-9.99607
▁direct	-9.99622
▁shoulder	-9.99623
▁sport	-9.99634
▁separate	-9.99835
▁cigarettes	-9.99948
▁assure	-9.99996
▁chill	-10.0002
▁positive	-10.0004
my	-10.0006
▁ape	-10.0008
▁croatian	-10.0016
▁district	-10.0016
▁georgie	-10.0016
▁napoleon	-10.0016
▁nephew	-10.0016
▁political	-10.0016
▁surrender	-10.0016
▁darn	-10.0016
▁wilson	-10.0016
▁mmmhmm	-10.0016
▁zeus	-10.0016
▁confidence	-10.0017
▁doctors	-10.0017
▁flipper	-10.002
▁earn	-10.0023
▁eve	-10.0024
▁goats	-10.0029
▁germans	-10.0033
▁fallen	-10.0035
▁angeles	-10.0036
▁ended	-10.0037
▁shy	-10.004
▁healthy	-10.0044
▁watched	-10.0054
▁lab	-10.0057
ical	-10.0057
▁jet	-10.0065
▁ate	-10.0068
▁mustnt	-10.0069
▁behave	-10.008
▁moments	-10.008
▁wishes	-10.0085
▁secrets	-10.0109
▁shock	-10.011
▁blanket	-10.0118
▁fashion	-10.0142
we	-10.0142
▁sale	-10.0143
▁tip	-10.0145
▁magnet	-10.0151
▁prayer	-10.0153
▁threat	-10.0163
▁isaac	-10.0172
▁mirror	-10.0172
▁routine	-10.0172
▁vehicle	-10.0172
▁attitude	-10.0172
▁breeze	-10.0172
▁manolo	-10.0172
▁chicago	-10.0172
▁mask	-10.0172
▁fetch	-10.0172
▁juice	-10.0172
▁clapping	-10.0173
▁charity	-10.0173
▁lu	-10.0177
▁monty	-10.0177
▁extremely	-10.0178
▁miller	-10.0184
▁sighing	-10.0201
va	-10.0208
▁eaten	-10.0219
▁range	-10.0234
▁fail	-10.0269
▁buzz	-10.0277
▁servant	-10.0281
▁gunshot	-10.0282
▁drum	-10.0292
ped	-10.0293
▁glow	-10.0296
oh	-10.0301
▁presents	-10.0305
▁provide	-10.0311
▁damage	-10.0311
▁thin	-10.0315
▁begins	-10.0316
▁gi	-10.033
▁scientific	-10.033
▁afshin	-10.0331
▁fantasy	-10.0331
▁tentrees	-10.0331
▁alvin	-10.0331
▁individual	-10.0331
▁simonides	-10.0331
▁families	-10.0331
▁thudding	-10.0331
▁shining	-10.0331
▁zero	-10.0331
▁shopping	-10.0332
▁motor	-10.0332
▁series	-10.0332
▁virgin	-10.0333
▁obey	-10.0334
ir	-10.0338
▁patch	-10.0339
▁po	-10.034
▁marc	-10.0341
▁disappointed	-10.0342
▁tinker	-10.0346
▁parties	-10.0359
▁clicking	-10.036
▁approaching	-10.036
▁brooks	-10.037
▁fishing	-10.0371
▁net	-10.0376
so	-10.0393
▁squeaks	-10.0395
▁county	-10.041
▁pe	-10.0411
▁magazine	-10.0443
▁victim	-10.0445
▁til	-10.0453
▁ar	-10.0454
▁casey	-10.0458
▁cart	-10.0465
▁curse	-10.0473
▁sha	-10.0484
▁lo	-10.0486
▁claude	-10.0492
▁akhoba	-10.0492
▁charlotte	-10.0492
▁farnaz	-10.0492
▁fascinating	-10.0492
▁gertrude	-10.0492
▁review	-10.0492
▁rhythm	-10.0492
▁steam	-10.0492
▁traitor	-10.0492
▁tunnel	-10.0492
▁vandergelder	-10.0492
▁gordon	-10.0492
▁subtitle	-10.0492
▁rachel	-10.0492
▁gorgeous	-10.0492
▁assistant	-10.0493
▁basically	-10.0493
▁francisco	-10.0493
▁alien	-10.0495
▁impression	-10.0495
▁pip	-10.0495
▁johnson	-10.0498
▁setting	-10.0501
▁touched	-10.0512
▁sexy	-10.0523
▁everyones	-10.0533
▁anne	-10.0534
▁er	-10.0534
▁defend	-10.054
▁ld	-10.055
ming	-10.0551
ress	-10.0564
▁quietly	-10.0566
▁meow	-10.0575
▁wound	-10.0583
▁weapons	-10.0591
▁up	-10.0591
▁blast	-10.0593
ja	-10.0595
▁bags	-10.0598
▁magical	-10.0609
▁cloud	-10.0613
▁term	-10.0617
▁capital	-10.0618
▁sin	-10.0627
▁ma	-10.0631
▁charm	-10.0631
▁mix	-10.0631
▁sauce	-10.0633
▁assume	-10.0636
▁capture	-10.0636
▁sink	-10.0639
▁egypt	-10.0655
▁eagle	-10.0656
▁grateful	-10.0656
▁library	-10.0656
▁muffled	-10.0656
▁paradise	-10.0656
▁patience	-10.0656
▁piranha	-10.0656
▁twelve	-10.0656
▁license	-10.0656
▁bodies	-10.0656
▁funeral	-10.0656
▁wasting	-10.0656
▁theater	-10.0656
▁norman	-10.0657
▁ego	-10.0659
▁oksana	-10.0659
▁ellen	-10.0659
▁wailing	-10.0663
▁blessing	-10.0664
▁role	-10.0666
▁waited	-10.0668
▁naked	-10.0673
▁runs	-10.0673
▁bum	-10.0688
▁germany	-10.0694
▁br	-10.0698
▁escaped	-10.0698
▁terms	-10.0699
▁tap	-10.0708
▁yard	-10.0728
▁counter	-10.0745
▁pound	-10.0749
▁secure	-10.075
▁dreamed	-10.0752
▁banging	-10.0752
▁murderer	-10.0754
▁musicians	-10.0754
▁bend	-10.0759
▁bark	-10.0761
ten	-10.0765
▁forces	-10.0776
▁donkey	-10.0778
▁criminal	-10.0779
▁material	-10.0779
▁lap	-10.0783
▁stock	-10.079
▁defeat	-10.0796
▁ti	-10.0806
▁boats	-10.0807
▁branch	-10.0816
▁thirty	-10.0823
▁agency	-10.0823
▁barbara	-10.0823
▁caesar	-10.0823
▁central	-10.0823
▁eventually	-10.0823
▁flesh	-10.0823
▁joking	-10.0823
▁turkey	-10.0823
▁toilet	-10.0823
▁excitement	-10.0823
▁phil	-10.0823
▁ashley	-10.0824
▁juan	-10.0824
▁zone	-10.0824
▁nicole	-10.0825
▁capable	-10.0827
▁baron	-10.0832
▁bored	-10.0834
▁fourth	-10.0838
▁convinced	-10.0842
▁screwed	-10.0852
▁warned	-10.0865
ex	-10.0899
▁badly	-10.09
fe	-10.09
▁hay	-10.0907
▁traveling	-10.0914
▁shout	-10.0918
▁whistles	-10.0924
▁tune	-10.0931
eth	-10.0938
▁checked	-10.0942
▁spit	-10.0947
▁slave	-10.0953
▁picking	-10.0953
▁stretch	-10.0964
▁borrow	-10.0965
▁degrees	-10.0969
▁sentence	-10.0974
▁garbage	-10.0992
▁reputation	-10.0992
▁slept	-10.0992
▁supper	-10.0992
▁yussef	-10.0992
▁chloe	-10.0992
▁committee	-10.0992
▁curious	-10.0992
▁argue	-10.0992
▁weii	-10.0993
▁mass	-10.0993
▁rude	-10.0993
▁babar	-10.0994
▁lisa	-10.0994
▁foolish	-10.0994
▁confused	-10.0994
▁randy	-10.0995
line	-10.0996
▁secretary	-10.0997
▁factory	-10.1001
▁sharks	-10.1012
▁lance	-10.1025
▁angela	-10.104
▁based	-10.1041
pl	-10.1047
▁tricks	-10.1048
▁forced	-10.1053
▁par	-10.1056
▁spelling	-10.1073
▁changes	-10.1074
▁points	-10.1077
▁reached	-10.1101
▁june	-10.1111
▁minds	-10.1112
▁coughs	-10.1112
▁dollar	-10.1126
▁source	-10.1127
▁lamp	-10.1131
▁coward	-10.1131
ning	-10.1132
▁schedule	-10.1144
▁string	-10.1145
▁hung	-10.1152
▁physical	-10.1154
▁drag	-10.1156
▁defense	-10.1164
▁wrap	-10.1164
▁lauren	-10.1164
▁alexander	-10.1165
▁cliff	-10.1165
▁darryl	-10.1165
▁kabuna	-10.1165
▁razz	-10.1165
▁drove	-10.1165
▁surgery	-10.1165
▁western	-10.1165
▁frozen	-10.1166
▁loan	-10.1166
▁connection	-10.1168
▁border	-10.1171
▁kissing	-10.1172
▁impressed	-10.1184
▁frankie	-10.1187
▁fa	-10.1189
▁gim	-10.1191
▁useless	-10.1208
▁singer	-10.1215
▁root	-10.1216
▁sean	-10.1218
cr	-10.1218
rr	-10.1222
▁beating	-10.1227
▁accepted	-10.1234
▁considered	-10.1236
ward	-10.1255
▁caused	-10.1256
▁hated	-10.1259
ide	-10.1267
▁landing	-10.1273
▁disappear	-10.1278
side	-10.1284
ice	-10.1294
▁sweat	-10.1296
▁trace	-10.132
▁convince	-10.132
▁solve	-10.1321
qui	-10.1325
▁cats	-10.1333
▁civil	-10.1339
▁advantage	-10.134
▁alfred	-10.134
▁ashamed	-10.134
▁intelligence	-10.134
▁reckon	-10.134
▁religion	-10.134
▁thomas	-10.134
▁outfit	-10.134
▁failure	-10.1341
▁chasing	-10.1341
▁decent	-10.1341
▁flies	-10.1342
▁howard	-10.1342
▁salad	-10.1343
▁determined	-10.1344
▁practically	-10.1345
▁firing	-10.1346
▁squeaking	-10.1352
▁uhuh	-10.1353
▁prisoners	-10.1365
▁former	-10.137
▁passes	-10.1373
▁gum	-10.1374
▁tale	-10.1374
▁loaded	-10.1376
▁bush	-10.1379
▁ranch	-10.1379
▁indians	-10.1388
▁fools	-10.1388
▁pit	-10.1398
down	-10.1402
▁sports	-10.1403
way	-10.1414
▁becomes	-10.142
▁chi	-10.1421
▁praying	-10.1449
ang	-10.1452
▁peaceful	-10.1452
▁fucked	-10.1453
▁sons	-10.1462
val	-10.1471
▁moves	-10.148
▁receive	-10.1486
▁peanut	-10.1486
▁statue	-10.1487
▁lions	-10.1487
▁toward	-10.1491
▁intend	-10.1491
▁confess	-10.1495
▁cr	-10.1498
▁piss	-10.15
all	-10.1501
▁down	-10.1502
▁chain	-10.1502
▁spy	-10.1502
▁noon	-10.1505
▁egg	-10.151
▁fox	-10.1513
▁advertising	-10.1519
▁circumstances	-10.1519
▁literally	-10.1519
▁nikki	-10.1519
▁sergei	-10.1519
▁splendid	-10.1519
▁terribly	-10.1519
▁territory	-10.1519
▁throne	-10.1519
▁violence	-10.1519
▁floyd	-10.1519
▁otto	-10.1519
▁bamboo	-10.1519
▁chorus	-10.1519
▁cage	-10.1519
▁neighborhood	-10.1519
▁solid	-10.1519
▁eddie	-10.1519
▁jenna	-10.1519
▁grayson	-10.1519
▁fifty	-10.152
▁bedroom	-10.1521
▁flood	-10.1521
▁brandon	-10.1527
▁chanting	-10.1532
▁nest	-10.1532
▁robin	-10.1539
▁hen	-10.1539
▁aaah	-10.154
tra	-10.1541
fa	-10.1543
▁beth	-10.1544
▁mixed	-10.1548
▁latest	-10.1553
▁loser	-10.1553
▁deed	-10.156
▁slaves	-10.156
▁entirely	-10.1572
▁formula	-10.1573
ick	-10.1578
▁sc	-10.1586
ard	-10.1608
▁hug	-10.1611
▁guts	-10.1614
▁collect	-10.1622
▁chap	-10.1624
▁souls	-10.1626
▁poison	-10.1636
▁rot	-10.1636
▁spoil	-10.1637
▁skills	-10.164
ass	-10.1641
▁sneak	-10.1645
ber	-10.1646
▁lili	-10.1657
▁brief	-10.1665
▁pump	-10.1665
▁manuscript	-10.1674
▁wave	-10.1676
▁guarantee	-10.168
▁sire	-10.1699
▁compete	-10.1699
▁basic	-10.17
▁anxious	-10.17
▁anytime	-10.17
▁aussie	-10.17
▁beneath	-10.17
▁elevator	-10.17
▁generous	-10.17
▁insurance	-10.17
▁rebecca	-10.17
▁rifle	-10.17
▁tuesday	-10.17
▁trigger	-10.1701
▁flew	-10.1701
▁recall	-10.1701
▁unknown	-10.1701
▁ollie	-10.1701
▁lousy	-10.1701
▁republican	-10.1701
▁kim	-10.1702
▁fuel	-10.1702
▁fence	-10.1702
▁collection	-10.1704
▁luke	-10.1706
▁snakes	-10.171
▁navy	-10.1715
ise	-10.1716
▁writer	-10.1717
▁stopping	-10.172
▁thee	-10.1727
▁just	-10.173
▁dancer	-10.1731
▁thrown	-10.1732
▁habit	-10.1733
▁burned	-10.179
▁studying	-10.1795
▁comp	-10.1809
▁nap	-10.1821
▁rooms	-10.1837
▁process	-10.185
si	-10.1853
▁fed	-10.1856
▁chick	-10.186
▁lit	-10.186
▁dozen	-10.1861
▁quarter	-10.1862
▁scout	-10.1865
▁ignore	-10.1866
▁desperate	-10.1874
▁pups	-10.1876
▁honks	-10.1877
iy	-10.1879
▁tank	-10.188
▁organ	-10.1881
▁sucker	-10.1881
▁cruel	-10.1884
▁chop	-10.1885
▁jelly	-10.1885
▁baxter	-10.1886
▁distant	-10.1886
▁ignacio	-10.1886
▁liquor	-10.1886
▁mysterious	-10.1886
▁pikachu	-10.1886
▁slice	-10.1886
▁bonnie	-10.1886
▁susan	-10.1886
▁sunset	-10.1886
▁wiii	-10.1886
leberry	-10.1887
▁mummy	-10.1887
like	-10.1888
▁janie	-10.1889
▁complicated	-10.189
▁lifetime	-10.1892
▁frightened	-10.1894
▁yearold	-10.1896
▁diego	-10.1897
▁clattering	-10.19
▁jesse	-10.19
ze	-10.19
▁bitter	-10.1901
▁sniffing	-10.1902
▁yup	-10.1904
▁statement	-10.1906
▁highest	-10.1912
▁oughta	-10.1913
▁classes	-10.1919
▁partners	-10.1923
▁daughters	-10.1938
▁there	-10.1944
▁aha	-10.195
▁talented	-10.1958
▁laws	-10.1968
▁stands	-10.1971
▁sigh	-10.1996
▁spirits	-10.1997
▁spark	-10.2004
▁approach	-10.2012
▁wins	-10.2015
▁greater	-10.2017
▁pushing	-10.2035
▁pi	-10.2043
▁cor	-10.2045
▁hon	-10.2047
▁adopt	-10.2047
▁fr	-10.2048
▁advance	-10.2054
▁adult	-10.2055
▁plate	-10.2057
▁filming	-10.2059
▁current	-10.2062
▁strip	-10.2068
▁chose	-10.2069
▁jobs	-10.2073
▁traffic	-10.2074
▁jessica	-10.2074
▁miami	-10.2074
▁whiskey	-10.2074
▁kathy	-10.2074
▁cardinal	-10.2074
▁philip	-10.2074
▁revving	-10.2075
▁tummy	-10.2075
▁urgent	-10.2075
▁smiling	-10.2075
▁dive	-10.2075
▁oops	-10.2075
▁championship	-10.2075
▁reverend	-10.2076
▁aside	-10.2076
▁rosie	-10.2076
▁halloween	-10.2078
▁falls	-10.2079
ists	-10.2081
▁marie	-10.2084
▁goofy	-10.2087
▁bleeding	-10.2089
▁ahem	-10.2091
▁directly	-10.2093
▁throwing	-10.2102
▁failed	-10.2107
iv	-10.2109
▁howdy	-10.2112
▁ga	-10.2124
▁marks	-10.2129
▁bra	-10.213
med	-10.2152
▁jam	-10.2168
▁bombs	-10.2169
▁hood	-10.217
▁ver	-10.2181
▁yell	-10.2183
▁embrace	-10.2191
red	-10.2212
▁click	-10.2218
▁tent	-10.222
ama	-10.2227
▁twist	-10.2239
▁junk	-10.2245
what	-10.2247
▁denny	-10.2249
ck	-10.2255
▁gray	-10.2266
▁holly	-10.2266
▁concentrate	-10.2267
▁exercise	-10.2267
▁memphis	-10.2267
▁supply	-10.2267
▁swearnet	-10.2267
▁wolves	-10.2267
▁sweep	-10.2267
▁memories	-10.2267
▁oscar	-10.2267
▁underground	-10.2267
▁accent	-10.2267
▁ordinary	-10.2267
▁sanada	-10.2267
▁silent	-10.2267
▁deposit	-10.2268
▁patrol	-10.2268
▁bucket	-10.2268
▁doorbell	-10.2268
▁shore	-10.2269
▁swell	-10.227
▁lightning	-10.2271
▁chosen	-10.2272
▁sled	-10.2273
▁dreaming	-10.2274
▁iike	-10.2276
▁delighted	-10.2276
▁inner	-10.2276
▁wicked	-10.2276
▁ch	-10.2281
▁boxes	-10.2291
▁prisoner	-10.2293
▁lessons	-10.2294
ns	-10.2303
▁hut	-10.2308
ger	-10.2312
over	-10.2325
▁leading	-10.2331
▁pretending	-10.2336
▁sparkle	-10.2344
▁ay	-10.2344
▁wand	-10.2346
▁me	-10.2369
▁talks	-10.2401
▁cheat	-10.2402
▁lords	-10.2404
▁toes	-10.2404
▁ri	-10.2406
▁reports	-10.2407
▁highly	-10.2415
▁screech	-10.2421
ating	-10.2424
▁carrying	-10.243
▁here	-10.2432
▁pee	-10.2436
▁wipe	-10.2445
▁remembered	-10.2446
▁drinks	-10.2446
some	-10.2449
▁value	-10.245
▁exact	-10.2451
▁customer	-10.2456
▁attend	-10.246
▁article	-10.2463
▁dakota	-10.2463
▁drummond	-10.2463
▁satellite	-10.2463
▁senior	-10.2463
▁someplace	-10.2463
▁jazz	-10.2463
▁tammy	-10.2463
▁kyle	-10.2463
▁higgins	-10.2463
▁quinn	-10.2463
▁blaring	-10.2463
▁mistress	-10.2463
▁hissing	-10.2463
▁impressive	-10.2464
▁fbi	-10.2464
▁cattle	-10.2464
za	-10.2466
ran	-10.2467
▁fi	-10.2469
▁nathan	-10.247
▁embarrassing	-10.2473
▁african	-10.2474
▁bur	-10.2485
▁events	-10.2488
ock	-10.249
▁windows	-10.2501
▁su	-10.2507
▁settled	-10.2507
▁blessed	-10.2513
ny	-10.2519
▁imp	-10.2523
▁murdered	-10.2524
▁coop	-10.2527
▁stones	-10.2528
▁finest	-10.2533
cha	-10.2542
▁goat	-10.2545
▁for	-10.2551
▁bullet	-10.2553
rin	-10.2567
▁beard	-10.257
ens	-10.2573
▁slap	-10.2591
▁enjoyed	-10.2593
▁pace	-10.2611
omber	-10.2611
▁depend	-10.2619
ko	-10.2621
▁gasp	-10.2634
ell	-10.2634
▁crush	-10.2636
▁replace	-10.264
▁deny	-10.2641
▁dirt	-10.2648
▁appears	-10.2649
tion	-10.265
▁yah	-10.2652
▁be	-10.2653
▁clown	-10.2654
▁affair	-10.2655
▁caleb	-10.2663
▁carriage	-10.2663
▁miserable	-10.2663
▁revenge	-10.2663
▁strict	-10.2663
▁maggie	-10.2663
▁diane	-10.2664
▁logan	-10.2664
▁diana	-10.2664
▁groom	-10.2664
▁rita	-10.2665
▁dico	-10.2665
▁shadows	-10.2666
▁nina	-10.2666
▁nearby	-10.2666
▁halfway	-10.2667
▁dating	-10.2667
▁label	-10.2669
▁dishes	-10.267
▁protection	-10.267
▁skies	-10.2671
▁gear	-10.2675
▁particularly	-10.2683
▁union	-10.2683
▁ve	-10.2684
▁dish	-10.2694
▁bon	-10.2696
▁is	-10.2698
▁hired	-10.27
away	-10.2703
▁media	-10.2705
uck	-10.2711
▁site	-10.2714
▁pu	-10.2721
▁gotcha	-10.2724
▁armed	-10.2762
▁val	-10.2763
▁knocked	-10.2775
ving	-10.2777
▁interrupt	-10.2796
ler	-10.2804
▁joined	-10.2812
▁horns	-10.2816
▁hundreds	-10.2825
▁winds	-10.2831
tor	-10.2835
ence	-10.2859
▁shoo	-10.2859
▁sensation	-10.2862
▁cleaning	-10.2862
▁shadow	-10.2864
▁units	-10.2866
▁attorney	-10.2867
▁claudia	-10.2867
▁kangaroo	-10.2867
▁policy	-10.2867
▁prevent	-10.2867
▁shelter	-10.2867
▁solution	-10.2867
▁throughout	-10.2867
▁underneath	-10.2867
▁gently	-10.2867
▁plastic	-10.2867
▁agnes	-10.2867
▁strawberry	-10.2867
▁dummy	-10.2867
▁linh	-10.2867
▁influence	-10.2867
▁radar	-10.2867
▁goodman	-10.2868
▁poem	-10.2868
▁mason	-10.2868
▁invention	-10.2868
▁selfish	-10.2869
▁coke	-10.2869
▁hammer	-10.2869
▁filthy	-10.287
▁math	-10.2871
▁carol	-10.2873
▁treatment	-10.2874
▁fleet	-10.2874
▁cutting	-10.2877
▁swifty	-10.2877
▁oooh	-10.2881
▁poop	-10.2885
▁rosa	-10.2886
▁stops	-10.2907
▁stormy	-10.2908
ably	-10.2911
▁sandy	-10.2912
▁mis	-10.2914
che	-10.2917
▁ann	-10.2924
▁wasted	-10.2926
▁signs	-10.2928
eh	-10.2929
kin	-10.2929
▁tone	-10.2931
▁shots	-10.2939
▁mikey	-10.294
▁skip	-10.295
▁gifts	-10.2954
▁ai	-10.2957
▁touching	-10.296
▁z	-10.2961
▁films	-10.2967
ire	-10.297
▁es	-10.2983
▁pushed	-10.2994
▁judges	-10.2999
ina	-10.301
▁smooth	-10.3015
▁husbands	-10.3033
▁elephants	-10.3038
▁cancel	-10.3048
▁spending	-10.3048
▁arrange	-10.3054
▁documents	-10.3055
▁tooth	-10.3061
hand	-10.3063
work	-10.3071
▁anabel	-10.3072
▁uniform	-10.3074
▁trunk	-10.3075
▁ambassador	-10.3075
▁creek	-10.3075
▁fifteen	-10.3075
▁garcia	-10.3075
▁georgina	-10.3075
▁imagination	-10.3075
▁peggy	-10.3075
▁piccolo	-10.3075
▁politics	-10.3075
▁vietnamese	-10.3075
▁derice	-10.3075
▁rascal	-10.3075
▁rusty	-10.3075
▁jenkins	-10.3075
▁potential	-10.3075
▁location	-10.3075
▁powder	-10.3075
▁josh	-10.3076
▁draft	-10.3076
▁theory	-10.3076
▁clara	-10.3078
▁stress	-10.3078
▁childhood	-10.3078
▁cindy	-10.3079
▁instrumental	-10.3082
▁engaged	-10.3082
▁clark	-10.3083
▁chuckle	-10.3083
▁seth	-10.3084
▁bury	-10.3096
▁hooting	-10.3101
▁hunter	-10.3112
▁now	-10.3113
bb	-10.3115
▁hanky	-10.3116
▁managed	-10.3116
▁carla	-10.3118
▁designed	-10.312
▁tally	-10.3121
▁closet	-10.3123
▁likely	-10.3123
▁cal	-10.3137
▁fields	-10.3151
cl	-10.3169
▁jan	-10.3172
▁staring	-10.3192
rt	-10.32
▁yards	-10.3203
▁players	-10.3214
▁monkeys	-10.3218
▁testing	-10.322
ez	-10.3229
▁canyons	-10.3241
▁haul	-10.3245
▁brush	-10.3255
▁ghosts	-10.3257
▁require	-10.3259
ors	-10.3265
▁unit	-10.3273
▁weigh	-10.3275
▁cousins	-10.3281
▁bills	-10.3285
▁admiral	-10.3287
▁protestant	-10.3288
▁percent	-10.3288
▁appetite	-10.3288
▁celebration	-10.3288
▁combination	-10.3288
▁explanation	-10.3288
▁glauben	-10.3288
▁godzilla	-10.3288
▁negative	-10.3288
▁religious	-10.3288
▁sacred	-10.3288
▁sarafina	-10.3288
▁steak	-10.3288
▁stephanie	-10.3288
▁suicide	-10.3288
▁thompson	-10.3288
▁mouse	-10.3288
▁remote	-10.3288
▁stairs	-10.3288
▁alert	-10.3288
▁allyson	-10.3288
▁clap	-10.3289
▁grip	-10.3289
▁daily	-10.3289
▁orange	-10.3289
▁temple	-10.3289
▁starbird	-10.3289
▁thev	-10.3292
▁vow	-10.3293
ack	-10.3294
▁background	-10.3296
▁hopefully	-10.3298
▁jacket	-10.33
▁fame	-10.3305
ham	-10.3308
▁jade	-10.3312
▁blown	-10.3319
▁checking	-10.3328
gy	-10.3334
▁idiots	-10.3339
▁troops	-10.3341
▁meg	-10.3346
▁sang	-10.3356
▁leavey	-10.3373
▁papi	-10.3374
▁under	-10.3377
▁au	-10.3381
▁ron	-10.3404
▁owns	-10.3413
▁waters	-10.3419
ities	-10.3449
▁he	-10.346
▁results	-10.3462
▁explore	-10.3464
ake	-10.3472
ach	-10.3476
well	-10.3476
▁faint	-10.3478
▁volunteer	-10.3478
q	-10.3478
▁trumpet	-10.3481
▁honk	-10.3494
iest	-10.3496
▁sandwich	-10.3499
▁vatican	-10.3503
▁reasons	-10.3504
▁bobsled	-10.3505
▁melt	-10.3505
▁pussy	-10.3505
▁barnaby	-10.3505
▁behavior	-10.3505
▁ceremony	-10.3505
▁escort	-10.3505
▁fabulous	-10.3505
▁irena	-10.3505
▁slide	-10.3505
▁clifford	-10.3505
▁cathy	-10.3505
▁gym	-10.3505
▁aircraft	-10.3506
▁structure	-10.3506
▁unbelievable	-10.3506
▁worn	-10.3506
▁maintain	-10.3506
▁cunt	-10.3506
▁happily	-10.3506
▁virginia	-10.3507
▁applauding	-10.3507
▁static	-10.3508
▁begun	-10.3508
▁betsy	-10.3509
▁sack	-10.3509
▁data	-10.351
▁profit	-10.3511
▁allen	-10.3513
▁effect	-10.3513
▁benefit	-10.3515
▁voices	-10.3515
▁ballet	-10.3517
▁spoken	-10.3517
▁invented	-10.3518
▁jo	-10.3518
▁compared	-10.3519
▁circle	-10.3521
▁rocket	-10.3521
▁ruby	-10.3529
its	-10.3534
▁mid	-10.3535
▁refused	-10.3537
▁trumpeting	-10.354
▁gil	-10.356
▁suffering	-10.3563
▁neat	-10.3563
ible	-10.3585
▁can	-10.3605
▁belonged	-10.3608
▁americans	-10.3615
▁teams	-10.3616
uc	-10.3623
ied	-10.3638
▁catching	-10.3651
aw	-10.3655
▁beans	-10.3659
ue	-10.3664
▁peppers	-10.3664
▁needle	-10.3687
ust	-10.3695
▁smash	-10.37
▁mistakes	-10.3701
▁anti	-10.3702
▁understanding	-10.3707
▁creep	-10.3712
▁tr	-10.3718
▁greg	-10.3722
▁wa	-10.3724
▁entrance	-10.3728
▁flavor	-10.3728
▁godmother	-10.3728
▁phoenix	-10.3728
▁stubborn	-10.3728
▁technology	-10.3728
▁callahan	-10.3728
▁ouch	-10.3728
▁whyd	-10.3728
▁fond	-10.3728
▁illusion	-10.3728
▁struck	-10.3728
▁pathetic	-10.3728
▁feast	-10.3728
▁campbell	-10.3728
▁rafe	-10.3728
▁hostage	-10.3728
▁balance	-10.3729
▁robot	-10.3729
▁spear	-10.3729
▁baseball	-10.3729
▁pageant	-10.3729
▁kolo	-10.3729
▁stake	-10.373
▁hush	-10.3731
▁cries	-10.3732
▁exhausted	-10.3732
▁gail	-10.3739
port	-10.374
ot	-10.374
▁carried	-10.374
▁session	-10.3741
▁je	-10.3741
▁measure	-10.3742
▁diamond	-10.3743
▁properly	-10.3749
▁chicks	-10.3755
ned	-10.3761
ship	-10.3763
▁cheating	-10.3768
▁earned	-10.377
▁runt	-10.3774
▁deserves	-10.3779
▁remains	-10.379
▁lend	-10.3793
▁chickens	-10.3793
▁hatch	-10.3798
mb	-10.3801
▁theo	-10.383
▁ki	-10.3833
jo	-10.3834
fl	-10.3837
stone	-10.3839
▁packed	-10.384
▁kicked	-10.3842
are	-10.3843
ppy	-10.3845
▁crossed	-10.3846
▁rate	-10.3848
▁holidays	-10.3856
▁breaks	-10.3859
und	-10.3891
▁nut	-10.3898
▁dealing	-10.3909
▁il	-10.3913
▁cloth	-10.3915
▁enjoying	-10.3919
▁award	-10.3931
▁toss	-10.3935
▁ol	-10.3935
▁commission	-10.3938
▁detail	-10.3951
▁recommend	-10.3952
▁loyal	-10.3954
▁skull	-10.3954
▁autograph	-10.3955
▁intelligent	-10.3955
▁investigation	-10.3955
▁jermaine	-10.3955
▁previous	-10.3955
▁ralph	-10.3955
▁supplies	-10.3955
▁survival	-10.3955
▁valuable	-10.3955
▁mumbles	-10.3955
▁duncan	-10.3955
▁rubber	-10.3955
▁stella	-10.3955
▁woke	-10.3956
▁rising	-10.3956
▁sweden	-10.3956
▁fever	-10.3956
▁wrapped	-10.3956
▁remarkable	-10.3957
▁wore	-10.3957
▁ease	-10.396
▁chips	-10.396
▁christine	-10.396
▁mall	-10.3961
▁sanka	-10.3961
▁surrounded	-10.3965
▁suggestion	-10.3965
▁ls	-10.3967
ial	-10.3971
▁homework	-10.3972
▁reservation	-10.3972
▁sore	-10.3973
▁arranged	-10.3977
▁document	-10.3977
▁standard	-10.3979
ev	-10.3983
▁ju	-10.3991
▁owl	-10.3993
▁mack	-10.3999
▁ranger	-10.4001
▁flame	-10.4026
▁musketeers	-10.4032
▁shortly	-10.4034
ments	-10.404
▁gar	-10.404
▁bangs	-10.4064
▁ac	-10.4072
▁locker	-10.4082
▁hail	-10.4087
▁paintings	-10.4092
▁colors	-10.4116
▁palm	-10.4117
▁buildings	-10.4121
▁drown	-10.4125
▁damned	-10.4134
▁bal	-10.4139
▁gr	-10.4139
▁halt	-10.4142
lt	-10.4145
▁smack	-10.4151
▁chew	-10.4156
▁delay	-10.4162
▁nations	-10.4162
▁privilege	-10.4167
▁bastards	-10.4168
▁ban	-10.4169
▁walt	-10.4171
▁absolute	-10.4179
yeah	-10.4182
▁complex	-10.4182
▁sleepy	-10.4183
▁mornin	-10.4184
▁resist	-10.4187
▁squad	-10.4187
▁absurd	-10.4187
▁catherine	-10.4187
▁charlene	-10.4187
▁device	-10.4187
▁excellency	-10.4187
▁grief	-10.4187
▁inhales	-10.4187
▁invitation	-10.4187
▁jeanclaude	-10.4187
▁jeannie	-10.4187
▁lincoln	-10.4187
▁prefontaine	-10.4187
▁puppies	-10.4187
▁retreat	-10.4187
▁rimspoke	-10.4187
▁rosebud	-10.4187
▁signature	-10.4187
▁similar	-10.4187
▁thursday	-10.4187
▁unhappy	-10.4187
▁withdraw	-10.4187
▁content	-10.4187
▁corporal	-10.4187
▁pecos	-10.4187
▁version	-10.4187
▁apology	-10.4188
▁abbie	-10.4188
▁jeez	-10.4188
▁cochi	-10.4188
▁committed	-10.4188
▁pudding	-10.4188
▁teii	-10.4188
▁intention	-10.4189
▁electricity	-10.4189
▁robbie	-10.4192
▁lazy	-10.4193
▁nto	-10.4195
▁ideal	-10.4195
▁ridge	-10.4195
▁july	-10.42
▁occasion	-10.4205
▁temperature	-10.4211
▁newspaper	-10.4212
▁height	-10.4213
▁beside	-10.4215
▁captured	-10.4216
▁whoops	-10.4218
▁jp	-10.4219
▁teachers	-10.4225
▁boot	-10.4228
▁kindness	-10.4238
▁delivered	-10.4239
pp	-10.4247
▁payment	-10.4254
▁hits	-10.4255
▁va	-10.426
▁sum	-10.4261
▁cocks	-10.4263
▁hy	-10.4276
▁christy	-10.4277
▁frankly	-10.4281
▁climbing	-10.4283
▁goof	-10.4287
▁log	-10.429
bi	-10.4316
ther	-10.432
▁cub	-10.4326
▁ram	-10.4329
▁offering	-10.434
▁citizens	-10.4342
▁plants	-10.4351
▁sch	-10.4357
▁dot	-10.4358
▁launch	-10.4361
ou	-10.4369
▁hip	-10.4375
ov	-10.4375
▁ending	-10.438
▁recover	-10.4382
▁belly	-10.4392
▁impress	-10.4393
▁gu	-10.4395
▁register	-10.4398
▁flow	-10.44
▁decisions	-10.4401
▁describe	-10.4405
▁trumpets	-10.4415
▁emotional	-10.4415
hood	-10.4416
wood	-10.4417
▁ana	-10.4418
▁tax	-10.442
▁print	-10.4422
▁appeal	-10.4425
▁campaign	-10.4425
▁dooyoung	-10.4425
▁fifth	-10.4425
▁gideon	-10.4425
▁hammond	-10.4425
▁matthew	-10.4425
▁sheryl	-10.4425
▁susie	-10.4426
▁studied	-10.4426
▁whew	-10.4426
▁barrel	-10.4426
▁farewell	-10.4426
▁ginny	-10.4426
▁hooray	-10.4426
▁mickey	-10.4426
▁resistance	-10.4426
▁stray	-10.4426
▁reef	-10.4426
▁timmy	-10.4427
▁species	-10.4427
▁motion	-10.4427
espite	-10.4427
▁crackling	-10.4428
▁limit	-10.4428
▁broad	-10.4428
▁reaction	-10.4428
▁jake	-10.4428
▁election	-10.4429
▁angie	-10.443
▁drama	-10.443
▁iove	-10.4433
▁hup	-10.4434
▁whooshing	-10.4434
boy	-10.4435
▁kita	-10.4436
▁betty	-10.4439
▁marco	-10.444
▁bleating	-10.4441
▁fo	-10.4441
▁fires	-10.4442
▁michele	-10.4442
▁von	-10.4442
▁leak	-10.4442
▁clanging	-10.4443
▁mona	-10.4444
▁forge	-10.4444
▁tend	-10.4444
▁object	-10.4445
▁commercial	-10.4455
▁degree	-10.4458
▁cigarette	-10.4458
▁jr	-10.4459
▁marrying	-10.446
▁pm	-10.4466
▁spa	-10.4478
▁washed	-10.4502
▁cases	-10.4511
ker	-10.4522
▁pastor	-10.4522
▁fu	-10.4523
han	-10.4524
▁squeals	-10.4537
ions	-10.4553
▁chess	-10.4559
▁bands	-10.4564
tter	-10.4586
▁carl	-10.4591
▁mars	-10.4592
▁dolls	-10.4595
▁wreck	-10.4606
▁wha	-10.4609
▁pour	-10.4612
ery	-10.4613
▁chances	-10.4621
▁butch	-10.463
▁comfort	-10.4632
▁ace	-10.4633
▁schools	-10.4638
▁propose	-10.465
tail	-10.4655
▁actual	-10.4659
▁she	-10.466
▁pearl	-10.4661
▁region	-10.4664
▁access	-10.4667
ino	-10.4667
▁anchor	-10.4669
▁chamber	-10.4669
▁chestnut	-10.4669
▁joaquin	-10.4669
▁quality	-10.4669
▁snack	-10.4669
▁supreme	-10.4669
▁worship	-10.4669
▁squawks	-10.4669
▁davis	-10.4669
▁opposite	-10.4669
▁jingle	-10.4669
▁winslow	-10.467
▁jerry	-10.467
▁cried	-10.467
▁japan	-10.467
▁grumpy	-10.467
▁wellington	-10.467
▁mexican	-10.4671
▁raid	-10.4671
▁stall	-10.4673
▁alley	-10.4673
▁precisely	-10.4675
▁mayday	-10.4676
▁branches	-10.4679
▁agreement	-10.468
sel	-10.4684
den	-10.4686
▁commissioner	-10.4687
tie	-10.4689
▁returning	-10.4692
▁required	-10.4692
▁bond	-10.4693
▁whooping	-10.4695
ute	-10.4701
▁beaten	-10.4701
▁banana	-10.4704
▁leon	-10.4704
▁host	-10.4705
▁paw	-10.4708
▁vice	-10.4711
▁drug	-10.4711
▁dearest	-10.4713
▁costs	-10.4715
▁reminds	-10.4717
▁claimed	-10.4723
▁instructions	-10.4725
▁santas	-10.4732
▁off	-10.4733
fully	-10.4749
▁wes	-10.4754
▁jokes	-10.476
▁joey	-10.4762
▁mentioned	-10.4764
▁groups	-10.4767
▁smaller	-10.478
ble	-10.4786
▁somebodys	-10.4799
▁haha	-10.4805
mm	-10.4807
▁gig	-10.4809
▁socks	-10.4811
▁conditions	-10.4811
ix	-10.4811
▁et	-10.4818
▁reporting	-10.4824
▁ton	-10.4826
▁sec	-10.4828
▁shown	-10.4839
tu	-10.4842
▁bugs	-10.4858
▁manners	-10.4865
ium	-10.4868
ight	-10.4872
ify	-10.4875
▁punish	-10.489
room	-10.4897
▁teen	-10.4907
ms	-10.4907
▁august	-10.4908
▁jamaica	-10.4909
▁elliot	-10.491
▁classic	-10.4911
▁strangers	-10.4914
▁revolution	-10.4919
▁environment	-10.4919
▁harbor	-10.4919
▁helicopter	-10.4919
▁increase	-10.4919
▁jacques	-10.4919
▁jersey	-10.4919
▁kimberly	-10.4919
▁lebraque	-10.4919
▁milady	-10.4919
▁mumbling	-10.4919
▁pablo	-10.4919
▁reeko	-10.4919
▁soviet	-10.4919
▁symbol	-10.4919
▁technique	-10.4919
▁illegal	-10.4919
▁irene	-10.4919
▁miep	-10.4919
▁stephen	-10.4919
▁suspicious	-10.4919
▁snorts	-10.492
▁internet	-10.492
▁sharing	-10.492
▁estate	-10.4921
▁mortal	-10.4921
▁passport	-10.4922
▁punk	-10.4922
▁comment	-10.4922
▁tries	-10.4926
▁beam	-10.4928
▁placed	-10.4928
▁expression	-10.4931
ily	-10.4931
▁customers	-10.4936
▁hooh	-10.4937
▁suits	-10.495
▁outer	-10.4953
chi	-10.496
▁jewel	-10.497
▁dove	-10.4974
▁herd	-10.4975
▁cookie	-10.4975
▁sounded	-10.4996
▁moans	-10.5004
lle	-10.501
▁wally	-10.5014
bar	-10.5024
▁of	-10.5033
▁camel	-10.5034
▁awaken	-10.5044
▁banks	-10.5045
ator	-10.5051
▁figures	-10.5052
▁chu	-10.5053
how	-10.5068
▁machines	-10.5068
▁tou	-10.5074
▁luc	-10.5075
▁grains	-10.5081
▁inform	-10.5084
▁dip	-10.5084
ett	-10.5094
▁flip	-10.5103
▁tuck	-10.5128
eyed	-10.5143
▁nd	-10.5144
▁announce	-10.5148
▁produce	-10.5148
▁inter	-10.5156
▁beck	-10.5157
▁how	-10.5159
ville	-10.5161
▁artists	-10.5162
▁hats	-10.5163
▁bars	-10.5166
▁superhero	-10.5169
▁ahhh	-10.5172
▁incident	-10.5175
▁sexual	-10.5175
▁delicate	-10.5176
▁jorge	-10.5176
▁meadow	-10.5176
▁naughty	-10.5176
▁polish	-10.5176
▁sensitive	-10.5176
▁shakespeare	-10.5176
▁wisdom	-10.5176
▁doyle	-10.5176
▁eerie	-10.5176
▁italy	-10.5176
▁warrant	-10.5176
▁squeeze	-10.5176
▁aggie	-10.5176
▁kidnapped	-10.5176
▁snorting	-10.5176
▁network	-10.5176
▁anniversary	-10.5176
▁brick	-10.5177
▁isabella	-10.5177
▁quint	-10.5177
▁purse	-10.5177
▁confident	-10.5178
▁psycho	-10.5179
▁phase	-10.5179
▁pepe	-10.518
▁pony	-10.5182
▁cons	-10.5185
▁affairs	-10.5186
▁lamb	-10.5187
▁merely	-10.5187
▁surf	-10.5188
▁anger	-10.5189
▁robbed	-10.5195
▁chat	-10.5196
▁result	-10.5199
ana	-10.52
▁published	-10.5203
▁momma	-10.5212
▁equal	-10.5214
▁wondered	-10.5214
▁archer	-10.5214
▁spider	-10.5223
▁client	-10.5225
▁nerve	-10.5225
▁copper	-10.5229
▁dragon	-10.5229
▁rivers	-10.5229
▁tra	-10.5237
▁mattie	-10.5245
▁beasts	-10.5248
▁package	-10.5248
ious	-10.5253
▁comb	-10.5261
▁operate	-10.5268
▁trainer	-10.5272
▁tools	-10.5274
▁neighbors	-10.528
▁pills	-10.5296
ec	-10.5303
tain	-10.5305
▁visitors	-10.531
▁jumped	-10.5313
▁pages	-10.5314
▁helpless	-10.5316
▁messed	-10.5323
▁trailer	-10.5332
▁opera	-10.5344
▁op	-10.5352
▁hopeless	-10.5354
▁buttons	-10.5357
▁speaker	-10.5361
▁slams	-10.5362
▁remove	-10.5363
▁tan	-10.5364
▁nu	-10.5368
▁driven	-10.5369
▁tick	-10.537
ile	-10.5371
mp	-10.5376
▁leads	-10.5398
▁paws	-10.5398
▁sil	-10.54
▁mat	-10.5401
▁grows	-10.5403
▁drift	-10.5404
▁michel	-10.5418
▁torture	-10.5418
▁mmhm	-10.5428
▁potato	-10.5432
▁faithful	-10.5434
▁margo	-10.5435
▁alcohol	-10.5436
▁transport	-10.5438
▁adorable	-10.5439
▁average	-10.5439
▁benjamin	-10.5439
▁constance	-10.5439
▁empress	-10.5439
▁judgment	-10.5439
▁kantmiss	-10.5439
▁klara	-10.5439
▁mohsen	-10.5439
▁suitcase	-10.5439
▁texas	-10.5439
▁afterwards	-10.5439
▁chalk	-10.5439
▁protocol	-10.5439
▁vineyard	-10.5439
▁voyage	-10.5439
▁relief	-10.5439
▁operator	-10.5439
▁bruce	-10.5439
▁soap	-10.544
▁digger	-10.5441
▁league	-10.5441
▁henri	-10.5441
▁attic	-10.5441
▁codex	-10.5442
▁cities	-10.5442
▁punishment	-10.5442
▁stir	-10.5443
▁pinto	-10.5443
▁patty	-10.5443
▁tess	-10.5444
▁shawn	-10.5444
▁stink	-10.5445
▁mere	-10.5445
▁cmon	-10.5445
▁danced	-10.5446
▁ag	-10.5454
▁mash	-10.5457
▁rear	-10.5458
▁tucker	-10.5461
▁unto	-10.5464
▁alec	-10.5466
▁ticking	-10.5474
▁thoughts	-10.5477
▁vet	-10.5486
▁gathered	-10.5487
▁para	-10.549
▁busted	-10.5491
▁belief	-10.5494
▁announcement	-10.5497
▁option	-10.5497
▁kit	-10.5499
▁foundation	-10.5501
▁rec	-10.5506
▁landed	-10.5509
▁pipe	-10.5515
▁greetings	-10.5522
▁gunshots	-10.5523
▁painted	-10.5523
▁seeds	-10.5524
▁gates	-10.5527
▁timing	-10.5542
gged	-10.5543
▁joint	-10.5548
▁kay	-10.5557
▁sis	-10.5559
▁manner	-10.5567
▁counts	-10.5586
▁scientists	-10.5592
▁drawing	-10.56
▁agents	-10.5607
▁makeup	-10.5615
▁rider	-10.5618
bra	-10.562
▁burns	-10.5637
▁tod	-10.5641
▁sucks	-10.5641
pped	-10.5642
ush	-10.5649
▁kissed	-10.5658
▁nicely	-10.5658
▁worrying	-10.5665
board	-10.568
field	-10.5684
ini	-10.569
▁diamonds	-10.569
▁odds	-10.5694
▁mental	-10.5695
▁silk	-10.5697
▁col	-10.5699
▁unlike	-10.5701
▁russia	-10.5705
▁concept	-10.5705
▁commit	-10.5706
▁te	-10.5709
ever	-10.5709
▁dartagnan	-10.5709
▁disgrace	-10.5709
▁duchess	-10.5709
▁duggal	-10.5709
▁fifi	-10.5709
▁violet	-10.5709
▁whinnies	-10.5709
▁chittering	-10.5709
▁muttering	-10.5709
▁canada	-10.5709
▁collar	-10.5709
ub	-10.5709
▁bureau	-10.5709
▁studies	-10.571
▁hippo	-10.571
▁saddle	-10.571
▁garage	-10.571
▁attractive	-10.5711
▁rice	-10.5712
▁commitment	-10.5712
▁humor	-10.5712
▁salary	-10.5712
▁fork	-10.5714
▁russ	-10.5714
▁linda	-10.5716
▁wanting	-10.5716
▁mice	-10.5718
▁roses	-10.5719
▁ability	-10.572
▁embarrassed	-10.5721
▁bass	-10.5723
▁bah	-10.5726
▁katie	-10.5731
▁matches	-10.5733
▁kite	-10.5733
▁splashing	-10.5734
▁developed	-10.5735
▁stu	-10.5736
lon	-10.5744
▁hare	-10.5746
▁feather	-10.5746
▁halo	-10.5748
▁bully	-10.5767
▁non	-10.5768
ney	-10.5769
▁appearance	-10.5773
▁ancestors	-10.5777
▁observe	-10.5793
old	-10.5797
▁moo	-10.5804
can	-10.5806
ette	-10.5807
▁dope	-10.582
▁devils	-10.5829
▁heels	-10.5831
▁kinds	-10.5851
▁considering	-10.5856
▁zach	-10.5856
▁crickets	-10.586
▁tag	-10.5872
▁wheels	-10.5873
light	-10.5873
arm	-10.589
▁sounding	-10.5897
▁publish	-10.5916
▁heal	-10.5929
pping	-10.593
▁cur	-10.5931
▁bug	-10.5935
▁meters	-10.5942
▁sorrow	-10.5947
top	-10.5952
▁clack	-10.5952
town	-10.5954
▁connect	-10.5954
▁littlest	-10.5967
maker	-10.5968
▁am	-10.5969
guard	-10.5969
▁joining	-10.5973
▁doug	-10.5974
▁bold	-10.5977
▁gross	-10.5977
▁deadly	-10.598
▁porn	-10.598
▁council	-10.5984
▁poet	-10.5985
▁misunderstand	-10.5987
▁academy	-10.5987
▁carnival	-10.5987
▁disguise	-10.5987
▁dockerty	-10.5987
▁farooqi	-10.5987
▁feature	-10.5987
▁genuine	-10.5987
▁horace	-10.5987
▁hudson	-10.5987
▁meanwhile	-10.5987
▁niece	-10.5987
▁rattling	-10.5987
▁recipe	-10.5987
▁respond	-10.5987
▁sheila	-10.5987
▁submarine	-10.5987
▁worries	-10.5987
▁clamoring	-10.5987
▁identity	-10.5987
▁narrow	-10.5987
▁racing	-10.5987
▁wives	-10.5987
▁civilization	-10.5987
▁slappy	-10.5987
▁whining	-10.5987
▁assignment	-10.5987
▁sample	-10.5987
▁vault	-10.5987
▁clay	-10.5987
▁bruno	-10.5988
▁towel	-10.5988
▁perfume	-10.5988
▁poetry	-10.5988
▁knot	-10.5988
▁rode	-10.5988
▁rape	-10.5989
▁lemon	-10.5989
▁beef	-10.5991
▁engineer	-10.5992
▁fuss	-10.5992
▁nour	-10.5995
▁bullets	-10.5999
▁exit	-10.6
▁complaint	-10.6
▁tum	-10.6003
▁fairies	-10.6004
▁gage	-10.6004
▁shattering	-10.6004
▁swearman	-10.6005
hh	-10.6013
▁discovery	-10.6017
▁crane	-10.6018
▁finds	-10.6018
▁scouts	-10.602
▁painful	-10.6022
▁quarters	-10.6022
▁whisper	-10.6027
ug	-10.603
▁ph	-10.6038
▁trusted	-10.6038
▁traditional	-10.6043
▁suffered	-10.6044
▁boob	-10.6053
▁survived	-10.6053
▁meantime	-10.6054
▁mir	-10.6055
▁cracking	-10.6057
▁element	-10.6057
cat	-10.6058
▁bubble	-10.606
▁contain	-10.6061
▁hiya	-10.6066
▁pile	-10.6077
▁ru	-10.6082
▁pur	-10.6085
▁passengers	-10.6087
▁sobs	-10.609
yes	-10.6099
▁farmer	-10.6112
bble	-10.6117
▁liz	-10.6123
car	-10.6124
▁noo	-10.613
▁arrives	-10.6138
▁brat	-10.6139
▁feeding	-10.6142
▁photos	-10.6155
▁den	-10.618
▁recorded	-10.6182
ung	-10.6184
▁eva	-10.6199
▁listened	-10.62
res	-10.6207
▁disturb	-10.621
▁parking	-10.6224
▁ding	-10.6225
▁drugs	-10.6228
▁resign	-10.6242
▁succeed	-10.6245
▁insult	-10.6245
▁float	-10.6245
▁lovers	-10.6247
▁explode	-10.6252
▁slipper	-10.6259
▁recent	-10.6263
▁electric	-10.6267
▁origin	-10.6267
▁fighter	-10.6267
▁hawaii	-10.6271
▁protest	-10.6272
▁avocado	-10.6273
▁caitlin	-10.6273
▁cougar	-10.6273
▁florida	-10.6273
▁headquarters	-10.6273
▁industry	-10.6273
▁injury	-10.6273
▁neecha	-10.6273
▁nuclear	-10.6273
▁response	-10.6273
▁socalled	-10.6273
▁stepmother	-10.6273
▁importance	-10.6273
▁possibility	-10.6273
▁vital	-10.6273
▁copperfield	-10.6273
▁debt	-10.6273
▁downtown	-10.6273
▁abbott	-10.6273
▁digging	-10.6273
▁peck	-10.6273
▁airplane	-10.6273
▁tasty	-10.6274
▁flock	-10.6274
▁chrissy	-10.6274
▁ditch	-10.6274
▁fold	-10.6274
▁dining	-10.6274
▁drops	-10.6275
▁clam	-10.6275
▁oak	-10.6275
▁piggy	-10.6275
▁billboard	-10.6275
▁stream	-10.6275
▁cabinet	-10.6275
▁doian	-10.6275
▁development	-10.6276
▁chapel	-10.6276
▁basement	-10.6279
▁labor	-10.6279
▁dull	-10.628
▁production	-10.628
▁mv	-10.6282
▁flush	-10.6283
▁corey	-10.6284
▁dug	-10.6287
▁sanders	-10.6289
▁towns	-10.6289
▁threatened	-10.6289
▁creepy	-10.6293
▁tempo	-10.6294
▁wandering	-10.6295
▁mob	-10.6298
▁fastest	-10.6298
▁grounds	-10.6298
nce	-10.6302
▁sales	-10.6305
▁exclaims	-10.6307
▁convention	-10.6307
▁iook	-10.6308
▁canceled	-10.631
▁confession	-10.6312
▁sewer	-10.6312
▁bait	-10.6316
▁hoped	-10.6319
▁released	-10.6323
▁lane	-10.6333
▁pounding	-10.6333
bit	-10.6343
▁brakes	-10.6344
▁brandy	-10.6348
▁americana	-10.635
▁lucas	-10.6351
▁pepper	-10.6355
▁tribe	-10.6358
▁monk	-10.636
▁cent	-10.6361
▁bower	-10.6362
▁gorgonites	-10.6363
▁musical	-10.6364
▁servants	-10.6365
zy	-10.6365
that	-10.6366
▁springs	-10.6377
▁prayers	-10.6389
▁scar	-10.639
▁have	-10.6392
▁hind	-10.64
▁surprises	-10.6417
▁lads	-10.642
▁olympics	-10.6426
▁cooked	-10.6436
▁sakes	-10.6438
▁ted	-10.644
ude	-10.6441
▁tad	-10.645
▁cy	-10.6451
▁thuds	-10.6458
▁demands	-10.6464
▁jumping	-10.6473
▁beeps	-10.6477
▁complain	-10.649
▁scratch	-10.6497
▁sounder	-10.6504
▁boarding	-10.6509
▁sirens	-10.6511
▁admire	-10.6511
mer	-10.6523
▁broadcast	-10.6531
▁swallow	-10.6539
▁accomplish	-10.654
▁link	-10.654
▁constant	-10.6554
▁slam	-10.6558
but	-10.656
▁garret	-10.656
▁journal	-10.6561
ju	-10.6566
▁widow	-10.6567
▁choking	-10.6567
▁communicate	-10.6567
▁congress	-10.6567
▁contrary	-10.6567
▁dammit	-10.6567
▁disagree	-10.6567
▁dreadful	-10.6567
▁earthquake	-10.6567
▁hebrew	-10.6567
▁independent	-10.6567
▁manhattan	-10.6567
▁muffy	-10.6567
▁nixon	-10.6567
▁offscreen	-10.6567
▁olivia	-10.6567
▁polite	-10.6567
▁skunk	-10.6567
▁slut	-10.6567
▁tattoo	-10.6567
▁imperial	-10.6567
▁federal	-10.6567
▁yawns	-10.6567
▁terror	-10.6567
▁novel	-10.6567
▁drain	-10.6567
▁squadron	-10.6567
▁destruction	-10.6567
▁russell	-10.6567
▁humble	-10.6567
▁display	-10.6567
▁population	-10.6567
▁tracy	-10.6567
▁eleven	-10.6567
▁centuries	-10.6567
▁edgar	-10.6568
▁foul	-10.6568
▁existence	-10.6568
▁whatll	-10.6569
▁massive	-10.6569
▁coley	-10.6569
▁lori	-10.657
▁daniella	-10.657
▁flicka	-10.657
▁colony	-10.657
▁kosh	-10.6571
▁michelle	-10.6572
▁wholl	-10.6572
▁elf	-10.6574
▁dante	-10.6575
▁oo	-10.6575
▁largest	-10.6576
▁moral	-10.6577
▁disc	-10.6577
▁mingle	-10.658
▁qui	-10.6581
▁discussion	-10.6586
▁hunger	-10.6588
▁yum	-10.6589
▁tender	-10.6589
▁abandoned	-10.6589
▁officially	-10.6595
▁adults	-10.6596
▁hurting	-10.6601
▁steven	-10.6602
▁divorced	-10.6607
▁gl	-10.6608
▁billion	-10.6611
▁gown	-10.6613
▁dresses	-10.6615
ative	-10.6616
▁bam	-10.6617
right	-10.6617
▁cough	-10.6625
▁charges	-10.6625
ji	-10.6653
▁classical	-10.6664
▁bean	-10.6664
▁sailor	-10.6664
nk	-10.6669
▁andrews	-10.6674
▁fist	-10.6679
▁fee	-10.6689
▁bert	-10.6694
▁q	-10.6696
▁lands	-10.6706
▁protected	-10.6707
▁stag	-10.6708
▁sue	-10.6712
▁fits	-10.6716
▁safely	-10.672
▁beep	-10.6726
▁engines	-10.6732
▁dun	-10.6738
▁hahaha	-10.6745
▁thinkin	-10.6752
▁mor	-10.6753
▁visited	-10.6756
▁vour	-10.677
▁hah	-10.6781
▁cents	-10.6784
▁dang	-10.6793
▁develop	-10.6804
▁hu	-10.6807
com	-10.6808
wi	-10.6828
▁cookies	-10.6829
▁holes	-10.6835
▁wi	-10.6835
▁hopes	-10.6842
▁reserve	-10.6849
▁declare	-10.685
▁badge	-10.6851
blank	-10.6852
▁swift	-10.6854
ations	-10.6855
▁cos	-10.6855
▁on	-10.6856
▁instant	-10.6858
▁incredibl	-10.6859
▁extreme	-10.6862
▁isabel	-10.6862
▁triumph	-10.6869
▁forbid	-10.687
▁arrival	-10.687
▁chisolm	-10.687
▁column	-10.687
▁crisis	-10.687
▁dessert	-10.687
▁dillon	-10.687
▁dulcinea	-10.687
▁laundry	-10.687
▁length	-10.687
▁liberty	-10.687
▁melissa	-10.687
▁muriel	-10.687
▁neighing	-10.687
▁plethora	-10.687
▁prophecy	-10.687
▁tournament	-10.687
▁tragedy	-10.687
▁udala	-10.687
▁conquer	-10.687
▁extend	-10.687
▁vegas	-10.687
▁facing	-10.687
▁pacific	-10.687
▁typical	-10.687
▁cantrell	-10.687
▁headache	-10.687
▁underwear	-10.687
▁conference	-10.687
▁freezing	-10.687
▁granny	-10.687
▁tragic	-10.687
▁favourite	-10.687
▁cycle	-10.687
▁sniffles	-10.687
▁hockey	-10.6871
▁income	-10.6871
▁switzerland	-10.6871
▁entertainment	-10.6871
▁beings	-10.6871
▁wax	-10.6871
▁pork	-10.6871
▁puff	-10.6871
▁effective	-10.6872
▁whatre	-10.6872
▁countries	-10.6872
▁herman	-10.6872
▁choir	-10.6872
▁adore	-10.6872
▁za	-10.6873
▁error	-10.6874
▁clip	-10.6874
▁lick	-10.6874
▁stepped	-10.6875
▁dora	-10.6877
▁solo	-10.6878
▁wallet	-10.6879
▁irv	-10.6879
▁apply	-10.688
end	-10.6881
▁drill	-10.6881
▁cia	-10.6882
▁che	-10.6882
▁brightest	-10.6884
▁mansion	-10.6884
▁misty	-10.6885
▁witches	-10.6885
▁mel	-10.6887
▁hitting	-10.6887
▁laser	-10.6888
▁tillie	-10.6894
▁laney	-10.6894
▁fedor	-10.6896
▁unable	-10.6898
▁discipline	-10.6898
▁dia	-10.6901
▁provided	-10.6908
▁specific	-10.6911
▁pam	-10.6914
rit	-10.6915
▁sonar	-10.6926
▁whens	-10.6934
▁grapes	-10.694
ito	-10.6944
▁dixie	-10.6947
▁skill	-10.6948
▁victims	-10.696
▁sins	-10.696
▁at	-10.6965
▁porter	-10.6966
▁emotions	-10.6966
ford	-10.6967
▁directions	-10.6968
▁scholar	-10.6969
▁tube	-10.6969
▁crab	-10.6969
▁rumor	-10.6969
▁muscle	-10.6969
▁repair	-10.697
▁folk	-10.6972
▁proved	-10.6975
ric	-10.6977
▁ut	-10.6983
▁graduate	-10.6984
▁patients	-10.6989
more	-10.699
let	-10.6995
▁endless	-10.7004
▁instruments	-10.7007
▁mus	-10.7013
▁rep	-10.7031
▁interests	-10.7055
▁chart	-10.706
▁feelin	-10.7065
▁fl	-10.7083
▁explained	-10.7088
ong	-10.7089
▁clearing	-10.7105
▁stuffed	-10.7106
orn	-10.7113
▁troubles	-10.7116
▁reveal	-10.712
▁thrill	-10.7121
▁equals	-10.7121
▁facts	-10.7122
▁flu	-10.7127
▁gain	-10.7142
▁distract	-10.7146
▁entertain	-10.7146
▁whales	-10.7151
ik	-10.7152
▁meter	-10.7157
▁steel	-10.7158
▁compare	-10.7163
▁robe	-10.7167
▁hum	-10.7167
water	-10.7167
zo	-10.7168
▁poole	-10.717
▁technical	-10.717
this	-10.7171
▁bore	-10.7174
▁craft	-10.7176
mal	-10.7178
▁kurt	-10.7181
nn	-10.7181
▁permit	-10.7182
▁jolly	-10.7182
▁bishop	-10.7182
▁coincidence	-10.7182
▁compromise	-10.7182
▁debate	-10.7182
▁django	-10.7182
▁gandhi	-10.7182
▁hoggett	-10.7182
▁identify	-10.7182
▁necessarily	-10.7182
▁pharaoh	-10.7182
▁pistol	-10.7182
▁pouch	-10.7182
▁procedure	-10.7182
▁puzzle	-10.7182
▁samantha	-10.7182
▁uncomfortable	-10.7182
▁violent	-10.7182
▁essential	-10.7182
▁stiff	-10.7182
▁oui	-10.7182
▁southern	-10.7182
▁chinook	-10.7182
▁scholarship	-10.7183
▁psst	-10.7183
▁babysitter	-10.7183
▁leila	-10.7183
▁shaking	-10.7183
▁zebra	-10.7183
▁waking	-10.7183
▁spinning	-10.7183
▁heiio	-10.7183
▁sancho	-10.7184
▁spiritual	-10.7184
▁engagement	-10.7184
▁upper	-10.7184
▁thanksgiving	-10.7185
▁dime	-10.7186
▁kane	-10.7187
▁sammy	-10.7187
izing	-10.7188
▁elsa	-10.7188
▁accused	-10.7189
▁budget	-10.719
▁attached	-10.7191
▁candle	-10.7191
▁tramp	-10.7194
▁mutt	-10.7196
▁finn	-10.7196
▁hid	-10.7197
▁hunters	-10.7197
▁bees	-10.7198
▁bribe	-10.7199
▁stinky	-10.7201
▁sting	-10.7202
▁tub	-10.7202
▁aleu	-10.7205
▁ward	-10.7206
▁dale	-10.721
▁weed	-10.7212
▁disturbed	-10.7213
▁connected	-10.7214
▁separated	-10.7223
ual	-10.7224
▁inc	-10.7225
▁adopted	-10.7228
▁manuscripts	-10.7229
▁defeated	-10.7234
▁viva	-10.7236
▁liver	-10.7239
▁deeds	-10.7245
▁elle	-10.7248
▁fla	-10.7255
▁lang	-10.726
▁appeared	-10.7262
▁safer	-10.7266
▁bald	-10.727
ak	-10.7277
▁gen	-10.7281
▁marketing	-10.7282
▁drums	-10.7286
▁victor	-10.7292
▁citizen	-10.7293
▁twin	-10.7293
▁marine	-10.7294
▁villa	-10.7304
▁toe	-10.7309
▁penguins	-10.731
▁exists	-10.7318
sey	-10.732
▁pine	-10.7321
▁jesuits	-10.7337
▁imagined	-10.7339
▁worthy	-10.734
▁tits	-10.7344
▁pale	-10.7346
ending	-10.7375
looking	-10.7389
cho	-10.7392
▁kel	-10.7394
▁ep	-10.7406
▁av	-10.7417
▁areas	-10.7418
▁dings	-10.7422
▁giants	-10.7424
▁shove	-10.7434
▁seize	-10.7443
▁visiting	-10.7444
▁blocks	-10.7468
▁greet	-10.7469
▁react	-10.7496
▁cleaner	-10.7499
▁her	-10.7499
▁author	-10.7502
▁saints	-10.7503
▁republic	-10.7503
▁francis	-10.7504
▁script	-10.7504
▁ambulance	-10.7505
▁bargain	-10.7505
▁cahill	-10.7505
▁cereal	-10.7505
▁cleveland	-10.7505
▁cotton	-10.7505
▁happier	-10.7505
▁humbug	-10.7505
▁injured	-10.7505
▁instance	-10.7505
▁jennifer	-10.7505
▁klaus	-10.7505
▁kruger	-10.7505
▁promotion	-10.7505
▁september	-10.7505
▁snowflake	-10.7505
▁straw	-10.7505
▁tanamashu	-10.7505
▁unexpected	-10.7505
▁zarkorr	-10.7505
▁evelyn	-10.7505
▁regan	-10.7505
▁squawking	-10.7505
▁tobin	-10.7505
▁buddies	-10.7505
▁rancor	-10.7505
▁rudy	-10.7505
▁carrot	-10.7505
▁encourage	-10.7505
▁nigel	-10.7505
▁exchange	-10.7505
▁kidnapping	-10.7505
▁erik	-10.7505
▁surgeon	-10.7506
▁reverse	-10.7506
▁zira	-10.7506
▁status	-10.7506
▁rover	-10.7506
▁glue	-10.7507
▁harsh	-10.7507
▁nome	-10.7507
▁centre	-10.7508
▁pooh	-10.7508
▁adam	-10.751
▁european	-10.7511
▁pinch	-10.7512
▁jaw	-10.7512
▁babylon	-10.7514
▁lecture	-10.7515
cal	-10.7516
▁scooter	-10.7518
▁jamaican	-10.7518
▁petal	-10.7519
▁jackson	-10.7519
ulate	-10.7519
▁officers	-10.7521
▁seats	-10.7522
▁larger	-10.7532
▁thus	-10.7533
▁bind	-10.7536
▁reasonable	-10.7537
▁maps	-10.754
▁solved	-10.7542
▁forty	-10.7545
▁bunk	-10.7555
▁butcher	-10.7559
▁normally	-10.7559
▁cue	-10.7563
▁gap	-10.7566
▁chased	-10.7568
▁masters	-10.7572
▁colour	-10.7583
▁sponsor	-10.7594
ron	-10.7599
▁mini	-10.7599
▁pays	-10.7606
▁arrangements	-10.7608
▁prop	-10.7614
▁pr	-10.7615
▁experienced	-10.7616
▁answering	-10.7619
▁depth	-10.7622
▁costume	-10.7622
▁issues	-10.7623
▁shoulders	-10.7625
▁cleared	-10.7625
▁grain	-10.7626
▁thud	-10.7626
▁tire	-10.7627
▁guardian	-10.763
▁jackie	-10.7633
aries	-10.7634
▁washing	-10.7639
▁shutter	-10.764
▁nun	-10.764
▁pirates	-10.7643
▁roo	-10.7651
lv	-10.7655
▁hates	-10.766
▁tickle	-10.7664
▁handy	-10.7665
▁katy	-10.7666
ology	-10.7668
new	-10.7679
self	-10.7692
▁orphans	-10.7694
▁gardens	-10.7694
▁nails	-10.7696
▁ap	-10.7704
▁exception	-10.7709
▁gin	-10.7716
▁claims	-10.772
▁kindly	-10.7721
▁wh	-10.7725
▁mer	-10.7726
ab	-10.7727
▁peters	-10.7727
▁lighter	-10.7739
▁messing	-10.7748
our	-10.7756
▁mae	-10.7757
▁feathers	-10.7759
ified	-10.7794
ull	-10.7797
ame	-10.7797
▁ages	-10.7798
▁mock	-10.7806
▁rev	-10.7807
▁spill	-10.7812
▁reject	-10.7814
▁boil	-10.7816
▁preserve	-10.7818
▁associate	-10.7818
book	-10.7821
▁unfortunate	-10.7826
▁immediate	-10.7826
▁wig	-10.7828
▁aid	-10.7833
▁continent	-10.7834
▁apologies	-10.7838
▁arguing	-10.7838
▁awkward	-10.7838
▁bacon	-10.7838
▁believing	-10.7838
▁buffalo	-10.7838
▁crusoe	-10.7838
▁debbie	-10.7838
▁goreslimey	-10.7838
▁havana	-10.7838
▁holiness	-10.7838
▁jeanpaul	-10.7838
▁karell	-10.7838
▁literature	-10.7838
▁midvale	-10.7838
▁necklace	-10.7838
▁oxygen	-10.7838
▁practicing	-10.7838
▁senator	-10.7838
▁shrieks	-10.7838
▁transmission	-10.7838
▁unfair	-10.7838
▁bueno	-10.7838
▁missouri	-10.7838
▁moscow	-10.7838
▁pollen	-10.7838
▁superior	-10.7838
▁motherfucker	-10.7838
▁minor	-10.7838
▁suzette	-10.7838
▁conclusion	-10.7838
▁francs	-10.7838
▁terrified	-10.7838
▁thumb	-10.7838
▁breach	-10.7838
▁behold	-10.7838
▁butler	-10.7838
▁arrow	-10.7839
▁pokemon	-10.7839
▁aisle	-10.7839
▁online	-10.7839
gie	-10.7839
▁royce	-10.7839
▁referee	-10.7839
▁sermon	-10.7839
▁basketball	-10.7839
▁assault	-10.784
▁stunt	-10.784
▁chapter	-10.784
▁diving	-10.784
▁jose	-10.7841
▁fink	-10.7841
▁affection	-10.7841
▁percy	-10.7842
▁alike	-10.7842
▁teammate	-10.7842
▁scent	-10.7842
▁peak	-10.7843
▁grover	-10.7844
▁electrical	-10.7844
▁inches	-10.7845
▁raw	-10.7846
▁hitler	-10.7846
▁potatoes	-10.7847
▁dismissed	-10.7848
▁slightly	-10.7848
▁everyday	-10.7849
▁publicity	-10.7849
▁macon	-10.7849
▁inspired	-10.785
▁personality	-10.7851
die	-10.7862
▁confirmed	-10.7864
▁stable	-10.7867
▁tests	-10.7867
▁mistaken	-10.7872
▁replaced	-10.7872
▁insects	-10.7874
▁manual	-10.7876
▁floating	-10.788
▁ser	-10.7888
▁borrowed	-10.7892
▁hoot	-10.7899
▁vari	-10.7906
▁writers	-10.7906
▁auntie	-10.7907
▁scale	-10.7914
▁sides	-10.7914
▁photograph	-10.7915
▁zip	-10.7919
▁signing	-10.7919
▁bowling	-10.7923
▁sweater	-10.7927
▁martini	-10.7927
▁what	-10.7929
▁chin	-10.7929
▁kin	-10.7936
▁cu	-10.7936
▁smarter	-10.7937
▁sucking	-10.7938
▁deserted	-10.794
air	-10.794
bed	-10.7946
▁wishing	-10.7965
▁principle	-10.7969
▁shared	-10.7971
her	-10.7972
▁coz	-10.7976
▁deeper	-10.7983
▁rang	-10.7986
▁dial	-10.7987
ties	-10.7994
▁moron	-10.7999
▁positions	-10.7999
▁reported	-10.8004
▁awaits	-10.801
▁coin	-10.8012
▁dies	-10.8018
▁pap	-10.803
your	-10.8033
▁app	-10.8042
▁ink	-10.8045
▁the	-10.8052
▁packing	-10.806
▁johnston	-10.8061
▁twins	-10.8063
▁boxing	-10.8069
ap	-10.8073
▁sailors	-10.8079
▁lip	-10.8102
▁cro	-10.8112
▁bump	-10.8112
▁carrie	-10.8117
▁tons	-10.8126
▁plum	-10.8127
▁and	-10.8128
herz	-10.8133
ob	-10.8136
▁fellows	-10.814
▁ew	-10.8151
▁profession	-10.8152
▁sticking	-10.8153
gar	-10.8157
▁improve	-10.8157
▁walker	-10.8169
▁teenage	-10.8169
don	-10.8171
▁candles	-10.8173
▁hike	-10.8173
▁inspiration	-10.8178
▁clan	-10.8178
▁drummin	-10.8178
▁almighty	-10.8183
▁behalf	-10.8183
▁birkin	-10.8183
▁cathedral	-10.8183
▁clarissa	-10.8183
▁companies	-10.8183
▁conflict	-10.8183
▁congratulate	-10.8183
▁devito	-10.8183
▁division	-10.8183
▁dynamite	-10.8183
▁eliminate	-10.8183
▁financial	-10.8183
▁gracious	-10.8183
▁hannah	-10.8183
▁jonatan	-10.8183
▁monitor	-10.8183
▁murky	-10.8183
▁offense	-10.8183
▁phantom	-10.8183
▁sanchez	-10.8183
▁sebastian	-10.8183
▁sentimental	-10.8183
▁sinaiticus	-10.8183
▁spectacular	-10.8183
▁swiss	-10.8183
▁tahime	-10.8183
▁vodka	-10.8183
▁estimate	-10.8183
▁harmony	-10.8183
▁vessel	-10.8183
▁zeena	-10.8183
▁vampire	-10.8183
▁canoe	-10.8183
▁leather	-10.8183
▁scramble	-10.8183
▁stomp	-10.8183
▁polar	-10.8183
▁willard	-10.8183
▁assistance	-10.8184
▁sarge	-10.8184
▁grey	-10.8184
▁ridgeway	-10.8184
▁tyler	-10.8184
▁slipped	-10.8184
▁cease	-10.8184
▁whoohoo	-10.8185
▁chili	-10.8185
▁perrin	-10.8185
▁roam	-10.8185
▁romance	-10.8185
▁gunfire	-10.8186
▁appropriate	-10.8186
▁chaos	-10.8186
▁thorn	-10.8186
▁ches	-10.8187
▁possession	-10.8189
▁dropping	-10.8189
▁exclaiming	-10.819
▁magician	-10.819
▁tania	-10.8191
▁critical	-10.8192
▁fried	-10.8196
▁doomed	-10.8196
▁leap	-10.8197
▁acts	-10.8198
▁maiden	-10.8198
▁collector	-10.8202
▁lame	-10.8204
▁chen	-10.8206
tro	-10.8207
▁tia	-10.8208
▁nailed	-10.8209
▁scrap	-10.8218
▁fry	-10.822
▁fran	-10.8221
ries	-10.8225
▁delivery	-10.8227
▁sincere	-10.8227
hey	-10.8239
▁loudly	-10.8243
▁lil	-10.8248
▁lawn	-10.8248
▁lotso	-10.8254
▁recognized	-10.8255
▁jen	-10.8256
▁prey	-10.826
▁heavenly	-10.8285
▁mam	-10.8291
▁existed	-10.8294
▁marching	-10.8297
▁tryin	-10.8298
▁triple	-10.8298
▁lifting	-10.8303
▁lila	-10.8303
▁designer	-10.8312
▁tastes	-10.8313
▁jew	-10.8326
▁comrade	-10.8327
▁shade	-10.8328
tch	-10.8333
▁era	-10.8339
▁fade	-10.8347
▁bl	-10.8352
hhhhh	-10.8354
▁walks	-10.8359
▁accounts	-10.836
▁wool	-10.8364
▁brutal	-10.8365
▁exp	-10.8368
▁ci	-10.8369
rie	-10.8372
ened	-10.8376
ux	-10.8377
▁pic	-10.8378
▁bothering	-10.8387
▁gale	-10.8394
▁web	-10.8397
▁musician	-10.8406
▁strikes	-10.8421
fish	-10.8429
▁def	-10.843
▁fights	-10.8442
day	-10.845
▁farmers	-10.8464
▁attacking	-10.8467
▁acted	-10.8468
▁formal	-10.8471
▁misses	-10.8475
▁reaching	-10.8477
tle	-10.8489
▁conversations	-10.8493
▁ox	-10.8494
▁crawl	-10.8502
▁steer	-10.8505
▁quack	-10.8505
▁mc	-10.8505
▁oran	-10.851
▁confirm	-10.8513
hole	-10.8513
▁abandon	-10.8513
▁acknowledge	-10.852
▁approve	-10.852
▁caring	-10.8529
five	-10.8533
▁heave	-10.8535
▁movin	-10.8535
▁mitchel	-10.8536
▁transfer	-10.854
▁apache	-10.854
▁celebrating	-10.854
▁corporation	-10.854
▁cyclone	-10.854
▁eternity	-10.854
▁feminist	-10.854
▁furniture	-10.854
▁lantern	-10.854
▁mademoiselle	-10.854
▁preparing	-10.854
▁scotland	-10.854
▁skating	-10.854
▁stadium	-10.854
▁thieves	-10.854
▁tractor	-10.854
▁armelle	-10.854
▁ceiling	-10.854
▁lambert	-10.854
▁acquaintance	-10.854
▁visual	-10.854
▁spindle	-10.854
▁telegram	-10.854
▁beware	-10.854
▁mortville	-10.854
▁ronald	-10.854
not	-10.854
▁scheme	-10.8541
▁ahoy	-10.8541
▁pillow	-10.8541
▁webster	-10.8541
▁envy	-10.8541
▁blake	-10.8541
ologist	-10.8541
▁amber	-10.8541
▁foster	-10.8541
▁whack	-10.8541
▁garland	-10.8541
▁bogue	-10.8542
▁civilian	-10.8542
▁rail	-10.8542
▁trish	-10.8543
▁seattle	-10.8544
▁slot	-10.8544
▁vast	-10.8544
▁dough	-10.8545
▁will	-10.8546
▁relieved	-10.8546
▁borel	-10.8546
▁whinnying	-10.8546
▁elsewhere	-10.8547
▁barton	-10.8548
▁abc	-10.855
▁potion	-10.8552
▁inn	-10.8552
▁ge	-10.8555
▁organized	-10.8555
▁temper	-10.8557
▁inch	-10.8557
mate	-10.8559
▁coal	-10.8561
▁har	-10.8562
▁hayes	-10.8564
coming	-10.8564
▁forgetting	-10.8566
▁fog	-10.857
▁skirt	-10.8572
▁bridget	-10.8572
▁bok	-10.8572
▁corpse	-10.8575
▁realise	-10.8576
▁lava	-10.8578
▁jab	-10.8578
▁advanced	-10.8578
▁photographer	-10.8579
▁cable	-10.8586
▁kai	-10.859
▁sings	-10.8591
▁useful	-10.8593
▁rug	-10.8594
▁presidents	-10.86
▁factor	-10.8604
▁ruler	-10.8605
▁shams	-10.8608
▁curl	-10.8611
▁insisted	-10.8611
ita	-10.8613
▁amos	-10.862
▁mets	-10.8621
▁targets	-10.8623
▁guessing	-10.8628
▁focused	-10.8628
▁tables	-10.8644
▁scotty	-10.8648
▁rely	-10.8648
▁sailing	-10.8648
▁completed	-10.8649
▁drivers	-10.8655
▁noises	-10.8662
▁waiter	-10.8664
▁bu	-10.8689
▁kneel	-10.8693
▁item	-10.8696
▁helpful	-10.8696
▁orphan	-10.8697
▁scientist	-10.8698
▁seated	-10.8704
▁med	-10.8706
▁glove	-10.8708
▁sock	-10.8709
▁maker	-10.8709
▁filling	-10.8726
▁gala	-10.8726
▁com	-10.8729
▁sniffs	-10.8735
boo	-10.8738
▁menu	-10.8761
rv	-10.8765
▁honored	-10.8771
▁mist	-10.8773
▁laughed	-10.8773
▁robb	-10.8775
▁hog	-10.8786
▁muscles	-10.879
▁crossing	-10.8791
▁whoop	-10.8794
▁sla	-10.8795
tory	-10.88
▁mill	-10.8802
▁bel	-10.8807
▁wo	-10.8811
▁rabbits	-10.8814
▁cleaned	-10.8821
▁ropes	-10.8825
▁wee	-10.8837
▁roberts	-10.8838
▁eats	-10.884
▁drives	-10.8844
▁agh	-10.8858
ras	-10.8858
▁heights	-10.887
▁burst	-10.888
▁roast	-10.8883
point	-10.8888
foot	-10.889
▁wealth	-10.8895
▁shave	-10.8895
gi	-10.8899
▁vicious	-10.8899
▁waitin	-10.89
▁bein	-10.8902
▁darlin	-10.8905
▁possess	-10.8905
▁luther	-10.8909
▁editor	-10.891
▁couid	-10.8911
▁dispatch	-10.8911
▁eleanor	-10.8911
▁ernie	-10.8911
▁gospel	-10.8911
▁molloy	-10.8911
▁november	-10.8911
▁penelope	-10.8911
▁rubbish	-10.8911
▁satisfy	-10.8911
▁shrimp	-10.8911
▁steerforth	-10.8911
▁tarzan	-10.8911
▁tortoise	-10.8911
▁welfare	-10.8911
▁zorro	-10.8911
▁herbert	-10.8911
▁portrait	-10.8911
▁racist	-10.8911
▁sophie	-10.8911
▁clerk	-10.8911
▁fantasia	-10.8911
▁elena	-10.8911
▁wrist	-10.8911
▁assuming	-10.8911
▁canterville	-10.8911
▁shiny	-10.8911
▁microphone	-10.8911
▁proposition	-10.8911
▁mankind	-10.8911
▁commence	-10.8911
▁enormous	-10.8911
▁creative	-10.8911
▁executive	-10.8911
▁occurred	-10.8911
▁cawing	-10.8911
▁impact	-10.8911
▁julia	-10.8911
▁wilderness	-10.8911
▁observation	-10.8911
▁orphanage	-10.8911
▁inspection	-10.8911
▁banner	-10.8912
▁beggar	-10.8912
▁juliette	-10.8912
▁consent	-10.8912
▁cannon	-10.8912
▁thisll	-10.8912
▁antarctica	-10.8912
▁nova	-10.8912
▁backwards	-10.8912
▁ladder	-10.8912
▁rattle	-10.8913
▁cherie	-10.8913
▁blah	-10.8913
▁modest	-10.8913
▁canine	-10.8913
▁hogue	-10.8913
▁satisfied	-10.8913
▁dexter	-10.8913
▁grove	-10.8913
▁lowell	-10.8914
▁stack	-10.8914
▁yank	-10.8915
▁gladys	-10.8916
▁madrat	-10.8916
▁fitting	-10.8916
▁funky	-10.8917
▁journalist	-10.8918
▁ramp	-10.892
▁battery	-10.892
▁eel	-10.8921
▁chairman	-10.8923
▁takin	-10.8923
▁constantly	-10.8926
▁limb	-10.8927
▁quote	-10.8927
▁annoying	-10.893
▁sixth	-10.8933
▁explosions	-10.8933
▁divided	-10.8934
▁desperately	-10.8935
▁auto	-10.8937
▁cord	-10.8938
▁lung	-10.8942
▁dash	-10.8942
▁sur	-10.8942
▁revealed	-10.8943
▁wowser	-10.8946
▁indiana	-10.8949
▁mandie	-10.8949
▁removed	-10.8954
▁wage	-10.8957
▁cone	-10.8963
▁not	-10.8964
▁clothing	-10.8968
▁suckers	-10.897
▁goodlooking	-10.897
▁ribs	-10.8972
dog	-10.8976
▁chains	-10.8976
▁louder	-10.8979
▁churches	-10.8987
▁nail	-10.8994
▁rap	-10.8995
▁asses	-10.8996
▁tales	-10.9014
▁ali	-10.9015
▁tourists	-10.9015
▁blessings	-10.9016
▁suggested	-10.9019
▁trot	-10.9021
▁added	-10.9023
▁sets	-10.9029
▁dock	-10.904
▁rented	-10.9042
▁apes	-10.9052
▁exam	-10.9056
▁mal	-10.9073
▁tis	-10.9073
uh	-10.9076
▁argument	-10.9079
▁rehearsal	-10.9079
▁cricket	-10.9083
▁sends	-10.9084
▁joan	-10.9088
▁stores	-10.911
zer	-10.9113
▁gravel	-10.9128
▁deer	-10.914
▁actors	-10.9158
▁gene	-10.9203
▁fianc	-10.9204
ory	-10.9207
gue	-10.9209
▁stinks	-10.9213
▁straighten	-10.9216
ways	-10.9223
▁bri	-10.9225
▁bid	-10.9234
istic	-10.9236
▁forms	-10.9239
▁cleo	-10.9239
▁spec	-10.9241
▁limits	-10.9246
▁services	-10.9246
▁convent	-10.9249
▁recorder	-10.9249
▁painter	-10.9256
▁flames	-10.926
▁splash	-10.926
▁affect	-10.9263
▁disappoint	-10.9264
▁ce	-10.9268
fall	-10.9271
▁advise	-10.9275
▁missy	-10.9277
▁pronounce	-10.9277
▁effects	-10.9278
box	-10.9282
▁shaw	-10.9287
▁runnin	-10.929
▁glen	-10.9294
▁absalom	-10.9295
▁brigadoon	-10.9295
▁cackling	-10.9295
▁caribou	-10.9295
▁conscience	-10.9295
▁crockett	-10.9295
▁cruise	-10.9295
▁deputy	-10.9295
▁harvest	-10.9295
▁kansas	-10.9295
▁larrabee	-10.9295
▁luggage	-10.9295
▁messenger	-10.9295
▁miguel	-10.9295
▁mutant	-10.9295
▁peggotty	-10.9295
▁pencil	-10.9295
▁perspective	-10.9295
▁proctor	-10.9295
▁proposal	-10.9295
▁razor	-10.9295
▁rendezvous	-10.9295
▁rustling	-10.9295
▁strategy	-10.9295
▁sweetmeat	-10.9295
▁wardrobe	-10.9295
▁circuit	-10.9295
▁decree	-10.9295
▁floud	-10.9295
▁nyx	-10.9295
▁rameses	-10.9295
▁scoop	-10.9295
▁stove	-10.9295
▁kayera	-10.9295
▁chimes	-10.9295
▁dragged	-10.9295
▁pedro	-10.9295
▁buffins	-10.9295
▁electronic	-10.9295
▁gallery	-10.9295
▁basis	-10.9295
▁wickfield	-10.9295
▁bicycle	-10.9295
▁donation	-10.9295
▁nagra	-10.9296
▁tropic	-10.9296
▁overnight	-10.9296
▁antonio	-10.9296
▁burden	-10.9296
▁reference	-10.9296
▁thunderbird	-10.9296
▁warwick	-10.9296
▁delightful	-10.9296
▁skinny	-10.9297
▁minus	-10.9297
▁priority	-10.9297
▁hesitate	-10.9297
▁brent	-10.9298
▁loco	-10.9298
▁ernesto	-10.9298
▁twa	-10.9298
▁ardi	-10.9298
▁jasmine	-10.9298
▁litter	-10.9299
▁tide	-10.9299
▁frame	-10.93
▁atmosphere	-10.93
▁quest	-10.93
▁actress	-10.93
▁barbie	-10.9301
▁bingo	-10.9301
▁carface	-10.9303
▁yuck	-10.9303
▁umney	-10.9303
▁isabelle	-10.9304
▁amongst	-10.9307
▁dete	-10.9308
▁obliged	-10.9309
▁pele	-10.9312
▁spain	-10.9313
▁included	-10.9314
▁punches	-10.9318
▁kent	-10.9319
▁currently	-10.932
▁strongest	-10.9328
▁kiddo	-10.9329
▁iim	-10.9335
▁punished	-10.9338
▁plot	-10.9343
ki	-10.9349
▁saucer	-10.9351
▁rolls	-10.9354
▁shocked	-10.9364
▁tata	-10.9367
lay	-10.9373
▁umm	-10.9382
hu	-10.939
▁rd	-10.9394
▁booming	-10.9396
▁workers	-10.9396
▁amin	-10.9397
▁vegetables	-10.9402
▁seasons	-10.941
▁sniff	-10.9412
▁granted	-10.9413
they	-10.9421
▁ohoh	-10.9423
▁pad	-10.943
▁rig	-10.9431
rus	-10.9434
▁ec	-10.9443
▁gro	-10.9448
▁booked	-10.9452
▁pumpkins	-10.9455
▁traditions	-10.9457
fo	-10.9466
▁reli	-10.9468
▁tar	-10.9478
▁cheek	-10.9482
▁olympic	-10.9483
cious	-10.9487
▁treating	-10.9489
▁gut	-10.9495
log	-10.95
ere	-10.9505
▁pops	-10.9525
star	-10.9537
▁cre	-10.9539
▁sav	-10.9548
thats	-10.9551
▁covering	-10.9557
▁pets	-10.9559
▁operations	-10.9561
gh	-10.9564
▁winners	-10.957
▁historic	-10.9579
▁realm	-10.9594
lies	-10.9596
▁fixing	-10.9604
sky	-10.9608
▁options	-10.9608
▁abe	-10.9633
▁str	-10.9642
▁ducks	-10.9643
▁tink	-10.9649
▁demo	-10.9652
▁nicer	-10.9658
tka	-10.966
▁corrupt	-10.9664
▁bail	-10.9672
made	-10.9676
bound	-10.9679
▁thirst	-10.968
▁practical	-10.9683
▁und	-10.9684
▁slight	-10.9686
lloween	-10.9688
▁interpret	-10.9691
▁trans	-10.9692
▁conduct	-10.9693
▁prior	-10.9693
▁spoon	-10.9694
▁casual	-10.9695
▁challenging	-10.9695
▁colorado	-10.9695
▁custody	-10.9695
▁december	-10.9695
▁eager	-10.9695
▁fanfare	-10.9695
▁fierce	-10.9695
▁gloria	-10.9695
▁lemonade	-10.9695
▁lloyd	-10.9695
▁lobby	-10.9695
▁lonesome	-10.9695
▁niflheim	-10.9695
▁platform	-10.9695
▁salvation	-10.9695
▁samadhi	-10.9695
▁sinbad	-10.9695
▁sioux	-10.9695
▁snarling	-10.9695
▁thread	-10.9695
▁timberwolves	-10.9695
▁treason	-10.9695
▁volume	-10.9695
▁vulgar	-10.9695
ezvous	-10.9695
▁deaf	-10.9695
▁decade	-10.9695
▁edition	-10.9695
▁liquid	-10.9695
▁marvin	-10.9695
▁sinister	-10.9695
▁causing	-10.9695
▁stacy	-10.9695
▁watergate	-10.9695
▁viren	-10.9695
▁habib	-10.9695
▁frost	-10.9695
▁function	-10.9695
▁wiggle	-10.9695
▁eliot	-10.9695
▁hollow	-10.9695
tan	-10.9696
▁overcome	-10.9696
▁saloon	-10.9696
▁gambling	-10.9696
▁creating	-10.9696
▁motel	-10.9696
▁specifically	-10.9696
▁ginger	-10.9696
▁racket	-10.9696
▁upside	-10.9696
▁begging	-10.9696
▁aa	-10.9697
▁summon	-10.9697
▁trent	-10.9697
▁hmph	-10.9697
▁loyalty	-10.9697
▁jury	-10.9698
▁fireplace	-10.9698
▁define	-10.9698
▁exile	-10.9699
▁hackl	-10.9699
▁senor	-10.97
▁megan	-10.9701
▁luckily	-10.9701
▁reliable	-10.9701
▁stan	-10.9701
▁soil	-10.9701
▁flare	-10.9701
▁glenn	-10.9701
▁ricky	-10.9702
▁ciao	-10.9703
▁breed	-10.9703
▁harrison	-10.9703
▁ultimately	-10.9705
▁limp	-10.9706
▁related	-10.9706
see	-10.9709
▁tu	-10.971
▁cans	-10.9717
▁they	-10.9717
▁riot	-10.9717
▁nearest	-10.9718
▁refer	-10.9719
▁echoing	-10.972
▁spica	-10.9722
▁skateboarding	-10.9723
▁highway	-10.9724
▁herc	-10.9724
▁produced	-10.9727
▁russians	-10.9729
▁ber	-10.9731
▁wandi	-10.9731
▁queer	-10.9734
▁limited	-10.9741
▁itch	-10.9742
▁drowned	-10.9743
▁assured	-10.9748
▁idol	-10.9756
▁bitches	-10.9764
▁hitch	-10.9772
bel	-10.9783
▁glowing	-10.9785
▁tit	-10.9802
▁kom	-10.9819
▁freaking	-10.9823
leg	-10.9841
ore	-10.9848
▁sticks	-10.9855
hoo	-10.9864
▁await	-10.9865
▁searched	-10.9875
▁include	-10.9875
▁bothered	-10.9879
▁warrior	-10.9895
▁ingredient	-10.9897
▁instinct	-10.9898
▁panda	-10.9901
▁fart	-10.9904
▁frogs	-10.9905
ld	-10.9907
ape	-10.991
ngel	-10.9919
▁cameras	-10.9925
act	-10.9927
▁visitor	-10.9927
thing	-10.9937
▁jews	-10.994
▁owners	-10.9942
▁coaching	-10.9946
▁bul	-10.9949
▁pel	-10.9952
ef	-10.9958
▁armor	-10.9959
▁booker	-10.9961
▁graceful	-10.9966
▁scholars	-10.9976
state	-10.9978
tte	-10.9979
ace	-10.9993
▁pose	-10.9995
▁closely	-11
▁products	-11.0003
mble	-11.0012
with	-11.0024
▁asks	-11.0027
▁mush	-11.0028
▁worker	-11.0044
ani	-11.0056
ont	-11.0064
▁ihe	-11.0072
▁spots	-11.0075
▁roller	-11.0077
▁strain	-11.0084
▁addict	-11.0084
fire	-11.0093
▁benefits	-11.0094
▁surprising	-11.0099
▁initial	-11.01
▁eternal	-11.01
▁detect	-11.0103
▁australia	-11.0104
▁rio	-11.0107
▁maj	-11.011
▁favour	-11.0111
▁scrub	-11.0112
▁interfere	-11.0112
▁cigar	-11.0112
▁advisor	-11.0112
▁arriving	-11.0112
▁banquet	-11.0112
▁brinstead	-11.0112
▁brittany	-11.0112
▁caution	-11.0112
▁croft	-11.0112
▁curiosity	-11.0112
▁deceive	-11.0112
▁dolphin	-11.0112
▁gratitude	-11.0112
▁hallelujah	-11.0112
▁integrity	-11.0112
▁invisible	-11.0112
▁jekyll	-11.0112
▁meredith	-11.0112
▁micawber	-11.0112
▁mkan	-11.0112
▁occupied	-11.0112
▁opponent	-11.0112
▁oregon	-11.0112
▁poverty	-11.0112
▁qualified	-11.0112
▁rochelle	-11.0112
▁seltzer	-11.0112
▁squirrel	-11.0112
▁stammering	-11.0112
▁stunned	-11.0112
▁trophy	-11.0112
▁yummies	-11.0112
▁donna	-11.0112
▁gfg	-11.0112
▁grumbl	-11.0112
▁testament	-11.0112
▁grasp	-11.0112
▁sesame	-11.0112
▁suzanne	-11.0112
▁tortoni	-11.0112
▁holler	-11.0112
▁fragile	-11.0112
▁turtle	-11.0112
▁email	-11.0112
▁fraud	-11.0112
▁yacht	-11.0112
▁nickname	-11.0112
▁entry	-11.0112
▁institution	-11.0112
▁reformation	-11.0112
▁misery	-11.0113
▁ankle	-11.0113
▁duties	-11.0113
▁melba	-11.0113
▁furious	-11.0113
▁infant	-11.0113
▁civilized	-11.0113
▁cherry	-11.0113
▁stew	-11.0113
▁caption	-11.0114
▁combat	-11.0114
▁grill	-11.0114
▁haircut	-11.0114
▁egyptian	-11.0114
▁paperwork	-11.0114
▁cassie	-11.0115
▁goku	-11.0115
▁burke	-11.0115
▁winston	-11.0115
▁coup	-11.0115
▁creation	-11.0115
▁stain	-11.0117
▁hughes	-11.0118
▁admitted	-11.0118
▁greedy	-11.0118
▁commandant	-11.0118
▁satan	-11.0119
▁pierre	-11.0119
▁footage	-11.0121
▁regional	-11.0121
ski	-11.0121
▁fortunately	-11.0122
▁copies	-11.0123
▁doggy	-11.0124
▁duh	-11.0125
▁tapping	-11.0127
▁sadness	-11.0129
▁apples	-11.013
▁betting	-11.013
▁alban	-11.013
▁dado	-11.0131
▁jessie	-11.0132
▁compos	-11.0133
▁isle	-11.0133
▁becky	-11.0138
▁declared	-11.014
▁mmmm	-11.0142
▁ashes	-11.0143
▁proposed	-11.0146
▁tri	-11.015
▁accomplished	-11.0151
▁ripe	-11.0158
▁blonde	-11.0158
▁sweetest	-11.0159
▁creaks	-11.0163
▁angle	-11.0164
▁comforting	-11.0173
▁pom	-11.0175
▁pissed	-11.0176
▁intended	-11.0177
pensive	-11.0179
▁acres	-11.0182
▁herr	-11.0185
ically	-11.0186
▁core	-11.0188
▁bonjour	-11.019
▁roots	-11.0191
▁bun	-11.0194
▁closest	-11.0194
▁youngest	-11.0197
▁rod	-11.0201
▁stocking	-11.0202
▁sar	-11.0204
war	-11.0205
rry	-11.0207
▁screwing	-11.0209
▁doo	-11.021
▁spits	-11.0212
▁losers	-11.0223
lets	-11.0224
▁requested	-11.023
▁gammas	-11.0237
fu	-11.0238
▁remained	-11.0239
▁suite	-11.0241
▁dates	-11.0246
▁des	-11.0248
▁counselors	-11.0256
▁spreading	-11.0256
▁crimes	-11.0261
▁maxie	-11.0264
▁inf	-11.0264
▁cows	-11.0272
▁oldest	-11.0285
▁subjects	-11.0286
▁gardener	-11.0299
▁bottles	-11.031
▁relative	-11.0319
▁airlines	-11.0321
▁compliments	-11.0321
▁mushrooms	-11.0321
▁leaders	-11.0323
▁toot	-11.0329
▁scripture	-11.0331
▁faced	-11.0332
▁curtain	-11.0333
▁compliment	-11.0333
▁mushroom	-11.0333
▁communication	-11.0334
▁jesuit	-11.0334
▁brazilian	-11.0334
▁dodge	-11.0338
▁efforts	-11.0341
▁airline	-11.0343
▁bru	-11.0344
▁mamas	-11.0347
▁generations	-11.0351
▁bandit	-11.036
▁comrades	-11.0368
face	-11.0368
▁protecting	-11.0373
tial	-11.0375
▁demon	-11.0388
tre	-11.0399
▁childrens	-11.0402
▁fab	-11.0415
▁rag	-11.0419
▁rin	-11.0431
▁drawer	-11.0435
▁mines	-11.0442
▁lawyers	-11.0443
▁systems	-11.0445
▁heroic	-11.0461
erson	-11.0461
▁sorts	-11.0469
▁pilots	-11.0471
▁attacker	-11.0484
▁thump	-11.0484
▁beats	-11.0491
fer	-11.0501
▁yea	-11.0502
▁addition	-11.051
▁bleed	-11.0512
▁attract	-11.0514
▁establish	-11.0514
▁betray	-11.0516
▁encounter	-11.0518
▁charli	-11.0528
▁tow	-11.0537
where	-11.0541
▁reception	-11.0545
▁reign	-11.0547
▁slaughter	-11.0547
▁wretch	-11.0547
▁activity	-11.0547
▁april	-11.0547
▁avenue	-11.0547
▁bleep	-11.0547
▁borotyn	-11.0547
▁bouncy	-11.0547
▁brenda	-11.0547
▁butterflies	-11.0547
▁chelsea	-11.0547
▁christopher	-11.0547
▁depressed	-11.0547
▁despair	-11.0547
▁dialogue	-11.0547
▁dinosaur	-11.0547
▁dorothy	-11.0547
▁evolution	-11.0547
▁fountain	-11.0547
▁geronimo	-11.0547
▁grumio	-11.0547
▁gypsy	-11.0547
▁honeymoon	-11.0547
▁identified	-11.0547
▁jerusalem	-11.0547
▁linguini	-11.0547
▁mermaid	-11.0547
▁motorcycle	-11.0547
▁mousavi	-11.0547
▁primitive	-11.0547
▁rudder	-11.0547
▁saxon	-11.0547
▁scotch	-11.0547
▁sinestro	-11.0547
▁skeleton	-11.0547
▁struggling	-11.0547
▁swine	-11.0547
▁amusing	-11.0547
▁dawg	-11.0547
▁eminence	-11.0547
▁gymnast	-11.0547
▁roxy	-11.0547
▁scrappy	-11.0547
▁cackle	-11.0547
▁connor	-11.0547
▁faraday	-11.0547
▁simians	-11.0547
▁athos	-11.0547
▁avenge	-11.0547
▁backpack	-11.0547
▁physics	-11.0547
▁henrietta	-11.0547
▁capsule	-11.0547
▁oei	-11.0547
▁grease	-11.0547
▁worid	-11.0547
▁tennis	-11.0547
▁terrance	-11.0547
▁sherry	-11.0547
▁snickering	-11.0547
▁golf	-11.0547
▁serving	-11.0547
▁update	-11.0547
▁vocal	-11.0547
▁criticism	-11.0547
▁drank	-11.0547
▁grub	-11.0547
▁walsh	-11.0547
▁carolina	-11.0547
▁chimp	-11.0547
▁dutch	-11.0548
▁cuzco	-11.0548
▁burger	-11.0548
▁darius	-11.0548
▁chiming	-11.0548
▁amuse	-11.0548
▁thornton	-11.0548
▁venture	-11.0548
▁munchie	-11.0548
▁torn	-11.0548
▁construction	-11.0548
▁moonlight	-11.0549
▁chores	-11.0549
▁keen	-11.0549
▁scum	-11.055
▁instructor	-11.055
▁roland	-11.055
▁dwell	-11.055
▁passionate	-11.055
▁calf	-11.055
▁attraction	-11.055
▁classroom	-11.055
▁chiru	-11.055
brain	-11.0551
▁amazed	-11.0551
▁household	-11.0551
▁petty	-11.0551
▁lunatic	-11.0551
▁drew	-11.0551
▁panel	-11.0551
▁phony	-11.0552
▁lois	-11.0552
▁sunny	-11.0553
▁dedicated	-11.0553
▁denise	-11.0554
▁cellar	-11.0555
▁hypnotized	-11.0555
▁christianity	-11.0558
ittie	-11.0559
▁opposed	-11.056
▁homemade	-11.0564
▁wealthy	-11.0565
▁active	-11.0565
lar	-11.0566
▁haunted	-11.0566
▁witnesses	-11.0566
▁controlling	-11.0566
▁madness	-11.0567
▁drunken	-11.0567
▁campus	-11.0568
▁rational	-11.057
▁scam	-11.057
▁badass	-11.0572
▁blank	-11.0572
dale	-11.0572
▁scalp	-11.0572
▁hideous	-11.0576
▁pawn	-11.0576
▁tina	-11.0578
▁romeo	-11.0582
bie	-11.0584
▁postal	-11.0585
▁preacher	-11.0585
▁zoe	-11.0592
▁oceans	-11.0595
▁wrecked	-11.0596
▁keyes	-11.0599
▁pata	-11.0602
▁lifetimes	-11.0605
get	-11.0609
▁tab	-11.0609
▁twisted	-11.0609
▁pouring	-11.0611
▁phones	-11.0622
headed	-11.063
▁your	-11.0635
▁concludes	-11.0637
▁sinking	-11.0642
bing	-11.0644
▁mick	-11.0655
ok	-11.0655
▁phillips	-11.0658
▁entered	-11.066
▁ally	-11.0667
ook	-11.0669
master	-11.0672
▁wounds	-11.0673
▁iet	-11.0679
▁mills	-11.0689
▁carve	-11.0693
▁aires	-11.0696
▁grades	-11.0716
▁nightmares	-11.0719
▁returns	-11.0724
▁charged	-11.0728
▁regard	-11.0728
▁democrats	-11.0736
▁cared	-11.0739
▁squeal	-11.0754
▁righteous	-11.0756
▁cracks	-11.0766
▁mai	-11.0777
▁guessed	-11.078
▁sundays	-11.0782
cular	-11.0784
▁blade	-11.0785
▁tshirt	-11.0785
▁gusteau	-11.0787
▁breast	-11.0787
▁arch	-11.0789
▁destroying	-11.0792
reat	-11.0796
▁pill	-11.0798
▁booing	-11.08
▁missile	-11.0801
▁handed	-11.0805
▁males	-11.0807
ked	-11.081
▁ohhh	-11.081
▁rein	-11.0817
▁raven	-11.0823
▁fucker	-11.0824
▁principles	-11.0824
▁keeper	-11.0839
▁tang	-11.0841
ano	-11.0842
ane	-11.0845
▁lovell	-11.0858
▁differently	-11.0859
▁crews	-11.0863
▁reno	-11.087
gen	-11.0872
▁monks	-11.0873
▁ang	-11.0898
ew	-11.0903
▁camping	-11.0915
▁sim	-11.0929
aught	-11.0934
ath	-11.0942
▁clinic	-11.0946
▁cups	-11.0947
igh	-11.0949
lock	-11.0959
▁annu	-11.0961
▁clatter	-11.0966
ological	-11.097
aking	-11.097
▁clank	-11.0971
ient	-11.0977
▁vanish	-11.0978
▁achieve	-11.0979
▁retire	-11.098
ability	-11.0982
▁blaze	-11.0988
four	-11.0988
▁bare	-11.0991
▁sketch	-11.0994
▁olive	-11.0995
▁livin	-11.0996
▁reflect	-11.0997
▁sew	-11.0999
▁tusk	-11.1001
▁squaw	-11.1001
▁refresh	-11.1001
▁recruit	-11.1001
▁abroad	-11.1001
▁application	-11.1001
▁arizona	-11.1001
▁aurora	-11.1001
▁bizarre	-11.1001
▁cavalry	-11.1001
▁cunning	-11.1001
▁daisuke	-11.1001
▁definition	-11.1001
▁deploy	-11.1001
▁embassy	-11.1001
▁exploring	-11.1001
▁gesture	-11.1001
▁giuliano	-11.1001
▁global	-11.1001
▁gruberman	-11.1001
▁horror	-11.1001
▁hurricane	-11.1001
▁jeiiystone	-11.1001
▁kirby	-11.1001
▁krinkle	-11.1001
▁landscape	-11.1001
▁lawrence	-11.1001
▁leprechaun	-11.1001
▁melvin	-11.1001
▁nascimento	-11.1001
▁peculiar	-11.1001
▁philosophy	-11.1001
▁rambalcochet	-11.1001
▁retard	-11.1001
▁rhyme	-11.1001
▁sausage	-11.1001
▁sensible	-11.1001
▁shirin	-11.1001
▁sworn	-11.1001
▁tremendous	-11.1001
▁vacuum	-11.1001
▁cheryl	-11.1001
▁cultural	-11.1001
▁hobby	-11.1001
▁parrot	-11.1001
▁timmie	-11.1001
▁madeleine	-11.1001
▁adapt	-11.1001
▁miranda	-11.1001
▁reckless	-11.1001
▁andrada	-11.1001
▁slug	-11.1001
▁carpet	-11.1001
▁nancy	-11.1001
▁pardeep	-11.1001
▁pursue	-11.1001
▁prophet	-11.1001
▁stewart	-11.1001
▁introduction	-11.1001
▁montana	-11.1001
▁sondra	-11.1001
▁vince	-11.1002
▁profile	-11.1002
▁medfield	-11.1002
▁trotwood	-11.1002
▁gregory	-11.1002
▁dispose	-11.1002
▁heavyweight	-11.1002
ram	-11.1002
▁finance	-11.1002
▁swept	-11.1002
▁dagger	-11.1002
▁trunks	-11.1002
▁wheat	-11.1002
▁heip	-11.1002
▁oome	-11.1002
▁abortion	-11.1002
▁madison	-11.1002
▁patriot	-11.1003
▁cuff	-11.1003
▁raft	-11.1003
▁rosy	-11.1003
keeper	-11.1003
▁iceberg	-11.1003
▁patron	-11.1003
▁fluid	-11.1003
▁ruff	-11.1003
▁ambition	-11.1003
▁dignity	-11.1003
▁overall	-11.1003
▁slightest	-11.1004
▁wong	-11.1004
▁chopper	-11.1004
▁democratic	-11.1004
▁slavery	-11.1005
▁raising	-11.1005
▁clint	-11.1006
▁mainland	-11.1006
▁bolt	-11.1006
▁potter	-11.1006
▁popping	-11.1007
▁communist	-11.1007
▁untie	-11.1007
▁mata	-11.1008
▁hallway	-11.101
▁pea	-11.101
▁proclaim	-11.101
cent	-11.1011
▁alongside	-11.1011
▁plead	-11.1012
▁rh	-11.1012
▁distraction	-11.1014
▁canyoneering	-11.1015
▁eastman	-11.1017
▁blend	-11.1017
▁wander	-11.1019
▁slope	-11.1021
▁after	-11.1021
▁clowns	-11.1022
▁brooke	-11.1023
▁sank	-11.1023
▁answered	-11.1023
▁drone	-11.1024
▁teenager	-11.1025
▁wildest	-11.1028
▁baker	-11.1029
▁drawn	-11.1029
long	-11.1033
▁bloke	-11.1034
▁assist	-11.1036
▁workin	-11.1038
▁macka	-11.1043
▁gary	-11.1045
▁presentation	-11.1047
▁shipment	-11.105
▁fin	-11.1054
ula	-11.106
eau	-11.1061
▁ach	-11.1062
▁trains	-11.1064
nic	-11.1064
▁cum	-11.1064
▁yelled	-11.1067
▁mightve	-11.1077
▁wounded	-11.1079
▁hel	-11.1085
burg	-11.1086
▁cracked	-11.1092
▁rushed	-11.1094
▁performed	-11.1102
▁deepu	-11.1111
▁brighter	-11.1121
▁introduced	-11.1122
cott	-11.1126
▁guineas	-11.1128
▁specialist	-11.113
born	-11.1131
▁ruled	-11.1132
▁delivering	-11.1133
▁norther	-11.1133
▁comic	-11.1134
▁reminded	-11.1136
▁entering	-11.1155
▁att	-11.1165
▁geez	-11.1169
▁frightful	-11.117
▁stations	-11.1184
▁cane	-11.1187
▁patterns	-11.1189
▁clues	-11.1192
▁howls	-11.1198
▁pun	-11.1199
▁quicker	-11.1201
▁ike	-11.1202
▁presume	-11.1202
▁robbers	-11.1204
▁customs	-11.121
▁breasts	-11.122
oi	-11.1224
▁files	-11.1238
▁pandas	-11.1241
▁pockets	-11.1243
▁trim	-11.1243
▁custom	-11.1247
▁tracking	-11.1247
▁instrument	-11.125
win	-11.1256
▁clubs	-11.1258
▁sneeze	-11.126
▁companion	-11.1261
▁method	-11.1261
▁laps	-11.1263
▁contestant	-11.1266
▁peep	-11.1273
▁respected	-11.1281
▁shades	-11.1282
▁artistic	-11.1282
▁heel	-11.1285
▁skates	-11.1294
▁nazi	-11.1302
▁cracker	-11.1303
▁marines	-11.1313
berry	-11.1318
▁daniels	-11.1324
▁cher	-11.1326
▁fooled	-11.1329
▁ooo	-11.1331
▁credits	-11.1334
▁messages	-11.1335
ules	-11.1338
▁ups	-11.134
▁filmed	-11.1343
▁min	-11.1343
▁trucks	-11.1346
▁blues	-11.1351
atic	-11.1353
▁shells	-11.1363
▁senses	-11.137
▁shines	-11.1375
▁coppers	-11.1384
pit	-11.1388
oding	-11.14
▁preach	-11.1401
▁wished	-11.1403
▁invent	-11.1406
▁descend	-11.1414
▁prints	-11.1414
▁vicki	-11.1431
▁spray	-11.1441
▁tao	-11.1443
▁threaten	-11.1445
▁select	-11.1447
most	-11.1452
▁chant	-11.1452
bird	-11.1455
▁hack	-11.1457
▁flatter	-11.1457
▁choke	-11.1457
elli	-11.1459
free	-11.146
class	-11.1461
even	-11.1462
▁clang	-11.1466
▁guilt	-11.1467
▁lucia	-11.147
▁volcano	-11.1471
▁advertise	-11.1471
▁lovin	-11.1472
▁talents	-11.1473
roll	-11.1476
▁merci	-11.1476
▁anthony	-11.1477
▁apollo	-11.1477
▁autumn	-11.1477
▁bonnelli	-11.1477
▁bumblebee	-11.1477
▁cetera	-11.1477
▁cinderelly	-11.1477
▁cinema	-11.1477
▁clumsy	-11.1477
▁conceal	-11.1477
▁critter	-11.1477
▁denver	-11.1477
▁devour	-11.1477
▁distorted	-11.1477
▁economic	-11.1477
▁envelope	-11.1477
▁exploding	-11.1477
▁granddaughter	-11.1477
▁grenade	-11.1477
▁harriet	-11.1477
▁houston	-11.1477
▁imbecile	-11.1477
▁incompetent	-11.1477
▁independence	-11.1477
▁indicate	-11.1477
▁inevitable	-11.1477
▁infinite	-11.1477
▁jeffords	-11.1477
▁merchant	-11.1477
▁nowadays	-11.1477
▁orleans	-11.1477
▁pledge	-11.1477
▁prosecutor	-11.1477
▁purple	-11.1477
▁quigley	-11.1477
▁racism	-11.1477
▁shield	-11.1477
▁shrieking	-11.1477
▁slick	-11.1477
▁soccer	-11.1477
▁sophia	-11.1477
▁specimen	-11.1477
▁torpedo	-11.1477
▁umbrella	-11.1477
▁velrans	-11.1477
▁velvet	-11.1477
▁yappasha	-11.1477
▁yield	-11.1477
▁yoohoo	-11.1477
▁chemical	-11.1477
▁dalton	-11.1477
▁derek	-11.1477
▁lenore	-11.1477
▁patrice	-11.1477
▁valerie	-11.1477
▁clemons	-11.1477
▁noisy	-11.1477
▁whatsoever	-11.1477
▁jimmie	-11.1477
▁personnel	-11.1477
▁gilbert	-11.1477
▁fisherman	-11.1477
▁bernard	-11.1477
▁ransom	-11.1478
▁zaius	-11.1478
▁fireworks	-11.1478
▁gadgetmobile	-11.1478
▁slack	-11.1478
▁claudette	-11.1478
▁helmet	-11.1478
▁fleece	-11.1478
▁onward	-11.1478
▁kitten	-11.1478
▁nathanial	-11.1478
▁rasp	-11.1478
▁postcard	-11.1478
▁rooster	-11.1478
▁panties	-11.1478
▁heir	-11.1478
▁fridge	-11.1478
▁arena	-11.1478
▁disturbance	-11.1478
▁ellie	-11.1478
▁dentist	-11.1478
▁barlow	-11.1479
▁andand	-11.1479
▁consciousness	-11.1479
▁altar	-11.1479
▁theft	-11.1479
▁constantine	-11.1479
▁madrid	-11.1479
▁shortcut	-11.1479
▁stalk	-11.148
▁curry	-11.148
▁skipper	-11.148
▁garth	-11.148
▁brew	-11.1481
▁expectations	-11.1481
▁ahchoo	-11.1481
▁whipped	-11.1481
▁educated	-11.1482
▁allowance	-11.1482
▁soda	-11.1482
▁bonus	-11.1482
▁nasties	-11.1483
▁occur	-11.1483
▁mutters	-11.1483
▁crust	-11.1485
▁located	-11.1486
▁marina	-11.1486
▁aldo	-11.1487
▁massage	-11.1487
▁shant	-11.1487
▁tango	-11.1488
▁comedy	-11.1492
▁objection	-11.1493
▁lighthouse	-11.1493
▁croaking	-11.1494
▁francois	-11.1494
▁bash	-11.1495
▁reel	-11.1495
▁technically	-11.1496
▁consideration	-11.1496
▁toughest	-11.1501
▁mira	-11.1501
▁formation	-11.1502
▁resources	-11.1504
▁daylight	-11.1509
▁humanity	-11.1512
▁fathoms	-11.1515
▁rejected	-11.1517
▁signals	-11.1519
▁mechanical	-11.1519
ization	-11.1521
▁satin	-11.1521
▁pickup	-11.1523
▁lair	-11.1529
▁grrr	-11.1531
▁complaining	-11.1536
▁scaring	-11.1537
▁easter	-11.1543
▁tada	-11.1549
▁dodgers	-11.1549
▁mag	-11.1551
▁drowning	-11.1551
▁persons	-11.1554
▁que	-11.1562
▁downing	-11.1573
▁hardest	-11.1576
▁nervously	-11.1577
▁princes	-11.1582
▁hint	-11.1583
▁lively	-11.1584
▁gathering	-11.1591
eye	-11.1595
▁shouts	-11.1596
▁suspected	-11.1599
▁tro	-11.1603
▁bb	-11.1616
zi	-11.1617
▁crops	-11.162
bag	-11.1624
▁coon	-11.163
int	-11.1641
aaa	-11.1643
▁harp	-11.1645
▁diet	-11.1646
ellow	-11.1646
▁adventures	-11.1647
lot	-11.1649
▁shorter	-11.1654
▁suggesting	-11.166
▁formed	-11.1662
▁anim	-11.167
▁pla	-11.1674
▁clare	-11.1677
▁shootin	-11.1686
▁rem	-11.1686
hes	-11.1689
▁continued	-11.1693
youre	-11.1699
▁germ	-11.1701
▁images	-11.1702
▁beau	-11.1708
▁curtains	-11.1718
▁weary	-11.1719
▁peel	-11.1722
▁refuses	-11.1733
▁disco	-11.1735
▁pros	-11.1738
good	-11.1742
▁medals	-11.1742
row	-11.1746
▁exams	-11.1751
tar	-11.1758
▁gloves	-11.1759
▁democrat	-11.176
▁amigo	-11.1761
▁particle	-11.1762
▁balloon	-11.1762
▁colleague	-11.1762
▁robber	-11.1764
▁pirate	-11.1764
tech	-11.1779
▁was	-11.18
▁gag	-11.1819
ero	-11.1819
▁restaurants	-11.1821
wn	-11.1827
▁actions	-11.1836
▁tribes	-11.1842
▁bubbles	-11.1847
lessly	-11.185
art	-11.1852
▁rocky	-11.1865
▁walters	-11.1867
▁announcements	-11.187
▁howl	-11.1873
▁ming	-11.1878
she	-11.1879
▁nerves	-11.1881
▁ie	-11.1886
▁skateboard	-11.1886
tock	-11.1918
▁divide	-11.1923
▁newspapers	-11.1924
▁claws	-11.1926
▁jess	-11.1927
▁hose	-11.1945
▁git	-11.1951
▁booth	-11.1952
▁fiddle	-11.1952
▁involve	-11.1957
▁rehearse	-11.1957
▁circles	-11.1958
▁organize	-11.1959
yearold	-11.1959
▁finishing	-11.1962
▁restore	-11.1963
▁whee	-11.1963
▁fulfill	-11.1963
wise	-11.1963
▁fortunate	-11.1965
▁ultimate	-11.1965
▁assassin	-11.1972
▁toro	-11.1977
▁cult	-11.1977
▁plug	-11.1977
▁mathematic	-11.1977
▁pervert	-11.1977
▁anyhow	-11.1977
▁applied	-11.1977
▁bethlehem	-11.1977
▁boatwright	-11.1977
▁buckingham	-11.1977
▁cajella	-11.1977
▁caravan	-11.1977
▁caviar	-11.1977
▁celeste	-11.1977
▁chimney	-11.1977
▁christophene	-11.1977
▁deborah	-11.1977
▁eclipse	-11.1977
▁elbow	-11.1977
▁eyepoppers	-11.1977
▁fossil	-11.1977
▁ginnie	-11.1977
▁gregorio	-11.1977
▁harlene	-11.1977
▁invasion	-11.1977
▁israel	-11.1977
▁kaguya	-11.1977
▁kennedy	-11.1977
▁minnie	-11.1977
▁monarch	-11.1977
▁muffin	-11.1977
▁nottingham	-11.1977
▁obsession	-11.1977
▁perimeter	-11.1977
▁pheasant	-11.1977
▁pocahontas	-11.1977
▁puppet	-11.1977
▁resume	-11.1977
▁ritual	-11.1977
▁roosevelt	-11.1977
▁sleigh	-11.1977
▁somewhat	-11.1977
▁stereo	-11.1977
▁telegraph	-11.1977
▁tokyo	-11.1977
▁translation	-11.1977
▁violation	-11.1977
▁vivian	-11.1977
▁yonkers	-11.1977
▁bfg	-11.1977
▁cummings	-11.1977
▁demonstrate	-11.1977
▁flirt	-11.1977
▁kandi	-11.1977
▁marilyn	-11.1977
▁regent	-11.1977
▁stannis	-11.1977
▁beverly	-11.1977
▁couch	-11.1977
▁distress	-11.1977
▁resort	-11.1977
▁stokes	-11.1977
▁pigeon	-11.1977
▁contribution	-11.1977
▁hurray	-11.1977
▁intellectual	-11.1977
▁pringle	-11.1977
▁ensure	-11.1978
▁gossip	-11.1978
▁psychological	-11.1978
▁melody	-11.1978
▁steep	-11.1978
▁olsen	-11.1978
▁obtain	-11.1978
▁hawkins	-11.1978
▁phew	-11.1978
▁europa	-11.1978
▁plaza	-11.1978
▁inheritance	-11.1978
▁interference	-11.1978
▁scroll	-11.1978
▁harmonica	-11.1978
▁jojo	-11.1978
▁jammed	-11.1978
▁expand	-11.1979
▁riddle	-11.1979
▁philippe	-11.1979
▁hunk	-11.1979
▁cuz	-11.1979
▁anderson	-11.198
▁stroll	-11.198
▁jewelry	-11.198
▁icon	-11.198
▁objective	-11.198
▁hugh	-11.1981
▁unlock	-11.1981
▁marcel	-11.1981
▁carlos	-11.1981
▁blog	-11.1981
▁rally	-11.1981
ddle	-11.1981
▁dumpling	-11.1982
▁bouncing	-11.1982
▁barney	-11.1982
▁ghostier	-11.1983
▁establishment	-11.1983
▁abilities	-11.1984
▁jeanne	-11.1986
▁management	-11.1987
▁grandson	-11.1988
▁sip	-11.1989
▁hamlet	-11.1991
▁grabbed	-11.1991
▁weaver	-11.1991
▁cody	-11.1991
▁slimy	-11.1992
▁penis	-11.1993
▁aww	-11.1995
▁evilia	-11.1995
▁condemned	-11.1995
▁ammo	-11.1995
cher	-11.1996
▁gram	-11.1997
▁julien	-11.1997
▁seventh	-11.1999
▁swords	-11.2
▁highland	-11.2001
▁equally	-11.2001
▁bent	-11.2002
▁vein	-11.2003
▁farley	-11.2004
▁fulfilled	-11.2005
▁sol	-11.2005
▁fig	-11.2006
▁meals	-11.2009
▁heartland	-11.2009
▁specialty	-11.2009
▁pus	-11.2013
▁metro	-11.2014
▁lndian	-11.2014
▁sewing	-11.2018
▁tomb	-11.2018
▁ration	-11.2021
▁curly	-11.2022
▁cargo	-11.203
▁ant	-11.2031
▁ignored	-11.2033
▁louie	-11.2034
▁scan	-11.2035
▁poker	-11.2037
▁delayed	-11.2037
▁burnt	-11.2038
▁bridesmaids	-11.2039
▁disturbing	-11.204
versus	-11.2041
▁roy	-11.2048
▁lens	-11.2048
▁coordinates	-11.205
▁quot	-11.2052
▁bernier	-11.2054
▁semi	-11.2054
▁choices	-11.2059
▁rumbles	-11.2061
oni	-11.2067
▁lace	-11.2069
▁beautifully	-11.2069
▁dearie	-11.207
▁ghouls	-11.2073
▁dumped	-11.2076
▁neon	-11.2083
who	-11.2088
▁failing	-11.2092
▁shovel	-11.2092
▁stat	-11.2095
▁sailed	-11.2097
▁lighten	-11.2099
▁darko	-11.2101
▁lust	-11.2103
▁loop	-11.2103
▁seeking	-11.2107
▁evans	-11.2111
▁criminals	-11.2112
▁hooked	-11.2116
gram	-11.212
▁bev	-11.2121
fly	-11.2135
▁commandos	-11.2137
▁fairly	-11.2144
cut	-11.2147
▁crate	-11.215
▁vic	-11.2159
▁remaining	-11.2176
▁funds	-11.2187
▁longest	-11.2193
▁females	-11.2196
▁ants	-11.2202
▁brands	-11.2205
▁ze	-11.2207
fil	-11.2211
▁cells	-11.2218
▁joel	-11.2219
▁gusteaus	-11.2219
▁ob	-11.2223
▁prayed	-11.2226
▁experiments	-11.2227
▁carder	-11.2234
ttle	-11.2237
shed	-11.2239
rop	-11.224
▁via	-11.2242
▁fare	-11.2246
▁sho	-11.2254
▁orderly	-11.2257
▁squeak	-11.2257
run	-11.2257
▁oy	-11.2258
▁correction	-11.2286
▁pattern	-11.229
▁penguin	-11.2291
mat	-11.2292
▁hem	-11.2306
nia	-11.2307
▁guardians	-11.231
▁mes	-11.2313
▁my	-11.2313
▁runner	-11.2315
▁dj	-11.2319
▁repairs	-11.233
▁crabs	-11.2332
▁rumors	-11.2334
▁whi	-11.234
▁marked	-11.2342
rill	-11.2342
cul	-11.2362
▁shirts	-11.2369
▁est	-11.2384
bil	-11.2389
▁smelling	-11.239
▁naive	-11.2413
▁priests	-11.2414
▁scenes	-11.242
ime	-11.2426
▁ke	-11.2431
▁marker	-11.2437
▁sole	-11.2439
▁nana	-11.2442
▁tails	-11.2445
▁covers	-11.2446
▁insect	-11.2446
▁latte	-11.2455
▁callin	-11.2467
▁bleat	-11.2469
▁marty	-11.2472
▁undress	-11.2476
two	-11.2479
▁persuade	-11.2484
worth	-11.2484
▁circ	-11.2485
walk	-11.2486
▁pointing	-11.2487
▁examine	-11.249
▁ani	-11.2491
shot	-11.2491
▁virg	-11.2492
▁saknussem	-11.2496
▁qua	-11.2496
▁tomato	-11.2497
▁belle	-11.2499
▁distinct	-11.2502
job	-11.2503
▁slum	-11.2503
▁johannes	-11.2504
▁rebuild	-11.2504
▁aggressive	-11.2504
▁alternative	-11.2504
▁amsterdam	-11.2504
▁arnaud	-11.2504
▁bacteria	-11.2504
▁barcuna	-11.2504
▁briefcase	-11.2504
▁brooklyn	-11.2504
▁chamberlain	-11.2504
▁chariot	-11.2504
▁cheerleader	-11.2504
▁clawdeen	-11.2504
▁coyote	-11.2504
▁daphne	-11.2504
▁demonstration	-11.2504
▁destination	-11.2504
▁detention	-11.2504
▁disobey	-11.2504
▁dizzy	-11.2504
▁everlasting	-11.2504
▁feminine	-11.2504
▁fundamental	-11.2504
▁furthermore	-11.2504
▁goetaborg	-11.2504
▁halifax	-11.2504
▁hazard	-11.2504
▁horvath	-11.2504
▁institute	-11.2504
▁judging	-11.2504
▁kahuna	-11.2504
▁lesbian	-11.2504
▁luxury	-11.2504
▁maintenance	-11.2504
▁maureen	-11.2504
▁mfundisi	-11.2504
▁mixture	-11.2504
▁negotiate	-11.2504
▁obstacle	-11.2504
▁oldfashioned	-11.2504
▁pineapple	-11.2504
▁prairie	-11.2504
▁rekker	-11.2504
▁reunion	-11.2504
▁rosamaria	-11.2504
▁rudolph	-11.2504
▁rupees	-11.2504
▁scoundrel	-11.2504
▁scrooge	-11.2504
▁serpent	-11.2504
▁shrink	-11.2504
▁slurping	-11.2504
▁snarls	-11.2504
▁solemn	-11.2504
▁squash	-11.2504
▁squirt	-11.2504
▁stammers	-11.2504
▁substitute	-11.2504
▁temporary	-11.2504
▁testimony	-11.2504
▁trembling	-11.2504
▁tuppence	-11.2504
▁unconscious	-11.2504
▁verdict	-11.2504
▁veronica	-11.2504
▁convoy	-11.2504
▁neighs	-11.2504
▁odette	-11.2504
▁penetrate	-11.2504
▁zelen	-11.2504
▁barista	-11.2504
▁website	-11.2504
▁yippee	-11.2504
▁dahl	-11.2504
▁doggone	-11.2504
▁thrash	-11.2504
▁vesper	-11.2504
▁fernfield	-11.2504
▁goddess	-11.2504
▁judy	-11.2504
▁tolerate	-11.2504
▁adios	-11.2504
▁porthos	-11.2504
▁antoinette	-11.2504
▁sidney	-11.2504
▁johannesburg	-11.2504
▁freddy	-11.2504
▁tingle	-11.2504
▁boston	-11.2504
▁hanssen	-11.2504
▁flank	-11.2504
▁departure	-11.2504
▁dewey	-11.2504
▁kilometers	-11.2504
▁upsidedown	-11.2504
▁heap	-11.2504
▁alaska	-11.2504
▁mild	-11.2504
▁bovs	-11.2504
▁ufo	-11.2504
▁gravity	-11.2505
▁significant	-11.2505
▁leash	-11.2505
▁homesick	-11.2505
▁rival	-11.2505
fect	-11.2505
▁snowbell	-11.2505
▁petition	-11.2505
▁zora	-11.2505
▁triumphant	-11.2506
▁tutor	-11.2506
▁unison	-11.2506
▁paddle	-11.2506
▁serum	-11.2506
▁snapping	-11.2506
▁timber	-11.2506
▁acid	-11.2506
▁heath	-11.2506
▁deliberately	-11.2507
▁rottenmeier	-11.2507
▁shack	-11.2507
▁leland	-11.2507
▁kurtz	-11.2507
▁flaw	-11.2507
▁veil	-11.2507
▁scaris	-11.2507
▁fuzzy	-11.2508
▁reflection	-11.2509
▁sophisticated	-11.2509
▁phrase	-11.2509
▁leaf	-11.2509
▁sunlight	-11.2509
▁chow	-11.251
▁owned	-11.251
▁troll	-11.251
▁snowball	-11.251
▁dodo	-11.251
▁grady	-11.2511
▁mitchell	-11.2511
▁toron	-11.2511
▁fluffy	-11.2513
▁soak	-11.2514
▁om	-11.2515
▁samba	-11.2516
▁shooter	-11.2517
▁exposed	-11.2521
▁screeches	-11.2522
▁woolly	-11.2522
▁sincerely	-11.2522
▁bedtime	-11.2524
▁starr	-11.2526
▁maa	-11.2528
▁bench	-11.253
▁slay	-11.2531
▁honorable	-11.2532
▁heep	-11.2532
▁undo	-11.2535
▁brighton	-11.2537
▁betrayed	-11.2537
▁wager	-11.2538
ole	-11.2539
▁ross	-11.2539
▁values	-11.2541
▁ramy	-11.2541
▁clanking	-11.2545
▁buzzer	-11.2546
▁spilled	-11.2548
▁contractor	-11.2552
▁crawling	-11.2557
▁deliverer	-11.2558
▁waitress	-11.256
▁wiped	-11.256
▁wick	-11.2562
▁plates	-11.2564
▁gaining	-11.2564
▁pinky	-11.2565
▁goldman	-11.2565
ough	-11.2566
▁cheerful	-11.2568
▁handling	-11.2568
▁sardines	-11.2569
▁bot	-11.2574
▁uk	-11.2574
rated	-11.2576
▁crushed	-11.2577
▁whines	-11.2578
▁this	-11.258
▁forgiven	-11.2583
▁ak	-11.2585
▁spoiled	-11.2585
▁collected	-11.2585
▁reaches	-11.2588
▁herbs	-11.2592
▁mainly	-11.2596
▁placement	-11.2597
▁teaches	-11.2598
▁sayin	-11.2599
▁directed	-11.26
▁sneaking	-11.2609
▁hugg	-11.2612
▁cowards	-11.2613
▁sealed	-11.2619
▁tellin	-11.2624
▁hump	-11.2627
▁esp	-11.2634
▁limo	-11.2638
▁crashed	-11.2641
▁heed	-11.2652
have	-11.2652
▁meows	-11.2655
▁growl	-11.2656
▁roads	-11.2657
▁honesty	-11.266
▁baboons	-11.2664
▁historical	-11.2673
▁rains	-11.2678
▁japs	-11.2682
hmm	-11.2685
▁ei	-11.2687
▁weep	-11.2694
▁colored	-11.2696
▁generally	-11.2699
bear	-11.2731
▁bub	-11.2731
eight	-11.2736
▁tasted	-11.2737
vy	-11.2761
▁hustle	-11.2765
▁lookout	-11.2766
▁concerns	-11.2768
▁communications	-11.2771
▁bandits	-11.2777
▁ingredients	-11.2783
nous	-11.2783
▁listed	-11.2785
▁nava	-11.2792
▁snaps	-11.2796
▁fruits	-11.2799
▁crook	-11.2815
▁participate	-11.2817
tsu	-11.2819
▁youyou	-11.2821
▁handled	-11.2821
▁fades	-11.283
▁gorilla	-11.2842
▁expense	-11.2842
▁walkin	-11.2843
▁morons	-11.2843
▁villain	-11.2843
▁nora	-11.2843
▁employee	-11.2844
▁elder	-11.285
▁tool	-11.2851
play	-11.2865
▁kicking	-11.2868
▁arts	-11.287
▁charts	-11.2875
vie	-11.2876
▁takers	-11.2899
▁honors	-11.292
▁presented	-11.2929
ification	-11.294
▁rounds	-11.2941
▁serves	-11.2947
▁biting	-11.2957
▁dol	-11.2958
ela	-11.296
▁pipes	-11.2962
▁pies	-11.2968
▁lass	-11.2974
▁fund	-11.2988
▁treasures	-11.2989
▁lope	-11.2989
▁shatter	-11.2998
▁mechanic	-11.301
▁clair	-11.3017
▁echo	-11.3021
▁disgust	-11.3025
break	-11.3035
▁engage	-11.3036
▁delight	-11.3038
▁investigate	-11.3038
▁reduce	-11.3039
▁inspire	-11.3039
load	-11.3044
▁numb	-11.3044
▁slim	-11.3045
▁psych	-11.3047
▁precise	-11.3049
▁severe	-11.3051
cept	-11.3054
▁bouncin	-11.3054
▁sittin	-11.3054
▁exhibit	-11.3057
▁construct	-11.3057
▁kidnap	-11.3057
▁conscious	-11.3058
▁consult	-11.3058
orita	-11.3059
▁convert	-11.3059
▁amateur	-11.3059
▁ambrose	-11.3059
▁analysis	-11.3059
▁aramis	-11.3059
▁biblical	-11.3059
▁bradshaw	-11.3059
▁bubbly	-11.3059
▁celebrity	-11.3059
▁certificate	-11.3059
▁climate	-11.3059
▁clutch	-11.3059
▁colbert	-11.3059
▁collision	-11.3059
▁crucial	-11.3059
▁description	-11.3059
▁dungeon	-11.3059
▁elegant	-11.3059
▁eligible	-11.3059
▁enrique	-11.3059
▁ensign	-11.3059
▁ephraim	-11.3059
▁exploit	-11.3059
▁explosive	-11.3059
▁exquisite	-11.3059
▁ezekiel	-11.3059
▁gibbering	-11.3059
▁gigante	-11.3059
▁giuseppe	-11.3059
▁godfather	-11.3059
▁gypsies	-11.3059
▁hungarian	-11.3059
▁ieyasu	-11.3059
▁innocence	-11.3059
▁insomnia	-11.3059
▁inviting	-11.3059
▁jacqueline	-11.3059
▁memnet	-11.3059
▁morteza	-11.3059
▁october	-11.3059
▁osaka	-11.3059
▁priscilla	-11.3059
▁qualify	-11.3059
▁reaiiy	-11.3059
▁rudolf	-11.3059
▁sprinkle	-11.3059
▁sydney	-11.3059
▁thruppence	-11.3059
▁trundle	-11.3059
▁unpack	-11.3059
▁valdez	-11.3059
▁vienna	-11.3059
▁weasel	-11.3059
▁zelda	-11.3059
▁blackmail	-11.3059
▁manchuria	-11.3059
▁outlaw	-11.3059
▁rufus	-11.3059
▁ryker	-11.3059
▁senate	-11.3059
▁siege	-11.3059
▁collins	-11.3059
▁serene	-11.3059
▁pioneer	-11.3059
▁possum	-11.3059
▁noodle	-11.3059
▁oven	-11.3059
▁imitating	-11.3059
▁viking	-11.3059
▁lulu	-11.3059
▁sasha	-11.3059
▁cern	-11.3059
▁cuando	-11.3059
▁furlings	-11.3059
▁mystic	-11.3059
▁pursuit	-11.3059
▁holmesburg	-11.3059
▁juicy	-11.3059
▁sorrv	-11.3059
▁liking	-11.3059
▁constitution	-11.306
▁cherries	-11.306
▁oxford	-11.306
▁stumble	-11.306
▁arctic	-11.306
▁patrick	-11.306
▁authorities	-11.306
▁throbbing	-11.306
▁whys	-11.306
▁alpha	-11.306
▁lizard	-11.306
▁motive	-11.306
▁marcello	-11.306
▁harass	-11.306
▁hunch	-11.306
▁chitra	-11.3061
▁stripped	-11.3061
▁spinach	-11.3061
▁prosper	-11.3061
▁yankee	-11.3061
▁interior	-11.3061
▁pimp	-11.3061
▁tuna	-11.3061
▁irish	-11.3062
▁tux	-11.3062
▁rack	-11.3062
▁abner	-11.3062
▁judo	-11.3062
▁crank	-11.3062
▁abuse	-11.3062
▁ripped	-11.3063
▁dugan	-11.3063
▁fiction	-11.3063
▁noah	-11.3063
▁reyes	-11.3063
▁togo	-11.3063
▁toad	-11.3064
▁elise	-11.3064
▁vibe	-11.3064
▁legendary	-11.3064
▁obligation	-11.3064
▁elite	-11.3065
▁epic	-11.3065
▁solar	-11.3066
▁lionel	-11.3066
▁eastern	-11.3066
▁therapy	-11.3066
▁accountant	-11.3066
▁dong	-11.3066
▁pornography	-11.3067
▁zman	-11.3067
▁spies	-11.3068
▁waltz	-11.3069
▁housekeeper	-11.307
▁pomp	-11.307
▁nickel	-11.307
▁inventory	-11.307
▁doggie	-11.307
▁foreb	-11.307
▁oof	-11.3071
▁ames	-11.3074
▁appointed	-11.3074
▁grind	-11.308
▁elected	-11.3081
▁shallow	-11.3082
▁clinking	-11.3083
▁remy	-11.3084
▁colin	-11.3085
▁condo	-11.309
▁fingerprints	-11.3091
▁approved	-11.3091
▁selected	-11.3092
▁silky	-11.3092
▁shaken	-11.3095
▁barb	-11.3104
▁roberto	-11.3106
▁forged	-11.3107
test	-11.3107
▁lease	-11.311
▁corps	-11.3112
ope	-11.3115
▁rarely	-11.3116
▁fled	-11.3116
▁internal	-11.3121
▁guaranteed	-11.3122
▁registered	-11.3125
▁developing	-11.3126
▁dam	-11.3127
▁scratching	-11.3128
▁gus	-11.313
▁tanks	-11.3136
▁dozens	-11.3136
▁quito	-11.3137
▁jealousy	-11.3138
▁nod	-11.3144
▁raped	-11.3144
▁richie	-11.3147
▁guided	-11.3148
▁handful	-11.315
▁kidnappers	-11.3153
▁flo	-11.3155
▁depending	-11.316
▁relations	-11.3166
▁types	-11.3168
uda	-11.3175
▁competitors	-11.3178
▁defending	-11.3184
▁mouths	-11.3184
▁lamps	-11.3185
▁strings	-11.3186
▁hearne	-11.3187
▁prim	-11.3188
▁dancers	-11.3189
▁rescued	-11.3193
▁sada	-11.3195
▁homeless	-11.3197
▁cured	-11.3197
til	-11.3198
▁gutter	-11.32
▁concerning	-11.3202
▁but	-11.3203
haha	-11.3209
▁explains	-11.321
under	-11.3213
▁puck	-11.3216
▁rank	-11.3218
▁performing	-11.322
▁difficulty	-11.3221
▁worms	-11.3229
mine	-11.3234
▁sadly	-11.3241
▁athletes	-11.3241
▁peasants	-11.3241
▁calvin	-11.3242
▁resting	-11.3251
▁sheets	-11.3254
▁blankets	-11.326
going	-11.3264
▁dreamt	-11.3267
▁cowboys	-11.3272
▁discussing	-11.3278
▁levels	-11.3292
rid	-11.3294
▁repeating	-11.3297
▁sticky	-11.3298
▁trials	-11.3298
▁colleagues	-11.3305
▁questioning	-11.3311
▁dared	-11.3312
▁bulls	-11.3325
▁mol	-11.3327
▁buckle	-11.3333
▁parish	-11.334
nine	-11.3343
▁relatives	-11.3343
▁tee	-11.3343
▁petes	-11.3345
▁smiles	-11.3348
▁pier	-11.3358
eur	-11.3363
▁cheeks	-11.3368
▁hairy	-11.3372
▁sob	-11.3373
▁yi	-11.3382
▁tease	-11.3396
▁dudes	-11.3397
▁savings	-11.3397
▁uno	-11.3406
▁roar	-11.3411
▁woohoo	-11.3418
▁vin	-11.3421
▁sweeter	-11.3421
lie	-11.3427
▁fright	-11.3427
▁pulse	-11.343
▁shepherd	-11.3431
▁dragonball	-11.3433
▁crowns	-11.3434
▁passenger	-11.3435
▁parent	-11.344
ional	-11.3454
yah	-11.3461
▁habitat	-11.3466
▁fatal	-11.3483
did	-11.3491
▁sow	-11.3495
▁pots	-11.3506
▁sails	-11.3516
▁tame	-11.3519
▁drawings	-11.3523
▁vent	-11.3526
▁mario	-11.3526
▁horne	-11.353
▁clients	-11.3535
iev	-11.3541
▁poster	-11.3545
▁bing	-11.3548
▁offers	-11.3551
▁ache	-11.3563
ooh	-11.3571
▁fooling	-11.3586
▁occasions	-11.3587
▁continu	-11.3592
▁cakes	-11.3594
ograph	-11.3595
▁sessions	-11.3612
▁crunch	-11.3617
kins	-11.3617
wing	-11.3621
▁scoot	-11.3624
piece	-11.3625
▁promote	-11.3628
▁alba	-11.3629
child	-11.363
burn	-11.3631
▁weave	-11.3632
phone	-11.3633
▁permanent	-11.3635
▁commun	-11.3637
▁alls	-11.3638
▁torch	-11.3641
▁makin	-11.3644
▁accompany	-11.3647
▁tweet	-11.3647
anjar	-11.3648
hypnotic	-11.3648
▁accurate	-11.3648
▁activities	-11.3648
▁ahearn	-11.3648
▁anastasia	-11.3648
▁antidote	-11.3648
▁atlanta	-11.3648
▁balcony	-11.3648
▁behaving	-11.3648
▁bronze	-11.3648
▁burglar	-11.3648
▁cheyenne	-11.3648
▁columbia	-11.3648
▁compartment	-11.3648
▁convenient	-11.3648
▁democracy	-11.3648
▁depressing	-11.3648
▁depression	-11.3648
▁downhill	-11.3648
▁entitled	-11.3648
▁festival	-11.3648
▁gashade	-11.3648
▁gonggil	-11.3648
▁guidance	-11.3648
▁historian	-11.3648
▁horizon	-11.3648
▁intimate	-11.3648
▁kelekian	-11.3648
▁khanoum	-11.3648
▁laboratory	-11.3648
▁lapporte	-11.3648
▁loudspeaker	-11.3648
▁mcmurdo	-11.3648
▁minnesota	-11.3648
▁obsessed	-11.3648
▁oonaya	-11.3648
▁opportunities	-11.3648
▁ounce	-11.3648
▁outstanding	-11.3648
▁possibilities	-11.3648
▁privacy	-11.3648
▁rafael	-11.3648
▁ribbon	-11.3648
▁saizo	-11.3648
▁satterfield	-11.3648
▁schooi	-11.3648
▁schooner	-11.3648
▁sesemann	-11.3648
▁stockholm	-11.3648
▁supermarket	-11.3648
▁suspicion	-11.3648
▁sutemaru	-11.3648
▁throttle	-11.3648
▁uriah	-11.3648
▁voysey	-11.3648
▁wrinkle	-11.3648
▁elaine	-11.3648
▁frown	-11.3648
▁hoffman	-11.3648
▁mutual	-11.3648
▁nursing	-11.3648
▁nevertheless	-11.3648
▁warehouse	-11.3648
▁cramp	-11.3648
▁izzy	-11.3648
▁absence	-11.3648
▁jeep	-11.3648
▁pelias	-11.3648
▁anticipation	-11.3648
▁lindenbrook	-11.3648
▁marianne	-11.3648
▁mustache	-11.3648
▁twinkle	-11.3648
▁flea	-11.3648
▁plague	-11.3648
▁oink	-11.3648
▁fabric	-11.3648
▁candidate	-11.3648
▁shaft	-11.3648
▁anonymous	-11.3648
▁nigger	-11.3648
▁lassard	-11.3648
▁willett	-11.3648
▁administration	-11.3648
▁onboard	-11.3648
▁sheik	-11.3648
▁hisham	-11.3648
▁underwater	-11.3648
▁butterfly	-11.3648
▁transferred	-11.3648
▁stump	-11.3648
▁coosh	-11.3648
▁restrain	-11.3648
▁prank	-11.3648
▁prick	-11.3648
▁banned	-11.3648
▁bugger	-11.3649
▁boundaries	-11.3649
▁underway	-11.3649
▁huey	-11.3649
▁micro	-11.3649
▁outrageous	-11.3649
▁wimp	-11.3649
▁emerge	-11.3649
▁myth	-11.3649
▁tanner	-11.3649
▁kenny	-11.3649
▁regardless	-11.3649
▁retirement	-11.3649
▁panther	-11.3649
▁indulge	-11.3649
▁skullner	-11.3649
▁riley	-11.3649
▁documentary	-11.365
▁melancholic	-11.365
▁alison	-11.365
▁pond	-11.365
▁swap	-11.365
▁genetic	-11.3651
▁caroline	-11.3651
▁moose	-11.3651
▁weakness	-11.3651
▁evie	-11.3651
▁heartbeat	-11.3651
▁gaze	-11.3651
▁valid	-11.3651
▁interaction	-11.3651
▁hawaiian	-11.3651
▁beak	-11.3651
▁authorized	-11.3651
▁booze	-11.3651
▁uniforms	-11.3651
▁equality	-11.3652
▁lola	-11.3653
▁iife	-11.3653
okay	-11.3653
▁disappointment	-11.3653
▁quince	-11.3654
▁salmon	-11.3654
▁courageous	-11.3655
▁starboard	-11.3655
▁distinguished	-11.3655
▁brite	-11.3656
▁tele	-11.3657
▁utterly	-11.3657
▁zak	-11.3657
▁tug	-11.3658
▁spur	-11.3658
▁iam	-11.3659
▁shook	-11.3659
▁jackass	-11.3661
▁hansen	-11.3661
▁machinery	-11.3661
▁margot	-11.3661
▁starve	-11.3663
▁perry	-11.3663
▁bitsy	-11.3664
▁controlled	-11.3667
▁frontier	-11.3668
▁suitable	-11.3668
▁worthless	-11.3669
▁grim	-11.3669
▁neal	-11.3669
▁hawk	-11.367
▁childish	-11.367
▁persuaded	-11.367
▁hospitality	-11.367
▁gina	-11.3673
▁backyard	-11.3673
▁requirement	-11.3674
▁dum	-11.3675
▁sling	-11.3681
▁hotter	-11.3681
▁sickness	-11.3682
▁dori	-11.3683
▁lind	-11.3683
▁vanished	-11.3683
▁askey	-11.3685
▁carrier	-11.3685
▁established	-11.3685
▁superb	-11.3685
▁fag	-11.3688
▁rental	-11.3688
▁imply	-11.369
▁prof	-11.3694
eady	-11.3694
▁snoop	-11.3695
▁wel	-11.3695
▁dose	-11.3697
cell	-11.3698
ault	-11.37
part	-11.3703
▁vickie	-11.3705
▁ale	-11.3711
▁mocking	-11.3711
▁informed	-11.3712
▁goodwin	-11.3714
▁poured	-11.3716
▁setup	-11.3716
▁recovered	-11.3718
▁tempt	-11.3718
▁lyrics	-11.3721
▁challenger	-11.3731
▁freshen	-11.3732
▁consequences	-11.3734
▁flowing	-11.3737
▁chewing	-11.374
▁scored	-11.3747
▁blasted	-11.3749
▁troubled	-11.3754
▁buster	-11.3759
▁survivors	-11.3761
▁pits	-11.3761
▁logical	-11.3764
▁pumping	-11.3766
▁thirteen	-11.3767
▁travels	-11.377
▁tart	-11.3773
▁meowing	-11.3779
▁sources	-11.3782
▁belche	-11.3784
▁outs	-11.3791
uous	-11.3792
▁loosen	-11.38
▁residents	-11.3805
▁pub	-11.3807
▁interns	-11.3815
▁kip	-11.3819
▁erase	-11.3821
▁dani	-11.3831
▁magazines	-11.3835
▁dealt	-11.3842
▁repeated	-11.3843
▁ku	-11.3845
▁smoked	-11.3845
▁slower	-11.3847
▁chic	-11.3864
▁tips	-11.3864
▁strangely	-11.3867
▁char	-11.3872
▁scarf	-11.3873
▁naser	-11.3878
▁oni	-11.3886
▁fal	-11.3919
▁gagg	-11.3921
▁secretly	-11.3922
▁flags	-11.3928
ox	-11.3929
▁caster	-11.3931
▁pitcher	-11.3931
▁cam	-11.3939
▁iit	-11.394
▁dealers	-11.3945
▁crows	-11.3949
▁ira	-11.395
▁exceptional	-11.3954
▁instincts	-11.3959
▁wu	-11.3962
low	-11.3964
▁sap	-11.3967
▁sayers	-11.3973
▁dated	-11.3986
izz	-11.3986
▁flak	-11.4004
▁bats	-11.4009
were	-11.4013
▁bloom	-11.4019
▁rating	-11.4024
▁bidd	-11.4031
▁photographs	-11.4032
▁remark	-11.4034
▁jerks	-11.4038
▁tol	-11.4047
▁camper	-11.4051
▁geranium	-11.4055
▁sheet	-11.4058
▁cooke	-11.406
▁musketeer	-11.406
▁counselor	-11.406
▁rebel	-11.4064
▁spokes	-11.4071
▁producer	-11.4071
▁skater	-11.4085
▁youngster	-11.4086
▁scores	-11.4089
▁importantly	-11.4098
▁rocking	-11.411
▁elements	-11.4112
too	-11.4122
▁sr	-11.4133
ridden	-11.414
▁bites	-11.414
▁offend	-11.4154
berg	-11.4155
ada	-11.4155
ddy	-11.4166
▁herds	-11.4167
▁proven	-11.4169
▁relationships	-11.4181
▁pearls	-11.4183
hard	-11.4191
▁jug	-11.4194
▁commercials	-11.4195
▁hick	-11.4202
▁treats	-11.4204
▁computers	-11.4208
▁haunt	-11.4209
▁embarrass	-11.4209
▁surround	-11.421
▁frighten	-11.4219
▁ian	-11.4219
▁crep	-11.4225
place	-11.4228
▁convict	-11.4234
▁witt	-11.4236
▁flap	-11.4242
▁ruins	-11.4242
avo	-11.4244
▁excite	-11.4252
▁purchase	-11.4252
▁expose	-11.4253
life	-11.4254
berries	-11.4255
school	-11.4255
▁coo	-11.4258
boat	-11.4259
▁batter	-11.4262
▁rogers	-11.4263
▁raisin	-11.4267
▁leavin	-11.4267
▁brag	-11.4269
▁stab	-11.427
▁urge	-11.4271
▁compass	-11.4272
▁neighbour	-11.4272
▁holmes	-11.4272
▁abolish	-11.4273
▁antitoxin	-11.4273
▁arrogant	-11.4273
▁artificial	-11.4273
▁awhile	-11.4273
▁berkshire	-11.4273
▁cockroach	-11.4273
▁confined	-11.4273
▁contempt	-11.4273
▁coocoo	-11.4273
▁cooperate	-11.4273
▁cornwall	-11.4273
▁corporate	-11.4273
▁dalloway	-11.4273
▁desmond	-11.4273
▁economy	-11.4273
▁essay	-11.4273
▁exploration	-11.4273
▁haldeman	-11.4273
▁happiest	-11.4273
▁henderson	-11.4273
▁heritage	-11.4273
▁hideyori	-11.4273
▁identification	-11.4273
▁industrial	-11.4273
▁inferior	-11.4273
▁ingenious	-11.4273
▁janitor	-11.4273
▁junction	-11.4273
▁karthik	-11.4273
▁kumalo	-11.4273
▁manufacture	-11.4273
▁marvellous	-11.4273
▁merrinoe	-11.4273
▁minimum	-11.4273
▁motherinlaw	-11.4273
▁onethird	-11.4273
▁ouessant	-11.4273
▁overlapping	-11.4273
▁parachute	-11.4273
▁qualities	-11.4273
▁sabotage	-11.4273
▁salvatore	-11.4273
▁scenario	-11.4273
▁shackelford	-11.4273
▁snatch	-11.4273
▁sultan	-11.4273
▁suppress	-11.4273
▁syrup	-11.4273
▁variety	-11.4273
▁vulture	-11.4273
▁worthwhile	-11.4273
▁yonggary	-11.4273
▁agenda	-11.4273
▁austin	-11.4273
▁cooperation	-11.4273
▁festive	-11.4273
▁immortal	-11.4273
▁sixteen	-11.4273
▁snuck	-11.4273
▁starlite	-11.4273
▁tissue	-11.4273
▁trench	-11.4273
▁fernando	-11.4273
▁predator	-11.4273
▁paolo	-11.4273
▁hyena	-11.4273
▁repay	-11.4273
▁douglas	-11.4273
▁sidewalks	-11.4273
▁spike	-11.4273
▁gigantic	-11.4273
▁marakeet	-11.4273
▁blink	-11.4273
▁bullseye	-11.4273
▁coloss	-11.4273
▁welcoming	-11.4273
▁norwood	-11.4273
▁tribute	-11.4273
▁doctrine	-11.4273
▁spicy	-11.4273
▁sontee	-11.4273
▁graveyard	-11.4273
▁psychiatrist	-11.4273
▁stash	-11.4273
▁linus	-11.4273
▁atwater	-11.4273
▁expelled	-11.4273
▁chunk	-11.4273
▁charley	-11.4273
▁spectra	-11.4273
▁zeke	-11.4273
▁pesky	-11.4273
▁twitter	-11.4273
▁butterfree	-11.4273
rquez	-11.4273
▁ferry	-11.4273
▁subtle	-11.4274
▁drummer	-11.4274
▁laddie	-11.4274
▁craving	-11.4274
▁lottery	-11.4274
▁ashore	-11.4274
▁ivan	-11.4274
▁ginga	-11.4274
▁tyres	-11.4274
▁plow	-11.4274
▁batteries	-11.4275
▁operating	-11.4275
▁organization	-11.4275
▁vincent	-11.4275
▁hayley	-11.4275
▁stakeout	-11.4275
▁robberies	-11.4275
▁harmoni	-11.4276
▁pierce	-11.4276
▁piglet	-11.4276
▁duran	-11.4276
▁racial	-11.4277
▁randal	-11.4277
▁shabo	-11.4277
▁temptation	-11.4278
▁stix	-11.4278
▁feedback	-11.4278
▁munch	-11.4279
band	-11.4279
▁resignation	-11.4279
▁hark	-11.4279
▁manuel	-11.4279
▁benson	-11.428
▁waist	-11.428
▁pow	-11.428
▁maxwell	-11.428
▁tomatoes	-11.428
▁settlement	-11.4281
▁occasionally	-11.4281
▁countdown	-11.4281
▁karat	-11.4281
▁presidential	-11.4281
▁gloomy	-11.4281
▁thoroughly	-11.4282
▁moan	-11.4282
▁detector	-11.4282
▁improvement	-11.4282
▁diary	-11.4282
▁perish	-11.4282
▁replacement	-11.4282
▁scattered	-11.4282
▁marcia	-11.4283
▁puert	-11.4283
▁gunny	-11.4283
▁kang	-11.4283
▁sundown	-11.4283
▁batch	-11.4284
▁terry	-11.4285
▁travelling	-11.4285
▁snuffy	-11.4285
▁quitting	-11.4286
▁trini	-11.4286
▁breakdown	-11.4286
▁flown	-11.4287
▁countryside	-11.4287
▁iran	-11.4287
▁acquired	-11.4288
▁ceo	-11.4288
▁protective	-11.4289
▁sober	-11.4289
▁radical	-11.429
▁taxes	-11.429
▁invested	-11.4293
▁transformed	-11.4293
▁promoted	-11.4294
▁spank	-11.4294
▁growth	-11.4296
▁fearless	-11.4297
▁govern	-11.4297
▁restored	-11.4298
▁mmmmmm	-11.43
▁forgiveness	-11.4301
▁rates	-11.4301
▁photography	-11.4302
▁crooked	-11.4304
▁speeches	-11.4307
▁yul	-11.4307
▁slippery	-11.4308
▁sixty	-11.4308
▁applauds	-11.4308
▁hometown	-11.4309
▁barnes	-11.4309
▁tray	-11.4312
jan	-11.4314
▁iive	-11.4314
▁pos	-11.4316
▁dew	-11.4316
▁physically	-11.4318
▁threatening	-11.4322
▁mari	-11.4324
▁englishman	-11.4325
▁announced	-11.4328
▁thrilled	-11.4329
▁gained	-11.4329
▁mare	-11.433
▁ator	-11.433
ora	-11.4332
▁dennys	-11.4333
▁mustard	-11.4334
▁boiling	-11.4341
▁merit	-11.4342
▁maya	-11.4346
▁tuned	-11.435
▁goblins	-11.4351
▁regulations	-11.4351
▁dinging	-11.4354
▁stinking	-11.4358
▁visa	-11.4362
▁pancakes	-11.4365
▁pod	-11.4366
iga	-11.4369
▁taller	-11.4375
take	-11.4378
▁vitamins	-11.4379
▁sinners	-11.4379
▁beal	-11.4385
▁denying	-11.4387
▁peanuts	-11.4389
▁statues	-11.4389
rrr	-11.4397
▁mcki	-11.4419
▁cryin	-11.442
▁tunes	-11.4432
▁blocked	-11.4434
▁rushing	-11.4441
▁donkeys	-11.4445
▁bella	-11.4457
▁tal	-11.4459
▁takeoff	-11.4459
▁ref	-11.446
pot	-11.4462
▁fil	-11.4462
▁prob	-11.4464
▁votes	-11.4468
▁avoiding	-11.4468
▁climbed	-11.448
▁brazils	-11.4481
▁midst	-11.4482
▁murders	-11.4494
▁stare	-11.4497
▁greatness	-11.4499
▁hoof	-11.45
▁judged	-11.4503
▁vents	-11.4506
▁dragonballs	-11.4508
▁err	-11.4509
▁singers	-11.4514
▁mic	-11.4517
▁lure	-11.4517
▁employees	-11.4522
caf	-11.4528
oke	-11.4531
▁supported	-11.4536
anne	-11.4545
▁particles	-11.4551
▁bandy	-11.4551
aged	-11.4562
▁jap	-11.4564
▁ikes	-11.4567
▁posted	-11.4569
▁toots	-11.4595
name	-11.4606
▁ami	-11.4613
▁commanding	-11.4621
▁catholics	-11.4628
▁hips	-11.4633
▁dine	-11.4638
▁cod	-11.4644
▁divers	-11.4644
▁lid	-11.4647
▁napa	-11.4647
▁eli	-11.4649
coat	-11.4655
▁gran	-11.4659
▁allowing	-11.466
▁loo	-11.4676
▁designs	-11.4684
▁gae	-11.4694
▁nuns	-11.4696
▁scares	-11.4701
▁mont	-11.4703
▁towers	-11.4705
bone	-11.4708
▁hounds	-11.4714
▁emotion	-11.4721
▁trump	-11.4721
▁cooler	-11.4722
▁athlete	-11.4724
▁peasant	-11.4724
▁gorgonite	-11.4727
▁arrangement	-11.473
▁onion	-11.4731
▁temp	-11.4735
▁heresy	-11.4735
iness	-11.4753
▁contains	-11.4763
▁concerts	-11.4765
▁sara	-11.477
awa	-11.4773
▁arab	-11.4778
▁beliefs	-11.4798
▁greeting	-11.4801
gger	-11.4801
▁ger	-11.4833
▁counted	-11.4852
▁objects	-11.4857
▁flows	-11.486
▁logs	-11.4861
▁chang	-11.4866
▁snoo	-11.487
▁temperatures	-11.4872
▁contracts	-11.4873
ius	-11.4878
▁standards	-11.4886
ody	-11.4896
▁goals	-11.4899
▁annoy	-11.4904
▁lurk	-11.4905
▁sustain	-11.4911
▁fighters	-11.4916
▁flee	-11.4916
▁glide	-11.4917
▁humiliate	-11.4919
▁collapse	-11.4919
horse	-11.492
count	-11.4921
minute	-11.4921
lift	-11.4922
three	-11.4922
jack	-11.4925
▁install	-11.4926
▁increasing	-11.4927
▁trib	-11.4927
▁pest	-11.4929
▁pac	-11.4929
urban	-11.4931
▁poi	-11.4931
▁coco	-11.4932
will	-11.4935
storm	-11.4936
▁graz	-11.4937
▁outrage	-11.4938
mina	-11.4938
▁diploma	-11.4938
▁cove	-11.4939
▁vietnam	-11.4939
▁academic	-11.4939
▁allergic	-11.4939
▁angrily	-11.4939
▁anxiety	-11.4939
▁apprentice	-11.4939
▁approval	-11.4939
▁approximately	-11.4939
▁association	-11.4939
▁bachelor	-11.4939
▁blimey	-11.4939
▁brodsky	-11.4939
▁brookhaven	-11.4939
▁bunyan	-11.4939
▁caballeros	-11.4939
▁calendar	-11.4939
▁charmeleon	-11.4939
▁chauvet	-11.4939
▁chihuahua	-11.4939
▁chimpanzee	-11.4939
▁cognac	-11.4939
▁convincing	-11.4939
▁cripple	-11.4939
▁despise	-11.4939
▁dictionary	-11.4939
▁discreet	-11.4939
▁dogtective	-11.4939
▁eugene	-11.4939
▁explosiveskull	-11.4939
▁fingernail	-11.4939
▁fouquet	-11.4939
▁garrincha	-11.4939
▁generosity	-11.4939
▁goonches	-11.4939
▁graham	-11.4939
▁groovy	-11.4939
▁hilarious	-11.4939
▁hitchcock	-11.4939
▁immigrant	-11.4939
▁industries	-11.4939
▁infection	-11.4939
▁investigating	-11.4939
▁january	-11.4939
▁katrina	-11.4939
▁literary	-11.4939
▁loneliness	-11.4939
▁loretta	-11.4939
▁mechagodzilla	-11.4939
▁miraculous	-11.4939
▁mozart	-11.4939
▁paranoid	-11.4939
▁parkhurst	-11.4939
▁pluto	-11.4939
▁popcorn	-11.4939
▁providing	-11.4939
▁purgatory	-11.4939
▁recognise	-11.4939
▁satisfaction	-11.4939
▁striking	-11.4939
▁supernatural	-11.4939
▁swore	-11.4939
▁sylvester	-11.4939
▁sylvia	-11.4939
▁teresa	-11.4939
▁totoche	-11.4939
▁truffle	-11.4939
▁twig	-11.4939
▁universal	-11.4939
▁unnecessary	-11.4939
▁vaslov	-11.4939
▁virtue	-11.4939
▁yelps	-11.4939
▁yukimura	-11.4939
▁baggage	-11.4939
▁chakal	-11.4939
▁costello	-11.4939
▁decoration	-11.4939
▁domestic	-11.4939
▁holland	-11.4939
▁hysterical	-11.4939
▁monument	-11.4939
▁nonstop	-11.4939
▁seventeen	-11.4939
▁sikh	-11.4939
▁worldwide	-11.4939
▁margaret	-11.4939
▁sunrise	-11.4939
▁thrust	-11.4939
▁unarmed	-11.4939
▁whereabouts	-11.4939
▁smuggle	-11.4939
▁backstage	-11.4939
▁africanamerican	-11.4939
▁herald	-11.4939
▁yuri	-11.4939
▁conservative	-11.4939
▁reinforce	-11.4939
▁kungfu	-11.4939
▁barrier	-11.4939
▁morris	-11.4939
▁charlon	-11.4939
▁vocalizing	-11.494
▁rookie	-11.494
▁krys	-11.494
▁apron	-11.494
▁refrigerator	-11.494
▁maximum	-11.494
▁slumber	-11.494
▁clarence	-11.494
▁commentator	-11.494
▁descent	-11.494
▁denied	-11.494
▁stride	-11.494
▁sector	-11.494
▁slamming	-11.494
▁tension	-11.494
▁guidebook	-11.494
▁referring	-11.494
▁auction	-11.494
▁probation	-11.4941
▁conspiracy	-11.4941
▁riverhorse	-11.4941
▁achievement	-11.4941
▁chopped	-11.4941
▁mature	-11.4941
▁preston	-11.4941
▁yonder	-11.4941
▁whwhat	-11.4941
▁foam	-11.4941
▁gatlin	-11.4942
▁wallace	-11.4942
▁dumpster	-11.4942
▁kodi	-11.4942
▁computerized	-11.4942
▁oath	-11.4943
▁spaceship	-11.4943
▁jackpot	-11.4943
▁spitting	-11.4943
▁render	-11.4944
▁conductor	-11.4944
▁spooky	-11.4944
▁selection	-11.4944
▁hatred	-11.4945
▁kaos	-11.4945
▁jung	-11.4945
▁fatso	-11.4946
▁whizz	-11.4946
▁assigned	-11.4946
▁keg	-11.4946
▁debut	-11.4946
ido	-11.4946
▁glaive	-11.4946
▁shane	-11.4946
▁heathen	-11.4946
▁heartbreak	-11.4947
▁alcoholic	-11.4947
▁bake	-11.4947
▁pieta	-11.4947
flower	-11.4948
▁overwhelming	-11.4948
▁advertisement	-11.4948
▁devoted	-11.495
▁brid	-11.495
▁coverage	-11.495
▁aero	-11.495
▁carbonated	-11.495
▁churchill	-11.4951
▁conviction	-11.4951
▁touchdown	-11.4951
▁hyde	-11.4951
▁spotted	-11.4951
▁chord	-11.4951
terior	-11.4952
▁blackstone	-11.4953
▁ninety	-11.4953
▁alas	-11.4954
▁bellow	-11.4954
▁morales	-11.4955
▁dried	-11.4955
▁shep	-11.4956
▁summertime	-11.4956
▁distributed	-11.4957
▁sensational	-11.4957
▁berries	-11.4959
▁villagers	-11.4959
▁clucking	-11.496
▁gena	-11.496
▁endure	-11.4961
▁cens	-11.4963
▁stripes	-11.4963
▁vile	-11.4965
▁reschedule	-11.4965
▁reply	-11.4966
▁tackle	-11.4969
▁defy	-11.497
eat	-11.497
▁shivering	-11.4973
▁shutting	-11.4974
▁spellers	-11.4976
oku	-11.4976
▁pager	-11.4977
▁biscuits	-11.4977
▁surrounding	-11.4978
ould	-11.4979
▁crunching	-11.498
▁crashes	-11.4981
▁rl	-11.4982
▁eighth	-11.4987
▁restless	-11.4991
▁ville	-11.4991
▁whwh	-11.4995
▁sitter	-11.4995
▁woe	-11.4996
▁straining	-11.4997
▁described	-11.4997
▁awaiting	-11.4998
▁bursting	-11.5005
▁dame	-11.5012
▁originally	-11.5013
▁louise	-11.5014
▁rapid	-11.5017
▁thrilling	-11.5017
rich	-11.5018
▁kn	-11.5019
▁weirdo	-11.502
▁junkie	-11.5021
meter	-11.5024
▁smashed	-11.5024
▁volunteered	-11.5026
▁sharply	-11.5026
▁clacking	-11.5027
▁damaged	-11.5027
ille	-11.5031
▁zoom	-11.5034
▁we	-11.5034
▁chabots	-11.5038
▁approached	-11.504
▁jay	-11.5044
▁habits	-11.5044
▁correctly	-11.5052
▁zi	-11.5056
▁allies	-11.5069
▁carter	-11.5075
▁rad	-11.5077
▁finale	-11.5082
▁verse	-11.5083
▁gulps	-11.5084
lus	-11.5089
▁blamed	-11.5095
▁sucked	-11.5099
▁remov	-11.5109
shit	-11.5109
▁sour	-11.5113
▁politicians	-11.5114
key	-11.5116
▁checker	-11.5117
liest	-11.5119
cation	-11.5123
▁materials	-11.5124
▁lent	-11.5125
▁lifted	-11.5125
range	-11.5127
▁tougher	-11.5129
▁spectacles	-11.513
▁jape	-11.5136
nder	-11.5138
▁horny	-11.5138
▁chico	-11.5153
▁mun	-11.5155
▁catches	-11.516
▁trumps	-11.516
▁onions	-11.5161
issy	-11.5163
iable	-11.5166
▁mea	-11.5166
▁messy	-11.5168
▁rum	-11.5174
▁rebels	-11.5176
▁producers	-11.518
▁boxers	-11.518
ith	-11.5181
tone	-11.5184
▁reminder	-11.5186
▁doris	-11.5186
▁multi	-11.5186
▁nicest	-11.5195
▁marsh	-11.5207
come	-11.5218
▁gla	-11.5224
▁belts	-11.5231
▁tricked	-11.5248
▁shelly	-11.5251
▁methods	-11.5253
▁companions	-11.5253
▁contestants	-11.5253
▁slips	-11.526
gling	-11.5268
▁tshirts	-11.5268
tom	-11.5278
▁defender	-11.5281
▁scriptures	-11.5284
ray	-11.5299
▁pointed	-11.5316
chester	-11.5335
▁reporters	-11.5336
▁hale	-11.5338
▁zo	-11.5349
▁bio	-11.5368
▁belonging	-11.537
▁bea	-11.5379
▁scales	-11.5387
▁costumes	-11.5393
▁sponsors	-11.5394
titude	-11.5395
▁catcher	-11.5413
▁grounded	-11.5417
▁crocodile	-11.5435
▁baboon	-11.5438
▁gamma	-11.544
▁brace	-11.5442
▁worm	-11.5454
▁alto	-11.5482
▁ev	-11.5483
▁appearances	-11.5487
▁rage	-11.5489
lestine	-11.5491
▁playful	-11.5499
▁commando	-11.5506
bell	-11.5518
▁dragons	-11.5519
▁jewels	-11.5523
▁ama	-11.5529
ique	-11.5544
illion	-11.5544
▁birdie	-11.5548
hhh	-11.5564
ridge	-11.5565
any	-11.557
ughs	-11.5572
▁blond	-11.5574
▁elect	-11.5575
▁swam	-11.5586
▁riders	-11.5588
▁slowing	-11.5597
▁reservations	-11.5598
▁conv	-11.56
wling	-11.5609
▁shiver	-11.5618
▁indige	-11.5621
▁employ	-11.5623
know	-11.5623
▁inherit	-11.5625
▁relate	-11.5633
▁mast	-11.5634
historic	-11.5635
wheel	-11.5636
score	-11.5636
jump	-11.5636
dding	-11.5637
about	-11.5638
▁definite	-11.5641
fuck	-11.5643
level	-11.5646
▁weddin	-11.5649
▁nico	-11.5651
▁monstro	-11.5651
▁ion	-11.5652
▁marvel	-11.5653
▁automatic	-11.5653
▁irrit	-11.5653
▁crisp	-11.5653
▁frederick	-11.5653
▁manchukuo	-11.5653
▁pluck	-11.5653
▁precaution	-11.5653
▁quarrel	-11.5653
▁survey	-11.5653
▁affiliate	-11.5653
▁altogether	-11.5653
▁alyssa	-11.5653
▁athens	-11.5653
▁atlantic	-11.5653
▁austria	-11.5653
▁barbecue	-11.5653
▁bartender	-11.5653
▁bdawg	-11.5653
▁blindfold	-11.5653
▁bonanza	-11.5653
▁bounty	-11.5653
▁brenner	-11.5653
▁bulldozer	-11.5653
▁canadian	-11.5653
▁carlotta	-11.5653
▁carpenter	-11.5653
▁catastrophe	-11.5653
▁category	-11.5653
▁choosing	-11.5653
▁coigne	-11.5653
▁comparison	-11.5653
▁cottage	-11.5653
▁deception	-11.5653
▁decline	-11.5653
▁distiller	-11.5653
▁einstein	-11.5653
▁emptiness	-11.5653
▁erasmus	-11.5653
▁eunuch	-11.5653
▁examination	-11.5653
▁extension	-11.5653
▁fascist	-11.5653
▁flamethrower	-11.5653
▁frustrated	-11.5653
▁globe	-11.5653
▁gnome	-11.5653
▁gradually	-11.5653
▁grizelda	-11.5653
▁gurgling	-11.5653
▁hamburger	-11.5653
▁hiphop	-11.5653
▁huerta	-11.5653
▁ignorant	-11.5653
▁illustrious	-11.5653
▁insanity	-11.5653
▁julius	-11.5653
▁ketchum	-11.5653
▁landlord	-11.5653
▁meerkat	-11.5653
▁merchandise	-11.5653
▁mercury	-11.5653
▁ministry	-11.5653
▁minstrel	-11.5653
▁misunderstood	-11.5653
▁nebuchadnezzar	-11.5653
▁nectar	-11.5653
▁negro	-11.5653
▁nuisance	-11.5653
▁olympus	-11.5653
▁penthouse	-11.5653
▁pollinators	-11.5653
▁proclamation	-11.5653
▁propaganda	-11.5653
▁prosecution	-11.5653
▁rattlesnake	-11.5653
▁relevant	-11.5653
▁replacing	-11.5653
▁sasuke	-11.5653
▁sigrid	-11.5653
▁siwon	-11.5653
▁sought	-11.5653
▁spaghetti	-11.5653
▁spenlow	-11.5653
▁sphinx	-11.5653
▁sputtering	-11.5653
▁squat	-11.5653
▁stuttering	-11.5653
▁suicune	-11.5653
▁telugu	-11.5653
▁theatre	-11.5653
▁titanic	-11.5653
▁toothpaste	-11.5653
▁tremble	-11.5653
▁truce	-11.5653
▁tumbleweed	-11.5653
▁tweak	-11.5653
▁typewriter	-11.5653
▁underestimate	-11.5653
▁unpleasant	-11.5653
▁uptight	-11.5653
▁wharf	-11.5653
▁whiskers	-11.5653
▁zazz	-11.5653
▁ballerina	-11.5653
▁boulder	-11.5653
▁brutus	-11.5653
▁captive	-11.5653
▁exceed	-11.5653
▁massacre	-11.5653
▁metallic	-11.5653
▁muerte	-11.5653
▁pendant	-11.5653
▁vernon	-11.5653
▁coffin	-11.5653
▁yawning	-11.5653
▁chancellor	-11.5653
▁karl	-11.5653
▁knives	-11.5653
▁lenny	-11.5653
▁parasite	-11.5653
▁sperm	-11.5653
▁fiona	-11.5654
▁frolic	-11.5654
▁visible	-11.5654
▁bastion	-11.5654
▁millionaire	-11.5654
▁spades	-11.5654
▁spun	-11.5654
▁tidy	-11.5654
▁kettle	-11.5654
▁sonnet	-11.5654
▁mmmmmmmm	-11.5654
▁scumbag	-11.5654
▁seminar	-11.5654
▁redeem	-11.5654
▁lolly	-11.5654
▁rearrange	-11.5654
▁resent	-11.5654
▁consort	-11.5654
▁fading	-11.5654
▁refund	-11.5654
▁auburn	-11.5654
▁communities	-11.5654
▁geologist	-11.5654
▁brink	-11.5654
▁blaming	-11.5654
▁automatically	-11.5654
▁tsk	-11.5654
▁baroness	-11.5654
▁nerd	-11.5654
▁piace	-11.5654
▁singsong	-11.5654
▁intercom	-11.5654
▁rye	-11.5654
▁defence	-11.5654
▁kibble	-11.5654
▁diplomatic	-11.5654
▁transmitter	-11.5654
▁berlin	-11.5654
▁maori	-11.5654
▁banjo	-11.5654
▁errand	-11.5654
▁cellphone	-11.5655
▁parole	-11.5655
▁ibs	-11.5655
▁properties	-11.5655
▁aaaah	-11.5655
▁dumas	-11.5655
▁overboard	-11.5656
▁bruise	-11.5656
▁bondage	-11.5656
▁compassion	-11.5656
▁committing	-11.5656
▁roach	-11.5656
▁chatting	-11.5656
▁leadership	-11.5656
▁twitch	-11.5656
▁countess	-11.5657
▁bradley	-11.5657
▁trina	-11.5657
▁keyboard	-11.5657
▁fax	-11.5657
▁hardware	-11.5657
▁raul	-11.5657
▁spice	-11.5657
▁gallon	-11.5657
▁balan	-11.5657
▁laurence	-11.5657
▁defect	-11.5657
▁catfish	-11.5658
▁defendant	-11.5658
▁defenseless	-11.5658
▁chiid	-11.5658
▁renew	-11.5658
▁brock	-11.5658
▁whv	-11.5658
▁atom	-11.5658
▁skinner	-11.5658
▁retain	-11.5659
▁catholicism	-11.5659
▁petting	-11.5659
▁katia	-11.5659
▁mooch	-11.5659
▁hazel	-11.566
▁shred	-11.566
▁kris	-11.566
▁prediction	-11.5661
▁hence	-11.5661
▁strap	-11.5662
▁arne	-11.5662
shire	-11.5662
▁echoes	-11.5662
▁homicide	-11.5662
▁daring	-11.5662
▁notion	-11.5663
▁primary	-11.5663
▁cox	-11.5663
▁tripped	-11.5664
▁shipping	-11.5665
▁sympathy	-11.5665
hearted	-11.5665
▁highlight	-11.5666
▁migration	-11.5666
▁alter	-11.5666
▁priceless	-11.5666
▁rapidly	-11.5667
▁passage	-11.5667
▁lump	-11.5667
▁ramen	-11.5669
▁rump	-11.567
▁barge	-11.567
▁scratches	-11.567
▁translated	-11.5671
▁riverton	-11.5672
▁agony	-11.5672
▁warming	-11.5672
▁gorge	-11.5673
▁enchanted	-11.5673
▁heather	-11.5673
▁dna	-11.5673
▁stamped	-11.5674
▁brass	-11.5674
▁drago	-11.5674
▁collapsed	-11.5675
▁jamal	-11.5676
▁sandwiches	-11.5676
▁pickle	-11.5676
▁muck	-11.5679
▁foal	-11.5679
▁gem	-11.5679
▁horseback	-11.568
▁reduced	-11.568
▁foreigner	-11.5681
▁instantly	-11.5683
▁lawson	-11.5683
▁runway	-11.5684
▁cafe	-11.5684
▁juliet	-11.5684
▁buzzes	-11.5684
▁lined	-11.5685
▁unlikely	-11.5687
▁mentally	-11.5687
▁leftover	-11.5689
keep	-11.5694
▁doom	-11.5695
▁cooing	-11.5696
▁diner	-11.5699
▁oid	-11.5699
▁recovery	-11.5702
▁weeping	-11.5703
▁bree	-11.571
card	-11.5711
▁thumping	-11.5713
▁skilled	-11.5719
▁wink	-11.572
▁swamp	-11.5721
▁additional	-11.5724
oka	-11.5725
▁astro	-11.5726
▁quacking	-11.5727
▁signor	-11.5736
▁robbing	-11.5736
▁revealing	-11.5738
▁legally	-11.5739
▁scheduled	-11.5743
▁preparations	-11.5744
▁diapers	-11.5744
rest	-11.5747
▁haw	-11.575
▁are	-11.5752
▁drifting	-11.5753
▁viper	-11.5755
▁whims	-11.576
▁hopeful	-11.5764
▁overlook	-11.5766
▁willie	-11.577
tali	-11.5775
▁oysters	-11.5776
ific	-11.5779
▁taco	-11.578
▁cages	-11.5787
▁followers	-11.5792
▁veterans	-11.5793
▁attempted	-11.5793
▁perch	-11.5795
▁celebrated	-11.5797
▁kisses	-11.5803
▁challenged	-11.5806
▁stamps	-11.581
▁bosses	-11.5813
▁luk	-11.5815
▁bandage	-11.5819
tious	-11.5823
▁fuse	-11.5827
▁backside	-11.5828
▁musher	-11.583
▁crop	-11.5834
iyi	-11.5837
▁maneuvers	-11.5839
▁guil	-11.584
▁bla	-11.5841
▁homer	-11.5841
▁grat	-11.5845
lessness	-11.5846
▁dune	-11.5847
▁truthful	-11.5852
▁discussed	-11.5875
▁braces	-11.5875
▁nor	-11.588
▁thoughtful	-11.5886
mmer	-11.5893
▁ir	-11.5902
▁manure	-11.5904
▁diver	-11.5904
▁blooms	-11.5909
month	-11.5915
▁unc	-11.592
▁dealer	-11.5922
▁shepherds	-11.5925
▁swat	-11.5927
aud	-11.5927
ease	-11.593
hair	-11.5932
▁ranks	-11.5932
▁expenses	-11.5942
▁crooks	-11.5942
▁adding	-11.5946
▁unsu	-11.5955
▁builder	-11.5956
▁aaa	-11.5962
▁uncover	-11.5965
▁brood	-11.5965
▁posters	-11.5972
▁lan	-11.5973
mile	-11.5974
▁businesses	-11.5981
▁sor	-11.5992
▁regards	-11.6007
▁blades	-11.6008
▁missiles	-11.6009
▁nazis	-11.6013
▁brazilians	-11.6025
▁tc	-11.6027
▁dur	-11.6028
igi	-11.6031
▁pressing	-11.6037
izzi	-11.6038
▁nono	-11.604
▁demons	-11.6041
▁warriors	-11.6042
▁includes	-11.6043
fui	-11.6043
licit	-11.6048
▁tested	-11.6064
there	-11.6069
▁arguments	-11.6075
▁rehearsals	-11.6075
▁items	-11.6092
eating	-11.6108
▁specially	-11.6125
▁depths	-11.6143
▁tickles	-11.6143
▁shutters	-11.6143
dest	-11.6144
▁relaxed	-11.6151
▁braw	-11.6152
▁pon	-11.6158
chard	-11.6161
▁climber	-11.6162
▁groan	-11.6181
▁lightly	-11.6184
woo	-11.6194
osi	-11.6203
▁footprint	-11.6204
▁outdoor	-11.6204
▁insert	-11.6205
▁spectacle	-11.6206
▁guinea	-11.6208
▁vegetable	-11.6209
▁snob	-11.6221
▁intern	-11.6221
▁tourist	-11.6229
▁careless	-11.6231
▁km	-11.6231
▁packages	-11.6277
▁wil	-11.6277
▁spiders	-11.6279
▁ven	-11.6302
▁bananas	-11.6313
aye	-11.6314
▁fri	-11.6337
▁measures	-11.6371
▁invade	-11.6376
▁yahoo	-11.6381
friend	-11.6381
▁execution	-11.6388
▁oblig	-11.6388
▁shush	-11.6389
▁vip	-11.6393
▁wail	-11.6393
▁kilo	-11.6394
▁condemn	-11.6395
▁depart	-11.6396
▁boxer	-11.6398
mark	-11.6402
▁distribute	-11.6402
▁determine	-11.6403
▁donate	-11.6403
girl	-11.6404
warren	-11.6405
▁combine	-11.6405
▁toll	-11.6406
▁snuff	-11.6408
etic	-11.6409
front	-11.6409
▁poof	-11.6411
▁intens	-11.6412
plant	-11.6412
pata	-11.6413
▁utter	-11.6415
▁stitch	-11.6416
▁refuge	-11.6416
ternal	-11.642
▁melanchol	-11.642
▁regime	-11.6421
gorically	-11.6421
▁enforce	-11.6422
▁antoine	-11.6423
▁ascend	-11.6423
oksanochka	-11.6423
▁abraham	-11.6423
▁alligator	-11.6423
▁ambush	-11.6423
▁anyplace	-11.6423
▁apprehend	-11.6423
▁barbarian	-11.6423
▁bathtub	-11.6423
▁blenac	-11.6423
▁bubbling	-11.6423
▁cautious	-11.6423
▁charleshenri	-11.6423
▁chauffeur	-11.6423
▁cochiloco	-11.6423
▁commodore	-11.6423
▁compensation	-11.6423
▁congregation	-11.6423
▁conservation	-11.6423
▁contraption	-11.6423
▁convenience	-11.6423
▁cradle	-11.6423
▁credibility	-11.6423
▁crusade	-11.6423
▁cuckoo	-11.6423
▁curfew	-11.6423
▁defensive	-11.6423
▁destined	-11.6423
▁detroit	-11.6423
▁donnybrook	-11.6423
▁doughnut	-11.6423
▁draculaura	-11.6423
▁dubovsky	-11.6423
▁elegance	-11.6423
▁emissary	-11.6423
▁equipped	-11.6423
▁escaping	-11.6423
▁faggot	-11.6423
▁fitzgerald	-11.6423
▁frustrating	-11.6423
▁grandparents	-11.6423
▁graphic	-11.6423
▁humiliating	-11.6423
▁hypnoray	-11.6423
▁identical	-11.6423
▁ignoring	-11.6423
▁improving	-11.6423
▁infinity	-11.6423
▁infrared	-11.6423
▁injustice	-11.6423
▁inquisition	-11.6423
▁instagram	-11.6423
▁juvenile	-11.6423
▁kalahari	-11.6423
▁katherine	-11.6423
▁khaku	-11.6423
▁kumonga	-11.6423
▁marshmallow	-11.6423
▁mcewen	-11.6423
▁michelangelo	-11.6423
▁munich	-11.6423
▁muslim	-11.6423
▁nebraska	-11.6423
▁nicholson	-11.6423
▁nonenglish	-11.6423
▁octopus	-11.6423
▁offshore	-11.6423
▁offspring	-11.6423
▁omega	-11.6423
▁papoose	-11.6423
▁provision	-11.6423
▁railroad	-11.6423
▁receiving	-11.6423
▁reconsider	-11.6423
▁rutland	-11.6423
▁secrecy	-11.6423
▁shelf	-11.6423
▁slykes	-11.6423
▁souvenir	-11.6423
▁stunning	-11.6423
▁substance	-11.6423
▁sundancer	-11.6423
▁surveillance	-11.6423
▁tardone	-11.6423
▁tavern	-11.6423
▁tennessee	-11.6423
▁tokugawa	-11.6423
▁toxic	-11.6423
▁tranquil	-11.6423
▁twerp	-11.6423
▁ungrateful	-11.6423
▁unlimited	-11.6423
▁vulnerable	-11.6423
▁waffle	-11.6423
▁wilhelm	-11.6423
▁wunko	-11.6423
▁amanda	-11.6423
▁analyze	-11.6423
▁appalled	-11.6423
▁boarst	-11.6423
▁cocksucker	-11.6423
▁crail	-11.6423
▁dearborne	-11.6423
▁disorder	-11.6423
▁grouch	-11.6423
▁maestro	-11.6423
▁mumbai	-11.6423
▁occupation	-11.6423
▁paisley	-11.6423
▁profound	-11.6423
▁savior	-11.6423
▁spunky	-11.6423
▁squish	-11.6423
▁trifle	-11.6423
▁dainty	-11.6423
▁dominate	-11.6423
▁shotgun	-11.6423
▁vanilla	-11.6423
▁vomit	-11.6423
▁dictate	-11.6423
▁panchos	-11.6423
▁rosita	-11.6423
▁clunk	-11.6423
▁dork	-11.6423
▁lewis	-11.6423
▁entei	-11.6423
▁kusum	-11.6423
▁seaweed	-11.6423
▁terrifying	-11.6423
▁plateau	-11.6423
▁sneer	-11.6423
▁memorize	-11.6423
▁lachman	-11.6423
▁deuce	-11.6423
▁eighteen	-11.6423
▁donne	-11.6423
▁inmates	-11.6423
▁opposition	-11.6423
▁compound	-11.6423
▁aspirin	-11.6423
▁downstream	-11.6423
▁clarinet	-11.6423
▁jingling	-11.6423
▁josie	-11.6423
▁courtesy	-11.6423
▁mollie	-11.6423
▁mischief	-11.6423
▁unfold	-11.6423
▁algeria	-11.6423
▁lhc	-11.6423
▁jensen	-11.6423
▁stern	-11.6423
▁braying	-11.6423
▁moines	-11.6423
▁oska	-11.6423
▁prettier	-11.6423
▁lucille	-11.6423
▁overflow	-11.6423
▁blares	-11.6423
▁crib	-11.6423
▁naomi	-11.6423
▁prompt	-11.6423
▁scram	-11.6423
▁francesco	-11.6423
▁recess	-11.6423
▁sculpture	-11.6423
▁undertake	-11.6423
▁excessive	-11.6423
▁ravenwood	-11.6423
▁britain	-11.6423
▁download	-11.6423
▁scope	-11.6423
▁obama	-11.6423
▁widowmaker	-11.6423
▁revoir	-11.6423
▁sunnyside	-11.6423
▁rumba	-11.6423
▁steward	-11.6423
▁dorri	-11.6423
▁fuji	-11.6424
▁jockey	-11.6424
▁console	-11.6424
▁kiwi	-11.6424
▁theories	-11.6424
▁ellis	-11.6424
▁carbonation	-11.6424
▁mugger	-11.6424
▁dorm	-11.6424
▁pendragon	-11.6424
▁discount	-11.6424
▁offence	-11.6424
▁alexandr	-11.6424
▁eldest	-11.6424
▁niju	-11.6424
▁lalala	-11.6424
▁waving	-11.6424
▁chemo	-11.6424
▁fiji	-11.6424
▁homesteaders	-11.6424
▁rogue	-11.6424
▁altitude	-11.6424
▁rudi	-11.6424
▁vava	-11.6424
▁whiff	-11.6424
▁felon	-11.6424
▁phenomenal	-11.6425
▁neutral	-11.6425
▁ashford	-11.6425
▁jody	-11.6425
▁investment	-11.6425
▁solene	-11.6425
▁venus	-11.6425
▁funniest	-11.6425
▁granddaddy	-11.6425
▁wildlife	-11.6425
▁panama	-11.6425
▁omar	-11.6425
▁whoohoohoo	-11.6425
▁sniffling	-11.6425
▁stav	-11.6425
▁duk	-11.6425
▁banish	-11.6425
▁navid	-11.6426
▁superstar	-11.6426
▁masterpiece	-11.6426
▁prospect	-11.6426
▁forehead	-11.6426
▁rodan	-11.6426
▁glimpse	-11.6426
▁quant	-11.6426
▁crowley	-11.6426
▁wizard	-11.6426
▁recite	-11.6426
▁hungary	-11.6427
▁brute	-11.6427
▁railway	-11.6427
▁robinson	-11.6427
▁hors	-11.6427
▁gabe	-11.6427
▁psychic	-11.6427
▁forgery	-11.6427
▁admiralty	-11.6427
▁classified	-11.6427
▁gangster	-11.6427
▁jespah	-11.6428
▁kung	-11.6428
▁cuch	-11.6428
▁polo	-11.6428
▁ugo	-11.6428
▁tipper	-11.6428
▁genie	-11.6428
nosed	-11.6429
▁anders	-11.6429
▁rash	-11.6429
▁poisonous	-11.6429
▁khan	-11.6429
▁warlock	-11.6429
▁wate	-11.6429
▁toyland	-11.6429
▁harmless	-11.643
▁accidentally	-11.643
▁jiggl	-11.643
▁conni	-11.6431
▁bowerman	-11.6431
▁neil	-11.6431
▁booga	-11.6431
▁babysit	-11.6431
▁kano	-11.6431
▁broom	-11.6433
▁sipes	-11.6433
▁evolved	-11.6433
▁subway	-11.6434
▁dart	-11.6434
▁grownup	-11.6435
▁stranded	-11.6435
▁seism	-11.6435
▁facebook	-11.6436
▁lsnt	-11.6436
▁iceland	-11.6437
▁marita	-11.6437
▁franklin	-11.6437
▁decoy	-11.6437
▁geese	-11.6438
▁permanently	-11.6439
▁stepping	-11.6439
▁endangered	-11.6439
▁colorful	-11.644
▁chump	-11.644
▁stealth	-11.644
▁pep	-11.644
▁hiram	-11.6441
▁strangled	-11.6441
▁fries	-11.6442
▁bien	-11.6443
▁assembled	-11.6444
▁eternally	-11.6446
▁humiliated	-11.6446
▁dice	-11.6447
▁stine	-11.6448
enstein	-11.6449
▁liza	-11.645
▁eee	-11.645
▁rolfe	-11.6452
▁havin	-11.6452
▁examined	-11.6453
▁elliott	-11.6454
▁peek	-11.6457
▁headline	-11.6457
▁convicted	-11.6457
▁offended	-11.6458
▁warden	-11.6458
▁retired	-11.6458
▁vp	-11.6458
▁rue	-11.6458
▁goshen	-11.6458
▁shushing	-11.6459
▁standby	-11.6459
▁cind	-11.646
▁robby	-11.6463
▁emotionally	-11.6464
▁lurking	-11.6464
▁lime	-11.6466
▁hormones	-11.6467
▁soaked	-11.6468
▁attracted	-11.6473
▁baked	-11.6474
▁wiser	-11.6475
▁bombers	-11.6476
▁chessy	-11.6476
▁spite	-11.6478
▁amy	-11.6479
▁affected	-11.6479
▁bullfighter	-11.6484
▁shitty	-11.6484
cio	-11.6485
▁erin	-11.6486
heat	-11.6487
▁pry	-11.6488
vus	-11.6491
▁sneaky	-11.6493
▁breeding	-11.6493
iddle	-11.6494
▁insulted	-11.65
▁dieter	-11.65
▁steering	-11.6502
▁accusations	-11.6503
▁scraping	-11.6503
▁cann	-11.6504
▁policeman	-11.6507
▁lib	-11.6507
▁brig	-11.6511
list	-11.652
▁assumed	-11.6522
▁engineering	-11.6523
▁wisely	-11.6525
▁healing	-11.6525
▁magneto	-11.6529
lap	-11.6531
▁fling	-11.6533
▁cheated	-11.6538
▁varmints	-11.6538
▁hai	-11.6539
▁unite	-11.6543
▁ford	-11.6551
▁blossoms	-11.6556
▁tinkl	-11.6561
▁hmmm	-11.6561
▁sickle	-11.6563
▁interrupting	-11.6563
▁freeman	-11.657
▁lotte	-11.6572
▁marbles	-11.6574
▁explorer	-11.6574
▁poisoning	-11.6581
▁spying	-11.6583
vere	-11.6584
▁disappearing	-11.6586
wan	-11.659
mobile	-11.6592
▁shocking	-11.6607
▁voted	-11.6608
▁sleeves	-11.6609
▁anton	-11.6618
▁believers	-11.6621
▁switched	-11.6626
▁planted	-11.6629
▁risky	-11.6632
▁conditioning	-11.6639
dam	-11.6643
▁tying	-11.6663
▁luca	-11.6672
▁poke	-11.6675
▁salesman	-11.6685
▁cork	-11.6687
▁ruining	-11.6691
▁critic	-11.6699
▁geraniums	-11.6699
▁mori	-11.6715
▁madly	-11.6717
▁pulses	-11.6717
▁dent	-11.6723
▁elders	-11.6731
▁gorillas	-11.6735
▁lea	-11.6737
gel	-11.6752
▁runners	-11.6754
▁partal	-11.6758
▁mop	-11.6771
▁balloons	-11.6771
▁amigos	-11.6771
▁evan	-11.6786
▁resident	-11.6789
▁sneezes	-11.6789
▁shorty	-11.6795
▁shhh	-11.6809
▁nob	-11.6811
▁forming	-11.6823
ulation	-11.6836
▁gladly	-11.6851
▁plato	-11.6854
▁guarded	-11.6865
▁disk	-11.6881
▁princey	-11.6891
▁fishy	-11.6891
▁dw	-11.6896
▁bak	-11.6898
▁wilder	-11.6908
▁positioning	-11.691
▁hooker	-11.692
▁victoria	-11.6921
▁newman	-11.6924
asian	-11.6941
▁parked	-11.6964
mere	-11.6968
▁lash	-11.697
▁troop	-11.6978
def	-11.6997
▁peer	-11.7001
▁tracker	-11.7004
▁jun	-11.7006
▁brook	-11.7008
▁moi	-11.701
▁grunt	-11.7011
rig	-11.7027
▁horri	-11.7029
▁coconut	-11.7038
▁politician	-11.7039
▁phillip	-11.7042
▁maneuver	-11.7043
▁ancestor	-11.7043
▁brake	-11.7072
vel	-11.7081
▁caf	-11.7097
▁maniac	-11.7122
▁sca	-11.7125
dad	-11.7145
nage	-11.7156
ort	-11.7183
▁grieve	-11.7185
▁bullfight	-11.719
▁experienc	-11.7194
▁scal	-11.7197
▁instruct	-11.7198
▁rankin	-11.7199
when	-11.7208
▁mourn	-11.722
▁clink	-11.7221
▁perse	-11.7224
▁transform	-11.7226
▁invest	-11.7226
▁flick	-11.7231
reen	-11.7233
▁deco	-11.7234
▁assemble	-11.7236
▁translate	-11.7236
▁hyper	-11.7236
▁plea	-11.7237
quot	-11.7238
directly	-11.7238
thirsty	-11.7238
mouth	-11.7238
worm	-11.7238
▁thorough	-11.7244
ison	-11.7245
▁predict	-11.7245
thank	-11.7247
▁inventor	-11.7248
▁seduc	-11.7249
▁accelerat	-11.725
▁drivin	-11.7251
▁dancin	-11.7251
wash	-11.7251
▁kiddin	-11.7252
▁transmit	-11.7254
▁influen	-11.7254
▁giddy	-11.7255
▁architect	-11.7255
woman	-11.7255
▁physi	-11.7256
▁strangle	-11.7256
▁scaffold	-11.7256
▁disrupt	-11.7256
▁harbour	-11.7256
▁ignit	-11.7256
▁sprout	-11.7256
▁surviving	-11.7256
▁acastus	-11.7256
▁afghanistan	-11.7256
▁alliance	-11.7256
▁amazon	-11.7256
▁apologizing	-11.7256
▁aristo	-11.7256
▁artifact	-11.7256
▁artillery	-11.7256
▁assimilate	-11.7256
▁astronomy	-11.7256
▁asylum	-11.7256
▁attaboy	-11.7256
▁authentic	-11.7256
▁autopsy	-11.7256
▁balthazar	-11.7256
▁bankrupt	-11.7256
▁bannister	-11.7256
▁barcelona	-11.7256
▁bourbon	-11.7256
▁brezhnev	-11.7256
▁budapest	-11.7256
▁cactus	-11.7256
▁celebrities	-11.7256
▁celsius	-11.7256
▁chemistry	-11.7256
▁cinnamon	-11.7256
▁ciolino	-11.7256
▁competitive	-11.7256
▁concentration	-11.7256
▁cupcake	-11.7256
▁deputies	-11.7256
▁desirable	-11.7256
▁determination	-11.7256
▁devotion	-11.7256
▁diphtheria	-11.7256
▁dissolve	-11.7256
▁dobson	-11.7256
▁driscoll	-11.7256
▁elaheh	-11.7256
▁emmanuelle	-11.7256
▁encouraging	-11.7256
▁ermengarde	-11.7256
▁exotic	-11.7256
▁exposure	-11.7256
▁facility	-11.7256
▁fantasies	-11.7256
▁february	-11.7256
▁folger	-11.7256
▁fritz	-11.7256
▁gabriel	-11.7256
▁garrison	-11.7256
▁generator	-11.7256
▁genevieve	-11.7256
▁gurdy	-11.7256
▁halliwell	-11.7256
▁handwriting	-11.7256
▁hurrah	-11.7256
▁immunity	-11.7256
▁intact	-11.7256
▁jethro	-11.7256
▁jotham	-11.7256
▁jupiter	-11.7256
▁leyasu	-11.7256
▁lobster	-11.7256
▁lollipop	-11.7256
▁misfortune	-11.7256
▁mississippi	-11.7256
▁mistletoe	-11.7256
▁munroe	-11.7256
▁murphy	-11.7256
▁notorious	-11.7256
▁oklahoma	-11.7256
▁orgasm	-11.7256
▁pajamas	-11.7256
▁paramount	-11.7256
▁parliament	-11.7256
▁philadelphia	-11.7256
▁physicist	-11.7256
▁prejudice	-11.7256
▁preliminar	-11.7256
▁presidency	-11.7256
▁pyramid	-11.7256
▁rainforest	-11.7256
▁rebellion	-11.7256
▁receipt	-11.7256
▁regain	-11.7256
▁saemonnosuke	-11.7256
▁schmauss	-11.7256
▁schuyler	-11.7256
▁scissors	-11.7256
▁seagulls	-11.7256
▁seizure	-11.7256
▁shabbes	-11.7256
▁stratton	-11.7256
▁sufficient	-11.7256
▁superstition	-11.7256
▁superstitious	-11.7256
▁teardrop	-11.7256
▁temperament	-11.7256
▁tequila	-11.7256
▁thunderclap	-11.7256
▁toothbrush	-11.7256
▁treacherous	-11.7256
▁tremor	-11.7256
▁troubling	-11.7256
▁twilight	-11.7256
▁vegetarian	-11.7256
▁whilst	-11.7256
▁whitney	-11.7256
▁winsiow	-11.7256
▁wondrous	-11.7256
▁wrestling	-11.7256
▁wyoming	-11.7256
▁youtube	-11.7256
▁zombie	-11.7256
▁daemon	-11.7256
▁dolores	-11.7256
▁esteem	-11.7256
▁gavin	-11.7256
▁humbly	-11.7256
▁luanu	-11.7256
▁nashville	-11.7256
▁olaf	-11.7256
▁parlor	-11.7256
▁scandal	-11.7256
▁slob	-11.7256
▁snail	-11.7256
▁terrain	-11.7256
▁token	-11.7256
▁torment	-11.7256
▁cairo	-11.7256
▁corral	-11.7256
▁hardcore	-11.7256
▁illinois	-11.7256
▁milkweed	-11.7256
▁sauna	-11.7256
▁stax	-11.7256
▁stench	-11.7256
▁conrad	-11.7256
▁dennis	-11.7256
▁essence	-11.7256
▁fourteen	-11.7256
▁shaky	-11.7256
▁squid	-11.7256
▁trek	-11.7256
▁vlad	-11.7256
▁bandaid	-11.7256
▁urmi	-11.7256
▁vichy	-11.7256
▁canvas	-11.7256
▁parallel	-11.7256
▁vertical	-11.7256
▁ahyuck	-11.7256
▁bugging	-11.7256
dominant	-11.7256
▁cloak	-11.7256
▁delusion	-11.7256
▁winnie	-11.7256
▁atlas	-11.7256
voya	-11.7256
▁lundie	-11.7256
▁tesla	-11.7256
▁steinberg	-11.7256
bowwow	-11.7256
▁sgt	-11.7256
▁slit	-11.7256
▁distribution	-11.7256
▁zahara	-11.7256
▁mandela	-11.7256
▁piay	-11.7256
▁townspeople	-11.7256
▁menacing	-11.7256
▁housing	-11.7256
▁stemm	-11.7256
▁residence	-11.7256
posito	-11.7256
▁kidneys	-11.7256
▁yarn	-11.7256
▁intercept	-11.7256
▁irina	-11.7256
▁norway	-11.7256
▁piease	-11.7256
▁consistent	-11.7257
▁beckwith	-11.7257
▁freight	-11.7257
▁ardent	-11.7257
▁harold	-11.7257
▁notify	-11.7257
▁regal	-11.7257
▁practising	-11.7257
artik	-11.7257
▁kiki	-11.7257
▁opium	-11.7257
▁panicked	-11.7257
▁biological	-11.7257
▁fiery	-11.7257
▁outrun	-11.7257
▁kiko	-11.7257
▁representative	-11.7258
▁willow	-11.7258
▁hiking	-11.7258
▁orbit	-11.7258
▁motto	-11.7258
▁flashlight	-11.7258
▁xray	-11.7258
▁blush	-11.7258
▁esther	-11.7258
▁giddyup	-11.7258
rift	-11.7258
▁involvement	-11.7258
▁glance	-11.7258
▁annette	-11.7258
▁tryouts	-11.7258
▁terr	-11.7258
▁hassle	-11.7258
▁bertha	-11.7259
▁slapped	-11.7259
▁frequently	-11.7259
▁arise	-11.7259
▁verge	-11.7259
▁porch	-11.7259
▁fillmore	-11.7259
▁mijo	-11.7259
▁trotter	-11.7259
▁zito	-11.7259
▁reformers	-11.7259
▁slipping	-11.7259
▁boredom	-11.7259
▁cruising	-11.726
▁elmer	-11.726
▁trois	-11.726
▁dietz	-11.726
▁preferred	-11.726
▁mirage	-11.726
▁inflat	-11.726
▁blot	-11.726
▁typing	-11.726
▁hamster	-11.726
▁mammal	-11.726
▁misha	-11.7261
▁tosh	-11.7261
▁factories	-11.7261
▁barron	-11.7262
▁rodent	-11.7262
▁casa	-11.7262
▁iq	-11.7263
▁acquainted	-11.7264
▁jock	-11.7264
▁toid	-11.7264
▁overwhelmed	-11.7265
▁travelled	-11.7265
▁oory	-11.7266
▁hort	-11.7266
▁sync	-11.7266
▁furry	-11.7266
▁checkpoint	-11.7267
▁shipped	-11.7267
▁activated	-11.7268
▁checkmate	-11.7269
▁purge	-11.7269
▁zion	-11.7269
▁swirled	-11.7269
▁tomley	-11.727
ifies	-11.727
▁continental	-11.727
▁pj	-11.727
▁organic	-11.727
▁parisian	-11.7271
▁executed	-11.7271
▁sway	-11.7272
▁drumming	-11.7272
▁stance	-11.7273
why	-11.7273
▁latch	-11.7274
▁rodeo	-11.7275
▁petersen	-11.7275
▁nile	-11.7277
▁invaded	-11.7278
▁diesel	-11.7279
▁pasture	-11.7279
▁soaring	-11.728
▁leeman	-11.728
▁relatively	-11.7281
▁clearance	-11.7281
▁adjusted	-11.7282
▁peterson	-11.7283
▁partial	-11.7285
▁acceptable	-11.7285
▁disconnect	-11.7285
ilia	-11.7285
▁koh	-11.7286
▁departed	-11.7286
▁favorable	-11.7286
▁dona	-11.7288
▁porno	-11.7288
▁warmth	-11.729
▁dougie	-11.729
mmel	-11.7292
▁educational	-11.7293
▁choked	-11.7293
talk	-11.7294
▁auguste	-11.7295
▁salon	-11.7297
▁tolling	-11.7297
▁plumber	-11.7297
▁dollart	-11.7298
▁shattered	-11.7299
▁coachman	-11.73
▁smartest	-11.7303
▁janet	-11.7306
▁regarded	-11.7309
▁thumper	-11.7309
▁dc	-11.7313
▁yeller	-11.7313
▁arse	-11.7314
▁funding	-11.7316
▁loom	-11.7316
▁preaching	-11.7321
iate	-11.7322
▁duel	-11.7322
▁toothy	-11.7322
▁shillings	-11.7324
▁regarding	-11.7325
▁mining	-11.7325
▁madman	-11.7332
▁ole	-11.7332
▁wal	-11.7333
▁orin	-11.7334
turn	-11.7334
▁duet	-11.7335
▁northeast	-11.7337
▁linked	-11.7338
▁sab	-11.7339
▁buses	-11.7342
▁healed	-11.7343
▁hiccups	-11.7343
▁knuckles	-11.7343
▁inning	-11.7352
path	-11.7353
▁miners	-11.7355
▁corny	-11.7356
▁licking	-11.7358
▁flute	-11.7359
▁awarded	-11.7362
▁tossed	-11.7362
▁nicky	-11.7364
▁cursed	-11.7368
▁slash	-11.7379
▁aspects	-11.7382
▁gall	-11.7382
▁wrecking	-11.7384
▁launching	-11.7387
▁poisoned	-11.7389
▁stretched	-11.7398
▁nude	-11.7401
▁spared	-11.7403
▁manny	-11.7404
▁injuns	-11.7421
▁berate	-11.7422
▁desired	-11.7423
▁spoiling	-11.7428
▁boost	-11.7431
▁vouch	-11.7437
▁conditioned	-11.7439
▁jumpin	-11.7439
▁cocktails	-11.744
bellie	-11.7441
▁terrorists	-11.7441
▁wits	-11.7445
▁loot	-11.7448
▁comm	-11.7456
▁skiing	-11.7463
▁numer	-11.7465
▁tighten	-11.7469
▁lala	-11.7471
nu	-11.7477
▁crowing	-11.7478
▁coconuts	-11.7479
▁tighter	-11.7479
▁marsha	-11.7481
▁richer	-11.7484
▁critics	-11.7486
▁with	-11.7489
▁loading	-11.7492
tomi	-11.7499
▁inserts	-11.7499
▁footprints	-11.7499
▁outdoors	-11.7499
▁poo	-11.75
▁letha	-11.7503
▁pasta	-11.751
▁paula	-11.7513
start	-11.7514
▁crocodiles	-11.7518
▁poking	-11.7525
▁riches	-11.7536
▁wd	-11.7552
▁youngsters	-11.7558
▁foe	-11.7562
▁skaters	-11.7567
zel	-11.7579
▁starters	-11.758
▁socialist	-11.7586
▁cornered	-11.76
▁meaningless	-11.7618
▁clar	-11.7628
▁sharpen	-11.763
▁fallin	-11.7633
▁amor	-11.7642
▁nooo	-11.7643
▁classy	-11.7644
shape	-11.7645
▁cutie	-11.766
▁mort	-11.7675
▁petit	-11.7707
▁bugle	-11.7716
▁skier	-11.7734
▁hoop	-11.7742
city	-11.775
remi	-11.776
ggle	-11.776
▁jin	-11.7762
hold	-11.7788
aki	-11.7795
pha	-11.7808
▁fasten	-11.7808
▁eco	-11.7809
▁etc	-11.7813
▁croc	-11.7848
▁malo	-11.7855
▁warmer	-11.7856
huh	-11.7864
▁asia	-11.7885
▁optimist	-11.7924
▁sleeve	-11.7948
▁grape	-11.7953
▁scrape	-11.7977
▁instruction	-11.798
▁chee	-11.7981
▁por	-11.7982
▁iv	-11.7987
▁mot	-11.7988
▁stoned	-11.7991
▁mow	-11.8002
▁bre	-11.8014
minded	-11.8022
night	-11.8029
▁rach	-11.8051
▁sou	-11.8052
▁blur	-11.8077
▁oi	-11.8088
rov	-11.8088
▁logic	-11.8092
▁topic	-11.8093
▁decid	-11.8099
▁axe	-11.8101
▁murmur	-11.8102
oon	-11.8113
▁disrespect	-11.8121
▁snor	-11.8125
▁whirl	-11.8129
▁writ	-11.8129
▁rolf	-11.8131
▁plac	-11.8132
▁adjust	-11.8136
▁neglect	-11.8137
▁dismiss	-11.8138
proof	-11.8138
▁did	-11.8143
lookin	-11.8144
▁accuse	-11.8145
bury	-11.8147
white	-11.8147
ppe	-11.8148
▁should	-11.8148
track	-11.8149
▁filth	-11.8152
theyre	-11.8152
▁fluff	-11.8153
▁exclusive	-11.8153
neck	-11.8155
▁rick	-11.8155
after	-11.8156
▁fend	-11.8157
uction	-11.8158
▁trespass	-11.8158
▁interact	-11.816
▁twit	-11.8161
▁inject	-11.8161
▁counsel	-11.8162
▁norm	-11.8163
▁wouid	-11.8164
▁monte	-11.8164
▁euro	-11.8164
ular	-11.8164
▁gamb	-11.8164
▁clermont	-11.8165
▁ethiopia	-11.8165
▁shuffl	-11.8165
▁simpson	-11.8165
▁acoustic	-11.8165
▁advancing	-11.8165
▁alphabatical	-11.8165
▁arthritis	-11.8165
▁astronaut	-11.8165
▁athletic	-11.8165
▁atlantis	-11.8165
▁belgium	-11.8165
▁bouquet	-11.8165
▁brotherinlaw	-11.8165
▁budderball	-11.8165
▁buzhardt	-11.8165
▁cambridge	-11.8165
▁caramba	-11.8165
▁clifton	-11.8165
▁confusion	-11.8165
▁contemporary	-11.8165
▁coraz	-11.8165
▁cyclops	-11.8165
▁devastating	-11.8165
▁diablo	-11.8165
▁dilemma	-11.8165
▁disadvantage	-11.8165
▁disastrous	-11.8165
▁discouraged	-11.8165
▁dominion	-11.8165
▁dovlatov	-11.8165
▁duchannes	-11.8165
▁dynamic	-11.8165
▁ecstasy	-11.8165
▁elaborate	-11.8165
▁electromagneti	-11.8165
▁elixir	-11.8165
▁enterprise	-11.8165
▁extinguish	-11.8165
▁exwife	-11.8165
▁eyebrows	-11.8165
▁facial	-11.8165
▁falkor	-11.8165
▁felicia	-11.8165
▁fraction	-11.8165
▁galaxy	-11.8165
▁gauge	-11.8165
▁georgia	-11.8165
▁giddap	-11.8165
▁goodfornothing	-11.8165
▁handcuff	-11.8165
▁handkerchief	-11.8165
▁hector	-11.8165
▁hossein	-11.8165
▁humiliation	-11.8165
▁ieave	-11.8165
▁imagining	-11.8165
▁injuries	-11.8165
▁isolated	-11.8165
▁jeopardize	-11.8165
▁jonathan	-11.8165
▁jubilee	-11.8165
▁keiying	-11.8165
▁lacrique	-11.8165
▁leprosy	-11.8165
▁lmpossible	-11.8165
▁lucifer	-11.8165
▁mammoth	-11.8165
▁mastronardi	-11.8165
▁mcgirk	-11.8165
▁meerut	-11.8165
▁mercedes	-11.8165
▁moderate	-11.8165
▁murdoch	-11.8165
▁nelda	-11.8165
▁nonetheless	-11.8165
▁norwegian	-11.8165
▁offensive	-11.8165
▁oozaru	-11.8165
▁orchid	-11.8165
▁ordeal	-11.8165
▁overseas	-11.8165
▁pellegrini	-11.8165
▁pentecostal	-11.8165
▁persecuted	-11.8165
▁phenomenon	-11.8165
▁pomegranate	-11.8165
▁porcupine	-11.8165
▁portuguese	-11.8165
▁producing	-11.8165
▁prosecute	-11.8165
▁province	-11.8165
▁radiation	-11.8165
▁rafferty	-11.8165
▁reggie	-11.8165
▁registration	-11.8165
▁revision	-11.8165
▁rewrite	-11.8165
▁roxeanne	-11.8165
▁rutherford	-11.8165
▁schroeder	-11.8165
▁semester	-11.8165
▁sensual	-11.8165
▁sequence	-11.8165
▁seriozha	-11.8165
▁sheldon	-11.8165
▁shudder	-11.8165
▁submersible	-11.8165
▁supposing	-11.8165
▁swedish	-11.8165
▁syracuse	-11.8165
▁tactics	-11.8165
▁talbot	-11.8165
▁tetsuzo	-11.8165
▁treasury	-11.8165
▁tregelles	-11.8165
▁triangle	-11.8165
▁twixel	-11.8165
▁undercover	-11.8165
▁unnatural	-11.8165
▁unveil	-11.8165
▁vengeance	-11.8165
▁veryvery	-11.8165
▁wheelchair	-11.8165
▁wrath	-11.8165
▁anthem	-11.8165
▁appalling	-11.8165
▁bmw	-11.8165
▁charmander	-11.8165
▁cheeseburger	-11.8165
▁cleanliness	-11.8165
▁concur	-11.8165
▁dialect	-11.8165
▁donny	-11.8165
▁donut	-11.8165
▁erotic	-11.8165
▁garlic	-11.8165
▁impatient	-11.8165
▁jorma	-11.8165
▁leisure	-11.8165
▁liberal	-11.8165
▁prominent	-11.8165
▁protein	-11.8165
▁scribe	-11.8165
▁sidekick	-11.8165
▁singlehanded	-11.8165
▁smut	-11.8165
▁starvation	-11.8165
▁advers	-11.8165
▁buddha	-11.8165
▁bundle	-11.8165
▁coleman	-11.8165
▁detour	-11.8165
▁almond	-11.8165
▁bahamas	-11.8165
▁charging	-11.8165
▁gibbers	-11.8165
▁lounge	-11.8165
▁ninth	-11.8165
▁random	-11.8165
▁sulk	-11.8165
alalalala	-11.8165
▁onao	-11.8165
ezmoi	-11.8165
▁gusta	-11.8165
▁noticing	-11.8165
▁ndye	-11.8165
▁klein	-11.8165
▁lovelace	-11.8165
▁tamper	-11.8165
▁affirmative	-11.8165
▁greasy	-11.8165
▁bliss	-11.8165
▁hylas	-11.8165
▁aloe	-11.8165
▁gwen	-11.8165
▁sabela	-11.8165
▁valentin	-11.8165
▁hippie	-11.8165
▁sopr	-11.8165
▁sanctuary	-11.8165
▁wilkins	-11.8165
▁meteor	-11.8165
▁spurlock	-11.8165
▁commend	-11.8165
▁mineral	-11.8165
▁psychologist	-11.8165
▁stingray	-11.8165
▁trauma	-11.8166
▁mitch	-11.8166
▁drought	-11.8166
▁irritating	-11.8166
▁venice	-11.8166
▁definiteiy	-11.8166
▁hostess	-11.8166
▁stanford	-11.8166
▁cyrus	-11.8166
▁hooves	-11.8166
▁dandy	-11.8166
▁medium	-11.8166
▁odor	-11.8166
▁efficient	-11.8166
▁cantata	-11.8166
▁referred	-11.8166
▁rowboat	-11.8166
▁tanino	-11.8166
▁ayak	-11.8166
▁johan	-11.8166
▁roadblock	-11.8166
▁smokin	-11.8166
▁daft	-11.8166
▁wench	-11.8167
▁blaine	-11.8167
▁hummingbird	-11.8167
▁laptop	-11.8167
▁justify	-11.8167
▁adolescent	-11.8167
▁cherish	-11.8167
▁babette	-11.8167
▁comedian	-11.8167
▁whobble	-11.8167
▁osor	-11.8167
▁shaving	-11.8167
▁incidentally	-11.8167
▁iris	-11.8167
▁medication	-11.8167
▁gustav	-11.8168
▁leonard	-11.8168
▁suede	-11.8168
▁monstrous	-11.8168
▁permitted	-11.8168
▁transformation	-11.8168
▁rapper	-11.8168
▁jeanette	-11.8168
▁drei	-11.8168
▁singular	-11.8168
▁sinai	-11.8168
▁mound	-11.8168
▁zipper	-11.8168
▁google	-11.8168
▁receptionist	-11.8168
▁camus	-11.8168
▁partnership	-11.8168
▁fortress	-11.8168
▁disarm	-11.8169
▁sheba	-11.8169
▁distinction	-11.8169
▁whipping	-11.8169
▁mural	-11.8169
▁amma	-11.8169
▁glitches	-11.8169
▁bracelet	-11.8169
▁bongo	-11.8169
▁java	-11.817
▁carlton	-11.817
▁spotlight	-11.817
▁allah	-11.817
▁scab	-11.817
▁knit	-11.817
▁unload	-11.817
▁arouse	-11.817
▁denne	-11.817
▁blockhead	-11.817
▁testify	-11.8171
▁salute	-11.8171
▁morality	-11.8171
▁foil	-11.8171
▁valve	-11.8172
▁frequency	-11.8172
▁suspended	-11.8172
▁crude	-11.8172
▁inspect	-11.8172
▁intruder	-11.8172
▁goldfoot	-11.8172
▁lucis	-11.8173
▁refugees	-11.8173
▁andr	-11.8173
▁vase	-11.8174
▁sloshing	-11.8174
▁golly	-11.8174
▁vaticanus	-11.8174
▁representation	-11.8175
▁torches	-11.8176
▁recommendation	-11.8176
▁popped	-11.8176
▁macho	-11.8176
▁gravy	-11.8177
▁salsa	-11.8177
▁astonishing	-11.8177
▁exclusively	-11.8177
▁convey	-11.8178
▁jeb	-11.8179
▁hydra	-11.8179
▁dax	-11.8179
▁lifestyle	-11.818
▁cupid	-11.8181
▁generate	-11.8181
▁teasing	-11.8181
▁richardson	-11.8181
▁stow	-11.8181
▁lining	-11.8181
▁increasingly	-11.8182
▁amo	-11.8182
▁stein	-11.8182
▁feei	-11.8183
▁deliveries	-11.8183
▁flicky	-11.8183
▁gayle	-11.8185
▁baka	-11.8185
▁deai	-11.8186
▁duper	-11.8186
▁dari	-11.8187
▁whoosh	-11.8187
▁packet	-11.8187
▁quitter	-11.8188
▁thrive	-11.8188
▁combined	-11.819
▁emile	-11.819
▁exhausting	-11.8191
▁cubes	-11.8192
▁realistic	-11.8193
▁initially	-11.8193
▁instructed	-11.8196
▁mailman	-11.8196
▁viciously	-11.8196
▁policemen	-11.8197
▁about	-11.8197
▁hoid	-11.8197
▁starved	-11.8198
faced	-11.8199
▁deadline	-11.8199
▁runaway	-11.82
▁pai	-11.82
▁inherited	-11.8201
▁itchy	-11.8202
▁mentor	-11.8204
▁mourning	-11.8205
▁dickie	-11.8205
▁keno	-11.8205
▁vain	-11.8209
▁portion	-11.821
▁flashes	-11.8212
▁undressed	-11.8215
▁advised	-11.8215
▁warmup	-11.8215
home	-11.8216
▁gable	-11.8216
▁hart	-11.8217
▁shaved	-11.8217
▁pronounced	-11.8219
▁descended	-11.822
▁tur	-11.8222
▁grinding	-11.8225
▁pointless	-11.8226
▁reserved	-11.8229
▁martyr	-11.8229
▁corrupted	-11.8231
▁drip	-11.8235
▁roasted	-11.8236
▁descending	-11.8236
▁hash	-11.8239
▁wider	-11.824
aca	-11.8241
▁rv	-11.8243
▁bumped	-11.8244
▁privileged	-11.8248
▁swallowed	-11.8255
▁scratched	-11.8255
▁complained	-11.8255
▁succeeded	-11.8257
▁resigned	-11.8258
rez	-11.8258
▁simone	-11.826
▁feathered	-11.8262
metric	-11.8262
▁dit	-11.8265
▁tucked	-11.8268
yard	-11.8269
▁dialing	-11.827
▁perfection	-11.827
bat	-11.8271
▁launched	-11.8277
▁robbin	-11.8278
▁detailed	-11.8281
▁broadcasting	-11.8281
▁calculations	-11.8282
▁chipmunks	-11.8282
▁negotiations	-11.8282
▁coolest	-11.8284
▁fainted	-11.8287
▁melted	-11.829
nz	-11.8294
▁sonia	-11.8295
▁freaky	-11.8301
▁printing	-11.8307
▁crowe	-11.8308
▁smacking	-11.8312
▁maniacal	-11.8314
▁publisher	-11.8314
▁aide	-11.8315
▁ere	-11.8319
▁barker	-11.8329
▁soften	-11.8329
oral	-11.8335
▁fashioned	-11.8336
▁attending	-11.834
▁workout	-11.8344
▁wolfe	-11.8345
▁ewe	-11.8351
▁collecting	-11.8355
▁privately	-11.836
▁pear	-11.8373
heim	-11.8374
▁deserved	-11.8375
▁blasting	-11.8376
▁flora	-11.8376
▁holdup	-11.8381
join	-11.8382
▁funk	-11.8384
▁harmed	-11.8385
wear	-11.8391
▁filly	-11.8405
▁punched	-11.8406
▁hauler	-11.8429
▁jon	-11.8432
▁crom	-11.8436
▁smoothie	-11.8441
term	-11.8443
▁shun	-11.8465
▁nearer	-11.8472
▁princesses	-11.8477
▁ore	-11.8484
cens	-11.8499
▁didi	-11.8529
▁rab	-11.8544
▁lode	-11.8549
▁patti	-11.8564
▁dams	-11.8566
east	-11.8577
▁yowl	-11.8606
▁sola	-11.8608
▁dadda	-11.8649
▁ange	-11.8656
▁petrol	-11.866
▁bin	-11.8664
▁lum	-11.8691
try	-11.8696
▁presum	-11.8726
▁haste	-11.8749
▁sid	-11.8761
step	-11.877
ckey	-11.8785
▁rappel	-11.88
nard	-11.8815
▁memo	-11.8848
ooooo	-11.8887
oir	-11.8897
▁mega	-11.8903
relli	-11.8915
pitched	-11.8918
▁stamp	-11.8919
▁bv	-11.8924
▁gulp	-11.8949
▁competitor	-11.895
▁cocktail	-11.895
▁terrorist	-11.8952
ando	-11.8953
▁conclude	-11.8954
▁wad	-11.8961
▁vermin	-11.8976
kaya	-11.8978
eft	-11.8982
▁soc	-11.8987
imp	-11.9019
hall	-11.9044
▁cran	-11.9072
angler	-11.9086
▁craw	-11.909
eah	-11.9096
ground	-11.91
chen	-11.9119
▁introduc	-11.9121
▁croak	-11.9131
▁enchant	-11.9131
▁reform	-11.9131
▁franco	-11.9132
stein	-11.9133
▁appoint	-11.9136
▁confront	-11.9138
giving	-11.9138
▁attach	-11.9139
▁sparkl	-11.9141
onic	-11.9143
▁decorate	-11.9144
▁hypnotize	-11.9145
style	-11.9146
buster	-11.9147
grown	-11.9147
oksana	-11.9147
john	-11.9147
married	-11.9147
finding	-11.9148
▁wrestle	-11.9149
▁sympath	-11.9149
▁greed	-11.915
▁medic	-11.9151
weight	-11.9151
▁obscen	-11.9154
▁choi	-11.9157
pipe	-11.9158
▁froze	-11.916
▁tut	-11.9161
▁santos	-11.9163
▁submit	-11.9164
▁sarcastic	-11.9165
▁gorgon	-11.9165
▁polly	-11.9165
▁metaphor	-11.9165
▁musket	-11.9165
▁luxuri	-11.9165
▁powwow	-11.9165
▁restrict	-11.9165
politan	-11.9165
▁adrenaline	-11.9165
▁adventurous	-11.9165
▁airstrip	-11.9165
▁aqua	-11.9165
▁argentina	-11.9165
▁armistice	-11.9165
▁assembly	-11.9165
▁baiul	-11.9165
▁bannock	-11.9165
▁baptist	-11.9165
▁barouche	-11.9165
▁belknap	-11.9165
▁benefactor	-11.9165
▁beverage	-11.9165
▁bithiah	-11.9165
▁bourgeois	-11.9165
▁burgundy	-11.9165
▁caboose	-11.9165
▁cemetery	-11.9165
▁coiiins	-11.9165
▁cologne	-11.9165
▁confusing	-11.9165
▁controversy	-11.9165
▁cortez	-11.9165
▁crabtree	-11.9165
▁crazies	-11.9165
▁damiano	-11.9165
▁degenerate	-11.9165
▁devastated	-11.9165
▁dummies	-11.9165
▁dunkirk	-11.9165
▁easiest	-11.9165
▁effie	-11.9165
▁enthusiasm	-11.9165
▁esteban	-11.9165
▁excellence	-11.9165
▁feihung	-11.9165
▁fraul	-11.9165
▁fuhrer	-11.9165
▁furnace	-11.9165
▁gannon	-11.9165
▁glurp	-11.9165
▁gracias	-11.9165
▁grandchildren	-11.9165
▁grifter	-11.9165
▁guacamole	-11.9165
▁gunpowder	-11.9165
▁hackamaw	-11.9165
▁halfbreed	-11.9165
▁heeheehee	-11.9165
▁hepworth	-11.9165
▁hortense	-11.9165
▁humidity	-11.9165
▁ignorance	-11.9165
▁impostor	-11.9165
▁incorporat	-11.9165
▁infernal	-11.9165
▁injunction	-11.9165
▁irresistible	-11.9165
▁kabul	-11.9165
▁kathleen	-11.9165
▁kenneth	-11.9165
▁krstic	-11.9165
▁laztec	-11.9165
▁libertus	-11.9165
▁liedholm	-11.9165
▁lipstick	-11.9165
▁lullaby	-11.9165
▁macdonald	-11.9165
▁matrix	-11.9165
▁mclean	-11.9165
▁mechanism	-11.9165
▁mehran	-11.9165
▁memorable	-11.9165
▁mermoz	-11.9165
▁monastery	-11.9165
▁montague	-11.9165
▁murdstone	-11.9165
▁namaste	-11.9165
▁nemesis	-11.9165
▁noctis	-11.9165
▁nominated	-11.9165
▁norbert	-11.9165
▁obedient	-11.9165
▁odessa	-11.9165
▁olympia	-11.9165
▁overthrow	-11.9165
▁parlezvous	-11.9165
▁parviz	-11.9165
▁pentagon	-11.9165
▁peopie	-11.9165
▁periscope	-11.9165
▁plunge	-11.9165
▁pollack	-11.9165
▁precinct	-11.9165
▁qualifications	-11.9165
▁rehearsing	-11.9165
▁revival	-11.9165
▁reynolds	-11.9165
▁rodrigo	-11.9165
▁rosemary	-11.9165
▁samurai	-11.9165
▁screwdriver	-11.9165
▁semifinal	-11.9165
▁septimus	-11.9165
▁shakily	-11.9165
▁shanghai	-11.9165
▁sholom	-11.9165
▁singapore	-11.9165
▁sloppy	-11.9165
▁stagecoach	-11.9165
▁subscription	-11.9165
▁tedesco	-11.9165
▁terlip	-11.9165
▁thorensen	-11.9165
▁transcript	-11.9165
▁trivial	-11.9165
▁turmoil	-11.9165
▁tyranny	-11.9165
▁unaware	-11.9165
▁unleash	-11.9165
▁vibrant	-11.9165
▁virtually	-11.9165
▁vulgate	-11.9165
▁xibalba	-11.9165
▁yarmouth	-11.9165
▁yourseif	-11.9165
yayayaya	-11.9165
▁abbey	-11.9165
▁arnie	-11.9165
▁breathtaking	-11.9165
▁churring	-11.9165
▁contradict	-11.9165
▁diabolical	-11.9165
▁extinct	-11.9165
▁gleam	-11.9165
▁inhuman	-11.9165
▁longeverne	-11.9165
▁mathalon	-11.9165
▁narrative	-11.9165
▁ninja	-11.9165
▁ornament	-11.9165
▁piplup	-11.9165
▁premature	-11.9165
▁propeller	-11.9165
▁raindrop	-11.9165
▁reconstruct	-11.9165
▁regress	-11.9165
▁reptile	-11.9165
▁selfdestruct	-11.9165
▁snickers	-11.9165
▁unanimous	-11.9165
▁wheedle	-11.9165
▁wheezing	-11.9165
forsaken	-11.9165
▁concede	-11.9165
▁evident	-11.9165
▁islam	-11.9165
▁ltalian	-11.9165
▁manipulate	-11.9165
▁monica	-11.9165
▁promoting	-11.9165
▁showcase	-11.9165
▁theoretical	-11.9165
▁unstable	-11.9165
▁caprice	-11.9165
▁civilised	-11.9165
▁competing	-11.9165
▁hallowed	-11.9165
▁imminent	-11.9165
▁rehab	-11.9165
▁workshop	-11.9165
▁canib	-11.9165
▁stork	-11.9165
▁immoral	-11.9165
▁samuel	-11.9165
▁intel	-11.9165
▁forcing	-11.9165
▁gennie	-11.9165
▁sushi	-11.9165
▁lumberjack	-11.9165
▁outsmart	-11.9165
▁shucks	-11.9165
▁partiz	-11.9165
▁adrian	-11.9165
▁fisheries	-11.9165
▁hardworking	-11.9165
▁splint	-11.9165
▁streak	-11.9165
▁cavern	-11.9165
▁implicat	-11.9165
▁quinoa	-11.9165
▁prettiest	-11.9165
▁heavier	-11.9165
▁simmons	-11.9165
▁transplant	-11.9165
▁iisten	-11.9165
▁assessment	-11.9165
▁automobile	-11.9165
▁colonial	-11.9165
▁wiggling	-11.9165
▁rucio	-11.9165
▁domain	-11.9165
▁swab	-11.9166
▁meek	-11.9166
▁pension	-11.9166
▁mallinger	-11.9166
▁fernandez	-11.9166
▁pepperoni	-11.9166
▁parenthood	-11.9166
▁nanna	-11.9166
▁casualties	-11.9166
▁again	-11.9166
▁cartoon	-11.9166
▁sirree	-11.9166
▁dusk	-11.9166
▁onlv	-11.9166
▁womb	-11.9166
▁doublecross	-11.9166
▁buffet	-11.9166
▁sponsorship	-11.9166
▁flutter	-11.9166
▁rugged	-11.9166
▁jinx	-11.9166
▁geko	-11.9166
▁graduation	-11.9166
▁dathan	-11.9166
▁vacant	-11.9166
▁tbone	-11.9166
▁blunt	-11.9166
▁muddy	-11.9166
▁babysitting	-11.9166
▁thirtyfive	-11.9166
▁gooz	-11.9166
▁savannah	-11.9166
▁polk	-11.9167
▁byron	-11.9167
▁rigged	-11.9167
▁tangled	-11.9167
▁blurry	-11.9167
▁employment	-11.9167
▁reluctant	-11.9167
▁labour	-11.9167
▁password	-11.9167
▁accommodation	-11.9167
▁superwoman	-11.9167
▁cheque	-11.9167
▁marries	-11.9167
▁shrine	-11.9167
▁regiment	-11.9167
▁friar	-11.9167
▁bagdad	-11.9167
▁fanatic	-11.9167
▁bennet	-11.9167
▁eboat	-11.9168
▁continuous	-11.9168
▁expertise	-11.9168
▁korea	-11.9168
▁onx	-11.9168
▁chika	-11.9168
▁cement	-11.9168
▁frick	-11.9168
▁bambi	-11.9168
▁primate	-11.9168
▁jester	-11.9168
▁freddie	-11.9168
▁scarce	-11.9169
▁rapping	-11.9169
▁acme	-11.9169
▁revolutionary	-11.9169
▁grazie	-11.9169
▁sorcerers	-11.9169
▁matson	-11.9169
▁boogie	-11.9169
▁joanna	-11.9169
▁pillar	-11.9169
▁lyin	-11.9169
▁dependent	-11.9169
▁sofa	-11.9169
▁mariachi	-11.9169
▁programmed	-11.917
▁flour	-11.917
▁luti	-11.917
known	-11.917
▁relay	-11.917
▁revive	-11.917
▁dislike	-11.9171
▁hover	-11.9171
▁fragment	-11.9171
▁booboo	-11.9171
▁vanya	-11.9171
▁adjustment	-11.9172
▁potent	-11.9172
▁orson	-11.9172
▁skyship	-11.9172
▁ripping	-11.9172
▁colton	-11.9172
▁voting	-11.9172
▁mattress	-11.9172
▁purity	-11.9172
▁argo	-11.9172
▁filmmaker	-11.9172
▁overhead	-11.9172
▁haig	-11.9173
▁pause	-11.9173
▁subpoenaed	-11.9173
▁silverback	-11.9173
▁apostle	-11.9173
▁fogle	-11.9174
▁howre	-11.9174
▁bertie	-11.9174
▁overtime	-11.9174
▁verat	-11.9174
▁corruption	-11.9175
▁snot	-11.9175
▁boze	-11.9175
▁arf	-11.9176
▁provoke	-11.9176
▁ridley	-11.9176
body	-11.9177
▁ooooh	-11.9177
▁recon	-11.9177
▁thug	-11.9177
▁tack	-11.9177
▁beckon	-11.9178
▁extract	-11.9178
▁ballroom	-11.9178
▁sphere	-11.9178
▁bias	-11.9179
▁nursery	-11.9179
▁straightaway	-11.9179
▁comma	-11.9179
▁delete	-11.9179
▁erma	-11.9179
▁bobble	-11.918
▁helm	-11.918
▁sketches	-11.918
▁aban	-11.9181
▁honourable	-11.9181
▁violated	-11.9181
▁gaw	-11.9182
▁tripping	-11.9182
▁coil	-11.9183
▁chum	-11.9183
▁schm	-11.9183
▁transition	-11.9184
▁chica	-11.9184
▁tore	-11.9185
▁benton	-11.9186
▁firewood	-11.9186
▁bluffing	-11.9186
▁vanity	-11.9187
▁robertson	-11.9187
▁severely	-11.9188
▁complexion	-11.9188
▁repent	-11.9189
▁preto	-11.9189
▁desc	-11.9193
▁donated	-11.9193
▁royalty	-11.9195
▁daan	-11.9195
▁reid	-11.9196
▁realizing	-11.9196
▁neglected	-11.9196
▁finch	-11.9196
▁playboy	-11.9197
▁revolting	-11.9198
▁samson	-11.9198
▁invader	-11.92
▁ahold	-11.9201
▁coverup	-11.9202
▁erased	-11.9202
▁mug	-11.9203
▁orion	-11.9203
▁mint	-11.9203
▁canned	-11.9203
▁bakery	-11.9204
▁whirling	-11.9205
▁mold	-11.9208
▁bom	-11.9209
▁achieved	-11.9212
▁moss	-11.9215
▁pta	-11.9217
▁wilt	-11.9219
▁faithfully	-11.9219
▁resid	-11.922
▁coma	-11.922
▁frightening	-11.9225
▁acknowledged	-11.9225
▁blooming	-11.9226
▁flattered	-11.9226
▁improved	-11.9227
▁electro	-11.9228
▁willy	-11.9228
▁associated	-11.9229
▁preserved	-11.9229
▁toyo	-11.9231
▁teeny	-11.9233
▁addicted	-11.9235
▁comply	-11.9236
▁admired	-11.9238
▁helena	-11.9239
▁bestow	-11.9239
▁receiver	-11.924
▁exploded	-11.924
▁jc	-11.9245
▁trooper	-11.9247
▁soy	-11.9248
▁positively	-11.925
▁separately	-11.925
▁raging	-11.9251
▁bridger	-11.9251
▁smallest	-11.9253
▁dye	-11.9254
▁tres	-11.9256
▁distracted	-11.9259
▁sponsored	-11.9261
▁pint	-11.9262
mont	-11.9263
▁bigot	-11.9267
▁oohooh	-11.9268
▁heartless	-11.9269
▁regularly	-11.927
▁farid	-11.9272
▁homo	-11.9276
▁resulted	-11.9279
▁showtime	-11.9279
▁tailor	-11.9282
▁magi	-11.9285
▁entertaining	-11.9286
▁traced	-11.9288
▁maud	-11.929
▁sentenced	-11.9293
choo	-11.9298
▁moody	-11.9299
▁roughly	-11.93
▁carson	-11.9307
▁interrupted	-11.931
▁praised	-11.931
▁fury	-11.9315
▁freezer	-11.9316
▁hub	-11.9317
▁hindu	-11.9323
▁wit	-11.9325
▁sacrificed	-11.933
▁homeland	-11.9331
▁striker	-11.9334
▁brushing	-11.9344
chat	-11.9354
hoohoohoo	-11.9363
▁cass	-11.9363
▁jared	-11.9363
▁freeway	-11.9369
▁filed	-11.937
▁briefing	-11.9374
▁daytime	-11.9374
▁fret	-11.9376
▁vene	-11.9382
▁supervise	-11.9385
▁tutti	-11.9387
▁leni	-11.9388
▁jule	-11.9388
▁fau	-11.9405
▁noone	-11.9405
hae	-11.9414
▁aring	-11.9415
ania	-11.942
▁stark	-11.9426
pati	-11.9436
here	-11.9438
▁optimistic	-11.944
▁enthusiastic	-11.9447
▁wewe	-11.9478
▁weaken	-11.9479
▁masturbate	-11.9483
▁scann	-11.9487
hoohoo	-11.9488
than	-11.9514
▁senseless	-11.9522
▁fami	-11.9525
heart	-11.9529
▁leer	-11.9541
▁rico	-11.9561
etta	-11.9561
▁criticiz	-11.9563
▁flop	-11.9582
▁lug	-11.9584
pee	-11.9587
▁papp	-11.9604
▁mcc	-11.9655
change	-11.9665
▁lei	-11.9672
▁when	-11.9675
tary	-11.9687
▁bes	-11.9746
▁span	-11.9766
▁dup	-11.9783
beat	-11.9808
▁ard	-11.9812
▁webb	-11.9815
▁mem	-11.9829
▁hehe	-11.9849
▁animat	-11.9858
▁mao	-11.9859
▁quo	-11.986
pose	-11.9872
▁qu	-11.9893
▁dabb	-11.9908
▁pelt	-11.992
▁chor	-11.9975
▁yoyo	-12.0003
▁injun	-12.0058
▁veteran	-12.0059
▁ghoul	-12.006
▁survivor	-12.006
▁relation	-12.006
▁marble	-12.0061
▁hercule	-12.0066
▁hallo	-12.0074
obedience	-12.0079
▁hoho	-12.0112
▁hur	-12.0119
▁bookie	-12.0128
ghi	-12.0145
▁repel	-12.0169
closure	-12.017
▁karen	-12.0173
▁ordina	-12.0188
▁lndia	-12.0193
▁sill	-12.0197
hour	-12.0212
iah	-12.0215
▁complet	-12.0237
▁poach	-12.0239
▁baa	-12.0239
▁revolt	-12.024
▁canyoneer	-12.0242
▁cluck	-12.0245
famous	-12.0247
▁bord	-12.0248
▁complicat	-12.0249
▁grid	-12.0255
▁discharge	-12.0255
▁evacuate	-12.0255
▁postpone	-12.0255
▁execute	-12.0256
▁locate	-12.0256
migration	-12.0258
regard	-12.0258
world	-12.0258
record	-12.0258
different	-12.0258
believe	-12.0259
▁mode	-12.0259
▁consume	-12.0259
▁gloom	-12.026
changing	-12.0261
▁pornograph	-12.0261
▁styl	-12.0262
shoot	-12.0263
▁crump	-12.0264
▁aft	-12.0266
▁budge	-12.0267
winning	-12.0267
▁andre	-12.0268
▁ernest	-12.0268
though	-12.0269
force	-12.0269
▁acquire	-12.027
▁intent	-12.027
speed	-12.0272
▁burro	-12.0273
▁sorcer	-12.0273
nik	-12.0274
▁mamma	-12.0275
▁fir	-12.0275
▁pilgrim	-12.0275
sibility	-12.0276
▁bibbidibobbidi	-12.0276
▁scorch	-12.0276
▁absorb	-12.0276
▁benedict	-12.0276
▁cannibal	-12.0276
▁comprehend	-12.0276
▁decipher	-12.0276
▁migraine	-12.0276
▁overreact	-12.0276
▁supremac	-12.0276
▁volcanic	-12.0276
▁withstand	-12.0276
▁abnormal	-12.0276
▁accusing	-12.0276
▁agencies	-12.0276
▁aladdin	-12.0276
▁allegiance	-12.0276
▁ansarafina	-12.0276
▁anticipated	-12.0276
▁appreciation	-12.0276
▁aquarium	-12.0276
▁archibald	-12.0276
▁arkansas	-12.0276
▁assumption	-12.0276
▁asterbilt	-12.0276
▁auxiliary	-12.0276
▁avalanche	-12.0276
▁azumi	-12.0276
▁ballpark	-12.0276
▁baltimore	-12.0276
▁barzell	-12.0276
▁beacon	-12.0276
▁behaviour	-12.0276
▁beiieve	-12.0276
▁benevolence	-12.0276
▁bettsbridge	-12.0276
▁boulevard	-12.0276
▁brunette	-12.0276
▁cadillac	-12.0276
▁caterpillar	-12.0276
▁censorship	-12.0276
▁chivalry	-12.0276
▁ciccio	-12.0276
▁circumspect	-12.0276
▁clitoris	-12.0276
▁collaboration	-12.0276
▁concussion	-12.0276
▁connolly	-12.0276
▁contribute	-12.0276
▁coolidge	-12.0276
▁credentials	-12.0276
▁crossbow	-12.0276
▁daughterinlaw	-12.0276
▁dawson	-12.0276
▁daydreaming	-12.0276
▁debris	-12.0276
▁detergent	-12.0276
[...]
