<unk>	0
<s>	0
</s>	0
s	-3.68685
▁dont	-4.57359
▁im	-4.57856
▁know	-4.62972
▁get	-4.79805
▁well	-4.84129
▁go	-4.88446
▁come	-4.96591
▁right	-4.97945
▁like	-4.98212
▁oh	-5.00167
▁got	-5.0865
▁youre	-5.12427
▁one	-5.13223
▁thats	-5.19659
▁yeah	-5.21187
ing	-5.23621
▁good	-5.26668
▁see	-5.30076
▁want	-5.38644
▁think	-5.38766
▁na	-5.41148
▁yes	-5.46166
ed	-5.50379
▁okay	-5.51272
▁look	-5.56718
▁ill	-5.57794
▁back	-5.58237
▁	-5.58275
▁going	-5.59942
▁time	-5.61217
▁us	-5.62602
▁gon	-5.63876
▁hey	-5.64741
▁man	-5.67347
▁would	-5.6828
▁take	-5.70214
▁hes	-5.71014
▁cant	-5.77125
▁way	-5.85368
▁tell	-5.86008
▁say	-5.89687
▁could	-5.89896
d	-5.91877
▁mr	-5.95154
▁never	-5.95528
▁little	-5.95726
▁something	-5.96525
▁really	-5.96776
▁lets	-5.97599
▁whats	-6.00627
▁didnt	-6.02821
▁need	-6.03371
▁make	-6.03934
▁let	-6.06442
▁love	-6.0744
▁thank	-6.07831
▁mean	-6.08865
▁music	-6.12538
y	-6.13082
▁ive	-6.14478
▁two	-6.17119
▁give	-6.17626
▁please	-6.1796
▁sir	-6.19028
▁theres	-6.20554
▁l	-6.2057
▁sorry	-6.23327
▁said	-6.2372
▁sure	-6.26742
▁people	-6.26787
▁help	-6.28139
ly	-6.28934
▁much	-6.32643
▁wait	-6.33125
▁thing	-6.33674
▁uh	-6.37586
e	-6.38041
▁even	-6.38856
▁day	-6.39106
er	-6.44169
▁maybe	-6.47479
u	-6.47905
▁life	-6.48138
▁first	-6.48814
▁better	-6.50008
▁nothing	-6.51557
▁call	-6.51677
▁great	-6.51919
▁god	-6.5513
▁keep	-6.55213
▁boy	-6.55829
▁find	-6.56002
▁shes	-6.56241
▁must	-6.57206
▁new	-6.57489
▁home	-6.57887
▁work	-6.58477
▁ever	-6.58537
▁stop	-6.59762
▁theyre	-6.59872
▁night	-6.60562
▁anything	-6.61195
▁away	-6.62165
▁still	-6.63516
▁talk	-6.63847
▁guys	-6.64928
▁thought	-6.65565
▁dad	-6.66044
▁always	-6.6629
▁old	-6.67159
▁long	-6.6858
▁world	-6.70814
▁around	-6.71023
▁youve	-6.71025
▁made	-6.71796
▁believe	-6.71993
▁y	-6.72397
▁id	-6.73892
▁big	-6.7489
▁put	-6.75107
▁fine	-6.76214
▁father	-6.78867
▁last	-6.78935
in	-6.79302
▁wont	-6.79371
▁money	-6.7983
▁hell	-6.7989
▁things	-6.81795
▁told	-6.82631
▁youll	-6.82634
▁feel	-6.82778
▁everything	-6.82935
▁nice	-6.83108
▁name	-6.83414
▁years	-6.8416
▁hello	-6.86319
▁three	-6.87734
▁hear	-6.88262
▁course	-6.8873
▁coming	-6.89255
▁enough	-6.89996
▁may	-6.90484
▁remember	-6.9087
▁doesnt	-6.9102
▁stay	-6.9243
▁car	-6.9259
▁hold	-6.9311
▁huh	-6.93366
▁leave	-6.93698
▁kind	-6.93904
▁ta	-6.94284
▁every	-6.94714
▁lot	-6.94831
▁hi	-6.95253
▁isnt	-6.95494
▁listen	-6.9605
▁place	-6.96762
▁might	-6.97177
▁mind	-6.98223
▁mom	-6.9873
▁try	-6.9966
▁care	-6.99741
▁morning	-7.00462
▁done	-7.01607
▁getting	-7.03704
▁best	-7.03937
▁bad	-7.0431
a	-7.047
▁girl	-7.05081
t	-7.05668
▁play	-7.06269
▁weve	-7.06285
▁house	-7.06304
▁wrong	-7.06585
▁left	-7.06887
▁wanted	-7.07229
▁show	-7.08267
▁another	-7.08713
▁baby	-7.0902
▁thanks	-7.09383
▁mother	-7.09463
▁matter	-7.1016
▁hope	-7.1174
▁ready	-7.11967
es	-7.12325
▁wan	-7.12861
▁today	-7.13109
▁understand	-7.13531
▁came	-7.14005
▁son	-7.14079
r	-7.14641
▁run	-7.15778
▁move	-7.16074
▁ask	-7.17114
▁else	-7.17375
▁happened	-7.1892
▁talking	-7.19297
▁next	-7.19403
▁door	-7.20932
▁head	-7.21633
▁ah	-7.21788
▁found	-7.21825
▁kids	-7.23469
▁seen	-7.23716
▁hard	-7.2381
▁friend	-7.23864
▁havent	-7.23949
▁many	-7.25353
▁together	-7.26119
▁without	-7.26119
▁jack	-7.26749
ll	-7.27066
n	-7.27277
▁real	-7.27712
▁idea	-7.27833
▁live	-7.28089
▁miss	-7.28305
▁men	-7.29051
▁excuse	-7.30202
o	-7.30467
▁aint	-7.30606
▁whole	-7.30611
▁trying	-7.31327
▁guy	-7.32087
▁woman	-7.32148
▁start	-7.32484
▁wouldnt	-7.3261
▁happy	-7.33319
▁went	-7.33322
▁um	-7.33782
l	-7.34251
▁beautiful	-7.34308
▁family	-7.35307
▁whoa	-7.35721
▁ok	-7.36137
▁minute	-7.36148
▁tonight	-7.36513
▁yet	-7.36538
▁guess	-7.3692
▁use	-7.37086
▁town	-7.3734
▁boys	-7.37389
▁wasnt	-7.37737
▁everybody	-7.37865
▁young	-7.37943
▁tomorrow	-7.38149
▁true	-7.38977
▁someone	-7.39586
al	-7.39672
▁school	-7.39816
▁wish	-7.40151
▁sit	-7.40302
▁horse	-7.40379
▁meet	-7.40548
▁looking	-7.40578
▁friends	-7.40947
▁mrs	-7.41455
▁job	-7.41506
▁bring	-7.41699
▁saw	-7.41933
▁heard	-7.4239
▁far	-7.42639
▁knew	-7.42792
i	-7.43013
▁kill	-7.43117
▁gone	-7.43466
▁watch	-7.44002
▁pretty	-7.44095
▁says	-7.4416
▁turn	-7.44224
▁hand	-7.44768
▁dead	-7.44782
▁lost	-7.44981
▁bit	-7.46308
▁end	-7.46519
h	-7.46829
▁ha	-7.47122
▁forget	-7.47199
▁whos	-7.47587
▁four	-7.48118
▁playing	-7.48455
▁part	-7.49252
▁eat	-7.49407
▁alone	-7.49494
▁water	-7.49967
▁laughing	-7.50098
▁war	-7.51629
▁since	-7.51811
▁mine	-7.51815
▁em	-7.5198
▁used	-7.52428
▁youd	-7.5281
▁pay	-7.53184
▁cause	-7.53465
▁easy	-7.53741
▁days	-7.53965
▁couldnt	-7.54293
▁actually	-7.55691
ur	-7.56118
▁girls	-7.56204
▁ago	-7.57167
▁open	-7.57403
▁second	-7.57812
▁already	-7.5817
▁wife	-7.5817
▁took	-7.58171
▁dear	-7.58656
▁damn	-7.58678
▁side	-7.58708
▁everyone	-7.58714
on	-7.58725
▁somebody	-7.59402
▁president	-7.59405
▁room	-7.59429
▁face	-7.59541
▁read	-7.60368
▁kid	-7.60409
▁business	-7.60721
▁fire	-7.60752
▁dog	-7.61478
▁eyes	-7.61687
▁shall	-7.62825
▁heart	-7.62841
p	-7.62948
▁worry	-7.63325
b	-7.63338
▁lady	-7.63359
▁brother	-7.63625
g	-7.6367
▁team	-7.64215
▁soon	-7.6426
▁fight	-7.6463
▁late	-7.64715
▁group	-7.64945
▁later	-7.65037
▁least	-7.65485
▁crazy	-7.65487
▁year	-7.65812
▁called	-7.66216
▁rest	-7.67158
▁problem	-7.67506
▁moment	-7.67563
▁looks	-7.67916
▁b	-7.68222
▁change	-7.68429
▁word	-7.68638
▁free	-7.68795
▁laughs	-7.69031
▁chance	-7.6925
▁five	-7.69361
▁important	-7.6992
ic	-7.70248
m	-7.70644
▁honey	-7.71057
▁exactly	-7.71069
▁daddy	-7.71076
▁win	-7.71328
▁hurt	-7.716
▁captain	-7.71633
▁point	-7.71791
▁saying	-7.72562
▁un	-7.72771
▁white	-7.72789
▁de	-7.73045
▁taking	-7.73393
▁country	-7.73967
▁die	-7.74483
▁anyone	-7.74555
▁party	-7.74834
▁fun	-7.74843
▁stand	-7.74871
▁also	-7.75152
▁quite	-7.75211
▁sighs	-7.75336
▁walk	-7.76019
▁anyway	-7.76352
▁stuff	-7.76354
▁set	-7.76914
c	-7.77232
▁probably	-7.77568
▁whatever	-7.77568
▁hit	-7.77596
▁week	-7.77622
▁high	-7.7789
▁wheres	-7.78193
▁cut	-7.78253
▁arent	-7.78801
▁sleep	-7.79283
▁book	-7.79399
▁afraid	-7.7942
▁along	-7.79422
▁phone	-7.80053
▁screaming	-7.80138
▁nobody	-7.80181
▁drink	-7.803
▁check	-7.8035
est	-7.81092
▁children	-7.81307
▁number	-7.81486
▁doctor	-7.81494
▁trouble	-7.81661
▁dream	-7.81808
▁wants	-7.81809
w	-7.81813
▁save	-7.81933
▁dr	-7.82417
▁alright	-7.82587
▁half	-7.82599
ers	-7.83058
▁bet	-7.83184
▁six	-7.8322
▁full	-7.83665
▁wow	-7.83886
▁break	-7.84273
▁anybody	-7.84533
▁thinking	-7.84761
▁close	-7.84802
▁ya	-7.84933
▁welcome	-7.8519
▁minutes	-7.8646
▁killed	-7.86471
▁red	-7.86494
▁hurry	-7.8652
▁clear	-7.86586
▁working	-7.87081
▁gave	-7.87197
▁ball	-7.87553
▁dan	-7.88283
▁makes	-7.88335
▁happen	-7.88443
▁anymore	-7.88546
▁supposed	-7.88737
▁married	-7.89262
▁deal	-7.89351
▁chuckles	-7.89393
▁they	-7.89622
▁line	-7.89738
▁child	-7.89908
▁ahead	-7.90618
▁send	-7.90779
▁comes	-7.91654
▁brought	-7.92019
▁light	-7.92324
▁luck	-7.92528
▁shut	-7.92719
▁al	-7.93031
▁dinner	-7.93443
▁dave	-7.93453
▁seems	-7.94131
▁different	-7.94162
▁story	-7.94163
▁gentlemen	-7.94164
▁though	-7.94168
▁wonderful	-7.94188
▁hmm	-7.94343
▁making	-7.94888
▁ladies	-7.94889
▁mama	-7.94903
▁almost	-7.95616
▁lose	-7.96292
en	-7.9677
▁speaking	-7.96859
▁s	-7.96952
▁scared	-7.97198
▁nick	-7.97596
▁either	-7.97839
▁buy	-7.98079
▁hate	-7.98494
▁funny	-7.98596
▁asked	-7.98744
▁gun	-7.99036
▁worth	-7.99345
▁george	-7.99348
▁pick	-7.99438
▁sing	-7.99805
▁re	-7.99963
▁speak	-8.00058
▁behind	-8.00112
▁la	-8.00203
▁hands	-8.00429
▁game	-8.01604
le	-8.01636
▁bye	-8.01657
▁death	-8.01661
▁goes	-8.02031
▁perfect	-8.02249
▁lm	-8.02306
▁cool	-8.02442
▁france	-8.02445
▁heh	-8.02445
▁ow	-8.02579
▁waiting	-8.0295
man	-8.03141
▁john	-8.03155
▁andrew	-8.03225
▁shoot	-8.0353
▁case	-8.03816
▁king	-8.04305
▁times	-8.04492
▁inside	-8.04822
▁food	-8.04823
▁fact	-8.04865
▁able	-8.05157
k	-8.05206
▁follow	-8.05496
▁truth	-8.05625
▁applause	-8.05625
▁land	-8.05635
▁ooh	-8.06437
▁itll	-8.06442
▁shot	-8.06508
▁met	-8.06812
▁cal	-8.06868
▁lord	-8.07258
or	-8.07599
▁dark	-8.08899
▁heres	-8.09052
ve	-8.09203
▁touch	-8.09348
▁special	-8.09709
▁alive	-8.09776
▁professor	-8.10605
▁hot	-8.10607
▁mad	-8.10975
▁stupid	-8.1146
▁running	-8.11466
▁sort	-8.11498
an	-8.119
▁sometimes	-8.11917
ie	-8.11967
▁air	-8.12275
▁fault	-8.12323
▁hang	-8.12673
▁p	-8.13461
ion	-8.13571
▁th	-8.13638
▁news	-8.13892
▁sound	-8.13894
▁careful	-8.13949
▁person	-8.14016
▁in	-8.14073
▁cheering	-8.14181
▁human	-8.14312
f	-8.14476
▁means	-8.14529
▁black	-8.14955
▁sam	-8.15041
▁office	-8.15749
▁police	-8.15811
▁started	-8.15878
▁become	-8.16153
▁sister	-8.16159
▁order	-8.16458
▁gold	-8.16689
▁write	-8.16694
▁city	-8.16766
▁front	-8.17673
▁bed	-8.18364
▁till	-8.18567
▁sarah	-8.18574
▁wind	-8.18575
▁throw	-8.18618
▁hours	-8.1901
able	-8.19015
▁beat	-8.19056
▁train	-8.19382
▁perhaps	-8.195
▁shouldnt	-8.195
▁secret	-8.19899
▁club	-8.19907
▁bob	-8.20014
▁blood	-8.20221
▁wake	-8.20439
▁lucy	-8.20455
▁power	-8.20944
▁pull	-8.2137
▁sergeant	-8.21378
▁living	-8.21381
▁straight	-8.22295
▁past	-8.22328
▁wed	-8.22556
▁plan	-8.22764
▁j	-8.23069
▁french	-8.23248
ar	-8.23257
▁goodbye	-8.23292
▁leaving	-8.23294
▁poor	-8.23301
▁tried	-8.23347
▁catch	-8.234
▁law	-8.2374
▁hour	-8.23833
▁bell	-8.23862
▁safe	-8.23971
▁lives	-8.24154
▁uncle	-8.24263
▁hair	-8.24287
▁papa	-8.24401
▁promise	-8.24531
▁reason	-8.24779
▁giant	-8.24808
▁bill	-8.25041
▁telling	-8.25086
▁couple	-8.25243
▁david	-8.25258
▁sign	-8.25797
▁answer	-8.25815
▁died	-8.25847
▁months	-8.25875
▁feeling	-8.25994
▁sense	-8.26148
▁dramatic	-8.26234
▁outside	-8.26234
▁rock	-8.26255
▁princess	-8.26261
▁ride	-8.26304
▁c	-8.26868
▁bo	-8.26932
▁fear	-8.27212
▁seven	-8.27221
▁earth	-8.27236
▁trust	-8.27246
▁hows	-8.27394
▁glad	-8.27407
▁i	-8.27409
▁billy	-8.27456
▁continues	-8.2754
▁coach	-8.27703
▁suppose	-8.27982
▁blue	-8.28238
▁moving	-8.28249
▁sweet	-8.28896
▁voice	-8.28899
▁fast	-8.29066
▁short	-8.29066
▁serious	-8.29076
▁henry	-8.29265
▁evening	-8.30766
▁class	-8.30772
ies	-8.30827
▁question	-8.31023
▁strong	-8.31137
▁quiet	-8.31145
▁aah	-8.31197
▁body	-8.31343
▁feet	-8.3135
ch	-8.31511
▁ringing	-8.3159
▁roll	-8.31883
▁ten	-8.32014
▁quick	-8.32202
▁step	-8.32473
▁american	-8.33265
▁sun	-8.33444
▁women	-8.33454
▁proud	-8.33509
▁top	-8.33648
▁lead	-8.33782
▁dance	-8.34477
▁grunting	-8.34554
▁g	-8.34633
▁drive	-8.34664
▁join	-8.34982
▁needs	-8.35065
▁slow	-8.35433
▁peter	-8.35473
▁others	-8.35615
▁sick	-8.35617
▁parents	-8.35764
▁sounds	-8.36404
▁husband	-8.36513
▁master	-8.36718
▁clean	-8.36868
▁chattering	-8.3694
ation	-8.37182
▁star	-8.37283
▁champ	-8.37768
▁middle	-8.37813
▁maddy	-8.37834
▁bear	-8.38259
▁changed	-8.38361
▁m	-8.38368
z	-8.38735
▁wonder	-8.39101
▁engine	-8.39199
▁hed	-8.39234
▁fall	-8.39385
ful	-8.39488
▁entire	-8.39894
▁certain	-8.39898
▁small	-8.39921
▁rather	-8.40087
▁radio	-8.40087
▁whoo	-8.4049
▁cat	-8.40568
▁woods	-8.41347
▁road	-8.42334
▁band	-8.42472
is	-8.42642
it	-8.42745
▁taken	-8.43451
▁choice	-8.43573
▁language	-8.43573
▁stick	-8.43578
▁darling	-8.43582
▁drop	-8.43592
▁words	-8.43896
▁horses	-8.44336
▁street	-8.44749
▁forever	-8.44766
▁absolutely	-8.44776
▁theyve	-8.44818
▁learn	-8.45021
nous	-8.45094
▁lts	-8.4533
▁village	-8.45949
▁cold	-8.45975
▁sent	-8.45989
▁picture	-8.4599
▁ed	-8.46481
ous	-8.46992
▁weeks	-8.47076
▁crowd	-8.4725
▁mary	-8.47305
▁lucky	-8.47566
▁camp	-8.47831
▁known	-8.4794
▁possible	-8.48423
▁boat	-8.48547
▁seem	-8.4864
▁lie	-8.48765
ant	-8.48891
▁fair	-8.49434
▁werent	-8.49673
▁worse	-8.49673
▁shell	-8.49686
▁carry	-8.50481
▁lovely	-8.5051
▁mess	-8.50527
▁handle	-8.50768
▁omi	-8.5082
el	-8.50844
▁amazing	-8.50939
▁samurai	-8.50939
▁annie	-8.50948
▁hallie	-8.50963
▁fool	-8.51076
▁million	-8.51084
▁piece	-8.51114
▁worked	-8.51129
▁turned	-8.52123
▁present	-8.52172
▁buddy	-8.52222
▁foot	-8.52241
▁chief	-8.52243
▁ice	-8.52273
▁grunts	-8.52366
▁eye	-8.52431
▁state	-8.52439
▁field	-8.52446
▁meeting	-8.52548
▁knows	-8.52636
▁st	-8.52841
▁given	-8.52944
▁bank	-8.53179
il	-8.53271
▁america	-8.53442
▁glass	-8.53515
▁somewhere	-8.53519
▁maria	-8.53523
▁wedding	-8.53523
▁paris	-8.53524
▁unless	-8.53559
▁ahh	-8.53674
▁kiss	-8.53873
▁count	-8.53902
▁song	-8.53927
▁realize	-8.54589
▁eight	-8.54777
▁control	-8.54826
▁charlie	-8.54835
▁york	-8.54835
▁co	-8.55123
▁miles	-8.5545
▁wear	-8.55637
▁spend	-8.5564
▁a	-8.56028
▁felt	-8.56114
▁tough	-8.56126
▁coffee	-8.56169
▁murray	-8.5617
▁wild	-8.56201
▁cow	-8.5621
▁born	-8.56242
▁daughter	-8.56441
▁fix	-8.56549
▁less	-8.56552
▁birds	-8.56567
▁expect	-8.56574
▁finish	-8.57117
▁pa	-8.57447
ity	-8.5747
▁summer	-8.57508
▁pleasure	-8.5752
▁general	-8.5752
▁maam	-8.57525
▁begin	-8.57558
▁early	-8.57596
▁yelling	-8.57678
▁finished	-8.57926
▁jump	-8.58477
▁longer	-8.58569
▁martin	-8.58744
▁forgive	-8.58797
▁eh	-8.58938
▁dex	-8.58956
▁missed	-8.59001
▁ii	-8.59091
at	-8.5926
▁pass	-8.59265
▁plane	-8.59406
ter	-8.59435
▁flowers	-8.59495
▁pal	-8.59853
▁singing	-8.59859
▁future	-8.60279
▁invincible	-8.60279
▁ones	-8.60349
▁busy	-8.60389
▁trip	-8.60734
▁date	-8.6075
▁saved	-8.6089
▁sell	-8.61175
ry	-8.61606
▁afternoon	-8.61687
▁midnight	-8.61687
▁mum	-8.61707
▁race	-8.61722
▁rain	-8.61729
▁certainly	-8.6192
▁x	-8.62025
▁suit	-8.6217
▁loved	-8.62233
▁marry	-8.62573
▁happens	-8.62819
▁near	-8.62931
▁hero	-8.62984
▁strange	-8.63017
▁machine	-8.63096
▁jesus	-8.63116
▁lunch	-8.63116
▁lonely	-8.6313
▁decided	-8.63268
▁figure	-8.63316
▁service	-8.63566
▁act	-8.63616
▁calm	-8.63826
▁test	-8.64061
▁happening	-8.64233
▁imagine	-8.64286
st	-8.6431
v	-8.64434
▁court	-8.64575
▁shit	-8.64583
▁none	-8.64608
▁simple	-8.64892
▁crying	-8.64928
▁month	-8.65101
▁base	-8.6544
▁explain	-8.65613
▁frank	-8.65847
▁english	-8.66004
▁forgot	-8.66031
▁tea	-8.66179
▁surprise	-8.6629
▁per	-8.66533
ness	-8.66679
up	-8.66776
▁teach	-8.66822
▁return	-8.67121
▁meant	-8.67143
less	-8.67192
▁except	-8.67201
▁report	-8.67251
▁attention	-8.67528
▁botat	-8.67528
▁beside	-8.67529
▁floor	-8.67532
▁sky	-8.67546
▁round	-8.67572
▁jay	-8.67584
▁shouting	-8.67604
▁age	-8.67795
▁gets	-8.68127
out	-8.68203
▁self	-8.68339
▁record	-8.68538
▁shoes	-8.68669
▁brand	-8.68767
us	-8.68929
▁brazil	-8.69031
▁doubt	-8.69043
▁government	-8.69043
▁kevin	-8.69043
▁majesty	-8.69043
▁across	-8.69044
▁caught	-8.69047
▁harry	-8.69047
▁max	-8.6905
▁kate	-8.69056
▁pete	-8.69062
▁aron	-8.69073
▁moon	-8.69075
▁calling	-8.69112
▁grow	-8.69957
ure	-8.69997
ra	-8.70109
re	-8.70422
ul	-8.70537
▁shh	-8.70578
▁saturday	-8.70582
▁christmas	-8.70582
▁sweetheart	-8.70583
▁hungry	-8.70586
▁kidding	-8.70586
▁paid	-8.70617
▁metal	-8.70703
▁completely	-8.70711
▁army	-8.70732
▁w	-8.7103
▁smell	-8.71294
▁r	-8.71462
▁bar	-8.71764
▁agree	-8.71824
▁takes	-8.72071
▁ernest	-8.72075
▁wine	-8.72274
▁finally	-8.7232
▁building	-8.72519
te	-8.72602
▁ground	-8.72897
▁bag	-8.73078
▁dreams	-8.73297
▁fly	-8.7337
x	-8.7338
▁guitar	-8.7368
▁evil	-8.73731
▁hospital	-8.73731
▁marshal	-8.73731
▁terrible	-8.73731
▁rumbling	-8.73733
▁tired	-8.73745
▁hall	-8.73997
▁played	-8.74269
▁wearing	-8.7437
▁hearts	-8.74634
ive	-8.74807
▁deep	-8.74833
um	-8.74848
▁cross	-8.74959
▁indistinct	-8.75155
▁smart	-8.75171
▁clouseau	-8.75344
▁company	-8.75344
▁tommy	-8.75345
▁price	-8.75346
▁queen	-8.75347
▁green	-8.75348
▁mister	-8.75367
▁station	-8.75375
▁groans	-8.75527
▁watching	-8.75691
▁german	-8.75988
▁dress	-8.76019
▁ass	-8.76164
▁mountain	-8.76206
ment	-8.76259
▁asking	-8.76298
▁e	-8.76495
▁aw	-8.76509
▁relax	-8.76553
rs	-8.76663
he	-8.76785
▁low	-8.76914
▁quixote	-8.76984
▁yesterday	-8.76984
▁birthday	-8.76986
▁dangerous	-8.76996
▁groaning	-8.77024
▁anne	-8.77246
▁sad	-8.77286
▁blow	-8.77341
▁push	-8.77484
▁joke	-8.77911
▁board	-8.78237
to	-8.7828
▁quit	-8.78473
▁laugh	-8.78643
▁beginning	-8.78651
▁giving	-8.78654
▁honor	-8.78662
▁box	-8.78669
▁sitting	-8.78684
ling	-8.79095
▁difference	-8.79583
▁judge	-8.79584
▁soul	-8.7964
▁walking	-8.80139
▁final	-8.80173
▁d	-8.802
▁anywhere	-8.80345
▁impossible	-8.80345
▁study	-8.80346
▁favorite	-8.80349
▁milk	-8.80349
▁hide	-8.80475
▁louise	-8.80496
▁tom	-8.80519
▁gasps	-8.80627
▁san	-8.80714
▁promised	-8.80814
ist	-8.80973
▁awful	-8.80985
▁heaven	-8.81366
▁tree	-8.81384
▁letter	-8.81671
▁allow	-8.81678
▁peace	-8.82048
▁ghost	-8.82069
▁kelly	-8.82069
▁forward	-8.82071
▁bought	-8.82075
▁upon	-8.82112
▁totally	-8.82146
▁cover	-8.82445
▁wing	-8.82553
▁pain	-8.82604
▁f	-8.82667
▁con	-8.82806
▁mistake	-8.83077
▁lt	-8.8316
no	-8.83183
▁animal	-8.83282
▁t	-8.83311
se	-8.83362
▁respect	-8.83433
▁grant	-8.83435
▁taste	-8.83543
▁looked	-8.83618
▁pop	-8.83638
▁hat	-8.8375
▁spirit	-8.83822
▁south	-8.83824
▁nowhere	-8.83824
▁sudden	-8.83824
▁whether	-8.83824
▁dying	-8.83826
▁jewish	-8.83826
▁christ	-8.83827
▁position	-8.83828
▁wall	-8.83857
ecame	-8.83878
▁brooks	-8.84283
▁starting	-8.84464
▁missing	-8.84571
▁cook	-8.8459
▁beans	-8.8486
▁charge	-8.84982
▁thousand	-8.84994
▁search	-8.8507
▁honest	-8.85198
▁public	-8.85589
▁linh	-8.8561
▁battle	-8.85625
▁west	-8.85655
▁cup	-8.85658
▁mouth	-8.85661
▁pre	-8.85663
▁leg	-8.85676
▁sight	-8.85678
▁roaring	-8.85693
▁ran	-8.85784
th	-8.85998
▁shed	-8.86014
▁problems	-8.86169
▁legs	-8.86203
▁works	-8.86376
▁k	-8.86545
▁reed	-8.86564
▁training	-8.86639
▁fish	-8.86782
▁idiot	-8.86788
▁area	-8.86813
▁store	-8.86815
▁lived	-8.86911
▁kick	-8.8702
▁listening	-8.87348
▁ought	-8.87384
▁pro	-8.87396
▁neither	-8.87428
▁island	-8.87428
▁often	-8.87428
▁truck	-8.87428
▁normal	-8.87429
▁clothes	-8.87438
▁tj	-8.87439
▁sonny	-8.87452
▁boss	-8.87573
▁interested	-8.87631
▁main	-8.87717
▁ho	-8.87768
▁lay	-8.87947
▁continue	-8.88468
▁dogs	-8.88484
▁yo	-8.88679
▁bird	-8.88728
▁soft	-8.89093
▁witch	-8.89194
▁fighting	-8.89254
▁church	-8.89268
▁colonel	-8.8928
▁history	-8.8928
▁thunder	-8.8928
▁ryan	-8.8928
▁kept	-8.89281
▁sake	-8.89292
▁daniel	-8.89299
▁winter	-8.89342
▁bitch	-8.89436
▁double	-8.8954
▁lf	-8.89702
▁dollars	-8.90141
▁burn	-8.9018
▁knock	-8.90213
nt	-8.90409
▁movie	-8.90639
▁officer	-8.90779
▁rich	-8.91015
▁super	-8.91139
▁bunch	-8.91166
▁extra	-8.91169
▁message	-8.91185
▁united	-8.91319
▁tires	-8.91474
▁bloody	-8.91611
▁flying	-8.91805
▁rid	-8.92023
▁mark	-8.92243
▁pray	-8.9234
▁protect	-8.92622
▁names	-8.92697
▁garden	-8.92767
▁joe	-8.92832
▁sea	-8.92849
▁weird	-8.92935
▁major	-8.93069
▁especially	-8.93089
▁strike	-8.93089
▁within	-8.93089
▁marriage	-8.93091
▁tapes	-8.93094
▁mmhmm	-8.93101
▁chirping	-8.93126
▁north	-8.9336
▁nurse	-8.93408
▁attack	-8.9359
ce	-8.93778
▁enjoy	-8.94077
▁park	-8.94271
▁gas	-8.9433
▁needed	-8.94491
▁nose	-8.94566
▁film	-8.94613
ta	-8.9472
▁standing	-8.94829
▁form	-8.94843
▁lieutenant	-8.9505
▁third	-8.9505
▁twice	-8.9505
▁worried	-8.9505
▁situation	-8.9505
▁trail	-8.95053
▁chuckling	-8.95053
▁sunshine	-8.95054
▁jail	-8.95056
▁throat	-8.95062
▁national	-8.95088
▁hans	-8.95096
▁brave	-8.95122
▁interesting	-8.95338
▁seriously	-8.95413
▁questions	-8.95648
▁learned	-8.9572
▁lll	-8.96152
▁post	-8.96323
▁seat	-8.96385
▁cost	-8.96645
▁brain	-8.96676
ally	-8.96729
ke	-8.96995
▁indian	-8.96997
▁congratulations	-8.9705
▁everywhere	-8.9705
▁nervous	-8.9705
▁practice	-8.9705
▁wolf	-8.9705
▁jenny	-8.97051
▁vote	-8.97052
▁sanka	-8.97054
▁dico	-8.97059
▁single	-8.97156
▁card	-8.97356
▁faster	-8.97365
▁germans	-8.98009
▁bother	-8.98131
▁so	-8.98143
▁score	-8.98214
la	-8.9855
▁reach	-8.98686
▁elephant	-8.98688
▁medal	-8.98706
▁list	-8.98911
▁broke	-8.98931
▁h	-8.98984
▁account	-8.99022
▁prince	-8.99032
▁goddamn	-8.99091
▁pardon	-8.99091
▁hadnt	-8.99091
▁manolo	-8.99091
▁upset	-8.99091
▁nature	-8.99092
▁instead	-8.99094
▁derice	-8.99094
▁pants	-8.99104
▁bottle	-8.99121
▁path	-8.99122
▁stopped	-8.99149
▁arms	-8.99249
▁van	-8.99282
▁owe	-8.99358
▁ron	-8.99383
▁fairy	-8.99452
▁up	-8.99584
▁ned	-8.99651
age	-8.9981
▁accept	-9.00341
▁hal	-9.00726
▁fell	-9.00942
▁warm	-9.0103
▁revolution	-9.01089
▁personal	-9.01111
▁grab	-9.01136
▁darryl	-9.01174
▁worst	-9.01174
▁choose	-9.01175
▁sheriff	-9.01175
▁axel	-9.01177
▁scene	-9.01177
▁stuck	-9.01182
▁yep	-9.01188
▁danny	-9.01188
▁instrumental	-9.01199
▁nine	-9.01204
▁emma	-9.01209
▁dirty	-9.01218
▁mm	-9.01419
▁mayor	-9.01429
▁guns	-9.0152
▁quickly	-9.01549
▁fathers	-9.01589
▁dare	-9.01718
▁folks	-9.01778
▁peppers	-9.02251
▁offer	-9.02535
▁lock	-9.02636
▁arrest	-9.02891
▁cry	-9.02925
▁horn	-9.0299
▁key	-9.03033
▁guard	-9.03048
▁simon	-9.03129
▁match	-9.03216
▁admit	-9.03293
▁dumb	-9.03296
▁inspector	-9.03302
▁london	-9.03302
▁swear	-9.03302
▁uhhuh	-9.03302
▁vietnamese	-9.03302
▁gang	-9.03305
▁bread	-9.03306
▁tight	-9.03306
▁dig	-9.03308
▁football	-9.03312
▁laughter	-9.03326
▁tense	-9.03341
▁eric	-9.03345
▁immediately	-9.03365
id	-9.03604
im	-9.03761
▁farm	-9.03822
▁foreign	-9.04582
ri	-9.04593
ro	-9.04627
▁following	-9.04725
son	-9.05128
▁window	-9.05235
▁track	-9.05247
▁action	-9.05279
▁magic	-9.05415
▁accident	-9.05462
▁teacher	-9.05469
▁system	-9.05476
▁indeed	-9.05477
▁department	-9.05479
▁royal	-9.0548
▁driving	-9.05481
▁dude	-9.05482
▁definitely	-9.05489
▁studio	-9.05499
▁screeching	-9.05529
▁writing	-9.05542
▁fred	-9.05573
▁camera	-9.05583
▁ring	-9.05683
▁driver	-9.05697
▁appreciate	-9.05731
▁seeing	-9.05755
li	-9.06181
▁using	-9.06258
▁lights	-9.06285
▁player	-9.06402
▁fit	-9.06419
▁brothers	-9.06514
▁o	-9.06669
▁lift	-9.06699
da	-9.06887
▁build	-9.07165
▁mo	-9.07237
▁complete	-9.07512
▁bright	-9.07546
▁arm	-9.07636
▁glauben	-9.07698
▁address	-9.07698
▁hasnt	-9.077
▁joy	-9.07751
▁rules	-9.07757
▁highness	-9.07763
▁staying	-9.07767
▁scoffs	-9.07839
▁greatest	-9.08231
▁couldve	-9.08456
et	-9.08603
▁wondering	-9.0876
▁bang	-9.09389
▁goal	-9.09555
▁states	-9.09654
▁cute	-9.09783
▁paul	-9.09861
co	-9.09947
▁breakfast	-9.09971
▁excellent	-9.09971
▁fresh	-9.09971
▁smile	-9.09971
▁friday	-9.09972
▁beauty	-9.09972
▁wilson	-9.09974
▁willing	-9.09974
▁abby	-9.09975
▁blame	-9.09976
▁information	-9.0998
▁sold	-9.09985
▁tv	-9.09994
▁gage	-9.10002
oo	-9.10053
▁dean	-9.10087
▁broken	-9.10171
▁figured	-9.104
▁musicians	-9.10459
ton	-9.10648
▁ohh	-9.10716
▁trees	-9.10888
▁where	-9.10945
ian	-9.11055
▁belong	-9.11785
▁dis	-9.11806
▁books	-9.11864
ne	-9.1204
▁prove	-9.12056
▁east	-9.12108
▁table	-9.12259
▁dooyoung	-9.12296
▁plenty	-9.12296
▁upstairs	-9.12296
▁loose	-9.12299
▁whose	-9.12304
▁rule	-9.12344
▁bay	-9.12396
ow	-9.12406
▁talked	-9.12412
▁madame	-9.12419
▁clicks	-9.12562
▁eating	-9.12707
mo	-9.12755
▁pok	-9.12902
▁art	-9.13287
me	-9.13555
▁mothers	-9.13641
▁visit	-9.13663
▁pack	-9.13735
▁ma	-9.14557
▁monster	-9.14602
▁decision	-9.14641
▁snake	-9.14669
▁rent	-9.14673
▁hyah	-9.14677
▁jordan	-9.14677
▁sheep	-9.14677
▁freedom	-9.14678
▁risk	-9.14678
▁teeth	-9.14679
▁rough	-9.14679
▁angry	-9.1468
▁alvin	-9.14687
▁apartment	-9.14693
▁bobby	-9.14694
▁gentleman	-9.14706
▁frosty	-9.14722
▁paper	-9.14742
ee	-9.151
▁wave	-9.15134
▁boots	-9.15284
▁jet	-9.15498
mon	-9.15525
▁ben	-9.15882
▁tape	-9.15977
▁breathe	-9.16247
de	-9.16577
▁butt	-9.16775
▁loud	-9.16917
▁wood	-9.17004
▁russia	-9.17045
▁bamboo	-9.17116
▁claude	-9.17116
▁empty	-9.17116
▁heavy	-9.17116
▁jeanclaude	-9.17116
▁lebraque	-9.17116
▁orchestra	-9.17116
▁blind	-9.17117
▁cash	-9.17117
▁patty	-9.17118
▁chocolate	-9.17122
▁outta	-9.17123
▁fellow	-9.1713
▁journey	-9.17131
▁simply	-9.17131
▁james	-9.17143
▁explosion	-9.17148
▁color	-9.17153
▁student	-9.17166
▁thatll	-9.17169
▁bull	-9.1718
▁beer	-9.17276
▁stormy	-9.17287
▁breath	-9.17327
ho	-9.17334
j	-9.17447
▁militar	-9.17453
▁leo	-9.1783
▁ex	-9.18116
ated	-9.18394
ia	-9.18464
▁homer	-9.18597
ah	-9.1862
ent	-9.18793
▁hunt	-9.18915
▁di	-9.18918
▁travel	-9.1904
▁destroy	-9.19208
▁sleeping	-9.19249
▁waste	-9.1934
▁louis	-9.19395
▁force	-9.19433
▁howd	-9.19438
▁bridge	-9.19445
▁angel	-9.19447
▁awesome	-9.19616
▁defend	-9.19616
▁truly	-9.19617
▁support	-9.19617
▁taught	-9.1962
▁yellow	-9.19621
▁correct	-9.19622
▁allyson	-9.19623
▁baseball	-9.19627
▁announcer	-9.19644
io	-9.19647
▁tower	-9.19653
▁hotel	-9.19676
▁amy	-9.19677
▁chicken	-9.19688
▁donkey	-9.19698
▁ar	-9.19859
▁mmm	-9.19872
▁calls	-9.19924
▁lies	-9.19988
▁tall	-9.20297
ty	-9.20584
▁bones	-9.2072
▁falling	-9.20806
▁le	-9.20952
▁over	-9.20952
▁discuss	-9.21109
lo	-9.21258
and	-9.21299
▁chatter	-9.21658
▁breaking	-9.21688
▁faith	-9.21831
▁difficult	-9.21948
▁bobsled	-9.22179
▁college	-9.22181
▁emergency	-9.22181
▁spell	-9.22185
▁garret	-9.22186
▁neck	-9.22186
▁river	-9.22194
▁charles	-9.222
▁jim	-9.22202
▁space	-9.22208
▁rise	-9.22213
▁coat	-9.22215
▁center	-9.22235
▁press	-9.22252
▁whatd	-9.22258
▁fruit	-9.22308
▁remind	-9.2234
▁losing	-9.2234
ill	-9.22483
ard	-9.22513
▁da	-9.22576
▁cap	-9.22665
▁bat	-9.22712
▁allowed	-9.22792
▁sp	-9.22912
▁lion	-9.23008
▁fellas	-9.23066
▁animals	-9.2315
ck	-9.23238
▁closed	-9.23246
▁v	-9.2422
▁ruin	-9.24444
▁raise	-9.24538
▁notice	-9.24539
▁experience	-9.24562
▁view	-9.24809
▁ancient	-9.24812
▁beyond	-9.24812
▁boddy	-9.24812
▁british	-9.24812
▁contact	-9.24812
▁dartagnan	-9.24812
▁governor	-9.24812
▁junior	-9.24812
▁kitchen	-9.24812
▁possibly	-9.24812
▁strength	-9.24812
▁whistling	-9.24812
▁ethan	-9.24812
▁humming	-9.24812
▁pecos	-9.24812
▁copperfield	-9.24812
▁anabel	-9.24813
▁thudding	-9.24815
▁forgotten	-9.2482
▁operation	-9.24825
▁weight	-9.24831
▁games	-9.25002
be	-9.25158
▁wand	-9.25774
▁er	-9.25985
▁ears	-9.26052
▁el	-9.26616
▁tim	-9.26955
▁jamaica	-9.27346
▁large	-9.27405
▁drunk	-9.2748
▁courage	-9.27492
▁apologize	-9.27515
▁california	-9.27515
▁someday	-9.27515
▁kingdom	-9.27515
▁miep	-9.27515
▁committee	-9.27516
▁guide	-9.27516
▁mommy	-9.27517
▁clapping	-9.27522
▁silly	-9.27531
▁shame	-9.27531
▁lying	-9.27579
▁danger	-9.27587
▁sean	-9.27642
▁steve	-9.27772
▁gotten	-9.27795
ts	-9.27814
▁paying	-9.27816
▁hearing	-9.27884
▁stars	-9.27935
un	-9.28024
▁expected	-9.28344
tic	-9.28372
▁oil	-9.28605
▁younger	-9.28849
ca	-9.28972
ine	-9.29207
▁orders	-9.29322
▁moved	-9.29773
▁skin	-9.29813
▁consider	-9.29819
▁appear	-9.2986
▁sh	-9.29893
though	-9.29916
▁feed	-9.29984
▁serve	-9.3002
▁decide	-9.30062
▁prison	-9.30084
▁off	-9.30236
▁gentle	-9.3026
▁favor	-9.30287
▁cheese	-9.30293
▁famous	-9.30293
▁innocent	-9.30293
▁joaquin	-9.30293
▁necessary	-9.30293
▁pikachu	-9.30293
▁ugh	-9.30293
▁smoke	-9.30293
▁owner	-9.30294
▁stanley	-9.30294
ig	-9.30294
▁adam	-9.30296
▁crap	-9.30296
▁medicine	-9.30308
▁tour	-9.30326
▁involved	-9.30376
▁putting	-9.30403
▁stone	-9.30413
▁ash	-9.30436
▁grand	-9.30532
▁prepared	-9.30541
▁cell	-9.30543
▁bus	-9.30604
▁closer	-9.30637
▁yall	-9.30641
▁manage	-9.30642
▁named	-9.30649
▁nearly	-9.30662
▁bears	-9.30682
ance	-9.30714
am	-9.30896
▁dressed	-9.30995
▁passed	-9.31123
led	-9.31199
ish	-9.31417
▁introduce	-9.316
land	-9.3161
▁followed	-9.31717
ping	-9.3175
▁pounds	-9.32016
▁spot	-9.32296
▁who	-9.32319
▁everythings	-9.32329
▁sha	-9.32377
men	-9.32411
▁hooh	-9.32631
tion	-9.3265
▁treat	-9.32727
▁share	-9.32882
▁draw	-9.32951
▁heads	-9.33014
▁chair	-9.33122
▁robert	-9.33137
▁afford	-9.3315
▁example	-9.3315
▁opinion	-9.3315
▁shark	-9.3315
▁asleep	-9.3315
▁planning	-9.33151
▁beach	-9.33152
▁hank	-9.33155
▁barking	-9.33157
▁jamie	-9.33161
▁daniella	-9.33169
▁slappy	-9.3317
▁streets	-9.33177
▁flat	-9.33189
▁pair	-9.33209
▁bigger	-9.33221
▁squealing	-9.33253
▁miller	-9.33271
▁holy	-9.33448
▁corner	-9.33457
▁kim	-9.33493
▁keys	-9.33522
▁rose	-9.33574
▁lee	-9.33924
ma	-9.34089
▁note	-9.34217
▁mountains	-9.34527
▁walked	-9.35119
▁awake	-9.35422
▁keeping	-9.35893
▁refuse	-9.35905
▁liked	-9.3599
▁weak	-9.36034
▁greg	-9.36052
▁computer	-9.36082
▁shop	-9.36089
▁bottom	-9.36091
▁duggal	-9.36091
▁eddie	-9.36091
▁however	-9.36091
▁cantrell	-9.36091
▁gandhi	-9.36092
▁program	-9.36092
▁cancer	-9.36093
▁grandpa	-9.36094
▁snakes	-9.36107
▁paddle	-9.36109
▁incredible	-9.36124
▁size	-9.3613
ge	-9.36154
▁babe	-9.36158
▁huge	-9.36173
▁male	-9.36188
▁doin	-9.36197
▁hoping	-9.36211
▁conversation	-9.36634
▁knocking	-9.36939
▁hanging	-9.37939
▁pie	-9.3807
ting	-9.38087
▁fingers	-9.3815
▁steal	-9.38585
as	-9.38818
▁prepare	-9.3885
▁particular	-9.38929
▁equal	-9.39101
▁dulcinea	-9.39121
▁farooqi	-9.39121
▁halloween	-9.39121
▁weather	-9.39121
▁wrote	-9.39121
▁steady	-9.39122
▁priest	-9.39122
▁winner	-9.39124
▁spread	-9.3914
▁holding	-9.39185
▁hook	-9.39195
▁code	-9.39228
▁block	-9.39294
▁deserve	-9.39421
▁vi	-9.39488
▁ko	-9.39666
▁add	-9.39681
▁locked	-9.39708
▁gunshot	-9.39761
▁whistle	-9.39765
les	-9.39794
▁hundred	-9.39801
▁russian	-9.39857
▁nicky	-9.40029
▁sooner	-9.4004
▁seemed	-9.40143
▁bucks	-9.40241
os	-9.40279
▁rocks	-9.40391
▁gods	-9.40994
▁po	-9.41117
▁bite	-9.41322
▁bless	-9.41387
▁surf	-9.41703
▁helping	-9.41775
▁grace	-9.41822
beat	-9.41983
▁storm	-9.42027
▁harris	-9.42193
▁pictures	-9.42204
▁scott	-9.42215
the	-9.42246
▁aurora	-9.42246
▁competition	-9.42246
▁private	-9.42246
▁rainbow	-9.42246
▁split	-9.42246
▁threw	-9.42246
▁video	-9.42246
▁zarkorr	-9.42246
▁doyle	-9.42246
▁sweden	-9.42246
▁russ	-9.42249
▁surrender	-9.42253
▁familiar	-9.42265
▁quarter	-9.42271
▁switch	-9.42284
▁obviously	-9.42315
ate	-9.42322
▁tiny	-9.42329
▁arrived	-9.4244
▁sled	-9.42546
go	-9.42645
▁goin	-9.4265
▁ham	-9.42684
▁destroyed	-9.42761
▁slowly	-9.42796
▁sunday	-9.42999
▁shoe	-9.43035
ng	-9.43046
▁coast	-9.43053
▁no	-9.43358
▁nation	-9.43417
ster	-9.43474
▁theyd	-9.43499
▁do	-9.43605
▁fired	-9.43916
tain	-9.43922
▁an	-9.44088
▁feels	-9.44427
▁buying	-9.44531
▁older	-9.44761
▁event	-9.44783
hi	-9.44875
▁corn	-9.45108
▁superhero	-9.4538
▁brilliant	-9.45472
▁flicka	-9.45472
▁jacob	-9.45472
▁restaurant	-9.45472
▁security	-9.45472
▁spider	-9.45472
▁treasure	-9.45472
▁zeena	-9.45472
▁material	-9.45473
▁silver	-9.45473
▁speed	-9.45473
▁whoever	-9.45474
▁fought	-9.45475
▁common	-9.45476
▁granny	-9.45477
▁kane	-9.4548
▁route	-9.45483
▁comin	-9.45486
▁handsome	-9.45504
▁cream	-9.45505
▁valley	-9.45512
▁papers	-9.45513
▁starts	-9.45537
▁manager	-9.45591
▁map	-9.45612
▁hiding	-9.45644
▁exist	-9.45843
▁speaks	-9.4585
▁due	-9.46008
▁perfectly	-9.46264
▁lawyer	-9.46273
▁ticket	-9.46321
▁remain	-9.46327
▁that	-9.46371
▁riding	-9.46388
▁growing	-9.46616
▁towards	-9.46749
▁br	-9.47013
▁records	-9.47417
▁cheers	-9.47421
▁screams	-9.47754
ted	-9.47926
▁contract	-9.481
▁fill	-9.48102
way	-9.48286
▁hm	-9.48464
▁create	-9.48531
▁wash	-9.48538
▁direct	-9.48629
▁command	-9.4864
▁madam	-9.48674
▁enemy	-9.48805
▁england	-9.48805
▁jacques	-9.48805
▁justice	-9.48805
▁pizza	-9.48805
▁ridiculous	-9.48805
▁several	-9.48805
▁stories	-9.48805
▁terrific	-9.48805
▁attorney	-9.48805
▁built	-9.48805
▁grandfather	-9.48805
▁canterville	-9.48806
▁piano	-9.48806
▁dump	-9.4881
▁howard	-9.48816
▁gail	-9.48817
▁written	-9.48826
▁abra	-9.48827
▁emily	-9.48827
▁pressure	-9.4883
▁style	-9.48864
▁meal	-9.48867
▁pure	-9.48898
▁whispering	-9.48927
▁murderer	-9.49018
▁murder	-9.49102
ii	-9.49499
▁mission	-9.49545
▁gift	-9.49733
▁comrade	-9.49786
▁pool	-9.49976
▁passing	-9.50124
▁expecting	-9.50159
▁giants	-9.50331
▁lines	-9.50358
▁loves	-9.50466
▁picked	-9.50633
▁mar	-9.50736
na	-9.50739
▁plays	-9.51159
▁ranch	-9.51448
▁climb	-9.51678
▁concern	-9.51844
▁march	-9.51871
▁mention	-9.51925
▁recognize	-9.51973
▁africa	-9.52155
▁spoke	-9.52182
▁europe	-9.52224
▁birth	-9.5225
▁birkin	-9.52254
▁bullshit	-9.52254
▁cahill	-9.52254
▁claudia	-9.52254
▁fantastic	-9.52254
▁giggling	-9.52254
▁kathy	-9.52254
▁wreck	-9.52254
▁davy	-9.52254
▁perrin	-9.52254
▁telephone	-9.52254
▁thou	-9.52254
▁biggest	-9.52254
▁umney	-9.52254
▁buttermaker	-9.52255
▁otto	-9.52256
▁gather	-9.52256
▁monday	-9.52256
▁honking	-9.52257
▁roof	-9.52257
▁extreme	-9.52257
▁june	-9.52257
▁nope	-9.5226
▁poison	-9.52261
▁aunt	-9.52263
▁spring	-9.52263
▁dropped	-9.52269
▁christine	-9.52272
▁christian	-9.52276
▁season	-9.52278
▁irv	-9.52281
▁kite	-9.52297
▁loving	-9.52314
▁mattie	-9.52319
▁saving	-9.52327
▁shape	-9.52336
▁rush	-9.52337
▁beeping	-9.5242
ary	-9.52438
▁ray	-9.52461
▁signal	-9.52474
ism	-9.52618
▁rings	-9.5265
▁pleased	-9.52819
▁scream	-9.52831
▁n	-9.52924
▁realized	-9.53039
▁ab	-9.53162
▁movies	-9.53232
▁swan	-9.53303
▁roger	-9.53312
▁session	-9.53333
▁dads	-9.53352
▁showed	-9.53372
▁finger	-9.53378
op	-9.53399
▁lately	-9.53492
▁goodness	-9.53516
▁prayer	-9.53613
▁boo	-9.53705
▁robot	-9.53922
▁balls	-9.54099
▁su	-9.54255
▁prefer	-9.54323
▁legal	-9.54469
▁poole	-9.54593
▁fat	-9.5467
ns	-9.54759
▁seconds	-9.54761
▁tie	-9.55144
▁repeat	-9.5526
ki	-9.55307
▁request	-9.55394
▁cl	-9.55574
▁stole	-9.55757
▁attempt	-9.55825
▁avoid	-9.55825
▁constance	-9.55825
▁energy	-9.55825
▁expert	-9.55825
▁international	-9.55825
▁michael	-9.55825
▁pride	-9.55825
▁proctor	-9.55825
▁sancho	-9.55825
▁watergate	-9.55825
▁yvette	-9.55825
▁stood	-9.55825
▁washington	-9.55825
▁held	-9.55825
▁whenever	-9.55825
▁pokemon	-9.55827
▁whooshing	-9.55829
▁counselor	-9.5583
▁swim	-9.55831
▁kings	-9.55838
▁electricity	-9.55841
▁meat	-9.55849
▁began	-9.55853
▁grass	-9.55864
▁duty	-9.55869
▁laid	-9.55881
▁ra	-9.55891
▁tony	-9.55929
▁interest	-9.56036
che	-9.56168
▁warning	-9.5621
▁joey	-9.56241
mp	-9.56297
▁reporter	-9.56626
▁killing	-9.56669
▁bringing	-9.5672
di	-9.56759
▁higher	-9.56775
you	-9.56848
▁dry	-9.56948
▁partner	-9.57006
▁patient	-9.5702
▁tip	-9.57053
ung	-9.57215
▁cars	-9.57413
▁cape	-9.57621
▁bomb	-9.57682
ky	-9.57842
▁fort	-9.57876
▁plant	-9.58008
▁lots	-9.58054
res	-9.58055
ot	-9.58155
ize	-9.58318
▁wa	-9.58464
▁en	-9.58549
▁defeat	-9.5911
screen	-9.5914
▁earn	-9.59164
▁survive	-9.5925
▁swing	-9.59259
▁official	-9.59335
▁natural	-9.59338
▁speech	-9.5944
▁nothin	-9.59482
▁apart	-9.59506
▁credit	-9.59528
▁downstairs	-9.59529
▁effort	-9.59529
▁knife	-9.59529
▁knight	-9.59529
▁monsieur	-9.59529
▁nascimento	-9.59529
▁phoenix	-9.59529
▁responsible	-9.59529
▁somehow	-9.59529
▁crime	-9.59529
▁jimmy	-9.59529
▁suspect	-9.5953
▁trotwood	-9.5953
▁local	-9.59531
▁sanchez	-9.59531
▁winning	-9.59531
▁candy	-9.59533
▁howling	-9.59533
▁miracle	-9.59534
▁richard	-9.59535
▁panting	-9.59537
▁flight	-9.59537
▁palace	-9.59538
▁opportunity	-9.59542
▁labor	-9.59547
▁rabbit	-9.59556
▁grade	-9.59557
▁ego	-9.59558
▁coke	-9.59565
▁unfortunately	-9.59578
▁plus	-9.5958
▁salt	-9.59589
▁level	-9.59594
▁zoe	-9.59638
▁arth	-9.5964
ade	-9.5966
▁mustard	-9.59735
▁baker	-9.59771
▁planet	-9.59845
▁booming	-9.59892
▁killer	-9.59932
▁county	-9.60164
▁agreed	-9.60184
▁turning	-9.60329
▁believed	-9.60538
▁jean	-9.60837
▁you	-9.60872
▁surely	-9.61012
fi	-9.6105
ver	-9.61097
▁feelings	-9.61338
▁bro	-9.61453
▁powers	-9.61599
ir	-9.61966
time	-9.61991
▁sc	-9.62177
▁ne	-9.62455
▁beg	-9.6246
▁nobodys	-9.62525
▁wi	-9.62588
▁mighty	-9.62653
▁settle	-9.62663
▁mis	-9.62699
▁suggest	-9.62902
ai	-9.6291
▁bike	-9.63182
▁for	-9.6323
▁spit	-9.63239
▁me	-9.63344
▁stock	-9.63369
▁advice	-9.63375
▁mount	-9.63375
▁purpose	-9.63375
▁stomach	-9.63375
▁sweetmeat	-9.63375
▁value	-9.63375
▁whirring	-9.63375
▁cardinal	-9.63375
▁project	-9.63375
▁snow	-9.63375
▁physical	-9.63375
▁interview	-9.63375
▁staff	-9.63377
▁university	-9.63378
▁trapped	-9.63381
▁noble	-9.63382
▁girlfriend	-9.63383
▁dick	-9.63385
▁clock	-9.63385
▁alarm	-9.6339
▁snap	-9.63393
▁grave	-9.63397
▁wet	-9.63405
▁understood	-9.63413
▁gate	-9.63419
▁cave	-9.6342
▁coughing	-9.63429
▁forest	-9.6343
▁therell	-9.63433
▁memory	-9.63442
▁stolen	-9.63451
▁creaking	-9.6347
▁reading	-9.63525
▁bridget	-9.63531
▁gosh	-9.63532
▁gasping	-9.63534
▁received	-9.63567
▁scary	-9.63584
ac	-9.63613
▁union	-9.63617
▁sighing	-9.63646
▁crashing	-9.63768
▁germany	-9.63902
ol	-9.64011
▁banging	-9.64295
▁returned	-9.64448
▁trap	-9.64477
▁seek	-9.64557
▁fixed	-9.6457
▁thousands	-9.64766
▁object	-9.64783
▁pound	-9.64937
▁hole	-9.65073
min	-9.65496
▁stayed	-9.65558
▁caused	-9.65612
▁hated	-9.65804
▁sisters	-9.65978
▁everybodys	-9.66121
▁all	-9.66404
ized	-9.66422
▁lips	-9.66785
let	-9.66878
▁assure	-9.67135
▁port	-9.67141
▁cr	-9.67153
▁turns	-9.67217
▁wise	-9.6732
ba	-9.67341
▁holly	-9.67372
▁whip	-9.67372
▁represent	-9.67373
▁suspense	-9.67375
▁april	-9.67375
▁boyfriend	-9.67375
▁bravo	-9.67375
▁celebrate	-9.67375
▁duchess	-9.67375
▁gertrude	-9.67375
▁gideon	-9.67375
▁godmother	-9.67375
▁holiness	-9.67375
▁investigation	-9.67375
▁paradise	-9.67375
▁revving	-9.67375
▁sioux	-9.67375
▁steerforth	-9.67375
▁telegram	-9.67375
▁thompson	-9.67375
▁vehicle	-9.67375
▁byebye	-9.67375
▁alien	-9.67375
▁aware	-9.67375
▁sugar	-9.67375
▁ugly	-9.67376
▁medical	-9.67376
▁minister	-9.67376
▁earlier	-9.67377
▁melba	-9.67378
▁native	-9.67378
▁thornton	-9.67378
▁prize	-9.67382
▁dummy	-9.67382
▁katy	-9.67384
▁crew	-9.67384
▁apparently	-9.67387
▁voiceover	-9.67387
▁crackling	-9.67387
▁female	-9.67389
▁norman	-9.6739
▁hammer	-9.67394
▁excited	-9.67399
▁fang	-9.6741
▁panic	-9.67426
▁macka	-9.67444
▁tillie	-9.6751
▁itd	-9.67517
▁usually	-9.67543
▁clanging	-9.67562
▁invited	-9.67593
▁opening	-9.67635
by	-9.67737
▁deepu	-9.67771
▁lil	-9.67783
▁hurts	-9.67812
▁indistinctly	-9.67852
▁concerned	-9.67853
▁cop	-9.68154
▁players	-9.6836
▁americans	-9.68438
▁cheer	-9.68542
▁members	-9.68559
▁barn	-9.687
▁sports	-9.68869
▁chu	-9.68955
▁creature	-9.69051
▁wire	-9.69095
▁bean	-9.6912
▁pulled	-9.69147
▁harder	-9.69215
▁lesson	-9.69223
▁tail	-9.69447
▁ca	-9.69701
▁knees	-9.69724
▁closes	-9.6975
▁siren	-9.70164
ring	-9.70203
tin	-9.70429
▁cake	-9.7066
sa	-9.70671
▁ka	-9.70785
ial	-9.70927
▁millions	-9.71075
▁claim	-9.71101
ball	-9.71215
▁damage	-9.71248
▁ruth	-9.71331
▁total	-9.71354
▁original	-9.71364
▁resign	-9.71517
▁progress	-9.71523
▁francis	-9.71532
▁andrada	-9.71542
▁champagne	-9.71542
▁chinook	-9.71542
▁decent	-9.71542
▁election	-9.71542
▁gloria	-9.71542
▁jealous	-9.71542
▁jekyll	-9.71542
▁kakamucho	-9.71542
▁kruger	-9.71542
▁munchie	-9.71542
▁reckon	-9.71542
▁responsibility	-9.71542
▁sacred	-9.71542
▁samadhi	-9.71542
▁spanish	-9.71542
▁stokes	-9.71542
▁theodore	-9.71542
▁sheila	-9.71542
▁magnificent	-9.71542
▁nightmare	-9.71542
▁dancing	-9.71543
▁kitty	-9.71543
▁shouldve	-9.71544
▁shawn	-9.71545
▁authority	-9.71547
▁firing	-9.71547
▁unique	-9.71548
▁leak	-9.71552
▁chapel	-9.71553
▁merry	-9.71555
▁assume	-9.71555
▁grandma	-9.71565
▁weekend	-9.71565
▁loan	-9.71571
▁clay	-9.71571
▁pele	-9.71576
▁dust	-9.71593
▁bound	-9.71602
▁wailing	-9.71623
▁deny	-9.71679
▁print	-9.71682
▁disappointed	-9.7169
▁electric	-9.71692
▁grown	-9.71718
▁copy	-9.71766
▁sandy	-9.71776
▁bangs	-9.71799
▁mate	-9.71824
▁letting	-9.71873
▁fianc	-9.71903
▁recall	-9.7192
▁fate	-9.71927
▁lily	-9.72039
jo	-9.72075
▁surprised	-9.72321
▁cents	-9.72446
▁ding	-9.72465
lt	-9.72523
▁thy	-9.72609
▁scar	-9.7263
▁nuts	-9.72681
▁casey	-9.72731
dy	-9.72764
▁condition	-9.72934
▁sand	-9.72962
▁knee	-9.73033
▁bath	-9.73081
▁keeps	-9.73197
▁letters	-9.73271
▁unto	-9.73292
▁noise	-9.73366
▁bastard	-9.73376
▁pi	-9.73623
▁yard	-9.73635
▁plans	-9.73666
▁ti	-9.73967
ery	-9.74075
▁cops	-9.74111
om	-9.74125
▁pe	-9.74173
one	-9.74317
▁hill	-9.74513
▁comrades	-9.74618
pe	-9.74728
▁li	-9.75107
▁ver	-9.75127
▁songs	-9.75193
▁chris	-9.75242
▁freak	-9.75331
▁wound	-9.75457
▁ended	-9.75463
▁shots	-9.75556
▁pet	-9.75561
▁arrive	-9.75618
▁escape	-9.75645
▁cab	-9.75684
▁career	-9.75726
▁julie	-9.75741
▁collect	-9.75803
▁among	-9.7587
▁effect	-9.75873
▁beloved	-9.75889
▁evidence	-9.75889
▁festival	-9.75889
▁joseph	-9.75889
▁kaguya	-9.75889
▁meredith	-9.75889
▁nonsense	-9.75889
▁society	-9.75889
▁velrans	-9.75889
▁wickfield	-9.75889
▁agnes	-9.75889
▁bernie	-9.75889
▁bfg	-9.75889
▁cheryl	-9.75889
▁current	-9.75889
▁exciting	-9.75889
▁gfg	-9.75889
▁walter	-9.75889
▁habit	-9.7589
▁japanese	-9.7589
▁sandwich	-9.75891
▁slipper	-9.75891
▁gruberman	-9.75895
▁goku	-9.75897
▁mike	-9.75897
▁market	-9.75903
▁shopping	-9.75903
▁communist	-9.75908
▁edward	-9.75908
▁comment	-9.7591
▁butcher	-9.7591
▁changing	-9.75916
▁yearold	-9.75926
▁growling	-9.75935
▁farley	-9.75947
▁castle	-9.75964
▁comfortable	-9.75964
▁gim	-9.75981
▁homework	-9.75982
▁african	-9.76014
▁discussion	-9.76016
▁sally	-9.76033
▁taxi	-9.76043
▁pr	-9.76047
▁disappeared	-9.76101
▁champion	-9.76118
▁buzzing	-9.76119
▁jamaican	-9.76163
▁glasses	-9.76188
▁payment	-9.7619
pl	-9.76196
▁hon	-9.76228
▁noticed	-9.76346
ga	-9.76349
▁charming	-9.76357
▁du	-9.76385
▁deeply	-9.76411
▁sat	-9.76525
▁ruined	-9.76577
▁chop	-9.76654
▁belonged	-9.76666
▁flame	-9.76729
▁chipmunks	-9.76731
▁arrested	-9.76744
▁ian	-9.76769
▁breathing	-9.76855
▁lo	-9.77045
▁marks	-9.77049
▁fishing	-9.7721
▁olympics	-9.77416
▁yell	-9.77566
▁cu	-9.7758
▁led	-9.77624
▁soldiers	-9.77632
▁apple	-9.77875
▁cares	-9.77892
▁ordered	-9.77913
cha	-9.7797
▁sometime	-9.77995
▁button	-9.78048
▁thuds	-9.78085
▁drum	-9.78086
▁gene	-9.7813
tu	-9.78192
▁eggs	-9.78195
▁adventure	-9.78198
▁yells	-9.78304
▁leader	-9.78616
rit	-9.78814
ff	-9.78837
lic	-9.78853
pp	-9.79067
▁shower	-9.79091
▁whereve	-9.79139
▁rep	-9.7927
▁shock	-9.79431
▁nu	-9.79475
▁ac	-9.79481
▁be	-9.79687
ger	-9.79771
▁fields	-9.79815
▁pan	-9.79887
▁talent	-9.80022
▁enter	-9.80029
▁spare	-9.80144
▁health	-9.80221
▁usual	-9.80275
▁somethin	-9.80388
▁sharp	-9.80395
▁iron	-9.80397
▁chick	-9.80411
▁cast	-9.80425
▁accent	-9.80435
▁ambassador	-9.80435
▁anxious	-9.80435
▁branch	-9.80435
▁earthquake	-9.80435
▁grandmother	-9.80435
▁magazine	-9.80435
▁maleficent	-9.80435
▁ocean	-9.80435
▁policy	-9.80435
▁sneak	-9.80435
▁tuesday	-9.80435
▁doorbell	-9.80435
▁knowledge	-9.80435
▁larry	-9.80435
▁horrible	-9.80436
▁neighborhood	-9.80437
▁steam	-9.80438
▁romantic	-9.80439
▁bathroom	-9.80439
▁toilet	-9.80439
▁honour	-9.8044
▁diana	-9.80441
▁heck	-9.80444
▁property	-9.80444
▁plate	-9.80445
▁task	-9.80448
▁factory	-9.8045
▁oliver	-9.80458
▁defense	-9.8046
▁ox	-9.80469
▁splashing	-9.80498
▁sweetie	-9.80573
▁golden	-9.8061
▁pitch	-9.80626
▁mae	-9.8076
▁hired	-9.80793
▁wins	-9.80934
▁umm	-9.8097
▁chi	-9.81001
▁frankly	-9.81033
tone	-9.81336
▁details	-9.81434
▁clearly	-9.81758
▁searching	-9.81842
ating	-9.81891
▁jews	-9.82031
▁recording	-9.82092
▁teaching	-9.82124
▁acting	-9.82186
▁il	-9.82432
▁cha	-9.82621
▁brings	-9.82633
▁creep	-9.8267
▁affair	-9.82673
▁pocket	-9.82673
▁cloud	-9.82702
▁pepper	-9.82745
▁egg	-9.82831
▁heading	-9.82892
▁bags	-9.82901
▁et	-9.82919
▁trainer	-9.83044
ite	-9.83068
▁secrets	-9.83102
▁meaning	-9.83444
▁ga	-9.83448
▁rat	-9.8351
bs	-9.83516
▁shooting	-9.83634
▁humans	-9.8379
▁there	-9.83917
ast	-9.83949
▁sl	-9.83971
▁opened	-9.84282
ble	-9.84407
ley	-9.8449
▁india	-9.84512
▁file	-9.84624
▁doc	-9.84765
▁ant	-9.84768
if	-9.84932
▁witness	-9.8511
▁students	-9.85127
▁attend	-9.85172
▁deposit	-9.85196
▁becoming	-9.85197
▁border	-9.85197
▁elizabeth	-9.85197
▁firm	-9.85197
▁flag	-9.85197
▁grateful	-9.85197
▁italian	-9.85197
▁possibility	-9.85197
▁research	-9.85197
▁shirt	-9.85197
▁whiskey	-9.85197
▁structure	-9.85197
▁delay	-9.85197
▁interrupt	-9.85197
▁republic	-9.85197
▁susie	-9.85198
▁broad	-9.85198
▁freeze	-9.85198
▁wagon	-9.85198
▁smith	-9.85198
▁glory	-9.85199
▁lousy	-9.85199
▁salary	-9.85199
▁clever	-9.85199
▁croft	-9.852
▁popular	-9.85202
▁resistance	-9.85202
▁airport	-9.85211
▁contain	-9.85219
▁pink	-9.85225
▁happiness	-9.85226
▁mail	-9.85232
▁santa	-9.85234
▁mumbles	-9.85249
▁eastman	-9.85266
▁jesse	-9.85268
▁trick	-9.85272
▁belt	-9.85274
▁inner	-9.85279
▁direction	-9.85286
▁disgusting	-9.8529
▁legend	-9.85294
▁spoken	-9.85295
▁fo	-9.85323
▁customer	-9.85326
▁shattering	-9.85395
▁hearne	-9.85418
▁hire	-9.85486
▁softly	-9.85695
▁tracks	-9.8573
▁butter	-9.85769
▁lower	-9.859
▁stronger	-9.85949
▁dish	-9.85972
▁bon	-9.8616
▁wishes	-9.86205
▁kicked	-9.86299
▁bass	-9.86443
▁booker	-9.86457
▁gives	-9.86715
rie	-9.87149
▁gi	-9.87275
▁suck	-9.87371
▁learning	-9.87408
▁cleaning	-9.87594
▁subject	-9.8765
▁criminal	-9.87662
▁range	-9.87665
▁image	-9.87669
▁rolling	-9.87713
▁thud	-9.87723
▁stands	-9.88094
▁to	-9.88115
▁lookin	-9.88155
head	-9.88354
▁sin	-9.88458
ug	-9.88495
▁picking	-9.88704
▁ram	-9.888
▁iii	-9.88907
ise	-9.89268
▁bow	-9.89409
ct	-9.8941
▁ship	-9.89414
▁presents	-9.89497
▁ki	-9.89515
▁odd	-9.89548
▁out	-9.89571
▁perform	-9.89612
▁comp	-9.89617
▁shift	-9.89626
q	-9.8972
▁charm	-9.89795
▁advance	-9.89911
▁invite	-9.89924
▁separate	-9.89927
▁warn	-9.89999
▁rare	-9.90022
▁proper	-9.9004
▁pen	-9.90057
▁youth	-9.90191
▁lucia	-9.90194
▁character	-9.90197
▁congress	-9.90197
▁benefit	-9.90197
▁campbell	-9.90197
▁caravan	-9.90197
▁cheap	-9.90197
▁delicious	-9.90197
▁devito	-9.90197
▁disguise	-9.90197
▁elevator	-9.90197
▁enemies	-9.90197
▁giuliano	-9.90197
▁joshua	-9.90197
▁junk	-9.90197
▁micawber	-9.90197
▁milady	-9.90197
▁miranda	-9.90197
▁oclock	-9.90197
▁otherwise	-9.90197
▁political	-9.90197
▁privilege	-9.90197
▁science	-9.90197
▁szalinski	-9.90197
▁triumph	-9.90197
▁unusual	-9.90197
▁wednesday	-9.90197
▁aramis	-9.90197
▁ashamed	-9.90197
▁specific	-9.90197
▁rochelle	-9.90197
▁chandler	-9.90197
▁sondra	-9.90197
▁executive	-9.90198
▁permission	-9.90198
▁buried	-9.90199
▁basketball	-9.902
▁equipment	-9.902
▁navy	-9.902
▁distance	-9.90201
▁pregnant	-9.90202
▁virginia	-9.90203
▁impression	-9.90204
▁toast	-9.90204
▁fake	-9.90209
▁impressive	-9.90211
▁juan	-9.90211
▁regular	-9.90227
▁glen	-9.90228
▁thirsty	-9.90248
▁guilty	-9.90282
▁forth	-9.90294
▁chain	-9.90319
▁plain	-9.90326
▁ruby	-9.90344
▁magical	-9.90345
▁mere	-9.90374
▁passes	-9.90518
▁cats	-9.90617
▁seal	-9.90744
▁he	-9.9075
▁ba	-9.90819
▁payal	-9.9087
▁ate	-9.90876
▁guards	-9.90889
▁teachers	-9.909
▁sub	-9.90922
▁treated	-9.90929
▁mustve	-9.91092
▁dora	-9.91175
▁fur	-9.91283
▁burned	-9.91321
▁cards	-9.91385
▁crack	-9.91389
▁se	-9.91403
▁tied	-9.91448
▁loss	-9.91691
ak	-9.9219
▁teams	-9.92202
▁chase	-9.92251
▁mon	-9.92308
▁signed	-9.92331
ious	-9.92464
▁laws	-9.9259
▁harm	-9.92677
▁ear	-9.92705
▁touched	-9.92726
▁ally	-9.92748
ped	-9.92782
▁socialist	-9.92906
▁mask	-9.92926
▁rope	-9.92947
▁sword	-9.92977
▁shine	-9.93004
▁mile	-9.93081
▁dollar	-9.93082
▁lessons	-9.93269
und	-9.93353
▁bra	-9.93389
▁dreamed	-9.93514
red	-9.94018
omber	-9.94152
▁spark	-9.9418
fa	-9.9419
▁sending	-9.94234
▁rob	-9.9434
fully	-9.94397
ap	-9.94426
▁screw	-9.9449
▁plum	-9.94586
▁crash	-9.94828
▁pieces	-9.94877
▁sale	-9.94932
▁focus	-9.95014
▁insist	-9.95022
▁register	-9.95024
▁crow	-9.95099
pr	-9.95112
▁imp	-9.9514
▁tune	-9.95168
▁au	-9.95198
▁deliver	-9.95206
bo	-9.9531
back	-9.9534
▁shake	-9.95362
▁explosions	-9.9539
▁audition	-9.9546
▁babies	-9.9546
▁barbara	-9.9546
▁buckingham	-9.9546
▁challenge	-9.9546
▁clattering	-9.9546
▁exhales	-9.9546
▁mexico	-9.9546
▁peggotty	-9.9546
▁quark	-9.9546
▁rescue	-9.9546
▁scooter	-9.9546
▁shakespeare	-9.9546
▁supper	-9.9546
▁tradition	-9.9546
▁vacation	-9.9546
▁zorin	-9.9546
▁desperate	-9.9546
▁fbi	-9.9546
▁squad	-9.9546
▁lassard	-9.9546
▁thrill	-9.9546
▁chiming	-9.9546
▁bodies	-9.9546
▁chimes	-9.9546
▁warrant	-9.9546
▁wasting	-9.95461
▁onto	-9.95461
▁bleating	-9.95461
▁miami	-9.95461
▁robbie	-9.95461
▁marvelous	-9.95462
▁lightning	-9.95463
▁hitler	-9.95463
▁mercy	-9.95463
▁assistance	-9.95464
▁desk	-9.95467
▁steel	-9.95467
▁lenny	-9.95468
▁under	-9.9547
▁complicated	-9.95472
▁describe	-9.95476
▁logan	-9.95477
▁aside	-9.95478
▁lick	-9.95479
▁brake	-9.95479
▁jones	-9.95479
▁beef	-9.9548
▁magnet	-9.95492
▁spent	-9.95502
▁barely	-9.95504
▁engaged	-9.95512
▁western	-9.95513
▁toron	-9.95516
▁china	-9.95517
▁jane	-9.95517
▁dragon	-9.95519
▁coward	-9.95519
▁waves	-9.95521
▁type	-9.95539
▁moaning	-9.95563
▁quot	-9.95591
▁stage	-9.95608
▁ernesto	-9.95698
▁healthy	-9.95719
▁naturally	-9.95734
▁fi	-9.95789
▁bump	-9.95801
▁eaten	-9.9586
▁suffering	-9.95916
▁concludes	-9.95931
▁troops	-9.96244
▁martini	-9.96268
▁entirely	-9.96366
▁depends	-9.96486
▁accepted	-9.96531
▁twins	-9.96623
▁carefully	-9.9673
▁mor	-9.96736
▁diamonds	-9.96902
lin	-9.97
ezvous	-9.97052
▁places	-9.97193
ward	-9.97236
▁lied	-9.97272
▁matters	-9.97324
just	-9.97384
▁walls	-9.97491
▁heavens	-9.97678
our	-9.97903
ities	-9.97904
▁shows	-9.97937
▁wheel	-9.97949
▁blows	-9.97985
▁scare	-9.98399
▁buttons	-9.98425
uc	-9.98432
▁smells	-9.98438
▁desire	-9.98467
▁devil	-9.9852
▁dragonball	-9.98526
▁flower	-9.98834
▁starr	-9.98911
ned	-9.98939
▁capital	-9.98997
▁pope	-9.98998
▁checked	-9.99078
▁gra	-9.99292
ze	-9.99403
ship	-9.9974
▁gee	-9.99807
▁hundreds	-9.99821
▁drinking	-10.0018
▁pretend	-10.0044
▁swell	-10.0047
▁blond	-10.0048
down	-10.0056
▁boom	-10.0058
board	-10.0059
▁photograph	-10.0059
▁rate	-10.0062
house	-10.0065
ator	-10.0066
▁curse	-10.0072
▁fail	-10.0074
▁load	-10.0083
▁si	-10.0087
▁ni	-10.0089
▁express	-10.0097
val	-10.0098
▁ahearn	-10.0102
▁athos	-10.0102
▁audience	-10.0102
▁chelsea	-10.0102
▁cricket	-10.0102
▁haldeman	-10.0102
▁insurance	-10.0102
▁league	-10.0102
▁lecture	-10.0102
▁mirror	-10.0102
▁modern	-10.0102
▁nixon	-10.0102
▁principle	-10.0102
▁quality	-10.0102
▁rhythm	-10.0102
▁routine	-10.0102
▁splendid	-10.0102
▁tournament	-10.0102
▁bryant	-10.0102
▁footsteps	-10.0102
▁eerie	-10.0102
▁swimming	-10.0102
▁olsen	-10.0102
▁alice	-10.0102
▁wide	-10.0102
▁illusion	-10.0102
▁texas	-10.0102
▁item	-10.0102
▁client	-10.0102
▁ryker	-10.0102
▁ginny	-10.0102
▁marvin	-10.0102
▁dawn	-10.0102
▁section	-10.0102
▁francois	-10.0103
▁rotten	-10.0103
▁beam	-10.0103
▁glue	-10.0103
▁couch	-10.0103
▁gown	-10.0103
▁fold	-10.0103
▁grew	-10.0103
▁jake	-10.0105
▁fortune	-10.0105
▁heep	-10.0105
▁bible	-10.0106
▁edge	-10.0106
▁trade	-10.0107
▁proof	-10.0108
▁reverend	-10.0109
▁recently	-10.0114
▁clicking	-10.0116
▁emotional	-10.0119
▁bout	-10.0119
▁outer	-10.012
▁according	-10.0122
▁mol	-10.0126
▁hiya	-10.0127
▁lack	-10.0128
▁sons	-10.0144
▁beth	-10.0157
▁personally	-10.0162
▁jr	-10.0172
▁professional	-10.0173
▁instruments	-10.0182
▁inform	-10.0189
▁blast	-10.0194
▁discipline	-10.02
▁ends	-10.0206
▁husbands	-10.0206
▁armed	-10.0207
▁chances	-10.0207
▁gettin	-10.0212
▁jackie	-10.023
▁pushed	-10.0244
▁offering	-10.0248
off	-10.0256
▁boarding	-10.0288
▁blowing	-10.0289
▁demands	-10.0298
▁viva	-10.0303
▁and	-10.0304
▁endless	-10.0311
▁shadows	-10.0313
▁mistakes	-10.0322
▁selling	-10.0323
▁tears	-10.0334
▁paint	-10.0342
▁trained	-10.0356
▁pin	-10.0357
▁reasons	-10.0357
▁ahhh	-10.0363
▁sniff	-10.0382
old	-10.0382
▁pig	-10.0391
▁amen	-10.0395
▁catching	-10.0425
side	-10.0432
▁neighbor	-10.0433
▁beast	-10.0438
▁remembered	-10.044
▁uniform	-10.044
▁ja	-10.0441
▁agent	-10.0443
▁fan	-10.0463
▁bone	-10.0478
▁numbers	-10.0521
▁rider	-10.053
ps	-10.0597
ving	-10.0608
her	-10.0645
▁intend	-10.0645
▁blackmail	-10.0645
▁insult	-10.0647
▁boats	-10.0654
▁release	-10.0662
▁mid	-10.0664
▁lions	-10.0673
▁chose	-10.0683
▁profit	-10.0687
▁assignment	-10.069
▁available	-10.069
▁butler	-10.069
▁colbert	-10.069
▁disease	-10.069
▁eagle	-10.069
▁expedition	-10.069
▁experiment	-10.069
▁giggles	-10.069
▁jazz	-10.069
▁negative	-10.069
▁rapunzel	-10.069
▁religion	-10.069
▁reservation	-10.069
▁signature	-10.069
▁vesper	-10.069
▁cackle	-10.069
▁century	-10.069
▁flies	-10.069
▁thief	-10.069
▁abner	-10.069
▁rumor	-10.069
▁confidence	-10.069
▁italy	-10.069
▁serum	-10.069
▁blew	-10.069
▁drown	-10.069
▁expensive	-10.069
▁timmy	-10.069
▁hidden	-10.069
▁banana	-10.069
▁destruction	-10.069
▁pilot	-10.069
▁garbage	-10.069
▁balance	-10.069
▁hissing	-10.069
▁toby	-10.0691
▁performance	-10.0691
▁duran	-10.0691
▁regard	-10.0691
▁psycho	-10.0691
▁beings	-10.0691
▁gladys	-10.0693
▁planned	-10.0693
▁towel	-10.0694
▁chest	-10.0694
▁foolish	-10.0694
▁secretary	-10.0695
▁chairman	-10.0697
▁noon	-10.07
▁passion	-10.0702
▁chat	-10.0704
▁powerful	-10.0705
▁agh	-10.0705
▁uhoh	-10.0707
▁canceled	-10.0709
▁rear	-10.0711
▁mall	-10.0712
▁goldman	-10.0712
▁bitter	-10.0716
▁reality	-10.0722
▁commissioner	-10.0723
▁highest	-10.0731
▁ator	-10.0733
▁jewel	-10.0739
▁sur	-10.074
▁convention	-10.0741
▁served	-10.0749
ass	-10.0755
▁mentioned	-10.0762
▁moms	-10.077
▁rank	-10.0773
▁considered	-10.078
▁trumpets	-10.0791
▁blessing	-10.0795
ran	-10.0801
em	-10.0809
ack	-10.0825
▁backup	-10.0847
▁burning	-10.0865
▁cookies	-10.0892
▁yay	-10.0897
▁pu	-10.093
▁unit	-10.0938
▁souls	-10.0955
oh	-10.0958
▁mer	-10.0973
ab	-10.1019
▁coaching	-10.102
▁someones	-10.1022
▁tale	-10.1033
▁talkin	-10.1035
▁ven	-10.1051
▁beating	-10.1052
▁saint	-10.1061
▁reports	-10.1064
▁guest	-10.1068
▁soldier	-10.1068
▁toward	-10.1069
▁actor	-10.1075
▁knowing	-10.1077
art	-10.1091
▁opens	-10.1095
▁tear	-10.1102
▁as	-10.1121
▁dates	-10.1138
cre	-10.1143
▁cro	-10.1148
▁desert	-10.1148
▁ru	-10.1156
ten	-10.1156
▁whistles	-10.1181
▁daughters	-10.1185
ok	-10.1203
▁events	-10.1208
va	-10.1209
▁notes	-10.1212
▁banks	-10.1222
▁checking	-10.1224
▁profession	-10.1234
▁hoped	-10.1244
▁suffer	-10.1244
▁discover	-10.1249
▁stretch	-10.1264
▁pap	-10.1266
▁commission	-10.1279
▁provide	-10.1287
▁sex	-10.1291
▁forces	-10.1294
▁immediate	-10.1296
▁arrange	-10.1299
▁elliot	-10.1299
▁nah	-10.13
▁eve	-10.1302
▁darlin	-10.131
▁aid	-10.1312
▁slip	-10.1314
▁brown	-10.1314
day	-10.1315
▁nucle	-10.1315
▁appointment	-10.1315
▁bishop	-10.1315
▁brief	-10.1315
▁ceremony	-10.1315
▁chakal	-10.1315
▁easily	-10.1315
▁fifth	-10.1315
▁garrincha	-10.1315
▁holiday	-10.1315
▁insane	-10.1315
▁lincoln	-10.1315
▁prevent	-10.1315
▁religious	-10.1315
▁seltzer	-10.1315
▁shogun	-10.1315
▁sigrid	-10.1315
▁sobbing	-10.1315
▁solution	-10.1315
▁source	-10.1315
▁soviet	-10.1315
▁thursday	-10.1315
▁tooth	-10.1315
▁trunk	-10.1315
▁uriah	-10.1315
▁warrior	-10.1315
▁bueno	-10.1315
▁concert	-10.1315
▁juice	-10.1315
▁mostly	-10.1315
▁sherry	-10.1315
▁statue	-10.1315
▁supply	-10.1315
▁generation	-10.1315
▁presence	-10.1315
▁gym	-10.1315
▁tongue	-10.1315
▁individual	-10.1315
▁mule	-10.1315
▁golf	-10.1315
▁title	-10.1315
▁cried	-10.1315
▁dutch	-10.1316
▁rude	-10.1316
▁basic	-10.1316
▁cupboard	-10.1316
▁failure	-10.1317
▁aboard	-10.1317
▁maiden	-10.1317
▁shane	-10.1317
▁nome	-10.1317
▁journalist	-10.1318
▁strawberry	-10.1318
▁wallet	-10.1319
▁or	-10.132
▁mental	-10.132
▁math	-10.1321
▁sophie	-10.1321
▁obey	-10.1321
▁stall	-10.1321
▁cliff	-10.1321
▁safety	-10.1322
▁sumo	-10.1322
▁cmon	-10.1322
▁cox	-10.1322
▁owns	-10.1323
▁tax	-10.1323
▁claus	-10.1324
▁invented	-10.1324
▁yank	-10.1325
▁anger	-10.1327
▁bleeding	-10.1327
▁gain	-10.1329
▁kai	-10.1334
▁rambalcochet	-10.1334
▁beaten	-10.1339
▁joel	-10.1339
▁limited	-10.1341
▁erin	-10.1344
▁pity	-10.1349
ier	-10.1353
▁discovered	-10.1357
▁down	-10.1359
▁screwed	-10.1365
▁created	-10.1368
▁screen	-10.1382
▁grove	-10.1383
▁ration	-10.1384
▁earned	-10.1387
ible	-10.1399
▁woke	-10.1417
for	-10.1418
▁locker	-10.1425
▁packed	-10.1427
▁hu	-10.1429
cer	-10.1432
but	-10.1435
▁medals	-10.1436
▁attacked	-10.1452
ction	-10.1456
▁covered	-10.1469
▁degrees	-10.1471
▁blar	-10.1477
▁steps	-10.1486
▁toys	-10.1488
wing	-10.1489
room	-10.1501
▁bolsheviks	-10.1504
chi	-10.151
▁jumped	-10.151
▁u	-10.1513
▁cooking	-10.1513
ris	-10.1515
▁sire	-10.1531
ja	-10.1538
▁frogs	-10.1538
▁receive	-10.1543
▁hug	-10.1554
▁weapons	-10.1554
▁testing	-10.1558
ified	-10.156
▁can	-10.1565
line	-10.1585
▁fans	-10.1587
▁uniforms	-10.1588
▁answers	-10.159
ola	-10.1594
▁ch	-10.1599
▁sting	-10.1602
▁devils	-10.1604
▁dragonballs	-10.1604
▁del	-10.1605
▁bells	-10.1607
▁lab	-10.1612
▁fore	-10.1629
▁har	-10.1633
ffe	-10.1635
▁leading	-10.1649
▁trace	-10.1673
▁rooms	-10.1693
▁issue	-10.1697
▁singer	-10.1699
▁doors	-10.1701
▁creatures	-10.1705
▁bu	-10.1716
▁jerk	-10.1723
▁winds	-10.1724
▁shoulder	-10.1729
▁weapon	-10.1732
ions	-10.1732
▁shadow	-10.1732
▁bullet	-10.1735
▁sport	-10.1737
▁buck	-10.1739
que	-10.1741
▁bug	-10.1741
hand	-10.1766
▁stranger	-10.1767
▁writer	-10.1791
▁trans	-10.1794
▁drinks	-10.1805
▁tickets	-10.1806
▁hip	-10.1807
use	-10.1807
▁squeeze	-10.1808
▁showing	-10.181
▁sundays	-10.1823
cy	-10.1829
▁chip	-10.1834
▁gal	-10.1853
work	-10.1866
mat	-10.1868
▁humble	-10.1896
▁je	-10.1898
▁pee	-10.1901
▁complain	-10.191
▁page	-10.1917
▁proceed	-10.1924
quot	-10.1943
▁confess	-10.1943
▁fe	-10.1945
▁bing	-10.1947
hold	-10.1949
▁jan	-10.1951
▁twenty	-10.1951
▁z	-10.196
▁stefan	-10.1974
▁toro	-10.1976
▁sail	-10.198
▁snor	-10.1981
▁apology	-10.1981
▁banquet	-10.1981
▁curtain	-10.1981
▁determined	-10.1981
▁disaster	-10.1981
▁district	-10.1981
▁dogtective	-10.1981
▁dynamite	-10.1981
▁essay	-10.1981
▁families	-10.1981
▁gorgeous	-10.1981
▁hypnoray	-10.1981
▁ingredient	-10.1981
▁intense	-10.1981
▁marcus	-10.1981
▁passenger	-10.1981
▁politics	-10.1981
▁precious	-10.1981
▁remote	-10.1981
▁sacrifice	-10.1981
▁schedule	-10.1981
▁struggle	-10.1981
▁supplies	-10.1981
▁sutemaru	-10.1981
▁tattoo	-10.1981
▁background	-10.1981
▁chinese	-10.1981
▁circumstances	-10.1981
▁closing	-10.1981
▁eventually	-10.1981
▁hazel	-10.1981
▁solid	-10.1981
▁album	-10.1981
▁diane	-10.1981
▁illegal	-10.1981
▁goodnight	-10.1981
▁ralph	-10.1981
▁stairs	-10.1982
▁cathy	-10.1982
▁herb	-10.1982
▁lolly	-10.1982
▁mood	-10.1982
▁susan	-10.1982
▁rumba	-10.1982
▁including	-10.1982
through	-10.1982
▁tosh	-10.1982
▁mysterious	-10.1982
▁lamb	-10.1982
▁silence	-10.1982
▁tramp	-10.1982
▁fancy	-10.1982
▁rustling	-10.1982
▁hollywood	-10.1982
▁clank	-10.1982
▁income	-10.1982
▁review	-10.1983
▁slide	-10.1983
▁argue	-10.1983
▁ability	-10.1983
▁francisco	-10.1983
▁centre	-10.1984
▁jimbo	-10.1984
▁marco	-10.1984
ternal	-10.1984
▁foul	-10.1984
▁humor	-10.1984
▁burst	-10.1984
▁motion	-10.1984
▁parts	-10.1985
▁zone	-10.1985
▁remarkable	-10.1985
▁chessy	-10.1985
▁tanner	-10.1987
▁fuss	-10.1987
▁barrel	-10.1988
▁marie	-10.1989
▁text	-10.199
▁halfway	-10.199
▁hut	-10.199
▁decisions	-10.1992
▁mayday	-10.1993
▁toes	-10.1993
▁darkness	-10.1996
▁donna	-10.2
air	-10.2001
▁dolly	-10.2002
▁thee	-10.2004
ebod	-10.2004
▁sincere	-10.2007
▁veterans	-10.2008
▁francs	-10.2008
▁latest	-10.2009
▁andy	-10.201
▁haul	-10.201
▁belongs	-10.2012
▁mixed	-10.2015
▁pipe	-10.2019
▁particularly	-10.2025
▁pot	-10.2026
▁bowling	-10.2027
▁tempo	-10.2029
▁failed	-10.2032
born	-10.2032
▁sucker	-10.2034
▁mustnt	-10.2037
▁howdy	-10.2043
▁muffle	-10.2045
▁ad	-10.2048
▁aires	-10.2051
▁forced	-10.2057
▁wheeler	-10.2057
▁refused	-10.2059
▁comb	-10.206
▁filled	-10.2067
▁blessed	-10.2073
▁guts	-10.2077
▁faithful	-10.208
▁movement	-10.2082
▁tang	-10.2086
▁lover	-10.2089
▁bl	-10.209
ny	-10.2098
▁whoops	-10.21
▁gl	-10.2101
▁fin	-10.2101
▁exercise	-10.2102
▁es	-10.2107
▁headed	-10.2112
▁cigarettes	-10.2114
▁documents	-10.2114
▁parker	-10.2114
ach	-10.2117
▁indians	-10.2123
▁ideal	-10.2123
▁enjoyed	-10.2128
▁hunting	-10.2132
▁tend	-10.2148
▁citizens	-10.2149
▁minor	-10.216
▁bothering	-10.2167
▁doug	-10.2171
▁ap	-10.2186
ni	-10.2216
ell	-10.2217
king	-10.2218
▁non	-10.2228
▁don	-10.2242
ey	-10.2254
▁guests	-10.2256
▁workers	-10.2287
▁counter	-10.2291
▁sales	-10.2312
▁beard	-10.2319
▁staring	-10.2323
▁stops	-10.2338
▁faces	-10.2364
▁chap	-10.2375
▁tr	-10.2376
▁jew	-10.2415
light	-10.2418
▁artist	-10.2436
▁occasion	-10.2439
▁crook	-10.244
▁string	-10.244
▁measure	-10.2441
▁badly	-10.2441
▁frog	-10.2443
▁moron	-10.2443
▁skill	-10.2445
▁becomes	-10.2446
▁demand	-10.2447
▁olympic	-10.2448
▁nun	-10.2452
▁term	-10.2452
▁sessions	-10.2472
▁flu	-10.2481
eth	-10.2515
▁fella	-10.2534
▁loser	-10.2538
▁gunshots	-10.2544
▁russians	-10.2547
ire	-10.2562
▁conversations	-10.2562
▁flames	-10.2563
▁fu	-10.2567
ank	-10.2571
▁runt	-10.2577
well	-10.2628
tor	-10.2632
▁smack	-10.264
wood	-10.265
▁fri	-10.265
▁finding	-10.2654
what	-10.2656
qui	-10.266
▁rip	-10.2667
▁sentence	-10.2668
▁donkeys	-10.2672
▁hung	-10.268
▁lad	-10.268
▁slam	-10.2681
▁armor	-10.2684
▁doll	-10.2688
boy	-10.2689
▁whoohoo	-10.2691
▁runnin	-10.2691
▁lovin	-10.2691
▁social	-10.2693
lor	-10.2695
▁autograph	-10.2696
▁target	-10.2696
▁attitude	-10.2696
▁bertha	-10.2696
▁bunyan	-10.2696
▁consciousness	-10.2696
▁council	-10.2696
▁depth	-10.2696
▁destiny	-10.2696
▁draft	-10.2696
▁driscoll	-10.2696
▁education	-10.2696
▁excitement	-10.2696
▁extraordinary	-10.2696
▁fetch	-10.2696
▁genius	-10.2696
▁hartounian	-10.2696
▁helmet	-10.2696
▁intelligent	-10.2696
▁jessica	-10.2696
▁license	-10.2696
▁lndistinct	-10.2696
▁misunderstand	-10.2696
▁museum	-10.2696
▁patience	-10.2696
▁peacock	-10.2696
▁piccolo	-10.2696
▁plaza	-10.2696
▁reputation	-10.2696
▁revenge	-10.2696
▁senator	-10.2696
▁someplace	-10.2696
▁stroke	-10.2696
▁surgery	-10.2696
▁terribly	-10.2696
▁territory	-10.2696
▁traitor	-10.2696
▁nerve	-10.2696
▁aisle	-10.2696
▁pleasant	-10.2696
▁purse	-10.2696
▁herman	-10.2696
▁model	-10.2696
▁porthos	-10.2696
▁suzanne	-10.2696
▁unhappy	-10.2696
▁relationship	-10.2696
▁thick	-10.2696
▁polar	-10.2696
▁steinberg	-10.2696
▁patrol	-10.2696
▁compete	-10.2696
▁slept	-10.2696
▁joking	-10.2696
▁swallow	-10.2696
▁rudy	-10.2696
▁development	-10.2697
▁saddle	-10.2697
▁cattle	-10.2697
▁flock	-10.2697
▁passport	-10.2697
▁mouse	-10.2697
▁computerized	-10.2697
▁portia	-10.2698
▁hahaha	-10.2698
▁fence	-10.2698
▁oak	-10.2698
▁harsh	-10.2698
▁attractive	-10.2698
▁brian	-10.2698
▁revolutionary	-10.2699
▁groom	-10.2699
▁johnny	-10.27
▁parade	-10.27
▁vari	-10.27
▁mush	-10.27
▁reward	-10.27
▁stine	-10.2701
▁inches	-10.2701
▁tri	-10.2702
▁dropping	-10.2702
▁masses	-10.2702
▁theme	-10.2702
▁ramen	-10.2703
▁agreement	-10.2703
▁knot	-10.2704
▁iike	-10.2705
▁practically	-10.2705
▁peaceful	-10.2706
▁betting	-10.2706
▁cutting	-10.2706
▁setting	-10.2706
▁arrow	-10.2708
▁heartland	-10.2709
▁denne	-10.271
▁chill	-10.271
▁aye	-10.271
▁principal	-10.2711
▁successful	-10.2712
▁cia	-10.2713
▁statement	-10.2713
▁lawson	-10.2714
▁jacket	-10.2719
▁flush	-10.2719
▁director	-10.2721
▁convinced	-10.2721
▁chanting	-10.2722
▁escort	-10.2726
▁delighted	-10.2731
▁oughta	-10.2732
▁crown	-10.2734
▁approaching	-10.2734
▁cheating	-10.2734
▁pm	-10.2735
▁meantime	-10.2741
▁easter	-10.2747
vious	-10.2749
▁loaded	-10.275
▁heat	-10.2752
▁hood	-10.2753
ence	-10.2753
▁fee	-10.2755
▁complaining	-10.2755
▁seth	-10.2773
▁honestly	-10.2775
▁wasted	-10.2777
▁vegetables	-10.2781
▁falls	-10.2787
ft	-10.2806
▁ideas	-10.2809
▁tap	-10.2817
ied	-10.2822
tte	-10.2822
▁va	-10.2829
nic	-10.2832
▁quietly	-10.2833
▁sw	-10.2835
▁socks	-10.2837
▁ty	-10.2846
▁brains	-10.285
ave	-10.2851
ther	-10.2864
▁lighter	-10.2866
ene	-10.2869
▁capt	-10.287
▁crossed	-10.2887
▁ob	-10.2892
▁pier	-10.2901
▁praying	-10.2907
▁yankees	-10.2915
row	-10.2933
▁results	-10.2934
▁dani	-10.2958
▁para	-10.2962
▁bugs	-10.2972
▁pops	-10.2979
tle	-10.2985
end	-10.2999
▁spending	-10.3003
▁pus	-10.3005
▁counting	-10.3006
▁fortunate	-10.3008
▁bi	-10.3024
▁classic	-10.3059
▁cub	-10.3093
▁friendly	-10.3099
ado	-10.3108
▁host	-10.312
▁somebodys	-10.3127
▁presidents	-10.3127
▁sigh	-10.3144
▁ro	-10.3148
ock	-10.3155
▁prom	-10.317
▁bee	-10.3174
ko	-10.3176
▁scr	-10.3182
gy	-10.3195
▁neigh	-10.3206
▁championship	-10.3206
▁height	-10.321
▁result	-10.3214
▁anti	-10.3228
▁cookie	-10.3229
▁doctors	-10.3232
pping	-10.3232
▁hah	-10.3248
▁sa	-10.3254
▁ls	-10.3313
▁ton	-10.3337
ison	-10.3344
▁skip	-10.3351
sel	-10.3356
iv	-10.3374
▁design	-10.3376
uck	-10.3381
▁tricks	-10.3384
▁sweat	-10.3386
▁helped	-10.3405
▁spoil	-10.3407
some	-10.341
▁shoo	-10.3416
serving	-10.342
▁lean	-10.3422
▁recover	-10.3422
good	-10.3427
box	-10.343
▁facts	-10.3435
▁convince	-10.3437
den	-10.3443
▁ignore	-10.3448
▁punch	-10.3456
▁pump	-10.3463
▁zoo	-10.3464
▁regret	-10.3464
▁virgin	-10.3464
▁alaska	-10.3465
▁belief	-10.3465
▁bethlehem	-10.3465
▁bulldozer	-10.3465
▁charmeleon	-10.3465
▁chicago	-10.3465
▁cinderella	-10.3465
▁clown	-10.3465
▁crisis	-10.3465
▁eclipse	-10.3465
▁empire	-10.3465
▁envelope	-10.3465
▁fitzgerald	-10.3465
▁florida	-10.3465
▁grogan	-10.3465
▁heavily	-10.3465
▁invitation	-10.3465
▁liberty	-10.3465
▁lunatic	-10.3465
▁manhattan	-10.3465
▁mexican	-10.3465
▁moscow	-10.3465
▁muerte	-10.3465
▁muscle	-10.3465
▁orange	-10.3465
▁phantom	-10.3465
▁puppy	-10.3465
▁radical	-10.3465
▁rafael	-10.3465
▁rattling	-10.3465
▁retreat	-10.3465
▁rifle	-10.3465
▁sensitive	-10.3465
▁servant	-10.3465
▁similar	-10.3465
▁spenlow	-10.3465
▁telegraph	-10.3465
▁trigger	-10.3465
▁turkey	-10.3465
▁ulysses	-10.3465
▁vacuum	-10.3465
▁winsiow	-10.3465
▁albert	-10.3465
▁bribe	-10.3465
▁brooklyn	-10.3465
▁crail	-10.3465
▁eminence	-10.3465
▁keach	-10.3465
▁mistress	-10.3465
▁recommend	-10.3465
▁wicked	-10.3465
▁indicate	-10.3465
▁lupus	-10.3465
▁period	-10.3465
▁spear	-10.3465
▁spain	-10.3465
▁cousin	-10.3465
▁engelberg	-10.3465
▁muttering	-10.3465
▁transmission	-10.3465
▁mystery	-10.3465
▁chew	-10.3465
▁ordinary	-10.3465
▁bushwood	-10.3465
▁herd	-10.3465
▁rising	-10.3465
▁vava	-10.3465
▁fond	-10.3465
▁shove	-10.3466
▁generous	-10.3466
▁positive	-10.3466
▁surface	-10.3466
▁isabella	-10.3466
▁whack	-10.3466
▁obtain	-10.3466
▁urgent	-10.3466
▁divine	-10.3466
▁russell	-10.3466
▁loop	-10.3466
▁charity	-10.3466
▁memories	-10.3467
▁punishment	-10.3467
▁fascinating	-10.3467
▁saul	-10.3467
▁ana	-10.3467
▁jam	-10.3467
▁operator	-10.3467
▁ninja	-10.3467
▁twist	-10.3467
▁duke	-10.3467
▁wore	-10.3467
▁pumpkin	-10.3468
▁starving	-10.3468
uff	-10.3468
▁stake	-10.3468
▁duck	-10.3469
▁vanish	-10.3469
▁summertime	-10.3469
▁effective	-10.347
▁bev	-10.347
▁punk	-10.347
▁robbery	-10.3471
▁latin	-10.3472
▁soup	-10.3472
▁wrap	-10.3472
▁strain	-10.3473
▁trial	-10.3473
▁rub	-10.3474
▁hamlet	-10.3474
▁toss	-10.3475
▁phase	-10.3475
▁highway	-10.3475
▁carl	-10.3475
▁dammit	-10.3476
▁victory	-10.3477
▁lane	-10.3477
▁tries	-10.3478
▁jessie	-10.3478
▁boil	-10.348
▁bride	-10.348
tennis	-10.3482
▁robin	-10.3482
▁shining	-10.3485
▁punished	-10.3487
▁sore	-10.3487
▁crunching	-10.3489
▁laser	-10.3494
▁borrowed	-10.3497
▁properly	-10.3497
▁delivery	-10.3498
▁busted	-10.3504
▁stopping	-10.3505
▁bid	-10.3513
▁heroes	-10.3514
▁exclaims	-10.3517
▁sinners	-10.3517
▁heal	-10.3522
▁classes	-10.3533
▁musketeers	-10.3537
▁painting	-10.3544
▁raised	-10.3549
▁pit	-10.3556
▁wayne	-10.3567
▁medi	-10.3572
mond	-10.3573
nce	-10.3599
ones	-10.3601
▁len	-10.3605
▁stealing	-10.3609
▁prisoners	-10.3611
▁dori	-10.3619
▁reached	-10.3628
▁moments	-10.3638
▁knocked	-10.3643
▁painful	-10.3645
▁mumbl	-10.3667
all	-10.3679
yeah	-10.3686
▁she	-10.3693
ana	-10.3729
▁nights	-10.3731
▁pushing	-10.3731
do	-10.3735
▁stores	-10.374
▁gen	-10.3761
▁deed	-10.3762
▁cleaned	-10.3769
▁hats	-10.3785
▁wings	-10.3798
▁signs	-10.3806
▁pigs	-10.3808
▁carrying	-10.3815
rous	-10.3828
▁hopeless	-10.383
▁gro	-10.3844
▁remove	-10.3846
▁com	-10.3849
▁coma	-10.3904
▁hum	-10.3916
▁tails	-10.3953
over	-10.3966
ably	-10.3977
▁ye	-10.3989
▁suits	-10.4034
▁circle	-10.4039
▁helicopter	-10.4041
▁cowboy	-10.4041
▁behave	-10.4046
▁manner	-10.4047
▁engineer	-10.4047
▁yankee	-10.4049
▁bolshevik	-10.405
▁member	-10.405
▁folk	-10.4053
▁spin	-10.4074
▁stink	-10.4087
▁hunter	-10.41
▁thin	-10.4111
erson	-10.4112
▁jeff	-10.4114
▁abe	-10.4157
ess	-10.4157
ium	-10.4175
▁hits	-10.4182
▁fade	-10.4199
▁disappear	-10.4199
▁fools	-10.42
▁observe	-10.4203
▁net	-10.4219
▁convent	-10.4225
▁fuck	-10.4228
▁hoo	-10.4233
▁comfort	-10.4237
▁scratch	-10.4243
▁reminds	-10.4245
▁repair	-10.4254
hood	-10.4255
▁bowl	-10.4256
▁mix	-10.426
throw	-10.4262
▁delight	-10.4263
▁replace	-10.4266
▁solve	-10.4269
▁nor	-10.4269
▁compare	-10.4277
▁recent	-10.4279
▁obvious	-10.428
▁exact	-10.428
▁stomp	-10.428
away	-10.4285
right	-10.4286
▁potato	-10.4289
▁rome	-10.4293
▁mmhm	-10.4294
▁mi	-10.4294
▁starve	-10.4294
▁improve	-10.4297
aboom	-10.4297
▁resist	-10.4298
▁admiral	-10.4298
▁appeal	-10.4298
▁twelve	-10.4298
▁advantage	-10.4298
▁albrecht	-10.4298
▁arizona	-10.4298
▁bargain	-10.4298
▁beneath	-10.4298
▁cackling	-10.4298
▁caribou	-10.4298
▁coincidence	-10.4298
▁compromise	-10.4298
▁costello	-10.4298
▁dobson	-10.4298
▁explanation	-10.4298
▁extend	-10.4298
▁fouquet	-10.4298
▁giuseppe	-10.4298
▁inhales	-10.4298
▁instance	-10.4298
▁jotham	-10.4298
▁lollipop	-10.4298
▁meerut	-10.4298
▁melanchol	-10.4298
▁murdstone	-10.4298
▁nelda	-10.4298
▁persuade	-10.4298
▁phrase	-10.4298
▁polite	-10.4298
▁presidency	-10.4298
▁prosecutor	-10.4298
▁purchase	-10.4298
▁recipe	-10.4298
▁refund	-10.4298
▁scholarship	-10.4298
▁stephanie	-10.4298
▁struck	-10.4298
▁suicide	-10.4298
▁tshirt	-10.4298
▁villain	-10.4298
▁wadsworth	-10.4298
▁weasel	-10.4298
▁whimpering	-10.4298
▁whimpers	-10.4298
▁worries	-10.4298
▁bruno	-10.4298
▁thumb	-10.4298
▁whining	-10.4298
▁upper	-10.4298
▁dumas	-10.4298
▁ahmad	-10.4298
▁estate	-10.4298
▁trask	-10.4298
▁civilization	-10.4298
▁rita	-10.4298
▁series	-10.4298
▁powder	-10.4298
▁clinic	-10.4298
▁kidnapped	-10.4298
▁tractor	-10.4298
▁cheek	-10.4298
▁sunset	-10.4299
▁butterfree	-10.4299
▁link	-10.4299
▁flash	-10.4299
▁wrapped	-10.4299
▁missile	-10.4299
▁faint	-10.4299
▁slipped	-10.4299
▁suitcase	-10.4299
▁employee	-10.4299
▁newspaper	-10.4299
▁community	-10.4299
▁commitment	-10.4299
▁spiritual	-10.4299
▁engagement	-10.4299
▁plug	-10.4299
▁editor	-10.4299
▁ouch	-10.4299
▁inaudible	-10.43
▁tribe	-10.43
▁togo	-10.43
▁bucket	-10.43
▁divid	-10.43
▁basically	-10.43
▁unconscious	-10.43
▁pegasus	-10.43
▁assistant	-10.4301
▁colour	-10.4301
▁carol	-10.4301
▁precisely	-10.4301
▁sna	-10.4301
▁francesco	-10.4301
▁sobs	-10.4301
▁tank	-10.4302
▁alexander	-10.4302
▁trash	-10.4302
▁confused	-10.4302
▁obliged	-10.4302
▁twit	-10.4302
▁poet	-10.4302
▁sticks	-10.4303
▁resignation	-10.4303
▁filthy	-10.4303
▁occupied	-10.4304
▁stream	-10.4304
▁liar	-10.4304
▁jaw	-10.4304
▁stein	-10.4305
▁boring	-10.4305
▁nails	-10.4305
▁vet	-10.4305
▁expression	-10.4305
▁fork	-10.4305
▁brick	-10.4306
▁intention	-10.4306
▁mansion	-10.4307
▁cellar	-10.4307
▁grind	-10.4307
▁carried	-10.4307
▁violence	-10.4307
▁conduct	-10.4307
▁suggestion	-10.4308
▁daan	-10.4308
▁chosen	-10.4309
▁fig	-10.4309
▁rode	-10.4311
▁hitting	-10.4311
▁hopefully	-10.4312
▁gig	-10.4312
▁sink	-10.4314
▁stepped	-10.4314
▁den	-10.4318
▁elliott	-10.4319
▁worrying	-10.4322
▁fourth	-10.4326
▁sum	-10.4326
▁formal	-10.4327
▁points	-10.4328
▁fry	-10.433
▁jackson	-10.4331
▁compared	-10.4342
▁officially	-10.4343
▁squeaking	-10.4345
▁fr	-10.4346
▁q	-10.4347
▁parties	-10.4349
▁pace	-10.4354
▁athletics	-10.4355
▁coughs	-10.4355
zy	-10.4355
▁suffered	-10.4355
▁row	-10.4361
▁survived	-10.4363
▁lance	-10.4386
▁deeper	-10.4387
▁finest	-10.4388
▁crud	-10.4389
▁eva	-10.439
shed	-10.4391
▁defeated	-10.4397
▁dime	-10.4399
▁lawn	-10.44
ula	-10.4406
▁closet	-10.4413
▁instructions	-10.4422
▁ay	-10.443
▁filling	-10.4442
▁oops	-10.4444
▁whispers	-10.4445
ith	-10.4453
▁mel	-10.446
▁awaits	-10.4464
▁anna	-10.4467
▁bust	-10.4473
▁seated	-10.4486
▁traveling	-10.4489
▁pills	-10.449
▁usa	-10.4498
▁films	-10.4504
▁scan	-10.4517
▁fed	-10.4517
▁cease	-10.4529
▁ikes	-10.4535
rez	-10.4537
gged	-10.4539
▁squ	-10.4548
▁farmers	-10.4552
▁tin	-10.4569
ists	-10.4585
▁gu	-10.4588
▁areas	-10.4595
▁incident	-10.4602
ight	-10.4606
▁reporting	-10.4618
▁charges	-10.4621
▁chips	-10.4622
▁the	-10.4622
▁bullets	-10.4623
▁marrying	-10.4637
lan	-10.4643
▁kissing	-10.4667
▁deadly	-10.4687
▁interfere	-10.4688
▁gr	-10.4702
▁jokes	-10.4703
▁hells	-10.4708
▁ropes	-10.4717
▁shines	-10.472
▁sucks	-10.4735
ake	-10.4741
▁grounds	-10.4766
▁opera	-10.4772
▁exc	-10.4776
▁roy	-10.4782
▁bars	-10.4786
▁clubs	-10.4801
▁bastards	-10.4809
ka	-10.4815
▁ln	-10.4817
▁turner	-10.4846
▁gus	-10.4847
▁cleared	-10.4851
▁unh	-10.4853
▁patients	-10.4901
ily	-10.4912
▁figures	-10.4913
▁ken	-10.4923
▁cart	-10.4938
▁bur	-10.4941
▁prayers	-10.4944
▁product	-10.4946
▁murders	-10.4951
▁los	-10.4957
▁diamond	-10.4958
▁remains	-10.4963
▁needle	-10.4964
▁brook	-10.4965
▁ike	-10.4968
▁thoughts	-10.497
▁nut	-10.4976
▁dared	-10.4982
bble	-10.4992
▁toy	-10.4998
▁za	-10.4998
▁bond	-10.5004
▁farmer	-10.5026
▁inter	-10.5031
▁am	-10.5033
lasting	-10.5047
▁wars	-10.5059
▁dreaming	-10.5064
car	-10.5068
▁log	-10.5079
▁strip	-10.5082
▁boot	-10.5088
▁ban	-10.5101
wa	-10.5111
▁flow	-10.5116
ker	-10.5117
▁handed	-10.5145
▁dai	-10.5147
field	-10.5148
▁steer	-10.5161
▁fle	-10.5161
itch	-10.5166
more	-10.5168
▁announce	-10.5172
arm	-10.5176
▁drag	-10.5178
▁guarantee	-10.5178
▁success	-10.5183
▁wipe	-10.5183
lot	-10.5189
▁unlike	-10.5192
▁atta	-10.5194
tra	-10.5197
▁mack	-10.5199
▁region	-10.5202
▁mornin	-10.5203
▁threat	-10.5204
▁chuck	-10.5204
▁cure	-10.5205
▁uhuh	-10.5206
▁reckless	-10.5207
▁smooth	-10.5207
▁abbott	-10.5207
▁amanda	-10.5207
▁apologies	-10.5207
▁appetite	-10.5207
▁appointed	-10.5207
▁association	-10.5207
▁blenac	-10.5207
▁briggs	-10.5207
▁callaghan	-10.5207
▁catholic	-10.5207
▁celebrating	-10.5207
▁central	-10.5207
▁ciolino	-10.5207
▁colleague	-10.5207
▁companion	-10.5207
▁conscience	-10.5207
▁credentials	-10.5207
▁easier	-10.5207
▁essential	-10.5207
▁evie	-10.5207
▁expense	-10.5207
▁felicia	-10.5207
▁judgment	-10.5207
▁liquid	-10.5207
▁mavericks	-10.5207
▁messenger	-10.5207
▁morgan	-10.5207
▁naughty	-10.5207
▁november	-10.5207
▁opposite	-10.5207
▁plastic	-10.5207
▁practicing	-10.5207
▁saknussemm	-10.5207
▁sarge	-10.5207
▁september	-10.5207
▁shrink	-10.5207
▁smythe	-10.5207
▁stadium	-10.5207
▁stubborn	-10.5207
▁sweep	-10.5207
▁technique	-10.5207
▁television	-10.5207
▁trophy	-10.5207
▁tumbleweed	-10.5207
▁unexpected	-10.5207
▁wisdom	-10.5207
▁carriage	-10.5207
▁envy	-10.5207
▁fingerprints	-10.5207
▁martha	-10.5207
▁stiles	-10.5207
▁tesla	-10.5207
▁arguing	-10.5207
▁headquarters	-10.5207
▁inspiration	-10.5207
▁imitating	-10.5207
▁crystal	-10.5207
▁jenkins	-10.5207
▁reef	-10.5207
▁southern	-10.5207
▁brush	-10.5207
▁beckwith	-10.5207
▁fabulous	-10.5207
▁widowmaker	-10.5207
▁amber	-10.5208
▁flesh	-10.5208
▁swamp	-10.5208
▁conference	-10.5208
▁gurgling	-10.5208
▁boston	-10.5208
▁bunk	-10.5208
▁impact	-10.5208
▁literally	-10.5208
▁mmmhmm	-10.5208
▁civilized	-10.5208
▁expose	-10.5208
▁average	-10.5208
▁pistol	-10.5208
▁saloon	-10.5208
▁daisy	-10.5208
▁fudge	-10.5208
▁ginga	-10.5208
▁panther	-10.5208
▁combination	-10.5208
▁maniac	-10.5208
▁transmitter	-10.5208
▁moses	-10.5209
▁massage	-10.5209
▁camus	-10.5209
▁maid	-10.5209
▁asshole	-10.5209
▁theory	-10.5209
▁glow	-10.5209
▁ashley	-10.5209
▁maxwell	-10.521
▁parrot	-10.521
▁species	-10.521
▁bunt	-10.521
▁begun	-10.521
▁poop	-10.521
▁merv	-10.521
▁muffin	-10.521
▁elton	-10.5211
▁bait	-10.5212
▁lemon	-10.5212
▁independent	-10.5212
▁affection	-10.5212
▁solo	-10.5213
▁universe	-10.5213
ini	-10.5213
▁data	-10.5213
▁claire	-10.5213
▁relative	-10.5214
▁collection	-10.5214
▁wager	-10.5214
▁kiddo	-10.5214
▁gross	-10.5214
▁naked	-10.5216
▁personality	-10.5216
▁amazed	-10.5217
▁potatoes	-10.5217
▁tucker	-10.5218
▁rocket	-10.5218
▁role	-10.522
▁beal	-10.522
▁bedroom	-10.5221
▁condo	-10.5221
▁dull	-10.5223
▁clue	-10.5223
▁ballet	-10.5224
▁janet	-10.5224
▁demon	-10.5226
▁thumping	-10.5226
▁sixth	-10.5227
▁pickup	-10.523
▁stain	-10.5232
▁bury	-10.5233
▁bullfighter	-10.5234
▁wiped	-10.5237
▁bre	-10.5237
▁bla	-10.5237
▁pastor	-10.5239
▁palm	-10.5242
▁organized	-10.5244
▁matches	-10.5247
▁embarrassing	-10.5247
▁tables	-10.5253
▁dang	-10.5255
▁useful	-10.5263
▁mechanical	-10.5266
▁fucking	-10.5268
▁goose	-10.5271
▁cable	-10.5273
▁kindness	-10.5273
▁delivered	-10.5282
▁luc	-10.5285
▁warned	-10.5297
▁fart	-10.5303
▁bush	-10.531
▁windows	-10.5324
▁murdered	-10.5325
▁helpless	-10.5334
mar	-10.5336
▁smaller	-10.5345
▁haha	-10.535
▁brandy	-10.535
pu	-10.5365
▁peel	-10.5382
zi	-10.5387
▁rap	-10.539
▁imagined	-10.5391
▁elephants	-10.5396
▁robe	-10.5404
▁bothered	-10.5405
ham	-10.5408
▁protected	-10.5416
▁peters	-10.5417
▁slaves	-10.5418
▁japs	-10.5419
▁roars	-10.5419
▁attacks	-10.5454
▁gum	-10.5462
▁sm	-10.5481
▁manners	-10.5493
war	-10.5493
▁shak	-10.5505
▁leaves	-10.5509
▁officers	-10.5509
kin	-10.5531
▁pages	-10.5564
▁wondered	-10.5565
▁losers	-10.5569
▁mic	-10.5577
▁ted	-10.5578
▁strangers	-10.5579
▁dove	-10.5583
ical	-10.5592
▁units	-10.5603
▁beasts	-10.5618
▁agents	-10.5618
▁judges	-10.5624
▁af	-10.5663
▁stan	-10.568
maker	-10.5687
▁eli	-10.5701
▁affairs	-10.5719
▁clouds	-10.5719
▁pockets	-10.5719
▁rats	-10.572
corporate	-10.5729
igh	-10.5743
▁signing	-10.5747
▁inc	-10.5749
▁ants	-10.5757
▁trains	-10.5767
▁conditions	-10.5772
card	-10.5772
▁leaders	-10.5783
▁soc	-10.5796
oui	-10.5811
▁holes	-10.5825
▁mart	-10.5835
▁hike	-10.5845
▁qui	-10.5869
▁understanding	-10.5886
▁squeak	-10.5891
▁rogers	-10.5897
▁limit	-10.5909
▁stamp	-10.591
port	-10.5945
▁politician	-10.5947
▁photo	-10.5948
▁william	-10.595
▁victim	-10.5951
▁option	-10.5954
▁citizen	-10.5957
▁degree	-10.5957
▁cock	-10.5958
▁chuckle	-10.5967
bra	-10.5973
▁ju	-10.5996
▁dealing	-10.5997
▁maker	-10.6
▁domin	-10.6006
▁wha	-10.6058
reme	-10.6076
uch	-10.6091
▁ol	-10.6092
ory	-10.6104
▁buzz	-10.6136
vin	-10.6142
▁approach	-10.6143
▁jo	-10.6146
▁rag	-10.6148
▁fruits	-10.6156
▁shout	-10.6161
▁disturb	-10.6164
▁borrow	-10.6166
like	-10.6169
write	-10.6169
▁cheat	-10.6171
thank	-10.6172
tail	-10.6174
▁pour	-10.6175
▁propose	-10.6179
▁divorce	-10.6179
▁dirt	-10.6186
▁studi	-10.6188
gging	-10.6189
▁actual	-10.6189
▁slight	-10.6191
▁australia	-10.6193
▁possess	-10.62
▁santos	-10.6202
▁badge	-10.6203
▁journal	-10.6203
▁exam	-10.6204
craft	-10.6204
▁earl	-10.6204
ric	-10.6205
▁trot	-10.6206
▁phil	-10.6206
▁process	-10.6206
▁cruel	-10.6206
▁access	-10.6207
▁accomplish	-10.6207
▁admire	-10.6207
▁afterwards	-10.6207
▁amount	-10.6207
▁amsterdam	-10.6207
▁andrea	-10.6207
▁antitoxin	-10.6207
▁anyhow	-10.6207
▁armistice	-10.6207
▁ashford	-10.6207
▁avenue	-10.6207
▁barcelona	-10.6207
▁brenda	-10.6207
▁celebration	-10.6207
▁channel	-10.6207
▁compliment	-10.6207
▁consequences	-10.6207
▁corpse	-10.6207
▁crusade	-10.6207
▁dessert	-10.6207
▁dispatch	-10.6207
▁display	-10.6207
▁division	-10.6207
▁dolores	-10.6207
▁fashion	-10.6207
▁gibus	-10.6207
▁gustav	-10.6207
▁krader	-10.6207
▁lacrique	-10.6207
▁lobster	-10.6207
▁location	-10.6207
▁longeverne	-10.6207
▁miffy	-10.6207
▁nebraska	-10.6207
▁neighbour	-10.6207
▁october	-10.6207
▁opposed	-10.6207
▁perfume	-10.6207
▁respond	-10.6207
▁response	-10.6207
▁rochefort	-10.6207
▁rucio	-10.6207
▁rutherford	-10.6207
▁scotch	-10.6207
▁seppala	-10.6207
▁shelter	-10.6207
▁subtitle	-10.6207
▁surrounded	-10.6207
▁suspicious	-10.6207
▁tedesco	-10.6207
▁thiago	-10.6207
▁thomas	-10.6207
▁traffic	-10.6207
▁truffle	-10.6207
▁tunnel	-10.6207
▁urmi	-10.6207
▁vegas	-10.6207
▁volunteer	-10.6207
▁bounce	-10.6207
▁entei	-10.6207
▁ernie	-10.6207
▁grip	-10.6207
▁helen	-10.6207
▁hyde	-10.6207
▁identity	-10.6207
▁satisfy	-10.6207
▁smiling	-10.6207
▁zito	-10.6207
▁decade	-10.6207
▁dragged	-10.6207
▁ease	-10.6207
▁flood	-10.6207
▁iww	-10.6207
▁wilderness	-10.6207
▁worn	-10.6207
▁restrain	-10.6207
▁vital	-10.6207
▁tyler	-10.6207
▁vichy	-10.6207
▁ellie	-10.6207
▁modest	-10.6207
▁adult	-10.6207
▁izzy	-10.6207
▁whyd	-10.6207
▁debbie	-10.6207
▁gear	-10.6207
▁swiss	-10.6207
▁countries	-10.6208
▁entertain	-10.6208
▁lindsey	-10.6208
▁scalp	-10.6208
▁sammy	-10.6208
▁choking	-10.6208
▁descend	-10.6208
▁monkey	-10.6208
▁bert	-10.6208
▁revoir	-10.6208
▁silent	-10.6208
▁sunyu	-10.6208
▁stuart	-10.6208
▁barks	-10.6208
▁graham	-10.6208
▁influence	-10.6208
▁dining	-10.6208
▁begging	-10.6208
▁revs	-10.6208
▁detective	-10.6208
▁alert	-10.6208
▁mijo	-10.6208
▁sheba	-10.6208
▁shore	-10.6208
▁loyalty	-10.6208
▁miserable	-10.6208
▁blaine	-10.6208
▁zero	-10.6209
▁growls	-10.6209
▁adore	-10.6209
▁marva	-10.6209
▁delhi	-10.6209
▁smoking	-10.6209
▁theater	-10.6209
▁patch	-10.621
▁stew	-10.621
▁necessarily	-10.621
▁fever	-10.621
▁portland	-10.621
▁sharing	-10.621
▁drove	-10.621
▁network	-10.6211
▁plot	-10.6211
▁checkpoint	-10.6211
▁fox	-10.6211
▁colton	-10.6211
▁gallon	-10.6211
▁motorist	-10.6212
▁admitted	-10.6212
▁skies	-10.6212
▁jose	-10.6212
▁declared	-10.6212
▁rack	-10.6212
▁nearby	-10.6212
▁requirement	-10.6213
▁fab	-10.6213
▁nasty	-10.6213
▁cities	-10.6213
▁thirty	-10.6213
▁appropriate	-10.6214
gie	-10.6214
▁romeo	-10.6216
▁wel	-10.6216
▁bold	-10.6216
▁margot	-10.6217
▁scottie	-10.6218
▁stefano	-10.6218
▁capable	-10.6219
▁drug	-10.622
▁ahem	-10.622
▁dug	-10.622
▁glove	-10.6221
▁piss	-10.6223
▁subpoenaed	-10.6223
▁threatened	-10.6223
▁committed	-10.6223
▁retired	-10.6224
▁protection	-10.6224
▁cage	-10.6224
▁julien	-10.6225
▁whore	-10.6225
▁gregg	-10.6225
▁federa	-10.6225
▁whale	-10.6226
▁backyard	-10.6227
▁slightly	-10.6227
▁dishes	-10.6227
▁ticking	-10.6228
▁humanity	-10.6231
▁bess	-10.6232
▁frightened	-10.6232
▁cantata	-10.6232
▁speeches	-10.6232
▁cabin	-10.6234
▁complaint	-10.6234
▁chin	-10.6234
▁divorced	-10.6236
▁momma	-10.6238
▁fallen	-10.624
▁reasonable	-10.6241
▁abandoned	-10.6241
▁embarrassed	-10.6241
▁heroic	-10.6242
▁sang	-10.6243
▁angeles	-10.6244
▁neat	-10.6245
▁mill	-10.6245
▁goodlooking	-10.6245
ari	-10.6245
▁handling	-10.6246
▁straighten	-10.6246
▁spec	-10.6247
▁mass	-10.6249
▁lake	-10.625
▁halt	-10.625
▁lifetime	-10.6251
▁fastest	-10.6252
erial	-10.6253
▁useless	-10.6255
▁commander	-10.6259
▁boxes	-10.6263
▁bald	-10.6268
▁removed	-10.627
▁roads	-10.6271
ezmoi	-10.6274
▁shillings	-10.6276
▁bend	-10.6278
how	-10.6281
▁escaped	-10.6286
ama	-10.6287
▁recognized	-10.6292
▁former	-10.6295
▁dearest	-10.6297
▁blonde	-10.6301
▁wo	-10.6302
▁rot	-10.6302
▁sta	-10.6303
▁robbers	-10.6304
▁sniffing	-10.6305
▁yup	-10.6306
▁concentrate	-10.6308
▁screwing	-10.6317
nows	-10.6318
▁pile	-10.6318
▁wei	-10.6326
▁bandits	-10.6333
▁odds	-10.6342
▁dinging	-10.6347
▁bas	-10.6347
▁appeared	-10.6367
▁hee	-10.6371
▁gardener	-10.6384
▁stu	-10.6385
▁changes	-10.6385
log	-10.6385
▁grapes	-10.6386
▁hare	-10.6391
▁hale	-10.6392
▁rd	-10.6404
▁shortly	-10.6409
▁liver	-10.6412
▁arguments	-10.6413
▁offered	-10.6417
▁considering	-10.6418
zer	-10.6421
▁exception	-10.644
▁cakes	-10.6442
▁establish	-10.6445
▁costs	-10.6445
iii	-10.6449
gre	-10.6451
▁visiting	-10.6454
▁shown	-10.6457
▁cooked	-10.6459
▁options	-10.6469
▁stamps	-10.647
▁tw	-10.6471
sey	-10.6477
▁menac	-10.6508
ummy	-10.6511
▁closely	-10.6522
ora	-10.6538
▁hunters	-10.6542
▁lads	-10.6579
▁terms	-10.658
▁voices	-10.6586
▁shoulders	-10.6609
▁issues	-10.6609
▁inn	-10.6634
▁saints	-10.6636
▁actors	-10.6636
▁oi	-10.6643
gi	-10.665
▁organize	-10.6677
▁camping	-10.6688
▁wheels	-10.6694
▁promises	-10.6695
▁fires	-10.6701
▁masks	-10.672
▁criminals	-10.6748
▁whe	-10.6752
▁joining	-10.6758
▁batt	-10.6768
rate	-10.6814
hole	-10.6814
bel	-10.6817
▁noises	-10.6833
▁breaks	-10.6835
ants	-10.6844
▁wil	-10.6858
ient	-10.6869
▁div	-10.6878
▁returns	-10.6891
its	-10.6915
▁troubles	-10.692
▁lap	-10.6927
▁bombs	-10.6933
ition	-10.6938
▁landing	-10.6948
▁services	-10.6958
▁pointed	-10.6994
▁gifts	-10.7004
gen	-10.7011
▁roar	-10.7015
▁beep	-10.702
fore	-10.7054
lapping	-10.7055
▁nations	-10.7064
▁communication	-10.7065
▁slave	-10.7066
hhh	-10.7074
▁detail	-10.7075
▁jap	-10.7078
▁twin	-10.7083
▁blocks	-10.7094
▁pill	-10.7094
▁sec	-10.7096
gue	-10.7101
▁funk	-10.7117
▁sor	-10.7142
▁cent	-10.7184
nny	-10.7188
▁musician	-10.7189
called	-10.7191
cut	-10.7212
▁lame	-10.7216
▁continu	-10.7249
▁hid	-10.7252
▁echo	-10.7262
▁hurting	-10.7263
▁clang	-10.7265
▁affect	-10.7269
▁crush	-10.7276
foot	-10.7281
print	-10.7281
star	-10.7283
▁matt	-10.7283
▁disappoint	-10.7289
▁float	-10.7291
▁chickens	-10.7294
▁marri	-10.7294
▁indi	-10.7296
▁beck	-10.7298
▁jess	-10.7299
▁frost	-10.73
▁stra	-10.7303
band	-10.7304
▁distract	-10.731
▁speaker	-10.7311
▁bum	-10.7314
aught	-10.7315
▁construct	-10.7315
▁prior	-10.7316
▁loyal	-10.7317
▁basket	-10.7318
▁convert	-10.7318
▁candle	-10.7318
▁forbid	-10.7318
▁cigar	-10.7318
▁happily	-10.7318
▁worship	-10.7318
▁adorable	-10.7319
▁advise	-10.7319
▁airplane	-10.7319
▁arkansas	-10.7319
▁awkward	-10.7319
▁bettsbridge	-10.7319
▁blatz	-10.7319
▁blitzer	-10.7319
▁brezhnev	-10.7319
▁bureau	-10.7319
▁buzhardt	-10.7319
▁campaign	-10.7319
▁canada	-10.7319
▁candidate	-10.7319
▁centuries	-10.7319
▁congratulate	-10.7319
▁connolly	-10.7319
▁corporal	-10.7319
▁depressed	-10.7319
▁device	-10.7319
▁dinosaur	-10.7319
▁diphtheria	-10.7319
▁embrace	-10.7319
▁exchange	-10.7319
▁fantasy	-10.7319
▁fragile	-10.7319
▁fuhrer	-10.7319
▁increase	-10.7319
▁increasing	-10.7319
▁injured	-10.7319
▁injury	-10.7319
▁inspire	-10.7319
▁intelligence	-10.7319
▁jouvet	-10.7319
▁judging	-10.7319
▁kikakee	-10.7319
▁laztec	-10.7319
▁library	-10.7319
▁lugash	-10.7319
▁luggage	-10.7319
▁mclean	-10.7319
▁mildred	-10.7319
▁milkywhite	-10.7319
▁muslim	-10.7319
▁mutual	-10.7319
▁offense	-10.7319
▁ogilvie	-10.7319
▁orchid	-10.7319
▁pacific	-10.7319
▁phupho	-10.7319
▁piplup	-10.7319
▁potential	-10.7319
▁precinct	-10.7319
▁procedure	-10.7319
▁prophecy	-10.7319
▁proposal	-10.7319
▁pursuit	-10.7319
▁qualify	-10.7319
▁railroad	-10.7319
▁rehears	-10.7319
▁shield	-10.7319
▁shrieking	-10.7319
▁shrieks	-10.7319
▁somewhat	-10.7319
▁statistic	-10.7319
▁stutter	-10.7319
▁succeed	-10.7319
▁survival	-10.7319
▁swift	-10.7319
▁symbol	-10.7319
▁tibbett	-10.7319
▁underneath	-10.7319
▁vengeance	-10.7319
▁vodka	-10.7319
▁volume	-10.7319
▁wardrobe	-10.7319
▁withdraw	-10.7319
▁xibalba	-10.7319
▁acquire	-10.7319
▁agenda	-10.7319
▁anytime	-10.7319
▁bacon	-10.7319
▁dozen	-10.7319
▁jeez	-10.7319
▁ollie	-10.7319
▁pathetic	-10.7319
▁sprout	-10.7319
▁mushrooms	-10.7319
▁oath	-10.7319
▁praise	-10.7319
▁contest	-10.7319
▁hustle	-10.7319
▁jerry	-10.7319
▁slamming	-10.7319
▁squirt	-10.7319
▁cleon	-10.7319
▁thisll	-10.7319
▁torn	-10.7319
▁kidney	-10.7319
▁willie	-10.7319
▁prophet	-10.7319
▁greek	-10.7319
▁riddle	-10.7319
▁honks	-10.7319
▁locate	-10.7319
▁brenner	-10.7319
▁inquir	-10.7319
▁sorrow	-10.7319
▁sinister	-10.7319
▁bunny	-10.7319
▁communism	-10.7319
▁judo	-10.7319
▁moors	-10.7319
▁choir	-10.7319
▁steak	-10.7319
▁nudge	-10.7319
▁caprice	-10.7319
▁explor	-10.7319
mbles	-10.7319
▁icon	-10.7319
▁catherine	-10.7319
▁chores	-10.7319
▁vicious	-10.7319
▁geologist	-10.7319
▁savage	-10.7319
▁administration	-10.7319
▁gavin	-10.7319
▁article	-10.7319
▁kayla	-10.7319
▁burger	-10.7319
▁despi	-10.7319
▁jody	-10.7319
▁garage	-10.732
▁existence	-10.732
▁square	-10.732
▁rudi	-10.732
▁tasty	-10.732
▁hurst	-10.732
▁jungle	-10.732
▁swine	-10.732
▁whatre	-10.732
▁byron	-10.732
▁deputies	-10.732
▁involvement	-10.732
▁passionate	-10.732
▁propaganda	-10.732
▁stunt	-10.732
▁subway	-10.732
▁backwards	-10.7321
▁genetic	-10.7321
▁upside	-10.7321
▁archi	-10.7321
▁mummy	-10.7321
▁chaos	-10.7321
▁basis	-10.7321
▁eternal	-10.7321
▁roman	-10.7322
▁japan	-10.7322
▁chapter	-10.7322
▁involve	-10.7322
▁unbelievable	-10.7322
▁diary	-10.7322
▁mario	-10.7322
▁jewelry	-10.7322
▁venga	-10.7322
▁didi	-10.7323
▁peak	-10.7323
▁producers	-10.7323
▁dignity	-10.7323
▁tide	-10.7323
▁richardson	-10.7323
▁cinema	-10.7323
▁tripped	-10.7323
▁kung	-10.7323
▁grownup	-10.7324
▁chute	-10.7324
▁drama	-10.7324
▁scout	-10.7324
▁vow	-10.7324
▁reduce	-10.7324
▁lndian	-10.7324
▁donut	-10.7325
▁melon	-10.7326
▁chamber	-10.7326
▁selfish	-10.7326
▁assist	-10.7326
▁equality	-10.7326
▁confined	-10.7326
▁dating	-10.7327
▁distraction	-10.7327
▁identified	-10.7328
▁mock	-10.7328
▁agony	-10.7328
▁whirling	-10.7329
▁european	-10.7329
▁spinn	-10.7329
▁examine	-10.7329
▁passage	-10.7329
▁ciao	-10.733
▁footage	-10.733
▁fifty	-10.733
▁coverup	-10.7331
▁heel	-10.7331
▁rug	-10.7331
▁bingo	-10.7332
▁rv	-10.7332
▁quitter	-10.7333
▁drummer	-10.7333
▁captured	-10.7334
▁drunken	-10.7334
▁friendship	-10.7334
▁goats	-10.7335
▁shave	-10.7336
▁wander	-10.7337
▁objection	-10.7339
▁sip	-10.7339
▁battery	-10.7339
▁robbing	-10.734
▁lamp	-10.734
▁las	-10.734
▁accused	-10.7341
▁confirmed	-10.7341
▁exit	-10.7341
▁placed	-10.7341
▁becky	-10.7341
▁rod	-10.7344
▁nap	-10.735
▁proposed	-10.735
▁inch	-10.7351
▁sup	-10.7355
▁greed	-10.7356
fire	-10.7357
dont	-10.7357
▁av	-10.736
▁angela	-10.7361
▁realise	-10.7361
▁homesteaders	-10.7365
▁disturbed	-10.7366
▁mistaken	-10.7367
istic	-10.7372
▁released	-10.7374
▁wandering	-10.7375
▁backyeah	-10.7375
▁leon	-10.7378
▁ze	-10.7382
▁manny	-10.7385
▁badger	-10.7386
▁permit	-10.7387
▁separated	-10.7391
▁stinking	-10.7395
▁spades	-10.7396
▁arranged	-10.7398
▁leaning	-10.7401
sherman	-10.7401
▁settled	-10.7404
▁brighter	-10.7406
cal	-10.7408
▁regime	-10.741
nner	-10.7415
▁filly	-10.7415
▁denis	-10.7416
▁safer	-10.7421
▁nod	-10.7421
▁spy	-10.7422
▁reaction	-10.7425
▁talented	-10.7426
▁knuckles	-10.7426
▁entered	-10.7427
▁brace	-10.7443
▁vic	-10.7445
▁tone	-10.7448
aut	-10.7449
mature	-10.7457
▁insects	-10.7457
▁ufos	-10.7457
▁brazilians	-10.7457
▁patterns	-10.7458
▁proved	-10.7461
▁pat	-10.7467
▁freaking	-10.7468
tial	-10.7468
▁existed	-10.747
▁bak	-10.7471
▁christy	-10.7474
▁moral	-10.7482
▁marg	-10.75
▁believer	-10.7502
▁makeup	-10.7516
▁scored	-10.7518
▁aim	-10.7518
▁gap	-10.7518
▁acres	-10.7521
▁helpful	-10.7525
▁surfing	-10.7528
▁visited	-10.7529
▁awaken	-10.753
▁hail	-10.7534
▁rebels	-10.755
▁bubbles	-10.755
▁nazis	-10.755
▁requires	-10.7551
▁safely	-10.7558
▁gent	-10.7565
▁orderly	-10.7576
▁beeps	-10.7579
▁ending	-10.758
▁biting	-10.7594
sical	-10.7595
▁packing	-10.7597
▁seats	-10.7599
▁respected	-10.7605
▁photos	-10.761
▁victims	-10.7613
▁limits	-10.7614
▁noses	-10.7619
▁cher	-10.7638
▁eco	-10.7643
▁speakers	-10.7648
▁recorded	-10.7649
ments	-10.765
▁enjoying	-10.7657
▁attacking	-10.7657
▁explained	-10.7663
uld	-10.7664
▁web	-10.7667
act	-10.7668
▁op	-10.7689
▁cann	-10.7691
bar	-10.7706
▁heights	-10.7706
▁sweets	-10.7724
berg	-10.7729
▁skills	-10.7735
▁idiots	-10.7738
▁nuns	-10.774
▁careless	-10.7742
ncy	-10.7754
▁sleepy	-10.7758
▁sch	-10.7808
▁foreigner	-10.781
▁flo	-10.7812
ix	-10.7829
▁differences	-10.7859
som	-10.786
▁desires	-10.7864
▁swords	-10.7896
▁ships	-10.7918
ong	-10.7922
▁hay	-10.7928
▁subjects	-10.7928
▁sins	-10.7934
ose	-10.7936
com	-10.7938
▁adventures	-10.7991
▁drums	-10.7999
▁yards	-10.8022
▁pulling	-10.803
put	-10.8037
▁paw	-10.8037
▁ting	-10.8037
mmer	-10.8051
▁sirens	-10.8061
▁surprises	-10.8108
▁rang	-10.8111
▁worker	-10.8114
ility	-10.812
▁reverse	-10.8124
eeh	-10.8127
▁ann	-10.8161
▁ir	-10.8177
ace	-10.8178
▁robots	-10.8181
▁swans	-10.8185
eat	-10.8205
▁organ	-10.8248
▁lawyers	-10.825
▁depend	-10.8259
oph	-10.8263
nish	-10.8266
▁require	-10.8276
▁injun	-10.8293
ever	-10.8299
▁fro	-10.83
▁root	-10.831
▁bubble	-10.8313
▁argument	-10.8314
▁deserves	-10.8318
▁document	-10.8318
▁cigarette	-10.8318
▁rebel	-10.8319
▁await	-10.832
▁chipmunk	-10.8321
▁aha	-10.8325
▁operate	-10.8337
ute	-10.834
▁sock	-10.8357
▁nurs	-10.8358
▁nazi	-10.8381
▁roses	-10.8381
▁pies	-10.84
▁valid	-10.8405
▁embarrass	-10.8469
▁greater	-10.8476
sco	-10.8505
▁clamor	-10.8513
▁yah	-10.8525
▁preach	-10.8525
point	-10.8526
▁qu	-10.8526
▁abandon	-10.8526
▁cancel	-10.8527
▁shatter	-10.8527
town	-10.8529
round	-10.853
mouth	-10.853
▁spill	-10.8531
▁puff	-10.8534
self	-10.8537
four	-10.8538
▁todd	-10.8541
load	-10.8543
▁guilt	-10.8546
▁august	-10.8551
▁char	-10.8558
▁teenage	-10.8561
▁origin	-10.8561
▁select	-10.8562
▁mamma	-10.8562
▁disagree	-10.8565
▁invest	-10.8565
▁vocal	-10.8565
▁motor	-10.8565
▁movin	-10.8565
▁civil	-10.8567
▁orphan	-10.8567
▁harv	-10.8567
▁urge	-10.8567
▁alex	-10.8567
▁isabel	-10.8567
▁thorn	-10.8568
▁authentic	-10.8568
▁broadcast	-10.8568
▁flirt	-10.8568
▁length	-10.8568
▁alligator	-10.8569
▁ambition	-10.8569
▁ancestor	-10.8569
▁anniversary	-10.8569
▁apologizing	-10.8569
▁behavior	-10.8569
▁believing	-10.8569
▁beware	-10.8569
▁bonacieux	-10.8569
▁brawley	-10.8569
▁brutal	-10.8569
▁cavalry	-10.8569
▁charmander	-10.8569
▁cheasel	-10.8569
▁communicate	-10.8569
▁confusing	-10.8569
▁convenient	-10.8569
▁corporation	-10.8569
▁curious	-10.8569
▁delegate	-10.8569
▁democracy	-10.8569
▁despair	-10.8569
▁detergent	-10.8569
▁disgrace	-10.8569
▁dispose	-10.8569
▁edmund	-10.8569
▁elected	-10.8569
▁elixir	-10.8569
▁erroneous	-10.8569
▁eternity	-10.8569
▁explode	-10.8569
▁exploding	-10.8569
▁hallelujah	-10.8569
▁happiest	-10.8569
▁hercule	-10.8569
▁hindu	-10.8569
▁hortense	-10.8569
▁injustice	-10.8569
▁instinct	-10.8569
▁institution	-10.8569
▁koophuis	-10.8569
▁launch	-10.8569
▁liberal	-10.8569
▁liedholm	-10.8569
▁marshadow	-10.8569
▁matrix	-10.8569
▁mckay	-10.8569
▁murdoch	-10.8569
▁outfit	-10.8569
▁outlaw	-10.8569
▁peculiar	-10.8569
▁platform	-10.8569
▁posada	-10.8569
▁preserve	-10.8569
▁primitive	-10.8569
▁pronounce	-10.8569
▁reaiiy	-10.8569
▁residence	-10.8569
▁rupert	-10.8569
▁script	-10.8569
▁serpent	-10.8569
▁shabbes	-10.8569
▁shepherd	-10.8569
▁sloopy	-10.8569
▁snickering	-10.8569
▁squirrel	-10.8569
▁survivors	-10.8569
▁transcript	-10.8569
▁transfer	-10.8569
▁typical	-10.8569
▁underground	-10.8569
▁underwear	-10.8569
▁valuable	-10.8569
▁vitamins	-10.8569
▁whinnies	-10.8569
▁zamora	-10.8569
▁avenge	-10.8569
▁delmann	-10.8569
▁deputy	-10.8569
▁dreadful	-10.8569
▁motive	-10.8569
▁pearl	-10.8569
▁solemn	-10.8569
▁yarmouth	-10.8569
▁lettuce	-10.8569
▁salad	-10.8569
▁survey	-10.8569
▁annoy	-10.8569
▁chord	-10.8569
▁couid	-10.8569
▁pork	-10.8569
▁solar	-10.8569
▁superior	-10.8569
▁otis	-10.8569
▁email	-10.8569
▁deaf	-10.8569
▁element	-10.8569
▁method	-10.8569
▁robbed	-10.8569
culture	-10.8569
▁hiram	-10.8569
▁ladder	-10.8569
▁wolves	-10.8569
▁chopper	-10.8569
▁slay	-10.8569
▁costume	-10.8569
▁nanna	-10.8569
▁franco	-10.8569
▁veil	-10.8569
▁forrest	-10.8569
▁maneuvers	-10.8569
▁jockey	-10.8569
▁outdoor	-10.8569
▁historical	-10.8569
▁grenade	-10.8569
▁yuri	-10.8569
▁referring	-10.8569
▁entrance	-10.8569
▁giddyup	-10.8569
▁introduction	-10.8569
▁authorities	-10.8569
▁whiff	-10.8569
▁shush	-10.8569
▁wives	-10.8569
▁gutting	-10.8569
▁membership	-10.8569
▁hornsby	-10.8569
▁cork	-10.8569
▁update	-10.8569
▁roast	-10.8569
▁frame	-10.857
▁lease	-10.857
▁static	-10.857
▁anchovies	-10.857
▁robberies	-10.857
▁saki	-10.857
▁compass	-10.857
▁concept	-10.857
▁moose	-10.857
▁gambling	-10.857
▁institute	-10.857
ville	-10.857
▁snack	-10.857
▁summon	-10.857
▁poem	-10.857
▁temple	-10.857
▁nva	-10.857
▁clack	-10.8571
▁secure	-10.8571
▁dressmaker	-10.8571
▁broadway	-10.8571
▁vroom	-10.8571
▁confident	-10.8571
▁trotter	-10.8571
▁argh	-10.8571
▁addict	-10.8571
▁crank	-10.8571
▁associate	-10.8572
▁identify	-10.8572
▁raising	-10.8572
▁griba	-10.8572
▁leap	-10.8572
▁resting	-10.8572
▁cupcake	-10.8572
▁chili	-10.8572
▁peck	-10.8572
▁slim	-10.8572
▁combat	-10.8572
▁creative	-10.8572
▁chasing	-10.8572
▁meow	-10.8573
▁mitch	-10.8573
▁vol	-10.8573
▁gunfire	-10.8573
▁twitch	-10.8573
▁cooperative	-10.8573
▁scarce	-10.8573
▁fame	-10.8573
▁raid	-10.8573
▁appearance	-10.8573
▁connection	-10.8573
▁chivalry	-10.8573
▁laundry	-10.8573
▁debt	-10.8573
▁classroom	-10.8574
▁priority	-10.8574
▁fitting	-10.8574
riff	-10.8574
▁shook	-10.8574
▁qualified	-10.8574
▁bonus	-10.8575
▁maintain	-10.8575
▁ridge	-10.8575
▁technically	-10.8575
▁stir	-10.8576
▁bham	-10.8576
▁whatll	-10.8576
▁aii	-10.8576
▁seren	-10.8576
▁production	-10.8577
▁entry	-10.8577
ault	-10.8577
▁teenager	-10.8577
▁regional	-10.8578
▁dj	-10.8578
▁diesel	-10.8578
▁harp	-10.8579
▁largest	-10.8579
▁studies	-10.858
▁allen	-10.8581
▁sew	-10.8581
▁possession	-10.8581
▁frenchmen	-10.8582
▁economy	-10.8582
▁basement	-10.8584
▁penny	-10.8584
▁pow	-10.8585
▁temper	-10.8587
▁tapping	-10.8588
▁sickness	-10.8591
▁deck	-10.8593
▁putey	-10.8593
▁spic	-10.8595
▁stray	-10.8595
▁threatening	-10.8595
▁bored	-10.8597
▁memor	-10.8598
▁youngster	-10.8598
▁fist	-10.8599
▁popping	-10.8599
▁exhausted	-10.86
▁revealed	-10.86
▁puzzl	-10.8601
▁zay	-10.8601
▁nest	-10.8604
▁pole	-10.8604
▁silk	-10.8604
▁hack	-10.8606
▁dial	-10.8608
▁developed	-10.8608
▁facing	-10.8611
▁spilled	-10.8612
▁toughest	-10.8612
▁quote	-10.8612
▁monsters	-10.8612
▁of	-10.8616
▁crushed	-10.8617
▁announced	-10.8617
▁clothing	-10.8618
sensible	-10.862
▁rarely	-10.862
▁gray	-10.8621
▁headaches	-10.8622
▁stamped	-10.8625
▁coal	-10.863
elle	-10.8631
▁batter	-10.8632
▁originally	-10.8632
▁echoing	-10.8633
▁breathes	-10.8638
▁recovered	-10.864
▁confession	-10.8647
▁gall	-10.8652
▁paula	-10.8652
▁lend	-10.8653
▁gamble	-10.8655
▁aa	-10.8657
▁deserted	-10.8658
▁assured	-10.8662
▁exp	-10.8666
▁smacking	-10.8671
▁simone	-10.8678
▁shy	-10.8681
▁dancer	-10.8682
▁blaz	-10.8685
▁porter	-10.8692
▁arrangements	-10.8692
ore	-10.8695
▁produce	-10.8696
▁kneel	-10.87
▁conditioned	-10.8704
gler	-10.8705
▁sweater	-10.8705
▁oy	-10.8707
uts	-10.8708
▁gre	-10.871
▁heed	-10.8714
▁suggested	-10.8715
▁lit	-10.8723
▁mustangs	-10.8727
▁poi	-10.8728
top	-10.8729
▁realm	-10.8738
▁washed	-10.8739
▁actions	-10.875
▁added	-10.8754
▁dak	-10.8759
▁athletes	-10.8762
awn	-10.8765
▁swinging	-10.8769
name	-10.8776
▁horns	-10.878
▁marching	-10.8784
▁tasted	-10.8786
youre	-10.8791
▁discussed	-10.8792
▁temperatures	-10.8798
▁visitors	-10.8798
relli	-10.8814
▁continued	-10.8822
▁capers	-10.8826
▁drawing	-10.883
▁drawer	-10.8837
▁what	-10.8867
▁granted	-10.8896
▁williams	-10.8905
▁mop	-10.8908
▁laughed	-10.891
▁scor	-10.8933
▁crate	-10.8938
▁youi	-10.8946
▁sis	-10.8955
▁helicopters	-10.8976
▁prest	-10.9013
▁deeds	-10.9021
▁messed	-10.9024
late	-10.9039
bre	-10.9039
two	-10.9049
itched	-10.9056
▁catcher	-10.9056
▁returning	-10.9076
oni	-10.9092
▁uhh	-10.9095
▁your	-10.9098
▁copie	-10.9108
▁writers	-10.9113
▁poster	-10.9116
▁dip	-10.9134
ative	-10.9145
▁banking	-10.9152
▁neighbors	-10.9157
hon	-10.916
▁pins	-10.9175
▁vice	-10.9182
ette	-10.9196
agging	-10.9216
▁scares	-10.9223
▁feelin	-10.9223
▁socialists	-10.923
▁cracks	-10.9238
▁beautifully	-10.9254
▁popes	-10.9261
▁landed	-10.9289
▁fil	-10.929
▁creeps	-10.9293
ata	-10.9306
ust	-10.9323
▁apples	-10.934
▁rocking	-10.9343
dale	-10.9344
▁hills	-10.9378
▁fighter	-10.9399
izz	-10.9413
this	-10.9417
▁playful	-10.9435
▁objects	-10.9439
▁pickle	-10.9439
▁ink	-10.9442
▁operat	-10.9454
ional	-10.9456
▁walla	-10.9459
▁meter	-10.946
▁rein	-10.9462
▁scarf	-10.9476
▁jeans	-10.9488
▁partners	-10.9514
ept	-10.9519
▁interests	-10.9533
▁bel	-10.9534
wit	-10.9581
pas	-10.9583
▁it	-10.9593
▁ties	-10.9593
lm	-10.9628
ular	-10.9633
▁exists	-10.9643
lets	-10.9647
▁bal	-10.9647
▁bud	-10.9679
▁squeal	-10.9682
▁trumpet	-10.9688
▁whisper	-10.969
ame	-10.969
▁dor	-10.9702
▁driven	-10.9712
▁peanut	-10.9737
▁turtle	-10.9737
▁error	-10.9737
▁gasp	-10.9737
▁temperature	-10.9739
▁grape	-10.9744
fu	-10.9744
▁acre	-10.9751
▁oop	-10.9752
▁label	-10.9755
▁visitor	-10.976
▁whoop	-10.9777
▁cue	-10.9782
▁theo	-10.9788
▁commit	-10.9813
▁how	-10.9828
▁prisoner	-10.9835
agh	-10.9845
even	-10.9852
lessly	-10.9865
▁caper	-10.9871
▁slap	-10.9872
ret	-10.9874
iest	-10.9879
▁gamb	-10.9896
look	-10.9907
▁hop	-10.9909
▁author	-10.991
▁fare	-10.9911
▁employ	-10.9918
▁here	-10.9919
sha	-10.9933
▁crawl	-10.9939
▁clink	-10.994
▁greet	-10.994
▁accord	-10.9943
▁connect	-10.9948
▁ama	-10.9952
▁punish	-10.9953
book	-10.9955
ought	-10.9956
▁fer	-10.9956
piece	-10.9957
walla	-10.9957
american	-10.9959
class	-10.9959
looking	-10.9961
▁chant	-10.9961
lock	-10.9962
bang	-10.9962
water	-10.9963
▁tra	-10.9965
▁approve	-10.9967
▁cloth	-10.9967
▁include	-10.9968
▁victor	-10.9971
▁mun	-10.9972
▁elder	-10.9977
donna	-10.9977
▁plea	-10.9977
▁practical	-10.9978
▁negotiat	-10.9979
▁incredibl	-10.998
▁tuck	-10.9984
▁rio	-10.9988
▁suspend	-10.9992
▁depart	-10.9993
▁pea	-10.9993
scribe	-10.9993
▁supervis	-10.9994
▁corrupt	-10.9994
▁stress	-10.9995
▁favour	-10.9996
▁fright	-10.9997
▁karr	-10.9997
▁multipl	-10.9997
▁activity	-10.9997
▁airstrip	-10.9997
▁alfred	-10.9997
▁allergic	-10.9997
▁amnesia	-10.9997
▁approval	-10.9997
▁armenian	-10.9997
▁arrival	-10.9997
▁austria	-10.9997
▁automobile	-10.9997
▁bachelor	-10.9997
▁bannock	-10.9997
▁barbershop	-10.9997
▁bastille	-10.9997
▁bizarre	-10.9997
▁bouquet	-10.9997
▁buddha	-10.9997
▁buffalo	-10.9997
▁calamity	-10.9997
▁ceramic	-10.9997
▁challenging	-10.9997
▁charizard	-10.9997
▁commercial	-10.9997
▁competitive	-10.9997
▁conclusion	-10.9997
▁conspiracy	-10.9997
▁consult	-10.9997
▁contrary	-10.9997
▁cunning	-10.9997
▁curiosity	-10.9997
▁cycle	-10.9997
▁defence	-10.9997
▁diaval	-10.9997
▁distress	-10.9997
▁diwedi	-10.9997
▁elbow	-10.9997
▁encounter	-10.9997
▁enthusiasm	-10.9997
▁epidemic	-10.9997
▁excellency	-10.9997
▁execution	-10.9997
▁fifteen	-10.9997
▁forgave	-10.9997
▁fossil	-10.9997
▁gabriel	-10.9997
▁guidance	-10.9997
▁gymnasts	-10.9997
▁immortal	-10.9997
▁inevitable	-10.9997
▁inherit	-10.9997
▁jiggl	-10.9997
▁jubilee	-10.9997
▁kerensky	-10.9997
▁liquor	-10.9997
▁lobby	-10.9997
▁lounge	-10.9997
▁marilyn	-10.9997
▁meanwhile	-10.9997
▁microphone	-10.9997
▁montepetra	-10.9997
▁mossop	-10.9997
▁motorcycle	-10.9997
▁nanananana	-10.9997
▁nephew	-10.9997
▁nicole	-10.9997
▁oklahoma	-10.9997
▁oozaru	-10.9997
▁opponent	-10.9997
▁ounce	-10.9997
▁outstanding	-10.9997
▁perspective	-10.9997
▁phiibin	-10.9997
▁poverty	-10.9997
▁proposition	-10.9997
▁puppet	-10.9997
▁pushcart	-10.9997
▁raphael	-10.9997
▁razor	-10.9997
▁relevant	-10.9997
▁relief	-10.9997
▁roadblock	-10.9997
▁sagami	-10.9997
▁sauna	-10.9997
▁sausage	-10.9997
▁scientific	-10.9997
▁senechal	-10.9997
▁sharrief	-10.9997
▁sleeve	-10.9997
▁sneffels	-10.9997
▁splinter	-10.9997
▁stereo	-10.9997
▁stiff	-10.9997
▁stunned	-10.9997
▁surgeon	-10.9997
▁thomkins	-10.9997
▁tolerate	-10.9997
▁torture	-10.9997
▁tragedy	-10.9997
▁tremor	-10.9997
▁undercover	-10.9997
▁vibrations	-10.9997
▁virtue	-10.9997
▁vivian	-10.9997
▁volcano	-10.9997
▁voyage	-10.9997
▁wheezing	-10.9997
▁winslow	-10.9997
▁caesar	-10.9997
▁cissy	-10.9997
▁convincing	-10.9997
▁fantan	-10.9997
▁festive	-10.9997
▁fridge	-10.9997
▁glorious	-10.9997
▁hackett	-10.9997
▁honeymoon	-10.9997
▁hooray	-10.9997
▁horror	-10.9997
▁ignit	-10.9997
▁importance	-10.9997
▁initial	-10.9997
▁planchet	-10.9997
▁pursue	-10.9997
▁reliev	-10.9997
▁resident	-10.9997
▁rubber	-10.9997
▁senate	-10.9997
▁striking	-10.9997
▁unpack	-10.9997
▁upgrade	-10.9997
▁chemo	-10.9997
▁clerk	-10.9997
▁coffin	-10.9997
▁dennis	-10.9997
▁gayle	-10.9997
▁jello	-10.9997
▁leaf	-10.9997
▁parling	-10.9997
▁polish	-10.9997
▁prime	-10.9997
▁retard	-10.9997
▁riley	-10.9997
▁severe	-10.9997
▁chitter	-10.9997
▁jeep	-10.9997
▁raynor	-10.9997
▁thoth	-10.9997
▁radar	-10.9997
▁strateg	-10.9997
▁blaming	-10.9997
▁seminar	-10.9997
▁squash	-10.9997
▁sober	-10.9997
▁prune	-10.9997
▁winnie	-10.9997
▁decorat	-10.9997
▁griev	-10.9997
▁terry	-10.9997
▁decree	-10.9997
▁slurp	-10.9997
▁adopt	-10.9997
▁gratitude	-10.9997
▁keen	-10.9997
▁estimate	-10.9997
▁drew	-10.9997
▁content	-10.9997
▁scheme	-10.9997
▁collapse	-10.9997
▁drift	-10.9997
▁dialogue	-10.9997
▁higgins	-10.9997
▁sulk	-10.9997
▁funeral	-10.9997
▁discharge	-10.9997
▁fireworks	-10.9997
▁jingle	-10.9997
▁carrot	-10.9997
▁picnic	-10.9997
▁rick	-10.9997
▁freezing	-10.9997
▁breeding	-10.9997
▁consum	-10.9998
▁discount	-10.9998
▁darn	-10.9998
▁harvey	-10.9998
▁racing	-10.9998
▁graveyard	-10.9998
▁debate	-10.9998
▁euro	-10.9998
▁favourite	-10.9998
▁rib	-10.9998
▁cartoon	-10.9998
▁levine	-10.9998
▁horai	-10.9998
▁roque	-10.9998
▁aaaa	-10.9998
▁breast	-10.9998
▁feola	-10.9998
▁hart	-10.9998
▁unknown	-10.9998
▁copyright	-10.9998
▁collaboration	-10.9998
▁bugger	-10.9998
▁feast	-10.9998
▁vault	-10.9998
▁behold	-10.9998
▁civilian	-10.9998
▁federation	-10.9998
▁charro	-10.9999
▁handwriting	-10.9999
▁dodge	-10.9999
▁karate	-10.9999
▁rattle	-10.9999
▁woof	-10.9999
▁raft	-10.9999
▁digging	-10.9999
▁hooting	-10.9999
▁fizz	-10.9999
▁gutter	-10.9999
▁sensation	-10.9999
▁crab	-10.9999
▁romance	-10.9999
▁frome	-10.9999
▁chrissy	-10.9999
▁offend	-10.9999
aries	-10.9999
▁finance	-10.9999
▁recreat	-10.9999
▁nailed	-10.9999
▁hamilton	-10.9999
▁agency	-10.9999
▁leonard	-10.9999
▁litter	-10.9999
▁seism	-11
▁anticipated	-11
▁swap	-11
▁regiment	-11
▁leach	-11
▁colt	-11
▁henri	-11
▁leadership	-11
▁bonnie	-11
▁vocaliz	-11.0001
▁runner	-11.0001
▁limo	-11.0001
▁abuse	-11.0001
▁concur	-11.0001
▁whi	-11.0001
▁poppa	-11.0001
▁legendary	-11.0001
▁fuel	-11.0002
▁hamster	-11.0002
▁aircraft	-11.0002
▁whim	-11.0002
▁grasp	-11.0002
▁muck	-11.0002
▁abil	-11.0002
▁trout	-11.0003
ggin	-11.0003
▁fiddler	-11.0003
▁miguel	-11.0003
▁scarlet	-11.0004
▁blog	-11.0004
▁brownies	-11.0004
▁barber	-11.0004
▁margo	-11.0004
▁robertson	-11.0005
▁package	-11.0006
▁santosh	-11.0006
▁dice	-11.0006
▁treatment	-11.0006
▁sympathy	-11.0006
▁management	-11.0006
▁stennis	-11.0006
▁accidentally	-11.0007
▁dried	-11.0007
▁weakness	-11.0007
▁realistic	-11.0007
▁fatherinlaw	-11.0007
▁clip	-11.0007
▁lilies	-11.0008
▁allies	-11.0008
▁roon	-11.0008
▁graduate	-11.0008
▁tailor	-11.0009
▁fleet	-11.0009
▁sox	-11.001
▁ross	-11.001
▁swore	-11.0011
▁wage	-11.0011
▁constantly	-11.0011
▁sack	-11.0011
▁tele	-11.0013
▁dandy	-11.0013
▁limp	-11.0015
▁ballot	-11.0015
▁raw	-11.0016
bir	-11.0016
▁formation	-11.0016
▁duh	-11.0017
▁capitalist	-11.0017
▁auguste	-11.0018
▁machinery	-11.0018
▁forgiveness	-11.0019
▁loaf	-11.0019
▁version	-11.0019
▁slice	-11.002
▁lenin	-11.002
▁seventh	-11.002
oming	-11.002
▁fulfilled	-11.002
▁impressed	-11.0021
▁tray	-11.0021
ruce	-11.0021
▁drill	-11.0023
▁standard	-11.0024
▁joll	-11.0025
▁witnesses	-11.0026
▁mice	-11.0027
▁stammering	-11.0028
▁scraping	-11.0029
▁unlikely	-11.0029
gne	-11.003
▁bolt	-11.003
▁freezer	-11.0032
▁englishman	-11.0033
▁haunted	-11.0034
▁smashed	-11.0034
▁mimic	-11.0035
▁daylight	-11.0036
▁thus	-11.0037
▁duel	-11.0038
arity	-11.0039
▁edit	-11.004
▁nickel	-11.004
▁puffer	-11.0045
▁bah	-11.0046
▁armory	-11.0047
▁accountant	-11.0049
▁bridger	-11.0049
▁brandon	-11.0052
▁comply	-11.0057
▁miners	-11.0059
▁provided	-11.0066
▁dl	-11.0068
▁whooping	-11.0068
uous	-11.0068
▁dryer	-11.0069
▁witches	-11.0072
▁floating	-11.0072
▁lighten	-11.0074
▁sable	-11.0078
▁forgiven	-11.0079
▁designed	-11.0081
▁bom	-11.0082
▁carla	-11.0088
▁ang	-11.0088
▁steering	-11.0089
headed	-11.0092
▁hor	-11.0094
▁oni	-11.0096
▁hmmm	-11.0099
▁landlords	-11.01
▁teammates	-11.01
▁insulted	-11.0107
▁beau	-11.0112
▁moderat	-11.0116
▁tying	-11.0116
▁tame	-11.0117
▁ace	-11.0122
▁loudly	-11.0122
▁joint	-11.0125
▁ste	-11.0131
▁bb	-11.0134
▁difficulty	-11.0136
▁ew	-11.0138
▁phillips	-11.0141
▁blades	-11.0141
▁emotions	-11.0142
▁shocked	-11.0142
▁dope	-11.0147
patriot	-11.0148
▁cracking	-11.0165
▁requested	-11.0181
▁greetings	-11.0182
▁tools	-11.0182
▁stables	-11.0182
here	-11.0188
▁experienced	-11.019
▁brad	-11.0201
avai	-11.0213
▁pushy	-11.0214
▁sailors	-11.0223
▁repeating	-11.0241
▁wy	-11.0241
mba	-11.0243
ove	-11.0249
going	-11.0256
▁tub	-11.0264
▁labels	-11.0264
▁cracker	-11.0264
▁errors	-11.0264
▁peanuts	-11.0264
▁turtles	-11.0264
▁squeals	-11.0266
▁lifted	-11.0299
cept	-11.03
▁roots	-11.0307
vast	-11.0313
▁marker	-11.0315
▁seize	-11.0335
▁discussing	-11.0341
▁camel	-11.0344
ammed	-11.0345
▁communications	-11.0348
kins	-11.0359
▁desc	-11.0366
▁rem	-11.0382
▁slo	-11.0384
▁fatal	-11.0388
▁oneill	-11.0389
▁politicians	-11.0389
▁cocks	-11.039
▁belly	-11.039
▁squeaks	-11.0391
▁lifting	-11.0395
▁relaxed	-11.0406
hru	-11.0412
ttie	-11.0424
▁bonds	-11.0427
▁products	-11.0432
lash	-11.0444
▁naive	-11.0463
ips	-11.0463
▁acted	-11.0465
▁stinks	-11.0466
▁cowboys	-11.0473
▁circles	-11.0477
nip	-11.0487
ome	-11.0495
▁pits	-11.0507
▁kissed	-11.051
▁championships	-11.0515
▁neighs	-11.0515
▁rig	-11.0522
rad	-11.0534
▁revers	-11.0536
▁dressing	-11.0542
▁measures	-11.0547
▁crooks	-11.055
▁occasions	-11.055
▁strings	-11.0557
▁morons	-11.0558
▁artists	-11.056
iy	-11.056
bag	-11.0561
▁pav	-11.0562
▁chaps	-11.0562
rob	-11.057
▁jerks	-11.06
▁shal	-11.0603
▁dine	-11.065
▁preferr	-11.0656
▁fixing	-11.0662
▁sniffs	-11.067
▁cho	-11.0692
▁mc	-11.0702
▁cam	-11.0704
▁lip	-11.0709
▁riders	-11.0749
▁sounded	-11.0766
▁jar	-11.0769
▁remov	-11.0769
can	-11.0807
▁coordinat	-11.0825
org	-11.0844
▁philip	-11.0864
pine	-11.0892
iro	-11.092
met	-11.0923
uv	-11.0925
▁troop	-11.0929
of	-11.0951
ima	-11.1023
▁cott	-11.1029
eem	-11.1054
hony	-11.11
mut	-11.11
ami	-11.1117
▁triple	-11.1136
bie	-11.1159
▁fac	-11.1174
umbling	-11.1199
▁cherr	-11.1241
escent	-11.1248
▁lang	-11.1248
▁poke	-11.1318
▁hai	-11.1321
inda	-11.1359
▁robo	-11.1379
▁yyou	-11.139
▁instrument	-11.1394
▁marine	-11.1405
▁athlete	-11.1406
▁deli	-11.1407
▁sailor	-11.1412
▁instruction	-11.1412
eye	-11.1414
▁parent	-11.142
get	-11.1456
vid	-11.146
▁gar	-11.1492
▁patri	-11.1501
free	-11.1503
▁react	-11.151
▁hea	-11.1511
▁gran	-11.1511
▁scrub	-11.1527
▁sue	-11.1529
▁prop	-11.1548
three	-11.1551
▁gin	-11.1556
▁iti	-11.1557
▁reveal	-11.1563
▁arrang	-11.1581
▁terror	-11.1587
ipper	-11.1588
eater	-11.1592
▁invad	-11.1604
▁crunch	-11.161
nen	-11.1618
▁develop	-11.1619
▁smash	-11.1621
▁haunt	-11.1621
▁exhaust	-11.1621
cloth	-11.1623
life	-11.1624
girl	-11.1625
crown	-11.1625
guard	-11.1625
▁frighten	-11.1626
worth	-11.1626
okay	-11.1626
pipe	-11.1627
▁reserve	-11.1633
▁retire	-11.1634
burn	-11.1635
▁achieve	-11.1637
▁davi	-11.1637
inlaw	-11.1638
▁valle	-11.1642
▁unfortunate	-11.1645
▁absolute	-11.1646
▁kne	-11.1648
▁weigh	-11.1651
▁calculat	-11.1651
▁protest	-11.1655
▁independen	-11.1655
▁migue	-11.1657
▁posse	-11.1658
▁reflect	-11.1661
▁dentist	-11.1662
▁cooperat	-11.1662
▁automatic	-11.1662
▁egypt	-11.1662
frey	-11.1663
▁mutt	-11.1663
wich	-11.1663
▁blank	-11.1663
▁musket	-11.1664
▁vietnam	-11.1664
▁whizz	-11.1664
▁astonish	-11.1664
▁deploy	-11.1664
▁disobey	-11.1664
▁gibber	-11.1664
▁murmur	-11.1664
conceivable	-11.1664
ncineroar	-11.1664
umptious	-11.1664
▁abigail	-11.1664
▁absurd	-11.1664
▁accelerat	-11.1664
▁acknowledge	-11.1664
▁advertising	-11.1664
▁altogether	-11.1664
▁ambulance	-11.1664
▁anonym	-11.1664
▁approximately	-11.1664
▁arriving	-11.1664
▁artillery	-11.1664
▁awhile	-11.1664
▁behalf	-11.1664
▁bermejo	-11.1664
▁bordeaux	-11.1664
▁calendar	-11.1664
▁carpenter	-11.1664
▁celeste	-11.1664
▁chorus	-11.1664
▁clermont	-11.1664
▁clutch	-11.1664
▁companies	-11.1664
▁contempt	-11.1664
▁corbetts	-11.1664
▁crippled	-11.1664
▁curfew	-11.1664
▁decline	-11.1664
▁dedicated	-11.1664
▁delicate	-11.1664
▁desirable	-11.1664
▁dictabelt	-11.1664
▁dismiss	-11.1664
▁dysfunctional	-11.1664
▁elegant	-11.1664
▁emptied	-11.1664
▁environment	-11.1664
▁erasure	-11.1664
▁esterhaus	-11.1664
▁evidently	-11.1664
▁execute	-11.1664
▁exhibition	-11.1664
▁exquisite	-11.1664
▁factrytown	-11.1664
▁feature	-11.1664
▁financial	-11.1664
▁florence	-11.1664
▁forfeit	-11.1664
▁grief	-11.1664
▁hamburger	-11.1664
▁inferior	-11.1664
▁insurrection	-11.1664
▁intellectual	-11.1664
▁jerusalem	-11.1664
▁kansas	-11.1664
▁knives	-11.1664
▁kusum	-11.1664
▁lanervo	-11.1664
▁leather	-11.1664
▁leonhard	-11.1664
▁literature	-11.1664
▁lucille	-11.1664
▁macailler	-11.1664
▁majester	-11.1664
▁manufacture	-11.1664
▁marshmallow	-11.1664
▁maximillius	-11.1664
▁merchants	-11.1664
▁merci	-11.1664
▁metaphor	-11.1664
▁microchip	-11.1664
▁monterey	-11.1664
▁moravietti	-11.1664
▁napoleon	-11.1664
▁nicholai	-11.1664
▁nigel	-11.1664
▁norwegian	-11.1664
▁notorious	-11.1664
▁nowadays	-11.1664
▁ochopee	-11.1664
▁offshore	-11.1664
▁pamphlets	-11.1664
▁participate	-11.1664
▁pheasant	-11.1664
▁physicist	-11.1664
▁pignet	-11.1664
▁plato	-11.1664
▁policies	-11.1664
▁population	-11.1664
▁porsche	-11.1664
▁priscilla	-11.1664
▁pyramid	-11.1664
▁rafferty	-11.1664
▁resolve	-11.1664
▁resources	-11.1664
▁reynolds	-11.1664
▁rocinante	-11.1664
▁rupees	-11.1664
▁sabotage	-11.1664
▁satellite	-11.1664
▁schroeder	-11.1664
▁scientist	-11.1664
▁scotland	-11.1664
▁scribble	-11.1664
▁senhor	-11.1664
▁sidney	-11.1664
▁snozzcumber	-11.1664
▁spaniard	-11.1664
▁spectacular	-11.1664
▁sponsor	-11.1664
▁sprinkle	-11.1664
▁sputtering	-11.1664
▁struggling	-11.1664
▁surprising	-11.1664
▁thanksgiving	-11.1664
▁theatre	-11.1664
▁thunderclap	-11.1664
▁toothpaste	-11.1664
▁transplant	-11.1664
▁treacher	-11.1664
▁treason	-11.1664
▁trullinger	-11.1664
▁umbrella	-11.1664
▁unemployed	-11.1664
▁unfair	-11.1664
▁vatican	-11.1664
▁vineyard	-11.1664
▁wrath	-11.1664
▁wrench	-11.1664
▁wrestling	-11.1664
▁xobyte	-11.1664
▁yonder	-11.1664
▁zinoviev	-11.1664
▁bernard	-11.1664
▁bistro	-11.1664
▁calgary	-11.1664
▁chatwal	-11.1664
▁colby	-11.1664
▁convoy	-11.1664
▁cretan	-11.1664
▁depot	-11.1664
▁disney	-11.1664
▁electro	-11.1664
▁extent	-11.1664
▁investigate	-11.1664
▁inviting	-11.1664
▁jersey	-11.1664
▁kidnapper	-11.1664
▁novel	-11.1664
▁parlor	-11.1664
▁render	-11.1664
▁sverre	-11.1664
▁butterfly	-11.1664
▁conceal	-11.1664
▁duane	-11.1664
▁fourteen	-11.1664
▁gilman	-11.1664
▁juicy	-11.1664
▁kiog	-11.1664
▁panties	-11.1664
▁penetrat	-11.1664
▁protein	-11.1664
▁regain	-11.1664
▁splat	-11.1664
▁squaw	-11.1664
▁bauru	-11.1664
▁bennet	-11.1664
▁bloke	-11.1664
▁motel	-11.1664
▁purge	-11.1664
▁spoon	-11.1664
▁tropic	-11.1664
▁tuna	-11.1664
▁warehouse	-11.1664
▁weave	-11.1664
▁whatsoever	-11.1664
▁absence	-11.1664
▁apply	-11.1664
▁status	-11.1664
▁wrist	-11.1664
▁casual	-11.1664
▁jonas	-11.1664
▁noticing	-11.1664
▁reign	-11.1664
▁roshi	-11.1664
▁superstars	-11.1664
meha	-11.1664
▁flynn	-11.1664
▁gunnar	-11.1664
▁iook	-11.1664
▁herbert	-11.1664
▁madrid	-11.1664
▁assuming	-11.1664
▁convict	-11.1664
▁lumberjack	-11.1664
▁carpet	-11.1664
▁define	-11.1664
▁holler	-11.1664
▁mazzola	-11.1664
▁province	-11.1664
▁sustain	-11.1664
▁ceil	-11.1664
▁application	-11.1664
▁ndr	-11.1664
▁frequently	-11.1664
orita	-11.1664
▁turd	-11.1664
▁bulletproof	-11.1664
▁crutchfield	-11.1664
▁faust	-11.1664
▁trading	-11.1664
▁howls	-11.1664
▁abroad	-11.1664
▁eliminate	-11.1664
▁facility	-11.1664
▁housing	-11.1664
▁packets	-11.1664
▁yoshi	-11.1664
▁actress	-11.1664
▁josh	-11.1664
▁pension	-11.1664
▁frontiers	-11.1664
▁sludge	-11.1664
▁zebra	-11.1664
▁appliance	-11.1664
▁imagination	-11.1664
▁hinges	-11.1664
▁sauce	-11.1664
▁woohoo	-11.1664
▁disrupt	-11.1664
▁luis	-11.1664
▁forbidden	-11.1664
▁occurred	-11.1664
▁mitchell	-11.1664
▁trimble	-11.1664
▁garlic	-11.1664
▁narrow	-11.1664
▁sirica	-11.1664
▁overcome	-11.1664
▁zoca	-11.1664
▁mountaineer	-11.1665
▁bluff	-11.1665
▁crust	-11.1665
▁quarrel	-11.1665
▁circus	-11.1665
▁polls	-11.1665
▁vein	-11.1665
▁psst	-11.1665
▁combust	-11.1665
▁transportation	-11.1665
▁babysit	-11.1665
▁blanket	-11.1665
▁taik	-11.1665
▁creating	-11.1665
▁confusion	-11.1665
▁reference	-11.1665
▁haida	-11.1665
▁bobsledder	-11.1665
▁organization	-11.1665
▁instructor	-11.1665
▁keating	-11.1665
▁wool	-11.1665
▁disturbance	-11.1665
▁fax	-11.1665
▁hassle	-11.1666
▁croak	-11.1666
▁atmosphere	-11.1666
▁furious	-11.1666
▁joust	-11.1666
▁distinction	-11.1666
▁thread	-11.1666
▁rubble	-11.1666
▁wedded	-11.1666
▁grill	-11.1666
▁chopped	-11.1666
▁seder	-11.1666
▁tourists	-11.1666
▁assault	-11.1666
▁rapid	-11.1666
▁mining	-11.1666
▁continuum	-11.1666
▁adjust	-11.1667
▁cynical	-11.1667
▁paperwork	-11.1667
▁improvement	-11.1667
▁jury	-11.1667
▁alike	-11.1667
▁kilo	-11.1667
▁corruption	-11.1667
▁promot	-11.1667
▁batteries	-11.1668
▁installment	-11.1668
▁obsession	-11.1668
▁invention	-11.1668
▁deuce	-11.1668
▁graci	-11.1668
▁enormous	-11.1668
▁furniture	-11.1668
▁discreet	-11.1668
▁conquer	-11.1668
▁ketchup	-11.1668
▁shortcut	-11.1668
▁investment	-11.1668
▁hoover	-11.1668
▁wwhat	-11.1668
▁moonlight	-11.1668
▁pancake	-11.1668
▁enthusiastic	-11.1669
▁sofa	-11.1669
▁whipping	-11.1669
▁construction	-11.1669
▁misled	-11.1669
▁clayton	-11.1669
▁drought	-11.1669
why	-11.167
▁terrorist	-11.167
▁harvest	-11.167
▁daba	-11.167
▁harmless	-11.167
▁gigant	-11.167
▁yea	-11.1671
▁conductor	-11.1671
▁collective	-11.1671
▁replacement	-11.1671
▁furthe	-11.1671
▁torches	-11.1671
▁travelled	-11.1671
sexual	-11.1671
illian	-11.1672
▁perky	-11.1673
▁liz	-11.1673
▁peach	-11.1673
▁hoof	-11.1673
▁shack	-11.1673
▁quitting	-11.1674
▁allowance	-11.1674
▁blondie	-11.1674
▁soda	-11.1675
▁bore	-11.1675
▁raph	-11.1675
▁bloom	-11.1675
▁whitewood	-11.1676
▁grandson	-11.1676
▁doggy	-11.1676
▁disco	-11.1677
▁function	-11.1677
▁benton	-11.1677
dex	-11.1677
▁skipper	-11.1677
▁dose	-11.1678
▁trim	-11.1678
▁courageous	-11.1679
▁takin	-11.1679
liance	-11.168
▁evolved	-11.168
▁soil	-11.1681
▁alley	-11.1681
▁garb	-11.1682
▁fog	-11.1683
▁middleton	-11.1683
matic	-11.1683
▁booth	-11.1683
▁pinch	-11.1683
hearted	-11.1684
▁sadness	-11.1685
▁rave	-11.1686
▁ramp	-11.1687
▁specialty	-11.1687
▁pierced	-11.1688
▁jab	-11.1688
▁iet	-11.1689
▁childish	-11.169
▁taxes	-11.169
igan	-11.169
▁distan	-11.169
▁rattlesnakes	-11.1691
▁pokey	-11.1692
▁rice	-11.1692
▁tempted	-11.1692
▁samson	-11.1693
▁core	-11.1693
▁buzzer	-11.1693
▁gently	-11.1694
▁hup	-11.1694
▁harrison	-11.1695
▁flea	-11.1695
oodle	-11.1696
▁johnson	-11.1697
▁perch	-11.1697
▁achieved	-11.1697
▁included	-11.1698
▁sole	-11.1698
▁presentation	-11.1699
▁judgement	-11.17
▁wiser	-11.1704
▁required	-11.1704
▁fairies	-11.1704
▁til	-11.1706
▁nora	-11.1706
▁invaded	-11.1708
▁fearful	-11.1708
▁tender	-11.1709
▁haig	-11.1709
▁worthless	-11.1709
budget	-11.1709
aura	-11.171
▁aww	-11.1711
▁rah	-11.1714
▁superheroes	-11.1715
lance	-11.1717
▁guaranteed	-11.1719
▁july	-11.172
▁sunri	-11.172
▁connected	-11.172
▁revealing	-11.1722
▁cured	-11.1722
▁rust	-11.1723
▁buses	-11.1725
▁replaced	-11.1725
▁starved	-11.1725
▁ashes	-11.1725
▁napa	-11.1725
▁vision	-11.1727
▁aura	-11.1727
▁preacher	-11.1727
▁intrud	-11.1728
▁sexy	-11.173
▁fled	-11.173
▁pitcher	-11.1731
revolutionaries	-11.1731
▁affected	-11.1732
▁clinking	-11.1732
▁policeman	-11.1736
roll	-11.1737
▁cyclones	-11.1738
▁produced	-11.174
▁rage	-11.174
▁cre	-11.174
▁barbe	-11.1741
▁strongest	-11.1741
▁clamoring	-11.1743
granddaddy	-11.1743
▁specialist	-11.1745
▁eighth	-11.1747
▁gies	-11.1747
▁daytime	-11.1749
▁employer	-11.1754
▁hen	-11.1755
▁cursed	-11.1757
▁biker	-11.1758
▁ignored	-11.1758
▁inning	-11.1759
▁bending	-11.1764
▁designer	-11.1769
ister	-11.1777
▁spared	-11.1778
▁wink	-11.1779
span	-11.1782
▁scratching	-11.1785
▁disappearing	-11.1785
▁meadows	-11.1787
▁relations	-11.1787
▁slug	-11.1788
▁burp	-11.1804
▁photographer	-11.1809
▁gut	-11.1812
▁registered	-11.1812
▁proceeding	-11.1817
▁mancha	-11.1817
▁shaker	-11.1819
onnet	-11.1819
▁iim	-11.1824
▁tricked	-11.1826
▁charts	-11.1827
▁quake	-11.1831
lence	-11.1833
▁deserved	-11.1835
▁peasants	-11.1836
nard	-11.1839
▁pic	-11.1839
▁wounded	-11.1843
▁pretending	-11.1849
▁shared	-11.1851
▁highp	-11.1855
▁ines	-11.1863
▁settler	-11.1867
▁shifting	-11.1868
▁undo	-11.187
▁performing	-11.187
▁rapp	-11.1885
▁worms	-11.1885
▁shocking	-11.1892
▁informer	-11.1898
elimina	-11.19
▁honesty	-11.1904
righteous	-11.1905
rmal	-11.1909
▁fad	-11.1913
▁sling	-11.1914
▁graceful	-11.1914
▁presume	-11.1918
▁blocked	-11.1922
▁carve	-11.1932
▁marines	-11.1935
▁presently	-11.195
▁pai	-11.1953
▁climbing	-11.1966
▁observ	-11.1973
▁senseless	-11.1974
▁mal	-11.2008
▁logg	-11.2015
▁monk	-11.202
▁comedy	-11.2021
▁mil	-11.2022
nies	-11.2037
▁feeding	-11.2042
▁lone	-11.2043
▁listed	-11.2056
▁ape	-11.2061
▁parked	-11.2074
▁logic	-11.2078
▁lind	-11.2097
▁organis	-11.2115
▁handled	-11.213
▁fuller	-11.2149
▁mat	-11.2159
▁irr	-11.2163
▁transmit	-11.2172
slate	-11.2198
▁kip	-11.2219
ella	-11.2236
ano	-11.2246
▁sal	-11.2268
▁when	-11.232
cottle	-11.2357
apped	-11.238
▁rab	-11.2387
▁hur	-11.2388
▁oneil	-11.2428
▁dam	-11.2429
gun	-11.2447
▁occur	-11.2477
ological	-11.2483
▁vern	-11.2539
eating	-11.2579
▁hast	-11.2588
▁tan	-11.2626
▁fai	-11.2629
▁shi	-11.2649
▁publish	-11.2687
vial	-11.2727
lace	-11.275
fortunately	-11.2779
▁hose	-11.2783
stop	-11.2842
piration	-11.2892
▁amo	-11.2899
▁psych	-11.2907
shes	-11.295
▁mud	-11.2981
▁wit	-11.3013
ough	-11.3056
▁ski	-11.3106
ont	-11.3119
▁legi	-11.313
tto	-11.3156
▁mont	-11.3166
▁funni	-11.3176
▁cruisin	-11.3194
mary	-11.3251
▁sens	-11.3265
▁jul	-11.3304
▁lava	-11.3323
▁te	-11.3337
▁not	-11.3346
ologist	-11.3347
▁produc	-11.3348
iege	-11.3355
bet	-11.3362
▁presum	-11.3363
▁click	-11.3363
▁grunt	-11.3366
spect	-11.3366
▁groan	-11.3373
▁clam	-11.338
▁worm	-11.34
▁mustang	-11.3406
▁tool	-11.3406
▁insect	-11.3407
▁ufo	-11.3407
▁fa	-11.3408
▁pattern	-11.3413
▁vegetable	-11.3413
▁brazilian	-11.3425
mitted	-11.344
▁bandit	-11.3453
▁stable	-11.3456
▁dive	-11.346
▁glob	-11.3477
▁greeting	-11.3486
▁parallel	-11.3491
▁remark	-11.3494
▁bella	-11.3494
ando	-11.3511
▁barri	-11.3516
▁assemble	-11.3524
▁mechanic	-11.353
lain	-11.3532
▁conc	-11.3537
▁anima	-11.3541
▁refus	-11.3556
▁northwest	-11.3567
▁granddad	-11.3568
▁writ	-11.3569
imbo	-11.3573
▁colo	-11.3591
adde	-11.3601
▁screech	-11.361
▁creak	-11.3611
▁betray	-11.3619
▁confirm	-11.3621
▁accus	-11.3622
view	-11.3622
park	-11.3623
robbing	-11.3624
front	-11.3624
chief	-11.3625
nothing	-11.3626
consider	-11.3626
style	-11.3626
drop	-11.3627
year	-11.3627
level	-11.3629
mark	-11.363
respect	-11.363
sick	-11.3633
jack	-11.3634
▁swor	-11.3635
▁info	-11.3637
▁pierce	-11.3639
▁reveren	-11.364
▁wealth	-11.364
case	-11.364
▁econom	-11.3641
▁wond	-11.3641
▁sancti	-11.3641
▁capture	-11.3641
▁thirst	-11.3642
▁ultimate	-11.3643
▁constant	-11.3644
▁grub	-11.3646
▁rabbi	-11.3648
▁lndia	-11.3653
▁infant	-11.3654
▁torch	-11.3655
▁kno	-11.3655
▁fiddle	-11.3656
▁commun	-11.3657
▁posit	-11.3658
▁confe	-11.3658
▁ketchu	-11.3659
▁raisin	-11.3659
▁drivin	-11.3659
▁leavin	-11.3659
conscious	-11.3659
▁fami	-11.3659
▁livin	-11.366
▁counsel	-11.3661
▁liberat	-11.3661
▁kurt	-11.3661
▁outrage	-11.3662
rmore	-11.3662
▁attract	-11.3662
audible	-11.3662
▁confront	-11.3663
▁revo	-11.3663
▁flip	-11.3663
▁drei	-11.3664
▁enlighten	-11.3664
▁terrify	-11.3664
▁visual	-11.3664
percussion	-11.3664
tesvous	-11.3664
▁accomplice	-11.3664
▁accustomed	-11.3664
▁acquaintance	-11.3664
▁activities	-11.3664
▁advisor	-11.3664
▁anarchist	-11.3664
▁auggie	-11.3664
▁ballplayer	-11.3664
▁baltimore	-11.3664
▁behaviour	-11.3664
▁belgian	-11.3664
▁bicycle	-11.3664
▁blankensoft	-11.3664
▁blossom	-11.3664
▁bourgeois	-11.3664
▁bronze	-11.3664
▁budapest	-11.3664
▁carlisle	-11.3664
▁casualties	-11.3664
▁catastrophe	-11.3664
▁caviar	-11.3664
▁cecilia	-11.3664
▁certificate	-11.3664
▁cleveland	-11.3664
▁cloak	-11.3664
▁complex	-11.3664
▁concussion	-11.3664
▁conflict	-11.3664
▁constitution	-11.3664
▁coolidge	-11.3664
▁craving	-11.3664
▁crosscountry	-11.3664
▁curtis	-11.3664
▁cyber	-11.3664
▁dandelion	-11.3664
▁decipher	-11.3664
▁delinquent	-11.3664
▁democrat	-11.3664
▁depressing	-11.3664
▁depression	-11.3664
▁detention	-11.3664
▁distributed	-11.3664
▁doady	-11.3664
▁dreyfus	-11.3664
▁einstein	-11.3664
▁ellerbeck	-11.3664
▁elvis	-11.3664
▁embassy	-11.3664
▁emptiness	-11.3664
▁enchanted	-11.3664
▁enhance	-11.3664
▁excessive	-11.3664
▁expired	-11.3664
▁feather	-11.3664
▁felix	-11.3664
▁fireplace	-11.3664
▁flavor	-11.3664
▁forgiving	-11.3664
▁frequenc	-11.3664
▁frozen	-11.3664
▁georgi	-11.3664
▁gitundu	-11.3664
▁happier	-11.3664
▁hialeah	-11.3664
▁humiliation	-11.3664
▁hypothetical	-11.3664
▁ibori	-11.3664
▁impatient	-11.3664
▁industry	-11.3664
▁infection	-11.3664
▁infinite	-11.3664
▁innocence	-11.3664
▁inspection	-11.3664
▁ipod	-11.3664
▁ithaca	-11.3664
▁julius	-11.3664
▁juniper	-11.3664
▁justify	-11.3664
▁kindergarten	-11.3664
▁kraler	-11.3664
▁krispy	-11.3664
▁langlois	-11.3664
▁lantern	-11.3664
▁latrine	-11.3664
▁lodging	-11.3664
▁lorraine	-11.3664
▁macauley	-11.3664
▁magnifique	-11.3664
▁mahatma	-11.3664
▁marijuana	-11.3664
▁melody	-11.3664
▁metropolitan	-11.3664
▁mississippi	-11.3664
▁murphy	-11.3664
▁nicholas	-11.3664
▁nigger	-11.3664
▁nonetheless	-11.3664
▁norbert	-11.3664
▁obligation	-11.3664
▁oxgodby	-11.3664
▁paralympics	-11.3664
▁pencil	-11.3664
▁pentagon	-11.3664
▁permanent	-11.3664
▁petrograd	-11.3664
▁portrait	-11.3664
▁postpone	-11.3664
▁profound	-11.3664
▁psalm	-11.3664
▁qualities	-11.3664
▁rachel	-11.3664
▁railink	-11.3664
▁realizing	-11.3664
▁rearrange	-11.3664
▁receipt	-11.3664
▁reception	-11.3664
▁recognise	-11.3664
▁recognition	-11.3664
▁registration	-11.3664
▁reject	-11.3664
▁risner	-11.3664
▁rooster	-11.3664
▁salvation	-11.3664
▁satisfied	-11.3664
▁slogan	-11.3664
▁snatched	-11.3664
▁spaghetti	-11.3664
▁spiral	-11.3664
▁sprinters	-11.3664
▁stabb	-11.3664
▁starkfield	-11.3664
▁steroids	-11.3664
▁submarine	-11.3664
▁suicune	-11.3664
▁supermarket	-11.3664
▁surrounding	-11.3664
▁suspicion	-11.3664
▁switzerland	-11.3664
▁tanney	-11.3664
▁technology	-11.3664
▁tendency	-11.3664
▁terrified	-11.3664
▁therapist	-11.3664
▁therapy	-11.3664
▁thoroughbred	-11.3664
▁tomatoes	-11.3664
▁tortoise	-11.3664
▁tragic	-11.3664
▁trespass	-11.3664
▁twentyfive	-11.3664
▁twinkling	-11.3664
▁vomit	-11.3664
▁vulgar	-11.3664
▁weenie	-11.3664
▁willett	-11.3664
▁worthwhile	-11.3664
▁zelda	-11.3664
▁zwei	-11.3664
▁amigo	-11.3664
▁analyze	-11.3664
▁beggar	-11.3664
▁britain	-11.3664
▁bureaucrat	-11.3664
▁coupon	-11.3664
▁czar	-11.3664
▁davenport	-11.3664
▁destination	-11.3664
▁duality	-11.3664
▁exotic	-11.3664
▁false	-11.3664
▁fierce	-11.3664
▁fontaine	-11.3664
▁fritz	-11.3664
▁garner	-11.3664
▁heip	-11.3664
▁hurried	-11.3664
▁immigra	-11.3664
▁judicia	-11.3664
▁parole	-11.3664
▁percent	-11.3664
▁prairie	-11.3664
▁properties	-11.3664
▁proportion	-11.3664
▁pulse	-11.3664
▁sarcastic	-11.3664
▁snuff	-11.3664
▁splattering	-11.3664
▁token	-11.3664
▁translation	-11.3664
▁trench	-11.3664
▁tuition	-11.3664
▁unfold	-11.3664
▁wilbur	-11.3664
▁blink	-11.3664
▁chalk	-11.3664
▁characteristics	-11.3664
▁factories	-11.3664
▁herring	-11.3664
▁keith	-11.3664
▁quinn	-11.3664
▁surveil	-11.3664
▁testify	-11.3664
▁macho	-11.3664
▁pavement	-11.3664
▁spray	-11.3664
▁stool	-11.3664
▁utopia	-11.3664
▁errant	-11.3664
▁recite	-11.3664
▁brito	-11.3664
▁oink	-11.3664
▁pigeon	-11.3664
▁rascal	-11.3664
▁alamo	-11.3664
▁buoy	-11.3664
▁canvas	-11.3664
▁crane	-11.3664
▁edgar	-11.3664
▁plop	-11.3664
▁whines	-11.3664
▁causing	-11.3664
▁flattered	-11.3664
▁forsake	-11.3664
▁hamrin	-11.3664
▁loony	-11.3664
▁nomine	-11.3664
▁styx	-11.3664
▁timber	-11.3664
▁activate	-11.3664
▁disabled	-11.3664
▁panicked	-11.3664
▁repay	-11.3664
▁scumbag	-11.3664
▁antisemitism	-11.3664
▁chef	-11.3664
▁repetiti	-11.3664
▁aior	-11.3664
▁fanatic	-11.3664
▁holland	-11.3664
▁amein	-11.3664
▁ankle	-11.3664
▁intensi	-11.3664
wrestle	-11.3664
▁asthma	-11.3664
▁jingling	-11.3664
▁beauti	-11.3664
▁karrano	-11.3664
▁dissent	-11.3664
▁manicure	-11.3664
ficial	-11.3664
▁grudge	-11.3664
▁alleluia	-11.3664
▁simonsson	-11.3664
▁summary	-11.3664
▁isolated	-11.3664
▁stalk	-11.3664
▁dreiser	-11.3664
▁sunya	-11.3664
▁gert	-11.3664
▁sample	-11.3664
▁snarl	-11.3664
▁hisses	-11.3664
▁damsel	-11.3664
▁drury	-11.3664
▁everett	-11.3664
▁diplomatic	-11.3664
▁exclusive	-11.3664
▁collins	-11.3664
▁occupation	-11.3664
▁alternative	-11.3664
▁cocktail	-11.3664
▁cuddle	-11.3664
action	-11.3664
▁creek	-11.3664
▁irene	-11.3664
▁akita	-11.3665
▁robotics	-11.3665
▁clark	-11.3665
▁arctic	-11.3665
▁terminate	-11.3665
▁burden	-11.3665
▁rash	-11.3665
▁teii	-11.3665
▁pedal	-11.3665
▁seville	-11.3665
▁rhyme	-11.3665
▁sorrel	-11.3665
▁squire	-11.3665
▁primo	-11.3665
▁representative	-11.3665
▁michelson	-11.3665
▁refrigerator	-11.3665
▁inlaws	-11.3665
▁foolproof	-11.3665
▁grease	-11.3665
▁brute	-11.3665
▁stump	-11.3665
burg	-11.3665
▁fiend	-11.3665
▁psychiatrist	-11.3665
gauge	-11.3665
booboo	-11.3665
▁subtle	-11.3665
▁clara	-11.3665
▁automatically	-11.3665
gulf	-11.3665
▁stern	-11.3666
▁fiction	-11.3666
▁hotshot	-11.3666
▁giris	-11.3666
rodu	-11.3666
▁garment	-11.3666
▁addition	-11.3666
tect	-11.3666
▁vince	-11.3666
▁waking	-11.3666
▁cabinet	-11.3666
▁invisible	-11.3666
▁indoor	-11.3666
▁cluck	-11.3666
▁stroll	-11.3666
▁geography	-11.3667
▁cornell	-11.3667
▁connie	-11.3667
▁lurk	-11.3667
▁steward	-11.3667
▁finland	-11.3667
▁racket	-11.3667
▁grid	-11.3667
▁grim	-11.3667
▁daft	-11.3667
▁slipping	-11.3667
▁stove	-11.3667
▁luciana	-11.3667
▁tummy	-11.3667
▁alpha	-11.3667
▁tidy	-11.3667
▁heathen	-11.3667
▁possessive	-11.3667
▁reflection	-11.3668
▁shotgun	-11.3668
▁wheat	-11.3668
▁eins	-11.3668
▁loma	-11.3668
ronic	-11.3668
▁fluke	-11.3668
mmel	-11.3668
▁yoohoo	-11.3668
▁mint	-11.3668
▁dairy	-11.3669
▁arise	-11.3669
▁queue	-11.3669
▁repent	-11.3669
▁lyon	-11.3669
▁quest	-11.3669
▁rasp	-11.367
▁loco	-11.367
▁eleanore	-11.367
▁disagreement	-11.367
▁scent	-11.367
▁hound	-11.367
▁them	-11.367
▁suspenders	-11.3671
▁winston	-11.3671
▁carrier	-11.3671
patriotic	-11.3671
berry	-11.3671
▁renew	-11.3671
▁facebook	-11.3672
▁bail	-11.3672
▁luxury	-11.3672
▁furry	-11.3672
▁puke	-11.3673
stead	-11.3673
▁lazy	-11.3673
▁gem	-11.3673
▁slightest	-11.3673
▁jock	-11.3673
▁starboard	-11.3674
▁pulley	-11.3674
▁humiliated	-11.3674
▁lodged	-11.3674
▁luckily	-11.3674
▁encourage	-11.3674
▁childhood	-11.3674
▁youthful	-11.3675
▁tore	-11.3675
▁onion	-11.3675
▁protestant	-11.3675
▁marx	-11.3675
▁royalty	-11.3675
▁amongst	-11.3675
▁selection	-11.3675
▁blueback	-11.3675
▁hallway	-11.3675
▁establishment	-11.3676
▁mammal	-11.3676
▁stack	-11.3676
▁nhe	-11.3677
▁churchill	-11.3677
uchen	-11.3677
▁uk	-11.3677
▁announcement	-11.3677
▁damp	-11.3678
▁divers	-11.3678
▁ballroom	-11.3678
▁cetera	-11.3678
▁thug	-11.3678
▁stevens	-11.3678
▁travelling	-11.3679
▁berries	-11.3679
new	-11.3679
▁sophisticated	-11.3679
▁undressed	-11.3679
▁edith	-11.3679
▁cries	-11.3679
▁comic	-11.3679
▁heath	-11.368
▁erased	-11.368
▁cannes	-11.3681
▁collector	-11.3681
▁vai	-11.3681
▁dut	-11.3681
▁countryside	-11.3682
▁satch	-11.3682
▁spooky	-11.3682
terior	-11.3683
adios	-11.3684
▁ultimately	-11.3684
▁stance	-11.3685
▁invader	-11.3685
▁lloyd	-11.3685
▁growth	-11.3686
▁vile	-11.3687
▁choked	-11.3687
▁jug	-11.3688
▁majority	-11.3688
▁wealthy	-11.3688
▁bench	-11.3688
▁doomed	-11.3689
▁installed	-11.3689
▁publicity	-11.369
▁angle	-11.369
▁horseback	-11.3691
▁flee	-11.3692
▁armies	-11.3692
▁weaken	-11.3692
▁controlling	-11.3692
▁elderly	-11.3693
▁ironic	-11.3694
▁bootsie	-11.3694
▁marta	-11.3694
▁australian	-11.3695
▁lumber	-11.3695
▁tremble	-11.3695
urray	-11.3696
▁dwelling	-11.3697
▁ooo	-11.3697
▁erupti	-11.3697
▁delet	-11.3698
artes	-11.3698
▁jip	-11.3698
▁unlocked	-11.3699
▁barge	-11.3699
fusion	-11.3701
▁yuck	-11.3702
▁crashes	-11.3702
▁shaken	-11.3704
▁luce	-11.3704
▁vain	-11.3704
▁porc	-11.3705
▁brow	-11.3705
▁hog	-11.3706
▁plead	-11.3707
▁spen	-11.3708
▁peterson	-11.3708
▁betrayed	-11.3708
▁ignoring	-11.371
▁forgetting	-11.371
▁juliet	-11.371
▁vb	-11.371
▁kle	-11.3713
▁alto	-11.3716
▁pub	-11.3722
▁hawk	-11.3722
▁halter	-11.3723
▁bam	-11.3723
▁tia	-11.3724
▁lineup	-11.3725
▁weep	-11.3725
eek	-11.3726
▁rental	-11.3726
▁outfield	-11.373
▁larger	-11.3736
▁momentum	-11.3736
▁idol	-11.3736
▁solved	-11.3739
yard	-11.374
ddle	-11.3741
▁cutter	-11.3741
▁cargo	-11.3741
historic	-11.3745
▁shin	-11.3747
▁frenchman	-11.3747
▁discovery	-11.3747
▁campus	-11.3748
▁crawling	-11.3749
▁trumpeting	-11.375
gestion	-11.3752
▁sewer	-11.3752
onnie	-11.3752
▁sentenced	-11.3753
▁nancy	-11.3755
▁felton	-11.3756
▁qua	-11.3759
▁issued	-11.3761
▁depending	-11.3763
▁hush	-11.3764
▁awakening	-11.3772
▁spite	-11.3773
▁burnt	-11.3776
▁isa	-11.3777
▁kay	-11.3777
▁repaired	-11.3778
▁ruthless	-11.3778
▁bent	-11.3781
▁tuned	-11.3786
▁cano	-11.3786
▁pouring	-11.3787
▁hint	-11.3795
uine	-11.3797
▁advanced	-11.3798
working	-11.3808
▁johnston	-11.3808
▁comforting	-11.3815
▁flowing	-11.3817
▁damaged	-11.3819
▁engineering	-11.3822
▁pine	-11.3823
▁spoiling	-11.3827
▁blackmailed	-11.3828
▁intended	-11.3828
▁ford	-11.3833
▁cole	-11.3835
irk	-11.3839
▁wilt	-11.3839
▁weirdo	-11.3842
▁cram	-11.3846
▁insisted	-11.3848
▁focused	-11.3848
fying	-11.3852
▁harmed	-11.3852
hoe	-11.3854
▁readers	-11.3866
▁richer	-11.3868
theft	-11.3876
▁swelling	-11.3892
rich	-11.3897
▁claimed	-11.3898
▁smarter	-11.3903
▁recorder	-11.3918
▁pist	-11.392
ivan	-11.3939
sphere	-11.396
▁stripp	-11.3962
▁dealt	-11.3965
▁cane	-11.3972
▁skipp	-11.3977
▁vou	-11.3995
▁que	-11.4001
▁compar	-11.4023
▁lid	-11.4023
hump	-11.4027
icle	-11.406
sheet	-11.4062
brock	-11.4073
oof	-11.408
▁rott	-11.408
▁melt	-11.4081
▁custom	-11.4091
poo	-11.4096
▁deserter	-11.4101
hoohoo	-11.4128
cia	-11.4166
udge	-11.4177
▁deb	-11.4186
▁warmer	-11.419
▁rancher	-11.4219
fec	-11.4242
▁peer	-11.4246
▁boost	-11.4268
loyd	-11.4277
▁pose	-11.4289
▁mist	-11.433
▁behav	-11.4336
▁aspir	-11.4336
shing	-11.4367
junction	-11.4371
oxi	-11.4425
eyed	-11.4463
after	-11.4464
face	-11.4469
▁mam	-11.4494
with	-11.4502
▁pint	-11.4567
▁bare	-11.4604
▁zo	-11.4638
▁mort	-11.4649
▁spike	-11.4682
haha	-11.4687
stage	-11.4694
▁dictate	-11.4736
mont	-11.4741
stitute	-11.4754
▁ferr	-11.48
▁ci	-11.4835
▁infl	-11.4857
▁kin	-11.4871
▁iit	-11.494
term	-11.4947
▁pun	-11.4949
cien	-11.4972
imp	-11.5105
oots	-11.5111
vine	-11.5128
owa	-11.517
yeahyeah	-11.5172
▁pac	-11.5178
rank	-11.5181
▁sav	-11.5209
acious	-11.5221
▁incidental	-11.5237
▁mori	-11.5277
odo	-11.5293
rett	-11.5311
▁mhm	-11.5391
▁fili	-11.5393
zzi	-11.5492
ionary	-11.5535
▁troubl	-11.5567
▁submit	-11.561
▁scrap	-11.5623
rice	-11.564
fielder	-11.5649
sper	-11.5653
▁mob	-11.5673
tezvous	-11.5703
▁pam	-11.5703
tube	-11.5703
come	-11.5733
▁doo	-11.5773
inky	-11.5785
▁emotion	-11.5819
▁appreciat	-11.584
aud	-11.5865
vit	-11.5871
▁temp	-11.5873
▁robber	-11.5884
▁peasant	-11.59
powered	-11.5901
▁phillip	-11.5903
▁knuckle	-11.5908
▁blade	-11.591
▁musketeer	-11.5912
▁arrangement	-11.5914
▁consist	-11.5916
▁conclude	-11.592
▁wir	-11.595
derate	-11.5951
▁aspirin	-11.5955
▁refuge	-11.5957
▁straw	-11.5978
▁ignor	-11.6018
▁scam	-11.6022
keeper	-11.6026
ila	-11.6027
▁memo	-11.6055
person	-11.6071
elding	-11.6073
▁hub	-11.6074
▁threaten	-11.6076
▁invent	-11.608
▁bullfight	-11.6085
▁mimi	-11.6094
▁matin	-11.6095
▁tick	-11.6097
▁drumm	-11.6103
▁suppos	-11.6103
▁wee	-11.6105
▁stammer	-11.6108
▁disgust	-11.611
▁chirp	-11.6111
▁thump	-11.6111
▁bleed	-11.6111
▁impress	-11.6115
▁fulfill	-11.6121
▁subpoena	-11.6122
▁cel	-11.6122
flat	-11.6123
loaf	-11.6123
▁wail	-11.6124
dammit	-11.6125
wheel	-11.6125
flower	-11.6125
wide	-11.6125
bald	-11.6125
comfortable	-11.6125
mighty	-11.6126
drive	-11.6126
phone	-11.6128
▁unlock	-11.6129
step	-11.6131
version	-11.6132
▁engage	-11.6133
fare	-11.6135
arrow	-11.6135
door	-11.6136
▁choke	-11.6137
▁amaze	-11.6137
poster	-11.6138
▁philosoph	-11.6139
▁spook	-11.614
plus	-11.6142
▁strict	-11.6143
▁instant	-11.6143
▁univers	-11.6145
dog	-11.6147
bull	-11.6147
type	-11.6148
▁clair	-11.615
long	-11.6152
▁moan	-11.6153
▁olive	-11.6155
▁sentiment	-11.6157
▁fema	-11.6157
▁obsess	-11.6158
▁ohhh	-11.6158
▁smokin	-11.6159
▁tow	-11.616
▁distinct	-11.6161
▁refer	-11.6161
▁labour	-11.6161
▁anchov	-11.6161
▁whwh	-11.6161
▁germ	-11.6161
▁patter	-11.6162
▁equip	-11.6162
gnant	-11.6162
▁rhy	-11.6163
▁michel	-11.6163
▁physi	-11.6163
▁crutch	-11.6163
▁widow	-11.6164
▁extinguish	-11.6164
▁scaffold	-11.6164
▁cordon	-11.6164
▁initiat	-11.6164
▁perceiv	-11.6164
▁refuel	-11.6164
▁surviving	-11.6164
▁unforgiv	-11.6164
distinguish	-11.6164
obedience	-11.6164
preservation	-11.6164
responsibilities	-11.6164
termination	-11.6164
tribution	-11.6164
▁abalone	-11.6164
▁accompany	-11.6164
▁accountancy	-11.6164
▁admiration	-11.6164
▁adolf	-11.6164
▁allegiance	-11.6164
▁aloud	-11.6164
▁anchor	-11.6164
▁anticipation	-11.6164
▁anyplace	-11.6164
▁apologis	-11.6164
▁apparatus	-11.6164
▁apprentice	-11.6164
▁aqueduct	-11.6164
▁artifact	-11.6164
▁aubergine	-11.6164
▁autumn	-11.6164
▁baboon	-11.6164
▁bailiff	-11.6164
▁ballgame	-11.6164
▁baptist	-11.6164
▁barbarian	-11.6164
▁baudelaire	-11.6164
▁beanstalk	-11.6164
▁belfry	-11.6164
▁blurry	-11.6164
▁bolshevism	-11.6164
▁bouillon	-11.6164
▁breeze	-11.6164
▁brigade	-11.6164
▁brunette	-11.6164
▁bubbling	-11.6164
▁burgundy	-11.6164
▁camouflage	-11.6164
▁capacity	-11.6164
▁castilho	-11.6164
▁category	-11.6164
▁census	-11.6164
▁chateau	-11.6164
▁churros	-11.6164
▁cinnamon	-11.6164
▁clarinet	-11.6164
▁clergyman	-11.6164
▁cockroaches	-11.6164
▁communicating	-11.6164
▁compensate	-11.6164
▁contribute	-11.6164
▁cradle	-11.6164
▁crotononhudson	-11.6164
▁cultural	-11.6164
▁danaisser	-11.6164
▁daydream	-11.6164
▁dazzl	-11.6164
▁declaration	-11.6164
▁dedication	-11.6164
▁deliberately	-11.6164
▁demonstrate	-11.6164
▁demonstration	-11.6164
▁detroit	-11.6164
▁devastating	-11.6164
▁disability	-11.6164
▁disadvantage	-11.6164
▁discouraged	-11.6164
▁dishonour	-11.6164
▁dismount	-11.6164
▁duprez	-11.6164
▁ehrlichman	-11.6164
▁endorsement	-11.6164
▁episode	-11.6164
▁equation	-11.6164
▁equivalent	-11.6164
▁esplandian	-11.6164
▁eugene	-11.6164
▁explosive	-11.6164
▁explosiveskull	-11.6164
▁exterminate	-11.6164
▁fascist	-11.6164
▁flakes	-11.6164
▁flapjack	-11.6164
▁flaws	-11.6164
▁fletcher	-11.6164
▁flittin	-11.6164
▁fofinho	-11.6164
▁fountain	-11.6164
▁fraina	-11.6164
▁freight	-11.6164
▁frustrated	-11.6164
▁gasoline	-11.6164
▁geronimo	-11.6164
▁glimmer	-11.6164
▁glisten	-11.6164
▁grandchildren	-11.6164
▁groovy	-11.6164
▁hampshire	-11.6164
▁henderson	-11.6164
▁heritage	-11.6164
▁hilarious	-11.6164
▁homicid	-11.6164
▁hormones	-11.6164
▁hulahoop	-11.6164
▁hurrah	-11.6164
▁identical	-11.6164
▁identification	-11.6164
▁imbecile	-11.6164
▁impeachment	-11.6164
▁inconvenience	-11.6164
▁inhabit	-11.6164
▁injuries	-11.6164
▁integrity	-11.6164
▁israel	-11.6164
▁january	-11.6164
▁jennifer	-11.6164
▁jinnah	-11.6164
▁juvenile	-11.6164
▁kugel	-11.6164
▁locomotive	-11.6164
▁lombard	-11.6164
▁lullaby	-11.6164
▁lynch	-11.6164
▁manipedi	-11.6164
▁marietherese	-11.6164
▁marvellous	-11.6164
▁mathematic	-11.6164
▁matthew	-11.6164
▁melodramatic	-11.6164
▁mercedes	-11.6164
▁merchandise	-11.6164
▁metapod	-11.6164
▁ministry	-11.6164
▁mmmmmm	-11.6164
▁modification	-11.6164
▁moniteur	-11.6164
▁monitor	-11.6164
▁montoire	-11.6164
▁morocco	-11.6164
▁moustache	-11.6164
▁neglect	-11.6164
▁nenana	-11.6164
▁novice	-11.6164
▁ointment	-11.6164
▁oldfashioned	-11.6164
▁optimist	-11.6164
▁overnight	-11.6164
▁oxygen	-11.6164
▁parathas	-11.6164
▁parsley	-11.6164
▁pennington	-11.6164
▁perimeter	-11.6164
▁persecuted	-11.6164
▁perverse	-11.6164
▁petrocite	-11.6164
▁plague	-11.6164
▁polaroid	-11.6164
▁precaution	-11.6164
▁prejudice	-11.6164
▁preparation	-11.6164
▁primate	-11.6164
▁privacy	-11.6164
▁prosecution	-11.6164
▁psychology	-11.6164
▁pursuing	-11.6164
▁pyjamas	-11.6164
▁qualifications	-11.6164
▁quench	-11.6164
▁reappear	-11.6164
▁rebuild	-11.6164
▁rebuilt	-11.6164
▁recruit	-11.6164
▁regatta	-11.6164
▁rejoice	-11.6164
▁rendezvous	-11.6164
▁renounce	-11.6164
▁revolting	-11.6164
▁richelieu	-11.6164
▁rookery	-11.6164
▁sahib	-11.6164
▁salinas	-11.6164
▁sarsaparilla	-11.6164
▁savior	-11.6164
▁screwdriver	-11.6164
▁seizure	-11.6164
▁semester	-11.6164
▁senior	-11.6164
▁shenlong	-11.6164
▁shirley	-11.6164
▁shredder	-11.6164
▁shrunk	-11.6164
▁shuffling	-11.6164
▁sinatra	-11.6164
▁singapore	-11.6164
▁skoglund	-11.6164
▁skunk	-11.6164
▁sneeze	-11.6164
▁souvenir	-11.6164
▁streak	-11.6164
▁stylish	-11.6164
▁sufficient	-11.6164
▁summit	-11.6164
▁supernova	-11.6164
▁superpowers	-11.6164
▁sydney	-11.6164
▁sylvia	-11.6164
▁syrup	-11.6164
▁teresa	-11.6164
▁thieves	-11.6164
▁thrashing	-11.6164
▁tibbs	-11.6164
▁tokyo	-11.6164
▁tombstone	-11.6164
▁topsecret	-11.6164
▁tranquilizer	-11.6164
▁tribute	-11.6164
▁tumble	-11.6164
▁tux	-11.6164
▁twilight	-11.6164
▁ultimatum	-11.6164
▁unlucky	-11.6164
▁unnatural	-11.6164
▁unpleasant	-11.6164
▁vaccinat	-11.6164
▁vampire	-11.6164
▁vargas	-11.6164
▁vessel	-11.6164
▁violation	-11.6164
▁waltz	-11.6164
▁watermelon	-11.6164
▁wheelchair	-11.6164
▁whereabouts	-11.6164
▁whigham	-11.6164
▁worrell	-11.6164
▁wrinkle	-11.6164
▁yourseif	-11.6164
yphus	-11.6164
▁academ	-11.6164
▁baggage	-11.6164
▁battalion	-11.6164
▁buddies	-11.6164
▁bulma	-11.6164
▁burglar	-11.6164
▁cheeseburger	-11.6164
▁coffie	-11.6164
▁comintern	-11.6164
▁constable	-11.6164
▁crisp	-11.6164
▁devote	-11.6164
▁elsewhere	-11.6164
▁fractions	-11.6164
▁galatea	-11.6164
▁inclined	-11.6164
▁katzmans	-11.6164
▁lewis	-11.6164
▁loretta	-11.6164
▁maroiyeur	-11.6164
▁matron	-11.6164
▁meditation	-11.6164
▁mellow	-11.6164
▁menthol	-11.6164
▁mickey	-11.6164
▁mugged	-11.6164
▁nelson	-11.6164
▁perdition	-11.6164
▁reopen	-11.6164
▁sharma	-11.6164
▁shouid	-11.6164
▁swarming	-11.6164
▁swedish	-11.6164
▁uncover	-11.6164
▁venture	-11.6164
▁violin	-11.6164
▁virtual	-11.6164
▁whitman	-11.6164
▁adieu	-11.6164
▁applauding	-11.6164
▁bleach	-11.6164
▁cheque	-11.6164
▁comfy	-11.6164
▁copper	-11.6164
▁hendri	-11.6164
▁overrated	-11.6164
▁pledge	-11.6164
▁portray	-11.6164
▁shivers	-11.6164
▁skate	-11.6164
▁spontaneous	-11.6164
▁supple	-11.6164
▁tutor	-11.6164
▁uphill	-11.6164
▁vanessa	-11.6164
▁verdun	-11.6164
▁contend	-11.6164
▁esteem	-11.6164
▁testimon	-11.6164
wordplay	-11.6164
▁champaran	-11.6164
▁doggone	-11.6164
▁eager	-11.6164
▁laddie	-11.6164
▁noodles	-11.6164
▁polk	-11.6164
▁aaron	-11.6164
▁amusing	-11.6164
▁attached	-11.6164
▁concertina	-11.6164
▁medallion	-11.6164
▁pioneer	-11.6164
▁pluto	-11.6164
▁primari	-11.6164
▁sliding	-11.6164
▁thrive	-11.6164
▁librari	-11.6164
▁promising	-11.6164
▁allez	-11.6164
▁blush	-11.6164
▁chev	-11.6164
▁karl	-11.6164
▁nightfall	-11.6164
▁rigged	-11.6164
▁strangle	-11.6164
▁knit	-11.6164
▁mourn	-11.6164
▁accusations	-11.6164
▁online	-11.6164
▁snappy	-11.6164
▁oven	-11.6164
▁shucks	-11.6164
▁creations	-11.6164
▁decay	-11.6164
▁onward	-11.6164
▁classify	-11.6164
▁physics	-11.6164
▁douglas	-11.6164
▁eldest	-11.6164
▁gascon	-11.6164
▁syne	-11.6164
▁iife	-11.6164
▁illustr	-11.6164
▁salmonella	-11.6164
▁delusion	-11.6164
▁robbins	-11.6164
▁bombay	-11.6164
▁cavern	-11.6164
▁brood	-11.6164
▁jaunt	-11.6164
▁complication	-11.6164
▁hesitation	-11.6164
▁millionaire	-11.6164
▁groper	-11.6164
▁yuko	-11.6164
▁cafe	-11.6164
▁alsace	-11.6164
▁daisies	-11.6164
▁mustache	-11.6164
▁hardware	-11.6164
▁tactics	-11.6164
▁pharmacist	-11.6164
▁shears	-11.6164
▁thesis	-11.6164
▁hypocrite	-11.6164
▁picketing	-11.6164
▁magique	-11.6164
▁mankind	-11.6164
▁defy	-11.6164
▁paranoi	-11.6164
▁armenti	-11.6164
▁fraud	-11.6164
▁goddess	-11.6164
▁lumi	-11.6164
▁yield	-11.6164
▁yuma	-11.6164
▁mineral	-11.6164
▁pollut	-11.6164
▁graduation	-11.6164
▁ivy	-11.6164
▁whinny	-11.6164
▁incomplete	-11.6164
▁kitten	-11.6164
▁depositors	-11.6164
▁commenc	-11.6164
▁satisfaction	-11.6164
▁dusk	-11.6164
▁bailey	-11.6164
▁cruikshank	-11.6164
▁presumpt	-11.6164
▁harass	-11.6164
▁puddle	-11.6164
▁concentration	-11.6164
▁resemblance	-11.6164
▁lizzy	-11.6164
▁criticism	-11.6164
▁debris	-11.6164
▁lump	-11.6164
▁seadragon	-11.6164
▁braying	-11.6164
▁groove	-11.6164
▁intercom	-11.6164
▁extort	-11.6164
▁kidnapping	-11.6164
▁pond	-11.6164
▁flipped	-11.6165
▁hunky	-11.6165
▁danvers	-11.6165
▁restored	-11.6165
▁farewell	-11.6165
▁terminal	-11.6165
▁snitch	-11.6165
uku	-11.6165
▁twentyfour	-11.6165
▁aches	-11.6165
▁indignity	-11.6165
▁rogue	-11.6165
▁oars	-11.6165
▁abilities	-11.6165
▁mischief	-11.6165
▁veal	-11.6165
▁lethal	-11.6165
▁outlook	-11.6165
▁altafini	-11.6165
▁measurements	-11.6165
▁dye	-11.6165
▁overdone	-11.6165
▁capito	-11.6165
▁taunt	-11.6165
▁shoelace	-11.6165
▁breach	-11.6165
▁jamison	-11.6165
▁authorized	-11.6165
▁bambi	-11.6165
▁referee	-11.6165
▁compact	-11.6165
▁revive	-11.6165
▁bingham	-11.6165
▁boredom	-11.6165
▁dagg	-11.6165
▁blend	-11.6165
▁tsk	-11.6165
▁translate	-11.6165
▁eligible	-11.6165
▁remission	-11.6165
▁whys	-11.6165
▁salmon	-11.6165
▁gentlegirl	-11.6165
▁dormant	-11.6165
▁tedious	-11.6165
▁valor	-11.6165
▁trifl	-11.6165
▁confidential	-11.6165
▁untie	-11.6165
▁bind	-11.6166
▁mudde	-11.6166
▁hobb	-11.6166
▁seams	-11.6166
▁yelp	-11.6166
▁eleven	-11.6166
▁untouch	-11.6166
▁irritat	-11.6166
▁motto	-11.6166
▁whwhat	-11.6166
▁oyster	-11.6166
▁parcel	-11.6166
▁antique	-11.6166
▁korea	-11.6166
▁ashore	-11.6166
▁pussy	-11.6166
ization	-11.6166
▁quiche	-11.6166
▁denial	-11.6166
▁trom	-11.6166
▁forehead	-11.6166
▁regal	-11.6166
▁temptation	-11.6166
spool	-11.6166
▁chilli	-11.6166
▁diversity	-11.6167
▁sicil	-11.6167
▁bastion	-11.6167
▁medina	-11.6167
▁uptown	-11.6167
▁outrageous	-11.6167
▁rump	-11.6167
▁compell	-11.6167
▁aspect	-11.6167
▁squish	-11.6167
▁kurtz	-11.6167
▁babysitter	-11.6167
▁confrontation	-11.6167
▁balto	-11.6167
▁sepp	-11.6167
rimet	-11.6167
▁cruella	-11.6167
▁departure	-11.6167
▁ginger	-11.6167
▁wither	-11.6167
▁coastline	-11.6167
▁preference	-11.6168
▁duties	-11.6168
▁embarrassment	-11.6168
▁gracious	-11.6168
▁whipped	-11.6168
▁earring	-11.6168
▁liberation	-11.6168
▁snapped	-11.6168
▁violen	-11.6168
▁lifesav	-11.6168
▁pony	-11.6168
▁walde	-11.6168
▁stalin	-11.6168
▁spank	-11.6168
▁dunn	-11.6169
▁entertainment	-11.6169
▁massive	-11.6169
▁sisterinlaw	-11.6169
▁dugout	-11.6169
▁pelt	-11.6169
kraut	-11.6169
▁jammed	-11.6169
▁contradiction	-11.6169
▁foam	-11.617
▁poof	-11.617
▁oooh	-11.617
▁clueless	-11.617
▁bias	-11.617
▁fend	-11.617
▁supervisor	-11.617
▁consol	-11.617
▁pomp	-11.6171
▁continental	-11.6171
▁obstruct	-11.6171
▁vulnerable	-11.6171
▁stitch	-11.6171
▁sentimental	-11.6171
▁compose	-11.6171
▁tempt	-11.6171
▁ruling	-11.6171
▁petty	-11.6171
▁sequ	-11.6171
▁soap	-11.6171
▁mutters	-11.6171
▁westside	-11.6172
▁rodent	-11.6172
▁mortal	-11.6172
▁eww	-11.6172
▁hunch	-11.6172
▁marketts	-11.6172
▁wedgie	-11.6172
▁clog	-11.6172
visible	-11.6172
▁daring	-11.6172
▁harness	-11.6172
▁bombard	-11.6172
▁hesitate	-11.6172
▁slash	-11.6173
▁utterly	-11.6173
▁chiddler	-11.6173
▁olie	-11.6173
▁joan	-11.6173
▁pisc	-11.6173
▁trac	-11.6173
▁housekeeper	-11.6174
▁shipment	-11.6174
▁tug	-11.6174
inations	-11.6174
▁successor	-11.6174
▁detect	-11.6174
▁soak	-11.6174
▁arro	-11.6174
selah	-11.6174
▁midst	-11.6175
▁spam	-11.6175
▁patel	-11.6175
▁ruck	-11.6175
▁colin	-11.6176
▁progressive	-11.6176
▁teen	-11.6176
▁defenseless	-11.6176
oohooh	-11.6176
▁grin	-11.6176
▁summerlin	-11.6176
▁infanta	-11.6176
▁kati	-11.6176
▁maze	-11.6176
▁hun	-11.6176
▁overdo	-11.6177
▁settlement	-11.6177
aboli	-11.6177
▁educated	-11.6177
▁utilized	-11.6177
▁verse	-11.6177
▁sundown	-11.6177
▁deport	-11.6178
▁sunny	-11.6178
▁airline	-11.6178
▁petersen	-11.6178
▁soninlaw	-11.6178
▁meaningless	-11.6178
▁profitable	-11.6179
▁cody	-11.6179
▁cuff	-11.6179
▁topped	-11.618
▁hover	-11.618
vory	-11.618
▁guardian	-11.6181
▁disappointment	-11.6181
▁boast	-11.6181
▁coco	-11.6181
▁tamer	-11.6181
▁dome	-11.6182
▁curly	-11.6182
roid	-11.6182
▁zoom	-11.6182
▁gruber	-11.6183
▁rake	-11.6184
▁condemned	-11.6184
ification	-11.6184
▁instantly	-11.6185
▁strictly	-11.6185
▁owned	-11.6185
read	-11.6185
▁related	-11.6186
▁turnover	-11.6186
▁breakdown	-11.6186
▁jung	-11.6186
▁iceland	-11.6186
▁youse	-11.6186
▁artistic	-11.6187
▁amor	-11.6187
roggle	-11.6187
▁secondhand	-11.6187
hini	-11.6188
▁wade	-11.6188
▁philosophy	-11.6188
▁samba	-11.6188
▁sharpen	-11.6188
▁eg	-11.619
▁approaches	-11.619
chez	-11.619
▁consideration	-11.6191
▁laud	-11.6192
▁haste	-11.6194
▁bitten	-11.6194
ique	-11.6194
▁award	-11.6195
▁mentor	-11.6195
▁gand	-11.6195
▁colla	-11.6195
▁ferry	-11.6196
illiard	-11.6196
▁instructed	-11.6197
▁protective	-11.6197
▁bandage	-11.6198
▁retain	-11.6198
▁punches	-11.6198
▁wib	-11.6198
▁blum	-11.6198
▁standby	-11.6199
▁negotiate	-11.6199
▁inventor	-11.62
▁spum	-11.6201
▁mini	-11.6202
▁shutting	-11.6202
▁attain	-11.6202
▁riot	-11.6202
▁brass	-11.6204
▁carrie	-11.6204
▁bonj	-11.6205
▁tee	-11.6206
▁yang	-11.6206
▁aides	-11.6206
▁scatter	-11.6206
▁jackass	-11.6207
tford	-11.6207
ulous	-11.6207
▁toll	-11.6208
▁wop	-11.6208
▁wider	-11.6209
▁forge	-11.621
▁fries	-11.621
▁villagers	-11.6211
▁hoop	-11.6211
▁lust	-11.6211
▁reserved	-11.6212
▁balder	-11.6212
▁calva	-11.6212
▁ahold	-11.6214
▁viewers	-11.6216
lide	-11.6217
▁grey	-11.6218
▁rene	-11.6219
▁iine	-11.6219
▁approved	-11.622
▁mmmm	-11.622
▁orion	-11.6221
▁agreeable	-11.6221
▁guer	-11.6221
▁claw	-11.6222
▁stomper	-11.6222
▁fucker	-11.6223
▁conv	-11.6223
▁parc	-11.6223
▁circula	-11.6228
mada	-11.6228
▁von	-11.623
▁barre	-11.623
▁hunger	-11.6233
▁gala	-11.6233
▁bli	-11.6234
▁bushy	-11.6236
▁ripe	-11.6237
lasses	-11.6237
▁carole	-11.6237
▁kit	-11.6239
grabbing	-11.6241
▁superb	-11.6243
▁toil	-11.6246
▁alter	-11.6249
▁wedge	-11.6253
▁dah	-11.6253
▁taka	-11.6253
▁antie	-11.6253
▁guitarist	-11.6255
yker	-11.6256
▁wield	-11.6259
▁tov	-11.6271
▁calf	-11.6276
succ	-11.6282
▁painter	-11.6286
▁morel	-11.6287
▁iive	-11.6289
▁brat	-11.6292
bard	-11.6294
gant	-11.6295
acle	-11.6305
▁mohan	-11.6305
▁racial	-11.6306
▁jen	-11.6307
▁critical	-11.6309
▁closest	-11.6332
▁brew	-11.6332
▁contemporar	-11.6336
▁calculation	-11.6343
▁assembl	-11.6346
▁wav	-11.6368
▁refugee	-11.6375
▁nipp	-11.6385
▁mash	-11.6391
▁geez	-11.6396
▁midge	-11.6402
▁global	-11.6409
▁liter	-11.6413
consistent	-11.642
ctic	-11.6429
▁stretcher	-11.6439
▁padd	-11.6441
▁swo	-11.6441
▁committ	-11.6472
▁scrape	-11.6483
▁verb	-11.6487
▁jani	-11.6508
dodo	-11.6542
▁chart	-11.6543
lumber	-11.6566
▁cla	-11.6569
▁geek	-11.6581
▁roch	-11.6583
▁dim	-11.665
▁skim	-11.6651
▁unite	-11.6652
appy	-11.6665
▁tel	-11.6672
▁infield	-11.6683
▁consen	-11.6696
taking	-11.67
trust	-11.6712
▁stac	-11.6726
▁overhea	-11.6736
▁dominate	-11.6738
▁cruis	-11.6802
ranny	-11.6825
▁pana	-11.6831
▁sparkl	-11.687
osi	-11.6881
lucid	-11.6882
▁baku	-11.6889
▁squeez	-11.6913
▁shri	-11.6943
urban	-11.6974
ector	-11.7034
▁arg	-11.709
aba	-11.709
viv	-11.7172
capitalize	-11.7189
lves	-11.7209
▁ple	-11.7239
▁evacuate	-11.7403
▁premi	-11.7427
▁slapp	-11.7558
eology	-11.7672
ollo	-11.7711
cular	-11.7749
▁gren	-11.7771
▁organiz	-11.7778
▁sil	-11.7798
lars	-11.7807
▁introduc	-11.7822
▁iong	-11.7946
ika	-11.7972
▁popp	-11.8006
grad	-11.8021
▁mit	-11.8026
rage	-11.8057
▁dur	-11.8068
▁notif	-11.8091
▁muti	-11.8128
▁nik	-11.8145
addy	-11.8205
jah	-11.8223
▁pate	-11.8321
arne	-11.8346
nia	-11.8378
▁stepp	-11.838
▁ruf	-11.8479
ceased	-11.8512
amp	-11.8513
trilo	-11.8531
▁simpl	-11.8629
verage	-11.8661
▁custo	-11.8681
▁entr	-11.8713
▁considerabl	-11.8836
disciplined	-11.8839
▁toi	-11.886
▁tire	-11.8884
▁wok	-11.8922
ole	-11.8961
parag	-11.9045
▁critic	-11.9068
gical	-11.9127
▁muff	-11.9143
▁myth	-11.9195
▁cough	-11.9197
▁regi	-11.9197
▁editorial	-11.9228
▁relation	-11.9234
▁meadow	-11.9234
▁landlord	-11.9237
▁teammate	-11.9237
▁shilling	-11.9243
▁athletic	-11.9245
▁exclaim	-11.9246
▁sinner	-11.9248
▁spade	-11.9254
▁scoff	-11.9258
▁glas	-11.9262
▁immun	-11.928
hemi	-11.9289
bumps	-11.933
▁raci	-11.9354
▁intru	-11.9359
▁decid	-11.9403
▁patron	-11.9403
dfather	-11.9407
▁plai	-11.941
▁circ	-11.9429
▁plac	-11.9432
▁tex	-11.944
oads	-11.9441
▁install	-11.9444
▁instruct	-11.9445
▁splash	-11.9446
▁dwell	-11.9449
paper	-11.9455
turned	-11.9456
bility	-11.9456
heart	-11.9457
proof	-11.9457
experienced	-11.9457
cross	-11.9457
fifty	-11.9457
count	-11.9458
bedroom	-11.9458
shot	-11.9458
violence	-11.9458
dollar	-11.9458
defense	-11.9459
hundred	-11.9459
understood	-11.9459
cliff	-11.9459
thousand	-11.9459
figure	-11.9459
sweet	-11.9459
married	-11.9459
school	-11.9459
penny	-11.946
hello	-11.946
space	-11.946
think	-11.946
cream	-11.9461
minute	-11.9462
bolt	-11.9462
bitt	-11.9462
▁intent	-11.9463
bound	-11.9463
ricks	-11.9464
soul	-11.9464
stick	-11.9466
loving	-11.9466
▁erase	-11.9468
post	-11.9469
▁doom	-11.9469
signor	-11.9472
▁sympath	-11.9474
▁thirt	-11.9474
▁curl	-11.9475
boat	-11.9476
▁craz	-11.9477
▁technical	-11.9477
whoa	-11.9478
▁relate	-11.9479
▁encourag	-11.9479
▁filth	-11.9479
▁chess	-11.9479
shake	-11.948
▁alexand	-11.9484
▁grib	-11.9488
▁cynic	-11.949
▁musi	-11.9491
timate	-11.9493
▁myst	-11.9493
▁byr	-11.9494
▁weddin	-11.9494
▁collaborat	-11.9494
▁aaah	-11.9494
alnut	-11.9495
▁jeopardi	-11.9495
▁absolu	-11.9495
▁givin	-11.9495
▁kidnap	-11.9496
▁invo	-11.9496
▁diploma	-11.9496
▁imagina	-11.9496
▁occupa	-11.9496
▁recon	-11.9496
▁transport	-11.9496
ogram	-11.9496
▁parr	-11.9497
cci	-11.9497
equently	-11.9497
snort	-11.9497
▁engel	-11.9497
▁circumstan	-11.9497
▁unplug	-11.9497
▁accumulat	-11.9497
▁enclos	-11.9497
▁harbour	-11.9497
▁intellect	-11.9497
▁intrigu	-11.9497
▁outsmart	-11.9497
▁pulveriz	-11.9497
▁ravag	-11.9497
▁ricochet	-11.9497
▁scrutin	-11.9497
▁stimulat	-11.9497
because	-11.9497
compromising	-11.9497
conspicuous	-11.9497
eservative	-11.9497
laplane	-11.9497
rescind	-11.9497
xxxx	-11.9497
▁accompanie	-11.9497
▁accurate	-11.9497
▁acquainted	-11.9497
▁adequate	-11.9497
▁admirable	-11.9497
▁advocate	-11.9497
▁aftershock	-11.9497
▁agnew	-11.9497
▁alcatraz	-11.9497
▁alcohol	-11.9497
▁algebra	-11.9497
▁alibi	-11.9497
▁allegations	-11.9497
▁analysis	-11.9497
▁angrier	-11.9497
▁annabelle	-11.9497
▁apocalyp	-11.9497
▁appalling	-11.9497
▁artificial	-11.9497
▁assassination	-11.9497
▁assessment	-11.9497
▁assumption	-11.9497
▁atroci	-11.9497
▁ballerina	-11.9497
▁bannister	-11.9497
▁bergmark	-11.9497
▁biblical	-11.9497
▁bladder	-11.9497
▁blindfold	-11.9497
▁blizzard	-11.9497
▁boorsteins	-11.9497
▁briare	-11.9497
▁bridegroom	-11.9497
▁bulbasaur	-11.9497
▁burrito	-11.9497
▁caliber	-11.9497
▁capitulat	-11.9497
▁capoeir	-11.9497
▁carnival	-11.9497
▁carnofsky	-11.9497
▁celebrity	-11.9497
▁ceremoni	-11.9497
▁cervantes	-11.9497
▁chafouin	-11.9497
▁chandelier	-11.9497
▁chauffeur	-11.9497
▁chemical	-11.9497
▁clermontferrand	-11.9497
▁cognac	-11.9497
▁colombia	-11.9497
▁columbia	-11.9497
▁column	-11.9497
▁commendations	-11.9497
▁competitor	-11.9497
▁compound	-11.9497
▁comprendo	-11.9497
▁conceited	-11.9497
▁conservative	-11.9497
▁copabanana	-11.9497
▁corral	-11.9497
▁cortina	-11.9497
▁coyote	-11.9497
▁crossword	-11.9497
▁culprit	-11.9497
▁cynthia	-11.9497
▁deborah	-11.9497
▁defiance	-11.9497
▁delecluze	-11.9497
▁delegation	-11.9497
▁devastation	-11.9497
▁diagram	-11.9497
▁dierdre	-11.9497
▁discerning	-11.9497
▁discontinued	-11.9497
▁disposal	-11.9497
▁disqualif	-11.9497
▁dummies	-11.9497
▁dunhill	-11.9497
▁dwarf	-11.9497
▁eccentric	-11.9497
▁edamame	-11.9497
▁elevate	-11.9497
▁embodi	-11.9497
▁enchantment	-11.9497
▁entitled	-11.9497
▁evaluate	-11.9497
▁evian	-11.9497
▁expansion	-11.9497
▁exploit	-11.9497
▁exposure	-11.9497
▁expropriat	-11.9497
▁eyebrows	-11.9497
▁fackler	-11.9497
▁fantasies	-11.9497
▁fascinated	-11.9497
▁february	-11.9497
▁feroci	-11.9497
▁fiasco	-11.9497
▁firecracker	-11.9497
▁fleshlumpeater	-11.9497
▁flourishe	-11.9497
▁fonzanoon	-11.9497
▁frankincense	-11.9497
▁frustration	-11.9497
▁gaulle	-11.9497
▁gekko	-11.9497
▁generosity	-11.9497
▁geometr	-11.9497
▁geranium	-11.9497
▁gingerbread	-11.9497
▁girdle	-11.9497
▁gizzardgulper	-11.9497
▁gleaming	-11.9497
▁granddaughter	-11.9497
▁gravity	-11.9497
▁gregorio	-11.9497
▁groceries	-11.9497
▁gummidge	-11.9497
▁gypsy	-11.9497
▁haggadah	-11.9497
▁harmonica	-11.9497
▁heavier	-11.9497
▁heavyweight	-11.9497
▁hebron	-11.9497
▁hightower	-11.9497
▁hitchhike	-11.9497
▁homosexual	-11.9497
▁horizon	-11.9497
▁humanitarian	-11.9497
▁humidity	-11.9497
▁humiliating	-11.9497
▁hurricane	-11.9497
▁hydro	-11.9497
▁identifiable	-11.9497
▁immensely	-11.9497
▁immoral	-11.9497
▁imperfection	-11.9497
▁implicated	-11.9497
▁imprisonment	-11.9497
▁incompeten	-11.9497
▁indestructible	-11.9497
▁indisposed	-11.9497
▁industrial	-11.9497
▁influenza	-11.9497
▁infrared	-11.9497
▁iniquity	-11.9497
▁insensitiv	-11.9497
▁interpret	-11.9497
▁intimidate	-11.9497
▁intrepid	-11.9497
▁irrelevant	-11.9497
▁irresistible	-11.9497
▁ishitsukuri	-11.9497
▁itinerar	-11.9497
▁jabbeling	-11.9497
▁jengibre	-11.9497
▁jittery	-11.9497
▁judith	-11.9497
▁kashkuh	-11.9497
▁kensington	-11.9497
▁kilometers	-11.9497
▁knockknock	-11.9497
▁kroychzech	-11.9497
▁kuramochi	-11.9497
▁lecturing	-11.9497
▁limousine	-11.9497
▁liverpool	-11.9497
▁lnspector	-11.9497
▁lucario	-11.9497
▁luppus	-11.9497
▁lycanroc	-11.9497
▁magistrate	-11.9497
▁majestic	-11.9497
▁makeawish	-11.9497
▁manipulat	-11.9497
▁massilia	-11.9497
▁maurice	-11.9497
▁mcmillan	-11.9497
▁mechanism	-11.9497
▁meticulous	-11.9497
▁minimum	-11.9497
▁miriam	-11.9497
▁misfits	-11.9497
▁mishap	-11.9497
▁mistletoe	-11.9497
▁miyatsuko	-11.9497
▁monocle	-11.9497
▁motivation	-11.9497
▁mozart	-11.9497
▁mumbojumbo	-11.9497
▁myriad	-11.9497
▁nagasaki	-11.9497
▁nazareth	-11.9497
▁neutral	-11.9497
▁nineyearold	-11.9497
▁nourishment	-11.9497
▁nunnery	-11.9497
▁oedema	-11.9497
▁opportunist	-11.9497
▁opposition	-11.9497
▁oppress	-11.9497
▁ordained	-11.9497
▁ossuary	-11.9497
▁overslept	-11.9497
▁overwhelm	-11.9497
▁paragraph	-11.9497
▁pardonnezmoi	-11.9497
▁penalty	-11.9497
▁penguin	-11.9497
▁perpetrator	-11.9497
▁petronella	-11.9497
▁phenomena	-11.9497
▁phlebitis	-11.9497
▁phonograph	-11.9497
▁pineapple	-11.9497
▁pizzeria	-11.9497
▁platter	-11.9497
▁pleiku	-11.9497
▁policewoman	-11.9497
▁popcorn	-11.9497
▁portfolio	-11.9497
▁possibilities	-11.9497
▁practise	-11.9497
▁preparing	-11.9497
▁prettier	-11.9497
▁proclaim	-11.9497
▁proletarian	-11.9497
▁provincial	-11.9497
▁puberty	-11.9497
▁purple	-11.9497
▁radiation	-11.9497
▁radiator	-11.9497
▁reassuring	-11.9497
▁recollect	-11.9497
▁reconnaissance	-11.9497
▁rectified	-11.9497
▁reggae	-11.9497
▁regulations	-11.9497
▁reinforce	-11.9497
▁replacing	-11.9497
▁resolution	-11.9497
▁resourceful	-11.9497
▁rockefeller	-11.9497
▁roosevelt	-11.9497
▁rubbish	-11.9497
▁rumour	-11.9497
▁saxophon	-11.9497
▁schmucks	-11.9497
▁scoundrel	-11.9497
▁scrabble	-11.9497
▁semifinal	-11.9497
▁shrewd	-11.9497
▁siberia	-11.9497
▁siggy	-11.9497
▁significan	-11.9497
▁simpson	-11.9497
▁sizzling	-11.9497
▁sketch	-11.9497
▁skull	-11.9497
▁slingshots	-11.9497
▁smolny	-11.9497
▁sneezing	-11.9497
▁snook	-11.9497
▁splurg	-11.9497
▁sprained	-11.9497
▁staircase	-11.9497
▁stepfather	-11.9497
▁strudel	-11.9497
▁stumble	-11.9497
▁substantial	-11.9497
▁supernatural	-11.9497
▁superstition	-11.9497
▁superstitious	-11.9497
▁suspension	-11.9497
▁symptom	-11.9497
▁tallulah	-11.9497
▁tarzan	-11.9497
▁tepee	-11.9497
▁thatthat	-11.9497
▁thevenot	-11.9497
▁thoreau	-11.9497
▁thriving	-11.9497
▁thunderstorm	-11.9497
▁ticktock	-11.9497
▁tightrope	-11.9497
▁tobacconists	-11.9497
▁toothbrush	-11.9497
▁transistor	-11.9497
▁traviata	-11.9497
▁trawler	-11.9497
▁tremendous	-11.9497
▁trevor	-11.9497
▁tuberculosis	-11.9497
▁typewriter	-11.9497
▁unavoidable	-11.9497
▁undead	-11.9497
▁undeniabl	-11.9497
▁underestimate	-11.9497
▁undesirable	-11.9497
▁undoubtedly	-11.9497
▁ungalik	-11.9497
▁uninvited	-11.9497
▁unlimited	-11.9497
▁unnecessary	-11.9497
▁unofficially	-11.9497
▁uptight	-11.9497
▁uruguay	-11.9497
▁vaccines	-11.9497
▁vancouver	-11.9497
▁velocity	-11.9497
▁vienna	-11.9497
▁vintage	-11.9497
▁wazaari	-11.9497
▁whitechapel	-11.9497
▁whizzpopp	-11.9497
▁wichita	-11.9497
▁windshield	-11.9497
▁woozy	-11.9497
▁yangtze	-11.9497
▁ziegler	-11.9497
▁zombie	-11.9497
dimensional	-11.9497
▁barbecue	-11.9497
▁caddie	-11.9497
▁conceive	-11.9497
▁dixie	-11.9497
▁flint	-11.9497
▁fraterni	-11.9497
▁halfgrow	-11.9497
▁holla	-11.9497
▁kettle	-11.9497
▁orthodox	-11.9497
▁rectang	-11.9497
▁snoop	-11.9497
▁snotty	-11.9497
▁transform	-11.9497
enezles	-11.9497
paralyzed	-11.9497
precedent	-11.9497
▁agitat	-11.9497
▁beverley	-11.9497
▁bouncy	-11.9497
▁bruise	-11.9497
▁bulbs	-11.9497
▁caution	-11.9497
▁choosing	-11.9497
▁christopher	-11.9497
▁civic	-11.9497
▁crypto	-11.9497
▁dawson	-11.9497
▁deceive	-11.9497
▁dignified	-11.9497
▁donnel	-11.9497
▁dribble	-11.9497
▁duffle	-11.9497
▁eggnog	-11.9497
▁elusive	-11.9497
▁forthcoming	-11.9497
▁fromage	-11.9497
▁gnome	-11.9497
▁goldfish	-11.9497
▁guinea	-11.9497
▁hampton	-11.9497
▁hoffman	-11.9497
▁hoodlum	-11.9497
▁illiterate	-11.9497
▁inadequa	-11.9497
▁intact	-11.9497
▁laughingstock	-11.9497
▁lncoming	-11.9497
▁marquee	-11.9497
▁migra	-11.9497
▁minivan	-11.9497
▁navigat	-11.9497
▁negro	-11.9497
▁nonveg	-11.9497
▁paleface	-11.9497
▁petrol	-11.9497
▁pitiful	-11.9497
▁proposing	-11.9497
▁pupil	-11.9497
▁reggie	-11.9497
▁sleigh	-11.9497
▁snoot	-11.9497
▁stilton	-11.9497
▁thauma	-11.9497
▁thirteen	-11.9497
▁thrust	-11.9497
▁turbo	-11.9497
▁viceroy	-11.9497
▁wiretap	-11.9497
▁yippee	-11.9497
▁affirm	-11.9497
▁bahamas	-11.9497
▁currie	-11.9497
▁dominoes	-11.9497
▁emiko	-11.9497
▁gauche	-11.9497
▁harbor	-11.9497
▁hubert	-11.9497
▁monroe	-11.9497
▁munkd	-11.9497
▁mutation	-11.9497
▁pablo	-11.9497
▁perpetua	-11.9497
▁pompoms	-11.9497
▁reliable	-11.9497
▁schwei	-11.9497
▁southeast	-11.9497
▁sursicks	-11.9497
▁syria	-11.9497
▁umpire	-11.9497
▁unbeatable	-11.9497
▁variety	-11.9497
▁vipers	-11.9497
▁windmill	-11.9497
▁womb	-11.9497
diddledy	-11.9497
ortex	-11.9497
tissue	-11.9497
▁boulon	-11.9497
▁dawg	-11.9497
▁demoli	-11.9497
▁depict	-11.9497
▁dunk	-11.9497
▁entice	-11.9497
▁errand	-11.9497
▁gesture	-11.9497
▁impostor	-11.9497
▁munching	-11.9497
▁paolo	-11.9497
▁parkinson	-11.9497
▁prussia	-11.9497
▁punctu	-11.9497
▁relating	-11.9497
▁rollsroyce	-11.9497
▁segment	-11.9497
▁sixteen	-11.9497
▁spaz	-11.9497
▁truman	-11.9497
▁tyrant	-11.9497
▁wouid	-11.9497
▁adapt	-11.9497
▁caterpi	-11.9497
▁citation	-11.9497
▁endurance	-11.9497
▁gospel	-11.9497
▁ifif	-11.9497
▁khan	-11.9497
▁ninth	-11.9497
▁scoop	-11.9497
▁steep	-11.9497
▁theories	-11.9497
▁tweet	-11.9497
▁buttonholes	-11.9497
▁crumble	-11.9497
▁fowl	-11.9497
▁intro	-11.9497
▁predator	-11.9497
▁resume	-11.9497
▁rinse	-11.9497
▁torment	-11.9497
▁ugli	-11.9497
autolog	-11.9497
gobbling	-11.9497
▁boulder	-11.9497
▁competing	-11.9497
▁demise	-11.9497
▁derby	-11.9497
▁essence	-11.9497
▁noisy	-11.9497
▁pulp	-11.9497
▁quarr	-11.9497
▁sabin	-11.9497
▁sedative	-11.9497
▁slugging	-11.9497
▁sponge	-11.9497
▁trotsky	-11.9497
▁twinkie	-11.9497
▁venice	-11.9497
▁zip	-11.9497
▁arena	-11.9497
▁mastermind	-11.9497
▁mobiliz	-11.9497
▁parson	-11.9497
▁purity	-11.9497
▁botot	-11.9497
▁compressors	-11.9497
▁felon	-11.9497
▁hazard	-11.9497
▁compress	-11.9497
▁personnel	-11.9497
▁tampa	-11.9497
▁atom	-11.9497
▁cambridge	-11.9497
▁detour	-11.9497
▁gourmet	-11.9497
▁relive	-11.9497
▁sharon	-11.9497
▁slut	-11.9497
▁thistle	-11.9497
▁wray	-11.9497
▁xray	-11.9497
pathy	-11.9497
▁deteriorat	-11.9497
▁imminent	-11.9497
▁maroon	-11.9497
▁operatives	-11.9497
▁rubbed	-11.9497
▁tuxedo	-11.9497
▁undertake	-11.9497
▁boogereatin	-11.9497
▁dvd	-11.9497
▁fuzz	-11.9497
▁garters	-11.9497
▁laurie	-11.9497
▁malignan	-11.9497
▁slander	-11.9497
▁funnel	-11.9497
▁vapor	-11.9497
▁crises	-11.9497
▁lingering	-11.9497
▁capabilit	-11.9497
▁conveyed	-11.9497
▁gerry	-11.9497
▁minus	-11.9497
▁pvt	-11.9497
▁taffy	-11.9497
▁aggressi	-11.9497
▁domain	-11.9497
▁swedes	-11.9497
▁fortress	-11.9497
▁articu	-11.9497
▁zoologist	-11.9497
▁admission	-11.9497
▁firerat	-11.9497
▁likewise	-11.9497
▁nominate	-11.9497
▁reich	-11.9497
▁uppy	-11.9497
▁candlestick	-11.9497
▁selectors	-11.9497
▁cement	-11.9497
▁hyp	-11.9497
▁snipp	-11.9497
▁cuppy	-11.9497
▁relied	-11.9497
▁absent	-11.9497
▁wrongdoing	-11.9497
rinth	-11.9497
restricted	-11.9497
▁rhu	-11.9497
▁insight	-11.9497
▁gopher	-11.9497
▁oblivio	-11.9497
▁ronald	-11.9497
▁salami	-11.9497
▁altar	-11.9497
▁iisten	-11.9497
▁jelly	-11.9497
▁titan	-11.9497
hungarian	-11.9497
▁rasta	-11.9497
▁curveball	-11.9498
▁wsga	-11.9498
flamb	-11.9498
ylum	-11.9498
▁bloodlines	-11.9498
▁diplomacy	-11.9498
▁vista	-11.9498
▁gangsters	-11.9498
▁polly	-11.9498
▁demented	-11.9498
▁swipe	-11.9498
▁fartface	-11.9498
▁hooves	-11.9498
▁ensure	-11.9498
imaginative	-11.9498
▁immanent	-11.9498
▁indicating	-11.9498
▁overreacting	-11.9498
▁arouse	-11.9498
▁horace	-11.9498
dictable	-11.9498
▁dripping	-11.9498
▁divert	-11.9498
▁trough	-11.9498
leep	-11.9498
▁revolve	-11.9498
▁kimmy	-11.9498
▁lyric	-11.9498
▁scramble	-11.9498
▁pegg	-11.9498
▁nevermind	-11.9498
▁lottery	-11.9498
jumbo	-11.9498
▁nerd	-11.9498
▁outcome	-11.9498
▁referred	-11.9498
▁creditors	-11.9498
▁seduc	-11.9498
▁drain	-11.9498
▁zipper	-11.9498
▁deduc	-11.9498
▁spokesman	-11.9498
▁fava	-11.9498
▁ccc	-11.9498
▁girlyman	-11.9498
▁perjur	-11.9498
▁weeds	-11.9498
▁duggi	-11.9498
songwriter	-11.9498
▁reld	-11.9498
▁vague	-11.9498
▁depriv	-11.9498
▁stashed	-11.9498
▁secre	-11.9498
affir	-11.9498
▁downtown	-11.9498
▁candlelight	-11.9499
▁scale	-11.9499
runch	-11.9499
▁victorious	-11.9499
gammon	-11.9499
▁convertible	-11.9499
▁sideways	-11.9499
▁wuss	-11.9499
▁bugging	-11.9499
▁pickets	-11.9499
▁tofu	-11.9499
▁squall	-11.9499
▁daddies	-11.9499
▁blogger	-11.9499
euf	-11.9499
▁enroll	-11.9499
▁gossip	-11.9499
▁archer	-11.9499
▁boundaries	-11.9499
▁priorities	-11.9499
▁jeopardize	-11.9499
▁vionnet	-11.9499
▁sistersinlaw	-11.9499
▁amuse	-11.9499
▁terrorism	-11.9499
▁futil	-11.9499
▁expectations	-11.9499
▁deriv	-11.9499
▁sheets	-11.9499
▁walnut	-11.9499
▁patsy	-11.9499
▁mince	-11.9499
▁hopps	-11.9499
▁balby	-11.9499
▁ciose	-11.9499
▁denied	-11.9499
▁shlain	-11.9499
▁dispute	-11.9499
▁spinach	-11.9499
▁frolic	-11.9499
▁freddie	-11.9499
▁necklace	-11.9499
▁tackle	-11.9499
▁witty	-11.9499
assurance	-11.95
▁bracelet	-11.95
▁venison	-11.95
▁smug	-11.95
tween	-11.95
▁flashback	-11.95
▁harassment	-11.95
▁julian	-11.95
russel	-11.95
▁gallop	-11.95
▁macaro	-11.95
▁kaiser	-11.95
▁ahhhhhh	-11.95
▁egyptian	-11.95
▁computerette	-11.95
▁ragtime	-11.95
▁banjo	-11.95
▁guilders	-11.95
▁attic	-11.95
▁tension	-11.95
▁toots	-11.95
▁rye	-11.95
▁justifie	-11.95
▁ripped	-11.95
▁auction	-11.95
▁irish	-11.95
▁intimate	-11.9501
▁horri	-11.9501
▁chipped	-11.9501
▁liking	-11.9501
▁soso	-11.9501
▁yeehaw	-11.9501
▁absorb	-11.9501
▁kipper	-11.9501
▁retirement	-11.9501
▁lowlife	-11.9501
▁collectible	-11.9501
▁loath	-11.9501
▁ricket	-11.9501
▁orphanage	-11.9501
▁venom	-11.9501
virus	-11.9502
▁barney	-11.9502
▁pillow	-11.9502
▁hungary	-11.9502
▁socialism	-11.9502
▁truce	-11.9502
▁dentistry	-11.9502
▁rabble	-11.9502
▁generate	-11.9502
▁employment	-11.9502
▁export	-11.9502
▁pinball	-11.9502
▁vouch	-11.9502
▁caroline	-11.9502
▁kilt	-11.9502
▁mortar	-11.9502
▁tumbling	-11.9502
▁pansy	-11.9502
ramble	-11.9503
▁tiger	-11.9503
▁scold	-11.9503
▁bourb	-11.9503
▁cattlemen	-11.9503
▁prediction	-11.9503
▁observation	-11.9503
▁roam	-11.9503
▁manual	-11.9503
▁apiece	-11.9503
▁poach	-11.9503
vatory	-11.9503
▁injection	-11.9503
▁vamo	-11.9503
▁dickhead	-11.9503
▁trance	-11.9504
▁pooh	-11.9504
▁canine	-11.9504
▁tangled	-11.9504
▁filter	-11.9504
udding	-11.9504
▁potty	-11.9504
awe	-11.9504
▁overwork	-11.9504
▁stressful	-11.9504
▁aaahh	-11.9504
▁quarterback	-11.9504
▁cherries	-11.9504
▁labourers	-11.9504
▁charne	-11.9504
▁influen	-11.9505
uhuhuh	-11.9505
▁parme	-11.9505
▁lockwood	-11.9505
▁hamlin	-11.9505
▁victories	-11.9505
▁feedback	-11.9505
▁janine	-11.9505
▁kaboom	-11.9505
slation	-11.9505
▁belch	-11.9505
▁campfire	-11.9505
▁aroma	-11.9506
▁taters	-11.9506
▁funniest	-11.9506
rillo	-11.9506
▁snorts	-11.9506
ofthe	-11.9506
▁troll	-11.9506
rupt	-11.9506
▁medium	-11.9507
hehheh	-11.9507
▁mega	-11.9507
▁dependable	-11.9507
integrate	-11.9507
wrap	-11.9507
▁passover	-11.9507
▁spitting	-11.9507
ernst	-11.9507
▁dorm	-11.9508
▁haircut	-11.9508
▁dumbass	-11.9508
▁streetcar	-11.9508
▁vase	-11.9508
▁nestor	-11.9508
▁pillar	-11.9508
▁swat	-11.9508
▁napkin	-11.9508
▁texture	-11.9509
▁cocon	-11.9509
▁visa	-11.9509
▁debtor	-11.9509
▁quant	-11.9509
▁wobbl	-11.9509
▁nuke	-11.9509
▁glance	-11.951
▁allah	-11.951
▁snapping	-11.951
▁hostil	-11.951
▁procession	-11.951
▁pimp	-11.951
▁darr	-11.951
▁considerate	-11.9511
▁regardless	-11.9511
▁endeavor	-11.9511
▁footwork	-11.9511
▁tipton	-11.9511
▁pike	-11.9511
▁freddy	-11.9511
▁hence	-11.9511
▁kara	-11.9511
▁conley	-11.9512
▁clap	-11.9512
▁charan	-11.9512
▁zach	-11.9512
▁stale	-11.9512
▁stockings	-11.9512
▁cornet	-11.9513
bergen	-11.9513
▁nickname	-11.9513
▁heap	-11.9514
▁brim	-11.9514
▁cuban	-11.9515
▁delance	-11.9515
▁ashton	-11.9515
▁webb	-11.9515
▁edition	-11.9515
▁troublemaker	-11.9516
▁notion	-11.9517
▁attendant	-11.9517
▁scum	-11.9517
▁timid	-11.9517
▁colli	-11.9518
▁bile	-11.9519
▁pads	-11.9519
▁tablets	-11.952
▁puert	-11.9521
▁tickle	-11.9521
▁disconnect	-11.9522
▁beret	-11.9525
moto	-11.9526
▁magi	-11.9526
▁nooo	-11.9526
▁tart	-11.9528
▁chow	-11.9528
etta	-11.954
▁combine	-11.954
▁voi	-11.9548
▁molar	-11.9548
easy	-11.9552
▁crema	-11.9555
▁expel	-11.9555
▁escap	-11.9557
▁monac	-11.9558
▁musso	-11.9558
ddlers	-11.957
▁appli	-11.957
again	-11.9586
▁patronize	-11.9592
▁salut	-11.9594
▁polyt	-11.9599
▁aki	-11.9601
▁impersonati	-11.9602
▁juri	-11.9605
graphy	-11.9607
▁coloni	-11.9619
western	-11.9634
▁riv	-11.9634
iological	-11.9641
mhmm	-11.9642
▁verdi	-11.965
▁terroriz	-11.9652
twentythree	-11.9669
▁lode	-11.969
rtner	-11.9694
▁lesb	-11.97
▁gaj	-11.9701
▁milli	-11.9716
munity	-11.972
freeze	-11.9731
ssors	-11.9734
▁criticiz	-11.9737
▁strawberr	-11.9754
▁remarkabl	-11.9792
▁mythic	-11.9808
doz	-11.9814
rubbing	-11.9815
▁esca	-11.9822
▁whopp	-11.9838
▁substitut	-11.9848
▁semi	-11.9856
aflo	-11.9871
plied	-11.989
▁reassign	-11.9931
mmy	-11.9931
propelle	-11.9932
▁ditch	-11.994
overall	-11.9981
validate	-11.9997
▁humbl	-12.0019
alma	-12.0029
▁montag	-12.0044
hyun	-12.0056
tiers	-12.0155
▁dunc	-12.0161
milton	-12.0166
▁respirat	-12.0174
▁cosm	-12.0219
acceptable	-12.0324
▁jeffr	-12.0388
gent	-12.0427
owels	-12.0446
▁lib	-12.05
martial	-12.0537
fluent	-12.0577
guillo	-12.0592
oons	-12.0595
gallant	-12.0747
▁spotte	-12.0751
sync	-12.0805
clusive	-12.0809
▁outlin	-12.0828
nam	-12.0838
▁slop	-12.0849
phony	-12.0933
▁sociolog	-12.1002
tilation	-12.109
▁promet	-12.1114
viole	-12.122
leavened	-12.1326
▁yeeha	-12.1375
▁philipp	-12.15
▁incorporat	-12.1527
coordinate	-12.1608
▁selfdestructi	-12.1619
flame	-12.162
itude	-12.1673
titude	-12.1724
lapse	-12.173
▁dictat	-12.1896
▁spik	-12.2005
mises	-12.2119
▁evacuat	-12.2141
▁receiv	-12.2203
▁clu	-12.2287
orne	-12.2338
▁greatgrand	-12.2853
informed	-12.2874
▁minorit	-12.2962
coaster	-12.2997
plication	-12.3005
▁interfer	-12.3015
ference	-12.3319
taria	-12.3433
▁exercis	-12.3434
glades	-12.3449
▁doubl	-12.3637
▁milita	-12.3674
zvous	-12.3714
assigned	-12.3827
▁junct	-12.3881
berries	-12.4016
dicted	-12.4018
agon	-12.4071
aimed	-12.4101
▁destruct	-12.4117
temporary	-12.4118
▁franc	-12.4198
attered	-12.4209
▁nort	-12.4215
▁cyclone	-12.4236
▁headache	-12.4242
▁homesteader	-12.4244
ufferin	-12.4246
▁veteran	-12.425
▁histori	-12.4263
▁electri	-12.4281
▁involv	-12.4285
uzzling	-12.4341
▁catalog	-12.4349
spirator	-12.4358
brides	-12.4375
dennes	-12.4385
▁announc	-12.4391
cubat	-12.4393
appointing	-12.4401
▁trembl	-12.4406
▁experienc	-12.4412
nducted	-12.442
retching	-12.4425
cakes	-12.4428
▁separat	-12.4438
▁indulge	-12.4439
▁bottl	-12.444
▁sophi	-12.4441
▁whirl	-12.4442
frump	-12.4451
▁condemn	-12.4452
▁undress	-12.4453
▁sophisticat	-12.4453
writing	-12.4454
▁evolv	-12.4454
▁phas	-12.4454
road	-12.4455
known	-12.4455
▁confin	-12.4456
circul	-12.4456
flowing	-12.4456
cetera	-12.4456
bloom	-12.4457
developed	-12.4457
dragon	-12.4457
aggots	-12.4458
communication	-12.4458
chamber	-12.4458
identified	-12.4458
appropriate	-12.4458
charge	-12.4458
drums	-12.4458
occupied	-12.4458
stream	-12.4458
statement	-12.4459
stretch	-12.4459
faithful	-12.4459
regard	-12.4459
cloud	-12.4459
fortune	-12.4459
leading	-12.4459
leader	-12.4459
regular	-12.4459
happiness	-12.4459
electric	-12.4459
quarter	-12.4459
excited	-12.4459
naked	-12.4459
changing	-12.4459
checked	-12.4459
student	-12.4459
written	-12.4459
attack	-12.4459
familiar	-12.4459
bridge	-12.4459
broken	-12.4459
journey	-12.4459
definitely	-12.446
bottle	-12.446
throat	-12.446
brother	-12.446
president	-12.446
control	-12.446
spread	-12.446
blood	-12.446
magnet	-12.446
strong	-12.446
france	-12.446
important	-12.446
excuse	-12.446
please	-12.446
world	-12.446
