<unk>	0
<s>	0
</s>	0
s	-2.98192
t	-4.06817
ing	-4.20777
e	-4.28005
y	-4.29166
d	-4.34575
i	-4.35493
a	-4.37039
ed	-4.4686
o	-4.49287
n	-4.53644
r	-4.66343
p	-4.66766
er	-4.67193
u	-4.79228
m	-4.83118
c	-4.91134
▁	-4.93633
▁im	-4.93766
g	-4.95335
in	-4.98494
▁dont	-5.05704
▁go	-5.06268
▁know	-5.16332
le	-5.2044
▁get	-5.21485
▁s	-5.24124
▁oh	-5.2432
or	-5.28627
▁come	-5.2915
b	-5.31107
k	-5.32623
▁right	-5.32785
al	-5.35757
ll	-5.40771
▁well	-5.43841
▁like	-5.44585
▁got	-5.47106
f	-5.48952
▁a	-5.4935
l	-5.49501
▁youre	-5.54321
w	-5.5654
ly	-5.56719
ar	-5.57517
▁na	-5.61271
▁yeah	-5.62301
▁thats	-5.63251
▁one	-5.63492
v	-5.66888
re	-5.66913
▁good	-5.68838
ch	-5.69888
ck	-5.70939
▁see	-5.72081
it	-5.72456
▁re	-5.72867
▁b	-5.76021
an	-5.78457
th	-5.78569
▁look	-5.79863
▁g	-5.80106
▁think	-5.82006
on	-5.82865
▁hey	-5.85644
en	-5.86403
▁okay	-5.88334
▁l	-5.89768
▁us	-5.91271
▁yes	-5.91634
▁f	-5.92987
▁st	-5.93563
▁want	-5.93703
▁man	-5.94507
▁de	-5.94871
ce	-5.95923
▁back	-5.98031
h	-5.98459
ur	-5.98625
▁c	-5.99261
at	-5.99682
es	-5.99833
▁gon	-6.00284
▁co	-6.00644
ke	-6.01491
st	-6.01633
▁time	-6.02244
▁t	-6.0384
▁take	-6.07717
▁say	-6.0828
▁going	-6.09418
▁ma	-6.09495
ri	-6.10494
ie	-6.11253
▁hes	-6.11302
ve	-6.12061
▁ill	-6.12647
ent	-6.1317
se	-6.13507
il	-6.14153
▁pa	-6.17032
▁cant	-6.17195
el	-6.17973
ter	-6.20351
ne	-6.22521
ra	-6.22545
li	-6.30425
▁tell	-6.31954
▁really	-6.3204
▁w	-6.3211
▁love	-6.33388
ic	-6.33523
▁h	-6.34449
▁mean	-6.34705
▁could	-6.35375
▁e	-6.35793
▁lets	-6.35875
▁way	-6.35889
▁in	-6.35959
un	-6.36704
sh	-6.36916
▁bo	-6.37122
▁need	-6.37137
▁o	-6.39868
▁be	-6.40225
▁make	-6.41244
lo	-6.41395
▁little	-6.42614
▁never	-6.43415
▁ta	-6.43542
▁something	-6.44087
▁sp	-6.44432
▁let	-6.45329
▁ca	-6.45424
▁would	-6.4547
la	-6.4556
▁wait	-6.45592
ion	-6.46105
▁po	-6.46319
▁sh	-6.46834
▁p	-6.4727
ro	-6.47836
ver	-6.48055
▁mr	-6.48327
te	-6.48659
▁ra	-6.49221
▁thank	-6.50075
▁mo	-6.51715
ow	-6.52572
▁k	-6.52924
▁ho	-6.54394
z	-6.54406
ate	-6.54895
▁ha	-6.55226
▁ro	-6.55471
▁work	-6.55573
▁whats	-6.58109
▁please	-6.58419
▁day	-6.59082
▁so	-6.59302
▁ive	-6.60035
▁sorry	-6.60041
▁di	-6.60376
x	-6.60393
▁give	-6.60573
▁tr	-6.60579
ation	-6.606
▁v	-6.61257
▁ba	-6.62991
me	-6.63314
▁ex	-6.63765
▁play	-6.64605
▁didnt	-6.6494
et	-6.65056
▁hi	-6.65383
▁car	-6.65564
▁sir	-6.665
▁call	-6.66998
▁la	-6.67807
oo	-6.67903
ry	-6.6908
▁theres	-6.69979
est	-6.70287
▁da	-6.70991
▁con	-6.7203
end	-6.73031
am	-6.74024
um	-6.74081
▁lo	-6.74109
ul	-6.74272
▁boy	-6.74717
▁th	-6.75016
▁great	-6.75159
▁su	-6.75502
▁sure	-6.75921
▁thing	-6.76428
▁he	-6.76778
▁help	-6.76818
ge	-6.77555
▁stop	-6.78915
▁two	-6.79164
ight	-6.79409
ut	-6.79728
▁mar	-6.79846
▁m	-6.799
▁even	-6.80222
ant	-6.81661
▁cr	-6.82273
▁to	-6.83329
▁wh	-6.83545
ma	-6.83924
us	-6.84349
▁said	-6.84803
▁i	-6.84971
age	-6.85134
▁miss	-6.85501
pe	-6.8631
ad	-6.86313
▁new	-6.8678
ol	-6.88471
▁much	-6.89257
▁theyre	-6.90864
▁night	-6.91477
▁sc	-6.91775
▁gr	-6.91999
▁al	-6.92034
▁big	-6.92095
ng	-6.92419
▁jo	-6.92445
▁dad	-6.92597
▁me	-6.92847
▁home	-6.93189
ies	-6.93754
▁uh	-6.93914
▁un	-6.94122
vi	-6.94448
▁must	-6.94954
▁mi	-6.95455
id	-6.95533
▁no	-6.95799
▁feel	-6.95912
ud	-6.97525
▁keep	-6.98088
▁first	-6.98088
ive	-6.99374
▁pro	-6.996
▁guys	-7.00196
▁life	-7.00675
man	-7.00688
▁nothing	-7.01325
per	-7.01515
▁people	-7.02145
im	-7.02173
▁te	-7.02176
▁find	-7.02514
ment	-7.02538
j	-7.04157
and	-7.04427
▁name	-7.05223
▁wa	-7.05663
▁fl	-7.05981
▁ti	-7.0615
▁listen	-7.06378
▁maybe	-7.06413
tion	-7.07079
▁ever	-7.07082
▁away	-7.07183
▁pr	-7.07331
▁do	-7.0752
▁anything	-7.07593
▁put	-7.07721
▁better	-7.07952
na	-7.08365
if	-7.09197
▁god	-7.09293
▁sa	-7.09436
ist	-7.10295
▁thought	-7.10306
▁still	-7.11359
▁hand	-7.11376
co	-7.1139
▁long	-7.11875
▁id	-7.12116
ty	-7.12471
▁shes	-7.13242
▁nice	-7.13704
▁cha	-7.14654
ting	-7.15189
▁se	-7.15364
▁girl	-7.15605
▁pe	-7.15688
▁pi	-7.16055
▁li	-7.16176
▁old	-7.16419
▁believe	-7.16941
▁talk	-7.16998
▁win	-7.17023
▁around	-7.17174
▁mom	-7.17835
▁place	-7.17908
ard	-7.17915
▁le	-7.18189
▁always	-7.18296
▁ri	-7.18581
▁everything	-7.18689
▁last	-7.19265
▁fe	-7.19413
▁father	-7.20063
ee	-7.20687
▁dr	-7.20818
ph	-7.20909
▁du	-7.20925
▁baby	-7.2228
▁youve	-7.22878
▁stay	-7.22948
q	-7.22968
▁hold	-7.23004
ho	-7.23556
▁show	-7.23821
ta	-7.24504
▁ch	-7.24827
▁br	-7.25066
▁world	-7.25145
▁three	-7.25367
▁fr	-7.25701
▁real	-7.25955
▁friend	-7.25986
▁ask	-7.26573
▁ar	-7.267
▁minute	-7.27466
▁start	-7.27471
▁hello	-7.27682
▁kind	-7.27699
ance	-7.27994
ni	-7.28671
▁son	-7.28776
ide	-7.28995
▁em	-7.29347
able	-7.29634
▁turn	-7.30732
▁wont	-7.30954
▁ne	-7.32533
▁doesnt	-7.3295
▁things	-7.33432
▁vi	-7.33811
mp	-7.34267
▁isnt	-7.34313
▁an	-7.34613
▁part	-7.35022
▁sw	-7.35539
up	-7.35578
▁youll	-7.35694
▁years	-7.3589
▁told	-7.35894
▁fi	-7.36802
▁ru	-7.36903
▁may	-7.37136
▁bad	-7.37428
▁whoa	-7.38063
bb	-7.38499
mo	-7.38539
▁watch	-7.39241
▁for	-7.39275
▁ja	-7.39544
▁fine	-7.39594
ity	-7.39606
▁remember	-7.39712
▁huh	-7.39718
▁live	-7.40476
▁bar	-7.40922
▁every	-7.41322
▁house	-7.41919
▁plan	-7.42675
▁kill	-7.42919
▁hear	-7.43014
▁dis	-7.43122
▁move	-7.43132
▁run	-7.43236
ian	-7.4353
▁pu	-7.43644
▁guy	-7.43928
▁lot	-7.44036
ling	-7.4421
▁ready	-7.44886
▁je	-7.4491
▁coming	-7.45472
▁leave	-7.45937
▁made	-7.46076
ence	-7.47245
▁thanks	-7.47571
▁wrong	-7.48009
▁morning	-7.48799
▁understand	-7.49861
▁enough	-7.50396
▁best	-7.50503
▁hell	-7.51071
▁done	-7.51397
▁wi	-7.5148
▁left	-7.51491
gh	-7.51602
▁try	-7.51619
▁mother	-7.51755
▁happen	-7.52496
▁course	-7.53397
▁en	-7.54086
less	-7.5439
▁might	-7.55044
▁kids	-7.55509
▁gra	-7.55586
▁bra	-7.55596
▁head	-7.55623
▁next	-7.55634
▁sha	-7.56396
▁jack	-7.56598
▁talking	-7.56702
▁mind	-7.57678
▁job	-7.57981
▁ad	-7.58004
▁wan	-7.58073
▁today	-7.58501
▁honey	-7.58512
▁we	-7.5932
▁pre	-7.59699
▁ga	-7.60128
tic	-7.60324
ber	-7.60451
▁second	-7.6056
▁ah	-7.61255
▁care	-7.6173
ish	-7.61838
▁came	-7.62629
▁ya	-7.63116
▁game	-7.63164
▁eat	-7.63602
▁sit	-7.6401
ca	-7.64169
▁meet	-7.64252
ha	-7.6486
ful	-7.64877
▁comp	-7.64901
ous	-7.64932
ness	-7.65023
▁ni	-7.65204
▁excuse	-7.65431
▁grand	-7.65631
old	-7.65701
▁school	-7.66058
▁dream	-7.6606
▁another	-7.66372
▁hard	-7.67028
▁use	-7.67147
▁fight	-7.67663
▁close	-7.67666
▁che	-7.68175
▁ok	-7.68267
▁weve	-7.68872
ize	-7.71189
▁ju	-7.71322
▁coach	-7.71565
▁men	-7.71863
▁guess	-7.71876
▁tonight	-7.7188
▁bl	-7.72058
▁door	-7.7218
ress	-7.72222
▁set	-7.72613
one	-7.7297
▁eye	-7.73155
▁george	-7.73215
ba	-7.73816
▁everybody	-7.73892
▁getting	-7.74577
▁far	-7.74638
▁war	-7.74966
▁happened	-7.75004
▁room	-7.75259
▁open	-7.75275
▁family	-7.75604
▁bring	-7.75703
▁hope	-7.75775
▁idea	-7.76403
▁brother	-7.76648
▁whos	-7.77225
▁together	-7.77346
▁money	-7.77359
▁king	-7.77806
▁bit	-7.78153
▁end	-7.782
▁cut	-7.78336
▁aint	-7.78879
▁walk	-7.79135
▁team	-7.79408
▁mu	-7.79413
▁pretty	-7.7948
▁whole	-7.79499
▁looking	-7.8002
ound	-7.80225
▁cl	-7.8023
▁late	-7.80289
▁trying	-7.80479
▁tomorrow	-7.80924
▁matter	-7.80946
ated	-7.81004
ore	-7.81271
▁word	-7.81319
▁z	-7.81486
▁change	-7.82075
▁dead	-7.82078
▁app	-7.82291
▁wasnt	-7.82394
▁high	-7.82992
▁heard	-7.83065
▁stand	-7.83398
▁smurf	-7.83507
▁woman	-7.83512
▁yet	-7.83545
mon	-7.83559
▁wouldnt	-7.83577
que	-7.83709
▁sea	-7.838
▁found	-7.85301
▁week	-7.85405
▁they	-7.86242
▁dear	-7.86452
ical	-7.86654
be	-7.86862
▁saw	-7.87098
▁wanted	-7.87273
ton	-7.8738
▁free	-7.8753
▁power	-7.87728
ward	-7.87989
▁speak	-7.88098
nny	-7.8858
time	-7.88705
▁four	-7.88903
▁fire	-7.88909
▁else	-7.89692
▁water	-7.89801
▁knew	-7.90477
▁kid	-7.915
▁worry	-7.91687
▁everyone	-7.91774
▁face	-7.92115
ah	-7.92397
▁seen	-7.92466
▁easy	-7.92502
▁fast	-7.92969
▁per	-7.93352
▁five	-7.93612
▁without	-7.93733
▁star	-7.94014
▁break	-7.94564
▁check	-7.94603
▁fun	-7.94674
▁laugh	-7.94745
ue	-7.95608
▁where	-7.95912
▁light	-7.963
▁chi	-7.96419
▁true	-7.96444
▁hour	-7.9647
▁shall	-7.96534
▁someone	-7.96674
▁hit	-7.96843
▁qua	-7.97105
▁bro	-7.97236
▁ass	-7.97986
▁rock	-7.9809
▁lost	-7.98704
▁pick	-7.98767
▁crazy	-7.98829
▁beautiful	-7.99266
▁heart	-7.99423
▁terr	-7.99496
▁children	-7.99708
▁since	-7.99735
▁alone	-7.99864
ade	-8.00117
▁sound	-8.00391
ture	-8.00581
▁cause	-8.00634
▁dog	-8.00743
▁perfect	-8.01032
▁act	-8.01153
▁happy	-8.01479
▁pass	-8.0154
out	-8.01782
▁havent	-8.02833
▁welcome	-8.03284
▁rest	-8.04003
ction	-8.04195
▁actually	-8.042
▁save	-8.04936
▁problem	-8.05124
▁fly	-8.05514
▁number	-8.05589
▁clear	-8.05613
▁year	-8.0566
▁went	-8.05967
ible	-8.05983
▁music	-8.06087
▁inter	-8.0639
▁ball	-8.07169
ious	-8.07274
▁arm	-8.07289
▁wow	-8.07398
▁cla	-8.07423
▁stuff	-8.07675
▁hot	-8.07728
▁read	-8.07859
▁wish	-8.08103
▁lucky	-8.09214
▁ow	-8.0946
off	-8.09543
▁dance	-8.09909
▁forget	-8.10369
▁sign	-8.10418
▁laughing	-8.10643
▁already	-8.10853
▁chance	-8.11024
▁business	-8.11346
▁person	-8.11366
▁cool	-8.11772
▁couldnt	-8.11942
▁super	-8.12274
▁afraid	-8.12338
▁youd	-8.12396
▁cur	-8.12692
▁hate	-8.13125
▁bus	-8.13135
▁somebody	-8.13341
▁mil	-8.13406
ign	-8.13504
▁lose	-8.13651
▁line	-8.13726
▁hurt	-8.13879
▁soon	-8.13881
▁follow	-8.14353
▁took	-8.14379
▁six	-8.14386
▁bye	-8.1456
▁sleep	-8.14865
▁charlie	-8.15376
▁young	-8.15893
▁mess	-8.16348
▁safe	-8.16491
▁ear	-8.16703
▁question	-8.17454
▁quite	-8.17981
▁pl	-8.18164
▁bank	-8.18553
▁step	-8.18685
▁up	-8.18844
▁side	-8.19905
▁horse	-8.20145
▁pull	-8.20533
▁office	-8.20655
▁scream	-8.20656
▁shut	-8.20842
▁beg	-8.21078
▁hmm	-8.21238
▁probably	-8.21744
▁sweet	-8.21753
▁hang	-8.21792
▁quick	-8.22294
▁trouble	-8.22294
▁touch	-8.22306
▁beat	-8.22422
▁land	-8.22764
▁supposed	-8.22913
▁blue	-8.23509
▁ybi	-8.23967
▁later	-8.24431
▁grow	-8.24509
▁point	-8.24621
▁learn	-8.25101
zz	-8.25309
▁blow	-8.25353
▁exactly	-8.25656
▁anyway	-8.27381
▁anyone	-8.27963
▁field	-8.27968
▁inside	-8.27987
▁promise	-8.28547
▁order	-8.28548
▁ring	-8.28674
form	-8.29609
▁continue	-8.29726
▁mine	-8.29736
▁taking	-8.29774
▁john	-8.29936
▁juli	-8.30098
▁bear	-8.30621
aff	-8.30949
▁lead	-8.31434
▁almost	-8.31523
▁ahead	-8.31526
▁space	-8.31544
▁under	-8.31571
▁ago	-8.31713
▁air	-8.31858
▁special	-8.32128
▁hurry	-8.32131
▁moment	-8.32165
▁gun	-8.3268
▁daddy	-8.32811
▁wonder	-8.33303
▁nobody	-8.33352
▁sighs	-8.33353
ship	-8.33375
▁count	-8.3394
▁train	-8.34032
▁arent	-8.34705
▁full	-8.34711
▁drive	-8.35002
▁human	-8.35224
▁wife	-8.35241
uff	-8.35519
▁different	-8.35844
▁drink	-8.35855
▁book	-8.35891
▁goodbye	-8.36478
▁half	-8.37781
▁whoo	-8.37799
▁fall	-8.37889
▁ship	-8.379
▁wear	-8.38007
▁fair	-8.38407
▁hair	-8.38531
way	-8.38872
▁serious	-8.39058
▁city	-8.39169
▁lord	-8.39196
▁earth	-8.3945
▁whatever	-8.39704
▁ride	-8.40148
▁food	-8.40384
▁kiss	-8.40384
▁secret	-8.41023
▁least	-8.41704
▁funny	-8.41717
▁gasps	-8.42367
▁feet	-8.42943
▁catch	-8.43087
▁lady	-8.43162
▁sister	-8.43741
▁town	-8.43756
▁story	-8.43822
▁body	-8.43855
▁shot	-8.44564
▁gave	-8.45034
▁phone	-8.45096
▁shoot	-8.45125
▁important	-8.45786
▁park	-8.45854
▁butt	-8.45993
▁chuckles	-8.46485
▁ladies	-8.47201
▁married	-8.47205
▁camp	-8.47792
▁finish	-8.47906
▁heres	-8.48039
▁class	-8.48332
▁though	-8.48402
▁careful	-8.48735
▁anybody	-8.49332
▁front	-8.4935
▁fish	-8.49853
▁wonderful	-8.50114
▁parents	-8.50788
▁also	-8.51057
▁throw	-8.51535
▁trust	-8.51554
▁running	-8.5157
▁damn	-8.51574
▁dress	-8.51605
room	-8.51996
▁gentlemen	-8.52263
▁magic	-8.52406
▁dinner	-8.53762
▁ducks	-8.53826
▁build	-8.54519
▁strong	-8.54522
▁drop	-8.54558
▁perhaps	-8.55282
▁answer	-8.55283
▁christmas	-8.55285
▁making	-8.55367
▁weird	-8.56052
▁figure	-8.56053
▁reason	-8.56054
▁command	-8.56827
▁teach	-8.56847
▁clean	-8.5686
▁jump	-8.57004
▁expect	-8.57608
▁along	-8.57629
▁behind	-8.58395
▁child	-8.5841
down	-8.589
▁daughter	-8.59189
▁complete	-8.59192
▁couple	-8.59194
▁ooh	-8.59228
▁country	-8.59361
▁scott	-8.60798
▁grunts	-8.61609
▁champion	-8.62428
▁smell	-8.63276
▁luck	-8.63599
▁harry	-8.64103
▁north	-8.64104
▁general	-8.64928
▁ernie	-8.6493
▁ski	-8.65419
▁breath	-8.65776
▁radio	-8.65777
▁strange	-8.65777
▁stick	-8.65864
▁deep	-8.66111
▁brought	-8.6663
▁control	-8.66631
▁fact	-8.66632
▁bird	-8.66633
▁wolf	-8.66635
▁slow	-8.66671
▁bill	-8.6792
▁husband	-8.68362
▁captain	-8.68362
▁yell	-8.68367
▁glad	-8.68409
▁destroy	-8.69239
▁straight	-8.69243
▁piece	-8.69263
▁kidding	-8.69281
▁surprise	-8.70124
▁black	-8.70146
▁america	-8.71017
▁voice	-8.71017
▁stupid	-8.71018
▁fool	-8.71057
▁white	-8.71065
▁report	-8.71924
▁short	-8.72054
▁yo	-8.7275
▁knock	-8.72827
▁blood	-8.72832
▁buy	-8.73055
▁finally	-8.73745
▁women	-8.73745
▁round	-8.73782
▁dark	-8.73787
▁jim	-8.74674
▁anymore	-8.75605
▁forgot	-8.75605
▁victor	-8.75605
▁crowd	-8.75618
▁kick	-8.75654
▁death	-8.75677
▁seven	-8.7658
▁mmm	-8.76596
▁outside	-8.77501
▁itll	-8.77621
▁return	-8.78463
▁buzz	-8.78467
▁club	-8.78479
▁cheering	-8.78506
▁certain	-8.79433
▁street	-8.79444
▁bomb	-8.79619
▁tried	-8.79634
▁president	-8.80413
▁lunch	-8.80425
▁guard	-8.80427
▁protect	-8.80457
▁absolutely	-8.81403
▁egg	-8.81464
▁sick	-8.81593
▁shell	-8.81632
▁queen	-8.82409
▁worth	-8.82423
▁present	-8.82448
▁small	-8.83434
▁papa	-8.83577
▁amazing	-8.84434
▁michael	-8.84434
▁football	-8.84434
▁tough	-8.84438
▁frank	-8.84442
▁uncle	-8.84462
▁either	-8.85465
▁belong	-8.85467
▁honor	-8.85539
▁leaving	-8.86507
▁english	-8.87559
▁become	-8.87561
▁darling	-8.87565
▁somewhere	-8.88623
▁island	-8.88623
▁forever	-8.88634
▁quiet	-8.89698
▁months	-8.89701
▁window	-8.8971
▁write	-8.8978
▁doctor	-8.90786
▁fault	-8.90786
▁sense	-8.9084
▁groans	-8.91886
▁hungry	-8.92995
▁buddy	-8.92996
▁buck	-8.93065
▁shouldnt	-8.94119
▁monster	-8.94121
▁entire	-8.95256
▁steve	-8.95347
▁east	-8.95388
▁suppose	-8.96265
▁summer	-8.96406
▁forgive	-8.96408
▁draw	-8.96432
▁vince	-8.96467
▁dangerous	-8.97567
▁attack	-8.97568
▁system	-8.97568
▁machine	-8.97569
▁truth	-8.98775
▁wild	-8.9881
▁attention	-8.99934
▁police	-8.99941
▁kelly	-8.99946
▁enjoy	-9.01139
▁animal	-9.01142
▁outta	-9.01143
▁spirit	-9.0236
▁grunting	-9.0236
▁future	-9.02365
▁york	-9.02367
▁charge	-9.02379
▁brown	-9.02381
▁angel	-9.02401
▁foot	-9.02457
▁marshall	-9.03593
▁simple	-9.03594
▁engine	-9.03594
▁william	-9.04843
▁picture	-9.04846
▁mistake	-9.06109
▁georgie	-9.07391
▁offer	-9.07408
▁bryce	-9.07423
▁possible	-9.08691
▁giving	-9.08692
▁penguin	-9.10006
▁third	-9.10007
▁opera	-9.10071
▁afternoon	-9.11339
▁favorite	-9.11339
▁college	-9.11339
▁clumsy	-9.11339
▁richard	-9.11341
▁except	-9.11342
▁bough	-9.11346
▁thousand	-9.12691
▁middle	-9.12691
▁relax	-9.12697
▁incredibl	-9.1406
▁explain	-9.1406
▁london	-9.14061
▁direct	-9.14344
▁imagine	-9.1545
▁robot	-9.15452
▁smart	-9.15456
▁french	-9.15456
▁phil	-9.15476
▁accident	-9.16858
▁definitely	-9.16858
▁defense	-9.16858
▁agree	-9.1688
▁paddington	-9.18286
▁caught	-9.18286
▁pleasure	-9.19735
▁jacques	-9.19735
▁freak	-9.19737
▁smurfette	-9.19737
▁record	-9.19737
▁others	-9.19738
▁christ	-9.19741
struct	-9.19861
▁prepare	-9.21214
▁invite	-9.21234
▁yesterday	-9.22698
▁chicken	-9.22702
▁awesome	-9.24214
▁program	-9.24214
▁service	-9.25752
▁escape	-9.25752
