<unk>	0
<s>	0
</s>	0
s	-3.3075
▁im	-4.54277
▁dont	-4.60435
▁know	-4.62467
▁get	-4.79861
▁go	-4.92282
▁right	-4.94525
▁like	-4.98419
▁got	-4.99761
▁come	-5.07329
▁youre	-5.08079
ing	-5.10205
▁yeah	-5.12837
▁oh	-5.16634
ed	-5.19213
▁one	-5.20338
▁well	-5.20384
▁thats	-5.25383
▁na	-5.28236
▁good	-5.39458
▁want	-5.4083
▁see	-5.44766
▁think	-5.48566
▁okay	-5.48825
▁man	-5.56143
d	-5.57025
▁gon	-5.58632
▁hey	-5.59765
▁back	-5.60105
▁look	-5.65864
▁hes	-5.68167
▁going	-5.70005
▁us	-5.71038
▁time	-5.71388
▁take	-5.72184
▁yes	-5.73228
▁ill	-5.79642
y	-5.81388
er	-5.86525
▁cant	-5.87725
▁tell	-5.88041
▁say	-5.90171
▁l	-5.91276
▁need	-5.94663
▁would	-5.95016
▁	-5.98361
▁way	-6.01937
▁could	-6.04891
▁make	-6.05562
▁really	-6.05767
▁didnt	-6.0629
e	-6.06464
▁something	-6.10931
▁let	-6.1122
▁whats	-6.11694
▁never	-6.11922
▁mean	-6.14607
▁little	-6.1514
▁lets	-6.15372
in	-6.16056
▁sir	-6.17968
▁give	-6.18219
t	-6.18269
▁please	-6.19324
▁thank	-6.19639
▁theres	-6.2417
▁sorry	-6.25828
▁love	-6.2661
▁two	-6.27352
a	-6.2748
o	-6.27511
▁ive	-6.27694
▁mr	-6.29581
▁people	-6.30632
ly	-6.3363
▁fucking	-6.34211
▁said	-6.35209
▁fuck	-6.36077
▁thing	-6.37527
▁god	-6.40162
▁help	-6.41765
▁shit	-6.43015
▁sure	-6.44636
r	-6.45093
▁uh	-6.46161
▁much	-6.48566
▁wait	-6.49876
▁stop	-6.51667
▁call	-6.52088
▁even	-6.52105
▁find	-6.52306
▁theyre	-6.52375
▁day	-6.5265
▁put	-6.53995
▁keep	-6.55363
▁first	-6.563
▁life	-6.57497
▁anything	-6.5864
▁work	-6.58698
▁nothing	-6.59059
▁home	-6.59074
p	-6.59197
▁ta	-6.6007
n	-6.60623
▁guys	-6.61548
▁night	-6.65671
▁still	-6.65914
▁new	-6.65939
▁shes	-6.65948
▁great	-6.67643
▁talk	-6.68138
▁name	-6.68687
▁money	-6.69095
▁away	-6.69509
▁maybe	-6.70326
▁ever	-6.72417
▁car	-6.73355
▁better	-6.73971
▁thought	-6.74136
▁around	-6.7573
▁guy	-6.75925
▁must	-6.76786
▁always	-6.78021
g	-6.78414
es	-6.79168
▁last	-6.79549
▁long	-6.80042
i	-6.80182
▁hell	-6.80639
▁big	-6.81174
▁leave	-6.82312
▁everything	-6.82659
▁stay	-6.83272
▁old	-6.84268
▁place	-6.84311
▁told	-6.84647
c	-6.86978
▁youve	-6.88071
▁wan	-6.8911
▁hi	-6.89186
▁feel	-6.89586
▁id	-6.896
▁boy	-6.90268
▁years	-6.90413
▁things	-6.90577
l	-6.91099
▁nice	-6.91212
al	-6.91479
▁kill	-6.91651
▁listen	-6.91726
▁move	-6.92041
▁every	-6.93492
▁wont	-6.93599
▁hear	-6.94437
▁believe	-6.94722
▁three	-6.95559
▁bad	-6.95904
▁coming	-6.96919
▁youll	-6.98495
▁lot	-6.98768
▁show	-6.98919
▁done	-6.99129
▁dad	-6.99533
▁world	-6.99656
▁hello	-7.00783
▁made	-7.0089
▁house	-7.00988
▁father	-7.01075
▁understand	-7.01105
▁kind	-7.01279
▁left	-7.01595
▁girl	-7.01695
▁son	-7.01768
▁doesnt	-7.02014
▁hold	-7.02418
m	-7.04248
▁real	-7.05135
▁remember	-7.05663
▁fine	-7.06008
▁care	-7.06907
▁baby	-7.0706
▁door	-7.07133
▁aint	-7.07428
▁huh	-7.07434
▁run	-7.07948
▁dead	-7.09319
▁de	-7.10938
▁might	-7.13465
▁mother	-7.13507
▁enough	-7.137
▁course	-7.13781
u	-7.14271
▁thanks	-7.15031
▁music	-7.16054
▁friend	-7.16162
▁another	-7.16503
▁family	-7.17073
▁wrong	-7.17482
▁job	-7.18004
le	-7.1802
▁mind	-7.18429
▁best	-7.18751
▁ask	-7.18992
h	-7.19463
▁isnt	-7.19554
▁may	-7.19717
▁talking	-7.19723
b	-7.19958
▁ready	-7.20221
▁today	-7.20648
▁getting	-7.208
▁men	-7.22505
▁someone	-7.22613
▁ok	-7.23507
▁looking	-7.23753
▁came	-7.24195
▁morning	-7.24538
▁wanted	-7.24811
▁else	-7.25515
▁found	-7.25859
▁play	-7.25971
▁bring	-7.27207
▁happened	-7.27605
▁ah	-7.27776
▁kid	-7.2791
▁open	-7.28576
▁head	-7.28845
▁try	-7.29714
▁mom	-7.30481
▁wasnt	-7.30514
▁next	-7.30607
▁watch	-7.30971
▁hand	-7.31318
▁trying	-7.31406
▁um	-7.32411
▁seen	-7.32996
▁em	-7.33135
▁wouldnt	-7.33571
▁hard	-7.33913
ers	-7.3416
re	-7.35086
▁phone	-7.35122
an	-7.35222
▁room	-7.35616
▁live	-7.36328
▁weve	-7.36383
or	-7.36656
▁turn	-7.36979
▁tonight	-7.37277
▁woman	-7.37484
▁cause	-7.3811
▁un	-7.38303
▁saw	-7.38397
▁guess	-7.38484
▁miss	-7.38885
▁whole	-7.40016
f	-7.40441
▁many	-7.40821
▁knew	-7.41148
▁heard	-7.41332
▁end	-7.42065
▁start	-7.42071
it	-7.42087
▁meet	-7.42442
▁together	-7.4293
▁die	-7.43165
en	-7.43552
▁pretty	-7.43567
▁playing	-7.43637
▁went	-7.43687
▁school	-7.43894
k	-7.44345
▁face	-7.44883
man	-7.44914
▁hope	-7.46596
ri	-7.46603
▁without	-7.46812
▁gone	-7.46814
ion	-7.47334
▁whoa	-7.47594
▁la	-7.48052
ic	-7.4863
▁re	-7.48923
▁excuse	-7.48923
ie	-7.49417
z	-7.49645
ra	-7.50966
▁brother	-7.5149
▁idea	-7.51835
▁shut	-7.51859
▁hit	-7.51972
▁took	-7.5247
▁bit	-7.52574
▁whos	-7.52715
▁five	-7.5309
▁everybody	-7.53139
▁saying	-7.53851
▁business	-7.53873
▁check	-7.54154
▁matter	-7.54611
▁pay	-7.54901
▁problem	-7.55013
ar	-7.55174
▁fire	-7.55436
▁already	-7.56019
▁yet	-7.56042
▁friends	-7.56133
on	-7.56985
▁use	-7.5705
▁wife	-7.57112
▁damn	-7.57477
▁happy	-7.57481
▁four	-7.57695
▁ass	-7.58415
▁sit	-7.58709
▁fight	-7.59209
▁everyone	-7.59236
▁second	-7.59555
ro	-7.59603
▁gun	-7.59669
▁youd	-7.59858
il	-7.60717
▁police	-7.60776
▁called	-7.6082
us	-7.61276
▁lost	-7.61898
▁tomorrow	-7.62108
▁alone	-7.62373
▁deal	-7.62438
▁used	-7.62475
▁minute	-7.63476
▁close	-7.63639
▁killed	-7.63743
▁heart	-7.63963
▁lm	-7.64148
▁havent	-7.64179
▁days	-7.64222
▁line	-7.64245
▁crazy	-7.64441
▁case	-7.64554
ch	-7.6457
▁easy	-7.65629
ation	-7.6566
▁cut	-7.65865
▁hands	-7.6607
is	-7.66101
th	-7.66263
▁anyone	-7.66295
▁kids	-7.66704
▁beautiful	-7.6683
▁somebody	-7.67099
v	-7.67519
▁true	-7.68096
▁ago	-7.68265
▁stuff	-7.68595
▁city	-7.68625
▁nobody	-7.69101
▁ha	-7.69524
▁year	-7.69725
▁part	-7.69736
▁far	-7.70279
▁forget	-7.70387
▁actually	-7.70537
▁dog	-7.7078
la	-7.70819
▁worry	-7.70943
▁since	-7.7123
▁couldnt	-7.7124
▁black	-7.71789
▁point	-7.71861
▁mine	-7.72147
▁minutes	-7.72558
▁water	-7.72806
▁change	-7.72834
▁says	-7.73094
▁stand	-7.73154
▁shot	-7.73213
▁young	-7.73504
▁walk	-7.74096
▁jesus	-7.74216
▁wheres	-7.74487
▁a	-7.75164
▁chance	-7.75384
▁hurt	-7.75468
▁chuckles	-7.75536
▁side	-7.75878
▁eat	-7.75932
est	-7.76522
▁set	-7.76786
▁power	-7.76829
▁rest	-7.77852
▁inside	-7.78808
▁probably	-7.78953
▁game	-7.78986
▁read	-7.79151
▁c	-7.79274
▁light	-7.7965
▁town	-7.7975
▁word	-7.80003
el	-7.80062
▁captain	-7.80174
▁soon	-7.80236
▁drink	-7.80434
▁sighs	-7.81242
▁later	-7.81315
▁high	-7.81354
▁six	-7.81694
▁cool	-7.81737
▁alright	-7.82507
▁working	-7.82663
▁exactly	-7.82679
at	-7.82881
▁fun	-7.82899
▁late	-7.83791
▁eyes	-7.83887
▁wish	-7.84102
▁trust	-7.84188
▁happen	-7.8453
▁half	-7.85035
te	-7.85498
▁whatever	-7.85858
▁met	-7.85891
▁taking	-7.85907
▁break	-7.8591
▁g	-7.86011
▁st	-7.86225
▁clear	-7.86256
▁looks	-7.86259
▁pick	-7.86498
▁death	-7.8651
▁supposed	-7.87159
▁sleep	-7.87393
▁number	-7.8745
▁girls	-7.87593
▁lord	-7.87712
▁shoot	-7.87728
▁speak	-7.881
▁k	-7.88118
▁anyway	-7.88159
▁children	-7.88159
ies	-7.88304
▁fuckin	-7.88343
▁john	-7.88473
▁welcome	-7.88492
ment	-7.88691
▁frank	-7.8878
▁gave	-7.88849
▁white	-7.89501
▁laughing	-7.89628
w	-7.89825
▁dr	-7.90094
able	-7.90124
▁ahead	-7.90701
▁e	-7.90863
▁hate	-7.90868
▁trouble	-7.91197
▁war	-7.91349
ur	-7.91362
▁free	-7.91444
▁week	-7.91595
▁goes	-7.91705
st	-7.92004
▁v	-7.92145
▁red	-7.92404
▁jack	-7.92431
▁though	-7.92697
▁ya	-7.92793
▁making	-7.92958
▁bitch	-7.93056
▁story	-7.93279
co	-7.93868
▁moment	-7.9407
▁hmm	-7.94456
▁behind	-7.9504
▁team	-7.95263
ting	-7.95485
▁boys	-7.96044
▁answer	-7.96714
▁ten	-7.96779
ist	-7.96871
▁drive	-7.96975
na	-7.97059
▁thinking	-7.97214
▁send	-7.97244
▁anybody	-7.97383
ll	-7.97517
▁n	-7.97567
▁stupid	-7.98483
ent	-7.98554
▁king	-7.98861
▁afraid	-7.99223
ce	-7.99358
▁voice	-7.99595
▁b	-7.99689
▁s	-7.99726
▁truth	-7.99972
▁goddamn	-8.00156
id	-8.00198
▁party	-8.00374
ul	-8.00436
▁important	-8.00531
▁alive	-8.00557
▁funny	-8.011
▁person	-8.0119
▁wants	-8.01264
▁save	-8.01312
▁blood	-8.01369
un	-8.01455
ta	-8.0149
▁tony	-8.01524
▁shall	-8.01688
▁grunts	-8.01786
▁bet	-8.01997
▁honey	-8.02058
▁hurry	-8.02239
▁full	-8.02334
▁buy	-8.0248
▁p	-8.0275
▁front	-8.0301
ter	-8.03046
▁question	-8.03124
▁da	-8.03297
▁different	-8.03394
▁safe	-8.03415
▁th	-8.038
▁almost	-8.03977
▁bill	-8.04043
et	-8.04067
▁win	-8.04095
▁miles	-8.04357
▁outside	-8.0437
▁arent	-8.04382
▁hot	-8.04688
ling	-8.04885
▁country	-8.04976
▁waiting	-8.0521
ty	-8.05548
▁least	-8.05745
to	-8.06442
▁h	-8.06752
▁top	-8.07055
▁in	-8.07202
▁j	-8.07245
▁street	-8.07456
▁boss	-8.075
▁bar	-8.07519
▁also	-8.07551
▁joe	-8.07755
▁doctor	-8.07957
▁asked	-8.08271
▁anymore	-8.08355
▁pull	-8.08435
se	-8.08452
▁con	-8.0851
▁r	-8.08745
ive	-8.08856
▁dear	-8.08935
▁book	-8.08984
up	-8.09008
▁bed	-8.0935
▁promise	-8.09416
ne	-8.09581
▁reason	-8.09753
▁lady	-8.10062
▁lose	-8.10186
▁couple	-8.10417
▁started	-8.10675
ma	-8.11027
▁catch	-8.11302
▁theyll	-8.11455
ity	-8.11636
▁hang	-8.1177
▁million	-8.12094
ate	-8.12395
▁quite	-8.12636
nt	-8.12681
▁christ	-8.13038
▁fast	-8.13114
▁wow	-8.13376
ve	-8.1339
▁clean	-8.13499
▁land	-8.13549
▁master	-8.13588
ine	-8.1377
sh	-8.1392
▁tried	-8.13946
▁makes	-8.1399
▁touch	-8.14148
▁gentlemen	-8.14655
▁office	-8.14907
▁sign	-8.15087
▁control	-8.15095
▁air	-8.15386
▁charlie	-8.15526
li	-8.15868
▁hours	-8.15926
▁ooh	-8.15966
▁special	-8.16403
▁beat	-8.16714
▁continues	-8.16766
▁christmas	-8.17067
ry	-8.17537
ck	-8.17691
im	-8.17877
▁means	-8.18121
▁along	-8.18409
▁perfect	-8.18454
▁follow	-8.1884
▁daddy	-8.18909
▁dance	-8.18915
▁mo	-8.19055
▁ball	-8.19532
▁mrs	-8.19571
▁plan	-8.19691
▁d	-8.20104
▁body	-8.20233
▁daughter	-8.20377
▁po	-8.20626
▁henry	-8.21143
▁screaming	-8.21277
ha	-8.21305
▁telling	-8.21464
▁ho	-8.21673
▁running	-8.22082
▁itll	-8.22306
▁sometimes	-8.22321
▁brought	-8.22541
ant	-8.22633
▁husband	-8.2301
▁order	-8.23423
▁ride	-8.23519
▁heres	-8.23557
▁paul	-8.23662
▁tom	-8.23717
▁human	-8.23749
▁mar	-8.23843
▁t	-8.24054
▁sound	-8.24228
▁times	-8.24393
▁food	-8.24434
▁step	-8.245
▁an	-8.2452
▁sick	-8.24716
▁grunting	-8.24978
▁laughs	-8.25053
▁sent	-8.25129
▁jimmy	-8.25157
▁sister	-8.25529
▁living	-8.25644
ol	-8.26129
▁fact	-8.26554
▁scared	-8.26682
▁news	-8.26723
▁months	-8.27078
me	-8.27096
▁dude	-8.27135
ff	-8.27164
▁al	-8.27167
▁past	-8.27264
▁taken	-8.27302
▁i	-8.27453
▁married	-8.2759
▁co	-8.27743
▁dream	-8.2821
▁eye	-8.28654
lo	-8.29042
as	-8.29297
▁slow	-8.29419
tion	-8.29473
▁sweet	-8.29517
▁york	-8.29589
▁child	-8.30083
▁drop	-8.30583
▁hair	-8.30895
▁yo	-8.30938
▁piece	-8.30939
▁blue	-8.31034
ia	-8.31139
▁till	-8.31171
am	-8.31323
▁hows	-8.31362
▁dinner	-8.31615
▁speaking	-8.31761
▁cop	-8.31899
▁hour	-8.32229
less	-8.32641
▁become	-8.32648
▁died	-8.32872
▁lts	-8.33416
▁seems	-8.33491
ton	-8.33899
▁train	-8.33915
▁murder	-8.33974
▁luck	-8.34004
▁peter	-8.34396
▁tv	-8.348
ian	-8.34832
▁either	-8.3501
▁secret	-8.3526
▁bank	-8.35311
▁vi	-8.35861
▁buddy	-8.36084
▁gasps	-8.36124
▁bell	-8.36272
▁straight	-8.3628
▁bye	-8.36348
▁feeling	-8.36374
▁f	-8.36379
▁pass	-8.36479
ge	-8.36523
▁fall	-8.36532
▁se	-8.36547
▁shouldnt	-8.36618
▁road	-8.36627
▁wake	-8.36631
▁ring	-8.36994
ness	-8.3702
▁officer	-8.37079
▁worth	-8.37165
▁parents	-8.3783
son	-8.3787
▁dark	-8.37994
▁lead	-8.38187
▁serious	-8.38349
▁goodbye	-8.38525
▁women	-8.38526
▁radio	-8.38526
▁rock	-8.3858
▁count	-8.3881
▁stick	-8.38827
▁feet	-8.38843
▁lives	-8.38937
▁cold	-8.39082
▁ladies	-8.39359
▁boat	-8.39663
▁table	-8.40263
▁throw	-8.40585
rs	-8.40626
▁cat	-8.41192
▁choice	-8.41315
per	-8.41835
▁leaving	-8.41884
▁sense	-8.41906
▁quick	-8.41998
▁song	-8.42057
j	-8.42465
▁quiet	-8.42568
ut	-8.42739
▁needs	-8.4287
▁mad	-8.42898
▁engine	-8.42905
da	-8.42913
▁act	-8.42933
▁lie	-8.43256
▁no	-8.43762
▁horse	-8.43814
▁machine	-8.43894
ted	-8.44179
▁gold	-8.44434
▁happens	-8.44509
▁company	-8.44767
▁james	-8.44804
▁cover	-8.4488
▁fair	-8.45087
▁relax	-8.45354
▁respect	-8.45354
▁short	-8.45356
▁sounds	-8.45611
▁calling	-8.45918
▁moving	-8.45953
▁roll	-8.45958
▁bag	-8.46182
▁ba	-8.4623
▁eight	-8.46254
▁none	-8.46277
▁learn	-8.46282
▁picture	-8.46565
▁protect	-8.46572
ir	-8.46615
▁sun	-8.46978
▁sam	-8.46994
no	-8.47102
▁pro	-8.47133
▁seat	-8.47468
▁asking	-8.47489
▁finish	-8.4749
x	-8.4766
▁wed	-8.47739
▁kidding	-8.47778
▁ground	-8.48041
▁mark	-8.4813
ts	-8.48572
▁general	-8.48648
▁glad	-8.48648
be	-8.4867
▁return	-8.48708
vi	-8.48722
▁poor	-8.49036
▁figure	-8.4919
▁pa	-8.49252
▁strong	-8.49282
▁somewhere	-8.49565
▁lucky	-8.49913
do	-8.50139
▁president	-8.50182
▁write	-8.50235
▁kiss	-8.50254
▁explain	-8.50491
▁small	-8.50522
▁truck	-8.50805
▁wear	-8.50887
▁fly	-8.50907
de	-8.50923
ance	-8.50947
▁law	-8.51269
▁lll	-8.51274
▁weeks	-8.51319
▁wall	-8.5138
▁smart	-8.5143
▁maam	-8.51433
▁present	-8.5174
▁window	-8.51751
ad	-8.51856
▁mike	-8.52085
▁hed	-8.52182
▁wonder	-8.52348
▁earth	-8.52388
▁panting	-8.52388
▁w	-8.52545
ful	-8.52605
▁fear	-8.52716
▁per	-8.52814
▁able	-8.52904
▁box	-8.52936
▁floor	-8.53018
▁watching	-8.53117
▁mouth	-8.53345
▁attack	-8.53409
he	-8.53414
land	-8.5361
▁sort	-8.53645
▁hide	-8.53785
▁born	-8.53988
▁mistake	-8.54151
▁smell	-8.5429
▁michael	-8.54606
▁race	-8.54653
▁dick	-8.54958
▁ship	-8.54963
▁less	-8.54992
▁record	-8.55065
▁seem	-8.55306
▁o	-8.55365
ster	-8.55598
▁future	-8.55907
▁hundred	-8.55907
▁crime	-8.55915
▁enjoy	-8.55963
um	-8.56505
▁seven	-8.5655
▁uncle	-8.56564
▁detective	-8.56569
mi	-8.56576
▁groans	-8.56705
▁perhaps	-8.56893
▁forever	-8.56898
▁asshole	-8.56907
▁calm	-8.56933
▁do	-8.57135
ca	-8.57177
▁building	-8.57182
▁fool	-8.57216
▁stone	-8.57315
▁careful	-8.57802
▁worked	-8.58192
▁theyve	-8.58225
▁laugh	-8.58424
▁bo	-8.58459
om	-8.58555
▁swear	-8.5856
os	-8.5886
▁others	-8.58897
▁rather	-8.58915
▁test	-8.59147
▁johnny	-8.59235
▁handle	-8.59332
▁du	-8.59433
▁dis	-8.59525
▁court	-8.59574
▁pain	-8.5959
▁pop	-8.59649
▁evening	-8.59899
▁fish	-8.6005
▁ow	-8.60102
▁movie	-8.60139
▁le	-8.60225
▁wonderful	-8.60314
▁date	-8.60417
▁hospital	-8.60598
bo	-8.60896
ig	-8.60913
▁so	-8.61029
▁coffee	-8.61286
▁fault	-8.61286
ni	-8.61363
▁questions	-8.61429
age	-8.61456
ous	-8.6151
▁suit	-8.6159
wa	-8.61617
ga	-8.61621
▁cash	-8.61657
▁expect	-8.6187
▁blow	-8.61885
▁roger	-8.61986
▁cell	-8.62032
out	-8.62064
les	-8.62149
▁mu	-8.62152
▁weird	-8.62328
tic	-8.62407
▁known	-8.62412
▁finally	-8.6244
▁green	-8.62678
▁club	-8.63033
▁mess	-8.63244
▁track	-8.63388
▁ex	-8.63495
▁possible	-8.63734
▁si	-8.63756
ish	-8.63917
▁sell	-8.63919
▁cops	-8.64005
▁mama	-8.64056
▁birthday	-8.64089
ot	-8.64214
▁state	-8.64338
▁rich	-8.64356
▁english	-8.64444
▁el	-8.64533
▁american	-8.64673
▁dangerous	-8.65172
▁harry	-8.65176
ley	-8.65394
▁meant	-8.65464
tter	-8.65519
▁cross	-8.65718
▁meeting	-8.65765
▁french	-8.6588
▁key	-8.66022
▁report	-8.66285
ke	-8.66557
▁prison	-8.66619
mp	-8.66645
▁words	-8.66657
ho	-8.66814
▁super	-8.67026
▁message	-8.67117
▁class	-8.67185
▁chief	-8.67338
▁motherfucker	-8.67482
▁force	-8.67708
▁shell	-8.6774
▁doc	-8.67828
ill	-8.67907
▁bullshit	-8.68075
▁camp	-8.68092
▁burn	-8.6826
▁jump	-8.68277
▁near	-8.6828
▁happening	-8.68336
▁star	-8.68361
▁judge	-8.6845
▁deep	-8.68729
▁que	-8.68798
▁aye	-8.68908
▁turned	-8.68991
bb	-8.69218
▁agent	-8.69227
▁fat	-8.69303
▁mmm	-8.69349
▁knock	-8.69538
▁broke	-8.69565
▁yall	-8.6964
▁holy	-8.69851
▁br	-8.69959
▁strange	-8.70286
▁tough	-8.70323
▁crowd	-8.70389
▁kick	-8.70546
▁honor	-8.7055
▁looked	-8.70601
pe	-8.70656
▁grand	-8.70663
▁north	-8.70696
▁private	-8.70696
▁system	-8.70696
▁south	-8.70703
▁park	-8.71195
▁station	-8.71196
▁cheering	-8.71334
▁longer	-8.71457
▁foot	-8.71503
▁rain	-8.71656
▁sad	-8.71687
▁across	-8.72226
▁service	-8.72226
▁island	-8.72227
▁loved	-8.72301
go	-8.72341
oo	-8.72362
time	-8.72699
▁jo	-8.7271
▁early	-8.728
▁america	-8.72809
▁round	-8.73
▁age	-8.73034
▁hotel	-8.73108
▁mary	-8.7312
▁peace	-8.73158
▁danny	-8.73403
ard	-8.73523
one	-8.73609
▁share	-8.73712
▁comes	-8.73783
▁heaven	-8.73787
▁surprise	-8.73796
▁paid	-8.73823
▁wind	-8.74015
▁felt	-8.74172
▁suppose	-8.7419
▁except	-8.7451
▁worse	-8.74565
▁shh	-8.74635
ary	-8.74912
▁fa	-8.74941
▁attention	-8.7496
▁push	-8.75008
▁mi	-8.75093
▁anywhere	-8.75357
▁chatter	-8.75572
▁ra	-8.75663
▁sing	-8.75867
▁carl	-8.76169
ba	-8.76208
▁month	-8.76219
▁forgive	-8.76561
▁security	-8.76566
▁ben	-8.766
▁be	-8.76719
▁out	-8.76722
mo	-8.76923
▁grow	-8.7702
▁board	-8.7708
▁singing	-8.77179
▁sha	-8.77318
▁sp	-8.77362
▁major	-8.77365
▁werent	-8.77365
▁terrible	-8.77366
▁absolutely	-8.77393
▁queen	-8.7749
▁screams	-8.7755
em	-8.77605
▁over	-8.77742
▁clothes	-8.77781
▁position	-8.77795
▁outta	-8.77808
▁tired	-8.77848
▁owe	-8.78106
▁join	-8.78176
▁kept	-8.78191
▁rat	-8.78283
▁busy	-8.78425
ick	-8.78529
▁pleasure	-8.7859
▁arm	-8.78653
▁totally	-8.78678
▁sitting	-8.78717
▁names	-8.78887
▁pre	-8.78956
ci	-8.79075
▁needed	-8.79178
▁ice	-8.79205
▁pal	-8.7922
▁paper	-8.79232
▁spirit	-8.79414
▁amazing	-8.79415
▁partner	-8.79452
▁copy	-8.79474
ver	-8.79524
▁glass	-8.79708
▁lt	-8.79728
▁spanish	-8.7983
▁gift	-8.79834
▁space	-8.79852
ped	-8.79875
▁sh	-8.79895
▁george	-8.79982
▁beer	-8.79997
▁missed	-8.80001
ah	-8.80029
▁quit	-8.80381
▁post	-8.8057
▁pe	-8.80657
▁caught	-8.80667
▁giving	-8.80675
▁unless	-8.80769
▁di	-8.80812
▁nine	-8.81004
▁history	-8.81086
▁summer	-8.81087
ow	-8.81144
▁ringing	-8.8118
▁given	-8.81227
▁low	-8.81349
▁sl	-8.81435
ac	-8.81499
▁spend	-8.81761
▁proud	-8.81949
▁field	-8.82047
▁m	-8.8228
▁bridge	-8.82361
▁hole	-8.82471
▁bob	-8.82559
▁card	-8.82664
▁situation	-8.82783
▁steal	-8.83042
tt	-8.83181
▁afternoon	-8.83213
▁appreciate	-8.83213
▁max	-8.83227
▁nick	-8.83357
▁david	-8.83644
ated	-8.83871
▁reach	-8.83958
▁lock	-8.84
▁group	-8.84077
▁ca	-8.84091
io	-8.84384
▁jim	-8.84434
▁ar	-8.84558
head	-8.84674
ure	-8.84714
▁spot	-8.84959
▁personal	-8.84969
▁bomb	-8.84984
▁dragon	-8.84995
▁sea	-8.85008
▁wild	-8.85093
ass	-8.85165
▁changed	-8.8522
▁dress	-8.85344
▁simple	-8.85389
▁carry	-8.85462
ee	-8.85483
dy	-8.85875
▁west	-8.85913
▁folks	-8.8592
▁indistinct	-8.86091
ng	-8.86118
▁prove	-8.86124
▁bear	-8.86237
▁tea	-8.86241
ey	-8.86294
lin	-8.86323
▁offer	-8.86607
▁target	-8.86714
▁tommy	-8.86727
▁ran	-8.86886
▁joke	-8.86896
▁visit	-8.871
▁smoke	-8.87161
▁grab	-8.8717
▁trip	-8.87259
▁thousand	-8.87504
▁fix	-8.87526
▁dig	-8.87607
▁contact	-8.87609
▁hall	-8.87745
og	-8.87765
▁brothers	-8.87815
▁plane	-8.87863
▁charge	-8.8787
▁en	-8.8797
▁bastard	-8.88118
▁worried	-8.88512
▁darling	-8.88527
▁horn	-8.88538
di	-8.88701
▁lay	-8.88751
ping	-8.88785
▁block	-8.88976
▁te	-8.89152
▁certain	-8.89704
▁entire	-8.89705
▁rose	-8.89729
▁driver	-8.89739
way	-8.89773
▁art	-8.90188
▁cl	-8.90238
▁mm	-8.90418
▁cost	-8.90546
▁killer	-8.90573
▁normal	-8.90638
▁dollars	-8.90785
▁blind	-8.90806
▁idiot	-8.90807
▁information	-8.90819
▁command	-8.90887
▁cry	-8.90906
▁fit	-8.91065
▁broken	-8.91435
▁gu	-8.91491
▁aah	-8.91726
▁driving	-8.91744
▁fi	-8.91748
▁saved	-8.92196
▁favor	-8.92197
▁groaning	-8.92241
▁wa	-8.92299
ki	-8.92496
ii	-8.92511
▁computer	-8.92679
▁middle	-8.92682
▁imagine	-8.92775
▁hat	-8.93022
pa	-8.93116
▁price	-8.93164
▁seconds	-8.93254
▁hill	-8.93467
▁am	-8.93515
▁church	-8.93629
▁pen	-8.93995
▁missing	-8.94056
▁definitely	-8.94108
▁ghost	-8.94108
▁aunt	-8.94119
▁store	-8.94143
▁tires	-8.94256
▁travel	-8.9447
▁forgot	-8.9458
▁favorite	-8.94599
▁teach	-8.94762
▁certainly	-8.94775
▁cap	-8.94884
che	-8.94913
▁difference	-8.95072
▁hasnt	-8.95075
▁rules	-8.95083
mon	-8.95092
and	-8.95337
▁stole	-8.95425
▁hero	-8.95498
▁keys	-8.95526
▁instead	-8.95557
▁fucked	-8.95571
▁code	-8.95636
▁shouting	-8.95674
▁search	-8.95933
▁account	-8.96018
▁river	-8.96057
op	-8.96087
▁walking	-8.96112
▁lu	-8.96182
▁single	-8.96231
▁killing	-8.96233
the	-8.96243
▁crew	-8.96276
▁press	-8.96286
▁yesterday	-8.96535
▁trick	-8.96552
ell	-8.96559
▁jail	-8.96569
by	-8.96678
▁boo	-8.96794
▁guard	-8.96906
▁finished	-8.96942
▁bought	-8.97031
▁cute	-8.97322
ud	-8.97413
▁seeing	-8.97424
▁accident	-8.97511
▁sheriff	-8.97523
▁scene	-8.97523
▁ii	-8.97526
▁jake	-8.97549
▁standing	-8.97622
▁gr	-8.97627
▁begin	-8.97694
▁list	-8.97856
▁buzz	-8.97919
▁beach	-8.9802
▁lovely	-8.9818
ens	-8.98202
▁fell	-8.98502
▁dumb	-8.98601
▁crying	-8.98668
▁stan	-8.9881
led	-8.98861
▁treat	-8.98948
▁talked	-8.9896
▁tight	-8.99039
▁flight	-8.99047
ai	-8.99348
ther	-8.99367
▁army	-8.99393
▁starting	-8.99404
▁smile	-8.99537
▁magic	-8.99539
▁eh	-8.99761
▁fl	-8.99792
▁honest	-8.99882
que	-8.99989
▁breathing	-9.0003
men	-9.00081
uc	-9.00084
▁remind	-9.00139
▁rule	-9.00323
▁bro	-9.0051
▁works	-9.00548
▁wedding	-9.00566
▁lying	-9.00607
▁soul	-9.00648
▁ab	-9.00903
▁area	-9.01069
▁tree	-9.01155
▁leg	-9.01172
▁bus	-9.01266
▁warm	-9.01486
▁upon	-9.01625
▁hunt	-9.01653
▁nose	-9.0173
▁corner	-9.01781
▁seriously	-9.01908
▁mc	-9.02088
▁deserve	-9.02092
▁howd	-9.02094
▁hungry	-9.02106
▁shoes	-9.02151
▁marry	-9.02155
tch	-9.023
▁doin	-9.0236
▁tape	-9.02505
▁he	-9.02546
▁double	-9.02613
▁doubt	-9.02613
we	-9.0264
▁bunch	-9.0264
▁nigger	-9.03254
▁fighting	-9.03566
▁lo	-9.03634
▁accept	-9.03639
▁apartment	-9.03686
king	-9.03763
▁remain	-9.04192
▁completely	-9.04353
▁gate	-9.04353
▁bat	-9.04628
▁fe	-9.04666
ph	-9.04718
▁yep	-9.04788
▁dogs	-9.04867
▁form	-9.04903
▁lawyer	-9.04906
▁dave	-9.04918
▁bird	-9.05156
ner	-9.05207
▁public	-9.0523
ber	-9.05249
ag	-9.05253
▁va	-9.05492
ally	-9.05685
▁ro	-9.05751
▁destroy	-9.05784
▁throat	-9.05796
▁girlfriend	-9.05807
▁drunk	-9.05812
▁up	-9.05856
▁wayne	-9.05896
▁lf	-9.06113
▁soft	-9.06171
▁suck	-9.06323
▁continue	-9.06332
▁switch	-9.06337
▁note	-9.06423
ise	-9.06444
▁ace	-9.0654
▁realize	-9.06583
▁suspect	-9.0688
▁lunch	-9.06882
▁laura	-9.06891
▁sake	-9.06916
▁ed	-9.06974
▁ch	-9.07069
▁tu	-9.07073
ou	-9.07096
our	-9.07107
▁port	-9.07385
▁professor	-9.07426
▁chicken	-9.07468
▁sight	-9.07548
qu	-9.07696
▁cooper	-9.07784
▁final	-9.078
▁bi	-9.07973
▁mmhmm	-9.08006
▁danger	-9.08019
▁belong	-9.08344
▁decided	-9.08761
▁ver	-9.08839
▁dare	-9.08854
▁especially	-9.09084
▁uhhuh	-9.09084
▁risk	-9.091
▁brain	-9.09538
▁college	-9.09643
▁allow	-9.09672
▁mor	-9.09779
▁sky	-9.09811
▁extra	-9.10023
▁built	-9.10205
▁london	-9.10205
▁mitch	-9.10218
▁arrest	-9.10226
▁mommy	-9.10245
▁rid	-9.10257
▁feed	-9.10409
▁mountain	-9.106
▁crack	-9.10762
▁evil	-9.1077
▁speed	-9.10772
▁action	-9.10897
▁chi	-9.11051
▁bloody	-9.11089
ring	-9.113
▁color	-9.11333
▁jordan	-9.11338
▁excited	-9.11338
▁pack	-9.11378
▁pants	-9.11411
▁map	-9.11413
▁tim	-9.1145
ship	-9.11573
va	-9.11684
▁putting	-9.11806
▁forward	-9.1191
▁gang	-9.11932
▁me	-9.12072
▁government	-9.12484
▁whistle	-9.12484
▁coach	-9.12484
▁choose	-9.12487
▁russian	-9.12532
▁bigger	-9.12586
▁agree	-9.12648
▁wh	-9.12885
▁lived	-9.12917
off	-9.13057
▁letter	-9.13057
▁neither	-9.13062
▁beginning	-9.13063
▁neck	-9.13081
▁crash	-9.13088
▁stuck	-9.13097
▁lights	-9.13109
▁band	-9.13308
br	-9.13316
over	-9.13559
hi	-9.13639
▁member	-9.13647
▁taste	-9.13647
▁fellow	-9.1366
▁takes	-9.13946
▁complete	-9.14052
▁prince	-9.14097
▁correct	-9.14228
▁nigga	-9.14228
▁locked	-9.14388
▁problems	-9.14457
▁mate	-9.14571
ten	-9.1466
ita	-9.14729
▁animal	-9.14786
▁department	-9.14816
▁address	-9.14824
▁howard	-9.14825
▁fbi	-9.14837
▁duke	-9.14847
▁notice	-9.15035
ize	-9.1506
▁goin	-9.15076
▁loud	-9.15106
▁balls	-9.15123
▁rent	-9.15309
▁gas	-9.15397
▁whose	-9.15403
▁bobby	-9.15427
nd	-9.15499
▁sa	-9.1559
▁listening	-9.15635
▁mission	-9.15741
▁interested	-9.15858
▁mon	-9.15921
▁sweetheart	-9.16003
▁brown	-9.16008
▁bang	-9.16092
▁fill	-9.16139
▁waste	-9.16245
▁breathe	-9.16277
▁billy	-9.16316
mm	-9.16316
▁quickly	-9.16376
▁sex	-9.16385
▁yi	-9.16434
▁ju	-9.16791
ka	-9.16809
▁san	-9.1688
▁within	-9.17204
▁support	-9.17207
▁local	-9.1722
▁bullet	-9.17284
▁pan	-9.17315
▁han	-9.17473
▁breath	-9.17539
▁nothin	-9.177
▁conversation	-9.17817
▁fresh	-9.17818
ism	-9.17824
▁dirty	-9.17951
com	-9.17964
ious	-9.18151
▁where	-9.18211
▁beg	-9.18397
▁self	-9.18403
▁everywhere	-9.1842
▁knife	-9.1842
▁enemy	-9.1842
▁whatd	-9.18421
▁battle	-9.18427
▁type	-9.18468
▁shake	-9.18501
▁cake	-9.18509
rie	-9.18533
▁mister	-9.1855
▁har	-9.18573
kin	-9.18625
▁holding	-9.18688
▁chattering	-9.1873
▁moved	-9.18944
▁snow	-9.19055
▁ce	-9.19092
▁marty	-9.19116
▁named	-9.19279
▁su	-9.1932
▁arms	-9.19445
▁camera	-9.19545
ite	-9.19553
▁reading	-9.19611
▁east	-9.19654
▁wheel	-9.19668
fi	-9.19775
▁angel	-9.20093
▁closed	-9.20184
▁wearing	-9.20226
▁third	-9.20272
▁brave	-9.2038
▁papa	-9.20523
▁whoo	-9.20539
▁tip	-9.20585
▁pocket	-9.20897
▁ga	-9.20916
▁er	-9.20922
▁est	-9.21023
▁stopped	-9.21133
ence	-9.21454
▁rings	-9.21477
▁impossible	-9.21526
▁jerry	-9.21526
▁besides	-9.21659
▁van	-9.21854
▁pig	-9.21913
cr	-9.21953
▁pi	-9.21966
▁scar	-9.22067
tra	-9.22073
▁heavy	-9.22159
▁innocent	-9.22159
▁distance	-9.22159
▁cousin	-9.22159
▁liked	-9.22163
▁bother	-9.22215
▁sal	-9.22283
▁ad	-9.22295
▁devil	-9.22311
act	-9.22313
▁states	-9.22602
▁comp	-9.22652
▁promised	-9.22682
▁interesting	-9.22684
lic	-9.22777
▁congratulations	-9.22796
▁frodo	-9.22801
▁operation	-9.22804
▁guns	-9.22828
▁fired	-9.22887
▁z	-9.22901
▁consider	-9.2292
▁shop	-9.22962
▁ja	-9.23089
tor	-9.23257
▁beyond	-9.23437
▁strength	-9.23437
▁spent	-9.23489
▁ron	-9.2361
▁starts	-9.23623
▁moon	-9.2365
▁pray	-9.23662
▁german	-9.23783
▁language	-9.24082
▁worst	-9.24082
▁split	-9.24083
ger	-9.2416
line	-9.24312
▁sm	-9.24539
▁boom	-9.24556
▁main	-9.24605
▁to	-9.24725
▁decision	-9.24731
▁loose	-9.24742
▁skin	-9.24854
▁picked	-9.24964
ap	-9.24993
▁genius	-9.25385
▁upset	-9.25387
ler	-9.25404
▁noise	-9.25412
▁princess	-9.25531
▁ti	-9.25735
▁soldier	-9.25771
▁add	-9.25994
▁nervous	-9.26043
▁breakfast	-9.26043
▁charles	-9.26056
▁pin	-9.26387
▁ticket	-9.26446
▁drug	-9.26492
ak	-9.26659
▁evidence	-9.26705
▁wrote	-9.26705
▁obviously	-9.26793
▁victor	-9.27099
▁sc	-9.2711
▁shed	-9.27224
▁wondering	-9.27304
▁feels	-9.27344
gu	-9.2741
qui	-9.27521
▁escape	-9.27665
▁anna	-9.27673
▁mum	-9.27691
▁weapon	-9.27829
▁or	-9.27856
▁u	-9.28138
▁flat	-9.28162
▁sweetie	-9.28211
▁gods	-9.28291
▁raise	-9.28356
end	-9.28361
nc	-9.28433
▁papers	-9.28491
▁awful	-9.28495
▁sand	-9.28529
▁sale	-9.28584
der	-9.28627
▁program	-9.28718
▁strike	-9.28719
▁bread	-9.28719
ack	-9.28812
▁figured	-9.28871
▁aw	-9.29022
▁mickey	-9.29405
▁monster	-9.29422
▁chair	-9.29423
▁involved	-9.29467
▁leader	-9.29477
if	-9.29516
▁staying	-9.29521
ial	-9.2953
▁heat	-9.29602
▁bud	-9.29681
▁li	-9.29683
▁teacher	-9.29781
▁base	-9.29854
ding	-9.29929
▁finger	-9.29998
▁build	-9.30172
▁kinda	-9.30207
▁butt	-9.30298
bi	-9.30544
▁legs	-9.3066
her	-9.30716
▁suggest	-9.30774
▁dying	-9.30781
▁season	-9.30814
▁christian	-9.30853
▁cam	-9.30875
▁bond	-9.31063
▁can	-9.31123
▁shooting	-9.31195
ex	-9.31241
▁gi	-9.31377
▁became	-9.31468
▁difficult	-9.31468
▁kitchen	-9.31468
▁lieutenant	-9.31468
▁patient	-9.31468
▁thatll	-9.31468
▁teeth	-9.31468
▁empty	-9.31468
▁desert	-9.31469
▁books	-9.31858
▁pictures	-9.32106
▁mac	-9.32118
▁orders	-9.32136
▁condition	-9.32167
▁experience	-9.32167
▁amanda	-9.32167
▁stories	-9.32167
▁draw	-9.32179
▁chuckling	-9.32184
▁played	-9.32224
▁maya	-9.32246
▁powerful	-9.32261
all	-9.32353
▁fu	-9.32561
▁sleeping	-9.32607
▁speaks	-9.32721
▁paint	-9.32736
▁reporter	-9.3277
▁project	-9.32871
▁center	-9.32873
▁film	-9.32878
▁dancing	-9.32883
▁alarm	-9.32891
▁robin	-9.3292
den	-9.32926
▁ri	-9.33017
▁cu	-9.33025
▁cra	-9.33055
▁faster	-9.33135
▁cup	-9.3316
▁val	-9.33199
▁dope	-9.33293
▁range	-9.33303
▁losing	-9.33314
light	-9.33486
▁snake	-9.33581
▁angry	-9.33581
▁punch	-9.33581
▁theyd	-9.33582
▁repeat	-9.33582
▁karen	-9.33604
▁tour	-9.3367
▁gasping	-9.33738
▁para	-9.339
red	-9.33944
▁united	-9.34029
▁cards	-9.34038
▁mal	-9.34125
mer	-9.34204
ier	-9.34205
▁match	-9.34206
▁bottom	-9.34295
▁beauty	-9.34304
▁freak	-9.34412
▁eu	-9.34569
▁fathers	-9.34651
▁yelling	-9.34664
▁following	-9.3476
▁dom	-9.3481
▁greatest	-9.34923
▁dry	-9.34932
▁criminal	-9.35057
▁wouldve	-9.35185
▁sub	-9.35279
▁miller	-9.35286
▁interest	-9.35353
▁nicky	-9.35516
▁ought	-9.35557
▁learned	-9.35629
▁amen	-9.35644
▁bu	-9.35682
▁heavily	-9.35739
▁pilot	-9.35739
▁prefer	-9.3574
▁dramatic	-9.35744
▁bathroom	-9.35744
▁lift	-9.3575
▁richard	-9.35772
▁marta	-9.35842
fa	-9.35844
▁cock	-9.35846
ized	-9.35905
▁discuss	-9.36412
▁joy	-9.36432
▁vegas	-9.36469
▁bruce	-9.36469
▁often	-9.36474
▁cream	-9.36484
▁boyfriend	-9.36486
rr	-9.36504
▁male	-9.36526
ator	-9.36612
▁hiding	-9.36612
▁horses	-9.36697
▁path	-9.367
▁breaking	-9.36968
▁plenty	-9.37204
▁whether	-9.37204
▁admit	-9.37204
▁sobbing	-9.37204
▁sergeant	-9.37208
▁sunday	-9.37214
▁blame	-9.37227
▁bright	-9.37239
▁exist	-9.37269
▁jones	-9.37271
▁contract	-9.37275
▁serve	-9.37293
▁usually	-9.3733
back	-9.37492
▁paris	-9.37917
▁awesome	-9.37945
▁italian	-9.37945
▁upstairs	-9.37945
▁vehicle	-9.37945
▁justice	-9.37947
▁stage	-9.3803
bie	-9.38103
rin	-9.38122
▁cor	-9.38144
▁tri	-9.38276
ea	-9.38279
ron	-9.38296
ore	-9.38304
ram	-9.384
▁ka	-9.38622
▁weak	-9.38679
▁regret	-9.38692
▁grace	-9.38692
▁scoffs	-9.38692
▁taught	-9.38729
▁weekend	-9.3873
ical	-9.38755
ab	-9.38783
▁shoulder	-9.38787
▁drugs	-9.38967
▁signal	-9.39044
cha	-9.39271
▁wing	-9.3935
▁sw	-9.39411
▁allowed	-9.39431
▁wolf	-9.39443
▁plus	-9.39443
▁silly	-9.39444
▁roman	-9.39484
▁all	-9.39669
▁cab	-9.3995
▁wi	-9.40073
▁birds	-9.40147
▁flying	-9.40151
▁stink	-9.40211
▁view	-9.4026
▁castle	-9.4029
▁screw	-9.4041
▁ko	-9.40679
▁page	-9.40858
▁gar	-9.40974
▁merry	-9.40989
▁passed	-9.40996
▁annie	-9.41029
▁stem	-9.41038
▁ni	-9.41123
▁ne	-9.41214
ned	-9.41309
▁she	-9.41323
▁piss	-9.41342
▁sin	-9.41393
▁ear	-9.41581
▁reg	-9.41709
▁emergency	-9.41733
▁bottle	-9.41733
▁enola	-9.41741
▁immediately	-9.41778
▁closes	-9.41804
▁hu	-9.41964
▁sold	-9.42038
▁wine	-9.42227
▁pulled	-9.42273
vin	-9.423
ang	-9.42306
▁fortune	-9.42509
▁storm	-9.42509
▁social	-9.42512
▁clock	-9.4254
▁dreams	-9.42606
▁softly	-9.42764
▁lee	-9.42809
▁plays	-9.42828
▁hm	-9.42933
▁cha	-9.42972
▁louis	-9.43082
▁huge	-9.4317
▁tongue	-9.43293
▁champion	-9.43312
▁brand	-9.43328
▁laughter	-9.43366
▁numbers	-9.43513
▁pr	-9.43555
▁comm	-9.43597
▁witness	-9.43954
▁ridiculous	-9.44077
▁biggest	-9.44078
▁focus	-9.4408
▁owner	-9.44107
▁iike	-9.44107
▁couldve	-9.44172
▁pool	-9.44196
▁rome	-9.44237
▁wash	-9.44374
▁tie	-9.44394
▁fake	-9.44407
▁bite	-9.4444
▁fra	-9.44541
ities	-9.44557
▁nah	-9.44596
▁nuts	-9.44648
▁walked	-9.44708
▁higher	-9.44725
▁yu	-9.44778
▁francis	-9.44836
▁character	-9.44871
▁gunshot	-9.44871
▁cheese	-9.44872
▁held	-9.44872
▁martin	-9.44872
▁shouldve	-9.44875
▁garden	-9.44881
▁kane	-9.44905
▁bucks	-9.44907
▁winner	-9.44922
ina	-9.45077
▁lve	-9.45102
▁hook	-9.45228
▁legal	-9.4524
ib	-9.45247
▁using	-9.45255
▁ap	-9.45344
tro	-9.45477
▁apologize	-9.45671
▁credit	-9.45671
▁talent	-9.45687
▁closer	-9.45835
ney	-9.45836
▁letters	-9.45849
▁ji	-9.45868
▁fan	-9.459
▁aii	-9.46006
▁woods	-9.46019
▁pete	-9.46078
▁eli	-9.46089
▁faith	-9.4618
▁planet	-9.46311
▁famous	-9.46477
▁nowhere	-9.46477
▁climb	-9.46477
▁freedom	-9.46478
▁pardon	-9.46478
▁hadnt	-9.46478
▁level	-9.46489
▁milk	-9.46636
▁tank	-9.46661
▁walter	-9.46726
▁harm	-9.46822
▁cook	-9.46838
▁release	-9.46912
ook	-9.46937
▁lake	-9.46948
▁opens	-9.46994
▁bless	-9.47101
▁large	-9.47283
▁shadow	-9.4729
▁grey	-9.47314
▁spell	-9.47316
▁bath	-9.47349
▁cheers	-9.47387
▁pet	-9.47457
▁score	-9.475
▁size	-9.47529
▁turns	-9.47763
▁mayor	-9.48062
tu	-9.48098
▁newspaper	-9.4811
▁eating	-9.48163
▁ge	-9.48191
▁file	-9.48239
▁due	-9.48391
▁bike	-9.48464
▁at	-9.48474
▁tall	-9.48542
▁survive	-9.48558
▁union	-9.48574
▁carol	-9.48611
house	-9.48808
▁surprised	-9.48902
▁writing	-9.48936
▁claim	-9.48937
▁wood	-9.49071
▁dressed	-9.49173
▁request	-9.49215
▁plant	-9.49227
▁load	-9.49371
▁gary	-9.4938
▁app	-9.49512
pi	-9.49586
▁total	-9.49614
▁rep	-9.49672
▁purpose	-9.4977
▁simply	-9.4977
▁sweat	-9.4977
▁pressure	-9.498
ade	-9.49811
dle	-9.49831
▁fingers	-9.49881
▁pure	-9.50165
of	-9.50229
▁witch	-9.50499
▁jerk	-9.50625
▁mas	-9.50729
▁rip	-9.50736
▁inf	-9.50815
rate	-9.5101
▁event	-9.51091
fe	-9.51274
▁collect	-9.51401
▁apart	-9.51449
▁twenty	-9.51455
▁chocolate	-9.51458
▁investigation	-9.51458
▁whoever	-9.51458
▁meat	-9.51539
▁stock	-9.51541
ky	-9.51555
ula	-9.51704
ball	-9.51769
▁bringing	-9.51955
▁rob	-9.52117
rk	-9.52153
▁somethin	-9.522
▁slave	-9.52317
▁memory	-9.5232
▁study	-9.52324
▁trace	-9.52366
▁brian	-9.52366
▁gotten	-9.52461
▁manager	-9.52467
▁heads	-9.52557
▁chris	-9.52654
▁settle	-9.52831
▁sharp	-9.53
▁cars	-9.5302
▁gettin	-9.53113
▁thomas	-9.53174
▁twice	-9.53174
▁cigarette	-9.53176
▁morgan	-9.53189
▁helped	-9.53195
ons	-9.53217
▁nope	-9.53224
bu	-9.53231
▁stranger	-9.53255
▁guards	-9.53375
▁woo	-9.53377
▁maria	-9.53395
▁beeping	-9.53458
ight	-9.53859
▁audience	-9.54044
▁relationship	-9.54044
▁responsible	-9.54044
▁spring	-9.5407
▁inc	-9.54405
▁pot	-9.54485
ev	-9.54518
▁barking	-9.5453
ging	-9.54554
▁lisa	-9.54564
con	-9.54597
side	-9.54614
▁showed	-9.54869
▁apollo	-9.54921
▁however	-9.54921
▁rescue	-9.54921
▁weather	-9.54921
▁kingdom	-9.54922
▁colonel	-9.54943
▁guest	-9.54945
▁zero	-9.54966
▁vote	-9.54968
▁announcer	-9.5498
▁protection	-9.55089
▁ugh	-9.55112
▁ph	-9.55124
▁wave	-9.55136
▁training	-9.55165
▁inter	-9.55307
▁mothers	-9.55343
▁cheer	-9.55411
▁noticed	-9.55483
▁calls	-9.5557
▁harlan	-9.55586
▁crap	-9.55622
▁oil	-9.55625
▁rub	-9.55626
▁twin	-9.55752
▁monsieur	-9.55806
▁patrick	-9.55806
▁video	-9.55806
▁grave	-9.55808
▁print	-9.55811
▁france	-9.5585
▁forest	-9.55865
▁babe	-9.55867
▁suddenly	-9.55902
▁unit	-9.55931
▁chest	-9.55969
▁decide	-9.56323
▁je	-9.56385
▁clicks	-9.56434
ug	-9.56454
▁non	-9.5668
▁practice	-9.56699
▁female	-9.56699
▁shirt	-9.56699
▁sail	-9.56712
▁shock	-9.56723
▁desk	-9.56724
▁national	-9.56761
▁anti	-9.56796
▁under	-9.56806
▁acting	-9.56812
ft	-9.56831
▁rise	-9.56882
▁golden	-9.56883
▁bow	-9.56902
aw	-9.56938
▁arrived	-9.57008
▁lesson	-9.5705
▁ends	-9.57131
▁trap	-9.57515
▁jean	-9.57604
▁dropped	-9.57657
▁batman	-9.57702
▁honestly	-9.57917
▁stars	-9.581
▁selling	-9.58229
▁spider	-9.58451
▁corleone	-9.58509
▁sugar	-9.58509
▁kevin	-9.58515
▁metal	-9.58517
▁common	-9.58579
▁hearing	-9.58591
▁chill	-9.58609
▁button	-9.58635
▁row	-9.58665
▁parker	-9.58698
nny	-9.58714
▁march	-9.5874
▁weapons	-9.588
▁min	-9.58806
▁jamie	-9.58829
▁indi	-9.58871
▁career	-9.58916
▁feelings	-9.59
you	-9.59039
ide	-9.59068
▁fellas	-9.5914
▁mer	-9.59192
▁fund	-9.5923
▁quarter	-9.59426
▁spread	-9.59426
▁threw	-9.59426
▁paying	-9.59432
▁bust	-9.59532
▁jill	-9.59546
▁safety	-9.59577
▁deb	-9.5958
ay	-9.59614
▁weight	-9.59619
▁trade	-9.59663
ium	-9.59674
▁heading	-9.59837
▁scare	-9.59882
▁mel	-9.59945
▁agreed	-9.60028
ified	-9.6011
▁spoke	-9.60219
▁turning	-9.60292
▁borrow	-9.60352
▁steady	-9.60352
▁poison	-9.60352
▁inspector	-9.6037
▁truly	-9.60418
▁games	-9.60441
▁guilty	-9.60456
▁lots	-9.60488
▁player	-9.60515
▁chain	-9.60605
▁doors	-9.60695
down	-9.60999
field	-9.61021
ice	-9.61032
▁exc	-9.61035
▁tit	-9.61058
ette	-9.61281
▁harvey	-9.61287
▁beast	-9.61287
▁ugly	-9.61287
▁access	-9.61289
▁hon	-9.61294
iy	-9.6133
▁medical	-9.61347
▁mask	-9.61356
▁freeze	-9.61386
▁tower	-9.61543
▁fo	-9.61686
▁den	-9.61718
▁wire	-9.61772
q	-9.61894
▁x	-9.61991
▁sue	-9.62062
▁hardly	-9.62073
ov	-9.62218
▁insane	-9.6223
▁marriage	-9.6223
▁proper	-9.62235
▁earlier	-9.62238
▁scott	-9.62241
▁robert	-9.62243
▁dawn	-9.62249
▁luke	-9.62262
▁assume	-9.62274
▁rocky	-9.62299
▁duty	-9.62319
▁deliver	-9.62326
▁victim	-9.6245
▁movies	-9.62554
▁streets	-9.6265
▁bug	-9.62788
▁mention	-9.62908
▁official	-9.63004
▁california	-9.63183
▁exhales	-9.63183
▁recognize	-9.63183
▁thunder	-9.63183
▁aware	-9.63183
▁lonely	-9.63184
▁toast	-9.63184
▁pride	-9.63191
▁iii	-9.63283
▁pat	-9.63306
▁ac	-9.63317
▁pretend	-9.63537
▁int	-9.63578
arm	-9.63741
▁wet	-9.6381
▁goodness	-9.6384
▁dust	-9.64068
jo	-9.64134
▁horrible	-9.64144
▁village	-9.64144
▁precious	-9.64152
▁cheap	-9.64155
▁football	-9.64163
▁swim	-9.64173
▁robot	-9.64174
▁animals	-9.64194
▁spiderman	-9.64206
▁ma	-9.64226
▁royal	-9.6423
▁farm	-9.64325
▁coat	-9.64388
▁andy	-9.64408
▁hoping	-9.64495
ord	-9.64512
▁fran	-9.64527
▁ln	-9.64616
▁ci	-9.64637
▁por	-9.64778
▁direct	-9.64799
▁joint	-9.64857
▁places	-9.64935
▁ay	-9.65096
▁uniform	-9.65115
▁william	-9.65115
▁nurse	-9.65116
▁afford	-9.65119
▁rough	-9.65124
▁rev	-9.65129
▁willing	-9.65133
▁destroyed	-9.65137
▁rush	-9.65141
gie	-9.65142
▁director	-9.65195
▁nu	-9.65251
cy	-9.65316
▁invited	-9.6536
▁letting	-9.6536
▁wise	-9.65378
▁stolen	-9.65382
▁bra	-9.65462
my	-9.65504
▁concern	-9.65542
▁fail	-9.65646
▁prepare	-9.65719
▁amy	-9.6577
▁eve	-9.65821
▁ken	-9.65822
ville	-9.65871
art	-9.65949
▁headed	-9.66013
▁otherwise	-9.66095
▁launch	-9.66095
▁whirring	-9.66099
▁knight	-9.66109
▁juice	-9.66115
▁refuse	-9.66115
▁airport	-9.6612
▁handsome	-9.66131
▁on	-9.66223
ank	-9.66234
▁birdie	-9.66441
lng	-9.66459
▁jam	-9.66477
▁disappear	-9.66532
▁dump	-9.66581
▁ruin	-9.66695
▁crown	-9.66726
▁seemed	-9.66819
▁enter	-9.66975
▁threat	-9.67011
ile	-9.67058
▁negative	-9.67085
▁fancy	-9.67094
▁sword	-9.67095
▁winning	-9.67096
▁forgotten	-9.67108
▁grandpa	-9.67122
▁sol	-9.6726
▁falling	-9.67301
▁shower	-9.67422
▁tickets	-9.67474
▁plans	-9.67523
▁tan	-9.67672
▁loser	-9.67757
▁drinking	-9.6795
▁asleep	-9.68085
▁attempt	-9.68085
▁guarantee	-9.68085
▁rumbling	-9.68085
▁speech	-9.68085
▁damage	-9.68086
▁closing	-9.68086
▁indeed	-9.68086
▁slip	-9.68091
za	-9.68221
▁lies	-9.68277
▁blows	-9.68281
▁original	-9.683
▁sean	-9.68313
▁points	-9.68743
ung	-9.68785
ming	-9.688
▁che	-9.68879
▁mil	-9.68888
▁chop	-9.68922
▁trees	-9.69082
▁easier	-9.69096
▁saturday	-9.69096
▁schedule	-9.69096
▁daniel	-9.69096
▁friday	-9.69098
▁oclock	-9.69098
▁property	-9.6913
▁alex	-9.69134
▁iron	-9.69164
▁shame	-9.69169
▁professional	-9.69211
▁helping	-9.69324
els	-9.69386
▁dar	-9.6953
▁anne	-9.69648
▁hug	-9.6979
▁jan	-9.6981
▁swing	-9.69901
▁natural	-9.69937
▁cri	-9.70005
▁toy	-9.70063
▁organ	-9.70105
▁attorney	-9.70116
▁defense	-9.70116
▁sneak	-9.70116
▁license	-9.70116
▁clever	-9.70123
▁shoe	-9.70177
▁murdered	-9.7021
▁trial	-9.7025
▁heh	-9.70268
▁fed	-9.70487
ox	-9.70494
gh	-9.70539
▁opening	-9.70582
▁wound	-9.70593
▁bur	-9.70603
▁par	-9.70646
▁cr	-9.70687
▁dre	-9.70784
board	-9.70862
▁bags	-9.71053
▁scream	-9.71116
▁necessary	-9.71147
▁permission	-9.71147
▁shield	-9.71147
▁proceed	-9.71148
▁odd	-9.71151
▁roof	-9.71161
ham	-9.71166
▁gather	-9.71168
▁prick	-9.71169
wi	-9.71191
▁prize	-9.71315
▁sen	-9.71446
▁spare	-9.71466
▁concerned	-9.71733
▁log	-9.71893
▁bum	-9.71988
▁del	-9.72011
▁usual	-9.72015
▁onto	-9.72168
▁league	-9.72189
▁several	-9.72189
▁silence	-9.72189
▁smith	-9.72189
▁wailing	-9.72189
▁nature	-9.72209
▁we	-9.72292
▁market	-9.72305
uck	-9.72365
▁fighter	-9.72365
▁angela	-9.72573
▁loves	-9.72746
▁los	-9.72941
▁ray	-9.72981
▁rec	-9.72991
▁pink	-9.732
▁taxi	-9.73206
▁sniff	-9.7322
▁bay	-9.73224
▁excellent	-9.73241
▁understood	-9.73241
▁thief	-9.73241
▁gym	-9.73243
▁neighborhood	-9.73245
▁insist	-9.73248
▁miami	-9.73252
▁grew	-9.73254
▁honour	-9.73255
ple	-9.73263
▁lab	-9.73273
▁mail	-9.73291
▁pounds	-9.73342
▁duck	-9.7335
▁cow	-9.73366
nder	-9.73451
▁plate	-9.73459
▁nobodys	-9.73547
▁laid	-9.73569
▁joey	-9.73775
▁ms	-9.7387
▁salt	-9.73957
▁walt	-9.73963
ran	-9.74012
▁older	-9.74063
▁sooner	-9.74139
▁hanging	-9.74154
▁beeps	-9.74209
▁cast	-9.74297
▁neighbor	-9.74301
▁applause	-9.74305
▁written	-9.74305
▁screen	-9.74305
▁border	-9.74305
▁bodies	-9.74306
▁percent	-9.74318
▁strip	-9.74329
▁hung	-9.74333
▁ren	-9.74353
▁shape	-9.74357
▁liar	-9.74388
▁yells	-9.74394
▁pair	-9.74407
▁meal	-9.74487
▁ref	-9.74539
▁keeping	-9.74612
▁sno	-9.7464
▁frankie	-9.74663
▁armed	-9.74666
▁qui	-9.74758
▁soldiers	-9.74761
▁followed	-9.74767
▁warning	-9.74825
▁checked	-9.74972
ino	-9.75091
wood	-9.75096
▁disturb	-9.7538
▁suitcase	-9.7538
▁television	-9.7538
▁avoid	-9.7538
▁derek	-9.75381
▁saving	-9.75381
▁interview	-9.75382
▁monday	-9.75388
▁british	-9.75393
▁package	-9.75416
▁direction	-9.75444
▁ob	-9.75487
▁standard	-9.75503
ub	-9.75898
▁nearly	-9.75901
▁cho	-9.75992
▁believed	-9.76125
han	-9.76362
gen	-9.76408
ock	-9.76457
▁advice	-9.76467
▁gorgeous	-9.76467
▁journey	-9.76467
▁opportunity	-9.76467
▁somehow	-9.76467
▁telephone	-9.76467
▁coughing	-9.76467
▁irish	-9.7648
▁lucy	-9.76484
▁replace	-9.7649
▁connection	-9.76504
▁rare	-9.76664
▁model	-9.76688
ko	-9.76719
▁meaning	-9.77224
▁chase	-9.77383
▁responsibility	-9.77566
▁sandwich	-9.77566
▁silver	-9.77566
▁bravo	-9.77577
▁mitchell	-9.77592
▁value	-9.77596
▁whore	-9.77603
▁incredible	-9.77624
nie	-9.77637
▁screeching	-9.77878
▁stayed	-9.77898
tle	-9.77904
ake	-9.77908
▁ye	-9.78003
ew	-9.78069
▁ber	-9.78111
ora	-9.78208
▁cre	-9.78242
▁records	-9.78409
▁doug	-9.78631
▁treasure	-9.78677
▁casino	-9.78678
▁emily	-9.78681
▁gentleman	-9.78712
ker	-9.78826
az	-9.78879
▁daughters	-9.79046
▁hired	-9.79164
lon	-9.79171
▁scary	-9.79223
lies	-9.79241
▁gosh	-9.79335
▁pee	-9.79359
▁seal	-9.79423
▁fantastic	-9.79801
▁jealous	-9.79801
▁miracle	-9.79801
▁regular	-9.79801
▁tunnel	-9.79801
▁emperor	-9.79801
▁mostly	-9.79801
▁gross	-9.79803
▁fought	-9.79804
▁tear	-9.7982
▁forced	-9.79821
▁apparently	-9.79822
▁comfortable	-9.79827
▁rocket	-9.79937
▁tap	-9.79998
▁snap	-9.80041
▁lookin	-9.80069
▁sending	-9.80139
▁bearing	-9.80198
▁prepared	-9.80235
▁indistinctly	-9.80256
ik	-9.80261
▁aj	-9.80287
ado	-9.80354
▁badge	-9.80397
ada	-9.8043
▁knocking	-9.80479
mina	-9.80647
▁meg	-9.80686
▁sk	-9.8071
▁lance	-9.80797
▁mikey	-9.80873
▁pound	-9.80894
▁eggs	-9.80916
▁chicago	-9.80937
▁energy	-9.80937
▁loretta	-9.80937
▁military	-9.80937
▁positive	-9.80937
▁restaurant	-9.80937
▁square	-9.80937
▁monkey	-9.80937
▁smash	-9.80938
▁funeral	-9.80939
▁creature	-9.8094
▁steve	-9.80965
▁tool	-9.80982
▁proof	-9.8101
▁whispering	-9.81105
▁pie	-9.81294
▁joel	-9.81424
oh	-9.81502
▁design	-9.81532
▁grant	-9.81591
ties	-9.81639
istic	-9.81705
▁ohh	-9.8171
▁lower	-9.81772
▁ser	-9.8189
▁my	-9.81983
▁harder	-9.82002
▁earn	-9.82071
▁according	-9.82087
▁downstairs	-9.82087
▁subject	-9.82087
▁houston	-9.82087
▁flesh	-9.82087
▁mood	-9.82099
▁itd	-9.821
▁tiger	-9.82107
▁piano	-9.82113
▁bedroom	-9.82117
▁knees	-9.82212
▁winter	-9.82287
▁shine	-9.82308
▁earl	-9.82328
▁sat	-9.8236
▁apple	-9.82447
▁deck	-9.82468
▁yell	-9.82582
▁abe	-9.82775
▁mile	-9.8283
▁murph	-9.82948
▁charges	-9.83033
port	-9.83084
▁lap	-9.83123
▁pulling	-9.83175
▁among	-9.83205
▁circle	-9.83249
▁possibly	-9.83249
▁process	-9.8325
▁traffic	-9.8325
▁crawl	-9.83253
▁secretary	-9.8332
▁phil	-9.83323
▁lion	-9.83334
▁talkin	-9.83335
▁comin	-9.83335
▁indian	-9.83338
▁lied	-9.83341
▁grandma	-9.83342
▁clearly	-9.83344
▁hoo	-9.83345
for	-9.83389
ven	-9.83415
▁hack	-9.8353
▁flowers	-9.83781
▁failed	-9.83912
▁expected	-9.83935
▁gri	-9.83982
▁gotham	-9.84027
▁arrive	-9.84033
▁cos	-9.8405
▁os	-9.84096
▁expecting	-9.84101
▁flu	-9.84143
▁ahh	-9.84144
▁whispers	-9.84286
▁bowl	-9.84293
▁opened	-9.84332
▁bats	-9.84337
▁eric	-9.84338
▁photo	-9.8439
▁desperate	-9.84426
▁science	-9.84426
▁england	-9.84426
▁hidden	-9.84427
▁yard	-9.84427
▁ethan	-9.8443
▁candy	-9.84433
▁shark	-9.84447
ude	-9.84459
▁maid	-9.84474
ford	-9.84627
▁engineer	-9.84645
what	-9.84667
▁created	-9.84748
▁blast	-9.84842
▁sally	-9.84849
zo	-9.84904
▁bark	-9.84918
▁personally	-9.84982
room	-9.85044
▁sup	-9.85153
▁picking	-9.852
▁rap	-9.85202
▁ears	-9.85316
▁murderer	-9.85411
▁bastards	-9.85461
mark	-9.85483
▁sometime	-9.85539
val	-9.85574
▁stu	-9.85613
▁although	-9.85616
▁pregnant	-9.85616
▁rachel	-9.85616
▁theater	-9.85617
▁adult	-9.85617
▁chinese	-9.85617
▁text	-9.85617
▁cowboy	-9.85622
▁demand	-9.85623
▁planning	-9.85624
▁mercy	-9.85626
▁route	-9.85631
▁gordon	-9.85646
▁scout	-9.85664
▁mental	-9.85674
▁issue	-9.85689
▁tra	-9.85698
du	-9.8572
ire	-9.85723
gi	-9.8573
▁jackson	-9.85788
boy	-9.85896
▁ven	-9.85917
▁cage	-9.86026
▁es	-9.86035
▁char	-9.86115
▁deeply	-9.8619
▁students	-9.86366
▁introduce	-9.86441
▁spy	-9.86476
ja	-9.86516
▁spin	-9.86675
▁object	-9.86763
▁represent	-9.86816
▁muffled	-9.86821
▁universe	-9.86821
▁byebye	-9.86821
▁foreign	-9.86821
▁guitar	-9.86821
▁staff	-9.86822
▁brenda	-9.86822
▁example	-9.86826
▁awake	-9.86833
▁secure	-9.86846
▁matters	-9.86848
▁cher	-9.86867
▁client	-9.86874
hole	-9.8693
▁fuel	-9.8693
▁dollar	-9.86987
▁clears	-9.86995
▁fate	-9.87072
▁passing	-9.87094
▁seek	-9.87115
▁hurts	-9.87296
▁tax	-9.87318
▁whip	-9.87356
▁dent	-9.87385
▁dia	-9.87388
car	-9.87475
▁raised	-9.87508
▁joker	-9.87617
▁blessed	-9.87647
▁fort	-9.87712
▁pieces	-9.87809
press	-9.87947
right	-9.87979
▁ton	-9.8799
▁arrested	-9.88016
▁footsteps	-9.88041
▁literally	-9.88041
▁subtitle	-9.88041
▁suicide	-9.88041
▁opinion	-9.88041
▁smooth	-9.88041
▁ted	-9.88078
▁bull	-9.88095
mar	-9.88129
▁county	-9.8813
▁disgusting	-9.88141
ugh	-9.88171
▁statement	-9.88171
▁lately	-9.88188
▁cj	-9.8823
▁troop	-9.88245
▁tiny	-9.88247
▁op	-9.88345
▁spit	-9.88386
▁lane	-9.88402
▁grown	-9.88422
▁lam	-9.88515
▁approaching	-9.88521
▁burned	-9.88651
▁gear	-9.88694
▁led	-9.8871
▁reports	-9.88752
zi	-9.8884
▁slowly	-9.88914
▁sara	-9.88939
▁lover	-9.89002
▁perfectly	-9.89015
▁wings	-9.89058
▁commander	-9.8908
▁debt	-9.89107
iva	-9.89146
▁chose	-9.89178
▁effort	-9.89275
▁insurance	-9.89275
▁texas	-9.89275
▁benoit	-9.89276
▁federal	-9.89276
▁coast	-9.89283
▁medicine	-9.89286
▁brad	-9.89298
▁reward	-9.89313
▁lionel	-9.89321
ible	-9.89377
▁riding	-9.8938
▁began	-9.894
▁nasty	-9.89401
▁tran	-9.89457
▁ross	-9.89572
▁off	-9.89676
▁toe	-9.89785
▁ty	-9.89792
lie	-9.89804
▁kicked	-9.89838
▁wide	-9.89994
▁bon	-9.90009
▁quietly	-9.9005
▁dan	-9.90133
▁curse	-9.90146
▁the	-9.90147
▁niggers	-9.90243
work	-9.90253
cho	-9.90264
vel	-9.90349
ax	-9.90402
unk	-9.90497
▁someday	-9.90525
▁clown	-9.90525
▁crush	-9.90525
▁eagle	-9.90525
▁empire	-9.90525
▁familiar	-9.9056
▁alien	-9.90618
▁pussy	-9.9064
▁warn	-9.90664
▁mei	-9.90771
▁simon	-9.90782
▁assure	-9.90818
▁psycho	-9.90855
▁sports	-9.91219
lar	-9.91225
▁parking	-9.91257
▁manage	-9.91295
▁blessing	-9.91459
▁kennedy	-9.91791
▁stretch	-9.91791
▁eddie	-9.91792
▁ru	-9.91792
▁fur	-9.91793
▁martha	-9.91793
▁tyler	-9.91801
▁trash	-9.91826
▁cunt	-9.91846
▁aside	-9.91854
▁flip	-9.91896
▁darkness	-9.919
▁sec	-9.9193
▁officers	-9.91953
▁sock	-9.91979
▁johnson	-9.91984
▁ended	-9.92
▁exit	-9.92007
▁ke	-9.92021
▁au	-9.92046
▁buzzing	-9.92051
▁gim	-9.92112
▁cheat	-9.92171
▁mob	-9.9227
▁wha	-9.9227
hoo	-9.92608
▁divorce	-9.92694
▁players	-9.92698
▁dirt	-9.92777
▁pia	-9.92852
▁include	-9.93073
▁pizza	-9.93073
▁squad	-9.93073
▁trigger	-9.93073
▁dallas	-9.93073
▁gucci	-9.93073
▁expert	-9.93073
▁stairs	-9.93075
▁aaron	-9.93078
▁unbelievable	-9.93082
▁abby	-9.93107
▁harley	-9.9311
nning	-9.93112
▁grade	-9.93149
▁narrat	-9.93159
ably	-9.93235
▁madame	-9.93282
law	-9.93285
▁fallen	-9.93358
▁mountains	-9.93461
▁stealing	-9.93589
▁flo	-9.93644
hand	-9.93658
ify	-9.9372
▁wounded	-9.93767
pping	-9.94104
▁cub	-9.94113
book	-9.94233
▁lib	-9.94235
well	-9.94276
face	-9.94291
ue	-9.94313
▁flash	-9.94363
▁expensive	-9.94372
▁maurizio	-9.94372
▁research	-9.94372
▁molly	-9.94374
▁linda	-9.94375
▁puppy	-9.94376
▁alert	-9.94384
▁yellow	-9.94388
▁teddy	-9.9439
▁giant	-9.94422
cient	-9.94521
▁com	-9.9463
▁thousands	-9.94677
▁appear	-9.94697
▁gaz	-9.94716
▁pad	-9.94779
▁cabin	-9.94803
▁rope	-9.94865
▁moms	-9.94917
▁growing	-9.95005
▁sisters	-9.9503
▁manner	-9.95112
▁paulie	-9.95115
▁aid	-9.95239
▁ana	-9.95339
▁prec	-9.95467
▁challenge	-9.95478
phone	-9.95481
▁rats	-9.95497
bel	-9.95573
▁perform	-9.95677
▁brilliant	-9.95688
▁mercedes	-9.95688
▁villain	-9.95688
▁whimpering	-9.95688
▁japanese	-9.95688
▁jazz	-9.95688
▁babies	-9.95689
▁blade	-9.95708
gue	-9.95822
▁vision	-9.95844
▁for	-9.95865
▁drum	-9.95877
▁jewel	-9.95917
▁role	-9.96028
▁jew	-9.96046
▁flow	-9.96092
▁fourth	-9.9618
umb	-9.96205
▁squealing	-9.96207
▁jay	-9.96291
▁signed	-9.96377
▁deer	-9.96473
cl	-9.96475
▁mix	-9.96533
▁pigs	-9.96559
▁tone	-9.96617
▁bone	-9.96643
▁towards	-9.96714
▁ram	-9.96719
▁obvious	-9.96843
▁clients	-9.96963
▁cave	-9.96993
▁ambulance	-9.97021
▁appointment	-9.97021
▁equipment	-9.97021
▁garbage	-9.97021
▁joseph	-9.97021
▁majesty	-9.97021
▁mmmhmm	-9.97021
▁result	-9.97021
▁arthur	-9.97021
▁whyd	-9.97024
▁honking	-9.97038
air	-9.97038
▁egg	-9.9705
▁zone	-9.97059
▁hachi	-9.97065
▁plain	-9.97199
▁down	-9.97415
▁fade	-9.97435
▁ordered	-9.97442
▁powers	-9.97503
▁sucks	-9.97553
▁tied	-9.97627
ppy	-9.97703
▁sim	-9.97775
▁confirm	-9.97817
▁fore	-9.97951
▁complain	-9.97971
▁sch	-9.98092
▁bones	-9.9813
lam	-9.98177
▁chuck	-9.98202
ative	-9.98216
▁champ	-9.98347
▁advantage	-9.98372
▁courage	-9.98372
▁mexico	-9.98372
▁physical	-9.98372
▁ocean	-9.98373
▁vacation	-9.98373
▁drown	-9.98373
▁baroness	-9.98375
▁downtown	-9.98376
▁priest	-9.98381
▁reggie	-9.98384
▁intend	-9.98385
▁option	-9.98401
▁alice	-9.9843
▁fox	-9.98433
▁coll	-9.9844
▁corn	-9.98449
▁factory	-9.98509
▁bound	-9.9853
▁tail	-9.9865
can	-9.98762
cat	-9.98801
▁details	-9.9887
▁student	-9.98886
▁artist	-9.98958
▁fella	-9.98964
▁mustve	-9.9912
▁mat	-9.99205
tre	-9.99374
fully	-9.99394
▁tro	-9.99404
▁remove	-9.99445
▁health	-9.99488
ose	-9.99622
▁bun	-9.9966
▁sew	-9.99706
▁measure	-9.99742
▁adventure	-9.99742
▁available	-9.99742
▁average	-9.99742
▁citizen	-9.99742
▁easily	-9.99742
▁experiment	-9.99742
▁scratch	-9.99742
▁separate	-9.99742
▁stomach	-9.99742
▁source	-9.99742
▁alpha	-9.99743
▁exciting	-9.99743
▁whenever	-9.99744
▁style	-9.99745
▁barely	-9.99746
but	-9.99748
▁operator	-9.99749
▁location	-9.9975
▁helen	-9.99752
▁basically	-9.99753
▁vincent	-9.99755
▁recover	-9.99757
▁site	-9.99817
▁guests	-9.99832
▁mid	-9.99856
▁trained	-9.99867
▁don	-10.0022
▁richie	-10.0023
▁carrying	-10.0025
▁fred	-10.0031
▁cure	-10.0035
▁aim	-10.0035
▁arc	-10.0037
▁burning	-10.006
ya	-10.0093
▁writer	-10.0095
▁rick	-10.01
yard	-10.01
▁chick	-10.0113
▁advance	-10.0113
▁elevator	-10.0113
▁whistling	-10.0113
▁muscle	-10.0113
▁insult	-10.0113
▁gerry	-10.0113
▁wrap	-10.0113
▁saint	-10.0113
▁hammer	-10.0114
▁sweetwater	-10.0115
▁blew	-10.0115
▁fetch	-10.0116
▁aboard	-10.0119
▁estate	-10.0122
▁contain	-10.0123
▁ent	-10.0124
▁demon	-10.0125
▁cuba	-10.013
▁laser	-10.0131
▁offered	-10.0147
▁everybodys	-10.0147
▁received	-10.015
▁emma	-10.0157
▁mud	-10.0165
▁hay	-10.0166
oon	-10.0169
▁victory	-10.0176
▁sport	-10.0182
▁hood	-10.0182
▁not	-10.0186
ble	-10.0203
▁parts	-10.0203
▁blowing	-10.0214
▁receive	-10.0216
▁hire	-10.0221
▁fucker	-10.0241
▁mag	-10.0242
▁assault	-10.0254
▁competition	-10.0254
▁giggling	-10.0254
▁motorcycle	-10.0254
▁attend	-10.0254
▁document	-10.0254
▁clark	-10.0254
▁igor	-10.0254
▁nightmare	-10.0254
▁ryan	-10.0254
▁whatre	-10.0255
▁banging	-10.0256
▁section	-10.0257
▁cmon	-10.0266
▁drill	-10.0269
▁counting	-10.0277
▁jacket	-10.0281
▁marine	-10.0282
▁actor	-10.0291
▁siren	-10.0305
▁sandy	-10.032
▁creed	-10.0322
▁disappeared	-10.0333
▁mentioned	-10.0337
▁mam	-10.0341
▁success	-10.0346
▁lawyers	-10.0348
▁screwed	-10.0357
▁loss	-10.0365
▁af	-10.0375
▁particular	-10.0379
▁bullets	-10.0382
▁filled	-10.0386
▁madam	-10.0386
▁amount	-10.0397
▁campaign	-10.0397
▁explosiveskull	-10.0397
▁families	-10.0397
▁mirror	-10.0397
▁popular	-10.0397
▁toilet	-10.0397
▁twist	-10.0397
▁impressive	-10.0397
▁hollywood	-10.0397
▁buried	-10.0397
▁basketball	-10.0397
▁pipe	-10.0397
▁shift	-10.0397
▁assistant	-10.0398
▁sirens	-10.0399
▁clue	-10.0399
▁guide	-10.0402
▁planned	-10.0403
▁sentence	-10.0403
▁beth	-10.0405
▁thud	-10.0405
▁shots	-10.0413
▁heal	-10.0421
▁belt	-10.0429
ept	-10.0429
▁ideas	-10.0447
▁brains	-10.0457
▁drinks	-10.0461
▁depends	-10.0466
▁depend	-10.0473
▁showing	-10.048
▁bump	-10.0485
▁hum	-10.0492
▁create	-10.0508
▁thin	-10.0509
▁tense	-10.0515
▁jon	-10.0519
▁mornin	-10.0531
log	-10.0531
▁effect	-10.0539
▁background	-10.0542
▁champagne	-10.0542
▁django	-10.0542
▁gandalf	-10.0542
▁grandfather	-10.0542
▁incident	-10.0542
▁interrupt	-10.0542
▁traitor	-10.0542
▁device	-10.0542
▁reveal	-10.0542
▁midnight	-10.0542
▁susan	-10.0542
mble	-10.0543
▁committed	-10.0544
▁terrorist	-10.0544
▁cruella	-10.0546
▁firing	-10.0546
▁boring	-10.0547
▁edge	-10.0549
▁ag	-10.055
▁chef	-10.055
▁unfortunately	-10.0551
▁string	-10.0553
▁lean	-10.0568
▁marion	-10.0577
▁coke	-10.0578
▁cube	-10.059
▁mis	-10.0593
▁ate	-10.0593
▁drove	-10.0597
▁joni	-10.0603
▁shouts	-10.0607
▁sexy	-10.0615
win	-10.0616
▁andi	-10.0618
▁carefully	-10.0629
▁of	-10.0633
▁limit	-10.0633
▁nut	-10.0634
▁finding	-10.0637
▁answers	-10.0642
▁jews	-10.0646
▁chat	-10.0655
point	-10.0671
▁community	-10.0689
▁complicated	-10.0689
▁helicopter	-10.0689
▁respond	-10.0689
▁keller	-10.0689
▁stood	-10.0689
▁knowledge	-10.0689
▁chamber	-10.0689
▁senator	-10.069
▁sharon	-10.0692
▁wherever	-10.0693
▁riley	-10.0693
▁stephen	-10.0693
▁solid	-10.0694
▁confession	-10.0694
▁adam	-10.0695
▁anger	-10.0702
chi	-10.0703
▁loan	-10.0706
▁recall	-10.0709
▁data	-10.0715
▁friendly	-10.0716
▁panic	-10.0718
▁bail	-10.073
▁rate	-10.0749
▁pu	-10.0756
▁defend	-10.0775
▁auto	-10.0787
lia	-10.0798
▁gene	-10.08
▁invite	-10.08
▁fishing	-10.0802
▁victims	-10.0803
itz	-10.0805
▁cameras	-10.0807
▁pit	-10.0809
▁flower	-10.0816
▁covered	-10.0821
▁exact	-10.0824
iest	-10.0829
▁guts	-10.0835
pot	-10.0836
row	-10.0836
▁birth	-10.0838
▁circus	-10.0838
▁custody	-10.0838
▁enemies	-10.0838
▁ignore	-10.0838
▁occasion	-10.0838
▁ordinary	-10.0838
▁servant	-10.0838
▁society	-10.0838
▁illegal	-10.0838
▁lawrence	-10.0838
▁transport	-10.0838
▁desire	-10.0839
▁kenny	-10.0839
▁jewish	-10.084
▁joking	-10.0843
▁heck	-10.0845
▁extremely	-10.0847
▁lou	-10.0848
▁capable	-10.085
▁image	-10.0852
▁rug	-10.0857
▁oi	-10.0857
▁penny	-10.0858
▁throwing	-10.0858
▁uhoh	-10.086
▁shaw	-10.0862
▁bout	-10.0863
▁angeles	-10.0868
▁nation	-10.087
▁bleeding	-10.0871
▁ld	-10.088
▁glasses	-10.0882
▁charming	-10.0887
▁files	-10.0897
▁ski	-10.0911
▁toys	-10.0916
▁photograph	-10.0931
▁diamond	-10.0932
▁detail	-10.0934
▁returned	-10.096
▁bend	-10.0977
▁web	-10.0983
▁confess	-10.0984
▁rot	-10.0985
▁anthony	-10.099
▁intelligence	-10.099
▁torture	-10.099
▁violence	-10.099
▁rifle	-10.099
▁ransom	-10.099
▁woke	-10.0991
▁gall	-10.0992
▁sonny	-10.0993
▁brody	-10.0994
▁yearold	-10.1001
wan	-10.1021
▁bates	-10.103
▁belongs	-10.1041
▁ham	-10.1043
▁pity	-10.1053
▁pur	-10.1054
▁giggles	-10.1061
▁ranger	-10.1073
▁lon	-10.1081
▁squeal	-10.1083
▁approach	-10.1083
▁med	-10.1103
▁palm	-10.1106
▁qu	-10.1114
▁drag	-10.1122
▁stronger	-10.1132
▁neo	-10.1142
▁affair	-10.1143
▁celebrate	-10.1143
▁exchange	-10.1143
▁nonsense	-10.1143
▁violent	-10.1143
▁anderton	-10.1143
▁eventually	-10.1143
▁rudder	-10.1143
▁thirty	-10.1143
▁pattern	-10.1143
▁mount	-10.1144
▁surface	-10.1144
▁odie	-10.1144
▁slept	-10.1145
▁progress	-10.1145
▁gee	-10.1148
▁bee	-10.1151
▁sarah	-10.1154
▁missile	-10.1154
▁dealer	-10.1156
▁mason	-10.1158
izing	-10.1164
▁grin	-10.1172
▁toss	-10.1176
▁degrees	-10.1177
▁hatch	-10.1184
▁rust	-10.1193
cc	-10.1208
ency	-10.1219
▁former	-10.1227
▁solo	-10.1228
▁medal	-10.123
▁inform	-10.1241
▁dealing	-10.1244
▁messages	-10.1245
▁loaded	-10.1247
▁rocks	-10.125
▁require	-10.1262
foot	-10.1276
▁dancer	-10.1279
▁americans	-10.1284
▁employ	-10.1298
▁transfer	-10.1299
ola	-10.1299
▁holiday	-10.13
▁revenge	-10.13
▁curious	-10.13
▁donkey	-10.13
▁fashion	-10.13
▁fifty	-10.13
▁jacob	-10.13
▁trunk	-10.13
▁jeez	-10.13
▁lynn	-10.13
▁kyle	-10.13
▁fairy	-10.1302
▁theme	-10.1303
▁valley	-10.1304
▁confused	-10.1306
▁tuck	-10.1311
▁growling	-10.1312
▁doll	-10.1313
▁mick	-10.1314
▁gina	-10.1316
▁noon	-10.1318
▁robbery	-10.1321
▁fr	-10.1323
▁soup	-10.1328
▁title	-10.1329
▁doo	-10.1333
▁suffer	-10.1342
▁brit	-10.1343
▁tai	-10.1355
bar	-10.1367
▁pm	-10.1373
day	-10.1376
▁prisoner	-10.1377
▁steps	-10.1379
▁thy	-10.1382
▁flag	-10.1411
▁pole	-10.1424
▁junk	-10.1428
▁cal	-10.1437
▁mmhm	-10.145
▁pitch	-10.1452
pla	-10.1453
▁invest	-10.1455
ility	-10.1458
▁daphne	-10.1458
▁destiny	-10.1458
▁explosion	-10.1458
▁international	-10.1458
▁invisible	-10.1458
▁junior	-10.1458
▁schultz	-10.1458
▁scientist	-10.1458
▁fifth	-10.1458
▁changing	-10.1458
▁theory	-10.1458
▁lauda	-10.1458
▁tessa	-10.1458
▁starving	-10.1459
▁presence	-10.1459
▁link	-10.1462
▁checking	-10.1462
▁haku	-10.1463
▁teii	-10.1463
▁brake	-10.1464
▁fever	-10.1465
▁rude	-10.1468
▁slim	-10.147
▁sighing	-10.1483
lein	-10.1487
▁commissioner	-10.1489
▁rice	-10.1489
▁passion	-10.1492
▁setting	-10.1497
▁goal	-10.1509
▁kate	-10.151
▁jane	-10.1512
▁stopping	-10.1515
▁matt	-10.1518
▁pla	-10.1524
▁prisoners	-10.1535
▁ford	-10.1543
▁rad	-10.1543
hood	-10.1547
▁butter	-10.1555
▁prayer	-10.1565
tes	-10.1573
▁pissed	-10.1574
▁watched	-10.1584
▁gal	-10.1613
▁comfort	-10.1616
▁circumstances	-10.162
▁mexican	-10.162
▁miguel	-10.162
▁political	-10.162
▁thursday	-10.162
▁twelve	-10.162
▁distract	-10.162
▁mystery	-10.162
▁smoking	-10.162
▁period	-10.162
▁virus	-10.162
▁profit	-10.162
▁ramsey	-10.162
▁garfield	-10.1621
▁gum	-10.1621
ctor	-10.1622
▁ginger	-10.1622
▁gray	-10.1622
▁counselor	-10.1623
▁regard	-10.1623
▁youth	-10.1623
▁punk	-10.1624
▁loop	-10.1624
▁motor	-10.1627
▁lester	-10.1631
▁highly	-10.1643
▁yards	-10.1651
▁rosa	-10.1654
▁prime	-10.1657
▁traveling	-10.166
▁casey	-10.1662
▁hitting	-10.1671
▁moral	-10.1677
▁woody	-10.1681
▁forth	-10.1686
▁surely	-10.1695
avo	-10.1696
▁crewe	-10.1714
ku	-10.1722
bil	-10.1726
▁pills	-10.1736
▁roar	-10.1739
▁tars	-10.1749
▁mandi	-10.1756
▁ships	-10.1758
▁cookie	-10.1762
▁sudden	-10.1766
▁wo	-10.1773
town	-10.1774
part	-10.1775
▁europe	-10.1777
▁cruel	-10.1779
▁basic	-10.1784
▁sacrifice	-10.1784
▁someplace	-10.1784
▁terrific	-10.1784
▁trevor	-10.1784
▁fruit	-10.1784
▁outfit	-10.1784
▁soccer	-10.1784
▁spoil	-10.1784
▁worm	-10.1784
▁firm	-10.1784
▁habit	-10.1784
▁defeat	-10.1784
▁fiona	-10.1784
▁boston	-10.1784
▁nerve	-10.1784
▁cancel	-10.1784
▁swimming	-10.1785
▁legend	-10.1786
▁garage	-10.1788
▁jeff	-10.1789
▁echo	-10.179
▁commit	-10.179
▁rebel	-10.1791
▁qua	-10.1796
▁rancho	-10.1797
▁units	-10.1799
▁anson	-10.1801
▁barry	-10.1808
▁china	-10.1817
▁healthy	-10.182
▁fixed	-10.1822
▁engines	-10.1822
▁ann	-10.1832
▁ir	-10.1841
▁nest	-10.1846
▁owl	-10.1857
▁describe	-10.1863
ava	-10.1863
▁hated	-10.1879
▁based	-10.1886
hold	-10.1889
▁ze	-10.1906
▁dean	-10.1915
▁eva	-10.1916
lock	-10.1917
▁realized	-10.1919
▁core	-10.1928
▁knee	-10.1936
▁central	-10.195
▁happiness	-10.195
▁including	-10.195
▁rabbit	-10.195
▁surrender	-10.195
▁tewkesbury	-10.195
▁tuesday	-10.195
▁claire	-10.195
▁glory	-10.195
▁glove	-10.195
▁intention	-10.195
▁stephanie	-10.195
▁dozen	-10.195
▁couch	-10.195
▁material	-10.195
▁false	-10.195
▁bunny	-10.1952
▁blanc	-10.1952
▁combat	-10.1953
▁niki	-10.1953
▁truman	-10.1954
▁thumb	-10.1954
▁romantic	-10.1954
▁ie	-10.1957
▁filthy	-10.1958
▁norman	-10.1958
▁hyp	-10.1959
▁recently	-10.196
low	-10.1965
▁motion	-10.1969
let	-10.1973
▁luca	-10.1976
▁hunting	-10.1977
▁wipe	-10.1999
▁diamonds	-10.2014
▁jet	-10.2026
▁mill	-10.2031
▁bla	-10.2041
ano	-10.2045
▁motherfuckers	-10.2053
▁hut	-10.2054
▁connect	-10.2059
▁shy	-10.207
▁wick	-10.2078
▁provide	-10.2082
▁cleaning	-10.2085
▁coin	-10.2091
▁q	-10.2095
power	-10.2095
cent	-10.2104
▁criminals	-10.211
▁souls	-10.211
▁bloom	-10.212
▁clamoring	-10.212
▁cocksucker	-10.212
▁delicious	-10.212
▁florida	-10.212
▁governor	-10.212
▁linnet	-10.212
▁mitsuha	-10.212
▁shirley	-10.212
▁university	-10.212
▁recommend	-10.212
▁revolution	-10.212
▁shrek	-10.212
▁washington	-10.212
▁patrol	-10.212
▁permit	-10.212
▁calvin	-10.2121
▁authority	-10.2122
▁foster	-10.2123
▁status	-10.2124
▁naked	-10.2125
▁grass	-10.2125
▁foul	-10.2126
▁gangster	-10.2126
▁guardian	-10.2128
▁boot	-10.2131
mos	-10.2152
▁cutting	-10.2166
▁reached	-10.2167
▁payment	-10.2174
▁patch	-10.2183
▁dreaming	-10.2187
▁chin	-10.2199
▁baker	-10.22
▁thrown	-10.2201
▁tale	-10.2207
▁sink	-10.2214
fuck	-10.2217
▁staring	-10.2225
▁tune	-10.2227
▁bid	-10.2234
▁beating	-10.2241
▁bitches	-10.2241
▁psych	-10.2247
▁chips	-10.2254
▁weigh	-10.2257
▁considered	-10.2268
▁net	-10.2276
▁exam	-10.2277
▁elect	-10.2287
▁lad	-10.2292
▁alcohol	-10.2292
▁malcolm	-10.2292
▁patrizia	-10.2292
▁upbeat	-10.2292
▁auction	-10.2292
▁plastic	-10.2292
▁mumbles	-10.2292
▁attitude	-10.2293
▁loving	-10.2293
▁whiskey	-10.2293
▁aiex	-10.2293
▁donnie	-10.2293
▁orange	-10.2293
▁hostage	-10.2294
▁starboard	-10.2295
▁learning	-10.2295
▁kitty	-10.2295
▁herb	-10.2296
▁gunfire	-10.2296
▁slide	-10.2296
▁photos	-10.2298
▁chuckle	-10.2299
▁sheet	-10.23
▁santa	-10.2302
▁motherfucking	-10.2303
▁vice	-10.2303
▁slight	-10.2305
▁alley	-10.2308
▁warden	-10.2311
▁boxes	-10.2359
▁lala	-10.2366
▁reported	-10.2379
▁taik	-10.2395
▁arab	-10.2405
wn	-10.241
▁lips	-10.2426
▁kit	-10.2431
▁drawing	-10.2442
▁express	-10.2464
▁asses	-10.2466
▁detect	-10.2466
▁behavior	-10.2468
▁explosive	-10.2468
▁necklace	-10.2468
▁paddington	-10.2468
▁passenger	-10.2468
▁approve	-10.2468
▁grateful	-10.2468
▁becoming	-10.2468
▁wendy	-10.2468
▁brush	-10.2468
▁sheila	-10.2468
▁conduct	-10.2468
▁costume	-10.2468
▁wasting	-10.2468
▁voc	-10.2469
▁pump	-10.2469
▁faint	-10.2469
▁weii	-10.247
▁shotgun	-10.2471
▁virgin	-10.2471
▁diana	-10.2473
▁decent	-10.2476
▁comment	-10.2481
▁math	-10.2487
▁homework	-10.2487
▁buying	-10.2489
▁jets	-10.2497
▁discovered	-10.2521
▁bury	-10.2525
▁emotional	-10.2537
▁barn	-10.2551
▁leon	-10.2558
▁served	-10.2559
▁gay	-10.2559
▁touched	-10.2564
▁finest	-10.2575
▁tin	-10.2591
▁attacked	-10.2597
▁and	-10.2604
▁convince	-10.2608
▁buck	-10.2616
load	-10.263
▁issues	-10.2635
▁communist	-10.2646
▁confidence	-10.2646
▁felix	-10.2646
▁inhales	-10.2646
▁magazine	-10.2646
▁mysterious	-10.2646
▁nuclear	-10.2646
▁phoenix	-10.2646
▁scrooge	-10.2646
▁suzanne	-10.2646
▁memories	-10.2646
▁declar	-10.2646
▁distant	-10.2646
▁register	-10.2646
▁warrant	-10.2646
▁cancer	-10.2646
▁equal	-10.2646
▁studio	-10.2646
▁racing	-10.2647
▁maggie	-10.2647
gress	-10.2647
▁carried	-10.2647
▁cease	-10.2648
▁navy	-10.2648
▁education	-10.2648
▁owns	-10.2649
▁colin	-10.2657
▁thick	-10.2661
▁highway	-10.2662
▁mass	-10.2663
▁float	-10.2665
▁whod	-10.2667
▁embarrassing	-10.2678
▁singer	-10.2684
▁useless	-10.2684
▁dash	-10.269
▁tears	-10.2693
▁et	-10.2694
▁locker	-10.2712
▁entirely	-10.2716
▁ward	-10.2719
▁boots	-10.2739
▁mann	-10.2743
▁oc	-10.2755
▁terms	-10.2757
▁jackie	-10.2758
ito	-10.2766
▁falcone	-10.2775
▁touching	-10.2785
▁host	-10.2815
▁painting	-10.2819
▁younger	-10.2822
▁library	-10.2828
▁morpheus	-10.2828
▁banana	-10.2828
▁doorbell	-10.2828
▁prophet	-10.2828
▁silent	-10.2828
▁larry	-10.2828
▁doyle	-10.2828
▁humming	-10.2829
▁ronnie	-10.283
▁online	-10.283
▁gru	-10.2832
▁shopping	-10.2833
▁sadiel	-10.2833
▁jungle	-10.2833
▁coward	-10.2833
▁jury	-10.2837
▁poop	-10.2841
▁cloud	-10.2843
▁clem	-10.2857
▁wander	-10.2866
▁provided	-10.2869
mber	-10.2878
▁clicking	-10.288
ward	-10.289
▁clip	-10.2895
▁lifetime	-10.2895
looking	-10.2903
▁ew	-10.2915
lm	-10.2929
▁lack	-10.2949
▁cro	-10.2951
▁badly	-10.2954
▁discover	-10.2959
piece	-10.299
▁sco	-10.2999
▁russia	-10.3002
gging	-10.3003
▁dial	-10.3006
▁attract	-10.301
▁establish	-10.3013
▁achieve	-10.3013
▁avenue	-10.3013
▁individual	-10.3013
▁judgment	-10.3013
▁noodles	-10.3013
▁taylor	-10.3013
▁hobbit	-10.3013
▁negro	-10.3013
▁routine	-10.3013
▁wonka	-10.3013
▁maintain	-10.3013
▁policy	-10.3013
▁mallory	-10.3013
▁anytime	-10.3013
▁plot	-10.3014
▁impressed	-10.3014
▁plum	-10.3014
▁chaplin	-10.3014
▁electricity	-10.3015
▁charley	-10.3016
▁cents	-10.3016
▁choir	-10.3017
▁toby	-10.3017
▁supper	-10.3018
▁yaya	-10.3019
▁salad	-10.302
ux	-10.3022
▁rooster	-10.3024
▁shane	-10.3027
▁clan	-10.303
▁russ	-10.3031
▁ridge	-10.3037
▁spark	-10.3041
▁embarrassed	-10.3043
▁directly	-10.3048
▁dive	-10.3055
▁farmer	-10.3056
▁alan	-10.3061
▁forty	-10.3064
▁deny	-10.3076
▁dim	-10.3085
▁lina	-10.3096
▁ee	-10.3116
▁ruined	-10.3118
▁beep	-10.313
burg	-10.3141
▁weed	-10.3142
▁fans	-10.3142
▁caused	-10.3144
▁appears	-10.3152
▁creep	-10.3172
▁ash	-10.318
▁gentle	-10.3195
▁mini	-10.3196
▁develop	-10.3198
▁favour	-10.3201
▁accomplish	-10.3202
▁swallow	-10.3202
▁deputy	-10.3202
▁gerald	-10.3202
▁politics	-10.3202
▁tradition	-10.3202
▁wealth	-10.3202
▁whimpers	-10.3202
▁chirping	-10.3202
▁stallion	-10.3202
▁pathetic	-10.3202
▁coughs	-10.3202
▁dodge	-10.3203
▁rumble	-10.3203
▁steel	-10.3203
▁height	-10.3205
▁frozen	-10.3205
▁bucket	-10.3205
▁sammy	-10.3206
▁soap	-10.3207
▁jeanne	-10.3208
▁leak	-10.3208
▁jules	-10.3209
more	-10.3211
▁award	-10.3211
▁basement	-10.3212
▁charm	-10.3213
▁aqui	-10.3213
▁wallet	-10.3222
▁chosen	-10.3226
▁quote	-10.3233
▁leading	-10.3235
▁manny	-10.3241
▁searching	-10.3245
top	-10.3264
▁roaring	-10.3272
▁reality	-10.3283
▁passes	-10.3289
▁earned	-10.3296
▁nazi	-10.3301
▁wil	-10.333
▁mia	-10.3334
▁disappoint	-10.3339
ara	-10.3347
▁neb	-10.3355
▁suspensefu	-10.3361
▁prop	-10.3367
▁ban	-10.3382
▁possess	-10.3388
▁colon	-10.3394
▁district	-10.3394
▁exercise	-10.3394
▁journal	-10.3394
▁lebowski	-10.3394
▁poirot	-10.3394
▁recruit	-10.3394
▁sanchez	-10.3394
▁cruise	-10.3394
▁committee	-10.3394
▁keaton	-10.3394
▁balance	-10.3394
▁paolo	-10.3394
▁motel	-10.3394
▁mouse	-10.3394
▁shining	-10.3395
▁pow	-10.34
▁vanish	-10.34
▁hawk	-10.3401
▁series	-10.3401
▁exception	-10.3422
▁haha	-10.3431
▁stab	-10.3441
▁blu	-10.3447
▁gain	-10.3461
▁ol	-10.3462
▁fri	-10.3466
▁gut	-10.3469
▁riders	-10.3481
▁skip	-10.3491
▁bush	-10.3512
▁rum	-10.3561
▁lit	-10.3566
▁rape	-10.3567
▁orphan	-10.3588
▁associate	-10.359
▁august	-10.359
▁century	-10.359
▁channel	-10.359
▁generous	-10.359
▁grandmother	-10.359
▁imagination	-10.359
▁reputation	-10.359
▁tragedy	-10.359
▁unusual	-10.359
▁complex	-10.359
▁constant	-10.359
▁granny	-10.359
▁monroe	-10.359
▁palace	-10.359
▁soze	-10.359
▁flood	-10.3591
▁sexual	-10.3591
▁dodgeball	-10.3591
▁skinny	-10.3591
▁blaring	-10.3592
▁blanket	-10.3593
▁employee	-10.3593
▁howl	-10.3594
▁bride	-10.3594
▁chewie	-10.3596
▁towel	-10.3598
▁soren	-10.3598
▁accepted	-10.3599
▁swat	-10.3601
▁demons	-10.3606
▁reasonable	-10.3626
▁rode	-10.3636
▁teaching	-10.364
▁ou	-10.364
▁bel	-10.3648
▁justin	-10.3649
▁managed	-10.3651
▁georgi	-10.3654
▁tre	-10.3666
▁trusted	-10.3676
stone	-10.3686
▁pushing	-10.3692
▁til	-10.3694
▁slams	-10.37
▁melt	-10.3703
▁delivered	-10.3707
▁foi	-10.3714
▁wasted	-10.3716
▁trail	-10.3747
▁scan	-10.3756
▁backup	-10.3758
▁actual	-10.3773
▁era	-10.3775
▁mmmm	-10.3775
cus	-10.3776
▁cable	-10.3778
hhh	-10.3785
▁author	-10.3786
▁terror	-10.3787
▁assignment	-10.379
▁behalf	-10.379
▁commercial	-10.379
▁desalvo	-10.379
▁dispatch	-10.379
▁envelope	-10.379
▁greyhound	-10.379
▁potential	-10.379
▁symbol	-10.379
▁technology	-10.379
▁jersey	-10.379
▁pistol	-10.379
▁reverend	-10.379
▁sulley	-10.379
▁valuable	-10.379
▁farewell	-10.379
▁offense	-10.379
▁judah	-10.379
▁velma	-10.379
▁guinea	-10.379
▁kathy	-10.379
▁sausage	-10.379
▁advise	-10.379
▁merely	-10.379
▁opposite	-10.3791
▁russell	-10.3792
▁pepper	-10.3792
▁reverse	-10.3793
▁marcus	-10.3793
▁element	-10.3794
▁charity	-10.3795
▁unlike	-10.3795
▁bored	-10.3797
old	-10.3799
▁blah	-10.3799
pper	-10.3804
▁fart	-10.3804
▁task	-10.3806
▁allen	-10.3816
▁spoken	-10.3819
some	-10.382
▁superman	-10.3823
▁hop	-10.3836
▁toward	-10.3839
▁straighten	-10.3841
▁connected	-10.3856
▁cleared	-10.3858
▁chip	-10.3859
▁darn	-10.3871
▁rod	-10.3884
▁knocked	-10.3886
▁customers	-10.3901
▁escaped	-10.3905
how	-10.3905
▁mall	-10.3906
▁tend	-10.3906
▁opera	-10.3912
▁counter	-10.3917
▁reed	-10.3919
ability	-10.393
▁lip	-10.3935
▁sucker	-10.3935
▁skills	-10.3941
▁cooking	-10.3943
▁accus	-10.3944
▁troops	-10.3963
▁ned	-10.3967
▁tow	-10.3968
▁tara	-10.3979
▁paw	-10.3983
▁product	-10.3989
▁protecting	-10.3994
▁buffalo	-10.3994
▁council	-10.3994
▁escort	-10.3994
▁succeed	-10.3994
▁suspicious	-10.3994
▁underneath	-10.3994
▁terribly	-10.3994
▁wreck	-10.3994
▁creasy	-10.3994
▁senior	-10.3994
▁warehouse	-10.3994
▁brief	-10.3994
▁modern	-10.3994
▁reckon	-10.3994
▁function	-10.3994
▁assassin	-10.3994
▁lewis	-10.3995
▁email	-10.3995
▁kilo	-10.3995
▁relative	-10.3995
▁bounc	-10.3996
▁jonah	-10.3997
▁argue	-10.3997
▁jaden	-10.3997
▁benny	-10.3998
▁spook	-10.3998
▁kong	-10.3998
▁chopper	-10.4
▁chasing	-10.4
▁yah	-10.4005
▁hoover	-10.4007
▁cia	-10.4013
▁monte	-10.4013
▁retired	-10.4014
▁invented	-10.4018
▁labor	-10.4037
▁tryin	-10.4038
▁pour	-10.4041
▁lads	-10.4052
▁disappointed	-10.4054
ich	-10.4054
▁skill	-10.4056
▁bitter	-10.406
izz	-10.4064
▁metro	-10.4065
▁blown	-10.4073
▁pushed	-10.4075
ature	-10.4079
▁pill	-10.4087
▁kar	-10.4087
▁ur	-10.4145
▁paula	-10.4162
keep	-10.4182
▁prom	-10.4185
▁clouds	-10.4186
▁africa	-10.4189
fold	-10.4196
▁fee	-10.4198
just	-10.4202
▁bernardo	-10.4203
▁compliment	-10.4203
▁edmund	-10.4203
▁survival	-10.4203
▁volunteer	-10.4203
▁lecter	-10.4203
▁wrist	-10.4203
▁suzy	-10.4203
▁improv	-10.4203
▁branch	-10.4203
▁daily	-10.4203
▁resist	-10.4203
▁minister	-10.4205
▁signature	-10.4206
▁failure	-10.4206
▁solve	-10.4208
▁radar	-10.421
▁geez	-10.421
▁delta	-10.421
▁bible	-10.421
▁broad	-10.4211
▁click	-10.4213
▁carly	-10.4213
▁toll	-10.4215
▁minor	-10.4216
▁agreement	-10.4217
▁gig	-10.4221
▁ability	-10.4231
▁friendship	-10.4231
▁visitor	-10.4233
▁mona	-10.4263
▁zoo	-10.4268
▁pirate	-10.4269
▁condo	-10.4278
▁shove	-10.4289
▁confirmed	-10.4289
▁cleaned	-10.4322
▁tris	-10.4344
▁screech	-10.4355
▁hunter	-10.4357
▁fully	-10.4361
▁chap	-10.4365
▁testing	-10.4366
two	-10.4368
tory	-10.4373
udge	-10.4375
▁threaten	-10.4376
worth	-10.439
▁punish	-10.4412
▁academy	-10.4415
▁agatha	-10.4415
▁armstrong	-10.4415
▁elephant	-10.4415
▁frankenstein	-10.4415
▁instinct	-10.4415
▁matthew	-10.4415
▁murray	-10.4415
▁detroit	-10.4415
▁honeymoon	-10.4415
▁unknown	-10.4415
▁electronic	-10.4415
▁shelter	-10.4415
▁arguing	-10.4415
▁polite	-10.4415
▁rattling	-10.4415
▁cotton	-10.4416
▁steak	-10.4416
▁yknow	-10.4416
▁cassie	-10.4416
▁authorities	-10.4416
▁cheek	-10.4417
▁elsa	-10.442
▁begging	-10.442
▁sample	-10.442
▁whooping	-10.4421
▁diane	-10.4421
▁peak	-10.4421
▁native	-10.4422
▁soo	-10.4422
▁randy	-10.4423
▁whack	-10.4423
▁murmuring	-10.4425
▁diary	-10.4429
▁beck	-10.443
away	-10.443
shit	-10.4431
▁starling	-10.4434
▁lois	-10.4436
▁dings	-10.4439
▁spa	-10.4442
▁pace	-10.4442
▁steph	-10.4446
▁engaged	-10.4449
▁boil	-10.4449
▁armor	-10.4451
▁officially	-10.4456
▁ricky	-10.4462
▁nora	-10.4464
▁blonde	-10.4471
lapping	-10.4471
▁crow	-10.448
▁successful	-10.4493
▁normally	-10.4499
▁weep	-10.4521
▁pap	-10.4535
▁peaceful	-10.4544
▁movement	-10.4544
▁tire	-10.4553
▁busted	-10.4556
▁rank	-10.4562
fire	-10.4565
▁washed	-10.4567
▁rear	-10.4568
▁blond	-10.4577
▁kissed	-10.4584
aries	-10.4587
▁freaking	-10.4598
▁bunk	-10.4605
▁robber	-10.4606
▁io	-10.461
berry	-10.4611
▁dip	-10.4617
▁zip	-10.4618
water	-10.4625
▁glob	-10.4626
▁clementine	-10.4633
▁extraordinary	-10.4633
▁grocer	-10.4633
▁magnificent	-10.4633
▁resident	-10.4633
▁solution	-10.4633
▁entrance	-10.4633
▁paradise	-10.4633
▁reaction	-10.4633
▁disaster	-10.4633
▁method	-10.4633
▁smiling	-10.4633
▁angle	-10.4633
▁knot	-10.4633
▁network	-10.4633
▁bald	-10.4634
▁powder	-10.4634
▁urgent	-10.4634
▁ter	-10.4636
▁chapter	-10.4636
▁clay	-10.4637
▁nun	-10.4638
▁loki	-10.4638
▁specific	-10.4644
▁tc	-10.4644
▁wore	-10.4647
▁shore	-10.465
▁raid	-10.4652
▁merci	-10.4653
▁treated	-10.4655
▁grunt	-10.4659
▁sab	-10.466
▁frightened	-10.4667
▁corps	-10.4667
▁tries	-10.467
▁moron	-10.4674
▁properly	-10.4675
▁troy	-10.4681
▁kim	-10.4683
▁term	-10.4692
▁latest	-10.4695
▁ark	-10.4698
▁mist	-10.4701
▁pile	-10.4706
▁flame	-10.4717
▁spending	-10.4726
je	-10.4733
▁coco	-10.4734
▁deposit	-10.4735
▁policeman	-10.4736
▁corp	-10.4751
▁messed	-10.4757
▁kara	-10.4763
▁pirates	-10.4788
▁commission	-10.4812
▁recording	-10.4817
bound	-10.4824
pen	-10.4825
▁chino	-10.4833
▁orc	-10.4834
▁inn	-10.4838
ification	-10.4841
▁abigail	-10.4855
▁concert	-10.4855
▁fifteen	-10.4855
▁gustave	-10.4855
▁homicide	-10.4855
▁institution	-10.4855
▁cruz	-10.4855
▁sunshine	-10.4855
▁wouid	-10.4855
▁allison	-10.4855
▁anderson	-10.4855
▁siveth	-10.4855
▁identity	-10.4855
▁warrior	-10.4855
▁crystal	-10.4855
▁revving	-10.4855
▁contest	-10.4855
▁albert	-10.4855
▁reese	-10.4856
▁ease	-10.4856
▁wives	-10.4856
▁rosie	-10.4856
▁stuart	-10.4856
▁andrew	-10.4858
▁championship	-10.4858
▁noble	-10.4859
▁rolling	-10.4861
▁unh	-10.4862
▁beef	-10.4866
▁neil	-10.487
▁soda	-10.4871
▁rigg	-10.4882
▁booth	-10.4886
▁preacher	-10.4893
▁tag	-10.4894
ever	-10.4896
▁you	-10.4915
▁defi	-10.4921
▁dock	-10.4924
▁delivery	-10.4926
▁suffering	-10.4941
▁eaten	-10.4947
▁grid	-10.4961
▁gam	-10.499
▁von	-10.4996
▁kg	-10.5005
▁pub	-10.5013
▁inch	-10.5014
▁wig	-10.5025
▁abandon	-10.5027
▁nic	-10.5027
▁squeeze	-10.5043
▁charged	-10.5043
▁custom	-10.5047
▁affect	-10.5077
▁temp	-10.5077
▁loyal	-10.5079
▁automated	-10.5082
▁circuit	-10.5082
▁concentrate	-10.5082
▁instructions	-10.5082
▁strangle	-10.5082
▁ultimate	-10.5082
▁underwear	-10.5082
▁creaking	-10.5082
▁dagger	-10.5082
▁generation	-10.5082
▁melody	-10.5082
▁script	-10.5082
▁miserable	-10.5082
▁impression	-10.5082
▁adele	-10.5083
▁alicia	-10.5083
▁agency	-10.5083
▁surgery	-10.5084
▁steer	-10.5084
▁halt	-10.5084
▁flew	-10.5085
▁performance	-10.5086
▁sniffles	-10.5087
▁passport	-10.5087
▁scrap	-10.5088
▁selfish	-10.5089
▁wagon	-10.509
▁spill	-10.5092
ology	-10.5093
▁thou	-10.5096
▁surrounded	-10.5113
▁fredo	-10.512
▁sum	-10.5125
▁billion	-10.515
▁stat	-10.5168
▁rag	-10.5169
▁media	-10.5175
▁leo	-10.5185
▁tube	-10.5194
▁corpse	-10.5195
▁slam	-10.521
▁instrument	-10.522
iu	-10.5223
▁lamb	-10.5261
▁enjoying	-10.5274
vision	-10.529
▁sho	-10.5294
▁packed	-10.5308
▁devo	-10.5308
▁mul	-10.531
▁prosecut	-10.5315
▁benefit	-10.5315
▁convoy	-10.5315
▁corporation	-10.5315
▁messenger	-10.5315
▁principal	-10.5315
▁bourne	-10.5315
▁dixon	-10.5315
▁typical	-10.5315
▁admire	-10.5315
▁expose	-10.5315
▁skull	-10.5315
▁internet	-10.5315
▁praise	-10.5315
▁sacred	-10.5315
▁superior	-10.5315
▁salute	-10.5315
▁torn	-10.5316
▁kidnapped	-10.5316
▁deuce	-10.5316
▁broadway	-10.5316
▁division	-10.5316
▁growls	-10.5317
▁arrangement	-10.5318
▁smack	-10.5319
▁defendant	-10.5319
▁accent	-10.5319
▁iook	-10.5322
▁julie	-10.5323
▁riff	-10.5324
▁technically	-10.5325
▁nicole	-10.5327
agol	-10.5327
ically	-10.533
▁halfway	-10.5335
▁doom	-10.5342
▁fold	-10.5347
▁conn	-10.5347
▁whale	-10.5351
▁dating	-10.5359
▁fleet	-10.5366
▁abandoned	-10.5372
▁platt	-10.5378
▁joined	-10.5398
leg	-10.5413
▁settled	-10.5418
▁honored	-10.5423
▁shave	-10.5429
▁warned	-10.5433
berg	-10.5433
▁useful	-10.5436
▁nash	-10.5436
▁tub	-10.5437
▁crossed	-10.5439
▁homeless	-10.5446
▁bosses	-10.5459
▁customer	-10.546
▁ele	-10.5468
▁landing	-10.5502
cia	-10.5513
▁tooth	-10.5516
walk	-10.5528
life	-10.5536
▁considering	-10.5539
▁tempo	-10.554
▁prior	-10.555
▁neigh	-10.5553
▁coincidence	-10.5553
▁corrupt	-10.5553
▁exclaiming	-10.5553
▁explanation	-10.5553
▁laundry	-10.5553
▁procedure	-10.5553
▁publish	-10.5553
▁rothstein	-10.5553
▁soviet	-10.5553
▁liberty	-10.5553
▁brooke	-10.5553
▁caesar	-10.5553
▁capital	-10.5553
▁thrill	-10.5553
▁motive	-10.5553
▁retard	-10.5553
▁hoffa	-10.5553
▁sheep	-10.5553
▁otto	-10.5553
▁await	-10.5553
▁stress	-10.5553
▁thatd	-10.5553
▁cliff	-10.5553
▁stamp	-10.5553
▁sauron	-10.5554
▁oscar	-10.5554
▁bobble	-10.5554
▁golf	-10.5555
▁rotten	-10.5555
▁scarlet	-10.5555
▁organized	-10.5555
▁choking	-10.5556
▁review	-10.5556
▁candle	-10.5556
▁sauce	-10.5557
▁simba	-10.5558
▁tribe	-10.556
▁possession	-10.556
▁jason	-10.5561
▁brick	-10.5563
▁dishes	-10.5564
▁claw	-10.5565
▁dropping	-10.5567
▁beam	-10.5567
▁slice	-10.5569
▁personality	-10.557
▁sailor	-10.557
▁tent	-10.5573
▁luce	-10.5577
▁chart	-10.5598
▁trapped	-10.5599
▁sharply	-10.5603
▁taki	-10.5608
▁aa	-10.5624
▁musician	-10.5626
▁laying	-10.5637
▁marie	-10.5638
▁acc	-10.5641
▁stare	-10.566
▁survived	-10.5664
▁designed	-10.567
▁granted	-10.567
▁yup	-10.5674
▁parent	-10.569
▁carlo	-10.5704
▁safer	-10.5752
▁engage	-10.5755
▁comic	-10.5775
▁announce	-10.5777
▁erase	-10.5778
▁almighty	-10.5797
▁brooklyn	-10.5797
▁conference	-10.5797
▁disguise	-10.5797
▁eject	-10.5797
▁elizabeth	-10.5797
▁enterprise	-10.5797
▁expense	-10.5797
▁fabulous	-10.5797
▁faggot	-10.5797
▁financial	-10.5797
▁holmes	-10.5797
▁lorraine	-10.5797
▁marmalade	-10.5797
▁mechanic	-10.5797
▁nephew	-10.5797
▁satellite	-10.5797
▁plug	-10.5797
▁raju	-10.5797
▁reject	-10.5797
▁dismiss	-10.5797
▁hobbes	-10.5797
▁permanent	-10.5797
▁splash	-10.5797
▁scatter	-10.5797
▁snack	-10.5797
▁sweep	-10.5797
▁supply	-10.5797
▁ashamed	-10.5797
▁article	-10.5797
▁violin	-10.5797
▁gently	-10.5797
▁fireworks	-10.5797
▁thump	-10.5797
▁lightning	-10.5798
▁offend	-10.5799
▁resistance	-10.5799
▁therell	-10.5799
▁hup	-10.5799
▁mummy	-10.5799
▁wilson	-10.58
▁loyalty	-10.58
▁fraud	-10.5801
▁practically	-10.5802
▁beau	-10.5803
▁heii	-10.5805
▁rumor	-10.5805
▁lemon	-10.5805
▁root	-10.5807
▁anita	-10.5809
▁manual	-10.5809
▁african	-10.5813
▁currently	-10.5814
▁mustang	-10.5836
▁naturally	-10.584
▁butcher	-10.5842
▁chewing	-10.5855
▁kiddo	-10.5855
▁musical	-10.5856
▁fried	-10.5868
▁when	-10.5875
▁ai	-10.5878
nium	-10.5884
▁offering	-10.5885
▁shout	-10.5888
▁fro	-10.5896
▁sou	-10.59
▁mixed	-10.59
▁rage	-10.5909
▁released	-10.5912
▁joining	-10.5915
▁jumped	-10.5918
▁gag	-10.5923
five	-10.5927
▁tru	-10.5957
▁kay	-10.5965
like	-10.5971
▁erin	-10.5991
▁produce	-10.6018
▁rd	-10.6024
free	-10.6025
▁recon	-10.6033
state	-10.6034
▁greet	-10.6045
▁despite	-10.6047
▁disrespect	-10.6047
▁elliot	-10.6047
▁intercept	-10.6047
▁invitation	-10.6047
▁kristoff	-10.6047
▁strict	-10.6047
▁turkey	-10.6047
▁wizard	-10.6047
▁alfred	-10.6047
▁hiccup	-10.6047
▁peanut	-10.6047
▁hannah	-10.6047
▁tattoo	-10.6047
▁resume	-10.6047
▁amigo	-10.6047
▁bargain	-10.6047
▁random	-10.6047
▁oath	-10.6047
▁spray	-10.6047
▁tomato	-10.6047
▁dennis	-10.6047
▁prevent	-10.6047
▁seize	-10.6047
▁item	-10.6047
▁roulet	-10.6047
▁pyle	-10.6047
▁organization	-10.6047
▁helmet	-10.6049
▁leonard	-10.6049
▁lungs	-10.605
▁ellis	-10.605
▁rudy	-10.605
▁testify	-10.6051
▁willie	-10.6051
▁remote	-10.6051
▁formula	-10.6052
▁slipped	-10.6052
▁surf	-10.6052
▁lace	-10.6053
▁purse	-10.6054
▁ditch	-10.6054
▁temple	-10.6056
▁precisely	-10.6056
▁thug	-10.6057
▁kickass	-10.6058
▁francisco	-10.6058
agged	-10.6059
▁stack	-10.6062
▁poker	-10.6065
▁compare	-10.6068
▁vow	-10.6068
▁willy	-10.6071
▁finn	-10.6078
▁ballet	-10.6083
▁witnesses	-10.6086
▁cries	-10.6088
▁poet	-10.6103
▁fry	-10.6123
rice	-10.6136
pan	-10.615
▁slap	-10.6152
▁abu	-10.616
▁arse	-10.62
▁this	-10.6229
▁penn	-10.6233
▁pope	-10.624
▁olive	-10.6252
izer	-10.6259
▁soc	-10.626
▁chew	-10.626
▁absolute	-10.6286
▁lame	-10.6291
▁plea	-10.6293
▁civil	-10.63
▁argument	-10.6303
▁balboa	-10.6303
▁bodyguard	-10.6303
▁briefcase	-10.6303
▁communication	-10.6303
▁environment	-10.6303
▁execute	-10.6303
▁facility	-10.6303
▁isabella	-10.6303
▁reservation	-10.6303
▁struggle	-10.6303
▁surveillance	-10.6303
▁umbrella	-10.6303
▁underground	-10.6303
▁rayleen	-10.6303
▁sanitation	-10.6303
▁sherlock	-10.6303
▁constable	-10.6303
▁eazy	-10.6303
▁unique	-10.6303
▁retreat	-10.6303
▁actress	-10.6303
▁annoy	-10.6303
▁chanting	-10.6303
▁civilization	-10.6304
▁internal	-10.6304
▁jerem	-10.6304
▁freezing	-10.6304
▁nathan	-10.6304
▁purple	-10.6304
▁greek	-10.6305
▁harold	-10.6305
▁construction	-10.6305
wise	-10.6306
▁propose	-10.6306
▁lousy	-10.6306
▁baseball	-10.6306
▁bugger	-10.6306
▁wholl	-10.6307
▁sarge	-10.6307
▁arrow	-10.6307
▁bacon	-10.6309
▁digging	-10.631
▁conlon	-10.631
▁javi	-10.6311
▁nd	-10.6311
▁glu	-10.6314
▁spotted	-10.6317
▁packing	-10.6319
▁josh	-10.6325
▁franklin	-10.6326
▁flies	-10.633
▁sack	-10.6331
▁mack	-10.6338
▁vito	-10.634
▁wee	-10.6345
▁betty	-10.6347
▁fuss	-10.6354
▁moaning	-10.6357
fucking	-10.6362
▁painful	-10.6363
▁ali	-10.6367
▁takin	-10.6367
▁highest	-10.6377
▁parties	-10.638
▁tomb	-10.6383
▁cargo	-10.6386
▁continu	-10.6397
▁intr	-10.6399
▁belly	-10.6401
▁sar	-10.6446
▁ira	-10.6452
place	-10.6455
arious	-10.646
bur	-10.6478
▁deeper	-10.6504
▁bent	-10.6505
▁diet	-10.6521
▁guilt	-10.6537
▁bron	-10.6539
▁smaller	-10.6544
▁current	-10.6549
▁ec	-10.6549
know	-10.6551
▁cigar	-10.6566
▁cassandra	-10.6566
▁dwarf	-10.6566
▁increase	-10.6566
▁investigating	-10.6566
▁israel	-10.6566
▁marvelous	-10.6566
▁orchestra	-10.6566
▁orleans	-10.6566
▁possibility	-10.6566
▁privacy	-10.6566
▁rebecca	-10.6566
▁response	-10.6566
▁reynolds	-10.6566
▁shudder	-10.6566
▁throughout	-10.6566
▁horror	-10.6566
▁tournament	-10.6566
▁broadcast	-10.6566
▁superhero	-10.6566
▁teenage	-10.6566
▁divide	-10.6567
▁stabbed	-10.6567
▁robbed	-10.6567
▁territory	-10.6567
▁western	-10.6567
▁barrel	-10.6567
▁hustle	-10.6567
▁astro	-10.6567
▁eleven	-10.6567
▁nancy	-10.6567
▁primary	-10.6568
▁repair	-10.6568
▁quality	-10.6568
▁haunt	-10.6568
ization	-10.6568
▁sobs	-10.6568
▁josie	-10.6569
▁bronx	-10.6569
▁gamble	-10.6569
▁stalk	-10.6569
▁bailey	-10.6569
▁burger	-10.6569
▁medication	-10.657
▁novel	-10.6571
▁scum	-10.6574
▁weakness	-10.6575
▁bouc	-10.6577
▁heroin	-10.6577
▁fence	-10.6577
▁humor	-10.6578
▁hutch	-10.6579
▁castro	-10.6579
▁connie	-10.6588
▁burst	-10.6589
▁spain	-10.6594
▁fitz	-10.6603
▁remo	-10.6608
door	-10.6609
▁drawer	-10.6614
▁hola	-10.6622
cap	-10.6626
mba	-10.6628
▁heroes	-10.6634
▁wicked	-10.6654
▁mit	-10.6656
▁hail	-10.6663
▁tink	-10.669
▁germany	-10.6691
▁chad	-10.6705
▁helpful	-10.6707
▁shi	-10.6755
▁lick	-10.6772
▁brat	-10.6777
▁imagined	-10.6782
▁comb	-10.6784
▁disco	-10.6787
▁boyle	-10.6805
▁marian	-10.6824
▁entertain	-10.6833
▁aragorn	-10.6837
▁audrey	-10.6837
▁clattering	-10.6837
▁explode	-10.6837
▁fantasy	-10.6837
▁furniture	-10.6837
▁luggage	-10.6837
▁moscow	-10.6837
▁obsessed	-10.6837
▁principle	-10.6837
▁undercover	-10.6837
▁vaughn	-10.6837
▁contribut	-10.6837
▁destruction	-10.6837
▁initial	-10.6837
▁similar	-10.6837
▁sniper	-10.6837
▁spencer	-10.6837
▁worship	-10.6837
▁estella	-10.6837
▁hollow	-10.6837
▁thread	-10.6837
▁predict	-10.6837
▁randall	-10.6837
▁struck	-10.6837
▁chancellor	-10.6837
▁cannon	-10.6837
▁stiff	-10.6837
▁disease	-10.6837
▁pleasant	-10.6837
▁droid	-10.6837
▁steam	-10.6837
▁strain	-10.6837
▁southern	-10.6837
▁distort	-10.6837
▁statue	-10.6837
▁content	-10.6837
▁deaf	-10.6838
▁wagner	-10.6838
▁medium	-10.6838
▁maze	-10.6839
▁humble	-10.6839
▁civilian	-10.6839
▁colorado	-10.6839
▁interfere	-10.684
▁spoon	-10.684
▁paperwork	-10.684
▁childhood	-10.6841
▁tut	-10.6842
▁judy	-10.6844
▁owned	-10.6844
▁virginie	-10.6845
▁stream	-10.6846
▁nearby	-10.6847
▁hush	-10.6848
▁biff	-10.685
▁devon	-10.6853
▁mint	-10.6855
▁passage	-10.6856
▁curly	-10.6859
▁active	-10.6866
▁ble	-10.6867
▁alter	-10.6875
play	-10.6877
▁compete	-10.6877
burn	-10.6878
▁creepy	-10.688
▁toot	-10.6886
▁yea	-10.6887
▁stable	-10.6916
▁divorced	-10.6918
▁complaint	-10.6918
▁arr	-10.6919
▁here	-10.6919
▁ink	-10.6945
eyed	-10.695
stru	-10.6992
▁goose	-10.6998
▁pretending	-10.7011
▁fre	-10.7021
▁rhythmic	-10.704
eek	-10.7045
ught	-10.7049
gun	-10.7052
▁casa	-10.7067
night	-10.708
▁safely	-10.7093
▁grease	-10.7095
post	-10.7111
▁blank	-10.7111
▁bleed	-10.7112
▁convention	-10.7115
▁gambling	-10.7115
▁graduate	-10.7115
▁halloween	-10.7115
▁intelligent	-10.7115
▁kludd	-10.7115
▁sensitive	-10.7115
▁sullivan	-10.7115
▁beloved	-10.7115
▁bounty	-10.7115
▁instance	-10.7115
▁museum	-10.7115
▁patterson	-10.7115
▁purchase	-10.7115
▁norton	-10.7115
▁orbit	-10.7115
▁fleur	-10.7115
▁grail	-10.7115
▁pencil	-10.7115
▁naughty	-10.7115
▁kelly	-10.7115
▁crisis	-10.7115
▁multiple	-10.7115
▁pony	-10.7115
▁drain	-10.7115
▁zooey	-10.7116
▁display	-10.7117
▁whew	-10.7117
▁entertainment	-10.7118
▁hahaha	-10.7119
▁attractive	-10.7119
▁youse	-10.712
▁abort	-10.712
▁structure	-10.712
▁jewelry	-10.7121
nia	-10.7123
▁eyeball	-10.7123
▁leap	-10.7124
▁swell	-10.7128
▁treatment	-10.7136
▁obey	-10.7137
▁nba	-10.714
▁arranged	-10.7147
▁collar	-10.7149
▁temper	-10.7151
▁shawn	-10.7168
▁matty	-10.7174
▁convinced	-10.7174
▁asset	-10.7191
▁lamp	-10.7192
eau	-10.7193
▁louise	-10.7201
▁pita	-10.7209
form	-10.7212
▁dish	-10.7215
▁cali	-10.7248
▁mende	-10.7271
▁carson	-10.7281
star	-10.7288
▁camel	-10.73
maker	-10.7308
bag	-10.7331
▁beard	-10.7369
suit	-10.7382
▁extreme	-10.7382
▁unfortunate	-10.7382
▁bothering	-10.7385
▁triple	-10.7397
▁anxious	-10.74
▁atlanta	-10.74
▁breeze	-10.74
▁conclusion	-10.74
▁description	-10.74
▁hannibal	-10.74
▁independent	-10.74
▁industry	-10.74
▁jurisdiction	-10.74
▁patience	-10.74
▁rehearsal	-10.74
▁technique	-10.74
▁catherine	-10.74
▁godfather	-10.74
▁harrison	-10.74
▁install	-10.74
▁lobster	-10.74
▁penguin	-10.74
▁resign	-10.74
▁rainbow	-10.74
▁ralph	-10.74
▁shrink	-10.74
▁addition	-10.74
▁draft	-10.74
▁nelson	-10.74
▁monitor	-10.74
▁mcfly	-10.74
▁raymond	-10.74
▁swamp	-10.74
▁straw	-10.74
▁hyah	-10.74
▁coffin	-10.74
▁mordor	-10.74
▁travis	-10.74
▁brutal	-10.7401
▁facing	-10.7401
▁jesse	-10.7401
▁enforcement	-10.7401
▁aircraft	-10.7402
▁altitude	-10.7402
▁crook	-10.7403
▁species	-10.7403
▁stutter	-10.7405
▁surgeon	-10.7405
▁gondor	-10.7405
▁dominic	-10.7407
▁severe	-10.7409
▁hesitate	-10.7409
▁sur	-10.7409
▁flaw	-10.741
▁thirsty	-10.741
▁choke	-10.7415
▁porch	-10.7415
▁crackling	-10.7417
▁katie	-10.7419
▁fond	-10.7423
▁exhausted	-10.7424
▁worthless	-10.7427
▁lila	-10.7428
▁tech	-10.7431
▁caf	-10.7431
▁gram	-10.7435
▁classic	-10.7435
▁related	-10.7436
▁highness	-10.7444
▁poll	-10.7451
▁apply	-10.7461
▁haul	-10.7472
▁threatened	-10.7476
▁removed	-10.748
▁bello	-10.75
rating	-10.7503
▁mau	-10.7506
▁unable	-10.7508
▁limited	-10.751
stand	-10.7516
▁baron	-10.7517
▁defending	-10.7519
▁hee	-10.752
▁wag	-10.7535
▁lawn	-10.7535
▁rig	-10.754
ological	-10.757
▁gap	-10.7581
▁marsh	-10.7585
▁requested	-10.7595
▁nico	-10.7602
▁driven	-10.7615
▁degree	-10.7631
▁folk	-10.7632
▁beside	-10.7637
ridge	-10.7664
bird	-10.7669
ipped	-10.7678
▁accurate	-10.7694
▁admiral	-10.7694
▁ambush	-10.7694
▁anonymous	-10.7694
▁dimension	-10.7694
▁executive	-10.7694
▁happily	-10.7694
▁kahndaq	-10.7694
▁maverick	-10.7694
▁oswald	-10.7694
▁receipt	-10.7694
▁survivor	-10.7694
▁therefore	-10.7694
▁clarice	-10.7694
▁companies	-10.7694
▁cortez	-10.7694
▁dibble	-10.7694
▁profile	-10.7694
▁savage	-10.7694
▁nineveh	-10.7694
▁duncan	-10.7694
▁costello	-10.7694
▁extend	-10.7694
▁inmate	-10.7694
▁phase	-10.7694
▁error	-10.7694
conscious	-10.7694
▁knuckles	-10.7695
▁honks	-10.7695
▁swiss	-10.7695
▁culture	-10.7695
▁glorious	-10.7695
▁bribe	-10.7696
▁sunset	-10.7696
▁consume	-10.7696
▁winston	-10.7696
▁kidnapping	-10.7696
▁overnight	-10.7696
▁aaah	-10.7697
▁whoohoo	-10.7697
▁delay	-10.7697
▁violation	-10.7698
▁addict	-10.7698
▁wrapped	-10.7698
▁antique	-10.7699
▁brew	-10.7699
▁tramp	-10.7699
▁trent	-10.77
▁jedi	-10.7701
▁commitment	-10.7701
▁investment	-10.7701
▁cabinet	-10.7702
▁riot	-10.7703
▁andre	-10.7703
▁oak	-10.7704
▁caii	-10.7704
▁patty	-10.7705
▁chaos	-10.7705
▁stake	-10.7705
▁arno	-10.7709
▁memo	-10.7709
▁angeline	-10.771
▁oui	-10.7711
▁riddler	-10.7713
▁moan	-10.7713
▁discussion	-10.7718
▁frame	-10.7719
▁ciao	-10.7723
▁taxes	-10.7725
▁liesl	-10.773
▁factor	-10.7746
▁marla	-10.7749
▁betrayed	-10.7749
▁rex	-10.7763
▁drago	-10.7766
▁accused	-10.7775
▁multi	-10.7775
▁assist	-10.7777
▁falcon	-10.7782
▁shutter	-10.7782
▁loudly	-10.7785
▁evey	-10.7786
▁georg	-10.7788
▁introduced	-10.7789
▁senor	-10.7791
▁sang	-10.7798
▁hardest	-10.7831
▁irr	-10.7837
▁louder	-10.7842
▁critic	-10.7912
▁betray	-10.7942
▁immediate	-10.798
▁electric	-10.7984
▁dime	-10.7985
▁rider	-10.7989
▁activity	-10.7997
▁arrival	-10.7997
▁atlantic	-10.7997
▁atreides	-10.7997
▁awkward	-10.7997
▁dynamite	-10.7997
▁fletcher	-10.7997
▁headquarters	-10.7997
▁injured	-10.7997
▁manhattan	-10.7997
▁nixon	-10.7997
▁paranoid	-10.7997
▁politician	-10.7997
▁protocol	-10.7997
▁satisfied	-10.7997
▁sinclair	-10.7997
▁skywalker	-10.7997
▁thieves	-10.7997
▁wisdom	-10.7997
▁yelps	-10.7997
▁breach	-10.7997
▁casual	-10.7997
▁feather	-10.7997
▁gracie	-10.7997
▁length	-10.7997
▁tokyo	-10.7997
▁instant	-10.7997
▁intense	-10.7997
▁stroke	-10.7997
▁album	-10.7997
▁benji	-10.7997
▁hudson	-10.7997
▁reflect	-10.7997
▁whatll	-10.7997
▁drama	-10.7997
▁refuge	-10.7997
▁skirt	-10.7997
▁maddie	-10.7998
▁kray	-10.7998
▁temperature	-10.7998
▁denied	-10.7998
▁maniac	-10.7998
▁parole	-10.7998
▁glen	-10.7998
▁apology	-10.7998
▁susu	-10.7999
▁kidnap	-10.7999
▁transferred	-10.7999
▁backwards	-10.8
▁jenny	-10.8
▁recent	-10.8
▁just	-10.8003
▁makin	-10.8004
▁donna	-10.8005
▁dentist	-10.8006
▁electrical	-10.8007
▁parade	-10.8009
▁scam	-10.8011
▁plantation	-10.8015
▁region	-10.8021
▁captured	-10.8025
▁coup	-10.8028
▁bandit	-10.8029
▁particularly	-10.8036
▁gasp	-10.8047
▁ahem	-10.8051
▁bench	-10.8054
▁rhythm	-10.8079
▁cursed	-10.8091
▁momma	-10.8102
▁informed	-10.8107
▁operate	-10.8112
▁cheating	-10.8144
▁spar	-10.8162
▁entered	-10.8171
▁dumped	-10.8171
▁emotion	-10.8187
rum	-10.822
▁kat	-10.8248
tak	-10.8265
born	-10.8289
seven	-10.8296
▁potato	-10.8298
class	-10.8298
▁livin	-10.8302
▁confident	-10.8309
▁breast	-10.831
▁celebrating	-10.831
▁colleague	-10.831
▁compassion	-10.831
▁disrupt	-10.831
▁essential	-10.831
▁fountain	-10.831
▁gracias	-10.831
▁liquor	-10.831
▁maneuver	-10.831
▁mycroft	-10.831
▁struggling	-10.831
▁transmission	-10.831
▁tremendous	-10.831
▁trinity	-10.831
▁observe	-10.831
▁editor	-10.831
▁olaf	-10.831
▁vault	-10.831
▁pulse	-10.831
▁sionis	-10.831
▁quinn	-10.831
▁imperial	-10.831
▁stash	-10.831
▁madeleine	-10.831
▁conquer	-10.831
▁delighted	-10.831
▁scumbag	-10.831
▁invade	-10.831
▁wolves	-10.831
▁ellen	-10.831
▁protest	-10.831
▁oops	-10.831
▁tragic	-10.8311
▁aisle	-10.8311
▁todd	-10.8311
▁piease	-10.8312
▁psychiatrist	-10.8312
▁clink	-10.8312
▁edward	-10.8312
▁fridge	-10.8313
▁burden	-10.8313
▁elves	-10.8314
▁appearance	-10.8315
▁puff	-10.8315
▁punishment	-10.8316
▁wiii	-10.8316
▁cherry	-10.8318
▁rebound	-10.8318
▁expression	-10.832
▁marshall	-10.832
▁unload	-10.8321
▁european	-10.8322
▁unlock	-10.8322
▁static	-10.8323
box	-10.8325
▁june	-10.8327
▁publicity	-10.8328
▁purge	-10.833
▁tyre	-10.833
▁determined	-10.833
▁collection	-10.8331
▁hitler	-10.8339
▁ego	-10.8341
▁producer	-10.8346
▁thee	-10.8354
▁peg	-10.8356
▁witches	-10.8356
▁conta	-10.8359
▁dna	-10.8359
▁examine	-10.8359
▁peregrine	-10.836
▁trapp	-10.8362
▁goodnight	-10.8362
▁squeaking	-10.8367
▁solved	-10.8367
▁dot	-10.8374
▁cove	-10.8374
▁juan	-10.8376
▁murphy	-10.8392
▁oughta	-10.8392
spire	-10.8414
▁kindness	-10.8418
▁suffered	-10.8422
▁vain	-10.8424
ologist	-10.8426
thorn	-10.8432
▁mistaken	-10.8442
▁formal	-10.8443
iate	-10.8445
▁narc	-10.8462
▁pinch	-10.8484
▁forg	-10.851
▁bake	-10.8572
▁arrange	-10.8592
▁medic	-10.8621
▁counsel	-10.8626
▁vince	-10.8632
▁peculiar	-10.8632
▁appropriate	-10.8632
▁automatic	-10.8632
▁beneath	-10.8632
▁bernstein	-10.8632
▁crawford	-10.8632
▁cripple	-10.8632
▁diploma	-10.8632
▁fortunate	-10.8632
▁fulfill	-10.8632
▁gravity	-10.8632
▁influence	-10.8632
▁jennifer	-10.8632
▁misunderstand	-10.8632
▁perimeter	-10.8632
▁previous	-10.8632
▁receiving	-10.8632
▁stallworth	-10.8632
▁telegram	-10.8632
▁wednesday	-10.8632
▁worries	-10.8632
▁bishop	-10.8632
▁cackling	-10.8632
▁sponsor	-10.8632
▁unhappy	-10.8632
▁studied	-10.8632
▁beverly	-10.8632
▁consequences	-10.8632
▁dignity	-10.8632
▁adrian	-10.8632
▁binky	-10.8632
▁inject	-10.8632
▁leather	-10.8632
▁pearl	-10.8632
▁polish	-10.8632
▁creating	-10.8633
▁relations	-10.8633
▁puss	-10.8633
▁billboards	-10.8633
▁candie	-10.8633
▁locksley	-10.8633
▁crust	-10.8633
▁creative	-10.8634
▁barnier	-10.8635
▁theft	-10.8635
▁assistance	-10.8635
▁whoops	-10.8635
▁adorable	-10.8636
▁existence	-10.8637
▁bolt	-10.8638
▁booze	-10.8639
▁foley	-10.8639
▁balloon	-10.8639
▁korea	-10.864
▁rattle	-10.864
▁coordinates	-10.8641
▁flush	-10.8641
▁jung	-10.8642
▁hallway	-10.8643
▁speck	-10.8643
▁election	-10.8643
▁rising	-10.8643
▁soak	-10.8644
▁cuff	-10.8644
▁farhan	-10.8647
▁frog	-10.865
▁begun	-10.8652
▁wax	-10.8653
▁neat	-10.8657
▁doobi	-10.8658
▁drone	-10.8666
▁label	-10.8673
▁piper	-10.868
▁grim	-10.8686
▁cue	-10.8698
▁sore	-10.8705
▁rv	-10.8712
▁required	-10.8712
▁endless	-10.8712
▁trailer	-10.8718
▁fang	-10.8736
▁restore	-10.8742
▁ax	-10.8742
▁lapd	-10.8743
▁coal	-10.8765
▁roy	-10.8781
▁consult	-10.8789
▁hump	-10.887
▁squeak	-10.8905
called	-10.8937
▁virg	-10.8947
▁barrie	-10.8955
▁inspect	-10.8959
▁convict	-10.896
▁occur	-10.8964
▁kurt	-10.8965
▁douche	-10.8966
▁bicycle	-10.8966
▁curtain	-10.8966
▁destination	-10.8966
▁encounter	-10.8966
▁encourage	-10.8966
▁eudoria	-10.8966
▁exclusive	-10.8966
▁explore	-10.8966
▁harvard	-10.8966
▁jakob	-10.8966
▁mtumbie	-10.8966
▁squirrel	-10.8966
▁vengeance	-10.8966
▁aslan	-10.8966
▁eternal	-10.8966
▁iittie	-10.8966
▁reference	-10.8966
▁shouid	-10.8966
▁stubborn	-10.8966
▁bubble	-10.8966
▁rosebud	-10.8966
▁saburo	-10.8966
▁sophie	-10.8966
▁phillip	-10.8966
▁vicious	-10.8966
▁widow	-10.8966
▁sixteen	-10.8966
▁eliminate	-10.8966
▁headache	-10.8966
▁appeal	-10.8966
▁activate	-10.8966
▁blink	-10.8966
▁sherman	-10.8966
▁eastern	-10.8966
▁grabbed	-10.8966
▁uhuh	-10.8966
▁chimes	-10.8966
▁susie	-10.8967
▁zoobi	-10.8967
▁pension	-10.8967
▁marshal	-10.8967
▁basis	-10.8968
▁scotch	-10.8968
▁bingo	-10.8968
▁syd	-10.8968
▁latin	-10.8973
▁vader	-10.8973
▁stunt	-10.8975
▁herr	-10.8976
▁whir	-10.8977
▁brace	-10.8978
▁shire	-10.8979
▁compton	-10.8979
▁potatoes	-10.8979
▁beings	-10.8984
▁limo	-10.8985
▁craft	-10.8986
▁greedy	-10.899
▁ranch	-10.8991
▁adopted	-10.8995
▁jaw	-10.8996
▁fries	-10.8996
▁hayes	-10.8997
▁dune	-10.8997
▁rack	-10.9001
▁starve	-10.901
▁roth	-10.9011
▁seventh	-10.9014
▁bait	-10.9034
▁ww	-10.9034
▁dang	-10.9036
▁setup	-10.9038
▁lily	-10.9054
▁sixth	-10.9068
▁sau	-10.9073
▁classes	-10.908
poli	-10.9087
▁photographer	-10.9098
range	-10.9112
ura	-10.9143
▁abuse	-10.9157
▁embarrass	-10.9194
gua	-10.9237
▁who	-10.9278
mouth	-10.9285
three	-10.9289
six	-10.929
▁dimitr	-10.9294
▁esp	-10.9295
▁motherfuckin	-10.93
▁chen	-10.9302
▁victoria	-10.9302
▁dispos	-10.9308
▁vietnam	-10.9311
▁appetite	-10.9311
▁arriving	-10.9311
▁assigned	-10.9311
▁astronaut	-10.9311
▁centuries	-10.9311
▁conflict	-10.9311
▁einstein	-10.9311
▁embrace	-10.9311
▁enormous	-10.9311
▁gabriel	-10.9311
▁griffith	-10.9311
▁inaudible	-10.9311
▁precrime	-10.9311
▁preparing	-10.9311
▁residence	-10.9311
▁resources	-10.9311
▁taehun	-10.9311
▁unexpected	-10.9311
▁vegetable	-10.9311
▁vitamin	-10.9311
▁amateur	-10.9311
▁behave	-10.9311
▁saruman	-10.9311
▁chemical	-10.9311
▁concept	-10.9311
▁mistress	-10.9311
▁select	-10.9311
▁snarl	-10.9311
▁endurance	-10.9311
▁bilbo	-10.9311
▁lobby	-10.9311
▁totoro	-10.9311
▁harbor	-10.9311
▁grief	-10.9311
▁serving	-10.9311
▁kiii	-10.9311
▁muttering	-10.9311
▁wallace	-10.9311
▁darien	-10.9311
▁incoming	-10.9311
▁ceiling	-10.9311
▁ticking	-10.9311
▁yacht	-10.9311
▁preserv	-10.9311
▁bureau	-10.9311
▁occurred	-10.9312
▁davis	-10.9312
▁version	-10.9312
▁stain	-10.9312
▁proposition	-10.9312
▁adjust	-10.9312
▁eerie	-10.9313
▁vibrat	-10.9313
▁elvis	-10.9313
▁verify	-10.9314
▁templeton	-10.9314
▁blake	-10.9314
▁betsie	-10.9314
▁racket	-10.9315
▁snoring	-10.9315
▁cheque	-10.9315
▁promote	-10.9316
▁denver	-10.9317
▁subway	-10.9317
▁sector	-10.9319
▁after	-10.9319
▁ripped	-10.9321
▁shaking	-10.9321
▁dunk	-10.9322
▁jeanine	-10.9322
job	-10.9323
▁grimm	-10.9324
four	-10.9326
▁mobile	-10.9326
▁upper	-10.9327
▁romance	-10.9329
▁foolish	-10.933
▁largest	-10.933
▁inches	-10.9331
▁barber	-10.9332
▁stepped	-10.9334
▁poke	-10.9341
▁dough	-10.9341
▁aldo	-10.9342
▁clothing	-10.9348
onne	-10.9351
▁skies	-10.9352
▁raw	-10.9356
▁zi	-10.9358
▁soil	-10.9361
▁hiya	-10.9366
▁matches	-10.9371
▁inner	-10.9377
▁pickup	-10.9379
▁tender	-10.9387
▁hutu	-10.9411
bone	-10.9453
▁cooperate	-10.9475
long	-10.9489
▁alma	-10.9497
▁zoom	-10.9504
▁terri	-10.9538
▁peel	-10.9545
▁frighten	-10.9612
▁rom	-10.9626
▁coop	-10.9646
▁there	-10.9655
▁basket	-10.9667
▁alabama	-10.9668
▁amsterdam	-10.9668
▁autograph	-10.9668
▁bollocks	-10.9668
▁coyote	-10.9668
▁curtis	-10.9668
▁dewald	-10.9668
▁evacuate	-10.9668
▁gertrude	-10.9668
▁groove	-10.9668
▁hanratty	-10.9668
▁jessica	-10.9668
▁johanna	-10.9668
▁juvenile	-10.9668
▁purrbles	-10.9668
▁religion	-10.9668
▁strickland	-10.9668
▁uncomfortable	-10.9668
▁galaxy	-10.9668
▁inspired	-10.9668
▁lieberman	-10.9668
▁temporary	-10.9668
▁thrust	-10.9668
▁amelia	-10.9668
▁anyhow	-10.9668
▁maretto	-10.9668
▁steward	-10.9668
▁translate	-10.9668
▁horace	-10.9668
▁froggy	-10.9668
▁visual	-10.9668
▁lifeboat	-10.9668
▁martinez	-10.9668
▁hunch	-10.9668
▁lyric	-10.9668
▁darius	-10.9668
▁stacy	-10.9668
▁clyde	-10.9668
▁essence	-10.9668
▁pierre	-10.9668
▁michel	-10.9668
▁messala	-10.9668
▁trauma	-10.9668
▁daesu	-10.9668
▁greg	-10.9668
▁yyou	-10.9668
▁vital	-10.9668
▁whining	-10.9669
▁rookie	-10.9669
▁impact	-10.9669
▁waitress	-10.9669
▁goanna	-10.9669
▁righteous	-10.967
▁strap	-10.967
▁summon	-10.967
▁pumpkin	-10.967
▁ruthless	-10.967
▁lightyear	-10.9671
▁porn	-10.9671
▁rohan	-10.9672
▁muito	-10.9672
▁ernie	-10.9672
▁massage	-10.9672
▁terry	-10.9673
▁engagement	-10.9673
▁axel	-10.9674
▁burke	-10.9674
▁massive	-10.9675
▁whys	-10.9675
▁alike	-10.9676
▁moses	-10.9677
▁affection	-10.9677
▁salary	-10.9677
▁rapid	-10.9679
▁management	-10.9679
▁bind	-10.9685
▁dimitri	-10.9686
▁keen	-10.9687
▁noah	-10.9687
▁onion	-10.969
▁everyday	-10.9692
▁wade	-10.9693
▁peek	-10.9719
pants	-10.9723
▁quest	-10.9725
▁sadie	-10.9745
▁plank	-10.9763
lves	-10.98
▁ahhh	-10.9877
▁spice	-10.9922
▁hose	-10.9948
▁crop	-10.9954
▁profession	-10.9995
▁involve	-11
▁mode	-11.0001
▁curl	-11.0009
school	-11.0013
▁ambition	-11.0038
▁arizona	-11.0038
▁arrakis	-11.0038
▁bartender	-11.0038
▁burchard	-11.0038
▁celebration	-11.0038
▁ceremony	-11.0038
▁fontaine	-11.0038
▁fugitive	-11.0038
▁hamilton	-11.0038
▁mathilda	-11.0038
▁puzzle	-11.0038
▁reception	-11.0038
▁religious	-11.0038
▁turkish	-11.0038
▁baggins	-11.0038
▁flavor	-11.0038
▁guidance	-11.0038
▁identify	-11.0038
▁lifeguard	-11.0038
▁thorough	-11.0038
▁turtle	-11.0038
▁alliance	-11.0038
▁batteries	-11.0038
▁griffin	-11.0038
▁mafia	-11.0038
▁haircut	-11.0038
▁seventeen	-11.0038
▁blackmail	-11.0038
▁divine	-11.0038
▁sunrise	-11.0038
▁ramona	-11.0038
▁elaine	-11.0038
▁buddies	-11.0038
▁pierce	-11.0038
▁decade	-11.0038
▁centre	-11.0038
▁session	-11.0038
▁personnel	-11.0038
▁chalk	-11.0038
▁leslie	-11.0038
▁courtesy	-11.0039
▁application	-11.0039
▁perkins	-11.0039
▁bracelet	-11.0039
▁tickle	-11.0039
▁mortal	-11.0039
▁carpet	-11.0039
▁scholarship	-11.0039
▁flirt	-11.0039
▁torch	-11.0039
▁silk	-11.0039
▁willow	-11.0039
▁verbal	-11.0039
▁wildhorn	-11.0039
▁tutsi	-11.004
▁mellie	-11.004
▁bobblehead	-11.004
▁pillow	-11.0041
▁update	-11.0041
▁solomon	-11.0041
▁greetings	-11.0041
▁flare	-11.0042
▁woah	-11.0042
▁robbie	-11.0042
▁amaze	-11.0042
▁audition	-11.0042
▁sunny	-11.0043
▁hissing	-11.0043
▁judea	-11.0043
▁announcement	-11.0044
▁dragged	-11.0044
▁donut	-11.0044
▁classified	-11.0045
▁swap	-11.0046
▁marble	-11.0046
▁bert	-11.0047
▁paso	-11.0047
▁raft	-11.0047
▁ouch	-11.0048
▁pimp	-11.0051
▁lauren	-11.0052
▁troll	-11.0053
▁classical	-11.006
▁poem	-11.0064
▁located	-11.0067
▁opal	-11.007
▁ammo	-11.0071
▁mable	-11.0073
▁peterson	-11.0073
▁dover	-11.0074
▁shipment	-11.0083
▁rail	-11.0084
▁thered	-11.0085
▁challenger	-11.0098
▁heel	-11.0147
▁ruth	-11.0183
▁clap	-11.0207
▁consul	-11.0241
▁morg	-11.0247
▁shovel	-11.0289
▁grip	-11.0298
▁quo	-11.0324
▁sigh	-11.0332
▁preach	-11.0357
jah	-11.0362
▁pork	-11.0367
▁retire	-11.0381
thats	-11.0402
▁riddle	-11.0406
▁ador	-11.0407
▁column	-11.0423
▁disagree	-11.0423
▁egypt	-11.0423
▁festival	-11.0423
▁ghetto	-11.0423
▁grenade	-11.0423
▁horizon	-11.0423
▁itomori	-11.0423
▁lincoln	-11.0423
▁mathematic	-11.0423
▁narcotics	-11.0423
▁november	-11.0423
▁precinct	-11.0423
▁pronounce	-11.0423
▁sequence	-11.0423
▁shakespeare	-11.0423
▁smuggle	-11.0423
▁stewart	-11.0423
▁therapy	-11.0423
▁absurd	-11.0423
▁belief	-11.0423
▁cocktail	-11.0423
▁december	-11.0423
▁lunatic	-11.0423
▁mildred	-11.0423
▁nikki	-11.0423
▁stevie	-11.0423
▁alexander	-11.0423
▁distinguish	-11.0423
▁pledge	-11.0423
▁bruise	-11.0423
▁midget	-11.0423
▁colour	-11.0423
▁peggy	-11.0423
▁klaus	-11.0423
▁philip	-11.0423
▁stereo	-11.0423
▁investigate	-11.0423
▁akim	-11.0423
▁zach	-11.0423
▁throne	-11.0423
▁mustache	-11.0423
▁finch	-11.0423
▁narrow	-11.0423
▁stitch	-11.0423
▁jelly	-11.0423
▁defect	-11.0423
▁relay	-11.0423
▁bronze	-11.0423
▁meteorite	-11.0423
▁lottery	-11.0423
▁ankle	-11.0424
▁specifically	-11.0425
▁flashlight	-11.0425
▁serial	-11.0426
▁scheme	-11.0427
▁upside	-11.0428
▁corrie	-11.0429
▁puke	-11.0429
▁overboard	-11.0429
▁lockdown	-11.0429
▁spock	-11.0429
▁elwood	-11.0429
▁herd	-11.043
▁operating	-11.043
▁moose	-11.0431
▁grownup	-11.0433
▁giuseppe	-11.0433
▁groom	-11.0436
▁acid	-11.044
▁global	-11.0441
▁waltz	-11.0443
▁accountant	-11.0445
▁instrumental	-11.0448
▁drew	-11.0452
▁leeds	-11.0453
▁feei	-11.0453
▁madness	-11.0455
▁dj	-11.0461
▁mansion	-11.0473
▁marina	-11.0474
▁asha	-11.0482
▁hugh	-11.0484
▁lago	-11.0485
▁spic	-11.0485
▁fog	-11.0493
▁brass	-11.0495
▁junkie	-11.0507
▁nickel	-11.0511
▁qualifie	-11.0535
▁faithful	-11.0568
▁liz	-11.0648
made	-11.0722
▁coma	-11.073
▁flee	-11.0749
▁prim	-11.075
▁norm	-11.0797
▁technical	-11.0805
▁whisper	-11.0811
▁inherit	-11.0821
destruct	-11.0823
▁airplane	-11.0823
▁austria	-11.0823
▁capacity	-11.0823
▁cleveland	-11.0823
▁conspiracy	-11.0823
▁dorothy	-11.0823
▁evolution	-11.0823
▁finnegan	-11.0823
▁genuine	-11.0823
▁hysterical	-11.0823
▁jerusalem	-11.0823
▁marsellus	-11.0823
▁negotiate	-11.0823
▁observation	-11.0823
▁oconnor	-11.0823
▁october	-11.0823
▁ofelia	-11.0823
▁recognise	-11.0823
▁rendezvous	-11.0823
▁strategy	-11.0823
▁suspicion	-11.0823
▁sustain	-11.0823
▁switzerland	-11.0823
▁sylvia	-11.0823
▁beware	-11.0823
▁brandnew	-11.0823
▁darlene	-11.0823
▁minimum	-11.0823
▁probiem	-11.0823
▁quilok	-11.0823
▁relief	-11.0823
▁trousers	-11.0823
▁afterwards	-11.0823
▁combination	-11.0823
▁companion	-11.0823
▁delusion	-11.0823
▁population	-11.0823
▁temptation	-11.0823
▁violet	-11.0823
▁becca	-11.0823
▁gossip	-11.0823
▁sicily	-11.0823
▁transform	-11.0823
▁pellet	-11.0823
▁transmit	-11.0823
▁cruisin	-11.0823
▁racist	-11.0823
▁submit	-11.0823
▁anchor	-11.0823
▁samuel	-11.0823
▁governess	-11.0823
▁carmine	-11.0823
▁coisa	-11.0823
▁eighteen	-11.0823
▁causing	-11.0823
▁roast	-11.0823
▁pursue	-11.0823
▁pursuit	-11.0823
▁sensation	-11.0823
▁pacific	-11.0824
▁untie	-11.0824
▁drift	-11.0824
▁indicate	-11.0824
▁lazy	-11.0824
▁carrier	-11.0825
▁clanging	-11.0825
▁fremen	-11.0825
▁bonnie	-11.0825
▁blaze	-11.0825
▁clara	-11.0826
▁psst	-11.0826
▁wong	-11.0827
▁scale	-11.0828
▁iife	-11.0829
▁riva	-11.083
▁tango	-11.083
▁ohhh	-11.083
▁glow	-11.0833
▁production	-11.0834
▁dedicated	-11.0834
▁dumbass	-11.0836
▁toad	-11.0837
▁mav	-11.0842
▁airline	-11.0842
▁tej	-11.0843
▁tailor	-11.0843
▁mayday	-11.0843
▁fork	-11.0844
▁cities	-11.0848
▁gook	-11.0849
▁tide	-11.085
▁heist	-11.085
▁indy	-11.0855
▁shade	-11.0856
▁xu	-11.0857
▁barrier	-11.0859
▁cameron	-11.0862
▁layla	-11.0863
▁sway	-11.0864
cake	-11.0894
▁lime	-11.0936
▁fist	-11.0943
▁pond	-11.0954
▁extract	-11.0963
▁havin	-11.0966
▁tot	-11.0997
scope	-11.1092
▁ange	-11.1123
▁fuse	-11.1168
▁mach	-11.1172
▁surround	-11.1184
▁capture	-11.1201
▁greed	-11.1211
around	-11.1214
▁runnin	-11.123
▁whisk	-11.1238
▁aggressive	-11.1239
▁ancestors	-11.1239
▁approval	-11.1239
▁believing	-11.1239
▁candidate	-11.1239
▁cheerleader	-11.1239
▁communicate	-11.1239
▁confront	-11.1239
▁conscience	-11.1239
▁deploy	-11.1239
▁dolphin	-11.1239
▁fascinating	-11.1239
▁kelani	-11.1239
▁lelaina	-11.1239
▁manipulat	-11.1239
▁matrix	-11.1239
▁montoya	-11.1239
▁mortgage	-11.1239
▁santiago	-11.1239
▁slaughter	-11.1239
▁sleeve	-11.1239
▁stammers	-11.1239
▁stratton	-11.1239
▁tatiana	-11.1239
▁thanksgiving	-11.1239
▁underestimate	-11.1239
▁withdraw	-11.1239
▁disconnect	-11.1239
▁distress	-11.1239
▁rufus	-11.1239
▁burglar	-11.1239
▁optim	-11.1239
▁promotion	-11.1239
▁reserve	-11.1239
▁sorrow	-11.1239
▁intruder	-11.1239
▁relieve	-11.1239
▁bubba	-11.1239
▁reliable	-11.1239
▁april	-11.1239
▁byron	-11.1239
▁jubal	-11.1239
▁laurie	-11.124
▁fbl	-11.124
▁narnia	-11.124
▁mutual	-11.124
▁mourn	-11.124
▁terminal	-11.124
▁harvest	-11.124
▁ferry	-11.124
▁ogre	-11.124
▁robbing	-11.124
▁acquir	-11.124
▁jolly	-11.124
▁tamra	-11.124
▁ensure	-11.124
▁creek	-11.1241
▁jimmie	-11.1241
▁lizard	-11.1241
▁plague	-11.1241
▁naomi	-11.1241
▁fisk	-11.1241
▁feature	-11.1242
▁favourite	-11.1242
▁contrary	-11.1242
▁donald	-11.1242
▁transit	-11.1242
▁rogue	-11.1243
▁amuse	-11.1246
▁clinic	-11.1246
▁cockroaches	-11.1246
▁hmph	-11.1246
▁morrie	-11.1248
▁entry	-11.1248
▁effective	-11.1249
▁reform	-11.1249
▁sosa	-11.1249
▁beak	-11.125
▁waking	-11.125
titude	-11.1252
▁touchdown	-11.1253
▁rival	-11.1253
▁sober	-11.1254
▁donation	-11.1255
▁sven	-11.1255
▁slick	-11.1256
▁kali	-11.1257
▁hopefully	-11.1258
▁karl	-11.126
▁toid	-11.1263
▁ashes	-11.1267
▁solar	-11.1269
▁bowers	-11.1277
pitched	-11.1283
▁pode	-11.1291
▁tore	-11.1297
▁rash	-11.13
▁blend	-11.1311
▁frost	-11.1314
▁oliver	-11.1331
▁intel	-11.1336
▁define	-11.1339
good	-11.1356
▁zap	-11.1362
▁urge	-11.1392
▁flam	-11.1538
▁fianc	-11.1559
▁qual	-11.1602
friend	-11.1629
▁spec	-11.1631
girl	-11.1649
▁incredibl	-11.1651
▁acknowledge	-11.1674
▁affirmative	-11.1674
▁alternative	-11.1674
▁apologies	-11.1674
▁astrid	-11.1674
▁brigitta	-11.1674
▁catholic	-11.1674
▁certificate	-11.1674
▁compromise	-11.1674
▁greece	-11.1674
▁immortal	-11.1674
▁kansas	-11.1674
▁lansky	-11.1674
▁leprechaun	-11.1674
▁necessarily	-11.1674
▁outrageous	-11.1674
▁philadelphia	-11.1674
▁picnic	-11.1674
▁rhyme	-11.1674
▁tenneray	-11.1674
▁trumpet	-11.1674
▁vacuum	-11.1674
▁verdict	-11.1674
▁wardrobe	-11.1674
▁witwer	-11.1674
▁wolken	-11.1674
▁aronoff	-11.1674
▁descend	-11.1674
▁pacino	-11.1674
▁somewhat	-11.1674
▁wretch	-11.1674
▁enchant	-11.1674
▁frederick	-11.1674
▁rascal	-11.1674
▁recipe	-11.1674
▁refresh	-11.1674
▁romilly	-11.1674
▁saturn	-11.1674
▁unfair	-11.1674
▁vessel	-11.1674
▁heartbeat	-11.1674
▁jefferson	-11.1674
▁mcmanus	-11.1674
▁penalty	-11.1674
▁reckless	-11.1674
▁beacon	-11.1674
▁knox	-11.1674
▁vomit	-11.1674
▁barbara	-11.1674
▁dummy	-11.1674
▁milady	-11.1674
▁pikey	-11.1674
▁vietnamese	-11.1674
▁woolf	-11.1674
▁gordie	-11.1674
▁teresa	-11.1674
▁razor	-11.1674
▁vinnie	-11.1674
▁zasa	-11.1674
▁conceal	-11.1674
▁julian	-11.1674
▁carriage	-11.1674
▁xray	-11.1674
▁howre	-11.1674
▁juicy	-11.1674
▁claus	-11.1674
▁bloodshy	-11.1674
▁leaf	-11.1674
▁assuming	-11.1675
▁stomp	-11.1675
▁maroni	-11.1675
▁ponies	-11.1675
▁heip	-11.1675
▁ivan	-11.1675
▁spiritual	-11.1675
▁clerk	-11.1675
▁pedro	-11.1675
▁spacecraft	-11.1675
▁mischa	-11.1677
▁clanking	-11.1677
▁vamos	-11.1678
▁eliza	-11.1678
▁adoption	-11.1678
▁darrin	-11.1678
▁movin	-11.1679
▁invention	-11.1679
▁priority	-11.168
▁omar	-11.1681
▁seattle	-11.1683
▁bold	-11.1683
▁cattle	-11.1683
▁connor	-11.1687
▁ripper	-11.1688
▁todo	-11.169
▁drank	-11.169
▁creation	-11.1693
▁objection	-11.1695
▁footage	-11.1696
▁tourist	-11.1697
stock	-11.1697
▁minus	-11.1699
▁aww	-11.1699
▁elton	-11.1705
▁fax	-11.1707
▁scent	-11.1708
▁jock	-11.172
▁semi	-11.1733
▁historical	-11.1743
▁gala	-11.1755
▁reai	-11.1755
▁vida	-11.1768
onald	-11.1805
▁mak	-11.1805
▁critical	-11.1807
▁papi	-11.1813
▁loca	-11.1904
position	-11.1922
horn	-11.1976
pound	-11.2103
tempo	-11.2104
view	-11.2106
▁givin	-11.2123
▁convers	-11.2126
▁trespass	-11.2129
▁accomplice	-11.2129
▁advisor	-11.2129
▁attached	-11.2129
▁biscuit	-11.2129
▁broomhilda	-11.2129
▁bullseye	-11.2129
▁celebrity	-11.2129
▁comrade	-11.2129
▁concentration	-11.2129
▁corporate	-11.2129
▁deceased	-11.2129
▁demonstration	-11.2129
▁dessert	-11.2129
▁dinosaur	-11.2129
▁divergent	-11.2129
▁dolores	-11.2129
▁eboshi	-11.2129
▁echelon	-11.2129
▁felipe	-11.2129
▁fragile	-11.2129
▁gracious	-11.2129
▁grazie	-11.2129
▁griswald	-11.2129
▁heavyweight	-11.2129
▁increasing	-11.2129
▁jacqueline	-11.2129
▁koskov	-11.2129
▁krypto	-11.2129
▁marilyn	-11.2129
▁nottingham	-11.2129
▁olympic	-11.2129
▁platform	-11.2129
▁popcorn	-11.2129
▁possibilities	-11.2129
▁practicing	-11.2129
▁quarrel	-11.2129
▁saiwing	-11.2129
▁scientific	-11.2129
▁september	-11.2129
▁shepherd	-11.2129
▁sneeze	-11.2129
▁splendid	-11.2129
▁ventura	-11.2129
▁wilhelm	-11.2129
▁willoughby	-11.2129
▁carpenter	-11.2129
▁cocaine	-11.2129
▁condemn	-11.2129
▁corporal	-11.2129
▁cricket	-11.2129
▁dreadful	-11.2129
▁evaluat	-11.2129
▁lopez	-11.2129
▁maximum	-11.2129
▁supreme	-11.2129
▁elbow	-11.2129
▁epps	-11.2129
▁godmother	-11.2129
▁helm	-11.2129
▁liquid	-11.2129
▁nickname	-11.2129
▁override	-11.2129
▁patriot	-11.2129
▁radiation	-11.2129
▁delicate	-11.2129
▁pancakes	-11.2129
▁sworn	-11.2129
▁venture	-11.2129
▁adapt	-11.2129
▁curve	-11.2129
▁caretaker	-11.2129
▁chloe	-11.2129
▁dragonfly	-11.2129
▁bogey	-11.2129
▁hildi	-11.2129
▁creaks	-11.2129
▁fabric	-11.2129
▁teammate	-11.2129
▁cobra	-11.2129
▁decline	-11.2129
▁joob	-11.2129
▁klan	-11.2129
▁lukas	-11.2129
▁navigat	-11.2129
▁cartoon	-11.2129
▁stray	-11.2129
▁countries	-11.213
▁magnet	-11.213
▁serena	-11.213
▁japan	-11.2131
▁yankee	-11.2131
▁gummer	-11.2132
▁sought	-11.2132
▁ladder	-11.2133
▁retirement	-11.2133
▁nitro	-11.2134
▁boogie	-11.2135
▁berlin	-11.2135
▁snoop	-11.2136
▁serge	-11.2136
▁kurtz	-11.2136
▁kemo	-11.2137
▁conviction	-11.2137
▁chapel	-11.214
▁accidentally	-11.214
▁shred	-11.214
▁xian	-11.2141
▁chapman	-11.2142
▁senate	-11.2142
▁armour	-11.2143
▁chug	-11.2143
▁sharing	-11.2144
▁harmless	-11.2144
▁quint	-11.2144
▁amongst	-11.2147
▁myth	-11.2148
▁google	-11.2149
▁dickhead	-11.215
▁popped	-11.2151
▁mais	-11.2152
▁slut	-11.2153
▁tuna	-11.2158
▁popping	-11.2159
▁leia	-11.2163
▁heir	-11.2167
▁buckle	-11.221
▁carbon	-11.2249
▁logical	-11.2254
aaaa	-11.2463
american	-11.2579
yearold	-11.2579
▁contra	-11.258
▁precise	-11.2592
▁coordinat	-11.2593
year	-11.2593
▁educat	-11.26
through	-11.2605
▁alodor	-11.2605
▁architect	-11.2605
▁bachelor	-11.2605
▁belfort	-11.2605
▁bonjour	-11.2605
▁columbia	-11.2605
▁convenient	-11.2605
▁crocodile	-11.2605
▁damascus	-11.2605
▁ferrari	-11.2605
▁hercule	-11.2605
▁humiliate	-11.2605
▁hurricane	-11.2605
▁ikioi	-11.2605
▁immunity	-11.2605
▁ketchup	-11.2605
▁knicks	-11.2605
▁layeeodl	-11.2605
▁legitimate	-11.2605
▁lesbian	-11.2605
▁mandrake	-11.2605
▁ominous	-11.2605
▁oxygen	-11.2605
▁philosophy	-11.2605
▁preparation	-11.2605
▁puppies	-11.2605
▁rattlesnake	-11.2605
▁scenario	-11.2605
▁sentimental	-11.2605
▁sollozzo	-11.2605
▁spectacular	-11.2605
▁thatcher	-11.2605
▁timothy	-11.2605
▁tobias	-11.2605
▁twilight	-11.2605
▁volume	-11.2605
▁wazowski	-11.2605
▁chihiro	-11.2605
▁coconut	-11.2605
▁generator	-11.2605
▁january	-11.2605
▁massacre	-11.2605
▁oracle	-11.2605
▁shrimp	-11.2605
▁snatch	-11.2605
▁substance	-11.2605
▁terrified	-11.2605
▁hallelu	-11.2605
▁maximus	-11.2605
▁salvation	-11.2605
▁swift	-11.2605
▁vagina	-11.2605
▁beckett	-11.2605
▁caution	-11.2605
▁defence	-11.2605
▁vienna	-11.2605
▁caravan	-11.2605
▁couid	-11.2605
▁reactor	-11.2605
▁overcome	-11.2605
▁enoch	-11.2605
▁income	-11.2605
▁worn	-11.2605
▁combined	-11.2605
▁gallery	-11.2605
▁misery	-11.2605
▁holler	-11.2605
▁restrain	-11.2605
▁jasper	-11.2605
▁northern	-11.2606
▁flint	-11.2606
▁stern	-11.2607
▁plaza	-11.2607
▁strapped	-11.2607
▁inheritance	-11.2607
▁banner	-11.2608
▁mhm	-11.2608
▁scoop	-11.2609
▁thudding	-11.2609
▁behold	-11.2609
▁orphanage	-11.261
▁repay	-11.261
▁toothless	-11.261
▁reset	-11.261
▁tension	-11.2611
▁commence	-11.2611
▁blair	-11.2611
▁iove	-11.2612
▁duties	-11.2613
▁hatred	-11.2616
▁franco	-11.2623
▁surge	-11.2625
▁invent	-11.2625
▁crane	-11.2626
▁mj	-11.263
▁dante	-11.2632
▁cram	-11.2648
strade	-11.2681
▁instrumenta	-11.2773
▁arabia	-11.2791
▁replica	-11.2914
▁butch	-11.302
minute	-11.3079
▁sittin	-11.3096
▁audit	-11.31
▁violat	-11.3102
▁cult	-11.3104
▁imprison	-11.3105
▁neutral	-11.3105
▁algaib	-11.3105
▁athlete	-11.3105
▁blossom	-11.3105
▁circula	-11.3105
▁clifton	-11.3105
▁confusion	-11.3105
▁convincing	-11.3105
▁cynthia	-11.3105
▁departure	-11.3105
▁despair	-11.3105
▁disgrace	-11.3105
▁economic	-11.3105
▁escalante	-11.3105
▁eternity	-11.3105
▁extension	-11.3105
▁footprint	-11.3105
▁forfeit	-11.3105
▁garnett	-11.3105
▁goldfarb	-11.3105
▁grabelski	-11.3105
▁interrogation	-11.3105
▁jonathan	-11.3105
▁lecture	-11.3105
▁mushroom	-11.3105
▁nightclub	-11.3105
▁obliged	-11.3105
▁offensive	-11.3105
▁persuade	-11.3105
▁pilgrim	-11.3105
▁pippin	-11.3105
▁pittsburgh	-11.3105
▁pluto	-11.3105
▁pyramid	-11.3105
▁ranchhoddas	-11.3105
▁refrigerator	-11.3105
▁satsuki	-11.3105
▁strangways	-11.3105
▁tattaglia	-11.3105
▁thompson	-11.3105
▁triumph	-11.3105
▁vodka	-11.3105
▁vulture	-11.3105
▁welfare	-11.3105
▁whinnies	-11.3105
▁whitney	-11.3105
▁antonio	-11.3105
▁knives	-11.3105
▁lloyd	-11.3105
▁mcqueen	-11.3105
▁peasant	-11.3105
▁ribbon	-11.3105
▁semester	-11.3105
▁snitch	-11.3105
▁vatican	-11.3105
▁bleach	-11.3105
▁chemist	-11.3105
▁hydro	-11.3105
▁janusz	-11.3105
▁lifestyle	-11.3105
▁rizzo	-11.3105
▁vouch	-11.3105
▁banished	-11.3105
▁crunch	-11.3105
▁fortress	-11.3105
▁shortcut	-11.3105
▁fenster	-11.3105
▁legacy	-11.3105
▁muffin	-11.3105
▁budget	-11.3105
▁premier	-11.3105
▁bruno	-11.3105
▁evelyn	-11.3105
▁canyon	-11.3105
▁kimsey	-11.3105
▁niece	-11.3105
▁annual	-11.3105
▁cecil	-11.3105
▁redeem	-11.3105
▁daisy	-11.3105
▁sync	-11.3105
▁hound	-11.3105
▁isso	-11.3105
▁italy	-11.3105
▁warren	-11.3106
▁marquis	-11.3106
▁convert	-11.3106
▁puerto	-11.3106
▁conserv	-11.3106
▁administration	-11.3106
▁alibi	-11.3107
▁excess	-11.3107
▁furious	-11.3109
▁patron	-11.311
▁ramey	-11.3111
▁typing	-11.3111
▁raven	-11.3112
▁virginia	-11.3112
▁urine	-11.3113
▁candyland	-11.3114
▁oven	-11.3114
▁development	-11.3115
▁donny	-11.3116
▁canary	-11.3117
▁slack	-11.3117
▁attic	-11.3117
▁motes	-11.3119
▁fading	-11.3121
▁emerge	-11.3121
▁diner	-11.3126
▁dorm	-11.3128
▁greas	-11.3141
▁jac	-11.3368
▁locate	-11.3599
craft	-11.3601
▁gordo	-11.362
▁abnegation	-11.3631
▁accelerate	-11.3631
▁ambassador	-11.3631
▁ashitaka	-11.3631
▁baltimore	-11.3631
▁barbecue	-11.3631
▁charlotte	-11.3631
▁compartment	-11.3631
▁concrete	-11.3631
▁discipline	-11.3631
▁ignition	-11.3631
▁institute	-11.3631
▁knauer	-11.3631
▁lucille	-11.3631
▁margaret	-11.3631
▁michigan	-11.3631
▁mosquito	-11.3631
▁norcut	-11.3631
▁obligation	-11.3631
▁piranha	-11.3631
▁privilege	-11.3631
▁railroad	-11.3631
▁ratchett	-11.3631
▁satisfaction	-11.3631
▁schraeder	-11.3631
▁significant	-11.3631
▁stammering	-11.3631
▁tequila	-11.3631
▁virtue	-11.3631
▁vocalizing	-11.3631
▁bloke	-11.3631
▁clarence	-11.3631
▁immune	-11.3631
▁montana	-11.3631
▁newscaster	-11.3631
▁parallel	-11.3631
▁proposal	-11.3631
▁tissue	-11.3631
▁treason	-11.3631
▁valentine	-11.3631
▁baxter	-11.3631
▁fuzz	-11.3631
▁hawaii	-11.3631
▁inviting	-11.3631
▁outstanding	-11.3631
▁scotland	-11.3631
▁stirling	-11.3631
▁clutch	-11.3631
▁corliss	-11.3631
▁butler	-11.3631
▁gesture	-11.3631
▁landscape	-11.3631
▁ninja	-11.3631
▁collapse	-11.3631
▁madagin	-11.3631
▁parlor	-11.3631
▁errand	-11.3631
▁matata	-11.3631
▁tuddy	-11.3631
▁welsh	-11.3631
▁jarmo	-11.3631
▁buddha	-11.3631
▁promising	-11.3631
▁disorder	-11.3631
▁southeast	-11.3631
▁fourteen	-11.3631
▁groot	-11.3631
▁selina	-11.3631
▁loaf	-11.3631
▁wheat	-11.3631
▁depressed	-11.3631
▁pigeon	-11.3631
▁feast	-11.3631
▁perez	-11.3632
▁eager	-11.3632
▁avenge	-11.3632
▁peach	-11.3632
▁jammed	-11.3632
▁ninth	-11.3632
▁retain	-11.3632
▁spinning	-11.3632
▁exotic	-11.3632
▁programmed	-11.3632
▁confine	-11.3632
▁sissy	-11.3632
▁reaiiy	-11.3632
▁mailbox	-11.3632
▁spike	-11.3632
▁sensor	-11.3633
▁freight	-11.3633
▁gordy	-11.3633
▁hostile	-11.3633
▁oppress	-11.3634
▁mabel	-11.3634
▁boobs	-11.3634
▁tracy	-11.3635
▁boris	-11.3635
▁superstar	-11.3635
▁camelot	-11.3635
▁geneva	-11.3635
▁dining	-11.3635
▁panties	-11.3636
▁ethic	-11.3637
▁glori	-11.3637
▁tread	-11.3637
▁freddy	-11.3638
▁renner	-11.3638
▁bluff	-11.3638
▁lockwood	-11.3639
▁rubber	-11.3639
▁moonlight	-11.3639
▁spank	-11.364
▁sinner	-11.3641
▁flex	-11.3641
▁modest	-11.3647
▁iong	-11.3647
▁reduce	-11.3654
▁cosmo	-11.3663
▁corona	-11.3685
okie	-11.4003
▁origin	-11.4066
▁should	-11.4109
▁cloth	-11.4117
▁oppos	-11.4149
▁abagnale	-11.4187
▁advertising	-11.4187
▁appreciation	-11.4187
▁aspirin	-11.4187
▁association	-11.4187
▁beethoven	-11.4187
▁chandler	-11.4187
▁desculp	-11.4187
▁excitement	-11.4187
▁expedition	-11.4187
▁ffynnon	-11.4187
▁handwriting	-11.4187
▁harkonnen	-11.4187
▁ingredient	-11.4187
▁injuries	-11.4187
▁inspiration	-11.4187
▁jamboree	-11.4187
▁llewelyn	-11.4187
▁mademoiselle	-11.4187
▁moustafa	-11.4187
▁negotiation	-11.4187
▁nowadays	-11.4187
▁odlay	-11.4187
▁oldfashioned	-11.4187
▁olivia	-11.4187
▁republic	-11.4187
▁shrieking	-11.4187
▁thrombey	-11.4187
▁throttle	-11.4187
▁friedrich	-11.4187
▁hockey	-11.4187
▁initiate	-11.4187
▁laydeeodl	-11.4187
▁reelect	-11.4187
▁ritual	-11.4187
▁solitary	-11.4187
▁toretto	-11.4187
▁courier	-11.4187
▁deliberate	-11.4187
▁depression	-11.4187
▁dizzy	-11.4187
▁gibson	-11.4187
▁grumpy	-11.4187
▁gunfight	-11.4187
▁laeddis	-11.4187
▁sloppy	-11.4187
▁surprising	-11.4187
▁trophy	-11.4187
▁resolve	-11.4187
▁gregory	-11.4187
▁louisiana	-11.4187
▁scooter	-11.4187
▁sketch	-11.4187
▁starvation	-11.4187
▁viggo	-11.4187
▁oooh	-11.4187
▁expand	-11.4187
▁holland	-11.4187
▁orient	-11.4187
▁chariot	-11.4187
▁importance	-11.4187
▁phony	-11.4187
▁finance	-11.4187
▁manifest	-11.4187
▁watergate	-11.4187
▁millionaire	-11.4187
▁holly	-11.4187
▁backstage	-11.4187
▁reign	-11.4187
▁cardinal	-11.4187
▁piggy	-11.4187
▁horde	-11.4187
▁underworld	-11.4187
▁gollum	-11.4187
▁napkin	-11.4187
▁herman	-11.4188
▁forbidden	-11.4188
▁illusion	-11.4188
▁lounge	-11.4188
▁upgrade	-11.4188
▁meyer	-11.4188
▁download	-11.4188
▁twentyfive	-11.4189
▁civilized	-11.4189
▁tractor	-11.4189
▁lethal	-11.4189
▁commod	-11.4189
▁representative	-11.4189
▁tingle	-11.419
▁collins	-11.419
▁windsor	-11.419
▁charging	-11.4191
▁carved	-11.4191
▁celia	-11.4191
▁stella	-11.4191
▁hector	-11.4191
▁prank	-11.4191
▁subtle	-11.4191
▁whwhat	-11.4192
▁massey	-11.4192
▁colt	-11.4196
▁flea	-11.42
▁youi	-11.4479
▁limb	-11.4504
minded	-11.4638
▁neuro	-11.4656
▁determine	-11.4737
woman	-11.4748
dollar	-11.4749
grade	-11.4752
trust	-11.477
▁activities	-11.4775
▁anniversary	-11.4775
▁atmosphere	-11.4775
▁attaboy	-11.4775
▁australia	-11.4775
▁autumn	-11.4775
▁billionaire	-11.4775
▁budapest	-11.4775
▁cadillac	-11.4775
▁deflect	-11.4775
▁dhazghig	-11.4775
▁dwarves	-11.4775
▁dylan	-11.4775
▁ebenezer	-11.4775
▁elaborate	-11.4775
▁elsewhere	-11.4775
▁embassy	-11.4775
▁execution	-11.4775
▁heartbreak	-11.4775
▁infected	-11.4775
▁injury	-11.4775
▁innovative	-11.4775
▁invasion	-11.4775
▁investigator	-11.4775
▁marijuana	-11.4775
▁mcallister	-11.4775
▁meanwhile	-11.4775
▁opponent	-11.4775
▁perfume	-11.4775
▁precaution	-11.4775
▁prospect	-11.4775
▁retrieve	-11.4775
▁snickers	-11.4775
▁spectators	-11.4775
▁talbot	-11.4775
▁tribune	-11.4775
▁vampire	-11.4775
▁vigilant	-11.4775
▁yubaba	-11.4775
▁airborne	-11.4775
▁annika	-11.4775
▁awhile	-11.4775
▁doughnut	-11.4775
▁dwayne	-11.4775
▁gratitude	-11.4775
▁schooi	-11.4775
▁squash	-11.4775
▁detonator	-11.4775
▁emmett	-11.4775
▁landlord	-11.4775
▁rwanda	-11.4775
▁sahib	-11.4775
▁enhance	-11.4775
▁gurney	-11.4775
▁kettle	-11.4775
▁peopie	-11.4775
▁scrub	-11.4775
▁shivering	-11.4775
▁survey	-11.4775
▁willard	-11.4775
▁carlotta	-11.4775
▁facial	-11.4775
▁fiddle	-11.4775
▁overseas	-11.4775
▁mattress	-11.4775
▁assemble	-11.4775
▁storage	-11.4775
▁captive	-11.4775
▁chorus	-11.4775
▁lardass	-11.4775
▁maggot	-11.4775
▁payroll	-11.4775
▁yank	-11.4775
▁trench	-11.4775
▁zeena	-11.4775
▁fleck	-11.4775
▁freddie	-11.4775
▁veins	-11.4775
▁whatsoever	-11.4775
▁predator	-11.4775
▁tolerate	-11.4775
▁endanger	-11.4775
▁laurel	-11.4775
▁garrad	-11.4775
▁panicked	-11.4775
▁spear	-11.4775
▁motto	-11.4775
▁roommate	-11.4775
▁bueno	-11.4775
▁grape	-11.4775
▁dvd	-11.4776
▁poach	-11.4776
▁scalp	-11.4776
▁iast	-11.4776
▁somali	-11.4776
▁compound	-11.4776
▁ilse	-11.4776
▁qualify	-11.4776
▁blares	-11.4776
▁terminate	-11.4777
▁interstate	-11.4777
▁confidential	-11.4777
▁lemonade	-11.4777
▁youyou	-11.4777
▁expectations	-11.4778
▁crumb	-11.4779
▁paddle	-11.4779
▁manuel	-11.4779
▁isto	-11.478
▁imitate	-11.4796
▁relat	-11.4877
fui	-11.4933
iological	-11.5089
▁adopt	-11.5338
flower	-11.5374
writer	-11.5374
space	-11.5382
▁heave	-11.5387
▁forbid	-11.5399
▁meteor	-11.54
calculation	-11.54
▁alligator	-11.54
▁altogether	-11.54
▁apprentice	-11.54
▁belfast	-11.54
▁bernadette	-11.54
▁cafeteria	-11.54
▁cataleya	-11.54
▁cavalry	-11.54
▁clumsy	-11.54
▁collignon	-11.54
▁condolences	-11.54
▁curfew	-11.54
▁dauntless	-11.54
▁dufresne	-11.54
▁ernesto	-11.54
▁evacuation	-11.54
▁exhibit	-11.54
▁exwife	-11.54
▁february	-11.54
▁fingernails	-11.54
▁handcuff	-11.54
▁humiliation	-11.54
▁innocence	-11.54
▁instructed	-11.54
▁intellectual	-11.54
▁jigsaw	-11.54
▁kalloor	-11.54
▁keltus	-11.54
▁lorelei	-11.54
▁malfunction	-11.54
▁melissa	-11.54
▁mousetrap	-11.54
▁mufasa	-11.54
▁neighbours	-11.54
▁occupied	-11.54
▁prostitute	-11.54
▁regulations	-11.54
▁reinforcements	-11.54
▁resurrect	-11.54
▁scramble	-11.54
▁souvenir	-11.54
▁sprinkle	-11.54
▁squawking	-11.54
▁stilgar	-11.54
▁suspended	-11.54
▁sybok	-11.54
▁sympathy	-11.54
▁therapist	-11.54
▁tshirt	-11.54
▁unnecessary	-11.54
▁vulnerable	-11.54
▁whereabouts	-11.54
▁wiedersehen	-11.54
▁abroad	-11.54
▁buttercup	-11.54
▁cratchit	-11.54
▁dracone	-11.54
▁eleanor	-11.54
▁eyebrow	-11.54
▁forecast	-11.54
▁memorial	-11.54
▁slurping	-11.54
▁analyze	-11.54
▁bracket	-11.54
▁copilot	-11.54
▁equation	-11.54
▁florence	-11.54
▁hotshot	-11.54
▁infinite	-11.54
▁theatre	-11.54
▁barnaby	-11.54
▁cabbage	-11.54
▁dripping	-11.54
▁campbell	-11.54
▁fluffy	-11.54
▁hilarious	-11.54
▁huddle	-11.54
▁joshua	-11.54
▁quando	-11.54
▁terrain	-11.54
▁hazard	-11.54
▁pablo	-11.54
▁doodoo	-11.54
▁launder	-11.54
▁melanie	-11.54
▁womb	-11.54
▁merrily	-11.54
▁tuition	-11.54
▁wangdu	-11.54
▁filter	-11.54
▁arnold	-11.54
▁illinois	-11.54
▁wilderness	-11.54
▁ezra	-11.54
▁uncover	-11.54
▁hazel	-11.54
▁tyrone	-11.54
▁courtesan	-11.54
▁davies	-11.54
▁scandal	-11.54
▁edith	-11.54
▁hooray	-11.54
▁mennick	-11.54
▁curb	-11.54
▁pervert	-11.54
▁sliding	-11.54
▁krest	-11.54
▁presume	-11.54
▁douchebag	-11.54
▁visible	-11.54
▁absence	-11.54
▁knit	-11.5401
▁depth	-11.5401
▁backpack	-11.5401
▁begged	-11.5401
▁psychological	-11.5401
▁luckily	-11.5401
▁retrac	-11.5401
▁descent	-11.5401
▁expel	-11.5401
horse	-11.5401
▁fungus	-11.5402
▁gamora	-11.5402
▁evans	-11.5402
▁skunk	-11.5403
▁sperm	-11.5403
▁slink	-11.5406
▁grove	-11.5408
puta	-11.543
▁pause	-11.5431
prop	-11.5475
▁suspense	-11.5512
pool	-11.5565
plication	-11.569
▁friggin	-11.5835
▁exhaust	-11.6011
▁filth	-11.6037
mobile	-11.6041
proof	-11.6041
▁construct	-11.6061
▁scholar	-11.6066
knuckle	-11.6066
ographic	-11.6067
▁accompany	-11.6067
▁acquaintance	-11.6067
▁arendelle	-11.6067
▁bypass	-11.6067
▁calculus	-11.6067
▁cavalier	-11.6067
▁cemetery	-11.6067
▁christopher	-11.6067
▁colombia	-11.6067
▁competitive	-11.6067
▁congratulate	-11.6067
▁crucifixion	-11.6067
▁cypher	-11.6067
▁dauphin	-11.6067
▁definition	-11.6067
▁dialogue	-11.6067
▁discharge	-11.6067
▁disobey	-11.6067
▁doorknob	-11.6067
▁earthquake	-11.6067
▁enlighten	-11.6067
▁episode	-11.6067
▁eskimo	-11.6067
▁gunpowder	-11.6067
▁gypsy	-11.6067
▁hyena	-11.6067
▁ignorant	-11.6067
▁invincible	-11.6067
▁katherine	-11.6067
▁kopernick	-11.6067
▁lionesses	-11.6067
▁meatloaf	-11.6067
▁morphine	-11.6067
▁muslim	-11.6067
▁neighbourhood	-11.6067
▁nevada	-11.6067
▁obsession	-11.6067
▁oklahoma	-11.6067
▁participate	-11.6067
▁premises	-11.6067
▁prophecy	-11.6067
▁raccoon	-11.6067
▁recognition	-11.6067
▁rehearse	-11.6067
▁rodolfo	-11.6067
▁saikwong	-11.6067
▁sardaukar	-11.6067
▁scoundrel	-11.6067
▁sicilian	-11.6067
▁sonofabitch	-11.6067
▁submarine	-11.6067
▁supervisor	-11.6067
▁sweeney	-11.6067
▁testimony	-11.6067
▁tirzah	-11.6067
▁variety	-11.6067
▁veronica	-11.6067
▁zsasz	-11.6067
▁elegant	-11.6067
▁forensic	-11.6067
▁hungarian	-11.6067
▁miniboss	-11.6067
▁nuisance	-11.6067
▁roadblock	-11.6067
▁rubbish	-11.6067
▁weasel	-11.6067
▁bathtub	-11.6067
▁hiphop	-11.6067
▁kynes	-11.6067
▁lipstick	-11.6067
▁phrase	-11.6067
▁prairie	-11.6067
▁simpson	-11.6067
▁improvement	-11.6067
▁poiice	-11.6067
▁samurai	-11.6067
▁domestic	-11.6067
▁fiji	-11.6067
▁selden	-11.6067
▁alleged	-11.6067
▁kraut	-11.6067
▁sutler	-11.6067
▁audio	-11.6067
▁brotherinlaw	-11.6067
▁voight	-11.6067
▁kenzie	-11.6067
▁obtain	-11.6067
▁wrestl	-11.6067
▁messiah	-11.6067
▁nevertheless	-11.6067
▁arrius	-11.6067
▁bieber	-11.6067
▁stroll	-11.6067
▁resort	-11.6067
▁studies	-11.6067
▁applied	-11.6067
▁azul	-11.6067
▁detach	-11.6067
▁beggar	-11.6067
▁hobby	-11.6067
▁cyber	-11.6067
▁envy	-11.6067
▁fierce	-11.6067
▁settling	-11.6067
▁sledge	-11.6067
▁seduce	-11.6067
▁hottest	-11.6067
▁buena	-11.6067
▁sushi	-11.6067
▁loony	-11.6067
▁omice	-11.6067
▁shiny	-11.6068
▁casper	-11.6068
▁steep	-11.6068
▁jeep	-11.6068
▁absent	-11.6068
▁sizzl	-11.6068
▁roach	-11.6069
▁speculat	-11.6069
aargh	-11.6071
john	-11.6113
▁delete	-11.6115
▁oversee	-11.6129
tiful	-11.6143
▁overlook	-11.6385
▁whiz	-11.6386
why	-11.6482
▁lenin	-11.6486
with	-11.66
▁disgust	-11.6721
greatgrandfather	-11.6745
control	-11.6756
▁familia	-11.6761
yeah	-11.6762
▁dancin	-11.677
▁interpret	-11.6781
▁authentic	-11.6781
▁infiltrat	-11.6781
▁marvellous	-11.6781
▁octopus	-11.6781
▁absorb	-11.6781
▁allergic	-11.6781
▁altobello	-11.6781
▁arashikage	-11.6781
▁barzini	-11.6781
▁bourbon	-11.6781
▁buchanan	-11.6781
▁calendar	-11.6781
▁crucified	-11.6781
▁database	-11.6781
▁deception	-11.6781
▁defensive	-11.6781
▁distribution	-11.6781
▁entitled	-11.6781
▁exhusband	-11.6781
▁flourish	-11.6781
▁frustration	-11.6781
▁ghostbusters	-11.6781
▁gravy	-11.6781
▁happier	-11.6781
▁imbecile	-11.6781
▁infirmary	-11.6781
▁isengard	-11.6781
▁judicial	-11.6781
▁kowalski	-11.6781
▁leparq	-11.6781
▁loneliness	-11.6781
▁ludwig	-11.6781
▁mackenzie	-11.6781
▁macready	-11.6781
▁medieval	-11.6781
▁melanchol	-11.6781
▁misunderstood	-11.6781
▁motivate	-11.6781
▁norwegian	-11.6781
▁obstacle	-11.6781
▁pakistan	-11.6781
▁parliament	-11.6781
▁pennsylvania	-11.6781
▁perspective	-11.6781
▁pessoa	-11.6781
▁platinum	-11.6781
▁prejudice	-11.6781
▁pretzel	-11.6781
▁prototype	-11.6781
▁rodriguez	-11.6781
▁scissors	-11.6781
▁separation	-11.6781
▁shinyoung	-11.6781
▁shrubbery	-11.6781
▁sophisticated	-11.6781
▁stockbroker	-11.6781
▁sufficient	-11.6781
▁talvez	-11.6781
▁thunderclap	-11.6781
▁tiffany	-11.6781
▁transaction	-11.6781
▁translation	-11.6781
▁wachati	-11.6781
▁wheezing	-11.6781
▁whitaker	-11.6781
▁wiseguys	-11.6781
▁alguma	-11.6781
▁bertrand	-11.6781
▁garrison	-11.6781
▁hamburger	-11.6781
▁hippie	-11.6781
▁midwest	-11.6781
▁prevail	-11.6781
▁seagull	-11.6781
▁simulation	-11.6781
▁tennessee	-11.6781
▁unleash	-11.6781
▁glitter	-11.6781
▁gorilla	-11.6781
▁gretel	-11.6781
▁puddle	-11.6781
ometry	-11.6781
▁clarity	-11.6781
▁havana	-11.6781
▁module	-11.6781
▁recycl	-11.6781
▁sempre	-11.6781
▁durden	-11.6781
▁penthouse	-11.6781
▁sponge	-11.6781
▁beaver	-11.6781
▁germs	-11.6781
▁veruca	-11.6781
▁nylon	-11.6781
▁fiction	-11.6781
▁reeves	-11.6781
▁cipher	-11.6781
▁reopen	-11.6781
▁komay	-11.6781
▁northeast	-11.6781
▁swedish	-11.6781
▁natalie	-11.6781
▁abbey	-11.6781
▁token	-11.6781
▁unstable	-11.6781
▁reunion	-11.6781
▁ironworks	-11.6781
▁chitty	-11.6781
▁turf	-11.6781
▁klingon	-11.6781
▁urban	-11.6781
▁prodig	-11.6781
▁checkmate	-11.6781
▁leash	-11.6781
▁shrine	-11.6781
▁torment	-11.6781
▁yield	-11.6781
▁depressing	-11.6781
▁granddad	-11.6781
▁oink	-11.6781
▁fidel	-11.6781
▁carolyn	-11.6781
▁clamp	-11.6781
▁retching	-11.6781
▁goodwill	-11.6781
▁patsey	-11.6781
▁amusing	-11.6781
▁elevate	-11.6782
▁seminar	-11.6782
▁bloodshed	-11.6782
▁pickett	-11.6782
▁lainie	-11.6782
▁vlad	-11.6782
▁grain	-11.6782
▁elders	-11.6782
▁lulu	-11.6783
▁insert	-11.6784
▁drool	-11.6784
▁illustr	-11.6786
martial	-11.6795
▁throb	-11.6797
▁lease	-11.6799
eflex	-11.6825
winkle	-11.6896
▁giggle	-11.7183
▁historic	-11.7427
stream	-11.7525
hawk	-11.7526
▁cockroach	-11.7538
▁psychiatri	-11.7546
▁acontec	-11.755
▁admission	-11.755
▁aggravat	-11.755
▁artillery	-11.755
▁bizarre	-11.755
▁blimey	-11.755
▁calculate	-11.755
▁chanchad	-11.755
▁cheetah	-11.755
▁cognac	-11.755
▁columbus	-11.755
▁competitor	-11.755
▁concierge	-11.755
▁conclude	-11.755
▁confusing	-11.755
▁corridor	-11.755
▁curiosity	-11.755
▁cycle	-11.755
▁dilemma	-11.755
▁distinct	-11.755
▁domenico	-11.755
▁exquisite	-11.755
▁frequency	-11.755
▁fundraiser	-11.755
▁graduation	-11.755
▁groovy	-11.755
▁hamegg	-11.755
▁handkerchief	-11.755
▁hebrew	-11.755
▁heinrich	-11.755
▁heritage	-11.755
▁hourglass	-11.755
▁hypocrite	-11.755
▁immigrant	-11.755
▁impatient	-11.755
▁infection	-11.755
▁instructor	-11.755
▁isildur	-11.755
▁jupiter	-11.755
▁kindergarten	-11.755
▁kullimon	-11.755
▁kuribayashi	-11.755
▁llorona	-11.755
▁lundegaard	-11.755
▁mcpherson	-11.755
▁mechanism	-11.755
▁meredith	-11.755
▁occupation	-11.755
▁otterbourne	-11.755
▁paramedic	-11.755
▁pentagon	-11.755
▁physics	-11.755
▁portuguese	-11.755
▁prescription	-11.755
▁quarantine	-11.755
▁ricochet	-11.755
▁schmuck	-11.755
▁shakusky	-11.755
▁shrieks	-11.755
▁spaghetti	-11.755
▁squirt	-11.755
▁suribachi	-11.755
▁technician	-11.755
▁terrifying	-11.755
▁thermal	-11.755
▁tobacco	-11.755
▁torpedo	-11.755
▁torrance	-11.755
▁tumnus	-11.755
▁unemployed	-11.755
▁vegetarian	-11.755
▁velocity	-11.755
▁wachootoo	-11.755
▁welcoming	-11.755
▁wendell	-11.755
▁wladek	-11.755
▁ymbryne	-11.755
▁yourseif	-11.755
▁chimney	-11.755
▁circum	-11.755
▁climate	-11.755
▁compensation	-11.755
▁contingency	-11.755
▁cuckoo	-11.755
▁dishonor	-11.755
▁dwight	-11.755
▁fattuh	-11.755
▁intergang	-11.755
▁intimate	-11.755
▁judith	-11.755
▁merchant	-11.755
▁mozart	-11.755
▁neglect	-11.755
▁nielson	-11.755
▁overreact	-11.755
▁reconsider	-11.755
▁waternoose	-11.755
▁galahad	-11.755
▁humvees	-11.755
▁kwame	-11.755
▁miiiion	-11.755
▁pearson	-11.755
▁rolfe	-11.755
▁samantha	-11.755
▁savior	-11.755
▁shelby	-11.755
▁cicero	-11.755
▁deciding	-11.755
▁faramir	-11.755
▁indulge	-11.755
▁poverty	-11.755
▁providence	-11.755
▁tirith	-11.755
▁oasis	-11.755
▁operative	-11.755
▁shazam	-11.755
▁smother	-11.755
▁elderly	-11.755
▁fragment	-11.755
▁lancelot	-11.755
▁chump	-11.755
▁marquess	-11.755
▁rocco	-11.755
▁poodle	-11.755
▁scorch	-11.755
▁carlisle	-11.755
▁dunno	-11.755
▁ongoing	-11.755
▁thigh	-11.755
▁ducard	-11.755
▁interior	-11.755
▁deceive	-11.755
▁probation	-11.755
▁zeller	-11.755
▁volta	-11.755
▁agenda	-11.755
▁sensible	-11.755
▁concur	-11.755
▁pilate	-11.755
▁stiii	-11.755
▁aiways	-11.755
▁wlll	-11.755
▁rewind	-11.755
▁monica	-11.755
▁valerie	-11.755
▁brewery	-11.755
▁gospel	-11.755
▁garcin	-11.755
▁tammie	-11.755
▁cairo	-11.755
▁stoke	-11.755
▁hazen	-11.7551
▁greta	-11.7551
▁derail	-11.7551
▁estimate	-11.7551
▁canvas	-11.7551
▁altar	-11.7551
▁kirk	-11.7551
▁ifyou	-11.7551
▁coroner	-11.7551
▁ugli	-11.7552
▁numero	-11.7552
▁ferri	-11.7558
▁stride	-11.7558
▁regime	-11.7604
▁ascen	-11.7728
flat	-11.7891
dressed	-11.7915
▁groan	-11.7957
▁undress	-11.7966
▁describ	-11.7978
▁roost	-11.8335
▁thirst	-11.8354
related	-11.8358
▁practical	-11.8366
▁drivin	-11.8373
second	-11.8378
▁enforce	-11.838
▁treacher	-11.8384
▁abduction	-11.8384
▁alejandro	-11.8384
▁antarctic	-11.8384
▁arbogast	-11.8384
▁arielle	-11.8384
▁artificial	-11.8384
▁bankrupt	-11.8384
▁caribbean	-11.8384
▁chakobsa	-11.8384
▁crusade	-11.8384
▁democracy	-11.8384
▁depois	-11.8384
▁dynamic	-11.8384
▁encontra	-11.8384
▁erudite	-11.8384
▁eyewitness	-11.8384
▁gregoire	-11.8384
▁gylfie	-11.8384
▁happiest	-11.8384
▁hehheh	-11.8384
▁immobiliare	-11.8384
▁inappropriate	-11.8384
▁industrial	-11.8384
▁inspiring	-11.8384
▁irregular	-11.8384
▁jumpathon	-11.8384
▁lilliput	-11.8384
▁luxury	-11.8384
▁maguire	-11.8384
▁manufacture	-11.8384
▁mercury	-11.8384
▁mervyn	-11.8384
▁metaphor	-11.8384
▁microwave	-11.8384
▁middleearth	-11.8384
▁mierzwiak	-11.8384
▁miyamizu	-11.8384
▁notorious	-11.8384
▁offspring	-11.8384
▁ofrenda	-11.8384
▁outbreak	-11.8384
▁paralyzed	-11.8384
▁patricia	-11.8384
▁penetrate	-11.8384
▁pentangeli	-11.8384
▁phenomenon	-11.8384
▁pumbaa	-11.8384
▁puppet	-11.8384
▁ramirez	-11.8384
▁randazzo	-11.8384
▁rizzio	-11.8384
▁satisfy	-11.8384
▁scrawny	-11.8384
▁shikaka	-11.8384
▁significance	-11.8384
▁simpkins	-11.8384
▁skeleton	-11.8384
▁stranded	-11.8384
▁supermarket	-11.8384
▁tarzan	-11.8384
▁telegraph	-11.8384
▁ticktock	-11.8384
▁toothbrush	-11.8384
▁unpleasant	-11.8384
▁unpredictable	-11.8384
▁vandeweghe	-11.8384
▁veteran	-11.8384
▁wheelchair	-11.8384
▁whichever	-11.8384
▁whinny	-11.8384
▁yuetmui	-11.8384
▁autopsy	-11.8384
▁brunette	-11.8384
▁dietrich	-11.8384
▁fanfare	-11.8384
▁glitch	-11.8384
▁holtzmann	-11.8384
▁literature	-11.8384
▁mclaren	-11.8384
▁password	-11.8384
▁radioactive	-11.8384
▁salvage	-11.8384
▁specimen	-11.8384
▁stimulat	-11.8384
▁trixie	-11.8384
▁uboat	-11.8384
▁vulcan	-11.8384
▁caviar	-11.8384
▁chastity	-11.8384
▁covenant	-11.8384
▁crimson	-11.8384
▁okkoto	-11.8384
▁stunned	-11.8384
▁terrell	-11.8384
▁tweet	-11.8384
▁dowry	-11.8384
▁hasnat	-11.8384
▁rebellion	-11.8384
▁referee	-11.8384
▁revelation	-11.8384
▁cloak	-11.8384
▁crossbow	-11.8384
▁decency	-11.8384
▁peacekeeper	-11.8384
▁snuck	-11.8384
▁benhur	-11.8384
▁gretl	-11.8384
▁morehouse	-11.8384
▁portrait	-11.8384
forsaken	-11.8384
▁mackerel	-11.8384
▁compensate	-11.8384
▁discount	-11.8384
▁gauge	-11.8384
▁postcard	-11.8384
▁singular	-11.8384
▁vanilla	-11.8384
▁drugstore	-11.8384
▁giddy	-11.8384
▁pupil	-11.8384
▁humbly	-11.8384
▁input	-11.8384
▁hidetora	-11.8384
▁aerial	-11.8384
▁madison	-11.8384
▁twp	-11.8384
▁caleb	-11.8384
▁sedative	-11.8384
▁hunh	-11.8384
▁renata	-11.8384
▁squid	-11.8384
▁spleen	-11.8384
▁cindy	-11.8384
▁decree	-11.8384
▁candor	-11.8384
▁caramel	-11.8384
securities	-11.8384
▁sully	-11.8384
▁excavat	-11.8384
▁ravage	-11.8385
▁errol	-11.8386
▁homie	-11.8388
▁archiv	-11.8388
▁squeez	-11.8535
siberia	-11.8857
▁confuse	-11.9255
world	-11.9266
wheel	-11.9267
people	-11.9267
course	-11.9273
▁apparent	-11.9275
▁froze	-11.9279
▁leavin	-11.928
believable	-11.9286
▁advertise	-11.9293
responsibilities	-11.9293
▁abducted	-11.9293
▁acconetti	-11.9293
▁adrenalin	-11.9293
▁alessandra	-11.9293
▁apologise	-11.9293
▁applicant	-11.9293
▁aspect	-11.9293
▁baptist	-11.9293
▁bellefort	-11.9293
▁blizzard	-11.9293
▁blouse	-11.9293
▁boromir	-11.9293
