<unk>	0
<s>	0
</s>	0
s	-3.51783
▁im	-4.43677
▁dont	-4.50607
▁know	-4.52422
▁get	-4.70577
▁right	-4.8124
▁go	-4.8428
▁like	-4.87274
▁yeah	-4.89112
▁got	-4.91928
▁youre	-4.94817
▁come	-4.95819
▁na	-5.03013
▁okay	-5.1163
ing	-5.13658
▁thats	-5.14226
▁oh	-5.14291
▁one	-5.20002
▁well	-5.22323
ed	-5.25751
▁gon	-5.29273
▁want	-5.31294
▁good	-5.35677
▁think	-5.38386
▁see	-5.41084
▁hey	-5.43007
▁man	-5.50738
▁back	-5.59224
▁look	-5.62826
▁take	-5.65944
d	-5.6662
▁l	-5.68161
▁us	-5.70157
▁time	-5.70195
▁hes	-5.70937
▁fuck	-5.71998
▁yes	-5.75258
▁tell	-5.77417
▁going	-5.8023
▁need	-5.80263
▁cant	-5.80563
▁say	-5.82433
▁fucking	-5.8346
▁ill	-5.83495
▁shit	-5.91149
▁would	-5.93469
▁didnt	-5.93576
▁something	-5.94594
▁really	-5.94653
▁	-5.95238
▁whats	-5.97825
▁mean	-6.02178
y	-6.02206
▁sorry	-6.03491
▁make	-6.03534
▁lets	-6.03755
▁way	-6.04702
▁never	-6.06132
▁could	-6.06828
▁little	-6.06899
▁let	-6.07207
▁please	-6.07521
▁love	-6.08691
▁give	-6.14983
er	-6.17416
▁god	-6.17473
▁people	-6.22499
▁theres	-6.2368
▁thank	-6.25026
▁said	-6.25818
▁ive	-6.2656
▁help	-6.27194
▁two	-6.29012
e	-6.30398
▁shes	-6.3336
▁sure	-6.36461
▁much	-6.37795
▁even	-6.39182
▁thing	-6.3996
ly	-6.41709
▁put	-6.41762
▁call	-6.44091
▁stop	-6.45841
in	-6.46522
▁day	-6.47469
▁anything	-6.49023
▁work	-6.49134
r	-6.49733
▁wait	-6.52335
▁talk	-6.52727
▁night	-6.52867
▁still	-6.53679
▁uh	-6.53943
▁home	-6.54007
▁theyre	-6.54141
▁life	-6.54145
▁maybe	-6.54146
▁hell	-6.54996
▁wan	-6.5551
▁nothing	-6.55702
▁guys	-6.58064
▁find	-6.58136
▁keep	-6.5916
▁ta	-6.59536
t	-6.61694
▁away	-6.63698
▁everything	-6.63821
▁thought	-6.64423
▁first	-6.64548
▁great	-6.64677
▁better	-6.65588
▁baby	-6.65929
▁mr	-6.66059
▁last	-6.66296
▁around	-6.68391
▁name	-6.69788
▁money	-6.70008
▁guy	-6.70032
▁feel	-6.70274
▁stay	-6.70546
▁kill	-6.71233
▁told	-6.73508
▁new	-6.76015
▁leave	-6.76551
▁car	-6.76984
▁nice	-6.77136
a	-6.77368
l	-6.77428
▁ever	-6.77879
▁always	-6.78503
▁youve	-6.78503
▁hi	-6.81119
▁things	-6.81598
▁years	-6.82124
▁long	-6.82129
▁every	-6.8215
▁dead	-6.82939
▁old	-6.83365
▁listen	-6.83807
▁coming	-6.8548
▁lot	-6.85894
▁remember	-6.86408
▁fine	-6.86509
▁door	-6.86977
▁place	-6.87408
▁doesnt	-6.87572
▁done	-6.87802
▁three	-6.88221
▁bad	-6.88499
n	-6.88599
▁mom	-6.89173
▁kind	-6.89196
p	-6.89483
▁made	-6.89574
▁sir	-6.90388
▁believe	-6.90512
▁hear	-6.90516
▁id	-6.91291
▁house	-6.91547
▁big	-6.91927
▁boy	-6.92021
▁move	-6.94127
▁girl	-6.94877
▁mother	-6.95621
▁someone	-6.95678
▁real	-6.96202
▁aint	-6.96598
▁happened	-6.97316
▁son	-6.98155
▁woman	-6.98745
▁youll	-6.98988
▁huh	-6.98991
▁hello	-6.99348
▁wont	-6.99472
m	-6.99639
▁wrong	-6.99715
▁head	-7.01335
▁music	-7.01914
▁dad	-7.02707
es	-7.0413
▁understand	-7.04454
▁talking	-7.06997
▁thanks	-7.07787
▁isnt	-7.07831
▁must	-7.07835
▁ask	-7.08334
▁else	-7.08364
▁course	-7.08627
▁care	-7.08734
▁show	-7.09237
▁left	-7.10238
al	-7.1047
▁enough	-7.10508
▁wanted	-7.10613
▁getting	-7.11503
▁family	-7.116
▁hold	-7.12396
▁wasnt	-7.12703
▁next	-7.12981
▁friend	-7.1299
▁play	-7.13155
▁father	-7.14809
▁came	-7.14913
▁um	-7.15045
▁world	-7.17044
i	-7.17183
o	-7.17578
▁open	-7.18621
▁another	-7.19296
▁might	-7.2019
▁hard	-7.20459
▁looking	-7.20903
▁today	-7.2109
▁room	-7.21712
▁trying	-7.23146
▁mind	-7.23876
▁best	-7.23878
g	-7.23978
▁hope	-7.241
▁die	-7.2557
▁cause	-7.26355
▁killed	-7.26609
▁damn	-7.26796
▁live	-7.27287
▁kid	-7.27332
▁playing	-7.27347
▁guess	-7.27957
▁phone	-7.28103
u	-7.28186
▁may	-7.28234
▁shut	-7.28605
▁job	-7.2905
▁men	-7.29665
▁found	-7.30244
▁school	-7.30913
▁already	-7.31241
▁tonight	-7.31576
▁try	-7.31851
▁saw	-7.31916
▁fight	-7.32076
▁lm	-7.32382
▁many	-7.33744
▁went	-7.33968
c	-7.35119
▁bring	-7.35136
▁used	-7.35209
▁miss	-7.35413
▁wouldnt	-7.35426
▁face	-7.3604
▁hand	-7.36052
▁pretty	-7.36379
▁jesus	-7.36379
▁story	-7.37086
▁heard	-7.37284
▁together	-7.37439
k	-7.3766
▁use	-7.37958
st	-7.38275
▁took	-7.38874
ion	-7.38996
▁wife	-7.39594
▁whole	-7.39595
▁run	-7.39636
▁ready	-7.39782
▁sit	-7.39845
▁idea	-7.40461
▁start	-7.40494
▁cut	-7.40597
▁business	-7.41018
▁knew	-7.41425
▁everybody	-7.41572
on	-7.41701
▁turn	-7.41957
▁meet	-7.41959
▁watch	-7.42562
▁ass	-7.43453
▁kids	-7.45178
▁actually	-7.45586
▁end	-7.45597
▁gun	-7.45836
▁saying	-7.45841
▁whos	-7.4587
▁john	-7.45929
▁friends	-7.46095
▁called	-7.46615
▁days	-7.46662
▁seen	-7.46759
▁fire	-7.46789
▁probably	-7.4713
▁alone	-7.47525
▁havent	-7.48311
▁happy	-7.48708
▁problem	-7.49039
▁bitch	-7.49843
le	-7.50207
▁gone	-7.50229
▁crazy	-7.50312
▁morning	-7.50313
▁somebody	-7.50716
▁tomorrow	-7.50716
▁blood	-7.50878
or	-7.50961
▁deal	-7.51795
▁five	-7.51966
▁hit	-7.53483
▁re	-7.5382
▁matter	-7.54631
en	-7.54687
▁bit	-7.54941
b	-7.55233
▁police	-7.55244
▁anyway	-7.55281
▁supposed	-7.55376
ie	-7.5611
▁true	-7.56134
▁ago	-7.56143
f	-7.56215
▁second	-7.56267
▁person	-7.57351
▁mine	-7.57366
▁brother	-7.57601
▁anyone	-7.57862
▁beautiful	-7.57862
ar	-7.59811
▁mark	-7.60056
▁says	-7.6015
▁part	-7.60227
▁since	-7.60517
an	-7.60705
▁pay	-7.60875
▁whatever	-7.6096
▁yet	-7.60969
▁hands	-7.61306
▁point	-7.61819
▁four	-7.62768
w	-7.63426
▁sleep	-7.63567
▁exactly	-7.64176
▁red	-7.64244
▁hurt	-7.64434
▁close	-7.64566
▁read	-7.64741
▁excuse	-7.65089
▁lost	-7.65115
▁ah	-7.6517
▁couldnt	-7.65202
▁wheres	-7.65281
▁weve	-7.65558
▁everyone	-7.6556
▁looks	-7.65701
▁town	-7.66053
▁ok	-7.66093
▁drink	-7.664
re	-7.66402
ve	-7.66859
▁year	-7.66971
▁death	-7.66982
▁inside	-7.66987
▁un	-7.68038
▁without	-7.68908
▁stuff	-7.68913
▁easy	-7.68913
▁cool	-7.68913
▁youd	-7.68921
▁bed	-7.68968
▁later	-7.69062
▁worry	-7.69396
▁gave	-7.69423
▁walk	-7.69777
▁shot	-7.69852
▁game	-7.69973
▁change	-7.70031
▁fuckin	-7.70449
▁happen	-7.70876
▁stand	-7.70892
▁daddy	-7.71038
▁shoot	-7.71503
▁taking	-7.7191
▁sighs	-7.71984
▁check	-7.72276
h	-7.72325
▁water	-7.73398
▁question	-7.73569
▁forget	-7.7388
▁word	-7.74094
▁soon	-7.74216
▁paul	-7.74418
ic	-7.74618
▁young	-7.74718
▁goddamn	-7.74927
▁book	-7.75221
▁boys	-7.75298
▁em	-7.75392
▁black	-7.75444
▁body	-7.75446
▁minutes	-7.75983
▁rest	-7.76549
▁girls	-7.76678
▁eat	-7.76748
▁lord	-7.77015
▁light	-7.77403
▁whoa	-7.77547
ation	-7.7773
▁eyes	-7.78212
▁stupid	-7.78609
▁chance	-7.78614
▁de	-7.78882
▁laughing	-7.7937
▁nobody	-7.79535
▁break	-7.7964
est	-7.79719
▁daughter	-7.80083
▁wants	-7.80413
▁couple	-7.8078
▁c	-7.80865
▁late	-7.81138
▁week	-7.81197
▁honey	-7.8133
▁anybody	-7.81879
▁anymore	-7.82435
▁different	-7.82435
▁lts	-7.82536
▁christ	-7.8255
v	-7.82615
▁win	-7.82919
▁jimmy	-7.82995
▁heart	-7.83211
▁died	-7.8323
▁though	-7.83404
▁working	-7.83527
▁dr	-7.8364
▁set	-7.84237
▁husband	-7.84672
▁s	-7.84822
▁mike	-7.85017
▁jack	-7.85225
▁minute	-7.85246
▁bill	-7.85386
▁met	-7.85626
▁in	-7.86036
▁far	-7.8614
▁thinking	-7.86367
▁trust	-7.86466
it	-7.86753
▁welcome	-7.86994
▁chuckles	-7.87125
▁promise	-7.8723
▁high	-7.87322
▁hang	-7.88143
▁eddie	-7.88167
▁continues	-7.88221
▁side	-7.88281
▁sometimes	-7.88387
▁party	-7.88488
▁making	-7.88763
▁max	-7.88765
▁ha	-7.88939
▁a	-7.89071
▁least	-7.89354
el	-7.9009
▁doctor	-7.90557
▁hmm	-7.9057
▁b	-7.90868
▁case	-7.90967
▁fun	-7.9154
▁six	-7.91763
▁bye	-7.92385
▁send	-7.92397
▁full	-7.92587
ies	-7.93
z	-7.93144
man	-7.93457
▁billy	-7.93886
▁drive	-7.94004
▁bullshit	-7.94248
▁buy	-7.94418
▁la	-7.94617
▁free	-7.9514
te	-7.95189
▁wish	-7.95521
▁rock	-7.95848
▁hate	-7.96011
▁write	-7.9658
▁sweet	-7.9738
▁half	-7.9742
▁war	-7.97439
▁makes	-7.97621
▁almost	-7.98082
▁clear	-7.98313
▁safe	-7.98549
▁white	-7.98744
▁times	-7.9927
▁also	-7.99395
▁goes	-7.99582
▁hours	-8.00174
▁sister	-8.00516
▁t	-8.00927
▁small	-8.01178
▁sounds	-8.01234
▁trouble	-8.01394
▁hot	-8.01578
▁started	-8.01671
▁sick	-8.02765
▁pick	-8.03009
▁alive	-8.03452
▁tried	-8.03538
▁hour	-8.04033
▁afraid	-8.04124
▁asked	-8.04775
▁funny	-8.04829
▁wow	-8.04829
▁hows	-8.05016
▁number	-8.06182
▁behind	-8.06931
▁city	-8.06961
▁hair	-8.06982
▁cold	-8.07034
▁line	-8.07053
▁scared	-8.07112
▁touch	-8.07234
▁plan	-8.07609
▁voice	-8.07631
▁front	-8.07646
▁outside	-8.07649
ra	-8.07675
▁speak	-8.07786
▁important	-8.08365
▁drop	-8.08396
▁moment	-8.0846
▁save	-8.0876
▁th	-8.08767
ers	-8.09029
▁women	-8.0909
▁laughs	-8.09135
▁ya	-8.09339
▁mrs	-8.09377
▁child	-8.09816
▁arent	-8.0982
▁reason	-8.09838
▁f	-8.10114
▁dog	-8.10613
▁children	-8.113
▁bet	-8.1138
▁answer	-8.11427
ty	-8.12344
▁charlie	-8.12794
▁screaming	-8.12955
▁months	-8.1323
▁indistinct	-8.13384
▁waiting	-8.13426
▁beat	-8.13765
able	-8.1389
▁perfect	-8.14148
▁johnny	-8.14332
ch	-8.14383
▁sound	-8.14497
▁dance	-8.14779
▁radio	-8.15093
▁dave	-8.15104
▁telling	-8.15155
less	-8.1549
▁order	-8.15578
▁bar	-8.1582
▁worth	-8.16399
▁fast	-8.16447
▁control	-8.16641
▁james	-8.16649
ri	-8.16788
▁j	-8.16859
▁itll	-8.1743
ur	-8.17614
▁straight	-8.18221
▁either	-8.18222
▁theyll	-8.18222
▁calm	-8.18234
▁cop	-8.18494
▁dude	-8.18554
▁feeling	-8.18623
th	-8.19027
▁team	-8.19057
▁grunts	-8.19179
▁piece	-8.1939
▁lose	-8.198
▁married	-8.19828
▁lady	-8.1985
▁dream	-8.19882
▁sex	-8.20415
▁ten	-8.20646
▁million	-8.20646
▁stick	-8.20648
▁living	-8.20679
ment	-8.21484
▁d	-8.21797
▁leaving	-8.22289
▁act	-8.22398
us	-8.22603
ive	-8.23003
▁truth	-8.2312
▁werent	-8.2312
▁murder	-8.23532
ro	-8.23714
▁speaking	-8.23803
▁power	-8.23983
ist	-8.2435
▁street	-8.2446
▁state	-8.24689
▁dinner	-8.24809
▁annie	-8.24811
▁w	-8.25276
▁shouldnt	-8.25663
▁along	-8.25666
▁quite	-8.25776
▁du	-8.26044
▁taken	-8.26158
et	-8.26505
▁brought	-8.26525
▁air	-8.26569
▁groans	-8.26591
▁needs	-8.2706
▁office	-8.2723
▁k	-8.27349
▁coach	-8.27403
▁ahead	-8.27416
▁happening	-8.27543
ne	-8.27559
▁motherfucker	-8.28015
▁g	-8.28104
▁running	-8.28276
▁mouth	-8.28299
ant	-8.28632
▁ride	-8.28875
▁clean	-8.28917
▁eye	-8.28928
▁top	-8.29228
▁sign	-8.29232
id	-8.29356
▁lll	-8.2938
▁mama	-8.29695
▁pull	-8.29795
▁mmm	-8.30104
▁band	-8.30162
▁become	-8.30951
▁heres	-8.3125
ful	-8.31437
up	-8.3159
▁fault	-8.3186
▁country	-8.31869
▁blow	-8.32084
▁seat	-8.32116
▁throw	-8.32174
▁till	-8.3256
▁company	-8.32777
▁road	-8.32783
▁calling	-8.32916
▁asking	-8.32959
▁st	-8.33138
▁bag	-8.33437
▁serious	-8.33539
▁weird	-8.33703
▁yall	-8.33724
▁past	-8.33782
il	-8.33829
▁peter	-8.33905
▁comes	-8.34071
▁happens	-8.34443
la	-8.34487
▁luck	-8.34507
▁catch	-8.34559
▁hurry	-8.34638
▁mmhmm	-8.34666
▁born	-8.34669
▁means	-8.34989
▁train	-8.35087
▁seems	-8.35087
▁wake	-8.35587
is	-8.35722
▁cover	-8.36042
▁grunting	-8.36571
▁lucky	-8.36782
x	-8.36844
▁step	-8.37058
▁parents	-8.37092
▁news	-8.37303
▁human	-8.37486
▁coffee	-8.37495
▁fact	-8.37499
um	-8.37526
▁weeks	-8.37724
▁fucked	-8.37955
▁follow	-8.38335
ter	-8.38348
▁fat	-8.38488
▁mommy	-8.38492
▁lives	-8.38915
▁matt	-8.3902
▁yo	-8.39312
▁ben	-8.40374
▁lie	-8.40395
▁buddy	-8.40438
▁lt	-8.40457
▁e	-8.4095
at	-8.41218
▁quick	-8.41274
▁choice	-8.41436
▁french	-8.41436
▁teddy	-8.41438
▁alright	-8.41439
▁respect	-8.41445
ul	-8.41451
▁none	-8.41501
nt	-8.41674
ia	-8.41835
▁hospital	-8.42446
▁birthday	-8.42447
▁window	-8.42455
▁knows	-8.42466
▁kidding	-8.42472
am	-8.42496
▁test	-8.42531
▁dear	-8.4254
▁song	-8.42902
ent	-8.42941
▁kiss	-8.43289
▁shall	-8.43474
▁glad	-8.43475
▁eight	-8.43498
▁sam	-8.43512
▁finally	-8.43547
▁sell	-8.43944
▁hed	-8.44006
ta	-8.44097
▁special	-8.441
▁sense	-8.44498
▁worse	-8.44498
▁changed	-8.45231
▁explain	-8.45539
▁arm	-8.46125
▁stu	-8.46378
▁rich	-8.46519
▁dark	-8.46571
▁crowd	-8.46592
▁smell	-8.46902
▁crying	-8.46994
▁meeting	-8.47198
▁art	-8.47208
▁captain	-8.47656
▁todd	-8.47656
▁dick	-8.47663
▁poor	-8.47695
▁ring	-8.47814
▁co	-8.47942
▁breathing	-8.48077
▁pain	-8.48205
▁finish	-8.48212
▁record	-8.48279
▁quiet	-8.4856
▁felt	-8.48731
▁grab	-8.48749
▁yeh	-8.48798
▁chain	-8.48813
▁able	-8.49128
ness	-8.49222
▁cops	-8.49405
▁somewhere	-8.49818
▁swear	-8.49818
▁food	-8.49818
un	-8.50215
ma	-8.5033
▁drunk	-8.50861
▁relax	-8.50917
▁fair	-8.50927
▁feet	-8.50947
▁asshole	-8.51334
▁wed	-8.51568
▁prison	-8.51786
▁shell	-8.51844
▁mad	-8.51985
▁soul	-8.52042
▁bank	-8.52064
▁tired	-8.52066
▁month	-8.52506
▁p	-8.52599
▁learn	-8.52631
▁n	-8.52871
▁less	-8.53039
▁bell	-8.5304
ity	-8.53047
▁north	-8.53156
se	-8.53163
▁single	-8.53196
▁nine	-8.53219
▁jr	-8.53369
lo	-8.53612
ate	-8.53669
▁loved	-8.53753
▁strong	-8.54078
▁fall	-8.54178
▁smoke	-8.54288
▁middle	-8.54296
▁sort	-8.54331
▁pete	-8.54342
▁holy	-8.54433
▁gasps	-8.54541
na	-8.5479
▁roll	-8.54858
▁smart	-8.55203
▁honest	-8.55278
▁grand	-8.55402
▁theyve	-8.55437
▁henry	-8.55439
▁maam	-8.55448
▁longer	-8.55452
▁ex	-8.55477
ke	-8.55714
▁class	-8.56128
▁careful	-8.56541
▁others	-8.56601
▁harry	-8.56607
▁phil	-8.56693
ton	-8.56872
▁return	-8.5725
▁figure	-8.57426
▁groaning	-8.57795
▁table	-8.57897
▁mess	-8.58138
▁seeing	-8.58456
▁slow	-8.58816
▁seem	-8.58877
▁shed	-8.59201
▁ooh	-8.59459
▁land	-8.59595
▁nigga	-8.59672
▁killer	-8.59787
▁mum	-8.59908
▁glass	-8.60082
▁cell	-8.60106
▁seven	-8.60171
▁interview	-8.60172
▁blue	-8.60172
▁kept	-8.60179
▁wonderful	-8.60238
▁van	-8.6028
▁richie	-8.60284
mo	-8.60298
▁words	-8.6092
▁bastard	-8.60929
▁america	-8.6129
▁fool	-8.61379
ass	-8.61619
▁watching	-8.62082
▁round	-8.62188
▁cr	-8.62469
▁york	-8.62626
▁goodbye	-8.62627
▁uncle	-8.62639
▁pass	-8.62687
▁enjoy	-8.63343
▁fix	-8.63357
▁strange	-8.63521
▁church	-8.63876
▁short	-8.63877
▁floor	-8.63889
▁terrible	-8.63889
▁kevin	-8.63912
▁sent	-8.63942
▁sad	-8.64044
to	-8.64237
▁age	-8.64261
▁owe	-8.64396
▁king	-8.64465
▁worked	-8.64478
▁ho	-8.64667
▁frank	-8.64919
▁needed	-8.64993
▁con	-8.65061
▁amazing	-8.65142
▁possible	-8.65142
▁alan	-8.65182
▁boat	-8.65187
▁dis	-8.65271
▁looked	-8.6535
ce	-8.65574
▁goin	-8.65646
▁box	-8.65748
▁works	-8.65818
▁protect	-8.66361
▁guard	-8.6641
▁across	-8.66424
▁security	-8.66424
▁general	-8.66424
▁ladies	-8.66424
▁gentlemen	-8.66426
de	-8.6643
▁absolutely	-8.66442
▁pack	-8.66477
▁share	-8.66571
▁warm	-8.6661
age	-8.66769
ian	-8.66861
ry	-8.66874
▁meant	-8.66971
▁ones	-8.67201
▁names	-8.67277
ac	-8.67277
▁caught	-8.67723
▁club	-8.67723
▁private	-8.67723
▁russell	-8.67723
▁type	-8.67723
▁rather	-8.67725
▁burn	-8.67827
▁busy	-8.67903
▁handle	-8.67998
▁breathe	-8.6812
▁pa	-8.68467
▁chatter	-8.68478
▁picture	-8.68776
▁ball	-8.68997
▁anywhere	-8.69038
▁nigger	-8.69038
▁simple	-8.69039
▁lisa	-8.69041
▁i	-8.6909
sh	-8.69112
▁broke	-8.69154
▁mothers	-8.69245
▁shouting	-8.693
▁lead	-8.69391
▁turned	-8.69545
▁lock	-8.70033
▁definitely	-8.70372
▁writing	-8.70416
▁expect	-8.70605
▁questions	-8.71237
▁missing	-8.7129
▁secret	-8.71507
▁wall	-8.71516
▁mistake	-8.71617
dy	-8.71636
▁south	-8.71724
▁forever	-8.71726
▁alex	-8.7173
▁message	-8.71743
ine	-8.71832
▁fit	-8.71863
▁report	-8.71981
as	-8.72048
▁lay	-8.7232
▁gold	-8.72972
▁bro	-8.73047
▁american	-8.73053
▁treat	-8.73065
▁situation	-8.73093
▁moving	-8.73101
▁alice	-8.73104
▁earth	-8.73107
▁early	-8.73214
out	-8.73237
▁ice	-8.73284
ll	-8.73427
▁spend	-8.73893
▁law	-8.73906
▁arms	-8.74128
▁quit	-8.74298
▁present	-8.74356
▁mo	-8.74498
▁cash	-8.74511
▁janet	-8.74518
▁lily	-8.74635
▁laugh	-8.74695
▁ed	-8.74861
▁push	-8.75296
▁pleasure	-8.7589
▁system	-8.7589
▁bother	-8.75896
▁paid	-8.75917
▁katie	-8.75996
ling	-8.76113
▁killing	-8.76136
▁star	-8.76415
ting	-8.76598
▁wear	-8.76731
▁fighting	-8.76941
▁suck	-8.76998
▁charge	-8.77308
▁ryan	-8.77319
▁giving	-8.77325
▁sitting	-8.77387
▁officer	-8.77537
▁park	-8.77842
▁talked	-8.77852
▁teach	-8.78148
▁visit	-8.78162
▁sing	-8.78239
▁forgive	-8.78746
▁hundred	-8.78758
▁cohen	-8.78768
▁ground	-8.78768
▁court	-8.78768
▁bought	-8.7877
▁honor	-8.7878
▁per	-8.78792
▁rose	-8.78807
▁hotel	-8.7885
▁stopped	-8.78857
▁building	-8.79083
▁army	-8.79103
▁letter	-8.79135
▁mu	-8.79379
▁po	-8.79386
▁missed	-8.79479
▁pro	-8.79501
ish	-8.79742
▁dress	-8.79743
▁tape	-8.80053
▁stan	-8.80094
▁mm	-8.80219
▁major	-8.80239
▁worried	-8.80239
▁fear	-8.80258
▁upon	-8.80283
▁boss	-8.80285
▁corner	-8.80296
▁unless	-8.80328
▁personal	-8.80335
▁seriously	-8.80501
▁mission	-8.80511
▁walking	-8.80518
▁breath	-8.80691
▁moved	-8.80989
ted	-8.81038
▁kick	-8.81237
▁be	-8.81399
head	-8.81477
ni	-8.81565
▁near	-8.81576
▁deep	-8.81581
▁strike	-8.81731
▁panting	-8.81736
▁hungry	-8.81739
▁allen	-8.8175
▁spent	-8.8175
▁ran	-8.81816
▁movie	-8.81839
▁hole	-8.82042
▁feed	-8.8205
▁following	-8.82638
▁seconds	-8.82773
▁known	-8.83027
▁ray	-8.83245
▁babies	-8.83246
▁sweetheart	-8.83246
▁judge	-8.83247
▁imagine	-8.83247
▁pants	-8.83253
▁choose	-8.83261
▁hat	-8.8369
▁bear	-8.83761
▁di	-8.83942
im	-8.84116
▁suppose	-8.84438
▁h	-8.84502
▁cry	-8.84537
▁julia	-8.84697
▁christmas	-8.84787
▁darling	-8.84788
▁favorite	-8.84789
▁clothes	-8.848
▁beth	-8.84908
▁paper	-8.84963
▁wonder	-8.85134
▁pre	-8.85213
▁offer	-8.8531
▁casey	-8.85409
▁do	-8.85774
time	-8.85855
▁super	-8.86345
▁appreciate	-8.86347
▁david	-8.86347
▁spirit	-8.86347
▁upstairs	-8.86347
▁tommy	-8.86351
▁outta	-8.86365
▁tv	-8.86438
▁over	-8.86446
▁doin	-8.86506
rs	-8.87024
▁sea	-8.8747
▁fly	-8.8783
▁given	-8.87884
▁leg	-8.87898
▁forgot	-8.87935
▁english	-8.87935
▁especially	-8.87935
▁evidence	-8.87935
▁london	-8.87935
▁agent	-8.87965
▁dirty	-8.8798
▁standing	-8.88231
▁brain	-8.88278
▁brothers	-8.88898
▁surprise	-8.89198
▁entire	-8.8938
▁o	-8.89446
▁tough	-8.89548
▁uhhuh	-8.89548
▁nancy	-8.89548
▁ca	-8.89554
▁sake	-8.89557
▁nick	-8.89568
▁taste	-8.89671
▁howd	-8.89688
▁rain	-8.89692
ol	-8.89699
▁pray	-8.89916
ho	-8.90653
▁shoes	-8.90727
▁trip	-8.91066
ee	-8.91104
▁dumb	-8.91167
▁accident	-8.91167
▁president	-8.91182
▁forward	-8.91187
▁future	-8.91187
▁group	-8.91187
▁language	-8.91187
▁island	-8.91187
▁twice	-8.91193
▁tight	-8.91201
▁wade	-8.91206
▁lars	-8.91275
▁cheering	-8.91352
▁wind	-8.9145
▁sun	-8.91467
▁cute	-8.91532
▁william	-8.91583
▁dollars	-8.91858
▁al	-8.91884
▁dreams	-8.92115
▁count	-8.92138
▁jump	-8.9232
▁cost	-8.92348
▁pal	-8.9238
▁deserve	-8.92496
▁listening	-8.92535
ard	-8.92831
▁account	-8.92854
▁attention	-8.92854
▁ghost	-8.92854
▁lampley	-8.92854
▁difference	-8.92854
▁completely	-8.92927
▁screams	-8.92968
▁neil	-8.92983
▁an	-8.93002
▁eh	-8.93057
▁sp	-8.931
▁balls	-8.93177
▁camera	-8.93482
▁ringing	-8.93776
ph	-8.93909
co	-8.94032
▁gas	-8.94161
▁west	-8.94245
▁joe	-8.94307
▁fell	-8.94418
▁perhaps	-8.94549
▁cousin	-8.94549
▁search	-8.94549
▁neck	-8.94556
▁chicken	-8.94558
▁apartment	-8.94567
▁lying	-8.9461
▁moon	-8.94919
▁service	-8.95043
▁copy	-8.9507
ous	-8.9507
▁knock	-8.95135
▁ra	-8.95457
ance	-8.95477
▁keys	-8.95518
▁camp	-8.95618
▁cook	-8.95696
▁block	-8.95756
▁date	-8.95875
▁joke	-8.96117
ti	-8.96145
ow	-8.96198
ad	-8.96216
▁girlfriend	-8.96273
▁instead	-8.96273
▁nervous	-8.96273
▁summer	-8.96273
▁congratulations	-8.96273
▁whore	-8.96279
▁dying	-8.96282
▁babe	-8.96282
▁information	-8.96292
▁green	-8.96298
▁holding	-8.96471
ts	-8.96505
▁prove	-8.96836
▁bullet	-8.96859
▁finished	-8.97126
▁arrest	-8.975
▁afternoon	-8.98027
▁eggsy	-8.98034
▁price	-8.98034
▁certainly	-8.98142
▁drugs	-8.98365
▁interested	-8.98394
▁adam	-8.98673
▁list	-8.98736
▁stone	-8.9876
▁so	-8.98837
▁records	-8.99222
▁bus	-8.99596
ill	-8.99647
▁accept	-8.99813
▁boyfriend	-8.99813
▁proud	-8.99814
▁river	-8.99818
▁driving	-8.99826
▁whoo	-8.99845
▁sweetie	-8.9996
▁loud	-8.99973
▁hill	-9.00061
▁hide	-9.00072
▁da	-9.00176
▁miles	-9.0021
▁beer	-9.00255
▁crack	-9.00493
▁low	-9.00631
▁grow	-9.00924
▁sc	-9.01095
▁engine	-9.01134
▁escape	-9.01273
▁realize	-9.01315
▁map	-9.01466
▁favor	-9.01626
▁nowhere	-9.01631
▁shouldve	-9.01631
▁idiot	-9.01631
▁scene	-9.01631
▁target	-9.01632
▁detective	-9.01632
▁bunch	-9.01641
▁tour	-9.01651
▁shh	-9.01654
▁scottie	-9.01655
▁stuck	-9.01665
▁color	-9.01708
▁field	-9.01726
▁bigger	-9.01803
▁out	-9.01953
ag	-9.02156
▁cross	-9.02337
▁pop	-9.02377
▁vi	-9.02459
▁key	-9.02546
▁screw	-9.02957
▁peace	-9.02987
one	-9.03228
▁ro	-9.03301
ary	-9.03313
▁whirring	-9.03483
▁yesterday	-9.03483
▁dangerous	-9.03491
▁double	-9.03502
no	-9.03701
be	-9.04148
▁weapon	-9.04343
▁horse	-9.04354
▁saved	-9.04385
▁suit	-9.04445
▁lovely	-9.04725
me	-9.04871
▁rules	-9.05083
▁egg	-9.05363
▁beyond	-9.0537
▁contact	-9.0537
▁pocket	-9.0537
▁throat	-9.0537
▁monkey	-9.05371
▁professional	-9.05372
▁decision	-9.05382
▁wrote	-9.05382
▁wedding	-9.05384
▁paris	-9.05384
▁steal	-9.05403
▁store	-9.05412
▁usually	-9.05481
ge	-9.05559
▁problems	-9.05694
▁drinking	-9.05808
▁states	-9.06144
▁couldve	-9.06322
▁se	-9.06411
ca	-9.0649
▁san	-9.06591
oo	-9.06754
▁lve	-9.06771
▁reach	-9.06816
▁picked	-9.06821
▁he	-9.06886
di	-9.06948
way	-9.07049
▁witness	-9.07196
tricia	-9.07284
▁devil	-9.07293
▁government	-9.07293
▁admit	-9.07293
▁dramatic	-9.07295
▁roger	-9.07298
▁jones	-9.07348
▁wild	-9.07366
▁station	-9.07389
▁m	-9.07534
▁rid	-9.07566
▁interesting	-9.07749
▁evening	-9.08034
▁books	-9.08263
go	-9.08329
▁si	-9.08348
▁v	-9.08564
▁ow	-9.08696
▁pen	-9.08794
▁lf	-9.0885
▁soft	-9.09116
▁except	-9.0919
▁crime	-9.09254
▁heaven	-9.09254
▁heavily	-9.09254
▁position	-9.09254
▁video	-9.09254
▁snow	-9.09254
▁taught	-9.09254
▁wire	-9.09263
▁grace	-9.09267
▁foot	-9.09286
▁yep	-9.09286
▁doubt	-9.093
▁molly	-9.09303
▁ship	-9.09416
▁painting	-9.09571
▁r	-9.10276
▁promised	-9.10441
▁starting	-9.10452
king	-9.10603
che	-9.10667
ach	-9.10696
▁u	-9.10748
▁legs	-9.1087
▁bite	-9.10877
▁bridge	-9.11095
▁bucks	-9.11097
▁named	-9.11109
▁aw	-9.11246
▁clown	-9.11253
▁governor	-9.11253
▁kitchen	-9.11253
▁horn	-9.11255
▁harris	-9.11258
▁gunshot	-9.11264
▁jerry	-9.11264
▁track	-9.11294
▁madame	-9.1132
▁obviously	-9.11338
▁press	-9.11461
▁united	-9.11489
▁ii	-9.11609
▁wine	-9.11685
ci	-9.11964
▁feels	-9.11979
▁form	-9.12248
▁tree	-9.12415
▁where	-9.12525
▁en	-9.12926
▁spot	-9.13099
▁college	-9.13294
▁whether	-9.13294
▁pussy	-9.13294
▁chow	-9.13312
▁action	-9.13449
▁wet	-9.13492
▁up	-9.13547
▁gr	-9.13558
▁decided	-9.13558
▁sean	-9.13658
▁file	-9.13759
▁main	-9.13882
▁reporter	-9.1392
▁mar	-9.14011
▁locked	-9.14098
do	-9.14474
▁machine	-9.14519
▁master	-9.14565
▁draw	-9.14669
ai	-9.14795
tion	-9.15199
▁normal	-9.15209
▁final	-9.15218
ff	-9.1525
▁nothin	-9.15309
j	-9.1537
▁space	-9.1537
▁deadpool	-9.15378
▁neither	-9.15378
▁angry	-9.15378
▁esther	-9.15378
▁knife	-9.15378
▁lunch	-9.1538
▁prick	-9.15383
▁jail	-9.15388
▁operation	-9.1539
▁marry	-9.15395
▁pool	-9.15396
▁grandma	-9.15415
▁sally	-9.15474
▁ba	-9.15549
▁takes	-9.1577
ig	-9.16062
▁cheers	-9.16453
▁using	-9.16751
▁what	-9.16902
▁carry	-9.17103
▁truck	-9.17505
▁alarm	-9.17505
▁brooks	-9.17505
▁worst	-9.17505
▁beverly	-9.17505
▁hasnt	-9.17508
▁risk	-9.17512
▁client	-9.17512
▁candyman	-9.17534
▁self	-9.17556
▁begin	-9.17577
▁simon	-9.1759
▁nose	-9.17611
▁bigge	-9.17873
and	-9.1808
▁guns	-9.18325
▁rolling	-9.18611
▁nuts	-9.18635
▁hook	-9.18738
▁cat	-9.18744
▁plane	-9.18934
▁agree	-9.19299
ng	-9.19435
▁showed	-9.19495
▁sl	-9.1959
line	-9.1962
▁chicago	-9.19679
▁chair	-9.19679
▁dasong	-9.19679
▁whyd	-9.1968
▁relationship	-9.19681
▁shame	-9.19687
▁practice	-9.19688
▁leena	-9.19688
▁gift	-9.1969
▁innocent	-9.19694
tch	-9.19919
▁quickly	-9.2004
▁awful	-9.2006
▁surprised	-9.20154
▁nah	-9.20413
▁ch	-9.20538
▁join	-9.20619
tro	-9.20659
▁whose	-9.20727
▁weapons	-9.20877
▁horses	-9.20877
▁lawyer	-9.21176
ck	-9.21311
▁piss	-9.21358
▁bang	-9.2143
op	-9.21776
▁insane	-9.21901
▁sheriff	-9.21901
▁smile	-9.21901
▁chief	-9.21902
▁bomb	-9.21902
▁somehow	-9.21902
▁cunt	-9.21902
▁memory	-9.21903
▁lenny	-9.21904
▁denny	-9.21904
▁edward	-9.21907
▁sold	-9.21913
▁fake	-9.21916
▁vincent	-9.21932
▁amen	-9.21935
▁stage	-9.21947
▁walked	-9.22017
▁lived	-9.22083
bo	-9.22118
▁losing	-9.22188
▁joey	-9.22224
▁flat	-9.22302
▁staying	-9.22366
▁fucker	-9.22947
son	-9.23378
ha	-9.23427
▁calls	-9.23487
▁ma	-9.23505
▁closed	-9.23592
▁wound	-9.23644
ler	-9.23971
▁match	-9.24099
▁correct	-9.24174
▁lieutenant	-9.24174
▁opportunity	-9.24174
▁midnight	-9.24175
▁martin	-9.24181
▁liar	-9.24219
▁buzzing	-9.24263
▁broken	-9.24351
▁board	-9.24372
▁doc	-9.24515
▁shooting	-9.24579
ure	-9.2488
▁knocking	-9.24963
▁wondering	-9.25046
po	-9.2512
▁seemed	-9.252
▁mate	-9.25333
he	-9.25447
ence	-9.25529
▁finger	-9.25912
▁drug	-9.26068
ley	-9.2613
▁spoke	-9.26396
▁address	-9.265
▁bottle	-9.265
▁criminal	-9.265
▁heavy	-9.265
▁magazine	-9.265
▁michael	-9.265
▁waldo	-9.265
▁whoever	-9.265
▁gotten	-9.26508
▁extra	-9.2651
▁rent	-9.26515
▁assume	-9.26531
▁career	-9.26608
▁hail	-9.26703
▁putting	-9.26771
bi	-9.26899
▁reading	-9.27106
▁me	-9.27112
▁tie	-9.27171
ster	-9.27353
ated	-9.27384
▁lights	-9.2742
▁passed	-9.27486
▁el	-9.2753
▁ln	-9.27626
▁no	-9.27668
▁belong	-9.2778
▁liked	-9.27865
cu	-9.27901
by	-9.27992
ba	-9.28124
▁harder	-9.28143
▁freak	-9.28305
▁ne	-9.28443
▁raise	-9.28528
▁steve	-9.28799
▁faith	-9.28854
▁apologize	-9.28881
▁computer	-9.28881
▁craig	-9.28881
▁history	-9.28881
▁omara	-9.28881
▁aye	-9.28882
▁minnie	-9.28884
▁fresh	-9.28886
▁vada	-9.28889
▁pressure	-9.28894
▁written	-9.28897
▁level	-9.28925
▁involved	-9.28925
▁code	-9.28976
▁gary	-9.29024
▁magic	-9.29041
▁nation	-9.29641
▁sisters	-9.29643
▁bob	-9.29688
io	-9.29697
end	-9.29711
▁singing	-9.2988
▁chattering	-9.29963
▁tea	-9.29981
ey	-9.30091
our	-9.30422
pe	-9.30619
▁thousand	-9.30837
▁survive	-9.31052
▁tick	-9.31078
▁wood	-9.31186
▁theo	-9.31315
▁george	-9.31315
▁anthony	-9.3132
▁apparently	-9.3132
▁asleep	-9.3132
▁enemy	-9.3132
▁marriage	-9.3132
▁often	-9.3132
▁saturday	-9.3132
▁shirt	-9.3132
▁warren	-9.31336
▁cake	-9.31349
▁gasping	-9.3143
▁totally	-9.31432
▁guilty	-9.31444
ier	-9.31477
▁dig	-9.31623
▁pi	-9.3181
▁ava	-9.31847
▁butt	-9.31882
ii	-9.32197
▁teacher	-9.32245
▁wearing	-9.32341
men	-9.32496
▁skin	-9.32632
▁interest	-9.3272
▁bloody	-9.32814
led	-9.32869
que	-9.32913
▁fl	-9.33194
▁del	-9.33275
▁games	-9.33379
ker	-9.33423
▁played	-9.33425
▁vote	-9.33456
▁partner	-9.33462
▁angel	-9.33524
ating	-9.33547
▁fella	-9.33604
▁certain	-9.33655
▁afford	-9.3382
▁famous	-9.3382
▁folks	-9.3382
▁otherwise	-9.3382
▁process	-9.3382
▁cream	-9.3382
▁split	-9.3382
▁lonely	-9.3382
▁blame	-9.33826
▁sugar	-9.33838
▁meat	-9.33843
▁exist	-9.33869
▁lesson	-9.33963
▁boom	-9.3398
▁artist	-9.3454
▁loves	-9.34738
▁su	-9.34993
▁learned	-9.34995
▁lied	-9.35218
ock	-9.35302
▁post	-9.35787
▁fish	-9.35855
▁attack	-9.35859
▁base	-9.36098
▁shop	-9.36221
ally	-9.36302
▁opening	-9.36337
▁apart	-9.36357
▁department	-9.36384
▁mountain	-9.36384
▁teeth	-9.36384
▁rosie	-9.36386
▁mickey	-9.36387
▁roof	-9.3639
▁pregnant	-9.36392
▁lili	-9.36396
▁brian	-9.36405
▁aah	-9.3642
▁plans	-9.36437
▁miller	-9.36454
▁weight	-9.36456
▁yelling	-9.36471
▁page	-9.36628
▁kate	-9.36659
ah	-9.36697
▁mary	-9.36709
▁hoping	-9.36715
▁hiding	-9.36722
▁sec	-9.36736
▁le	-9.36741
▁cup	-9.36824
▁comp	-9.36992
▁gra	-9.37119
▁kat	-9.37157
side	-9.37327
▁burned	-9.37421
ny	-9.37489
▁expecting	-9.37526
ber	-9.37926
▁sw	-9.3802
▁hu	-9.3805
▁suggest	-9.3834
▁starts	-9.38393
▁continue	-9.38407
▁travel	-9.38408
▁mention	-9.3857
▁command	-9.38744
▁student	-9.38749
▁deliver	-9.38766
▁movies	-9.38829
▁discuss	-9.3895
▁candy	-9.38992
▁percent	-9.38997
▁became	-9.39015
▁emergency	-9.39015
▁impossible	-9.39015
▁sergeant	-9.39015
▁thatll	-9.39015
▁within	-9.39016
▁dancing	-9.39016
▁area	-9.39016
▁recognize	-9.39016
▁bathroom	-9.39019
▁jenny	-9.39019
▁rough	-9.39019
▁crash	-9.39024
▁understood	-9.39026
▁flight	-9.39033
▁punch	-9.39054
▁pinch	-9.39077
▁li	-9.39292
▁everythings	-9.39708
tter	-9.39713
ile	-9.39959
▁writer	-9.39981
av	-9.40261
ern	-9.40754
▁ka	-9.40919
▁scream	-9.40949
▁introduce	-9.41012
▁build	-9.41131
▁ear	-9.41136
▁remind	-9.41183
▁cha	-9.41325
▁decide	-9.41369
▁helping	-9.41507
▁stole	-9.41623
▁social	-9.41687
▁text	-9.41716
▁conversation	-9.41718
▁daiton	-9.41718
▁downstairs	-9.41718
▁elizabeth	-9.41718
▁project	-9.41718
▁third	-9.41718
▁stories	-9.41718
▁support	-9.41718
▁einar	-9.41718
▁mmmhmm	-9.41719
▁gunnar	-9.41719
▁stink	-9.41722
▁distance	-9.41722
▁papa	-9.41734
▁stanley	-9.41736
▁ought	-9.41744
▁anna	-9.41751
▁bo	-9.41803
ped	-9.41812
▁bl	-9.41838
▁softly	-9.41947
▁tom	-9.41963
▁letting	-9.42163
▁driver	-9.42171
▁east	-9.43163
▁bull	-9.43189
▁keeping	-9.43325
▁murdered	-9.4342
ze	-9.43633
all	-9.4393
▁experience	-9.44136
ship	-9.44147
▁notice	-9.44148
▁fired	-9.44204
▁dogs	-9.44223
▁waste	-9.44224
▁soldier	-9.44398
▁or	-9.44402
▁usual	-9.44477
▁thou	-9.44491
▁difficult	-9.44496
▁genius	-9.44496
▁monsieur	-9.44496
▁professor	-9.44496
▁ridiculous	-9.44496
▁shoulder	-9.44496
▁chinese	-9.44496
▁daniel	-9.44496
▁prefer	-9.44496
▁hadnt	-9.44496
▁village	-9.44497
▁diamond	-9.44497
▁barely	-9.44497
▁local	-9.445
▁connection	-9.44522
▁latin	-9.44523
▁richard	-9.44532
fi	-9.44535
▁jim	-9.44543
▁val	-9.44544
▁cock	-9.44566
▁hall	-9.44571
▁pig	-9.44601
▁disgusting	-9.44605
▁signal	-9.44759
▁honestly	-9.449
▁banging	-9.45242
▁faster	-9.45257
▁daughters	-9.45262
▁paying	-9.45373
ick	-9.45551
▁col	-9.45556
▁besides	-9.45563
▁manage	-9.45692
▁sin	-9.4583
▁followed	-9.4601
ang	-9.46373
▁fi	-9.46795
uck	-9.46857
▁bust	-9.46922
▁force	-9.46935
▁ad	-9.47095
ex	-9.47263
▁although	-9.47353
▁bottom	-9.47353
▁character	-9.47353
▁colonel	-9.47353
▁dillinger	-9.47353
▁everywhere	-9.47353
▁poison	-9.47353
▁request	-9.47353
▁motta	-9.47353
▁film	-9.47353
▁ugly	-9.47353
▁conrad	-9.47353
▁beginning	-9.47354
▁nature	-9.47354
▁troy	-9.47354
▁susanna	-9.4736
▁large	-9.47366
▁plus	-9.47378
▁confused	-9.47379
▁bright	-9.47379
▁pont	-9.47399
▁brave	-9.47401
▁lena	-9.47428
▁model	-9.47429
▁nurse	-9.47445
▁ugh	-9.47458
▁coughing	-9.47468
▁ri	-9.47472
▁sky	-9.4748
▁coat	-9.47607
▁fan	-9.47953
▁rap	-9.48111
▁sleeping	-9.48152
▁note	-9.48209
the	-9.48286
ak	-9.48304
pp	-9.48334
▁mikey	-9.48602
tra	-9.48799
▁knees	-9.48805
▁hardly	-9.48957
nk	-9.49028
ip	-9.49131
▁consider	-9.49164
land	-9.49168
ver	-9.49199
▁turns	-9.49204
▁fill	-9.49226
▁nail	-9.49413
▁medica	-9.49483
▁gates	-9.49693
▁shout	-9.49722
▁hero	-9.49886
▁roy	-9.50178
▁public	-9.50273
▁doll	-9.50274
▁contract	-9.50294
▁excellent	-9.50294
▁guarantee	-9.50294
▁leila	-9.50294
▁malcolm	-9.50294
▁screeching	-9.50294
▁subject	-9.50294
▁callahan	-9.50294
▁daisy	-9.50294
▁duffy	-9.50294
▁regret	-9.50294
▁evil	-9.50294
▁michelle	-9.50305
▁under	-9.50307
▁older	-9.5031
▁airport	-9.50314
▁gang	-9.5032
▁excited	-9.50321
▁alien	-9.50323
▁russian	-9.50342
▁juan	-9.50346
▁loose	-9.50351
▁according	-9.50356
▁speaks	-9.50365
▁gay	-9.50495
▁add	-9.50513
▁dean	-9.50575
▁eating	-9.50692
▁woods	-9.50821
ator	-9.50927
▁swing	-9.50964
▁ohio	-9.51023
▁figured	-9.51184
▁leader	-9.512
▁sat	-9.51201
▁pee	-9.51407
▁watched	-9.51449
▁card	-9.51508
▁covered	-9.5194
▁opens	-9.51996
▁ward	-9.52032
▁pills	-9.52062
cy	-9.52168
ap	-9.5225
▁bringing	-9.52369
▁due	-9.52442
tic	-9.5249
▁player	-9.5256
▁dump	-9.52785
▁suspect	-9.52792
▁trick	-9.5308
▁natural	-9.53157
▁chest	-9.53247
▁exhales	-9.53325
▁incident	-9.53325
▁thunder	-9.53325
▁whimpering	-9.53325
▁gerda	-9.53325
▁stephen	-9.53325
▁freedom	-9.53325
▁lucas	-9.53325
▁pennywise	-9.53325
▁advice	-9.53326
▁vision	-9.53327
▁earlier	-9.53328
▁defend	-9.53328
▁washington	-9.5333
▁firing	-9.53332
▁fancy	-9.53333
▁easier	-9.53336
▁louis	-9.53339
▁battle	-9.5334
▁swim	-9.53341
▁yearold	-9.53351
▁size	-9.53369
▁milk	-9.53412
▁gene	-9.53539
▁dare	-9.53612
▁allowed	-9.53834
▁pictures	-9.53938
wa	-9.54032
lng	-9.54125
▁ate	-9.54228
ook	-9.54237
ot	-9.54276
▁thy	-9.5437
▁praying	-9.54444
▁rec	-9.548
▁lies	-9.54899
▁turning	-9.55105
▁pulled	-9.5513
os	-9.55495
▁tap	-9.55565
pa	-9.55622
▁fighter	-9.55753
▁buck	-9.55835
▁sa	-9.55849
▁destroy	-9.5592
▁allow	-9.55963
▁ruin	-9.55997
▁bless	-9.56079
▁bum	-9.56359
▁program	-9.56359
▁cos	-9.56403
▁barbara	-9.5645
▁beauty	-9.5645
▁bishop	-9.5645
▁fortune	-9.5645
▁purpose	-9.5645
▁source	-9.5645
▁suicide	-9.5645
▁thompson	-9.5645
▁article	-9.5645
▁period	-9.5645
▁grew	-9.5645
▁monster	-9.56453
▁henrik	-9.56459
▁noah	-9.56461
▁pitch	-9.56477
▁property	-9.56477
▁champion	-9.56478
▁tip	-9.5648
▁naked	-9.56487
▁trade	-9.56503
▁weekend	-9.56503
▁storm	-9.56505
▁princess	-9.56508
▁danger	-9.56515
▁officers	-9.56574
▁market	-9.56643
▁dealer	-9.56651
▁wha	-9.56657
▁row	-9.56841
▁hurts	-9.56872
▁lo	-9.56982
▁fellas	-9.56984
▁clicks	-9.5737
▁helped	-9.57476
▁legal	-9.57538
gged	-9.57659
▁burning	-9.57891
▁kim	-9.58175
▁sh	-9.58268
rate	-9.58456
▁hearing	-9.58486
▁whi	-9.58943
▁matters	-9.58991
▁shots	-9.59103
ice	-9.59332
board	-9.59392
▁bu	-9.59433
hi	-9.59464
▁jay	-9.59649
▁campaign	-9.59675
▁clue	-9.59675
▁military	-9.59675
▁smoking	-9.59675
▁suspense	-9.59675
▁texas	-9.59675
▁valentine	-9.59675
▁bodies	-9.59676
▁cheese	-9.59676
▁theyd	-9.59676
▁beeping	-9.59676
▁crain	-9.59676
▁awake	-9.59676
▁blind	-9.59676
▁toilet	-9.59678
▁score	-9.59681
▁assistant	-9.59682
▁aware	-9.59706
▁comment	-9.5971
▁mail	-9.59713
▁dropped	-9.59715
▁immediately	-9.59716
▁winner	-9.59719
▁duke	-9.59749
▁va	-9.59777
▁sight	-9.59798
▁goldie	-9.59898
▁cast	-9.59919
▁har	-9.59948
▁julie	-9.59956
▁wa	-9.60019
let	-9.60058
▁fu	-9.60098
▁tugg	-9.60131
▁sand	-9.60349
nn	-9.60517
tor	-9.60574
▁demon	-9.60684
au	-9.60787
▁scar	-9.60841
lin	-9.60855
ious	-9.60946
▁gives	-9.61095
▁dry	-9.61184
▁murderer	-9.61191
▁jon	-9.61274
▁pe	-9.61287
ner	-9.61349
▁bat	-9.61594
jo	-9.61664
▁min	-9.61799
▁com	-9.61867
▁orders	-9.61968
▁carl	-9.62096
▁sha	-9.62178
ven	-9.62274
▁pretend	-9.62404
▁wash	-9.62431
▁study	-9.62468
ized	-9.62524
▁release	-9.62649
▁serve	-9.62653
▁someones	-9.62704
▁rat	-9.62846
▁among	-9.62936
▁pet	-9.62959
▁alastair	-9.63009
▁alexandra	-9.63009
▁complicated	-9.63009
▁condition	-9.63009
▁dozen	-9.63009
▁league	-9.63009
▁plenty	-9.63009
▁sienna	-9.63009
▁crooked	-9.63009
▁opinion	-9.63009
▁speech	-9.63009
▁empty	-9.63009
▁jax	-9.63009
▁willing	-9.63009
▁exchange	-9.63009
▁credit	-9.63009
▁gym	-9.63009
▁silly	-9.6301
▁held	-9.6301
▁friday	-9.6301
▁yard	-9.63012
▁cancer	-9.63012
▁sidney	-9.63013
▁olmo	-9.63016
▁talent	-9.6302
▁ruth	-9.63024
▁began	-9.63046
▁randy	-9.63048
▁voices	-9.63076
▁heh	-9.63088
▁intense	-9.63088
▁race	-9.63099
▁letters	-9.63113
▁duty	-9.63128
▁jacket	-9.63164
▁huge	-9.6317
▁ears	-9.63172
▁noticed	-9.63434
▁bleeding	-9.63435
▁patient	-9.6344
▁issue	-9.63456
▁tied	-9.63519
▁bird	-9.63606
▁spit	-9.6381
▁bitches	-9.63811
▁lake	-9.6391
off	-9.63967
▁jan	-9.64172
▁ended	-9.64173
▁rule	-9.6425
▁tear	-9.64391
▁ga	-9.64801
ney	-9.64859
gu	-9.64991
▁pieces	-9.65003
▁rings	-9.65384
▁smells	-9.65436
▁cur	-9.65879
▁boot	-9.66084
oc	-9.66094
▁lift	-9.66103
▁fa	-9.66133
▁health	-9.66225
▁proper	-9.66327
▁mmhm	-9.66365
▁weak	-9.66435
▁amelia	-9.66457
▁brilliant	-9.66457
▁creep	-9.66457
▁escobar	-9.66457
▁familiar	-9.66457
▁footsteps	-9.66457
▁fruit	-9.66457
▁macbeth	-9.66457
▁possibly	-9.66457
▁responsibility	-9.66457
▁spread	-9.66457
▁byebye	-9.66457
▁common	-9.66457
▁switch	-9.66457
▁view	-9.66457
▁pair	-9.66457
▁belt	-9.6646
▁foreign	-9.66462
▁slept	-9.66465
▁claim	-9.6647
▁bobby	-9.66471
▁nope	-9.66471
▁plate	-9.66474
▁crap	-9.66479
▁climb	-9.66488
▁connor	-9.66501
▁direction	-9.66513
▁meal	-9.6658
▁soldiers	-9.66594
▁manager	-9.66671
▁cars	-9.66676
▁americans	-9.66851
▁lane	-9.66858
▁failed	-9.66891
▁pie	-9.66896
▁actor	-9.66977
▁pot	-9.66982
▁agreed	-9.67021
▁victim	-9.67043
▁scare	-9.67072
▁ticket	-9.67091
▁bone	-9.67123
da	-9.67231
▁tail	-9.67243
▁greatest	-9.6732
▁ruf	-9.67573
▁bastards	-9.67792
▁ab	-9.67846
ek	-9.67886
▁lookin	-9.68139
▁armed	-9.6819
ude	-9.68363
ities	-9.68665
▁jobs	-9.68708
ham	-9.68932
▁focus	-9.69498
▁disappear	-9.69502
▁birds	-9.69519
▁total	-9.69863
▁che	-9.69981
▁arab	-9.69984
▁speed	-9.69995
▁commit	-9.70012
▁chuckling	-9.70028
▁citizen	-9.70028
▁elevator	-9.70028
▁example	-9.70028
▁helicopter	-9.70028
▁permission	-9.70028
▁research	-9.70028
▁sunshine	-9.70028
▁uniform	-9.70028
▁jessie	-9.70028
▁zeke	-9.70028
▁buried	-9.70028
▁wheel	-9.70028
▁noise	-9.70029
▁tongue	-9.70029
▁traffic	-9.70029
▁chanting	-9.70029
▁jake	-9.70029
▁scoffs	-9.70029
▁bike	-9.70029
▁desire	-9.70029
▁corso	-9.70031
▁jerk	-9.70031
▁romantic	-9.70032
▁border	-9.70035
▁hung	-9.70036
▁clock	-9.70039
▁wherever	-9.70042
▁sexual	-9.70045
▁mummy	-9.70047
▁comfortable	-9.70048
▁gentleman	-9.7005
▁handsome	-9.70053
ea	-9.70085
▁thee	-9.70101
▁freeze	-9.70127
▁comin	-9.70149
▁protection	-9.70206
▁emotional	-9.70247
▁arrived	-9.70302
▁breaking	-9.70348
▁hei	-9.70453
▁event	-9.70486
▁planet	-9.70504
▁yells	-9.7064
▁can	-9.70741
▁animal	-9.70744
▁remain	-9.70747
▁realized	-9.70834
▁gate	-9.70887
▁ju	-9.70981
▁bath	-9.70985
▁meaning	-9.71049
use	-9.71097
▁prisoner	-9.7141
▁expected	-9.71449
▁hm	-9.71512
▁inf	-9.71781
▁details	-9.71971
act	-9.72008
ky	-9.72036
▁signed	-9.72175
br	-9.72184
ka	-9.72325
her	-9.72348
▁tall	-9.72463
▁worlds	-9.72541
▁ver	-9.72554
▁feelings	-9.72641
▁garden	-9.73369
▁create	-9.73379
▁sudden	-9.73566
▁success	-9.73568
▁own	-9.73582
▁complete	-9.73596
▁indian	-9.73613
▁inform	-9.73689
▁access	-9.73732
▁arthur	-9.73732
▁bianca	-9.73732
▁built	-9.73732
▁courage	-9.73732
▁horrible	-9.73732
▁jungle	-9.73732
▁literally	-9.73732
▁mirror	-9.73732
▁necessary	-9.73732
▁olympic	-9.73732
▁responsible	-9.73732
▁silver	-9.73732
▁squeeze	-9.73732
▁stomach	-9.73732
▁thursday	-9.73732
▁viktor	-9.73732
▁weather	-9.73732
▁tool	-9.73732
▁drake	-9.73733
▁donna	-9.73734
▁expensive	-9.73737
▁boring	-9.73743
▁rope	-9.73753
▁june	-9.73759
▁hans	-9.73759
▁fbi	-9.73782
▁trace	-9.738
▁jackson	-9.73812
▁aii	-9.73849
ina	-9.73873
▁director	-9.73918
▁qu	-9.73961
con	-9.73976
ris	-9.74047
▁pin	-9.74047
▁metal	-9.74072
▁bra	-9.74108
▁students	-9.7411
▁male	-9.74164
▁suffering	-9.74196
▁personally	-9.74234
for	-9.74237
▁dom	-9.74494
▁pat	-9.74662
▁plant	-9.74705
▁sexy	-9.74878
▁dressed	-9.75074
▁prayer	-9.75309
▁te	-9.75379
▁ld	-9.75591
uc	-9.75635
▁doug	-9.75796
▁trained	-9.75834
nce	-9.75848
ism	-9.75891
▁training	-9.76115
bl	-9.76136
▁sports	-9.76332
ding	-9.76439
▁closes	-9.76457
▁keeps	-9.76492
ties	-9.76541
▁cor	-9.76653
▁stayed	-9.76897
▁tickets	-9.76916
▁enter	-9.77038
▁direct	-9.77175
iss	-9.77175
▁invite	-9.77224
port	-9.77238
▁sweat	-9.77361
my	-9.77364
▁collect	-9.77389
▁obvious	-9.77415
▁exact	-9.77436
▁drag	-9.77459
▁birth	-9.77578
▁brooklyn	-9.77578
▁investigation	-9.77578
▁koslow	-9.77578
▁lawrence	-9.77578
▁mckenzie	-9.77578
▁neighborhood	-9.77578
▁official	-9.77578
▁regular	-9.77578
▁represent	-9.77578
▁sobbing	-9.77578
▁theater	-9.77578
▁joking	-9.77578
▁preacher	-9.77578
▁route	-9.77578
▁zero	-9.77578
▁sword	-9.77578
▁title	-9.77579
▁sharp	-9.77579
hrer	-9.77582
▁wilson	-9.77583
▁willingham	-9.77586
▁baseball	-9.77587
▁sunday	-9.77588
▁circle	-9.77594
▁beach	-9.77609
▁dan	-9.77609
▁jamal	-9.77616
▁gear	-9.77618
▁lots	-9.77635
▁tessa	-9.77645
▁china	-9.77682
▁national	-9.77715
▁steven	-9.77756
▁timing	-9.77757
▁auntie	-9.77763
▁winter	-9.77777
▁cia	-9.7782
▁mimi	-9.77834
▁warning	-9.77947
▁bags	-9.78068
▁taxi	-9.78088
▁raised	-9.78155
▁coughs	-9.78359
▁gettin	-9.78384
▁fore	-9.78537
▁guest	-9.78587
▁stranger	-9.78693
ball	-9.78702
▁closer	-9.78878
▁classic	-9.79039
▁younger	-9.79182
▁fe	-9.79363
ware	-9.79368
▁op	-9.79474
▁fathers	-9.79556
▁kinda	-9.79689
▁rob	-9.79707
▁hood	-9.79856
▁selling	-9.79857
vo	-9.80031
▁product	-9.80295
▁acting	-9.8041
▁cla	-9.80432
▁paint	-9.80538
▁football	-9.80926
ack	-9.80944
▁cares	-9.81095
▁cap	-9.81113
▁settle	-9.81222
▁prepare	-9.81224
▁shower	-9.81242
▁load	-9.81258
top	-9.81267
back	-9.81376
▁speaker	-9.81448
com	-9.81511
▁effect	-9.81551
▁arvin	-9.81578
▁avner	-9.81578
▁borrow	-9.81578
▁breakfast	-9.81578
▁jealous	-9.81578
▁lincoln	-9.81578
▁measure	-9.81578
▁revenge	-9.81578
▁science	-9.81578
▁square	-9.81578
▁surrender	-9.81578
▁truly	-9.81578
▁unusual	-9.81578
▁illegal	-9.81578
▁piano	-9.81578
▁staff	-9.81578
▁woke	-9.81578
▁warrant	-9.81578
▁blaring	-9.81579
▁pump	-9.81579
▁thatd	-9.81579
▁gross	-9.81579
▁upset	-9.8158
▁helen	-9.81581
▁mood	-9.81581
▁glory	-9.81582
▁appointment	-9.81582
▁basically	-9.81583
▁fought	-9.81583
▁closing	-9.81583
▁bunker	-9.81585
▁blade	-9.81586
▁saving	-9.81586
▁lucy	-9.81587
▁cheap	-9.81587
▁rush	-9.8159
▁execution	-9.81595
▁punk	-9.816
▁jab	-9.81602
▁carlos	-9.81602
▁election	-9.81606
▁mister	-9.81606
▁bedroom	-9.81617
▁basement	-9.81622
▁maid	-9.81623
▁chill	-9.81647
▁stokely	-9.81649
▁bound	-9.81663
▁husbands	-9.81694
▁checked	-9.81702
▁bah	-9.81721
▁snap	-9.81727
▁gil	-9.81775
▁harm	-9.81776
ring	-9.81797
▁grown	-9.81809
▁everyones	-9.8181
▁wen	-9.81855
▁cable	-9.8186
▁sheba	-9.81889
▁useless	-9.81918
▁customer	-9.81953
ors	-9.82095
▁slowly	-9.82147
▁sew	-9.82147
nder	-9.82204
▁heat	-9.82427
▁german	-9.82485
▁receive	-9.82668
▁lap	-9.82692
▁bri	-9.82805
▁pound	-9.82863
▁growing	-9.82915
▁rip	-9.83183
▁masters	-9.83192
▁sooner	-9.8326
▁boo	-9.83265
▁rocks	-9.8357
ign	-9.83693
▁falling	-9.8371
red	-9.8381
▁moms	-9.83969
▁cigarettes	-9.84143
tin	-9.8418
▁loss	-9.84282
ving	-9.84352
▁pl	-9.8455
ight	-9.84673
▁opened	-9.847
▁fed	-9.84768
▁places	-9.84845
we	-9.84928
▁fail	-9.8526
▁twenty	-9.85294
▁victor	-9.85501
▁aunt	-9.85563
og	-9.85574
▁original	-9.8558
om	-9.85594
▁somethin	-9.85676
▁plays	-9.85697
▁expert	-9.85745
▁grateful	-9.85745
▁insurance	-9.85745
▁monica	-9.85745
▁mulligan	-9.85745
▁trunk	-9.85745
▁simply	-9.85745
▁weii	-9.85745
▁firm	-9.85745
▁location	-9.85745
▁motel	-9.85745
▁blew	-9.85745
▁larry	-9.85746
▁whenever	-9.85746
▁hanging	-9.85749
▁claire	-9.85749
▁audience	-9.85749
▁wailing	-9.85749
▁linda	-9.8575
▁minister	-9.85751
▁malena	-9.85767
▁strip	-9.85768
▁shake	-9.85772
▁priest	-9.85777
▁severa	-9.8578
▁data	-9.85794
rich	-9.85806
▁hugh	-9.85807
▁jew	-9.85807
▁off	-9.85832
▁wide	-9.85839
▁powerful	-9.85872
▁federa	-9.8593
▁suddenly	-9.85933
▁dads	-9.86024
▁approaching	-9.86064
▁grave	-9.86076
▁numbers	-9.86082
▁scary	-9.8609
▁hug	-9.86197
▁carter	-9.86261
▁lover	-9.8627
▁reports	-9.86311
▁herr	-9.86321
▁tri	-9.86335
▁counter	-9.86399
▁sub	-9.86443
house	-9.8648
▁studying	-9.86498
▁stronger	-9.86532
▁je	-9.86663
ong	-9.86865
▁lately	-9.8704
▁vehicle	-9.87063
▁nightmare	-9.87083
▁sport	-9.87171
▁ends	-9.87175
ept	-9.87509
▁appears	-9.87634
itt	-9.87738
▁gl	-9.87765
▁ending	-9.88021
▁siren	-9.88142
▁believed	-9.88212
▁bev	-9.88256
▁iii	-9.88358
▁finding	-9.88505
▁lu	-9.88544
▁dia	-9.88583
▁ideas	-9.88619
gen	-9.88673
▁pounds	-9.88766
ft	-9.88786
▁dreaming	-9.88889
▁non	-9.89039
gie	-9.89177
ov	-9.8931
▁brains	-9.89328
▁shock	-9.89601
▁wh	-9.89639
▁flow	-9.89896
▁stock	-9.89917
▁desperate	-9.89919
▁cow	-9.89926
▁all	-9.89948
▁celebrate	-9.90093
▁davis	-9.90093
▁eagle	-9.90093
▁including	-9.90093
▁kayden	-9.90093
▁lorena	-9.90093
▁morris	-9.90093
▁newspaper	-9.90093
▁swallow	-9.90093
▁telephone	-9.90093
▁trigger	-9.90093
▁ashamed	-9.90093
▁josh	-9.90093
▁adrian	-9.90093
▁forgotten	-9.90093
▁quinn	-9.90093
▁mostly	-9.90093
▁kelly	-9.90093
▁center	-9.90093
▁repeat	-9.90094
▁brown	-9.90094
▁someday	-9.90094
▁university	-9.90095
▁shift	-9.90097
▁winning	-9.90097
ative	-9.90098
▁specific	-9.90098
▁justice	-9.90098
▁value	-9.90101
▁danny	-9.90103
▁trash	-9.90104
▁begging	-9.90104
▁announce	-9.90105
▁desk	-9.90108
▁legend	-9.90119
▁coward	-9.9012
▁dope	-9.9012
▁bible	-9.90127
▁secretary	-9.90133
▁iike	-9.90136
▁proof	-9.90137
▁yul	-9.9015
▁buzzer	-9.90154
▁recently	-9.90163
▁nazi	-9.90182
▁coke	-9.90187
▁dayday	-9.90219
▁friendship	-9.90222
▁notes	-9.90232
▁stolen	-9.9026
▁itd	-9.90313
▁bail	-9.90358
▁fourth	-9.90364
▁journalist	-9.90379
▁shape	-9.90392
▁provided	-9.904
▁yale	-9.90437
▁port	-9.9044
▁headed	-9.90455
▁reality	-9.90478
▁created	-9.90511
▁owner	-9.90535
▁disappeared	-9.9074
▁gu	-9.90954
▁tense	-9.91086
down	-9.91099
▁members	-9.91112
▁fingers	-9.91222
▁clearly	-9.91225
▁unit	-9.91232
▁bru	-9.91268
ade	-9.91283
of	-9.9133
▁nobodys	-9.91354
▁screwed	-9.91354
▁singer	-9.91372
▁anti	-9.9187
▁backup	-9.92002
▁twi	-9.92103
over	-9.92106
▁sons	-9.92463
▁flag	-9.92895
right	-9.93225
ger	-9.93302
▁mat	-9.93325
▁daddys	-9.93421
iest	-9.93555
▁fo	-9.93612
▁answers	-9.9382
ical	-9.93867
▁gal	-9.93991
▁ram	-9.94299
▁tent	-9.94512
▁prince	-9.94557
▁europe	-9.94585
▁virgin	-9.94594
▁farm	-9.9463
▁onto	-9.94635
▁album	-9.94638
▁associate	-9.94638
▁attorney	-9.94638
▁avoid	-9.94638
▁california	-9.94638
▁dolores	-9.94638
▁eventually	-9.94638
▁harriet	-9.94638
▁medicine	-9.94638
▁offense	-9.94638
▁reverend	-9.94638
▁robinson	-9.94638
▁shrink	-9.94638
▁strength	-9.94638
▁umbrella	-9.94638
▁unbelievable	-9.94638
▁violence	-9.94638
▁drown	-9.94638
▁grief	-9.94638
▁kofi	-9.94638
▁refuse	-9.94638
▁studio	-9.94638
▁threw	-9.94638
▁flesh	-9.94638
▁stuttering	-9.94638
▁leaf	-9.94639
▁queen	-9.94639
▁slide	-9.94639
▁marcus	-9.94639
▁modern	-9.94639
▁funeral	-9.94639
▁commission	-9.9464
▁yellow	-9.94642
▁moral	-9.94644
▁tits	-9.94646
▁jeff	-9.9465
▁leak	-9.94656
▁penny	-9.94658
▁yuri	-9.94662
▁buzzes	-9.94667
▁negative	-9.9467
▁debt	-9.94671
▁edge	-9.94683
▁incredible	-9.94686
work	-9.9469
▁potter	-9.94695
▁fence	-9.94703
▁wave	-9.9471
▁sail	-9.94713
▁march	-9.94738
▁pink	-9.94738
▁hop	-9.94752
▁button	-9.94753
▁rare	-9.94811
▁print	-9.9484
▁aim	-9.94841
▁conor	-9.94842
▁tony	-9.94842
▁safety	-9.94856
▁heroin	-9.94887
▁polly	-9.94896
▁vera	-9.94949
▁clay	-9.94953
▁whispers	-9.95139
val	-9.95151
▁cain	-9.95152
▁ste	-9.95293
▁path	-9.95313
▁artists	-9.95342
▁beg	-9.95358
▁checking	-9.95435
▁ob	-9.95445
▁trans	-9.95549
▁boyle	-9.95807
▁grade	-9.95828
▁troops	-9.95991
▁tilly	-9.95993
▁shota	-9.96009
▁riding	-9.96084
▁shoe	-9.9614
ite	-9.96203
▁nights	-9.96221
▁kicked	-9.96283
▁odd	-9.96372
▁cigarette	-9.96419
▁spending	-9.96646
▁trees	-9.96652
▁tryin	-9.96781
▁log	-9.96804
▁ms	-9.97258
▁pleased	-9.97304
istic	-9.97456
nie	-9.97628
gh	-9.97632
▁z	-9.97768
▁williams	-9.9824
▁lee	-9.98259
▁suffer	-9.98262
▁cheat	-9.98279
▁remains	-9.98445
ified	-9.98507
▁doors	-9.98535
▁victims	-9.9859
▁er	-9.98608
▁cab	-9.98618
▁mi	-9.98725
bu	-9.98814
▁concern	-9.98874
▁rem	-9.98915
▁br	-9.99016
what	-9.99137
▁dies	-9.99141
yeh	-9.99143
▁guilt	-9.99155
▁drinks	-9.99343
▁object	-9.99373
▁fla	-9.99381
▁resist	-9.99395
▁perform	-9.994
▁vietnam	-9.994
▁advance	-9.994
▁amount	-9.994
▁champagne	-9.994
▁circumstances	-9.994
▁corporation	-9.994
▁divorce	-9.994
▁energy	-9.994
▁explode	-9.994
▁female	-9.994
▁macleod	-9.994
▁nefarious	-9.994
▁progress	-9.994
▁rumbling	-9.994
▁spanish	-9.994
▁stewart	-9.994
▁toast	-9.994
▁violent	-9.994
▁burke	-9.994
▁complain	-9.994
▁fifty	-9.994
▁martha	-9.994
▁hammer	-9.994
▁knowledge	-9.994
▁tragic	-9.99401
▁however	-9.99401
▁maggie	-9.99403
▁toy	-9.99404
▁cherry	-9.99409
▁regard	-9.99413
▁juice	-9.99413
▁wray	-9.99417
▁factory	-9.99421
▁sarah	-9.99428
▁secure	-9.99435
▁broad	-9.99449
▁manning	-9.99454
▁mental	-9.9946
▁liz	-9.99467
▁laughter	-9.99482
▁unfortunately	-9.99486
▁talkin	-9.99489
▁retarded	-9.99491
▁gig	-9.99522
▁gina	-9.99542
▁cards	-9.99568
▁golden	-9.9959
▁cage	-9.99598
▁hitting	-9.99605
▁frankie	-9.99606
▁bowl	-9.99648
▁victory	-9.99685
▁los	-9.99709
▁lines	-9.99747
▁badge	-9.99785
▁prepared	-9.99825
▁invited	-9.99842
▁mid	-9.99864
▁ohh	-9.99925
▁concerned	-9.99929
▁nearly	-9.99943
▁dust	-9.99963
▁forced	-9.99997
ial	-9.99999
▁document	-10.0003
ural	-10.0011
▁lower	-10.0012
▁hire	-10.0021
▁peel	-10.0021
▁showing	-10.0032
▁attacked	-10.004
ust	-10.0043
ize	-10.0044
ible	-10.0046
▁mis	-10.0069
▁x	-10.0072
room	-10.0072
ell	-10.0076
▁aid	-10.0086
ung	-10.0089
▁shows	-10.0098
▁flowers	-10.0101
▁rounds	-10.0114
itz	-10.0121
▁parent	-10.0146
▁pill	-10.0151
▁murders	-10.0155
▁slip	-10.0161
▁laws	-10.0182
▁ke	-10.0182
▁ve	-10.0198
▁ai	-10.0208
▁fart	-10.0224
▁everybodys	-10.0239
mat	-10.0256
▁cleaning	-10.0272
▁ordered	-10.0272
▁bullets	-10.0274
▁tu	-10.0289
well	-10.0308
cha	-10.031
▁chris	-10.0319
▁hunt	-10.0324
press	-10.0337
▁animals	-10.034
▁ban	-10.0341
▁rep	-10.0359
▁bleed	-10.0365
▁songs	-10.0367
▁hip	-10.0371
▁provide	-10.0405
▁fort	-10.0411
field	-10.0414
ab	-10.0436
▁author	-10.0437
▁earn	-10.0437
▁available	-10.044
▁bangkok	-10.044
▁challenge	-10.044
▁clever	-10.044
▁elvis	-10.044
▁equipment	-10.044
▁interrupt	-10.044
▁italian	-10.044
▁jessica	-10.044
▁kendricks	-10.044
▁maureen	-10.044
▁miguel	-10.044
▁publish	-10.044
▁scratch	-10.044
▁sneak	-10.044
▁wilcox	-10.044
▁keeler	-10.044
▁pattern	-10.044
▁witch	-10.044
▁caleb	-10.044
▁degree	-10.044
▁attempt	-10.044
▁greg	-10.044
▁nathan	-10.044
▁attend	-10.0441
▁spell	-10.0441
▁bored	-10.0442
organ	-10.0442
▁iron	-10.0442
▁defense	-10.0442
▁flash	-10.0442
▁loyalty	-10.0443
▁bury	-10.0443
▁amber	-10.0443
▁thirty	-10.0443
▁theory	-10.0444
▁psycho	-10.0445
▁award	-10.0446
▁hank	-10.0447
▁pipe	-10.0449
▁trial	-10.045
▁whispering	-10.0451
▁setting	-10.0454
▁statement	-10.0457
erstr	-10.0457
▁style	-10.0457
▁angeles	-10.0459
▁rice	-10.046
▁laid	-10.0461
▁weed	-10.0462
▁spoken	-10.0463
▁andrea	-10.0469
▁pity	-10.047
boy	-10.0472
▁lean	-10.048
▁pm	-10.0483
▁lack	-10.0488
▁deeply	-10.0497
▁heads	-10.0507
▁spin	-10.0515
▁sid	-10.0515
▁walls	-10.0516
▁ham	-10.0568
▁fate	-10.0571
▁towards	-10.0574
▁arrested	-10.0594
▁oneill	-10.0599
▁ge	-10.0599
cking	-10.0623
▁heading	-10.0632
▁flying	-10.0634
▁photos	-10.0638
ron	-10.0644
▁niggas	-10.0654
den	-10.0724
qui	-10.0727
▁gut	-10.0737
qua	-10.0753
▁adams	-10.0776
▁pu	-10.0811
▁touched	-10.0824
▁ant	-10.0883
▁bow	-10.0888
▁chase	-10.0889
▁papers	-10.0903
▁gather	-10.0905
fully	-10.0905
▁disturb	-10.0906
▁confirm	-10.0913
▁les	-10.092
town	-10.0937
just	-10.094
▁physical	-10.0949
▁lion	-10.0956
▁kev	-10.0957
▁champ	-10.096
▁eli	-10.0964
▁quarter	-10.0966
▁affair	-10.0966
▁albert	-10.0966
▁behavior	-10.0966
▁british	-10.0966
▁candice	-10.0966
▁charles	-10.0966
▁conduct	-10.0966
▁cuff	-10.0966
▁elliott	-10.0966
▁exciting	-10.0966
▁exercise	-10.0966
▁grenade	-10.0966
▁kidnapper	-10.0966
▁militia	-10.0966
▁paradise	-10.0966
▁password	-10.0966
▁politics	-10.0966
▁purvis	-10.0966
▁stretch	-10.0966
▁terrific	-10.0966
▁vodka	-10.0966
▁wesiey	-10.0966
▁couch	-10.0966
▁ferris	-10.0966
▁appeal	-10.0966
▁brief	-10.0966
▁generation	-10.0966
▁reckon	-10.0966
▁sophie	-10.0966
▁stood	-10.0966
▁paddy	-10.0966
▁solve	-10.0966
▁contest	-10.0966
▁proceed	-10.0966
▁saddam	-10.0966
▁parole	-10.0966
▁wrist	-10.0966
▁nerve	-10.0966
▁demand	-10.0967
▁heydrich	-10.0967
▁monday	-10.0967
▁beeps	-10.0967
▁vacation	-10.0967
▁planned	-10.0967
▁urgent	-10.0967
▁comfort	-10.0967
▁insist	-10.0967
▁bravo	-10.0967
▁steak	-10.0967
▁spray	-10.0967
▁teii	-10.0968
▁community	-10.0968
▁josef	-10.0968
▁skinny	-10.0968
▁zee	-10.0968
▁motherfucking	-10.0968
▁app	-10.0969
ville	-10.0969
▁terry	-10.097
▁kingsman	-10.097
▁alley	-10.0971
▁patricia	-10.0971
▁nina	-10.0971
▁barney	-10.0971
▁speedman	-10.0972
▁aiden	-10.0973
▁arabic	-10.0973
▁pure	-10.0976
▁nun	-10.0977
▁att	-10.0977
▁leah	-10.0984
▁morty	-10.0984
▁convinced	-10.0985
▁cocks	-10.0986
▁deco	-10.0987
▁mia	-10.0993
▁markum	-10.0996
▁host	-10.0996
▁whod	-10.0997
▁letham	-10.1002
erial	-10.1004
▁sch	-10.1004
▁healthy	-10.1005
▁glasses	-10.1009
▁gain	-10.101
▁sandy	-10.1012
▁just	-10.1019
▁ticky	-10.1021
▁commander	-10.1022
▁bay	-10.1024
▁loaded	-10.1037
▁union	-10.1037
▁as	-10.1046
▁mei	-10.1048
▁bon	-10.1054
▁blessed	-10.1057
▁considered	-10.1063
▁thousands	-10.1073
▁bun	-10.1078
▁not	-10.1086
▁rise	-10.1086
▁lou	-10.1094
▁sales	-10.1101
▁hurting	-10.1113
▁reached	-10.1115
▁carrying	-10.1118
▁motherfuckers	-10.1126
with	-10.1133
▁lips	-10.1137
old	-10.1146
▁ali	-10.1182
▁bout	-10.1186
▁mac	-10.1194
▁pan	-10.1222
▁detail	-10.1224
▁neighbors	-10.1242
day	-10.1271
▁unc	-10.1273
▁losers	-10.1274
▁reg	-10.1282
▁phones	-10.131
▁med	-10.1311
▁killers	-10.1312
▁ni	-10.1312
▁damned	-10.1312
hand	-10.1313
▁stones	-10.1321
▁stars	-10.1331
▁sirens	-10.1344
▁loser	-10.1353
▁noon	-10.1358
ory	-10.138
▁mal	-10.139
▁design	-10.1395
erry	-10.1399
▁beating	-10.14
▁shin	-10.1413
bar	-10.1427
▁hits	-10.144
▁her	-10.1451
▁sniff	-10.146
▁clang	-10.1466
▁tai	-10.1472
▁wast	-10.1476
▁andre	-10.1485
▁remove	-10.1485
▁arc	-10.149
load	-10.1496
beat	-10.1502
▁weigh	-10.1507
▁appro	-10.1517
mar	-10.1518
▁smith	-10.1518
▁au	-10.152
▁breast	-10.1522
▁celeste	-10.1522
▁describe	-10.1522
▁easily	-10.1522
▁education	-10.1522
▁england	-10.1522
▁filthy	-10.1522
▁garbage	-10.1522
▁grandmother	-10.1522
▁guitar	-10.1522
▁holiday	-10.1522
▁license	-10.1522
▁munich	-10.1522
▁pettyman	-10.1522
▁pizza	-10.1522
▁popular	-10.1522
▁ritual	-10.1522
▁senior	-10.1522
▁smash	-10.1522
▁society	-10.1522
▁suspicious	-10.1522
▁telfer	-10.1522
▁therapy	-10.1522
▁tuesday	-10.1522
▁miami	-10.1522
▁occasion	-10.1522
▁intend	-10.1522
▁razor	-10.1522
▁vegas	-10.1522
▁virus	-10.1522
▁candle	-10.1522
▁impressive	-10.1522
▁marquis	-10.1522
▁adult	-10.1522
▁crush	-10.1522
▁jesse	-10.1522
▁sniffles	-10.1522
▁downtown	-10.1522
▁replace	-10.1522
▁arrangement	-10.1523
▁charity	-10.1523
▁foster	-10.1523
▁shadow	-10.1523
▁zone	-10.1523
▁trail	-10.1524
▁jewish	-10.1524
▁brush	-10.1524
▁plug	-10.1525
▁bride	-10.1525
▁rude	-10.1526
▁fax	-10.1526
▁sentence	-10.1526
▁string	-10.1526
▁toe	-10.1526
za	-10.1526
▁slim	-10.1526
▁possession	-10.1526
▁fellow	-10.1527
▁loving	-10.1527
▁santa	-10.1528
▁jean	-10.1529
▁wallet	-10.1533
▁dings	-10.1535
▁tina	-10.1536
▁para	-10.1537
▁standard	-10.1538
▁applaud	-10.1539
▁embarrassed	-10.1542
▁embarrassing	-10.1544
▁marie	-10.1545
▁cutting	-10.1547
▁successful	-10.1547
▁advise	-10.1551
▁passion	-10.1551
ably	-10.1554
▁executed	-10.1555
▁hangman	-10.1558
▁julian	-10.1562
▁gi	-10.1569
lay	-10.157
▁presents	-10.1574
▁eve	-10.1577
▁eaten	-10.158
▁drivers	-10.1581
▁entirely	-10.1581
▁hunting	-10.159
▁points	-10.159
ail	-10.1592
▁latest	-10.1594
▁ton	-10.1606
▁secrets	-10.1608
▁destroyed	-10.1618
▁math	-10.1618
▁skills	-10.1619
case	-10.1641
▁perfectly	-10.1648
▁rate	-10.1648
▁shine	-10.1661
form	-10.1666
iy	-10.1677
hill	-10.1682
▁chi	-10.1685
▁tires	-10.169
▁mob	-10.1703
▁depends	-10.1706
▁mc	-10.1713
▁kings	-10.1715
▁closet	-10.1717
▁counting	-10.1727
ren	-10.1738
▁offering	-10.1743
▁clears	-10.1749
▁pea	-10.1758
▁lan	-10.1766
▁pushing	-10.1767
▁dealing	-10.1779
▁returned	-10.178
▁cal	-10.1781
▁cheer	-10.1788
bed	-10.1788
ppin	-10.1808
▁rebel	-10.1809
▁neighbor	-10.181
▁site	-10.1811
▁knee	-10.1817
▁falls	-10.184
▁lit	-10.1842
▁chop	-10.1849
cal	-10.185
▁kissing	-10.186
▁dudes	-10.1878
ash	-10.1878
▁blowing	-10.19
▁pulling	-10.191
▁seal	-10.1912
▁demons	-10.1931
▁bars	-10.1932
▁germans	-10.194
▁es	-10.1956
ddle	-10.1968
▁fr	-10.1984
ble	-10.2036
you	-10.204
▁recommend	-10.2056
▁pour	-10.2067
▁schedule	-10.2074
▁image	-10.2078
▁heal	-10.2079
light	-10.2085
▁brand	-10.2086
fuck	-10.2096
▁chose	-10.2099
▁moments	-10.2102
▁threat	-10.2105
▁gentle	-10.2106
▁loyal	-10.2107
▁joy	-10.2108
▁transfer	-10.2109
▁limit	-10.211
▁athena	-10.211
▁blizzard	-10.211
▁charlotte	-10.211
▁chirping	-10.211
▁coconut	-10.211
▁creature	-10.211
▁detroit	-10.211
▁explosiveskull	-10.211
▁families	-10.211
▁jordan	-10.211
▁lorraine	-10.211
▁miracle	-10.211
▁nonsense	-10.211
▁ocean	-10.211
▁oclock	-10.211
▁pathetic	-10.211
▁response	-10.211
▁safranek	-10.211
▁salameh	-10.211
▁vampire	-10.211
▁wednesday	-10.211
▁arguing	-10.211
▁dentist	-10.211
▁disaster	-10.211
▁ignore	-10.211
▁lazlo	-10.211
▁lenora	-10.211
▁rifle	-10.211
▁senator	-10.211
▁thrill	-10.211
▁echo	-10.211
▁stress	-10.211
▁lauren	-10.211
▁rescue	-10.211
▁slut	-10.211
▁online	-10.211
▁tiger	-10.211
▁joan	-10.211
▁padre	-10.211
▁desert	-10.211
▁indeed	-10.211
▁boston	-10.211
▁jaysis	-10.211
▁exclaim	-10.211
▁reeve	-10.211
▁maniac	-10.211
▁carried	-10.2111
▁bingo	-10.2111
▁sobs	-10.2111
▁planning	-10.2111
▁guide	-10.2111
▁heather	-10.2111
▁flea	-10.2111
▁curious	-10.2111
▁mask	-10.2111
▁therell	-10.2112
▁severe	-10.2112
▁garage	-10.2112
▁adler	-10.2112
▁spring	-10.2113
▁jury	-10.2113
▁media	-10.2113
▁viking	-10.2114
▁grandpa	-10.2114
▁confession	-10.2115
▁label	-10.2115
▁murphy	-10.2115
▁socialist	-10.2116
▁tapes	-10.2117
▁chopper	-10.2117
▁hopefully	-10.2118
▁sack	-10.2119
▁mercy	-10.212
▁collection	-10.212
▁link	-10.212
▁gunner	-10.2122
▁dating	-10.2122
▁lads	-10.2124
▁tender	-10.2126
▁bio	-10.2129
▁homework	-10.2129
▁brady	-10.213
▁exit	-10.2131
▁grass	-10.2136
▁carmen	-10.2139
▁tank	-10.214
▁copies	-10.214
▁naturally	-10.2143
▁pub	-10.2143
▁shove	-10.2156
▁connected	-10.2157
▁delivery	-10.2167
▁pile	-10.2168
▁gray	-10.2168
▁former	-10.2173
▁hired	-10.2175
ko	-10.2176
▁lin	-10.2188
ire	-10.2191
▁based	-10.2198
▁focused	-10.2199
▁rod	-10.2203
▁equal	-10.2205
▁carefully	-10.2207
▁fra	-10.2209
▁spy	-10.2214
▁my	-10.223
▁melt	-10.2232
▁belly	-10.2244
▁indistinctly	-10.2245
▁hooker	-10.2245
▁stairs	-10.225
▁belongs	-10.2253
▁signs	-10.2263
▁yous	-10.2269
▁putman	-10.2275
▁makeup	-10.2278
▁ye	-10.2294
▁lab	-10.2295
▁knocked	-10.2298
▁hostages	-10.2307
▁rub	-10.2333
car	-10.2337
▁laughed	-10.234
▁ron	-10.2346
▁gar	-10.236
▁staring	-10.2366
▁fixed	-10.2369
▁leading	-10.2385
▁terms	-10.2401
mber	-10.2429
▁inmate	-10.2431
▁term	-10.2433
cer	-10.2434
▁recording	-10.2449
spect	-10.2454
▁hoo	-10.2461
▁alt	-10.2483
▁assholes	-10.2495
▁dre	-10.2517
▁needle	-10.2527
▁sting	-10.253
▁ru	-10.2559
▁cameras	-10.2568
▁counts	-10.2578
▁pri	-10.2581
▁badly	-10.2585
▁quote	-10.2594
▁dial	-10.2607
▁warn	-10.2633
▁buyer	-10.2634
▁issues	-10.2651
▁gee	-10.2653
▁charm	-10.2676
pen	-10.2687
zo	-10.2688
▁sal	-10.2689
▁require	-10.2699
▁damage	-10.2701
ja	-10.2718
▁actual	-10.2722
serving	-10.2724
▁russia	-10.2725
▁instruct	-10.2726
▁dam	-10.2728
▁alfredo	-10.2735
▁ambulance	-10.2735
▁awesome	-10.2735
▁awkward	-10.2735
▁balkan	-10.2735
▁briggs	-10.2735
▁central	-10.2735
▁chocolate	-10.2735
▁coincidence	-10.2735
▁compliment	-10.2735
▁comrade	-10.2735
▁envelope	-10.2735
▁escort	-10.2735
▁facility	-10.2735
▁fitzgerald	-10.2735
▁genuine	-10.2735
▁gorgeous	-10.2735
▁junior	-10.2735
▁luigi	-10.2735
▁matthew	-10.2735
▁mikael	-10.2735
▁olivia	-10.2735
▁particular	-10.2735
▁peggy	-10.2735
▁precious	-10.2735
▁reputation	-10.2735
▁schultz	-10.2735
▁sensitive	-10.2735
▁silhouettes	-10.2735
▁tattoo	-10.2735
▁typewriter	-10.2735
▁wreck	-10.2735
▁dreyman	-10.2735
▁renato	-10.2735
▁dawn	-10.2735
▁squad	-10.2735
▁entry	-10.2735
▁waverly	-10.2735
▁ease	-10.2735
▁thomas	-10.2735
▁robert	-10.2735
▁swimming	-10.2735
▁shopping	-10.2735
▁burger	-10.2735
▁advantage	-10.2735
▁waitress	-10.2735
▁cancel	-10.2735
▁thane	-10.2735
urban	-10.2735
▁coast	-10.2735
▁notebook	-10.2736
▁honking	-10.2736
▁cheek	-10.2737
▁salad	-10.2737
▁karl	-10.2737
▁grip	-10.2738
▁bount	-10.2738
▁committed	-10.2738
▁root	-10.2738
▁unlike	-10.2738
▁announcement	-10.2739
▁chasing	-10.2739
▁fans	-10.274
▁clive	-10.274
▁technically	-10.274
▁slice	-10.2741
▁labor	-10.2741
▁andrew	-10.2741
▁survivor	-10.2743
▁waist	-10.2743
▁aside	-10.2744
▁nov	-10.2745
▁medal	-10.2745
▁loan	-10.2746
▁glen	-10.2746
▁forest	-10.2746
▁swan	-10.2748
▁minor	-10.2748
▁whatre	-10.2749
▁forces	-10.275
▁chess	-10.2751
▁role	-10.2753
▁bush	-10.2756
▁exception	-10.2756
▁tiny	-10.2756
▁sock	-10.2757
▁corpse	-10.2757
▁bean	-10.2757
▁kiddo	-10.2758
▁ruby	-10.2762
▁stable	-10.2765
▁fallen	-10.2765
▁granted	-10.2771
▁mass	-10.2773
▁down	-10.2773
▁abandoned	-10.2775
▁shy	-10.278
▁deed	-10.2782
▁sho	-10.2794
▁received	-10.2797
▁earned	-10.2802
▁served	-10.2803
▁yup	-10.2807
▁prep	-10.2809
▁shocked	-10.2813
▁herod	-10.2813
▁skipp	-10.2816
▁allie	-10.2818
▁manner	-10.2828
▁partners	-10.2838
▁chin	-10.2841
▁fee	-10.2851
ette	-10.2859
▁mentioned	-10.2865
▁mayor	-10.2871
▁gin	-10.2876
▁pissed	-10.2889
▁poll	-10.289
▁surely	-10.2918
▁den	-10.2935
▁disc	-10.2945
ev	-10.296
▁higher	-10.2971
▁mem	-10.2977
▁boob	-10.2981
ward	-10.2981
▁dancer	-10.3003
▁streets	-10.3003
▁machines	-10.3003
▁visiting	-10.3004
▁remembered	-10.3014
▁ki	-10.3029
ana	-10.3043
▁cli	-10.3068
▁thin	-10.3077
▁jen	-10.3095
▁appear	-10.3102
▁suits	-10.3102
▁evan	-10.3102
▁pio	-10.3105
▁io	-10.3106
▁ida	-10.3121
▁hid	-10.3128
▁friendly	-10.3128
▁merci	-10.3142
▁she	-10.3173
▁nightmares	-10.3189
▁there	-10.3204
ual	-10.3209
emb	-10.322
nal	-10.3221
▁mol	-10.3251
▁assassin	-10.3259
▁rats	-10.3319
▁ci	-10.3324
▁sue	-10.3325
▁skip	-10.3332
▁connect	-10.3342
▁crawl	-10.3347
more	-10.3349
▁hated	-10.3352
▁sacrifice	-10.3366
▁torture	-10.3366
▁unh	-10.3372
▁photograph	-10.3374
print	-10.3375
▁when	-10.3376
boom	-10.3376
▁iraq	-10.3388
▁africa	-10.3391
▁sandwich	-10.3392
▁isabel	-10.3396
▁invest	-10.3399
▁agency	-10.3402
▁alleluia	-10.3402
▁bureau	-10.3402
▁candidate	-10.3402
▁cocaine	-10.3402
▁colleague	-10.3402
▁concentrate	-10.3402
▁cottage	-10.3402
▁disorder	-10.3402
▁display	-10.3402
▁dunnage	-10.3402
▁enemies	-10.3402
▁explosion	-10.3402
▁fantastic	-10.3402
▁fridge	-10.3402
▁gabriel	-10.3402
▁gertrude	-10.3402
▁houston	-10.3402
▁jarrett	-10.3402
▁judgment	-10.3402
▁juggernaut	-10.3402
▁kekambas	-10.3402
▁lancelot	-10.3402
▁library	-10.3402
▁monitor	-10.3402
▁muscle	-10.3402
▁paranoid	-10.3402
▁permanent	-10.3402
▁perrkins	-10.3402
▁practical	-10.3402
▁procedure	-10.3402
▁rawlings	-10.3402
▁rhythm	-10.3402
▁routine	-10.3402
▁september	-10.3402
▁strict	-10.3402
▁subtitles	-10.3402
▁succeed	-10.3402
▁sydney	-10.3402
▁twelve	-10.3402
▁unhappy	-10.3402
▁willard	-10.3402
▁kinky	-10.3402
▁natalie	-10.3402
▁orange	-10.3402
▁roark	-10.3402
▁nuke	-10.3402
▁relative	-10.3402
▁domino	-10.3402
▁plain	-10.3402
▁spider	-10.3402
▁drove	-10.3402
▁restrain	-10.3402
▁scrap	-10.3402
▁defeat	-10.3402
▁changing	-10.3402
▁kyle	-10.3402
▁nephew	-10.3402
▁influence	-10.3402
▁carolina	-10.3402
▁arse	-10.3402
▁bernie	-10.3402
▁bald	-10.3402
▁dennis	-10.3402
▁snor	-10.3402
▁vicky	-10.3402
▁cowboy	-10.3402
▁authorities	-10.3403
▁lousy	-10.3403
▁growls	-10.3403
▁slash	-10.3403
▁rabbitte	-10.3403
▁tax	-10.3403
▁performance	-10.3404
▁blanket	-10.3404
▁gangster	-10.3404
▁mouse	-10.3405
▁prime	-10.3405
▁fox	-10.3405
▁fold	-10.3406
▁hundreds	-10.3406
▁selena	-10.3407
▁brianna	-10.3407
▁email	-10.3407
▁scout	-10.3408
▁spare	-10.3408
▁wise	-10.3408
▁tess	-10.3409
▁thick	-10.341
▁package	-10.3411
▁arrive	-10.3412
▁tune	-10.3413
▁darkness	-10.3416
▁drill	-10.3417
▁myth	-10.3421
▁bale	-10.3424
▁task	-10.3426
▁wicked	-10.3426
▁heil	-10.3432
▁forty	-10.3436
▁witnesses	-10.3436
▁israeli	-10.3437
▁sayin	-10.3442
▁radi	-10.3442
ift	-10.3447
▁passes	-10.3455
▁hath	-10.3455
▁twist	-10.3462
▁settled	-10.3463
▁bully	-10.3464
▁designed	-10.3467
ters	-10.3472
▁clanging	-10.3475
▁mil	-10.3507
▁len	-10.3509
▁meantime	-10.3512
win	-10.3515
▁farmer	-10.3515
▁clip	-10.3525
▁filled	-10.3527
▁survived	-10.353
▁considering	-10.3543
▁deserved	-10.355
lon	-10.3551
▁observ	-10.3555
▁wounded	-10.3562
▁freaking	-10.3576
berg	-10.3583
▁admire	-10.3584
▁trap	-10.3598
▁wayne	-10.3601
▁drawing	-10.3601
▁clouds	-10.3627
▁offered	-10.3639
▁shown	-10.3671
▁cub	-10.3686
▁parking	-10.369
▁nor	-10.3712
▁ski	-10.3755
▁rebels	-10.3757
▁nut	-10.3764
▁kissed	-10.3764
▁nash	-10.3775
▁kit	-10.3815
▁dollar	-10.3833
▁bend	-10.3871
▁tur	-10.3887
▁tra	-10.39
▁rot	-10.3903
▁services	-10.3905
▁pr	-10.3954
▁barb	-10.3972
▁marsh	-10.3977
▁vic	-10.3979
▁prisoners	-10.3999
▁bones	-10.4013
▁za	-10.402
eath	-10.4035
▁trusted	-10.4048
▁custom	-10.4048
▁discover	-10.4064
▁journal	-10.4069
ella	-10.4081
class	-10.409
piece	-10.409
▁mort	-10.4098
▁current	-10.4099
face	-10.4103
▁mini	-10.4104
▁scott	-10.4106
▁madam	-10.4107
nut	-10.4111
▁similar	-10.4116
▁anniversary	-10.4116
▁attitude	-10.4116
▁barbecue	-10.4116
▁benefit	-10.4116
▁blonde	-10.4116
▁cocksucker	-10.4116
▁collapse	-10.4116
▁commercial	-10.4116
▁conflict	-10.4116
▁cornwallis	-10.4116
▁dispatch	-10.4116
▁district	-10.4116
▁dublin	-10.4116
▁eternal	-10.4116
▁explosive	-10.4116
▁fashion	-10.4116
▁fifth	-10.4116
▁hartigan	-10.4116
▁infection	-10.4116
▁inhales	-10.4116
▁invitation	-10.4116
▁jamshidi	-10.4116
▁jazz	-10.4116
▁jefferson	-10.4116
▁jennifer	-10.4116
▁katherine	-10.4116
▁kehoe	-10.4116
▁lipstick	-10.4116
▁margaret	-10.4116
▁muffled	-10.4116
▁negotiat	-10.4116
▁ooooh	-10.4116
▁petroglyphs	-10.4116
▁principle	-10.4116
▁privacy	-10.4116
▁reservation	-10.4116
▁restaurant	-10.4116
▁retreat	-10.4116
▁robbery	-10.4116
▁rykov	-10.4116
▁sauce	-10.4116
▁summon	-10.4116
▁surgeon	-10.4116
▁television	-10.4116
▁tooth	-10.4116
▁veronika	-10.4116
▁vicomte	-10.4116
▁clattering	-10.4116
▁headmaster	-10.4116
▁kenny	-10.4116
▁kidnapping	-10.4116
▁merlin	-10.4116
▁sarge	-10.4116
▁smack	-10.4116
▁snake	-10.4116
▁towel	-10.4116
▁transmit	-10.4116
▁vickie	-10.4116
▁doorbell	-10.4116
▁mccoy	-10.4116
▁segar	-10.4116
▁solid	-10.4116
▁decent	-10.4116
▁depressed	-10.4116
▁basket	-10.4116
▁elena	-10.4116
▁stacy	-10.4116
▁angle	-10.4116
▁rattle	-10.4116
▁blast	-10.4116
▁ocp	-10.4116
▁pancakes	-10.4116
▁stripper	-10.4116
▁tower	-10.4116
▁brakes	-10.4116
▁launch	-10.4116
▁pimp	-10.4116
▁roaring	-10.4116
▁uhuh	-10.4116
▁moaning	-10.4116
▁someplace	-10.4116
▁hauser	-10.4116
▁freezing	-10.4116
▁method	-10.4116
▁headache	-10.4116
▁stabbed	-10.4116
▁sunset	-10.4116
▁harford	-10.4117
▁yis	-10.4117
▁transform	-10.4117
▁outfit	-10.4117
▁material	-10.4117
▁activity	-10.4117
▁delicious	-10.4117
▁profit	-10.4117
▁bulgarian	-10.4117
▁argh	-10.4117
▁costume	-10.4117
▁lungs	-10.4118
▁extract	-10.4118
▁flip	-10.4118
▁moron	-10.4118
▁olive	-10.4118
▁angie	-10.4119
▁anger	-10.4119
▁grabbed	-10.4119
▁skirt	-10.4119
▁poppa	-10.4119
▁stash	-10.4119
▁virginia	-10.412
▁brace	-10.412
▁rack	-10.412
▁derry	-10.412
▁jib	-10.412
▁foul	-10.412
▁exam	-10.4121
▁vol	-10.4121
▁gladys	-10.4121
▁selfish	-10.4121
burg	-10.4122
▁charges	-10.4122
▁crackling	-10.4123
▁abra	-10.4123
▁anne	-10.4124
▁homicide	-10.4124
▁walter	-10.4124
▁hence	-10.4124
▁solo	-10.4124
▁andy	-10.4124
▁danceny	-10.4125
▁slo	-10.4125
▁agreement	-10.4126
▁peterson	-10.4126
▁steel	-10.4126
▁soup	-10.4126
▁bash	-10.4127
▁barking	-10.4127
▁demo	-10.413
▁iraqi	-10.4131
cient	-10.4132
▁bleedin	-10.4132
▁hitler	-10.4135
▁campus	-10.4135
▁threatened	-10.4142
▁prize	-10.4146
▁rank	-10.4152
▁deny	-10.4157
if	-10.4161
▁joint	-10.4161
▁fur	-10.4162
▁kai	-10.4163
▁oil	-10.417
▁normally	-10.4176
▁classes	-10.4178
▁satan	-10.4178
▁warned	-10.4179
aries	-10.4182
▁bond	-10.4185
▁hack	-10.4195
▁players	-10.4202
▁drum	-10.4228
▁abuse	-10.4232
▁ruined	-10.4242
▁pretending	-10.4249
▁smarter	-10.4254
▁hai	-10.4255
▁escaped	-10.4262
▁roman	-10.4272
▁civilians	-10.4289
▁hoped	-10.4308
done	-10.4323
▁chips	-10.4325
▁uhh	-10.4341
▁flo	-10.4345
▁lawyers	-10.4359
hu	-10.4364
▁ap	-10.4365
ull	-10.4374
▁cooking	-10.4376
ily	-10.438
▁tale	-10.4381
▁slaves	-10.4382
▁bug	-10.4394
▁marv	-10.4394
▁una	-10.4419
▁goodness	-10.4457
▁painful	-10.4478
▁passing	-10.448
ray	-10.4497
▁eliminate	-10.4508
▁meds	-10.4533
▁photo	-10.4558
night	-10.4564
▁hon	-10.4583
▁tin	-10.4583
table	-10.4583
▁sometime	-10.4592
▁beside	-10.4593
▁gosh	-10.4597
▁it	-10.4605
ugh	-10.4609
▁dreamed	-10.4609
▁chat	-10.4611
▁throwing	-10.4614
▁bee	-10.4669
▁diet	-10.4671
met	-10.47
▁mel	-10.4712
▁soc	-10.4745
▁ber	-10.4753
▁patients	-10.4784
▁tears	-10.4785
▁sk	-10.4786
▁picking	-10.4788
▁approach	-10.4817
▁despi	-10.482
▁invent	-10.4832
▁mix	-10.4835
▁wu	-10.4842
▁israel	-10.4844
power	-10.4858
born	-10.4858
looking	-10.4859
▁intens	-10.4867
▁brenda	-10.4875
style	-10.4875
▁possess	-10.4879
▁commun	-10.488
▁cruel	-10.4882
ittie	-10.4884
▁thud	-10.4885
▁iris	-10.4885
▁trauma	-10.4885
▁absurd	-10.4885
▁accent	-10.4885
▁aerobic	-10.4885
▁background	-10.4885
▁bargain	-10.4885
▁benjamin	-10.4885
▁bollix	-10.4885
▁casablanca	-10.4885
▁cellphone	-10.4885
▁century	-10.4885
▁channel	-10.4885
▁concept	-10.4885
▁custody	-10.4885
▁dallas	-10.4885
▁dammit	-10.4885
▁delegates	-10.4885
▁device	-10.4885
▁donovan	-10.4885
▁effort	-10.4885
▁elysium	-10.4885
▁favour	-10.4885
▁florida	-10.4885
▁franco	-10.4885
▁gallery	-10.4885
▁garrett	-10.4885
▁giovanni	-10.4885
▁insect	-10.4885
▁inspector	-10.4885
▁kennard	-10.4885
▁liquor	-10.4885
▁lobby	-10.4885
▁mexican	-10.4885
▁multipl	-10.4885
▁murmansk	-10.4885
▁museum	-10.4885
▁myrtle	-10.4885
▁mystery	-10.4885
▁opposite	-10.4885
▁ornithologist	-10.4885
▁ottavio	-10.4885
▁political	-10.4885
▁pratt	-10.4885
▁profile	-10.4885
▁purple	-10.4885
▁savage	-10.4885
▁scientist	-10.4885
▁stazek	-10.4885
▁surgery	-10.4885
▁temple	-10.4885
▁tissue	-10.4885
▁bogart	-10.4885
▁klaus	-10.4885
▁praise	-10.4885
▁produce	-10.4885
▁shelter	-10.4885
▁unique	-10.4885
▁valuable	-10.4885
▁capital	-10.4885
▁feather	-10.4885
▁jeez	-10.4885
▁madison	-10.4885
▁pencil	-10.4885
▁spark	-10.4885
▁twat	-10.4885
▁wagon	-10.4885
▁contain	-10.4885
▁silent	-10.4885
▁snack	-10.4885
▁warrior	-10.4885
▁austin	-10.4885
▁mannix	-10.4885
▁powder	-10.4885
▁havin	-10.4885
▁acid	-10.4885
▁spud	-10.4885
▁pounce	-10.4885
▁speer	-10.4886
▁piace	-10.4886
▁brutal	-10.4886
▁susan	-10.4886
▁choir	-10.4886
▁transport	-10.4886
▁noble	-10.4887
▁offend	-10.4887
▁championship	-10.4887
▁ritter	-10.4888
▁pride	-10.4888
▁booze	-10.4889
▁sara	-10.4889
▁junkie	-10.4889
▁zoo	-10.4889
▁limbo	-10.4889
▁giant	-10.4889
▁psychiatrist	-10.4889
▁fever	-10.489
▁lindo	-10.489
▁mick	-10.489
▁sammy	-10.489
▁screen	-10.4891
▁hurst	-10.4891
▁capable	-10.4891
▁reward	-10.4892
▁stillwater	-10.4892
▁jayne	-10.4892
▁tragedy	-10.4892
▁forth	-10.4893
▁def	-10.4893
▁apple	-10.4894
▁universe	-10.4894
▁gail	-10.4894
▁swell	-10.4895
▁supply	-10.4895
▁pecker	-10.4896
▁annoying	-10.4898
▁poet	-10.4901
▁til	-10.4909
▁nasty	-10.491
▁johnson	-10.4911
▁choking	-10.4917
▁betrayed	-10.4918
▁float	-10.492
ome	-10.4921
▁gage	-10.4922
▁sighing	-10.4923
▁hart	-10.4927
▁pinky	-10.493
▁damaged	-10.493
▁clicking	-10.4933
▁goodnight	-10.4936
▁workin	-10.4938
nine	-10.4941
▁highest	-10.4944
ado	-10.4946
▁afterwards	-10.4948
ium	-10.4961
▁charming	-10.4961
▁ahh	-10.4966
▁pouring	-10.4966
▁burnt	-10.4968
▁confirmed	-10.4968
▁range	-10.4969
▁released	-10.4971
▁sur	-10.4974
▁cheating	-10.4988
▁experienced	-10.4988
bre	-10.4993
▁painted	-10.5004
▁county	-10.5006
▁racin	-10.5011
▁rag	-10.5018
▁results	-10.5022
▁emotions	-10.5024
▁pelts	-10.5047
▁raped	-10.5064
▁joined	-10.5079
▁asses	-10.5093
▁crossed	-10.5118
ically	-10.5146
▁chicks	-10.5148
▁fre	-10.5163
get	-10.5177
▁fri	-10.5192
iving	-10.5238
▁bees	-10.525
▁tone	-10.5261
▁pole	-10.5265
▁landing	-10.5294
▁messing	-10.5298
arian	-10.5313
▁revolution	-10.5344
atic	-10.5347
▁guts	-10.5351
▁shooter	-10.5363
▁woo	-10.5366
▁stew	-10.5376
▁kn	-10.5387
iii	-10.5388
rit	-10.539
▁odds	-10.5403
▁slave	-10.5416
▁cd	-10.5421
▁loo	-10.5442
▁vehicles	-10.5455
▁ol	-10.5503
▁guests	-10.5507
▁stab	-10.5559
▁mile	-10.558
▁touching	-10.5583
ole	-10.5615
ologist	-10.5627
▁pale	-10.5637
▁confess	-10.5657
▁ei	-10.5658
▁toss	-10.5665
▁abandon	-10.5665
▁buying	-10.5683
▁separate	-10.5684
ology	-10.5688
mouth	-10.5692
burn	-10.5694
▁dirt	-10.5694
self	-10.5695
▁georg	-10.5697
book	-10.5698
▁wee	-10.5704
▁takin	-10.5712
▁blank	-10.5716
▁cooper	-10.5717
▁electric	-10.5717
▁drama	-10.5718
▁basic	-10.5718
▁cabrini	-10.5719
stitution	-10.5719
▁activities	-10.5719
▁appropriate	-10.5719
▁audrey	-10.5719
▁behave	-10.5719
▁bodyguard	-10.5719
▁bollocks	-10.5719
▁burglar	-10.5719
▁clamoring	-10.5719
▁cocktail	-10.5719
▁complex	-10.5719
▁consequence	-10.5719
▁dahye	-10.5719
▁delilah	-10.5719
▁denzel	-10.5719
▁disgrace	-10.5719
▁eskimo	-10.5719
▁fortunate	-10.5719
▁individual	-10.5719
▁international	-10.5719
▁kidnapped	-10.5719
▁lisbeth	-10.5719
▁marigold	-10.5719
▁michigan	-10.5719
▁morocco	-10.5719
▁passenger	-10.5719
▁patriot	-10.5719
▁philatelist	-10.5719
▁primary	-10.5719
▁privilege	-10.5719
▁raccoon	-10.5719
▁review	-10.5719
▁scordia	-10.5719
▁symbol	-10.5719
▁testimony	-10.5719
▁tradition	-10.5719
▁uncomfortable	-10.5719
▁underground	-10.5719
▁whitney	-10.5719
▁worries	-10.5719
▁wrestling	-10.5719
▁yelping	-10.5719
▁constant	-10.5719
▁crown	-10.5719
▁cruis	-10.5719
▁haircut	-10.5719
▁jassie	-10.5719
▁maintain	-10.5719
▁miserable	-10.5719
▁penalty	-10.5719
▁pilot	-10.5719
▁policy	-10.5719
▁pulse	-10.5719
▁rotten	-10.5719
▁russo	-10.5719
▁silence	-10.5719
▁vanessa	-10.5719
▁bread	-10.5719
▁damien	-10.5719
▁editor	-10.5719
▁identity	-10.5719
▁random	-10.5719
▁remote	-10.5719
▁samuel	-10.5719
▁jason	-10.5719
▁scoop	-10.5719
▁mourn	-10.5719
▁jammed	-10.5719
▁pickett	-10.5719
▁pledge	-10.5719
▁superior	-10.5719
▁flew	-10.5719
▁oscar	-10.5719
▁thug	-10.5719
▁trent	-10.5719
▁bethany	-10.5719
▁crew	-10.5719
▁estate	-10.5719
▁presence	-10.5719
through	-10.5719
▁kirk	-10.5719
▁denied	-10.5719
▁platt	-10.5719
▁francisco	-10.5719
▁skull	-10.5719
▁surface	-10.5719
▁carries	-10.5719
▁grandfather	-10.5719
▁begbie	-10.5719
▁network	-10.5719
▁purse	-10.5719
▁abort	-10.5719
▁culture	-10.5719
▁beeze	-10.572
▁robbed	-10.572
▁archer	-10.572
▁happiness	-10.572
▁peder	-10.572
▁whys	-10.572
▁priority	-10.572
▁karen	-10.572
▁mossad	-10.572
▁jam	-10.572
▁youth	-10.5721
▁golf	-10.5721
▁punishment	-10.5721
▁earring	-10.5721
▁propose	-10.5721
▁ridgeman	-10.5721
erie	-10.5721
▁fink	-10.5721
▁france	-10.5722
▁intention	-10.5722
▁ballistic	-10.5722
▁kilo	-10.5722
▁crab	-10.5722
▁starving	-10.5722
▁clark	-10.5722
▁knight	-10.5722
▁soda	-10.5722
▁gag	-10.5722
▁height	-10.5723
▁vanger	-10.5723
▁alpa	-10.5723
▁objective	-10.5724
▁irish	-10.5724
▁native	-10.5724
▁drift	-10.5724
▁critical	-10.5724
▁quid	-10.5724
▁frame	-10.5725
▁motion	-10.5725
▁detected	-10.5726
▁extremely	-10.5727
▁wander	-10.5727
▁cycle	-10.5727
▁boil	-10.5727
▁sandra	-10.5727
▁management	-10.5727
▁marine	-10.5728
▁quitting	-10.5729
▁examine	-10.573
▁brendan	-10.573
▁audi	-10.5731
▁personality	-10.5731
▁stream	-10.5732
▁earl	-10.5732
posit	-10.5733
▁connie	-10.5736
▁arranged	-10.5739
▁indiana	-10.5746
▁mustang	-10.5746
▁captured	-10.5752
▁barber	-10.5754
▁vest	-10.5754
▁sim	-10.5754
▁thus	-10.5756
▁fade	-10.5756
▁properly	-10.5761
▁gum	-10.5761
▁ew	-10.5763
▁squeaking	-10.5764
▁palm	-10.5769
oir	-10.577
▁moss	-10.5771
▁brad	-10.5778
▁asset	-10.5781
▁meters	-10.5782
▁discovered	-10.5782
▁ace	-10.5792
▁recommended	-10.5796
▁joker	-10.5797
▁pam	-10.58
▁conv	-10.5814
▁whistle	-10.5817
cop	-10.5822
▁hunter	-10.5822
▁jet	-10.5824
▁painter	-10.5843
▁net	-10.585
▁tar	-10.5854
▁royal	-10.5864
▁dogg	-10.5868
▁suspected	-10.5872
▁lick	-10.5877
▁scaring	-10.5879
▁recorder	-10.5892
cat	-10.5898
▁filling	-10.5899
mic	-10.59
▁din	-10.5903
▁corn	-10.5906
▁jt	-10.5912
▁traveling	-10.5919
▁bud	-10.5921
▁fishing	-10.5925
▁hooked	-10.5935
▁dw	-10.5945
▁seasons	-10.595
▁tend	-10.5952
▁engineer	-10.5958
pose	-10.5958
▁sucker	-10.5962
▁depend	-10.597
▁panic	-10.5979
▁tub	-10.5988
▁jumped	-10.5999
▁cracker	-10.6005
▁wondered	-10.6021
▁jane	-10.6055
▁reported	-10.6063
▁deer	-10.6082
bag	-10.6088
▁enjoyed	-10.6095
▁mag	-10.6111
▁evans	-10.6116
▁flam	-10.6122
utz	-10.6134
▁boxing	-10.6138
▁inmates	-10.6144
▁pit	-10.6178
gro	-10.6221
▁playin	-10.6223
kins	-10.6224
▁fianc	-10.623
▁cleaned	-10.6254
▁zip	-10.6257
ada	-10.6275
▁homer	-10.6297
▁chick	-10.6324
▁cloud	-10.6325
▁hostage	-10.633
▁om	-10.6342
▁flu	-10.6362
▁slap	-10.6363
▁pol	-10.6369
▁flower	-10.6382
▁ellen	-10.6386
▁bake	-10.6389
▁here	-10.6389
ever	-10.648
▁wrap	-10.6529
four	-10.6529
▁intern	-10.6567
▁alcohol	-10.6571
▁graduate	-10.6591
▁capture	-10.6592
like	-10.6593
place	-10.6596
▁grant	-10.6599
person	-10.6602
▁destin	-10.6603
▁rum	-10.6604
six	-10.6604
▁recover	-10.6607
▁unfortunate	-10.6611
▁stoke	-10.6611
▁wil	-10.6611
boat	-10.6611
imately	-10.6612
▁stake	-10.6615
▁choke	-10.6618
▁cloth	-10.662
▁slight	-10.6621
▁lovin	-10.6621
▁civil	-10.6626
▁stir	-10.6627
▁republic	-10.6628
▁certifi	-10.6628
▁thirst	-10.6628
▁accused	-10.6628
▁argument	-10.6628
▁assault	-10.6628
▁belief	-10.6628
▁blomkvist	-10.6628
▁cawdor	-10.6628
▁celebrity	-10.6628
▁cemetery	-10.6628
▁combination	-10.6628
▁condemn	-10.6628
▁darius	-10.6628
▁disguise	-10.6628
▁domergue	-10.6628
▁dungatar	-10.6628
▁elbow	-10.6628
▁engraving	-10.6628
▁expand	-10.6628
▁expense	-10.6628
▁galahad	-10.6628
▁gerardo	-10.6628
▁gilbert	-10.6628
▁handcuff	-10.6628
▁heavyweight	-10.6628
▁industry	-10.6628
▁instrument	-10.6628
▁jersey	-10.6628
▁kaspbrak	-10.6628
▁kindergarten	-10.6628
▁leisureland	-10.6628
▁lesbian	-10.6628
▁liquid	-10.6628
▁marybeth	-10.6628
▁morgue	-10.6628
▁neighbourhood	-10.6628
▁palancio	-10.6628
▁patience	-10.6628
▁principal	-10.6628
▁promotion	-10.6628
▁referee	-10.6628
▁reflect	-10.6628
▁refrigerator	-10.6628
▁relieved	-10.6628
▁robocop	-10.6628
▁rocknroll	-10.6628
▁screeches	-10.6628
▁shakespeare	-10.6628
▁sniper	-10.6628
▁splash	-10.6628
▁thorough	-10.6628
▁tshirt	-10.6628
▁tunnel	-10.6628
▁ultimate	-10.6628
▁underwear	-10.6628
▁vogelmann	-10.6628
▁vomit	-10.6628
▁yelps	-10.6628
▁crisis	-10.6628
▁eleven	-10.6628
▁ouch	-10.6628
▁pervert	-10.6628
▁racist	-10.6628
▁rattling	-10.6628
▁scotch	-10.6628
▁solomon	-10.6628
▁stroke	-10.6628
▁ankle	-10.6628
▁committee	-10.6628
▁condom	-10.6628
▁kingdom	-10.6628
▁butcher	-10.6628
▁ellis	-10.6628
▁korea	-10.6628
▁zadie	-10.6628
▁balloon	-10.6628
▁stasi	-10.6628
▁alpha	-10.6628
▁cameroon	-10.6628
▁pawn	-10.6628
▁renate	-10.6628
▁burst	-10.6628
▁saint	-10.6628
▁scumbag	-10.6628
▁wore	-10.6628
▁torn	-10.6628
▁roommate	-10.6628
▁employees	-10.6628
▁series	-10.6628
▁trumpet	-10.6628
▁cue	-10.6628
▁independent	-10.6628
▁polite	-10.6628
▁crank	-10.6629
▁haunt	-10.6629
▁ricca	-10.6629
▁pension	-10.6629
▁retirement	-10.6629
▁glob	-10.6629
▁horseshit	-10.6629
▁wholl	-10.6629
▁norway	-10.6629
▁engagement	-10.663
▁sharing	-10.663
ficial	-10.663
▁georgia	-10.663
▁blah	-10.6631
▁auto	-10.6631
▁hallway	-10.6632
▁begun	-10.6632
▁clint	-10.6632
▁laughlng	-10.6633
▁ditch	-10.6634
▁effective	-10.6634
▁informant	-10.6634
▁iove	-10.6635
▁whatll	-10.6635
▁inches	-10.6636
▁stepped	-10.6637
▁growling	-10.6637
▁inter	-10.6637
▁grandson	-10.6638
▁retired	-10.664
▁dragon	-10.6643
▁diggy	-10.6643
▁leda	-10.6644
▁halfway	-10.6645
▁fries	-10.6645
▁lazy	-10.6646
▁booth	-10.6647
▁mentor	-10.6649
▁toi	-10.6649
▁currently	-10.665
▁wings	-10.6651
▁suggestion	-10.6651
▁warden	-10.6652
▁whack	-10.6653
▁registered	-10.6656
▁convicted	-10.6656
▁mere	-10.6657
▁apply	-10.6658
▁angelo	-10.6658
▁christian	-10.6658
▁gim	-10.666
▁sore	-10.6667
mir	-10.6668
▁ted	-10.667
▁exhausted	-10.6677
▁sacrificed	-10.6678
▁tortured	-10.6678
bj	-10.6683
▁dip	-10.6684
▁scheduled	-10.6685
▁mixed	-10.6692
▁chester	-10.6698
▁mace	-10.6701
▁bucky	-10.6704
▁dee	-10.6705
▁tricky	-10.6706
▁peep	-10.6712
▁sum	-10.6714
goc	-10.6716
▁catches	-10.6727
▁bree	-10.6728
▁billion	-10.6735
▁disturbing	-10.6736
▁bowling	-10.6751
pot	-10.676
▁gotcha	-10.6773
▁entering	-10.6777
▁lip	-10.6784
▁driven	-10.6789
▁yu	-10.6814
▁dish	-10.6815
▁reminded	-10.6818
▁refugees	-10.6825
▁messy	-10.6832
▁cure	-10.6837
▁shatter	-10.6847
▁suggesting	-10.6849
▁mud	-10.6852
▁catholics	-10.6852
▁terrorists	-10.6853
shit	-10.6865
apping	-10.6875
nstein	-10.6881
▁yen	-10.6882
▁gloves	-10.6883
▁options	-10.6883
▁billie	-10.6889
▁joining	-10.6892
▁cracked	-10.6911
▁rape	-10.6919
▁deck	-10.6925
▁crossing	-10.6946
gre	-10.696
▁camping	-10.6968
stan	-10.6979
▁dime	-10.6983
▁ash	-10.7033
bble	-10.7044
▁chap	-10.7058
▁formal	-10.707
▁wipe	-10.7163
▁vl	-10.7163
▁plo	-10.7177
▁conn	-10.7242
▁click	-10.727
cro	-10.7274
▁wrapp	-10.7274
▁tire	-10.7297
but	-10.7313
och	-10.732
▁troop	-10.7328
▁grad	-10.7365
▁liber	-10.7381
▁mcc	-10.7381
▁shatters	-10.7393
ibb	-10.74
▁polls	-10.7431
▁how	-10.7489
▁toni	-10.7499
▁exhaust	-10.7574
▁abu	-10.7587
▁convince	-10.7592
chi	-10.7596
grade	-10.76
two	-10.7601
reason	-10.7601
▁numb	-10.7604
▁curse	-10.7604
▁psych	-10.7615
▁religio	-10.7618
▁environment	-10.7619
▁recent	-10.7619
▁prop	-10.7624
▁torch	-10.7626
▁ponch	-10.7627
▁hawk	-10.7627
▁cult	-10.7628
atlantic	-10.7628
▁adventure	-10.7628
▁ambush	-10.7628
▁anonymous	-10.7628
▁apprehend	-10.7628
▁arrogant	-10.7628
▁august	-10.7628
▁avenue	-10.7628
▁bartender	-10.7628
▁beulah	-10.7628
▁celebrating	-10.7628
▁circus	-10.7628
▁communication	-10.7628
▁connolly	-10.7628
▁contribution	-10.7628
▁czech	-10.7628
▁dessert	-10.7628
▁diagnos	-10.7628
▁disease	-10.7628
▁distribut	-10.7628
▁eejit	-10.7628
▁encounter	-10.7628
▁estonian	-10.7628
▁experiment	-10.7628
▁explor	-10.7628
▁fabulous	-10.7628
▁fleming	-10.7628
▁ghetto	-10.7628
▁harvard	-10.7628
▁hector	-10.7628
▁helium	-10.7628
▁humvee	-10.7628
▁improve	-10.7628
▁include	-10.7628
▁jerska	-10.7628
▁jorgen	-10.7628
▁keith	-10.7628
▁kijung	-10.7628
▁kiwoo	-10.7628
▁klimek	-10.7628
▁krueger	-10.7628
▁laundry	-10.7628
▁length	-10.7628
▁literature	-10.7628
▁macduff	-10.7628
▁majesty	-10.7628
▁memories	-10.7628
▁mysterious	-10.7628
▁nypd	-10.7628
▁octopus	-10.7628
▁oswaldo	-10.7628
▁philosoph	-10.7628
▁plastic	-10.7628
▁potential	-10.7628
▁pretzel	-10.7628
▁protocol	-10.7628
▁puppy	-10.7628
▁rainbow	-10.7628
▁ramirez	-10.7628
▁reject	-10.7628
▁respond	-10.7628
▁semester	-10.7628
▁signature	-10.7628
▁snitch	-10.7628
▁sprinkle	-10.7628
▁stammers	-10.7628
▁struggle	-10.7628
▁temper	-10.7628
▁terrified	-10.7628
▁unknown	-10.7628
▁vasquez	-10.7628
▁weasel	-10.7628
▁wegener	-10.7628
▁whimpers	-10.7628
▁womb	-10.7628
▁wrestle	-10.7628
▁carpenter	-10.7628
▁creative	-10.7628
▁establish	-10.7628
▁interfere	-10.7628
▁japanese	-10.7628
▁ladder	-10.7628
▁lunatic	-10.7628
▁shrine	-10.7628
▁wheez	-10.7628
▁worship	-10.7628
▁becoming	-10.7628
▁blackmail	-10.7628
▁buddies	-10.7628
▁excess	-10.7628
▁mutant	-10.7628
▁sieland	-10.7628
▁volume	-10.7628
▁anytime	-10.7628
▁balance	-10.7628
▁cannon	-10.7628
▁naughty	-10.7628
▁sixteen	-10.7628
▁barlow	-10.7628
▁false	-10.7628
▁motive	-10.7628
▁session	-10.7628
▁collar	-10.7628
▁shark	-10.7628
▁smooth	-10.7628
▁preparing	-10.7628
▁shotgun	-10.7628
▁vietnamese	-10.7628
▁clatters	-10.7628
▁permit	-10.7628
▁protest	-10.7628
▁beast	-10.7628
▁manifest	-10.7628
▁libby	-10.7628
▁item	-10.7628
▁jaw	-10.7628
▁spinning	-10.7628
▁strap	-10.7628
▁scale	-10.7628
▁spank	-10.7628
▁gomez	-10.7628
▁levy	-10.7628
▁prevent	-10.7628
▁untie	-10.7628
▁stutters	-10.7628
▁impact	-10.7628
▁confidence	-10.7628
▁version	-10.7628
▁canada	-10.7628
▁intelligence	-10.7628
▁alert	-10.7628
▁hidden	-10.7629
▁grens	-10.7629
▁wives	-10.7629
▁halt	-10.7629
▁marino	-10.7629
▁occup	-10.7629
athens	-10.7629
▁tourvel	-10.7629
▁hiya	-10.7629
▁freddy	-10.7629
▁backwards	-10.763
▁polish	-10.763
▁fiction	-10.763
▁overnight	-10.763
▁antique	-10.763
▁bubble	-10.763
▁flush	-10.763
▁electricity	-10.763
▁failure	-10.763
▁documentary	-10.763
▁kaap	-10.763
▁boris	-10.7631
▁borderline	-10.7631
▁locate	-10.7631
▁massage	-10.7631
▁valley	-10.7632
▁housekeeper	-10.7632
▁sheet	-10.7632
▁doom	-10.7632
▁investment	-10.7632
▁bobbi	-10.7632
▁section	-10.7632
▁syn	-10.7632
▁brick	-10.7632
▁kitty	-10.7633
▁replacement	-10.7633
▁soak	-10.7633
▁stitches	-10.7633
escent	-10.7634
▁sync	-10.7635
ockey	-10.7635
▁compass	-10.7636
▁facebook	-10.7636
▁rome	-10.7636
▁blai	-10.7637
▁react	-10.7638
▁construction	-10.7638
▁damon	-10.7638
▁some	-10.7639
▁flames	-10.7639
▁dang	-10.764
▁assign	-10.7641
▁frau	-10.7642
▁ronnie	-10.7642
▁surrounded	-10.7642
▁dj	-10.7642
▁guardian	-10.7642
▁shipment	-10.7643
▁hob	-10.7644
▁african	-10.7644
▁quality	-10.7645
▁cliff	-10.7647
▁slightly	-10.7647
▁treatment	-10.7649
▁mill	-10.7652
▁whip	-10.7653
▁daylight	-10.7654
▁iet	-10.7656
▁engaged	-10.7657
▁obsessed	-10.7665
▁scat	-10.7667
▁vice	-10.767
spy	-10.7671
▁pullman	-10.7672
▁angela	-10.7678
▁emma	-10.7681
▁rick	-10.7684
▁cort	-10.7686
▁spite	-10.7689
▁germany	-10.7693
▁payment	-10.7695
▁invented	-10.7699
evi	-10.7709
other	-10.7711
▁mode	-10.7715
▁badass	-10.7726
▁kisses	-10.7729
▁lust	-10.7731
▁suffered	-10.7746
▁fetch	-10.7765
▁frankly	-10.777
ega	-10.7788
▁nod	-10.7788
▁lifted	-10.7792
ability	-10.7794
▁quietly	-10.7796
▁dock	-10.7805
▁bounce	-10.7812
▁marshal	-10.7839
▁wasted	-10.7866
▁parker	-10.7867
▁belonged	-10.7867
▁dun	-10.7872
vel	-10.7874
▁safer	-10.7882
▁matty	-10.791
▁peaceful	-10.7915
▁workers	-10.7922
▁eatin	-10.7951
▁mild	-10.7955
▁blocked	-10.7959
▁tease	-10.7963
▁smaller	-10.7971
▁worthy	-10.7974
▁chip	-10.798
roid	-10.7997
▁claus	-10.8005
oma	-10.801
▁pend	-10.8069
▁hustle	-10.8096
▁funk	-10.8097
skin	-10.8156
▁pose	-10.8174
▁mau	-10.8179
eight	-10.8245
otic	-10.8257
aka	-10.8264
oohoo	-10.8296
▁mon	-10.8335
fore	-10.8383
▁glove	-10.8433
▁option	-10.8436
▁toward	-10.8439
▁trie	-10.8442
▁season	-10.8443
▁tube	-10.8452
vie	-10.8465
▁heii	-10.851
ility	-10.8563
izing	-10.8602
▁belle	-10.8621
bie	-10.864
rumme	-10.8648
heck	-10.8648
▁squeak	-10.8678
▁attract	-10.8681
▁disappoint	-10.8681
▁punish	-10.8683
▁consum	-10.8684
▁spill	-10.8693
▁achieve	-10.8702
▁dragg	-10.8706
bird	-10.8712
wood	-10.8713
point	-10.8713
playing	-10.8713
loved	-10.8713
▁kuwait	-10.8716
myth	-10.8721
▁instant	-10.8721
▁absolute	-10.8722
coat	-10.8728
shot	-10.8729
▁mmmmm	-10.873
▁distract	-10.8732
▁consult	-10.8734
▁asia	-10.8735
▁express	-10.8737
▁relation	-10.8738
▁salt	-10.8739
▁authentic	-10.8739
▁corporate	-10.8739
▁corrupt	-10.8739
▁slaughter	-10.8739
▁webb	-10.8739
▁accomplish	-10.8739
▁afghanistan	-10.8739
▁analysis	-10.8739
▁apologies	-10.8739
▁australia	-10.8739
▁average	-10.8739
▁believing	-10.8739
▁blackpool	-10.8739
▁bologna	-10.8739
▁cafeteria	-10.8739
▁capacity	-10.8739
▁charade	-10.8739
▁chemical	-10.8739
▁circuit	-10.8739
▁cleveland	-10.8739
▁concrete	-10.8739
▁confusing	-10.8739
▁confusion	-10.8739
▁democratic	-10.8739
▁division	-10.8739
▁dopinder	-10.8739
▁edvard	-10.8739
▁electronic	-10.8739
▁embassy	-10.8739
▁entitled	-10.8739
▁entrance	-10.8739
▁evolv	-10.8739
▁explanation	-10.8739
▁exploit	-10.8739
▁fifteen	-10.8739
▁forfeit	-10.8739
▁foxcatcher	-10.8739
▁frozen	-10.8739
▁fumitsu	-10.8739
▁furlong	-10.8739
▁furniture	-10.8739
▁gbaby	-10.8739
▁generator	-10.8739
▁giggles	-10.8739
▁hempf	-10.8739
▁humble	-10.8739
▁iliad	-10.8739
▁implant	-10.8739
▁independence	-10.8739
▁infected	-10.8739
▁invasion	-10.8739
▁inviting	-10.8739
▁karbala	-10.8739
▁kilometers	-10.8739
▁lindsay	-10.8739
▁lnspector	-10.8739
▁memorial	-10.8739
▁messenger	-10.8739
▁milich	-10.8739
▁moscow	-10.8739
▁nichol	-10.8739
▁nowadays	-10.8739
▁peenalop	-10.8739
▁pierpont	-10.8739
▁receipt	-10.8739
▁sausage	-10.8739
▁slippery	-10.8739
▁substance	-10.8739
▁suffocat	-10.8739
▁surprising	-10.8739
▁surveillance	-10.8739
▁temporar	-10.8739
▁territory	-10.8739
▁therapist	-10.8739
▁trevor	-10.8739
▁veronica	-10.8739
▁volunteer	-10.8739
▁wallpaper	-10.8739
▁warnekros	-10.8739
▁weaver	-10.8739
▁whiskey	-10.8739
▁wisdom	-10.8739
▁xforce	-10.8739
▁addition	-10.8739
▁deputy	-10.8739
▁dummy	-10.8739
▁generous	-10.8739
▁gordon	-10.8739
▁hanlon	-10.8739
▁inherit	-10.8739
▁lennon	-10.8739
▁lmelda	-10.8739
▁melvin	-10.8739
▁pardon	-10.8739
▁supervise	-10.8739
▁trophy	-10.8739
▁wesley	-10.8739
▁wiesler	-10.8739
▁wolf	-10.8739
▁draft	-10.8739
▁fargas	-10.8739
▁granny	-10.8739
▁pistol	-10.8739
▁sauna	-10.8739
▁tivo	-10.8739
▁tramp	-10.8739
▁edition	-10.8739
▁automatic	-10.8739
▁content	-10.8739
▁convoy	-10.8739
▁crystal	-10.8739
▁jody	-10.8739
▁swedish	-10.8739
▁vault	-10.8739
▁anita	-10.8739
▁theme	-10.8739
▁clerk	-10.8739
▁granddad	-10.8739
▁sample	-10.8739
▁seduce	-10.8739
▁wilkes	-10.8739
▁cease	-10.8739
▁drank	-10.8739
▁iran	-10.8739
▁knives	-10.8739
▁sinners	-10.8739
▁willie	-10.8739
▁reveal	-10.8739
▁shithole	-10.8739
▁chunk	-10.8739
▁radar	-10.8739
▁fork	-10.8739
▁misery	-10.8739
▁peasant	-10.8739
▁poem	-10.8739
▁widow	-10.8739
▁frost	-10.8739
▁farrat	-10.8739
▁personnel	-10.8739
▁convertible	-10.8739
▁grub	-10.8739
▁uhoh	-10.8739
▁tactic	-10.8739
▁mount	-10.8739
▁clinic	-10.8739
▁imitate	-10.8739
▁stevie	-10.8739
▁micro	-10.8739
▁gert	-10.874
▁download	-10.874
▁excitement	-10.874
▁stirring	-10.874
▁salvatore	-10.874
▁breeze	-10.874
▁berger	-10.874
▁expectations	-10.874
▁valerie	-10.874
▁quarterback	-10.874
▁practicing	-10.874
▁lightning	-10.874
▁impressed	-10.874
craft	-10.8741
▁rubber	-10.8741
▁resent	-10.8741
▁unfair	-10.8741
▁stakeout	-10.8741
▁gown	-10.8741
▁daily	-10.8741
▁chung	-10.8741
▁curda	-10.8741
▁species	-10.8741
▁continental	-10.8741
▁chapter	-10.8742
▁lamb	-10.8742
▁assignment	-10.8742
▁internet	-10.8742
▁pirate	-10.8742
▁status	-10.8742
▁motown	-10.8742
▁paperwork	-10.8743
▁regina	-10.8743
▁shaking	-10.8743
▁existence	-10.8743
▁classroom	-10.8744
▁welt	-10.8744
▁classified	-10.8744
▁remark	-10.8744
▁stopping	-10.8744
▁epic	-10.8744
ifies	-10.8744
▁shack	-10.8744
▁token	-10.8744
▁passport	-10.8745
▁steam	-10.8745
▁diaper	-10.8745
▁plum	-10.8745
▁sunny	-10.8745
▁expression	-10.8745
▁reaction	-10.8746
▁dwell	-10.8746
▁nearby	-10.8747
▁structure	-10.8747
▁novel	-10.8747
▁smithers	-10.8747
▁bold	-10.8747
▁vow	-10.8747
▁teasing	-10.8747
▁swam	-10.8749
▁restroom	-10.875
▁aight	-10.875
▁yum	-10.8751
▁european	-10.8752
▁coz	-10.8752
▁accidental	-10.8753
▁beings	-10.8753
▁approve	-10.8753
▁dumbass	-10.8753
vious	-10.8753
▁foolish	-10.8754
▁asian	-10.8755
▁dragan	-10.8755
▁flies	-10.8756
▁dickhead	-10.8756
after	-10.8756
▁rumor	-10.8757
▁wealthy	-10.8758
▁cameron	-10.8758
▁chosen	-10.876
▁supper	-10.876
▁castle	-10.876
▁ahah	-10.8762
▁blo	-10.8763
▁luci	-10.8765
▁georgie	-10.8766
▁barry	-10.8767
▁chino	-10.8767
etta	-10.877
▁ability	-10.877
▁programme	-10.8772
tric	-10.8774
▁johnno	-10.8777
▁cries	-10.8777
▁heroes	-10.8778
▁bobo	-10.8783
▁sole	-10.8784
▁graduated	-10.8784
▁cursed	-10.8785
▁distan	-10.8785
▁ax	-10.8786
▁rode	-10.8787
▁inch	-10.8792
▁disappointed	-10.8794
▁punished	-10.8794
▁dragged	-10.8794
ipper	-10.88
▁brat	-10.8803
▁sweater	-10.8804
▁required	-10.8806
▁freeman	-10.881
▁tossed	-10.8813
▁removed	-10.8815
▁teaches	-10.8819
▁carol	-10.8819
▁assist	-10.8823
▁internal	-10.8824
▁bass	-10.8826
▁nest	-10.8827
▁addict	-10.8827
▁boxes	-10.8829
▁mistaken	-10.8831
▁bridger	-10.8831
rez	-10.8833
▁carson	-10.8838
▁skiing	-10.8842
▁policeman	-10.8844
▁healed	-10.8845
▁hopeless	-10.8855
▁businessman	-10.8861
ford	-10.887
▁duck	-10.8873
▁gathering	-10.8873
▁cheated	-10.8875
▁blown	-10.8876
▁erase	-10.8878
▁movement	-10.8886
bolt	-10.8887
▁designer	-10.8894
▁continued	-10.8901
▁voted	-10.891
▁fred	-10.891
▁batt	-10.8918
chang	-10.8927
▁shellie	-10.8939
▁raymon	-10.8945
▁sink	-10.8946
▁dumped	-10.8948
▁washing	-10.8952
▁mining	-10.8957
▁yah	-10.8962
▁oni	-10.8968
▁homeless	-10.8973
▁busted	-10.8974
▁shitting	-10.8974
▁buckle	-10.9
▁wester	-10.9009
▁comme	-10.9073
▁poster	-10.9088
▁baker	-10.9106
eah	-10.9129
▁wool	-10.9134
mbles	-10.9148
▁trainer	-10.9163
▁operat	-10.9186
▁stare	-10.9207
▁peer	-10.9207
kov	-10.9286
▁mcg	-10.9335
▁lecture	-10.9394
▁dive	-10.9517
▁hut	-10.9594
▁sigh	-10.9604
▁bou	-10.9606
▁chatt	-10.9641
▁catholic	-10.9683
▁terrorist	-10.9685
▁who	-10.9686
▁stair	-10.9687
▁civilian	-10.9688
▁member	-10.9693
▁chuckle	-10.9695
▁sale	-10.9746
▁you	-10.9774
▁tim	-10.9811
▁dot	-10.9814
ife	-10.9825
▁juli	-10.986
▁surviv	-10.9863
▁coma	-10.9896
▁az	-10.9898
▁dep	-10.9909
▁betray	-10.9932
▁gasp	-10.9939
▁rig	-10.9947
▁engage	-10.995
▁doub	-10.995
▁rug	-10.9955
year	-10.9964
▁era	-10.9965
aiiing	-10.9969
▁vincen	-10.9972
▁immediate	-10.9972
▁eva	-10.9977
▁critic	-10.998
▁snatch	-10.9985
▁entertain	-10.9986
ological	-10.9987
▁peop	-10.9988
▁congratulat	-10.9989
▁affect	-10.9989
▁financi	-10.9989
▁nuclear	-10.9989
rnsen	-10.9989
▁abilities	-10.9989
▁almighty	-10.9989
▁amigo	-10.9989
▁ammunition	-10.9989
▁ancestor	-10.9989
▁annabeth	-10.9989
▁anxiet	-10.9989
▁appetite	-10.9989
▁atheist	-10.9989
▁bachelor	-10.9989
▁balabushka	-10.9989
▁bastide	-10.9989
▁biscuit	-10.9989
▁bitcoins	-10.9989
▁branches	-10.9989
▁buddah	-10.9989
▁cabbage	-10.9989
▁cavalry	-10.9989
▁centuries	-10.9989
▁christamaria	-10.9989
▁claiborne	-10.9989
▁communicate	-10.9989
▁competition	-10.9989
▁confidential	-10.9989
▁convenient	-10.9989
▁debbie	-10.9989
▁disposal	-10.9989
▁dmitri	-10.9989
▁edinburgh	-10.9989
▁electrocute	-10.9989
▁exhusband	-10.9989
▁fischer	-10.9989
▁forbid	-10.9989
▁giorgio	-10.9989
▁gratitude	-10.9989
▁haberdashery	-10.9989
▁harridene	-10.9989
▁headphones	-10.9989
▁hilarious	-10.9989
▁hollow	-10.9989
▁horror	-10.9989
▁howayeh	-10.9989
▁humiliating	-10.9989
▁inclined	-10.9989
▁inglewood	-10.9989
▁inhabit	-10.9989
▁investigating	-10.9989
▁journey	-10.9989
▁klick	-10.9989
▁lurasetti	-10.9989
▁magnificent	-10.9989
▁middleweight	-10.9989
▁narrow	-10.9989
▁necessarily	-10.9989
▁occurred	-10.9989
▁october	-10.9989
▁perfume	-10.9989
▁philanthropist	-10.9989
▁phrase	-10.9989
▁pleasant	-10.9989
▁portrait	-10.9989
▁prague	-10.9989
▁promiscuous	-10.9989
▁proposal	-10.9989
▁purchase	-10.9989
▁pursue	-10.9989
▁puzzle	-10.9989
▁reflex	-10.9989
▁rewrite	-10.9989
▁script	-10.9989
▁sensor	-10.9989
▁shakily	-10.9989
▁shrimp	-10.9989
▁sleeve	-10.9989
▁snarling	-10.9989
▁solitary	-10.9989
▁spectacular	-10.9989
▁stained	-10.9989
▁strategy	-10.9989
▁suspended	-10.9989
▁sympathy	-10.9989
▁technology	-10.9989
▁underestimate	-10.9989
▁underneath	-10.9989
▁unemployed	-10.9989
▁unexpected	-10.9989
▁venture	-10.9989
▁wheelchair	-10.9989
▁wouid	-10.9989
▁yield	-10.9989
▁zodiac	-10.9989
▁advertis	-10.9989
▁argue	-10.9989
▁burbank	-10.9989
▁cardiff	-10.9989
▁cheeco	-10.9989
▁combat	-10.9989
▁coxman	-10.9989
▁curtain	-10.9989
▁deploy	-10.9989
▁depression	-10.9989
▁dignity	-10.9989
▁exposed	-10.9989
▁hiphop	-10.9989
▁imagining	-10.9989
▁imbecile	-10.9989
▁indicate	-10.9989
▁insult	-10.9989
▁investigate	-10.9989
▁justify	-10.9989
▁mankind	-10.9989
▁maxandra	-10.9989
▁neglect	-10.9989
▁nelson	-10.9989
▁nightingale	-10.9989
▁pudding	-10.9989
▁relief	-10.9989
▁sensation	-10.9989
▁stroll	-10.9989
▁thread	-10.9989
▁turkey	-10.9989
▁vague	-10.9989
▁venice	-10.9989
▁vocal	-10.9989
▁april	-10.9989
▁hijack	-10.9989
▁hudson	-10.9989
▁irina	-10.9989
▁rookie	-10.9989
▁creating	-10.9989
▁creek	-10.9989
▁irma	-10.9989
▁jeffrey	-10.9989
▁shush	-10.9989
▁stomp	-10.9989
▁whatsoever	-10.9989
▁debate	-10.9989
▁mcgills	-10.9989
▁baroness	-10.9989
▁coffin	-10.9989
▁lemon	-10.9989
▁sherman	-10.9989
▁sierra	-10.9989
▁activated	-10.9989
▁pretti	-10.9989
▁snot	-10.9989
▁grease	-10.9989
▁studied	-10.9989
▁worm	-10.9989
▁eager	-10.9989
▁freddie	-10.9989
▁hollywood	-10.9989
▁absence	-10.9989
▁ammo	-10.9989
▁chronic	-10.9989
▁craze	-10.9989
▁harper	-10.9989
▁inspire	-10.9989
▁rebec	-10.9989
▁robbing	-10.9989
▁strain	-10.9989
educated	-10.9989
▁senor	-10.9989
▁sweden	-10.9989
▁sperm	-10.9989
▁pacific	-10.9989
▁tide	-10.9989
▁redcoats	-10.9989
▁impression	-10.9989
▁republicans	-10.9989
▁roast	-10.9989
▁adopt	-10.9989
▁backpack	-10.9989
▁vibrat	-10.9989
▁psychologist	-10.9989
▁bitten	-10.9989
▁hammond	-10.9989
▁fireworks	-10.9989
▁scholarship	-10.9989
▁silk	-10.9989
▁domestic	-10.9989
▁tore	-10.9989
▁thailand	-10.999
▁consent	-10.999
▁yummy	-10.999
▁medium	-10.999
▁gdr	-10.999
▁felon	-10.999
▁valium	-10.999
▁thudding	-10.999
▁panties	-10.999
▁pearl	-10.999
▁berlin	-10.999
▁honour	-10.999
▁transferred	-10.999
▁mugger	-10.9991
▁trapped	-10.9991
▁development	-10.9991
▁waltz	-10.9991
▁receptionist	-10.9991
▁adjust	-10.9991
▁organs	-10.9991
▁hostile	-10.9991
▁rival	-10.9991
▁bloke	-10.9991
▁psychotic	-10.9991
▁slipped	-10.9991
▁specifically	-10.9992
▁entertainment	-10.9992
▁meade	-10.9992
▁torchia	-10.9992
▁attractive	-10.9992
▁genetic	-10.9992
▁abby	-10.9993
▁recall	-10.9993
▁miho	-10.9993
rawn	-10.9993
▁liberty	-10.9993
▁countdown	-10.9993
▁leap	-10.9993
▁joyce	-10.9993
▁fame	-10.9993
▁hump	-10.9994
▁ridge	-10.9994
▁chaos	-10.9994
▁authority	-10.9994
▁howard	-10.9994
▁gazza	-10.9995
▁flavor	-10.9995
▁oven	-10.9995
▁upside	-10.9995
▁howre	-10.9995
▁judy	-10.9995
▁flock	-10.9995
▁popped	-10.9995
▁motor	-10.9996
▁berman	-10.9996
▁nineball	-10.9996
▁relate	-10.9996
▁roach	-10.9997
▁weakness	-10.9997
▁diane	-10.9998
▁poland	-10.9998
▁survival	-10.9998
▁publicity	-10.9998
▁beef	-10.9998
▁harmless	-10.9999
▁xman	-10.9999
▁religion	-11.0002
▁dishes	-11.0003
▁marina	-11.0003
▁stall	-11.0003
▁monk	-11.0004
▁prior	-11.0005
▁upper	-11.0006
▁inner	-11.0007
▁conscious	-11.0007
▁soil	-11.0008
▁demonic	-11.0008
▁roxy	-11.0008
▁sandwiches	-11.0008
▁tuck	-11.0008
▁taxes	-11.0008
▁bonus	-11.0009
▁compare	-11.0009
▁beam	-11.001
▁gomes	-11.001
▁trainee	-11.001
▁maddy	-11.001
▁patch	-11.001
▁teenager	-11.0011
▁funds	-11.0012
▁ying	-11.0012
▁smartass	-11.0013
▁bait	-11.0013
▁moist	-11.0015
▁madness	-11.0015
▁coup	-11.0015
▁exile	-11.0016
▁highway	-11.0017
▁referring	-11.0018
▁betting	-11.0018
▁bullion	-11.002
▁developed	-11.0022
▁discussion	-11.0023
▁missile	-11.0024
▁destiny	-11.0025
▁playlng	-11.0025
▁developing	-11.0027
▁arriving	-11.0027
▁nearest	-11.0028
▁shade	-11.0028
▁trib	-11.0029
▁sacred	-11.0029
▁diner	-11.003
tial	-11.0031
▁alf	-11.0035
door	-11.0035
pelled	-11.0037
▁rental	-11.0039
▁mg	-11.0041
▁desperately	-11.0041
▁haul	-11.0042
▁unto	-11.0043
▁threatening	-11.0043
▁originally	-11.0044
▁mug	-11.0045
▁brandy	-11.0046
▁clo	-11.0046
▁cellar	-11.0047
▁directly	-11.0048
▁tis	-11.0049
▁wage	-11.005
▁attracted	-11.0051
▁spilled	-11.0051
▁stocker	-11.0055
▁friggin	-11.0056
▁separated	-11.0057
▁operating	-11.0057
▁vig	-11.0062
▁sung	-11.0066
▁pronounce	-11.0069
▁sang	-11.0069
▁shave	-11.0073
▁confessed	-11.0074
dell	-11.0086
▁caii	-11.0086
▁rang	-11.0086
▁musician	-11.0087
▁useful	-11.0088
▁photographer	-11.0089
store	-11.0089
▁crawled	-11.0096
▁supp	-11.0096
▁bam	-11.0098
▁dc	-11.0099
seif	-11.0099
▁regional	-11.0099
mark	-11.0107
▁bump	-11.0117
▁gardener	-11.0119
▁twentyf	-11.0127
▁reli	-11.0127
▁sniffing	-11.0133
▁prom	-11.0136
▁ink	-11.0155
▁bog	-11.0166
▁barn	-11.0173
▁shoo	-11.0182
▁bot	-11.0204
▁footballer	-11.0208
▁sor	-11.0213
▁tele	-11.022
stone	-11.0231
skell	-11.0261
▁assassinate	-11.027
▁mari	-11.0289
▁spott	-11.0339
▁ric	-11.0398
nched	-11.05
put	-11.0577
▁easter	-11.0645
oodoo	-11.065
ugger	-11.0761
name	-11.0808
▁declare	-11.0826
▁employ	-11.0876
girl	-11.0883
▁clan	-11.0922
cap	-11.0963
oud	-11.1011
▁admir	-11.1024
kets	-11.1034
▁cough	-11.1063
▁grunt	-11.1064
▁vet	-11.1109
▁pelt	-11.1113
▁execut	-11.1117
▁refugee	-11.1118
▁hen	-11.1122
mond	-11.1135
▁tran	-11.1138
▁bounc	-11.1155
▁pow	-11.1183
cile	-11.1184
fit	-11.1188
▁rage	-11.1246
▁embarrass	-11.1304
▁immortal	-11.1306
▁threaten	-11.1316
bang	-11.1318
▁buzz	-11.1328
▁disgust	-11.1358
▁obsess	-11.1363
▁flap	-11.1369
▁chok	-11.1373
▁porno	-11.1377
▁arrange	-11.1379
▁wick	-11.1379
foot	-11.1391
school	-11.1391
▁wealth	-11.1392
storm	-11.1392
walk	-11.1393
level	-11.14
▁execute	-11.1402
▁ronni	-11.1402
▁psychiatri	-11.141
elected	-11.1412
▁jose	-11.1412
▁michel	-11.1413
▁orphan	-11.1415
▁descend	-11.1417
▁architect	-11.1417
mmerung	-11.1417
▁academic	-11.1417
▁academy	-11.1417
▁airplane	-11.1417
▁amazon	-11.1417
▁amsterdam	-11.1417
▁arnold	-11.1417
▁arrow	-11.1417
▁autopsy	-11.1417
▁behold	-11.1417
▁beirut	-11.1417
▁brotherinlaw	-11.1417
▁bulwark	-11.1417
▁cadillac	-11.1417
▁cassette	-11.1417
▁childhood	-11.1417
▁chrissake	-11.1417
▁colossus	-11.1417
▁compartment	-11.1417
▁compensation	-11.1417
▁conclude	-11.1417
▁condolences	-11.1417
▁conference	-11.1417
▁confront	-11.1417
▁contempt	-11.1417
▁contrary	-11.1417
▁council	-11.1417
▁creaking	-11.1417
▁croquette	-11.1417
▁currency	-11.1417
▁cusimano	-11.1417
▁czechoslovakia	-11.1417
▁december	-11.1417
▁definition	-11.1417
▁deliberate	-11.1417
▁disconnected	-11.1417
▁disrespect	-11.1417
▁equation	-11.1417
▁essential	-11.1417
▁eternity	-11.1417
▁exhibit	-11.1417
▁fascist	-11.1417
▁fergus	-11.1417
▁forgery	-11.1417
▁gambling	-11.1417
▁gurgling	-11.1417
▁helmet	-11.1417
▁holitzer	-11.1417
▁ignoring	-11.1417
▁immigration	-11.1417
▁industri	-11.1417
▁inevitable	-11.1417
▁infinite	-11.1417
▁integrity	-11.1417
▁intoxicat	-11.1417
▁invisible	-11.1417
▁jarius	-11.1417
▁kaysen	-11.1417
▁kentucky	-11.1417
▁konrad	-11.1417
▁ladonna	-11.1417
▁landscape	-11.1417
▁lazarus	-11.1417
▁luxury	-11.1417
▁magnum	-11.1417
▁masculine	-11.1417
▁meanwhile	-11.1417
▁mechanic	-11.1417
▁microphone	-11.1417
▁misunderstand	-11.1417
▁narcotics	-11.1417
▁nipple	-11.1417
▁november	-11.1417
▁offlimits	-11.1417
▁oregon	-11.1417
▁outspan	-11.1417
▁parsons	-11.1417
▁peppermint	-11.1417
▁politician	-11.1417
▁prostitute	-11.1417
▁reaiiy	-11.1417
▁resources	-11.1417
▁ribbon	-11.1417
▁rubbish	-11.1417
▁scotland	-11.1417
▁shanghai	-11.1417
▁significan	-11.1417
▁sloppy	-11.1417
▁snoop	-11.1417
▁solution	-11.1417
▁sorrow	-11.1417
▁squawking	-11.1417
▁stockholm	-11.1417
▁temptation	-11.1417
▁thieves	-11.1417
▁tournament	-11.1417
▁truce	-11.1417
▁trudy	-11.1417
▁unicorn	-11.1417
▁vagina	-11.1417
▁valmont	-11.1417
▁vejle	-11.1417
▁violation	-11.1417
▁vulnerable	-11.1417
▁withdraw	-11.1417
▁wolves	-11.1417
▁zealand	-11.1417
▁zwaiter	-11.1417
▁babysitter	-11.1417
▁certificate	-11.1417
▁chateau	-11.1417
▁coordinat	-11.1417
▁debby	-11.1417
▁faggot	-11.1417
▁flirt	-11.1417
▁humming	-11.1417
▁identified	-11.1417
▁janiro	-11.1417
▁lucille	-11.1417
▁lyric	-11.1417
▁pitiful	-11.1417
▁population	-11.1417
▁solemn	-11.1417
▁thisll	-11.1417
▁triumph	-11.1417
▁uncertain	-11.1417
▁couid	-11.1417
▁estimat	-11.1417
▁giddy	-11.1417
▁gunfire	-11.1417
▁peyton	-11.1417
▁preserve	-11.1417
▁probation	-11.1417
▁ralph	-11.1417
▁recipe	-11.1417
▁salvy	-11.1417
▁sofia	-11.1417
▁spoil	-11.1417
▁steady	-11.1417
▁sweep	-11.1417
▁vessel	-11.1417
▁seventeen	-11.1417
▁greek	-11.1417
▁resort	-11.1417
▁testify	-11.1417
▁cotton	-11.1417
▁moose	-11.1417
▁oath	-11.1417
▁sheep	-11.1417
▁brew	-11.1417
▁decade	-11.1417
▁evacuate	-11.1417
▁oui	-11.1417
▁renew	-11.1417
▁alvin	-11.1417
▁humor	-11.1417
▁lexus	-11.1417
▁mumbling	-11.1417
▁palace	-11.1417
▁radlo	-11.1417
▁sascha	-11.1417
▁stunning	-11.1417
▁thief	-11.1417
▁conquer	-11.1417
▁countries	-11.1417
▁deuce	-11.1417
▁geezer	-11.1417
▁nigeria	-11.1417
▁porch	-11.1417
▁ramdon	-11.1417
▁spoon	-11.1417
▁swore	-11.1417
▁allergi	-11.1417
▁violate	-11.1417
▁casual	-11.1418
▁determined	-11.1418
▁entity	-11.1418
▁hoppy	-11.1418
▁shanks	-11.1418
▁adore	-11.1418
▁emerson	-11.1418
▁habit	-11.1418
▁hound	-11.1418
▁viral	-11.1418
▁dyke	-11.1418
▁reich	-11.1418
▁repay	-11.1418
▁persua	-11.1418
▁floyd	-11.1418
▁intel	-11.1418
▁stamp	-11.1418
▁greet	-11.1418
▁coroner	-11.1418
▁mutters	-11.1418
▁piay	-11.1418
▁fascinating	-11.1418
▁housing	-11.1418
▁unstable	-11.1418
▁blink	-11.1418
▁facing	-11.1418
▁denmark	-11.1418
▁faint	-11.1418
▁wilkins	-11.1418
▁wingman	-11.1418
▁basis	-11.1418
▁assuming	-11.1418
▁mailbox	-11.1418
▁memoir	-11.1418
▁honks	-11.1418
▁groov	-11.1418
▁jules	-11.1418
▁amp	-11.1418
▁fond	-11.1418
▁lethal	-11.1418
▁connover	-11.1418
▁mobray	-11.1418
▁ethn	-11.1418
▁turay	-11.1418
▁georgina	-11.1419
▁wills	-11.1419
▁dropping	-11.1419
▁gordy	-11.1419
▁veins	-11.1419
▁vicious	-11.1419
▁google	-11.1419
▁leonard	-11.1419
▁nickname	-11.1419
▁syrup	-11.1419
▁moans	-11.1419
▁cecil	-11.1419
▁cere	-11.1419
▁chinatown	-11.1419
▁thinner	-11.1419
▁assistance	-11.1419
▁denver	-11.1419
▁panda	-11.1419
▁declaration	-11.142
▁chamber	-11.142
▁buddh	-11.142
▁bunny	-11.142
▁ambition	-11.142
▁whoops	-11.142
▁sentimental	-11.1421
▁ripped	-11.1421
▁tension	-11.1421
▁epi	-11.1421
▁depth	-11.1421
▁poetry	-11.1421
▁cooperate	-11.1421
▁saddle	-11.1421
▁smiling	-11.1421
▁nini	-11.1422
▁gaby	-11.1422
▁pillow	-11.1422
▁bruno	-11.1422
▁subway	-11.1422
▁compete	-11.1422
▁empire	-11.1422
positive	-11.1422
▁lyle	-11.1423
▁selected	-11.1423
▁communist	-11.1423
▁bind	-11.1423
▁gabe	-11.1423
▁medication	-11.1423
▁conviction	-11.1423
▁slick	-11.1423
▁lockdown	-11.1424
▁soap	-11.1424
▁flake	-11.1424
▁sieg	-11.1424
▁indulge	-11.1424
▁bruce	-11.1424
▁roii	-11.1425
▁sober	-11.1425
▁deposit	-11.1425
▁grey	-11.1425
▁visitors	-11.1426
▁oak	-11.1426
▁distraction	-11.1426
▁static	-11.1426
▁iook	-11.1426
▁pony	-11.1427
▁grill	-11.1427
▁delete	-11.1427
▁jamie	-11.1427
▁puke	-11.1428
▁betrayal	-11.1428
▁mistress	-11.1428
▁struck	-11.1428
▁bribe	-11.1429
raising	-11.1429
▁bowers	-11.1429
▁alike	-11.1429
▁vase	-11.143
ambie	-11.1431
▁dante	-11.1433
▁knockout	-11.1433
▁lila	-11.1433
▁authorized	-11.1435
▁salon	-11.1435
▁marita	-11.1435
▁sittin	-11.1435
▁greedy	-11.1435
▁whiz	-11.1436
▁happier	-11.1436
▁dominat	-11.1436
▁merc	-11.1436
▁leon	-11.1437
▁diary	-11.1437
▁promoted	-11.1438
▁juri	-11.1438
▁chari	-11.1438
▁flatter	-11.1438
▁wig	-11.1438
▁penis	-11.1439
▁inflat	-11.144
▁highland	-11.144
▁raid	-11.144
▁instantly	-11.144
▁marty	-11.1441
egitimate	-11.1441
▁thai	-11.1441
▁oid	-11.1442
▁cody	-11.1442
▁comic	-11.1444
hour	-11.1444
▁haha	-11.1444
▁leone	-11.1445
▁cellul	-11.1448
▁debo	-11.1449
▁amongst	-11.145
▁packet	-11.145
▁humanity	-11.1452
▁cozy	-11.1452
▁hobie	-11.1456
▁specialist	-11.1459
▁salty	-11.1459
▁recovery	-11.146
▁renton	-11.146
▁tsing	-11.146
▁iv	-11.1463
▁fuckedup	-11.1464
▁boop	-11.1464
▁achieved	-11.1466
▁your	-11.1467
▁physically	-11.1467
▁forgetting	-11.1468
▁cabin	-11.1469
ncent	-11.147
▁organized	-11.1471
▁collector	-11.1475
▁employer	-11.1477
▁fury	-11.148
▁richter	-11.1481
▁matches	-11.1485
▁endure	-11.1486
▁pisses	-11.1486
▁assure	-11.1487
▁drunken	-11.1496
▁sixty	-11.1499
▁drawn	-11.1501
▁fry	-11.1527
▁marl	-11.1534
▁tb	-11.1541
▁despise	-11.1545
▁congress	-11.1578
▁digg	-11.1579
▁restore	-11.161
how	-11.1624
▁environmental	-11.1644
▁warner	-11.1659
pensive	-11.1663
▁ape	-11.1679
▁lace	-11.1717
pire	-11.1723
erald	-11.1734
▁gaze	-11.1741
▁quot	-11.1767
shire	-11.1808
made	-11.1811
▁benz	-11.1822
selle	-11.1888
lib	-11.193
▁choppe	-11.2101
nam	-11.2128
▁wip	-11.2154
shaw	-11.2173
cover	-11.2212
▁hustl	-11.2326
▁clar	-11.2329
▁opera	-11.2334
▁pane	-11.2536
▁pun	-11.2541
▁uv	-11.2577
decker	-11.2579
drew	-11.2664
▁emotion	-11.2671
augh	-11.2723
▁yell	-11.273
▁result	-11.278
▁skill	-11.2791
omin	-11.2896
▁mach	-11.2924
▁region	-11.2958
▁wai	-11.2966
▁writ	-11.2967
iction	-11.2987
▁convict	-11.3024
▁swap	-11.3027
cular	-11.3031
▁register	-11.3035
▁sacr	-11.3043
wide	-11.3049
llows	-11.3052
▁teenage	-11.3054
conscious	-11.3056
stream	-11.3057
worth	-11.3058
▁gav	-11.3059
color	-11.306
▁happi	-11.3062
▁incredibl	-11.3066
▁extreme	-11.3067
green	-11.3069
water	-11.3069
▁terribl	-11.307
harm	-11.3074
▁potato	-11.3074
▁stitch	-11.3074
▁goddam	-11.3075
▁porn	-11.3076
▁motherfuckin	-11.3077
▁intent	-11.3078
box	-11.3078
▁terri	-11.308
▁rabbit	-11.308
▁chalk	-11.3081
▁reception	-11.3081
▁terror	-11.3081
▁rox	-11.3082
▁confide	-11.3083
shop	-11.3084
▁cigar	-11.3084
▁interrogat	-11.3084
▁murray	-11.3084
responsibilities	-11.3084
▁accelera	-11.3084
▁acknowledg	-11.3084
▁aggressive	-11.3084
▁amateur	-11.3084
▁antonio	-11.3084
▁arizona	-11.3084
▁arsehole	-11.3084
▁ascendant	-11.3084
▁azuka	-11.3084
▁baloney	-11.3084
▁bankrupt	-11.3084
▁banquo	-11.3084
▁behalf	-11.3084
▁behaviour	-11.3084
▁berlinghieri	-11.3084
▁billionaire	-11.3084
▁blindfold	-11.3084
▁brunckhorst	-11.3084
▁butterflies	-11.3084
▁calendar	-11.3084
▁camilla	-11.3084
▁camino	-11.3084
▁casino	-11.3084
▁ceiling	-11.3084
▁chemistry	-11.3084
▁civilization	-11.3084
▁clutch	-11.3084
▁colonial	-11.3084
▁conscience	-11.3084
▁convincing	-11.3084
▁corporal	-11.3084
▁darryl	-11.3084
▁decency	-11.3084
▁devoted	-11.3084
▁diminish	-11.3084
▁disagree	-11.3084
▁dismissed	-11.3084
▁distorted	-11.3084
▁dizzy	-11.3084
▁elsbeth	-11.3084
▁encourag	-11.3084
▁equipped	-11.3084
▁exaggerat	-11.3084
▁exwife	-11.3084
▁eyebrow	-11.3084
▁fantasy	-11.3084
▁festival	-11.3084
▁fingernails	-11.3084
▁fracture	-11.3084
▁giggling	-11.3084
▁gluten	-11.3084
▁hamshari	-11.3084
▁headquarters	-11.3084
▁hebrew	-11.3084
▁henderson	-11.3084
▁ignorant	-11.3084
▁increasing	-11.3084
▁injured	-11.3084
▁injuries	-11.3084
▁instinct	-11.3084
▁intercourse	-11.3084
▁invincible	-11.3084
▁jacobs	-11.3084
▁jewelry	-11.3084
▁kennedy	-11.3084
▁knockemstiff	-11.3084
▁kraven	-11.3084
▁ladislav	-11.3084
▁lloyd	-11.3084
▁lndlstlnct	-11.3084
▁masturbat	-11.3084
▁memphis	-11.3084
▁merchandise	-11.3084
▁metaphor	-11.3084
▁mexico	-11.3084
▁millennium	-11.3084
▁mitchell	-11.3084
▁monaster	-11.3084
▁navidad	-11.3084
▁nominated	-11.3084
▁noodle	-11.3084
▁obedient	-11.3084
▁offensive	-11.3084
▁opposed	-11.3084
▁ordinary	-11.3084
▁outstanding	-11.3084
▁oxford	-11.3084
▁palestinian	-11.3084
▁parrot	-11.3084
▁perpetua	-11.3084
▁popcorn	-11.3084
▁possibility	-11.3084
▁prescription	-11.3084
▁profound	-11.3084
▁proposition	-11.3084
▁psychiatry	-11.3084
▁puppet	-11.3084
▁quirke	-11.3084
▁rattigan	-11.3084
▁resurrect	-11.3084
▁satellite	-11.3084
▁satisfaction	-11.3084
▁satisfied	-11.3084
▁scenario	-11.3084
▁scientific	-11.3084
▁seatbelt	-11.3084
▁securities	-11.3084
▁servant	-11.3084
▁shield	-11.3084
▁snuff	-11.3084
▁spiegel	-11.3084
▁stagecoach	-11.3084
▁stammering	-11.3084
▁strangle	-11.3084
▁struggling	-11.3084
▁subpoena	-11.3084
▁subscribe	-11.3084
▁sustained	-11.3084
▁swollen	-11.3084
▁technique	-11.3084
▁temperature	-11.3084
▁transaction	-11.3084
▁treasure	-11.3084
▁undefeated	-11.3084
▁ungrateful	-11.3084
▁unsolv	-11.3084
▁verdict	-11.3084
▁virtue	-11.3084
▁volanges	-11.3084
▁wardrobe	-11.3084
▁website	-11.3084
▁werewolves	-11.3084
▁wizard	-11.3084
▁youssef	-11.3084
▁yukio	-11.3084
▁zeppelin	-11.3084
▁airborne	-11.3084
▁almanac	-11.3084
▁amanda	-11.3084
▁climate	-11.3084
▁diploma	-11.3084
▁divide	-11.3084
▁divine	-11.3084
▁douche	-11.3084
▁duffel	-11.3084
▁economi	-11.3084
▁erect	-11.3084
▁evaluat	-11.3084
▁graduation	-11.3084
▁identify	-11.3084
▁initial	-11.3084
▁litalia	-11.3084
▁marbro	-11.3084
▁phase	-11.3084
▁prophet	-11.3084
▁pussies	-11.3084
▁rouge	-11.3084
▁sketch	-11.3084
▁superhero	-11.3084
▁tavington	-11.3084
▁tennessee	-11.3084
▁willis	-11.3084
amorous	-11.3084
▁bronson	-11.3084
▁burial	-11.3084
▁canvas	-11.3084
▁concert	-11.3084
▁donald	-11.3084
▁downsizing	-11.3084
▁felson	-11.3084
▁machete	-11.3084
▁mackey	-11.3084
▁mazel	-11.3084
▁snob	-11.3084
▁squat	-11.3084
▁translation	-11.3084
▁turtle	-11.3084
▁walleye	-11.3084
▁wheat	-11.3084
▁becky	-11.3084
▁blares	-11.3084
▁denise	-11.3084
▁instance	-11.3084
▁pippa	-11.3084
▁rachel	-11.3084
▁centre	-11.3084
▁cobb	-11.3084
▁harbor	-11.3084
▁hoax	-11.3084
▁plead	-11.3084
▁scorche	-11.3084
▁terminal	-11.3084
▁whew	-11.3084
▁gulf	-11.3084
▁income	-11.3084
▁pumpkin	-11.3084
▁strawberr	-11.3084
▁legacy	-11.3084
▁mercedes	-11.3084
▁squid	-11.3084
▁tumor	-11.3084
▁unlock	-11.3084
▁andand	-11.3084
▁shirl	-11.3084
▁hunch	-11.3084
▁nolan	-11.3084
▁pigeon	-11.3084
▁torment	-11.3084
▁margin	-11.3084
▁overdose	-11.3084
▁visual	-11.3084
▁amuse	-11.3084
▁cafe	-11.3084
▁libel	-11.3084
▁peaches	-11.3084
▁colony	-11.3084
▁error	-11.3084
▁leslie	-11.3084
▁celine	-11.3084
▁classmate	-11.3084
▁tyler	-11.3084
▁battery	-11.3084
▁dedicat	-11.3084
▁dental	-11.3084
▁italy	-11.3084
▁seminar	-11.3084
▁unreal	-11.3084
▁dalc	-11.3084
▁eighteen	-11.3084
▁thorn	-11.3084
▁deaf	-11.3084
▁laura	-11.3084
▁popper	-11.3084
▁imelda	-11.3084
▁studies	-11.3084
▁ensure	-11.3084
▁jelly	-11.3084
▁drugged	-11.3084
▁rusty	-11.3084
▁carpet	-11.3084
▁shuttle	-11.3085
▁isley	-11.3085
▁douglas	-11.3085
▁toll	-11.3085
jeriko	-11.3085
▁emerg	-11.3085
▁slams	-11.3085
▁histori	-11.3085
▁serb	-11.3085
▁mustache	-11.3085
▁inquir	-11.3085
▁drain	-11.3085
▁hydro	-11.3085
▁nakia	-11.3085
▁salut	-11.3085
▁reassur	-11.3085
▁hawkins	-11.3085
▁muchassi	-11.3085
▁cloak	-11.3085
▁membership	-11.3085
▁banana	-11.3085
▁interact	-11.3086
▁sandborn	-11.3086
▁application	-11.3086
▁ponchai	-11.3086
▁unhook	-11.3086
▁goose	-11.3086
▁intimate	-11.3086
▁stanford	-11.3087
▁predictable	-11.3087
▁glori	-11.3087
▁riddle	-11.3087
▁immun	-11.3087
▁slope	-11.3087
▁olson	-11.3087
▁tutor	-11.3087
▁dripping	-11.3087
▁cabinet	-11.3087
▁superpower	-11.3088
▁prosecutor	-11.3088
▁xmen	-11.3088
▁restrict	-11.3088
▁salary	-11.3088
▁puff	-11.3088
▁bugged	-11.3088
▁obey	-11.3088
▁regis	-11.3088
▁socialism	-11.3088
▁druggie	-11.3088
▁aspirin	-11.3088
▁halfhour	-11.3089
▁disappointment	-11.3089
▁fife	-11.3089
▁riot	-11.3089
▁dunne	-11.3089
▁resistance	-11.3089
▁navy	-11.309
▁fanny	-11.309
▁snatchers	-11.309
▁nosy	-11.309
▁maryland	-11.309
▁presidential	-11.309
▁parade	-11.309
▁endorse	-11.309
▁rolex	-11.3091
▁heap	-11.3091
▁cruelty	-11.3091
▁spaceship	-11.3092
▁counselor	-11.3092
▁jingle	-11.3092
▁villain	-11.3092
▁massive	-11.3092
▁allowance	-11.3092
▁precisely	-11.3092
▁worldwide	-11.3092
▁virginity	-11.3093
▁liking	-11.3093
▁testified	-11.3093
▁tux	-11.3093
▁evac	-11.3093
▁swag	-11.3094
▁dragna	-11.3094
▁crude	-11.3094
▁potatoes	-11.3094
▁meditati	-11.3094
▁smuggler	-11.3094
ethan	-11.3095
▁observation	-11.3096
▁dinar	-11.3096
▁rising	-11.3096
▁percentage	-11.3097
▁hush	-11.3097
▁bolo	-11.3098
▁turf	-11.3098
▁mice	-11.3099
viva	-11.3099
▁annu	-11.3099
▁mmmmmm	-11.3099
▁isabelle	-11.31
▁bucket	-11.31
▁gambler	-11.31
▁rufus	-11.31
▁neat	-11.3102
▁reload	-11.3102
▁hittin	-11.3103
imous	-11.3104
▁verse	-11.3106
▁aboard	-11.3106
▁glue	-11.3106
▁organize	-11.3107
▁approaches	-11.3107
▁scum	-11.3109
▁rake	-11.3109
hearted	-11.311
▁instructor	-11.3111
terior	-11.3111
▁slate	-11.3112
▁forgiveness	-11.3112
▁pace	-11.3112
▁reina	-11.3113
▁raisin	-11.3114
▁tailor	-11.3115
▁jill	-11.3115
▁valve	-11.3117
▁skies	-11.3119
▁kuwaiti	-11.3119
▁hobo	-11.3122
▁faithful	-11.3123
▁aj	-11.3123
ssociati	-11.313
nette	-11.3131
▁eta	-11.3132
▁pornograph	-11.314
▁hose	-11.3145
▁now	-11.3148
called	-11.3157
▁stat	-11.3169
▁loop	-11.3173
rug	-11.3183
rule	-11.321
quin	-11.3285
▁expir	-11.3292
▁gagg	-11.3299
▁logical	-11.3312
determin	-11.3316
▁trippin	-11.3348
▁ratio	-11.335
▁cruci	-11.3411
ripping	-11.3416
▁robot	-11.3423
righteous	-11.3523
▁liberia	-11.3525
arctic	-11.3562
▁introduc	-11.3564
▁pond	-11.3644
azy	-11.365
ogging	-11.3696
▁syria	-11.3713
▁bullie	-11.3747
inned	-11.3773
▁spec	-11.3891
▁peddl	-11.3903
wrapped	-11.393
▁ramon	-11.3933
▁cuba	-11.423
gging	-11.4371
▁seize	-11.4402
tripped	-11.4687
tify	-11.4757
▁arriv	-11.4825
▁whistl	-11.484
legg	-11.4925
▁develop	-11.4964
cold	-11.4977
▁bonn	-11.4989
colour	-11.5012
▁nurs	-11.5016
▁applau	-11.5021
pound	-11.5056
bound	-11.5057
minute	-11.5058
▁greed	-11.506
upper	-11.5061
week	-11.5061
▁peck	-11.5062
▁technical	-11.5067
▁suga	-11.5068
▁innocen	-11.5069
▁toke	-11.5074
▁counsel	-11.5075
▁mornin	-11.5077
▁livin	-11.5077
▁makin	-11.5077
▁construct	-11.5078
▁runnin	-11.5078
▁selen	-11.5079
▁occ	-11.5082
▁urge	-11.5082
▁cec	-11.5082
▁henri	-11.5082
▁limb	-11.5083
▁scholar	-11.5083
▁optim	-11.5084
wich	-11.5084
▁intellect	-11.5084
activate	-11.5084
▁concentrati	-11.5084
▁japan	-11.5084
▁snug	-11.5084
franchise	-11.5084
▁acquaintance	-11.5084
▁airspace	-11.5084
▁allegiance	-11.5084
▁alternative	-11.5084
▁anchovies	-11.5084
▁anticipate	-11.5084
▁apologizing	-11.5084
▁artifact	-11.5084
▁atmosphere	-11.5084
▁beethoven	-11.5084
▁beijing	-11.5084
▁biometric	-11.5084
▁bizarre	-11.5084
▁blackjack	-11.5084
▁blossom	-11.5084
▁bohemia	-11.5084
▁bonfire	-11.5084
▁brandnew	-11.5084
▁cartridge	-11.5084
▁categor	-11.5084
▁caviar	-11.5084
▁ceremony	-11.5084
▁cheeseburger	-11.5084
▁cheesecake	-11.5084
▁clumsy	-11.5084
▁collaborat	-11.5084
▁competitive	-11.5084
▁convention	-11.5084
▁crucifix	-11.5084
▁deceased	-11.5084
▁delacourt	-11.5084
▁devastating	-11.5084
▁diabolical	-11.5084
▁discipline	-11.5084
▁discreet	-11.5084
▁dismantle	-11.5084
▁dissolve	-11.5084
▁distress	-11.5084
▁divinity	-11.5084
▁dubstep	-11.5084
▁dunsinane	-11.5084
▁eavesdrop	-11.5084
▁economy	-11.5084
▁egypt	-11.5084
▁elegant	-11.5084
▁elementary	-11.5084
▁elvira	-11.5084
▁enforcement	-11.5084
▁enterprise	-11.5084
▁eugene	-11.5084
▁excellence	-11.5084
▁external	-11.5084
▁faculty	-11.5084
▁fentanyl	-11.5084
▁fountain	-11.5084
▁fragile	-11.5084
▁gracias	-11.5084
▁grouch	-11.5084
▁guerrilla	-11.5084
▁haggis	-11.5084
▁hodgson	-11.5084
▁honecker	-11.5084
▁horizon	-11.5084
▁ignorance	-11.5084
▁inaudible	-11.5084
▁increase	-11.5084
▁infiniti	-11.5084
▁inhuman	-11.5084
▁investigator	-11.5084
▁isaac	-11.5084
▁jacoby	-11.5084
▁jellybeans	-11.5084
▁judging	-11.5084
▁jukebox	-11.5084
▁jurisdiction	-11.5084
▁laxative	-11.5084
▁lazenby	-11.5084
▁leonida	-11.5084
▁mademoiselle	-11.5084
▁marvelous	-11.5084
▁massacre	-11.5084
▁maurice	-11.5084
▁mcswiney	-11.5084
▁mendoza	-11.5084
▁mississippi	-11.5084
▁motivat	-11.5084
▁murmur	-11.5084
▁nemesis	-11.5084
▁neurotic	-11.5084
▁oklahoma	-11.5084
▁opponent	-11.5084
▁overreacting	-11.5084
▁participate	-11.5084
▁pedophile	-11.5084
▁pennsylvania	-11.5084
▁philadelphia	-11.5084
▁phoenix	-11.5084
▁precaution	-11.5084
▁precision	-11.5084
▁presume	-11.5084
▁quaaludes	-11.5084
▁qualification	-11.5084
▁qualified	-11.5084
▁quarrel	-11.5084
▁railroad	-11.5084
▁rasmussen	-11.5084
▁recruit	-11.5084
▁refund	-11.5084
▁refusing	-11.5084
▁reinforce	-11.5084
▁rejoicing	-11.5084
▁reprogram	-11.5084
▁residence	-11.5084
▁resolution	-11.5084
▁resolve	-11.5084
▁satisfy	-11.5084
▁selfesteem	-11.5084
▁sequence	-11.5084
▁sermon	-11.5084
▁shampoo	-11.5084
▁shokopiwah	-11.5084
▁slewitt	-11.5084
▁snarls	-11.5084
▁sociopath	-11.5084
▁sophisticat	-11.5084
▁spiral	-11.5084
▁squirt	-11.5084
▁sunglasses	-11.5084
▁supreme	-11.5084
▁tequila	-11.5084
▁theodore	-11.5084
▁thirtythree	-11.5084
▁thumping	-11.5084
▁thunderclap	-11.5084
▁tolerate	-11.5084
▁toxic	-11.5084
▁tvirus	-11.5084
▁tyrant	-11.5084
▁unacceptable	-11.5084
▁unpredictable	-11.5084
▁untraceable	-11.5084
▁upfront	-11.5084
▁vegetable	-11.5084
▁vigorous	-11.5084
▁vitamin	-11.5084
▁vojtech	-11.5084
▁volcano	-11.5084
▁whichever	-11.5084
▁whlstl	-11.5084
▁winyerp	-11.5084
▁wrinkle	-11.5084
▁wyoming	-11.5084
▁youtube	-11.5084
relevant	-11.5084
▁anmei	-11.5084
▁bassett	-11.5084
▁bastian	-11.5084
▁battalion	-11.5084
▁biochemi	-11.5084
▁catalog	-11.5084
▁chords	-11.5084
▁correspond	-11.5084
▁crawford	-11.5084
▁crazie	-11.5084
▁duncan	-11.5084
▁extinguish	-11.5084
▁frankfurt	-11.5084
▁hedestad	-11.5084
▁ieave	-11.5084
▁indict	-11.5084
▁jumbo	-11.5084
▁katrina	-11.5084
▁mandarin	-11.5084
▁maximum	-11.5084
▁melanch	-11.5084
▁minimum	-11.5084
▁mwow	-11.5084
▁necklace	-11.5084
▁northeast	-11.5084
▁orvis	-11.5084
▁pivot	-11.5084
▁plague	-11.5084
▁portnoy	-11.5084
▁quatre	-11.5084
▁rampage	-11.5084
▁repair	-11.5084
▁revving	-11.5084
▁shouid	-11.5084
▁unpleasant	-11.5084
▁vilena	-11.5084
▁wrench	-11.5084
▁addison	-11.5084
▁administ	-11.5084
▁calvin	-11.5084
▁cassio	-11.5084
▁crucify	-11.5084
▁crunch	-11.5084
▁hazard	-11.5084
▁household	-11.5084
▁ljoha	-11.5084
▁manipulat	-11.5084
▁ofthe	-11.5084
▁ounce	-11.5084
▁overseas	-11.5084
▁quinton	-11.5084
▁reserve	-11.5084
▁rveur	-11.5084
▁salander	-11.5084
▁statistics	-11.5084
▁statue	-11.5084
▁wretch	-11.5084
▁adwan	-11.5084
▁baggage	-11.5084
▁devine	-11.5084
▁geneva	-11.5084
▁harvest	-11.5084
▁install	-11.5084
▁keycard	-11.5084
▁obliged	-11.5084
▁pepper	-11.5084
▁sunrise	-11.5084
▁traitor	-11.5084
▁whereabouts	-11.5084
▁analyz	-11.5084
▁anchor	-11.5084
▁gymnast	-11.5084
▁petrek	-11.5084
▁abide	-11.5084
▁asshoie	-11.5084
▁brothel	-11.5084
▁cadei	-11.5084
▁dawg	-11.5084
▁fierce	-11.5084
▁finland	-11.5084
▁karma	-11.5084
▁leith	-11.5084
▁monroe	-11.5084
▁rehab	-11.5084
▁senile	-11.5084
▁sleepwalking	-11.5084
▁theft	-11.5084
▁aggr	-11.5084
▁molester	-11.5084
▁reopen	-11.5084
▁wilderness	-11.5084
▁caesar	-11.5084
▁convert	-11.5084
▁krill	-11.5084
▁niece	-11.5084
▁retches	-11.5084
▁void	-11.5084
uffalo	-11.5084
▁confine	-11.5084
▁curran	-11.5084
▁drummer	-11.5084
▁finance	-11.5084
▁mancini	-11.5084
▁stool	-11.5084
▁brewery	-11.5084
▁filter	-11.5084
▁harvey	-11.5084
▁holler	-11.5084
▁piotr	-11.5084
▁settling	-11.5084
▁tammy	-11.5084
▁update	-11.5084
▁alexander	-11.5084
▁fourteen	-11.5084
▁vermin	-11.5084
▁wallace	-11.5084
▁francesco	-11.5084
▁daywalker	-11.5084
▁depressing	-11.5084
▁kitsey	-11.5084
▁adapt	-11.5084
▁craving	-11.5084
▁gulp	-11.5084
▁gospel	-11.5084
▁donation	-11.5084
▁gloom	-11.5084
▁domingre	-11.5084
▁stove	-11.5084
▁cramp	-11.5084
▁kurt	-11.5084
▁seattle	-11.5084
compatible	-11.5084
▁purr	-11.5084
▁delightful	-11.5084
▁cathy	-11.5084
▁assessment	-11.5084
▁yeats	-11.5084
▁arson	-11.5084
▁hesitate	-11.5084
▁bruise	-11.5084
▁sasha	-11.5084
▁ulla	-11.5084
▁charly	-11.5084
▁titties	-11.5084
▁cement	-11.5084
▁sculpture	-11.5084
▁angus	-11.5084
▁agita	-11.5084
▁trop	-11.5084
▁intellectual	-11.5085
▁overhear	-11.5085
▁limitations	-11.5085
▁gossip	-11.5085
▁historical	-11.5085
▁alderm	-11.5085
▁limp	-11.5085
▁scramble	-11.5085
▁compound	-11.5085
▁bulletproof	-11.5085
▁brawl	-11.5085
▁queer	-11.5085
▁whooping	-11.5085
▁straightened	-11.5085
▁popping	-11.5085
▁aisle	-11.5085
▁greer	-11.5085
▁rustl	-11.5085
▁apology	-11.5085
▁ahem	-11.5085
▁whining	-11.5085
▁grubitz	-11.5085
▁dwana	-11.5085
▁lipps	-11.5085
▁underwater	-11.5085
▁musket	-11.5085
▁conclusion	-11.5085
▁imagination	-11.5085
▁reese	-11.5085
▁blurr	-11.5085
▁peanut	-11.5085
▁wails	-11.5085
▁tilden	-11.5085
▁clarence	-11.5085
▁intercom	-11.5085
▁stepping	-11.5086
▁yodel	-11.5086
▁stiff	-11.5086
▁flashlight	-11.5086
▁garza	-11.5086
▁pupil	-11.5086
▁glorious	-11.5086
▁cried	-11.5086
▁determination	-11.5086
▁plumber	-11.5086
▁liability	-11.5086
▁clanking	-11.5086
▁stump	-11.5086
▁shboom	-11.5086
▁destruction	-11.5086
▁cuddl	-11.5086
▁cabron	-11.5086
▁textbook	-11.5086
▁lenka	-11.5086
▁fanatic	-11.5086
▁fleance	-11.5087
▁organization	-11.5087
▁orphanage	-11.5087
▁barbour	-11.5087
▁trading	-11.5087
▁registr	-11.5087
▁harold	-11.5087
▁anders	-11.5087
▁prepped	-11.5087
▁endorsement	-11.5088
▁premi	-11.5088
▁consciousness	-11.5088
▁flank	-11.5088
▁howling	-11.5088
▁recite	-11.5088
▁malay	-11.5088
▁hawaiian	-11.5088
▁employment	-11.5089
▁appearance	-11.5089
▁moonlight	-11.5089
▁detector	-11.5089
▁sunlight	-11.5089
▁evie	-11.5089
▁chalkies	-11.5089
▁operative	-11.5089
▁rambo	-11.509
▁slack	-11.509
lmes	-11.509
▁beatles	-11.509
▁predict	-11.509
▁nino	-11.509
▁enrich	-11.509
▁leadership	-11.5091
▁tipped	-11.5091
▁fluid	-11.5091
▁premiere	-11.5091
▁software	-11.5091
▁twentyone	-11.5091
loaf	-11.5091
▁poof	-11.5092
▁faking	-11.5092
▁racket	-11.5093
▁consultation	-11.5093
pering	-11.5094
▁spook	-11.5094
▁brent	-11.5095
▁hatred	-11.5095
▁kiii	-11.5095
▁reviv	-11.5095
▁bundl	-11.5096
▁elway	-11.5096
▁stack	-11.5097
▁foil	-11.5098
▁lyin	-11.5099
▁iong	-11.5099
▁tasty	-11.51
▁diana	-11.51
▁regime	-11.5102
▁calculat	-11.5121
uther	-11.5122
▁lester	-11.5125
heology	-11.5126
▁vaca	-11.5129
plied	-11.5132
▁applie	-11.5144
obedi	-11.5148
▁imagina	-11.5154
prompt	-11.5173
▁rende	-11.5178
rilla	-11.518
mortality	-11.5247
▁mutati	-11.5271
▁lime	-11.5377
▁slug	-11.5535
▁purif	-11.5789
employee	-11.5822
▁specializ	-11.5908
ubl	-11.5948
litter	-11.6062
easy	-11.65
▁syr	-11.6681
iffe	-11.67
▁lugg	-11.7124
▁whisper	-11.7224
▁phon	-11.7365
delia	-11.7404
▁arg	-11.7438
▁corps	-11.749
▁referr	-11.7522
▁accord	-11.7525
ivity	-11.7527
▁retard	-11.7532
▁involv	-11.7532
culate	-11.7538
oftheart	-11.7544
▁retire	-11.7545
▁bir	-11.7547
▁promote	-11.7553
faithful	-11.7556
authorized	-11.7556
ought	-11.7556
flower	-11.7557
cycle	-11.7557
wise	-11.7557
▁choos	-11.7557
freak	-11.7558
know	-11.7558
▁gamble	-11.7559
drop	-11.7559
▁traged	-11.7559
▁murph	-11.7559
missions	-11.7564
▁smuggle	-11.7568
▁qualit	-11.757
keeper	-11.7574
fair	-11.7574
▁smilin	-11.7577
▁drivin	-11.7577
▁everythin	-11.7578
adows	-11.7578
▁hawaii	-11.7579
minded	-11.7579
▁dyin	-11.758
▁differ	-11.7581
▁appoint	-11.7582
▁intelligen	-11.7582
cussion	-11.7582
▁racquet	-11.7584
▁contradict	-11.7584
▁insecur	-11.7584
▁submissi	-11.7584
▁untouch	-11.7584
admissible	-11.7584
▁aaaaa	-11.7584
▁abstract	-11.7584
▁accur	-11.7584
▁acquired	-11.7584
▁affleck	-11.7584
▁africanamerican	-11.7584
▁aggression	-11.7584
▁alaska	-11.7584
▁aleppo	-11.7584
▁amityville	-11.7584
▁anthropoid	-11.7584
▁anxious	-11.7584
▁asthma	-11.7584
▁athletic	-11.7584
▁atlanta	-11.7584
▁attaboy	-11.7584
▁autograph	-11.7584
▁bahamas	-11.7584
▁barricade	-11.7584
▁beaucoup	-11.7584
▁behaving	-11.7584
▁beiieve	-11.7584
▁blasphem	-11.7584
▁bourbon	-11.7584
▁burrito	-11.7584
▁cahoots	-11.7584
▁cambodia	-11.7584
▁cambridge	-11.7584
▁campbell	-11.7584
▁cathedral	-11.7584
▁ceasefire	-11.7584
▁celebration	-11.7584
▁celebrities	-11.7584
▁charcoal	-11.7584
▁charging	-11.7584
▁cherokee	-11.7584
▁chippendale	-11.7584
▁cinderella	-11.7584
▁circulation	-11.7584
▁cockroach	-11.7584
▁consensual	-11.7584
▁consistent	-11.7584
▁contemplat	-11.7584
▁contender	-11.7584
▁continual	-11.7584
▁cupcake	-11.7584
▁cushion	-11.7584
▁deception	-11.7584
▁defensive	-11.7584
▁delinquent	-11.7584
▁departure	-11.7584
▁desoto	-11.7584
▁despair	-11.7584
▁devastated	-11.7584
▁dinosaur	-11.7584
▁doorknob	-11.7584
▁dunnybum	-11.7584
▁dylan	-11.7584
▁eccentric	-11.7584
▁eclipse	-11.7584
▁ecstasy	-11.7584
▁eject	-11.7584
▁embrace	-11.7584
▁ephraim	-11.7584
▁episode	-11.7584
▁esperate	-11.7584
▁ethics	-11.7584
▁exclusive	-11.7584
▁extensive	-11.7584
▁extinction	-11.7584
▁extortion	-11.7584
▁extraordinary	-11.7584
▁extremis	-11.7584
▁eyewitness	-11.7584
▁facetoface	-11.7584
▁fantasies	-11.7584
▁february	-11.7584
▁fedayeen	-11.7584
▁finnish	-11.7584
▁fontella	-11.7584
▁forcing	-11.7584
▁fugitive	-11.7584
▁fulfill	-11.7584
▁fundraiser	-11.7584
▁gestapo	-11.7584
▁grandchildren	-11.7584
▁granddaughter	-11.7584
▁gyuri	-11.7584
▁hallelujah	-11.7584
▁hamilton	-11.7584
▁handkerchief	-11.7584
▁hemorrhag	-11.7584
▁homosexual	-11.7584
▁humiliate	-11.7584
▁immigrant	-11.7584
▁inconvenien	-11.7584
▁inhaler	-11.7584
▁insatiable	-11.7584
▁instagram	-11.7584
▁institute	-11.7584
▁intercept	-11.7584
▁intersecti	-11.7584
▁interstate	-11.7584
▁intimacy	-11.7584
▁intimidat	-11.7584
▁intrude	-11.7584
▁jerusalem	-11.7584
▁kansas	-11.7584
▁kirsten	-11.7584
▁knickers	-11.7584
▁knuckle	-11.7584
▁kurgan	-11.7584
▁labourers	-11.7584
▁laferty	-11.7584
▁lasagne	-11.7584
▁leviticus	-11.7584
▁lnteresting	-11.7584
▁lycans	-11.7584
▁mahjong	-11.7584
▁malfunction	-11.7584
▁mammoth	-11.7584
▁margaritaville	-11.7584
▁mcbride	-11.7584
▁melbourne	-11.7584
▁mercenaries	-11.7584
▁misfortune	-11.7584
▁monahan	-11.7584
▁mooresville	-11.7584
▁moravec	-11.7584
▁mortgage	-11.7584
▁mosquito	-11.7584
▁motherinlaw	-11.7584
▁mozart	-11.7584
▁namgoong	-11.7584
▁napoleon	-11.7584
▁nascimento	-11.7584
▁necessity	-11.7584
▁nitrous	-11.7584
▁nogood	-11.7584
▁norwegian	-11.7584
▁nutrition	-11.7584
▁obligation	-11.7584
▁obscen	-11.7584
▁oldfashioned	-11.7584
▁olivier	-11.7584
▁orgasm	-11.7584
▁osiris	-11.7584
▁overwhelmed	-11.7584
▁palmgren	-11.7584
▁parachute	-11.7584
▁parallel	-11.7584
▁parlor	-11.7584
▁peacock	-11.7584
▁perspective	-11.7584
▁philippe	-11.7584
▁picasso	-11.7584
▁platform	-11.7584
▁platinum	-11.7584
▁playground	-11.7584
▁portsmith	-11.7584
▁possibilities	-11.7584
▁powaqa	-11.7584
▁practise	-11.7584
▁precinct	-11.7584
▁prescott	-11.7584
▁probiem	-11.7584
▁provoke	-11.7584
▁recognition	-11.7584
▁reestablish	-11.7584
▁refresh	-11.7584
▁regulations	-11.7584
▁renegade	-11.7584
▁rethink	-11.7584
▁retrieve	-11.7584
▁revolt	-11.7584
▁revolver	-11.7584
▁rhode	-11.7584
▁roosevelt	-11.7584
▁rottweiler	-11.7584
▁sabbath	-11.7584
▁sabotage	-11.7584
▁sandusky	-11.7584
▁sarcastic	-11.7584
▁sauerkraut	-11.7584
▁scrub	-11.7584
▁seizure	-11.7584
▁seldom	-11.7584
▁shlubb	-11.7584
▁shudder	-11.7584
▁sophomore	-11.7584
▁speculation	-11.7584
▁suicidal	-11.7584
▁supermarket	-11.7584
▁supervisor	-11.7584
▁suspension	-11.7584
▁suspicion	-11.7584
▁syllable	-11.7584
▁syndicate	-11.7584
▁tiighman	-11.7584
▁tobacco	-11.7584
▁toledo	-11.7584
▁tomatoes	-11.7584
▁tranquilize	-11.7584
▁transsexual	-11.7584
▁tremendous	-11.7584
▁trophies	-11.7584
▁trousers	-11.7584
▁tweezers	-11.7584
▁twentythree	-11.7584
▁typical	-11.7584
▁unbearable	-11.7584
▁undressed	-11.7584
▁unlimited	-11.7584
▁unsettl	-11.7584
▁uppercut	-11.7584
▁vacuum	-11.7584
▁vargas	-11.7584
▁variations	-11.7584
▁vaseliev	-11.7584
▁veggies	-11.7584
▁vibrant	-11.7584
▁violinist	-11.7584
▁vocabulary	-11.7584
▁vulture	-11.7584
▁welfare	-11.7584
▁wellenbeck	-11.7584
▁wexler	-11.7584
▁wrevock	-11.7584
▁xanax	-11.7584
▁ziegler	-11.7584
▁zimmer	-11.7584
apolis	-11.7584
▁administration	-11.7584
▁anyhow	-11.7584
▁ashtray	-11.7584
▁auction	-11.7584
▁blowjob	-11.7584
▁bushwhack	-11.7584
▁cackling	-11.7584
▁capsule	-11.7584
▁circum	-11.7584
▁coletti	-11.7584
▁confedera	-11.7584
▁crease	-11.7584
▁delicate	-11.7584
▁detonator	-11.7584
▁dwarf	-11.7584
▁dynami	-11.7584
▁enroll	-11.7584
▁evacuation	-11.7584
▁exemp	-11.7584
▁fuzz	-11.7584
▁gardner	-11.7584
▁gasoline	-11.7584
▁guzman	-11.7584
▁isolate	-11.7584
▁kruger	-11.7584
▁laboratory	-11.7584
▁nixon	-11.7584
▁omaha	-11.7584
▁organism	-11.7584
▁patrick	-11.7584
▁plaza	-11.7584
▁preparation	-11.7584
▁rebuil	-11.7584
▁retiring	-11.7584
▁scandal	-11.7584
▁storsch	-11.7584
▁striking	-11.7584
▁supplies	-11.7584
bbling	-11.7584
▁adorable	-11.7584
▁agenda	-11.7584
▁alchir	-11.7584
▁ascot	-11.7584
▁attila	-11.7584
▁burden	-11.7584
▁caution	-11.7584
▁darren	-11.7584
▁detox	-11.7584
▁eileen	-11.7584
▁facial	-11.7584
▁florek	-11.7584
▁fortress	-11.7584
▁gazelle	-11.7584
▁gracious	-11.7584
▁hvap	-11.7584
▁hydra	-11.7584
▁identities	-11.7584
▁ireland	-11.7584
▁ornament	-11.7584
▁reboot	-11.7584
▁redneck	-11.7584
▁twinkie	-11.7584
▁upstate	-11.7584
▁urinate	-11.7584
▁balcon	-11.7584
▁headhunt	-11.7584
▁nomak	-11.7584
▁bayonet	-11.7584
▁bieber	-11.7584
▁blush	-11.7584
▁bulldog	-11.7584
▁colonies	-11.7584
▁conspir	-11.7584
▁examination	-11.7584
▁frode	-11.7584
▁garlic	-11.7584
▁gurdy	-11.7584
▁hobbies	-11.7584
▁janitor	-11.7584
▁madonna	-11.7584
▁paralyze	-11.7584
▁payroll	-11.7584
▁postcard	-11.7584
▁racial	-11.7584
▁sabra	-11.7584
▁selfpity	-11.7584
▁ugli	-11.7584
▁uncool	-11.7584
▁veteran	-11.7584
▁wifi	-11.7584
brecht	-11.7584
▁enlist	-11.7584
▁possum	-11.7584
▁salmon	-11.7584
▁scoot	-11.7584
▁stereo	-11.7584
▁creator	-11.7584
▁cynic	-11.7584
▁fagan	-11.7584
▁femini	-11.7584
▁fogg	-11.7584
▁function	-11.7584
▁melanie	-11.7584
▁nineteen	-11.7584
▁refill	-11.7584
▁rosemary	-11.7584
▁strand	-11.7584
alogue	-11.7584
▁arena	-11.7584
▁corvin	-11.7584
cherished	-11.7584
▁dulles	-11.7584
▁gracie	-11.7584
▁quiz	-11.7584
▁scully	-11.7584
▁chili	-11.7584
▁crowe	-11.7584
▁elroy	-11.7584
▁itchy	-11.7584
▁predator	-11.7584
▁resume	-11.7584
▁frogs	-11.7584
▁spike	-11.7584
▁toby	-11.7584
▁overcome	-11.7584
▁crisp	-11.7584
▁miniatur	-11.7584
▁prodig	-11.7584
▁stabbing	-11.7584
▁obli	-11.7584
▁swerve	-11.7584
▁afar	-11.7584
▁homie	-11.7584
▁importance	-11.7584
▁kgb	-11.7584
▁cassie	-11.7584
▁gravy	-11.7584
▁allege	-11.7584
▁descendants	-11.7584
▁envy	-11.7584
▁gently	-11.7584
▁physics	-11.7584
▁actress	-11.7584
▁chewie	-11.7584
▁endanger	-11.7584
▁noose	-11.7584
▁walt	-11.7584
twothree	-11.7584
▁occupied	-11.7584
▁cheesy	-11.7584
▁worn	-11.7584
▁knots	-11.7584
▁urine	-11.7584
▁hysterical	-11.7584
▁calculations	-11.7584
▁cuz	-11.7584
▁retain	-11.7584
▁yoga	-11.7584
▁sphin	-11.7584
▁aryan	-11.7584
▁prune	-11.7584
▁frequen	-11.7584
▁rosina	-11.7584
▁creation	-11.7584
▁ransom	-11.7584
▁feast	-11.7584
▁sofa	-11.7584
mpulsive	-11.7584
▁jaded	-11.7584
▁yyou	-11.7584
drome	-11.7584
▁firearm	-11.7584
▁headliner	-11.7584
▁slipping	-11.7584
▁jingling	-11.7584
▁immense	-11.7584
▁alban	-11.7584
▁holly	-11.7584
▁cmon	-11.7585
▁throne	-11.7585
▁tango	-11.7585
▁matias	-11.7585
▁seasick	-11.7585
▁stalin	-11.7585
▁await	-11.7585
▁traumatize	-11.7585
▁nelly	-11.7585
▁psychological	-11.7585
▁clanks	-11.7585
▁presley	-11.7585
▁birger	-11.7585
▁darn	-11.7585
▁scud	-11.7585
▁ashford	-11.7585
▁optimistic	-11.7585
▁illusion	-11.7585
▁lottery	-11.7585
▁budget	-11.7585
▁claws	-11.7585
▁issy	-11.7585
▁trend	-11.7585
▁resign	-11.7585
▁bugging	-11.7585
▁headlights	-11.7585
▁bogeym	-11.7585
▁simulat	-11.7586
▁wooters	-11.7586
▁deadlights	-11.7586
▁carlyle	-11.7586
▁lcf	-11.7586
▁getaway	-11.7586
▁fudge	-11.7586
dignified	-11.7586
▁advisor	-11.7586
▁gentrifi	-11.7586
▁nanny	-11.7586
▁plunge	-11.7587
▁amos	-11.7587
▁dribbl	-11.7587
▁copper	-11.7587
▁narrat	-11.7588
▁swipe	-11.7588
▁ignit	-11.7588
▁semi	-11.7588
▁daryl	-11.759
▁hallowe	-11.759
▁dodge	-11.759
shakin	-11.7592
▁sicil	-11.7593
▁quinc	-11.7594
▁seventyf	-11.7596
zzi	-11.7597
olita	-11.7598
robbin	-11.7598
vantage	-11.7598
▁lynch	-11.7598
▁entre	-11.7599
▁chafe	-11.7609
crypt	-11.761
rubbing	-11.7613
▁mocke	-11.7614
▁fisk	-11.762
rpool	-11.7622
finch	-11.7628
▁oppressi	-11.7636
sensiti	-11.7644
▁carrier	-11.7646
tesse	-11.7672
emma	-11.7675
ispu	-11.7678
circula	-11.77
▁realise	-11.7712
umption	-11.772
artisan	-11.7821
▁shagg	-11.788
hugging	-11.7888
▁abso	-11.7969
dfo	-11.8049
erik	-11.8233
rogue	-11.8264
slapped	-11.8428
productive	-11.8525
mika	-11.8659
▁declar	-11.8773
▁eliminat	-11.9052
▁replica	-11.9114
ification	-11.976
▁chchch	-11.9762
romania	-12.0227
quality	-12.0291
fetched	-12.043
▁evolution	-12.047
gression	-12.0516
▁groan	-12.0565
phili	-12.061
▁afterward	-12.0615
nounced	-12.0649
graphic	-12.0665
closure	-12.0667
▁advi	-12.0723
▁organiz	-12.073
horse	-12.084
▁annoy	-12.0857
arriers	-12.0858
▁surround	-12.0863
▁univers	-12.0873
▁homicid	-12.0877
▁excite	-12.088
▁confuse	-12.0883
▁refuge	-12.0889
father	-12.0889
mistress	-12.0889
proof	-12.0889
struck	-12.0889
structure	-12.089
construction	-12.089
screen	-12.089
hurst	-12.0891
comfort	-12.0891
thirty	-12.0891
negative	-12.0891
whoo	-12.0891
election	-12.0891
complete	-12.0891
written	-12.0891
finished	-12.0891
wrote	-12.0891
middle	-12.0891
direct	-12.0892
debt	-12.0893
lecting	-12.0896
cisions	-12.0899
▁villa	-12.09
▁precise	-12.09
▁pregnan	-12.0904
▁origin	-12.0908
▁sentiment	-12.0909
▁continent	-12.0909
▁easie	-12.091
▁beggin	-12.0911
▁anythin	-12.0911
▁darlin	-12.0911
▁leavin	-12.0911
▁movin	-12.0911
▁decisi	-12.0913
▁bubb	-12.0915
ligence	-12.0915
clusion	-12.0916
cogniz	-12.0916
▁francis	-12.0916
▁excla	-12.0916
▁scram	-12.0916
▁physi	-12.0917
plications	-12.0917
▁borde	-12.0917
▁congregat	-12.0917
▁inject	-12.0917
▁straw	-12.0917
cautious	-12.0917
elective	-12.0917
equivalent	-12.0917
flavoured	-12.0917
hyperventilating	-12.0917
incendiary	-12.0917
inflammatory	-12.0917
ohenschoenhausen	-12.0917
ophobic	-12.0917
osexual	-12.0917
voluntary	-12.0917
▁abducted	-12.0917
▁abroad	-12.0917
▁abundantly	-12.0917
▁achilles	-12.0917
▁adequate	-12.0917
▁aerosmith	-12.0917
▁affiliat	-12.0917
▁affirmative	-12.0917
▁altogether	-12.0917
▁amazed	-12.0917
▁ambivalence	-12.0917
▁amoroso	-12.0917
▁anatomy	-12.0917
▁apologise	-12.0917
▁apostle	-12.0917
▁apricot	-12.0917
▁aquifer	-12.0917
▁arrogance	-12.0917
▁articulate	-12.0917
▁astonish	-12.0917
▁baklava	-12.0917
▁balalaika	-12.0917
▁baptiz	-12.0917
▁barkeep	-12.0917
▁bathtub	-12.0917
▁blazing	-12.0917
▁bmachine	-12.0917
▁briegel	-12.0917
▁caffeine	-12.0917
▁cardiovascular	-12.0917
▁castelcuto	-12.0917
▁centinela	-12.0917
▁charlatan	-12.0917
▁chevalier	-12.0917
▁chipmunk	-12.0917
▁claymoore	-12.0917
▁climax	-12.0917
▁cluster	-12.0917
▁coetzee	-12.0917
▁collateral	-12.0917
▁colombia	-12.0917
▁comprende	-12.0917
▁concubine	-12.0917
▁connecticut	-12.0917
▁consolation	-12.0917
▁continuing	-12.0917
▁contribute	-12.0917
▁controversial	-12.0917
▁courtmartialed	-12.0917
▁couscous	-12.0917
▁creaks	-12.0917
▁cripple	-12.0917
▁crosby	-12.0917
▁cumberland	-12.0917
▁cyborg	-12.0917
▁decapitated	-12.0917
▁defect	-12.0917
▁dehydrat	-12.0917
▁departing	-12.0917
▁desalvo	-12.0917
▁devotion	-12.0917
▁dialect	-12.0917
▁dictator	-12.0917
▁dinwoodie	-12.0917
▁discount	-12.0917
▁discredit	-12.0917
▁discrepanc	-12.0917
▁disregard	-12.0917
▁diversion	-12.0917
▁dlalogue	-12.0917
▁dragoons	-12.0917
▁electra	-12.0917
▁elephant	-12.0917
▁embezzle	-12.0917
▁embroider	-12.0917
▁emergencies	-12.0917
▁evidently	-12.0917
▁exboyfriend	-12.0917
▁expiain	-12.0917
▁exploding	-12.0917
▁exposure	-12.0917
▁exquisite	-12.0917
▁fandango	-12.0917
▁fascinated	-12.0917
▁feature	-12.0917
▁figurative	-12.0917
▁figuring	-12.0917
q	-13.5893
