<unk>	0
<s>	0
</s>	0
s	-4.02101
▁dont	-4.54922
▁im	-4.56671
▁know	-4.60038
▁get	-4.79617
▁well	-4.81803
▁go	-4.86211
▁come	-4.94129
▁right	-4.95225
▁oh	-4.97789
▁like	-4.98017
▁got	-5.08067
▁one	-5.09655
▁youre	-5.10782
▁thats	-5.17851
▁yeah	-5.20164
▁good	-5.26844
▁see	-5.27447
▁na	-5.38278
▁think	-5.38354
▁want	-5.38536
ing	-5.4052
▁yes	-5.45695
▁okay	-5.46969
▁	-5.50866
▁ill	-5.5344
▁going	-5.55542
▁look	-5.5653
▁back	-5.569
▁time	-5.59714
▁hey	-5.59776
▁gon	-5.59825
▁us	-5.63499
▁take	-5.67507
▁man	-5.67892
▁hes	-5.68824
▁would	-5.70576
▁cant	-5.72933
ed	-5.74752
▁way	-5.84022
▁tell	-5.8697
▁little	-5.88815
▁could	-5.89259
▁say	-5.90383
▁mr	-5.91915
▁never	-5.93464
▁lets	-5.94754
▁something	-5.95106
▁really	-5.96827
▁didnt	-6.00551
▁whats	-6.00564
▁need	-6.02235
▁make	-6.03932
▁thank	-6.05126
▁let	-6.05354
▁mean	-6.07312
▁love	-6.07847
▁music	-6.10217
▁give	-6.12052
▁ive	-6.13997
d	-6.148
▁sir	-6.15297
▁two	-6.15541
▁please	-6.16224
▁theres	-6.19631
▁sorry	-6.22613
▁said	-6.23949
▁sure	-6.24641
▁l	-6.24974
▁people	-6.27092
▁much	-6.29337
▁help	-6.29547
▁uh	-6.32231
▁thing	-6.32527
▁wait	-6.34164
▁day	-6.35185
▁even	-6.38985
y	-6.42097
▁first	-6.43658
▁life	-6.43817
▁maybe	-6.44482
▁better	-6.44648
▁nothing	-6.45146
▁great	-6.52231
▁keep	-6.54009
▁new	-6.54186
▁shes	-6.54594
▁boy	-6.55138
▁find	-6.56179
▁call	-6.56312
▁must	-6.56359
▁night	-6.56546
▁god	-6.58082
▁home	-6.58552
▁always	-6.60185
▁ever	-6.60224
▁theyre	-6.60573
▁work	-6.6121
▁stop	-6.61372
▁anything	-6.61546
▁away	-6.61944
▁still	-6.62334
u	-6.62833
▁talk	-6.63026
▁guys	-6.64525
▁thought	-6.65826
▁long	-6.66067
▁old	-6.66489
▁dad	-6.66631
▁around	-6.66774
▁made	-6.68889
ly	-6.69488
▁y	-6.69842
▁youve	-6.70775
▁world	-6.70969
▁wont	-6.72072
▁believe	-6.72273
▁money	-6.72508
▁id	-6.72786
e	-6.74067
▁put	-6.74142
▁fine	-6.74933
▁last	-6.75172
▁big	-6.77197
▁hell	-6.77274
▁everything	-6.78135
▁things	-6.78205
▁told	-6.78361
▁father	-6.78832
▁feel	-6.80251
▁hello	-6.80524
▁youll	-6.80704
▁name	-6.81033
▁coming	-6.83864
▁years	-6.83873
▁nice	-6.83884
▁remember	-6.84012
▁course	-6.85565
▁may	-6.89192
▁doesnt	-6.89631
▁hear	-6.89818
▁every	-6.89827
▁hold	-6.91338
▁three	-6.91732
▁enough	-6.92526
▁might	-6.93168
▁hi	-6.93244
▁lot	-6.93651
▁try	-6.93709
er	-6.93825
▁car	-6.93997
▁kind	-6.94126
▁isnt	-6.94142
▁huh	-6.94143
▁mom	-6.94468
▁stay	-6.94479
▁leave	-6.95132
▁care	-6.95853
▁place	-6.96196
▁done	-6.96898
▁listen	-6.96975
▁morning	-6.99725
▁girl	-7.00668
▁ta	-7.02091
▁best	-7.02639
▁bad	-7.0283
▁mind	-7.03164
▁thanks	-7.03174
▁wrong	-7.03822
▁another	-7.04422
▁baby	-7.05378
▁left	-7.05937
▁weve	-7.06242
▁getting	-7.0695
▁wanted	-7.07603
▁house	-7.08197
▁understand	-7.08906
▁show	-7.08989
▁mother	-7.09305
▁came	-7.09351
▁son	-7.10341
▁ready	-7.11044
▁next	-7.11267
▁today	-7.1289
▁hope	-7.13162
▁ah	-7.13213
▁play	-7.13707
▁matter	-7.13925
▁else	-7.14876
▁wan	-7.14911
▁door	-7.16664
▁move	-7.16805
▁talking	-7.1834
▁happened	-7.18771
▁run	-7.18859
▁seen	-7.19619
▁many	-7.2004
▁kids	-7.20782
▁real	-7.20822
▁ask	-7.21556
▁friend	-7.22513
▁head	-7.22584
▁together	-7.22865
▁idea	-7.23213
▁found	-7.23937
▁live	-7.26531
▁trying	-7.2716
▁guess	-7.27682
▁went	-7.28062
▁miss	-7.28236
▁beautiful	-7.28314
▁without	-7.28442
▁men	-7.28991
▁havent	-7.2921
▁wouldnt	-7.29639
▁excuse	-7.30374
▁aint	-7.30764
▁use	-7.31009
▁um	-7.31147
▁whole	-7.31158
▁jack	-7.31528
▁woman	-7.31951
in	-7.32017
▁whoa	-7.32752
▁start	-7.3327
▁happy	-7.33541
▁wasnt	-7.33944
▁boys	-7.33953
▁tonight	-7.34756
▁hand	-7.34789
▁mrs	-7.35501
l	-7.3551
a	-7.35828
▁family	-7.35985
▁everybody	-7.36007
▁saw	-7.36814
▁looking	-7.36973
▁someone	-7.37648
▁guy	-7.37665
▁young	-7.37923
▁four	-7.38049
▁yet	-7.38085
▁friends	-7.38329
▁wish	-7.38436
▁meet	-7.38473
▁minute	-7.38525
▁heard	-7.38837
▁tomorrow	-7.38914
▁says	-7.39357
▁town	-7.39459
▁knew	-7.39767
▁hard	-7.39953
▁sit	-7.39969
▁bring	-7.40331
▁dead	-7.40935
▁gone	-7.41455
▁forget	-7.41923
r	-7.41954
▁couldnt	-7.42411
▁playing	-7.42513
▁kill	-7.42818
▁ok	-7.43269
▁true	-7.43698
▁turn	-7.43714
▁job	-7.44332
▁pretty	-7.44593
▁lost	-7.44597
▁horse	-7.44717
▁school	-7.44802
▁end	-7.4561
▁bit	-7.45745
▁whos	-7.46231
▁laughing	-7.46533
▁looks	-7.46714
▁alone	-7.47331
▁watch	-7.47954
▁water	-7.48548
▁days	-7.48705
t	-7.48977
▁used	-7.49079
▁far	-7.49422
▁cause	-7.49451
es	-7.50095
▁easy	-7.5014
▁pay	-7.50145
▁already	-7.52055
▁part	-7.52061
▁lady	-7.5207
▁eat	-7.52487
▁dear	-7.52516
o	-7.5344
▁business	-7.53519
▁since	-7.53996
▁actually	-7.54019
▁soon	-7.54418
▁youd	-7.54526
▁ha	-7.54841
▁girls	-7.54872
▁everyone	-7.56041
▁em	-7.56686
▁ago	-7.57018
▁worry	-7.58103
▁fight	-7.58526
▁shall	-7.58556
▁open	-7.58769
▁change	-7.5879
▁war	-7.59065
▁called	-7.59438
▁read	-7.6
▁kid	-7.60038
▁took	-7.6012
▁wife	-7.60124
▁mine	-7.60672
▁damn	-7.60851
▁year	-7.61102
▁president	-7.61133
▁five	-7.62178
▁somebody	-7.62213
▁word	-7.62458
▁problem	-7.62737
▁dog	-7.62756
▁team	-7.62758
▁later	-7.62846
▁moment	-7.63848
▁fire	-7.6422
▁late	-7.64275
▁brother	-7.64955
▁number	-7.64971
▁room	-7.65012
▁face	-7.65166
▁chance	-7.65539
▁eyes	-7.65755
▁stuff	-7.66632
▁heart	-7.67039
▁free	-7.67162
▁second	-7.67228
▁group	-7.67272
▁least	-7.67754
▁crazy	-7.67757
▁laughs	-7.67783
▁wants	-7.68319
▁probably	-7.68322
▁important	-7.68893
▁exactly	-7.68903
▁side	-7.68987
▁hurt	-7.6908
▁country	-7.69471
▁saying	-7.69777
▁honey	-7.70046
▁white	-7.70048
i	-7.70898
▁wheres	-7.71083
▁whatever	-7.71212
▁wow	-7.71216
▁daddy	-7.71227
▁sighs	-7.71906
▁party	-7.71995
▁cut	-7.72511
▁drink	-7.72622
▁anyone	-7.73586
▁win	-7.73737
▁hit	-7.73781
▁comes	-7.7397
▁screaming	-7.74252
n	-7.74638
▁anyway	-7.74794
▁captain	-7.74796
▁ball	-7.74993
▁nobody	-7.75589
▁point	-7.75885
▁rest	-7.76176
▁close	-7.76253
▁un	-7.76923
▁high	-7.77107
▁arent	-7.77257
▁stand	-7.77607
▁minutes	-7.7784
▁doctor	-7.78124
▁phone	-7.782
▁die	-7.78501
▁along	-7.79145
al	-7.79411
▁break	-7.79605
▁also	-7.79783
▁week	-7.80037
▁afraid	-7.80421
▁killed	-7.80875
▁fun	-7.81516
▁check	-7.81599
▁children	-7.82376
ur	-7.82823
▁quite	-7.83738
▁book	-7.84292
▁welcome	-7.84357
▁ahead	-7.84358
▁taking	-7.84372
▁walk	-7.8447
▁alright	-7.85029
▁bet	-7.85052
▁supposed	-7.85178
▁thinking	-7.85439
▁makes	-7.85569
▁heh	-7.85708
▁full	-7.8577
▁line	-7.85887
▁sleep	-7.8619
▁six	-7.86365
▁hands	-7.86429
▁set	-7.86761
▁half	-7.87044
▁gentlemen	-7.87069
▁different	-7.87072
▁chuckles	-7.87144
▁light	-7.87384
▁hmm	-7.87737
▁child	-7.87752
▁dr	-7.88027
▁hate	-7.88036
▁happen	-7.88049
on	-7.88157
▁anybody	-7.88452
▁ladies	-7.88454
▁ya	-7.88527
▁working	-7.88633
▁trouble	-7.88671
▁anymore	-7.89151
▁send	-7.89408
▁save	-7.89645
▁dave	-7.89683
▁speak	-7.89744
▁gave	-7.89858
▁making	-7.89865
▁hurry	-7.90565
▁red	-7.90735
▁gun	-7.91036
▁times	-7.91057
▁either	-7.91279
▁nick	-7.91798
▁dinner	-7.918
▁almost	-7.91998
▁mama	-7.92534
▁andrew	-7.92723
▁france	-7.92723
▁shut	-7.92725
▁seems	-7.93084
▁goes	-7.93239
▁story	-7.93455
▁married	-7.93477
▁luck	-7.94038
▁asked	-7.94831
▁behind	-7.94929
▁funny	-7.94934
▁deal	-7.95237
▁game	-7.95526
▁buy	-7.95922
▁worth	-7.96259
▁brought	-7.96427
▁running	-7.96436
▁clear	-7.96922
▁de	-7.97416
h	-7.97604
▁ooh	-7.97948
▁wonderful	-7.98026
▁lose	-7.9867
▁dan	-7.99263
▁perfect	-7.99346
▁applause	-7.99492
▁dream	-7.99788
▁speaking	-7.99978
▁theyll	-8.00274
▁though	-8.00307
▁fact	-8.00584
▁cal	-8.00801
▁waiting	-8.01018
▁cool	-8.0106
▁stupid	-8.01063
▁hot	-8.01854
▁able	-8.02157
▁lm	-8.02228
▁case	-8.02458
▁inside	-8.02656
▁scared	-8.02735
est	-8.03014
▁shot	-8.03425
▁heres	-8.03557
▁king	-8.03614
▁power	-8.04329
▁ow	-8.04728
▁john	-8.04904
▁itll	-8.05095
▁met	-8.05649
▁air	-8.05852
▁special	-8.06736
▁professor	-8.06754
p	-8.06775
ic	-8.0723
▁careful	-8.07527
▁truth	-8.07594
▁food	-8.07631
▁death	-8.07632
▁sam	-8.07654
▁sing	-8.08345
▁george	-8.08441
▁sort	-8.08474
▁follow	-8.08536
▁pick	-8.08953
▁black	-8.09296
▁news	-8.09309
▁means	-8.09492
▁office	-8.10088
▁alive	-8.1017
▁sometimes	-8.10476
▁bye	-8.11032
▁al	-8.11398
▁police	-8.12761
▁city	-8.12801
▁law	-8.12847
▁land	-8.13156
▁write	-8.13657
▁sergeant	-8.13683
▁fault	-8.13683
▁lucy	-8.13702
▁cheering	-8.13765
▁la	-8.1382
▁train	-8.13833
▁wind	-8.15084
▁knows	-8.15144
▁perhaps	-8.15493
▁lord	-8.15655
▁shouldnt	-8.1641
▁lives	-8.16798
▁shoot	-8.17036
▁billy	-8.1749
▁human	-8.17521
▁straight	-8.18245
▁tried	-8.18315
▁glad	-8.18357
▁princess	-8.18363
ers	-8.19127
▁leaving	-8.19215
▁sarah	-8.1922
▁club	-8.19445
▁bed	-8.1984
▁hours	-8.19903
▁started	-8.19955
▁order	-8.19961
▁dark	-8.20099
▁front	-8.20173
▁promise	-8.20195
▁feeling	-8.20248
▁parents	-8.20259
g	-8.20519
▁sound	-8.20595
▁french	-8.20682
▁blood	-8.20969
▁quiet	-8.21002
▁gold	-8.21063
▁couple	-8.21129
▁ride	-8.21192
▁wed	-8.21331
▁th	-8.2139
▁become	-8.21395
▁question	-8.21423
▁hour	-8.21426
▁papa	-8.21498
▁drop	-8.22147
▁months	-8.22277
▁reason	-8.22368
▁secret	-8.22383
▁rock	-8.22821
▁suppose	-8.22872
▁answer	-8.23038
▁poor	-8.23084
▁till	-8.23085
▁cold	-8.23095
man	-8.2317
▁touch	-8.23258
▁sister	-8.23385
ie	-8.23409
▁sign	-8.23477
▁telling	-8.23764
▁j	-8.23844
▁safe	-8.23884
▁mad	-8.23991
▁aah	-8.24104
▁died	-8.24498
▁sounds	-8.24804
▁bob	-8.25272
▁re	-8.25915
▁uncle	-8.26064
▁hows	-8.2621
▁person	-8.2641
▁g	-8.26788
▁proud	-8.271
▁sweet	-8.27359
▁engine	-8.27382
▁giant	-8.27488
▁catch	-8.27522
▁peter	-8.27534
▁hang	-8.27638
▁trust	-8.27785
▁others	-8.28131
▁pull	-8.28323
m	-8.28479
▁coach	-8.28717
▁sun	-8.28996
▁needs	-8.29008
▁body	-8.29178
▁beat	-8.29185
▁plan	-8.29245
▁bell	-8.29294
▁ringing	-8.29372
▁voice	-8.29594
▁bill	-8.30003
c	-8.30058
▁fear	-8.30214
en	-8.30603
▁blue	-8.30665
▁wake	-8.30671
▁woods	-8.30886
▁p	-8.31469
▁wonder	-8.31496
▁earth	-8.32231
▁small	-8.32262
▁past	-8.32263
▁outside	-8.32352
▁goodbye	-8.32364
▁henry	-8.32365
▁living	-8.32369
▁absolutely	-8.32375
able	-8.32811
▁master	-8.32819
▁step	-8.3286
▁street	-8.32861
▁s	-8.32895
▁throw	-8.3307
▁evening	-8.33243
▁fast	-8.33322
▁strong	-8.33325
▁bo	-8.34115
▁ten	-8.34239
▁slow	-8.34431
▁grunting	-8.34567
dramatic	-8.34687
▁women	-8.35087
▁sense	-8.35088
▁husband	-8.35094
▁star	-8.35536
▁maddy	-8.35667
▁join	-8.36292
▁taken	-8.36313
▁known	-8.36447
▁crowd	-8.36465
▁certain	-8.36661
▁whoo	-8.36677
▁continues	-8.36691
▁theyve	-8.36785
▁radio	-8.36788
▁darling	-8.3679
▁top	-8.36814
▁words	-8.36887
▁learn	-8.37156
▁hair	-8.37391
▁horses	-8.37566
▁sick	-8.3781
▁middle	-8.37914
▁moving	-8.37933
▁david	-8.37967
▁bear	-8.3801
▁ahh	-8.3805
▁chattering	-8.38101
▁seven	-8.39083
▁lead	-8.39113
▁eye	-8.3972
▁m	-8.39979
▁champ	-8.40189
▁rather	-8.40234
▁chief	-8.40272
▁lovely	-8.40313
▁fall	-8.40434
▁c	-8.40501
▁dance	-8.40603
▁seem	-8.4065
▁weeks	-8.40937
nous	-8.40971
▁short	-8.41185
▁drive	-8.41202
▁english	-8.41382
▁control	-8.41406
▁picture	-8.42117
▁feet	-8.4261
▁meeting	-8.42652
or	-8.42794
▁lie	-8.43075
▁class	-8.43239
▁worked	-8.43305
▁quick	-8.43682
▁ones	-8.43713
▁omi	-8.43795
▁samurai	-8.43805
▁annie	-8.43811
▁hed	-8.44036
▁changed	-8.44304
▁choice	-8.44547
▁road	-8.44556
▁american	-8.44624
▁ed	-8.44757
▁entire	-8.44898
▁wedding	-8.45027
▁yelling	-8.45132
ies	-8.45198
▁lts	-8.45201
▁calm	-8.45424
▁finish	-8.4547
▁expect	-8.45496
▁be	-8.46019
▁handle	-8.46101
▁serious	-8.46135
▁future	-8.46259
▁pleasure	-8.46259
▁worse	-8.46259
▁boat	-8.47096
▁in	-8.4729
▁realize	-8.47305
▁felt	-8.47467
▁forever	-8.4751
▁maam	-8.47512
▁x	-8.477
▁longer	-8.481
▁turned	-8.48414
▁sent	-8.48788
▁birds	-8.48792
▁roll	-8.49023
▁sell	-8.49626
▁mary	-8.49689
▁e	-8.50017
▁york	-8.50026
b	-8.50052
▁possible	-8.50057
▁lonely	-8.50064
ve	-8.50066
▁none	-8.50081
▁band	-8.50085
▁early	-8.50111
▁less	-8.50354
▁village	-8.50955
▁million	-8.50981
▁state	-8.51061
▁pa	-8.51196
▁language	-8.51356
▁finally	-8.51439
▁camp	-8.51851
▁pass	-8.51853
▁wear	-8.52229
▁carry	-8.52235
▁date	-8.52349
▁somewhere	-8.52672
▁maria	-8.52679
▁grunts	-8.52751
▁flowers	-8.53049
▁mess	-8.53523
ion	-8.53535
▁spend	-8.53551
▁piece	-8.53707
▁charlie	-8.54005
▁buddy	-8.54006
▁tough	-8.54027
▁busy	-8.54077
▁present	-8.54529
▁figure	-8.54813
▁gets	-8.55007
▁werent	-8.55356
▁aron	-8.55365
▁ice	-8.55415
▁completely	-8.55419
▁r	-8.55557
ll	-8.55617
▁lucky	-8.55661
▁stick	-8.55708
▁saved	-8.5577
▁shh	-8.55785
ful	-8.55827
ure	-8.55861
▁b	-8.56162
▁field	-8.56502
▁loved	-8.56528
▁attention	-8.56726
▁lunch	-8.56726
▁paris	-8.5673
▁born	-8.56811
ry	-8.57063
▁miles	-8.57189
▁clean	-8.57201
▁given	-8.57241
le	-8.57506
▁wine	-8.57773
▁base	-8.57918
▁near	-8.57998
▁hearts	-8.58093
▁afternoon	-8.58115
ous	-8.58253
▁happens	-8.5867
▁america	-8.5916
▁fool	-8.59181
▁month	-8.59283
▁glass	-8.59465
▁eight	-8.5949
▁forgot	-8.5952
▁across	-8.59524
▁shell	-8.59529
▁w	-8.59572
▁f	-8.59631
▁cat	-8.5969
▁finished	-8.59884
▁missed	-8.60693
▁daughter	-8.60701
▁imagine	-8.6073
▁coffee	-8.60952
▁round	-8.60955
▁shit	-8.60961
▁wild	-8.60977
▁unless	-8.60988
▁kiss	-8.61161
▁report	-8.61241
▁trip	-8.61385
▁fix	-8.61622
w	-8.61791
▁martin	-8.62355
▁murray	-8.62403
▁giving	-8.62403
▁hungry	-8.62405
▁decided	-8.62516
▁certainly	-8.62561
▁dreams	-8.62595
ation	-8.62598
▁calling	-8.62932
▁bank	-8.6306
▁pal	-8.63089
▁meant	-8.63128
▁singing	-8.63165
▁fair	-8.63554
▁st	-8.63564
▁smart	-8.63796
▁song	-8.63797
▁forgive	-8.63808
▁government	-8.63873
▁kate	-8.63881
▁hallie	-8.63894
▁lay	-8.63907
▁a	-8.64223
▁takes	-8.64375
▁service	-8.65126
▁mountain	-8.65187
▁tea	-8.6522
▁hero	-8.65278
▁except	-8.65294
▁rain	-8.65374
▁moon	-8.65378
▁paid	-8.6538
▁mister	-8.65381
▁gasps	-8.65484
▁return	-8.65879
▁german	-8.66562
▁brand	-8.66699
▁frank	-8.66744
▁summer	-8.6687
▁company	-8.66879
▁amazing	-8.6688
▁price	-8.66882
▁kidding	-8.66882
▁lt	-8.67115
▁beans	-8.67601
▁test	-8.67836
▁deep	-8.68015
▁respect	-8.68093
▁fly	-8.68166
▁foot	-8.68299
▁played	-8.68327
▁guitar	-8.68405
▁quixote	-8.68418
▁race	-8.68424
▁simple	-8.68425
▁chirping	-8.68442
▁shouting	-8.6845
▁dex	-8.68454
▁self	-8.68457
▁jay	-8.6846
▁per	-8.69138
▁act	-8.69186
▁marry	-8.69526
▁brazil	-8.69967
▁pete	-8.69969
▁invincible	-8.6998
▁botat	-8.69982
▁jewish	-8.69986
▁sad	-8.70021
▁groans	-8.70076
▁eh	-8.701
▁court	-8.70235
▁crying	-8.70251
▁asking	-8.70343
▁push	-8.70541
▁laugh	-8.7071
▁shoes	-8.70778
▁happening	-8.70983
▁blow	-8.71051
▁suit	-8.71164
▁mum	-8.71247
▁saturday	-8.71429
▁doubt	-8.71568
▁majesty	-8.71568
▁history	-8.71568
▁terrible	-8.71568
▁south	-8.71568
▁honor	-8.71577
▁cow	-8.71577
▁ii	-8.71585
▁west	-8.71603
▁age	-8.72069
ness	-8.7255
▁judge	-8.72875
▁needed	-8.72942
▁general	-8.73081
▁ought	-8.73153
▁birthday	-8.73181
▁bought	-8.73182
▁marshal	-8.73183
▁floor	-8.73184
re	-8.73616
▁dress	-8.74046
▁teach	-8.74189
ant	-8.74243
▁quit	-8.74692
▁strange	-8.74752
▁bird	-8.74798
▁bag	-8.74813
▁midnight	-8.7482
▁max	-8.7482
▁harry	-8.74823
▁tired	-8.74832
▁upon	-8.74833
▁plane	-8.74864
us	-8.7496
▁army	-8.7496
▁ass	-8.75097
▁besides	-8.75259
▁record	-8.75585
▁awful	-8.75827
▁cross	-8.76119
▁relax	-8.76156
▁difference	-8.76458
▁super	-8.7648
▁impossible	-8.76487
▁whether	-8.76487
▁linh	-8.76487
▁evil	-8.76494
▁louise	-8.76565
▁metal	-8.76574
▁tree	-8.76679
▁missing	-8.76752
▁pop	-8.76966
▁wearing	-8.77053
ar	-8.77211
▁count	-8.77223
▁lived	-8.77446
▁wing	-8.77463
▁questions	-8.77708
▁joke	-8.77898
▁surprise	-8.77969
▁joe	-8.77978
less	-8.7803
▁personal	-8.78112
▁anywhere	-8.78182
▁clouseau	-8.78182
▁yesterday	-8.78182
▁christmas	-8.78182
▁jesus	-8.78186
▁soul	-8.78209
▁thousand	-8.78223
▁bitch	-8.78253
▁pain	-8.78481
▁wall	-8.78594
▁hall	-8.78656
▁grow	-8.78821
▁explain	-8.7958
▁names	-8.79686
▁prince	-8.79897
▁church	-8.799
▁queen	-8.79903
▁nowhere	-8.79906
▁sweetheart	-8.79906
▁kept	-8.79907
▁tommy	-8.79908
▁machine	-8.79922
▁sonny	-8.7993
f	-8.80599
▁seeing	-8.80636
▁aw	-8.80637
▁looked	-8.80733
▁green	-8.81222
▁i	-8.81341
▁indistinct	-8.81535
▁legs	-8.81552
▁hospital	-8.8166
▁wolf	-8.8166
▁manolo	-8.8166
▁jenny	-8.8166
▁instead	-8.81661
▁caught	-8.81662
▁dangerous	-8.81672
▁hide	-8.81732
▁nose	-8.81737
▁animal	-8.81754
▁folks	-8.82009
▁san	-8.82057
▁leg	-8.82148
▁works	-8.82154
▁trail	-8.82804
▁arm	-8.83071
▁magic	-8.8308
st	-8.8317
▁arms	-8.83234
▁cup	-8.83445
▁especially	-8.83446
▁situation	-8.83446
▁colonel	-8.8345
▁kelly	-8.8345
▁mouth	-8.83465
▁sitting	-8.83487
▁totally	-8.835
▁roaring	-8.83515
▁idiot	-8.83542
▁area	-8.83548
▁begin	-8.83572
▁problems	-8.83588
▁lf	-8.83639
▁lll	-8.837
▁bar	-8.83851
▁training	-8.84332
▁cook	-8.84436
▁walking	-8.84644
▁fish	-8.84784
▁search	-8.84818
came	-8.84863
▁taste	-8.8504
▁low	-8.85166
▁ernest	-8.85209
▁continue	-8.85217
▁heaven	-8.8526
▁kevin	-8.85264
▁extra	-8.85265
▁ryan	-8.85265
▁chuckling	-8.85265
▁favorite	-8.85265
▁forward	-8.85266
▁beginning	-8.85267
▁daniel	-8.85283
▁christ	-8.85389
▁dogs	-8.85403
▁learned	-8.85772
▁public	-8.87101
▁major	-8.87101
▁thunder	-8.87116
▁often	-8.87116
▁dying	-8.87117
▁rumbling	-8.87118
▁sunshine	-8.8712
▁groaning	-8.87145
▁sky	-8.87194
▁station	-8.87281
▁store	-8.87286
▁brooks	-8.87293
▁interesting	-8.87348
▁gas	-8.874
▁promised	-8.87534
▁peppers	-8.87613
▁grant	-8.88694
▁fighting	-8.88734
▁bunch	-8.89003
▁strike	-8.89003
▁within	-8.89006
▁third	-8.89007
▁winter	-8.89032
▁tom	-8.89049
▁sight	-8.89057
▁united	-8.89112
▁driver	-8.89188
▁quickly	-8.89197
▁starting	-8.89198
▁shed	-8.89218
▁charge	-8.89239
▁brave	-8.89354
▁north	-8.89384
is	-8.89457
ch	-8.89505
▁reed	-8.89592
▁enjoy	-8.90124
▁truck	-8.9047
▁agree	-8.90668
▁h	-8.90722
▁tj	-8.90791
▁soft	-8.90805
▁ground	-8.90818
▁watching	-8.90829
▁worried	-8.90926
▁milk	-8.90927
▁final	-8.90929
▁derice	-8.90929
▁clothes	-8.9093
▁football	-8.9093
▁mmhmm	-8.90932
▁dirty	-8.90959
▁mark	-8.911
▁ho	-8.91123
▁hal	-8.91191
▁bloody	-8.91251
▁mm	-8.91257
▁teacher	-8.91295
▁anne	-8.91301
▁letter	-8.91359
▁guns	-8.91552
▁ohh	-8.92281
▁knock	-8.92345
▁tapes	-8.9238
▁smell	-8.92492
ity	-8.92526
▁box	-8.92705
v	-8.92717
▁witch	-8.92824
▁darryl	-8.92887
▁uhhuh	-8.92887
▁dumb	-8.92889
▁definitely	-8.92899
▁emma	-8.92901
▁single	-8.92942
▁faster	-8.93062
▁appreciate	-8.9307
▁brain	-8.93159
▁window	-8.9317
▁movie	-8.93191
▁player	-8.93765
ment	-8.93891
▁following	-8.9392
▁park	-8.93932
▁cover	-8.93951
▁rid	-8.94
▁listening	-8.94039
▁match	-8.94105
▁allow	-8.94598
▁practice	-8.94645
▁double	-8.94651
▁weird	-8.94733
▁accident	-8.94876
▁lieutenant	-8.94886
▁island	-8.94888
▁dico	-8.94892
▁tense	-8.94906
▁eric	-8.94909
▁national	-8.9491
▁nine	-8.94911
▁path	-8.94918
▁tires	-8.94938
▁k	-8.95058
▁ron	-8.95083
▁position	-8.95143
▁mistake	-8.95179
▁greatest	-8.95259
▁talked	-8.96029
▁jump	-8.96135
out	-8.96183
▁post	-8.96362
▁grab	-8.9655
▁honest	-8.96635
▁tight	-8.96791
▁simon	-8.96803
▁fathers	-8.96859
▁boss	-8.96919
▁neither	-8.96927
▁sheriff	-8.96927
▁nature	-8.96928
▁inspector	-8.96928
▁worst	-8.96928
▁system	-8.96932
▁hans	-8.9694
▁brothers	-8.96948
▁bottle	-8.96949
▁tv	-8.96958
▁belong	-8.96988
▁dare	-8.97132
▁sake	-8.97221
▁figured	-8.97263
▁message	-8.97295
▁force	-8.97353
▁flying	-8.97521
▁visit	-8.98201
▁staying	-8.98209
▁study	-8.98564
▁normal	-8.989
▁axel	-8.99011
▁claude	-8.99011
▁congratulations	-8.99011
▁goddamn	-8.99011
▁hyah	-8.99011
▁swear	-8.99012
▁pardon	-8.99016
▁everywhere	-8.99018
▁laughter	-8.99023
▁throat	-8.99041
▁board	-8.99077
▁stormy	-8.99111
▁garden	-8.99114
▁mmm	-8.99168
▁mayor	-8.99234
▁monster	-8.9941
▁battle	-8.99455
▁action	-8.99462
▁paper	-8.99493
▁officer	-8.99555
▁bones	-8.99571
ive	-8.99579
▁wondering	-8.99884
▁card	-9.00028
▁protect	-9.00302
▁calls	-9.00315
▁standing	-9.00506
▁build	-9.00691
▁attack	-9.00816
▁ran	-9.00847
▁named	-9.00916
▁east	-9.01011
▁peace	-9.01119
▁royal	-9.01125
▁fred	-9.01137
▁trees	-9.01138
▁vietnamese	-9.01138
▁hadnt	-9.01138
▁frosty	-9.01164
▁fairy	-9.01375
▁fell	-9.01469
▁camera	-9.01577
▁elephant	-9.01577
▁horn	-9.01599
▁key	-9.01631
▁cost	-9.01803
▁indian	-9.01869
an	-9.02017
▁pray	-9.0238
▁where	-9.02507
z	-9.02568
ian	-9.026
▁offer	-9.03035
▁burn	-9.03146
▁kitchen	-9.03312
▁twice	-9.03312
▁upset	-9.03313
▁hasnt	-9.03313
▁taught	-9.03313
▁driving	-9.03316
▁department	-9.03316
▁yep	-9.03319
▁danny	-9.03325
▁gentleman	-9.03333
▁writing	-9.03352
▁dean	-9.03372
▁interested	-9.03506
▁couldve	-9.03791
▁medal	-9.03811
▁form	-9.04062
▁over	-9.04094
up	-9.04159
▁lights	-9.0422
▁homer	-9.0444
▁reach	-9.04662
▁kick	-9.05184
▁accept	-9.05216
▁arrest	-9.05217
▁owe	-9.05254
▁whose	-9.05368
▁bright	-9.05439
▁list	-9.05454
▁admit	-9.05528
▁jordan	-9.05534
▁glauben	-9.05535
▁indeed	-9.05535
▁van	-9.05535
▁jail	-9.05537
▁stuck	-9.05538
▁allyson	-9.05539
▁sold	-9.05557
▁nurse	-9.05571
▁joy	-9.05609
▁madame	-9.05624
▁losing	-9.05636
▁clicks	-9.05709
▁seriously	-9.05759
▁germans	-9.05764
▁rich	-9.05793
▁broke	-9.05925
▁spirit	-9.0603
▁scene	-9.06055
▁ghost	-9.06056
▁states	-9.06185
▁dollars	-9.0625
▁building	-9.06526
▁books	-9.06651
▁foreign	-9.06856
▁tape	-9.07221
▁breathe	-9.0735
▁butt	-9.07581
▁using	-9.07582
▁revolution	-9.07714
▁paul	-9.07718
▁freedom	-9.07807
▁heavy	-9.07807
▁breakfast	-9.07808
▁wilson	-9.07809
▁address	-9.0781
▁stopped	-9.07843
▁hank	-9.07876
▁film	-9.07937
▁account	-9.08261
▁seat	-9.08333
▁studio	-9.08345
▁table	-9.08458
▁ring	-9.0902
it	-9.09201
▁rules	-9.09212
▁pro	-9.09447
▁consider	-9.09817
▁difficult	-9.09959
▁russia	-9.10087
▁bread	-9.10133
▁california	-9.10133
▁joaquin	-9.10133
▁nervous	-9.10133
▁pecos	-9.10133
▁beauty	-9.10134
▁abby	-9.10135
▁sanka	-9.10136
▁chocolate	-9.10138
▁pants	-9.10142
▁willing	-9.10172
▁broken	-9.10263
▁bang	-9.1051
▁art	-9.10635
▁games	-9.1067
▁yo	-9.10732
▁track	-9.10809
▁moved	-9.1162
▁lift	-9.11703
▁loud	-9.12293
▁eating	-9.12358
▁sea	-9.12497
▁leo	-9.12502
▁alvin	-9.12514
▁boddy	-9.12514
▁jeanclaude	-9.12514
▁london	-9.12514
▁someday	-9.12514
▁truly	-9.12514
▁choose	-9.12514
▁friday	-9.12514
▁space	-9.12522
▁risk	-9.12522
▁bobby	-9.12527
▁james	-9.12535
▁screeching	-9.12541
▁hotel	-9.12564
k	-9.12776
▁student	-9.13264
▁score	-9.13431
▁hat	-9.14386
▁treat	-9.14626
▁waste	-9.14732
▁pack	-9.14916
▁beyond	-9.14953
▁journey	-9.14953
▁sheep	-9.14953
▁teeth	-9.14954
▁patty	-9.14954
▁outta	-9.14956
▁view	-9.14977
▁instrumental	-9.1498
▁t	-9.14982
▁center	-9.14986
▁immediately	-9.15003
▁bay	-9.15029
▁putting	-9.15116
▁so	-9.1514
▁oil	-9.15236
te	-9.15512
▁beer	-9.1587
▁streets	-9.16294
▁gang	-9.16462
▁d	-9.16872
▁faith	-9.17165
▁favor	-9.17452
▁strength	-9.17453
▁ugh	-9.17453
▁bamboo	-9.17453
▁rough	-9.17454
▁ethan	-9.17454
▁committee	-9.17454
▁prove	-9.17458
▁baseball	-9.17459
▁thatll	-9.17463
▁jim	-9.17463
▁mommy	-9.17471
▁lying	-9.17488
▁suddenly	-9.17514
▁involved	-9.17518
▁warm	-9.1759
▁closer	-9.17698
▁riding	-9.18017
no	-9.18133
▁dude	-9.18212
▁decision	-9.18302
▁stars	-9.18696
▁lies	-9.18879
▁o	-9.1936
▁cry	-9.19606
▁lock	-9.1985
▁louis	-9.19898
▁bridge	-9.19902
▁everythings	-9.1993
▁ancient	-9.20017
▁awesome	-9.20017
▁dartagnan	-9.20017
▁dooyoung	-9.20017
▁duggal	-9.20017
▁empty	-9.20017
▁jacob	-9.20017
▁miep	-9.20017
▁opinion	-9.20017
▁orchestra	-9.20017
▁upstairs	-9.20017
▁angry	-9.20018
▁information	-9.20022
▁drunk	-9.20023
▁size	-9.2003
▁season	-9.20032
▁amy	-9.20037
▁announcer	-9.20037
▁famous	-9.20045
▁gage	-9.20056
▁tall	-9.20075
▁scoffs	-9.20085
▁yall	-9.20116
▁main	-9.2013
▁nearly	-9.20248
▁ned	-9.20479
▁ruin	-9.20534
▁blame	-9.20603
▁farm	-9.20732
x	-9.20873
▁snake	-9.20949
co	-9.21379
▁wave	-9.21629
▁steal	-9.22194
▁travel	-9.2227
▁complete	-9.22283
▁appear	-9.22314
ce	-9.22393
▁raise	-9.22433
▁animals	-9.22512
▁loose	-9.2255
▁college	-9.22648
▁wrote	-9.22648
▁marriage	-9.2265
▁governor	-9.22653
▁fresh	-9.22655
▁spread	-9.22665
▁dig	-9.22682
▁grand	-9.2271
▁vote	-9.23034
▁boots	-9.23073
▁growing	-9.23336
▁press	-9.23403
▁pounds	-9.235
▁tower	-9.23547
▁closed	-9.23585
▁lawyer	-9.23619
▁donkey	-9.23623
▁chicken	-9.23633
▁guard	-9.23657
▁remind	-9.23669
▁ears	-9.23686
▁wood	-9.23747
▁liked	-9.23982
▁snakes	-9.24378
▁hunt	-9.24701
▁blind	-9.25004
▁bobsled	-9.25092
ra	-9.25124
▁computer	-9.25175
▁prison	-9.2522
▁howd	-9.25231
▁grace	-9.25336
▁yellow	-9.2535
▁example	-9.25351
▁excellent	-9.25351
▁kingdom	-9.25351
▁pikachu	-9.25351
▁plenty	-9.25351
▁cash	-9.25352
▁anabel	-9.25352
▁simply	-9.25358
▁daniella	-9.2536
▁obviously	-9.25401
▁squealing	-9.2542
▁bother	-9.25536
ter	-9.25565
ist	-9.25597
▁gotten	-9.25599
▁mountains	-9.25676
▁mothers	-9.25782
ally	-9.26081
▁deserve	-9.26158
▁loves	-9.26247
▁sunday	-9.26406
▁bears	-9.26622
▁rule	-9.26813
▁heads	-9.26841
▁goal	-9.26924
▁ca	-9.27015
▁holding	-9.27193
▁spot	-9.27436
▁steve	-9.27606
▁chatter	-9.27699
▁destroy	-9.27812
▁jamaica	-9.28079
▁contact	-9.28129
▁eddie	-9.28129
▁however	-9.28129
▁thudding	-9.28129
▁river	-9.2813
▁coat	-9.28136
▁planning	-9.28143
▁neck	-9.28149
▁weight	-9.2815
▁charles	-9.28154
▁danger	-9.28177
▁sean	-9.28205
▁babe	-9.28216
▁arrived	-9.28231
▁ash	-9.28232
▁holy	-9.28309
▁helping	-9.28351
ling	-9.28441
▁lee	-9.28573
▁musicians	-9.28641
▁sooner	-9.2868
▁towards	-9.28737
▁hardly	-9.28946
▁fellas	-9.28949
um	-9.29255
▁explosion	-9.29269
▁keeping	-9.29289
▁hanging	-9.29353
▁walked	-9.29459
ne	-9.29667
▁lion	-9.29749
▁dads	-9.30251
▁orders	-9.30256
▁keys	-9.30348
▁cute	-9.30455
▁ben	-9.30586
▁con	-9.30623
▁hooh	-9.30641
▁smoke	-9.30734
▁corn	-9.3075
▁decide	-9.30794
▁ko	-9.30938
▁gentle	-9.30958
▁cheese	-9.30986
▁zarkorr	-9.30986
▁asleep	-9.30986
▁emergency	-9.30986
▁military	-9.30987
▁stanley	-9.30987
▁operation	-9.30989
▁slappy	-9.30999
▁winning	-9.31
▁written	-9.31005
▁flat	-9.31032
▁jet	-9.31197
▁introduce	-9.31223
▁crap	-9.3133
ting	-9.31426
▁allowed	-9.31441
▁perfectly	-9.3145
▁knocking	-9.31639
th	-9.31731
▁wouldve	-9.3175
▁seemed	-9.3177
▁speaks	-9.32011
▁swan	-9.32107
▁smile	-9.32163
▁gunshot	-9.32196
ul	-9.32221
▁russian	-9.32258
son	-9.3226
▁er	-9.3244
▁breath	-9.32854
▁breaking	-9.33014
▁feels	-9.33301
▁refuse	-9.33709
▁notice	-9.3371
▁particular	-9.33801
▁correct	-9.33807
▁large	-9.33845
▁wand	-9.33909
▁courage	-9.33914
▁kathy	-9.33927
▁medicine	-9.33927
▁whistling	-9.33927
▁competition	-9.33927
▁afford	-9.33928
▁justice	-9.33928
▁ridiculous	-9.33928
▁buttermaker	-9.33928
▁grandpa	-9.33928
▁cancer	-9.33929
▁style	-9.33929
▁shark	-9.33929
▁clapping	-9.33934
▁forgotten	-9.33935
▁valley	-9.3395
▁abra	-9.3395
▁incredible	-9.33954
▁rise	-9.3398
▁highness	-9.34007
▁kings	-9.34109
▁bat	-9.34119
▁feed	-9.34127
▁hearing	-9.34138
▁ma	-9.34338
▁dry	-9.3455
▁nicky	-9.34601
▁expected	-9.34692
▁bus	-9.34817
▁younger	-9.34933
▁followed	-9.35036
▁apartment	-9.35151
▁fruit	-9.35222
▁bastard	-9.3523
▁fellow	-9.35231
▁hundred	-9.35257
▁fingers	-9.35296
se	-9.35594
▁buying	-9.3571
▁note	-9.35804
▁sleeping	-9.35883
▁shame	-9.35943
▁pok	-9.35979
▁discuss	-9.36138
▁fill	-9.36338
▁papers	-9.3635
ty	-9.36557
▁awake	-9.3665
▁experience	-9.36763
▁hm	-9.36847
▁bullshit	-9.36947
▁apologize	-9.36958
▁flicka	-9.36958
▁humming	-9.36958
▁innocent	-9.36958
▁fantastic	-9.36958
▁possibly	-9.36958
▁theyd	-9.36958
▁copperfield	-9.36958
▁rainbow	-9.36958
▁minister	-9.36959
▁several	-9.3696
▁bravo	-9.3696
▁switch	-9.36965
▁winner	-9.3697
▁emily	-9.36972
▁spell	-9.36994
▁tiny	-9.36999
▁bigger	-9.36999
▁whatd	-9.37053
▁kim	-9.37198
▁locked	-9.37331
▁passed	-9.37698
▁who	-9.37699
▁gift	-9.38336
▁whistle	-9.38354
▁murder	-9.38514
▁co	-9.388
▁tim	-9.39003
▁rocks	-9.39126
el	-9.39131
nt	-9.39531
ance	-9.39787
▁mention	-9.39824
▁create	-9.39867
▁share	-9.39871
▁paying	-9.39875
▁madam	-9.3998
▁greg	-9.40013
▁stole	-9.40041
age	-9.4005
▁pie	-9.40065
▁dulcinea	-9.40083
▁gertrude	-9.40083
▁lebraque	-9.40083
▁private	-9.40083
▁security	-9.40083
▁necessary	-9.40083
▁washington	-9.40084
▁tour	-9.40084
▁whoever	-9.40084
▁split	-9.40086
▁roof	-9.40086
▁norman	-9.40086
▁dick	-9.40087
▁garret	-9.40088
▁steady	-9.40096
▁chair	-9.40104
mon	-9.40121
▁paddle	-9.40125
▁doin	-9.40141
▁speed	-9.40168
▁hiding	-9.40192
▁hoping	-9.40199
▁treasure	-9.40284
▁murderer	-9.40285
▁alarm	-9.40339
▁corner	-9.4036
▁agreed	-9.40437
▁siren	-9.40727
rs	-9.40781
▁picked	-9.41258
▁falling	-9.4129
▁angel	-9.414
▁rose	-9.4158
▁patient	-9.41583
▁older	-9.41585
▁defend	-9.41656
▁fit	-9.41661
▁sh	-9.41819
▁cars	-9.42084
▁giants	-9.42084
▁balls	-9.42385
▁thinks	-9.42449
▁draw	-9.42452
da	-9.42461
▁prefer	-9.42801
▁rent	-9.42954
▁beg	-9.43201
▁europe	-9.43256
▁scott	-9.43283
▁robert	-9.433
▁birth	-9.43307
▁bottom	-9.43308
▁british	-9.43308
▁davy	-9.43308
▁junior	-9.43308
▁pizza	-9.43308
▁revving	-9.43308
▁whirring	-9.43308
▁telephone	-9.43309
▁june	-9.43311
▁adam	-9.43311
▁common	-9.43313
▁energy	-9.43316
▁kite	-9.43331
▁market	-9.43333
▁pressure	-9.43334
▁records	-9.43336
▁male	-9.43343
▁familiar	-9.43344
▁huge	-9.43354
▁cave	-9.43357
▁mattie	-9.43408
▁planet	-9.43474
▁prepared	-9.43518
▁slowly	-9.43678
▁gods	-9.43907
▁realized	-9.43934
▁pre	-9.44465
▁cheers	-9.44477
▁shape	-9.44529
▁block	-9.44532
▁pictures	-9.44652
▁trick	-9.44674
▁contract	-9.4475
▁telegram	-9.4482
▁poole	-9.44827
▁lines	-9.44851
▁conversation	-9.44912
▁shoe	-9.44949
▁do	-9.45054
▁mis	-9.45367
▁turns	-9.4561
▁cap	-9.45721
▁rings	-9.45737
▁v	-9.45781
▁support	-9.4582
▁event	-9.46144
▁bull	-9.46234
▁dis	-9.46251
▁prepare	-9.46425
▁storm	-9.4648
▁superhero	-9.46577
▁di	-9.46591
▁harris	-9.46602
▁showed	-9.46614
▁aurora	-9.46642
▁cardinal	-9.46642
▁england	-9.46642
▁farooqi	-9.46642
▁knowledge	-9.46642
▁michael	-9.46642
▁somehow	-9.46642
▁threw	-9.46642
▁whenever	-9.46642
▁sanchez	-9.46643
▁aunt	-9.46646
▁grandfather	-9.4665
▁palace	-9.46652
▁silly	-9.4666
▁hook	-9.46671
▁code	-9.46696
▁pure	-9.46706
▁whispering	-9.46757
▁invited	-9.46778
though	-9.46877
▁starts	-9.46883
▁destroyed	-9.47024
▁nuts	-9.47143
▁dressed	-9.47296
▁fields	-9.47388
▁lately	-9.47415
▁screams	-9.48029
▁ham	-9.48325
▁due	-9.48348
eat	-9.48587
ta	-9.48636
at	-9.49155
▁goin	-9.49339
▁ranch	-9.49407
ish	-9.49418
▁surrender	-9.49746
▁seconds	-9.49847
▁shop	-9.50056
▁credit	-9.50085
▁advice	-9.5009
▁built	-9.5009
▁cahill	-9.5009
▁chinook	-9.5009
▁crime	-9.5009
▁sancho	-9.5009
▁weather	-9.5009
▁zeena	-9.5009
▁cantrell	-9.5009
▁constance	-9.5009
▁pride	-9.50091
▁doyle	-9.50091
▁guide	-9.50091
▁otto	-9.50092
▁piano	-9.50092
▁counselor	-9.50093
▁fought	-9.50094
▁panting	-9.50096
▁beach	-9.50099
▁held	-9.50101
▁pele	-9.50102
▁began	-9.50104
▁comin	-9.50106
▁irv	-9.50107
▁memory	-9.5012
▁plus	-9.50142
▁bringing	-9.50183
▁tillie	-9.50184
ng	-9.50449
ro	-9.50569
▁interest	-9.51156
▁pulled	-9.51161
▁goodness	-9.51238
▁expecting	-9.51366
▁fired	-9.515
▁tip	-9.51583
▁lips	-9.51613
▁serve	-9.51644
▁cape	-9.51675
▁saving	-9.51882
▁owner	-9.51914
▁ex	-9.5193
▁fort	-9.51947
▁comrade	-9.5195
ell	-9.51995
▁bean	-9.52009
▁hole	-9.52042
▁nation	-9.52349
▁bro	-9.52371
tain	-9.52378
▁pleased	-9.52646
▁closes	-9.53107
▁reading	-9.53114
▁opening	-9.53129
▁march	-9.53162
▁letters	-9.53177
▁hurts	-9.53205
▁plays	-9.53306
▁defeat	-9.5337
▁recognize	-9.53436
▁weak	-9.5346
▁escape	-9.53473
ton	-9.53518
▁official	-9.53534
▁natural	-9.53536
ah	-9.53597
▁believed	-9.53611
▁turning	-9.5363
▁project	-9.53633
to	-9.53659
▁gandhi	-9.53659
▁attorney	-9.53661
▁byebye	-9.53661
▁halloween	-9.53661
▁japanese	-9.53661
▁monsieur	-9.53661
▁proctor	-9.53661
▁reckon	-9.53661
▁terrific	-9.53661
▁theodore	-9.53661
▁video	-9.53661
▁yvette	-9.53661
▁perrin	-9.53661
▁physical	-9.53662
▁umney	-9.53662
▁silver	-9.53662
▁value	-9.53663
▁gail	-9.53664
▁jimmy	-9.53664
▁candy	-9.53665
▁kane	-9.53668
▁girlfriend	-9.5367
▁jealous	-9.5367
▁honking	-9.53673
▁killing	-9.53679
▁coughing	-9.53687
▁off	-9.53704
▁manager	-9.53719
▁clanging	-9.53719
il	-9.53721
▁ray	-9.5373
▁beeping	-9.53737
▁bridget	-9.53741
▁gasping	-9.53744
▁map	-9.53745
▁scary	-9.53775
▁received	-9.53837
▁le	-9.53885
et	-9.539
▁barking	-9.53901
▁indistinctly	-9.53918
ate	-9.53946
▁tie	-9.5397
▁letting	-9.53972
ho	-9.54025
ring	-9.54184
▁file	-9.54229
▁banging	-9.54348
▁medica	-9.5437
▁for	-9.5446
▁soldiers	-9.54765
▁skin	-9.55326
▁spoke	-9.5535
▁jean	-9.55547
▁pair	-9.55557
▁restaurant	-9.55565
▁cell	-9.55651
▁finger	-9.55662
▁stone	-9.55743
▁lesson	-9.55767
▁program	-9.55773
▁keeps	-9.55882
▁yard	-9.56201
▁killer	-9.56362
▁bite	-9.566
▁movies	-9.56797
▁laws	-9.56845
ii	-9.56849
▁repeat	-9.5689
▁climb	-9.56901
▁players	-9.57119
tion	-9.57135
▁cream	-9.57225
▁wise	-9.57314
▁dust	-9.5732
▁equal	-9.57351
▁flight	-9.57354
▁whip	-9.57363
▁holly	-9.57364
▁apparently	-9.57365
▁brilliant	-9.57365
▁kruger	-9.57365
▁purpose	-9.57365
▁stomach	-9.57365
▁szalinski	-9.57365
▁watergate	-9.57365
▁birkin	-9.57365
▁canterville	-9.57365
▁sweden	-9.57366
▁kitty	-9.57366
▁shouldve	-9.57366
▁local	-9.57367
▁whooshing	-9.57371
▁noble	-9.57374
▁walter	-9.57374
▁howard	-9.57375
▁dropped	-9.57377
▁trapped	-9.57394
▁meat	-9.57402
▁handsome	-9.57403
▁loving	-9.57449
▁bags	-9.57475
▁usually	-9.57477
▁copy	-9.57515
▁sighing	-9.57546
▁mo	-9.57594
▁crashing	-9.57646
▁joey	-9.57728
▁ruined	-9.57821
▁wire	-9.5785
▁cents	-9.57853
▁ian	-9.5813
▁fishing	-9.58293
ent	-9.58532
▁bucks	-9.58578
▁passing	-9.58655
▁cops	-9.5897
▁br	-9.59121
▁button	-9.59192
▁se	-9.59293
▁spring	-9.59391
▁granny	-9.59424
ated	-9.59456
▁roger	-9.59467
▁prayer	-9.59648
▁ends	-9.59666
▁robot	-9.59789
land	-9.59975
▁ne	-9.60004
▁bangs	-9.601
▁wins	-9.6022
▁bomb	-9.60407
me	-9.60527
▁chris	-9.60538
▁u	-9.60539
▁mistakes	-9.60557
▁sp	-9.60586
▁rush	-9.60731
▁cake	-9.60775
▁suggest	-9.6082
▁lots	-9.60927
▁assure	-9.61023
▁health	-9.6105
▁original	-9.6109
▁africa	-9.61142
▁russ	-9.61195
▁apart	-9.61195
▁en	-9.612
▁bernie	-9.61211
▁downstairs	-9.61211
▁enemy	-9.61211
▁expert	-9.61211
▁footsteps	-9.61211
▁gideon	-9.61211
▁gloria	-9.61211
▁jacques	-9.61211
▁magnificent	-9.61211
▁suspense	-9.61211
▁sweetmeat	-9.61211
▁ugly	-9.61211
▁duchess	-9.61211
▁knife	-9.61211
▁responsible	-9.61211
▁biggest	-9.61211
▁sandwich	-9.61212
▁clever	-9.61212
▁permission	-9.61212
▁sugar	-9.61212
▁horrible	-9.61212
▁holiness	-9.61213
▁swim	-9.61213
▁supper	-9.61215
▁katy	-9.61215
▁howling	-9.61217
▁junk	-9.61217
▁property	-9.61218
▁electricity	-9.61223
▁christine	-9.61223
▁jamie	-9.61226
▁opportunity	-9.6123
▁ego	-9.6124
▁wet	-9.61244
▁duty	-9.61245
▁unfortunately	-9.61251
▁deny	-9.61256
▁lil	-9.61258
▁gosh	-9.61276
▁mustard	-9.61308
▁sled	-9.6135
▁concerned	-9.6138
▁teams	-9.6144
▁cab	-9.61445
▁mission	-9.61502
▁pi	-9.6164
▁breathing	-9.61806
▁higher	-9.61826
na	-9.62429
▁knees	-9.62477
li	-9.62616
▁exist	-9.62623
▁color	-9.63039
▁shooting	-9.63113
▁remain	-9.63129
▁cop	-9.6334
▁taxi	-9.63437
▁quarter	-9.63448
▁miller	-9.63449
▁christian	-9.63449
▁creature	-9.63479
▁partner	-9.63483
▁po	-9.63599
time	-9.6361
▁fat	-9.63938
▁students	-9.6398
▁nobodys	-9.63984
j	-9.64098
go	-9.64228
▁settle	-9.64615
▁pretend	-9.64733
▁mount	-9.64897
ia	-9.64962
▁survive	-9.64989
▁total	-9.65088
▁nothin	-9.65185
led	-9.65189
▁legend	-9.65207
▁bfg	-9.65211
▁champagne	-9.65211
▁nascimento	-9.65211
▁paradise	-9.65211
▁phoenix	-9.65211
▁thornton	-9.65211
▁thou	-9.65211
▁interview	-9.65212
▁monday	-9.65212
▁stories	-9.65212
▁dancing	-9.65212
▁giggling	-9.65212
▁investigation	-9.65214
▁diana	-9.65214
▁steam	-9.65215
▁firing	-9.65216
▁staff	-9.65216
▁route	-9.65218
▁shopping	-9.65219
▁labor	-9.65226
▁regular	-9.65237
▁splashing	-9.65239
▁laid	-9.65243
▁gim	-9.65248
▁understood	-9.65254
▁zoe	-9.6536
and	-9.65441
▁shots	-9.65442
▁dora	-9.65489
▁add	-9.6552
oo	-9.65629
▁surprised	-9.65728
▁grave	-9.65848
▁americans	-9.66759
▁il	-9.6677
▁scream	-9.66859
▁lessons	-9.67095
▁wheel	-9.67138
ized	-9.67162
id	-9.67316
▁godmother	-9.67574
▁gives	-9.67579
▁rabbit	-9.6758
▁noise	-9.6761
▁pocket	-9.67641
▁plans	-9.67679
▁plant	-9.67884
▁seek	-9.6791
as	-9.68064
▁sisters	-9.68072
▁secrets	-9.68135
▁bless	-9.68656
▁matters	-9.68843
▁india	-9.68905
▁port	-9.68957
▁shock	-9.69042
▁swing	-9.69084
▁command	-9.69098
▁international	-9.69241
▁usual	-9.69341
▁legal	-9.69344
▁among	-9.69362
▁progress	-9.69364
▁richard	-9.69377
▁maleficent	-9.69378
▁munchie	-9.69378
▁nonsense	-9.69378
▁rapunzel	-9.69378
▁science	-9.69378
▁sioux	-9.69378
▁wreck	-9.69378
▁wickfield	-9.69378
▁anxious	-9.69378
▁sheila	-9.69378
▁buried	-9.69378
▁festival	-9.69379
▁melba	-9.69379
▁represent	-9.69379
▁university	-9.69379
▁aware	-9.6938
▁glory	-9.6938
▁sharp	-9.6938
▁earlier	-9.6938
▁bathroom	-9.69381
▁nope	-9.69381
▁pokemon	-9.69381
▁stood	-9.69382
▁gruberman	-9.69382
▁dummy	-9.69385
▁coke	-9.69389
▁ox	-9.69393
▁castle	-9.69418
▁mere	-9.69421
▁salt	-9.69421
▁defense	-9.69423
▁tony	-9.69424
▁recently	-9.69429
▁passion	-9.6944
▁growling	-9.69464
▁manage	-9.69546
▁union	-9.69564
▁itd	-9.69572
▁charming	-9.69694
▁booming	-9.69738
▁county	-9.69787
▁warning	-9.69811
▁germany	-9.69833
▁deepu	-9.69866
▁trumpets	-9.69935
▁arrested	-9.69982
▁olympics	-9.70017
▁stayed	-9.70028
▁belonged	-9.7003
▁clearly	-9.7008
▁tied	-9.7011
▁returned	-9.70274
▁fixed	-9.70312
▁acting	-9.70609
▁yells	-9.7083
▁lo	-9.70944
▁boo	-9.70951
▁eggs	-9.7097
▁sports	-9.71117
▁buttons	-9.71275
▁comrades	-9.71418
▁ear	-9.71813
▁spider	-9.71893
▁election	-9.71893
ee	-9.71901
▁forest	-9.71942
▁socialist	-9.71969
▁session	-9.71984
▁mighty	-9.71995
▁ticket	-9.72005
io	-9.72015
im	-9.72093
▁adventure	-9.72287
▁shower	-9.72291
erie	-9.72468
▁cards	-9.72885
▁marks	-9.73142
men	-9.73338
▁earn	-9.7341
ine	-9.73482
▁everybodys	-9.73486
▁spare	-9.73494
▁da	-9.73497
▁fianc	-9.73582
▁speech	-9.73664
▁thousands	-9.73664
▁freeze	-9.73684
▁beloved	-9.73726
▁caravan	-9.73726
▁earthquake	-9.73726
▁elevator	-9.73726
▁equipment	-9.73726
▁firm	-9.73726
▁genius	-9.73726
▁joseph	-9.73726
▁micawber	-9.73726
▁milady	-9.73726
▁steerforth	-9.73726
▁stokes	-9.73726
▁alien	-9.73726
▁croft	-9.73726
▁decent	-9.73727
▁romantic	-9.73727
▁trotwood	-9.73727
▁ginny	-9.73728
▁prize	-9.73728
▁snow	-9.73731
▁voiceover	-9.73732
▁assume	-9.73732
▁desperate	-9.73734
▁therell	-9.73736
▁pregnant	-9.73737
▁oliver	-9.73743
▁panic	-9.73753
▁changing	-9.73754
▁magnet	-9.73755
▁mumbles	-9.73761
▁grass	-9.73781
▁electric	-9.73789
▁level	-9.73818
▁grown	-9.73829
▁buzzing	-9.73876
▁powers	-9.73886
▁glasses	-9.73916
▁hire	-9.73924
▁fate	-9.74064
he	-9.74074
▁mustve	-9.74226
ri	-9.74246
▁lower	-9.74308
▁fur	-9.74341
▁thy	-9.74477
▁cats	-9.74557
de	-9.74576
▁harder	-9.7474
▁millions	-9.75024
▁meal	-9.75089
▁members	-9.75159
▁request	-9.7556
▁caused	-9.75851
tic	-9.75953
▁fail	-9.76107
▁condition	-9.76193
▁barn	-9.76384
omber	-9.76437
▁sometime	-9.76581
▁payment	-9.76592
▁stands	-9.76608
▁egg	-9.76638
▁reporter	-9.76701
▁that	-9.77026
▁drinking	-9.77103
▁feelings	-9.77253
▁brings	-9.77255
▁humans	-9.77306
▁avoid	-9.77421
▁chu	-9.77508
la	-9.77556
you	-9.7778
screen	-9.77842
▁surely	-9.77888
▁enter	-9.77949
▁coast	-9.77976
▁celebrate	-9.78018
▁curse	-9.78031
▁all	-9.78124
▁numbers	-9.78206
▁gene	-9.78251
▁francis	-9.78261
▁andrada	-9.78271
▁bryant	-9.78271
▁character	-9.78271
▁delicious	-9.78271
▁devito	-9.78271
▁excited	-9.78271
▁exciting	-9.78271
▁giuliano	-9.78271
▁jekyll	-9.78271
▁nixon	-9.78271
▁otherwise	-9.78271
▁peggotty	-9.78271
▁policy	-9.78271
▁spanish	-9.78271
▁sutemaru	-9.78271
▁texas	-9.78271
▁agnes	-9.78271
▁sondra	-9.78271
▁barely	-9.78272
▁native	-9.78273
▁ambassador	-9.78273
▁lousy	-9.78273
▁individual	-9.78273
▁resistance	-9.78276
▁doorbell	-9.78277
▁unique	-9.78278
▁section	-9.78279
▁suspect	-9.78282
▁stock	-9.78285
▁popular	-9.78287
▁hitler	-9.78294
▁wallet	-9.78304
▁safety	-9.78312
▁farley	-9.78314
▁western	-9.7832
▁according	-9.78324
▁yearold	-9.78331
▁stolen	-9.78338
▁disappointed	-9.78383
▁golden	-9.78385
▁sweetie	-9.78391
▁sandy	-9.78435
▁hearne	-9.78439
▁champion	-9.7845
▁type	-9.7846
ff	-9.7857
▁noticed	-9.78622
▁personally	-9.78659
▁warn	-9.78734
▁cha	-9.78833
▁bass	-9.78837
▁ate	-9.78867
▁jumped	-9.79025
am	-9.79151
▁deliver	-9.7923
▁lied	-9.79313
▁gra	-9.79356
▁likes	-9.79392
▁yay	-9.79469
▁pieces	-9.79472
▁blowing	-9.79583
▁flame	-9.79783
dy	-9.79933
▁youth	-9.79934
▁dreamed	-9.80167
▁cheer	-9.8086
▁pet	-9.80886
▁baker	-9.80974
▁nah	-9.81007
▁bike	-9.81008
▁opened	-9.81136
▁weekend	-9.81197
▁priest	-9.81245
▁clock	-9.81264
▁effort	-9.81269
▁sally	-9.81285
▁rope	-9.81381
▁n	-9.81423
▁grade	-9.81458
▁reasons	-9.8161
▁leader	-9.81683
▁hill	-9.81688
▁trap	-9.81894
▁leaves	-9.8204
▁odd	-9.82214
▁ding	-9.82371
▁collect	-9.82376
▁sale	-9.82574
board	-9.82583
▁range	-9.82636
▁perform	-9.82691
▁recall	-9.82693
▁poison	-9.82693
▁focus	-9.82696
▁si	-9.82717
▁challenge	-9.82734
▁blond	-9.82879
▁proper	-9.82935
▁witness	-9.82975
▁slip	-9.83017
▁wide	-9.83025
▁lucia	-9.83031
▁ashamed	-9.83033
▁athos	-9.83033
▁barbara	-9.83033
▁border	-9.83033
▁boyfriend	-9.83033
▁chelsea	-9.83033
▁insurance	-9.83033
▁kakamucho	-9.83033
▁magazine	-9.83033
▁ocean	-9.83033
▁oclock	-9.83033
▁political	-9.83033
▁privilege	-9.83033
▁society	-9.83033
▁tuesday	-9.83033
▁whiskey	-9.83033
▁audition	-9.83034
▁expensive	-9.83034
▁wasting	-9.83034
▁appointment	-9.83034
▁marvelous	-9.83035
▁campbell	-9.83035
▁wagon	-9.83035
▁engelberg	-9.83035
▁basketball	-9.83036
▁ryker	-9.83036
▁virginia	-9.83036
▁broad	-9.83037
▁authority	-9.83037
▁shawn	-9.8304
▁alice	-9.83041
▁crackling	-9.83041
▁juan	-9.83042
▁happiness	-9.83045
▁mail	-9.83045
▁comfortable	-9.8305
▁clay	-9.83055
▁plain	-9.83059
▁engaged	-9.8306
▁fang	-9.83063
▁china	-9.83064
▁smith	-9.83065
▁loan	-9.83069
▁spoken	-9.83104
▁clicking	-9.83134
▁career	-9.83142
▁director	-9.83155
▁uhoh	-9.83173
▁naturally	-9.83202
▁led	-9.83214
▁hired	-9.83276
▁lily	-9.83372
ster	-9.8338
▁jr	-9.83466
ot	-9.83643
▁wishes	-9.8372
▁burned	-9.83739
▁degrees	-9.83842
▁magical	-9.84043
▁el	-9.84181
▁bath	-9.84247
ts	-9.84386
▁no	-9.84593
▁ally	-9.84623
▁ordered	-9.8466
▁up	-9.84952
▁upb	-9.85103
▁ideas	-9.85234
▁apple	-9.85263
▁yell	-9.85708
▁scare	-9.86143
▁audience	-9.8615
▁miracle	-9.86152
▁guards	-9.86154
▁female	-9.86158
▁sending	-9.86184
▁knight	-9.86258
▁dragonball	-9.86301
▁chip	-9.86309
▁mile	-9.86405
▁drum	-9.86476
▁spit	-9.86496
ble	-9.8652
▁sin	-9.86539
▁tracks	-9.86585
▁doors	-9.86642
▁iii	-9.86774
way	-9.86797
▁meaning	-9.86969
▁resign	-9.87168
▁smells	-9.87289
one	-9.8745
▁teachers	-9.87462
ihe	-9.8749
▁sex	-9.87597
▁sand	-9.87694
▁register	-9.877
▁gather	-9.87703
▁dump	-9.87709
▁cares	-9.87837
▁current	-9.87898
▁sudden	-9.87909
▁julie	-9.87938
▁walls	-9.87947
▁capital	-9.88017
▁brown	-9.88017
▁aramis	-9.88033
▁concludes	-9.88033
▁evidence	-9.88033
▁meredith	-9.88033
▁modern	-9.88033
▁mostly	-9.88033
▁research	-9.88033
▁samadhi	-9.88033
▁seltzer	-9.88033
▁shakespeare	-9.88033
▁thief	-9.88033
▁velrans	-9.88033
▁wednesday	-9.88033
▁chandler	-9.88034
▁golf	-9.88035
▁silence	-9.88035
▁steel	-9.88035
▁hollywood	-9.88035
▁assistance	-9.88037
▁onto	-9.88041
▁crew	-9.88044
▁factory	-9.88044
▁eagle	-9.88045
▁edge	-9.8805
▁chapel	-9.8805
▁pink	-9.88053
▁hammer	-9.88053
▁complicated	-9.88054
▁spent	-9.88057
▁extremely	-9.88062
▁wailing	-9.8807
▁fake	-9.88073
▁thirsty	-9.88088
▁macka	-9.88089
▁kai	-9.88089
▁dragon	-9.88093
und	-9.88096
▁eastman	-9.88098
▁arth	-9.88103
▁creaking	-9.88115
▁chain	-9.88119
▁african	-9.88123
▁ruby	-9.88149
▁jesse	-9.88161
▁shattering	-9.88184
▁bow	-9.88211
▁mae	-9.88253
▁out	-9.88318
▁softly	-9.88365
▁payal	-9.8849
▁mentioned	-9.88551
▁butter	-9.88568
▁mans	-9.88611
▁depends	-9.88618
ted	-9.88636
▁chipmunks	-9.88705
▁songs	-9.88756
▁kicked	-9.88761
▁details	-9.88797
▁carefully	-9.88893
▁helped	-9.8899
down	-9.88997
▁heading	-9.89208
▁demands	-9.89243
▁counting	-9.89392
▁bound	-9.89403
▁uniforms	-9.89423
▁jews	-9.89425
▁cleaning	-9.89704
▁unto	-9.89893
▁habit	-9.90061
▁fan	-9.90252
om	-9.90487
▁husbands	-9.90675
▁can	-9.90823
▁notes	-9.90956
▁knee	-9.91043
▁talent	-9.91133
▁whereve	-9.91254
▁sub	-9.91329
▁grandmother	-9.91457
▁material	-9.91457
▁claudia	-9.91485
▁thompson	-9.91485
▁communist	-9.91519
▁criminal	-9.91519
▁affair	-9.91539
▁cloud	-9.91574
▁buck	-9.91577
▁gate	-9.91577
▁agent	-9.9158
▁member	-9.91581
▁devil	-9.91607
▁pound	-9.91612
▁checking	-9.91621
▁dollar	-9.91663
▁signal	-9.91711
▁stranger	-9.91715
▁places	-9.91777
▁trainer	-9.91991
ke	-9.92058
▁scar	-9.92165
▁rob	-9.92275
▁attempt	-9.92463
▁flag	-9.9249
▁ways	-9.9257
▁casey	-9.92578
▁stops	-9.92666
▁complain	-9.92704
▁pitch	-9.92878
▁boom	-9.92903
▁harm	-9.92904
▁butcher	-9.92941
▁su	-9.92957
▁invite	-9.9308
▁advance	-9.93086
▁chances	-9.93092
▁tune	-9.93138
▁rare	-9.93173
▁fuck	-9.93199
▁load	-9.93244
▁express	-9.93258
▁somethin	-9.9327
▁darlin	-9.9327
▁gettin	-9.93276
▁april	-9.93296
▁chakal	-9.93296
▁expedition	-9.93296
▁fbi	-9.93296
▁marvin	-9.93296
▁miranda	-9.93296
▁patience	-9.93296
▁sacred	-9.93296
▁unusual	-9.93296
▁vacation	-9.93296
▁zorin	-9.93296
▁cheryl	-9.93296
▁rochelle	-9.93296
▁triumph	-9.93296
▁bodies	-9.93296
▁trash	-9.93296
▁italy	-9.93297
▁susie	-9.93297
▁toast	-9.93297
▁banana	-9.93297
▁miami	-9.93297
▁bleating	-9.93297
▁destruction	-9.93298
▁balance	-9.93299
▁hissing	-9.93299
▁babies	-9.933
▁beef	-9.933
▁logan	-9.93302
▁rotten	-9.93302
▁contain	-9.93305
▁slipper	-9.93305
▁airport	-9.93308
▁rescue	-9.93309
▁grateful	-9.93311
▁planned	-9.93313
▁toron	-9.93317
▁scooter	-9.93322
▁secretary	-9.93323
▁inner	-9.93333
▁boring	-9.93336
▁noon	-9.93339
▁forth	-9.93358
▁proof	-9.93358
▁jane	-9.93374
▁homework	-9.93377
▁disgusting	-9.93407
▁convinced	-9.93432
▁ernesto	-9.93457
▁particularly	-9.93524
▁commissioner	-9.93542
▁impression	-9.93565
▁goldman	-9.9357
▁ator	-9.93615
▁beth	-9.93622
▁served	-9.93626
▁chase	-9.93663
ca	-9.93698
▁professional	-9.93724
▁an	-9.93731
▁frankly	-9.93743
▁stronger	-9.93782
sa	-9.93856
▁accepted	-9.94068
▁twins	-9.94101
▁bolsheviks	-9.94289
▁crossed	-9.9433
ary	-9.94442
ill	-9.94621
▁presents	-9.94634
mp	-9.94636
▁thuds	-9.94953
▁sc	-9.94989
ious	-9.95165
▁selling	-9.95203
▁jan	-9.95209
▁chi	-9.95342
▁hated	-9.95799
cha	-9.95974
▁steps	-9.96323
ade	-9.96608
▁claim	-9.96698
▁damage	-9.96723
▁starr	-9.96768
▁grandma	-9.97037
▁edward	-9.97061
▁ac	-9.97085
▁beast	-9.97107
▁shoulder	-9.97109
▁thud	-9.9713
▁martini	-9.97144
▁guest	-9.97147
▁soldier	-9.9715
▁actor	-9.97182
ass	-9.97189
▁amen	-9.97328
▁belongs	-9.97822
▁gee	-9.97959
ac	-9.98013
ha	-9.98035
▁pap	-9.98223
▁cast	-9.98317
back	-9.9833
ward	-9.98332
▁surf	-9.98357
▁stretch	-9.98361
▁freak	-9.98384
▁profession	-9.98402
▁ruth	-9.98447
▁under	-9.98559
▁tail	-9.9859
▁describe	-9.98631
by	-9.98653
▁mike	-9.98681
▁shake	-9.98693
▁illegal	-9.98706
▁elliot	-9.98759
▁accent	-9.98852
▁enemies	-9.98852
▁gfg	-9.98852
▁kaguya	-9.98852
▁rhythm	-9.98852
▁sobbing	-9.98852
▁solution	-9.98852
▁ulysses	-9.98852
▁uriah	-9.98852
▁vesper	-9.98852
▁beneath	-9.98852
▁swimming	-9.98852
▁olsen	-9.98852
▁insane	-9.98852
▁santos	-9.98853
▁executive	-9.98853
▁specific	-9.98853
▁italian	-9.98853
▁propose	-9.98854
▁pilot	-9.98855
▁mouse	-9.98855
▁dutch	-9.98855
▁toilet	-9.98856
▁blew	-9.98857
▁marco	-9.98857
▁merry	-9.98858
▁performance	-9.98862
▁brief	-9.98863
▁nome	-9.98863
▁russell	-9.98863
▁deposit	-9.98865
▁responsibility	-9.98866
▁mysterious	-9.98867
▁bible	-9.98869
▁reverend	-9.98871
▁direction	-9.98895
▁halfway	-9.98896
▁cmon	-9.98903
▁soup	-9.98908
▁background	-9.98931
▁stage	-9.98938
▁hiya	-9.99086
▁healthy	-9.99092
▁screwed	-9.991
▁passes	-9.99111
▁somebodys	-9.99168
▁normally	-9.99195
▁umm	-9.99216
▁suffering	-9.99279
▁instruments	-9.99304
▁com	-9.99307
▁raised	-9.99322
▁troops	-9.99348
▁defeated	-9.99357
▁doc	-9.99426
▁mate	-9.99506
▁packed	-9.99589
▁diamonds	-9.99603
▁considered	-9.99613
▁booker	-9.99689
▁loss	-9.99786
▁traveling	-9.99827
▁daughters	-9.99853
▁pushed	-10.0001
▁offering	-10.0003
▁weapons	-10.001
pl	-10.0031
▁workers	-10.0035
▁iron	-10.004
▁recording	-10.004
▁tears	-10.0044
▁schedule	-10.0048
▁remembered	-10.0048
▁sum	-10.0055
ery	-10.0065
▁you	-10.0067
▁ant	-10.0068
▁signed	-10.0069
▁boats	-10.0083
▁friendly	-10.0085
▁rolling	-10.0088
▁viva	-10.0098
▁tickets	-10.0111
▁learning	-10.0114
▁showing	-10.0121
▁beating	-10.0134
▁crack	-10.0169
▁rat	-10.0171
▁hah	-10.0198
▁pan	-10.0214
hi	-10.023
▁fella	-10.0232
▁explosions	-10.0232
▁waves	-10.0263
▁arrive	-10.027
▁chick	-10.0283
▁structure	-10.0289
▁nightmare	-10.0289
▁shirt	-10.0289
▁chap	-10.0291
▁vehicle	-10.0292
▁belt	-10.0293
▁neighbor	-10.0294
▁desire	-10.0294
▁subject	-10.0296
ak	-10.0301
▁sport	-10.0301
▁shine	-10.0302
▁toy	-10.0309
un	-10.032
▁flower	-10.0328
▁fo	-10.0339
▁rider	-10.0361
ust	-10.0375
▁attend	-10.0381
▁lab	-10.0382
▁crash	-10.0386
▁suffer	-10.0408
▁lookin	-10.041
ancy	-10.0411
eth	-10.0417
▁blast	-10.0426
head	-10.0426
▁scratch	-10.0427
well	-10.0427
▁squeak	-10.0429
▁bowl	-10.0436
va	-10.044
▁charm	-10.0445
▁commission	-10.0446
▁immediate	-10.0461
▁branch	-10.0467
▁sons	-10.0473
▁ahearn	-10.0473
▁buckingham	-10.0473
▁cheap	-10.0473
▁chinese	-10.0473
▁circumstances	-10.0473
▁colbert	-10.0473
▁dynamite	-10.0473
▁joshua	-10.0473
▁mexico	-10.0473
▁negative	-10.0473
▁phrase	-10.0473
▁routine	-10.0473
▁sigrid	-10.0473
▁supplies	-10.0473
▁tournament	-10.0473
▁twelve	-10.0473
▁chiming	-10.0473
▁francs	-10.0473
▁serum	-10.0473
▁daisy	-10.0473
▁butler	-10.0473
▁tongue	-10.0473
▁chimes	-10.0473
▁illusion	-10.0474
▁tradition	-10.0474
▁rustling	-10.0474
▁assignment	-10.0474
▁ordinary	-10.0474
▁patrol	-10.0474
▁neighborhood	-10.0474
▁jazz	-10.0474
▁toby	-10.0474
▁honour	-10.0474
▁goku	-10.0474
▁theme	-10.0474
▁distance	-10.0474
▁grew	-10.0474
▁larry	-10.0474
▁shane	-10.0474
▁duck	-10.0474
▁oak	-10.0474
▁strawberry	-10.0474
▁jake	-10.0475
▁herman	-10.0475
▁glue	-10.0475
▁desk	-10.0475
▁tanner	-10.0475
▁fold	-10.0475
▁gladys	-10.0475
▁reservation	-10.0475
▁zone	-10.0475
▁math	-10.0477
▁anger	-10.0477
▁santa	-10.0478
▁clattering	-10.0478
▁wash	-10.0478
▁sumo	-10.0479
▁clank	-10.0479
▁bout	-10.0479
▁guilty	-10.0481
▁moaning	-10.0483
▁rear	-10.0483
▁thee	-10.0484
▁darkness	-10.0484
▁outer	-10.0485
▁bitter	-10.0486
▁statement	-10.0487
▁emotional	-10.0491
▁reality	-10.0497
▁seal	-10.0497
▁pot	-10.0507
▁refused	-10.0518
▁finest	-10.0519
▁blessed	-10.0519
▁bowling	-10.0521
▁deeply	-10.0523
▁presidents	-10.0524
▁pipe	-10.0533
▁entirely	-10.0536
ig	-10.054
▁locker	-10.0542
les	-10.0547
▁lamb	-10.0566
▁covered	-10.057
the	-10.0592
▁fi	-10.0601
▁creep	-10.0615
▁dani	-10.0615
▁searching	-10.0624
▁pool	-10.0626
▁prom	-10.0629
▁teaching	-10.0641
▁toys	-10.0649
ism	-10.0656
▁guests	-10.066
▁talkin	-10.0665
▁trained	-10.069
▁et	-10.0693
▁psycho	-10.0715
▁paint	-10.0732
▁catching	-10.0742
▁ar	-10.0755
▁checked	-10.0774
▁unit	-10.0797
▁picking	-10.0797
▁pr	-10.0804
▁ls	-10.0804
▁trade	-10.0813
▁hundreds	-10.0821
▁bells	-10.0844
ct	-10.0847
▁glen	-10.0868
ey	-10.0879
ress	-10.0884
▁decisions	-10.0886
▁provide	-10.0886
▁signs	-10.0892
▁print	-10.0893
▁bust	-10.0908
▁text	-10.0913
▁disease	-10.0914
▁bug	-10.0914
▁plate	-10.0916
▁comment	-10.0916
▁rambalcochet	-10.0917
▁jew	-10.0921
▁coward	-10.0922
▁uniform	-10.0926
▁jamaican	-10.0927
▁sword	-10.0928
▁pepper	-10.0929
▁beside	-10.093
▁moms	-10.0948
▁tear	-10.0953
lin	-10.0975
▁jewel	-10.0989
ley	-10.0991
▁winds	-10.0999
▁cl	-10.1013
▁sa	-10.1031
ard	-10.1032
▁tri	-10.104
▁heavens	-10.1049
▁interrupt	-10.1051
ezvous	-10.1055
▁stink	-10.1055
throw	-10.1057
fully	-10.1065
▁delight	-10.1069
▁receive	-10.1073
▁separate	-10.1076
▁release	-10.1076
ow	-10.1078
ny	-10.1081
▁tells	-10.1087
▁stefan	-10.1093
▁chose	-10.1094
▁opera	-10.1096
▁attitude	-10.1098
▁benefit	-10.1098
▁bueno	-10.1098
▁congress	-10.1098
▁experiment	-10.1098
▁extraordinary	-10.1098
▁families	-10.1098
▁haldeman	-10.1098
▁piccolo	-10.1098
▁polar	-10.1098
▁signature	-10.1098
▁subtitle	-10.1098
▁terribly	-10.1098
▁territory	-10.1098
▁giggles	-10.1098
▁goodnight	-10.1098
▁possibility	-10.1098
▁spain	-10.1098
▁thrill	-10.1098
▁albert	-10.1098
▁presence	-10.1098
▁salary	-10.1099
▁abner	-10.1099
▁operator	-10.1099
▁closing	-10.1099
▁navy	-10.1099
▁diane	-10.1099
▁detective	-10.1099
▁garbage	-10.1099
▁rude	-10.1099
▁basic	-10.1099
▁positive	-10.1099
▁lenny	-10.1099
▁smoking	-10.1099
▁leak	-10.1099
▁cattle	-10.1099
▁aside	-10.11
▁hazel	-10.11
▁centre	-10.11
▁warrant	-10.11
▁destiny	-10.11
▁mercy	-10.1101
▁summertime	-10.1101
▁divine	-10.1101
▁johnny	-10.1102
▁squad	-10.1102
▁owns	-10.1102
▁barrel	-10.1102
▁beings	-10.1102
▁principal	-10.1103
▁heep	-10.1103
▁practically	-10.1104
▁sophie	-10.1104
▁tax	-10.1108
▁carol	-10.1108
▁bleeding	-10.1109
▁shining	-10.1109
▁disappeared	-10.111
▁canceled	-10.1112
▁lack	-10.1112
▁andy	-10.1112
▁stopping	-10.1113
▁powerful	-10.1114
▁erin	-10.1115
▁shows	-10.1115
▁quot	-10.1118
▁row	-10.112
▁sur	-10.1126
▁mustnt	-10.113
▁arrange	-10.1134
▁blows	-10.1138
▁convention	-10.1142
▁aid	-10.1144
▁failed	-10.1144
▁discipline	-10.1152
▁crickets	-10.1161
▁instructions	-10.1172
ise	-10.1175
▁wheeler	-10.1179
▁quietly	-10.1183
▁treated	-10.1187
▁opens	-10.1189
▁compete	-10.119
▁attacked	-10.1195
▁reports	-10.1207
▁whoohoo	-10.1211
▁cookies	-10.1214
▁boarding	-10.1237
▁gal	-10.1244
▁figures	-10.126
▁shadows	-10.1263
▁ba	-10.1306
▁touched	-10.1316
tle	-10.1323
▁ol	-10.1325
ably	-10.1329
some	-10.1334
per	-10.1343
▁cr	-10.1351
▁anti	-10.1354
▁host	-10.1365
▁throwing	-10.137
▁understanding	-10.1371
▁endless	-10.1401
▁hon	-10.1402
▁humble	-10.1429
▁gl	-10.1472
zer	-10.149
▁chat	-10.151
▁hoped	-10.1552
▁answers	-10.1558
▁ended	-10.1558
ten	-10.1566
▁del	-10.1578
▁task	-10.1579
▁helicopter	-10.1583
▁snap	-10.1584
▁mask	-10.1588
▁customer	-10.159
▁shadow	-10.1592
▁runt	-10.1593
▁string	-10.1598
▁clubs	-10.16
▁du	-10.1607
▁bone	-10.1619
▁pope	-10.1634
▁forces	-10.1642
▁bi	-10.1659
ola	-10.1678
▁headed	-10.1692
▁direct	-10.1698
▁bump	-10.1704
ors	-10.1707
▁comfort	-10.1713
▁smack	-10.1718
born	-10.172
house	-10.1721
▁confess	-10.1723
▁delay	-10.173
▁intend	-10.1731
▁reward	-10.1731
be	-10.1734
▁disguise	-10.174
▁faces	-10.1743
▁chill	-10.1751
▁bark	-10.1752
▁obvious	-10.1753
▁exact	-10.1753
▁hung	-10.1754
▁lad	-10.1757
▁souls	-10.1759
▁rome	-10.176
▁mid	-10.1761
▁education	-10.1761
▁doug	-10.1762
▁lovin	-10.1763
▁social	-10.1763
▁moments	-10.1764
▁plum	-10.1764
▁cruel	-10.1765
▁basket	-10.1765
▁blenac	-10.1765
▁charmeleon	-10.1765
▁conscience	-10.1765
▁district	-10.1765
▁easily	-10.1765
▁elizabeth	-10.1765
▁essay	-10.1765
▁eventually	-10.1765
▁fifth	-10.1765
▁garrincha	-10.1765
▁gorgeous	-10.1765
▁holiday	-10.1765
▁hypnoray	-10.1765
▁intelligent	-10.1765
▁lincoln	-10.1765
▁peacock	-10.1765
▁plaza	-10.1765
▁practicing	-10.1765
▁precious	-10.1765
▁quark	-10.1765
▁remote	-10.1765
▁senator	-10.1765
▁someplace	-10.1765
▁supply	-10.1765
▁tattoo	-10.1765
▁thumb	-10.1765
▁wadsworth	-10.1765
▁cackle	-10.1765
▁couch	-10.1765
▁sherry	-10.1765
▁struggle	-10.1765
▁concert	-10.1765
▁statue	-10.1765
▁lolly	-10.1765
▁kidnapped	-10.1765
▁including	-10.1765
▁slept	-10.1765
▁prevent	-10.1765
▁reputation	-10.1765
▁fetch	-10.1765
▁model	-10.1765
▁robbie	-10.1765
▁butterfree	-10.1765
▁community	-10.1765
▁mirror	-10.1765
▁cried	-10.1765
▁mijo	-10.1765
▁jam	-10.1765
▁struck	-10.1765
▁argue	-10.1766
▁dawn	-10.1766
▁brake	-10.1766
▁determined	-10.1766
▁heck	-10.1766
▁becoming	-10.1766
▁francisco	-10.1767
▁available	-10.1767
▁attractive	-10.1767
▁impressive	-10.1767
▁cupboard	-10.1767
▁mayday	-10.1768
▁aboard	-10.1768
▁beam	-10.1768
▁tooth	-10.1768
▁potatoes	-10.1769
▁phase	-10.177
▁protection	-10.1771
▁peaceful	-10.1771
▁chest	-10.1772
▁wrap	-10.1772
▁groom	-10.1772
▁cliff	-10.1772
▁victory	-10.1773
ebod	-10.1775
▁yank	-10.1776
▁lawson	-10.178
▁beaten	-10.1781
▁heat	-10.1783
▁exhales	-10.1784
▁limited	-10.1784
▁ahhh	-10.1785
▁donna	-10.1785
▁approaching	-10.1786
▁pity	-10.1787
▁aye	-10.1788
▁crown	-10.1788
▁cheating	-10.1789
▁borrowed	-10.1791
▁juice	-10.1791
▁commander	-10.1799
▁howdy	-10.1807
▁kindness	-10.1808
ator	-10.1812
▁created	-10.1813
▁aires	-10.1815
▁earned	-10.1816
ba	-10.1816
▁me	-10.1817
▁para	-10.1817
▁painting	-10.182
▁exclaims	-10.182
▁down	-10.1831
▁worlds	-10.1837
▁wayne	-10.1837
▁facts	-10.1839
▁blessing	-10.1839
lo	-10.1843
▁cigarettes	-10.1844
▁prisoners	-10.1851
min	-10.1862
▁banks	-10.1867
▁deed	-10.1868
▁rate	-10.1874
▁pier	-10.1878
▁enjoyed	-10.1881
▁ki	-10.1882
▁nights	-10.1886
▁z	-10.1902
▁ikes	-10.1905
▁chop	-10.1927
cy	-10.1934
▁cooking	-10.1938
nce	-10.1954
ns	-10.1973
▁ad	-10.2006
▁drag	-10.2013
bo	-10.2022
oh	-10.2023
▁mon	-10.2038
▁leading	-10.2042
▁staring	-10.2045
ge	-10.2045
iii	-10.2051
ay	-10.2081
▁au	-10.2082
▁mumbl	-10.2088
▁dove	-10.2089
ps	-10.2094
▁patients	-10.2138
▁events	-10.2157
ris	-10.2164
os	-10.2184
▁jobs	-10.2189
ad	-10.2192
▁ja	-10.2195
▁lions	-10.2205
▁pen	-10.221
▁dish	-10.2217
▁points	-10.2226
▁engineer	-10.2231
▁suck	-10.2234
▁shift	-10.2246
▁issue	-10.2281
▁rep	-10.2285
▁object	-10.2286
▁lecture	-10.229
ace	-10.2291
▁effect	-10.2296
▁artist	-10.2297
▁cowboy	-10.2299
▁hits	-10.2299
▁discussion	-10.2302
▁jerk	-10.2303
▁demand	-10.2307
do	-10.2313
▁indians	-10.2322
▁tang	-10.2329
▁twist	-10.2329
▁tale	-10.2341
▁yup	-10.2352
pping	-10.2384
ma	-10.2389
▁concern	-10.2398
▁charges	-10.2398
▁screw	-10.2399
▁bra	-10.2401
▁luc	-10.241
▁sweat	-10.2423
▁grove	-10.2426
ball	-10.2429
▁proceed	-10.2431
field	-10.2435
ping	-10.2439
good	-10.2439
▁twenty	-10.2443
▁spark	-10.2443
▁mix	-10.2449
▁sentence	-10.2456
▁guarantee	-10.2456
▁pump	-10.2474
▁recommend	-10.2477
▁wipe	-10.2477
▁republic	-10.2478
▁rub	-10.2479
▁apologies	-10.2479
▁bulldozer	-10.2479
▁cackling	-10.2479
▁century	-10.2479
▁channel	-10.2479
▁cinderella	-10.2479
▁council	-10.2479
▁evie	-10.2479
▁hartounian	-10.2479
▁heavily	-10.2479
▁instance	-10.2479
▁museum	-10.2479
▁phantom	-10.2479
▁religion	-10.2479
▁religious	-10.2479
▁sensitive	-10.2479
▁shogun	-10.2479
▁smythe	-10.2479
▁splendid	-10.2479
▁telegraph	-10.2479
▁thursday	-10.2479
▁unhappy	-10.2479
▁vacuum	-10.2479
▁vicious	-10.2479
▁whimpering	-10.2479
▁ease	-10.2479
▁lassard	-10.2479
▁tesla	-10.2479
▁stairs	-10.2479
▁banquet	-10.2479
▁clinic	-10.2479
▁sunset	-10.248
▁conference	-10.248
▁solid	-10.248
▁steinberg	-10.248
▁bride	-10.248
▁bertha	-10.248
▁dumas	-10.248
▁blaring	-10.248
▁crail	-10.248
▁ginga	-10.248
▁bacon	-10.248
▁title	-10.248
▁rising	-10.248
▁fond	-10.248
▁mood	-10.248
▁swallow	-10.248
▁zoo	-10.248
▁saul	-10.248
▁agh	-10.248
▁inaudible	-10.248
▁jimbo	-10.248
▁foul	-10.2481
▁income	-10.2481
▁development	-10.2481
▁rita	-10.2481
▁jones	-10.2481
▁clown	-10.2481
▁hidden	-10.2481
▁surgery	-10.2481
▁asshole	-10.2481
▁stall	-10.2482
▁cox	-10.2482
▁stine	-10.2482
▁mummy	-10.2482
▁dropping	-10.2483
▁parade	-10.2483
▁lightning	-10.2483
▁foolish	-10.2483
▁fortune	-10.2484
▁upper	-10.2484
▁motion	-10.2487
▁mall	-10.2488
▁tucker	-10.2488
▁betting	-10.249
▁cutting	-10.2492
▁directly	-10.2493
▁dolly	-10.2494
▁bury	-10.2494
▁rocket	-10.2494
▁chanting	-10.2495
▁heroic	-10.2495
▁crunching	-10.2498
▁discovered	-10.2507
▁successful	-10.2508
▁jacket	-10.2509
▁judges	-10.2513
▁busted	-10.2519
▁whoops	-10.2521
ver	-10.2521
▁fee	-10.2527
▁jackie	-10.253
▁fourth	-10.2533
▁screen	-10.2548
▁filled	-10.2563
▁toes	-10.2566
▁faithful	-10.2569
rit	-10.2581
▁changes	-10.2584
let	-10.2587
▁slaves	-10.2591
▁observe	-10.2594
▁bothering	-10.2602
▁citizens	-10.2604
▁hunting	-10.2604
▁backup	-10.2612
▁exercise	-10.2615
ula	-10.2623
▁burning	-10.2633
ai	-10.2638
▁fore	-10.264
ities	-10.2641
▁studying	-10.2641
▁whack	-10.2645
▁jumping	-10.2646
▁parker	-10.2647
▁beard	-10.2669
▁ted	-10.2676
▁dates	-10.2687
▁tramp	-10.2706
▁fans	-10.272
ank	-10.2725
▁fu	-10.2726
▁bing	-10.2735
▁dragonballs	-10.2735
ol	-10.274
▁counter	-10.2752
▁non	-10.2766
▁thoughts	-10.2782
che	-10.2785
▁wa	-10.2789
▁ram	-10.2797
▁creatures	-10.2802
ize	-10.2802
▁minor	-10.2806
tu	-10.2816
▁fl	-10.2832
ger	-10.2848
▁holes	-10.2852
▁conversations	-10.2868
hand	-10.2887
op	-10.2888
▁whistles	-10.2894
beat	-10.2902
▁ship	-10.2905
▁runs	-10.2905
▁bastards	-10.2908
▁fade	-10.291
ran	-10.2926
▁doctors	-10.2943
▁sundays	-10.2948
▁knowing	-10.2976
▁frog	-10.3024
▁becomes	-10.3031
▁crow	-10.3034
▁drinks	-10.305
▁desert	-10.3063
▁gown	-10.3065
▁ka	-10.3066
▁jo	-10.307
▁option	-10.3071
▁term	-10.3072
▁argument	-10.3073
▁result	-10.3073
▁height	-10.3073
▁yankee	-10.3075
▁weapon	-10.3076
▁toward	-10.3078
▁attacks	-10.3085
old	-10.3112
▁writer	-10.3126
▁loser	-10.3144
ach	-10.3151
so	-10.3161
▁insist	-10.3165
▁and	-10.3179
▁ana	-10.3186
q	-10.3192
room	-10.3196
▁sneak	-10.3199
▁bars	-10.3199
▁success	-10.3208
▁pour	-10.3211
▁matt	-10.3214
▁rooms	-10.3216
ial	-10.3236
▁actual	-10.3237
▁ignore	-10.3239
▁sat	-10.3242
▁slam	-10.3245
▁organ	-10.3246
▁runnin	-10.3246
▁mmhm	-10.3246
▁tempo	-10.3248
▁process	-10.3248
▁regard	-10.3249
▁nucle	-10.3249
▁album	-10.3249
▁appetite	-10.3249
▁arizona	-10.3249
▁bunyan	-10.3249
▁central	-10.3249
▁civilization	-10.3249
▁costello	-10.3249
▁declare	-10.3249
▁disaster	-10.3249
▁dobson	-10.3249
▁dogtective	-10.3249
▁fitzgerald	-10.3249
▁florida	-10.3249
▁fouquet	-10.3249
▁izzy	-10.3249
▁lndistinct	-10.3249
▁mexican	-10.3249
▁opposite	-10.3249
▁plastic	-10.3249
▁politics	-10.3249
▁rafael	-10.3249
▁ralph	-10.3249
▁revenge	-10.3249
▁scotch	-10.3249
▁september	-10.3249
▁spenlow	-10.3249
▁stephanie	-10.3249
▁suicide	-10.3249
▁trigger	-10.3249
▁tumbleweed	-10.3249
▁turkey	-10.3249
▁wisdom	-10.3249
▁ahmad	-10.3249
▁porthos	-10.3249
▁southern	-10.3249
▁choking	-10.3249
▁alaska	-10.3249
▁quality	-10.3249
▁suzanne	-10.3249
▁susan	-10.3249
▁widowmaker	-10.3249
▁keach	-10.3249
▁powder	-10.3249
▁muffled	-10.3249
▁item	-10.3249
▁existence	-10.3249
▁missile	-10.3249
▁apology	-10.3249
▁literally	-10.3249
▁easier	-10.3249
▁editor	-10.3249
▁trunk	-10.3249
▁ability	-10.3249
▁commitment	-10.3249
▁slipped	-10.3249
▁tribe	-10.3249
▁francois	-10.3249
▁charity	-10.3249
▁flock	-10.3249
▁slide	-10.325
▁echo	-10.325
▁portia	-10.325
▁fever	-10.325
▁data	-10.325
▁license	-10.325
▁assistant	-10.325
▁carriage	-10.3251
▁fascinating	-10.3251
▁stake	-10.3251
▁chessy	-10.3251
▁toss	-10.3251
▁humor	-10.3251
▁strain	-10.3251
▁maniac	-10.3251
▁obliged	-10.3251
▁bedroom	-10.3251
▁loop	-10.3252
▁dull	-10.3252
▁fuss	-10.3252
▁iike	-10.3252
▁claire	-10.3253
▁maid	-10.3253
▁shield	-10.3254
▁agreement	-10.3254
▁wound	-10.3255
▁aii	-10.3256
▁mansion	-10.3256
▁flies	-10.3256
▁dammit	-10.3257
▁capable	-10.326
rt	-10.326
▁hitting	-10.3262
▁sang	-10.3262
▁sore	-10.3264
▁fallen	-10.3265
▁properly	-10.327
▁sinners	-10.327
▁coughs	-10.327
▁sincere	-10.3276
▁delivery	-10.3276
fi	-10.3277
▁former	-10.3284
▁joel	-10.3286
▁parties	-10.3287
▁eaten	-10.3288
▁delighted	-10.3289
▁settled	-10.3292
▁seth	-10.3295
▁meantime	-10.3296
▁computerize	-10.33
▁dori	-10.3303
▁guts	-10.3309
▁squeaking	-10.3309
▁spin	-10.3314
▁wasted	-10.3321
▁acres	-10.3327
▁helpless	-10.334
▁las	-10.3342
▁whispers	-10.3355
▁reached	-10.3365
▁offered	-10.3366
▁or	-10.3373
▁visited	-10.3373
▁pages	-10.3398
her	-10.3402
▁ro	-10.341
▁manners	-10.3412
▁pigs	-10.3414
▁yankees	-10.3426
▁frogs	-10.3427
ni	-10.3428
▁wo	-10.3435
▁cleaned	-10.3436
▁sleepy	-10.3444
▁abe	-10.3447
▁mamas	-10.3471
▁pushing	-10.3481
▁ti	-10.3497
▁devils	-10.3512
▁spending	-10.3524
▁carrying	-10.3529
▁ropes	-10.354
ternal	-10.3541
▁ln	-10.3541
ung	-10.3544
chi	-10.3559
▁rats	-10.3561
▁pockets	-10.3583
▁skip	-10.3594
▁badly	-10.3597
▁bev	-10.3611
▁prayers	-10.3623
▁occasion	-10.3627
▁gen	-10.3632
▁mol	-10.3668
▁tricks	-10.3668
▁tap	-10.3686
▁trot	-10.3692
▁imp	-10.3699
▁breaks	-10.3715
▁somethings	-10.3719
▁fe	-10.3722
▁ideal	-10.3733
▁fashion	-10.3752
wing	-10.3764
▁moves	-10.3764
▁on	-10.3765
▁peters	-10.3765
▁thin	-10.3765
▁dies	-10.3769
▁donkeys	-10.3771
▁chickens	-10.3771
ier	-10.3772
▁sniff	-10.3785
▁behave	-10.3807
▁regret	-10.3818
▁needle	-10.382
▁fri	-10.3825
▁mi	-10.3829
▁seats	-10.3857
▁films	-10.386
▁doll	-10.3879
▁require	-10.388
▁medals	-10.3887
▁soviet	-10.3897
▁championship	-10.3897
▁jaw	-10.3899
▁moron	-10.3901
▁duran	-10.3901
▁herb	-10.3903
▁saint	-10.3905
▁nun	-10.3908
▁ike	-10.3912
▁folk	-10.3912
▁cu	-10.3914
▁pig	-10.3914
▁holds	-10.3927
▁hunter	-10.3938
▁manner	-10.394
res	-10.3944
▁brains	-10.396
kin	-10.3979
▁maker	-10.3982
▁blackmail	-10.3999
ction	-10.4
ions	-10.4001
▁there	-10.401
▁discover	-10.4032
▁punch	-10.4039
quot	-10.4039
▁establish	-10.4047
▁recover	-10.4049
▁borrow	-10.405
▁convince	-10.406
▁hee	-10.4061
nd	-10.4065
▁mental	-10.4067
▁beck	-10.4068
▁rank	-10.4069
▁australia	-10.4072
misunderstanding	-10.4074
▁starve	-10.4074
▁armor	-10.4075
▁threat	-10.4079
▁jokes	-10.4081
▁resist	-10.4081
▁admiral	-10.4082
▁advantage	-10.4082
▁association	-10.4082
▁autograph	-10.4082
▁bethlehem	-10.4082
▁bounce	-10.4082
▁buffalo	-10.4082
▁colleague	-10.4082
▁confidence	-10.4082
▁crisis	-10.4082
▁crystal	-10.4082
▁deputies	-10.4082
▁dolores	-10.4082
▁excitement	-10.4082
▁giuseppe	-10.4082
▁invitation	-10.4082
▁judgment	-10.4082
▁kerensky	-10.4082
▁liberty	-10.4082
▁meerut	-10.4082
▁moscow	-10.4082
▁muerte	-10.4082
▁murdstone	-10.4082
▁mystery	-10.4082
▁october	-10.4082
▁persuade	-10.4082
▁puppy	-10.4082
▁purchase	-10.4082
▁sarge	-10.4082
▁stuart	-10.4082
▁tunnel	-10.4082
▁vava	-10.4082
▁winsiow	-10.4082
▁xibalba	-10.4082
▁yarmouth	-10.4082
▁amanda	-10.4082
▁arguing	-10.4082
▁jerry	-10.4082
▁cathy	-10.4082
▁fabulous	-10.4082
▁target	-10.4082
▁transmission	-10.4082
through	-10.4082
▁rumba	-10.4082
▁boston	-10.4082
▁imitating	-10.4082
▁bushwood	-10.4082
▁marcus	-10.4082
▁whining	-10.4082
▁joking	-10.4082
▁felicia	-10.4082
▁catherine	-10.4082
▁marva	-10.4082
▁source	-10.4082
▁purse	-10.4082
▁togo	-10.4082
▁engagement	-10.4082
▁timmy	-10.4083
▁merv	-10.4083
▁duke	-10.4083
▁eve	-10.4083
▁sec	-10.4083
▁camus	-10.4083
▁begun	-10.4083
▁liar	-10.4083
▁hahaha	-10.4083
▁karr	-10.4083
▁memories	-10.4084
▁bait	-10.4084
▁mario	-10.4084
▁punishment	-10.4084
▁response	-10.4084
▁appeal	-10.4084
▁pegasus	-10.4084
▁ceremony	-10.4084
▁network	-10.4084
▁maxwell	-10.4084
▁starving	-10.4084
▁daily	-10.4084
▁stein	-10.4084
▁secure	-10.4084
▁cities	-10.4085
▁extend	-10.4085
▁resignation	-10.4085
▁fork	-10.4085
▁inches	-10.4085
▁collection	-10.4085
▁effective	-10.4086
▁failure	-10.4086
▁wager	-10.4086
▁brian	-10.4086
▁cellar	-10.4086
▁marie	-10.4087
▁filthy	-10.4087
▁pumpkin	-10.4088
▁trial	-10.4088
▁kiddo	-10.4088
▁bingo	-10.4088
▁naked	-10.4088
zz	-10.4088
▁robbery	-10.4089
▁nails	-10.4089
▁gregg	-10.409
▁veterans	-10.4091
▁tries	-10.4092
▁gear	-10.4092
▁ballet	-10.4093
▁heartland	-10.4093
▁claus	-10.4093
▁sink	-10.4094
▁setting	-10.4094
▁threatened	-10.4095
▁saddle	-10.4095
▁robin	-10.4095
▁pops	-10.4096
▁elliott	-10.4096
▁stepped	-10.4097
▁spear	-10.4098
▁stream	-10.4099
▁link	-10.4099
▁lane	-10.41
▁pm	-10.4103
▁conduct	-10.411
▁sucker	-10.4111
▁compared	-10.4111
▁officially	-10.4115
▁fingerprints	-10.4121
▁hood	-10.4126
▁useful	-10.4127
▁highest	-10.4129
▁managed	-10.4132
▁shown	-10.4133
ob	-10.4134
▁loaded	-10.4134
▁honestly	-10.4136
▁escaped	-10.4142
▁warned	-10.4148
▁musketeers	-10.4152
▁beeps	-10.4152
▁complaining	-10.4156
▁ty	-10.4161
pu	-10.4165
▁palm	-10.4166
ms	-10.4167
▁pills	-10.4167
▁brandy	-10.4177
▁til	-10.4181
▁bothered	-10.4184
▁image	-10.4188
▁documents	-10.4197
▁athletes	-10.4198
▁listened	-10.4202
▁sha	-10.4206
▁lighter	-10.4207
▁seated	-10.4207
▁photos	-10.4213
▁ay	-10.4223
▁knocked	-10.4225
lic	-10.4233
pe	-10.4238
▁tend	-10.4249
▁visiting	-10.4274
▁gu	-10.4278
▁minds	-10.4282
▁sticks	-10.429
▁remove	-10.4297
▁bugs	-10.4322
▁rattl	-10.4324
▁marrying	-10.4338
▁deadly	-10.434
▁wondered	-10.4347
▁beasts	-10.4353
ler	-10.4355
▁bu	-10.4366
▁parts	-10.4378
▁hug	-10.4392
▁trace	-10.4399
▁painful	-10.4402
▁sew	-10.442
▁sessions	-10.4432
▁cleared	-10.4458
▁vi	-10.4463
▁remains	-10.4464
▁falls	-10.4467
▁pin	-10.4468
▁coaching	-10.4469
zing	-10.4471
▁bombs	-10.4471
light	-10.4494
ummy	-10.4514
ga	-10.4518
▁he	-10.4532
▁pe	-10.4544
▁ch	-10.4555
▁fellows	-10.4588
▁fruits	-10.4589
bs	-10.4592
▁interfere	-10.4604
▁gunshots	-10.4605
▁russians	-10.4606
ned	-10.4616
▁phones	-10.4619
▁rot	-10.4633
▁reminds	-10.4652
▁lawyers	-10.4652
▁vari	-10.4674
ister	-10.4676
▁trans	-10.4685
▁design	-10.4736
▁towns	-10.4746
▁mor	-10.4754
▁sigh	-10.4754
▁profit	-10.4761
▁comp	-10.4768
▁don	-10.4772
▁lick	-10.4778
▁theater	-10.4801
▁journalist	-10.4802
▁maiden	-10.4804
▁explanation	-10.4806
▁towel	-10.4806
▁neigh	-10.4806
gged	-10.4808
▁rumor	-10.4809
▁principle	-10.4811
▁league	-10.4811
▁cousin	-10.4813
▁mule	-10.4813
▁client	-10.4815
▁jap	-10.4815
▁bolshevik	-10.4821
▁rip	-10.4822
▁page	-10.483
for	-10.4841
▁farmer	-10.4851
▁snor	-10.4851
ving	-10.4862
ki	-10.4867
work	-10.4877
▁punk	-10.4877
▁usa	-10.4883
ka	-10.4885
▁inform	-10.4893
pr	-10.4896
▁insult	-10.4907
▁stores	-10.4907
▁flow	-10.4915
▁musician	-10.4921
reme	-10.4923
▁convent	-10.4928
▁areas	-10.4939
just	-10.4947
write	-10.495
▁obey	-10.4956
▁announce	-10.4964
▁gain	-10.4965
jo	-10.4965
▁replace	-10.4965
▁improve	-10.4965
▁squeeze	-10.4966
▁lame	-10.497
▁machines	-10.4971
▁dirt	-10.4976
▁possess	-10.4979
▁unlike	-10.4981
our	-10.4981
▁slight	-10.4982
▁mistress	-10.4984
▁wicked	-10.4984
▁potato	-10.4985
▁mass	-10.4986
ible	-10.4987
▁surprises	-10.4989
▁prior	-10.4989
aboom	-10.499
▁virgin	-10.499
▁isabel	-10.4991
▁forfeit	-10.4991
▁nebraska	-10.4991
▁pistol	-10.4991
▁shelter	-10.4991
▁abbott	-10.4991
▁albrecht	-10.4991
▁authentic	-10.4991
▁believing	-10.4991
▁caribou	-10.4991
▁charmander	-10.4991
▁combination	-10.4991
▁credentials	-10.4991
▁division	-10.4991
▁dozen	-10.4991
▁gibus	-10.4991
▁grogan	-10.4991
▁hyde	-10.4991
▁identity	-10.4991
▁intelligence	-10.4991
▁jeez	-10.4991
▁jessica	-10.4991
▁lettuce	-10.4991
▁location	-10.4991
▁lollipop	-10.4991
▁longeverne	-10.4991
▁lugash	-10.4991
▁lunatic	-10.4991
▁naughty	-10.4991
▁nephew	-10.4991
▁ollie	-10.4991
▁opposed	-10.4991
▁orange	-10.4991
▁pacific	-10.4991
▁preserve	-10.4991
▁propaganda	-10.4991
▁prosecutor	-10.4991
▁reckless	-10.4991
▁rucio	-10.4991
▁stubborn	-10.4991
▁tedesco	-10.4991
▁dragged	-10.4991
▁envy	-10.4991
▁madrid	-10.4991
▁miserable	-10.4991
▁muttering	-10.4991
▁ouch	-10.4991
▁period	-10.4991
▁wilderness	-10.4991
▁coincidence	-10.4991
▁messenger	-10.4991
▁nerve	-10.4991
▁urmi	-10.4991
▁whimpers	-10.4991
▁headquarters	-10.4991
▁occupied	-10.4991
▁stiles	-10.4991
▁stroke	-10.4991
▁costume	-10.4991
▁revoir	-10.4991
▁bannock	-10.4991
▁pleasant	-10.4991
▁scalp	-10.4991
▁sweep	-10.4991
▁worries	-10.4991
▁brawley	-10.4991
▁trask	-10.4991
▁impact	-10.4991
▁burger	-10.4991
▁francesco	-10.4991
▁nelda	-10.4991
▁unconscious	-10.4991
▁martha	-10.4991
▁chew	-10.4991
▁ashford	-10.4991
▁carried	-10.4991
▁wrapped	-10.4991
▁winslow	-10.4991
▁zero	-10.4991
▁civilized	-10.4992
▁transmitter	-10.4992
▁radar	-10.4992
▁administration	-10.4992
▁consciousness	-10.4992
▁suitcase	-10.4992
▁theory	-10.4992
▁review	-10.4992
▁debbie	-10.4992
▁plug	-10.4993
▁portland	-10.4993
▁amber	-10.4993
▁precisely	-10.4993
▁poop	-10.4993
▁unbelievable	-10.4993
▁revolutionary	-10.4993
▁appropriate	-10.4993
▁polite	-10.4993
▁rifle	-10.4993
▁parrot	-10.4993
▁harp	-10.4993
▁dignity	-10.4993
▁shrieking	-10.4994
▁wings	-10.4994
▁bold	-10.4994
▁jewelry	-10.4994
▁universe	-10.4994
▁intense	-10.4995
▁gig	-10.4995
▁riddle	-10.4996
▁appointed	-10.4996
▁anna	-10.4996
ner	-10.4996
▁solve	-10.4997
▁estate	-10.4997
▁surface	-10.4998
▁argh	-10.4998
▁sharing	-10.4999
▁seventh	-10.4999
▁stefano	-10.4999
▁chairman	-10.4999
▁mice	-10.5
▁rv	-10.5
▁intention	-10.5001
▁expression	-10.5001
▁sire	-10.5002
▁captured	-10.5003
▁jessie	-10.5003
▁cher	-10.5004
▁momma	-10.5005
▁dial	-10.5005
▁fry	-10.5005
▁disturbed	-10.5005
▁hopefully	-10.5006
▁dang	-10.5008
▁cabin	-10.5008
▁bunk	-10.5011
▁tosh	-10.5011
▁mistaken	-10.5013
▁flush	-10.5013
▁complaint	-10.5015
▁homesteaders	-10.5017
▁bah	-10.5017
▁embarrassed	-10.5018
▁dining	-10.5019
▁bend	-10.502
▁fastest	-10.5021
▁lake	-10.5021
▁latest	-10.5022
how	-10.5022
▁goodlooking	-10.5025
▁heroes	-10.503
▁oughta	-10.503
▁easter	-10.503
▁wiped	-10.5033
▁rebels	-10.5035
if	-10.5038
▁survived	-10.5043
▁growls	-10.5046
▁laser	-10.5049
▁stamps	-10.5051
▁deeper	-10.5053
▁delivered	-10.5055
▁spinn	-10.5058
nows	-10.5063
▁added	-10.5067
▁grapes	-10.5068
▁awaits	-10.5068
▁lawn	-10.5069
mond	-10.5084
▁shortly	-10.5095
▁hu	-10.5098
▁oops	-10.5102
▁socks	-10.5102
▁appeared	-10.5108
▁incident	-10.5112
▁sting	-10.5119
▁committ	-10.5135
▁protected	-10.5137
▁imagined	-10.5139
▁likely	-10.514
▁pit	-10.514
▁pile	-10.5146
▁mill	-10.5147
▁william	-10.5149
▁bullets	-10.5153
▁web	-10.5154
ky	-10.5155
▁stealing	-10.5157
▁woke	-10.5165
▁aim	-10.518
▁fools	-10.5181
ning	-10.5197
▁hunters	-10.5197
▁heights	-10.5204
▁arguments	-10.5204
▁results	-10.5204
side	-10.5206
cl	-10.521
▁losers	-10.522
▁sucks	-10.5221
▁issues	-10.5222
▁ships	-10.5225
ze	-10.5232
▁hip	-10.5247
▁shines	-10.5275
▁rec	-10.529
▁shoulders	-10.529
▁actors	-10.5292
▁reporting	-10.5296
▁agents	-10.5307
▁chips	-10.5324
▁sales	-10.5337
▁mar	-10.5338
yeah	-10.5356
▁conditions	-10.5358
▁sl	-10.5359
▁roads	-10.536
▁adventures	-10.5375
▁partners	-10.5411
▁rogers	-10.5428
▁pointed	-10.55
▁lar	-10.5519
▁schools	-10.5528
▁grip	-10.5559
▁skill	-10.5567
air	-10.5575
ped	-10.5581
▁unh	-10.559
▁dealing	-10.5591
▁meter	-10.5606
▁gi	-10.5611
ok	-10.5612
▁flames	-10.5664
ana	-10.571
▁hats	-10.5715
ci	-10.5715
mi	-10.5729
▁ab	-10.5732
▁sorrow	-10.5732
▁los	-10.5737
tte	-10.5743
▁wi	-10.5755
▁flu	-10.5765
▁costs	-10.5772
▁measure	-10.5786
▁rang	-10.5794
▁monsters	-10.5794
▁classic	-10.5795
▁photograph	-10.5798
▁relationship	-10.5806
▁villain	-10.5807
▁officers	-10.5807
▁ingredient	-10.5809
▁bullet	-10.581
▁politician	-10.5811
▁warrior	-10.5811
▁servant	-10.5811
▁generation	-10.5812
▁product	-10.5812
▁messages	-10.5812
▁citizen	-10.5817
▁degree	-10.5819
▁cookie	-10.5833
off	-10.5839
▁movement	-10.5842
ink	-10.5842
▁windows	-10.5847
▁ration	-10.5853
▁ninja	-10.5856
▁worrying	-10.5869
mat	-10.5883
▁cre	-10.59
what	-10.5907
▁it	-10.5907
ship	-10.5907
▁uhuh	-10.5916
▁singer	-10.593
▁begins	-10.5937
▁flash	-10.5941
▁burst	-10.5944
▁steer	-10.5946
▁sw	-10.5952
▁boot	-10.5954
▁fires	-10.5954
load	-10.5955
▁funk	-10.5958
▁crush	-10.5959
▁adore	-10.5966
▁sacrifice	-10.5967
▁divorce	-10.5971
▁the	-10.5973
▁recent	-10.5979
▁batter	-10.5981
▁motor	-10.5987
▁region	-10.5988
▁similar	-10.5989
▁loyal	-10.599
▁glove	-10.599
▁alex	-10.5991
▁thirty	-10.5991
▁afterwards	-10.5991
▁alligator	-10.5991
▁ambition	-10.5991
▁amount	-10.5991
▁antitoxin	-10.5991
▁anyhow	-10.5991
▁application	-10.5991
▁armistice	-10.5991
▁behavior	-10.5991
▁belief	-10.5991
▁bishop	-10.5991
▁brenda	-10.5991
▁buzhardt	-10.5991
▁campaign	-10.5991
▁compliment	-10.5991
▁congratulate	-10.5991
▁curious	-10.5991
▁dessert	-10.5991
▁disrupt	-10.5991
▁draft	-10.5991
▁driscoll	-10.5991
▁eminence	-10.5991
▁ernie	-10.5991
▁escort	-10.5991
▁essential	-10.5991
▁happily	-10.5991
▁inspiration	-10.5991
▁institution	-10.5991
▁iww	-10.5991
▁library	-10.5991
▁manhattan	-10.5991
▁meanwhile	-10.5991
▁morgan	-10.5991
▁murdoch	-10.5991
▁muscle	-10.5991
▁november	-10.5991
▁obtain	-10.5991
▁ogilvie	-10.5991
▁oozaru	-10.5991
▁phupho	-10.5991
▁proposal	-10.5991
▁retreat	-10.5991
▁rutherford	-10.5991
▁sauna	-10.5991
▁surgeon	-10.5991
▁technique	-10.5991
▁television	-10.5991
▁traffic	-10.5991
▁trophy	-10.5991
▁truffle	-10.5991
▁unexpected	-10.5991
▁vichy	-10.5991
▁weasel	-10.5991
▁briggs	-10.5991
▁chef	-10.5991
▁iook	-10.5991
▁vegas	-10.5991
▁cinema	-10.5991
▁decree	-10.5991
▁reef	-10.5991
▁swiss	-10.5991
▁thisll	-10.5991
▁bureau	-10.5991
▁gym	-10.5991
▁reaiiy	-10.5991
▁superior	-10.5991
▁flesh	-10.5991
▁jip	-10.5991
▁drug	-10.5991
▁therefore	-10.5991
▁jenkins	-10.5991
▁funeral	-10.5991
▁whyd	-10.5991
▁inhales	-10.5991
▁stunned	-10.5991
▁bunny	-10.5991
▁rudi	-10.5991
▁lindsey	-10.5991
▁revs	-10.5991
▁mmmhmm	-10.5991
▁blaine	-10.5991
▁display	-10.5991
▁kayla	-10.5991
▁moses	-10.5991
▁tyler	-10.5991
▁riley	-10.5991
▁cure	-10.5991
▁refund	-10.5992
▁entrance	-10.5992
▁graham	-10.5992
▁rudy	-10.5992
▁swine	-10.5992
▁faint	-10.5992
▁tasty	-10.5992
▁assault	-10.5992
▁depressed	-10.5992
▁urgent	-10.5992
▁generous	-10.5992
▁shook	-10.5992
▁basis	-10.5992
▁chili	-10.5992
▁average	-10.5992
▁household	-10.5993
▁woof	-10.5993
▁influence	-10.5993
▁hamilton	-10.5993
▁summon	-10.5993
▁basically	-10.5993
▁bonus	-10.5993
▁colton	-10.5993
▁plot	-10.5993
▁poet	-10.5993
▁gross	-10.5993
▁patch	-10.5993
▁peak	-10.5993
▁advise	-10.5994
▁mock	-10.5994
▁alexander	-10.5994
▁dug	-10.5994
▁laundry	-10.5994
▁latin	-10.5994
▁worn	-10.5994
▁distraction	-10.5994
▁jose	-10.5994
▁childhood	-10.5994
▁robertson	-10.5994
▁nasty	-10.5994
▁feature	-10.5994
▁affection	-10.5995
▁dating	-10.5995
▁amazed	-10.5995
▁nearby	-10.5995
vast	-10.5995
▁ashley	-10.5995
▁bucket	-10.5995
▁rode	-10.5995
▁lndian	-10.5995
▁ye	-10.5995
▁remarkable	-10.5995
▁production	-10.5995
▁solo	-10.5996
▁coverup	-10.5998
▁entry	-10.5998
▁masses	-10.5998
▁passage	-10.5998
▁boil	-10.5998
▁slamming	-10.5998
▁chosen	-10.5999
▁sulk	-10.5999
▁studi	-10.5999
▁cantata	-10.5999
▁identified	-10.5999
▁personality	-10.6
▁condo	-10.6
▁involve	-10.6
▁scottie	-10.6
▁highway	-10.6
▁julien	-10.6001
▁hamlet	-10.6001
▁role	-10.6001
▁shrieks	-10.6002
▁violence	-10.6003
▁coma	-10.6003
▁subpoenaed	-10.6003
▁sup	-10.6003
▁honks	-10.6004
▁sixth	-10.6004
▁janet	-10.6004
▁stunt	-10.6006
▁pickup	-10.6006
▁invented	-10.6007
▁humanity	-10.6007
▁suggestion	-10.6007
▁thumping	-10.6008
▁punished	-10.6009
▁dime	-10.601
▁formal	-10.601
▁lobster	-10.601
▁backyard	-10.601
▁thus	-10.6013
▁organized	-10.6014
▁arrow	-10.6021
▁roy	-10.6022
▁drown	-10.6022
▁matches	-10.6023
▁leon	-10.6023
▁crushed	-10.6024
▁forgiven	-10.6024
▁wei	-10.6026
▁wandering	-10.6028
▁denne	-10.6032
▁embarrassing	-10.6033
▁pace	-10.6033
▁useless	-10.6035
▁spy	-10.6035
▁capt	-10.6036
▁mixed	-10.6036
▁pastor	-10.6037
▁athletics	-10.6038
▁clue	-10.6038
▁brighter	-10.6038
▁paula	-10.6042
▁shy	-10.6045
sey	-10.6046
▁washed	-10.6047
▁suffered	-10.6048
▁sobs	-10.6051
▁talented	-10.6056
▁shared	-10.6071
▁surfing	-10.6077
▁goats	-10.6077
▁reaction	-10.6077
▁sor	-10.6079
▁christy	-10.609
▁eclipse	-10.6091
▁tools	-10.6095
▁insects	-10.6095
▁knuckles	-10.6095
▁murdered	-10.6101
▁wars	-10.6121
▁gardener	-10.6122
▁corpora	-10.6127
▁ga	-10.6137
sky	-10.6147
▁filling	-10.6152
▁belly	-10.616
▁bid	-10.6165
▁qui	-10.6178
▁moral	-10.6181
▁packing	-10.6188
▁crud	-10.619
▁za	-10.619
▁explained	-10.6193
▁considering	-10.6194
▁farmers	-10.6202
▁laughed	-10.6208
bar	-10.6212
▁praying	-10.6216
▁attacking	-10.6218
▁camel	-10.6223
▁carl	-10.6247
▁fed	-10.6255
▁concept	-10.6269
▁swords	-10.6285
▁dressing	-10.629
▁cease	-10.6295
▁poke	-10.6299
▁ref	-10.6312
▁nu	-10.6313
▁tails	-10.6316
ire	-10.6335
▁clouds	-10.6342
▁affairs	-10.6342
▁ants	-10.6349
▁beautifully	-10.6351
▁camping	-10.6364
gi	-10.6368
▁troubles	-10.6372
▁fart	-10.6373
wa	-10.6379
▁stan	-10.6393
ified	-10.6406
tapping	-10.6411
▁ra	-10.6412
▁joining	-10.6429
▁pulling	-10.6467
▁reverse	-10.6484
▁presum	-10.6489
lan	-10.6493
ists	-10.6511
▁nations	-10.6516
uck	-10.6537
▁landing	-10.6544
uk	-10.6545
▁ri	-10.6565
▁ven	-10.657
▁roses	-10.6573
▁greater	-10.6592
▁gifts	-10.6593
▁ni	-10.6611
▁kinds	-10.6618
▁blues	-10.6621
▁dreaming	-10.6625
▁wha	-10.6629
tan	-10.6637
▁jeff	-10.6652
qui	-10.6672
▁deserves	-10.6672
▁sweets	-10.6674
ound	-10.6681
ack	-10.6692
▁persons	-10.6695
▁inter	-10.68
▁undo	-10.6809
▁distan	-10.6828
▁finds	-10.6844
ium	-10.6865
▁shoots	-10.6865
▁elephants	-10.6866
ments	-10.6871
▁roar	-10.6879
▁placed	-10.6881
▁ver	-10.6885
▁expose	-10.6887
▁limit	-10.6889
▁detail	-10.6894
▁strip	-10.6902
▁nap	-10.6906
▁monkey	-10.6912
▁fortunate	-10.6912
▁curtain	-10.6917
▁helmet	-10.692
▁circle	-10.6922
▁error	-10.6923
▁communication	-10.6924
▁photo	-10.6927
▁trains	-10.6928
▁olympic	-10.693
▁slave	-10.6931
▁twin	-10.6934
▁nut	-10.6937
▁pus	-10.6942
▁bum	-10.695
▁cock	-10.695
▁lifetime	-10.6961
▁drama	-10.6961
▁finals	-10.6969
tra	-10.6998
oui	-10.7014
▁spoil	-10.7021
▁embarrass	-10.7022
▁heal	-10.7023
ants	-10.7025
ating	-10.7034
▁idiots	-10.704
like	-10.7056
▁net	-10.706
▁bon	-10.706
water	-10.7062
▁jess	-10.7062
▁noses	-10.7067
▁haunt	-10.7068
▁smash	-10.7069
▁shoo	-10.708
▁compare	-10.7087
▁haul	-10.7092
right	-10.7092
▁bore	-10.7098
▁toro	-10.7098
▁chuck	-10.71
▁thick	-10.7101
▁mornin	-10.7101
▁urge	-10.7101
▁symbol	-10.7102
▁cigar	-10.7102
▁forbid	-10.7102
▁commercial	-10.7102
▁confusing	-10.7102
▁potential	-10.7102
▁absurd	-10.7102
▁airplane	-10.7102
▁ambulance	-10.7102
▁andrea	-10.7102
▁anytime	-10.7102
▁awkward	-10.7102
▁bastille	-10.7102
▁bettsbridge	-10.7102
▁celebration	-10.7102
▁centuries	-10.7102
▁chicago	-10.7102
▁ciolino	-10.7102
▁clermont	-10.7102
▁compromise	-10.7102
▁connolly	-10.7102
▁consequences	-10.7102
▁democracy	-10.7102
▁despair	-10.7102
▁dispatch	-10.7102
▁einstein	-10.7102
▁elixir	-10.7102
▁envelope	-10.7102
▁epidemic	-10.7102
▁eternity	-10.7102
▁excellency	-10.7102
▁exchange	-10.7102
▁explode	-10.7102
▁gabriel	-10.7102
▁greek	-10.7102
▁hallelujah	-10.7102
▁hooray	-10.7102
▁identify	-10.7102
▁jotham	-10.7102
▁jouvet	-10.7102
▁judging	-10.7102
▁liquor	-10.7102
▁mavericks	-10.7102
▁muslim	-10.7102
▁neighbour	-10.7102
▁nicole	-10.7102
▁outfit	-10.7102
▁paralympics	-10.7102
▁philip	-10.7102
▁piplup	-10.7102
▁primitive	-10.7102
▁procedure	-10.7102
▁rochefort	-10.7102
▁saknussemm	-10.7102
▁sausage	-10.7102
▁savage	-10.7102
▁seppala	-10.7102
▁shrink	-10.7102
▁smooth	-10.7102
▁stadium	-10.7102
▁stiff	-10.7102
▁suspicious	-10.7102
▁swift	-10.7102
▁sylvia	-10.7102
▁thiago	-10.7102
▁trullinger	-10.7102
▁underwear	-10.7102
▁wardrobe	-10.7102
▁zamora	-10.7102
▁couid	-10.7102
▁holler	-10.7102
▁marshadow	-10.7102
▁sauce	-10.7102
▁cleon	-10.7102
▁eco	-10.7102
▁presidency	-10.7102
▁veil	-10.7102
▁posada	-10.7102
▁tractor	-10.7102
▁gascon	-10.7102
▁ellie	-10.7102
▁picnic	-10.7102
▁tragic	-10.7102
▁beckwith	-10.7102
▁delmann	-10.7102
▁aisle	-10.7102
▁gallon	-10.7102
▁wives	-10.7102
▁referring	-10.7102
▁nudge	-10.7102
▁panties	-10.7102
▁contest	-10.7102
▁vault	-10.7102
▁avenue	-10.7102
▁judo	-10.7102
▁vital	-10.7103
▁helen	-10.7103
▁ladder	-10.7103
▁previous	-10.7103
▁panther	-10.7103
lessly	-10.7103
▁alert	-10.7103
▁preston	-10.7103
▁zito	-10.7103
▁smiling	-10.7103
▁upside	-10.7103
▁isabella	-10.7103
▁sinister	-10.7103
▁fudge	-10.7103
▁gambling	-10.7103
▁bruno	-10.7103
▁begging	-10.7103
▁delhi	-10.7103
▁raid	-10.7103
▁series	-10.7103
▁fantasy	-10.7103
▁massage	-10.7103
▁geologist	-10.7103
▁laztec	-10.7103
▁brick	-10.7104
▁diesel	-10.7104
▁species	-10.7104
▁whatll	-10.7104
▁luciana	-10.7104
▁checkpoint	-10.7104
▁vice	-10.7104
▁earl	-10.7104
▁spiritual	-10.7104
▁connection	-10.7104
▁loyalty	-10.7104
▁poppa	-10.7105
▁jungle	-10.7105
▁vet	-10.7105
▁increasing	-10.7105
▁marilyn	-10.7105
▁necessarily	-10.7105
▁eternal	-10.7105
▁sammy	-10.7105
▁vow	-10.7105
▁japan	-10.7105
▁wel	-10.7105
▁skies	-10.7106
▁admitted	-10.7106
▁dj	-10.7106
▁assist	-10.7106
▁genetic	-10.7106
▁package	-10.7106
▁soda	-10.7106
▁harsh	-10.7107
▁motorist	-10.7107
▁squash	-10.7107
▁lind	-10.7108
▁weakness	-10.7108
▁ciao	-10.7108
▁slice	-10.7108
▁injured	-10.7108
▁wore	-10.7109
▁confused	-10.7109
▁ahem	-10.7109
▁quitter	-10.7109
▁middleton	-10.711
▁chamber	-10.7111
▁cupcake	-10.7111
▁drill	-10.7111
▁retired	-10.7111
▁stray	-10.7112
▁margot	-10.7112
▁accused	-10.7112
▁alto	-10.7112
▁glow	-10.7113
tennis	-10.7115
▁possession	-10.7116
▁penny	-10.7116
▁graduate	-10.7116
▁whore	-10.7117
▁divided	-10.7118
▁slightly	-10.7118
▁shore	-10.7119
▁marri	-10.7119
▁coal	-10.7119
▁clothing	-10.7121
▁version	-10.7121
▁lend	-10.7121
▁european	-10.7121
▁drummer	-10.7121
▁battery	-10.7121
▁differences	-10.7123
▁frightened	-10.7123
▁quote	-10.7125
▁robbing	-10.7126
▁ticking	-10.7127
▁sail	-10.7127
▁abandoned	-10.7128
▁worthless	-10.7128
▁divorced	-10.713
▁handling	-10.7131
▁bess	-10.7131
▁floating	-10.7133
▁cia	-10.7133
▁blonde	-10.7133
▁greed	-10.7133
▁stew	-10.7133
▁mushrooms	-10.7134
tone	-10.7137
▁q	-10.7137
▁impressed	-10.7142
▁beal	-10.7143
▁designed	-10.7144
▁lit	-10.7144
▁produced	-10.7147
▁reduce	-10.7149
sherman	-10.715
▁deserted	-10.7151
▁boxes	-10.7153
▁goose	-10.7155
▁daytime	-10.7156
▁foundation	-10.7163
▁classes	-10.7163
▁joint	-10.7165
▁loudly	-10.7166
▁sniffing	-10.7166
▁dancer	-10.7167
▁recognized	-10.7175
▁patterns	-10.7177
▁vegetables	-10.7177
▁screwing	-10.7177
▁heed	-10.7177
▁lance	-10.7183
▁existed	-10.7199
▁bandits	-10.72
▁robbers	-10.7201
▁demon	-10.7206
lor	-10.7207
▁hale	-10.7214
ck	-10.7215
▁waited	-10.7217
▁brazilians	-10.7219
▁kneel	-10.7222
▁concentrate	-10.7224
▁makeup	-10.7235
ue	-10.7239
▁victims	-10.724
▁nazis	-10.724
▁climbing	-10.7248
youre	-10.7249
▁cakes	-10.7251
▁capers	-10.7255
▁helpful	-10.7271
▁continued	-10.7276
▁liver	-10.7278
▁discussing	-10.7282
▁speakers	-10.729
agging	-10.7291
▁cons	-10.7293
▁haha	-10.7293
▁robe	-10.7297
▁japs	-10.7326
ily	-10.7328
ify	-10.7331
▁pea	-10.7337
▁saints	-10.7347
▁requires	-10.7347
▁respected	-10.7354
kins	-10.7361
card	-10.7365
▁terms	-10.7368
▁worthy	-10.7369
▁te	-10.7385
▁lap	-10.7388
▁jerks	-10.7388
▁enjoying	-10.7388
▁messed	-10.7395
▁torture	-10.7395
sta	-10.7399
▁masks	-10.7411
▁feelin	-10.7425
ano	-10.7441
▁testing	-10.7459
rous	-10.7465
▁kissing	-10.7473
▁gates	-10.75
▁sounded	-10.7508
▁yards	-10.7524
▁asks	-10.7527
▁drums	-10.7531
▁dings	-10.7535
▁je	-10.7536
▁efforts	-10.754
▁finding	-10.7566
▁leaders	-10.7571
▁gangs	-10.7577
ight	-10.7581
▁socialists	-10.7584
▁waters	-10.7593
▁lease	-10.7595
ix	-10.7597
ham	-10.7599
▁wheels	-10.7608
▁af	-10.7608
▁eli	-10.7609
▁exists	-10.7632
ther	-10.7632
▁talks	-10.7635
▁ting	-10.7644
▁hells	-10.7682
▁interests	-10.7696
▁womens	-10.7727
▁tin	-10.774
▁turner	-10.7751
▁she	-10.7774
▁qua	-10.7774
all	-10.7784
▁lip	-10.7798
eeh	-10.7799
▁halt	-10.7808
gu	-10.7808
serving	-10.7815
▁voices	-10.783
▁tha	-10.7832
ite	-10.7833
▁beats	-10.7838
thank	-10.7848
▁damned	-10.7852
▁to	-10.787
my	-10.791
▁har	-10.7925
▁exc	-10.793
der	-10.7965
tis	-10.7979
▁qu	-10.7994
int	-10.7994
▁gre	-10.8005
▁ru	-10.8009
ja	-10.801
▁zi	-10.8016
▁bl	-10.8016
▁tables	-10.8022
ush	-10.8022
lapping	-10.803
chief	-10.803
▁hoo	-10.8052
tial	-10.8055
▁virtu	-10.8058
▁horns	-10.8085
▁walla	-10.8088
▁ann	-10.809
▁hop	-10.8101
▁pat	-10.8109
ew	-10.811
ock	-10.8111
▁actions	-10.8113
▁fab	-10.8117
its	-10.8118
▁repair	-10.8126
▁swell	-10.8129
▁trumpet	-10.813
▁crook	-10.8131
▁whisper	-10.8132
que	-10.8133
▁williams	-10.8135
line	-10.8144
▁callaghan	-10.8162
zi	-10.8164
▁fence	-10.8166
▁tshirt	-10.8167
▁newspaper	-10.8167
▁radical	-10.817
▁cheek	-10.817
▁candle	-10.8171
gy	-10.8174
▁knot	-10.8176
▁lands	-10.8176
▁document	-10.8177
▁athlete	-10.8178
▁diamond	-10.8179
▁chipmunk	-10.818
▁label	-10.8181
▁marine	-10.8184
▁bond	-10.8205
▁cable	-10.8209
▁how	-10.8218
▁desc	-10.8219
▁hopeless	-10.8224
berg	-10.8234
▁medi	-10.8253
▁shove	-10.8266
▁reveal	-10.8269
▁cheat	-10.8274
ries	-10.8277
▁buzz	-10.8297
▁lean	-10.8298
eck	-10.8298
▁cent	-10.8299
gne	-10.8301
▁crawl	-10.8303
walla	-10.8308
▁access	-10.8309
piece	-10.8311
bang	-10.8312
▁disappoint	-10.8313
▁ken	-10.8314
▁greens	-10.8316
▁ju	-10.8317
hood	-10.8318
▁nurs	-10.8319
▁indicate	-10.8327
▁reserve	-10.833
▁rug	-10.833
▁debt	-10.8336
▁frost	-10.8337
▁guilt	-10.8337
▁slim	-10.8337
▁continu	-10.8339
▁august	-10.8339
boy	-10.8341
▁weigh	-10.8342
▁gro	-10.8343
▁margo	-10.8347
▁jeep	-10.8349
▁movin	-10.8349
lasting	-10.835
▁adopt	-10.835
▁construct	-10.835
▁squirt	-10.835
▁civil	-10.835
▁journal	-10.835
▁fema	-10.835
▁egypt	-10.8351
▁rio	-10.8351
▁serpent	-10.8351
▁injun	-10.8352
▁prime	-10.8352
▁musket	-10.8352
▁sepp	-10.8352
▁activities	-10.8352
▁activity	-10.8352
▁airstrip	-10.8352
▁amsterdam	-10.8352
▁apologizing	-10.8352
▁bernard	-10.8352
▁breast	-10.8352
▁brezhnev	-10.8352
▁broadcast	-10.8352
▁brooklyn	-10.8352
▁buddha	-10.8352
▁calamity	-10.8352
▁celebrating	-10.8352
▁clacking	-10.8352
▁dictabelt	-10.8352
▁dinosaur	-10.8352
▁diphtheria	-10.8352
▁doggone	-10.8352
▁economic	-10.8352
▁entei	-10.8352
▁fridge	-10.8352
▁fuhrer	-10.8352
▁griba	-10.8352
▁gustav	-10.8352
▁happier	-10.8352
▁ignit	-10.8352
▁increase	-10.8352
▁inevitable	-10.8352
▁kansas	-10.8352
▁kikakee	-10.8352
▁koophuis	-10.8352
▁krader	-10.8352
▁length	-10.8352
▁levine	-10.8352
▁liquid	-10.8352
▁mckay	-10.8352
▁melanchol	-10.8352
▁miffy	-10.8352
▁milkywhite	-10.8352
▁nanananana	-10.8352
▁norbert	-10.8352
▁outstanding	-10.8352
▁oxgodby	-10.8352
▁participate	-10.8352
▁perspective	-10.8352
▁polish	-10.8352
▁prophecy	-10.8352
▁proposition	-10.8352
▁puppet	-10.8352
▁satellite	-10.8352
▁satisfied	-10.8352
▁satisfy	-10.8352
▁scientific	-10.8352
▁scientist	-10.8352
▁scotland	-10.8352
▁surrounded	-10.8352
▁survival	-10.8352
▁thomas	-10.8352
▁toothpaste	-10.8352
▁vengeance	-10.8352
▁vivian	-10.8352
▁vodka	-10.8352
▁volume	-10.8352
▁volunteer	-10.8352
▁whinnies	-10.8352
▁withdraw	-10.8352
▁zinoviev	-10.8352
▁roshi	-10.8352
▁herbert	-10.8352
▁occurred	-10.8352
▁modest	-10.8352
▁thoth	-10.8352
▁winnie	-10.8352
▁dissent	-10.8352
▁florence	-10.8352
▁device	-10.8352
▁communicate	-10.8352
▁profound	-10.8352
▁residence	-10.8352
▁dialogue	-10.8352
▁elbow	-10.8352
▁worship	-10.8352
▁hindu	-10.8352
▁outlaw	-10.8352
▁housing	-10.8352
▁prophet	-10.8352
▁chores	-10.8352
▁communism	-10.8352
▁wolves	-10.8352
▁garlic	-10.8352
▁voyage	-10.8352
▁yuri	-10.8352
▁canada	-10.8352
▁robotics	-10.8352
▁offense	-10.8352
▁aaaa	-10.8352
▁flood	-10.8352
▁praise	-10.8352
▁giddyup	-10.8352
▁imagination	-10.8352
▁authorities	-10.8352
▁gauche	-10.8352
▁lobby	-10.8352
▁sunyu	-10.8352
▁racing	-10.8352
▁zoca	-10.8352
▁graveyard	-10.8353
▁silent	-10.8353
▁garage	-10.8353
▁sheba	-10.8353
▁parlor	-10.8353
▁burke	-10.8353
▁romance	-10.8353
▁moose	-10.8353
▁attic	-10.8353
▁remission	-10.8353
▁finance	-10.8353
▁hornsby	-10.8353
▁pathetic	-10.8353
▁caprice	-10.8353
▁narrow	-10.8353
▁chopped	-10.8353
▁membership	-10.8353
▁reception	-10.8353
▁charro	-10.8353
▁beware	-10.8353
▁temple	-10.8353
▁stutter	-10.8353
▁didi	-10.8353
▁copyright	-10.8353
▁unknown	-10.8353
▁outrageous	-10.8353
▁frequently	-10.8353
▁meow	-10.8353
▁otis	-10.8353
ograph	-10.8353
▁gunfire	-10.8353
▁injury	-10.8353
▁nva	-10.8353
▁cynical	-10.8354
▁pony	-10.8354
▁whatre	-10.8354
▁dedicated	-10.8354
▁countries	-10.8354
▁drove	-10.8354
▁rack	-10.8354
▁involvement	-10.8354
▁heathen	-10.8354
▁seism	-10.8354
▁passport	-10.8354
▁static	-10.8354
▁diary	-10.8354
▁chapter	-10.8354
▁concur	-10.8355
▁raw	-10.8355
▁ridge	-10.8355
▁seder	-10.8355
▁peck	-10.8355
▁excuses	-10.8355
▁heap	-10.8355
▁fuel	-10.8355
▁scarlet	-10.8355
▁richardson	-10.8355
▁chute	-10.8355
▁furniture	-10.8355
▁murphy	-10.8355
▁associate	-10.8355
▁elected	-10.8355
▁tripped	-10.8355
▁loco	-10.8355
▁conductor	-10.8356
▁independent	-10.8356
▁torches	-10.8356
▁grownup	-10.8356
▁scarf	-10.8356
▁cooperative	-10.8356
▁wool	-10.8356
▁leadership	-10.8357
▁shave	-10.8357
▁miguel	-10.8357
▁scan	-10.8357
▁doggy	-10.8358
▁cheerful	-10.8358
▁neat	-10.8358
▁sox	-10.8358
▁lenin	-10.8358
▁roon	-10.8359
▁slurp	-10.8359
▁treatment	-10.836
▁duh	-10.836
▁daan	-10.8361
▁allies	-10.8361
▁fifty	-10.8361
▁wander	-10.8361
▁courageous	-10.8361
▁jingle	-10.8362
▁gurgling	-10.8362
▁friendship	-10.8362
▁produce	-10.8362
▁wheat	-10.8363
▁blitzer	-10.8363
▁romeo	-10.8363
▁dishes	-10.8364
▁agony	-10.8364
▁cage	-10.8365
▁objection	-10.8365
▁basement	-10.8365
▁bench	-10.8366
▁fist	-10.8366
▁haig	-10.8366
▁soil	-10.8367
▁sadness	-10.8367
▁hut	-10.8367
▁chin	-10.8367
▁sensible	-10.8367
▁hart	-10.8367
▁puffer	-10.8367
▁exhausted	-10.8368
▁harrison	-10.8368
▁witnesses	-10.8369
▁speeches	-10.8371
▁fairies	-10.8374
▁stammering	-10.8374
▁rod	-10.8376
▁spilled	-10.8377
▁popping	-10.8377
▁bored	-10.8378
▁angeles	-10.8378
▁becky	-10.8378
▁tender	-10.838
▁putey	-10.838
▁hike	-10.838
▁threatening	-10.838
▁confirmed	-10.8381
lm	-10.8381
▁ashes	-10.8382
▁bom	-10.8383
▁disappearing	-10.8387
▁brandon	-10.8388
▁circus	-10.8389
▁merchants	-10.8389
▁uhh	-10.8391
▁gies	-10.8392
▁designer	-10.8398
▁employer	-10.8399
▁insulted	-10.8399
▁leaning	-10.8399
▁released	-10.8402
▁recovered	-10.8403
▁driven	-10.8405
not	-10.8406
▁insisted	-10.8408
▁exception	-10.8409
▁biker	-10.8413
▁rattlesnakes	-10.8413
▁shillings	-10.8413
▁nod	-10.8414
▁moors	-10.8414
▁tone	-10.8417
▁wanting	-10.8427
di	-10.843
▁manny	-10.8431
▁fled	-10.8432
▁attempted	-10.8435
▁peasants	-10.8437
▁ufos	-10.8437
▁worms	-10.8437
▁spades	-10.8437
▁gathered	-10.8439
▁suits	-10.8442
▁dearest	-10.8448
▁requested	-10.8449
▁archi	-10.8449
▁arrangements	-10.8462
▁freaking	-10.8462
▁experienced	-10.8462
ville	-10.8465
ari	-10.8465
▁suggested	-10.8466
▁denis	-10.8466
▁ai	-10.847
ept	-10.847
▁carve	-10.8471
▁proved	-10.8475
▁believer	-10.8477
▁drawer	-10.848
▁gin	-10.848
▁closet	-10.8484
▁temperatures	-10.8486
▁fights	-10.8488
▁nd	-10.8494
self	-10.8495
▁tests	-10.8495
▁discussed	-10.8497
▁swinging	-10.85
▁scored	-10.8502
erson	-10.8506
▁tons	-10.8507
▁bubbles	-10.8508
▁roots	-10.851
▁bush	-10.8512
▁mechanical	-10.8513
▁as	-10.8514
▁beau	-10.8517
ab	-10.8518
▁tasted	-10.8519
▁ew	-10.8521
▁is	-10.8522
▁messy	-10.8523
▁safely	-10.8528
▁bonds	-10.8534
▁fil	-10.8543
▁whe	-10.8552
▁errors	-10.8558
▁listed	-10.856
▁preferr	-10.8561
lk	-10.8581
▁products	-10.8583
▁skills	-10.8587
▁cousins	-10.8607
▁mules	-10.8607
▁lifting	-10.8615
▁relaxed	-10.8618
▁sy	-10.8619
eyed	-10.8621
ille	-10.8626
▁nuns	-10.8632
▁closely	-10.8639
▁occasions	-10.8642
▁options	-10.8656
▁wounds	-10.8661
▁naive	-10.8663
▁ins	-10.8693
▁customers	-10.8707
▁dope	-10.8708
▁stinks	-10.8722
rian	-10.8724
▁eats	-10.873
lot	-10.8735
▁camps	-10.8743
▁what	-10.8748
▁mc	-10.8748
▁subjects	-10.8755
stone	-10.8756
▁cracks	-10.876
▁tan	-10.8773
▁youi	-10.8778
rie	-10.8778
▁ap	-10.8779
▁when	-10.8784
ora	-10.8788
▁fixing	-10.8788
▁rolls	-10.8797
▁murders	-10.8802
▁criminals	-10.8804
▁strangers	-10.8813
mber	-10.8827
▁knights	-10.8829
uh	-10.8829
▁cue	-10.8835
▁tu	-10.8841
ans	-10.8847
▁grades	-10.8853
▁hills	-10.8853
▁clocks	-10.8853
▁irr	-10.8859
ji	-10.8876
▁hates	-10.8877
▁sets	-10.8905
▁foreigner	-10.8921
▁noises	-10.8928
qualified	-10.8936
▁waitin	-10.8939
▁christians	-10.8953
▁robots	-10.8974
▁signing	-10.899
top	-10.8997
▁incredibl	-10.9002
mar	-10.9028
▁pickle	-10.9042
▁ward	-10.9063
▁ties	-10.9068
▁blocks	-10.9079
ones	-10.9085
ition	-10.909
orn	-10.9103
▁dive	-10.9112
▁careless	-10.9114
rez	-10.9118
▁crate	-10.9131
cut	-10.9133
▁pose	-10.9153
▁pies	-10.9168
▁fle	-10.9174
star	-10.9175
▁mend	-10.9176
▁op	-10.9178
▁wands	-10.9182
port	-10.9236
▁examine	-10.9248
▁ton	-10.9254
▁watched	-10.9332
▁bas	-10.9333
els	-10.9343
ied	-10.9344
his	-10.9345
em	-10.9359
▁hai	-10.9377
▁here	-10.9381
bel	-10.9385
▁mop	-10.9388
▁flo	-10.9399
▁promises	-10.9401
ette	-10.9404
▁wil	-10.9413
▁hid	-10.9427
▁ghosts	-10.9431
▁buildings	-10.9432
▁tra	-10.9438
▁burns	-10.9461
but	-10.9468
▁yah	-10.9477
▁hurting	-10.9478
more	-10.9482
▁handed	-10.9492
ong	-10.9492
▁cub	-10.9493
▁char	-10.9495
rabs	-10.9512
ven	-10.9532
ical	-10.954
▁root	-10.955
▁depend	-10.9556
▁groups	-10.9557
▁barr	-10.9566
▁origin	-10.9577
▁corporat	-10.9579
▁bargain	-10.9584
▁depth	-10.959
▁recipe	-10.9595
▁orphan	-10.9595
▁sides	-10.9596
▁orchid	-10.9598
▁turtle	-10.9598
▁passenger	-10.9598
▁bribe	-10.9599
▁expense	-10.9602
▁victim	-10.9603
▁sailor	-10.9603
▁rem	-10.9605
▁cigarette	-10.9607
▁instruction	-10.9609
▁sock	-10.9611
▁herd	-10.9612
▁grounds	-10.9614
▁chuckle	-10.9614
ient	-10.9616
▁gamb	-10.9616
▁oop	-10.9617
▁visitor	-10.9617
▁domin	-10.9617
▁gus	-10.9627
▁stable	-10.9628
▁len	-10.9636
fu	-10.9645
amp	-10.9653
▁dared	-10.9654
▁din	-10.966
▁jacks	-10.9662
▁nazi	-10.9662
▁prisoner	-10.9664
▁caper	-10.9679
▁poi	-10.9679
▁mel	-10.9684
▁approach	-10.9693
▁abandon	-10.9695
inky	-10.9697
▁bubble	-10.9697
ado	-10.9698
ull	-10.9698
▁forrest	-10.9705
iy	-10.9707
car	-10.9717
▁prop	-10.9717
wood	-10.9723
▁employ	-10.9725
looking	-10.9725
▁juic	-10.9727
▁descend	-10.9732
▁cra	-10.9736
spite	-10.9736
okay	-10.9739
free	-10.9739
rene	-10.974
class	-10.974
pitch	-10.9741
▁entertain	-10.9745
donna	-10.9745
come	-10.9747
▁confirm	-10.9748
▁cancel	-10.9749
put	-10.9749
▁shatter	-10.9754
dont	-10.9755
▁include	-10.9758
▁victor	-10.9762
▁grind	-10.9762
▁thirst	-10.9764
▁badge	-10.9766
▁adult	-10.9766
▁ultimate	-10.9767
▁practical	-10.9768
▁absolute	-10.9769
▁sto	-10.9772
▁mack	-10.9773
▁admire	-10.9774
▁mamma	-10.9774
▁teenage	-10.9774
▁depart	-10.9776
▁disagree	-10.9776
▁reflect	-10.9779
audible	-10.9779
▁compass	-10.9779
▁kurt	-10.9779
▁dentist	-10.978
ficial	-10.9781
▁convenient	-10.9781
▁sophisticat	-10.9781
▁vietnam	-10.9781
conceivable	-10.9781
▁abilene	-10.9781
▁abroad	-10.9781
▁acknowledge	-10.9781
▁agenda	-10.9781
▁allergic	-10.9781
▁amnesia	-10.9781
▁anniversary	-10.9781
▁approval	-10.9781
▁aspirin	-10.9781
▁automobile	-10.9781
▁behalf	-10.9781
▁bicycle	-10.9781
▁cheasel	-10.9781
▁competitive	-10.9781
▁confined	-10.9781
▁constitution	-10.9781
▁contempt	-10.9781
▁coolidge	-10.9781
▁crusade	-10.9781
▁cunning	-10.9781
▁curiosity	-10.9781
▁deploy	-10.9781
▁desirable	-10.9781
▁detergent	-10.9781
▁disgrace	-10.9781
▁diwedi	-10.9781
▁exploding	-10.9781
▁fifteen	-10.9781
▁fragile	-10.9781
▁grief	-10.9781
▁guidance	-10.9781
▁hamburger	-10.9781
▁hightower	-10.9781
▁inherit	-10.9781
▁injustice	-10.9781
▁integrity	-10.9781
▁jersey	-10.9781
▁julius	-10.9781
▁kusum	-10.9781
▁lacrique	-10.9781
▁liedholm	-10.9781
▁literature	-10.9781
▁lounge	-10.9781
▁majester	-10.9781
▁metaphor	-10.9781
▁mildred	-10.9781
▁motorcycle	-10.9781
▁murmur	-10.9781
▁ochopee	-10.9781
▁peculiar	-10.9781
▁pheasant	-10.9781
▁poverty	-10.9781
▁precinct	-10.9781
▁pronounce	-10.9781
▁pursuit	-10.9781
▁qualities	-10.9781
▁raphael	-10.9781
▁regatta	-10.9781
▁registration	-10.9781
▁relief	-10.9781
▁rubber	-10.9781
▁rupert	-10.9781
▁sagami	-10.9781
▁schroeder	-10.9781
▁sloopy	-10.9781
▁snickering	-10.9781
▁solemn	-10.9781
▁spaniard	-10.9781
▁splattering	-10.9781
▁sponsor	-10.9781
▁surviving	-10.9781
▁therapist	-10.9781
▁thread	-10.9781
▁tibbett	-10.9781
▁tragedy	-10.9781
▁underneath	-10.9781
▁unfair	-10.9781
▁wrestling	-10.9781
▁adorable	-10.9781
▁bachelor	-10.9781
▁clerk	-10.9781
▁corpse	-10.9781
▁cycle	-10.9781
▁deputy	-10.9781
▁feast	-10.9781
▁hercule	-10.9781
▁honeymoon	-10.9781
▁horror	-10.9781
▁hurst	-10.9781
▁jello	-10.9781
▁norwegian	-10.9781
▁pearl	-10.9781
▁senate	-10.9781
▁sverre	-10.9781
▁anonym	-10.9781
▁luggage	-10.9781
▁lumberjack	-10.9781
▁noticing	-10.9781
▁vocali	-10.9781
▁prune	-10.9781
▁hiram	-10.9781
▁jolly	-10.9781
▁lupus	-10.9781
▁strateg	-10.9781
▁scheme	-10.9781
▁brutal	-10.9781
▁defence	-10.9781
▁terry	-10.9781
▁drift	-10.9781
▁introduction	-10.9781
▁macauley	-10.9781
▁nanna	-10.9781
▁creative	-10.9781
▁mazzola	-10.9781
▁content	-10.9781
▁howls	-10.9781
▁cocktail	-10.9781
▁fright	-10.9781
▁bert	-10.9781
▁choir	-10.9781
▁maneuvers	-10.9781
▁discharge	-10.9781
▁eleven	-10.9781
▁scale	-10.9781
▁tutor	-10.9781
▁raft	-10.9781
▁salad	-10.9781
▁duane	-10.9781
▁cretan	-10.9781
▁steak	-10.9781
▁update	-10.9781
▁kiog	-10.9781
▁matrix	-10.9781
▁caesar	-10.9781
▁gavin	-10.9781
▁robbed	-10.9781
▁occupation	-10.9781
▁debate	-10.9781
▁venga	-10.9781
▁cissy	-10.9781
▁email	-10.9781
▁timber	-10.9781
▁behold	-10.9781
▁yea	-10.9781
▁handwriting	-10.9781
▁institute	-10.9781
▁disturbance	-10.9781
▁fantan	-10.9781
▁gutter	-10.9781
▁mitchell	-10.9781
▁status	-10.9781
▁fizz	-10.9781
▁poem	-10.9781
▁destination	-10.9781
▁collaboration	-10.9781
▁reference	-10.9781
▁tremble	-10.9781
▁whatsoever	-10.9782
▁anchovies	-10.9782
artes	-10.9782
▁yonder	-10.9782
▁atmosphere	-10.9782
▁raising	-10.9782
▁festive	-10.9782
▁chrissy	-10.9782
▁continuum	-10.9782
▁booger	-10.9782
▁roam	-10.9782
▁combat	-10.9782
▁fax	-10.9782
▁keen	-10.9782
▁bonnie	-10.9782
▁torn	-10.9782
▁subway	-10.9782
▁vroom	-10.9782
▁dressmaker	-10.9782
▁chaos	-10.9782
▁broadway	-10.9782
▁purg	-10.9782
▁sympathy	-10.9782
▁saki	-10.9782
▁knit	-10.9783
▁anticipated	-10.9783
bir	-10.9783
▁gracious	-10.9783
▁whipping	-10.9783
▁coupon	-10.9783
▁luis	-10.9783
▁bur	-10.9783
▁clayton	-10.9783
▁trout	-10.9783
▁blank	-10.9783
▁stress	-10.9783
▁klein	-10.9783
▁chasing	-10.9783
▁kung	-10.9783
▁bham	-10.9783
▁scum	-10.9783
▁cody	-10.9784
▁eleanore	-10.9784
▁scarce	-10.9784
▁trotter	-10.9784
▁phi	-10.9784
▁drought	-10.9784
▁legendary	-10.9784
▁theatre	-10.9785
▁furthe	-10.9785
▁melon	-10.9785
▁installment	-10.9785
▁classroom	-10.9785
▁maintain	-10.9785
▁infield	-10.9785
▁management	-10.9786
▁explore	-10.9786
▁technically	-10.9786
▁observing	-10.9786
▁collar	-10.9786
▁ramen	-10.9786
▁sack	-10.9786
▁equality	-10.9787
▁dice	-10.9787
▁trim	-10.9787
▁eva	-10.9787
▁amongst	-10.9787
▁corporation	-10.9787
▁chivalry	-10.9787
▁royalty	-10.9787
▁allowance	-10.9787
▁benton	-10.9788
▁mint	-10.9789
▁phil	-10.9789
▁allen	-10.9789
▁rodeo	-10.9789
▁footage	-10.9789
▁blondie	-10.979
▁constantly	-10.979
▁darn	-10.979
▁fiddler	-10.979
▁twitchy	-10.979
▁nora	-10.979
▁lilies	-10.979
▁grandson	-10.979
▁studies	-10.9791
hearted	-10.9791
▁parling	-10.9792
▁comb	-10.9792
▁graceful	-10.9792
▁runner	-10.9792
▁fleet	-10.9793
▁youse	-10.9793
▁lodged	-10.9793
▁inspired	-10.9793
▁wage	-10.9794
▁betrayed	-10.9794
▁hamster	-10.9794
▁bullfighter	-10.9795
▁takin	-10.9795
▁auguste	-10.9796
▁photographer	-10.9796
▁inch	-10.9796
▁arthritis	-10.9796
▁corbetts	-10.9796
▁flatter	-10.9797
▁specialty	-10.9798
▁complex	-10.9798
▁graci	-10.9798
▁tray	-10.9798
▁machinery	-10.9799
▁guer	-10.9799
▁forgiveness	-10.9799
mbrell	-10.98
▁ending	-10.98
▁pierced	-10.98
▁selected	-10.9802
▁napa	-10.9802
▁armen	-10.9802
▁included	-10.9804
▁sickness	-10.9804
▁mimic	-10.9805
▁lu	-10.9807
▁scraping	-10.9808
▁invader	-10.9808
▁bald	-10.9811
▁willie	-10.9813
▁cured	-10.9814
▁li	-10.9816
▁miners	-10.9816
▁kip	-10.9818
▁rarely	-10.9818
▁bridger	-10.9819
▁nest	-10.9819
▁cheated	-10.982
▁developed	-10.982
▁rice	-10.982
▁revealed	-10.982
▁whooping	-10.982
▁sunri	-10.982
▁shaker	-10.9822
▁just	-10.9824
▁carla	-10.9824
▁of	-10.9825
▁announced	-10.9826
▁realise	-10.9827
▁speaker	-10.9827
▁guaranteed	-10.9828
▁issued	-10.9829
▁dl	-10.9832
▁sexy	-10.9832
▁removed	-10.9833
▁originally	-10.9834
▁separated	-10.9835
▁provided	-10.9836
▁lighten	-10.9836
▁reasonable	-10.9838
▁hmmm	-10.9839
revolutionaries	-10.984
▁blackmailed	-10.984
▁spoiling	-10.9843
▁backyeah	-10.9844
ates	-10.9847
brock	-10.9848
▁hare	-10.985
▁tourists	-10.9853
▁arranged	-10.9854
eating	-10.9856
▁directed	-10.9856
▁bending	-10.9858
▁mainly	-10.9859
▁cos	-10.9864
sexual	-10.9864
arrow	-10.9871
▁simone	-10.9877
▁cases	-10.9878
▁landlords	-10.988
▁greetings	-10.988
▁engineering	-10.9881
▁registered	-10.9882
▁doo	-10.9884
▁smacking	-10.9887
▁entered	-10.989
▁vo	-10.9904
▁sweater	-10.9907
▁hardest	-10.9907
▁porter	-10.9907
coming	-10.9908
▁voted	-10.9913
▁planted	-10.9913
▁deserved	-10.9913
▁scaring	-10.9916
▁fairly	-10.9918
▁melt	-10.9919
▁smaller	-10.9927
▁tricked	-10.9935
gen	-10.9936
▁peanuts	-10.9936
▁blades	-10.9936
▁emotions	-10.9937
▁pushy	-10.9948
▁menac	-10.9951
▁gamble	-10.9955
▁funds	-10.9964
▁stables	-10.9965
▁sailors	-10.9965
▁nik	-10.9967
▁visitors	-10.9968
▁wy	-10.9977
ison	-10.9977
▁oneill	-10.9983
▁spe	-10.9987
▁candles	-10.9993
▁iim	-10.9993
▁orderly	-10.9993
▁bees	-10.9994
uld	-10.9999
▁tw	-11.0002
ame	-11.001
▁whiff	-11.0012
▁ama	-11.0015
ibin	-11.002
▁roars	-11.0022
▁circles	-11.0025
▁limits	-11.0026
▁comedy	-11.0027
fortunately	-11.003
cus	-11.0035
▁tent	-11.0037
▁bru	-11.0038
▁parked	-11.0039
▁ir	-11.0042
▁odds	-11.0043
▁politicians	-11.005
▁warriors	-11.005
▁generations	-11.005
▁measures	-11.005
aud	-11.0054
▁granted	-11.0054
▁bd	-11.0056
▁rd	-11.0057
ins	-11.006
ita	-11.0064
▁hail	-11.0069
▁leagues	-11.0078
▁principles	-11.0078
▁wink	-11.0097
▁barb	-11.0098
▁shal	-11.01
▁rapp	-11.0102
▁recorded	-11.0102
▁herbs	-11.0107
▁acted	-11.0114
▁disco	-11.0118
cal	-11.0124
og	-11.0135
▁reported	-11.0141
lence	-11.0145
▁exp	-11.0149
▁writers	-11.0156
▁fund	-11.0159
▁fatal	-11.0184
▁strings	-11.0193
▁lads	-11.0193
shing	-11.0211
gie	-11.0211
▁dinners	-11.0213
▁cowards	-11.0221
ave	-11.0223
▁creeps	-11.0223
iv	-11.0224
▁caps	-11.0229
▁regime	-11.0232
▁units	-11.0235
▁prints	-11.0238
▁reds	-11.0245
▁nos	-11.025
▁desires	-11.025
▁neighbors	-11.025
▁severe	-11.0252
▁embrace	-11.0253
▁villages	-11.0265
▁toi	-11.0266
nny	-11.0268
ini	-11.0268
▁banking	-11.0281
▁her	-11.0289
▁riders	-11.0292
▁pav	-11.03
nic	-11.0302
▁communists	-11.0308
ft	-11.0316
▁sticking	-11.0321
▁gent	-11.0343
▁seize	-11.0346
▁sins	-11.0346
▁scares	-11.0356
▁landed	-11.0366
▁priests	-11.0366
low	-11.0367
maker	-11.0386
▁cam	-11.0391
▁inc	-11.0393
▁choices	-11.0398
uz	-11.0402
▁sleeps	-11.0403
tor	-11.0412
▁worker	-11.0415
tel	-11.042
▁pres	-11.0447
berries	-11.0448
▁straw	-11.0449
▁faced	-11.0478
vial	-11.0482
▁rocking	-11.0537
▁cells	-11.0538
▁kindly	-11.0544
▁sounding	-11.0554
▁savings	-11.057
▁owners	-11.057
uel	-11.058
fa	-11.0601
▁senses	-11.0615
ever	-11.0622
ory	-11.0636
▁revers	-11.0651
▁angels	-11.0659
▁apples	-11.0659
wee	-11.0666
▁kin	-11.0668
▁masters	-11.067
▁goodman	-11.0679
hony	-11.0707
▁wakes	-11.0715
▁breaths	-11.0738
▁toe	-11.0741
▁spec	-11.0747
▁bites	-11.0756
▁hopes	-11.0757
▁batt	-11.0765
▁clearing	-11.0773
▁sip	-11.0782
gue	-11.0795
ks	-11.0798
ncy	-11.0804
ggin	-11.0804
▁tar	-11.0836
▁cro	-11.0851
▁spike	-11.0858
▁legi	-11.0868
▁locks	-11.0876
▁ze	-11.0889
nard	-11.0907
▁investigate	-11.0936
cre	-11.094
gar	-11.0948
▁scr	-11.0952
▁scores	-11.0957
▁cart	-11.0964
ths	-11.0967
och	-11.0968
▁es	-11.0975
ko	-11.0999
▁accounts	-11.1011
▁resting	-11.1014
rine	-11.1019
ought	-11.1033
hhh	-11.1055
org	-11.1061
yes	-11.1064
dale	-11.1072
▁scor	-11.1076
sha	-11.1082
rich	-11.109
▁mort	-11.1115
▁oi	-11.1123
armed	-11.1137
▁gardens	-11.1138
▁hum	-11.1144
▁mer	-11.1156
▁fare	-11.116
▁courts	-11.1163
ically	-11.1168
▁mea	-11.1168
use	-11.1168
▁sue	-11.1176
▁disappear	-11.1177
pped	-11.1182
▁wh	-11.1194
▁emotion	-11.1215
▁squeal	-11.122
ik	-11.1225
▁oni	-11.1227
▁valid	-11.1227
hh	-11.1235
▁mechanic	-11.1237
▁sis	-11.1245
▁decade	-11.1257
▁splinter	-11.1257
▁employee	-11.1257
▁tank	-11.1261
▁muffin	-11.1265
▁brook	-11.1265
ual	-11.1266
▁trucks	-11.1266
▁peanut	-11.1267
▁blade	-11.1268
▁temperature	-11.1269
▁insect	-11.1271
▁knuckle	-11.1271
▁tool	-11.1271
▁todd	-11.1272
▁cricket	-11.1274
▁parent	-11.1278
▁acre	-11.128
▁brazilian	-11.1285
▁whale	-11.1287
ick	-11.1288
▁fighter	-11.1289
▁pill	-11.1289
▁react	-11.1305
▁demo	-11.1309
▁stations	-11.1317
▁badger	-11.1319
▁terror	-11.1323
late	-11.1331
▁produc	-11.1335
ported	-11.134
▁affect	-11.1353
▁pee	-11.136
look	-11.1361
▁col	-11.1364
▁arc	-11.1365
unk	-11.138
▁foods	-11.1381
▁drumm	-11.1382
▁author	-11.1386
▁bil	-11.1387
▁clu	-11.1387
▁critic	-11.1388
▁brush	-11.1396
foot	-11.1401
▁clamor	-11.1401
▁pla	-11.1402
▁float	-11.1402
▁crunch	-11.1403
cer	-11.1405
lines	-11.1405
worth	-11.1406
▁fa	-11.1407
▁respond	-11.141
▁northwest	-11.141
door	-11.141
▁develop	-11.1411
▁ban	-11.1412
▁grande	-11.1414
▁unlock	-11.1416
▁bal	-11.1416
▁spill	-11.1417
▁frighten	-11.1418
▁pana	-11.1418
▁deck	-11.1419
▁vanish	-11.142
called	-11.1421
▁restrain	-11.1424
facing	-11.1424
roll	-11.1427
▁pierce	-11.1427
▁fac	-11.1428
▁tuck	-11.1428
▁jiggl	-11.1428
▁capture	-11.1429
▁bunt	-11.143
▁piss	-11.1431
tant	-11.1432
▁suspend	-11.1432
scribe	-11.1434
▁elder	-11.1435
▁unfortunate	-11.1435
▁stir	-11.1436
▁infant	-11.144
▁lndia	-11.1441
▁migue	-11.1441
▁fiddle	-11.1441
▁cooperat	-11.1444
▁drivin	-11.1445
▁harv	-11.1445
▁posit	-11.1445
▁corrupt	-11.1445
▁industrial	-11.1446
▁franco	-11.1447
▁catholic	-11.1447
▁widow	-11.1447
▁pub	-11.1447
▁casual	-11.1447
▁griffi	-11.1447
▁absence	-11.1447
▁acquaintance	-11.1447
▁alcohol	-11.1447
▁apply	-11.1447
▁arriving	-11.1447
▁artillery	-11.1447
▁barcelona	-11.1447
▁bizarre	-11.1447
▁bonacieux	-11.1447
▁bordeaux	-11.1447
▁bourgeois	-11.1447
▁breeze	-11.1447
▁brenner	-11.1447
▁carlisle	-11.1447
▁cavalry	-11.1447
▁cecilia	-11.1447
▁celeste	-11.1447
▁challenging	-11.1447
▁chatwal	-11.1447
▁comintern	-11.1447
▁companies	-11.1447
▁conspiracy	-11.1447
▁crescent	-11.1447
▁crosscountry	-11.1447
▁cynthia	-11.1447
▁davenport	-11.1447
▁dedication	-11.1447
▁democrat	-11.1447
▁demonstrate	-11.1447
▁depot	-11.1447
▁disney	-11.1447
▁distress	-11.1447
▁doady	-11.1447
▁dysfunctional	-11.1447
▁ehrlichman	-11.1447
▁ellerbeck	-11.1447
▁embassy	-11.1447
▁emptiness	-11.1447
▁encounter	-11.1447
▁enthusiasm	-11.1447
▁erasure	-11.1447
▁erroneous	-11.1447
▁expiration	-11.1447
▁explosiveskull	-11.1447
▁fletcher	-11.1447
▁forgave	-11.1447
▁frozen	-11.1447
▁gallery	-11.1447
▁hackett	-11.1447
▁happiest	-11.1447
▁hydro	-11.1447
▁hypothetical	-11.1447
▁industry	-11.1447
▁inferior	-11.1447
▁innocence	-11.1447
▁insurrection	-11.1447
▁ipod	-11.1447
▁ithaca	-11.1447
▁jubilee	-11.1447
▁juniper	-11.1447
▁kraler	-11.1447
▁kumar	-11.1447
▁macailler	-11.1447
▁marijuana	-11.1447
▁mclean	-11.1447
▁mickey	-11.1447
▁mississippi	-11.1447
▁mmmmmm	-11.1447
▁monitor	-11.1447
▁monterey	-11.1447
▁moravietti	-11.1447
▁mutual	-11.1447
▁nigel	-11.1447
▁notorious	-11.1447
▁nowadays	-11.1447
▁offshore	-11.1447
▁oklahoma	-11.1447
▁opponent	-11.1447
▁parole	-11.1447
▁perfume	-11.1447
▁perimeter	-11.1447
▁physicist	-11.1447
▁planchet	-11.1447
▁platform	-11.1447
▁priscilla	-11.1447
▁privacy	-11.1447
▁pursue	-11.1447
▁rachel	-11.1447
▁razor	-11.1447
▁rebuild	-11.1447
▁recognition	-11.1447
▁rendezvous	-11.1447
▁resolve	-11.1447
▁roadblock	-11.1447
▁rocinante	-11.1447
▁senechal	-11.1447
▁shabbes	-11.1447
▁sharrief	-11.1447
▁shepherd	-11.1447
▁shotgun	-11.1447
▁skull	-11.1447
▁sneffels	-11.1447
▁somewhat	-11.1447
▁sputtering	-11.1447
▁suspicion	-11.1447
▁technology	-11.1447
▁therapy	-11.1447
▁thieves	-11.1447
▁tranquilizer	-11.1447
▁treason	-11.1447
▁undercover	-11.1447
▁vineyard	-11.1447
▁violin	-11.1447
▁vitamins	-11.1447
▁volcano	-11.1447
▁wheezing	-11.1447
▁wrath	-11.1447
▁wrench	-11.1447
▁zwei	-11.1447
▁blaming	-11.1447
▁brito	-11.1447
▁burden	-11.1447
▁concertina	-11.1447
▁doodle	-11.1447
▁false	-11.1447
▁fiend	-11.1447
▁forbidden	-11.1447
▁grim	-11.1447
▁rascal	-11.1447
▁roast	-11.1447
▁panicked	-11.1447
▁struggling	-11.1447
▁gunnar	-11.1447
▁method	-11.1447
▁nicholai	-11.1447
▁tweet	-11.1447
▁amein	-11.1447
▁cleveland	-11.1447
▁assuming	-11.1447
▁exams	-11.1447
▁raynor	-11.1447
▁upgrade	-11.1447
▁austria	-11.1447
▁snarl	-11.1447
▁eliminate	-11.1447
▁exotic	-11.1447
▁horri	-11.1447
▁intellectual	-11.1447
▁leap	-11.1447
▁favourite	-11.1448
▁budget	-11.1448
▁frolic	-11.1448
▁hisses	-11.1448
▁flavor	-11.1448
▁polls	-11.1448
▁fireworks	-11.1448
▁flittin	-11.1448
▁sludge	-11.1448
▁hatred	-11.1448
▁higgins	-11.1448
▁mossop	-11.1448
▁flipped	-11.1448
▁injuries	-11.1448
▁transfer	-11.1448
▁conceal	-11.1448
▁drury	-11.1448
▁granddad	-11.1448
▁diplomatic	-11.1448
▁kidnapping	-11.1448
▁shaking	-11.1448
▁referee	-11.1448
▁altogether	-11.1448
▁creek	-11.1448
▁empire	-11.1448
▁sirica	-11.1448
▁underground	-11.1448
▁butterfly	-11.1448
▁gert	-11.1448
▁craving	-11.1448
▁chitter	-11.1448
▁jockey	-11.1448
▁harvey	-11.1448
▁colby	-11.1448
▁roque	-11.1448
▁historical	-11.1448
▁online	-11.1448
▁croak	-11.1448
▁discount	-11.1448
rtense	-11.1448
▁digging	-11.1448
▁lang	-11.1448
▁salmon	-11.1448
▁mountaineer	-11.1448
▁mudde	-11.1448
▁auggie	-11.1448
▁oath	-11.1448
▁trimble	-11.1448
▁distinction	-11.1448
▁karate	-11.1448
▁vein	-11.1448
▁candidate	-11.1448
▁babysitter	-11.1448
▁federation	-11.1448
▁confusion	-11.1448
▁square	-11.1448
▁nailed	-11.1448
▁plato	-11.1448
▁motel	-11.1448
▁rapid	-11.1448
▁pushcart	-11.1448
▁tuna	-11.1448
▁automatically	-11.1448
▁foolproof	-11.1448
▁bugger	-11.1448
▁herring	-11.1448
▁cluck	-11.1448
▁population	-11.1448
▁euro	-11.1448
▁psychiatrist	-11.1448
▁blog	-11.1448
▁pudd	-11.1448
▁frome	-11.1448
▁solar	-11.1448
▁haida	-11.1448
▁squire	-11.1449
▁mustache	-11.1449
▁steward	-11.1449
▁repay	-11.1449
▁ginger	-11.1449
▁gilman	-11.1449
▁deliberately	-11.1449
▁rubble	-11.1449
▁overcome	-11.1449
▁hooting	-11.1449
▁crane	-11.1449
▁aircraft	-11.1449
▁daba	-11.1449
▁limo	-11.1449
▁ellis	-11.1449
▁hesitate	-11.1449
▁bail	-11.1449
▁egyptian	-11.1449
▁leach	-11.1449
▁gday	-11.1449
▁loma	-11.1449
▁hoover	-11.1449
▁shack	-11.1449
▁blanket	-11.1449
▁fourteen	-11.1449
▁hush	-11.145
▁agency	-11.145
▁investment	-11.145
▁mitch	-11.145
▁paperwork	-11.145
▁wax	-11.145
▁byron	-11.145
▁rodent	-11.145
▁improvement	-11.145
▁spoon	-11.145
▁troll	-11.145
▁tore	-11.145
▁jury	-11.145
▁lava	-11.1451
▁grasp	-11.1451
▁petty	-11.1451
▁stove	-11.1451
▁raph	-11.1451
▁wwhat	-11.1451
▁accountancy	-11.1451
▁jock	-11.1451
▁grows	-11.1451
▁moonlight	-11.1451
▁pow	-11.1451
▁webb	-11.1451
▁tipton	-11.1451
▁selection	-11.1451
▁tomatoes	-11.1451
▁bluff	-11.1451
▁misled	-11.1451
▁batteries	-11.1452
▁divers	-11.1452
▁yuko	-11.1452
▁conquer	-11.1452
▁fascist	-11.1452
▁obstruct	-11.1452
▁valuable	-11.1452
▁flee	-11.1452
▁purity	-11.1452
▁chord	-11.1452
illian	-11.1452
▁dried	-11.1452
▁tanney	-11.1452
▁lemon	-11.1452
▁applauding	-11.1452
▁stomp	-11.1452
relli	-11.1452
▁eins	-11.1452
▁elton	-11.1453
▁franklin	-11.1453
▁stennis	-11.1453
▁fitting	-11.1453
▁jingl	-11.1453
▁whitewood	-11.1453
▁luckily	-11.1453
▁appearance	-11.1454
▁exit	-11.1454
▁wee	-11.1454
▁continental	-11.1454
▁ross	-11.1454
▁dose	-11.1455
▁priority	-11.1455
▁gibber	-11.1455
▁drew	-11.1455
▁owned	-11.1455
▁wealthy	-11.1455
rmore	-11.1455
▁realistic	-11.1455
▁dak	-11.1456
bre	-11.1456
▁brownies	-11.1456
iro	-11.1456
▁jab	-11.1456
mut	-11.1456
▁stabb	-11.1457
▁selfish	-11.1457
▁hansel	-11.1457
▁angle	-11.1457
▁accidentally	-11.1457
▁fatherinlaw	-11.1457
▁taik	-11.1458
▁freezing	-11.1458
▁ooo	-11.1458
▁garb	-11.1458
▁federa	-11.1458
▁humiliated	-11.1459
▁pussy	-11.1459
▁pinch	-11.1459
▁tele	-11.1459
ansel	-11.146
mitted	-11.146
▁clip	-11.146
▁buzzer	-11.1462
▁gently	-11.1462
▁bloom	-11.1462
▁erased	-11.1462
▁rap	-11.1463
▁chopper	-11.1463
▁ballot	-11.1464
▁announcement	-11.1464
▁taxes	-11.1465
mmer	-11.1465
▁barge	-11.1465
▁vision	-11.1466
▁hup	-11.1466
▁cyclones	-11.1466
▁pamphlets	-11.1466
▁survivors	-11.1466
▁riot	-11.1466
istic	-11.1466
▁plead	-11.1467
▁limp	-11.1467
▁horseback	-11.1468
▁scout	-11.1468
▁alter	-11.1468
▁childish	-11.1468
▁tailor	-11.1468
▁core	-11.1469
▁distracted	-11.1469
▁ndr	-11.1469
▁samson	-11.1469
▁johnson	-11.147
▁specialist	-11.147
▁ohhh	-11.1471
▁sole	-11.1471
▁ost	-11.1471
▁cork	-11.1471
▁onion	-11.1472
▁unlikely	-11.1473
▁comply	-11.1473
▁youngster	-11.1473
▁presentation	-11.1473
▁typical	-11.1474
erial	-11.1475
▁instructed	-11.1475
▁pole	-11.1478
▁breeding	-11.1478
▁alley	-11.1478
▁zay	-11.1479
▁stain	-11.148
▁enthusiastic	-11.148
▁applie	-11.148
▁connected	-11.148
▁mining	-11.148
▁preacher	-11.1481
▁dip	-11.1481
▁vanished	-11.1481
▁counts	-11.1482
▁biting	-11.1483
▁travelling	-11.1485
▁armory	-11.1486
▁kay	-11.1486
▁buses	-11.1487
▁freezer	-11.1487
▁tame	-11.1491
▁angela	-11.1491
▁forgetting	-11.1491
▁solved	-11.1492
▁antie	-11.1492
▁eighth	-11.1493
▁inning	-11.1493
working	-11.1493
▁chilly	-11.1493
▁mines	-11.1494
▁clamoring	-11.1495
▁straighten	-11.1496
▁required	-11.1497
▁relations	-11.1499
▁headaches	-11.1499
▁haunted	-11.15
▁smashed	-11.15
▁healed	-11.1501
▁mikey	-11.1503
theft	-11.1503
▁producers	-11.1503
▁jumpin	-11.1505
▁dur	-11.1506
▁strongest	-11.1506
▁policeman	-11.1507
▁iet	-11.1507
▁pic	-11.151
▁sable	-11.151
▁dryer	-11.1511
▁whine	-11.1514
▁hint	-11.1515
▁legally	-11.1515
▁zo	-11.1519
▁brat	-11.152
▁poker	-11.1521
▁described	-11.1522
▁gap	-11.1523
▁bursting	-11.153
▁kidneys	-11.1532
▁meadows	-11.1532
▁microchips	-11.1532
▁gymnasts	-11.1532
▁wounded	-11.1532
▁mushers	-11.1534
avai	-11.1536
▁intended	-11.1537
▁midge	-11.154
▁hump	-11.1541
▁spared	-11.1542
▁ines	-11.1543
▁printed	-11.1544
▁supervis	-11.1548
▁tying	-11.1548
▁spite	-11.1548
▁bully	-11.1548
▁thinkin	-11.1549
▁pale	-11.155
▁crust	-11.1555
dum	-11.1557
▁oy	-11.1557
▁cole	-11.1558
lain	-11.1558
ezmoi	-11.1558
▁catches	-11.1559
▁recorder	-11.156
▁confession	-11.1561
▁charts	-11.1564
▁nickel	-11.1565
▁shifting	-11.1567
▁mancha	-11.1568
▁focused	-11.1574
▁elements	-11.1581
▁difficulty	-11.1583
▁interrupting	-11.1583
▁rollin	-11.1586
▁conditioned	-11.1586
▁scratching	-11.1592
▁shocked	-11.1593
ivan	-11.1595
▁ford	-11.1599
▁twits	-11.16
▁drawings	-11.16
▁shouts	-11.16
▁remained	-11.1601
▁honesty	-11.1602
▁fer	-11.1605
▁ale	-11.1606
▁ace	-11.1618
ose	-11.1619
▁settler	-11.1619
▁kno	-11.1627
▁presently	-11.1627
▁performing	-11.1627
▁walkin	-11.1628
▁sweeter	-11.1631
▁catcher	-11.1631
▁relieve	-11.1632
▁whales	-11.1634
▁squeals	-11.1634
▁planes	-11.1634
▁avoiding	-11.1637
▁brad	-11.164
▁whi	-11.1646
wit	-11.1649
▁adding	-11.1662
▁confe	-11.1662
▁pretending	-11.1663
▁bribes	-11.1667
▁diet	-11.1667
▁expenses	-11.1667
▁orchids	-11.1667
▁passengers	-11.1667
▁turtles	-11.1667
▁gotcha	-11.1668
▁sticky	-11.1679
▁repeating	-11.1681
▁aura	-11.1683
▁hog	-11.1683
▁marching	-11.169
▁rave	-11.1697
▁returns	-11.1699
qua	-11.1699
▁marines	-11.1701
▁cheeks	-11.1701
▁knots	-11.1702
▁swells	-11.1702
▁cables	-11.1704
▁supporting	-11.1707
▁ret	-11.1722
▁fuller	-11.1723
merse	-11.1731
▁cocks	-11.1731
▁helmets	-11.1735
▁postpone	-11.1747
▁estimate	-11.176
▁servants	-11.177
▁ingredients	-11.177
▁photographs	-11.177
▁locking	-11.1785
▁stamped	-11.1789
▁lovers	-11.1791
▁troop	-11.1798
▁stings	-11.1803
▁clients	-11.1804
▁rumors	-11.1804
▁danced	-11.1811
▁counted	-11.1812
▁pins	-11.1818
▁jar	-11.182
▁ranks	-11.1828
▁durans	-11.1838
▁isa	-11.1842
patriotic	-11.1855
▁protecting	-11.186
▁twos	-11.187
earing	-11.1872
▁kissed	-11.1879
iege	-11.1889
▁cowboys	-11.1907
▁effects	-11.1907
▁artists	-11.1909
▁discussions	-11.1909
rice	-11.1916
ando	-11.1916
▁nicer	-11.1932
▁helicopters	-11.1941
▁snaps	-11.1942
▁deeds	-11.1946
ker	-11.1952
▁partly	-11.1954
pas	-11.196
▁scrub	-11.1971
▁function	-11.1972
▁sou	-11.1972
▁rambalcochets	-11.1976
▁jamaicans	-11.1979
▁pools	-11.1991
▁evolve	-11.1996
▁mist	-11.2001
▁transmit	-11.201
▁popes	-11.201
▁belts	-11.2011
▁vehicles	-11.2011
▁arrives	-11.2012
▁ph	-11.2027
oxi	-11.2028
▁returning	-11.2031
▁poster	-11.2038
illa	-11.2039
▁edwards	-11.2046
▁claims	-11.2047
▁marys	-11.206
▁waiter	-11.2065
rad	-11.2068
▁claudias	-11.208
▁thompsons	-11.208
▁signals	-11.208
▁caseys	-11.2081
▁mic	-11.2082
▁habits	-11.2087
▁encourage	-11.2098
sk	-11.2115
why	-11.2128
lier	-11.2134
▁bikes	-11.2152
▁regimen	-11.2166
▁finishing	-11.2171
▁payments	-11.2195
ir	-11.2198
▁hose	-11.2214
▁mont	-11.2248
▁penetrate	-11.2252
▁godmothers	-11.2255
▁rabbits	-11.2255
▁conc	-11.2258
▁plants	-11.2266
▁sta	-11.2281
over	-11.2287
▁quarters	-11.2291
▁colors	-11.2294
▁taxis	-11.2295
▁millers	-11.2296
erm	-11.2299
▁abuse	-11.2312
▁bee	-11.2321
▁memor	-11.2322
▁grannys	-11.2325
▁tre	-11.2329
▁putt	-11.2329
▁leads	-11.233
stop	-11.2354
▁fame	-11.236
▁restaurants	-11.2361
▁stones	-11.2362
▁hairs	-11.2372
▁booked	-11.2389
▁serves	-11.2398
▁ink	-11.2407
hole	-11.2409
▁programm	-11.2417
ila	-11.2417
liance	-11.2418
ami	-11.2418
▁duel	-11.242
ele	-11.2451
cia	-11.2463
▁om	-11.2475
▁spic	-11.2475
▁site	-11.2495
▁fits	-11.2507
tified	-11.2532
ological	-11.2534
tom	-11.2539
ane	-11.2545
of	-11.2546
row	-11.2595
▁smiles	-11.2609
▁dam	-11.2622
▁jets	-11.2626
▁shade	-11.2634
acious	-11.2652
▁av	-11.2655
▁bent	-11.2658
▁mac	-11.2681
iest	-11.27
▁lib	-11.2717
nder	-11.2719
▁goals	-11.2723
▁votes	-11.2726
wag	-11.2733
▁humili	-11.2737
hugging	-11.2743
▁sil	-11.2757
▁mit	-11.2775
▁stra	-11.2782
tock	-11.2795
▁shi	-11.2799
▁cor	-11.2801
▁triple	-11.2813
▁locate	-11.2824
bat	-11.2826
▁seas	-11.2866
▁papas	-11.2868
▁beers	-11.2875
▁houses	-11.2887
imp	-11.2912
dad	-11.2921
▁beds	-11.2925
▁remark	-11.2946
cloth	-11.2961
▁spirits	-11.2969
▁scenes	-11.2973
▁playful	-11.298
bling	-11.298
▁ski	-11.2991
▁breathes	-11.2994
▁forms	-11.2999
▁gran	-11.3002
nto	-11.3027
▁offers	-11.3036
rick	-11.3039
▁lords	-11.3062
▁dispose	-11.3063
▁mud	-11.3069
bie	-11.3083
▁babys	-11.3093
▁pos	-11.3093
▁gum	-11.3115
poo	-11.3132
▁inn	-11.315
▁bla	-11.3151
tto	-11.3157
▁theys	-11.3169
▁riches	-11.3175
▁incidental	-11.3177
▁knocks	-11.32
▁rag	-11.3206
▁tr	-11.3211
book	-11.3211
▁swamp	-11.3212
▁beep	-11.322
▁await	-11.3223
▁operate	-11.3226
uki	-11.3226
▁commit	-11.3228
▁click	-11.3233
▁ste	-11.3235
▁relative	-11.3242
▁princes	-11.3243
▁shout	-11.3245
▁squirrel	-11.3248
▁donut	-11.3248
▁groper	-11.3248
▁sheet	-11.3249
ologist	-11.325
▁instrument	-11.325
▁robber	-11.325
▁culture	-11.3253
king	-11.3254
▁occur	-11.3255
▁scholarship	-11.3257
uous	-11.3261
▁companion	-11.3262
▁mustang	-11.3262
▁article	-11.3262
▁not	-11.3264
▁standard	-11.3265
▁twit	-11.3266
▁gasp	-11.327
▁musketeer	-11.3272
▁grape	-11.3273
▁arrangement	-11.3273
▁exclaim	-11.3274
▁heel	-11.3277
▁lung	-11.3286
▁bandit	-11.3291
▁robo	-11.3291
▁whoop	-11.3308
ties	-11.3312
two	-11.3317
▁ignor	-11.3325
▁aaah	-11.3328
yard	-11.3336
pression	-11.3342
▁deli	-11.3352
▁davids	-11.3353
▁slap	-11.3358
▁punish	-11.3358
▁preach	-11.3359
▁disturb	-11.3361
▁deaths	-11.3363
▁slo	-11.3364
taking	-11.3371
▁invent	-11.3371
▁boxer	-11.3373
tail	-11.3374
▁threaten	-11.3375
town	-11.3389
▁receiv	-11.3391
dia	-11.3393
▁greet	-11.3399
▁clink	-11.34
mature	-11.3401
▁instruct	-11.3402
▁disgust	-11.3402
view	-11.3403
aries	-11.3403
uts	-11.3404
turned	-11.3404
robbing	-11.3404
stream	-11.3405
mark	-11.3405
▁compar	-11.3407
▁tick	-11.3407
case	-11.3408
oming	-11.3409
▁connect	-11.3409
▁accomplish	-11.341
▁impress	-11.3412
▁launch	-11.3412
▁fulfill	-11.3413
rump	-11.3415
▁caus	-11.3415
crown	-11.3415
▁crank	-11.3416
▁brace	-11.3417
band	-11.3418
▁doom	-11.3418
long	-11.3418
▁ere	-11.342
▁chant	-11.342
▁approve	-11.3423
▁achieve	-11.3424
▁refuge	-11.3425
▁plea	-11.3426
▁dodge	-11.3428
▁wond	-11.343
▁glob	-11.3433
▁valle	-11.3433
▁negotiat	-11.3433
▁strict	-11.3433
▁custom	-11.3434
▁constant	-11.3435
▁clair	-11.3436
▁extreme	-11.3436
▁numb	-11.3437
bed	-11.3437
▁tempt	-11.3439
▁touche	-11.344
olog	-11.344
▁alfred	-11.3441
ronic	-11.3441
▁torch	-11.3441
▁independen	-11.3441
▁forsake	-11.3442
hru	-11.3443
▁peach	-11.3443
▁mets	-11.3444
▁attract	-11.3444
▁leonard	-11.3444
▁cruisin	-11.3444
▁deaf	-11.3444
▁smokin	-11.3445
▁leavin	-11.3445
urray	-11.3445
▁transport	-11.3446
▁protest	-11.3446
dog	-11.3446
tect	-11.3447
historic	-11.3447
▁confident	-11.3447
▁intellect	-11.3447
▁overwhelm	-11.3447
▁reject	-11.3447
▁abalardi	-11.3447
▁abalone	-11.3447
▁abigail	-11.3447
▁acquire	-11.3447
▁akita	-11.3447
▁appliance	-11.3447
▁approximately	-11.3447
▁arkansas	-11.3447
▁arrival	-11.3447
▁asthma	-11.3447
▁bailiff	-11.3447
▁balcony	-11.3447
▁barbershop	-11.3447
▁belgian	-11.3447
▁bermejo	-11.3447
▁blatz	-11.3447
▁boilermaker	-11.3447
▁britain	-11.3447
▁bronze	-11.3447
▁buddies	-11.3447
▁calendar	-11.3447
▁caviar	-11.3447
▁ceramic	-11.3447
▁cetera	-11.3447
▁champaran	-11.3447
▁charizard	-11.3447
▁cinnamon	-11.3447
▁clutch	-11.3447
▁contribute	-11.3447
▁corral	-11.3447
▁crisp	-11.3447
▁crotononhudson	-11.3447
▁cruise	-11.3447
▁curfew	-11.3447
▁curtis	-11.3447
▁czar	-11.3447
▁dennis	-11.3447
▁devotion	-11.3447
▁dilemma	-11.3447
▁disobey	-11.3447
▁dreyfus	-11.3447
▁duprez	-11.3447
▁economy	-11.3447
▁elegant	-11.3447
▁elvis	-11.3447
▁emptied	-11.3447
▁enhance	-11.3447
▁equation	-11.3447
▁esterhaus	-11.3447
▁excessive	-11.3447
▁expired	-11.3447
▁factrytown	-11.3447
▁forgiving	-11.3447
▁fountain	-11.3447
▁fraina	-11.3447
▁fraud	-11.3447
▁geography	-11.3447
▁geronimo	-11.3447
▁glorious	-11.3447
▁grudge	-11.3447
▁hampshire	-11.3447
▁hialeah	-11.3447
▁ibori	-11.3447
▁identification	-11.3447
▁impatient	-11.3447
▁imposter	-11.3447
▁intercom	-11.3447
▁ishitsukuri	-11.3447
▁israel	-11.3447
▁january	-11.3447
▁jennifer	-11.3447
▁kashkuh	-11.3447
▁ketchum	-11.3447
▁ketchup	-11.3447
▁kilometers	-11.3447
▁lantern	-11.3447
▁leather	-11.3447
▁liberal	-11.3447
▁loretta	-11.3447
▁luxray	-11.3447
▁marvellous	-11.3447
▁maximillius	-11.3447
▁mcmillan	-11.3447
▁mechanism	-11.3447
▁melodramatic	-11.3447
▁metropolitan	-11.3447
▁microphone	-11.3447
▁miyatsuko	-11.3447
▁moniteur	-11.3447
▁niece	-11.3447
▁nonetheless	-11.3447
▁omelet	-11.3447
▁overnight	-11.3447
▁oxygen	-11.3447
▁petrograd	-11.3447
▁pharmacy	-11.3447
▁policies	-11.3447
▁porsche	-11.3447
▁portrait	-11.3447
▁possibilities	-11.3447
▁recognise	-11.3447
▁relevant	-11.3447
▁reliable	-11.3447
▁resources	-11.3447
▁reynolds	-11.3447
▁rollercoaster	-11.3447
▁sabotage	-11.3447
▁salinas	-11.3447
▁sidney	-11.3447
▁slogan	-11.3447
▁slumber	-11.3447
▁snatched	-11.3447
▁spectacular	-11.3447
▁splat	-11.3447
▁squawk	-11.3447
▁stereo	-11.3447
▁steroids	-11.3447
▁streak	-11.3447
▁striking	-11.3447
▁stylish	-11.3447
▁submarine	-11.3447
▁supermarket	-11.3447
▁surprising	-11.3447
▁teresa	-11.3447
▁terrify	-11.3447
▁thanksgiving	-11.3447
▁thunderclap	-11.3447
▁toothbrush	-11.3447
▁uncomfortable	-11.3447
▁undressed	-11.3447
▁vanessa	-11.3447
▁vessel	-11.3447
▁violent	-11.3447
▁whirling	-11.3447
▁wilbur	-11.3447
▁worthwhile	-11.3447
▁allelu	-11.3447
▁calgary	-11.3447
▁characteristics	-11.3447
▁despise	-11.3447
▁eager	-11.3447
▁frame	-11.3447
▁frequenc	-11.3447
▁immortal	-11.3447
▁importance	-11.3447
▁mercedes	-11.3447
▁munkd	-11.3447
▁pepperoni	-11.3447
▁pledge	-11.3447
▁prairie	-11.3447
▁realizing	-11.3447
▁regain	-11.3447
▁risner	-11.3447
▁survey	-11.3447
▁swap	-11.3447
▁treacher	-11.3447
▁unfold	-11.3447
▁wouid	-11.3447
▁baku	-11.3447
▁bauru	-11.3447
▁chemo	-11.3447
▁donald	-11.3447
▁drei	-11.3447
▁promising	-11.3447
▁transferred	-11.3447
▁warehouse	-11.3447
▁daydreaming	-11.3447
▁shucks	-11.3447
▁ballplayer	-11.3447
▁damsel	-11.3447
▁deuce	-11.3447
▁disabled	-11.3447
▁slash	-11.3447
▁vibrations	-11.3447
▁endorse	-11.3447
▁jonas	-11.3447
▁antisemitism	-11.3447
▁lazy	-11.3447
▁untie	-11.3447
▁carrier	-11.3447
▁creations	-11.3447
▁salmonella	-11.3447
▁utopia	-11.3447
▁yoshi	-11.3447
▁dut	-11.3447
▁keith	-11.3447
▁stash	-11.3447
▁woohoo	-11.3447
▁boast	-11.3447
▁rash	-11.3448
▁token	-11.3448
▁tolerate	-11.3448
▁casualties	-11.3448
▁groove	-11.3448
▁leonhard	-11.3448
▁errant	-11.3448
▁rumour	-11.3448
▁attaboy	-11.3448
▁bosom	-11.3448
▁gayle	-11.3448
▁manicure	-11.3448
▁sample	-11.3448
▁gratitude	-11.3448
▁primo	-11.3448
▁shredder	-11.3448
▁mankind	-11.3448
▁stump	-11.3448
▁garner	-11.3448
▁twentyfive	-11.3448
▁danvers	-11.3448
▁persistent	-11.3448
▁pinpoint	-11.3448
▁exhibition	-11.3448
▁twentyfour	-11.3448
▁terminal	-11.3448
▁whizz	-11.3448
▁girlyman	-11.3448
▁paratha	-11.3448
▁representative	-11.3448
▁armenti	-11.3448
▁facial	-11.3448
▁judicia	-11.3448
▁summary	-11.3448
▁taunt	-11.3448
▁alternat	-11.3448
▁bloke	-11.3448
▁percent	-11.3448
▁fanatic	-11.3448
▁thorns	-11.3448
▁slack	-11.3448
▁concussion	-11.3448
▁retard	-11.3448
▁duggi	-11.3448
▁michelson	-11.3448
▁baggage	-11.3448
▁altafini	-11.3448
▁farewell	-11.3448
▁psst	-11.3448
▁clara	-11.3448
▁contrary	-11.3448
▁bingham	-11.3448
▁fritz	-11.3448
▁trom	-11.3448
▁inlaws	-11.3448
▁duality	-11.3448
▁invisible	-11.3448
▁obligation	-11.3448
hehheh	-11.3448
▁grease	-11.3448
▁motto	-11.3448
▁priorities	-11.3448
ammed	-11.3448
▁constable	-11.3448
▁fuzz	-11.3448
▁rhyme	-11.3448
▁kidnapper	-11.3448
▁gutting	-11.3448
▁lump	-11.3448
▁haste	-11.3448
▁packets	-11.3448
▁ripped	-11.3448
▁slay	-11.3448
▁beggar	-11.3448
▁arctic	-11.3448
▁organization	-11.3448
▁execution	-11.3449
▁medina	-11.3449
▁creating	-11.3449
▁arro	-11.3449
▁jeri	-11.3449
▁feola	-11.3449
▁seville	-11.3449
▁dagger	-11.3449
▁whys	-11.3449
▁teii	-11.3449
▁tedious	-11.3449
▁sensation	-11.3449
▁arise	-11.3449
▁catastrophe	-11.3449
▁evidently	-11.3449
▁rogue	-11.3449
▁tidy	-11.3449
adios	-11.3449
▁wedded	-11.3449
▁oven	-11.3449
▁jody	-11.3449
▁diversity	-11.3449
▁clap	-11.3449
▁transportation	-11.3449
▁entertainment	-11.3449
▁laces	-11.3449
▁extent	-11.3449
▁pillar	-11.345
▁civilian	-11.345
▁weaver	-11.345
▁repent	-11.345
▁foam	-11.345
▁coffin	-11.345
▁keating	-11.345
▁robberies	-11.345
▁corruption	-11.345
▁irene	-11.345
▁backwards	-11.345
▁bias	-11.345
▁bombay	-11.345
▁quarterback	-11.345
▁karl	-11.345
▁reflection	-11.345
▁overwork	-11.345
▁departure	-11.345
▁gigant	-11.345
▁walde	-11.3451
▁housekeeper	-11.3451
▁construction	-11.3451
▁render	-11.3451
▁unpack	-11.3451
▁conscious	-11.3451
▁translation	-11.3451
▁bellini	-11.3451
▁allah	-11.3452
▁dorm	-11.3452
▁persecuted	-11.3452
▁nhe	-11.3452
▁patel	-11.3452
▁limb	-11.3452
igan	-11.3452
roid	-11.3452
▁henri	-11.3452
▁queens	-11.3452
▁terrorist	-11.3453
▁facebook	-11.3453
▁determination	-11.3453
▁enormous	-11.3453
▁knives	-11.3453
▁stack	-11.3453
▁automatic	-11.3453
▁bake	-11.3453
▁enchantment	-11.3453
▁discreet	-11.3453
▁satisfaction	-11.3453
▁fuse	-11.3453
▁advertising	-11.3453
▁twinkling	-11.3453
▁collective	-11.3454
▁copper	-11.3454
▁disagreement	-11.3454
▁elsewhere	-11.3454
▁summerlin	-11.3454
▁connie	-11.3454
▁churchill	-11.3455
▁sober	-11.3455
▁georgie	-11.3455
▁hallway	-11.3455
▁whipped	-11.3455
▁damp	-11.3456
▁marta	-11.3456
▁jung	-11.3456
▁oz	-11.3456
▁youthful	-11.3457
▁gem	-11.3457
▁flea	-11.3457
▁wham	-11.3458
▁pulley	-11.3458
▁mammal	-11.3458
▁replacement	-11.3458
▁blueback	-11.3458
▁guardian	-11.3458
▁imbecile	-11.3458
▁countryside	-11.3459
▁ramp	-11.3459
▁lloyd	-11.3459
▁brass	-11.346
▁dough	-11.346
▁mentor	-11.346
▁disappointment	-11.346
▁booth	-11.346
▁swore	-11.346
▁harvest	-11.346
▁largest	-11.346
▁barber	-11.3461
▁copies	-11.3461
▁laval	-11.3461
▁spooky	-11.3461
▁vb	-11.3461
▁dong	-11.3462
inlaw	-11.3462
▁frenchmen	-11.3463
▁aagh	-11.3463
ford	-11.3463
fusion	-11.3463
▁punches	-11.3464
▁ceiling	-11.3464
▁stance	-11.3464
▁sna	-11.3465
aut	-11.3465
▁majority	-11.3465
▁consideration	-11.3466
▁choked	-11.3466
▁carries	-11.3466
illiard	-11.3466
▁shaken	-11.3467
▁breakdown	-11.3467
▁bam	-11.3467
▁misunderstand	-11.3468
▁fries	-11.3468
▁scent	-11.3468
▁forge	-11.3468
▁tov	-11.3469
▁aides	-11.3469
▁pun	-11.347
lake	-11.347
▁scatter	-11.3471
▁delinquents	-11.3471
▁rupees	-11.3471
▁sprinters	-11.3471
▁pancakes	-11.3471
▁hawk	-11.3472
▁loaf	-11.3473
▁australian	-11.3473
▁craft	-11.3473
▁cuddle	-11.3473
▁yuck	-11.3474
▁installed	-11.3474
▁organize	-11.3475
▁achieved	-11.3475
▁superb	-11.3475
▁yang	-11.3475
▁invested	-11.3476
nia	-11.3476
▁wade	-11.3476
▁davi	-11.3476
▁rage	-11.3476
▁wedge	-11.3476
▁restraint	-11.3477
▁distributed	-11.3477
▁ump	-11.3477
▁invaded	-11.3478
▁halter	-11.3478
▁grey	-11.3478
▁betty	-11.3478
▁ripe	-11.3479
▁fin	-11.348
▁cord	-11.3482
▁fulfilled	-11.3482
▁idol	-11.3483
▁fearless	-11.3484
▁laud	-11.3484
▁annoying	-11.3485
▁dwelling	-11.3486
▁bestow	-11.3486
▁wiser	-11.3486
▁reserved	-11.3488
tron	-11.3488
▁superheroes	-11.3489
▁unlocked	-11.349
▁pissed	-11.349
gant	-11.349
▁lineup	-11.349
fer	-11.349
▁pitcher	-11.3491
▁muck	-11.3492
▁log	-11.3493
onnie	-11.3493
▁daylight	-11.3495
▁financial	-11.3495
▁hysterical	-11.3495
▁manual	-11.3495
▁barry	-11.3495
▁clinking	-11.3496
▁rump	-11.3496
▁ignoring	-11.3497
▁larger	-11.3497
▁awaiting	-11.3497
▁sacrificed	-11.3497
▁awakening	-11.3498
▁painter	-11.3498
▁cutter	-11.3502
seven	-11.3502
▁weep	-11.3503
▁sour	-11.3505
▁currently	-11.3506
▁auto	-11.3506
msy	-11.3506
▁dum	-11.3507
▁nord	-11.3509
▁snorts	-11.3509
▁restless	-11.351
▁carrots	-11.3511
▁hoodlums	-11.3511
▁marshmallows	-11.3511
▁superstars	-11.3511
▁ancestors	-11.3511
▁lone	-11.3512
▁spoiled	-11.3513
▁jackson	-11.3513
▁suspenders	-11.3515
uine	-11.3515
▁replaced	-11.3515
▁frenchman	-11.3515
▁mohan	-11.3517
▁robbins	-11.3517
▁grinding	-11.3518
▁sentenced	-11.3518
▁burp	-11.3518
▁stepp	-11.3519
▁edit	-11.3519
▁bobsledder	-11.3519
▁witches	-11.3519
ean	-11.352
▁drowned	-11.352
▁felton	-11.3522
▁sleeve	-11.3523
▁mach	-11.3525
▁nancy	-11.3527
▁lust	-11.3527
▁gained	-11.3528
▁crawling	-11.3529
win	-11.353
▁swelling	-11.353
▁gest	-11.353
▁informed	-11.3531
▁loosen	-11.3531
headed	-11.3531
▁pine	-11.3532
ice	-11.3532
▁hor	-11.3537
hoo	-11.3544
▁tuned	-11.3545
▁louder	-11.3545
▁racial	-11.3548
▁richer	-11.3552
▁indi	-11.3552
▁initials	-11.3553
▁accountant	-11.3553
▁phillips	-11.3553
▁teammates	-11.3553
▁saloons	-11.3553
▁advanced	-11.3556
▁flowing	-11.3562
▁wip	-11.3567
mbles	-11.3569
▁sling	-11.3579
▁assured	-11.3582
▁pouring	-11.3583
▁readers	-11.3585
▁deserting	-11.3585
▁wilt	-11.3586
▁peer	-11.3589
▁sul	-11.3589
▁dreadful	-11.359
▁hangin	-11.3593
righteous	-11.3593
▁proceeding	-11.3594
▁railroads	-11.3595
▁traitors	-11.3595
▁safer	-11.3595
▁colours	-11.3595
▁clangs	-11.3595
▁requirements	-11.3595
▁drawing	-11.3595
▁sucking	-11.3596
▁beauti	-11.3596
▁bella	-11.3597
▁ribs	-11.3597
▁resigned	-11.3598
▁bankers	-11.36
▁generals	-11.3602
▁poisoned	-11.3605
phone	-11.3607
▁ruthless	-11.3608
▁shootin	-11.3608
▁recalled	-11.3609
urf	-11.3621
▁awaken	-11.3622
▁seeds	-11.3622
▁reign	-11.3623
▁roller	-11.3631
▁cracking	-11.3631
▁logs	-11.3632
▁mounted	-11.3636
▁articles	-11.3637
▁companions	-11.3637
▁mustangs	-11.3637
▁dreamin	-11.3639
▁saturdays	-11.3641
▁shorter	-11.3647
▁blamed	-11.3648
▁pitching	-11.365
▁dominate	-11.3658
▁surrendered	-11.3667
▁aha	-11.3671
▁supported	-11.3676
▁blocked	-11.3678
going	-11.3678
▁muffins	-11.3679
▁coasting	-11.3681
▁appr	-11.3685
▁mat	-11.3698
entice	-11.3712
vious	-11.3714
▁orphans	-11.3721
▁recipes	-11.3721
away	-11.3722
▁rushing	-11.3726
▁earthly	-11.3729
ood	-11.3731
sical	-11.3737
▁wit	-11.3743
▁carts	-11.3758
▁newspapers	-11.3764
▁tshirts	-11.3764
▁crooks	-11.3765
▁select	-11.3766
▁lifted	-11.3769
flat	-11.377
▁judged	-11.3772
▁seeking	-11.3774
uchen	-11.3789
▁services	-11.3799
▁rational	-11.38
▁prayed	-11.3802
▁mini	-11.3804
▁curtains	-11.3806
▁communications	-11.3806
▁goat	-11.3808
bit	-11.381
▁timing	-11.3812
▁permit	-11.3822
▁consult	-11.3833
act	-11.3846
illett	-11.3847
▁ninjas	-11.3848
▁illustr	-11.3848
▁relationships	-11.3849
▁villains	-11.3849
▁cooked	-11.3872
▁thankful	-11.3876
▁pits	-11.3886
▁neighs	-11.3891
▁explanations	-11.3892
▁towels	-11.3892
▁promot	-11.3908
▁sm	-11.3909
▁lookout	-11.3911
▁handled	-11.3918
itch	-11.3921
uv	-11.3928
▁undertake	-11.3928
▁suited	-11.3931
▁singers	-11.3933
▁clo	-11.3933
▁johnston	-11.3933
▁jaws	-11.3935
▁morons	-11.3935
▁soviets	-11.3935
▁championships	-11.3935
▁images	-11.3939
▁reaching	-11.3941
▁hustl	-11.3942
▁americas	-11.3953
▁boost	-11.3977
▁gowns	-11.3978
▁colo	-11.398
▁gren	-11.3984
▁vali	-11.3996
▁gut	-11.3997
▁davey	-11.4016
▁objects	-11.4021
met	-11.4024
▁shifts	-11.4029
▁facet	-11.4043
▁element	-11.4053
▁tales	-11.4061
▁greening	-11.4071
▁sch	-11.4081
▁lis	-11.4081
tezvous	-11.4088
▁kisser	-11.4095
▁imim	-11.4096
ddled	-11.4098
▁texts	-11.4103
eek	-11.4106
▁plates	-11.4107
▁diseases	-11.4107
cc	-11.4111
▁mes	-11.4113
▁stripp	-11.4123
lore	-11.413
other	-11.4132
▁realm	-11.4133
oof	-11.4139
▁chaps	-11.415
▁shirts	-11.4151
▁nightmares	-11.4151
▁behav	-11.4183
▁mates	-11.4186
slate	-11.4187
▁grandmas	-11.4193
ament	-11.4195
▁musical	-11.4199
▁def	-11.4201
▁trusted	-11.4207
▁regi	-11.4208
fec	-11.4217
▁bb	-11.4223
▁your	-11.4235
span	-11.4238
▁grandmothers	-11.4238
▁materials	-11.4238
▁den	-11.4239
▁talents	-11.424
▁answered	-11.4241
▁troubled	-11.4243
▁var	-11.4258
▁jett	-11.4272
▁amo	-11.4275
▁spits	-11.4284
▁hay	-11.4288
ega	-11.4301
▁distribut	-11.4302
▁swor	-11.4302
ptu	-11.4313
tton	-11.432
▁sallys	-11.4325
▁weekends	-11.4326
▁submit	-11.4347
▁comic	-11.4348
lle	-11.4359
▁requests	-11.4375
mic	-11.438
▁mayer	-11.4381
▁elections	-11.4414
▁spiders	-11.4414
▁forests	-11.4414
▁sal	-11.4425
▁skins	-11.443
ape	-11.4436
▁vol	-11.4451
del	-11.4465
▁clam	-11.448
did	-11.4485
lets	-11.45
▁dances	-11.4504
▁yous	-11.4518
wi	-11.4522
▁fad	-11.4539
▁springs	-11.4547
uli	-11.4548
play	-11.4552
▁trad	-11.4564
mine	-11.4575
▁touching	-11.4591
▁jeans	-11.4592
▁pairs	-11.4592
▁cosm	-11.4598
▁mart	-11.4607
▁lover	-11.4608
ital	-11.4617
▁shad	-11.4624
ollo	-11.4628
nky	-11.4641
ith	-11.4651
bet	-11.4667
▁ag	-11.467
▁hen	-11.4688
▁mam	-11.4702
▁val	-11.4705
▁am	-11.4711
▁lat	-11.4715
name	-11.4716
▁presume	-11.4717
yeahyeah	-11.4722
▁telegrams	-11.4726
▁nicely	-11.4736
▁gow	-11.4737
ake	-11.4742
▁thor	-11.4754
▁killers	-11.476
oph	-11.4774
▁gar	-11.4775
this	-11.4775
overs	-11.4782
igh	-11.4786
▁jul	-11.4837
▁maze	-11.4839
▁rad	-11.4839
▁leas	-11.4849
▁skippe	-11.4851
▁apartments	-11.4863
▁swans	-11.4906
ffling	-11.4955
▁deb	-11.4959
▁hearings	-11.4966
tile	-11.498
can	-11.4994
▁bothers	-11.5009
▁towers	-11.5046
▁bann	-11.5048
▁atta	-11.5053
gon	-11.5061
▁soc	-11.5075
▁popp	-11.5083
rmal	-11.5085
▁blames	-11.5093
▁ruins	-11.5094
step	-11.511
four	-11.5123
▁trampl	-11.5124
▁dudes	-11.5136
▁vern	-11.5142
ont	-11.5164
▁fili	-11.5174
▁packs	-11.5182
oke	-11.5239
▁rick	-11.5245
▁iit	-11.5255
formed	-11.5259
ility	-11.5269
▁que	-11.5281
▁div	-11.5301
▁cane	-11.5317
▁studios	-11.5322
stick	-11.5325
cat	-11.5348
overall	-11.5353
tailed	-11.5355
inde	-11.5356
▁lei	-11.5378
tha	-11.5381
▁kicks	-11.5381
ima	-11.5398
▁considerabl	-11.5431
▁melod	-11.5438
till	-11.5446
lon	-11.5451
▁cameras	-11.5461
▁patri	-11.547
▁kn	-11.5479
dition	-11.5492
▁divin	-11.5507
▁battles	-11.5508
▁boards	-11.5516
▁squi	-11.5527
▁bud	-11.5537
▁scrap	-11.5542
ional	-11.5544
▁entr	-11.5552
▁sakes	-11.5558
▁spine	-11.5576
▁prep	-11.5596
▁positions	-11.5598
▁yyou	-11.5598
▁wav	-11.5604
mous	-11.5615
▁ble	-11.5617
▁covers	-11.5624
▁fam	-11.5627
ench	-11.5629
▁iti	-11.5634
powered	-11.5643
far	-11.5644
▁arrang	-11.5654
▁patriot	-11.5656
▁magi	-11.566
ova	-11.5661
iti	-11.5674
lide	-11.5679
▁inquir	-11.5685
▁prima	-11.5716
▁dev	-11.5716
gt	-11.5717
▁clang	-11.572
about	-11.5726
▁colour	-11.5732
stil	-11.5733
▁grunt	-11.5734
▁puff	-11.5736
▁groan	-11.5737
▁stamp	-11.5743
▁delegate	-11.5748
▁pencil	-11.5748
▁novel	-11.5748
▁feather	-11.5748
▁snack	-11.5748
▁kitten	-11.5748
▁capitalist	-11.5754
▁instinct	-11.5755
bah	-11.5756
▁motive	-11.5757
▁by	-11.5758
▁regional	-11.576
▁tide	-11.5761
▁railroad	-11.5762
▁traitor	-11.5762
▁sens	-11.5763
▁crop	-11.5764
▁rib	-11.5765
▁roman	-11.5766
▁requirement	-11.5766
▁dread	-11.5767
▁landlord	-11.5767
▁ufo	-11.5769
▁peasant	-11.5769
▁pattern	-11.577
▁fig	-11.5771
▁vegetable	-11.5772
▁spade	-11.5772
▁worm	-11.5778
drops	-11.5803
▁travell	-11.5811
mos	-11.5814
▁lamp	-11.5815
asters	-11.5815
▁peel	-11.5818
hoohoo	-11.5829
▁greeting	-11.5831
three	-11.5837
▁colt	-11.5851
▁shu	-11.5863
▁exhaust	-11.5864
▁tire	-11.5865
▁matin	-11.5866
ground	-11.5868
▁scam	-11.5868
person	-11.5868
▁will	-11.587
▁writ	-11.5876
▁clog	-11.5878
▁calculat	-11.5881
▁creak	-11.5884
where	-11.5887
▁subt	-11.5893
▁qualify	-11.5897
▁annoy	-11.5899
▁breed	-11.59
▁stammer	-11.5901
▁thump	-11.5901
point	-11.5902
▁hea	-11.5902
▁chirp	-11.5903
bald	-11.5903
consider	-11.5904
▁mimi	-11.5904
count	-11.5904
▁install	-11.5905
american	-11.5905
▁troubl	-11.5905
▁invade	-11.5906
▁distract	-11.5906
burn	-11.5906
life	-11.5906
version	-11.5906
▁vers	-11.5906
throat	-11.5906
minute	-11.5906
school	-11.5906
world	-11.5906
woman	-11.5906
nothing	-11.5906
with	-11.5907
girl	-11.5907
▁invest	-11.5909
unty	-11.5909
type	-11.5909
pack	-11.5909
blow	-11.5909
lock	-11.5909
▁succeed	-11.591
chair	-11.5911
▁grin	-11.5912
▁offend	-11.5912
level	-11.5913
▁subpoena	-11.5915
job	-11.5915
▁litter	-11.5916
plus	-11.5917
▁intent	-11.5918
▁dwell	-11.592
▁compose	-11.5921
ddle	-11.5923
▁gradua	-11.5924
▁retire	-11.5924
▁avenge	-11.5924
▁inspire	-11.5925
▁lodge	-11.5925
▁choke	-11.5925
▁twitch	-11.5925
action	-11.5926
▁spat	-11.5926
fish	-11.5927
▁erase	-11.5928
join	-11.5929
▁curl	-11.5929
▁spook	-11.593
▁convict	-11.593
▁lime	-11.5931
▁filth	-11.5933
▁instant	-11.5933
signor	-11.5934
▁marg	-11.5935
new	-11.5935
▁intens	-11.5935
urban	-11.5937
▁clan	-11.5937
▁bleed	-11.5937
▁coup	-11.5938
▁enchant	-11.594
▁sketch	-11.594
▁tomato	-11.5941
▁mush	-11.5941
▁olive	-11.5942
▁chilli	-11.5944
▁optimist	-11.5944
aught	-11.5944
▁flip	-11.5944
▁fran	-11.5944
tesvous	-11.5945
▁gruber	-11.5945
destructi	-11.5945
▁script	-11.5945
▁givin	-11.5945
▁fox	-11.5945
▁weddin	-11.5945
▁outrage	-11.5945
▁vai	-11.5945
▁liberat	-11.5946
▁shant	-11.5946
▁confront	-11.5946
▁immun	-11.5946
▁logic	-11.5946
▁favour	-11.5947
ification	-11.5947
▁info	-11.5947
▁shred	-11.5947
▁neglect	-11.5947
▁intimidat	-11.5947
▁negro	-11.5947
▁unplug	-11.5947
xxxx	-11.5947
▁accustomed	-11.5947
▁adapt	-11.5947
▁advisor	-11.5947
▁algebra	-11.5947
▁allegations	-11.5947
▁aloud	-11.5947
▁alpha	-11.5947
▁analyze	-11.5947
▁anyplace	-11.5947
▁apparatus	-11.5947
▁aspect	-11.5947
▁astonish	-11.5947
▁aubergine	-11.5947
▁autumn	-11.5947
▁awhile	-11.5947
▁baboon	-11.5947
▁ballgame	-11.5947
▁barbarian	-11.5947
▁baudelaire	-11.5947
▁behaviour	-11.5947
▁belfry	-11.5947
▁benjamin	-11.5947
▁bistro	-11.5947
▁blankensoft	-11.5947
▁bolshevism	-11.5947
▁bouillon	-11.5947
▁bouquet	-11.5947
▁burgundy	-11.5947
▁camouflage	-11.5947
▁carpenter	-11.5947
▁category	-11.5947
▁cervantes	-11.5947
▁cheque	-11.5947
▁choosing	-11.5947
▁churros	-11.5947
▁clarinet	-11.5947
▁cockroaches	-11.5947
▁competitor	-11.5947
▁conflict	-11.5947
▁convincing	-11.5947
▁cuckoo	-11.5947
▁custody	-11.5947
▁decipher	-11.5947
▁decline	-11.5947
▁decorat	-11.5947
▁delicate	-11.5947
▁demonstration	-11.5947
▁detention	-11.5947
▁detroit	-11.5947
▁devastating	-11.5947
▁diaval	-11.5947
▁dierdre	-11.5947
▁dussel	-11.5947
▁environment	-11.5947
▁essence	-11.5947
▁etcetera	-11.5947
▁explosive	-11.5947
▁exquisite	-11.5947
▁exterminat	-11.5947
▁february	-11.5947
▁fireplace	-11.5947
▁fleshlumpeater	-11.5947
▁fofinho	-11.5947
▁fonzanoon	-11.5947
▁freight	-11.5947
▁freud	-11.5947
▁galatea	-11.5947
▁galaxy	-11.5947
▁glimmer	-11.5947
▁glisten	-11.5947
▁gossip	-11.5947
▁groceries	-11.5947
▁groovy	-11.5947
▁heip	-11.5947
▁horizon	-11.5947
▁hormones	-11.5947
▁hulahoop	-11.5947
▁humidity	-11.5947
▁hurdles	-11.5947
▁hurrah	-11.5947
▁identical	-11.5947
▁impeachment	-11.5947
▁impostor	-11.5947
▁infinite	-11.5947
▁influenza	-11.5947
▁ingenious	-11.5947
▁iniquity	-11.5947
▁intact	-11.5947
▁interpret	-11.5947
▁ivory	-11.5947
▁jerusalem	-11.5947
▁jinnah	-11.5947
▁katzmans	-11.5947
▁kettle	-11.5947
▁kindergarten	-11.5947
▁krispy	-11.5947
▁kugel	-11.5947
▁kuramochi	-11.5947
▁langlois	-11.5947
▁leaf	-11.5947
▁limousine	-11.5947
▁lodging	-11.5947
▁lombard	-11.5947
▁lorraine	-11.5947
▁lycanroc	-11.5947
▁lynch	-11.5947
▁mahatma	-11.5947
▁majestic	-11.5947
▁manipedi	-11.5947
▁marietherese	-11.5947
▁menthol	-11.5947
▁metapod	-11.5947
▁ministry	-11.5947
▁navigat	-11.5947
▁nelson	-11.5947
▁nigger	-11.5947
▁novice	-11.5947
▁ointment	-11.5947
▁olafsen	-11.5947
▁oldfashioned	-11.5947
▁oriental	-11.5947
▁parsley	-11.5947
▁pentagon	-11.5947
▁pharmacist	-11.5947
▁picaroon	-11.5947
▁pignet	-11.5947
▁proposing	-11.5947
▁prosecution	-11.5947
▁province	-11.5947
▁psychology	-11.5947
▁pursuing	-11.5947
▁qualifications	-11.5947
▁quarrel	-11.5947
▁rafferty	-11.5947
▁reassuring	-11.5947
▁reggae	-11.5947
▁reinforce	-11.5947
▁relaps	-11.5947
▁rookery	-11.5947
▁rookie	-11.5947
▁rubbish	-11.5947
▁sarsaparilla	-11.5947
▁scissors	-11.5947
▁scoundrel	-11.5947
▁scrabble	-11.5947
▁screwdriver	-11.5947
▁seizure	-11.5947
▁semifinal	-11.5947
▁senior	-11.5947
▁sinatra	-11.5947
▁skoglund	-11.5947
▁skunk	-11.5947
▁snitch	-11.5947
▁snoop	-11.5947
▁snozzcumber	-11.5947
▁spaghetti	-11.5947
▁starkfield	-11.5947
▁substantial	-11.5947
▁suicune	-11.5947
▁supernatural	-11.5947
▁surrounding	-11.5947
▁surveillance	-11.5947
▁switzerland	-11.5947
▁sydney	-11.5947
▁syrup	-11.5947
▁takahata	-11.5947
▁tchan	-11.5947
▁thomkins	-11.5947
▁throttle	-11.5947
▁tokyo	-11.5947
▁tortoise	-11.5947
▁toxic	-11.5947
▁transplant	-11.5947
▁tribute	-11.5947
▁tuberculosis	-11.5947
▁twilight	-11.5947
▁typewriter	-11.5947
▁ultimatum	-11.5947
▁unavoidable	-11.5947
▁uncover	-11.5947
▁undesirable	-11.5947
▁unemployed	-11.5947
▁unlimited	-11.5947
▁unlucky	-11.5947
▁unnecessary	-11.5947
▁unpleasant	-11.5947
▁vaccines	-11.5947
▁vancouver	-11.5947
▁vatican	-11.5947
▁verdun	-11.5947
▁watermelon	-11.5947
▁whigham	-11.5947
▁worrell	-11.5947
▁yangtze	-11.5947
▁yoohoo	-11.5947
▁yourseif	-11.5947
▁zipper	-11.5947
▁zombie	-11.5947
▁aaron	-11.5947
▁alamo	-11.5947
▁amusing	-11.5947
▁bouncy	-11.5947
▁bureaucrat	-11.5947
▁cheeseburger	-11.5947
▁cradle	-11.5947
▁dandelion	-11.5947
▁fierce	-11.5947
▁flirt	-11.5947
▁grill	-11.5947
▁harbor	-11.5947
▁hazard	-11.5947
▁homicid	-11.5947
▁inviting	-11.5947
▁napoleon	-11.5947
▁ninth	-11.5947
▁noisy	-11.5947
▁overrated	-11.5947
▁pavement	-11.5947
▁plop	-11.5947
▁predator	-11.5947
▁shivers	-11.5947
▁sliding	-11.5947
▁spray	-11.5947
▁throne	-11.5947
▁tremor	-11.5947
▁tropic	-11.5947
▁truman	-11.5947
▁vargas	-11.5947
▁venture	-11.5947
▁vocals	-11.5947
▁allez	-11.5947
▁detour	-11.5947
▁ecsta	-11.5947
▁factories	-11.5947
▁laddie	-11.5947
▁monkees	-11.5947
▁pederson	-11.5947
▁pigeon	-11.5947
▁protein	-11.5947
▁quinn	-11.5947
▁segment	-11.5947
▁snappy	-11.5947
▁soap	-11.5947
▁decay	-11.5947
▁lewis	-11.5947
▁marbles	-11.5947
▁personnel	-11.5947
▁pioneer	-11.5947
▁refusing	-11.5947
▁styx	-11.5947
▁dvd	-11.5947
▁eldest	-11.5947
▁flakes	-11.5947
▁flynn	-11.5947
▁grid	-11.5947
▁magnifique	-11.5947
▁strangle	-11.5947
▁relied	-11.5947
▁siberia	-11.5947
▁thoreau	-11.5947
▁goddess	-11.5947
▁puert	-11.5947
▁shears	-11.5947
▁yacht	-11.5947
▁lyric	-11.5947
▁cuppy	-11.5947
▁gerry	-11.5947
▁gobble	-11.5947
▁jelly	-11.5947
▁siggy	-11.5947
▁souvenir	-11.5947
▁hooves	-11.5947
▁abilities	-11.5947
▁carpet	-11.5948
▁nicholas	-11.5948
▁railink	-11.5948
▁grammar	-11.5948
▁iisten	-11.5948
▁laura	-11.5948
▁pathways	-11.5948
▁pension	-11.5948
▁supple	-11.5948
▁ankle	-11.5948
▁clark	-11.5948
▁esteem	-11.5948
▁turd	-11.5948
▁hassle	-11.5948
▁picketing	-11.5948
▁salami	-11.5948
▁zebra	-11.5948
▁cafe	-11.5948
▁revolt	-11.5948
▁wrongdoing	-11.5948
▁mineral	-11.5948
▁montoire	-11.5948
▁sharma	-11.5948
▁trench	-11.5948
▁bulletproof	-11.5948
▁cruikshank	-11.5948
▁facility	-11.5948
▁proclaim	-11.5948
▁statistic	-11.5948
▁scoop	-11.5948
▁theories	-11.5948
▁josh	-11.5948
▁dreiser	-11.5948
▁simonsson	-11.5948
▁quench	-11.5948
▁railway	-11.5948
▁electronic	-11.5948
▁knack	-11.5948
▁notify	-11.5948
▁crutchfield	-11.5948
▁testimon	-11.5948
▁holland	-11.5948
▁hurried	-11.5948
▁aches	-11.5948
▁sunya	-11.5948
▁humiliating	-11.5948
▁mellow	-11.5948
▁inspection	-11.5948
▁isolated	-11.5948
▁extort	-11.5948
▁oars	-11.5948
▁accurate	-11.5948
▁everett	-11.5948
▁precaution	-11.5948
▁refrigerator	-11.5948
▁concentration	-11.5948
▁gretel	-11.5948
▁plague	-11.5948
▁bulma	-11.5948
▁justify	-11.5948
▁felon	-11.5948
▁dawson	-11.5948
▁horai	-11.5948
▁overdone	-11.5948
▁chateau	-11.5948
▁clergyman	-11.5948
▁compact	-11.5948
▁veal	-11.5948
▁kidnap	-11.5948
▁hinges	-11.5948
▁pedal	-11.5948
▁bracelet	-11.5948
▁negotiations	-11.5948
▁lethal	-11.5948
▁hunky	-11.5948
▁vienna	-11.5948
▁millionaire	-11.5948
virus	-11.5948
▁almighty	-11.5948
▁arena	-11.5948
▁biological	-11.5948
▁barrier	-11.5948
▁blogger	-11.5948
▁cloak	-11.5948
▁gohan	-11.5948
▁cavern	-11.5948
▁dye	-11.5948
▁confidential	-11.5948
▁depressing	-11.5948
▁whwhat	-11.5948
▁yelp	-11.5948
▁lumber	-11.5948
▁stool	-11.5948
▁waking	-11.5948
▁indignity	-11.5948
▁blink	-11.5948
▁customary	-11.5948
▁dusk	-11.5948
▁candlelight	-11.5948
▁rehearsal	-11.5948
▁rigged	-11.5948
▁necklace	-11.5948
▁uptown	-11.5948
▁jamison	-11.5948
▁properties	-11.5948
▁revive	-11.5948
▁vista	-11.5948
▁iife	-11.5948
▁colonia	-11.5948
▁parcel	-11.5948
▁eligible	-11.5948
▁morocco	-11.5948
▁sistersinlaw	-11.5948
▁oyster	-11.5948
▁regal	-11.5948
▁significant	-11.5948
▁interior	-11.5948
▁finland	-11.5948
▁amuse	-11.5948
▁shaky	-11.5948
▁inclin	-11.5948
▁dairy	-11.5948
▁harley	-11.5948
▁steep	-11.5949
derate	-11.5949
▁enroll	-11.5949
▁daft	-11.5949
▁coffie	-11.5949
▁combust	-11.5949
▁reopen	-11.5949
▁bubbling	-11.5949
▁rasp	-11.5949
▁flank	-11.5949
▁matron	-11.5949
frey	-11.5949
▁taming	-11.5949
▁irish	-11.5949
▁yeehaw	-11.5949
▁beanstalk	-11.5949
▁ammo	-11.5949
▁antique	-11.5949
▁pansy	-11.5949
▁campfire	-11.5949
▁immunity	-11.5949
▁define	-11.5949
▁fiction	-11.5949
▁census	-11.5949
▁garment	-11.5949
▁polk	-11.5949
▁bastion	-11.5949
▁adjust	-11.5949
▁fluke	-11.5949
▁snails	-11.5949
▁intimate	-11.5949
▁musi	-11.5949
▁rubbed	-11.5949
▁loath	-11.5949
rodu	-11.5949
▁ditch	-11.5949
▁faust	-11.5949
▁forehead	-11.5949
▁achievement	-11.5949
▁loft	-11.5949
▁mugged	-11.5949
▁tux	-11.5949
▁scold	-11.5949
▁partnership	-11.5949
▁confrontation	-11.5949
▁complication	-11.5949
kraut	-11.5949
▁sixteen	-11.5949
▁dishonour	-11.595
▁apologise	-11.595
▁compensate	-11.595
▁pompo	-11.595
▁brute	-11.595
▁kurtz	-11.595
▁kimmy	-11.595
▁racket	-11.595
▁cabinet	-11.595
▁snapping	-11.595
▁denial	-11.595
▁blum	-11.595
▁esto	-11.595
▁liz	-11.595
▁gaze	-11.595
▁temptation	-11.595
▁eg	-11.595
▁exile	-11.595
slation	-11.595
gallant	-11.595
▁slipping	-11.595
▁globus	-11.595
▁dominoes	-11.595
▁valor	-11.595
▁byr	-11.595
▁lifesav	-11.595
▁pork	-11.595
▁royce	-11.595
▁babysit	-11.5951
▁petrol	-11.5951
▁stroll	-11.5951
▁atom	-11.5951
▁ferry	-11.5951
▁furious	-11.5951
gallo	-11.5951
▁coins	-11.5951
▁mutt	-11.5951
▁bombard	-11.5951
▁detect	-11.5951
▁indoor	-11.5951
▁assembly	-11.5951
▁duties	-11.5951
▁lyon	-11.5951
▁sisterinlaw	-11.5951
▁jammed	-11.5951
▁crippled	-11.5951
▁paranoid	-11.5951
▁utilized	-11.5951
▁glovers	-11.5951
lude	-11.5951
▁edgar	-11.5951
▁dentistry	-11.5951
▁creditors	-11.5951
▁germ	-11.5951
▁eww	-11.5951
▁merci	-11.5951
▁testify	-11.5952
▁hence	-11.5952
▁pike	-11.5952
▁possessive	-11.5952
▁coco	-11.5952
▁emiko	-11.5952
▁harness	-11.5952
▁renew	-11.5952
orita	-11.5952
▁tummy	-11.5952
oline	-11.5952
▁poof	-11.5952
▁angrier	-11.5952
▁clueless	-11.5952
▁homo	-11.5952
▁shortcut	-11.5952
▁alike	-11.5952
▁kilt	-11.5953
▁quaker	-11.5953
▁vain	-11.5953
▁wedgie	-11.5953
▁kati	-11.5953
▁lumi	-11.5953
▁classify	-11.5953
▁frustrated	-11.5953
▁appalled	-11.5953
▁earring	-11.5953
▁emerge	-11.5953
▁molar	-11.5953
▁oooh	-11.5953
▁combine	-11.5953
▁spitting	-11.5953
▁utterly	-11.5953
▁whim	-11.5953
▁sniffles	-11.5954
▁mortal	-11.5954
▁naming	-11.5954
▁leland	-11.5954
▁sprinkler	-11.5954
▁jug	-11.5954
▁wib	-11.5954
▁winston	-11.5954
▁chiddler	-11.5954
▁vile	-11.5954
▁shush	-11.5954
▁nickname	-11.5954
▁funniest	-11.5955
▁vip	-11.5955
▁troublemaker	-11.5955
▁notion	-11.5955
▁slaughter	-11.5955
▁sufficient	-11.5955
▁vulnerable	-11.5955
▁joan	-11.5955
▁edith	-11.5955
▁leonardo	-11.5955
▁redwood	-11.5955
▁delete	-11.5955
▁attain	-11.5955
▁philosophy	-11.5955
▁vomiting	-11.5955
▁hoof	-11.5955
▁profitable	-11.5956
▁waltz	-11.5956
▁actress	-11.5956
▁topped	-11.5956
▁lionel	-11.5957
▁progressive	-11.5957
▁wiggle	-11.5957
▁invention	-11.5957
▁eyeball	-11.5957
▁settlement	-11.5958
runk	-11.5958
▁petersen	-11.5958
▁linger	-11.5958
▁geek	-11.5958
▁squish	-11.5958
▁zoom	-11.5959
▁everyday	-11.5959
▁queer	-11.5959
▁benson	-11.5959
▁mun	-11.5959
▁instructor	-11.596
▁hound	-11.596
▁teenager	-11.596
▁tickle	-11.596
▁dix	-11.596
▁hoff	-11.596
▁richter	-11.5961
▁caroline	-11.5961
▁sunny	-11.5961
▁heath	-11.5962
▁hack	-11.5962
▁bushes	-11.5962
mary	-11.5962
▁eastern	-11.5962
▁inquiry	-11.5963
▁lncineroar	-11.5963
▁moan	-11.5964
▁coastline	-11.5964
▁authorized	-11.5964
▁cries	-11.5964
▁stripes	-11.5964
▁tapped	-11.5964
▁verse	-11.5964
▁stomper	-11.5964
▁spum	-11.5965
▁frankel	-11.5965
▁devoted	-11.5965
▁collapsed	-11.5965
▁colin	-11.5965
▁samba	-11.5965
▁restored	-11.5965
▁brow	-11.5965
▁lighthouse	-11.5965
▁strictly	-11.5965
▁sharpen	-11.5965
▁quitting	-11.5966
▁award	-11.5966
▁cleaner	-11.5967
▁thatthat	-11.5967
▁bandage	-11.5968
▁balder	-11.5968
▁booboo	-11.5968
▁zen	-11.5968
▁weaken	-11.5969
▁trustee	-11.5969
▁claw	-11.5969
▁attached	-11.5969
▁swarming	-11.5969
▁elderly	-11.5969
▁brooke	-11.597
▁after	-11.597
▁publicity	-11.597
▁retain	-11.5971
▁disconnect	-11.5971
▁growth	-11.5972
▁mashed	-11.5973
▁limey	-11.5973
▁ultimately	-11.5973
▁protective	-11.5974
▁bitten	-11.5974
uku	-11.5975
▁daring	-11.5975
▁midst	-11.5975
▁currie	-11.5976
▁shallow	-11.5977
▁llt	-11.5977
▁dock	-11.5978
▁branches	-11.5978
▁washes	-11.5978
▁calva	-11.5978
▁approved	-11.5979
▁kit	-11.5979
▁aww	-11.5979
▁bootsie	-11.5979
▁successor	-11.598
▁ahold	-11.5982
▁tia	-11.5982
▁elt	-11.5982
hini	-11.5982
▁hideous	-11.5982
▁offended	-11.5983
▁coloured	-11.5983
▁peeled	-11.5984
▁mmmm	-11.5985
lasses	-11.5986
▁viewers	-11.5986
marty	-11.5987
▁wider	-11.5988
▁jackass	-11.5988
▁rental	-11.5988
▁but	-11.5989
▁wither	-11.599
quet	-11.599
▁extensi	-11.5991
▁orion	-11.5991
▁hunger	-11.5992
▁launched	-11.5993
▁tempted	-11.5993
▁peterson	-11.5993
▁swamped	-11.5994
▁bolt	-11.5994
▁drawn	-11.5995
▁inventor	-11.5996
▁qualifying	-11.5998
▁exhausting	-11.5998
minent	-11.5998
▁july	-11.5999
▁bul	-11.6
▁momentum	-11.6002
▁affected	-11.6003
▁fucker	-11.6005
mann	-11.6005
▁littering	-11.6005
▁calf	-11.6007
▁discovery	-11.6007
▁edm	-11.6009
▁mal	-11.6011
▁typ	-11.6012
▁preaching	-11.6012
▁rah	-11.6012
▁approached	-11.6013
▁drownd	-11.6014
▁measured	-11.6014
▁horseist	-11.6016
▁intrud	-11.6019
▁englishman	-11.602
▁crooked	-11.6024
▁repaired	-11.6024
thats	-11.6025
▁cargo	-11.6026
▁teen	-11.6027
▁starved	-11.6027
▁bellows	-11.6028
▁slugg	-11.603
▁pint	-11.603
▁thighs	-11.6032
▁icons	-11.6032
▁ounces	-11.6032
▁amigos	-11.6032
▁conclusions	-11.6032
▁receipts	-11.6032
▁transcripts	-11.6032
▁sterns	-11.6032
▁frontiers	-11.6032
▁puzzles	-11.6032
handed	-11.6033
▁tag	-11.6035
▁sicil	-11.6037
▁bosses	-11.6039
▁internationale	-11.6039
▁improved	-11.6039
▁refugees	-11.604
eem	-11.6041
▁depending	-11.6042
▁verb	-11.6043
stand	-11.6045
▁pam	-11.6047
▁mastermind	-11.6047
▁obeyed	-11.6054
▁revealing	-11.6055
rried	-11.6056
▁trumpeting	-11.6056
▁tater	-11.6057
▁justifie	-11.6062
▁perceive	-11.6063
antes	-11.6064
▁warmer	-11.607
▁damaged	-11.607
▁established	-11.6071
▁turnover	-11.6077
arn	-11.6079
▁ignored	-11.608
▁bulls	-11.608
▁correctly	-11.6081
▁cared	-11.6081
elda	-11.6082
▁rejoice	-11.6083
▁steering	-11.6084
▁creamy	-11.6085
▁paws	-11.6086
▁headstones	-11.6086
▁operatives	-11.6086
▁outdoors	-11.6086
▁sprouts	-11.6086
▁protestants	-11.6087
▁toots	-11.6087
▁sparkl	-11.6089
▁coordinates	-11.6089
▁delayed	-11.6095
▁cursed	-11.6096
▁tighter	-11.6098
▁teal	-11.6098
uve	-11.6099
hene	-11.61
▁twer	-11.6102
▁aaahh	-11.6103
▁pining	-11.6106
▁marker	-11.6107
▁bene	-11.6107
▁putz	-11.6107
▁yuma	-11.611
▁messia	-11.6111
▁blackmailing	-11.6113
▁crashed	-11.6116
fly	-11.6116
▁informer	-11.6118
▁iong	-11.612
▁reunite	-11.6123
▁bind	-11.6123
▁animat	-11.6126
▁sneaking	-11.6127
▁shin	-11.6127
▁claimed	-11.6128
▁cater	-11.6136
▁pullin	-11.6138
day	-11.6139
▁terroriz	-11.6139
▁harmed	-11.614
▁concerning	-11.6141
▁tides	-11.6142
▁motives	-11.6142
▁instincts	-11.6142
▁romans	-11.6142
▁figs	-11.6142
▁crops	-11.6143
▁acalm	-11.6143
▁billion	-11.6143
▁pasta	-11.6144
▁dumped	-11.6146
▁cloth	-11.6147
▁filly	-11.6147
▁yelled	-11.6149
▁psych	-11.6155
▁comforting	-11.6156
books	-11.6157
▁smarter	-11.6157
▁fai	-11.6159
▁taping	-11.6164
▁parc	-11.6178
▁lid	-11.6179
▁dreamt	-11.6181
▁washing	-11.6182
yan	-11.6185
▁prey	-11.619
▁braces	-11.6194
umbling	-11.6194
▁scholarships	-11.6197
asco	-11.6198
▁heels	-11.6198
▁relatives	-11.6199
hoots	-11.6201
▁lz	-11.6208
▁completed	-11.6209
▁attempting	-11.6215
▁cracker	-11.6217
▁sicker	-11.622
dodo	-11.6221
▁ruled	-11.6223
▁chart	-11.6223
▁fins	-11.6225
▁stun	-11.6225
tory	-11.6226
▁stretcher	-11.6226
▁ohga	-11.6226
▁ke	-11.6228
▁resigning	-11.623
▁min	-11.6238
▁collecting	-11.6244
▁boxers	-11.6244
▁greatness	-11.6247
mada	-11.6249
▁decades	-11.6253
▁splinters	-11.6253
▁employees	-11.6253
▁tanks	-11.6254
▁badgers	-11.6255
▁disappears	-11.6255
elli	-11.6256
▁rented	-11.6259
▁scrape	-11.6273
ique	-11.6275
▁hums	-11.6288
▁practiced	-11.6293
sync	-11.6299
▁ohoh	-11.63
▁doubled	-11.6309
▁depths	-11.6309
▁herds	-11.631
▁existing	-11.6316
▁blinded	-11.6321
lves	-11.6323
▁deserter	-11.6325
leep	-11.6327
osity	-11.6327
▁belle	-11.6334
▁ard	-11.6336
abolic	-11.6342
▁rely	-11.6347
▁hitch	-11.6351
▁bog	-11.6353
▁clearer	-11.6359
▁sob	-11.6362
▁fences	-11.6365
▁radicals	-11.6366
▁callaghans	-11.6366
▁labels	-11.6366
▁repairs	-11.6367
pagan	-11.6374
phony	-11.6378
ath	-11.6379
▁quest	-11.6381
▁flags	-11.6382
▁classy	-11.6384
offs	-11.6394
▁infa	-11.6397
▁unite	-11.6397
▁puss	-11.64
nick	-11.6406
▁perch	-11.6407
hey	-11.6412
▁monkeys	-11.6422
▁lifetimes	-11.6423
▁calculation	-11.6427
▁skim	-11.6428
▁bubb	-11.6435
▁oneil	-11.6442
▁geez	-11.6447
udge	-11.6448
▁tel	-11.6449
fluent	-11.6453
▁grounded	-11.6474
▁und	-11.6483
ault	-11.6484
wich	-11.6491
▁theo	-11.6496
▁phon	-11.6496
▁movements	-11.6502
▁askin	-11.6505
▁assemble	-11.6511
▁mars	-11.6516
▁blaz	-11.6516
vent	-11.6525
▁licks	-11.6528
▁theaters	-11.6536
▁maidens	-11.6536
▁journalists	-11.6537
▁fightin	-11.6537
▁profits	-11.6538
▁designs	-11.654
▁ci	-11.6542
▁timeout	-11.6544
▁twister	-11.6549
licit	-11.6556
▁rig	-11.6566
now	-11.6567
▁filming	-11.6577
ama	-11.6588
igio	-11.6591
▁dolls	-11.6595
▁kicking	-11.6595
▁mayo	-11.662
ollins	-11.6627
cept	-11.6639
▁crows	-11.6653
▁cy	-11.6663
▁growl	-11.6669
alma	-11.667
▁stevens	-11.6676
▁smelling	-11.6683
▁timeless	-11.6684
▁spotte	-11.6684
▁beards	-11.6693
▁hobb	-11.6708
▁lectures	-11.6708
▁presented	-11.6711
ricky	-11.6712
aise	-11.6719
▁chops	-11.6732
▁hilt	-11.6736
▁execute	-11.6738
▁cm	-11.676
▁ang	-11.6763
▁tasks	-11.6767
▁illness	-11.6773
▁rott	-11.6779
yker	-11.6794
▁violate	-11.6795
▁mus	-11.6796
leys	-11.6799
▁comments	-11.6801
▁shipp	-11.6804
▁thoughtless	-11.6809
▁tis	-11.6811
iche	-11.682
▁provides	-11.6826
ranny	-11.684
▁liter	-11.6843
▁accelerat	-11.6844
▁translate	-11.6846
▁dictate	-11.6859
▁crowded	-11.687
bra	-11.688
▁chicks	-11.6883
▁structures	-11.6883
squi	-11.6884
plied	-11.6888
etic	-11.6907
▁damages	-11.6943
ngs	-11.6952
▁dreamer	-11.6957
rett	-11.6969
▁martinis	-11.6974
meha	-11.6978
pine	-11.6987
▁fog	-11.7007
ades	-11.7007
▁lined	-11.7012
▁dim	-11.702
lt	-11.7054
▁audiences	-11.7059
▁miracles	-11.7059
▁females	-11.706
sburg	-11.7075
aro	-11.709
▁nort	-11.7092
▁lou	-11.7094
▁parallel	-11.7095
shes	-11.7096
▁ups	-11.7103
▁trainers	-11.7108
▁chatt	-11.7118
▁bakers	-11.7121
▁pets	-11.7132
▁slapp	-11.7132
zel	-11.7133
▁num	-11.7161
adde	-11.7164
▁fails	-11.7169
▁erupt	-11.7177
▁ple	-11.7185
gging	-11.7211
llis	-11.7212
▁sol	-11.7225
cite	-11.7232
▁nor	-11.724
▁reporters	-11.7245
evel	-11.7249
▁premi	-11.7258
▁tao	-11.7291
▁exce	-11.7298
ador	-11.7362
▁defender	-11.7391
▁vou	-11.7474
umptious	-11.7498
▁ge	-11.7503
eden	-11.7522
iate	-11.7545
▁woo	-11.7573
acro	-11.7575
val	-11.7575
ittle	-11.7611
mph	-11.7621
▁abus	-11.7628
▁deer	-11.7645
owning	-11.7651
ilton	-11.7655
▁invo	-11.7692
doz	-11.7694
▁porc	-11.7703
▁balt	-11.7705
rousing	-11.7706
▁minorit	-11.7727
fol	-11.7743
amore	-11.7758
antly	-11.7775
yle	-11.7778
lace	-11.7812
bon	-11.7833
tam	-11.7833
▁walker	-11.7852
▁perk	-11.7857
▁disc	-11.7871
ctic	-11.7877
ove	-11.7882
▁perc	-11.7895
▁alan	-11.7897
boxes	-11.7912
▁interna	-11.795
nam	-11.8008
pend	-11.8026
reen	-11.8053
ewer	-11.8074
nies	-11.809
▁cla	-11.8107
▁vegeta	-11.8118
▁accelerate	-11.8152
holes	-11.8159
try	-11.8173
chez	-11.8189
▁rattle	-11.8234
fus	-11.8248
▁str	-11.8261
▁blur	-11.8261
▁bab	-11.8275
tiers	-11.8305
enne	-11.8329
mal	-11.8345
roy	-11.8357
bby	-11.8366
osi	-11.8367
osis	-11.8368
▁rena	-11.8371
▁shap	-11.8375
ced	-11.8381
▁cel	-11.8383
ets	-11.8419
abe	-11.8426
nza	-11.8438
ence	-11.8439
tical	-11.8444
uci	-11.8446
get	-11.8473
bbie	-11.85
hard	-11.8518
▁sant	-11.8535
verage	-11.858
arne	-11.8583
than	-11.8584
▁gir	-11.8592
iko	-11.8609
awn	-11.8611
▁consul	-11.8636
ika	-11.8647
gent	-11.8654
▁evolv	-11.8664
pid	-11.8706
uating	-11.8706
cart	-11.8713
▁remov	-11.8717
▁wor	-11.8766
▁accumulat	-11.8782
▁fro	-11.8786
hen	-11.8814
▁gener	-11.8831
ggling	-11.8843
inos	-11.8844
mie	-11.8845
ide	-11.8861
itter	-11.8866
▁gravel	-11.8868
ionary	-11.8869
test	-11.8869
▁aa	-11.8879
manj	-11.8898
mont	-11.8911
▁rebel	-11.8925
▁ahha	-11.8941
▁mhm	-11.8944
▁luri	-11.8945
chen	-11.9008
ative	-11.9011
fying	-11.9013
▁genti	-11.903
▁arch	-11.9038
print	-11.9042
▁convert	-11.9044
▁addict	-11.9044
▁reuni	-11.9051
antoni	-11.9051
▁gam	-11.9051
▁rum	-11.9058
▁pond	-11.9069
ural	-11.9072
that	-11.9072
▁toot	-11.9073
▁cann	-11.9076
epa	-11.9077
bone	-11.908
eval	-11.9081
▁accomplice	-11.9081
▁burglar	-11.9081
▁giraffe	-11.9081
▁gnome	-11.9081
▁thoroughbred	-11.9081
▁delusion	-11.9082
▁grenade	-11.9082
▁pyramid	-11.9087
▁kilo	-11.909
▁operative	-11.909
▁sprout	-11.909
▁outdoor	-11.9092
▁protestant	-11.9094
▁phillip	-11.9095
▁saloon	-11.9095
▁teammate	-11.9095
▁initial	-11.9095
▁gymnast	-11.9096
▁cho	-11.9096
▁microchip	-11.9099
▁kidney	-11.9099
▁meadow	-11.9099
▁rattlesnake	-11.9102
▁shilling	-11.9102
▁warmup	-11.9103
▁fingerprint	-11.9107
▁sni	-11.9108
▁coordinate	-11.911
▁musher	-11.9115
▁tourist	-11.9115
▁headstone	-11.9118
▁raci	-11.912
▁een	-11.9129
lab	-11.913
▁moor	-11.9135
fia	-11.9141
ripper	-11.9142
viv	-11.9142
▁paw	-11.9146
▁temp	-11.9146
▁organiz	-11.916
mouth	-11.9164
▁outfield	-11.9164
bility	-11.9167
berry	-11.9181
war	-11.9186
▁recreat	-11.9187
▁slug	-11.919
▁imagina	-11.9197
cakes	-11.9207
▁stud	-11.9208
rats	-11.9209
▁bub	-11.9213
pipe	-11.9213
▁phy	-11.922
elding	-11.9228
craft	-11.9231
faced	-11.9232
▁squa	-11.9232
park	-11.9233
▁stalk	-11.9233
shot	-11.9234
tube	-11.9234
▁suppos	-11.9234
fest	-11.9234
bolt	-11.9235
▁scribble	-11.9235
loaf	-11.9235
walk	-11.9235
▁accord	-11.9236
flower	-11.9236
▁screech	-11.9236
reasonable	-11.9237
▁athletic	-11.9237
proof	-11.9237
cream	-11.9237
talk	-11.9237
sensible	-11.9237
cross	-11.9238
▁plac	-11.9238
drums	-11.9238
violence	-11.9238
dammit	-11.9238
penny	-11.9238
dollar	-11.9239
front	-11.9239
stretch	-11.9239
wheel	-11.9239
jacket	-11.9239
quarter	-11.9239
defense	-11.9239
familiar	-11.9239
understood	-11.9239
thousand	-11.9239
bottle	-11.9239
children	-11.924
year	-11.924
hello	-11.924
guard	-11.9241
loving	-11.9241
wide	-11.9243
▁convey	-11.9244
mile	-11.9244
▁banish	-11.9246
▁betray	-11.9248
wrap	-11.9249
▁hom	-11.925
whoa	-11.9252
gical	-11.9253
ough	-11.9255
▁wick	-11.9255
▁curr	-11.9256
▁collapse	-11.9257
▁devote	-11.9257
▁restore	-11.9257
▁engage	-11.9257
▁confuse	-11.9258
ncineroar	-11.9259
▁humiliate	-11.9259
▁seminar	-11.926
avor	-11.9262
▁scoot	-11.9262
round	-11.9263
▁chivalr	-11.9264
▁livin	-11.9265
bank	-11.9266
▁snuff	-11.9266
▁inject	-11.9266
▁moderat	-11.9266
▁univers	-11.9267
▁divide	-11.9267
▁georgi	-11.9268
▁technical	-11.9268
elimina	-11.9268
▁merc	-11.9269
nno	-11.9269
▁esp	-11.9269
▁explor	-11.9269
▁scram	-11.927
▁rul	-11.9271
ulation	-11.9271
lui	-11.9272
▁memo	-11.9273
▁muff	-11.9273
▁commun	-11.9273
▁alexand	-11.9274
▁deme	-11.9274
▁rabbi	-11.9274
▁wealth	-11.9274
cka	-11.9275
▁mash	-11.9276
▁quake	-11.9276
▁geolog	-11.9277
▁cynic	-11.9277
▁academ	-11.9277
▁continent	-11.9277
▁counsel	-11.9277
▁consume	-11.9277
▁bleach	-11.9277
ollen	-11.9277
therland	-11.9278
▁hub	-11.9278
▁raisin	-11.9278
timate	-11.9278
▁anchov	-11.9278
▁michel	-11.9278
alnut	-11.9278
▁agitat	-11.9279
▁collaborat	-11.9279
▁canvas	-11.9279
▁vulgar	-11.9279
cussion	-11.9279
▁imprison	-11.9279
▁rhy	-11.9279
▁tow	-11.9279
▁labour	-11.9279
▁diploma	-11.928
apore	-11.928
gnant	-11.928
▁jeopardi	-11.928
▁moth	-11.928
▁intro	-11.928
▁differ	-11.928
odo	-11.928
▁cens	-11.928
▁visual	-11.928
▁crutch	-11.928
▁electro	-11.928
▁curve	-11.928
▁holla	-11.928
umption	-11.928
▁insul	-11.9281
trilo	-11.9281
▁immigra	-11.9281
▁ornament	-11.9281
▁ravag	-11.9281
▁traviata	-11.9281
▁wrist	-11.9281
apolis	-11.9281
because	-11.9281
caffeinated	-11.9281
clamation	-11.9281
compromising	-11.9281
equently	-11.9281
inflict	-11.9281
laplane	-11.9281
ncomplete	-11.9281
obedience	-11.9281
rescind	-11.9281
scription	-11.9281
sfrance	-11.9281
technician	-11.9281
▁aborigin	-11.9281
▁accommodation	-11.9281
▁acquainted	-11.9281
▁additional	-11.9281
▁additive	-11.9281
▁admirable	-11.9281
▁advocate	-11.9281
▁agencies	-11.9281
▁alcatraz	-11.9281
▁alibi	-11.9281
▁amateur	-11.9281
▁amazon	-11.9281
▁amsucco	-11.9281
▁anchor	-11.9281
▁anglophobia	-11.9281
▁anguta	-11.9281
▁annihilat	-11.9281
▁answersheet	-11.9281
▁anticipation	-11.9281
▁aqueduct	-11.9281
▁archetypal	-11.9281
▁argentin	-11.9281
▁artifact	-11.9281
▁artificial	-11.9281
▁aspire	-11.9281
▁assessment	-11.9281
▁atlantic	-11.9281
▁australasian	-11.9281
▁baltimore	-11.9281
▁bandaids	-11.9281
▁barbecue	-11.9281
▁bartolo	-11.9281
▁bergmark	-11.9281
▁beverley	-11.9281
▁biblical	-11.9281
▁blastoise	-11.9281
▁blindfold	-11.9281
▁bottling	-11.9281
▁brethren	-11.9281
▁briare	-11.9281
▁brunette	-11.9281
▁budapest	-11.9281
▁bulbasaur	-11.9281
▁cannybull	-11.9281
▁capoeir	-11.9281
▁castilho	-11.9281
▁celebrity	-11.9281
▁cereal	-11.9281
▁certificate	-11.9281
▁chandelier	-11.9281
▁chauffeur	-11.9281
▁cheshire	-11.9281
▁chorus	-11.9281
▁christopher	-11.9281
▁civic	-11.9281
▁clarify	-11.9281
▁clermontferrand	-11.9281
▁climate	-11.9281
▁clunking	-11.9281
▁column	-11.9281
▁comprendo	-11.9281
▁convoy	-11.9281
▁cortina	-11.9281
▁cottage	-11.9281
▁coyote	-11.9281
▁creativity	-11.9281
▁cremation	-11.9281
▁crossword	-11.9281
▁cultural	-11.9281
▁cyclist	-11.9281
▁danaisser	-11.9281
▁dashed	-11.9281
▁deborah	-11.9281
▁declaration	-11.9281
▁defensive	-11.9281
▁delegation	-11.9281
▁denominat	-11.9281
▁devastation	-11.9281
▁diagram	-11.9281
▁dialect	-11.9281
▁dignified	-11.9281
▁disadvantage	-11.9281
▁discerning	-11.9281
▁discomfort	-11.9281
▁discouraged	-11.9281
▁dismount	-11.9281
▁disregard	-11.9281
▁doughnut	-11.9281
▁duffle	-11.9281
▁dunhill	-11.9281
▁dupont	-11.9281
▁dwarf	-11.9281
▁dweeb	-11.9281
▁dynamic	-11.9281
▁eisenhower	-11.9281
▁elaborate	-11.9281
▁elevate	-11.9281
▁embodi	-11.9281
▁encore	-11.9281
▁engelpuke	-11.9281
▁entitled	-11.9281
▁episode	-11.9281
▁equivalent	-11.9281
▁eskimos	-11.9281
▁eugene	-11.9281
▁evaluate	-11.9281
▁evildoers	-11.9281
▁extinguish	-11.9281
▁eyebrows	-11.9281
▁fackler	-11.9281
▁fairhair	-11.9281
▁fartface	-11.9281
▁fascinated	-11.9281
▁felix	-11.9281
▁fettuccine	-11.9281
▁firecracker	-11.9281
▁flask	-11.9281
▁flourishe	-11.9281
▁fontaine	-11.9281
▁fortnight	-11.9281
▁fossil	-11.9281
▁frobscottle	-11.9281
▁fromage	-11.9281
▁gekko	-11.9281
▁geranium	-11.9281
▁ghetto	-11.9281
▁ghibli	-11.9281
▁girdle	-11.9281
▁gitundu	-11.9281
▁gleaming	-11.9281
▁granddaughter	-11.9281
▁gravity	-11.9281
▁grizz	-11.9281
▁guggenheim	-11.9281
▁guinea	-11.9281
▁gummidge	-11.9281
▁gypsy	-11.9281
▁hallucinations	-11.9281
▁harbour	-11.9281
▁harmonica	-11.9281
▁heartbreaker	-11.9281
▁heavier	-11.9281
▁heavyweight	-11.9281
▁hebrides	-11.9281
▁hendri	-11.9281
▁heritage	-11.9281
▁hilarious	-11.9281
▁hitchhike	-11.9281
▁holtbrow	-11.9281
▁hooroo	-11.9281
▁hurricane	-11.9281
▁hyena	-11.9281
▁iawekon	-11.9281
▁identifiable	-11.9281
▁illiterate	-11.9281
▁immoral	-11.9281
▁impassable	-11.9281
▁imperfection	-11.9281
▁implicated	-11.9281
▁implication	-11.9281
▁incessant	-11.9281
▁inconvenience	-11.9281
▁indicating	-11.9281
▁indictment	-11.9281
▁indispensable	-11.9281
▁indisposed	-11.9281
▁infected	-11.9281
▁infection	-11.9281
▁infinity	-11.9281
▁inhabit	-11.9281
▁insanity	-11.9281
▁intestines	-11.9281
▁intimacy	-11.9281
▁intrepid	-11.9281
▁intrigu	-11.9281
▁irresistible	-11.9281
▁jengibre	-11.9281
▁jumbo	-11.9281
▁karvoskya	-11.9281
▁katheryn	-11.9281
▁kennedy	-11.9281
▁kensington	-11.9281
▁kroychzech	-11.9281
▁lacerations	-11.9281
▁lamirand	-11.9281
▁lanervo	-11.9281
▁lecturing	-11.9281
▁leotards	-11.9281
▁locomotive	-11.9281
▁loopdeloop	-11.9281
▁lucinda	-11.9281
▁lullaby	-11.9281
▁marcel	-11.9281
▁maroiyeur	-11.9281
▁marquee	-11.9281
▁massilia	-11.9281
▁mastodon	-11.9281
▁mathematic	-11.9281
▁matthew	-11.9281
▁merchandise	-11.9281
▁migra	-11.9281
▁miniature	-11.9281
▁minimum	-11.9281
▁miriam	-11.9281
▁mishap	-11.9281
▁modification	-11.9281
▁monologue	-11.9281
▁montepetra	-11.9281
▁moriarity	-11.9281
▁munich	-11.9281
▁myriad	-11.9281
▁mythology	-11.9281
▁nazareth	-11.9281
▁nenana	-11.9281
▁neutral	-11.9281
▁nitwit	-11.9281
▁nomination	-11.9281
▁noodles	-11.9281
▁nostalgi	-11.9281
▁nunnery	-11.9281
▁oedema	-11.9281
▁opposition	-11.9281
▁ordeal	-11.9281
▁oregon	-11.9281
▁organisation	-11.9281
▁orthopedic	-11.9281
▁ossuary	-11.9281
▁outsmart	-11.9281
▁paleface	-11.9281
▁paragraph	-11.9281
▁pardonnezmoi	-11.9281
▁peggy	-11.9281
▁penalty	-11.9281
▁penguin	-11.9281
▁pennington	-11.9281
▁permanent	-11.9281
▁perpetrator	-11.9281
▁perplexing	-11.9281
▁perverse	-11.9281
▁petronella	-11.9281
▁philadelphia	-11.9281
▁photogenic	-11.9281
▁pineapple	-11.9281
▁pizzeria	-11.9281
▁polaroid	-11.9281
▁popcorn	-11.9281
▁preparation	-11.9281
▁prestige	-11.9281
▁proportion	-11.9281
▁prosecute	-11.9281
▁provincial	-11.9281
▁puberty	-11.9281
▁pulveriz	-11.9281
▁quarry	-11.9281
▁radiation	-11.9281
▁radiator	-11.9281
▁reappear	-11.9281
▁rearrange	-11.9281
▁reggie	-11.9281
▁regulations	-11.9281
▁reluctant	-11.9281
▁resourceful	-11.9281
▁rhode	-11.9281
▁richelieu	-11.9281
▁rockefeller	-11.9281
▁rollsroyce	-11.9281
▁rummaging	-11.9281
▁salvation	-11.9281
▁savior	-11.9281
▁saxophon	-11.9281
▁scrutin	-11.9281
▁seagull	-11.9281
▁semester	-11.9281
▁senile	-11.9281
▁shelf	-11.9281
▁shirley	-11.9281
▁simpson	-11.9281
▁sizzling	-11.9281
▁skelet	-11.9281
▁slingshots	-11.9281
▁slouch	-11.9281
▁smolny	-11.9281
▁snookiepoo	-11.9281
▁snotty	-11.9281
▁snug	-11.9281
▁southeast	-11.9281
▁specimen	-11.9281
▁spiral	-11.9281
▁spontaneously	-11.9281
▁sprained	-11.9281
▁stebbins	-11.9281
▁succumb	-11.9281
▁suspension	-11.9281
▁swastika	-11.9281
▁tepee	-11.9281
▁terrified	-11.9281
▁thirteen	-11.9281
▁thoroughly	-11.9281
▁tibbs	-11.9281
▁tobacco	-11.9281
▁tobacconist	-11.9281
▁tombstone	-11.9281
▁toodleoo	-11.9281
▁topsecret	-11.9281
▁trembling	-11.9281
▁tremendous	-11.9281
▁trespass	-11.9281
▁triangle	-11.9281
▁trogglehumper	-11.9281
▁turbo	-11.9281
▁unaware	-11.9281
▁undoubtedly	-11.9281
▁unnatural	-11.9281
▁uphill	-11.9281
▁utility	-11.9281
▁vampire	-11.9281
▁vanquished	-11.9281
▁voodoo	-11.9281
▁waffles	-11.9281
▁waistcoat	-11.9281
▁waldorf	-11.9281
▁wardenclyffe	-11.9281
▁whichever	-11.9281
▁whitechapel	-11.9281
▁whitman	-11.9281
▁wretched	-11.9281
▁xobytes	-11.9281
▁ziegler	-11.9281
▁zigzag	-11.9281
▁circumstan	-11.9281
▁citation	-11.9281
▁crypto	-11.9281
▁cucu	-11.9281
▁devalue	-11.9281
▁hittite	-11.9281
▁portray	-11.9281
▁sabin	-11.9281
▁spool	-11.9281
▁thrust	-11.9281
▁vocation	-11.9281
▁akina	-11.9281
▁apron	-11.9281
▁ashtray	-11.9281
▁bahamas	-11.9281
▁boulder	-11.9281
▁commendations	-11.9281
▁depict	-11.9281
▁domestic	-11.9281
▁droite	-11.9281
▁exhaling	-11.9281
▁fabric	-11.9281
▁ifif	-11.9281
▁intervals	-11.9281
▁kgb	-11.9281
▁khan	-11.9281
▁licence	-11.9281
▁lifeboat	-11.9281
▁makeawish	-11.9281
▁marianne	-11.9281
▁monroe	-11.9281
▁nourish	-11.9281
▁overdue	-11.9281
▁pattering	-11.9281
▁pfft	-11.9281
▁preparing	-11.9281
▁rambunctious	-11.9281
▁shoelaces	-11.9281
▁spangler	-11.9281
▁spaz	-11.9281
▁stooge	-11.9281
▁superstitious	-11.9281
▁sursicks	-11.9281
▁tissue	-11.9281
▁tyrant	-11.9281
▁unbeatable	-11.9281
▁vague	-11.9281
▁womb	-11.9281
▁accusations	-11.9281
▁birch	-11.9281
▁bisque	-11.9281
▁boulon	-11.9281
▁consensus	-11.9281
▁crumble	-11.9281
▁glare	-11.9281
▁hebr	-11.9281
▁immigrants	-11.9281
▁itinerar	-11.9281
▁jackpot	-11.9281
▁manipulat	-11.9281
▁maroon	-11.9281
▁medallion	-11.9281
▁referred	-11.9281
▁smug	-11.9281
▁sponge	-11.9281
▁thrive	-11.9281
assigned	-11.9281
▁daisies	-11.9281
▁endurance	-11.9281
▁epic	-11.9281
▁sardin	-11.9281
▁scandal	-11.9281
▁slut	-11.9281
▁sykes	-11.9281
▁whereabouts	-11.9281
▁yippee	-11.9281
▁absent	-11.9281
▁buoy	-11.9281
▁cambridge	-11.9281
▁paddy	-11.9281
▁patronize	-11.9281
▁pirate	-11.9281
▁slander	-11.9281
▁tampa	-11.9281
▁uppy	-11.9281
▁ashore	-11.9281
▁crises	-11.9281
▁diaper	-11.9281
▁eyelid	-11.9281
▁hamrin	-11.9281
▁matzo	-11.9281
▁plumbing	-11.9281
▁taylor	-11.9281
▁vase	-11.9281
▁belch	-11.9281
▁jhon	-11.9281
▁matri	-11.9281
▁ranieri	-11.9281
▁tuxedo	-11.9281
▁untouch	-11.9281
▁cartoon	-11.9281
▁douglas	-11.9281
▁fiesta	-11.9281
▁funnel	-11.9281
▁laurie	-11.9281
▁lnspector	-11.9281
▁patrons	-11.9281
▁reich	-11.9281
▁sphere	-11.9281
▁swedes	-11.9281
▁thistle	-11.9281
▁bandido	-11.9281
▁firerat	-11.9281
▁loony	-11.9281
▁plumber	-11.9281
amba	-11.9281
▁beverly	-11.9281
▁manifest	-11.9281
▁proverb	-11.9281
▁bacteria	-11.9281
▁sleigh	-11.9281
▁advers	-11.9281
▁pvt	-11.9281
▁articu	-11.9281
▁dazzl	-11.9281
▁taffy	-11.9281
imaginative	-11.9281
▁deleting	-11.9281
▁hesitation	-11.9281
▁immense	-11.9281
▁puke	-11.9281
▁shenlong	-11.9281
▁altar	-11.9281
▁janitor	-11.9281
▁polly	-11.9281
▁thesis	-11.9281
▁vamo	-11.9281
▁blizzard	-11.9281
▁demise	-11.9281
▁hazy	-11.9281
▁barrows	-11.9281
▁capabilit	-11.9281
▁gopher	-11.9281
▁mourn	-11.9281
▁conceit	-11.9281
▁tactics	-11.9281
▁squeezing	-11.9281
flamb	-11.9281
▁swipe	-11.9281
▁estce	-11.9281
▁mugger	-11.9281
▁gallop	-11.9281
▁communicating	-11.9281
▁minivan	-11.9281
▁orthodox	-11.9281
▁titans	-11.9281
▁ivy	-11.9281
▁courtesy	-11.9281
▁josie	-11.9281
dictable	-11.9281
▁sancti	-11.9281
▁librari	-11.9281
▁zoologist	-11.9281
▁revolve	-11.9281
▁reyn	-11.9281
youryour	-11.9281
▁immanent	-11.9281
▁jansen	-11.9281
▁summit	-11.9281
▁whinny	-11.9281
▁disability	-11.9281
▁necessity	-11.9281
▁drain	-11.9281
icebox	-11.9281
waza	-11.9281
▁primeape	-11.9281
▁munks	-11.9281
▁nevermind	-11.9281
▁lucario	-11.9281
▁magique	-11.9281
▁curveball	-11.9281
▁harass	-11.9281
▁terminate	-11.9281
▁exclusive	-11.9281
▁candlestick	-11.9281
▁diplomacy	-11.9281
▁cameron	-11.9281
▁clough	-11.9281
▁whwhy	-11.9281
▁airways	-11.9281
▁commenc	-11.9281
▁frustration	-11.9281
▁bugging	-11.9281
▁deduc	-11.9281
▁bouncing	-11.9281
▁disloyal	-11.9281
▁venice	-11.9281
▁bulbs	-11.9281
▁disrespect	-11.9281
▁whisky	-11.9281
▁depriv	-11.9281
▁molding	-11.9281
▁fantasies	-11.9281
▁pompoms	-11.9281
▁derby	-11.9281
▁observation	-11.9281
▁resident	-11.9281
▁dufour	-11.9281
▁peeka	-11.9281
▁disarm	-11.9281
▁aroma	-11.9281
▁denver	-11.9281
▁fiasco	-11.9281
▁jabbeling	-11.9281
▁reld	-11.9281
▁quaint	-11.9281
▁venison	-11.9281
▁goalkeeper	-11.9281
▁lizard	-11.9281
▁nerd	-11.9281
▁violation	-11.9281
▁bambi	-11.9281
▁debris	-11.9281
▁horace	-11.9281
▁liking	-11.9281
▁seadragon	-11.9281
yield	-11.9282
▁banjo	-11.9282
▁ciose	-11.9282
▁thorny	-11.9282
▁selectors	-11.9282
▁shaft	-11.9282
songwriter	-11.9282
▁tread	-11.9282
▁blush	-11.9282
diddledy	-11.9282
▁aggressive	-11.9282
▁imperial	-11.9282
▁buttonholes	-11.9282
▁nineyearold	-11.9282
▁tuning	-11.9282
▁weeds	-11.9282
▁jeopardize	-11.9282
▁lncoming	-11.9282
▁briefcase	-11.9282
▁blitz	-11.9282
▁perez	-11.9282
▁cherries	-11.9282
▁perjur	-11.9282
▁rasta	-11.9282
▁balby	-11.9282
▁catholicism	-11.9282
▁daddies	-11.9282
▁criticism	-11.9282
▁bailey	-11.9282
▁baking	-11.9282
▁compound	-11.9282
▁expectations	-11.9282
▁selfdestructive	-11.9282
▁kipper	-11.9282
▁nomine	-11.9282
▁pelt	-11.9282
▁pillow	-11.9282
▁quantit	-11.9282
▁bruise	-11.9282
▁sedition	-11.9282
▁dispute	-11.9282
▁assassination	-11.9282
▁outlook	-11.9282
▁junction	-11.9282
▁meditation	-11.9282
▁obsession	-11.9282
▁tension	-11.9282
▁ragtime	-11.9282
▁appreciation	-11.9282
▁deceive	-11.9282
▁fava	-11.9282
▁forthcoming	-11.9282
errari	-11.9282
▁gentlegirl	-11.9282
▁injunction	-11.9282
▁lurk	-11.9282
▁harassment	-11.9282
▁imprisonment	-11.9282
▁truce	-11.9282
▁brood	-11.9282
▁pleasing	-11.9282
▁dripping	-11.9282
▁witchcraft	-11.9282
▁arab	-11.9282
▁shaving	-11.9282
▁merde	-11.9282
pathy	-11.9282
▁coconut	-11.9282
▁unforgivable	-11.9282
▁witty	-11.9282
▁bowels	-11.9282
▁quiche	-11.9282
▁vouch	-11.9282
▁tiger	-11.9282
▁boredom	-11.9283
▁pinball	-11.9283
▁spinach	-11.9283
▁assumption	-11.9283
▁dawg	-11.9283
▁perpetual	-11.9283
▁nuke	-11.9283
▁auction	-11.9283
▁chalk	-11.9283
ivated	-11.9283
▁boundaries	-11.9283
▁pupil	-11.9283
▁upright	-11.9283
▁julian	-11.9283
▁singlehanded	-11.9283
▁titani	-11.9283
▁michelle	-11.9283
▁squall	-11.9283
▁walnut	-11.9283
▁irritati	-11.9283
▁transition	-11.9283
▁roos	-11.9283
▁cuff	-11.9283
▁rye	-11.9283
▁lowlife	-11.9283
▁asia	-11.9283
▁bourb	-11.9283
five	-11.9283
▁bullock	-11.9283
▁yip	-11.9283
▁buff	-11.9283
▁collectible	-11.9283
▁disqualified	-11.9283
▁swat	-11.9284
▁refill	-11.9284
▁sizing	-11.9284
▁toto	-11.9284
▁sentimental	-11.9284
▁booze	-11.9284
▁syne	-11.9284
▁dunk	-11.9284
▁wildlife	-11.9284
selah	-11.9284
sthetic	-11.9284
▁catfish	-11.9284
▁medium	-11.9284
▁liberation	-11.9284
▁lockwood	-11.9284
▁consol	-11.9284
▁tsk	-11.9284
▁sofa	-11.9284
▁carlos	-11.9284
▁hungary	-11.9284
▁minus	-11.9284
▁litton	-11.9284
nflation	-11.9284
▁filter	-11.9284
▁heir	-11.9284
▁labourers	-11.9284
▁elude	-11.9284
▁trevor	-11.9284
▁rigor	-11.9284
ernst	-11.9284
▁stitch	-11.9284
▁cruella	-11.9285
▁valve	-11.9285
▁subver	-11.9285
▁hotshot	-11.9285
▁compell	-11.9285
▁chipped	-11.9285
▁posse	-11.9285
▁hunch	-11.9285
▁charne	-11.9285
▁spank	-11.9285
▁cannes	-11.9285
▁carlson	-11.9285
▁secre	-11.9285
▁prettier	-11.9285
▁muti	-11.9285
▁cess	-11.9285
▁els	-11.9285
▁barney	-11.9285
▁goldfish	-11.9285
▁demoli	-11.9285
▁capitol	-11.9285
▁anthr	-11.9285
▁primate	-11.9285
▁pooh	-11.9285
moto	-11.9285
▁oink	-11.9285
▁mutters	-11.9286
▁cooperation	-11.9286
integrate	-11.9286
▁mongo	-11.9286
▁optimistic	-11.9286
▁embarrassment	-11.9286
▁headmaster	-11.9286
▁vipers	-11.9286
rinth	-11.9286
▁employment	-11.9286
ralize	-11.9286
▁domination	-11.9286
▁schm	-11.9286
▁stale	-11.9286
▁cruising	-11.9286
▁educated	-11.9286
ramble	-11.9286
▁squabbl	-11.9286
▁dugout	-11.9286
▁nipp	-11.9286
▁compassion	-11.9286
▁funnies	-11.9286
▁glance	-11.9287
▁delance	-11.9287
runch	-11.9287
▁stressful	-11.9287
▁formality	-11.9287
▁makin	-11.9287
oohooh	-11.9287
▁contradiction	-11.9287
▁darr	-11.9287
▁escap	-11.9287
▁squirtle	-11.9287
▁prediction	-11.9287
▁rake	-11.9287
▁spam	-11.9287
▁adoption	-11.9287
▁nestor	-11.9287
▁conley	-11.9288
▁mower	-11.9288
▁victories	-11.9288
▁plow	-11.9288
▁satch	-11.9288
▁ricket	-11.9288
▁yeeha	-11.9288
▁feedback	-11.9288
▁coca	-11.9288
▁dependable	-11.9288
▁mileage	-11.9288
▁revo	-11.9288
▁streetcar	-11.9288
▁toll	-11.9289
▁woodward	-11.9289
▁madison	-11.9289
▁boinging	-11.9289
▁senhora	-11.9289
▁republican	-11.9289
▁coop	-11.9289
▁footwork	-11.9289
▁shipment	-11.9289
▁abdu	-11.9289
▁equi	-11.9289
centennial	-11.9289
▁soso	-11.9289
▁conservatively	-11.929
▁ark	-11.929
▁cuban	-11.929
▁multiply	-11.929
▁payday	-11.929
▁abor	-11.929
oces	-11.929
▁duch	-11.929
cliff	-11.929
▁nooo	-11.929
▁sketches	-11.929
▁shushes	-11.929
▁arse	-11.929
acity	-11.9291
▁imagery	-11.9291
▁brainard	-11.9291
▁orb	-11.9291
▁distinguish	-11.9292
▁hungarian	-11.9292
▁wizard	-11.9292
▁indulge	-11.9292
▁wrestle	-11.9292
▁arouse	-11.9292
▁uncalled	-11.9292
▁blah	-11.9292
▁procession	-11.9292
insured	-11.9292
▁alfredo	-11.9292
▁silk	-11.9292
▁luxury	-11.9292
▁cornet	-11.9292
▁scaffolding	-11.9292
▁appalling	-11.9292
▁polyt	-11.9292
▁ashton	-11.9292
▁harmony	-11.9292
▁koto	-11.9292
▁generator	-11.9293
▁lug	-11.9293
▁lsnt	-11.9293
▁weakling	-11.9293
▁scrambl	-11.9293
▁recite	-11.9293
▁attendant	-11.9293
▁puttin	-11.9294
▁adultery	-11.9294
▁swanage	-11.9294
▁pads	-11.9294
▁salesman	-11.9294
▁catalog	-11.9294
▁bullshitter	-11.9295
▁rehearse	-11.9295
▁capitalize	-11.9295
▁missionary	-11.9295
▁texture	-11.9295
▁cbs	-11.9295
▁stead	-11.9295
▁rhu	-11.9295
▁considerate	-11.9295
▁hairball	-11.9295
▁kiii	-11.9295
▁firewood	-11.9295
▁partlow	-11.9295
▁edition	-11.9296
▁verity	-11.9296
ware	-11.9296
▁related	-11.9296
▁oppress	-11.9296
▁tamer	-11.9297
▁deriv	-11.9297
▁chow	-11.9297
▁mba	-11.9297
▁warmth	-11.9297
▁soninlaw	-11.9298
ork	-11.9298
▁gunner	-11.9298
▁meaningless	-11.9298
▁recon	-11.9298
▁ccc	-11.9299
▁cupid	-11.9299
▁approaches	-11.9299
gulp	-11.9299
▁greenland	-11.9299
▁admirer	-11.9299
vested	-11.9299
▁caption	-11.9299
▁charan	-11.9299
▁snuffy	-11.93
▁himm	-11.93
▁headlines	-11.93
cci	-11.93
▁enclos	-11.9301
▁toil	-11.9301
▁instantly	-11.9301
▁forsaken	-11.9301
▁informal	-11.9301
▁funni	-11.9302
▁napkin	-11.9302
▁beeper	-11.9302
▁eddy	-11.9302
▁batch	-11.9302
▁soaked	-11.9303
▁condemned	-11.9303
▁downloaded	-11.9303
▁published	-11.9303
▁sustained	-11.9303
▁thrashed	-11.9303
syph	-11.9303
▁artistic	-11.9304
▁iceland	-11.9304
▁annex	-11.9304
euf	-11.9304
uality	-11.9305
▁conviction	-11.9305
▁surfers	-11.9305
▁overreacting	-11.9305
▁suz	-11.9306
piped	-11.9306
▁linda	-11.9306
▁mailman	-11.9306
hour	-11.9306
▁globe	-11.9306
ulous	-11.9307
ippin	-11.9307
dex	-11.9307
▁spies	-11.9307
▁curly	-11.9307
▁feat	-11.9308
▁wig	-11.9308
▁monk	-11.9308
▁bulletin	-11.9309
▁ironic	-11.9309
▁pell	-11.9309
▁prob	-11.931
▁snores	-11.931
▁hometown	-11.931
▁consistent	-11.931
▁pulse	-11.931
▁gauge	-11.9311
▁thisi	-11.9311
▁granddaddy	-11.9312
▁enjoyment	-11.9312
▁defy	-11.9312
▁thrashing	-11.9313
▁satan	-11.9313
pensive	-11.9313
▁bedtime	-11.9313
▁foal	-11.9313
ulah	-11.9314
toes	-11.9314
▁shaw	-11.9315
▁gram	-11.9315
▁rally	-11.9315
▁with	-11.9315
rence	-11.9316
▁prof	-11.9317
▁brainless	-11.9318
▁conveyed	-11.9318
▁banished	-11.9318
▁active	-11.9318
▁moss	-11.9318
▁controlling	-11.9318
▁converted	-11.9318
▁addicted	-11.9319
▁formation	-11.9319
▁kissinger	-11.9319
western	-11.932
joy	-11.9321
▁verdi	-11.9321
▁fere	-11.9321
▁nursery	-11.9322
▁jiggly	-11.9322
▁composer	-11.9323
▁clod	-11.9324
▁refer	-11.9324
▁quibbl	-11.9324
▁avenged	-11.9324
▁iine	-11.9325
▁partial	-11.9325
▁bunty	-11.9326
▁flapjacks	-11.9326
▁fractions	-11.9326
▁hendersons	-11.9326
▁misfits	-11.9326
▁sprinkles	-11.9326
▁crashes	-11.9326
▁yama	-11.9327
▁outsiders	-11.9328
ucky	-11.9329
▁losses	-11.9329
▁qe	-11.9329
▁balloons	-11.933
▁operated	-11.9331
▁dece	-11.9331
russel	-11.9331
▁wield	-11.9332
▁juliet	-11.9332
▁succeeded	-11.9332
▁stalking	-11.9333
▁der	-11.9334
▁tabs	-11.9335
▁hotter	-11.9335
▁hugh	-11.9335
▁armies	-11.9336
▁grabbing	-11.9336
▁bushy	-11.9337
▁bona	-11.9337
iezvous	-11.9337
▁agreeable	-11.9339
▁sixty	-11.934
▁dart	-11.934
▁snipp	-11.934
▁gunter	-11.9341
▁unclean	-11.9342
▁wickedly	-11.9342
nnet	-11.9343
ribu	-11.9343
ervi	-11.9344
▁caterpi	-11.9345
▁debtor	-11.9345
▁commandment	-11.9346
illon	-11.9346
▁loner	-11.9347
▁accomplished	-11.9347
▁doomed	-11.9347
eesh	-11.9348
▁kle	-11.9349
▁govern	-11.935
▁scrapp	-11.9351
▁dodger	-11.9352
▁syria	-11.9353
▁expel	-11.9353
▁calculating	-11.9354
ogram	-11.9354
▁indicated	-11.9356
▁temper	-11.9357
▁morel	-11.9357
▁davidson	-11.9358
gestion	-11.9358
▁tackle	-11.936
▁growers	-11.9361
▁redeem	-11.9361
▁stomped	-11.9362
▁responded	-11.9362
▁decked	-11.9362
▁baptist	-11.9362
▁shen	-11.9364
utwi	-11.9366
▁nip	-11.9367
▁brew	-11.9367
theists	-11.9367
▁juggl	-11.9369
prints	-11.937
▁trifle	-11.9371
▁closeup	-11.9371
▁lair	-11.9373
▁itch	-11.9373
▁mature	-11.9373
▁peep	-11.9373
▁chun	-11.9374
▁cranking	-11.9375
▁disturbing	-11.9375
▁punishing	-11.9375
▁recreation	-11.9376
rimet	-11.9376
▁adored	-11.9377
▁breathin	-11.9377
▁entertained	-11.9377
▁mentally	-11.9377
▁physi	-11.9378
▁collector	-11.9379
too	-11.9379
▁lesb	-11.938
rah	-11.938
▁iive	-11.938
▁farce	-11.938
▁dent	-11.938
▁illegally	-11.9382
twentythree	-11.9382
▁carmen	-11.9384
icle	-11.9385
▁squeezed	-11.9387
▁tit	-11.9387
pie	-11.9388
▁yorkers	-11.9389
hmmhmm	-11.939
nen	-11.939
ncer	-11.9391
▁dew	-11.9391
▁cryin	-11.9392
▁leaned	-11.9392
aflo	-11.9392
▁perfection	-11.9395
▁casa	-11.9396
▁brushing	-11.9396
▁affecting	-11.9396
▁banker	-11.9398
esar	-11.9398
▁thugs	-11.9404
▁flaws	-11.9404
▁psalms	-11.9404
▁resumes	-11.9404
▁anarchists	-11.9404
▁reaches	-11.9404
▁smuts	-11.9404
▁rumbles	-11.9404
▁wails	-11.9404
▁manufacturers	-11.9405
▁hauled	-11.9406
▁jen	-11.9407
▁asset	-11.9407
martial	-11.9408
▁accessor	-11.941
▁poly	-11.9411
▁irony	-11.9411
take	-11.9411
▁endea	-11.9412
▁seams	-11.9413
▁detailed	-11.9414
▁fiance	-11.9415
bags	-11.9416
▁bigtime	-11.9416
▁descending	-11.9417
▁abandoning	-11.9417
▁rooting	-11.9418
▁cubes	-11.9421
▁ridin	-11.9424
▁disguised	-11.9427
▁foolin	-11.9435
hoe	-11.9436
irl	-11.9436
▁licked	-11.9437
▁dries	-11.9437
▁wobbl	-11.9437
uma	-11.9438
▁profited	-11.9438
▁weakly	-11.9441
▁bakery	-11.9443
▁crosses	-11.9445
gammon	-11.9445
▁momentous	-11.9447
▁teaches	-11.9448
▁airline	-11.9454
▁taller	-11.9455
▁sneeze	-11.9457
bones	-11.9457
▁rene	-11.9457
circulate	-11.9458
▁dell	-11.9461
▁healing	-11.9461
haha	-11.9461
▁punched	-11.9462
▁pushin	-11.9463
▁dealers	-11.9468
▁simpler	-11.9469
▁esca	-11.947
▁thi	-11.9472
▁rebell	-11.9472
▁tube	-11.9474
▁alon	-11.9477
▁forrester	-11.9478
▁sic	-11.9479
▁flashing	-11.948
▁accomplices	-11.9484
▁burglars	-11.9484
▁delusions	-11.9484
▁giraffes	-11.9484
▁gnomes	-11.9484
▁pyramids	-11.9484
▁thoroughbreds	-11.9484
▁warmups	-11.9484
▁grenades	-11.9484
▁kilos	-11.9484
▁addicts	-11.9485
▁converts	-11.9485
▁payoff	-11.9485
▁are	-11.949
▁stickin	-11.9491
▁wanda	-11.9494
▁rewarded	-11.9496
▁celebrated	-11.9499
▁carryin	-11.95
▁insulting	-11.9503
▁mythic	-11.9503
▁freeman	-11.9505
▁pointers	-11.9506
gall	-11.9514
mony	-11.9523
▁challenger	-11.9526
▁attended	-11.9527
▁soi	-11.9529
▁drivein	-11.9529
eenie	-11.9537
▁frogg	-11.9538
ario	-11.9539
sault	-11.9542
▁shovel	-11.9542
▁insisting	-11.9544
▁neter	-11.9546
▁degrad	-11.9551
located	-11.9555
▁butchered	-11.9556
▁pai	-11.9557
▁duet	-11.9558
▁peels	-11.9563
▁delegates	-11.9565
▁feathers	-11.9565
▁kittens	-11.9565
▁novels	-11.9565
▁pencils	-11.9565
▁snacks	-11.9565
▁regionals	-11.9565
▁lamps	-11.9565
▁puffs	-11.9566
▁tub	-11.9566
▁tags	-11.9566
▁capitalists	-11.9567
avis	-11.9572
▁stare	-11.9572
▁bobsledd	-11.9573
▁lizzy	-11.9574
▁footer	-11.9574
▁rockin	-11.9575
▁grover	-11.9577
ogue	-11.9584
▁weirdo	-11.9586
risco	-11.9588
▁heavenly	-11.9598
▁asce	-11.9602
▁avoided	-11.9602
▁craz	-11.9624
▁attending	-11.963
▁smoked	-11.9631
▁screamed	-11.9636
▁blasting	-11.9636
▁godf	-11.9642
▁permits	-11.9645
▁occurs	-11.9645
▁cultures	-11.9647
▁squirrels	-11.9647
▁standards	-11.9647
▁sheets	-11.9647
▁gropers	-11.9647
▁donuts	-11.9648
▁operates	-11.9648
▁swamps	-11.9648
▁rags	-11.9649
▁casting	-11.9651
loyd	-11.9653
flex	-11.9654
▁tee	-11.9657
▁remarks	-11.9658
▁suing	-11.966
diction	-11.9661
nip	-11.9662
▁parky	-11.9663
▁cleaners	-11.9663
▁smelly	-11.9666
▁buttoned	-11.9666
▁buyin	-11.9668
▁bile	-11.9676
▁colored	-11.9683
▁sympathi	-11.9683
ata	-11.9685
ken	-11.9689
descent	-11.969
▁arg	-11.9692
▁happenin	-11.9698
▁chaser	-11.9703
▁jars	-11.9711
▁bumper	-11.9715
▁merge	-11.9716
nuff	-11.972
▁boggl	-11.9724
▁voter	-11.9726
▁gau	-11.9739
▁standin	-11.9745
liness	-11.9749
month	-11.9763
▁kara	-11.9765
uffing	-11.9766
▁drinkin	-11.9768
base	-11.9774
▁hoop	-11.9781
▁gand	-11.9785
▁roch	-11.9787
▁colla	-11.9803
▁bargains	-11.9804
▁friggin	-11.9805
▁juri	-11.9808
▁originat	-11.9809
▁hash	-11.9812
▁fiver	-11.9815
▁wart	-11.9815
▁generat	-11.982
▁remarkabl	-11.9832
▁align	-11.9838
▁fet	-11.9869
ruce	-11.9877
famous	-11.9892
▁stat	-11.9893
dimensional	-11.9911
skinned	-11.9924
▁dispos	-11.997
▁joker	-11.9975
▁pac	-11.9978
mill	-11.9982
▁grabb	-12.0002
▁versa	-12.0006
oir	-12.0016
jeweller	-12.0017
▁cuba	-12.0022
▁lens	-12.003
▁melodic	-12.0036
▁expos	-12.0041
sick	-12.0043
devil	-12.0044
▁este	-12.0062
▁sui	-12.0062
call	-12.0068
▁gaul	-12.0079
▁headin	-12.0086
▁rancher	-12.0111
▁barf	-12.0142
▁playin	-12.0161
hara	-12.0169
▁stac	-12.0171
trance	-12.0176
▁virtual	-12.0208
mmy	-12.0215
owling	-12.0232
▁youno	-12.0239
milton	-12.0247
bbling	-12.0258
capita	-12.0286
▁por	-12.0296
ival	-12.0309
celes	-12.031
▁morn	-12.0314
▁dine	-12.0345
▁ech	-12.0364
▁vien	-12.0367
▁moun	-12.0405
▁mingl	-12.0419
paralyzed	-12.0424
▁kil	-12.0431
▁blurr	-12.0432
▁evacuat	-12.0437
▁distinct	-12.0454
bag	-12.0454
▁investigat	-12.0489
▁ranger	-12.049
uhuh	-12.0505
▁sniffl	-12.0527
▁blo	-12.0544
▁trapp	-12.0546
▁reel	-12.0555
ella	-12.0558
▁rust	-12.056
▁regrett	-12.0577
lef	-12.0584
bri	-12.0585
▁veget	-12.0591
▁multi	-12.0604
▁wir	-12.0613
▁attach	-12.0626
▁lode	-12.0627
▁griev	-12.0628
▁occasional	-12.0636
temporary	-12.0652
vit	-12.0687
▁spik	-12.07
▁trucker	-12.0706
oons	-12.0706
▁parme	-12.0773
▁cove	-12.0783
barb	-12.0783
▁tangle	-12.0785
▁examin	-12.0797
har	-12.0798
▁trailer	-12.0803
verne	-12.081
▁typh	-12.0843
ustache	-12.0844
▁dor	-12.0857
▁humo	-12.0943
▁jeffr	-12.0949
cam	-12.0952
▁regardez	-12.0954
▁shameful	-12.1012
▁criticiz	-12.1021
being	-12.1021
ota	-12.1027
▁vaccinat	-12.1066
▁frenchie	-12.113
zan	-12.1165
aria	-12.121
▁braw	-12.1215
tv	-12.1222
who	-12.1233
▁gust	-12.1262
▁sle	-12.127
▁defi	-12.1287
▁gare	-12.1291
▁fend	-12.1302
uses	-12.1362
▁classical	-12.1374
even	-12.1375
▁consen	-12.1377
ington	-12.1401
precedent	-12.1439
▁apol	-12.1459
▁humbl	-12.1461
ruck	-12.1479
wling	-12.1481
elle	-12.1504
flin	-12.1519
▁whopp	-12.1536
factor	-12.1537
▁incredib	-12.1569
ishi	-12.1573
fire	-12.1582
pis	-12.1637
▁psychologi	-12.1638
▁sai	-12.1653
ripping	-12.1739
▁nob	-12.1771
mises	-12.1836
leavened	-12.1847
▁vaccinate	-12.1906
rillo	-12.1914
mes	-12.1946
iq	-12.1974
▁maxim	-12.2007
stage	-12.2032
tribution	-12.2064
▁grate	-12.2066
uzzling	-12.2071
parallele	-12.2071
burg	-12.2105
▁criticize	-12.2124
▁alli	-12.2178
▁jani	-12.222
▁encourag	-12.2254
rusty	-12.2285
ameha	-12.2293
raff	-12.231
ada	-12.2315
cola	-12.2327
taria	-12.2334
bio	-12.2387
▁interfer	-12.239
▁bbb	-12.2397
▁grieve	-12.24
▁zin	-12.2452
crow	-12.2469
onsnous	-12.2479
▁translat	-12.2484
pers	-12.2495
▁embrac	-12.2505
nson	-12.252
▁sever	-12.2527
hopping	-12.259
ceased	-12.2603
▁wounde	-12.2613
urse	-12.2616
▁evacuate	-12.2635
trooper	-12.2636
▁paralyze	-12.2652
atic	-12.2657
ference	-12.2707
stitute	-12.2712
ception	-12.2723
▁bli	-12.2763
tat	-12.2786
ugged	-12.2792
▁chic	-12.2796
iller	-12.2858
zvous	-12.2861
▁inco	-12.2917
itable	-12.2923
▁zap	-12.2924
▁hun	-12.2925
eep	-12.2944
ubbed	-12.2969
eservative	-12.2972
▁unde	-12.3005
broker	-12.3009
motion	-12.3009
adow	-12.3023
aki	-12.3053
▁nuh	-12.3055
boo	-12.3068
▁antic	-12.3091
pressed	-12.3125
zle	-12.3154
cien	-12.3154
▁exercis	-12.3166
lett	-12.3186
▁illustrat	-12.3195
▁trac	-12.3196
▁stampede	-12.3223
▁hust	-12.3276
▁rape	-12.3289
▁stu	-12.3311
elective	-12.3313
▁blaze	-12.3316
aimed	-12.332
▁dimension	-12.3328
arm	-12.3337
▁croc	-12.3344
▁initiat	-12.3345
▁wok	-12.3376
agan	-12.3384
▁dai	-12.3401
▁compet	-12.3411
volved	-12.3451
teen	-12.3456
moving	-12.347
hold	-12.3481
trick	-12.3488
chance	-12.3535
▁atroci	-12.3553
sportsman	-12.3556
▁milli	-12.3567
there	-12.3574
▁sham	-12.3577
▁deservin	-12.3582
▁barbi	-12.3601
▁preservati	-12.3626
▁mob	-12.3642
tted	-12.3646
▁reliev	-12.3651
▁kar	-12.3678
num	-12.369
▁appreciat	-12.3699
▁panz	-12.3745
▁via	-12.3746
▁dub	-12.3764
making	-12.3764
baden	-12.3768
▁const	-12.3793
amor	-12.3812
spirator	-12.3812
▁bran	-12.3832
▁bac	-12.3859
minded	-12.3866
▁destruct	-12.389
▁iso	-12.3898
▁myth	-12.3927
▁mil	-12.3931
▁supervise	-12.3932
crates	-12.3935
▁seam	-12.3937
▁berk	-12.3939
▁simpl	-12.3943
dicted	-12.3945
▁vill	-12.3947
keeper	-12.3955
▁ninj	-12.3977
▁rejoic	-12.3979
were	-12.3981
▁sneez	-12.3999
itsu	-12.4014
▁accus	-12.4017
▁wail	-12.4054
▁circu	-12.4059
▁involv	-12.4062
bbles	-12.4064
▁cough	-12.4069
parag	-12.4069
▁deni	-12.4071
ttie	-12.4077
▁drog	-12.4081
▁psalm	-12.4083
▁resume	-12.4083
▁thug	-12.4083
▁anarchist	-12.4084
▁rumble	-12.4084
▁flaw	-12.4086
▁receipt	-12.4092
▁transcript	-12.4092
▁amigo	-12.4092
▁ounce	-12.4092
▁conclusion	-12.4092
▁stern	-12.4093
▁icon	-12.4094
▁puzzle	-12.4094
▁robbin	-12.4094
▁manufacturer	-12.4095
▁smut	-12.4096
▁stompin	-12.4096
▁hoodlum	-12.4097
▁marshmallow	-12.4097
▁carrot	-12.4097
▁ancestor	-12.4098
dennes	-12.4098
▁relation	-12.41
▁editorial	-12.41
▁headache	-12.41
▁thigh	-12.4101
▁merchant	-12.4104
▁superstar	-12.4106
▁mushroom	-12.4106
▁homesteader	-12.4107
tips	-12.4107
▁exhale	-12.4109
ellar	-12.4109
▁sinner	-12.4113
▁scoff	-12.4117
▁circula	-12.4117
▁frontier	-12.4119
▁intru	-12.4121
fighting	-12.4127
jumps	-12.4131
▁trifl	-12.4137
▁refugee	-12.4137
▁suspender	-12.4141
▁visa	-12.4141
▁bellow	-12.4142
▁tinker	-12.4142
attered	-12.4143
▁toshi	-12.4144
law	-12.4147
▁clot	-12.4148
icia	-12.4148
owner	-12.4152
▁cube	-12.4153
gled	-12.4161
▁exten	-12.4163
▁invad	-12.4173
▁announc	-12.4185
vern	-12.4186
eared	-12.4187
▁thrash	-12.4192
▁mari	-12.4192
▁dar	-12.4193
▁shor	-12.4195
▁scen	-12.4197
▁decid	-12.42
▁producer	-12.4201
▁muc	-12.4202
power	-12.4206
aggots	-12.4207
iffe	-12.4207
father	-12.4209
▁lov	-12.4211
▁advanc	-12.4217
obsters	-12.4219
ribe	-12.4224
▁doubl	-12.4227
heart	-12.4229
▁sophi	-12.4229
▁manag	-12.4229
stead	-12.4231
pulse	-12.4231
▁contra	-12.4232
▁swarm	-12.4232
gauge	-12.4232
consistent	-12.4232
granddaddy	-12.4232
davidson	-12.4232
colored	-12.4232
▁lndu	-12.4233
▁ceil	-12.4233
▁parl	-12.4233
▁replac	-12.4234
after	-12.4235
booboo	-12.4235
▁gurgl	-12.4235
nails	-12.4235
known	-12.4236
placed	-12.4236
aagh	-12.4236
paper	-12.4236
▁clatter	-12.4236
timing	-12.4236
clip	-12.4236
▁platte	-12.4236
▁splash	-12.4237
bloom	-12.4237
midst	-12.4237
developed	-12.4237
▁divid	-12.4237
recorded	-12.4237
fifty	-12.4238
wheat	-12.4238
experienced	-12.4238
listed	-12.4238
communication	-12.4238
present	-12.4238
dragon	-12.4238
identified	-12.4238
argh	-12.4238
yearold	-12.4238
faithful	-12.4239
shield	-12.4239
capable	-12.4239
fortune	-12.4239
flies	-12.4239
naked	-12.4239
structure	-12.4239
charge	-12.4239
cloud	-12.4239
respect	-12.4239
filled	-12.4239
blast	-12.4239
statement	-12.4239
treated	-12.4239
principal	-12.4239
leading	-12.4239
bury	-12.4239
grin	-12.4239
puff	-12.4239
electric	-12.4239
jumped	-12.4239
grass	-12.4239
changing	-12.4239
hundred	-12.4239
regular	-12.4239
client	-12.4239
smith	-12.4239
attack	-12.424
student	-12.424
correct	-12.424
written	-12.424
spread	-12.424
broken	-12.424
magnet	-12.424
definitely	-12.424
defeat	-12.424
dream	-12.424
excuse	-12.424
control	-12.424
watch	-12.424
different	-12.424
white	-12.424
billy	-12.424
please	-12.424
would	-12.424
people	-12.424
theyre	-12.424
child	-12.424
▁tack	-12.424
sweet	-12.424
drive	-12.424
easy	-12.4241
flame	-12.4241
hamster	-12.4241
when	-12.4241
boots	-12.4241
shaw	-12.4241
death	-12.4242
chamber	-12.4242
cutter	-12.4242
mail	-12.4242
sarah	-12.4242
wife	-12.4242
married	-12.4242
phase	-12.4243
bonne	-12.4243
normal	-12.4243
nducted	-12.4243
ottie	-12.4244
beard	-12.4244
▁condemn	-12.4244
▁publish	-12.4244
tender	-12.4244
▁sustain	-12.4244
▁figur	-12.4245
groom	-12.4245
food	-12.4245
jack	-12.4245
master	-12.4245
▁authoriz	-12.4246
joel	-12.4246
▁walt	-12.4246
maid	-12.4247
dget	-12.4247
▁download	-12.4247
▁appoint	-12.4248
strong	-12.4251
▁underestimate	-12.4253
▁wrinkle	-12.4253
shake	-12.4254
gran	-12.4255
fall	-12.4255
speed	-12.4255
letter	-12.4256
team	-12.4256
image	-12.4256
▁haulin	-12.4256
▁occup	-12.4258
bound	-12.4258
▁oblige	-12.4259
▁amaze	-12.426
▁coordinat	-12.426
▁luxur	-12.4262
toire	-12.4262
▁philosoph	-12.4263
▁destin	-12.4263
▁guil	-12.4263
▁pictur	-12.4263
sledders	-12.4264
▁dignit	-12.4264
▁laundr	-12.4264
gage	-12.4264
▁reveren	-12.4264
▁injure	-12.4264
▁ceremon	-12.4264
▁responsibilit	-12.4264
▁opportunit	-12.4265
▁energ	-12.4265
mash	-12.4265
▁pollut	-12.4265
▁chess	-12.4265
▁soak	-12.4266
▁should	-12.4266
▁recollect	-12.4266
▁conti	-12.4266
▁butch	-12.4266
ority	-12.4267
▁conservative	-12.4267
▁utter	-12.4267
▁overhea	-12.4267
▁stab	-12.4267
▁eleanor	-12.4268
▁precise	-12.4268
▁twent	-12.4268
▁unbelievabl	-12.4268
oftheart	-12.4269
▁desperat	-12.4269
▁contradict	-12.4271
▁relate	-12.4271
open	-12.4272
▁angri	-12.4272
wald	-12.4272
neck	-12.4272
kill	-12.4272
▁capito	-12.4273
maste	-12.4273
▁extravagan	-12.4273
surface	-12.4274
▁quarte	-12.4274
▁weave	-12.4274
mentally	-12.4275
▁korea	-12.4275
negotia	-12.4275
▁prettie	-12.4275
▁pisc	-12.4276
▁adju	-12.4276
▁phenom	-12.4276
▁sentiment	-12.4276
sharp	-12.4277
▁nigh	-12.4277
again	-12.4277
▁administrat	-12.4277
▁conni	-12.4277
▁psychiatr	-12.4277
▁manufacture	-12.4278
▁unforgiv	-12.4278
▁atti	-12.4278
jamas	-12.4278
▁automat	-12.4278
▁shag	-12.4278
▁mirac	-12.4278
terior	-12.4278
▁junct	-12.4278
▁obsess	-12.4278
▁smilin	-12.4279
▁forgettin	-12.4279
▁assassin	-12.4279
▁sittin	-12.4279
▁marvel	-12.4279
▁stoppin	-12.4279
▁mysteri	-12.4279
athens	-12.4279
entil	-12.4279
▁ordina	-12.4279
titude	-12.4279
▁objective	-12.4279
▁slur	-12.4279
▁indign	-12.4279
snortin	-12.4279
▁aggress	-12.4279
rgot	-12.4279
▁sarcastic	-12.4279
▁fren	-12.4279
▁giddy	-12.4279
▁eligib	-12.428
atherine	-12.428
errible	-12.428
▁gilma	-12.428
▁absolu	-12.428
▁vigil	-12.428
disa	-12.428
▁repel	-12.428
judic	-12.428
▁norm	-12.428
fjord	-12.428
▁candid	-12.428
▁accur	-12.428
▁smi	-12.428
ecutive	-12.428
ngular	-12.428
▁perfe	-12.428
▁squee	-12.428
maneuver	-12.428
mney	-12.428
▁mystic	-12.428
▁meditat	-12.428
from	-12.428
▁drip	-12.428
▁phenomen	-12.428
▁parr	-12.428
▁puritan	-12.428
▁mug	-12.4281
vocati	-12.4281
▁pluto	-12.4281
sagittari	-12.4281
▁aristocra	-12.4281
▁eccentric	-12.4281
▁hippo	-12.4281
▁incriminat	-12.4281
▁microco	-12.4281
▁molecul	-12.4281
▁oblivio	-12.4281
▁oneninety	-12.4281
▁pivot	-12.4281
▁schwei	-12.4281
▁sequoia	-12.4281
aphysical	-12.4281
cccccccccounting	-12.4281
ciuded	-12.4281
conspicuous	-12.4281
constru	-12.4281
discriminat	-12.4281
pecuni	-12.4281
snatchers	-12.4281
stigate	-12.4281
▁absorb	-12.4281
▁accompany	-12.4281
▁acosta	-12.4281
▁adolescent	-12.4281
▁adolf	-12.4281
▁affiliation	-12.4281
▁aftershave	-12.4281
▁airlift	-12.4281
▁alimony	-12.4281
▁allegiance	-12.4281
▁alphonse	-12.4281
▁ambush	-12.4281
▁analysis	-12.4281
▁anglosaxon	-12.4281
▁anjou	-12.4281
▁annabelle	-12.4281
▁antarctic	-12.4281
▁apocalyp	-12.4281
▁apricot	-12.4281
▁ardently	-12.4281
▁armageddon	-12.4281
▁atlas	-12.4281
▁auschwitz	-12.4281
▁avalanche	-12.4281
▁axinite	-12.4281
▁backstabb	-12.4281
▁baloney	-12.4281
▁baptized	-12.4281
▁barbeque	-12.4281
▁basilica	-12.4281
▁battalion	-12.4281
▁bergenbelson	-12.4281
▁bermuda	-12.4281
▁bernstein	-12.4281
▁bethleham	-12.4281
▁bianca	-12.4281
▁bickerton	-12.4281
▁bimbo	-12.4281
▁biondi	-12.4281
▁biscuits	-12.4281
▁bladder	-12.4281
▁blossoms	-12.4281
▁bolivia	-12.4281
▁boorsteins	-12.4281
▁brainwashing	-12.4281
▁brittany	-12.4281
▁bromsgrove	-12.4281
▁bubblegum	-12.4281
▁buddhis	-12.4281
▁casserole	-12.4281
▁cemetery	-12.4281
▁cerebral	-12.4281
▁chablis	-12.4281
▁chafouin	-12.4281
▁champollion	-12.4281
▁chemical	-12.4281
▁chevrolet	-12.4281
▁cholera	-12.4281
▁civilisation	-12.4281
▁coccyx	-12.4281
▁cognac	-12.4281
▁commemorat	-12.4281
▁composure	-12.4281
▁compressors	-12.4281
▁compulsory	-12.4281
▁concluded	-12.4281
▁concorde	-12.4281
▁concubine	-12.4281
▁confiscate	-12.4281
▁contraption	-12.4281
▁controversial	-12.4281
▁convenience	-12.4281
▁copabanana	-12.4281
▁copilot	-12.4281
▁corkscrew	-12.4281
▁corresponden	-12.4281
▁corroborat	-12.4281
▁crotonon	-12.4281
▁cultist	-12.4281
▁cultivat	-12.4281
▁curtsy	-12.4281
▁dabbit	-12.4281
▁damaging	-12.4281
▁dashboard	-12.4281
▁deferential	-12.4281
▁definition	-12.4281
▁delecluze	-12.4281
▁derailed	-12.4281
▁desperados	-12.4281
▁devastated	-12.4281
▁dijon	-12.4281
▁dimwitted	-12.4281
▁disapprove	-12.4281
▁disclosure	-12.4281
▁disfigure	-12.4281
▁dismantl	-12.4281
▁dismiss	-12.4281
▁dispense	-12.4281
▁ditesmoi	-12.4281
▁dobermans	-12.4281
▁donatello	-12.4281
▁donnel	-12.4281
▁dorothy	-12.4281
▁douthwaite	-12.4281
▁downhill	-12.4281
▁dungeon	-12.4281
▁ecology	-12.4281
▁edamame	-12.4281
▁eggnog	-12.4281
▁elevation	-12.4281
▁elusive	-12.4281
▁embark	-12.4281
▁embroider	-12.4281
▁emmenezle	-12.4281
▁endresult	-12.4281
▁enforcement	-12.4281
▁engulfed	-12.4281
▁eradicate	-12.4281
▁estrier	-12.4281
▁evemhing	-12.4281
▁evict	-12.4281
▁exaggerat	-12.4281
▁exboyfriend	-12.4281
▁excellence	-12.4281
▁excursion	-12.4281
▁existential	-12.4281
▁exploit	-12.4281
▁expropriation	-12.4281
▁facelift	-12.4281
▁faltered	-12.4281
▁fascinates	-12.4281
▁ferguson	-12.4281
▁feroci	-12.4281
▁fertilizer	-12.4281
▁florinda	-12.4281
▁fluttered	-12.4281
▁fontainebleau	-12.4281
▁fracture	-12.4281
▁fraidycat	-12.4281
▁frankincense	-12.4281
▁frannie	-12.4281
▁fraterni	-12.4281
▁freemason	-12.4281
▁fundamental	-12.4281
▁galaktico	-12.4281
▁gaucho	-12.4281
▁ghezzi	-12.4281
▁gilberto	-12.4281
▁gingerbread	-12.4281
▁glamorous	-12.4281
▁grapefruit	-12.4281
▁grapevine	-12.4281
▁groggy	-12.4281
▁grrr	-12.4281
▁haggadah	-12.4281
▁hairstyle	-12.4281
▁halfbrother	-12.4281
▁handcuff	-12.4281
▁hannaberry	-12.4281
▁harriet	-12.4281
▁hasbeen	-12.4281
▁havoc	-12.4281
▁headwaiter	-12.4281
▁heeheehee	-12.4281
▁heliport	-12.4281
▁henceforth	-12.4281
▁highstrung	-12.4281
▁hindsight	-12.4281
▁historians	-12.4281
▁hollow	-12.4281
▁humanitarian	-12.4281
▁humbug	-12.4281
▁hydrangeas	-12.4281
▁hypertens	-12.4281
▁hyphenated	-12.4281
▁impeccable	-12.4281
▁incompeten	-12.4281
▁incorporat	-12.4281
▁indecisive	-12.4281
▁infectious	-12.4281
▁infiltrate	-12.4281
▁infinitive	-12.4281
▁infrared	-12.4281
▁inhaler	-12.4281
▁innocuous	-12.4281
▁insecurity	-12.4281
▁insensitiv	-12.4281
▁inspiring	-12.4281
▁internet	-12.4281
▁interrogat	-12.4281
▁intoxicate	-12.4281
▁introvert	-12.4281
▁involuntar	-12.4281
▁irrelevant	-12.4281
▁irreplaceable	-12.4281
▁irritated	-12.4281
▁jeopardy	-12.4281
▁jiggyraffes	-12.4281
▁jockstrap	-12.4281
▁kallenbach	-12.4281
▁kangaroo	-12.4281
▁katrin	-12.4281
▁kirby	-12.4281
▁klutz	-12.4281
▁knelt	-12.4281
▁knockknock	-12.4281
▁kornilovtsy	-12.4281
▁lacquer	-12.4281
▁lansfried	-12.4281
▁lazarus	-12.4281
▁liberties	-12.4281
▁liverpool	-12.4281
▁lollypop	-12.4281
▁lopez	-12.4281
▁lucrative	-12.4281
▁luppus	-12.4281
▁lutheran	-12.4281
▁machinegun	-12.4281
▁malfunction	-12.4281
▁mandarin	-12.4281
▁mannequin	-12.4281
▁manuscript	-12.4281
▁marlboro	-12.4281
▁marseill	-12.4281
▁maruti	-12.4281
▁mayonnaise	-12.4281
▁meatdripper	-12.4281
▁mediocre	-12.4281
▁methuselah	-12.4281
▁michaelangelo	-12.4281
▁microscope	-12.4281
▁minnesota	-12.4281
▁mirkin	-12.4281
▁mistletoe	-12.4281
▁mistrusts	-12.4281
▁mnhmnh	-12.4281
▁monarch	-12.4281
▁monocle	-12.4281
▁monopoly	-12.4281
▁montremoi	-12.4281
▁morbid	-12.4281
▁mozzarella	-12.4281
▁multinational	-12.4281
▁mumbojumbo	-12.4281
▁mutilations	-12.4281
▁nairobis	-12.4281
▁nebulous	-12.4281
▁neutered	-12.4281
▁nordaustlandet	-12.4281
▁numerator	-12.4281
▁obama	-12.4281
▁obscene	-12.4281
▁obscur	-12.4281
▁obstacle	-12.4281
▁offspring	-12.4281
▁olympia	-12.4281
▁ordained	-12.4281
▁orlando	-12.4281
▁outburst	-12.4281
▁outnumber	-12.4281
▁overconfiden	-12.4281
▁overgrown	-12.4281
▁overruled	-12.4281
▁pablo	-12.4281
▁packaging	-12.4281
▁paddies	-12.4281
[...]
