<unk>	0
<s>	0
</s>	0
s	-4.20115
▁im	-4.31142
▁dont	-4.39397
▁know	-4.44066
▁get	-4.70495
▁like	-4.78418
▁right	-4.80136
▁go	-4.83211
▁youre	-4.88727
▁yeah	-4.89936
▁got	-4.90639
▁oh	-4.96555
▁come	-4.98468
▁na	-5.03441
▁thats	-5.10834
▁okay	-5.12325
▁well	-5.19945
▁want	-5.2032
▁one	-5.25804
▁gon	-5.29679
▁think	-5.30039
▁good	-5.34802
▁see	-5.37504
▁hey	-5.43379
▁man	-5.46988
▁look	-5.55404
▁back	-5.58502
▁yes	-5.58799
▁going	-5.60644
▁take	-5.64028
▁ill	-5.64044
ing	-5.64482
▁time	-5.65992
▁hes	-5.66974
▁cant	-5.71043
▁need	-5.72869
▁us	-5.72993
▁fuck	-5.73073
▁tell	-5.79169
▁say	-5.80199
▁would	-5.81027
▁fucking	-5.84461
▁please	-5.86397
▁really	-5.86865
▁shit	-5.90498
▁didnt	-5.91452
ed	-5.93107
▁something	-5.93233
▁sorry	-5.98127
▁could	-5.99562
▁make	-5.99797
▁thank	-6.00057
▁god	-6.02409
▁whats	-6.02558
▁let	-6.02565
▁way	-6.04336
▁little	-6.04492
▁love	-6.04572
▁never	-6.05181
▁lets	-6.0735
▁mean	-6.09259
▁uh	-6.12892
▁give	-6.1484
▁people	-6.16402
▁l	-6.17348
▁theres	-6.17527
▁ive	-6.17698
▁said	-6.19948
▁stop	-6.22353
▁much	-6.24114
▁	-6.25548
▁help	-6.26068
▁two	-6.26449
▁shes	-6.26715
▁thing	-6.28932
d	-6.33276
▁sure	-6.35399
▁call	-6.35564
▁talk	-6.40533
▁wait	-6.40975
▁anything	-6.42019
▁home	-6.44105
▁find	-6.45043
▁even	-6.45247
▁mr	-6.45426
▁theyre	-6.45803
▁maybe	-6.49426
▁put	-6.49854
▁work	-6.50657
▁night	-6.53595
▁keep	-6.53895
▁money	-6.54469
▁around	-6.54792
▁music	-6.56372
▁wan	-6.57001
▁ever	-6.57809
▁life	-6.58763
▁first	-6.5927
▁day	-6.60225
▁better	-6.60811
▁great	-6.61127
▁ta	-6.6134
▁hell	-6.62435
▁feel	-6.62501
▁told	-6.62899
▁still	-6.63424
▁thought	-6.63678
▁nothing	-6.64318
▁last	-6.67038
▁ok	-6.67044
▁leave	-6.67887
▁baby	-6.68189
▁guy	-6.68204
▁guys	-6.68625
▁sir	-6.68731
▁listen	-6.68768
ly	-6.69727
▁name	-6.70733
▁hi	-6.71633
▁girl	-6.72041
▁things	-6.73134
▁long	-6.73938
▁hear	-6.74289
▁everything	-6.74632
y	-6.75238
▁kill	-6.7595
▁door	-6.76033
▁understand	-6.76662
▁hello	-6.777
▁new	-6.78275
▁id	-6.78488
▁years	-6.79032
▁away	-6.7951
▁stay	-6.79774
▁nice	-6.80549
▁doesnt	-6.81183
▁coming	-6.81191
▁remember	-6.81763
e	-6.82488
▁place	-6.82831
▁um	-6.82875
▁bad	-6.82895
▁wont	-6.83318
▁car	-6.84053
▁fine	-6.84184
▁boy	-6.84303
▁always	-6.8528
▁old	-6.85638
▁lot	-6.85858
▁house	-6.86206
▁every	-6.86754
▁phone	-6.8705
▁woman	-6.87975
▁done	-6.88183
▁huh	-6.88504
▁made	-6.89345
▁youve	-6.89781
▁youll	-6.90473
▁son	-6.90937
▁happened	-6.91274
▁three	-6.91406
▁talking	-6.91748
▁kind	-6.95299
▁father	-6.96017
▁someone	-6.97429
▁world	-6.97871
▁dead	-6.98055
▁big	-6.98384
▁must	-6.98394
er	-6.98608
▁thanks	-6.98691
▁aint	-6.99184
▁wrong	-6.99436
▁try	-6.99803
▁real	-6.99979
▁believe	-7.01257
▁trying	-7.02361
▁left	-7.02788
▁move	-7.03672
▁ask	-7.04015
▁isnt	-7.04639
▁enough	-7.04639
▁dad	-7.04797
▁another	-7.04907
▁hold	-7.05342
▁wanted	-7.06023
▁show	-7.06198
▁else	-7.07072
▁might	-7.08324
▁mind	-7.0835
▁playing	-7.09783
▁mother	-7.09902
▁cause	-7.1033
▁found	-7.10686
▁care	-7.1075
▁room	-7.11316
▁course	-7.12124
▁hard	-7.13127
▁mom	-7.13916
▁came	-7.147
▁saw	-7.15043
▁job	-7.15427
▁looking	-7.15869
▁next	-7.16535
▁wasnt	-7.16836
▁head	-7.17272
▁wife	-7.18667
▁today	-7.1897
▁friend	-7.19589
▁run	-7.20067
▁getting	-7.20617
▁morning	-7.21151
▁tonight	-7.221
▁best	-7.23714
▁live	-7.25307
▁knew	-7.25331
▁whole	-7.25661
▁went	-7.26654
▁many	-7.28026
▁may	-7.28457
▁pretty	-7.2867
▁ready	-7.29091
▁face	-7.29479
▁seen	-7.2967
▁open	-7.30788
▁heard	-7.31041
▁actually	-7.31779
▁guess	-7.32157
▁ass	-7.32934
▁end	-7.33177
▁family	-7.33541
▁ah	-7.34361
▁wouldnt	-7.34663
▁shut	-7.35371
▁crazy	-7.35703
▁five	-7.36032
▁meet	-7.36084
▁miss	-7.36395
▁together	-7.37171
▁called	-7.37524
▁weve	-7.37914
▁hurt	-7.39548
▁problem	-7.41452
a	-7.41874
▁die	-7.41961
▁whos	-7.42147
▁use	-7.42361
▁brother	-7.43238
▁nobody	-7.43268
▁men	-7.43404
▁idea	-7.43419
▁second	-7.43828
▁bit	-7.4414
▁beautiful	-7.44852
▁watch	-7.44984
▁fuckin	-7.45513
▁alone	-7.46464
▁em	-7.46944
▁school	-7.47103
▁excuse	-7.4728
▁kids	-7.47629
▁police	-7.47658
▁story	-7.47688
▁bitch	-7.48465
▁damn	-7.48661
▁tomorrow	-7.48926
▁took	-7.48926
▁everyone	-7.48935
▁water	-7.49246
▁hope	-7.49963
▁everybody	-7.50034
▁days	-7.51139
▁sit	-7.5114
▁jesus	-7.51456
▁anyone	-7.5188
▁start	-7.51923
▁matter	-7.52204
▁whatever	-7.52742
▁ya	-7.52823
▁minutes	-7.53212
▁turn	-7.53264
▁gone	-7.53452
▁used	-7.53644
▁hand	-7.53809
in	-7.54507
▁gun	-7.54825
▁four	-7.54921
▁bring	-7.54937
▁chuckles	-7.54985
▁grunts	-7.55106
▁havent	-7.55366
▁easy	-7.55367
▁happy	-7.55812
▁play	-7.5583
▁youd	-7.55844
▁without	-7.56706
▁friends	-7.57415
▁check	-7.57836
es	-7.5852
▁killed	-7.58654
▁minute	-7.58939
▁already	-7.59439
▁close	-7.59448
▁alright	-7.59774
▁eat	-7.59968
▁saying	-7.60138
▁daddy	-7.60354
▁yet	-7.60375
▁business	-7.61286
▁since	-7.61306
▁couldnt	-7.61826
▁heart	-7.62141
▁case	-7.62149
▁six	-7.62764
▁mrs	-7.62994
▁inside	-7.63205
▁true	-7.63208
▁ago	-7.63685
▁hit	-7.63834
▁cut	-7.63848
t	-7.64124
▁probably	-7.64654
▁fire	-7.65024
▁part	-7.65046
▁read	-7.65088
▁later	-7.65369
▁looks	-7.65623
▁pay	-7.65731
▁point	-7.65801
▁walk	-7.6631
▁sighs	-7.66673
▁kid	-7.66686
▁high	-7.6687
▁stuff	-7.67119
▁supposed	-7.67164
▁deal	-7.68183
n	-7.68282
▁whoa	-7.68656
▁hmm	-7.69624
▁exactly	-7.69656
▁somebody	-7.6976
▁worry	-7.69786
▁says	-7.70233
▁hands	-7.71478
▁continues	-7.715
▁wants	-7.71531
▁times	-7.71666
▁thinking	-7.71932
▁wheres	-7.72128
▁goddamn	-7.72225
▁honey	-7.72233
▁grunting	-7.72286
▁year	-7.72406
▁trust	-7.72659
▁fight	-7.72834
▁fun	-7.73567
▁set	-7.73596
▁bye	-7.73821
▁gave	-7.73822
▁late	-7.7417
al	-7.74519
▁dr	-7.74707
▁bed	-7.75802
▁couple	-7.75985
▁white	-7.76529
▁death	-7.76757
▁soon	-7.76988
▁buy	-7.77007
▁eyes	-7.77138
▁free	-7.77908
▁drink	-7.78016
▁truth	-7.78181
▁change	-7.78255
▁rest	-7.78981
▁lost	-7.7931
▁nick	-7.79684
▁break	-7.80187
▁ha	-7.80372
▁working	-7.80566
▁shot	-7.80727
▁word	-7.80734
▁sleep	-7.80945
▁joe	-7.80976
▁husband	-7.81006
▁question	-7.81798
▁happen	-7.81805
▁number	-7.81903
▁hate	-7.82648
▁body	-7.82744
▁pick	-7.82867
r	-7.8293
▁week	-7.8352
▁person	-7.83762
▁waiting	-7.84188
▁sister	-7.84267
▁clear	-7.84324
▁different	-7.84374
▁sound	-7.84585
i	-7.84642
▁hours	-7.85089
▁wow	-7.85103
▁doctor	-7.85474
▁mine	-7.85584
▁jack	-7.85648
▁makes	-7.85679
▁laughing	-7.8586
▁full	-7.86101
▁anymore	-7.86301
▁taking	-7.86323
▁means	-7.86683
▁women	-7.87308
ve	-7.87618
▁light	-7.87697
▁girls	-7.87718
o	-7.87746
▁also	-7.88132
▁tv	-7.88133
▁boys	-7.88433
▁ben	-7.8849
▁chance	-7.88559
▁news	-7.88679
▁answer	-7.89188
▁far	-7.89542
▁book	-7.89568
▁line	-7.89593
▁send	-7.8965
▁mike	-7.89689
▁daughter	-7.89824
▁young	-7.90535
▁outside	-7.90559
▁anybody	-7.90623
▁party	-7.9078
▁dog	-7.91074
▁afraid	-7.91255
▁arent	-7.91257
▁screaming	-7.91304
▁side	-7.91749
▁important	-7.91763
▁touch	-7.9185
▁stand	-7.91993
▁making	-7.92538
▁laughs	-7.92595
▁behind	-7.93179
▁scared	-7.93865
▁town	-7.94369
▁black	-7.95125
▁christ	-7.95134
▁shoot	-7.95204
▁anyway	-7.957
▁though	-7.95776
▁blood	-7.96349
▁forget	-7.96463
▁cool	-7.9705
▁welcome	-7.97142
▁stupid	-7.98423
▁child	-7.98427
▁half	-7.98495
▁married	-7.98498
▁safe	-7.9902
▁perfect	-7.99036
▁asked	-7.99165
▁red	-7.99383
▁million	-8.00528
▁moment	-8.00538
▁john	-8.0055
▁funny	-8.00569
▁emily	-8.00571
▁reason	-8.01199
▁drive	-8.0186
▁ahead	-8.01971
▁promise	-8.02499
▁hot	-8.02881
▁trouble	-8.03179
▁goes	-8.03322
▁game	-8.03403
▁hour	-8.03415
▁speak	-8.03668
▁church	-8.04109
▁un	-8.04207
▁met	-8.04277
▁months	-8.04796
▁lm	-8.04964
▁telling	-8.05238
▁started	-8.05279
▁order	-8.05342
▁city	-8.05578
▁power	-8.05599
▁breathing	-8.05685
▁sometimes	-8.05836
▁sounds	-8.05853
▁buddy	-8.07043
▁food	-8.07046
▁tried	-8.07051
▁dinner	-8.0708
▁feeling	-8.07829
▁ten	-8.08272
▁hair	-8.08412
▁pain	-8.08417
▁front	-8.08537
▁michael	-8.08589
▁yo	-8.10029
▁alive	-8.10069
▁hurry	-8.10833
▁fucked	-8.11293
▁children	-8.11606
ll	-8.11893
▁mouth	-8.12003
▁law	-8.12015
▁wish	-8.12037
▁sick	-8.12191
▁either	-8.12386
▁groans	-8.1246
l	-8.1251
▁parents	-8.12517
▁p	-8.12599
▁ooh	-8.13174
▁panting	-8.13175
▁street	-8.13327
▁office	-8.13916
▁least	-8.13968
▁lady	-8.13981
▁officer	-8.14177
▁company	-8.14767
▁died	-8.15199
▁war	-8.15219
▁running	-8.15579
▁hows	-8.15646
▁control	-8.16375
▁amy	-8.164
▁sex	-8.16566
▁almost	-8.17208
▁save	-8.17243
▁dude	-8.17394
▁leaving	-8.18035
▁james	-8.18039
▁dear	-8.18849
▁calm	-8.19711
▁air	-8.19916
▁piece	-8.19979
on	-8.2031
▁c	-8.20383
▁theyll	-8.20568
▁relax	-8.20747
▁screams	-8.2082
▁clean	-8.21215
▁itll	-8.21409
▁charlie	-8.21411
▁quite	-8.21458
▁serious	-8.22155
est	-8.22554
▁plan	-8.22969
▁shall	-8.23154
▁wake	-8.23424
▁voice	-8.23454
▁asshole	-8.23469
▁till	-8.24027
▁comes	-8.24428
▁pull	-8.24505
▁calling	-8.24542
▁brought	-8.24903
▁softly	-8.24947
▁sweet	-8.25117
▁mary	-8.25245
▁top	-8.25591
▁kidding	-8.25802
▁living	-8.25804
▁bet	-8.25829
▁re	-8.25988
▁crying	-8.26046
▁hang	-8.26374
▁fast	-8.26482
▁ride	-8.26592
▁bullshit	-8.26688
▁sam	-8.26731
▁lucky	-8.2679
▁needs	-8.26973
▁speaking	-8.27136
▁seven	-8.27589
▁goodbye	-8.27606
▁holy	-8.27638
▁dress	-8.27782
▁bill	-8.27846
▁loved	-8.2834
▁david	-8.2852
▁radio	-8.28525
▁knows	-8.28588
▁dance	-8.29008
▁groaning	-8.2947
▁able	-8.29581
▁motherfucker	-8.29888
▁taken	-8.30118
▁lord	-8.30799
▁fear	-8.31049
▁asking	-8.31621
▁questions	-8.31761
▁blue	-8.31969
ie	-8.31998
▁ding	-8.32011
▁follow	-8.32084
▁worth	-8.32143
▁absolutely	-8.32284
▁weeks	-8.3268
▁art	-8.33205
▁grace	-8.33241
▁heres	-8.33341
▁special	-8.33569
▁throw	-8.33742
ies	-8.34048
▁hospital	-8.34201
▁ladies	-8.34214
▁glad	-8.34215
▁fred	-8.34223
▁gasps	-8.34333
▁lives	-8.34518
▁figure	-8.3454
▁happens	-8.34658
▁maam	-8.35193
▁fact	-8.3569
▁drop	-8.35709
▁fall	-8.36325
▁mistake	-8.36674
▁mommy	-8.3674
▁shouldnt	-8.37184
▁th	-8.37896
▁missing	-8.38143
▁straight	-8.38151
▁birthday	-8.38193
▁pass	-8.38679
▁words	-8.38687
▁sense	-8.38771
▁song	-8.38892
▁king	-8.39013
▁moving	-8.39215
▁along	-8.39217
▁poor	-8.3922
▁sent	-8.39221
▁prison	-8.40134
▁past	-8.40194
▁dream	-8.40194
▁swear	-8.40244
▁jake	-8.40244
▁yall	-8.40316
g	-8.40374
ic	-8.40612
▁wall	-8.40767
▁frank	-8.40828
▁picture	-8.40902
▁catch	-8.40966
▁la	-8.4097
▁weird	-8.41219
▁hed	-8.41627
▁b	-8.41886
▁mad	-8.41913
▁sort	-8.41925
▁mm	-8.42087
▁quiet	-8.4211
▁fault	-8.42339
▁country	-8.42344
▁truck	-8.425
▁write	-8.42954
▁happening	-8.42978
▁finish	-8.4314
▁state	-8.43258
▁rick	-8.43294
▁gets	-8.43962
▁lose	-8.44018
▁lawyer	-8.44107
▁bobby	-8.44479
▁cross	-8.44903
▁sign	-8.45063
▁choice	-8.45215
▁wind	-8.45316
▁road	-8.45318
▁careful	-8.45497
▁class	-8.45541
▁lying	-8.45574
▁finally	-8.45623
▁shell	-8.4563
▁engine	-8.46133
▁collins	-8.46663
▁somewhere	-8.46663
▁amazing	-8.4667
▁n	-8.46949
▁rock	-8.47117
▁ow	-8.47287
▁dick	-8.47411
▁beat	-8.47415
▁team	-8.47429
▁de	-8.47445
▁al	-8.47476
▁english	-8.47751
▁felt	-8.47771
▁hundred	-8.47837
▁in	-8.48318
▁needed	-8.48466
▁luck	-8.48799
▁dark	-8.48884
▁caught	-8.48898
▁hotel	-8.48911
▁court	-8.4965
▁indistinct	-8.49911
▁forever	-8.50034
▁kiss	-8.50506
m	-8.50871
▁seems	-8.51293
▁kick	-8.51432
▁meant	-8.51731
▁paul	-8.52011
▁lie	-8.52187
▁murder	-8.52346
▁report	-8.52505
▁mmm	-8.52732
▁longer	-8.5289
▁slow	-8.52917
▁french	-8.53476
▁rather	-8.53523
▁kate	-8.53527
▁andy	-8.53532
▁wonderful	-8.53555
▁tom	-8.53669
▁aii	-8.53735
▁accident	-8.53746
▁evening	-8.53953
▁train	-8.54095
▁quick	-8.54494
▁eight	-8.54577
▁davis	-8.54713
▁werent	-8.54713
▁edward	-8.54713
▁gentlemen	-8.54714
▁mmhmm	-8.54725
▁handle	-8.54863
▁explain	-8.54941
▁less	-8.55234
▁learn	-8.553
▁strong	-8.55692
▁sad	-8.55703
▁worse	-8.55918
▁coffee	-8.55918
▁bro	-8.56086
▁blow	-8.56462
▁bank	-8.56497
▁boss	-8.57082
▁a	-8.57105
▁bag	-8.57715
▁breathe	-8.57717
▁step	-8.58135
▁smell	-8.58175
▁beach	-8.58312
▁smoke	-8.58344
▁alice	-8.58372
▁barbara	-8.58372
▁mama	-8.58381
▁definitely	-8.58384
▁cry	-8.59207
▁adam	-8.59426
▁talked	-8.59432
▁imagine	-8.59446
▁paper	-8.59459
▁south	-8.59621
▁giving	-8.59629
▁feet	-8.59631
▁sophie	-8.59655
▁early	-8.59682
▁s	-8.59689
▁date	-8.60491
▁sell	-8.60548
▁honor	-8.60616
▁eye	-8.60738
▁tough	-8.60777
▁message	-8.60781
▁works	-8.60863
▁others	-8.60888
▁harry	-8.60888
▁captain	-8.60889
▁none	-8.61047
ion	-8.61128
▁bar	-8.61686
▁president	-8.6197
▁ones	-8.62024
▁lunch	-8.62173
▁earth	-8.62175
▁aah	-8.62184
▁laugh	-8.62644
st	-8.62648
▁enjoy	-8.62823
▁bell	-8.6333
▁seem	-8.63597
▁changed	-8.63892
▁cute	-8.64289
▁act	-8.64356
▁deep	-8.64574
▁floor	-8.64616
▁small	-8.64691
▁key	-8.647
▁yesterday	-8.64784
▁heavy	-8.64786
▁heavily	-8.64787
▁er	-8.65084
▁gods	-8.65339
▁walking	-8.65725
▁york	-8.65949
▁smart	-8.66011
▁near	-8.66013
▁beer	-8.66016
▁vanessa	-8.66118
▁karen	-8.66119
▁roll	-8.66308
▁offer	-8.67104
▁takes	-8.67155
▁carl	-8.67302
▁belt	-8.67337
▁grand	-8.67361
▁babe	-8.67365
▁become	-8.6738
▁martin	-8.67414
▁terrible	-8.67469
▁distance	-8.67474
▁nobby	-8.67474
▁station	-8.67484
▁doin	-8.67488
▁sitting	-8.67497
man	-8.67514
▁building	-8.67591
▁wonder	-8.68166
▁expect	-8.68218
▁cop	-8.68479
▁broke	-8.68563
▁cold	-8.68763
▁glass	-8.68805
▁possible	-8.68839
▁future	-8.68839
▁ray	-8.68861
▁cops	-8.68883
▁carter	-8.68902
▁shed	-8.69036
▁dollars	-8.69209
▁grab	-8.69808
▁fix	-8.69954
▁human	-8.7014
▁cell	-8.70163
▁ted	-8.70456
▁fat	-8.70494
▁short	-8.70529
▁movie	-8.70606
▁st	-8.70644
▁known	-8.70751
▁stick	-8.71134
▁wear	-8.71147
able	-8.71252
or	-8.71285
▁seat	-8.71368
▁box	-8.7138
▁jail	-8.71523
▁apartment	-8.71579
▁except	-8.71616
▁outta	-8.71637
▁unless	-8.71662
▁papers	-8.7183
▁mate	-8.71974
▁names	-8.72184
▁push	-8.72418
▁missed	-8.72651
▁jump	-8.72855
▁surprise	-8.72857
▁hide	-8.72999
▁favorite	-8.7302
▁sing	-8.73059
▁phil	-8.73066
▁dying	-8.73099
▁gasping	-8.7311
▁seriously	-8.73269
▁guns	-8.73374
ce	-8.73645
▁protect	-8.73736
▁lock	-8.73994
h	-8.74157
▁ground	-8.74177
▁forgot	-8.74515
▁brandon	-8.74518
▁whoo	-8.75427
▁teach	-8.7549
▁fly	-8.75654
▁howd	-8.75833
▁rich	-8.75878
▁worst	-8.75985
▁bought	-8.75985
▁cheering	-8.76072
▁keys	-8.761
▁given	-8.76628
▁ring	-8.76671
▁fair	-8.77221
▁hall	-8.77342
▁tape	-8.77344
▁bob	-8.77436
▁computer	-8.77449
▁katie	-8.77482
▁sake	-8.77486
▁tense	-8.77499
▁boat	-8.7752
▁month	-8.77567
▁whose	-8.77909
▁shh	-8.77923
▁arm	-8.7823
us	-8.78308
▁wed	-8.78403
▁reach	-8.78576
▁chatter	-8.78643
▁smile	-8.78801
▁charge	-8.78853
▁across	-8.78983
▁throat	-8.78992
▁hungry	-8.78994
▁yep	-8.78999
▁shouting	-8.7906
▁copy	-8.79121
▁ringing	-8.7935
▁worked	-8.80018
▁bud	-8.80103
▁using	-8.80293
▁strange	-8.80334
▁secret	-8.80496
▁stig	-8.8051
▁department	-8.80511
▁meeting	-8.80521
▁gift	-8.80524
▁middle	-8.80531
▁system	-8.80547
▁boyfriend	-8.80574
▁tired	-8.80576
▁hole	-8.80673
▁mess	-8.80865
▁sy	-8.80908
▁lovely	-8.80916
ful	-8.80947
ers	-8.81042
▁count	-8.81559
▁fish	-8.81662
▁park	-8.81768
▁honest	-8.81852
▁normal	-8.81971
▁situation	-8.82093
▁instead	-8.82095
▁worried	-8.82095
▁anywhere	-8.82095
▁richard	-8.82097
▁driving	-8.82097
▁kept	-8.82102
▁sun	-8.82144
▁totally	-8.82185
▁conversation	-8.82198
▁girlfriend	-8.82226
▁camera	-8.8225
▁idiot	-8.82307
▁lights	-8.82598
▁nah	-8.82859
▁respect	-8.82936
▁ran	-8.8329
▁proud	-8.83538
▁born	-8.83699
▁broken	-8.83736
▁busy	-8.83743
▁clicks	-8.84138
▁g	-8.84202
▁picked	-8.84399
▁admit	-8.85287
▁address	-8.85294
▁bathroom	-8.85294
▁uhhuh	-8.85295
▁machine	-8.85504
p	-8.8552
▁american	-8.85526
▁plane	-8.85589
▁store	-8.85646
▁nine	-8.857
▁he	-8.85861
▁turned	-8.86279
▁win	-8.86292
▁record	-8.86427
ness	-8.86453
▁goin	-8.86459
▁lead	-8.86471
▁land	-8.86485
▁killing	-8.86505
▁personal	-8.86919
▁attention	-8.86933
▁upstairs	-8.86933
▁charles	-8.86935
▁paid	-8.86938
▁walter	-8.86939
▁completely	-8.87017
▁green	-8.87024
▁indistinctly	-8.87111
▁service	-8.87141
▁age	-8.88101
re	-8.88223
▁lay	-8.88296
▁watching	-8.88389
▁notice	-8.88419
▁chris	-8.88481
▁america	-8.88552
▁caesar	-8.88599
▁sweetheart	-8.886
▁bottle	-8.886
▁bunch	-8.88601
▁creaking	-8.88609
▁security	-8.88612
▁sheriff	-8.8881
▁share	-8.88839
▁correct	-8.89287
▁mindy	-8.89308
▁super	-8.89362
▁burn	-8.89521
▁ball	-8.89724
▁treat	-8.89764
▁spot	-8.89793
▁return	-8.89832
▁stops	-8.89903
▁seeing	-8.90089
▁present	-8.9024
▁bart	-8.90243
▁upset	-8.90286
▁kathy	-8.90294
▁dottie	-8.90295
▁dramatic	-8.90302
▁clothes	-8.90303
▁gena	-8.90304
▁code	-8.90439
▁soul	-8.90444
▁crime	-8.90553
▁wearing	-8.90719
▁file	-8.90726
▁brad	-8.91588
▁crowd	-8.91742
▁public	-8.91801
▁cat	-8.91864
▁extra	-8.91967
▁faith	-8.92003
▁spanish	-8.92018
▁kitchen	-8.92019
▁evil	-8.92019
▁drunk	-8.92021
▁an	-8.92045
▁yelling	-8.92127
▁warm	-8.92143
▁exhales	-8.92235
▁trip	-8.92316
▁brain	-8.92319
▁gold	-8.92356
▁seconds	-8.93044
▁ice	-8.93279
▁master	-8.93315
▁certain	-8.93642
▁entire	-8.93644
▁feels	-8.93707
▁simple	-8.93723
▁peace	-8.93756
▁information	-8.93776
▁judge	-8.93836
less	-8.94033
▁area	-8.94067
▁bastard	-8.94106
▁where	-8.94107
▁agent	-8.94112
▁val	-8.94996
▁form	-8.95022
▁spend	-8.95206
▁listening	-8.95327
▁they	-8.95367
▁excited	-8.95427
▁apart	-8.95547
▁christmas	-8.95559
▁knife	-8.95561
▁language	-8.95561
▁lewis	-8.95561
▁single	-8.95585
▁hiding	-8.95633
▁mission	-8.95649
▁cover	-8.95668
▁whispers	-8.95703
▁dean	-8.9582
▁bloody	-8.95874
▁window	-8.95931
▁uncle	-8.96008
▁marry	-8.97005
▁owe	-8.97113
▁sal	-8.97233
▁loud	-8.97281
▁fell	-8.97327
▁afternoon	-8.97377
▁wrote	-8.97379
▁jim	-8.9738
▁whatd	-8.97398
▁matt	-8.9744
▁dirty	-8.97455
▁beeping	-8.97465
▁gas	-8.97563
▁wedding	-8.9764
▁heaven	-8.97736
▁sea	-8.97749
▁dogs	-8.97825
▁finished	-8.97842
▁liked	-8.98043
▁comet	-8.98133
▁brown	-8.98348
▁fingers	-8.98542
▁killer	-8.98581
▁moved	-8.98618
▁ms	-8.98754
▁d	-8.98837
▁favor	-8.98897
▁press	-8.9896
le	-8.99096
▁ends	-8.99187
▁stock	-8.99226
▁north	-8.99226
▁history	-8.99229
▁rain	-8.99229
▁aaron	-8.9923
▁maggie	-8.99232
▁cash	-8.99233
▁flight	-8.99236
▁neo	-8.99248
▁deserve	-8.99461
▁knocking	-8.99506
▁oliver	-8.99566
▁round	-8.99622
▁calls	-8.99832
▁ls	-9.00696
▁screw	-9.0085
▁appreciate	-9.00924
▁nervous	-9.00986
▁quit	-9.00993
▁angry	-9.01116
▁texas	-9.01116
▁perhaps	-9.01118
▁third	-9.01122
▁everywhere	-9.01122
▁porter	-9.0115
▁card	-9.01162
▁opens	-9.01252
▁attack	-9.01278
▁books	-9.01639
ive	-9.01756
▁horse	-9.02018
▁mark	-9.02037
▁wouldve	-9.02059
▁west	-9.02254
▁join	-9.02528
▁wild	-9.02657
▁star	-9.02694
▁balls	-9.02728
▁pal	-9.02871
▁test	-9.02903
▁antonio	-9.03038
▁major	-9.03038
▁pleasure	-9.03038
▁detective	-9.03039
▁darling	-9.03041
▁elizabeth	-9.03041
▁within	-9.03044
▁fit	-9.03077
▁build	-9.0309
▁joke	-9.03171
▁alarm	-9.03434
▁difference	-9.03444
▁co	-9.03446
▁weekend	-9.03504
▁miles	-9.03628
▁starts	-9.03635
up	-9.03752
▁cost	-9.03815
ist	-9.04415
k	-9.04732
▁arrest	-9.04736
▁stuck	-9.04999
▁veronica	-9.04999
▁contact	-9.05
▁romantic	-9.05001
▁mister	-9.05013
▁space	-9.05016
▁stopped	-9.0507
▁everythings	-9.0513
▁film	-9.05142
▁decided	-9.05144
▁van	-9.05479
▁color	-9.0548
▁table	-9.05539
▁peter	-9.05566
▁looked	-9.05579
▁cook	-9.05589
▁pictures	-9.05731
▁rules	-9.06315
▁fighting	-9.06325
ation	-9.06503
▁agree	-9.06791
▁east	-9.06838
▁mmhm	-9.06979
▁chair	-9.06983
▁pregnant	-9.06999
▁vioiet	-9.07
▁twice	-9.07002
▁cunt	-9.07004
▁ed	-9.07004
▁jessie	-9.07006
▁upon	-9.0701
▁bigger	-9.07015
▁suit	-9.07089
▁papa	-9.07219
▁list	-9.07356
▁locked	-9.07374
▁river	-9.0746
▁island	-9.07483
▁promised	-9.07508
▁scene	-9.07535
▁cup	-9.07577
▁ii	-9.07684
▁victims	-9.08165
▁cos	-9.0826
▁m	-9.08524
▁visit	-9.08739
▁suppose	-9.08871
inous	-9.08874
▁band	-9.08889
▁general	-9.08919
▁albert	-9.0904
▁sobbing	-9.0904
▁hasnt	-9.09041
▁dawn	-9.09045
▁guilty	-9.09065
▁ig	-9.09084
▁certainly	-9.09184
▁account	-9.09247
▁fool	-9.09317
▁shake	-9.0959
▁client	-9.09665
▁dreams	-9.0982
▁nat	-9.09891
▁demon	-9.09904
▁rings	-9.10066
▁carry	-9.10853
▁dig	-9.10975
▁realize	-9.10987
▁total	-9.11
▁somethin	-9.111
▁whether	-9.11123
▁rufus	-9.11124
▁jason	-9.11125
▁forward	-9.11126
▁writing	-9.11137
▁angela	-9.11186
▁pop	-9.11208
▁ex	-9.11227
ally	-9.11343
▁whore	-9.11676
▁henry	-9.11695
▁chucky	-9.11765
▁board	-9.11794
▁e	-9.11928
▁letter	-9.11961
▁legs	-9.12337
▁birds	-9.1241
out	-9.12496
▁breath	-9.12567
▁reading	-9.12642
▁bless	-9.12917
▁grow	-9.1298
▁allow	-9.12988
▁crack	-9.13001
▁forgive	-9.13217
▁college	-9.13251
▁downstairs	-9.13251
▁emergency	-9.13251
▁footsteps	-9.13251
▁gordon	-9.13251
▁marriage	-9.13251
▁somehow	-9.13251
▁terry	-9.13252
▁warren	-9.13252
▁earlier	-9.13252
▁iike	-9.13254
▁grandma	-9.13256
▁deeply	-9.13452
▁allowed	-9.13515
▁club	-9.13936
▁price	-9.13945
▁noise	-9.13961
▁guest	-9.13967
▁weapon	-9.13974
▁closed	-9.14083
▁rule	-9.1415
▁om	-9.14422
▁ship	-9.14457
ary	-9.14578
▁problems	-9.14692
▁eating	-9.14927
▁wine	-9.14948
▁ca	-9.15009
▁h	-9.15129
ity	-9.15244
▁named	-9.15286
▁base	-9.15293
▁arms	-9.153
▁hook	-9.15395
▁evidence	-9.15425
▁johnnie	-9.15425
▁especially	-9.15427
▁common	-9.15428
▁toast	-9.15429
▁lonely	-9.15442
▁sweetie	-9.15571
▁interesting	-9.15602
▁low	-9.1561
▁folks	-9.15762
▁besides	-9.1589
▁lied	-9.15932
▁prove	-9.15971
▁angel	-9.1601
▁priest	-9.16206
▁k	-9.16424
▁fathers	-9.17034
▁piss	-9.17331
▁private	-9.17501
▁boston	-9.17647
▁impossible	-9.17647
▁insane	-9.17647
▁rebecca	-9.17647
▁senator	-9.17649
▁beauty	-9.1766
▁robby	-9.1766
▁dangerous	-9.17663
▁opening	-9.17663
▁bodies	-9.1767
▁julia	-9.17697
▁suck	-9.177
▁obviously	-9.1771
▁usually	-9.17726
ass	-9.17998
▁singing	-9.18197
▁lt	-9.1834
▁partner	-9.18447
▁finger	-9.18487
▁teacher	-9.18588
▁thinks	-9.18779
ment	-9.18951
▁group	-9.1898
▁rid	-9.19037
▁paris	-9.19415
▁starting	-9.19506
▁consider	-9.19598
▁final	-9.1985
▁witness	-9.19865
▁speaks	-9.19874
▁stole	-9.19876
▁comin	-9.19905
▁martha	-9.1992
▁claire	-9.1992
▁hadnt	-9.1992
▁tongue	-9.1992
▁nowhere	-9.1992
▁archbishop	-9.19923
▁monday	-9.19923
▁pants	-9.19932
▁scoffs	-9.19939
c	-9.19942
▁nose	-9.19955
▁pussy	-9.19959
nt	-9.19994
▁silence	-9.20014
you	-9.20046
▁mum	-9.20063
▁nature	-9.20098
▁plays	-9.20329
▁regular	-9.20364
to	-9.20391
▁learned	-9.20424
▁tie	-9.20594
▁summer	-9.20644
▁states	-9.2071
▁tree	-9.20788
▁type	-9.20803
en	-9.20904
▁f	-9.20956
▁fucker	-9.21363
▁priests	-9.21418
▁pray	-9.21439
▁track	-9.21573
▁there	-9.21598
▁feed	-9.21876
▁steal	-9.21887
rs	-9.21995
▁san	-9.2208
▁post	-9.22102
▁steve	-9.22207
▁aunt	-9.22224
▁tight	-9.22237
draic	-9.22246
▁byebye	-9.22246
▁neither	-9.22246
▁whistling	-9.22246
▁rachel	-9.22246
▁bunny	-9.22246
▁shame	-9.22247
▁chuckling	-9.22247
▁choose	-9.2225
▁empty	-9.22253
▁lake	-9.22261
▁whispering	-9.22293
▁parker	-9.22383
▁interested	-9.22387
▁knock	-9.22481
▁bucks	-9.22556
▁chattering	-9.2279
▁corner	-9.22842
▁pulled	-9.22943
▁abby	-9.23042
▁video	-9.23089
▁decision	-9.23092
▁contract	-9.23104
▁belong	-9.2316
▁drug	-9.23198
▁couldve	-9.23216
▁continue	-9.23462
▁ty	-9.23462
▁drugs	-9.23659
▁sleeping	-9.237
▁tea	-9.23704
▁mothers	-9.24078
▁complete	-9.24304
▁accept	-9.24335
▁waste	-9.24437
▁so	-9.24539
▁i	-9.24601
▁quentin	-9.24626
▁opportunity	-9.24627
▁awesome	-9.24627
▁neck	-9.24627
▁spent	-9.24628
▁aware	-9.24628
▁cady	-9.24629
▁pressure	-9.24637
▁chief	-9.24637
▁papi	-9.24676
▁buzzing	-9.24784
▁figured	-9.25066
▁wondering	-9.25246
▁dressed	-9.25327
▁r	-9.25415
▁w	-9.25483
▁relationship	-9.25583
▁thousand	-9.25607
ian	-9.25681
▁lived	-9.25943
▁standing	-9.25965
▁lts	-9.26322
▁fill	-9.26426
▁turning	-9.26588
▁aw	-9.26631
▁doubt	-9.26758
▁wash	-9.26821
et	-9.26878
▁soft	-9.26966
▁match	-9.27015
▁became	-9.27065
▁gekko	-9.27065
▁sebastian	-9.27065
▁chef	-9.27066
▁frost	-9.27068
▁shouldve	-9.2707
▁zain	-9.2707
▁split	-9.27072
▁itd	-9.27075
▁meat	-9.27085
▁dare	-9.27101
▁army	-9.27257
▁awful	-9.27412
an	-9.27436
▁cheers	-9.27665
se	-9.27694
▁holding	-9.27815
▁decide	-9.27822
▁talkin	-9.2794
▁liar	-9.28023
▁tattoo	-9.28027
▁criminal	-9.28045
▁taste	-9.28072
▁chicken	-9.28097
▁roger	-9.28114
▁animal	-9.28121
▁victim	-9.28123
▁stage	-9.28218
▁leg	-9.28305
▁vi	-9.28416
▁search	-9.28865
▁pa	-9.29265
▁blame	-9.29397
▁augie	-9.29565
▁murdoch	-9.29565
▁bishop	-9.29566
▁matrix	-9.29566
▁local	-9.29567
▁village	-9.29567
▁trial	-9.29585
▁dumb	-9.29589
▁incredible	-9.29592
▁plus	-9.29594
▁thas	-9.29636
▁sight	-9.29674
▁closes	-9.2968
▁brothers	-9.29762
▁theyd	-9.29818
▁faster	-9.29825
▁quickly	-9.29828
▁billy	-9.2989
▁anna	-9.2997
▁cares	-9.30069
▁saved	-9.30146
▁kinda	-9.30192
▁yells	-9.30215
▁passed	-9.3022
▁unit	-9.30295
▁target	-9.30318
▁risk	-9.3043
▁eh	-9.30477
▁rose	-9.30669
▁crap	-9.30969
▁wa	-9.31257
ling	-9.31377
▁destroy	-9.31453
▁mention	-9.3148
th	-9.31565
▁weak	-9.31849
▁lee	-9.31866
▁raise	-9.31957
▁doll	-9.32028
▁fresh	-9.32093
▁fenton	-9.3213
▁often	-9.3213
▁larry	-9.3213
▁swim	-9.3213
▁bravo	-9.3213
▁humming	-9.32131
▁gerty	-9.32134
▁kitty	-9.32135
▁laughter	-9.32144
▁arne	-9.32144
▁clock	-9.32151
▁tony	-9.32162
▁cole	-9.32166
▁bang	-9.32585
im	-9.32801
▁harder	-9.32952
▁text	-9.3309
▁force	-9.33111
▁suspect	-9.33164
▁bird	-9.33191
▁gang	-9.33241
▁spirit	-9.33273
▁gunshot	-9.33278
▁iii	-9.33567
▁jo	-9.33879
▁staying	-9.33903
▁paying	-9.33997
▁movies	-9.34043
▁bringing	-9.34211
▁fan	-9.34315
▁pretend	-9.34394
▁over	-9.34422
▁farm	-9.34498
▁doors	-9.34584
▁showed	-9.34663
▁arthur	-9.34761
▁bottom	-9.34761
▁briony	-9.34761
▁thomas	-9.34761
▁mmmhmm	-9.34761
▁whoever	-9.34762
▁stories	-9.34762
▁morse	-9.34763
▁teeth	-9.34764
▁congratulations	-9.34764
▁tommy	-9.34764
▁cake	-9.34775
▁double	-9.3483
ry	-9.34832
▁united	-9.35053
▁nuts	-9.35444
▁bother	-9.35455
▁following	-9.35744
▁guard	-9.36006
ous	-9.36056
▁that	-9.36132
▁assholes	-9.36454
▁buck	-9.36655
▁heat	-9.36811
▁moms	-9.36908
▁tires	-9.37088
▁feelings	-9.37284
▁strength	-9.37284
▁difficult	-9.37294
▁fort	-9.37348
▁brie	-9.37424
▁george	-9.37461
▁abilene	-9.37464
▁enemy	-9.37464
▁buried	-9.37465
▁nope	-9.37465
▁memory	-9.37465
▁willing	-9.37466
▁nino	-9.3747
▁view	-9.37488
▁vail	-9.37499
▁sky	-9.37519
▁huge	-9.37529
▁armand	-9.37857
▁bugs	-9.3787
▁ma	-9.37908
▁shoes	-9.37968
▁hearing	-9.37979
▁matters	-9.38302
▁tear	-9.38438
▁bear	-9.38543
▁cars	-9.38571
▁note	-9.38578
▁firm	-9.38636
▁pack	-9.38637
▁foot	-9.38641
ty	-9.38649
▁bow	-9.38665
▁attorney	-9.38675
▁devil	-9.38764
▁photo	-9.38785
▁wood	-9.3887
▁cora	-9.39176
▁freak	-9.39411
▁access	-9.39638
▁t	-9.39785
ton	-9.39821
▁punch	-9.39888
▁amen	-9.4005
▁bright	-9.4013
▁alpha	-9.40242
▁asleep	-9.40242
▁taylor	-9.40242
▁however	-9.40242
▁ocean	-9.40242
▁familiar	-9.40242
▁percent	-9.40242
▁beginning	-9.40243
▁orange	-9.40244
▁position	-9.40245
▁johnny	-9.40256
▁annie	-9.40257
▁thatll	-9.40273
▁famous	-9.40275
u	-9.40307
▁hoping	-9.40311
▁apologize	-9.40312
▁large	-9.40396
▁hired	-9.40416
▁pills	-9.40427
▁size	-9.40453
is	-9.40562
▁beeps	-9.40801
▁clearly	-9.40831
▁acting	-9.40996
▁experience	-9.41362
▁horn	-9.41563
▁shift	-9.41582
▁played	-9.4191
▁buying	-9.42053
▁believed	-9.42208
▁discuss	-9.42397
▁switch	-9.42445
▁repeat	-9.42446
▁lou	-9.4291
▁escape	-9.4292
▁nothin	-9.43073
▁closing	-9.43099
▁lieutenant	-9.43099
▁speed	-9.43099
▁desk	-9.43099
▁misery	-9.431
▁vivian	-9.431
▁merrin	-9.43102
▁horrible	-9.43104
▁yellow	-9.43104
▁jenny	-9.43104
▁blade	-9.43105
▁fake	-9.43105
▁innocent	-9.43109
▁regan	-9.43117
▁involved	-9.43126
▁gotten	-9.43161
ne	-9.43163
▁subtitles	-9.43164
▁medical	-9.43174
▁rent	-9.43179
ch	-9.43185
▁putting	-9.43246
▁clicking	-9.43301
▁mall	-9.43345
▁closer	-9.43363
▁greatest	-9.43557
▁becky	-9.44474
▁jackson	-9.4454
▁pig	-9.4455
z	-9.44568
▁o	-9.44655
▁shower	-9.44707
▁breaking	-9.44905
▁el	-9.44914
▁plans	-9.4498
▁letters	-9.45117
b	-9.45516
▁souls	-9.45556
▁market	-9.45675
▁focus	-9.45763
▁bus	-9.45794
▁settle	-9.45848
▁brilliant	-9.45886
▁scott	-9.45922
▁pete	-9.46007
▁speech	-9.46025
▁built	-9.4604
▁military	-9.4604
▁ugly	-9.4604
▁pablo	-9.4604
▁extreme	-9.4604
▁funeral	-9.46047
▁gino	-9.46049
▁level	-9.46069
▁shop	-9.46165
▁joy	-9.4629
it	-9.46567
▁con	-9.46587
the	-9.46727
▁lately	-9.46733
▁pro	-9.46765
um	-9.4685
▁ye	-9.47035
▁nurse	-9.47578
▁begin	-9.47601
▁scout	-9.4762
▁shooting	-9.47648
▁circle	-9.47738
▁sending	-9.47739
▁animals	-9.47775
▁drinking	-9.47941
▁wha	-9.48245
▁marty	-9.48413
▁records	-9.48677
▁spread	-9.48704
▁assume	-9.48884
▁sexual	-9.48962
▁main	-9.48964
▁beyond	-9.4907
▁meredith	-9.4907
▁purpose	-9.4907
▁sergeant	-9.4907
▁written	-9.4907
▁kelly	-9.49071
▁coast	-9.49076
▁society	-9.49076
▁colm	-9.4908
▁trapped	-9.49084
▁held	-9.49087
▁enter	-9.49095
▁male	-9.49098
▁bury	-9.49105
▁screeching	-9.49272
▁losing	-9.49363
▁due	-9.4938
▁murdered	-9.49763
▁turns	-9.49861
▁towards	-9.49951
▁yea	-9.49984
▁training	-9.49985
ting	-9.5013
▁loss	-9.50213
▁older	-9.50359
▁tip	-9.50468
▁connection	-9.50676
▁mask	-9.5069
▁motherfuckers	-9.50716
▁orlean	-9.50716
▁da	-9.50867
age	-9.5102
▁oil	-9.51088
▁lf	-9.51099
▁player	-9.51315
▁thy	-9.51358
▁lift	-9.51518
▁helping	-9.51753
▁loose	-9.51926
▁survive	-9.52011
▁susan	-9.52176
▁twenty	-9.52192
▁applause	-9.52195
▁fabietto	-9.52195
▁rough	-9.52196
▁whenever	-9.52196
▁renfield	-9.52196
▁alejandro	-9.52196
▁easier	-9.52196
▁ugh	-9.52196
▁crawl	-9.52196
▁sarah	-9.52199
▁staff	-9.52199
▁tori	-9.52201
▁joking	-9.52202
▁laid	-9.52209
▁crackling	-9.52209
▁immediately	-9.52225
▁map	-9.52243
▁jacket	-9.52263
▁create	-9.5228
▁tone	-9.52335
▁nearly	-9.52489
▁manage	-9.52639
▁heading	-9.52699
▁dan	-9.52778
▁gives	-9.53342
ant	-9.53484
▁cock	-9.53592
▁walked	-9.53892
▁patient	-9.53913
ter	-9.5397
▁soldier	-9.53973
▁bay	-9.54037
▁loves	-9.54082
▁painting	-9.54279
▁doc	-9.54288
▁paint	-9.55015
▁ear	-9.55038
▁skin	-9.55051
▁trash	-9.55114
▁load	-9.55206
▁jud	-9.55282
▁ofthe	-9.55363
▁spoke	-9.55373
▁afford	-9.55421
▁alfredo	-9.55421
▁majesty	-9.55421
▁raymond	-9.55421
▁biggest	-9.55421
▁vegas	-9.55421
▁energy	-9.55421
▁insurance	-9.55421
▁terrific	-9.55421
▁trinity	-9.55421
▁karate	-9.55422
▁miri	-9.55422
▁kevin	-9.55422
▁government	-9.55423
▁taught	-9.55424
▁bluestar	-9.55424
▁freedom	-9.55425
▁fox	-9.55427
▁planning	-9.55428
▁background	-9.55428
▁golden	-9.5544
▁handsome	-9.55451
▁freeze	-9.55452
▁fecking	-9.55456
▁smoking	-9.55458
▁chirping	-9.55462
▁chanting	-9.55472
▁original	-9.55636
▁mo	-9.55652
▁boots	-9.55792
▁regret	-9.55891
▁keeping	-9.56006
▁casey	-9.56237
▁provide	-9.56309
▁daughters	-9.56325
▁suggest	-9.56522
▁dis	-9.56633
▁sisters	-9.5675
▁hat	-9.56855
▁bomb	-9.56947
▁numbers	-9.56947
▁j	-9.57083
▁program	-9.57178
▁effort	-9.57229
▁drinks	-9.57249
▁cigarette	-9.5726
▁queen	-9.57292
▁ticket	-9.57307
▁magic	-9.57539
men	-9.57565
▁sin	-9.58406
▁natural	-9.58656
▁daniel	-9.5867
▁cases	-9.58705
▁chose	-9.58709
▁excellent	-9.58754
▁ridiculous	-9.58754
▁tunnel	-9.58754
▁stampler	-9.58755
▁whirring	-9.58755
▁nancy	-9.58756
▁florida	-9.58756
▁elias	-9.58759
▁thunder	-9.58763
▁smith	-9.5877
▁mental	-9.5877
▁sand	-9.58771
▁rex	-9.58777
▁grade	-9.58789
▁milk	-9.58813
▁wet	-9.58829
▁commander	-9.58859
▁forced	-9.58986
▁surprised	-9.59178
▁options	-9.59377
▁aye	-9.59504
▁who	-9.59524
▁eeri	-9.59769
▁di	-9.59813
▁falling	-9.59961
▁field	-9.60042
ish	-9.60361
▁grunt	-9.60418
▁pair	-9.60533
▁condition	-9.60558
▁woods	-9.60575
▁wheel	-9.60596
▁monster	-9.60724
▁likes	-9.60795
▁pieces	-9.61117
▁v	-9.61777
▁hero	-9.61867
▁recognize	-9.6201
▁ln	-9.62012
▁prepare	-9.62023
▁beg	-9.62131
▁ought	-9.62137
▁usual	-9.62193
▁traffic	-9.62197
▁beverly	-9.62203
▁credit	-9.62203
▁geoghan	-9.62203
▁responsibility	-9.62203
▁stevie	-9.62203
▁suicide	-9.62203
▁whyd	-9.62203
▁pardon	-9.62203
▁threw	-9.62204
▁responsible	-9.62205
▁saul	-9.62205
▁dunne	-9.62205
▁crew	-9.62206
▁robbie	-9.62207
▁plenty	-9.62207
▁twelve	-9.62209
▁victoria	-9.6221
▁naked	-9.6221
▁pre	-9.62221
▁prime	-9.62227
▁chest	-9.62234
▁gim	-9.62234
▁sold	-9.62246
▁pure	-9.6225
▁steven	-9.62273
▁hire	-9.6229
▁uhoh	-9.62297
▁glasses	-9.62341
▁reality	-9.62347
▁planet	-9.62348
▁failed	-9.62378
▁approaching	-9.62409
▁gettin	-9.62415
▁raised	-9.62459
▁emotional	-9.62591
▁quietly	-9.62616
▁en	-9.62659
▁brings	-9.62915
te	-9.63004
▁showing	-9.63235
▁customers	-9.63263
▁hanging	-9.63581
▁soldiers	-9.6378
▁las	-9.64021
▁exist	-9.64238
▁checked	-9.64254
▁cousin	-9.6426
▁ghost	-9.64299
▁picking	-9.64352
▁fella	-9.64441
▁jobs	-9.6475
▁stan	-9.64901
▁cheap	-9.64992
▁deliver	-9.65002
▁officers	-9.6506
▁do	-9.65085
▁self	-9.65114
▁foreign	-9.65249
▁artist	-9.65319
▁sever	-9.6535
▁style	-9.65543
▁rescue	-9.65563
▁charges	-9.65572
▁strip	-9.65635
▁health	-9.65656
▁sons	-9.65669
▁snow	-9.65755
▁advice	-9.65774
▁junior	-9.65774
▁justice	-9.65774
▁margaret	-9.65774
▁morgan	-9.65774
▁suspense	-9.65774
▁teii	-9.65774
▁theseus	-9.65774
▁unfortunate	-9.65774
▁drove	-9.65774
▁explosiveskull	-9.65774
▁garbage	-9.65775
▁basic	-9.65775
▁clark	-9.65776
▁assistant	-9.65776
▁sugar	-9.65776
▁memories	-9.65776
▁genius	-9.65779
▁chimes	-9.65779
▁breakfast	-9.65779
▁merger	-9.6578
▁kano	-9.65781
▁truly	-9.65808
▁safety	-9.65819
▁saving	-9.6582
▁exit	-9.6583
▁chocolate	-9.65835
▁mail	-9.65839
▁professional	-9.65849
▁bust	-9.65904
tic	-9.65907
▁barking	-9.65913
▁jet	-9.6599
▁gosh	-9.66019
▁agreed	-9.66099
▁bath	-9.66157
ts	-9.66187
▁pissed	-9.66204
▁helped	-9.66279
▁stars	-9.66293
▁travel	-9.66387
▁expected	-9.66477
▁nicky	-9.66549
▁dj	-9.66562
▁stayed	-9.66709
ra	-9.66729
▁whistles	-9.66818
▁remain	-9.67568
▁bridge	-9.67736
▁per	-9.67747
▁bound	-9.67853
▁gay	-9.67864
▁shirt	-9.67867
▁interview	-9.6788
▁elevator	-9.67906
▁crown	-9.67921
▁bullet	-9.67972
▁los	-9.68116
▁sayin	-9.68183
▁stab	-9.68193
▁fi	-9.68202
▁weapons	-9.68225
▁wrap	-9.68522
bh	-9.68578
▁ken	-9.6874
▁suffer	-9.6885
▁sec	-9.68943
▁value	-9.69103
▁event	-9.6917
▁introduce	-9.69306
▁particular	-9.69346
▁legal	-9.69413
▁brush	-9.69425
▁games	-9.69443
▁among	-9.69461
▁audience	-9.69478
▁england	-9.69478
▁keeley	-9.69478
▁restaurant	-9.69478
▁blew	-9.69478
▁oclock	-9.69478
▁agador	-9.69478
▁ansel	-9.69478
▁ellie	-9.69481
▁piano	-9.69481
▁duty	-9.69482
▁blind	-9.69482
▁prick	-9.69485
▁silly	-9.69486
▁complicated	-9.69488
▁linda	-9.6949
▁rattling	-9.6949
▁fellow	-9.69491
▁bedroom	-9.69506
▁wallet	-9.69514
▁buzzes	-9.69516
▁johnson	-9.69517
▁powerful	-9.69556
▁statement	-9.69571
▁prepared	-9.69672
▁noticed	-9.69883
▁heh	-9.69949
▁pearl	-9.70072
▁thuds	-9.7013
▁dads	-9.70307
▁prefer	-9.70455
▁dry	-9.70546
▁kissing	-9.70646
▁sue	-9.70716
▁ordered	-9.70846
▁walls	-9.70906
▁concern	-9.71169
▁lies	-9.71211
▁scouts	-9.71289
▁roof	-9.71633
▁ways	-9.71752
▁tower	-9.71771
▁manager	-9.71801
▁gate	-9.71838
▁affair	-9.71843
▁swan	-9.71854
▁member	-9.71868
▁sometime	-9.71889
f	-9.72506
▁support	-9.726
▁files	-9.72703
▁square	-9.73097
▁curse	-9.73144
▁tour	-9.7325
▁virus	-9.73258
▁thirty	-9.73321
▁cecilia	-9.73324
▁champagne	-9.73324
▁desperate	-9.73324
▁gideon	-9.73324
▁grenouille	-9.73324
▁miami	-9.73324
▁necessary	-9.73324
▁possibly	-9.73324
▁trevor	-9.73324
▁kyle	-9.73324
▁community	-9.73324
▁garvin	-9.73324
▁cindy	-9.73324
▁silent	-9.73324
▁inspector	-9.73324
▁violet	-9.73325
▁online	-9.73326
▁shopping	-9.73328
▁silver	-9.73328
▁football	-9.73329
▁failure	-9.7333
▁television	-9.7333
▁internet	-9.7333
▁philippe	-9.73331
▁wherever	-9.73331
▁capable	-9.73333
▁hm	-9.73341
▁anger	-9.73345
▁dropped	-9.73353
▁storm	-9.73356
▁victory	-9.73396
▁yearold	-9.73419
▁pm	-9.73425
▁confirmed	-9.73517
▁metal	-9.73575
▁beans	-9.73585
▁created	-9.73698
▁realized	-9.73757
▁sexy	-9.73892
▁nail	-9.73944
▁tall	-9.74057
▁mikey	-9.74065
▁fixed	-9.7407
▁pee	-9.74264
▁iitti	-9.74436
▁knees	-9.7445
▁doctors	-9.74805
▁bullets	-9.74859
▁fellas	-9.74926
▁garden	-9.75092
▁you	-9.75095
▁seek	-9.75433
▁tune	-9.75477
▁boo	-9.75547
go	-9.75572
▁butt	-9.75585
▁globe	-9.7563
▁trap	-9.75631
▁cancer	-9.75709
▁friday	-9.75712
▁zero	-9.75752
▁project	-9.7578
▁signal	-9.7579
▁watched	-9.75943
▁sacrifice	-9.7639
▁headed	-9.76821
▁rub	-9.76876
▁ar	-9.76944
▁study	-9.76982
▁avoid	-9.77046
▁divorce	-9.7714
▁social	-9.77183
▁louis	-9.77207
▁cream	-9.77227
▁dracula	-9.77324
▁lorraine	-9.77324
▁melody	-9.77324
▁opinion	-9.77324
▁stadium	-9.77324
▁stomach	-9.77324
▁wouid	-9.77324
▁warrant	-9.77324
▁whimpering	-9.77324
▁daesu	-9.77324
▁british	-9.77324
▁firing	-9.77326
▁practice	-9.77329
▁minister	-9.77329
▁baseball	-9.7733
▁static	-9.77333
▁chopper	-9.77336
▁rushman	-9.7734
▁airport	-9.77342
▁weight	-9.77342
▁director	-9.77348
▁national	-9.77355
▁path	-9.77366
▁barnes	-9.77366
▁disgusting	-9.77375
▁bout	-9.77379
▁leon	-9.77383
▁erm	-9.77385
▁hearts	-9.77426
▁rise	-9.77429
▁mans	-9.77485
▁out	-9.77607
▁arrested	-9.77872
▁searching	-9.77901
▁blows	-9.78053
▁staring	-9.78072
▁piease	-9.78074
ii	-9.78107
▁guide	-9.78121
▁seemed	-9.78157
▁burning	-9.78179
▁lines	-9.78565
▁prints	-9.78694
ro	-9.787
and	-9.78817
▁fired	-9.78838
eat	-9.78938
▁horns	-9.79432
▁pocket	-9.79796
▁investigation	-9.79798
▁camp	-9.79834
▁subject	-9.79874
▁channel	-9.79875
▁saturday	-9.79917
▁apple	-9.79964
▁egg	-9.79972
▁jean	-9.79989
ah	-9.80013
▁flat	-9.80119
ia	-9.8039
land	-9.80521
▁cards	-9.80526
▁speaker	-9.80539
▁windows	-9.80635
▁ohh	-9.80717
▁sio	-9.8082
▁walks	-9.80906
ure	-9.80914
▁bite	-9.8098
▁rat	-9.81064
▁print	-9.81092
▁pan	-9.81139
▁se	-9.81146
▁hurting	-9.81195
▁borrow	-9.81208
▁disappear	-9.81221
▁kab	-9.81479
▁ambulance	-9.81491
▁experiment	-9.81491
▁godfrey	-9.81491
▁inez	-9.81491
▁intensifies	-9.81491
▁jeez	-9.81491
▁lindy	-9.81491
▁paige	-9.81491
▁reverend	-9.81491
▁wreck	-9.81491
▁sharon	-9.81491
▁blaring	-9.81491
▁midnight	-9.81491
▁nadine	-9.81491
▁beast	-9.81492
▁boring	-9.81492
▁current	-9.81492
▁diana	-9.81492
▁laura	-9.81495
▁pathetic	-9.81496
▁property	-9.81496
▁eddie	-9.81499
▁apparently	-9.81499
▁maria	-9.81502
▁kimi	-9.81521
▁rip	-9.81538
▁bash	-9.8154
▁barely	-9.81547
▁shape	-9.81551
▁sarge	-9.81555
▁gary	-9.81555
▁woke	-9.81555
▁axel	-9.8157
▁creaks	-9.81587
▁ewing	-9.81632
▁policeman	-9.81698
▁thrown	-9.81699
at	-9.81775
▁concerned	-9.81784
▁honestly	-9.81829
▁sally	-9.81831
▁hip	-9.81875
▁gee	-9.81911
▁moon	-9.81924
▁shows	-9.82083
▁covered	-9.8212
▁higher	-9.82284
▁flying	-9.82519
co	-9.82741
▁sirens	-9.8293
▁bones	-9.8294
el	-9.82973
▁interest	-9.83717
▁perfume	-9.83831
▁answering	-9.83933
▁serve	-9.83978
▁remind	-9.83992
▁ideas	-9.84009
▁bone	-9.84145
▁menu	-9.84222
▁spring	-9.84277
▁sunday	-9.84304
▁william	-9.84358
▁student	-9.84381
▁chain	-9.84395
x	-9.84422
▁odd	-9.84428
▁writer	-9.84445
▁loser	-9.84546
▁hurts	-9.84592
▁streets	-9.84981
▁bastards	-9.85011
▁crash	-9.85178
▁draw	-9.85331
▁screen	-9.85423
▁march	-9.85479
▁orders	-9.8563
▁trade	-9.85639
▁release	-9.85673
▁illegal	-9.85699
▁exact	-9.85713
▁sudden	-9.85714
▁obvious	-9.85715
▁marshal	-9.85806
▁rome	-9.85807
▁lick	-9.85834
▁perform	-9.85835
▁practical	-9.85838
▁heimish	-9.85838
▁intense	-9.85838
▁lgby	-9.85838
▁monsieur	-9.85838
▁oglethorpe	-9.85838
▁toilet	-9.85839
▁potential	-9.85839
▁distant	-9.85839
▁mickey	-9.85839
▁temple	-9.85841
▁altar	-9.85841
▁literally	-9.85842
▁percy	-9.85842
▁washington	-9.85842
▁bike	-9.85844
▁violent	-9.85844
▁spotlight	-9.85846
▁location	-9.85847
▁onto	-9.85848
▁proof	-9.85849
▁fancy	-9.85849
▁chat	-9.85851
▁slept	-9.85853
▁mobile	-9.85862
▁boom	-9.85863
▁changing	-9.85863
▁cf	-9.8587
▁kris	-9.85871
▁cabin	-9.85887
▁darkness	-9.85895
▁wailing	-9.8591
▁cape	-9.85912
▁stolen	-9.85931
▁suddenly	-9.85963
▁rare	-9.85965
▁discovered	-9.85975
▁tank	-9.86008
▁invited	-9.86026
▁cab	-9.86041
ving	-9.86053
▁escaped	-9.86123
▁bleeding	-9.86124
▁cia	-9.86242
▁dominic	-9.86333
▁kit	-9.86343
▁depends	-9.86397
▁younger	-9.86493
▁flowers	-9.86537
▁smells	-9.86551
▁details	-9.866
▁va	-9.86768
▁tits	-9.86798
▁brave	-9.86908
▁media	-9.86965
▁pat	-9.86981
ley	-9.87083
▁signs	-9.87262
▁students	-9.87319
▁heads	-9.87349
▁ward	-9.87371
▁passing	-9.87397
▁grave	-9.87522
▁sat	-9.87648
ee	-9.87872
▁goal	-9.87993
▁gum	-9.88111
me	-9.88385
▁scream	-9.88596
▁career	-9.8866
▁pot	-9.88726
▁mirror	-9.88766
▁desire	-9.88772
▁operation	-9.88806
▁le	-9.88831
ted	-9.88831
▁trigger	-9.88842
▁matthew	-9.88917
▁action	-9.8895
▁stranger	-9.89045
▁suits	-9.89063
▁murderer	-9.89127
▁siren	-9.89184
▁rob	-9.89386
w	-9.89479
▁fires	-9.89558
▁dump	-9.89681
▁deb	-9.89814
▁route	-9.89973
▁awake	-9.89995
▁desert	-9.90088
though	-9.90119
▁catherine	-9.90384
▁education	-9.90384
▁exciting	-9.90384
▁fantastic	-9.90384
▁lisbeth	-9.90384
▁london	-9.90384
▁morpheus	-9.90384
▁otherwise	-9.90384
▁period	-9.90384
▁policy	-9.90384
▁indeed	-9.90384
▁sniffles	-9.90384
▁uncomfortable	-9.90384
▁accent	-9.90384
▁darnell	-9.90384
▁rumbling	-9.90385
▁thou	-9.90386
▁cardinal	-9.90386
▁wiii	-9.90386
▁garage	-9.90386
▁owns	-9.90387
▁russell	-9.90388
▁counselor	-9.90389
▁flies	-9.90392
▁teddy	-9.90392
▁firework	-9.90394
▁race	-9.90396
▁penis	-9.90396
▁version	-9.90396
▁ease	-9.90399
▁therapy	-9.90408
▁aside	-9.9041
▁christine	-9.9041
▁pool	-9.90411
▁ivy	-9.90416
▁finding	-9.9042
▁forth	-9.90425
▁honking	-9.90439
▁mood	-9.90468
▁received	-9.90501
▁cast	-9.90513
▁charming	-9.90525
▁weston	-9.90528
▁arrived	-9.90542
▁daddys	-9.90555
▁navy	-9.90557
▁bat	-9.90656
▁letting	-9.90763
▁coughs	-9.90763
▁based	-9.90771
▁lighter	-9.91087
▁sooner	-9.91169
▁cooking	-9.91218
▁perfectly	-9.91234
ial	-9.91306
tion	-9.91327
▁wounds	-9.91384
▁messing	-9.9145
▁ai	-9.91593
▁expecting	-9.91595
▁spit	-9.91617
▁answers	-9.9173
▁les	-9.91765
▁goodness	-9.91775
▁ko	-9.91898
just	-9.92317
▁touched	-9.9233
▁nights	-9.92417
▁tickets	-9.92421
▁character	-9.92525
▁ho	-9.92539
▁sh	-9.92756
ng	-9.92758
▁comfort	-9.92762
▁photos	-9.92835
▁peoples	-9.92869
▁block	-9.93024
▁ba	-9.93091
led	-9.93177
▁page	-9.93376
▁bull	-9.9338
▁defense	-9.93453
▁german	-9.93494
▁hammer	-9.93506
▁official	-9.93531
▁pilot	-9.93544
▁center	-9.93584
▁quarter	-9.93595
▁hug	-9.93609
de	-9.93636
▁shoulder	-9.9366
▁customer	-9.93704
▁yard	-9.93719
▁process	-9.93944
▁mile	-9.93983
▁ts	-9.94019
▁faces	-9.9429
▁be	-9.94308
▁slip	-9.94427
▁shock	-9.94803
▁ch	-9.94863
▁fog	-9.94873
▁celebrate	-9.94913
▁chase	-9.95029
▁grass	-9.95039
▁dea	-9.95043
▁progress	-9.95076
il	-9.95098
▁success	-9.95127
▁dust	-9.95139
▁chill	-9.95143
▁august	-9.95146
▁explosion	-9.95146
▁female	-9.95146
▁guarantee	-9.95146
▁rhonda	-9.95146
▁science	-9.95146
▁wolverton	-9.95146
▁climb	-9.95146
▁mostly	-9.95146
▁including	-9.95146
▁understood	-9.95146
▁corky	-9.95146
▁pookie	-9.95146
▁smiling	-9.95147
▁cherry	-9.95147
▁vacation	-9.95148
▁electricity	-9.9515
▁muffled	-9.9515
▁operator	-9.9515
▁gross	-9.9515
▁fortune	-9.95152
▁randall	-9.95152
▁fourteen	-9.95152
▁mitchell	-9.95154
▁gentleman	-9.95159
▁mercy	-9.95159
▁karl	-9.9516
▁princess	-9.95165
▁candy	-9.95171
▁logue	-9.95173
▁highway	-9.95176
▁china	-9.95177
▁max	-9.95179
no	-9.9518
▁birth	-9.95186
▁dragon	-9.95194
▁dh	-9.95196
▁trailer	-9.95207
▁grown	-9.95247
▁circumstances	-9.95256
▁angeles	-9.95266
▁lifetime	-9.95288
▁pen	-9.95303
▁prom	-9.95324
▁echoing	-9.95329
▁pin	-9.95367
▁sanders	-9.95369
▁inhales	-9.95404
▁disappeared	-9.95452
▁raped	-9.95454
▁psycho	-9.95487
▁movement	-9.95511
▁lips	-9.9555
▁mentioned	-9.95649
▁bored	-9.95672
▁fund	-9.95783
▁terms	-9.95831
▁praying	-9.95893
▁mustve	-9.95903
▁burned	-9.95911
▁growing	-9.95955
▁ace	-9.95983
▁pit	-9.96022
▁spending	-9.9612
iy	-9.96579
▁learning	-9.96594
ler	-9.9705
▁secure	-9.97063
king	-9.97186
ped	-9.97246
ized	-9.97296
▁ears	-9.9731
let	-9.97359
▁breaks	-9.97617
▁changes	-9.97868
▁tells	-9.97949
▁rogers	-9.98019
▁thousands	-9.9809
▁off	-9.98144
▁justin	-9.98264
▁coward	-9.98289
▁click	-9.98349
▁thoughts	-9.98463
▁talent	-9.98475
▁magazine	-9.98533
▁routine	-9.9857
▁sentence	-9.98585
▁threat	-9.98585
▁demons	-9.9859
▁model	-9.98611
▁stripper	-9.98637
▁rev	-9.98681
▁knee	-9.98686
▁whistle	-9.98692
▁toward	-9.98697
▁cookie	-9.98738
▁reporter	-9.98996
▁hood	-9.99081
time	-9.99095
ize	-9.99613
day	-9.99627
▁swing	-9.99767
brew	-9.99899
▁schedule	-9.9995
▁sharp	-10.0001
▁attend	-10.0009
na	-10.001
▁electronic	-10.0014
▁bennett	-10.0015
▁blonde	-10.0015
▁california	-10.0015
▁flesh	-10.0015
▁gorgeous	-10.0015
▁jasper	-10.0015
▁katia	-10.0015
▁motive	-10.0015
▁novel	-10.0015
▁portuguese	-10.0015
▁saverio	-10.0015
▁isaac	-10.0015
▁research	-10.0015
▁twitter	-10.0015
▁yosille	-10.0015
▁beiieve	-10.0015
▁violence	-10.0015
▁tutar	-10.0015
▁granny	-10.0015
▁honour	-10.0015
▁joanna	-10.0015
hala	-10.0015
▁dancing	-10.0015
▁robert	-10.0015
▁battle	-10.0015
▁paperwork	-10.0015
▁decent	-10.0015
▁defendant	-10.0015
▁status	-10.0015
▁weii	-10.0015
▁mexico	-10.0015
▁dope	-10.0015
▁rude	-10.0016
▁jury	-10.0016
▁pride	-10.0016
▁labor	-10.0016
▁data	-10.0016
▁webb	-10.0016
▁doorbell	-10.0017
▁quote	-10.0017
▁gunfire	-10.0017
▁mmmm	-10.0018
▁cage	-10.002
▁palm	-10.002
▁according	-10.0021
▁dating	-10.0021
▁protection	-10.0021
▁rae	-10.0022
▁bass	-10.0022
▁scary	-10.0024
▁coughing	-10.0025
▁butter	-10.0027
▁fireman	-10.0033
▁tiny	-10.0034
▁steel	-10.0043
▁crashed	-10.0046
▁deeper	-10.0051
▁salt	-10.0055
▁royal	-10.0058
▁suffering	-10.0063
▁tied	-10.0068
▁viva	-10.0075
▁banging	-10.0085
ate	-10.0094
▁thin	-10.0111
▁vo	-10.0122
▁led	-10.0129
▁followed	-10.0158
▁selling	-10.0159
▁dirt	-10.0187
▁everybodys	-10.0198
ze	-10.0205
▁members	-10.0209
ar	-10.0211
son	-10.0219
▁pulling	-10.0222
▁wide	-10.0248
lo	-10.0248
▁cocks	-10.0248
▁tears	-10.0291
head	-10.0294
▁fail	-10.0304
▁je	-10.0306
▁add	-10.0316
▁ro	-10.0324
▁jerk	-10.033
▁graves	-10.0336
▁sucks	-10.035
▁voices	-10.0351
▁wire	-10.0354
▁fucks	-10.0371
▁dale	-10.0379
▁plate	-10.0389
▁airline	-10.0392
▁adult	-10.0392
▁valley	-10.0402
▁union	-10.0402
▁counter	-10.0403
ent	-10.0403
▁dollar	-10.0404
▁opened	-10.0413
▁x	-10.0414
▁checking	-10.0423
▁on	-10.0442
▁ge	-10.0446
▁lookin	-10.0467
▁stone	-10.047
▁bum	-10.0478
▁ruin	-10.0479
▁sweat	-10.0481
▁hon	-10.0483
▁buzz	-10.049
▁sneak	-10.0501
▁proceed	-10.0501
▁pour	-10.0504
▁screech	-10.0506
▁confirm	-10.0514
board	-10.0514
▁disease	-10.0518
▁command	-10.052
▁damage	-10.0522
ship	-10.0527
▁smooth	-10.0527
▁jones	-10.0532
▁cure	-10.0533
▁whi	-10.0536
▁europe	-10.0538
▁prince	-10.0538
▁danger	-10.0538
▁benefit	-10.0541
▁blanchard	-10.0541
▁macleish	-10.0541
▁maradona	-10.0541
▁mulwray	-10.0541
▁presence	-10.0541
▁rifle	-10.0541
▁soccer	-10.0541
▁underwear	-10.0541
▁spray	-10.0541
▁waitress	-10.0541
▁orchestra	-10.0541
▁example	-10.0541
▁hidden	-10.0541
▁choking	-10.0541
▁chicago	-10.0541
▁transfer	-10.0541
▁quince	-10.0541
▁fbi	-10.0541
▁scent	-10.0541
▁reasons	-10.0541
▁loan	-10.0542
▁confused	-10.0542
▁positive	-10.0542
▁robbery	-10.0543
▁leigh	-10.0543
▁peg	-10.0543
▁comfortable	-10.0544
▁fifty	-10.0547
▁moaning	-10.0548
▁lapd	-10.0549
▁cutting	-10.0551
▁france	-10.0556
▁lesson	-10.0565
▁county	-10.0584
▁personally	-10.0593
▁opera	-10.0599
▁abuse	-10.0611
▁freaking	-10.0611
one	-10.0621
▁barb	-10.0627
▁knowing	-10.0644
▁offered	-10.0647
▁punish	-10.0662
▁kicked	-10.0665
▁rolling	-10.0685
▁rocks	-10.0701
▁beating	-10.0717
▁strangers	-10.0718
▁gut	-10.0719
▁leaves	-10.0725
house	-10.0743
▁likely	-10.0745
▁places	-10.0747
mo	-10.0754
▁si	-10.0755
▁hated	-10.076
▁facts	-10.0788
▁up	-10.0794
▁somethings	-10.0814
▁ol	-10.0829
▁belongs	-10.0877
▁bleed	-10.0887
▁dani	-10.0887
▁review	-10.0893
▁sport	-10.091
▁yell	-10.0922
▁issue	-10.0925
▁clients	-10.0926
▁winner	-10.0927
▁border	-10.0943
▁session	-10.0943
▁nun	-10.0946
▁tests	-10.0952
▁leader	-10.0966
▁trick	-10.0968
▁pet	-10.0979
▁uhh	-10.1032
▁americans	-10.1033
ell	-10.1051
▁secrets	-10.1058
▁roy	-10.1061
▁bump	-10.1064
▁rush	-10.1066
▁assault	-10.1068
▁gather	-10.1069
▁ove	-10.1073
▁seq	-10.1081
▁vagina	-10.1084
▁physical	-10.1086
▁madam	-10.1087
▁nut	-10.1091
▁invite	-10.1093
▁avenue	-10.1096
▁cocaine	-10.1096
▁dibiasky	-10.1096
▁jealous	-10.1096
▁vetlesen	-10.1096
▁whiskey	-10.1096
▁babies	-10.1096
▁fought	-10.1096
▁international	-10.1096
▁neighborhood	-10.1096
▁gavin	-10.1096
▁japanese	-10.1096
▁dripping	-10.1097
▁shelter	-10.1097
▁telephone	-10.1097
▁driss	-10.1097
▁trauma	-10.1097
▁howard	-10.1097
▁laurie	-10.1097
▁grew	-10.1097
▁scum	-10.1097
▁no	-10.1097
▁expensive	-10.1097
▁katrine	-10.1097
▁jewish	-10.1097
▁toto	-10.1097
▁butcher	-10.1097
▁pizza	-10.1097
▁carlos	-10.1098
▁june	-10.1098
▁chew	-10.1098
▁nasty	-10.1099
▁iong	-10.1099
▁thudding	-10.1099
▁minor	-10.1099
▁ticking	-10.11
▁badge	-10.11
▁coach	-10.11
▁zone	-10.1102
▁july	-10.1103
▁offense	-10.1103
▁chosen	-10.1105
▁bride	-10.1105
▁recently	-10.1105
▁spy	-10.1107
▁coke	-10.1107
▁billion	-10.1108
▁assure	-10.1108
▁drives	-10.1111
▁rape	-10.1113
▁served	-10.112
▁wilder	-10.1123
▁plant	-10.1123
▁punished	-10.1124
▁hunting	-10.1129
▁warning	-10.1133
▁smaller	-10.1137
▁stronger	-10.1141
▁lack	-10.1148
▁slowly	-10.1158
▁fades	-10.1169
▁warn	-10.1172
▁screwed	-10.1177
▁deer	-10.1179
▁jumped	-10.1204
▁lots	-10.1208
▁joey	-10.1217
▁y	-10.1221
▁reports	-10.1229
▁signed	-10.1237
▁behave	-10.1246
▁blowing	-10.1265
▁op	-10.1266
▁chances	-10.1273
▁matthews	-10.128
▁choices	-10.1283
▁artists	-10.133
da	-10.1333
▁hill	-10.1333
▁announce	-10.1338
▁queens	-10.1349
▁bo	-10.1361
▁announc	-10.1382
▁pigs	-10.1384
▁notes	-10.1403
▁flag	-10.1441
▁advance	-10.1447
▁claim	-10.1461
▁trees	-10.1461
down	-10.1487
▁cheer	-10.1507
▁dealing	-10.1509
▁bi	-10.151
ville	-10.1514
▁expert	-10.1515
▁vehicle	-10.1515
▁device	-10.1515
▁clue	-10.1526
▁grandmother	-10.153
▁ended	-10.1531
▁snake	-10.1534
▁flame	-10.1534
▁hells	-10.1535
▁of	-10.1538
▁vision	-10.1539
▁agents	-10.1574
▁services	-10.1609
▁nation	-10.1611
▁approach	-10.1614
▁intern	-10.1628
▁tim	-10.1631
▁seal	-10.1633
▁smash	-10.1645
ette	-10.1649
▁ahh	-10.165
ier	-10.1654
▁bend	-10.1655
▁attempt	-10.1656
▁math	-10.1658
box	-10.1665
▁separate	-10.1666
▁minds	-10.1668
▁drama	-10.1674
▁numb	-10.1675
▁alex	-10.1677
▁sandwich	-10.1679
▁margo	-10.168
▁drag	-10.1681
▁weather	-10.1681
▁favour	-10.1685
▁available	-10.1685
▁burmese	-10.1685
▁cheese	-10.1685
▁cherokee	-10.1685
▁eventually	-10.1685
▁harvard	-10.1685
▁hollywood	-10.1685
▁jennifer	-10.1685
▁jerry	-10.1685
▁revenge	-10.1685
▁senior	-10.1685
▁thompson	-10.1685
▁wrist	-10.1685
▁gittes	-10.1685
▁knowledge	-10.1685
▁natalie	-10.1685
▁ashamed	-10.1685
▁clinic	-10.1685
▁conference	-10.1685
▁iady	-10.1685
▁gallery	-10.1685
▁favourite	-10.1685
▁permission	-10.1685
▁trunk	-10.1685
▁existence	-10.1685
▁saint	-10.1685
▁editor	-10.1685
▁myers	-10.1685
▁motion	-10.1686
▁salad	-10.1686
▁conley	-10.1686
▁incident	-10.1686
▁planned	-10.1686
▁upb	-10.1686
▁package	-10.1686
▁russian	-10.1687
▁foolish	-10.1687
▁unlike	-10.1687
▁attractive	-10.1687
▁upper	-10.1687
▁basement	-10.1688
▁ranch	-10.1688
▁monk	-10.1688
▁coleman	-10.1689
▁stood	-10.1689
▁puffy	-10.169
▁clattering	-10.1695
▁becker	-10.1697
▁painful	-10.1697
▁prize	-10.1697
▁pancakes	-10.1698
▁barn	-10.1702
▁warned	-10.1714
▁wipe	-10.1718
▁massage	-10.1718
▁remove	-10.1719
▁manny	-10.1724
▁crashing	-10.1734
▁loaded	-10.1734
▁shitty	-10.1746
▁closet	-10.175
▁filled	-10.1751
▁tire	-10.1752
▁attacked	-10.177
▁treated	-10.178
▁carrying	-10.1789
▁image	-10.179
▁armed	-10.1798
▁marking	-10.1798
▁tryin	-10.1807
▁pounds	-10.1816
▁lover	-10.1816
▁recording	-10.1817
▁fishing	-10.1824
ism	-10.1828
▁dealer	-10.1871
▁blocks	-10.1871
▁chains	-10.1889
▁carrie	-10.1891
▁meaning	-10.1919
▁kings	-10.1933
▁fighter	-10.1933
▁ap	-10.1934
▁persons	-10.194
▁sins	-10.1949
▁mi	-10.1976
▁mis	-10.1983
ong	-10.2009
▁stays	-10.2009
▁all	-10.2017
▁axe	-10.2025
▁hunt	-10.2053
ow	-10.2054
▁contracts	-10.2063
▁po	-10.2073
▁realise	-10.2109
▁torture	-10.2125
▁owner	-10.2141
▁theme	-10.2141
▁maid	-10.2142
▁shadow	-10.2143
▁winter	-10.215
▁article	-10.2151
▁stake	-10.2153
▁chick	-10.2157
▁nightmare	-10.2158
▁somebodys	-10.2162
▁degree	-10.2163
▁string	-10.2166
▁aa	-10.2195
▁driver	-10.2196
▁rot	-10.2226
▁escort	-10.2234
▁eric	-10.2251
lacking	-10.2268
▁heip	-10.2276
▁panic	-10.2282
▁caii	-10.2284
▁challenge	-10.2286
▁pitch	-10.2293
▁victor	-10.2297
ium	-10.2301
▁corn	-10.2301
▁lucie	-10.2305
▁aim	-10.2307
▁iron	-10.2308
▁bush	-10.2309
▁instrument	-10.231
▁austin	-10.231
▁dallas	-10.231
▁easily	-10.231
▁garabedian	-10.231
▁instance	-10.231
▁intelligence	-10.231
▁jeanbaptiste	-10.231
▁mysterious	-10.231
▁outfit	-10.231
▁reckon	-10.231
▁syndicate	-10.231
▁thief	-10.231
▁helicopter	-10.231
▁sheldon	-10.231
▁technique	-10.231
▁chinese	-10.231
▁miracle	-10.231
▁duties	-10.231
▁downtown	-10.231
▁prescription	-10.231
▁division	-10.231
▁alert	-10.231
▁empire	-10.231
▁foster	-10.231
▁sarnt	-10.231
▁signature	-10.231
▁lazy	-10.231
▁unbelievable	-10.231
▁chapter	-10.231
▁comment	-10.231
▁jax	-10.231
▁simply	-10.231
▁brax	-10.231
▁megan	-10.231
▁poetry	-10.231
▁brian	-10.231
▁clever	-10.231
▁ripley	-10.231
▁kang	-10.2311
▁forgotten	-10.2311
▁bread	-10.2311
▁tallis	-10.2311
▁duh	-10.2311
▁bible	-10.2312
▁response	-10.2312
▁moron	-10.2312
▁frightened	-10.2312
▁testify	-10.2313
▁shattering	-10.2316
▁plain	-10.2316
▁convention	-10.2316
▁entry	-10.2318
▁bugger	-10.2321
▁spell	-10.2322
▁fourth	-10.2323
▁eli	-10.2324
▁disappointed	-10.2325
▁daniela	-10.2325
▁spider	-10.2326
▁coat	-10.2333
▁wounded	-10.2335
▁lower	-10.2337
▁ate	-10.2342
▁parties	-10.2343
▁millions	-10.2344
id	-10.2345
▁driven	-10.2354
▁loudly	-10.2354
▁specific	-10.2361
▁mayor	-10.2362
ster	-10.2362
▁skills	-10.2364
▁mayo	-10.2375
▁destroyed	-10.2377
▁toys	-10.2382
▁carefully	-10.239
▁equal	-10.24
▁towels	-10.2411
les	-10.2413
ily	-10.2416
▁pushed	-10.2431
▁backup	-10.2438
▁appears	-10.245
▁trained	-10.2458
▁min	-10.2472
▁gi	-10.2482
die	-10.2495
▁fa	-10.2496
▁dispatch	-10.2497
▁cookies	-10.2506
▁cuts	-10.2516
ens	-10.2528
iest	-10.2531
▁flats	-10.2537
▁noon	-10.2543
▁throwing	-10.255
▁li	-10.2572
▁kim	-10.2578
▁cleaning	-10.2582
ine	-10.2593
of	-10.2598
▁schools	-10.26
▁runs	-10.2611
▁hates	-10.2613
▁sub	-10.2632
▁lab	-10.266
▁guards	-10.2664
▁commit	-10.2688
▁civil	-10.2728
ied	-10.2735
▁guests	-10.2753
do	-10.2794
▁pound	-10.2796
▁appear	-10.2799
▁wound	-10.2803
ard	-10.2805
▁professor	-10.2806
▁brandi	-10.2809
▁fuel	-10.281
▁passage	-10.2811
▁classic	-10.2816
▁rabbit	-10.2819
▁tit	-10.2821
▁strike	-10.2823
▁monkey	-10.2824
▁source	-10.2825
▁beside	-10.2832
▁frankie	-10.2835
ged	-10.2843
ge	-10.285
▁develop	-10.2854
▁prayer	-10.2856
▁chop	-10.2868
▁cats	-10.2873
▁waited	-10.288
▁vote	-10.2891
▁joint	-10.2894
▁journal	-10.2902
▁machines	-10.2902
▁crush	-10.2903
▁india	-10.2907
▁lean	-10.2909
▁parts	-10.2912
▁pi	-10.2932
▁hung	-10.2941
▁flash	-10.2942
▁email	-10.2947
▁capture	-10.2955
▁courage	-10.2955
▁moral	-10.2956
▁spare	-10.2956
▁launch	-10.2966
▁ignore	-10.2968
▁proper	-10.2968
▁potato	-10.2971
▁cavendish	-10.2976
▁ceremony	-10.2976
▁corridor	-10.2976
▁dessert	-10.2976
▁fantasy	-10.2976
▁kendall	-10.2976
▁luke	-10.2976
▁perimeter	-10.2976
▁podcast	-10.2976
▁saviano	-10.2976
▁serving	-10.2976
▁thursday	-10.2976
▁unexpected	-10.2976
▁wednesday	-10.2976
▁broadcast	-10.2976
▁clamoring	-10.2976
▁gemini	-10.2976
▁juice	-10.2976
▁lorna	-10.2976
▁svenning	-10.2976
▁woogie	-10.2976
▁alien	-10.2976
▁custody	-10.2976
▁impact	-10.2976
▁stewart	-10.2976
▁duncan	-10.2976
▁journey	-10.2976
▁sheiiy	-10.2976
▁titties	-10.2976
▁hoghead	-10.2977
▁paradise	-10.2977
▁surgery	-10.2977
▁cheque	-10.2977
▁spoon	-10.2977
▁aaahhh	-10.2977
▁medicine	-10.2977
▁patrol	-10.2977
▁amount	-10.2977
▁impressive	-10.2977
▁slit	-10.2977
▁legend	-10.2977
▁possession	-10.2977
▁license	-10.2977
▁gear	-10.2977
▁cmon	-10.2977
▁approximately	-10.2978
▁section	-10.2978
▁shotgun	-10.2978
▁starving	-10.2978
▁wrapped	-10.2979
▁arse	-10.2979
▁heii	-10.2979
▁wise	-10.298
▁agreement	-10.298
▁soup	-10.298
▁skull	-10.298
▁cameron	-10.2981
▁yup	-10.2981
▁embarrassed	-10.2981
▁barry	-10.2983
▁creat	-10.2983
▁anne	-10.2983
▁liz	-10.2986
▁treatment	-10.2986
▁setting	-10.2987
▁healy	-10.2988
▁copies	-10.2989
▁stopping	-10.2989
▁eaten	-10.2992
▁sharply	-10.2993
▁sighing	-10.2995
▁earned	-10.2999
▁carson	-10.3004
▁naturally	-10.3004
▁kisses	-10.3009
▁ruined	-10.3011
▁louder	-10.3012
▁introduced	-10.3015
▁settled	-10.3019
ny	-10.303
▁manual	-10.3031
▁fate	-10.3035
▁studying	-10.3037
as	-10.3038
▁cap	-10.3039
▁considered	-10.3058
▁bitches	-10.307
▁messages	-10.3073
▁stripes	-10.3076
ball	-10.3078
▁anyways	-10.3082
▁steps	-10.3092
ja	-10.3095
v	-10.3099
▁edge	-10.3101
▁moves	-10.3122
▁baron	-10.313
am	-10.3132
▁reported	-10.3135
▁counting	-10.3135
▁pushing	-10.3151
line	-10.3177
▁ram	-10.3186
▁tu	-10.3207
ance	-10.3208
▁swans	-10.3241
ta	-10.3264
▁sp	-10.3266
▁songs	-10.3271
▁ne	-10.3301
un	-10.3311
cal	-10.3325
▁dings	-10.3333
▁fore	-10.3336
▁chickens	-10.3388
▁mer	-10.3412
▁scar	-10.3443
▁u	-10.3447
la	-10.3472
▁accounts	-10.3475
ated	-10.3494
▁beep	-10.3499
ical	-10.3502
▁result	-10.3503
▁jew	-10.3516
▁hills	-10.3517
▁effect	-10.3519
▁monet	-10.3522
▁score	-10.3524
▁arrive	-10.3527
▁under	-10.3534
▁uniform	-10.3537
▁mar	-10.354
▁zombie	-10.354
▁newspaper	-10.354
▁andrew	-10.3541
▁mountain	-10.3542
▁generation	-10.3545
▁pipe	-10.3556
▁aid	-10.3568
▁sale	-10.3579
▁crimes	-10.358
▁wolf	-10.3583
▁duck	-10.359
▁prisoner	-10.3609
▁poison	-10.3624
▁cheat	-10.3629
▁girlfriends	-10.3633
▁cameras	-10.3636
▁holes	-10.3647
▁heal	-10.3647
▁represent	-10.3651
▁stretch	-10.3653
▁stress	-10.3656
▁trump	-10.3656
▁powers	-10.366
▁resist	-10.366
▁iook	-10.3663
▁hits	-10.3665
▁cooper	-10.3667
▁inform	-10.3669
▁financial	-10.3675
▁puss	-10.3677
▁diner	-10.3678
▁committ	-10.3679
▁flow	-10.3683
▁tech	-10.3687
▁psychopath	-10.3688
▁arcamax	-10.3691
▁architect	-10.3691
▁bollocks	-10.3691
▁chayim	-10.3691
▁conscience	-10.3691
▁erika	-10.3691
▁fabulous	-10.3691
▁grateful	-10.3691
▁happiness	-10.3691
▁lobster	-10.3691
▁lynn	-10.3691
▁magua	-10.3691
▁miserable	-10.3691
▁ordinary	-10.3691
▁purchase	-10.3691
▁shaughnessy	-10.3691
▁spartan	-10.3691
▁survival	-10.3691
▁teldar	-10.3691
▁terribly	-10.3691
▁tiffany	-10.3691
▁vietnam	-10.3691
▁catholic	-10.3691
▁pamela	-10.3691
▁central	-10.3691
▁mystery	-10.3691
▁shakily	-10.3691
▁whimpers	-10.3691
▁whitney	-10.3691
▁jessica	-10.3691
▁penalty	-10.3691
▁squad	-10.3691
▁fridge	-10.3691
▁agency	-10.3691
▁anytime	-10.3691
▁argue	-10.3691
▁blake	-10.3691
▁marchino	-10.3691
▁reputation	-10.3691
▁unusual	-10.3691
▁turkey	-10.3691
▁authority	-10.3691
▁theory	-10.3691
▁allison	-10.3691
▁oracle	-10.3691
▁stabbed	-10.3691
▁audition	-10.3691
▁ollie	-10.3691
▁duke	-10.3691
▁rustling	-10.3691
▁francoise	-10.3691
▁cried	-10.3691
▁loyalty	-10.3691
▁lola	-10.3691
▁hyperion	-10.3691
▁retail	-10.3691
▁grandfather	-10.3691
▁bingo	-10.3691
▁childhood	-10.3691
▁urgent	-10.3691
▁jimmy	-10.3691
▁lousy	-10.3691
▁oleg	-10.3691
▁whatre	-10.3691
▁political	-10.3692
▁sacha	-10.3692
▁denny	-10.3692
▁sync	-10.3692
▁merk	-10.3692
▁facility	-10.3692
▁university	-10.3692
▁medication	-10.3692
▁drain	-10.3692
▁commitment	-10.3693
▁broad	-10.3693
▁began	-10.3693
▁bam	-10.3693
▁generous	-10.3693
▁wives	-10.3693
▁agh	-10.3693
▁treasure	-10.3693
▁sword	-10.3694
▁dishes	-10.3694
▁dull	-10.3694
▁judgment	-10.3695
▁sensitive	-10.3695
▁grey	-10.3695
▁rear	-10.3695
▁brent	-10.3695
▁tucker	-10.3697
▁button	-10.3699
▁creepy	-10.37
▁fuckedup	-10.3703
▁growling	-10.3703
▁andie	-10.3704
▁deny	-10.3705
▁straining	-10.3705
▁impressed	-10.3706
▁sobs	-10.3708
▁germany	-10.3709
▁mankind	-10.3712
▁hum	-10.3712
▁dearest	-10.3715
▁stairs	-10.3719
▁gook	-10.3722
▁horny	-10.3723
▁growls	-10.3727
▁when	-10.3728
▁moments	-10.3731
▁toes	-10.3734
▁balance	-10.374
▁becom	-10.374
▁tools	-10.3741
▁busted	-10.3747
▁hooker	-10.3749
▁normally	-10.3751
▁documents	-10.3752
▁pie	-10.3765
ol	-10.3766
▁deserved	-10.3767
▁forest	-10.3784
▁wally	-10.3784
solid	-10.3793
▁fed	-10.3796
▁port	-10.3799
▁recorded	-10.3812
ma	-10.3816
what	-10.3817
▁shouts	-10.383
▁den	-10.3852
▁prisoners	-10.3853
▁prayers	-10.3857
▁pleased	-10.3858
▁stands	-10.3864
▁kissed	-10.3866
▁leak	-10.3867
▁highly	-10.3881
▁clips	-10.3886
▁dancer	-10.3894
▁kicking	-10.3925
▁cleaned	-10.3925
ey	-10.3926
▁odds	-10.3942
be	-10.3942
▁tend	-10.3946
▁lawyers	-10.3948
▁eggs	-10.3953
ya	-10.3958
▁ghosts	-10.3998
▁oi	-10.4007
ile	-10.4015
▁imprint	-10.402
some	-10.4074
▁ac	-10.4081
▁rate	-10.4105
▁forces	-10.4112
▁touching	-10.4115
ab	-10.4117
way	-10.4118
▁du	-10.4119
▁snap	-10.412
▁units	-10.4127
ina	-10.4143
io	-10.4145
od	-10.4166
▁damned	-10.418
▁virgin	-10.4216
▁sa	-10.4249
▁fee	-10.4262
▁season	-10.4267
▁compliment	-10.4272
▁cultur	-10.4274
▁shout	-10.4278
▁pr	-10.4281
▁contain	-10.4283
▁deserves	-10.4284
▁tee	-10.429
▁slut	-10.429
▁object	-10.4302
▁appointment	-10.4302
▁direction	-10.4304
▁covers	-10.4306
▁standard	-10.4306
▁chamber	-10.4307
▁brick	-10.4309
▁neighbor	-10.431
▁option	-10.4315
▁shoe	-10.4323
▁unlock	-10.4327
▁brains	-10.4327
cy	-10.4335
▁burns	-10.4347
▁del	-10.4347
▁product	-10.4369
ern	-10.4379
ac	-10.4382
▁kiii	-10.4383
▁defend	-10.439
ons	-10.4391
▁jess	-10.4407
drew	-10.4415
▁collect	-10.4422
book	-10.4431
▁golf	-10.4431
▁direct	-10.4437
▁grant	-10.4437
▁twist	-10.4439
▁describe	-10.4441
▁convince	-10.4441
▁determine	-10.4443
▁update	-10.4445
▁pacific	-10.4446
▁refuse	-10.4446
▁faint	-10.4447
▁recent	-10.4448
▁actual	-10.4449
pped	-10.4453
▁beck	-10.4454
ank	-10.4454
▁critic	-10.4455
▁birt	-10.4459
▁mimi	-10.4459
▁couid	-10.4459
▁casual	-10.446
▁abbess	-10.446
▁abbey	-10.446
▁anniversary	-10.446
▁baylor	-10.446
▁bronson	-10.446
▁cincinnati	-10.446
▁coakley	-10.446
▁creek	-10.446
▁dennis	-10.446
▁fifteen	-10.446
▁fruit	-10.446
▁goddammit	-10.446
▁grimsby	-10.446
▁munro	-10.446
▁museum	-10.446
▁promotion	-10.446
▁sunshine	-10.446
▁underneath	-10.446
▁anacott	-10.446
▁pleasant	-10.446
▁struggle	-10.446
▁vocalizing	-10.446
▁beloved	-10.446
▁consulate	-10.446
▁reveal	-10.446
▁authorities	-10.446
▁infirmary	-10.446
▁northcott	-10.446
▁sylvia	-10.446
▁brakes	-10.446
▁tap	-10.446
▁declan	-10.446
▁delicious	-10.446
▁fizel	-10.446
▁giggling	-10.446
▁keith	-10.446
▁begging	-10.446
▁scotch	-10.446
▁digging	-10.446
▁irene	-10.446
▁trudy	-10.446
▁pillow	-10.446
▁plague	-10.446
▁thrill	-10.446
▁carpet	-10.446
▁soap	-10.446
▁dunno	-10.446
▁bowden	-10.446
▁mitch	-10.446
▁debbie	-10.446
▁organization	-10.446
▁ruddy	-10.446
▁aspro	-10.446
▁jonas	-10.446
▁sonmi	-10.446
▁universe	-10.446
▁library	-10.446
▁sixsmith	-10.446
▁tobin	-10.4461
▁families	-10.4461
▁kung	-10.4461
▁donkey	-10.4461
▁darian	-10.4461
▁rope	-10.4461
▁loving	-10.4461
▁communicate	-10.4461
▁fork	-10.4461
▁massive	-10.4461
▁arrival	-10.4461
▁amat	-10.4461
▁reaiiy	-10.4461
▁chatting	-10.4461
▁haunt	-10.4461
▁expression	-10.4462
▁greve	-10.4462
▁curious	-10.4462
▁condor	-10.4462
▁exchange	-10.4462
▁lightning	-10.4462
▁freezing	-10.4462
▁shelley	-10.4462
▁raiden	-10.4463
▁habit	-10.4463
▁inches	-10.4463
▁baked	-10.4464
▁quality	-10.4464
▁effective	-10.4464
▁eden	-10.4464
▁discussion	-10.4465
▁sniper	-10.4465
▁secretary	-10.4465
▁lemon	-10.4466
▁homework	-10.4466
▁potatoes	-10.4466
▁cliff	-10.4466
▁witch	-10.4467
▁century	-10.4468
▁miller	-10.4469
▁faithful	-10.447
▁goldman	-10.447
▁spoken	-10.4473
▁shine	-10.4473
▁thee	-10.4475
▁sato	-10.4476
▁roaring	-10.4476
▁matches	-10.4478
▁handcuffs	-10.4478
▁convinced	-10.4478
▁heels	-10.4479
▁refused	-10.4482
▁connected	-10.4482
▁requesting	-10.4482
▁highness	-10.4483
▁seats	-10.4486
▁granted	-10.4487
▁cheated	-10.4489
▁lao	-10.449
aw	-10.4491
▁title	-10.4491
▁released	-10.4496
▁cursed	-10.4498
▁gathered	-10.4498
▁phones	-10.4498
▁sealed	-10.4498
▁cheating	-10.45
▁passes	-10.4503
▁concept	-10.4504
by	-10.4505
▁survived	-10.4506
▁timing	-10.4508
▁ad	-10.4511
ud	-10.4512
▁suffered	-10.4518
▁delivered	-10.452
▁wayne	-10.4529
▁heroin	-10.4531
▁fae	-10.4533
her	-10.4543
ture	-10.4547
▁resumes	-10.455
▁filed	-10.4553
▁lads	-10.4562
▁epi	-10.4565
▁makeup	-10.4566
ble	-10.4571
▁joined	-10.4572
bag	-10.4581
▁impression	-10.4591
▁blessing	-10.4595
▁messed	-10.4599
▁the	-10.4609
▁tag	-10.4613
▁banks	-10.4613
▁mon	-10.4617
▁joints	-10.4637
▁ra	-10.4637
▁pink	-10.4649
▁que	-10.4652
▁shooter	-10.4674
ik	-10.4674
▁cave	-10.4681
▁enjoying	-10.4684
he	-10.4703
▁culture	-10.4703
que	-10.4705
▁williams	-10.4732
▁affairs	-10.4769
oh	-10.4769
▁bra	-10.4801
▁monsters	-10.4806
▁pow	-10.4815
▁bombs	-10.4822
▁mommys	-10.4822
▁falls	-10.4826
▁kin	-10.483
▁fu	-10.484
▁orleans	-10.4843
▁jam	-10.4847
▁trans	-10.4848
▁shots	-10.486
▁spi	-10.4882
▁horses	-10.4894
▁bon	-10.4929
▁badly	-10.4942
▁for	-10.4961
▁clap	-10.4964
▁shorts	-10.4966
▁handed	-10.4972
▁types	-10.4978
▁earn	-10.498
▁thud	-10.4986
▁teachers	-10.5
▁noises	-10.5018
▁breaths	-10.5025
▁insist	-10.5044
light	-10.5066
▁pe	-10.5068
wa	-10.5088
▁marks	-10.5089
▁award	-10.5095
▁pervert	-10.51
▁log	-10.5102
▁detail	-10.5118
▁theater	-10.5123
▁blast	-10.5125
▁rooms	-10.513
▁clyde	-10.5131
▁clone	-10.5131
▁tuesday	-10.5132
▁non	-10.5135
▁meal	-10.5142
▁cow	-10.5146
▁rap	-10.5148
▁parent	-10.5153
▁ru	-10.5155
▁gl	-10.5165
▁ja	-10.5174
▁points	-10.518
▁fuckers	-10.5187
▁clas	-10.5192
▁scratch	-10.5216
▁wins	-10.5218
▁lo	-10.5226
▁idiots	-10.5227
▁punk	-10.5228
▁indian	-10.523
jo	-10.5244
▁insult	-10.5253
wood	-10.5253
▁discover	-10.5254
▁express	-10.5257
▁glow	-10.5258
▁weep	-10.5261
▁slave	-10.5261
▁ambush	-10.5262
▁sink	-10.5265
▁mix	-10.5267
▁soph	-10.5268
▁junk	-10.5268
▁anti	-10.5268
reader	-10.5273
▁dial	-10.5276
▁bond	-10.5281
▁gentle	-10.5291
▁essential	-10.5293
▁selfdefense	-10.5293
▁typical	-10.5293
▁babbitt	-10.5293
▁barclay	-10.5293
▁beneath	-10.5293
▁companies	-10.5293
▁connie	-10.5293
▁damien	-10.5293
▁district	-10.5293
▁elbow	-10.5293
▁explanation	-10.5293
▁insect	-10.5293
▁katherine	-10.5293
▁lutz	-10.5293
▁nathaniel	-10.5293
▁nonsense	-10.5293
▁nuclear	-10.5293
▁paranoid	-10.5293
▁racist	-10.5293
▁residence	-10.5293
▁swallow	-10.5293
▁temporary	-10.5293
▁toothpicks	-10.5293
▁bertie	-10.5293
▁turtle	-10.5293
▁tricia	-10.5293
▁autopsy	-10.5293
▁anderson	-10.5293
▁wing	-10.5293
▁arcana	-10.5293
▁hubba	-10.5293
▁negative	-10.5293
▁rahil	-10.5293
▁analyst	-10.5293
▁briefcase	-10.5293
▁casper	-10.5293
▁oscar	-10.5293
▁wasting	-10.5293
▁assistance	-10.5293
▁clink	-10.5293
▁tele	-10.5293
▁dillon	-10.5293
▁cyrus	-10.5293
▁connor	-10.5293
▁lisa	-10.5293
▁oak	-10.5293
▁kmart	-10.5293
▁rafto	-10.5294
▁surrender	-10.5294
▁false	-10.5294
▁invitation	-10.5294
▁random	-10.5294
▁slide	-10.5294
▁fetch	-10.5294
▁kingdom	-10.5294
▁inaudible	-10.5294
▁decade	-10.5294
▁denial	-10.5294
▁falk	-10.5294
▁classified	-10.5294
▁lottery	-10.5294
▁typing	-10.5294
▁grid	-10.5294
▁password	-10.5294
▁locks	-10.5294
▁concert	-10.5294
▁popular	-10.5294
▁pattern	-10.5294
▁studio	-10.5294
▁santa	-10.5294
▁sittin	-10.5295
▁titty	-10.5295
▁michelle	-10.5295
▁aka	-10.5295
▁blah	-10.5296
▁dna	-10.5296
▁supply	-10.5296
▁extraordinary	-10.5296
▁sway	-10.5296
▁advantage	-10.5296
▁elvis	-10.5296
▁floorboard	-10.5296
▁daily	-10.5296
▁franco	-10.5296
▁after	-10.5296
▁aboard	-10.5296
▁shave	-10.5297
▁announcement	-10.5297
▁ashes	-10.5297
▁suggestion	-10.5298
▁personality	-10.5299
▁peterson	-10.5299
▁critical	-10.5299
▁kiddo	-10.53
▁solo	-10.53
▁hopefully	-10.53
▁gage	-10.53
▁deai	-10.5301
▁dismissed	-10.5301
▁technically	-10.5302
▁fallen	-10.5302
▁cum	-10.5303
▁robin	-10.5303
▁deck	-10.5303
▁chunk	-10.5303
▁momma	-10.5304
▁rice	-10.5304
▁threatened	-10.5304
▁apply	-10.5306
▁stigman	-10.5306
▁abandoned	-10.5306
▁factory	-10.5307
▁threatening	-10.5307
▁adopted	-10.5309
▁sixth	-10.5311
▁requested	-10.5311
▁iet	-10.5311
▁designed	-10.5314
▁tres	-10.5315
▁iive	-10.5315
▁officially	-10.5316
▁confessed	-10.5318
▁pint	-10.5318
▁yale	-10.5319
▁whoot	-10.5324
tch	-10.5325
▁tail	-10.5325
▁judy	-10.5325
▁euros	-10.5326
▁unconscious	-10.5327
▁useful	-10.5328
ise	-10.5331
▁divorced	-10.5333
▁yorkin	-10.5337
▁scaring	-10.5337
▁hint	-10.5341
▁ham	-10.5343
▁cha	-10.5344
▁fingerprints	-10.5352
▁exercise	-10.5359
▁easter	-10.5362
▁vend	-10.5371
▁waves	-10.5379
▁mass	-10.5388
▁accepted	-10.5392
▁ricky	-10.5392
▁knocked	-10.5393
▁charged	-10.5407
like	-10.5418
▁adams	-10.5431
▁scientists	-10.5431
▁plug	-10.5457
▁jon	-10.5461
▁tub	-10.5462
▁mountains	-10.5471
▁arrives	-10.5473
▁enjoyed	-10.5476
▁ag	-10.5487
▁degrees	-10.5497
▁reaching	-10.5501
▁scan	-10.5501
▁receive	-10.5504
▁app	-10.5505
▁sports	-10.5525
▁sis	-10.556
▁pages	-10.5565
▁maniac	-10.5581
ker	-10.5584
▁sas	-10.5585
▁reminds	-10.5591
ham	-10.5601
▁estimate	-10.5615
▁waitin	-10.5616
▁sch	-10.5638
▁gr	-10.5718
▁bun	-10.5722
well	-10.5766
ating	-10.5766
▁fans	-10.5785
▁can	-10.5805
▁roses	-10.5805
ca	-10.581
▁ima	-10.5812
ologist	-10.5823
▁partners	-10.5873
▁caused	-10.5874
ur	-10.5877
▁col	-10.5893
ad	-10.5899
▁tricks	-10.5926
▁liquid	-10.5934
▁mortal	-10.5936
▁chi	-10.5975
▁finds	-10.5979
▁mas	-10.599
▁mexican	-10.6032
▁grandpa	-10.6033
▁inter	-10.6038
▁gain	-10.6039
▁cuff	-10.604
▁servant	-10.604
▁nerve	-10.6042
▁fist	-10.6043
▁accountant	-10.6043
▁traitor	-10.6044
▁creature	-10.6045
▁motorcycle	-10.6047
▁cowboy	-10.6047
▁shark	-10.6049
▁material	-10.6053
▁scientist	-10.6053
▁rep	-10.6054
▁skip	-10.6054
▁towel	-10.6055
▁folk	-10.6059
▁mid	-10.6064
▁flower	-10.6071
▁nasa	-10.6083
▁para	-10.6091
while	-10.6091
▁leads	-10.6097
▁harm	-10.6099
back	-10.6101
▁confess	-10.6106
rus	-10.6112
▁ni	-10.612
▁studie	-10.6121
▁drawing	-10.6122
▁journalist	-10.6136
▁hahaha	-10.6136
▁drown	-10.6139
▁creep	-10.6152
▁pub	-10.6159
▁row	-10.6163
▁bargain	-10.6166
▁au	-10.6166
▁signor	-10.6167
▁echo	-10.6167
▁mob	-10.617
field	-10.6172
yearold	-10.6181
town	-10.6181
▁brand	-10.6184
▁appropriate	-10.6186
▁spin	-10.6187
▁guilt	-10.6191
▁comb	-10.6192
▁ital	-10.6192
▁q	-10.6193
▁worm	-10.6196
▁bare	-10.6198
▁leavin	-10.62
▁patch	-10.62
▁retire	-10.6201
▁weakness	-10.6201
▁cruel	-10.6201
▁eleven	-10.6202
▁stereo	-10.6202
▁alcohol	-10.6202
▁assaad	-10.6202
▁bacon	-10.6202
▁candidate	-10.6202
▁colonel	-10.6202
▁council	-10.6202
▁exploding	-10.6202
▁firephina	-10.6202
▁greek	-10.6202
▁honeymoon	-10.6202
▁identify	-10.6202
▁jefe	-10.6202
▁kirby	-10.6202
▁knives	-10.6202
▁litvenko	-10.6202
▁marzzone	-10.6202
▁nigga	-10.6202
▁patience	-10.6202
▁peopie	-10.6202
▁pierrot	-10.6202
▁proposal	-10.6202
▁ronnie	-10.6202
▁scenario	-10.6202
▁select	-10.6202
▁shouid	-10.6202
▁solution	-10.6202
▁stegman	-10.6202
▁strict	-10.6202
▁suspicious	-10.6202
▁unhappy	-10.6202
▁wilkes	-10.6202
▁eurostream	-10.6202
▁karras	-10.6202
▁niece	-10.6202
▁chemical	-10.6202
▁kungfu	-10.6202
▁overmeyer	-10.6202
▁distort	-10.6202
▁buddies	-10.6202
▁parrish	-10.6202
▁quincy	-10.6202
▁twoshoes	-10.6202
▁struck	-10.6202
▁eliza	-10.6202
▁database	-10.6202
▁scholarship	-10.6202
▁feast	-10.6202
▁petrie	-10.6202
▁ambition	-10.6202
▁panties	-10.6203
▁unto	-10.6203
▁mathias	-10.6203
▁unknown	-10.6203
▁eloise	-10.6203
▁crank	-10.6203
▁tess	-10.6203
▁babysitter	-10.6203
▁rattle	-10.6203
▁flashlight	-10.6203
▁beef	-10.6203
▁charity	-10.6203
▁roman	-10.6203
▁description	-10.6203
▁combat	-10.6203
▁thread	-10.6203
▁bail	-10.6203
▁governor	-10.6203
▁huron	-10.6203
▁biii	-10.6203
▁wallace	-10.6203
▁danny	-10.6203
▁noah	-10.6203
▁conduct	-10.6203
▁infected	-10.6203
▁politics	-10.6203
▁begun	-10.6204
▁temper	-10.6204
▁igby	-10.6204
▁lionel	-10.6204
▁molly	-10.6204
▁steam	-10.6204
▁selfish	-10.6204
▁task	-10.6204
▁confirmation	-10.6204
▁production	-10.6205
▁soil	-10.6205
▁penny	-10.6205
▁bruno	-10.6205
▁brodie	-10.6205
▁stalker	-10.6205
▁castle	-10.6205
▁poet	-10.6206
▁tsk	-10.6206
▁danielle	-10.6206
▁redwood	-10.6206
▁obsessed	-10.6206
▁supper	-10.6206
▁adele	-10.6207
▁runner	-10.6207
▁cries	-10.6207
▁clapping	-10.6207
▁annoying	-10.6208
▁sniffing	-10.6208
▁preserve	-10.6209
▁pork	-10.6209
▁afterwards	-10.621
▁emma	-10.621
▁embarrassing	-10.6211
▁applauding	-10.6211
▁committee	-10.6211
▁classical	-10.6211
▁lame	-10.6213
▁robbed	-10.6214
▁related	-10.6214
▁sore	-10.6218
▁faintly	-10.6218
▁advised	-10.6219
▁squeaking	-10.6221
▁debt	-10.6222
▁exclaims	-10.6224
▁witnesses	-10.6227
▁shy	-10.6229
▁drowned	-10.6232
▁lane	-10.6232
▁eve	-10.6235
▁useless	-10.6236
▁sandy	-10.6237
▁z	-10.6238
▁condoms	-10.6238
▁blown	-10.624
▁straighten	-10.624
▁scotty	-10.6241
▁meantime	-10.6247
▁dolly	-10.6254
ay	-10.6254
▁ton	-10.6259
▁hump	-10.6264
▁clatters	-10.6267
▁squeals	-10.6267
▁ants	-10.6269
▁fairy	-10.628
▁embrace	-10.6281
▁commence	-10.6281
▁mont	-10.6283
▁finest	-10.6289
▁function	-10.6289
▁belly	-10.6294
▁acts	-10.6298
▁hen	-10.6299
▁childs	-10.63
▁umm	-10.6303
▁ka	-10.6303
ttle	-10.6307
▁rene	-10.6308
▁rumors	-10.6311
ways	-10.6316
▁qu	-10.6326
▁cooked	-10.6343
▁tracking	-10.6352
▁riding	-10.6356
▁sucking	-10.6357
▁uns	-10.6368
▁bags	-10.6373
▁testing	-10.6382
▁neighbors	-10.6383
▁workers	-10.6386
for	-10.6392
▁abs	-10.6392
▁pipes	-10.6398
ul	-10.6403
▁laying	-10.6412
▁parish	-10.6416
▁am	-10.642
▁wig	-10.6426
▁diet	-10.6428
ide	-10.6436
▁murders	-10.6437
right	-10.6442
▁claims	-10.6443
ki	-10.6444
▁sl	-10.6446
▁dreamed	-10.6454
▁pets	-10.6456
▁guts	-10.6465
▁masters	-10.647
▁officials	-10.65
ir	-10.6519
post	-10.6563
▁speakers	-10.6567
▁bug	-10.6576
ang	-10.6583
▁keeper	-10.6584
▁remains	-10.659
▁til	-10.6595
▁bowl	-10.6599
so	-10.6602
▁listened	-10.6618
▁dot	-10.6619
▁mc	-10.6621
▁psych	-10.6662
ba	-10.6667
bo	-10.667
mber	-10.6701
▁pl	-10.6706
ox	-10.6708
▁jen	-10.6727
▁spirits	-10.6751
▁gunshots	-10.6751
leg	-10.6763
end	-10.6768
▁relationships	-10.6796
ver	-10.6797
▁mel	-10.68
▁tops	-10.6807
▁gal	-10.6807
▁bee	-10.6825
ella	-10.6855
om	-10.686
▁prices	-10.6871
▁babys	-10.6885
side	-10.6898
over	-10.6912
▁dies	-10.6916
▁woo	-10.6927
▁site	-10.693
▁films	-10.6934
▁ab	-10.6946
▁connect	-10.6976
ding	-10.6981
▁cu	-10.7
▁me	-10.7007
▁howl	-10.7011
its	-10.7013
▁bark	-10.7014
hi	-10.7016
▁limit	-10.7022
▁guitar	-10.7032
▁protocol	-10.7032
▁ieave	-10.7032
▁yank	-10.704
▁homicide	-10.704
▁tiger	-10.704
▁settlement	-10.7044
▁diamond	-10.7044
▁abortion	-10.7045
▁scare	-10.7046
▁investigator	-10.7047
▁stammer	-10.7049
▁sup	-10.705
▁shriek	-10.705
▁employee	-10.705
▁chuckle	-10.7061
▁term	-10.7064
▁drawer	-10.7068
▁drum	-10.7069
▁engineer	-10.7088
we	-10.7095
▁fift	-10.7096
▁reads	-10.7097
fuck	-10.71
▁womans	-10.7115
▁worship	-10.7117
▁eva	-10.712
▁volunteer	-10.7125
▁complain	-10.7128
▁formal	-10.7128
fire	-10.7131
▁respond	-10.7132
▁disturb	-10.7137
eur	-10.714
room	-10.7143
▁uhuh	-10.7168
▁commission	-10.7168
▁monitor	-10.7168
▁drill	-10.7169
▁bunk	-10.7171
▁prevent	-10.7173
▁betray	-10.7175
range	-10.7178
▁propose	-10.7179
ability	-10.718
school	-10.7181
▁include	-10.7182
▁squeeze	-10.7183
▁advise	-10.7184
ual	-10.7184
▁ke	-10.7184
▁tanner	-10.7189
▁chart	-10.719
▁incredibl	-10.7191
▁link	-10.7193
▁tuck	-10.7194
▁alleged	-10.7196
▁earl	-10.72
▁fran	-10.72
▁occasion	-10.7201
▁hollis	-10.7201
▁confident	-10.7202
▁forbid	-10.7202
▁academy	-10.7202
▁apologise	-10.7202
▁aurelia	-10.7202
▁awkward	-10.7202
▁baltimore	-10.7202
▁behavior	-10.7202
▁brooklyn	-10.7202
▁campaign	-10.7202
▁centuries	-10.7202
▁confidence	-10.7202
▁conservative	-10.7202
▁darien	-10.7202
▁disagree	-10.7202
▁exclusive	-10.7202
▁filip	-10.7202
▁greece	-10.7202
▁helmet	-10.7202
▁hyah	-10.7202
▁industry	-10.7202
▁itaiian	-10.7202
▁kazakhstan	-10.7202
▁leila	-10.7202
▁length	-10.7202
▁marquis	-10.7202
▁opposite	-10.7202
▁ottersen	-10.7202
▁patrizia	-10.7202
▁platform	-10.7202
▁procedure	-10.7202
▁quarantine	-10.7202
▁religion	-10.7202
▁resources	-10.7202
▁sausage	-10.7202
▁schreber	-10.7202
▁scissors	-10.7202
▁sidewalk	-10.7202
▁testimony	-10.7202
▁tshirt	-10.7202
▁unfair	-10.7202
▁violin	-10.7202
▁yvonne	-10.7202
▁bachelor	-10.7202
▁cruces	-10.7202
▁haji	-10.7202
▁hawaii	-10.7202
▁lucy	-10.7202
▁myrtle	-10.7202
▁naughty	-10.7202
▁revolution	-10.7202
▁tournament	-10.7202
▁visual	-10.7202
▁clemens	-10.7202
▁columbia	-10.7202
▁crystal	-10.7202
▁equipment	-10.7202
▁hottest	-10.7202
▁harris	-10.7202
▁modern	-10.7202
▁offsho	-10.7202
▁swimming	-10.7202
▁talbot	-10.7202
▁ultimate	-10.7202
▁aisle	-10.7202
▁allegations	-10.7202
▁smack	-10.7202
▁tennis	-10.7202
▁coincidence	-10.7202
▁harold	-10.7202
▁temperature	-10.7202
▁halsey	-10.7202
▁baldini	-10.7202
▁borat	-10.7202
▁faggot	-10.7202
▁forbidden	-10.7202
▁apology	-10.7202
▁blink	-10.7202
▁brutal	-10.7202
▁alvarez	-10.7202
▁dignity	-10.7202
▁recall	-10.7202
▁sahar	-10.7202
▁stiff	-10.7202
▁clarissa	-10.7202
▁engagement	-10.7202
▁yonas	-10.7202
▁commercial	-10.7202
▁cartoon	-10.7203
▁landlord	-10.7203
▁minimum	-10.7203
▁capital	-10.7203
▁pudding	-10.7203
▁disorder	-10.7203
▁celebrating	-10.7203
▁abide	-10.7203
▁series	-10.7203
▁jeff	-10.7203
▁weiss	-10.7203
▁bennie	-10.7203
▁pickett	-10.7203
▁appearance	-10.7203
▁rotten	-10.7203
▁avery	-10.7203
▁magda	-10.7203
▁chasing	-10.7203
▁prosecution	-10.7203
▁gym	-10.7203
▁blanket	-10.7203
▁wiley	-10.7203
▁gerry	-10.7203
▁tragedy	-10.7203
▁harassment	-10.7203
▁unique	-10.7203
▁sanford	-10.7203
▁mummy	-10.7203
▁knight	-10.7203
▁reception	-10.7203
▁prophet	-10.7203
▁mamma	-10.7203
▁luisa	-10.7203
▁prosecutor	-10.7203
▁solara	-10.7203
▁lime	-10.7203
▁skinny	-10.7204
▁meg	-10.7204
▁nigger	-10.7204
▁couidnt	-10.7204
▁surgeon	-10.7204
▁batteries	-10.7204
▁jaw	-10.7204
▁multiple	-10.7204
▁disappointment	-10.7204
▁possibility	-10.7204
▁harvey	-10.7204
▁bonus	-10.7204
▁couch	-10.7204
▁virginity	-10.7204
▁geez	-10.7205
▁nearby	-10.7205
▁dropping	-10.7205
▁vital	-10.7205
▁thang	-10.7205
▁toss	-10.7205
▁firefall	-10.7205
▁chloe	-10.7205
▁investment	-10.7205
▁territory	-10.7206
▁whooshes	-10.7206
▁role	-10.7206
▁toro	-10.7206
▁taxes	-10.7206
▁booth	-10.7206
▁profile	-10.7207
▁retarded	-10.7207
▁pump	-10.7208
▁sandman	-10.7208
▁entertainer	-10.7208
▁exclaiming	-10.7208
▁sully	-10.7208
▁barrett	-10.7209
▁shaking	-10.7209
▁extend	-10.7209
▁cee	-10.7209
ck	-10.7209
▁carved	-10.721
▁pence	-10.721
▁presentation	-10.721
▁depressed	-10.721
▁loop	-10.721
▁humanity	-10.721
▁aida	-10.7212
▁whooping	-10.7213
▁fag	-10.7213
▁owned	-10.7214
▁kiiier	-10.7215
▁slipped	-10.7215
▁winning	-10.7216
▁pole	-10.7217
▁cr	-10.7219
▁required	-10.7219
▁wh	-10.722
dy	-10.7222
▁surprises	-10.7223
amo	-10.7224
▁weed	-10.7224
▁madame	-10.7224
▁shithole	-10.7225
▁gloves	-10.7227
▁socks	-10.7227
▁dieter	-10.7233
▁jane	-10.7233
▁actor	-10.7233
▁sean	-10.7235
▁mixed	-10.7236
▁separated	-10.7236
▁hunter	-10.7238
▁delivery	-10.7238
▁disturbing	-10.7239
▁dyer	-10.7239
▁jude	-10.724
▁barbie	-10.724
▁passengers	-10.7242
▁bargaining	-10.7243
▁range	-10.7244
▁crackles	-10.7244
▁float	-10.7245
ping	-10.7245
ane	-10.7246
▁sexually	-10.7246
icles	-10.7251
▁ize	-10.7252
▁mistaken	-10.7254
▁comms	-10.7257
▁jar	-10.7257
▁valu	-10.7257
▁rustles	-10.7259
▁lure	-10.726
▁dumped	-10.7265
▁assumed	-10.7266
▁entirely	-10.7279
ney	-10.728
▁babes	-10.7283
▁quicker	-10.7286
▁slower	-10.7288
▁proved	-10.7291
▁realm	-10.7293
▁thinkin	-10.7296
▁shortly	-10.7299
ha	-10.7303
▁dozens	-10.7306
▁champions	-10.7306
▁rippers	-10.7307
▁lungs	-10.7308
▁emotions	-10.7308
▁sew	-10.731
j	-10.7315
▁divers	-10.7316
▁bombing	-10.7318
▁shutter	-10.7319
▁booge	-10.7319
▁sheets	-10.7323
▁vows	-10.7323
▁requires	-10.7323
▁chips	-10.7325
ines	-10.7326
▁prayed	-10.7326
▁clouds	-10.734
▁worthy	-10.7343
life	-10.7363
▁stealing	-10.7367
▁materials	-10.737
▁returned	-10.7372
ible	-10.7377
▁mil	-10.7386
oon	-10.7388
▁shown	-10.7394
▁fe	-10.7402
▁cor	-10.7415
▁replace	-10.7426
▁concentrate	-10.7432
ung	-10.7436
▁cd	-10.7443
ids	-10.7446
▁visions	-10.7468
ri	-10.747
▁est	-10.7474
▁kicks	-10.7477
vey	-10.7483
▁adults	-10.7501
ins	-10.7529
▁yards	-10.7532
▁actions	-10.755
▁rats	-10.7577
val	-10.7581
▁io	-10.7589
▁gates	-10.7616
▁concerns	-10.7617
▁shite	-10.7645
ff	-10.7646
▁pas	-10.7664
▁answered	-10.7671
▁cigarettes	-10.7681
▁sum	-10.7685
▁rec	-10.7695
▁cleared	-10.7696
▁mini	-10.7697
▁drops	-10.7718
▁she	-10.7719
▁figures	-10.7726
▁ti	-10.7748
▁gu	-10.7753
more	-10.7758
▁trusted	-10.776
▁dec	-10.7765
▁imagin	-10.7782
▁od	-10.7801
▁dim	-10.7829
ath	-10.7831
▁hangs	-10.7853
▁kills	-10.7854
ke	-10.7875
▁tin	-10.7887
▁tracks	-10.7892
▁flip	-10.7923
ious	-10.7931
▁tellin	-10.794
▁sur	-10.7944
▁clubs	-10.7947
▁inc	-10.7959
▁to	-10.7961
▁design	-10.7968
▁stripe	-10.7992
▁chin	-10.8001
simila	-10.8019
▁ju	-10.802
▁aj	-10.8026
▁builds	-10.8035
▁mat	-10.804
▁bid	-10.8042
▁photograph	-10.8059
▁pea	-10.8065
verage	-10.8065
▁wars	-10.8084
ence	-10.8085
▁depend	-10.8097
▁host	-10.8107
▁clip	-10.8108
▁spill	-10.811
▁wo	-10.8114
per	-10.8117
▁rocket	-10.812
▁mac	-10.8128
▁tan	-10.8136
▁cocktail	-10.8143
▁gasp	-10.8144
▁fade	-10.8145
▁warrior	-10.8151
▁myth	-10.8151
▁reservation	-10.8152
▁presents	-10.8153
▁profit	-10.8154
▁breast	-10.8155
▁snack	-10.816
▁stream	-10.8161
▁cloud	-10.8163
▁visitor	-10.8165
▁tourist	-10.8166
▁sheriffs	-10.8167
▁cable	-10.8171
▁exhale	-10.8171
▁mu	-10.8178
▁killers	-10.818
▁coin	-10.8193
tone	-10.8198
▁stores	-10.82
▁pope	-10.8218
▁shack	-10.8224
▁amo	-10.8232
▁conversations	-10.8236
▁dam	-10.8241
▁breed	-10.8241
▁interrupt	-10.8241
▁disappoint	-10.8246
▁meetings	-10.8272
▁sweep	-10.8274
▁grind	-10.8278
▁franc	-10.8279
▁bio	-10.8283
▁recommend	-10.8283
▁plea	-10.8285
pitched	-10.8286
▁bald	-10.8287
▁defeat	-10.8287
▁disguise	-10.829
▁wink	-10.829
▁medic	-10.8292
called	-10.8294
▁solve	-10.8297
▁rank	-10.8298
▁trail	-10.8299
▁charm	-10.83
▁fianc	-10.8301
▁caf	-10.8306
bound	-10.831
▁inject	-10.8311
▁tradition	-10.8311
▁shush	-10.8311
▁exhibit	-10.8312
▁corrupt	-10.8312
▁desi	-10.8312
▁restrain	-10.8313
▁orphan	-10.8313
▁affect	-10.8313
▁lap	-10.8313
▁collar	-10.8313
▁genuine	-10.8313
▁xanax	-10.8313
▁adventure	-10.8313
▁argument	-10.8313
▁auction	-10.8313
▁broccoli	-10.8313
▁caldwell	-10.8313
▁coffin	-10.8313
▁election	-10.8313
▁erwin	-10.8313
▁etienne	-10.8313
▁exhusband	-10.8313
▁ferguson	-10.8313
▁gardner	-10.8313
▁georgia	-10.8313
▁georgie	-10.8313
▁glanton	-10.8313
▁grief	-10.8313
▁headquarters	-10.8313
▁inisherin	-10.8313
▁inspire	-10.8313
▁isolate	-10.8313
▁katharine	-10.8313
▁kennedi	-10.8313
▁kersek	-10.8313
▁leash	-10.8313
▁lincoln	-10.8313
▁lodge	-10.8313
▁mohawk	-10.8313
▁muscle	-10.8313
▁overdose	-10.8313
▁pfeiffer	-10.8313
▁principal	-10.8313
▁sagdiyev	-10.8313
▁schenectady	-10.8313
▁schmuck	-10.8313
▁shakespeare	-10.8313
▁sharla	-10.8313
▁slocumb	-10.8313
▁sweeney	-10.8313
▁thirteen	-10.8313
▁tragic	-10.8313
▁vengeance	-10.8313
▁walenski	-10.8313
▁yogurt	-10.8313
▁appeal	-10.8313
▁herald	-10.8313
▁sample	-10.8313
▁wheezing	-10.8313
▁brett	-10.8313
▁clerk	-10.8313
▁neighbourhood	-10.8313
▁ryan	-10.8313
▁anyhow	-10.8313
▁apologies	-10.8313
▁heights	-10.8313
▁scrub	-10.8313
▁sterling	-10.8313
▁morgue	-10.8313
▁tofu	-10.8313
▁congress	-10.8313
▁enforcement	-10.8313
▁choke	-10.8313
▁someday	-10.8313
▁behalf	-10.8314
▁kilometers	-10.8314
▁ceo	-10.8314
▁almighty	-10.8314
▁steak	-10.8314
▁burke	-10.8314
▁divine	-10.8314
▁missouri	-10.8314
▁april	-10.8314
▁parole	-10.8314
▁disaster	-10.8314
▁tiff	-10.8314
▁refrigerator	-10.8314
▁shook	-10.8314
▁distress	-10.8314
▁glory	-10.8314
▁iife	-10.8314
▁invisible	-10.8314
▁fond	-10.8314
▁zachry	-10.8314
▁league	-10.8314
▁fellini	-10.8314
▁depth	-10.8314
▁depression	-10.8314
▁scatter	-10.8314
▁irish	-10.8314
▁evaluation	-10.8314
▁mouse	-10.8314
▁peanut	-10.8314
▁cuffee	-10.8314
▁underline	-10.8314
▁benji	-10.8314
▁envelope	-10.8314
▁cocksucker	-10.8314
▁groceries	-10.8314
▁mmmmmm	-10.8315
▁ripping	-10.8315
▁dummy	-10.8315
▁regardless	-10.8315
▁technology	-10.8315
▁vulnerable	-10.8315
▁quint	-10.8315
▁dragged	-10.8315
▁thisll	-10.8315
▁stanley	-10.8315
▁acceptance	-10.8315
▁popping	-10.8315
▁brace	-10.8315
▁jessup	-10.8315
▁terrified	-10.8315
▁northern	-10.8315
▁aight	-10.8315
▁identity	-10.8316
▁specifically	-10.8316
▁deputy	-10.8316
▁drumming	-10.8316
▁laundry	-10.8316
▁burst	-10.8316
▁clucking	-10.8316
▁freddy	-10.8316
▁wore	-10.8317
▁fluid	-10.8317
▁slight	-10.8317
▁management	-10.8317
▁assigned	-10.8317
▁iove	-10.8317
▁allen	-10.8318
▁courthouse	-10.8318
▁grandson	-10.8318
▁tighten	-10.8319
▁scandal	-10.8319
▁whining	-10.8319
▁thick	-10.8319
▁mason	-10.8319
▁frontier	-10.832
▁estate	-10.832
▁freeway	-10.832
▁clearance	-10.832
▁todd	-10.8321
▁ripped	-10.8321
▁acid	-10.8321
▁rug	-10.8321
▁suspended	-10.8322
▁marshall	-10.8322
▁alley	-10.8323
▁clements	-10.8324
▁hitler	-10.8324
▁bushes	-10.8324
▁ross	-10.8325
▁through	-10.8325
▁identified	-10.8325
▁relieved	-10.8325
▁motherfucking	-10.8325
▁taxi	-10.8325
▁stead	-10.8325
▁mona	-10.8326
▁stash	-10.8327
▁poe	-10.8327
▁psyche	-10.8327
▁iot	-10.833
▁directly	-10.8332
▁daylight	-10.8333
▁wage	-10.8334
▁showtime	-10.8334
▁pile	-10.8335
▁framed	-10.8335
▁consult	-10.8337
▁proven	-10.8337
▁specialist	-10.8338
▁ability	-10.8338
enna	-10.8339
▁breakup	-10.8339
▁backyard	-10.8339
ring	-10.8339
▁instructions	-10.8341
▁consequences	-10.8341
▁thistles	-10.8341
▁molest	-10.8342
▁confession	-10.8343
▁betrayed	-10.8344
▁regarding	-10.8346
▁hallway	-10.8347
▁examin	-10.8348
▁burnt	-10.835
▁factor	-10.8352
▁removed	-10.8353
▁healthy	-10.8353
▁bunker	-10.8354
▁kiiied	-10.8354
▁wired	-10.8355
▁yelps	-10.8359
▁dolphins	-10.8359
▁onions	-10.8359
▁sensei	-10.836
▁sticks	-10.836
▁boxes	-10.836
▁sweater	-10.8362
▁stain	-10.8365
▁defending	-10.8368
▁leaking	-10.8371
▁headache	-10.8371
▁oneill	-10.8373
▁golic	-10.8374
▁nina	-10.8376
▁citizens	-10.8377
▁shithead	-10.8378
▁tart	-10.838
▁jesse	-10.8391
▁prop	-10.8392
▁lad	-10.8393
▁nervously	-10.8394
▁smarter	-10.8398
▁foul	-10.8398
shit	-10.8401
▁blocking	-10.8404
▁chev	-10.8411
▁roars	-10.8413
▁becomes	-10.8416
▁rolls	-10.8421
▁lifted	-10.8427
▁packed	-10.8429
▁traveling	-10.8432
▁arch	-10.8434
▁forger	-10.8436
fore	-10.8438
▁searched	-10.8442
▁twins	-10.8448
▁cocking	-10.8448
▁poems	-10.8449
▁slams	-10.8449
▁vibrate	-10.8449
vi	-10.8463
▁tourists	-10.8467
▁photographs	-10.8468
▁farmer	-10.8472
▁rey	-10.8478
▁unh	-10.848
▁spa	-10.8485
▁nana	-10.8489
▁bars	-10.849
ably	-10.8497
▁melt	-10.8498
fully	-10.8514
▁cracking	-10.8516
▁vic	-10.8518
▁protected	-10.8536
▁contains	-10.854
top	-10.8547
▁newspapers	-10.8558
▁andrews	-10.8558
▁zombies	-10.8558
▁scores	-10.856
ada	-10.8575
▁leading	-10.8579
▁bench	-10.8583
▁rad	-10.8583
▁roads	-10.8583
ger	-10.8591
▁shadows	-10.8595
▁waters	-10.8599
▁forty	-10.8603
▁rig	-10.8605
▁admire	-10.8609
▁teaching	-10.861
▁snakes	-10.8612
▁wi	-10.8626
▁remembered	-10.8627
▁nap	-10.8631
▁musical	-10.864
▁handy	-10.8648
▁airlines	-10.8649
▁ci	-10.865
ight	-10.866
ade	-10.8673
▁ri	-10.868
gs	-10.868
▁pd	-10.8681
▁inna	-10.8682
▁shoulders	-10.8687
▁produce	-10.8692
▁pos	-10.8704
mer	-10.8716
com	-10.8737
▁dreaming	-10.8739
der	-10.8744
▁lovers	-10.8747
▁projects	-10.8759
▁writes	-10.8761
▁not	-10.8766
▁fashion	-10.8771
▁cart	-10.8777
ign	-10.8788
▁friendly	-10.8813
▁sha	-10.8834
ill	-10.8839
▁thu	-10.8849
▁cre	-10.8851
gh	-10.8853
▁mistakes	-10.8866
▁beth	-10.8872
▁hoped	-10.8873
▁fart	-10.8874
lly	-10.8883
ory	-10.8903
▁miz	-10.8906
▁nurses	-10.891
sen	-10.8911
▁laws	-10.8927
▁entr	-10.8953
▁homes	-10.898
▁porn	-10.8984
ities	-10.8988
▁spine	-10.8998
▁flu	-10.8999
ative	-10.9044
▁mens	-10.9048
▁intention	-10.9078
ink	-10.9098
ot	-10.9104
▁waiter	-10.9137
▁pla	-10.9141
▁ships	-10.9145
▁dime	-10.9153
▁sets	-10.9154
▁hatch	-10.9183
▁ut	-10.9189
ak	-10.92
▁cups	-10.9211
▁scenes	-10.9211
▁peters	-10.9231
▁sc	-10.9244
tom	-10.9254
▁attacks	-10.9269
▁chip	-10.9276
▁wanting	-10.929
▁oni	-10.9303
▁heavens	-10.9307
▁shuts	-10.9311
▁uncles	-10.9325
▁wil	-10.9327
stone	-10.9329
▁request	-10.9329
ph	-10.934
▁areas	-10.9345
ux	-10.9354
▁sigh	-10.9362
ack	-10.9367
▁demand	-10.9368
▁regard	-10.9378
▁trace	-10.9392
▁britney	-10.9393
▁clown	-10.9393
▁ankle	-10.9393
▁frame	-10.9393
▁require	-10.9394
▁measure	-10.9396
▁stink	-10.9396
▁shares	-10.94
▁ki	-10.94
▁stare	-10.94
▁pays	-10.94
▁elephant	-10.9401
▁belief	-10.9401
▁comic	-10.9403
▁native	-10.9403
▁chord	-10.9405
▁fur	-10.9408
▁colleague	-10.941
▁boot	-10.9412
▁slam	-10.9413
▁usa	-10.9414
▁snort	-10.9414
▁communication	-10.9415
▁poem	-10.9415
▁resume	-10.9415
▁rumor	-10.9415
▁sheet	-10.9416
▁vow	-10.9416
▁oop	-10.9417
face	-10.9424
lin	-10.9428
▁toy	-10.9435
sky	-10.9439
▁manner	-10.9443
▁suite	-10.9448
▁painter	-10.9457
▁flee	-10.9465
▁fri	-10.9467
▁limb	-10.947
▁pur	-10.9474
▁hid	-10.9478
port	-10.948
ron	-10.948
year	-10.9488
▁counts	-10.9489
hole	-10.9491
▁flush	-10.9497
▁yu	-10.9498
▁tale	-10.9499
▁rag	-10.9506
▁surely	-10.951
▁twin	-10.9514
▁wander	-10.9517
▁bleep	-10.9522
phone	-10.9525
night	-10.9527
▁micro	-10.9528
▁adapt	-10.9529
ole	-10.9531
▁delay	-10.9533
▁invent	-10.9534
▁fo	-10.9534
▁establish	-10.9534
load	-10.9534
▁spoil	-10.9535
boy	-10.9535
▁cancel	-10.9535
▁shove	-10.9537
▁boats	-10.954
mouth	-10.9541
▁tru	-10.9543
▁taik	-10.9543
▁puff	-10.9543
▁ew	-10.9544
▁bolt	-10.9544
▁graduate	-10.9545
▁enormous	-10.9547
▁instant	-10.955
▁creative	-10.9551
▁technical	-10.9552
▁chuck	-10.9552
donna	-10.9556
▁tapes	-10.9557
▁electric	-10.9558
ates	-10.9558
▁kidnapp	-10.956
▁rhythm	-10.956
▁philip	-10.9561
▁rode	-10.9561
▁peaceful	-10.9561
▁symbol	-10.9561
▁ash	-10.9562
▁lyin	-10.9563
cient	-10.9563
▁feckin	-10.9563
▁doug	-10.9563
▁intellect	-10.9563
▁kennedy	-10.9563
▁solemn	-10.9563
▁actress	-10.9563
▁adorable	-10.9563
▁airplane	-10.9563
▁anonymous	-10.9563
▁anthony	-10.9563
▁arkansas	-10.9563
▁beignet	-10.9563
▁capuano	-10.9563
▁cellular	-10.9563
▁chowdhury	-10.9563
▁cockroach	-10.9563
▁column	-10.9563
▁competition	-10.9563
▁confusing	-10.9563
▁controversial	-10.9563
▁coyote	-10.9563
▁daryl	-10.9563
▁elegant	-10.9563
▁enemies	-10.9563
▁exboyfriend	-10.9563
▁frobisher	-10.9563
▁iieutenant	-10.9563
▁intelligent	-10.9563
▁jersey	-10.9563
▁kiefer	-10.9563
▁kobritz	-10.9563
▁leather	-10.9563
▁lewyn	-10.9563
▁loneliness	-10.9563
▁luggage	-10.9563
▁mccann	-10.9563
▁medevac	-10.9563
▁merilee	-10.9563
▁militia	-10.9563
▁morahan	-10.9563
▁mwah	-10.9563
▁oklahoma	-10.9563
▁penthouse	-10.9563
▁platoon	-10.9563
▁prostitution	-10.9563
▁pursue	-10.9563
▁razor	-10.9563
▁resnick	-10.9563
▁rezendes	-10.9563
▁satellite	-10.9563
▁seatbelt	-10.9563
▁seduce	-10.9563
▁shampoo	-10.9563
▁sierra	-10.9563
▁sonofabitch	-10.9563
▁squawking	-10.9563
▁tigest	-10.9563
▁truetru	-10.9563
▁virtu	-10.9563
▁whataburger	-10.9563
▁zdorovije	-10.9563
▁blares	-10.9563
▁restrict	-10.9563
▁superior	-10.9563
▁thump	-10.9563
▁yacht	-10.9563
▁judging	-10.9563
▁magnificent	-10.9563
▁modal	-10.9563
▁remote	-10.9563
▁someplace	-10.9563
▁transmission	-10.9563
▁violation	-10.9563
▁mockingbird	-10.9563
▁illusion	-10.9563
▁libby	-10.9563
▁nanny	-10.9563
▁network	-10.9563
▁orbit	-10.9563
▁pepper	-10.9563
▁polite	-10.9563
▁salander	-10.9563
▁chorus	-10.9563
▁commentator	-10.9563
▁interstate	-10.9563
▁sizzling	-10.9564
▁headphones	-10.9564
▁tyres	-10.9564
▁maintenance	-10.9564
▁dipshit	-10.9564
▁bovver	-10.9564
▁piace	-10.9564
▁stray	-10.9564
▁spinoff	-10.9564
▁tinkling	-10.9564
▁calder	-10.9564
▁prague	-10.9564
▁whoohoo	-10.9564
▁coconut	-10.9564
▁daffy	-10.9564
▁droning	-10.9564
▁medium	-10.9564
▁crisis	-10.9564
▁whys	-10.9564
▁kofi	-10.9564
▁barrel	-10.9564
▁bergen	-10.9564
▁consent	-10.9564
▁cycle	-10.9564
▁noelle	-10.9564
▁sookie	-10.9564
▁powder	-10.9564
▁francisco	-10.9564
▁griffin	-10.9564
▁patrick	-10.9564
▁chaos	-10.9564
▁peasant	-10.9564
▁zulu	-10.9564
▁confusion	-10.9564
▁skirt	-10.9564
▁lynda	-10.9564
▁maximum	-10.9564
▁angle	-10.9564
▁tsung	-10.9564
▁upside	-10.9564
▁broadway	-10.9564
▁greet	-10.9564
▁shore	-10.9564
▁scumbag	-10.9564
▁activity	-10.9564
▁fever	-10.9564
▁liam	-10.9564
▁masterpiece	-10.9564
▁pony	-10.9564
▁preschool	-10.9564
▁capacity	-10.9564
▁conspiracy	-10.9564
▁admiral	-10.9564
▁rising	-10.9564
▁josh	-10.9564
▁geeta	-10.9564
▁rakel	-10.9564
▁samuel	-10.9564
▁basis	-10.9565
▁josephine	-10.9565
▁sworn	-10.9565
▁species	-10.9565
▁marley	-10.9565
▁horseshit	-10.9565
▁tolerate	-10.9565
▁shane	-10.9565
▁toxic	-10.9565
▁froze	-10.9565
▁jazz	-10.9565
▁inspiration	-10.9565
▁burden	-10.9565
▁ifyou	-10.9565
▁remarkabl	-10.9565
▁sharing	-10.9565
▁corruption	-10.9565
▁seattle	-10.9566
▁stuckey	-10.9566
▁priority	-10.9566
▁pluck	-10.9566
▁mainland	-10.9566
▁bait	-10.9566
▁snoring	-10.9566
▁marvin	-10.9566
▁sober	-10.9566
terior	-10.9566
▁murphy	-10.9566
▁cabinet	-10.9566
▁jock	-10.9567
▁cities	-10.9567
▁inconvenient	-10.9567
▁mutual	-10.9567
▁filthy	-10.9568
▁comon	-10.9568
▁scheme	-10.9568
▁diary	-10.9568
▁electrical	-10.9568
▁aldo	-10.9568
▁rowin	-10.9568
▁cellar	-10.9568
▁panel	-10.9568
▁chile	-10.9569
▁clay	-10.9569
▁liable	-10.9569
▁sauce	-10.9569
▁swat	-10.9569
▁troy	-10.9569
lie	-10.957
▁divided	-10.957
▁tries	-10.957
▁creation	-10.957
orah	-10.957
▁bucket	-10.957
▁ridge	-10.957
▁bruner	-10.957
▁amongst	-10.957
▁riddle	-10.957
▁cooley	-10.957
▁alimony	-10.9571
▁growth	-10.9571
▁epic	-10.9571
▁paw	-10.9571
▁salary	-10.9572
▁neat	-10.9572
▁milo	-10.9572
▁yaddy	-10.9572
▁dc	-10.9572
▁reduced	-10.9572
▁tore	-10.9572
▁distracted	-10.9573
▁midst	-10.9573
▁breakdown	-10.9573
▁tito	-10.9574
▁chiming	-10.9575
▁bedtime	-10.9575
▁chairman	-10.9575
▁sandwiches	-10.9576
▁copper	-10.9577
come	-10.9577
eating	-10.9577
daya	-10.9578
▁addition	-10.9579
▁maintain	-10.958
case	-10.9581
▁grove	-10.9581
▁scraping	-10.9581
▁clothing	-10.9581
▁arranged	-10.9581
▁clanking	-10.9581
▁sail	-10.9581
▁cooing	-10.9582
▁wakeup	-10.9583
▁friendship	-10.9583
▁active	-10.9584
▁possessed	-10.9584
▁entit	-10.9584
▁jay	-10.9584
▁hol	-10.9584
▁rental	-10.9584
▁richie	-10.9586
▁bellow	-10.9587
▁wildman	-10.9587
▁accused	-10.9587
▁metro	-10.9587
▁eighth	-10.9588
▁bitter	-10.9589
▁properly	-10.959
▁whip	-10.9591
▁immediate	-10.9591
▁shovel	-10.9591
▁brief	-10.9592
▁handling	-10.9593
▁noble	-10.9593
▁unable	-10.9594
▁plead	-10.9594
▁giggles	-10.9595
▁outer	-10.9595
▁grasse	-10.9595
▁flirting	-10.9596
▁reced	-10.9597
▁limited	-10.9599
ache	-10.9603
▁meters	-10.9605
▁lotte	-10.9605
▁erase	-10.9607
▁hopeless	-10.9608
▁cooperate	-10.9608
▁complaining	-10.9611
▁relations	-10.9615
▁informed	-10.9615
▁businessman	-10.9615
▁exams	-10.9615
▁shatters	-10.9615
▁ending	-10.9615
▁pod	-10.9616
▁legally	-10.9616
▁traded	-10.962
▁scratching	-10.9621
▁honks	-10.9626
▁flowing	-10.963
will	-10.9632
▁slipper	-10.9635
▁assassins	-10.9637
amas	-10.9647
red	-10.9649
▁needle	-10.9649
▁rushing	-10.965
▁safer	-10.9652
▁asks	-10.9653
▁beads	-10.9656
▁attending	-10.9659
▁swinging	-10.9661
os	-10.9665
▁beard	-10.9666
▁salesman	-10.967
▁suggested	-10.9675
▁assets	-10.9677
▁newman	-10.9682
▁focused	-10.9689
▁zo	-10.9693
▁anal	-10.9693
ye	-10.9702
▁beers	-10.9703
▁su	-10.9706
uck	-10.9715
▁steer	-10.9717
▁communications	-10.9718
▁regards	-10.9718
▁spreading	-10.9725
▁sucked	-10.9728
▁furn	-10.9735
▁switching	-10.9736
▁repeating	-10.9736
▁helpful	-10.9739
thing	-10.9745
▁pretending	-10.9751
▁resolve	-10.9752
▁tested	-10.9754
▁watches	-10.9755
▁virgini	-10.9758
▁employees	-10.9759
▁shrieks	-10.9759
▁lit	-10.9761
▁limits	-10.9761
▁walkin	-10.9763
▁misses	-10.9772
▁bees	-10.9779
ford	-10.9789
ternal	-10.9791
▁bann	-10.9794
▁broker	-10.9794
▁imagined	-10.9797
▁peep	-10.9804
▁towns	-10.9818
▁cal	-10.9819
▁believes	-10.9823
▁snaps	-10.9826
▁seated	-10.9831
▁wondered	-10.9835
▁ga	-10.9838
▁importantly	-10.9838
▁generations	-10.9843
▁lightly	-10.9849
▁cheaper	-10.9855
▁treating	-10.9856
▁honored	-10.9858
▁differently	-10.986
▁sources	-10.9863
▁prim	-10.9875
▁sting	-10.9879
▁nightmares	-10.9884
▁chicks	-10.9885
▁protecting	-10.9904
▁flames	-10.9905
▁drivers	-10.9906
▁deed	-10.991
sion	-10.9915
ima	-10.9918
▁nuns	-10.9926
▁sift	-10.9936
▁amor	-10.9946
▁unions	-10.9948
▁bla	-10.995
▁mere	-10.9952
▁revs	-10.9967
▁strippers	-10.9969
ean	-10.997
▁reporting	-10.9991
▁characters	-10.9994
▁der	-10.9994
▁teams	-10.9995
▁presume	-11.0002
▁relaxed	-11.0003
▁ze	-11.0013
use	-11.0017
ont	-11.0034
▁interests	-11.0035
bel	-11.0047
▁jeans	-11.0052
cho	-11.0071
▁callin	-11.01
▁franks	-11.0107
▁debate	-11.0113
▁dressing	-11.0117
bs	-11.0129
that	-11.0138
▁cousins	-11.0138
tin	-11.0142
▁vest	-11.0159
▁fields	-11.0162
ito	-11.018
▁needles	-11.0191
▁regrets	-11.0191
▁patients	-11.0202
enny	-11.0223
▁masks	-11.0224
▁ny	-11.0228
▁ic	-11.0245
▁begins	-11.0246
hill	-11.0253
▁deadly	-11.0279
▁sol	-11.0282
▁dy	-11.0288
▁twi	-11.0294
▁devils	-11.031
ena	-11.0327
nder	-11.0354
pad	-11.0369
▁par	-11.0372
▁dive	-11.0421
inister	-11.0429
▁dun	-11.0441
▁marys	-11.0443
ning	-11.0473
▁wakes	-11.0486
ille	-11.0489
▁chuckys	-11.0549
▁here	-11.0568
▁worrying	-11.0569
▁provid	-11.0586
▁tur	-11.0589
▁dye	-11.061
▁tables	-11.0615
▁colors	-11.0616
she	-11.0617
▁weekends	-11.0637
▁jokes	-11.0645
▁tex	-11.0645
nes	-11.0658
▁emotion	-11.0675
▁wave	-11.0692
▁permit	-11.0708
av	-11.071
▁talks	-11.0737
▁et	-11.0739
▁hop	-11.0764
looking	-11.0772
gar	-11.0783
ber	-11.0785
▁il	-11.0799
▁groan	-11.0814
▁caitlyn	-11.0822
▁negro	-11.0822
▁purse	-11.0823
▁institution	-11.0828
▁reaction	-11.083
▁instinct	-11.0834
▁ages	-11.0835
▁holiday	-11.0837
▁politician	-11.0837
▁lobo	-11.0837
▁server	-11.0837
▁relative	-11.0838
▁slap	-11.0841
▁ripper	-11.0843
▁champion	-11.0843
ral	-11.0843
▁dozen	-11.0844
▁payment	-11.0855
ov	-11.086
reme	-11.086
▁lung	-11.0872
▁gar	-11.0885
▁what	-11.0895
▁sucker	-11.0896
▁alter	-11.0898
▁cracker	-11.0903
▁stat	-11.0908
▁prep	-11.0913
▁zip	-11.0918
▁prec	-11.0924
▁dom	-11.0932
▁immortal	-11.0937
hu	-11.0939
two	-11.0945
▁deflect	-11.0947
▁attach	-11.0947
▁surround	-11.0952
▁ste	-11.0953
▁snarl	-11.0954
▁recover	-11.0955
▁flirt	-11.0955
▁planes	-11.0958
▁slaughter	-11.0958
▁breach	-11.0958
tro	-11.0961
▁attract	-11.0962
place	-11.0964
▁addict	-11.0964
▁harass	-11.0964
▁adopt	-11.0965
▁stall	-11.0967
four	-11.0971
bird	-11.0971
world	-11.0971
type	-11.0972
▁puzzle	-11.0972
▁shu	-11.0975
▁bur	-11.0976
▁eternal	-11.0979
hour	-11.098
bar	-11.098
ery	-11.0981
▁successful	-11.0981
▁rapid	-11.0983
▁wealth	-11.0984
▁ian	-11.0986
▁stitch	-11.0986
▁vet	-11.0987
▁africa	-11.0987
▁translate	-11.0987
ency	-11.0988
▁glori	-11.0989
▁reflect	-11.099
▁olive	-11.099
▁counsel	-11.099
▁observe	-11.0991
▁diagnos	-11.0991
▁dread	-11.0991
▁inherit	-11.0992
▁bev	-11.0992
▁smug	-11.0992
responsibilities	-11.0992
rrigan	-11.0992
▁albany	-11.0992
▁audio	-11.0992
▁balcony	-11.0992
▁battalion	-11.0992
▁bleach	-11.0992
▁bridesmaids	-11.0992
▁brisbane	-11.0992
▁britgaz	-11.0992
▁buick	-11.0992
▁cambridge	-11.0992
▁camille	-11.0992
▁caputo	-11.0992
▁casserole	-11.0992
▁chilcott	-11.0992
▁cmb	-11.0992
▁companion	-11.0992
▁complex	-11.0992
▁crimson	-11.0992
▁dammit	-11.0992
▁dermot	-11.0992
▁discreet	-11.0992
▁drakos	-11.0992
▁drask	-11.0992
▁eleonore	-11.0992
▁environment	-11.0992
▁fairfax	-11.0992
▁gypsy	-11.0992
▁hanzo	-11.0992
▁happier	-11.0992
▁hawthorne	-11.0992
▁horror	-11.0992
▁imprison	-11.0992
▁inappropriate	-11.0992
▁infection	-11.0992
▁isherwell	-11.0992
▁juvenile	-11.0992
▁kjikerud	-11.0992
▁liberace	-11.0992
▁lobby	-11.0992
▁marijuana	-11.0992
▁metaphor	-11.0992
▁michigan	-11.0992
▁mikael	-11.0992
▁necessarily	-11.0992
▁neighing	-11.0992
▁nikas	-11.0992
▁niobe	-11.0992
▁observation	-11.0992
▁overseas	-11.0992
▁pathfinder	-11.0992
▁pencil	-11.0992
▁phangan	-11.0992
▁poiice	-11.0992
▁sacred	-11.0992
▁salvatore	-11.0992
▁sancholo	-11.0992
▁sentinels	-11.0992
▁shannon	-11.0992
▁sheperd	-11.0992
▁shepherd	-11.0992
▁sizzles	-11.0992
▁stephanie	-11.0992
▁sunglasses	-11.0992
▁swift	-11.0992
▁syringe	-11.0992
▁tanaka	-11.0992
▁tissue	-11.0992
▁tremendous	-11.0992
▁welfare	-11.0992
▁womb	-11.0992
▁ancestors	-11.0992
▁breyer	-11.0992
▁cemetery	-11.0992
▁enlighten	-11.0992
▁remorse	-11.0992
▁scientific	-11.0992
▁shaft	-11.0992
▁squash	-11.0992
▁structure	-11.0992
▁syrup	-11.0992
▁toothbrush	-11.0992
▁trench	-11.0992
▁trilling	-11.0992
▁ceii	-11.0992
▁compound	-11.0992
▁draft	-11.0992
▁oreo	-11.0992
▁prophecy	-11.0992
▁subzero	-11.0992
▁underground	-11.0992
▁tobias	-11.0992
▁wiener	-11.0992
▁chook	-11.0992
▁variety	-11.0992
▁feature	-11.0992
▁plastic	-11.0992
▁statue	-11.0992
▁asap	-11.0992
▁grasp	-11.0992
▁antoine	-11.0992
▁knot	-11.0992
▁occurred	-11.0992
▁psychological	-11.0992
▁resent	-11.0992
▁personnel	-11.0992
▁romina	-11.0992
▁terminal	-11.0992
▁accomplice	-11.0992
▁flavor	-11.0992
▁compassion	-11.0992
▁jerem	-11.0992
▁separation	-11.0992
▁baroness	-11.0992
▁hazard	-11.0992
▁salvation	-11.0992
▁harsh	-11.0992
▁precious	-11.0992
▁egyptian	-11.0992
▁tribe	-11.0992
▁vagine	-11.0992
sheila	-11.0992
▁burger	-11.0992
▁historical	-11.0992
▁motel	-11.0992
▁stiii	-11.0992
▁phase	-11.0992
▁raid	-11.0992
▁bumstead	-11.0992
▁pulse	-11.0992
crib	-11.0992
▁canada	-11.0992
▁iko	-11.0992
▁blur	-11.0992
▁rubbish	-11.0992
▁transport	-11.0992
▁kettle	-11.0992
▁molten	-11.0992
▁entrance	-11.0992
▁foam	-11.0992
▁perrish	-11.0992
▁rudy	-11.0992
▁biood	-11.0992
▁ieft	-11.0992
▁indulge	-11.0992
▁claw	-11.0992
▁burial	-11.0993
▁donald	-11.0993
▁promote	-11.0993
▁magnus	-11.0993
▁transferred	-11.0993
▁woodshed	-11.0993
▁inspection	-11.0993
▁transmitters	-11.0993
▁fabi	-11.0993
▁catkin	-11.0993
▁sliding	-11.0993
▁dibs	-11.0993
▁temptation	-11.0993
▁verde	-11.0993
▁flank	-11.0993
oogum	-11.0993
▁sieve	-11.0993
▁guv	-11.0993
▁retribution	-11.0993
▁robinson	-11.0993
▁pinero	-11.0993
▁porch	-11.0993
▁destiny	-11.0993
▁industrial	-11.0993
▁musk	-11.0993
▁accompany	-11.0993
▁performance	-11.0993
▁fading	-11.0993
▁error	-11.0993
▁guzman	-11.0993
▁dislike	-11.0993
▁scarf	-11.0993
▁gps	-11.0993
▁elder	-11.0993
▁spiritual	-11.0993
▁begged	-11.0993
vious	-11.0993
▁phillip	-11.0993
▁blank	-11.0994
▁devoted	-11.0994
▁underage	-11.0994
▁population	-11.0994
▁dough	-11.0994
▁ruling	-11.0994
▁feedback	-11.0994
▁stepfather	-11.0994
▁occasionally	-11.0994
▁aggressive	-11.0994
▁chemistry	-11.0994
▁eagle	-11.0994
▁itsits	-11.0994
▁slovakia	-11.0994
▁genny	-11.0994
▁sailor	-11.0994
▁void	-11.0994
▁fanny	-11.0994
▁wagon	-11.0994
▁cattle	-11.0994
▁seb	-11.0994
▁convenient	-11.0994
▁mohammed	-11.0994
▁theories	-11.0994
▁pecker	-11.0994
▁fiction	-11.0994
▁riley	-11.0995
▁starina	-11.0995
▁sour	-11.0995
▁acknowledge	-11.0995
▁romance	-11.0995
▁prescient	-11.0995
▁retreat	-11.0995
▁exile	-11.0995
▁torn	-11.0995
▁cubano	-11.0995
▁aww	-11.0995
▁collection	-11.0996
▁humor	-11.0996
▁imagination	-11.0996
▁whatll	-11.0996
▁perv	-11.0996
▁expand	-11.0996
▁wicked	-11.0996
▁dug	-11.0997
▁hijack	-11.0997
▁bitten	-11.0997
▁rodeo	-11.0997
▁ciean	-11.0997
▁deaf	-11.0997
▁churchill	-11.0997
▁brass	-11.0997
▁clich	-11.0997
▁smear	-11.0997
▁keyboard	-11.0997
▁adjust	-11.0997
▁admitted	-11.0998
▁ironic	-11.0998
▁greed	-11.0998
▁porno	-11.0998
▁horsemen	-11.0998
▁wooden	-11.0998
▁sack	-11.0998
▁abducted	-11.0999
▁jammed	-11.0999
▁hobby	-11.0999
▁dumbass	-11.0999
▁engaged	-11.0999
▁driveway	-11.0999
▁janet	-11.1
▁goddam	-11.1
▁inner	-11.1
▁ek	-11.1001
▁portal	-11.1001
▁label	-11.1002
▁compromised	-11.1002
▁thirsty	-11.1002
▁leo	-11.1002
▁tomb	-11.1003
▁johnna	-11.1004
▁inch	-11.1004
▁wax	-11.1004
▁surface	-11.1005
▁vern	-11.1005
▁geni	-11.1005
▁pajamas	-11.1005
▁premises	-11.1005
▁doughnuts	-11.1005
▁worries	-11.1005
▁adore	-11.1006
▁torch	-11.1006
▁approaches	-11.1007
▁beaten	-11.1007
▁oven	-11.1007
▁deported	-11.1007
▁offended	-11.1007
▁crackhead	-11.1007
▁encouraged	-11.1009
▁quest	-11.101
▁tartar	-11.101
▁hound	-11.1011
▁forgetting	-11.1011
▁allegedly	-11.1011
▁banana	-11.1012
▁turd	-11.1012
▁norm	-11.1013
▁yous	-11.1014
▁graduated	-11.1014
nd	-11.1014
▁christian	-11.1015
▁bled	-11.1015
▁esp	-11.1016
▁discovery	-11.1016
▁pinky	-11.1016
▁diego	-11.1017
▁tender	-11.1017
▁interfere	-11.1018
pensive	-11.1019
kind	-11.102
▁buzzer	-11.102
▁smit	-11.102
▁stalled	-11.102
▁harassed	-11.102
▁recovered	-11.102
▁troubles	-11.102
▁losses	-11.1021
▁despise	-11.1021
▁demonstrate	-11.1021
▁invented	-11.1024
▁canceled	-11.1024
▁established	-11.1024
▁sca	-11.1025
▁tricky	-11.1026
▁balder	-11.1027
▁attached	-11.1027
▁bin	-11.1029
▁gap	-11.1029
▁tax	-11.103
▁determined	-11.1031
▁gotcha	-11.1031
▁spite	-11.1032
▁fuckface	-11.1033
▁disturbed	-11.1033
▁via	-11.1034
▁kidnapping	-11.1035
▁wandering	-11.1035
▁demanding	-11.1036
▁owl	-11.1037
off	-11.1038
▁favorites	-11.1041
▁shushing	-11.1041
▁bind	-11.1041
▁spilling	-11.1044
▁goodlooking	-11.1045
▁down	-11.1045
▁licky	-11.1046
▁particularly	-11.1046
▁twisted	-11.1046
▁assist	-11.1046
▁drilling	-11.1047
▁scored	-11.1047
▁lens	-11.1049
▁iooked	-11.105
▁reaches	-11.1051
▁harvesters	-11.1053
▁drowning	-11.1055
▁glowing	-11.1058
▁foundation	-11.1059
▁yah	-11.1059
onies	-11.106
▁sinking	-11.1061
▁boobs	-11.1062
▁claimed	-11.1064
▁apartments	-11.1065
▁nic	-11.1069
▁classes	-11.1073
▁badass	-11.1074
▁increases	-11.1076
▁lucas	-11.1076
▁merchan	-11.1078
▁recorder	-11.1083
▁stupido	-11.1084
▁dodg	-11.1085
▁humans	-11.1086
▁kindness	-11.1088
▁reminded	-11.1091
▁generally	-11.1091
▁associates	-11.1093
▁yyou	-11.1093
▁cutter	-11.1094
▁wishes	-11.1105
▁coma	-11.1109
▁workout	-11.111
▁shocking	-11.1111
▁correctly	-11.1112
▁wasted	-11.1114
atu	-11.1119
▁dine	-11.1121
▁secretly	-11.1123
▁assess	-11.1124
late	-11.1129
▁rd	-11.113
▁buildings	-11.1132
▁bent	-11.1134
▁offers	-11.1138
ana	-11.1139
▁shitting	-11.1141
▁ohio	-11.1141
ride	-11.1154
nnies	-11.1157
iness	-11.1158
▁nickel	-11.1168
▁classy	-11.1169
▁core	-11.117
▁colleagues	-11.1172
▁helpless	-11.1172
▁manners	-11.1173
▁frames	-11.1176
▁tracked	-11.1177
▁posted	-11.1177
ub	-11.1193
▁cracked	-11.1193
▁snacks	-11.1196
ouch	-11.1197
oca	-11.1204
▁bothering	-11.1208
▁tube	-11.1208
▁prob	-11.1211
▁armor	-11.123
▁as	-11.1232
▁tons	-11.1237
▁reject	-11.1242
▁sharks	-11.1245
▁presented	-11.1245
▁dates	-11.1254
▁handled	-11.1257
▁locker	-11.1263
▁headin	-11.1266
▁slaves	-11.1267
▁wings	-11.1267
▁boxer	-11.1271
▁cows	-11.1271
ski	-11.1282
▁safely	-11.129
▁unlocks	-11.1293
▁bricks	-11.1293
▁seasons	-11.1295
▁chambers	-11.1295
▁joining	-11.1298
▁marrying	-11.131
▁uniforms	-11.1318
▁sen	-11.1318
▁results	-11.1319
▁laughed	-11.1326
▁und	-11.1331
▁chops	-11.1338
▁monkeys	-11.1342
▁strikes	-11.1342
▁wu	-11.1347
▁ver	-11.1355
▁dada	-11.1367
▁hick	-11.1373
▁vice	-11.1408
▁sessions	-11.1416
▁issues	-11.1418
ner	-11.1428
tan	-11.1433
▁bums	-11.1436
▁stones	-11.1441
▁lend	-11.1448
▁mill	-11.1451
olly	-11.1465
most	-11.1472
▁lone	-11.1477
ix	-11.1478
gun	-11.1481
ai	-11.1482
ias	-11.1486
▁germans	-11.149
bone	-11.1513
▁operations	-11.1515
▁tw	-11.1524
▁how	-11.1532
▁womens	-11.1532
▁her	-11.16
izing	-11.1601
▁kinds	-11.1612
▁sorts	-11.1618
▁walkie	-11.1636
▁goat	-11.1638
▁dip	-11.1655
▁fre	-11.1658
ona	-11.1669
▁mud	-11.1702
▁mighty	-11.1711
▁efforts	-11.1714
▁and	-11.1721
▁fl	-11.1727
all	-11.1729
▁paintings	-11.1739
rick	-11.1744
▁tips	-11.1747
cam	-11.1749
▁coz	-11.1754
▁che	-11.1761
act	-11.1763
▁toi	-11.1764
▁connections	-11.1764
▁defen	-11.1771
▁bites	-11.1795
▁ob	-11.1804
▁brun	-11.1805
▁jacksons	-11.1815
ments	-11.1828
▁players	-11.1828
▁dish	-11.1832
▁arts	-11.1837
▁shifts	-11.184
▁experiences	-11.1842
▁ren	-11.1851
▁bears	-11.1866
▁hu	-11.188
lic	-11.1888
sh	-11.1895
cks	-11.1909
▁gangs	-11.1915
opped	-11.1925
▁hawk	-11.1927
ations	-11.1932
▁sati	-11.1936
▁fin	-11.1943
▁targets	-11.1944
▁bills	-11.1955
oid	-11.1956
▁tastes	-11.1967
▁criminals	-11.1967
▁beds	-11.1971
▁nicely	-11.1998
des	-11.1999
wit	-11.2006
▁specialize	-11.201
▁ditch	-11.2012
can	-11.202
▁knocks	-11.2022
▁corners	-11.2026
▁questioning	-11.2029
▁har	-11.2036
aiiy	-11.2036
ex	-11.2058
▁identi	-11.2061
▁resting	-11.2063
▁ties	-11.2099
rous	-11.214
▁fina	-11.2146
▁helps	-11.2171
▁fools	-11.2176
▁pierce	-11.2182
▁mag	-11.2192
pping	-11.2195
vail	-11.2195
▁rivers	-11.2199
bra	-11.2202
pe	-11.2203
▁pointing	-11.2218
▁needy	-11.2218
▁memo	-11.2231
mon	-11.2241
hes	-11.2254
who	-11.2261
▁radi	-11.2277
▁bu	-11.2287
▁rounds	-11.2296
▁deals	-11.23
▁rains	-11.2306
▁fabric	-11.232
hand	-11.232
ast	-11.2322
▁accidental	-11.2322
▁houses	-11.2374
▁handing	-11.2385
▁gig	-11.2401
▁shaw	-11.2413
▁equi	-11.242
▁stu	-11.2425
▁weigh	-11.2437
▁ruth	-11.2453
erv	-11.2466
▁explode	-11.2467
▁whisper	-11.2472
▁roar	-11.2473
▁cough	-11.2477
▁skill	-11.2482
▁forensic	-11.2488
▁individual	-11.2488
▁terrorist	-11.2489
▁arrangement	-11.2489
▁nazi	-11.249
▁rapist	-11.2491
▁tra	-11.2496
▁method	-11.2496
▁donut	-11.2497
▁pipeline	-11.2497
▁arrow	-11.2497
▁privilege	-11.2499
▁lands	-11.2499
ka	-11.2499
▁hesitate	-11.25
▁reference	-11.2501
▁blossom	-11.2503
▁costume	-11.2503
▁teenager	-11.2505
coming	-11.2508
▁document	-11.2513
▁lip	-11.2517
▁commend	-11.2523
vy	-11.2524
▁pu	-11.2541
▁asset	-11.2559
mpressionist	-11.2563
▁dinners	-11.2565
handed	-11.2566
▁beau	-11.2576
▁semi	-11.2585
▁demo	-11.2597
▁organize	-11.2598
table	-11.2603
▁homeless	-11.2604
▁batter	-11.2607
▁lug	-11.2614
▁vent	-11.2614
nstruction	-11.2617
▁trespass	-11.2619
▁profession	-11.2621
▁despi	-11.2625
▁whack	-11.2625
▁squeak	-11.2625
▁download	-11.2628
▁register	-11.2629
▁possess	-11.263
power	-11.2631
▁abandon	-11.2632
yard	-11.2632
dollar	-11.2633
▁achieve	-11.2634
▁delight	-11.2634
born	-11.2635
winning	-11.2637
child	-11.2638
famous	-11.2638
party	-11.2638
▁gamble	-11.2639
▁define	-11.2639
▁declare	-11.264
▁info	-11.2643
▁parade	-11.2643
▁mode	-11.2645
three	-11.2647
▁definite	-11.2648
▁precise	-11.2648
▁sakes	-11.2649
▁buddh	-11.2651
▁teenage	-11.2653
▁leap	-11.2653
▁adul	-11.2654
▁korea	-11.2654
▁romania	-11.2654
nva	-11.2655
▁michel	-11.2655
▁deposit	-11.2656
▁champ	-11.2657
▁lever	-11.2657
▁urge	-11.2658
▁contest	-11.2658
▁buff	-11.2658
▁beac	-11.2658
▁piggy	-11.2658
ahahahahahah	-11.2659
▁absurd	-11.2659
▁albano	-11.2659
▁album	-11.2659
▁alissa	-11.2659
▁amnesia	-11.2659
▁analysis	-11.2659
▁archdiocese	-11.2659
▁attitude	-11.2659
▁barbecue	-11.2659
▁bathtub	-11.2659
▁benzevich	-11.2659
▁biscuit	-11.2659
▁blindfold	-11.2659
▁calendar	-11.2659
▁cambodia	-11.2659
▁cecelio	-11.2659
▁cinema	-11.2659
▁circus	-11.2659
▁comfy	-11.2659
▁cricket	-11.2659
▁cybebe	-11.2659
▁deliberate	-11.2659
▁edwin	-11.2659
▁evacuation	-11.2659
▁evidently	-11.2659
▁expense	-11.2659
▁gennaro	-11.2659
▁glatzel	-11.2659
▁gossip	-11.2659
▁groove	-11.2659
▁halloween	-11.2659
▁harlem	-11.2659
▁heartbeat	-11.2659
▁hilarious	-11.2659
▁horrific	-11.2659
▁ibrahim	-11.2659
▁jordan	-11.2659
▁jungle	-11.2659
▁larrabee	-11.2659
▁lesbian	-11.2659
▁lindsey	-11.2659
▁linklater	-11.2659
▁loomis	-11.2659
▁mademoiselle	-11.2659
▁maelstrom	-11.2659
▁maestro	-11.2659
▁makayla	-11.2659
▁manhattan	-11.2659
▁manufacturing	-11.2659
▁mccormick	-11.2659
▁melania	-11.2659
▁mississippi	-11.2659
▁miyagi	-11.2659
▁mongrel	-11.2659
▁mortgage	-11.2659
▁neighs	-11.2659
▁nepal	-11.2659
▁nominee	-11.2659
▁november	-11.2659
▁oriordan	-11.2659
▁paranoia	-11.2659
▁parasite	-11.2659
▁pascow	-11.2659
▁penguin	-11.2659
▁pennsylvania	-11.2659
▁pheasant	-11.2659
▁philanthropist	-11.2659
▁pimp	-11.2659
▁piranha	-11.2659
▁privacy	-11.2659
▁purple	-11.2659
▁qualified	-11.2659
▁resonance	-11.2659
▁reunite	-11.2659
▁rodriguez	-11.2659
▁savior	-11.2659
▁scorpion	-11.2659
▁sedition	-11.2659
▁september	-11.2659
▁sheep	-11.2659
▁soninlaw	-11.2659
▁spartacus	-11.2659
▁splendid	-11.2659
▁squirrel	-11.2659
▁stockholm	-11.2659
▁struggling	-11.2659
▁superintendent	-11.2659
▁surviving	-11.2659
▁suspicion	-11.2659
▁sweatshirt	-11.2659
▁tarzan	-11.2659
▁thrash	-11.2659
▁tourniquet	-11.2659
▁transaction	-11.2659
▁unavailable	-11.2659
▁vaughn	-11.2659
▁verdict	-11.2659
▁whatsoever	-11.2659
▁willam	-11.2659
▁yeeah	-11.2659
▁yelburton	-11.2659
▁atmosphere	-11.2659
▁conflict	-11.2659
▁eev	-11.2659
▁forbes	-11.2659
▁jiu	-11.2659
▁lesek	-11.2659
▁martinez	-11.2659
▁reef	-11.2659
▁crescendo	-11.2659
▁dragging	-11.2659
▁gunnar	-11.2659
▁housekeeping	-11.2659
▁iggy	-11.2659
▁lunar	-11.2659
▁patterson	-11.2659
▁shilling	-11.2659
▁stowaway	-11.2659
▁collings	-11.2659
▁schisa	-11.2659
▁cawing	-11.2659
▁deluca	-11.2659
▁dreary	-11.2659
▁svenson	-11.2659
▁branch	-11.2659
▁larkin	-11.2659
▁rumour	-11.2659
▁simpson	-11.2659
▁piston	-11.2659
▁brazil	-11.2659
▁meself	-11.2659
▁proposition	-11.2659
▁yoshi	-11.2659
▁courtesy	-11.2659
▁dentist	-11.2659
▁ahem	-11.2659
▁peadar	-11.2659
▁abuel	-11.2659
▁napkin	-11.2659
▁gracias	-11.2659
▁minivan	-11.2659
▁referring	-11.2659
▁telegram	-11.2659
▁assuming	-11.2659
▁domain	-11.2659
▁fascinating	-11.2659
▁graham	-11.2659
▁japan	-11.2659
▁lerner	-11.2659
▁shauna	-11.2659
▁investigating	-11.2659
▁convertible	-11.2659
▁deploy	-11.2659
▁figuring	-11.2659
▁regiment	-11.2659
▁waltz	-11.2659
▁analyz	-11.2659
▁corporation	-11.2659
▁facing	-11.2659
▁bruv	-11.2659
▁ifs	-11.2659
▁software	-11.2659
▁grail	-11.2659
▁rogue	-11.2659
▁hwan	-11.2659
▁promising	-11.2659
▁alternative	-11.2659
▁determination	-11.2659
▁rumbles	-11.2659
▁plot	-11.2659
▁uber	-11.2659
▁ooooh	-11.2659
▁tuning	-11.2659
▁moreno	-11.2659
▁geppino	-11.2659
▁greco	-11.2659
▁gerick	-11.2659
▁compensation	-11.2659
▁hostile	-11.2659
▁persuade	-11.2659
▁eternity	-11.2659
▁profound	-11.2659
▁jonjo	-11.2659
▁carlyn	-11.2659
▁entertainment	-11.2659
▁nosy	-11.2659
▁roast	-11.2659
▁burson	-11.2659
▁bailey	-11.2659
▁judith	-11.2659
▁whisky	-11.2659
▁sunset	-11.2659
▁hissing	-11.2659
▁ledford	-11.2659
▁prank	-11.2659
▁shaving	-11.2659
▁psychiatrist	-11.2659
▁erection	-11.2659
▁interpretation	-11.2659
▁expertise	-11.2659
▁ammo	-11.2659
▁jelly	-11.2659
▁strapped	-11.2659
▁fabricant	-11.2659
▁rash	-11.266
flow	-11.266
▁curry	-11.266
▁fold	-11.266
▁twentyfour	-11.266
▁colorado	-11.266
▁denied	-11.266
▁diplomatic	-11.266
▁sinner	-11.266
▁trading	-11.266
▁overall	-11.266
▁francis	-11.266
▁finch	-11.266
▁breeze	-11.266
▁forehead	-11.266
▁heath	-11.266
▁thatthat	-11.266
▁adrenaline	-11.266
▁famiiy	-11.266
▁timothy	-11.266
▁overnight	-11.266
▁therapist	-11.266
▁malaysian	-11.266
▁shuttle	-11.266
▁republican	-11.266
▁extraction	-11.266
▁gateway	-11.266
▁jits	-11.266
▁chickenshit	-11.266
▁mojo	-11.266
▁quant	-11.266
▁tasty	-11.266
▁toof	-11.266
▁chello	-11.266
▁protest	-11.266
misunderstanding	-11.266
▁andrea	-11.266
▁zane	-11.2661
▁fraud	-11.2661
▁brook	-11.2661
▁booze	-11.2661
▁saloon	-11.2661
▁residency	-11.2661
▁sophisticated	-11.2661
▁oxygen	-11.2661
▁eise	-11.2661
▁lunatic	-11.2661
▁settling	-11.2661
▁ensure	-11.2661
▁destruction	-11.2661
▁vibe	-11.2661
▁haircut	-11.2661
▁contempt	-11.2661
▁oslo	-11.2661
▁corporate	-11.2661
▁budget	-11.2661
metic	-11.2661
▁outrageous	-11.2662
▁dedicated	-11.2662
▁exhibition	-11.2662
▁yawn	-11.2662
▁income	-11.2662
▁shiny	-11.2662
▁relic	-11.2662
▁raw	-11.2662
▁berlin	-11.2662
▁strawberry	-11.2662
▁constantly	-11.2662
▁bov	-11.2662
▁oooh	-11.2662
▁negotiate	-11.2663
▁choosing	-11.2663
▁marvel	-11.2663
▁modest	-11.2663
▁objection	-11.2663
▁rival	-11.2663
▁itit	-11.2663
▁hence	-11.2664
▁korean	-11.2664
dale	-11.2664
▁footage	-11.2664
▁whereas	-11.2664
▁cruise	-11.2664
▁alike	-11.2664
▁african	-11.2665
▁fireplace	-11.2665
▁formula	-11.2665
▁flicker	-11.2665
▁vita	-11.2665
▁payload	-11.2666
▁minus	-11.2666
▁derick	-11.2666
▁comply	-11.2666
▁housewife	-11.2666
▁rail	-11.2666
▁wool	-11.2666
▁lockdown	-11.2666
▁alec	-11.2666
▁crooked	-11.2667
▁doomed	-11.2667
▁vanished	-11.2667
▁volume	-11.2667
▁jingle	-11.2667
▁limo	-11.2667
▁programmed	-11.2667
▁kc	-11.2668
▁flipped	-11.2668
▁sipe	-11.2669
▁hysterically	-11.267
▁strain	-11.2671
▁callaway	-11.2671
▁approved	-11.2671
▁furious	-11.2671
▁felony	-11.2671
▁precisely	-11.2672
▁dried	-11.2672
▁puffer	-11.2672
▁undo	-11.2672
▁gse	-11.2672
▁commando	-11.2673
▁haha	-11.2673
▁lucien	-11.2673
▁marie	-11.2673
▁greedy	-11.2674
▁humble	-11.2674
▁supplies	-11.2674
▁with	-11.2674
▁coordinates	-11.2675
▁democrats	-11.2675
▁hacked	-11.2675
▁exposed	-11.2675
▁tapping	-11.2676
▁wallis	-11.2676
▁blackmailing	-11.2676
▁retainer	-11.2676
▁cafe	-11.2677
▁parttime	-11.2677
ague	-11.2679
▁auntie	-11.2679
▁convicted	-11.2682
▁intended	-11.2682
▁shipment	-11.2683
▁clanging	-11.2683
▁vibrating	-11.2684
▁cheerleader	-11.2684
▁hunger	-11.2685
▁madness	-11.2685
▁attic	-11.2686
▁iim	-11.2686
▁worthless	-11.2686
▁mustard	-11.2686
▁grabbing	-11.2687
▁twat	-11.2689
▁heroes	-11.2689
ogenic	-11.2689
▁indicate	-11.2689
▁hah	-11.2691
▁organized	-11.2691
berg	-11.2692
▁passion	-11.2692
▁freakin	-11.2692
▁addicted	-11.2692
▁feei	-11.2693
▁napoli	-11.2694
▁followers	-11.2694
▁solved	-11.2695
▁bruise	-11.2695
▁spoiled	-11.2697
▁frenchie	-11.2699
▁physically	-11.2702
▁backwards	-11.2702
▁dash	-11.2702
▁described	-11.2702
▁interrupted	-11.2703
▁sniffs	-11.2703
▁snarling	-11.2704
▁coal	-11.2705
▁infinite	-11.2708
▁felon	-11.2711
▁taiking	-11.2713
▁ideal	-11.2716
▁wiped	-11.2719
▁endure	-11.2719
▁spike	-11.2722
▁mechanic	-11.2723
▁sings	-11.2724
▁damaged	-11.2724
▁junkie	-11.2726
▁howling	-11.2726
▁authorize	-11.2728
▁poisoned	-11.2729
▁issued	-11.2729
▁halt	-11.273
▁candles	-11.2731
▁cents	-11.2731
▁creeping	-11.2731
▁mor	-11.2733
op	-11.2733
▁oid	-11.2734
▁hmmm	-11.2735
▁dialing	-11.2738
▁caiied	-11.2739
pers	-11.2739
▁accuse	-11.2744
make	-11.2747
▁lighton	-11.2749
▁poisoning	-11.2752
▁healing	-11.2752
rich	-11.2757
▁forge	-11.2757
▁recognized	-11.2759
▁rituals	-11.2759
▁tow	-11.2765
▁mates	-11.2766
▁fisher	-11.2767
▁blocked	-11.2767
▁pasta	-11.2773
▁weirdo	-11.2775
▁closest	-11.2776
▁lawn	-11.2777
▁borrowed	-11.278
dead	-11.2781
▁christo	-11.2783
▁amend	-11.2784
▁avoided	-11.2785
▁perfumer	-11.2786
▁shorter	-11.2787
▁residents	-11.2788
▁gent	-11.2788
▁have	-11.2799
▁whoosh	-11.2799
▁asses	-11.2804
▁honesty	-11.2805
▁blamed	-11.2806
▁howdy	-11.2815
▁blossoms	-11.2817
▁costumes	-11.2817
▁lace	-11.2819
▁grande	-11.2819
▁fairly	-11.2821
eral	-11.2824
▁touches	-11.2825
▁pickin	-11.2828
▁doorman	-11.2828
▁payback	-11.2829
▁loosen	-11.283
▁supporting	-11.2836
▁switched	-11.2838
▁repeated	-11.2838
▁belts	-11.2838
▁mist	-11.2839
▁freaked	-11.2844
▁lobos	-11.2845
▁holidays	-11.2845
▁politicians	-11.2845
▁relatives	-11.2846
▁delivering	-11.285
▁iate	-11.2851
▁texted	-11.2856
▁manu	-11.2864
▁cons	-11.2866
▁snorts	-11.2874
▁oops	-11.2875
▁traces	-11.2876
▁corps	-11.2879
▁floors	-11.2892
▁ranks	-11.2898
nadia	-11.2906
▁fooled	-11.2909
▁tearing	-11.2911
▁visited	-11.2913
▁cooler	-11.2928
▁marked	-11.2928
▁drums	-11.2932
▁investigators	-11.2932
▁stammers	-11.2932
▁howls	-11.2933
▁connects	-11.2934
▁washing	-11.294
▁presidents	-11.2946
▁scares	-11.2947
▁smoked	-11.2952
▁lamb	-11.2953
▁studies	-11.2957
▁buckle	-11.296
▁cowboys	-11.2961
▁motorcycles	-11.2961
▁burner	-11.2965
▁kla	-11.2971
▁rum	-11.2977
una	-11.2978
▁landed	-11.2984
▁indians	-11.2987
▁meals	-11.299
pa	-11.2995
tov	-11.3006
▁filming	-11.3009
my	-11.301
▁products	-11.3016
▁fare	-11.3017
▁objects	-11.3019
▁compliments	-11.3021
▁facet	-11.3027
▁condo	-11.303
▁covering	-11.3045
▁returning	-11.3068
▁balling	-11.3071
▁nicer	-11.3073
lapping	-11.3073
▁chu	-11.3086
▁explore	-11.3086
▁explains	-11.3097
▁worlds	-11.3097
▁cur	-11.3105
▁cone	-11.3106
▁strings	-11.3108
▁silk	-11.3117
▁ia	-11.3124
ddy	-11.3137
▁grandmothers	-11.3138
▁fla	-11.315
ras	-11.3152
▁borders	-11.3167
ors	-11.3187
ite	-11.3188
▁closely	-11.3193
▁plates	-11.3197
talk	-11.3199
ain	-11.3211
▁vos	-11.3213
▁sai	-11.3217
▁villain	-11.3219
wen	-11.3226
▁threats	-11.3227
ti	-11.3232
▁lined	-11.3236
▁reporters	-11.3255
▁quarters	-11.3256
▁dicks	-11.3262
▁fatal	-11.3278
▁triggers	-11.3286
ith	-11.33
▁workin	-11.3303
▁tri	-11.3304
▁missy	-11.3304
▁your	-11.3307
▁crossing	-11.3309
▁tease	-11.3309
▁winding	-11.331
▁sundays	-11.3317
▁stable	-11.333
▁catching	-11.3337
▁magical	-11.3338
▁freed	-11.3343
▁naive	-11.3343
▁apples	-11.3346
▁myr	-11.3347
ese	-11.3375
fall	-11.3385
▁mines	-11.3423
▁brew	-11.3436
▁committe	-11.3471
▁tr	-11.3478
▁conditions	-11.3493
▁booked	-11.3506
▁suggests	-11.3533
ement	-11.3542
guy	-11.3557
ofthe	-11.3567
▁dem	-11.3606
▁circles	-11.3619
▁das	-11.3622
ew	-11.3632
ni	-11.3645
ute	-11.3647
▁demi	-11.3658
▁blues	-11.3671
tto	-11.3675
▁follows	-11.3689
▁worker	-11.3698
▁packs	-11.3702
lia	-11.3704
▁ana	-11.3726
▁gare	-11.3726
lep	-11.373
▁lords	-11.3734
fi	-11.3734
rent	-11.3758
grain	-11.3765
▁pic	-11.3779
▁bangs	-11.3779
▁buys	-11.3781
▁com	-11.3784
▁div	-11.3812
▁tattoos	-11.3835
ned	-11.3867
▁clearing	-11.388
▁cans	-11.3882
yi	-11.3885
▁videos	-11.3898
▁decisions	-11.3898
arve	-11.3938
▁choppe	-11.394
▁merce	-11.3954
▁angels	-11.3991
▁grip	-11.4003
▁pam	-11.4003
ara	-11.4029
au	-11.403
▁caring	-11.403
▁or	-11.4035
▁grows	-11.4038
har	-11.404
mu	-11.4051
▁gen	-11.4092
iiy	-11.4137
▁dudes	-11.4169
▁costs	-11.4182
▁anan	-11.4218
els	-11.4226
hunt	-11.4233
ok	-11.4235
shed	-11.4241
▁hal	-11.4241
▁understanding	-11.4252
bit	-11.4263
ppy	-11.4281
▁ther	-11.4299
▁def	-11.431
▁tackle	-11.4311
▁sara	-11.4315
ector	-11.432
▁chow	-11.4339
▁judges	-11.4346
▁sim	-11.4346
▁pear	-11.4374
▁por	-11.4376
▁squ	-11.4378
po	-11.4387
▁impress	-11.439
hh	-11.4394
▁prior	-11.4402
maker	-11.4403
▁returns	-11.4418
▁str	-11.4418
▁operat	-11.442
▁fockin	-11.4428
▁bore	-11.4431
▁poo	-11.444
▁placed	-11.4452
▁decorat	-11.4453
▁sixty	-11.4456
▁hor	-11.446
▁hog	-11.4463
▁squeal	-11.447
▁clatter	-11.4473
your	-11.4481
art	-11.4488
▁fugitive	-11.4488
▁medal	-11.4489
▁syrian	-11.449
▁recommendation	-11.4491
▁assignment	-11.4491
▁rehearsal	-11.4491
▁thug	-11.4492
▁chap	-11.4494
▁riva	-11.4495
▁vessel	-11.4496
▁repair	-11.4496
▁principle	-11.45
▁inmate	-11.4501
armed	-11.4503
▁resident	-11.4504
▁bead	-11.4508
▁fingerprint	-11.451
▁tool	-11.4514
▁defender	-11.4516
▁fireball	-11.4517
▁mul	-11.452
▁bean	-11.4522
▁root	-11.4531
▁pill	-11.4531
▁cult	-11.4534
unt	-11.4537
work	-11.4561
▁tis	-11.4578
lan	-11.4579
▁hoo	-11.4581
▁cared	-11.4583
kick	-11.4593
▁ignor	-11.4594
lock	-11.4599
▁threaten	-11.46
yho	-11.4601
▁boyfriends	-11.4603
▁cra	-11.4608
faced	-11.4613
retched	-11.4615
▁drool	-11.4617
▁reboot	-11.4618
▁cramp	-11.4619
▁crunch	-11.4619
▁invest	-11.4624
▁fulfill	-11.4625
▁insert	-11.4625
▁grill	-11.4625
▁soak	-11.4627
▁succeed	-11.4628
▁vicar	-11.4628
▁disconnect	-11.4629
woman	-11.463
word	-11.4631
▁intend	-11.4631
itating	-11.4632
▁rang	-11.4634
stead	-11.4634
mail	-11.4634
level	-11.4634
▁convict	-11.4636
identified	-11.4637
through	-11.4637
related	-11.4637
▁tweet	-11.4637
century	-11.4637
piece	-11.4637
▁wail	-11.4637
plant	-11.4638
with	-11.4638
free	-11.4638
▁brig	-11.4638
boat	-11.4639
think	-11.464
master	-11.464
sick	-11.4641
▁involve	-11.4641
▁excite	-11.4641
▁should	-11.4643
▁ani	-11.4646
▁hysterical	-11.4646
ization	-11.4646
▁ret	-11.4647
▁absolute	-11.4648
oul	-11.4649
rice	-11.465
▁intro	-11.4651
owned	-11.4652
▁canvas	-11.4652
▁relieve	-11.4652
itude	-11.4652
▁julie	-11.4652
▁undress	-11.4653
▁sip	-11.4653
▁inconvenien	-11.4653
▁tropic	-11.4654
▁innocen	-11.4654
▁brillian	-11.4654
▁ron	-11.4655
▁automat	-11.4655
▁mornin	-11.4656
▁darlin	-11.4656
▁intent	-11.4657
▁kiddin	-11.4657
martial	-11.4657
▁vince	-11.4658
▁install	-11.4658
▁script	-11.4658
▁loyal	-11.4658
pistol	-11.4658
▁infant	-11.4658
▁celebrati	-11.4658
▁sarcas	-11.4658
uous	-11.4658
▁polo	-11.4658
▁recess	-11.4658
▁neighbour	-11.4659
▁guz	-11.4659
▁aggravat	-11.4659
▁confidential	-11.4659
▁occupation	-11.4659
dolph	-11.4659
symptom	-11.4659
▁abraham	-11.4659
▁acquaintance	-11.4659
▁advil	-11.4659
▁airborne	-11.4659
▁ambassador	-11.4659
▁anomaleum	-11.4659
▁anxious	-11.4659
▁application	-11.4659
▁appropriation	-11.4659
▁armeteo	-11.4659
▁attagirl	-11.4659
▁aurora	-11.4659
▁bailiff	-11.4659
▁bastien	-11.4659
▁bianchini	-11.4659
▁bizarre	-11.4659
▁boulevard	-11.4659
▁butler	-11.4659
▁capoeira	-11.4659
▁carnegie	-11.4659
▁casket	-11.4659
▁catastroph	-11.4659
▁cdrom	-11.4659
▁cetera	-11.4659
▁checkabarame	-11.4659
▁chingachgook	-11.4659
▁cieiia	-11.4659
▁clumsy	-11.4659
▁coalition	-11.4659
▁compartment	-11.4659
▁compiete	-11.4659
▁concrete	-11.4659
▁confiscate	-11.4659
▁constitution	-11.4659
▁counsellor	-11.4659
▁crocodile	-11.4659
▁darryl	-11.4659
▁dialogue	-11.4659
▁dispute	-11.4659
▁disrespect	-11.4659
▁donnie	-11.4659
▁dorothy	-11.4659
▁drummond	-11.4659
▁eileen	-11.4659
▁elliott	-11.4659
▁encounter	-11.4659
▁enhance	-11.4659
▁episode	-11.4659
▁escalator	-11.4659
▁espresso	-11.4659
▁everlasting	-11.4659
▁evolution	-11.4659
▁excavator	-11.4659
▁feminine	-11.4659
▁footprints	-11.4659
▁ghastly	-11.4659
▁ghhol	-11.4659
▁global	-11.4659
▁graziella	-11.4659
▁groovy	-11.4659
▁gulp	-11.4659
▁haeju	-11.4659
▁hafferty	-11.4659
▁harbor	-11.4659
▁heraklion	-11.4659
▁himseif	-11.4659
▁holocaust	-11.4659
▁horrox	-11.4659
▁incarcerated	-11.4659
▁incarceration	-11.4659
▁injured	-11.4659
▁insanity	-11.4659
▁investigate	-11.4659
▁involving	-11.4659
▁ireland	-11.4659
▁jocelyn	-11.4659
▁juiie	-11.4659
▁jupiter	-11.4659
▁jurisdiction	-11.4659
▁kansas	-11.4659
▁knutzhorn	-11.4659
▁kombat	-11.4659
▁legacy	-11.4659
▁leisure	-11.4659
▁limousine	-11.4659
▁liquor	-11.4659
▁lmpala	-11.4659
▁luigino	-11.4659
▁lukashenko	-11.4659
▁manalowitz	-11.4659
▁massacre	-11.4659
▁masturbat	-11.4659
▁mattress	-11.4659
▁melissa	-11.4659
▁meticulous	-11.4659
▁millwall	-11.4659
▁miraculous	-11.4659
▁miscarriage	-11.4659
▁necronomicon	-11.4659
▁nitwit	-11.4659
▁nypd	-11.4659
▁oatmeal	-11.4659
▁outlaw	-11.4659
▁perpetua	-11.4659
▁perspective	-11.4659
▁phenomenon	-11.4659
▁philadelphia	-11.4659
▁plaintiff	-11.4659
▁practicing	-11.4659
▁pregnancy	-11.4659
▁premier	-11.4659
▁prospects	-11.4659
▁pursuit	-11.4659
▁recruit	-11.4659
▁reiax	-11.4659
▁reinforcements	-11.4659
▁relief	-11.4659
▁religious	-11.4659
▁roosevelt	-11.4659
▁shrimp	-11.4659
▁singapore	-11.4659
▁sisterinlaw	-11.4659
▁souschef	-11.4659
▁southeast	-11.4659
▁spaghetti	-11.4659
▁specimen	-11.4659
▁spectacular	-11.4659
▁sphynx	-11.4659
▁spook	-11.4659
▁sprain	-11.4659
▁sputters	-11.4659
▁squelching	-11.4659
▁surprising	-11.4659
▁suspension	-11.4659
▁suzanne	-11.4659
▁sweetbreads	-11.4659
▁syllabus	-11.4659
▁symmetry	-11.4659
▁syphilis	-11.4659
▁tactical	-11.4659
▁tequila	-11.4659
▁tonsillitis	-11.4659
▁umbrella	-11.4659
▁unlucky	-11.4659
▁unplug	-11.4659
▁vancouver	-11.4659
▁vanderohe	-11.4659
▁vatican	-11.4659
▁velez	-11.4659
▁vodka	-11.4659
▁vomit	-11.4659
▁wawaweewa	-11.4659
▁wheelchair	-11.4659
▁wrath	-11.4659
▁xray	-11.4659
▁yucca	-11.4659
▁zeffirelli	-11.4659
▁zheng	-11.4659
▁buckingham	-11.4659
▁carolyn	-11.4659
▁certificate	-11.4659
▁clinton	-11.4659
▁deranged	-11.4659
▁flattered	-11.4659
▁forcing	-11.4659
▁household	-11.4659
▁illinois	-11.4659
▁meiks	-11.4659
▁opportunities	-11.4659
▁oui	-11.4659
▁payroll	-11.4659
▁plymouth	-11.4659
▁ryder	-11.4659
▁sushi	-11.4659
▁swollen	-11.4659
▁unfold	-11.4659
▁valentine	-11.4659
▁vulgar	-11.4659
▁warehouse	-11.4659
▁bandaid	-11.4659
▁complications	-11.4659
▁disabled	-11.4659
▁sweden	-11.4659
▁ukrain	-11.4659
▁margin	-11.4659
▁overhear	-11.4659
▁sketch	-11.4659
▁britain	-11.4659
▁clarify	-11.4659
▁doyle	-11.4659
▁peretti	-11.4659
▁phew	-11.4659
▁tachi	-11.4659
▁picnic	-11.4659
▁teie	-11.4659
▁verata	-11.4659
▁cnn	-11.4659
▁hustle	-11.4659
▁menacing	-11.4659
▁nude	-11.4659
▁preparing	-11.4659
▁juicy	-11.4659
▁marvellous	-11.4659
▁paradiso	-11.4659
▁luisella	-11.4659
▁nonlethal	-11.4659
▁uncas	-11.4659
▁strut	-11.4659
▁allergic	-11.4659
▁unanimity	-11.4659
▁utica	-11.4659
▁cheesecake	-11.4659
▁flood	-11.4659
▁flunk	-11.4659
▁jacci	-11.4659
▁mafia	-11.4659
▁stockholder	-11.4659
▁furnace	-11.4659
▁inferno	-11.4659
▁sailboat	-11.4659
▁snapshot	-11.4659
▁straw	-11.4659
▁swamp	-11.4659
▁travis	-11.4659
▁walsh	-11.4659
▁puppy	-11.4659
▁mutiny	-11.4659
▁definition	-11.4659
▁monica	-11.4659
▁contractions	-11.4659
▁discharge	-11.4659
▁humility	-11.4659
▁yknow	-11.4659
▁casualties	-11.4659
▁crotch	-11.4659
▁exorcism	-11.4659
▁blush	-11.4659
▁doughboy	-11.4659
▁empti	-11.4659
▁injury	-11.4659
▁recognise	-11.4659
▁mimicking	-11.4659
▁microphone	-11.4659
▁videotape	-11.4659
▁contrary	-11.4659
▁dental	-11.4659
▁helen	-11.4659
demic	-11.4659
▁consistent	-11.4659
▁farewell	-11.4659
▁sniffling	-11.4659
▁departure	-11.4659
▁unemployment	-11.4659
▁causing	-11.4659
▁gramma	-11.4659
▁reset	-11.4659
▁sebbo	-11.4659
▁tractor	-11.4659
▁facial	-11.4659
▁sunrise	-11.4659
▁titans	-11.4659
▁ungrateful	-11.4659
▁absence	-11.4659
▁accurate	-11.4659
▁excessive	-11.4659
▁malone	-11.4659
▁lonesome	-11.4659
▁ladder	-11.4659
▁tooth	-11.4659
▁unsighted	-11.4659
▁babysitting	-11.4659
▁gentile	-11.4659
▁twitch	-11.4659
▁whatwhat	-11.4659
▁sugai	-11.4659
▁exotic	-11.4659
▁montana	-11.4659
▁composer	-11.4659
▁gringo	-11.4659
▁pavement	-11.4659
▁psychologist	-11.4659
▁seoul	-11.4659
▁satisfaction	-11.4659
▁generator	-11.4659
▁granddaughter	-11.4659
▁passionate	-11.4659
▁ayrs	-11.4659
▁dork	-11.4659
▁biack	-11.4659
▁kilo	-11.4659
▁bartender	-11.4659
▁slay	-11.4659
▁overpass	-11.4659
▁hellenic	-11.4659
▁andand	-11.4659
▁hhow	-11.4659
▁ignorant	-11.4659
▁centre	-11.466
▁fiddle	-11.466
▁totai	-11.466
▁turk	-11.466
▁codependent	-11.466
▁organic	-11.466
▁glance	-11.466
▁limp	-11.466
▁liability	-11.466
▁delta	-11.466
▁argh	-11.466
▁sinned	-11.466
▁pension	-11.466
▁polish	-11.466
▁spank	-11.466
▁miiii	-11.466
▁ethan	-11.466
▁chemo	-11.466
▁ira	-11.466
▁mitsy	-11.466
▁buckner	-11.466
▁superstar	-11.466
▁unmarried	-11.466
▁vain	-11.466
▁ransom	-11.466
▁meme	-11.466
▁lizard	-11.466
▁buffet	-11.466
▁campfire	-11.466
▁oana	-11.466
▁souk	-11.466
▁aaah	-11.466
▁intel	-11.466
▁dining	-11.466
▁springfield	-11.466
▁intuition	-11.466
▁monde	-11.466
▁diagnosis	-11.466
▁janie	-11.466
▁motivation	-11.466
▁recipe	-11.466
▁hatred	-11.466
▁squat	-11.466
▁earring	-11.466
▁liberty	-11.466
▁cynical	-11.466
▁mammy	-11.466
▁raving	-11.466
▁supervisor	-11.466
▁convey	-11.466
▁cooch	-11.466
▁haske	-11.466
▁dart	-11.466
▁palace	-11.466
▁undone	-11.466
▁fence	-11.4661
oohooh	-11.4661
▁dumpster	-11.4661
▁icu	-11.4661
▁refil	-11.4661
▁wolves	-11.4661
▁chubby	-11.4661
▁norway	-11.4661
▁harp	-11.4661
▁fowl	-11.4661
▁plancha	-11.4661
▁executive	-11.4661
▁hush	-11.4661
▁shang	-11.4661
▁petland	-11.4661
▁nword	-11.4661
▁beam	-11.4661
▁educated	-11.4661
▁sasha	-11.4661
▁binary	-11.4661
▁rach	-11.4661
▁lust	-11.4661
▁convert	-11.4661
▁discretion	-11.4661
▁intensi	-11.4661
▁covid	-11.4662
index	-11.4662
▁programming	-11.4662
▁awol	-11.4662
▁vegan	-11.4662
▁hardware	-11.4662
▁sawyer	-11.4662
▁firearm	-11.4662
▁tripping	-11.4662
▁invention	-11.4662
▁pooh	-11.4662
▁gagging	-11.4662
▁automatic	-11.4662
xter	-11.4662
▁hajj	-11.4662
▁sammy	-11.4662
▁chapel	-11.4662
▁harmless	-11.4662
▁rover	-11.4662
▁haif	-11.4662
▁civilian	-11.4662
▁obligated	-11.4662
▁affection	-11.4662
▁collective	-11.4662
▁iost	-11.4662
▁morality	-11.4662
▁bloated	-11.4662
▁viens	-11.4662
▁princeton	-11.4662
▁cooperation	-11.4662
▁bueno	-11.4662
▁maxim	-11.4663
▁symbolic	-11.4663
▁rebuild	-11.4663
▁gracious	-11.4663
▁platter	-11.4663
▁soda	-11.4663
▁portrait	-11.4663
▁caroline	-11.4663
▁vassary	-11.4663
▁stepping	-11.4663
ppa	-11.4663
otine	-11.4663
▁courtroom	-11.4663
▁gurgling	-11.4663
▁zu	-11.4663
▁classroom	-11.4664
▁toby	-11.4664
▁spicy	-11.4664
▁lem	-11.4664
▁sunny	-11.4664
▁mindset	-11.4664
▁rhythmic	-11.4664
▁youth	-11.4664
▁barney	-11.4664
▁coroner	-11.4664
▁workshop	-11.4664
▁phan	-11.4664
▁waive	-11.4664
▁ferry	-11.4664
▁waah	-11.4664
youre	-11.4665
▁bots	-11.4665
▁stockings	-11.4665
▁albi	-11.4665
▁achievement	-11.4665
▁phd	-11.4666
▁tux	-11.4666
▁taikin	-11.4666
titude	-11.4666
▁celebrity	-11.4666
▁lexy	-11.4666
▁vein	-11.4666
▁mmmmm	-11.4666
▁psychopathic	-11.4666
▁auste	-11.4666
inem	-11.4666
▁significant	-11.4666
▁sneakers	-11.4666
▁legitimate	-11.4667
▁toll	-11.4667
▁hart	-11.4667
▁mount	-11.4667
▁stepped	-11.4667
▁pol	-11.4667
▁grieving	-11.4667
▁reside	-11.4667
▁vu	-11.4667
▁peddl	-11.4667
▁traditional	-11.4668
zzing	-11.4668
▁sophi	-11.4668
inct	-11.4668
▁susanna	-11.4668
▁takin	-11.4668
▁accomplished	-11.4668
▁overwhelmed	-11.4668
▁marion	-11.4668
▁andes	-11.4668
▁quitting	-11.4669
▁shiv	-11.4669
▁producer	-11.4669
▁digger	-11.4669
▁vine	-11.4669
▁stalked	-11.4669
▁spain	-11.4669
▁supporters	-11.4669
▁halfway	-11.4669
▁scenery	-11.467
▁upsetting	-11.467
▁superb	-11.467
▁flipping	-11.467
encies	-11.467
▁publisher	-11.467
▁ahhh	-11.4671
▁fries	-11.4671
ulls	-11.4671
▁scope	-11.4672
▁gaines	-11.4673
▁directories	-11.4673
▁tailor	-11.4674
▁latin	-11.4674
▁compared	-11.4674
▁evacuated	-11.4674
▁restored	-11.4674
▁hoid	-11.4674
▁freshman	-11.4675
▁selfie	-11.4675
▁gently	-11.4675
▁juliet	-11.4676
▁moore	-11.4676
▁scale	-11.4677
▁wealthy	-11.4677
▁maddog	-11.4677
▁fixin	-11.4678
▁smartass	-11.4678
▁rapidly	-11.4678
▁hostages	-11.4679
▁margot	-11.4679
▁bleedin	-11.4679
▁roam	-11.4679
▁purc	-11.4679
▁uk	-11.4679
▁facebook	-11.468
▁departing	-11.468
▁stinky	-11.468
▁sul	-11.4681
▁awakened	-11.4681
▁backpack	-11.4682
▁waist	-11.4682
▁seventh	-11.4682
▁merit	-11.4683
▁hotter	-11.4683
▁kabal	-11.4683
▁herr	-11.4683
▁drawn	-11.4685
▁hospitality	-11.4685
mark	-11.4685
▁tapi	-11.4685
▁consumer	-11.4686
▁scooter	-11.4686
▁headline	-11.4686
▁declared	-11.4686
▁rage	-11.4687
▁barri	-11.4687
▁tenth	-11.4687
▁hike	-11.4688
▁boiling	-11.4689
▁hunk	-11.469
▁bridget	-11.4691
▁tempt	-11.4691
▁alexand	-11.4692
▁saddle	-11.4693
▁sonya	-11.4693
row	-11.4693
▁firemen	-11.4694
▁tide	-11.4695
▁severe	-11.4697
▁milli	-11.4697
▁donna	-11.4698
real	-11.4698
▁bumper	-11.4699
berry	-11.47
▁attracted	-11.47
▁this	-11.47
▁oughta	-11.47
▁linger	-11.4701
▁forgiven	-11.4701
▁cane	-11.4701
▁mild	-11.4702
▁roommate	-11.4703
▁traced	-11.4703
ace	-11.4703
▁sickness	-11.4703
▁standup	-11.4704
▁pinch	-11.4705
▁whine	-11.4705
▁ditched	-11.4706
▁wandered	-11.4707
▁bandit	-11.4707
▁downer	-11.4708
▁dere	-11.4708
gr	-11.471
▁jonesy	-11.4711
▁molested	-11.4713
▁grownups	-11.4713
▁elements	-11.4713
▁chores	-11.4713
▁recommended	-11.4713
stery	-11.4713
▁contractor	-11.4713
▁readout	-11.4713
▁smoothly	-11.4714
▁unti	-11.4715
▁ox	-11.4715
▁prevented	-11.472
▁topic	-11.472
▁responded	-11.472
▁extract	-11.4721
▁howdo	-11.4722
▁we	-11.4722
▁updated	-11.4723
▁boney	-11.4726
▁cog	-11.4726
eligible	-11.4726
▁pine	-11.4726
▁rivera	-11.473
▁commissioner	-11.4731
▁disappointing	-11.4732
▁grinding	-11.4732
▁saysoe	-11.4737
▁collected	-11.4739
▁grounds	-11.474
genital	-11.474
▁stressed	-11.4745
▁slash	-11.4747
▁fleas	-11.4748
▁survivors	-11.4748
▁neon	-11.4748
▁teaches	-11.4749
▁troops	-11.4749
▁abused	-11.475
▁endless	-11.475
▁holden	-11.475
▁ignored	-11.4751
▁beaut	-11.4751
▁crushed	-11.4752
▁rangers	-11.4752
headed	-11.4754
ised	-11.4762
▁attempted	-11.4765
oface	-11.4765
▁bosses	-11.4766
▁sling	-11.4766
▁shhh	-11.4767
▁finances	-11.4767
▁holdup	-11.4767
▁panick	-11.4768
▁baker	-11.477
▁missus	-11.4771
▁bogg	-11.4772
▁digital	-11.4774
fusion	-11.4774
▁bumped	-11.4776
▁chant	-11.4776
▁representing	-11.4778
▁cured	-11.478
▁crushing	-11.4784
▁moans	-11.4785
▁processed	-11.4791
this	-11.4793
▁taping	-11.4797
▁ant	-11.48
lomo	-11.4802
▁lily	-11.4802
ps	-11.4805
▁lander	-11.4807
old	-11.4811
▁sporting	-11.4812
yo	-11.4813
▁punishing	-11.4813
▁stre	-11.4814
▁scrape	-11.4815
▁sneaking	-11.4818
▁sweating	-11.4818
▁pouring	-11.4819
▁mal	-11.4819
▁principles	-11.4819
▁fireballs	-11.4819
▁inmates	-11.482
▁fleet	-11.4825
▁evan	-11.4826
▁cells	-11.4831
sey	-11.4832
▁comforting	-11.4839
ries	-11.4842
▁hideous	-11.4843
cept	-11.4843
▁procession	-11.485
▁references	-11.4855
▁owen	-11.4855
▁robb	-11.4856
▁teenagers	-11.4857
reasonable	-11.4857
▁deco	-11.4859
▁vers	-11.4859
▁hesitates	-11.4866
▁lag	-11.4869
▁itch	-11.4872
▁bah	-11.4875
▁murderous	-11.4882
▁discussed	-11.4882
▁concerning	-11.4882
aging	-11.4886
▁painted	-11.4887
▁punched	-11.4888
▁instincts	-11.4891
▁appreciated	-11.4899
▁cro	-11.49
▁eighty	-11.49
▁gall	-11.4904
▁banged	-11.4905
nogo	-11.4907
▁judged	-11.4908
▁crackers	-11.491
▁leech	-11.4913
▁targeted	-11.4913
▁suggesting	-11.4918
▁tor	-11.4925
▁stinks	-11.4926
▁chords	-11.4927
▁demands	-11.4928
▁painters	-11.4943
▁smiled	-11.4948
ran	-11.4953
vin	-11.4953
far	-11.4955
▁streams	-11.4964
▁visitors	-11.4965
▁coins	-11.4966
▁dol	-11.497
▁sandra	-11.4974
▁charts	-11.4993
▁destroying	-11.4994
▁cin	-11.4997
▁inn	-11.4999
▁abortions	-11.5
▁diamonds	-11.5
cant	-11.5
▁reader	-11.5007
▁drawers	-11.5009
▁sly	-11.5009
eau	-11.5014
olivia	-11.502
▁bowls	-11.5023
▁dated	-11.5032
▁crowded	-11.5032
▁sales	-11.5036
▁traitors	-11.5036
▁creatures	-11.5036
▁drawings	-11.5036
▁hooking	-11.5052
▁sher	-11.5053
▁respected	-11.5067
pin	-11.5068
▁parked	-11.507
▁whinn	-11.5071
ado	-11.5089
▁taped	-11.5091
▁irritate	-11.5103
▁lion	-11.5103
▁grounded	-11.5104
▁slipp	-11.5108
▁appointments	-11.5109
▁directions	-11.5109
▁standards	-11.5109
▁influence	-11.5111
▁hallow	-11.5116
▁raining	-11.5123
▁sar	-11.5128
▁caps	-11.5133
▁danced	-11.5139
▁aids	-11.5142
▁arti	-11.5145
▁jews	-11.5147
don	-11.515
ho	-11.5151
unded	-11.5152
▁scars	-11.5153
▁sleepy	-11.5169
eight	-11.5169
▁sticker	-11.517
▁gre	-11.5171
▁ter	-11.5175
▁characterize	-11.5176
▁ann	-11.5178
fucking	-11.5179
hoe	-11.518
▁rabbits	-11.5183
▁chipp	-11.5188
▁landing	-11.5189
ters	-11.519
phrase	-11.519
▁stakes	-11.5219
lier	-11.5237
▁br	-11.524
▁frankies	-11.5242
▁cand	-11.5256
▁clues	-11.5259
▁crossed	-11.526
▁sides	-11.5261
▁subsid	-11.5262
▁flags	-11.5264
▁shitter	-11.5265
ans	-11.5269
▁latte	-11.5272
▁killin	-11.528
▁did	-11.529
▁triple	-11.529
▁hearin	-11.5293
▁alrighty	-11.5293
▁plants	-11.5294
▁pauls	-11.5301
▁peas	-11.5305
▁grabb	-11.5315
▁detect	-11.5325
▁ferri	-11.5327
aii	-11.5337
▁cru	-11.5341
▁mikes	-11.5344
▁lecture	-11.5345
▁traveler	-11.5348
ows	-11.5348
▁feared	-11.5351
bell	-11.5363
▁cl	-11.5364
▁hoods	-11.5364
▁models	-11.5369
▁sentences	-11.5369
▁routines	-11.5369
ose	-11.5383
▁financ	-11.5387
skin	-11.5389
▁funds	-11.5397
eering	-11.5405
▁bats	-11.5407
▁centers	-11.5407
▁slowing	-11.5409
ington	-11.5411
rish	-11.542
▁bri	-11.5429
▁associate	-11.5431
▁now	-11.5433
▁rocking	-11.5453
▁abe	-11.5463
▁signing	-11.547
▁springs	-11.5482
och	-11.5483
▁mucho	-11.5484
▁cooke	-11.5488
▁recite	-11.5491
▁pad	-11.5499
▁writers	-11.5508
▁losers	-11.5519
▁saturdays	-11.552
▁findings	-11.5531
aba	-11.5545
gent	-11.555
▁zeros	-11.5561
▁goodman	-11.5564
▁damon	-11.5583
lon	-11.5596
▁towers	-11.5598
umm	-11.5603
▁managers	-11.5604
▁trucks	-11.5605
sm	-11.561
▁wal	-11.5613
ofy	-11.5617
▁crowns	-11.5633
▁elevators	-11.5634
▁travels	-11.5653
▁exists	-11.5665
▁ax	-11.5685
▁relaxing	-11.5708
▁loo	-11.5744
udge	-11.5744
▁programs	-11.575
rep	-11.5758
▁events	-11.5761
oo	-11.5766
under	-11.5767
▁tab	-11.5768
ulf	-11.5788
▁maps	-11.5788
▁docs	-11.5794
fashionable	-11.5801
▁oy	-11.5805
py	-11.5806
▁questioned	-11.5813
▁cleanse	-11.5823
rie	-11.5827
mus	-11.5839
▁gil	-11.5841
pi	-11.5842
▁arrange	-11.5855
▁confe	-11.5863
ified	-11.5891
▁bulldo	-11.5896
▁retrieve	-11.5903
▁doo	-11.5934
cul	-11.5934
eth	-11.5936
▁devastat	-11.5936
▁ay	-11.5942
▁goodies	-11.5948
cut	-11.5951
istic	-11.5952
▁dock	-11.5974
dam	-11.5976
▁attorneys	-11.5982
▁hisse	-11.6006
▁heller	-11.6009
▁don	-11.6018
▁curl	-11.6022
▁predict	-11.6023
▁os	-11.6024
▁bothers	-11.6027
▁deaths	-11.603
lover	-11.6053
▁hearings	-11.607
tal	-11.6094
▁risks	-11.6101
▁abnormal	-11.6107
ky	-11.6113
▁conscious	-11.6119
pes	-11.6121
ius	-11.6121
junction	-11.6129
▁liars	-11.614
▁decides	-11.6145
ig	-11.6151
hro	-11.6158
▁coo	-11.6164
▁causes	-11.617
▁mic	-11.6219
wski	-11.6225
▁sweets	-11.6226
▁bugg	-11.6239
ano	-11.6247
▁ext	-11.6248
▁trusts	-11.6252
▁dee	-11.6254
aged	-11.6256
▁ban	-11.6269
▁eu	-11.6274
hy	-11.6281
nquire	-11.6301
▁rott	-11.6301
▁mus	-11.6307
▁exhausti	-11.6321
▁mills	-11.6322
zing	-11.6322
cord	-11.6324
▁hooks	-11.6339
bed	-11.6339
▁mit	-11.6343
▁my	-11.6348
▁carol	-11.6348
▁imitate	-11.6361
nning	-11.6408
▁boards	-11.6408
epa	-11.642
▁henrys	-11.6421
▁righteous	-11.6429
isc	-11.6459
▁shakes	-11.6462
long	-11.6465
iving	-11.6472
tit	-11.6474
escent	-11.6475
▁indicat	-11.6492
▁rem	-11.6496
if	-11.6497
▁airs	-11.65
are	-11.6502
▁islands	-11.6503
llen	-11.6503
▁coup	-11.6513
found	-11.6523
▁lil	-11.6542
ional	-11.6562
atch	-11.6568
▁refer	-11.6568
zers	-11.6571
▁differences	-11.6584
ort	-11.6596
▁gener	-11.6603
▁pers	-11.6607
▁char	-11.6632
den	-11.6651
▁olivers	-11.6669
▁clar	-11.6671
oa	-11.6682
iar	-11.6688
oy	-11.6688
ju	-11.6707
indication	-11.6715
▁chast	-11.672
ht	-11.6737
▁arc	-11.6739
▁domin	-11.6754
▁sk	-11.6756
▁aspirin	-11.6761
▁exception	-11.6769
ists	-11.6781
umming	-11.6782
▁contribut	-11.6793
▁prima	-11.6793
star	-11.6799
▁vibrat	-11.6801
▁trips	-11.6804
▁nno	-11.6842
▁refuge	-11.6847
▁gel	-11.6861
▁owes	-11.6864
▁assassin	-11.6869
▁pap	-11.6873
atic	-11.6875
unk	-11.6879
▁buyer	-11.6886
▁gra	-11.6895
▁net	-11.6898
backs	-11.6902
▁spots	-11.692
▁scrap	-11.6926
exus	-11.6933
▁sponsor	-11.6937
mont	-11.6938
uring	-11.6954
nut	-11.6955
▁nuke	-11.6965
▁colonial	-11.6971
▁economic	-11.6971
▁tampon	-11.6971
▁opponent	-11.6971
▁colour	-11.6971
▁vincent	-11.6973
▁moan	-11.6974
▁origin	-11.6974
▁initial	-11.6974
▁michaels	-11.6974
▁stroke	-11.6975
ties	-11.6975
▁marine	-11.6977
▁nett	-11.6978
▁tack	-11.6979
▁moo	-11.6988
▁explosive	-11.6989
▁enterprise	-11.6989
van	-11.699
▁reflection	-11.6992
▁stunt	-11.6993
▁distraction	-11.6998
▁complaint	-11.7003
▁ritual	-11.7003
▁increase	-11.7005
▁luca	-11.7005
▁citizen	-11.7007
▁rustle	-11.701
▁spec	-11.7022
▁crow	-11.7035
▁swap	-11.7036
ened	-11.704
▁toe	-11.705
▁var	-11.7054
▁hee	-11.7056
▁invit	-11.7058
▁ado	-11.7059
poli	-11.706
arian	-11.706
▁martini	-11.7061
▁shi	-11.7064
▁taco	-11.7067
rit	-11.7073
▁biting	-11.7075
birth	-11.7076
keep	-11.708
read	-11.7083
▁bru	-11.7087
▁comm	-11.709
wait	-11.7097
graph	-11.7103
▁bre	-11.7104
▁holla	-11.7106
▁manufacture	-11.7106
▁charg	-11.7106
▁chocolat	-11.7112
▁boil	-11.7113
▁splash	-11.7116
have	-11.7118
where	-11.7118
▁cloth	-11.712
▁offend	-11.712
▁calculat	-11.7122
▁suppos	-11.7122
umption	-11.7123
▁disgust	-11.7123
▁chirp	-11.7123
▁scoot	-11.7124
▁scor	-11.7125
foot	-11.7126
▁consum	-11.7126
wife	-11.7127
▁accord	-11.7127
body	-11.7127
▁systems	-11.7128
▁offens	-11.7129
jugat	-11.7129
stock	-11.713
point	-11.7131
▁clank	-11.7131
▁restart	-11.7131
▁reward	-11.7131
break	-11.7132
▁dismiss	-11.7132
▁convent	-11.7132
▁clang	-11.7132
guard	-11.7133
q	-11.7134
check	-11.7135
▁reduce	-11.7135
▁deport	-11.7136
play	-11.7137
fast	-11.7137
cliff	-11.7137
when	-11.7137
generation	-11.7137
▁improve	-11.7137
▁locate	-11.7138
class	-11.7138
finished	-11.7138
white	-11.7138
beard	-11.7138
course	-11.7138
bash	-11.7139
order	-11.7139
high	-11.7139
▁delete	-11.7139
little	-11.7139
▁puke	-11.7139
▁evacuate	-11.7139
▁compare	-11.7139
▁approve	-11.7139
taking	-11.714
▁anticipate	-11.7141
abby	-11.7142
▁frankl	-11.7142
▁heli	-11.7142
lom	-11.7143
▁pronounce	-11.7143
▁savage	-11.7143
▁annual	-11.7144
▁encourage	-11.7144
▁permanent	-11.7144
▁thorough	-11.7144
fish	-11.7144
▁infinit	-11.7145
water	-11.7146
fried	-11.7147
▁instruct	-11.7147
▁stud	-11.7148
away	-11.7148
wash	-11.7148
▁flick	-11.7149
▁activate	-11.7149
▁nois	-11.7149
pass	-11.7149
erson	-11.7151
▁reflex	-11.7152
term	-11.7152
▁cuban	-11.7152
▁pled	-11.7153
▁australia	-11.7153
▁incompeten	-11.7153
stick	-11.7153
▁floss	-11.7153
▁avenge	-11.7153
▁marv	-11.7153
▁arrogan	-11.7153
uja	-11.7154
▁probabi	-11.7154
▁prosecut	-11.7154
rop	-11.7154
▁russia	-11.7154
▁berl	-11.7155
pit	-11.7155
▁officia	-11.7156
stage	-11.7156
▁flap	-11.7156
▁grocer	-11.7156
▁isla	-11.7156
▁joseph	-11.7156
▁drivin	-11.7156
▁resurrect	-11.7157
▁motivat	-11.7157
▁republic	-11.7157
▁givin	-11.7157
▁zach	-11.7157
▁interpret	-11.7157
▁hobb	-11.7157
▁arriv	-11.7158
▁conspir	-11.7158
▁triumph	-11.7158
elimina	-11.7158
▁uncertain	-11.7158
▁scholar	-11.7158
▁insecur	-11.7158
crucia	-11.7159
▁kentucky	-11.7159
▁seducti	-11.7159
▁septic	-11.7159
phobia	-11.7159
▁adjective	-11.7159
▁affirmative	-11.7159
▁agenda	-11.7159
▁aghadoe	-11.7159
▁alibi	-11.7159
▁altogether	-11.7159
▁apoiogize	-11.7159
▁arabella	-11.7159
▁articulate	-11.7159
▁astronaut	-11.7159
▁asylum	-11.7159
▁atlanta	-11.7159
▁audrey	-11.7159
▁authentic	-11.7159
▁autistic	-11.7159
▁autumn	-11.7159
▁baccarat	-11.7159
▁bankrupt	-11.7159
▁bbc	-11.7159
▁beautifui	-11.7159
▁beaver	-11.7159
▁behaviour	-11.7159
▁believing	-11.7159
▁billionaire	-11.7159
▁blomkvist	-11.7159
▁boerhaave	-11.7159
▁bonsoir	-11.7159
▁bounty	-11.7159
▁bourbon	-11.7159
▁brackett	-11.7159
▁briegleb	-11.7159
▁camilla	-11.7159
▁carriage	-11.7159
▁clerq	-11.7159
▁cloves	-11.7159
▁colmsonnylarry	-11.7159
▁composing	-11.7159
▁congratulate	-11.7159
▁content	-11.7159
▁convincing	-11.7159
▁crucified	-11.7159
▁curfew	-11.7159
▁cushion	-11.7159
▁deceased	-11.7159
▁december	-11.7159
▁dekalb	-11.7159
▁despair	-11.7159
▁desperation	-11.7159
▁deuce	-11.7159
▁disciples	-11.7159
▁disgrace	-11.7159
▁disposable	-11.7159
▁doorstep	-11.7159
▁dorchester	-11.7159
▁eievator	-11.7159
▁elmhurst	-11.7159
▁emerging	-11.7159
▁empathy	-11.7159
▁empingao	-11.7159
▁enfleurage	-11.7159
▁essex	-11.7159
▁ethiopian	-11.7159
▁executed	-11.7159
▁experiencing	-11.7159
▁filpatrick	-11.7159
▁firecracker	-11.7159
▁foxtrot	-11.7159
▁francais	-11.7159
▁garrett	-11.7159
▁geography	-11.7159
▁geronimo	-11.7159
▁godfather	-11.7159
▁granmi	-11.7159
▁grumpy	-11.7159
▁happily	-11.7159
▁hispanic	-11.7159
▁incapable	-11.7159
▁inferior	-11.7159
▁inlaw	-11.7159
▁input	-11.7159
▁inspiring	-11.7159
▁intensifying	-11.7159
▁intimate	-11.7159
▁invasion	-11.7159
▁irrelevant	-11.7159
▁isoiation	-11.7159
▁jangshemash	-11.7159
▁javier	-11.7159
▁jocasta	-11.7159
▁keister	-11.7159
▁kolpos	-11.7159
▁krueger	-11.7159
▁kujaku	-11.7159
▁lawsuit	-11.7159
▁libido	-11.7159
▁lullaby	-11.7159
▁macneii	-11.7159
▁marjarie	-11.7159
▁marshmallow	-11.7159
▁marybeth	-11.7159
▁massachusetts	-11.7159
▁matsumoto	-11.7159
▁mesquita	-11.7159
▁misunderstood	-11.7159
▁mohican	-11.7159
▁morphine	-11.7159
▁moyerson	-11.7159
▁mozart	-11.7159
▁nikolas	-11.7159
▁nipples	-11.7159
▁noakes	-11.7159
▁norw	-11.7159
▁notorious	-11.7159
▁obama	-11.7159
▁oblivio	-11.7159
▁october	-11.7159
▁opposing	-11.7159
▁parachute	-11.7159
▁parakeet	-11.7159
▁peculiar	-11.7159
▁pedophile	-11.7159
▁pelissier	-11.7159
▁penitentiary	-11.7159
▁pepperoni	-11.7159
▁petition	-11.7159
▁phoenix	-11.7159
▁plummet	-11.7159
▁popcorn	-11.7159
▁poverty	-11.7159
▁pragmatic	-11.7159
▁precision	-11.7159
▁presbyterian	-11.7159
▁primitive	-11.7159
▁prototype	-11.7159
▁qantas	-11.7159
▁quarrel	-11.7159
▁racket	-11.7159
▁receipt	-11.7159
▁recipient	-11.7159
▁reconcil	-11.7159
▁reduction	-11.7159
▁registration	-11.7159
▁relevant	-11.7159
▁rhode	-11.7159
▁roccaraso	-11.7159
▁rodrigo	-11.7159
▁shanley	-11.7159
▁siblings	-11.7159
▁significance	-11.7159
▁simultaneous	-11.7159
▁skeezer	-11.7159
▁slovenia	-11.7159
▁sociopath	-11.7159
▁spencer	-11.7159
▁staffordshire	-11.7159
▁stewardess	-11.7159
▁stosh	-11.7159
▁submit	-11.7159
▁sunscreen	-11.7159
▁sutra	-11.7159
▁sympathy	-11.7159
▁synthient	-11.7159
▁tampa	-11.7159
▁totem	-11.7159
▁troubie	-11.7159
▁tsunami	-11.7159
▁twanging	-11.7159
▁unacceptable	-11.7159
▁unbearable	-11.7159
▁ursula	-11.7159
▁vegetarian	-11.7159
▁wagner	-11.7159
▁weasel	-11.7159
▁wilshire	-11.7159
▁windthorne	-11.7159
▁wyatt	-11.7159
▁accumulat	-11.7159
▁canyon	-11.7159
▁carrots	-11.7159
▁domestic	-11.7159
▁freelance	-11.7159
▁ghetto	-11.7159
▁google	-11.7159
▁keaty	-11.7159
▁louisiana	-11.7159
▁mourn	-11.7159
▁neutral	-11.7159
▁pendant	-11.7159
▁postpone	-11.7159
▁saudi	-11.7159
▁shrunk	-11.7159
▁tatti	-11.7159
▁unpleasant	-11.7159
▁whyre	-11.7159
egian	-11.7159
▁daisies	-11.7159
▁franchise	-11.7159
▁gtg	-11.7159
▁ilych	-11.7159
▁immune	-11.7159
▁malfunction	-11.7159
▁nenn	-11.7159
▁redneck	-11.7159
▁reverse	-11.7159
▁schooner	-11.7159
▁serial	-11.7159
▁trilogy	-11.7159
annah	-11.7159
zhen	-11.7159
▁atm	-11.7159
▁awaits	-11.7159
▁bullseye	-11.7159
▁defensive	-11.7159
▁disbarred	-11.7159
▁doris	-11.7159
▁homosexual	-11.7159
▁ifthe	-11.7159
▁leroy	-11.7159
▁luton	-11.7159
▁millionaire	-11.7159
▁endearing	-11.7159
▁ernie	-11.7159
▁headhunter	-11.7159
▁narrow	-11.7159
▁noticing	-11.7159
▁resort	-11.7159
▁ernest	-11.7159
▁soothe	-11.7159
▁stove	-11.7159
▁inflict	-11.7159
▁liberal	-11.7159
▁trillion	-11.7159
▁ghoul	-11.7159
▁haskins	-11.7159
▁subtle	-11.7159
▁alligator	-11.7159
▁ingenious	-11.7159
▁serra	-11.7159
▁yuko	-11.7159
▁karma	-11.7159
▁minerals	-11.7159
▁sincerely	-11.7159
▁kintry	-11.7159
▁prominent	-11.7159
▁communicating	-11.7159
▁gravy	-11.7159
▁interference	-11.7159
▁lumin	-11.7159
▁rajiv	-11.7159
▁ugli	-11.7159
▁allez	-11.7159
▁lipstick	-11.7159
▁terminate	-11.7159
▁willow	-11.7159
▁yasser	-11.7159
▁paquin	-11.7159
▁paretti	-11.7159
▁mellow	-11.7159
▁revolv	-11.7159
▁thurman	-11.7159
▁kamal	-11.7159
▁midwest	-11.7159
▁rooster	-11.7159
▁snide	-11.7159
▁bureau	-11.7159
▁gabrielle	-11.7159
▁hostess	-11.7159
▁narrative	-11.7159
▁rosie	-11.7159
▁bdr	-11.7159
▁flew	-11.7159
▁granite	-11.7159
▁lizzy	-11.7159
▁flawless	-11.7159
▁jacque	-11.7159
▁souad	-11.7159
▁strode	-11.7159
▁pirate	-11.7159
▁creativity	-11.7159
▁glamour	-11.7159
▁grenade	-11.7159
▁jagger	-11.7159
▁antenna	-11.7159
▁precaution	-11.7159
▁spear	-11.7159
▁stalin	-11.7159
▁untouchable	-11.7159
▁tolerance	-11.7159
▁youtube	-11.7159
▁humanitarian	-11.7159
▁stench	-11.7159
▁croak	-11.7159
▁dedication	-11.7159
▁belize	-11.7159
▁earthrealm	-11.7159
▁downhill	-11.7159
▁fragile	-11.7159
▁injuries	-11.7159
▁perception	-11.7159
▁discount	-11.7159
▁distill	-11.7159
▁grape	-11.7159
▁jafar	-11.7159
▁providence	-11.7159
▁underwater	-11.7159
▁foreplay	-11.7159
▁hastings	-11.7159
▁throne	-11.7159
▁twentyfive	-11.7159
▁advertising	-11.7159
▁unpredictable	-11.7159
▁introduction	-11.7159
▁stabbing	-11.7159
▁sympathe	-11.7159
▁cartels	-11.7159
▁shelton	-11.7159
▁vampire	-11.7159
▁interrogation	-11.7159
▁marrow	-11.7159
▁hendri	-11.7159
▁tramp	-11.7159
▁shelf	-11.7159
▁drones	-11.7159
▁expendable	-11.7159
▁frag	-11.7159
▁aircraft	-11.7159
▁klu	-11.7159
▁circulation	-11.7159
▁humidity	-11.7159
▁spark	-11.7159
▁cigar	-11.7159
▁laptop	-11.7159
▁unstable	-11.7159
▁glamo	-11.7159
▁slack	-11.7159
▁vault	-11.7159
▁thailand	-11.7159
▁intrigu	-11.7159
▁obey	-11.7159
▁verge	-11.7159
▁interact	-11.7159
▁uneasy	-11.7159
▁vicious	-11.7159
▁blackburn	-11.7159
▁booga	-11.7159
▁drummer	-11.7159
▁slang	-11.7159
▁tidy	-11.7159
▁jewelry	-11.7159
▁selim	-11.7159
omination	-11.7159
▁singsong	-11.7159
▁eff	-11.7159
▁goddess	-11.7159
▁lurk	-11.7159
▁chestnut	-11.7159
▁delusional	-11.7159
▁sentimental	-11.7159
▁tubbs	-11.7159
▁cinder	-11.7159
▁display	-11.7159
▁embarrassment	-11.7159
▁conlon	-11.716
▁customary	-11.716
▁duane	-11.716
▁squirt	-11.716
▁beeface	-11.716
▁championship	-11.716
▁sloppy	-11.716
▁banu	-11.716
▁civilization	-11.716
▁playground	-11.716
▁expelled	-11.716
▁handwriting	-11.716
▁sarcastic	-11.716
▁puii	-11.716
▁folo	-11.716
▁inhuman	-11.716
▁institute	-11.716
▁levy	-11.716
▁russ	-11.716
▁skim	-11.716
▁denise	-11.716
▁giri	-11.716
▁congrat	-11.716
▁sustain	-11.716
▁victorious	-11.716
▁prettie	-11.716
▁landlady	-11.716
▁delac	-11.716
▁simone	-11.716
▁envy	-11.716
▁encouragement	-11.716
▁laddie	-11.716
▁neglectful	-11.716
▁fiona	-11.716
▁identificati	-11.716
▁transferring	-11.716
▁sherry	-11.716
▁exwife	-11.716
▁jangling	-11.716
chever	-11.716
▁finna	-11.716
▁cotton	-11.716
▁podium	-11.716
▁marcus	-11.716
▁nanana	-11.716
▁piay	-11.716
▁absent	-11.716
▁confidentiality	-11.716
▁southwest	-11.716
▁brainwash	-11.716
▁catfish	-11.716
▁insistent	-11.716
▁venable	-11.716
▁frederick	-11.716
▁henley	-11.716
▁doggy	-11.716
▁claus	-11.716
▁vouch	-11.716
▁viral	-11.716
▁ajob	-11.716
▁poppy	-11.7161
▁narcissist	-11.7161
▁spinning	-11.7161
▁masculine	-11.7161
▁sabotage	-11.7161
▁consultant	-11.7161
▁seventeen	-11.7161
▁strategy	-11.7161
▁festival	-11.7161
▁withdrawal	-11.7161
▁drastic	-11.7161
▁justify	-11.7161
▁fright	-11.7161
▁dadadada	-11.7161
▁yankee	-11.7161
▁observers	-11.7161
▁jonna	-11.7161
▁krista	-11.7161
▁countries	-11.7161
▁ipad	-11.7161
▁leadership	-11.7161
▁conviction	-11.7161
▁satanic	-11.7161
▁filter	-11.7161
▁skies	-11.7161
▁zoom	-11.7161
▁iight	-11.7162
▁lilies	-11.7162
▁courtmartial	-11.7162
▁rebirth	-11.7162
▁dreadful	-11.7162
▁aione	-11.7162
▁bold	-11.7162
▁retirement	-11.7162
▁arson	-11.7162
▁kha	-11.7162
▁waik	-11.7162
▁signai	-11.7162
▁acquainted	-11.7162
▁catatonic	-11.7162
▁frog	-11.7162
▁climate	-11.7162
▁impair	-11.7162
▁craft	-11.7162
▁hamp	-11.7162
▁apb	-11.7162
▁sufficient	-11.7163
▁searing	-11.7163
▁retest	-11.7163
▁reai	-11.7163
▁suppress	-11.7163
▁damp	-11.7163
▁marina	-11.7163
▁execution	-11.7163
▁query	-11.7163
▁stack	-11.7163
ility	-11.7163
▁angrier	-11.7163
▁astronomer	-11.7163
▁hamburger	-11.7163
▁luxur	-11.7163
hearted	-11.7163
▁paralyzed	-11.7163
▁poker	-11.7163
▁development	-11.7163
▁trim	-11.7163
▁choc	-11.7163
▁heck	-11.7163
▁troll	-11.7163
▁voila	-11.7163
▁objective	-11.7164
▁satanist	-11.7164
▁gradua	-11.7164
▁designation	-11.7164
▁fairfield	-11.7164
▁potter	-11.7164
▁theatre	-11.7164
▁planner	-11.7164
▁thai	-11.7164
▁zion	-11.7164
▁incompetent	-11.7164
▁semen	-11.7164
▁worn	-11.7164
▁ministry	-11.7164
▁excellency	-11.7164
▁jeopardy	-11.7164
▁gangster	-11.7164
▁fiend	-11.7164
▁arro	-11.7164
▁yoona	-11.7165
▁mopey	-11.7165
▁yeii	-11.7165
▁chittering	-11.7165
▁bangee	-11.7165
▁ici	-11.7165
▁slate	-11.7165
▁mentor	-11.7165
▁dumpling	-11.7165
▁frequent	-11.7165
▁terrifying	-11.7165
▁escaping	-11.7165
▁hull	-11.7165
▁appleton	-11.7165
▁murmuring	-11.7165
▁sav	-11.7165
▁booties	-11.7165
▁bravery	-11.7165
▁belongings	-11.7165
▁grimal	-11.7165
▁meds	-11.7166
▁waving	-11.7166
▁teasing	-11.7166
▁maat	-11.7166
▁balm	-11.7166
▁acre	-11.7166
▁attachment	-11.7166
▁bias	-11.7166
▁foreman	-11.7166
▁mcki	-11.7167
▁travelling	-11.7167
▁wilderness	-11.7167
▁consist	-11.7167
▁snoop	-11.7167
▁geek	-11.7167
▁dyin	-11.7167
▁droid	-11.7168
▁ego	-11.7168
▁hahn	-11.7168
▁hopin	-11.7168
▁yoke	-11.7168
▁bouncing	-11.7168
▁twofive	-11.7168
▁portion	-11.7168
▁hugh	-11.7168
▁boiler	-11.7169
▁sig	-11.7169
▁handgun	-11.7169
▁flake	-11.7169
▁hash	-11.7169
▁urine	-11.717
▁stitches	-11.717
▁guardian	-11.717
▁grin	-11.717
▁dire	-11.7171
det	-11.7171
inity	-11.7171
▁tension	-11.7171
▁campus	-11.7171
▁meow	-11.7171
▁projection	-11.7171
▁playboy	-11.7171
▁dickhead	-11.7171
▁baba	-11.7171
▁prescribed	-11.7171
▁summoned	-11.7171
▁transformed	-11.7171
bri	-11.7172
▁published	-11.7172
▁handcuffed	-11.7172
▁homemade	-11.7172
▁zapped	-11.7172
▁vp	-11.7172
▁underestimated	-11.7172
▁booby	-11.7172
▁hose	-11.7172
mino	-11.7172
open	-11.7172
▁speechless	-11.7173
▁enable	-11.7173
▁fractured	-11.7173
▁humiliated	-11.7173
▁shining	-11.7173
▁fax	-11.7173
han	-11.7174
▁certainty	-11.7174
▁zoo	-11.7174
gda	-11.7175
▁bloodline	-11.7175
▁european	-11.7175
▁jang	-11.7175
▁weatherman	-11.7176
▁fussing	-11.7176
▁overreacting	-11.7176
▁frightening	-11.7176
▁stunning	-11.7176
abroad	-11.7177
▁trot	-11.7178
▁fatty	-11.7178
▁controlled	-11.7178
▁activated	-11.7179
▁improved	-11.7179
▁puked	-11.7179
▁deleted	-11.7179
▁noche	-11.7179
▁pronounced	-11.7179
▁icky	-11.7179
▁battery	-11.7179
▁colin	-11.7179
▁acceptable	-11.718
▁snatched	-11.718
▁leverage	-11.718
ut	-11.718
▁entertained	-11.7181
▁dio	-11.7181
▁legion	-11.7181
▁oppose	-11.7181
▁fry	-11.7181
▁musician	-11.7182
▁agony	-11.7182
best	-11.7182
▁bina	-11.7182
▁huntin	-11.7182
▁dub	-11.7183
▁staging	-11.7183
▁simms	-11.7183
▁anticipated	-11.7183
▁suitable	-11.7184
▁agreeable	-11.7184
▁satan	-11.7184
neys	-11.7184
▁eternally	-11.7184
▁tyro	-11.7185
▁affirmations	-11.7185
▁calculations	-11.7185
▁dinosaurs	-11.7185
▁hamptons	-11.7185
▁pyramids	-11.7185
▁reservoirs	-11.7185
▁sprinklers	-11.7185
▁lockup	-11.7185
mium	-11.7185
▁snapping	-11.7185
▁fet	-11.7187
▁mustang	-11.7187
▁vous	-11.7187
rgas	-11.7188
▁rewarded	-11.7188
▁instantly	-11.7188
▁dole	-11.7189
▁employer	-11.719
▁defined	-11.719
▁handlers	-11.7191
▁fiance	-11.7192
▁swarm	-11.7192
▁puttin	-11.7192
▁nightnight	-11.7194
▁controlling	-11.7194
▁dice	-11.7195
▁heyward	-11.7195
▁achieved	-11.7195
▁puzzled	-11.7196
▁tickle	-11.7197
▁invested	-11.7197
▁disconnected	-11.7197
▁nagging	-11.7197
itsy	-11.7197
▁homeboy	-11.7198
▁brandy	-11.7198
▁splashing	-11.7198
▁chen	-11.7198
▁pace	-11.7199
▁nanna	-11.7201
▁launcher	-11.7201
▁dru	-11.7202
▁bray	-11.7202
▁bulletin	-11.7203
▁lub	-11.7203
▁scanner	-11.7203
▁delighted	-11.7205
▁registered	-11.7205
uddy	-11.7206
▁reconnect	-11.7206
▁skilled	-11.7206
▁govern	-11.7208
▁crunching	-11.721
▁hitting	-11.721
▁nathan	-11.721
▁corrections	-11.721
▁squealing	-11.721
▁pastor	-11.7211
▁manicur	-11.7211
asis	-11.7214
▁altered	-11.7214
▁computers	-11.7214
▁sung	-11.7215
▁jackass	-11.7215
▁wisely	-11.7216
▁bic	-11.7216
▁equally	-11.7217
▁squeezed	-11.7218
▁richest	-11.722
▁restore	-11.7221
▁swish	-11.7221
▁battering	-11.7221
▁trespassing	-11.7221
▁cove	-11.7221
▁mick	-11.7221
▁reminder	-11.7226
▁starve	-11.7227
▁ration	-11.7228
▁illana	-11.723
▁reloads	-11.723
▁chrissakes	-11.723
▁wasps	-11.723
▁accusations	-11.723
▁investors	-11.723
▁requirements	-11.723
▁fal	-11.723
▁defeated	-11.723
▁creamer	-11.7231
▁surrounding	-11.7232
▁pike	-11.7233
▁rust	-11.7234
▁pisses	-11.7236
▁organs	-11.7237
▁pss	-11.7238
▁carving	-11.7239
▁linked	-11.7239
▁perfection	-11.724
ames	-11.7241
▁posed	-11.7242
▁poly	-11.7242
▁cesare	-11.7242
▁pier	-11.7243
▁marcell	-11.7245
▁fried	-11.7246
▁era	-11.7247
▁coop	-11.7247
▁illegally	-11.7248
▁poop	-11.7249
▁carried	-11.725
▁pause	-11.7251
▁tro	-11.7253
▁ruby	-11.7253
▁bradlee	-11.7253
▁frisk	-11.7254
▁sweeping	-11.7255
▁awarded	-11.7257
▁madman	-11.7257
▁detailed	-11.7258
▁ambi	-11.726
▁defended	-11.7265
edge	-11.7266
▁prey	-11.7267
▁fame	-11.7268
▁any	-11.7269
▁scheduled	-11.7271
anita	-11.7273
▁pale	-11.7273
▁hesitation	-11.7274
▁needham	-11.7274
▁occurs	-11.7276
alliance	-11.7276
▁meeks	-11.7277
▁algorithms	-11.7277
▁crates	-11.7277
▁bubbles	-11.7278
ush	-11.728
mans	-11.7281
cet	-11.7281
▁emailed	-11.7281
ellos	-11.7283
▁swapp	-11.7283
hey	-11.7285
▁unite	-11.7286
fied	-11.7287
llor	-11.7287
▁appeared	-11.7287
▁mainly	-11.7288
rais	-11.7289
▁weeping	-11.7289
▁earning	-11.7294
▁eiectr	-11.7296
isse	-11.7296
▁dod	-11.7297
▁mae	-11.7298
▁approached	-11.7299
▁beaches	-11.7299
▁kiiiing	-11.7301
▁assaulted	-11.7307
▁awe	-11.731
ken	-11.7312
▁allies	-11.7313
▁bella	-11.7314
▁mais	-11.7317
▁fer	-11.7317
abolis	-11.7317
▁sane	-11.732
oggy	-11.7322
▁developing	-11.7324
▁distractions	-11.7324
▁musicians	-11.7324
▁seeds	-11.7325
▁hysteri	-11.733
▁rubb	-11.7331
▁wy	-11.7331
▁dunk	-11.7331
▁carve	-11.7333
▁aiming	-11.7334
▁thieve	-11.7335
▁deserted	-11.7341
▁cig	-11.7344
▁psychiatr	-11.7345
▁smashing	-11.735
▁danis	-11.7356
ks	-11.7357
own	-11.7359
▁proceeding	-11.737
▁ruining	-11.737
▁scann	-11.737
▁roots	-11.737
▁awaken	-11.737
▁repairs	-11.7371
▁vessels	-11.7371
▁rivas	-11.7371
▁chaps	-11.7372
▁mute	-11.7372
▁failing	-11.7373
▁niceness	-11.7379
▁yorker	-11.7379
▁juli	-11.738
▁shackle	-11.7383
▁purge	-11.7388
▁publicly	-11.7389
▁chilling	-11.7394
▁hinge	-11.7394
ctic	-11.7399
▁completed	-11.7399
▁guessing	-11.7401
olet	-11.7403
▁shootin	-11.7404
▁understandable	-11.741
about	-11.7412
▁lotion	-11.7415
ctor	-11.7417
▁methods	-11.7418
▁pipelines	-11.7418
▁arrows	-11.7419
▁donuts	-11.7419
going	-11.7424
▁exceptional	-11.7424
six	-11.7425
lessness	-11.7427
ising	-11.743
▁gy	-11.7431
▁quieter	-11.744
decoration	-11.7442
cies	-11.7443
pure	-11.7446
havin	-11.7453
▁organis	-11.7454
▁mitt	-11.7456
▁gran	-11.7457
▁boner	-11.7458
▁sty	-11.7459
▁institutions	-11.7465
▁reactions	-11.7466
nor	-11.7473
▁orch	-11.7477
▁dealin	-11.7482
▁gram	-11.749
▁strongly	-11.7491
▁designat	-11.7491
▁fiveo	-11.75
▁mugg	-11.7501
▁rocky	-11.7501
▁sperm	-11.7504
▁ches	-11.7506
▁mango	-11.7511
nation	-11.7514
▁comics	-11.7514
▁beliefs	-11.7514
▁elephants	-11.7514
willed	-11.7514
gue	-11.7516
▁cornered	-11.7518
▁turnin	-11.7534
▁securit	-11.7537
▁gov	-11.7538
▁willi	-11.7539
▁marketing	-11.7543
▁scramble	-11.7549
rest	-11.7554
rr	-11.7555
▁discussing	-11.7556
▁hosts	-11.7561
▁lookout	-11.7562
▁breasts	-11.7562
▁myths	-11.7562
▁reservations	-11.7562
▁warriors	-11.7562
▁packing	-11.7567
ike	-11.7581
▁wolfe	-11.7583
▁whit	-11.7594
▁texting	-11.7596
▁gib	-11.7601
apis	-11.7606
▁tigers	-11.7611
▁homicides	-11.7611
▁is	-11.7611
▁longest	-11.7612
▁settlements	-11.7612
▁barks	-11.7615
▁yanks	-11.7616
▁aha	-11.7617
▁growl	-11.7622
▁pressed	-11.7622
▁suited	-11.7626
▁sleepwalk	-11.7635
som	-11.7636
▁tar	-11.7638
▁peach	-11.7645
▁feeding	-11.7651
▁poster	-11.7655
▁mids	-11.7656
▁gains	-11.7658
▁cuffs	-11.7659
▁servants	-11.7659
▁accountants	-11.7659
▁engineers	-11.766
▁livein	-11.7661
▁nerves	-11.7662
▁inhale	-11.7667
▁retain	-11.7668
▁selfrighteous	-11.7669
▁hairy	-11.7671
▁shitless	-11.7673
▁thankful	-11.7686
▁haz	-11.7689
▁eta	-11.7696
▁punks	-11.7697
▁zipper	-11.7701
▁clones	-11.7708
▁tuesdays	-11.7708
▁clydes	-11.7708
▁perverts	-11.7709
▁mari	-11.7715
▁accounting	-11.7716
inal	-11.7716
evin	-11.7722
ification	-11.7726
▁chic	-11.7727
▁jams	-11.7736
oud	-11.7745
▁virgins	-11.7746
▁honk	-11.7753
aches	-11.7754
uc	-11.776
▁fielder	-11.7769
mone	-11.7774
▁fees	-11.7788
▁grit	-11.7792
mos	-11.7793
▁user	-11.7825
▁alli	-11.7836
▁lik	-11.7839
cha	-11.7845
tters	-11.7849
ckless	-11.7871
▁ledge	-11.7872
▁explained	-11.7878
▁tai	-11.7879
gummy	-11.7879
▁illness	-11.7885
▁sw	-11.7897
▁cher	-11.7898
▁merci	-11.7902
ender	-11.7904
▁winters	-11.7907
▁maids	-11.7908
▁cease	-11.7909
▁turb	-11.7911
▁eliminate	-11.7912
▁articles	-11.7912
▁hack	-11.7924
▁pies	-11.793
▁interrogate	-11.7937
wi	-11.7938
ifted	-11.7938
▁stayin	-11.7952
heads	-11.7953
miss	-11.7954
▁pierc	-11.7956
▁images	-11.7957
▁bounce	-11.7958
cess	-11.7975
ches	-11.7975
▁optimist	-11.7982
▁roller	-11.7985
tr	-11.8001
▁liquidat	-11.8004
▁respectful	-11.8006
▁troubled	-11.8006
▁reviews	-11.8008
ntact	-11.8009
oise	-11.8016
▁tortur	-11.8016
▁interven	-11.8025
ethical	-11.8037
tar	-11.8037
ggie	-11.8038
▁leaders	-11.8039
▁listenin	-11.8049
iger	-11.806
▁yay	-11.8068
▁mai	-11.8072
ending	-11.8077
▁inquir	-11.808
▁viv	-11.8094
▁bl	-11.8102
▁magazines	-11.8105
▁feelin	-11.8106
aux	-11.8106
fus	-11.8107
abie	-11.8123
▁hanged	-11.8126
▁spotte	-11.8127
▁explaining	-11.8137
▁courts	-11.814
▁psychos	-11.814
jj	-11.8141
onym	-11.8144
kay	-11.8148
dependent	-11.8148
▁pilots	-11.8156
▁murdering	-11.8165
▁comp	-11.8168
chen	-11.8171
anned	-11.8191
▁routes	-11.8194
ica	-11.8195
▁mirrors	-11.8207
▁desires	-11.8207
nite	-11.8215
▁exten	-11.8219
tor	-11.8243
▁ep	-11.8246
▁murderers	-11.8256
lish	-11.8261
▁serves	-11.8261
▁hurr	-11.8262
storm	-11.8263
asha	-11.8271
▁ang	-11.8275
▁wished	-11.8287
ark	-11.8289
ga	-11.8291
▁pats	-11.8291
▁engines	-11.8291
air	-11.8296
▁channels	-11.8309
▁subjects	-11.8309
ino	-11.8313
▁camps	-11.8314
cuz	-11.8317
▁whil	-11.8323
ify	-11.8328
▁rider	-11.8341
▁sacrifices	-11.8352
kin	-11.8353
▁gag	-11.8356
▁butts	-11.8359
▁cancers	-11.836
▁fridays	-11.836
▁tunes	-11.8364
got	-11.8364
▁youse	-11.8382
eem	-11.8387
▁abc	-11.8391
▁prefers	-11.8412
olas	-11.8421
▁fil	-11.844
▁trickl	-11.8446
▁interviews	-11.845
▁copa	-11.8456
▁shirts	-11.8464
▁loses	-11.8465
tics	-11.8481
vision	-11.8494
▁virgi	-11.8497
pia	-11.851
▁mack	-11.8511
ora	-11.8517
ides	-11.8517
▁obs	-11.8548
▁bullie	-11.8567
▁wheels	-11.8568
▁senses	-11.8595
anda	-11.8597
▁brownie	-11.8603
ach	-11.8614
nks	-11.8624
ddling	-11.8626
▁sta	-11.8631
▁lav	-11.8645
ffy	-11.865
era	-11.8654
▁senat	-11.8655
▁ofyour	-11.866
▁sounded	-11.8664
▁aba	-11.867
tained	-11.8674
▁whale	-11.8688
▁ku	-11.8691
ava	-11.8702
▁mouthing	-11.8707
nky	-11.8715
nc	-11.8732
che	-11.8745
▁impos	-11.8756
▁virg	-11.8756
how	-11.8786
▁disc	-11.8792
▁pudg	-11.8807
ros	-11.881
▁beckys	-11.8833
▁muff	-11.8859
▁tod	-11.8873
ram	-11.8899
uel	-11.8909
fa	-11.8924
▁firms	-11.8938
▁foots	-11.8944
bon	-11.8945
▁pickle	-11.8965
nate	-11.8966
▁gaz	-11.8977
gger	-11.8983
▁wid	-11.899
arm	-11.8993
▁texts	-11.9046
▁suspects	-11.9048
▁faced	-11.9051
ten	-11.9069
▁boob	-11.9069
kra	-11.9082
ashi	-11.9103
ipped	-11.9135
▁brin	-11.9148
▁finance	-11.9153
▁stages	-11.9157
gram	-11.9163
▁quo	-11.9188
tile	-11.9189
rose	-11.9221
ool	-11.9222
punishment	-11.9229
key	-11.9234
rn	-11.9257
▁abbys	-11.9268
▁acro	-11.9273
▁wit	-11.9273
▁fights	-11.9281
tie	-11.9285
owning	-11.9302
▁feeds	-11.9303
▁summers	-11.9324
▁pulls	-11.9333
▁pri	-11.9342
▁mover	-11.9353
rence	-11.939
detected	-11.9394
sat	-11.9418
▁chan	-11.9427
▁accus	-11.9435
▁proves	-11.9442
▁sire	-11.9451
▁ethic	-11.9452
▁andr	-11.9461
eaked	-11.9461
uk	-11.9464
yass	-11.9471
gat	-11.9476
aila	-11.9478
lateral	-11.9478
▁lac	-11.9479
ittie	-11.9481
▁flop	-11.9484
lk	-11.9487
ini	-11.9497
cker	-11.9501
▁minim	-11.9501
cate	-11.9508
▁cracks	-11.9515
▁es	-11.9519
lent	-11.9521
ame	-11.9523
icky	-11.9529
owed	-11.9533
▁rehears	-11.9538
▁whores	-11.9548
▁deprive	-11.9549
▁persona	-11.9559
mic	-11.9563
dar	-11.9565
▁crossexamine	-11.9584
▁sou	-11.9587
nto	-11.9588
ome	-11.9594
▁offi	-11.9605
▁employ	-11.9623
▁inhal	-11.9631
▁vick	-11.9635
▁inf	-11.9636
▁raisin	-11.9645
▁chum	-11.9651
ault	-11.9658
nx	-11.9658
▁seas	-11.9678
▁brag	-11.9689
▁migra	-11.9703
za	-11.9704
struction	-11.9708
▁ninety	-11.9739
▁debat	-11.9754
rid	-11.9774
▁alarms	-11.9774
▁saves	-11.9775
ou	-11.9782
▁allie	-11.98
▁fr	-11.9805
▁joins	-11.9809
other	-11.9814
▁ven	-11.9816
▁guessed	-11.9834
ifer	-11.9846
af	-11.9857
▁hein	-11.9866
▁hun	-11.9875
ously	-11.9884
▁goats	-11.9892
cer	-11.9904
voc	-11.9906
▁ston	-11.9926
▁scam	-11.9941
▁weddings	-11.9949
nea	-11.9963
▁forms	-11.9965
▁gaze	-12.0005
▁speculat	-12.0007
ku	-12.0012
▁deans	-12.0013
rk	-12.0037
seven	-12.0039
▁continu	-12.0055
▁dw	-12.0057
rmal	-12.0065
▁initiat	-12.0081
▁agi	-12.0086
dre	-12.009
escoe	-12.0095
ewing	-12.0097
▁sper	-12.0097
▁mop	-12.0099
tier	-12.0103
▁ska	-12.0104
▁cho	-12.0105
robe	-12.0105
▁infl	-12.0126
iate	-12.0169
cent	-12.017
▁sti	-12.0173
dom	-12.0178
bron	-12.0179
state	-12.0191
gling	-12.0194
▁treats	-12.0197
manship	-12.0199
▁physic	-12.02
lar	-12.0203
cluded	-12.0206
▁won	-12.0207
dding	-12.0214
ats	-12.0224
▁uri	-12.0227
mart	-12.0229
ello	-12.0236
tre	-12.0237
▁cath	-12.0239
grams	-12.0242
ross	-12.0243
▁hub	-12.0258
tized	-12.026
▁applaud	-12.0268
rity	-12.027
hundreds	-12.0271
cted	-12.0274
▁shatter	-12.0274
low	-12.0274
▁mug	-12.0276
▁troop	-12.0279
▁steele	-12.0284
second	-12.0284
vah	-12.0286
▁custom	-12.0294
▁bake	-12.0295
▁exam	-12.0301
▁patriot	-12.0302
job	-12.0304
taps	-12.0305
▁stamp	-12.0305
▁genetic	-12.0305
▁essence	-12.0305
▁fundamental	-12.0305
▁croissant	-12.0305
▁reserve	-12.0305
▁bloke	-12.0305
▁negotiation	-12.0306
▁rookie	-12.0306
▁obsession	-12.0306
▁motor	-12.0309
▁slot	-12.031
▁attendant	-12.0312
▁appetite	-12.0313
▁hur	-12.0318
▁russel	-12.032
▁thong	-12.0321
▁heartache	-12.0322
▁predator	-12.0322
▁thumb	-12.0322
▁prostitute	-12.0323
▁mole	-12.0325
▁texan	-12.0326
▁operative	-12.0326
▁headshot	-12.033
▁algorithm	-12.033
▁meek	-12.033
▁passport	-12.033
▁occur	-12.0331
▁slice	-12.0331
▁bubble	-12.0333
▁ful	-12.0334
▁survivor	-12.0334
▁flea	-12.0334
▁candle	-12.0341
▁dolphin	-12.0342
▁yelp	-12.0342
▁crate	-12.0342
▁passenger	-12.0343
▁euro	-12.0344
▁sos	-12.0345
▁relation	-12.0346
cu	-12.0347
orte	-12.0347
▁stair	-12.0347
▁condom	-12.0349
▁harvester	-12.035
▁mechani	-12.0353
aster	-12.0364
scope	-12.0365
wise	-12.0365
▁onion	-12.0366
▁cent	-12.0367
▁crackle	-12.0369
ward	-12.0373
ifications	-12.0375
▁hips	-12.0375
▁cesar	-12.0378
▁ranger	-12.0378
▁healer	-12.038
▁strippe	-12.0382
oop	-12.0389
tamper	-12.0391
▁suns	-12.0392
▁organiz	-12.0395
derman	-12.0399
▁err	-12.0403
▁sche	-12.0405
▁swis	-12.0408
▁digit	-12.0414
▁slum	-12.0417
▁depart	-12.0418
▁aaaah	-12.042
locked	-12.0421
sounding	-12.0422
fight	-12.0422
▁interfer	-12.0425
▁embarrass	-12.0428
▁valid	-12.0429
▁depress	-12.0433
look	-12.0435
▁entertain	-12.044
▁frustrat	-12.0448
friend	-12.0449
▁fidget	-12.0451
igious	-12.0451
▁subs	-12.0451
▁enchant	-12.0452
▁slag	-12.0452
▁gro	-12.0453
▁stroll	-12.0453
▁groom	-12.0454
▁iv	-12.0454
▁unleash	-12.0458
▁resign	-12.0458
ivity	-12.0458
▁waii	-12.0459
▁nurs	-12.0459
▁feck	-12.0461
conscious	-12.0461
▁robe	-12.0462
▁wel	-12.0462
▁blackmail	-12.0462
▁snatch	-12.0463
▁distract	-12.0463
ology	-12.0464
round	-12.0464
iously	-12.0465
▁suspend	-12.0465
made	-12.0465
know	-12.0465
west	-12.0466
▁prompt	-12.0467
code	-12.0467
shield	-12.0467
hund	-12.0467
teen	-12.0468
beii	-12.0468
privilege	-12.047
▁ofyou	-12.047
text	-12.047
plan	-12.047
judgment	-12.0471
sensitive	-12.0471
skull	-12.0471
deserved	-12.0471
shock	-12.0471
regan	-12.0471
smoking	-12.0471
horse	-12.0471
alimony	-12.0471
meters	-12.0471
drops	-12.0471
glass	-12.0471
food	-12.0471
dick	-12.0471
first	-12.0471
logue	-12.0472
shaw	-12.0472
▁haul	-12.0472
coach	-12.0472
nathan	-12.0472
culture	-12.0472
apple	-12.0472
▁fracture	-12.0472
▁humiliate	-12.0472
safe	-12.0472
jacket	-12.0472
strong	-12.0472
horns	-12.0473
value	-12.0473
active	-12.0473
▁divide	-12.0474
sucker	-12.0474
▁conclude	-12.0474
wide	-12.0474
lady	-12.0474
making	-12.0475
▁introduc	-12.0475
leave	-12.0475
bud	-12.0476
market	-12.0476
▁alleg	-12.0476
painted	-12.0476
▁cheek	-12.0477
eft	-12.0477
coat	-12.0477
could	-12.0477
stand	-12.0477
before	-12.0477
blow	-12.0478
pack	-12.0479
▁kessle	-12.0479
▁expire	-12.0479
sworth	-12.0479
▁celebrit	-12.0479
voy	-12.0479
▁thirst	-12.048
▁territor	-12.048
▁programme	-12.048
▁ange	-12.0481
drum	-12.0481
▁filth	-12.0481
▁sauc	-12.0481
▁positiv	-12.0482
▁harvest	-12.0482
live	-12.0482
▁remin	-12.0482
held	-12.0482
stav	-12.0483
▁extraordinar	-12.0483
coup	-12.0483
worthy	-12.0483
ulian	-12.0484
▁clan	-12.0485
▁diploma	-12.0485
▁wrinkl	-12.0486
▁resi	-12.0486
baby	-12.0486
▁hitchhike	-12.0487
▁ramp	-12.0487
▁contemp	-12.0487
reak	-12.0487
▁conclu	-12.0487
▁misunderstand	-12.0488
▁destructi	-12.0489
▁hospita	-12.0489
▁region	-12.0489
scription	-12.0489
huckle	-12.0489
▁voil	-12.0489
ological	-12.049
▁participat	-12.049
▁evaluat	-12.049
▁runnin	-12.049
▁hyper	-12.049
▁neglect	-12.049
ominated	-12.049
▁interpol	-12.049
▁lovin	-12.049
▁livin	-12.0491
▁dept	-12.0491
▁oversee	-12.0491
▁munchin	-12.0491
▁smuggle	-12.0491
▁immigra	-12.0491
▁rake	-12.0491
ecutive	-12.0491
▁accura	-12.0491
▁vigil	-12.0491
rseif	-12.0491
▁differ	-12.0491
▁movin	-12.0491
▁catalog	-12.0492
perative	-12.0492
parts	-12.0492
kilometer	-12.0492
iddle	-12.0492
▁basket	-12.0492
▁bernard	-12.0492
▁excon	-12.0492
▁morris	-12.0492
▁orient	-12.0492
morr	-12.0492
scrupu	-12.0492
▁discrepanc	-12.0492
▁neuro	-12.0492
bourne	-12.0492
circuit	-12.0492
compatibility	-12.0492
greatgrandmother	-12.0492
nocchi	-12.0492
▁abyzou	-12.0492
▁activities	-12.0492
▁advisor	-12.0492
▁affidavit	-12.0492
▁allegiance	-12.0492
▁andouille	-12.0492
▁appliances	-12.0492
▁applicant	-12.0492
▁archangel	-12.0492
▁argentine	-12.0492
▁arguing	-12.0492
▁arizona	-12.0492
▁arlene	-12.0492
▁artisanal	-12.0492
▁assaoui	-12.0492
▁attiliuccio	-12.0492
▁backstabbing	-12.0492
▁backstreet	-12.0492
▁bakary	-12.0492
▁baldwin	-12.0492
▁ballpark	-12.0492
▁banshees	-12.0492
▁barstow	-12.0492
▁beckwourth	-12.0492
▁behold	-12.0492
▁berlioz	-12.0492
▁bicycle	-12.0492
▁bikini	-12.0492
▁biscayne	-12.0492
▁bismuth	-12.0492
▁blondie	-12.0492
▁bloodhound	-12.0492
▁blueprint	-12.0492
▁bonjour	-12.0492
▁brendon	-12.0492
▁bronteroc	-12.0492
▁brotherinlaw	-12.0492
▁bypass	-12.0492
▁camouflage	-12.0492
▁cannibal	-12.0492
▁casefile	-12.0492
▁cassette	-12.0492
▁caviar	-12.0492
▁ceiling	-12.0492
▁cerveza	-12.0492
▁cervix	-12.0492
▁chivalry	-12.0492
▁cholera	-12.0492
▁cloister	-12.0492
▁cloying	-12.0492
▁colombian	-12.0492
▁comparison	-12.0492
▁comprend	-12.0492
▁compress	-12.0492
▁concussion	-12.0492
▁condolences	-12.0492
▁connecticut	-12.0492
▁connery	-12.0492
▁contagious	-12.0492
▁coolidge	-12.0492
▁cornstarch	-12.0492
▁coronavirus	-12.0492
▁correspond	-12.0492
▁cortisol	-12.0492
▁crayfish	-12.0492
▁cripple	-12.0492
▁crucifix	-12.0492
▁crucify	-12.0492
▁crumpet	-12.0492
▁curiosity	-12.0492
▁daft	-12.0492
▁dehydrat	-12.0492
▁deserving	-12.0492
▁detention	-12.0492
▁devour	-12.0492
▁diastema	-12.0492
▁discipline	-12.0492
▁distinct	-12.0492
▁distribut	-12.0492
▁doiiars	-12.0492
▁doodah	-12.0492
▁drought	-12.0492
▁economy	-12.0492
▁eisenhower	-12.0492
▁embezzl	-12.0492
▁encryption	-12.0492
▁energies	-12.0492
▁engrave	-12.0492
▁enrolled	-12.0492
▁enthusias	-12.0492
▁etcetera	-12.0492
▁evergreen	-12.0492
▁exploit	-12.0492
▁expriest	-12.0492
▁fingernails	-12.0492
▁fishbein	-12.0492
▁fleurdelis	-12.0492
▁focale	-12.0492
▁fontenot	-12.0492
▁fortress	-12.0492
▁fortunate	-12.0492
▁fountain	-12.0492
▁frankinopoulos	-12.0492
▁fuzzy	-12.0492
▁gallagher	-12.0492
▁gauloises	-12.0492
▁geneva	-12.0492
▁georgette	-12.0492
▁geriatrics	-12.0492
▁germs	-12.0492
▁giovanni	-12.0492
▁giuseppe	-12.0492
▁glimpse	-12.0492
▁guillem	-12.0492
▁hairdresser	-12.0492
▁hallucination	-12.0492
▁happiest	-12.0492
▁harlot	-12.0492
▁hiphop	-12.0492
▁hooray	-12.0492
▁horizon	-12.0492
▁husselbeck	-12.0492
▁hygiene	-12.0492
▁hymn	-12.0492
▁hypersleep	-12.0492
▁hypothetical	-12.0492
▁idolater	-12.0492
▁ieaving	-12.0492
▁immunity	-12.0492
▁inclined	-12.0492
▁incorrect	-12.0492
▁indenture	-12.0492
▁infatuated	-12.0492
▁integrity	-12.0492
▁intimacy	-12.0492
▁invalid	-12.0492
▁irrational	-12.0492
▁irrigat	-12.0492
▁isolation	-12.0492
▁janice	-12.0492
▁ketamine	-12.0492
▁kfryc	-12.0492
▁killcullen	-12.0492
▁knuckle	-12.0492
▁krakow	-12.0492
▁kreplach	-12.0492
▁kumbaya	-12.0492
▁landscape	-12.0492
▁lchaim	-12.0492
▁leblanc	-12.0492
▁lynch	-12.0492
▁macbeth	-12.0492
▁magalie	-12.0492
▁mandatory	-12.0492
▁marathon	-12.0492
▁margie	-12.0492
▁mascot	-12.0492
▁maurice	-12.0492
▁mayonnaise	-12.0492
▁mcnamara	-12.0492
▁metrorail	-12.0492
▁mikie	-12.0492
▁millennium	-12.0492
▁misheard	-12.0492
▁momentarily	-12.0492
▁monopoly	-12.0492
▁monroe	-12.0492
▁monument	-12.0492
▁motherinlaw	-12.0492
▁motorbike	-12.0492
▁moustache	-12.0492
▁murray	-12.0492
▁myseif	-12.0492
▁namaste	-12.0492
▁narcotics	-12.0492
▁neapolitan	-12.0492
▁negativity	-12.0492
▁negligence	-12.0492
▁nephew	-12.0492
▁netflix	-12.0492
▁nikto	-12.0492
▁nitara	-12.0492
▁nixon	-12.0492
▁nobility	-12.0492
▁norris	-12.0492
▁novak	-12.0492
▁nowadays	-12.0492
▁numero	-12.0492
▁nympho	-12.0492
▁obliged	-12.0492
▁obscene	-12.0492
▁obscure	-12.0492
▁obtuse	-12.0492
▁olympic	-12.0492
▁olympus	-12.0492
▁ordeal	-12.0492
▁ornament	-12.0492
▁orthop	-12.0492
▁pajaros	-12.0492
▁parliament	-12.0492
▁parlor	-12.0492
▁parody	-12.0492
▁penelope	-12.0492
▁perceived	-12.0492
▁peruvian	-12.0492
▁phelps	-12.0492
▁pingpong	-12.0492
▁pitiful	-12.0492
▁policies	-12.0492
▁probiem	-12.0492
▁prognosis	-12.0492
▁pumpernickel	-12.0492
▁qualify	-12.0492
▁railroad	-12.0492
▁reimburse	-12.0492
▁residue	-12.0492
▁resolution	-12.0492
▁reunion	-12.0492
▁revisit	-12.0492
▁revoir	-12.0492
▁ridicule	-12.0492
▁roulette	-12.0492
▁safecracker	-12.0492
▁salvage	-12.0492
▁schizophreni	-12.0492
▁schnecken	-12.0492
▁scribbling	-12.0492
▁shboom	-12.0492
▁sherrif	-12.0492
▁shrine	-12.0492
▁skitter	-12.0492
▁slug	-12.0492
▁snuff	-12.0492
▁solicit	-12.0492
▁solitary	-12.0492
▁soothing	-12.0492
▁souvenir	-12.0492
▁sprung	-12.0492
▁sputtering	-12.0492
▁stenner	-12.0492
▁striking	-12.0492
▁stroehmann	-12.0492
▁subgate	-12.0492
▁substance	-12.0492
▁succinyichoiine	-12.0492
▁suicidal	-12.0492
▁sullivan	-12.0492
▁surveillance	-12.0492
▁swagger	-12.0492
▁tabansi	-12.0492
▁tennessee	-12.0492
▁testosterone	-12.0492
▁tetraplegic	-12.0492
▁theologian	-12.0492
▁threshold	-12.0492
▁thrift	-12.0492
▁ticktook	-12.0492
▁tokyo	-12.0492
▁tomatoes	-12.0492
▁toothpaste	-12.0492
▁trajectory	-12.0492
▁tramadol	-12.0492
▁tranquilizers	-12.0492
▁trawler	-12.0492
▁tribute	-12.0492
▁trickortreating	-12.0492
▁trivial	-12.0492
▁troupe	-12.0492
▁typewriter	-12.0492
▁undercover	-12.0492
▁unfamiliar	-12.0492
▁unnecessary	-12.0492
▁unofficial	-12.0492
▁unprofessional	-12.0492
▁unwanted	-12.0492
▁upbringing	-12.0492
▁uproot	-12.0492
▁urging	-12.0492
▁vaccine	-12.0492
▁velocity	-12.0492
▁voluptuous	-12.0492
▁vultures	-12.0492
▁waffle	-12.0492
▁wallbrook	-12.0492
▁warriner	-12.0492
▁watermelon	-12.0492
▁website	-12.0492
▁whatnot	-12.0492
▁yengeese	-12.0492
ectomy	-12.0492
▁alabama	-12.0492
▁bisset	-12.0492
▁conceal	-12.0492
▁northeast	-12.0492
▁unspeakab	-12.0492
▁abyss	-12.0492
▁afghan	-12.0492
▁baggage	-12.0492
▁cheverus	-12.0492
▁courier	-12.0492
▁crucial	-12.0492
▁cyber	-12.0492
▁darvo	-12.0492
▁disclose	-12.0492
▁eager	-12.0492
▁impala	-12.0492
▁importance	-12.0492
▁jeffrey	-12.0492
▁joburg	-12.0492
▁jurin	-12.0492
▁lndig	-12.0492
▁mornting	-12.0492
▁perverse	-12.0492
▁prenup	-12.0492
▁promoting	-12.0492
▁richmond	-12.0492
▁sermon	-12.0492
▁sherrigans	-12.0492
▁sindell	-12.0492
▁skimming	-12.0492
▁sterile	-12.0492
▁swerve	-12.0492
▁sydney	-12.0492
▁uterus	-12.0492
▁volkswagen	-12.0492
▁warbling	-12.0492
▁warfare	-12.0492
▁atla	-12.0492
▁automobile	-12.0492
▁ayres	-12.0492
▁blabb	-12.0492
▁casino	-12.0492
▁colony	-12.0492
▁flattering	-12.0492
▁relay	-12.0492
▁rinse	-12.0492
▁shuffl	-12.0492
▁slammed	-12.0492
▁theythey	-12.0492
▁underrated	-12.0492
▁unholy	-12.0492
▁anoos	-12.0492
▁aroused	-12.0492
▁bacteri	-12.0492
▁benevolen	-12.0492
▁ceremoni	-12.0492
▁kareem	-12.0492
▁benedict	-12.0492
▁debauchery	-12.0492
▁ecstasy	-12.0492
▁gaillard	-12.0492
▁hagen	-12.0492
▁instagram	-12.0492
▁january	-12.0492
▁microchip	-12.0492
▁revolt	-12.0492
▁schematic	-12.0492
▁sedated	-12.0492
▁shelves	-12.0492
▁yakov	-12.0492
▁cuputovati	-12.0492
▁eighteen	-12.0492
▁haroldandmaude	-12.0492
▁panei	-12.0492
▁pattering	-12.0492
▁raven	-12.0492
▁slicing	-12.0492
▁wonderfui	-12.0492
zzz	-12.0492
▁autograph	-12.0492
▁precipi	-12.0492
quito	-12.0492
▁carpenter	-12.0492
▁conspirator	-12.0492
▁duct	-12.0492
▁fascinate	-12.0492
▁hilton	-12.0492
▁intersection	-12.0492
▁larynx	-12.0492
▁quench	-12.0492
▁ambitious	-12.0492
▁authorization	-12.0492
▁greasy	-12.0492
▁hasashi	-12.0492
▁hoggins	-12.0492
▁admission	-12.0492
▁excise	-12.0492
▁meatballs	-12.0492
▁puddle	-12.0492
▁barricade	-12.0492
▁lafours	-12.0492
▁opposition	-12.0492
▁oppressed	-12.0492
▁relocat	-12.0492
▁scram	-12.0492
▁commandeer	-12.0492
▁cyan	-12.0492
▁isabel	-12.0492
▁novril	-12.0492
▁oars	-12.0492
▁snuck	-12.0492
▁ascend	-12.0492
▁dosage	-12.0492
▁duration	-12.0492
▁naomi	-12.0492
▁plumber	-12.0492
▁violated	-12.0492
▁wrestl	-12.0492
▁homie	-12.0492
▁humiliating	-12.0492
▁susie	-12.0492
▁wimp	-12.0492
▁arteries	-12.0492
▁bulletproof	-12.0492
▁gerald	-12.0492
▁tailgate	-12.0492
▁bulk	-12.0492
▁literature	-12.0492
▁tiptoe	-12.0492
▁toxin	-12.0492
▁confront	-12.0492
▁aquarium	-12.0492
▁nicolas	-12.0492
▁spectrum	-12.0492
▁acquisition	-12.0492
▁monotonous	-12.0492
▁whatcha	-12.0492
▁aching	-12.0492
▁bragging	-12.0492
▁expel	-12.0492
▁clunk	-12.0492
▁ninja	-12.0492
opulation	-12.0492
▁guidance	-12.0492
▁remix	-12.0492
▁skiing	-12.0492
▁sought	-12.0492
▁woozy	-12.0492
▁academic	-12.0492
▁criswell	-12.0492
▁ferocious	-12.0492
▁whitford	-12.0492
▁gambling	-12.0492
▁litres	-12.0492
▁choir	-12.0492
▁stuart	-12.0492
percepti	-12.0492
brake	-12.0492
▁chapstick	-12.0492
▁druot	-12.0492
▁squall	-12.0492
▁upgrad	-12.0492
▁saliva	-12.0492
▁solitude	-12.0492
▁oxys	-12.0492
▁pellet	-12.0492
▁spinach	-12.0492
▁tumble	-12.0492
▁beware	-12.0492
▁loren	-12.0492
▁cradle	-12.0492
▁hangars	-12.0492
▁morrisey	-12.0492
▁statute	-12.0492
▁basketball	-12.0492
▁scotland	-12.0492
▁gauge	-12.0492
▁hurray	-12.0492
▁igniting	-12.0492
▁labour	-12.0492
▁outstanding	-12.0492
▁steai	-12.0492
▁freebie	-12.0492
▁cloudberry	-12.0492
▁marfa	-12.0492
▁pedro	-12.0492
▁silverware	-12.0492
dgin	-12.0492
▁angina	-12.0492
▁darn	-12.0492
▁storax	-12.0492
▁aspergers	-12.0492
▁canoe	-12.0492
▁dictionary	-12.0492
▁lenox	-12.0492
▁obligation	-12.0492
▁reelection	-12.0492
▁revelation	-12.0492
▁venom	-12.0492
ophag	-12.0492
▁worid	-12.0492
▁justjust	-12.0492
▁tutor	-12.0492
▁upward	-12.0492
▁afresh	-12.0492
▁descendant	-12.0492
▁vocation	-12.0492
▁carolina	-12.0493
▁inadequate	-12.0493
▁intrica	-12.0493
▁stacy	-12.0493
▁catalogue	-12.0493
▁bihan	-12.0493
▁charade	-12.0493
lient	-12.0493
▁veil	-12.0493
▁brundy	-12.0493
▁collarbone	-12.0493
▁gymnastic	-12.0493
▁leftovers	-12.0493
▁tacoma	-12.0493
▁astro	-12.0493
▁disneyland	-12.0493
▁kinderman	-12.0493
▁beneficiary	-12.0493
▁piggyback	-12.0493
▁trophies	-12.0493
▁canai	-12.0493
▁thirtynine	-12.0493
▁liif	-12.0493
▁resync	-12.0493
▁corpora	-12.0493
▁leaf	-12.0493
▁competent	-12.0493
▁socket	-12.0493
▁combination	-12.0493
▁leclerc	-12.0493
▁limitations	-12.0493
▁analyse	-12.0493
▁zeke	-12.0493
▁claymore	-12.0493
▁evangeli	-12.0493
▁swipe	-12.0493
▁shady	-12.0493
▁mercenar	-12.0493
▁gospel	-12.0493
▁burnett	-12.0493
▁mower	-12.0493
▁pollo	-12.0493
▁appreciative	-12.0493
▁magnum	-12.0493
desirable	-12.0493
▁amuse	-12.0493
▁loosing	-12.0493
▁context	-12.0493
▁arsenal	-12.0493
▁vigilant	-12.0493
▁whereabouts	-12.0493
tanos	-12.0493
▁evasion	-12.0493
▁sequel	-12.0493
▁beret	-12.0493
▁outbreak	-12.0493
▁jensen	-12.0493
▁derby	-12.0493
▁hutton	-12.0493
▁slink	-12.0493
▁timmy	-12.0493
▁variable	-12.0493
▁douche	-12.0493
▁mambo	-12.0493
▁birthmark	-12.0493
▁inheritance	-12.0493
▁khalidi	-12.0493
▁yuri	-12.0493
▁fraterni	-12.0493
▁mumbling	-12.0493
▁pillar	-12.0493
▁trembl	-12.0493
▁crusader	-12.0493
▁reassur	-12.0493
▁skeletor	-12.0493
▁grease	-12.0493
▁cereal	-12.0493
▁sensational	-12.0493
emia	-12.0493
wield	-12.0493
▁amusement	-12.0493
▁curtis	-12.0493
▁rom	-12.0493
▁triumphant	-12.0493
▁cigz	-12.0493
▁ejaculat	-12.0493
▁nerd	-12.0493
▁perpetrator	-12.0493
▁tummy	-12.0493
▁envie	-12.0493
▁initiative	-12.0493
▁pulp	-12.0493
sook	-12.0493
▁helium	-12.0493
▁reliable	-12.0493
▁timetables	-12.0493
▁edison	-12.0493
▁appall	-12.0493
ternity	-12.0493
▁belgi	-12.0493
▁motherfuckin	-12.0493
▁skating	-12.0493
▁denver	-12.0493
▁apeople	-12.0493
▁metres	-12.0493
▁wills	-12.0493
▁honcho	-12.0493
▁toad	-12.0493
▁lamp	-12.0493
derate	-12.0493
oxide	-12.0493
▁aasen	-12.0493
▁repay	-12.0493
▁stutter	-12.0493
▁sebas	-12.0493
▁sanit	-12.0494
▁hooting	-12.0494
▁jules	-12.0494
▁docket	-12.0494
▁priestess	-12.0494
▁bandages	-12.0494
▁degrad	-12.0494
▁ripoff	-12.0494
▁cooperating	-12.0494
chester	-12.0494
rimba	-12.0494
▁improvement	-12.0494
▁moth	-12.0494
▁leslie	-12.0494
▁tempie	-12.0494
▁bummer	-12.0494
▁liberat	-12.0494
▁allright	-12.0494
▁hq	-12.0494
▁thirtytwo	-12.0494
▁bracelet	-12.0494
▁tread	-12.0494
quie	-12.0494
▁marble	-12.0494
▁protestant	-12.0494
▁testified	-12.0494
▁fudge	-12.0494
▁turf	-12.0494
▁pinot	-12.0494
▁gregor	-12.0494
▁crois	-12.0494
▁hamster	-12.0494
▁outcome	-12.0494
▁upright	-12.0494
▁iaughin	-12.0494
▁ofthis	-12.0494
▁repent	-12.0494
▁preference	-12.0494
▁apoll	-12.0494
▁verb	-12.0494
nklin	-12.0494
▁rewind	-12.0494
▁consciousness	-12.0494
▁dahl	-12.0494
▁goldfish	-12.0494
▁kangaroo	-12.0494
▁surf	-12.0494
▁unbeiievabie	-12.0494
▁pennies	-12.0494
▁yuck	-12.0494
▁degenerate	-12.0494
▁glue	-12.0494
urance	-12.0494
▁rooftop	-12.0494
▁skype	-12.0494
▁quarterback	-12.0494
▁redridge	-12.0494
▁tango	-12.0494
▁greg	-12.0494
▁fiight	-12.0494
▁disney	-12.0494
▁gigant	-12.0494
▁wiz	-12.0494
▁ballistic	-12.0494
▁preferred	-12.0494
▁elena	-12.0494
▁bruce	-12.0495
▁dat	-12.0495
▁transmitt	-12.0495
▁mold	-12.0495
vette	-12.0495
▁jetlag	-12.0495
opher	-12.0495
▁reproduction	-12.0495
▁pornography	-12.0495
▁pegged	-12.0495
▁fauci	-12.0495
▁reiki	-12.0495
▁rambo	-12.0495
▁pigface	-12.0495
▁sublime	-12.0495
▁orphanage	-12.0495
praise	-12.0495
▁diane	-12.0495
▁litter	-12.0495
▁restraints	-12.0495
▁tbone	-12.0495
▁odyssey	-12.0495
▁adversary	-12.0495
▁anomaly	-12.0495
▁sponge	-12.0495
▁hotshot	-12.0495
▁squeezy	-12.0495
▁adjustment	-12.0495
▁ciose	-12.0495
▁salute	-12.0495
dicate	-12.0495
▁assassination	-12.0495
▁christianity	-12.0495
▁scripture	-12.0495
▁maternal	-12.0495
▁buren	-12.0495
▁moderately	-12.0495
▁withdrawn	-12.0495
▁kidstuff	-12.0495
▁ohhhh	-12.0495
▁elke	-12.0495
▁sixmonth	-12.0495
▁technologi	-12.0495
▁establishment	-12.0496
▁disappearance	-12.0496
▁inquiries	-12.0496
▁flare	-12.0496
▁snot	-12.0496
▁fooi	-12.0496
▁purity	-12.0496
▁react	-12.0496
▁maze	-12.0496
▁recept	-12.0496
▁iphone	-12.0496
▁extension	-12.0496
▁mime	-12.0496
▁constantine	-12.0496
▁rico	-12.0496
▁suitcase	-12.0496
▁rima	-12.0496
▁athena	-12.0496
▁nickname	-12.0496
▁bloodstain	-12.0496
▁tartu	-12.0496
▁handicap	-12.0496
▁blaze	-12.0496
▁replacement	-12.0496
▁intrud	-12.0496
▁sens	-12.0496
▁marj	-12.0496
▁moose	-12.0496
▁centi	-12.0497
▁imply	-12.0497
▁deceived	-12.0497
▁radius	-12.0497
▁babysit	-12.0497
▁sodomized	-12.0497
▁stew	-12.0497
▁exactiy	-12.0497
rinth	-12.0497
tyba	-12.0497
▁flock	-12.0497
▁textbook	-12.0497
▁confine	-12.0497
▁canned	-12.0497
▁meatbag	-12.0497
▁yuma	-12.0497
▁rubble	-12.0497
▁absorb	-12.0497
▁grandchildren	-12.0497
▁revenue	-12.0497
▁satisfied	-12.0497
▁bulb	-12.0497
▁flavour	-12.0497
▁zeus	-12.0497
▁attaboy	-12.0498
▁feminist	-12.0498
▁daisy	-12.0498
▁truce	-12.0498
▁canna	-12.0498
▁tuna	-12.0498
▁loaf	-12.0498
▁sliders	-12.0498
▁vel	-12.0498
▁mutilation	-12.0498
▁mimic	-12.0498
▁containment	-12.0498
▁stem	-12.0498
▁faii	-12.0498
▁wrinkles	-12.0498
▁tarp	-12.0498
▁yarn	-12.0498
▁mediation	-12.0498
tolerabl	-12.0498
▁alias	-12.0499
▁trafficking	-12.0499
▁jeb	-12.0499
▁polar	-12.0499
▁roma	-12.0499
▁apprehended	-12.0499
▁circumcised	-12.0499
▁peerreviewed	-12.0499
▁flawed	-12.0499
▁reducer	-12.0499
▁cleve	-12.0499
▁dropoff	-12.0499
cture	-12.0499
▁allowance	-12.0499
▁checkmate	-12.0499
▁rigor	-12.0499
▁gutter	-12.0499
▁capri	-12.05
▁spitting	-12.05
▁australian	-12.05
▁coron	-12.05
▁rational	-12.05
▁arrogant	-12.05
▁lightheaded	-12.05
▁heartbreak	-12.05
▁venture	-12.05
▁depo	-12.05
▁tempo	-12.05
▁resurrection	-12.05
▁furthe	-12.05
▁amu	-12.0501
▁stung	-12.0501
▁betsy	-12.0501
▁stability	-12.0501
▁abruptly	-12.0501
▁waking	-12.0501
▁itin	-12.0501
▁continuously	-12.0501
▁cruei	-12.0501
▁parkway	-12.0501
▁tropical	-12.0501
▁guesthouse	-12.0501
▁lastminute	-12.0501
▁petty	-12.0501
▁astonishing	-12.0501
▁phi	-12.0501
▁shoplifting	-12.0501
▁scoffing	-12.0501
▁drows	-12.0501
▁unfi	-12.0501
▁sharpen	-12.0501
▁psst	-12.0502
▁cautious	-12.0502
ieber	-12.0502
▁rog	-12.0502
pirin	-12.0502
▁regal	-12.0502
hanno	-12.0502
▁bouncer	-12.0502
▁peru	-12.0502
cation	-12.0502
▁clueless	-12.0502
▁drifter	-12.0502
▁fifties	-12.0503
▁enduring	-12.0503
▁incest	-12.0503
▁funky	-12.0503
▁chica	-12.0504
▁traders	-12.0504
▁wireless	-12.0504
▁pitty	-12.0504
▁molt	-12.0504
▁curt	-12.0504
▁divest	-12.0504
▁eyeball	-12.0504
▁carjack	-12.0504
▁campout	-12.0504
▁sofa	-12.0504
▁jan	-12.0504
▁firepower	-12.0504
▁meaningless	-12.0504
▁davy	-12.0504
▁leapt	-12.0505
nelli	-12.0505
▁noodle	-12.0505
▁outraged	-12.0505
▁instructor	-12.0505
▁exhausted	-12.0505
ugged	-12.0505
▁waterfall	-12.0505
▁terror	-12.0506
▁hives	-12.0506
▁lightyear	-12.0506
▁once	-12.0506
▁elsewhere	-12.0506
▁payoff	-12.0506
▁lice	-12.0506
▁collapse	-12.0507
▁splitting	-12.0507
▁attache	-12.0507
▁edit	-12.0507
▁legit	-12.0507
▁denies	-12.0507
▁pussies	-12.0507
▁lama	-12.0507
▁gayle	-12.0507
▁macker	-12.0508
kar	-12.0508
▁packet	-12.0508
▁oc	-12.0508
▁quoi	-12.0508
▁turnoff	-12.0508
▁dickens	-12.0508
▁lsland	-12.0508
▁compromise	-12.0509
▁realistic	-12.0509
▁nord	-12.0509
▁magnet	-12.0509
▁munching	-12.0509
▁freddie	-12.0509
▁inquiry	-12.0509
▁coco	-12.051
▁gem	-12.051
por	-12.051
▁axle	-12.051
▁gloria	-12.051
▁exhausting	-12.051
▁freshen	-12.051
▁weaken	-12.051
ombre	-12.0511
▁amazed	-12.0511
▁utter	-12.0511
rtz	-12.0511
▁obit	-12.0512
▁abort	-12.0512
▁evolved	-12.0512
▁endorse	-12.0512
▁doable	-12.0512
▁permanently	-12.0512
▁thoroughly	-12.0512
▁combo	-12.0512
▁subscriber	-12.0512
▁alas	-12.0512
▁shat	-12.0513
▁whim	-12.0513
▁iose	-12.0514
▁mido	-12.0514
▁ruck	-12.0514
▁hotline	-12.0514
▁babbling	-12.0514
▁snowman	-12.0514
▁gangbanger	-12.0514
▁helio	-12.0515
loft	-12.0515
▁villar	-12.0515
▁skater	-12.0515
icial	-12.0515
▁chili	-12.0515
▁lilly	-12.0515
▁hola	-12.0516
▁homo	-12.0516
▁vanity	-12.0516
▁shield	-12.0517
▁grr	-12.0517
▁shortage	-12.0517
▁davidson	-12.0517
▁mocking	-12.0517
▁swelling	-12.0517
▁refreshing	-12.0517
▁satisfying	-12.0517
▁tittering	-12.0517
▁auditing	-12.0517
▁stalking	-12.0517
▁slurping	-12.0517
▁publishing	-12.0517
▁irs	-12.0517
▁bluffing	-12.0518
▁highlight	-12.0518
▁severely	-12.0518
▁weaknesses	-12.0518
▁skank	-12.0519
▁tines	-12.0519
▁zeal	-12.0519
ifying	-12.0519
▁collector	-12.052
uaiiy	-12.052
▁collapsed	-12.052
▁patches	-12.052
▁piper	-12.052
azam	-12.052
thought	-12.0521
bernat	-12.0521
▁wilson	-12.0521
hard	-12.0521
▁scratches	-12.0521
▁located	-12.0521
▁tarr	-12.0521
▁beget	-12.0521
istan	-12.0522
▁tum	-12.0522
usz	-12.0522
tivity	-12.0522
ynx	-12.0522
▁fiie	-12.0522
▁combine	-12.0522
▁hup	-12.0522
▁prompted	-12.0523
▁township	-12.0523
▁absolve	-12.0523
▁shattered	-12.0523
▁mam	-12.0523
▁spice	-12.0524
▁gravel	-12.0524
▁anim	-12.0524
▁warmup	-12.0524
▁lighthouse	-12.0524
▁dadada	-12.0524
▁playfully	-12.0525
▁geo	-12.0526
▁fitness	-12.0526
▁cruis	-12.0527
▁oof	-12.0527
▁taser	-12.0527
▁sunup	-12.0527
▁colorful	-12.0527
▁fulltime	-12.0528
▁recovery	-12.0528
▁pose	-12.0528
▁immigrant	-12.0529
▁crushes	-12.0529
▁benson	-12.0529
▁bribe	-12.0529
▁designer	-12.053
article	-12.053
wire	-12.053
▁riots	-12.053
▁antiques	-12.053
▁characteristics	-12.053
▁comrades	-12.053
▁curtains	-12.053
▁items	-12.053
▁margaritas	-12.053
▁mcdonalds	-12.053
▁midterms	-12.053
▁hassles	-12.053
▁stefanos	-12.053
▁murmurs	-12.053
▁vol	-12.053
▁ribs	-12.0531
▁expired	-12.0532
▁exert	-12.0532
xtr	-12.0532
▁quin	-12.0533
▁specialty	-12.0533
distinguish	-12.0533
wer	-12.0533
▁hail	-12.0533
▁pastry	-12.0533
▁fidgeting	-12.0533
▁frustrating	-12.0533
▁strolling	-12.0533
▁hauling	-12.0533
▁anthat	-12.0534
▁subway	-12.0534
▁indigen	-12.0534
▁alto	-12.0534
▁creatively	-12.0535
▁willy	-12.0536
▁overhead	-12.0537
spro	-12.0538
▁tatin	-12.0538
▁childish	-12.0538
▁gambled	-12.0538
▁chillin	-12.0538
▁exploded	-12.0539
▁gifts	-12.0539
ife	-12.0539
mous	-12.054
▁lex	-12.054
▁peacefully	-12.0542
▁logo	-12.0543
esteem	-12.0543
▁booty	-12.0543
▁departments	-12.0544
▁fury	-12.0544
▁macy	-12.0544
▁tannery	-12.0544
▁bicke	-12.0544
▁jose	-12.0544
▁haze	-12.0545
▁berg	-12.0547
▁pinched	-12.0547
▁kan	-12.0547
keeper	-12.0547
▁sadness	-12.0547
▁succeeded	-12.0547
▁gman	-12.0548
▁trooper	-12.0548
▁lineage	-12.0548
▁baptist	-12.0548
▁sel	-12.0549
▁undressed	-12.055
ixie	-12.0552
ograph	-12.0553
twood	-12.0553
▁galleri	-12.0555
▁facetime	-12.0555
trial	-12.0556
yla	-12.0556
▁extensi	-12.0556
▁ahad	-12.0557
game	-12.0559
▁brushes	-12.0559
rag	-12.056
▁downloaded	-12.056
▁mutter	-12.056
▁chastise	-12.056
▁idol	-12.056
▁frenchman	-12.056
▁memorise	-12.056
▁paraded	-12.0561
llery	-12.0562
▁maiden	-12.0563
▁mothership	-12.0564
▁translated	-12.0565
▁counties	-12.0565
shalom	-12.0566
▁cramping	-12.0566
▁rubber	-12.0567
▁validate	-12.0567
▁armies	-12.0567
▁pomp	-12.0567
▁reviewer	-12.0568
▁expose	-12.0569
icers	-12.0569
▁cryo	-12.0569
▁ofth	-12.057
enter	-12.0571
ould	-12.0572
▁pave	-12.0573
▁policemen	-12.0573
▁included	-12.0574
▁reviv	-12.0576
▁robber	-12.0576
kept	-12.0578
▁corny	-12.0578
dise	-12.0579
pole	-12.0581
▁indicated	-12.0582
ote	-12.0582
▁vaginae	-12.0582
▁consideration	-12.0584
told	-12.0584
▁delayed	-12.0584
▁flushed	-12.0585
▁jewel	-12.0586
recht	-12.059
lous	-12.0591
▁cod	-12.0592
▁chad	-12.0592
▁ridin	-12.0594
▁drapes	-12.0595
▁cheeseburgers	-12.0596
▁communists	-12.0596
▁gestures	-12.0596
▁puppets	-12.0596
▁vegetables	-12.0596
▁zebras	-12.0596
▁nodd	-12.0596
▁lyons	-12.0597
▁setup	-12.0597
▁hath	-12.0598
▁arraign	-12.0598
▁kn	-12.0601
onic	-12.0602
amed	-12.0602
▁andres	-12.0603
▁dontdont	-12.0603
▁restless	-12.0603
▁simpler	-12.0603
▁dusty	-12.0605
▁za	-12.0607
▁bully	-12.0607
▁complained	-12.061
▁volunteered	-12.061
▁warmin	-12.061
▁highf	-12.061
▁hiking	-12.0613
mpire	-12.0614
▁tablets	-12.0614
▁spared	-12.0615
▁patroniz	-12.0615
▁courageous	-12.0615
▁bleeping	-12.0616
▁flushing	-12.0617
▁outsider	-12.0617
lson	-12.0618
▁nest	-12.0621
▁nod	-12.0622
▁buster	-12.0622
▁reg	-12.0622
▁louise	-12.0623
▁mea	-12.0624
▁cle	-12.0625
▁gau	-12.0628
makers	-12.0628
zio	-12.0629
▁ohhh	-12.0631
▁agitat	-12.0631
▁jac	-12.0631
gal	-12.0632
▁interrupting	-12.0633
▁ambushed	-12.0634
▁socially	-12.0634
▁photographing	-12.0635
▁perverted	-12.0636
▁charl	-12.064
uity	-12.0642
▁poke	-12.0643
▁ventilat	-12.0645
jobs	-12.0645
▁complimented	-12.0648
▁responding	-12.065
▁whoops	-12.0651
▁engineering	-12.0651
▁connecting	-12.0652
▁stinger	-12.0653
▁ohara	-12.0654
▁semina	-12.0655
▁pointers	-12.0657
▁weaker	-12.0658
▁resisted	-12.0659
good	-12.066
▁takeover	-12.0661
▁ville	-12.0661
▁callas	-12.0662
▁slices	-12.0664
▁headshots	-12.0664
▁predators	-12.0664
▁thumbs	-12.0664
▁operatives	-12.0664
▁prostitutes	-12.0664
▁backfire	-12.0665
▁texans	-12.0665
▁russels	-12.0665
▁passports	-12.0666
onald	-12.0666
▁chased	-12.0666
▁pest	-12.0667
▁dane	-12.0671
▁bobs	-12.0672
▁flashed	-12.0672
▁healers	-12.0675
xie	-12.0677
▁lan	-12.0679
▁stupidest	-12.0679
▁jackie	-12.0681
▁plank	-12.0682
▁insulting	-12.0683
▁rhyme	-12.0684
▁devin	-12.0684
▁disarm	-12.0685
▁blowin	-12.0685
▁goose	-12.0687
▁hunted	-12.0688
▁freaky	-12.0689
▁mandy	-12.0689
ison	-12.069
▁difficulty	-12.0694
▁psychotherap	-12.0695
▁lar	-12.0699
▁gand	-12.0699
▁seasoning	-12.0702
▁risky	-12.0708
▁righthanded	-12.071
▁reviewed	-12.0712
▁ak	-12.0716
▁stretching	-12.0716
▁weakly	-12.0717
▁robes	-12.0718
▁pauses	-12.0719
▁lang	-12.072
▁statistical	-12.072
▁dreamin	-12.072
rito	-12.0721
stered	-12.0721
▁reconsider	-12.0722
▁rescued	-12.0724
▁notif	-12.0725
▁added	-12.0725
hank	-12.0729
▁fallin	-12.073
▁stunts	-12.0733
▁enterprises	-12.0733
▁explosives	-12.0733
▁reflections	-12.0733
▁crows	-12.0734
▁nukes	-12.0734
▁pounding	-12.0736
▁complaints	-12.0737
tif	-12.0737
▁exceptions	-12.0741
sche	-12.0741
▁cris	-12.0742
▁hooky	-12.0743
▁layer	-12.075
▁escorting	-12.0751
▁privately	-12.0752
▁lauren	-12.0754
▁hangin	-12.0754
▁surge	-12.0754
▁queer	-12.0756
▁meng	-12.0757
▁wilde	-12.076
▁genera	-12.0764
▁container	-12.0765
▁cater	-12.0767
▁pager	-12.0771
rington	-12.0771
▁nause	-12.0772
▁brid	-12.0773
ural	-12.0783
▁showdown	-12.0784
ear	-12.0785
▁tricking	-12.0786
▁experienced	-12.0788
▁sealing	-12.079
▁wildly	-12.0794
▁singer	-12.0795
▁medi	-12.0796
base	-12.0801
▁medals	-12.0803
▁syrians	-12.0803
▁assignments	-12.0803
▁fugitives	-12.0803
▁rehearsals	-12.0803
▁thugs	-12.0804
▁nee	-12.0804
▁recommendations	-12.0804
▁mule	-12.0804
▁jerking	-12.0805
▁carp	-12.0805
▁colder	-12.0807
▁supported	-12.0811
▁defenders	-12.0813
▁chur	-12.0816
▁excitedly	-12.0817
raz	-12.0818
▁missi	-12.0835
▁bund	-12.0836
▁processing	-12.0837
▁condos	-12.0838
▁toughen	-12.084
▁lotus	-12.0844
▁announced	-12.0849
▁hypocrit	-12.0849
fth	-12.085
oof	-12.085
▁dumping	-12.0852
▁proudly	-12.0859
▁standin	-12.0864
▁mira	-12.0864
▁intercept	-12.0865
thats	-12.0867
▁spikes	-12.0867
▁marching	-12.0869
▁screening	-12.0869
tee	-12.087
▁strangely	-12.0871
▁severed	-12.0871
▁privileges	-12.0873
▁forensics	-12.0873
▁individuals	-12.0873
▁terrorists	-12.0873
▁trashed	-12.0873
▁arrangements	-12.0873
▁rapists	-12.0874
▁explodes	-12.0874
▁nazis	-12.0874
▁it	-12.0874
▁weighs	-12.0875
▁vena	-12.088
▁sticky	-12.0889
▁weary	-12.0889
▁eth	-12.0896
plied	-12.0897
bab	-12.0898
▁happenin	-12.0904
cop	-12.0908
▁sleepin	-12.091
▁breakin	-12.0911
▁spli	-12.0912
▁peeing	-12.0914
rapping	-12.0916
ogged	-12.0916
▁subti	-12.0917
▁fock	-12.0919
▁initiate	-12.0919
▁flor	-12.0922
▁marc	-12.0925
▁nicest	-12.0926
sil	-12.0932
▁refugee	-12.0942
▁remaining	-12.0943
▁negros	-12.0944
▁caitlyns	-12.0944
▁purses	-12.0944
nothing	-12.095
▁servers	-12.0955
▁cau	-12.0957
▁payments	-12.0958
▁readers	-12.096
▁ruthless	-12.0961
▁hardon	-12.0962
▁dresser	-12.0969
▁dees	-12.0973
▁sadly	-12.0981
▁suckers	-12.0981
▁drt	-12.0984
▁harmon	-12.0993
▁camel	-12.0997
▁buen	-12.0998
hiro	-12.1
ugging	-12.1002
▁doubted	-12.1005
▁limbs	-12.1007
▁eatin	-12.1009
▁hus	-12.1011
generate	-12.1013
▁measures	-12.1014
▁ankles	-12.1015
▁clowns	-12.1015
▁natives	-12.1015
▁britneys	-12.1015
▁requests	-12.1018
tax	-12.1023
▁lifting	-12.1023
▁intentions	-12.1026
▁gardener	-12.1026
▁playin	-12.1029
▁crud	-12.103
▁fashions	-12.1031
stain	-12.104
▁profits	-12.1046
▁parag	-12.1054
cinna	-12.1054
ob	-12.106
▁tame	-12.1067
mal	-12.1072
cular	-12.1076
▁foreigner	-12.1082
osse	-12.1082
▁cocktails	-12.1086
▁spills	-12.1087
▁fasten	-12.1088
▁arty	-12.1088
▁cables	-12.109
▁intimidat	-12.1092
elle	-12.1093
nine	-12.1095
hara	-12.1097
▁farts	-12.1097
▁designs	-12.1098
jon	-12.1104
▁sole	-12.1109
▁putney	-12.1116
▁tales	-12.1124
itis	-12.113
▁piane	-12.113
▁liver	-12.1135
▁suites	-12.1143
wine	-12.1149
▁mentioning	-12.1152
▁robot	-12.1156
ever	-12.1156
▁ieaves	-12.1158
▁guitars	-12.1158
▁protocols	-12.1158
monition	-12.116
▁joker	-12.1166
▁maya	-12.1166
anded	-12.1169
▁favored	-12.117
▁skipp	-12.1173
▁helpers	-12.1182
▁filling	-12.1186
lift	-12.1188
▁messag	-12.1189
▁chim	-12.1195
▁wigs	-12.1196
▁shawn	-12.12
zal	-12.12
▁dots	-12.12
▁fou	-12.1209
▁hast	-12.121
▁journalists	-12.1224
▁mexicans	-12.1231
▁grandpas	-12.1231
▁fists	-12.1233
itty	-12.1236
▁caval	-12.1241
▁callback	-12.1242
▁permitt	-12.1252
atal	-12.1263
▁breaker	-12.127
▁rand	-12.1279
▁mccl	-12.1279
▁rj	-12.1291
ani	-12.1296
▁blasts	-12.1303
▁sheba	-12.1303
▁insists	-12.1303
▁theaters	-12.1303
▁awards	-12.1306
▁gale	-12.1306
▁earns	-12.1315
dad	-12.1315
tta	-12.1316
▁hereb	-12.1323
▁too	-12.1326
▁peek	-12.1343
pending	-12.1356
▁defect	-12.1358
▁py	-12.1369
▁sluts	-12.1377
▁accessor	-12.1379
▁crazies	-12.1379
▁martyr	-12.1381
downs	-12.1385
lace	-12.1411
used	-12.1431
▁ducks	-12.1435
▁snapp	-12.1437
shoe	-12.1437
▁construct	-12.1439
▁rolled	-12.1441
tel	-12.1443
▁monets	-12.1449
▁effects	-12.1451
▁rates	-12.1463
▁opi	-12.1466
jack	-12.1479
▁mast	-12.148
bath	-12.1491
▁votes	-12.1504
latin	-12.1508
▁equals	-12.1514
▁bradle	-12.1516
ission	-12.1517
ap	-12.1519
▁naz	-12.152
▁ve	-12.152
▁drift	-12.1522
▁weekly	-12.1523
▁fuels	-12.1525
▁professors	-12.1525
▁passages	-12.1525
▁classics	-12.1526
evo	-12.1528
▁brandis	-12.153
▁rehearse	-12.1546
▁capp	-12.1548
managed	-12.155
▁noc	-12.1561
dan	-12.1583
▁freely	-12.1588
achs	-12.1596
▁owners	-12.1596
▁algo	-12.16
▁themes	-12.1604
▁hunts	-12.1612
▁spat	-12.1631
▁wif	-12.1642
▁whoop	-12.1657
▁magn	-12.166
sville	-12.1669
▁devices	-12.1675
▁vehicles	-12.1675
▁experts	-12.1676
▁nations	-12.1688
▁bidd	-12.169
▁hatche	-12.1705
▁prepp	-12.1709
▁barr	-12.172
ortis	-12.1729
tious	-12.1731
▁winners	-12.1751
▁bleeds	-12.1756
▁asi	-12.1775
▁sho	-12.1783
okie	-12.1788
▁deli	-12.1799
days	-12.1817
▁jerks	-12.1824
nova	-12.1829
▁wires	-12.1831
▁wei	-12.1832
▁fis	-12.1833
▁dales	-12.1834
▁fails	-12.1836
▁adds	-12.1837
ummy	-12.1837
▁mayer	-12.1849
▁counters	-12.1881
amin	-12.1893
▁stag	-12.1901
▁talents	-12.1903
▁cowards	-12.1907
eres	-12.1913
▁budge	-12.192
hopper	-12.1927
airy	-12.1929
▁bada	-12.1931
▁banking	-12.1936
▁nola	-12.1946
▁toni	-12.1948
rite	-12.1949
▁thr	-12.1959
oose	-12.1964
▁hammers	-12.1981
▁defenses	-12.1982
▁bel	-12.1982
did	-12.1986
▁bulls	-12.1995
card	-12.2005
▁garb	-12.2021
simo	-12.2032
▁ditche	-12.2034
raci	-12.2053
▁gums	-12.2057
▁scu	-12.2067
pace	-12.2068
▁pots	-12.207
nna	-12.2072
view	-12.2075
▁recurr	-12.2088
▁intentional	-12.2137
tribution	-12.2145
▁perfumes	-12.2147
▁hitch	-12.2149
amaic	-12.2152
rious	-12.2155
chief	-12.2156
▁deriv	-12.216
▁abnormalit	-12.2166
eves	-12.2171
▁westmin	-12.2176
▁corpus	-12.2194
▁barge	-12.2206
shot	-12.2209
take	-12.2214
rance	-12.2214
▁pockets	-12.2217
▁investigations	-12.2218
stabilized	-12.2222
▁thru	-12.2224
rate	-12.2228
cade	-12.2241
▁comfortabl	-12.2247
▁mcc	-12.2257
▁dav	-12.2264
ops	-12.2286
eque	-12.2294
▁hawke	-12.2296
▁traps	-12.2296
▁globes	-12.2297
▁signals	-12.2298
ko	-12.2298
pac	-12.2299
▁vid	-12.2307
▁gardens	-12.231
arch	-12.2311
▁penetrat	-12.2337
uka	-12.2345
imaginable	-12.2345
hah	-12.2355
▁grieve	-12.2369
hanks	-12.2372
▁roofs	-12.2376
▁menus	-12.2379
▁wee	-12.2384
▁trucker	-12.2397
▁just	-12.242
▁gru	-12.242
ari	-12.2429
▁bounds	-12.2456
▁bridges	-12.2459
▁values	-12.2464
▁gays	-12.2464
▁strips	-12.2489
rley	-12.249
▁ber	-12.2498
edo	-12.2501
tycoo	-12.2508
▁pian	-12.2508
dog	-12.2514
ren	-12.2531
▁arrang	-12.2582
▁hoi	-12.2584
shes	-12.2596
▁pairs	-12.26
▁merri	-12.261
▁corp	-12.2614
ando	-12.2615
cre	-12.2615
otto	-12.2621
mill	-12.2623
but	-12.2624
▁conf	-12.2629
▁pul	-12.2675
usted	-12.2676
siege	-12.2676
▁stoo	-12.2688
sexual	-12.2703
zo	-12.2703
▁shir	-12.2705
iddling	-12.2743
city	-12.2783
self	-12.2785
stop	-12.2798
ures	-12.2818
copter	-12.2824
▁patt	-12.2835
eels	-12.2835
tale	-12.2867
▁secur	-12.2879
otic	-12.288
▁dui	-12.2896
lashed	-12.2921
▁cata	-12.2924
▁aga	-12.2926
▁supervis	-12.2941
▁bratt	-12.2975
iro	-12.2989
tter	-12.2995
ulas	-12.301
entiv	-12.3016
nal	-12.3022
eria	-12.3036
ofthem	-12.3036
▁penetrate	-12.3052
wincy	-12.3059
▁realiz	-12.3087
gone	-12.3092
▁pantyho	-12.3098
name	-12.3108
licate	-12.311
mbo	-12.3119
▁hut	-12.3129
nia	-12.3185
▁edg	-12.3185
hol	-12.3193
▁stabilize	-12.3201
▁associat	-12.3205
reign	-12.3215
lis	-12.3217
▁int	-12.3232
iers	-12.3232
▁derive	-12.3251
ois	-12.3268
erie	-12.3276
very	-12.3289
▁optim	-12.3306
▁blan	-12.3312
acial	-12.3325
▁flo	-12.3327
▁docks	-12.3352
▁hater	-12.3362
▁finai	-12.3372
estimated	-12.3375
▁benn	-12.3409
ake	-12.3445
▁nor	-12.3446
find	-12.3481
lib	-12.3492
cher	-12.3503
chu	-12.3521
▁tal	-12.3531
▁ahhhhh	-12.3567
rica	-12.3577
idal	-12.3586
emon	-12.3615
shing	-12.3623
pper	-12.3623
▁dai	-12.3624
▁erect	-12.3653
ature	-12.3679
▁villa	-12.3681
▁concei	-12.3683
ading	-12.3685
▁bureaucra	-12.3686
▁shovin	-12.3698
nic	-12.3702
tis	-12.3703
aha	-12.3704
olic	-12.3715
▁vari	-12.3723
talki	-12.3745
▁intervene	-12.3761
zzo	-12.3769
anium	-12.377
▁ferr	-12.3771
eous	-12.3832
▁merc	-12.3868
▁sext	-12.3869
vern	-12.3872
▁receiv	-12.3909
jit	-12.3913
ital	-12.3918
bil	-12.3927
tors	-12.3935
▁ohho	-12.3943
▁contribute	-12.3963
▁siip	-12.3975
nger	-12.398
▁recit	-12.3981
bl	-12.399
ilities	-12.3999
our	-12.4013
kan	-12.4014
orno	-12.403
ore	-12.4035
zy	-12.4049
lda	-12.4053
▁meth	-12.4067
ue	-12.4069
utter	-12.4093
why	-12.4095
▁admir	-12.4107
tches	-12.4143
▁rosa	-12.4147
▁independen	-12.4148
mediate	-12.4154
home	-12.4168
▁behav	-12.4169
▁concentrat	-12.4187
uri	-12.4189
uscular	-12.4233
▁unfuckin	-12.4242
▁implie	-12.4256
wind	-12.4278
bang	-12.4283
menting	-12.4285
brows	-12.4296
▁guid	-12.4315
eller	-12.4315
min	-12.432
rged	-12.4341
jang	-12.4345
nox	-12.436
▁pieas	-12.4379
▁crop	-12.4385
ator	-12.4388
aah	-12.4388
▁cava	-12.4389
▁trac	-12.4416
rdo	-12.4424
▁abus	-12.4425
tant	-12.4429
rname	-12.4438
wick	-12.444
▁admoni	-12.4487
[...]
