<unk>	0
<s>	0
</s>	0
s	-3.01937
t	-3.96329
e	-4.06812
ing	-4.15301
y	-4.32135
d	-4.36892
n	-4.50198
ed	-4.51193
r	-4.71638
o	-4.72062
p	-4.72527
a	-4.80111
m	-4.84076
▁im	-4.84506
▁	-4.89231
er	-4.89682
▁s	-4.95781
i	-4.95992
g	-4.98428
▁know	-4.9957
▁dont	-5.00911
in	-5.02589
▁go	-5.15474
c	-5.16054
l	-5.17918
b	-5.19655
▁get	-5.2217
u	-5.28101
ll	-5.30153
or	-5.31644
▁right	-5.33197
▁like	-5.34862
le	-5.38213
w	-5.40534
▁come	-5.40945
▁na	-5.42799
▁l	-5.44117
▁oh	-5.44232
▁got	-5.44634
▁youre	-5.46585
▁yeah	-5.46678
ar	-5.4872
f	-5.51628
al	-5.5894
h	-5.59799
v	-5.62584
ck	-5.62672
ly	-5.63779
▁thats	-5.64573
▁well	-5.65315
▁one	-5.67418
on	-5.6864
it	-5.6889
▁okay	-5.7029
▁see	-5.73025
▁re	-5.73773
▁want	-5.74615
re	-5.76993
▁c	-5.77085
▁think	-5.78079
▁gon	-5.78914
▁man	-5.79223
k	-5.80757
▁good	-5.8106
▁us	-5.83961
ch	-5.84467
▁look	-5.85401
▁a	-5.86572
es	-5.89218
en	-5.89875
▁st	-5.89977
▁be	-5.90009
at	-5.93011
il	-5.93978
ent	-5.96945
▁hey	-5.98322
▁de	-6.02298
▁back	-6.02643
▁pa	-6.02829
ri	-6.04068
▁say	-6.0413
▁ma	-6.06554
▁take	-6.06637
an	-6.07091
st	-6.0766
▁time	-6.07858
▁e	-6.11942
▁yes	-6.12312
▁going	-6.16254
th	-6.16548
ce	-6.1671
▁ill	-6.16824
ur	-6.17242
▁hes	-6.19224
▁bo	-6.19552
▁need	-6.19738
▁co	-6.20358
▁tell	-6.20794
ne	-6.211
ter	-6.21371
▁f	-6.22524
ve	-6.22979
ra	-6.23639
▁bu	-6.24061
▁cant	-6.24365
▁w	-6.25409
▁t	-6.25677
▁in	-6.27702
el	-6.27737
ir	-6.29146
ie	-6.29476
▁would	-6.29577
▁love	-6.30051
▁o	-6.31152
▁k	-6.34314
x	-6.34377
ke	-6.36455
▁make	-6.36822
▁mean	-6.38247
▁let	-6.38476
▁ro	-6.39647
ic	-6.40585
▁me	-6.41417
▁could	-6.42335
▁really	-6.42337
▁ba	-6.42628
▁ta	-6.43582
▁way	-6.44273
la	-6.44687
te	-6.45379
ow	-6.46224
ro	-6.46627
▁wh	-6.47017
▁please	-6.47108
li	-6.48645
▁something	-6.48815
se	-6.5001
▁thank	-6.50055
sh	-6.50074
▁ra	-6.50469
▁sh	-6.50849
▁ca	-6.51027
▁never	-6.51231
▁little	-6.51349
ate	-6.51574
ion	-6.52007
▁su	-6.53771
ver	-6.53851
▁sp	-6.54145
▁sorry	-6.55235
▁whats	-6.55821
▁th	-6.56223
▁po	-6.56515
de	-6.56564
▁lets	-6.56602
▁god	-6.57109
▁give	-6.57198
▁didnt	-6.57377
us	-6.58812
▁ha	-6.59737
▁wait	-6.60023
ol	-6.60658
ry	-6.60864
am	-6.6187
▁work	-6.62797
▁mi	-6.62873
as	-6.63501
ge	-6.64011
▁cr	-6.64705
▁da	-6.64795
▁to	-6.6518
▁lo	-6.65236
▁mo	-6.6579
▁ive	-6.66
▁mr	-6.66076
▁day	-6.66511
▁theres	-6.66808
▁fa	-6.67064
▁b	-6.67238
▁hi	-6.6729
▁ex	-6.67745
ation	-6.68357
et	-6.68971
▁help	-6.69055
▁car	-6.69536
z	-6.70148
▁stop	-6.70264
▁con	-6.70293
▁two	-6.71153
▁people	-6.72093
▁ho	-6.73109
▁un	-6.73494
ul	-6.74023
▁uh	-6.75353
▁dr	-6.76044
co	-6.7628
▁te	-6.76391
les	-6.76515
▁fuck	-6.77066
▁call	-6.77407
▁ri	-6.77615
▁p	-6.77832
age	-6.77916
is	-6.78019
vi	-6.78354
▁la	-6.78367
▁do	-6.7913
▁thing	-6.79268
im	-6.79354
per	-6.79376
▁said	-6.80103
end	-6.80152
me	-6.80319
lo	-6.80411
▁di	-6.83864
and	-6.84648
ff	-6.85421
▁mar	-6.85586
est	-6.86493
▁even	-6.86507
ist	-6.86917
▁he	-6.87059
▁sir	-6.87299
ad	-6.87529
▁sure	-6.88138
▁much	-6.8842
▁pu	-6.8851
▁shes	-6.88708
ers	-6.89156
▁talk	-6.89316
▁feel	-6.89666
▁new	-6.89849
▁shit	-6.90543
▁great	-6.90632
ma	-6.91144
▁fl	-6.91293
▁so	-6.91391
mp	-6.91545
▁vi	-6.92283
un	-6.92309
ies	-6.92354
▁life	-6.9236
nt	-6.92684
id	-6.93047
▁pro	-6.93334
om	-6.9384
▁ar	-6.94202
▁home	-6.94651
▁find	-6.94815
▁no	-6.95083
▁theyre	-6.96895
▁night	-6.96946
▁se	-6.97191
▁bl	-6.98445
▁boy	-6.99575
▁li	-6.99865
ight	-6.99875
oo	-6.99993
▁keep	-7.00033
ni	-7.00671
na	-7.01152
ment	-7.01425
▁put	-7.01921
ut	-7.02125
▁girl	-7.02813
▁anything	-7.0383
▁le	-7.03878
▁name	-7.04053
▁br	-7.04106
▁fe	-7.0428
▁first	-7.04818
▁long	-7.06058
▁nothing	-7.06384
▁ever	-7.06562
▁maybe	-7.06616
▁jo	-7.07277
▁fi	-7.07625
▁friend	-7.09047
▁ti	-7.09595
ant	-7.10088
▁hand	-7.10139
▁stay	-7.10429
▁guys	-7.10852
▁ask	-7.11351
▁g	-7.11563
ard	-7.11588
▁cl	-7.12145
▁big	-7.12229
tion	-7.12301
mb	-7.12318
▁miss	-7.12534
▁away	-7.13337
▁wan	-7.13608
ac	-7.13846
ther	-7.14116
▁still	-7.14672
▁thought	-7.15019
▁fucking	-7.15132
▁tra	-7.15527
▁an	-7.15722
ive	-7.15792
▁around	-7.15805
ugh	-7.1592
nk	-7.15969
▁ju	-7.15976
▁hell	-7.16652
▁son	-7.16723
▁better	-7.16875
▁ru	-7.16912
man	-7.1698
able	-7.17328
ting	-7.17598
▁listen	-7.18254
▁kill	-7.18275
▁last	-7.18552
▁hear	-7.18671
▁show	-7.18739
mo	-7.18883
▁id	-7.19081
▁ga	-7.19218
▁guy	-7.19442
▁i	-7.19928
ty	-7.20239
um	-7.20274
ta	-7.20345
ud	-7.20441
▁ja	-7.21046
▁baby	-7.21275
▁al	-7.21349
▁pi	-7.22296
▁pe	-7.2236
▁ne	-7.22407
▁everything	-7.22715
▁nice	-7.23083
ip	-7.23241
▁sha	-7.23611
▁must	-7.23802
ha	-7.24312
▁part	-7.24429
▁leave	-7.24763
▁always	-7.25107
▁for	-7.25261
▁told	-7.25355
▁kid	-7.25414
▁live	-7.25509
ia	-7.2561
op	-7.26418
▁move	-7.26479
▁ad	-7.28362
▁real	-7.2869
▁place	-7.28931
▁wa	-7.29806
▁dis	-7.29853
▁start	-7.29877
▁coming	-7.29997
tch	-7.30008
ca	-7.30148
▁wi	-7.30179
▁mom	-7.31342
▁du	-7.31496
▁old	-7.31578
▁pre	-7.31809
▁fine	-7.32281
ho	-7.32754
▁years	-7.33179
▁youve	-7.33402
▁world	-7.33653
▁wont	-7.34559
▁hold	-7.34932
▁lot	-7.35046
und	-7.35052
▁money	-7.35178
▁hello	-7.35222
▁believe	-7.35812
▁em	-7.3608
ling	-7.36123
▁kind	-7.36297
▁youll	-7.36393
▁ok	-7.36487
▁cha	-7.36508
▁father	-7.36685
▁doesnt	-7.37627
j	-7.37888
▁every	-7.38188
▁dad	-7.38609
▁bad	-7.38655
▁remember	-7.38942
if	-7.39028
▁things	-7.39109
ine	-7.39241
▁head	-7.39871
▁made	-7.40314
▁done	-7.40617
ure	-7.41111
tic	-7.41253
ger	-7.41261
▁sa	-7.41346
da	-7.41565
▁house	-7.41705
▁three	-7.41712
▁gra	-7.42261
▁col	-7.43173
ish	-7.43654
▁huh	-7.444
▁h	-7.44659
▁understand	-7.44738
cu	-7.45047
ian	-7.45058
▁door	-7.45134
▁minute	-7.45514
▁ass	-7.45621
be	-7.45679
▁chi	-7.45873
▁turn	-7.46239
▁came	-7.47056
▁hu	-7.47275
▁pr	-7.47288
▁gu	-7.47886
▁play	-7.47905
ful	-7.47931
ance	-7.48095
▁wrong	-7.48239
▁win	-7.48446
▁aint	-7.49037
he	-7.49171
▁care	-7.49664
▁war	-7.50057
ence	-7.50229
▁watch	-7.50391
▁woman	-7.50745
▁je	-7.51435
▁happen	-7.51495
▁tri	-7.51742
▁music	-7.51883
▁men	-7.5211
▁try	-7.52577
▁left	-7.52942
up	-7.53265
▁va	-7.54031
▁meet	-7.54635
▁talking	-7.5509
ity	-7.55162
▁mu	-7.55736
ig	-7.56241
ag	-7.56269
▁may	-7.56376
▁isnt	-7.56823
▁open	-7.56903
ous	-7.57419
▁fight	-7.57729
▁thanks	-7.57786
▁mother	-7.58292
▁mind	-7.58606
ally	-7.58839
▁sit	-7.58935
di	-7.58958
ny	-7.59146
no	-7.5969
▁speak	-7.59952
▁die	-7.60243
qu	-7.60297
▁another	-7.6036
▁enough	-7.60523
▁someone	-7.60687
▁today	-7.60854
▁plan	-7.60928
▁hard	-7.62005
▁dead	-7.62329
▁might	-7.62358
uc	-7.62377
▁close	-7.6246
▁course	-7.62517
▁j	-7.62538
▁che	-7.62822
▁happened	-7.6293
ang	-7.63009
▁y	-7.6315
▁en	-7.63153
▁bar	-7.63398
▁z	-7.63419
▁we	-7.6459
▁else	-7.64733
▁ready	-7.64826
▁run	-7.65325
▁best	-7.65592
▁end	-7.66192
▁room	-7.66215
ise	-7.66891
ak	-7.67346
▁trying	-7.67403
ba	-7.67902
▁eye	-7.68236
▁tonight	-7.68302
▁next	-7.68303
▁week	-7.68481
▁um	-7.68494
ton	-7.68566
▁ni	-7.68967
▁job	-7.68969
▁phone	-7.69101
▁ge	-7.69542
▁walk	-7.69738
▁jack	-7.70143
▁fire	-7.70928
▁cause	-7.7094
▁getting	-7.71574
▁wanted	-7.71655
▁found	-7.73936
▁morning	-7.74153
▁bit	-7.74533
▁gun	-7.74793
▁app	-7.74962
ake	-7.75253
▁bring	-7.75901
▁ah	-7.76089
▁inter	-7.76094
▁ya	-7.76305
▁second	-7.76343
▁everybody	-7.76535
▁fo	-7.7679
ize	-7.76895
ness	-7.77539
▁gi	-7.77578
▁whos	-7.77933
▁ear	-7.77939
▁break	-7.78289
▁whole	-7.78904
ner	-7.78914
▁together	-7.79672
▁bra	-7.7998
▁family	-7.80071
▁har	-7.80315
▁looking	-7.8043
ated	-7.80881
▁heart	-7.81743
▁brother	-7.81786
▁cut	-7.81794
▁face	-7.81816
▁stand	-7.8186
ug	-7.81882
▁excuse	-7.81988
▁qu	-7.82295
▁eat	-7.82452
▁laugh	-7.82792
▁wasnt	-7.8292
▁lm	-7.83027
▁saw	-7.83561
▁matter	-7.83656
▁playing	-7.84857
▁seen	-7.85257
▁pl	-7.85573
▁fun	-7.85654
▁guess	-7.86281
▁change	-7.87116
ction	-7.87496
▁tomorrow	-7.87754
ward	-7.87919
▁char	-7.88001
▁idea	-7.88217
▁hope	-7.88432
▁whoa	-7.88437
▁read	-7.89038
▁check	-7.89094
▁pay	-7.89412
▁school	-7.89497
▁per	-7.90094
▁hour	-7.90188
▁pick	-7.90217
▁hit	-7.90507
▁gr	-7.90722
ook	-7.90766
▁sound	-7.90791
▁knew	-7.90828
▁word	-7.90968
▁damn	-7.91301
▁actually	-7.91381
▁pretty	-7.91385
▁problem	-7.91718
▁arm	-7.91873
▁person	-7.91962
lic	-7.92035
▁weve	-7.92119
▁beautiful	-7.92281
▁au	-7.92494
▁free	-7.93588
▁am	-7.93717
▁went	-7.93722
▁high	-7.93887
▁far	-7.93928
▁wouldnt	-7.9429
▁scream	-7.94798
▁everyone	-7.95046
▁ab	-7.96137
▁hurt	-7.96238
▁without	-7.96313
▁four	-7.96854
▁shut	-7.96988
▁alone	-7.97041
▁heard	-7.97201
▁set	-7.9829
▁five	-7.98298
▁took	-7.9941
ible	-7.99881
▁question	-7.99905
▁called	-8.00219
▁water	-8.00383
▁wife	-8.00786
▁bri	-8.01077
▁light	-8.01486
▁cho	-8.01565
▁somebody	-8.01874
▁wonder	-8.02873
▁comm	-8.03362
▁clear	-8.0354
▁hot	-8.03899
▁sign	-8.04201
▁breath	-8.04775
▁crazy	-8.05416
▁anyone	-8.05545
▁six	-8.05573
▁happy	-8.06322
▁office	-8.06322
▁luck	-8.0635
▁late	-8.06554
▁continue	-8.06582
▁youd	-8.06781
▁dog	-8.07089
▁rest	-8.07226
ical	-8.07283
▁sleep	-8.07369
▁comp	-8.07399
▁rob	-8.07943
▁game	-8.08641
▁drink	-8.08698
▁tu	-8.08709
▁gre	-8.08825
▁bye	-8.08914
▁blood	-8.09093
▁true	-8.09223
▁lost	-8.09294
▁nobody	-8.09356
▁yet	-8.09401
▁ka	-8.09561
▁sighs	-8.10029
port	-8.10394
▁sea	-8.1041
▁already	-8.10434
▁easy	-8.11131
▁ago	-8.11332
▁havent	-8.11391
▁ve	-8.11481
▁pass	-8.11642
▁point	-8.1187
▁story	-8.11873
▁promise	-8.11937
▁act	-8.13033
▁book	-8.13079
▁worry	-8.13184
▁chuckles	-8.1325
▁sam	-8.13267
▁number	-8.14018
▁killed	-8.14135
▁rock	-8.14287
▁stuff	-8.14586
zz	-8.14679
▁deal	-8.14689
▁year	-8.14956
▁since	-8.15327
▁save	-8.15423
▁honey	-8.15729
▁trust	-8.16003
▁up	-8.16225
▁safe	-8.16494
▁laughing	-8.17066
▁follow	-8.173
▁shot	-8.17422
▁dream	-8.17745
▁couldnt	-8.17873
▁ring	-8.17989
▁grunts	-8.1832
▁air	-8.18391
▁soon	-8.18403
▁business	-8.19351
▁young	-8.20394
▁ow	-8.20754
▁touch	-8.21453
▁terr	-8.21692
▁drive	-8.21728
▁inside	-8.21787
▁line	-8.21893
▁side	-8.22244
que	-8.22403
▁jesus	-8.22679
▁fall	-8.22962
▁shoot	-8.22989
▁john	-8.23907
▁order	-8.24052
side	-8.24291
▁hate	-8.2444
▁yo	-8.24964
▁daddy	-8.25025
▁case	-8.25482
▁exactly	-8.25612
ious	-8.26039
▁moment	-8.26584
▁mine	-8.27201
▁wish	-8.27476
▁vo	-8.27653
▁supposed	-8.27766
▁welcome	-8.28166
▁power	-8.28202
▁cool	-8.287
▁whatever	-8.28979
▁doctor	-8.29141
▁serious	-8.29803
▁chance	-8.2981
▁later	-8.30054
▁month	-8.3014
▁probably	-8.3029
▁afraid	-8.30621
▁lady	-8.30726
▁grow	-8.312
spect	-8.31329
▁wow	-8.3172
▁answer	-8.31956
▁gave	-8.32429
▁hang	-8.32468
▁sister	-8.32679
▁taking	-8.32837
▁bill	-8.32976
▁grand	-8.33347
▁different	-8.33479
ign	-8.33505
▁perfect	-8.33649
▁sweet	-8.34163
▁forget	-8.34174
▁city	-8.3545
▁full	-8.3583
▁daughter	-8.36773
press	-8.37475
▁lose	-8.377
▁police	-8.38198
▁half	-8.3822
▁fast	-8.38428
▁bitch	-8.38572
▁making	-8.39138
▁black	-8.3983
▁scr	-8.40076
▁hmm	-8.40194
▁out	-8.40351
▁death	-8.40572
▁reason	-8.4147
▁gasps	-8.41654
▁though	-8.42578
▁town	-8.42622
▁america	-8.4295
▁child	-8.43527
▁wear	-8.43572
▁dance	-8.44129
▁kiss	-8.44144
▁couple	-8.44845
▁truth	-8.45033
▁finish	-8.45232
▁throw	-8.45431
▁george	-8.45803
▁behind	-8.45995
▁drop	-8.47315
▁lord	-8.47364
▁anyway	-8.47554
▁front	-8.47752
way	-8.47977
▁step	-8.48067
▁grunting	-8.48539
▁count	-8.48858
▁learn	-8.48961
▁anybody	-8.49135
▁trouble	-8.49135
▁street	-8.49143
▁almost	-8.50139
▁quick	-8.50345
▁body	-8.50915
▁lead	-8.51079
▁outside	-8.51792
▁gl	-8.52131
▁also	-8.52142
▁white	-8.5224
▁voice	-8.52591
▁report	-8.52878
▁blue	-8.53742
▁married	-8.53845
▁anymore	-8.54039
▁children	-8.54887
▁ahead	-8.55097
▁broke	-8.55104
▁women	-8.55307
▁special	-8.55729
▁important	-8.5573
▁class	-8.56199
time	-8.56494
▁foot	-8.56866
pped	-8.56894
▁sometimes	-8.57015
▁least	-8.57257
▁fact	-8.57598
▁alive	-8.58437
▁food	-8.58576
▁husband	-8.58976
▁stupid	-8.58977
▁funny	-8.59115
▁picture	-8.59196
▁figure	-8.59422
▁record	-8.59639
▁ski	-8.59715
▁gentlemen	-8.60976
▁teach	-8.60994
▁clean	-8.61014
▁deep	-8.62326
▁hurry	-8.62337
▁dress	-8.62906
▁control	-8.63018
▁human	-8.63045
▁heres	-8.63136
▁yell	-8.63294
▁theyll	-8.63477
▁brought	-8.63938
▁scared	-8.63939
▁ladies	-8.63951
▁running	-8.63985
▁goddamn	-8.64401
▁quite	-8.64417
▁trans	-8.64641
▁dinner	-8.6487
▁seven	-8.64892
▁expect	-8.65569
▁burn	-8.65761
▁strong	-8.66042
▁frank	-8.66965
▁buddy	-8.67231
▁quiet	-8.6748
▁write	-8.67622
▁secret	-8.67707
▁goodbye	-8.6771
▁protect	-8.67753
▁country	-8.68126
▁kick	-8.68462
▁slow	-8.68493
▁piece	-8.68692
▁hows	-8.68857
▁key	-8.69007
▁gold	-8.6921
▁captain	-8.69647
▁straight	-8.6965
▁living	-8.69679
▁million	-8.70637
▁either	-8.70639
▁chatter	-8.70646
▁horse	-8.70656
▁parents	-8.71377
▁panting	-8.71678
▁york	-8.72136
▁glad	-8.72281
▁careful	-8.72833
▁certain	-8.72881
▁knock	-8.73136
▁company	-8.73141
▁alright	-8.73392
▁along	-8.73909
▁command	-8.74119
▁small	-8.75209
field	-8.75219
▁dark	-8.75989
▁sick	-8.76365
▁radio	-8.7649
▁calm	-8.77123
▁groans	-8.77804
▁itll	-8.782
▁ooh	-8.79744
▁murder	-8.79952
▁president	-8.80224
▁mouth	-8.80782
▁soldier	-8.8187
▁leaving	-8.82147
▁chuck	-8.82283
▁moving	-8.82474
▁short	-8.8291
▁mistake	-8.82984
▁general	-8.83545
▁strange	-8.83832
▁court	-8.84502
▁choice	-8.85259
▁tree	-8.85447
▁sense	-8.85594
▁relax	-8.85826
▁charlie	-8.85831
▁shell	-8.86023
▁indistinct	-8.86108
▁complete	-8.86981
▁bird	-8.86998
▁forever	-8.87283
▁attack	-8.87854
▁surprise	-8.88148
▁amazing	-8.88148
▁absolutely	-8.88739
▁decide	-8.88745
▁worth	-8.88754
▁kidding	-8.88841
▁shouldnt	-8.89036
▁engine	-8.89038
▁phil	-8.89344
▁smell	-8.89668
▁apart	-8.90535
▁become	-8.91142
▁cross	-8.9117
▁honest	-8.91462
▁return	-8.92054
▁stick	-8.92437
▁future	-8.92977
▁treat	-8.9334
▁honor	-8.93348
▁somewhere	-8.9422
▁cheering	-8.94578
▁angel	-8.95292
▁agree	-8.95496
▁pray	-8.9587
▁enjoy	-8.96116
▁tommy	-8.96117
▁english	-8.96756
▁glass	-8.96775
▁weird	-8.97733
▁park	-8.97798
▁prison	-8.98051
▁michael	-8.98374
▁allow	-8.98728
▁finally	-8.99697
▁explain	-9.00019
▁asshole	-9.00022
▁direct	-9.00192
▁uncle	-9.00389
▁church	-9.00685
▁prince	-9.00692
▁magic	-9.00803
▁offer	-9.01707
▁reach	-9.02102
▁crowd	-9.02731
▁fran	-9.03312
▁service	-9.04426
▁hospital	-9.04774
▁forgot	-9.04774
▁ground	-9.05125
▁opera	-9.05661
▁french	-9.05823
▁smart	-9.06539
▁movie	-9.07314
▁south	-9.07669
▁system	-9.07954
▁thousand	-9.07955
▁entire	-9.07956
▁hundred	-9.08314
▁machine	-9.08319
▁fault	-9.0834
▁shouting	-9.09766
▁truck	-9.10132
▁perhaps	-9.105
▁destroy	-9.10869
▁possible	-9.1124
▁queen	-9.11637
▁across	-9.11984
▁weapon	-9.12358
▁swear	-9.13493
▁peace	-9.13512
▁photo	-9.14253
▁smile	-9.14264
▁darling	-9.14644
▁hungry	-9.15406
▁middle	-9.15407
▁bullshit	-9.15794
▁space	-9.15841
▁arrest	-9.16203
▁notice	-9.16806
▁coffee	-9.18152
▁imagine	-9.19761
▁lunch	-9.19768
▁anywhere	-9.20566
▁attention	-9.20566
▁animal	-9.20978
▁computer	-9.21802
▁major	-9.21803
▁theyve	-9.2346
▁groaning	-9.23879
▁except	-9.25152
▁definitely	-9.25578
▁motherfucker	-9.26438
▁history	-9.26438
▁belong	-9.26439
▁wedding	-9.26877
▁obvious	-9.27306
q	-9.75103
