<unk>	0
<s>	0
</s>	0
s	-3.50745
▁im	-4.40149
▁dont	-4.47454
▁know	-4.51587
▁get	-4.67603
▁like	-4.8161
▁right	-4.81627
▁go	-4.86687
▁yeah	-4.86994
▁got	-4.87652
▁youre	-4.97046
▁come	-5.05751
ing	-5.09106
▁na	-5.09599
▁oh	-5.12454
▁thats	-5.13349
▁want	-5.18026
▁one	-5.19059
▁okay	-5.2177
ed	-5.23033
▁well	-5.23068
▁think	-5.28129
▁gon	-5.31864
▁good	-5.33368
▁see	-5.42959
▁man	-5.48798
▁look	-5.5504
▁time	-5.59375
▁hey	-5.61589
▁back	-5.61855
▁take	-5.64477
d	-5.66114
▁ill	-5.66636
▁hes	-5.67019
▁yes	-5.67454
▁going	-5.69799
▁fuck	-5.72131
▁us	-5.74062
▁need	-5.7976
▁cant	-5.80058
▁fucking	-5.81374
▁tell	-5.82816
▁would	-5.85556
y	-5.86346
▁say	-5.86708
▁shit	-5.8814
▁could	-5.92425
▁really	-5.93029
▁didnt	-5.94715
▁make	-5.95495
▁something	-5.99775
▁way	-6.00295
▁mean	-6.0173
▁lets	-6.0203
▁people	-6.04451
▁please	-6.04544
▁sorry	-6.05749
▁god	-6.06812
▁love	-6.07855
▁let	-6.08526
▁thank	-6.09858
▁little	-6.10626
▁whats	-6.12543
▁two	-6.1271
▁ive	-6.15887
▁theres	-6.17328
▁l	-6.1849
▁give	-6.20615
▁never	-6.21266
▁said	-6.22142
e	-6.24489
▁	-6.24827
er	-6.25668
▁uh	-6.28376
▁call	-6.30413
▁help	-6.30551
▁much	-6.34286
▁thing	-6.34374
▁guys	-6.36031
▁sure	-6.40434
ly	-6.42487
▁anything	-6.42969
▁shes	-6.4307
▁maybe	-6.43787
▁even	-6.44119
▁theyre	-6.45575
▁stop	-6.4666
in	-6.4846
▁work	-6.4971
▁wait	-6.50859
▁talk	-6.51034
▁mr	-6.51268
▁put	-6.51578
▁first	-6.51591
▁day	-6.529
▁money	-6.53829
▁life	-6.5427
▁find	-6.54283
t	-6.55442
▁night	-6.55506
▁great	-6.55615
▁ever	-6.56627
▁sir	-6.5905
▁nothing	-6.59584
▁new	-6.60223
r	-6.62022
▁still	-6.62334
▁away	-6.62665
▁hell	-6.64512
▁home	-6.6618
▁guy	-6.67067
▁around	-6.68257
▁long	-6.68421
▁keep	-6.69831
▁years	-6.70816
▁last	-6.71638
▁name	-6.72465
▁nice	-6.72713
▁car	-6.72855
▁three	-6.72895
p	-6.73396
▁everything	-6.73581
▁place	-6.73818
a	-6.73907
▁stay	-6.73967
▁ta	-6.74655
▁feel	-6.74671
▁id	-6.75368
▁thought	-6.75408
▁kill	-6.75615
▁leave	-6.7586
▁better	-6.78154
▁house	-6.78344
▁hi	-6.78529
▁things	-6.78812
▁lot	-6.79697
▁fine	-6.8008
▁listen	-6.81266
▁always	-6.81272
▁move	-6.81699
▁told	-6.82472
▁doesnt	-6.83685
▁mom	-6.83886
▁wan	-6.85168
▁girl	-6.85532
▁youve	-6.85533
i	-6.86542
▁coming	-6.87631
▁kind	-6.8772
▁wont	-6.88477
▁old	-6.88502
o	-6.88915
▁talking	-6.88942
▁made	-6.8959
▁bad	-6.90287
▁hello	-6.90332
g	-6.908
▁done	-6.90863
▁remember	-6.91072
▁hear	-6.91119
▁father	-6.93594
▁baby	-6.95096
n	-6.95305
▁every	-6.95492
▁son	-6.96907
▁understand	-6.97402
▁youll	-6.97403
▁dad	-6.98201
▁left	-6.9834
▁dead	-6.99056
▁big	-6.99668
▁boy	-6.99766
▁must	-7.00902
▁believe	-7.0145
▁aint	-7.01693
▁ok	-7.01702
▁happened	-7.01954
▁next	-7.02182
▁wrong	-7.03166
al	-7.04188
▁isnt	-7.04409
▁door	-7.05082
▁morning	-7.05672
▁world	-7.05927
▁wanted	-7.06576
▁room	-7.07469
▁real	-7.07803
es	-7.07858
▁huh	-7.07981
▁enough	-7.08497
▁hold	-7.08674
▁mother	-7.09587
▁thanks	-7.0976
▁else	-7.10075
▁ask	-7.10531
▁start	-7.11498
▁try	-7.11995
m	-7.12273
c	-7.12828
▁woman	-7.13038
▁today	-7.13305
b	-7.13942
▁john	-7.14105
▁looking	-7.15186
▁care	-7.15719
▁came	-7.1576
▁open	-7.16903
▁friend	-7.17267
▁someone	-7.18354
▁together	-7.18354
▁getting	-7.18631
▁wasnt	-7.19512
▁trying	-7.19591
▁live	-7.20158
▁another	-7.21571
▁show	-7.21804
▁might	-7.21827
▁cause	-7.2187
▁head	-7.22072
▁course	-7.2217
▁job	-7.23843
▁whole	-7.23982
▁um	-7.24246
▁play	-7.24389
▁best	-7.2461
▁ass	-7.25156
▁run	-7.25467
▁mind	-7.26755
▁took	-7.28972
▁phone	-7.29363
▁jesus	-7.29935
▁die	-7.30218
▁guess	-7.30583
l	-7.30988
▁tonight	-7.31237
▁weve	-7.31564
▁wife	-7.32223
▁killed	-7.32492
▁hard	-7.33219
▁used	-7.34141
▁many	-7.34342
en	-7.34669
▁family	-7.34903
▁un	-7.35178
▁men	-7.35384
▁saying	-7.35534
▁damn	-7.35931
▁went	-7.35934
▁pretty	-7.3627
▁use	-7.3645
▁actually	-7.36629
▁may	-7.37305
▁school	-7.37661
▁jack	-7.37834
▁check	-7.37912
▁called	-7.38148
▁seen	-7.38348
▁bitch	-7.38653
▁idea	-7.38715
▁saw	-7.38719
▁em	-7.39119
▁found	-7.40131
▁face	-7.40145
▁ready	-7.40366
▁pay	-7.40618
▁heard	-7.41057
▁gun	-7.41261
▁bit	-7.41325
▁wouldnt	-7.41646
▁miss	-7.41724
▁nobody	-7.41936
▁game	-7.4196
▁four	-7.42285
▁goddamn	-7.42301
▁turn	-7.42314
▁kids	-7.4259
▁hit	-7.42649
▁knew	-7.43403
▁meet	-7.43536
▁days	-7.43925
f	-7.44526
h	-7.44676
▁shut	-7.45993
▁drink	-7.46174
▁without	-7.46406
or	-7.46613
▁somebody	-7.46787
▁excuse	-7.4717
on	-7.47376
▁second	-7.47549
▁friends	-7.47642
k	-7.48067
▁watch	-7.4874
▁whos	-7.48863
▁five	-7.49123
▁hand	-7.49576
▁problem	-7.5058
▁alone	-7.51489
▁youd	-7.51498
▁bring	-7.52255
▁sit	-7.52356
▁easy	-7.53509
▁inside	-7.54746
▁part	-7.55339
▁minute	-7.55583
▁s	-7.55725
▁everybody	-7.56047
▁re	-7.57039
▁beautiful	-7.5726
▁anyone	-7.57685
▁ago	-7.57699
▁walk	-7.581
▁deal	-7.58302
▁probably	-7.58542
▁read	-7.58549
▁kid	-7.58669
▁gone	-7.58971
▁couldnt	-7.59055
▁dog	-7.59328
▁tomorrow	-7.59406
▁matter	-7.59601
▁stuff	-7.59845
▁boys	-7.60358
▁ah	-7.60433
▁point	-7.60475
▁g	-7.61047
▁police	-7.61156
▁hurt	-7.6119
re	-7.61565
▁already	-7.62043
▁whoa	-7.62063
▁fire	-7.62152
▁crazy	-7.62493
ic	-7.63096
v	-7.6324
▁stand	-7.64174
▁heart	-7.64341
▁end	-7.64483
▁hands	-7.65056
▁eyes	-7.65147
▁whatever	-7.65672
▁close	-7.65717
▁thinking	-7.66188
ers	-7.66348
▁honey	-7.66601
▁case	-7.67004
▁water	-7.67073
▁set	-7.67146
▁couple	-7.67536
▁music	-7.67538
▁cool	-7.68016
▁playing	-7.68951
▁change	-7.69091
▁cut	-7.6953
▁lost	-7.69937
le	-7.70016
ion	-7.70209
▁worry	-7.70259
▁havent	-7.70401
▁shot	-7.70914
▁young	-7.71182
▁hope	-7.71366
▁girls	-7.71381
▁six	-7.71852
▁since	-7.71868
▁yet	-7.71868
▁wheres	-7.71887
▁happen	-7.71918
▁c	-7.71968
▁later	-7.72007
▁minutes	-7.72352
▁week	-7.72397
▁brother	-7.72927
▁eat	-7.73181
▁sleep	-7.73231
▁business	-7.74352
▁says	-7.7485
▁everyone	-7.75551
▁gave	-7.75875
▁bye	-7.75875
▁blood	-7.76105
▁sighs	-7.76458
it	-7.76624
▁late	-7.76689
man	-7.76719
▁happy	-7.76905
▁clear	-7.77256
▁though	-7.77272
▁black	-7.77421
u	-7.77653
▁number	-7.7766
▁supposed	-7.78062
▁speaking	-7.78882
▁th	-7.78902
ve	-7.78991
▁town	-7.79017
▁far	-7.79274
▁year	-7.79792
▁forget	-7.80053
▁taking	-7.80608
est	-7.81031
▁side	-7.81159
ll	-7.82148
▁anyway	-7.8221
▁exactly	-7.82222
▁afraid	-7.82756
▁true	-7.82785
▁line	-7.82938
▁book	-7.83176
▁mine	-7.83349
▁fight	-7.83423
el	-7.83635
▁working	-7.83958
less	-7.84135
▁fun	-7.84619
▁word	-7.84853
▁women	-7.85534
▁hours	-7.85772
▁soon	-7.85927
▁motherfucker	-7.86022
▁pick	-7.86049
▁chance	-7.86099
w	-7.86373
▁de	-7.86531
▁free	-7.87217
▁daughter	-7.87238
▁different	-7.8724
▁million	-7.87242
▁shoot	-7.87779
▁half	-7.87809
▁body	-7.87819
▁funny	-7.87819
▁rest	-7.87902
▁also	-7.88393
▁richard	-7.88395
▁outside	-7.88973
▁welcome	-7.89557
is	-7.89574
ch	-7.89638
st	-7.89702
▁hate	-7.89892
▁lose	-7.89947
▁person	-7.90048
▁front	-7.90138
▁alright	-7.90145
▁truth	-7.90147
▁party	-7.91142
▁war	-7.91232
▁story	-7.91337
▁wish	-7.91343
▁death	-7.91933
▁doctor	-7.92027
▁drive	-7.9231
▁buy	-7.93141
▁trust	-7.93208
▁full	-7.93459
ies	-7.9356
ar	-7.93852
▁high	-7.94558
▁christ	-7.94953
▁looks	-7.95008
▁started	-7.95583
us	-7.95877
ter	-7.95938
▁behind	-7.96226
▁arent	-7.96232
▁goes	-7.96341
ur	-7.9696
▁k	-7.96991
▁break	-7.97158
▁light	-7.9721
▁r	-7.97425
▁clean	-7.97488
▁anymore	-7.97488
▁hang	-7.97515
ie	-7.97951
▁chuckles	-7.98328
▁met	-7.98696
▁ha	-7.98713
▁stupid	-7.98766
▁least	-7.98773
▁molly	-7.98786
▁m	-7.98899
▁asked	-7.99403
▁telling	-7.99536
▁question	-7.99739
▁ben	-8.00312
▁almost	-8.00714
▁trouble	-8.00714
▁months	-8.00996
▁pull	-8.01552
▁sound	-8.01766
▁ten	-8.02002
▁st	-8.02361
▁bed	-8.02648
▁safe	-8.03054
▁top	-8.03239
▁bullshit	-8.03373
an	-8.03528
▁touch	-8.03552
▁makes	-8.03877
▁act	-8.04005
▁sick	-8.04034
▁moment	-8.04126
up	-8.04177
▁married	-8.04728
▁making	-8.04731
▁alive	-8.04748
▁city	-8.0545
▁red	-8.05836
▁dance	-8.05859
z	-8.05874
▁means	-8.05904
▁sam	-8.06142
▁wants	-8.06142
▁b	-8.0639
ri	-8.06734
▁follow	-8.06823
▁dream	-8.06858
▁bet	-8.06985
▁serious	-8.07334
▁team	-8.07525
▁hot	-8.07735
▁died	-8.07787
▁either	-8.08201
▁daddy	-8.08204
▁jim	-8.08212
at	-8.08455
ment	-8.0859
▁save	-8.0859
th	-8.09156
▁sometimes	-8.10048
▁special	-8.10322
▁anybody	-8.10344
▁cover	-8.10539
▁office	-8.10917
▁j	-8.10994
▁reason	-8.11035
▁michael	-8.11068
▁brought	-8.11069
▁itll	-8.11072
▁sign	-8.11182
▁york	-8.11798
▁street	-8.11811
▁heres	-8.11818
▁catch	-8.11819
▁dale	-8.11835
▁send	-8.11931
▁law	-8.12475
▁drop	-8.12524
▁truck	-8.12547
ro	-8.12688
▁hows	-8.12772
▁times	-8.12919
et	-8.13327
ation	-8.13605
▁country	-8.14032
▁write	-8.14369
▁ya	-8.14456
▁perfect	-8.14666
▁hurry	-8.14772
▁radio	-8.14778
▁waiting	-8.14889
ive	-8.15088
▁control	-8.15494
▁feeling	-8.15807
▁answer	-8.1594
▁plan	-8.16064
▁ii	-8.16191
▁theyll	-8.16293
▁joel	-8.16308
▁speak	-8.16351
▁ahead	-8.1707
▁order	-8.17484
▁king	-8.17856
▁report	-8.17868
▁fucked	-8.18471
▁sweet	-8.18583
▁dude	-8.1863
able	-8.19143
▁p	-8.19245
▁win	-8.19908
▁running	-8.20222
▁quite	-8.21125
▁cops	-8.21171
▁david	-8.21806
▁leaving	-8.21809
▁tried	-8.21895
▁straight	-8.22554
▁sort	-8.2262
▁white	-8.22632
▁table	-8.22683
▁able	-8.22843
▁sex	-8.23168
▁till	-8.23413
▁bill	-8.23434
▁children	-8.23439
▁lady	-8.2344
▁hair	-8.23462
▁happening	-8.23634
▁sister	-8.23818
▁promise	-8.23934
▁continues	-8.24076
▁news	-8.24177
▁billy	-8.24551
▁record	-8.24929
▁rock	-8.25108
▁screaming	-8.25244
▁mrs	-8.25562
▁fact	-8.25934
▁husband	-8.25939
▁food	-8.2594
▁agent	-8.25951
▁dr	-8.25978
▁roll	-8.26204
ant	-8.26233
▁beat	-8.26267
▁officer	-8.26561
ity	-8.26736
▁in	-8.26752
▁power	-8.26774
▁dick	-8.26788
▁calling	-8.26853
▁hour	-8.27319
▁wow	-8.27648
▁looked	-8.27867
▁scared	-8.27875
▁ho	-8.28047
▁lives	-8.28421
▁kidding	-8.28508
te	-8.28827
▁boss	-8.29313
il	-8.29648
▁air	-8.30263
▁stick	-8.30267
▁throw	-8.30416
ra	-8.30613
▁a	-8.30733
▁careful	-8.31043
▁sergeant	-8.31135
▁human	-8.31166
ate	-8.31435
▁piece	-8.31789
▁asshole	-8.31794
▁fast	-8.31847
▁somewhere	-8.32028
▁bar	-8.3226
▁seven	-8.32902
▁company	-8.32929
▁important	-8.32935
▁cia	-8.32967
▁parents	-8.3319
▁cop	-8.33881
▁wake	-8.33885
▁step	-8.33986
▁laughing	-8.34269
▁w	-8.34369
▁lie	-8.3462
▁information	-8.34761
▁song	-8.34956
um	-8.34973
▁ride	-8.35158
▁yo	-8.35435
▁coffee	-8.35681
▁living	-8.35686
▁moving	-8.35689
▁sense	-8.35805
▁o	-8.35841
▁con	-8.36067
▁hmm	-8.36523
▁shall	-8.36617
▁none	-8.36662
▁cell	-8.36689
▁holy	-8.36793
▁kiss	-8.37038
▁american	-8.37156
▁figure	-8.37227
ful	-8.37398
▁tired	-8.37583
▁happens	-8.38114
▁picture	-8.3845
▁george	-8.38512
▁weird	-8.38512
▁gentlemen	-8.38512
▁maam	-8.38521
▁child	-8.38523
▁glad	-8.38538
▁dollars	-8.38553
▁band	-8.38556
▁bob	-8.39439
▁small	-8.39473
▁dinner	-8.39474
▁mouth	-8.39484
▁sent	-8.39519
▁blow	-8.39722
▁pass	-8.40103
▁prison	-8.40199
▁pain	-8.40254
▁fair	-8.40278
▁f	-8.4029
▁possible	-8.40444
▁paul	-8.40453
▁road	-8.40453
▁nine	-8.40489
▁al	-8.40968
▁wed	-8.41001
▁meeting	-8.41082
▁luck	-8.41225
▁needs	-8.41258
▁co	-8.41404
▁cross	-8.41425
▁along	-8.4143
▁shouldnt	-8.41432
▁park	-8.41519
▁finish	-8.41884
▁hed	-8.41946
▁e	-8.42115
▁less	-8.42313
▁weeks	-8.42317
▁drunk	-8.42415
▁savage	-8.42416
▁lawyer	-8.4247
ting	-8.4248
▁dress	-8.42791
ance	-8.42927
▁alexander	-8.43415
▁fuckin	-8.43943
▁buddy	-8.44427
▁honor	-8.44442
▁become	-8.44531
▁taken	-8.44951
▁lm	-8.4507
▁amazing	-8.45445
▁panting	-8.45451
▁board	-8.45484
▁eye	-8.45624
▁quick	-8.46313
▁accident	-8.46476
▁frank	-8.46476
▁blue	-8.46636
ist	-8.46647
▁asking	-8.46781
▁chatter	-8.46904
▁learn	-8.46983
▁owe	-8.47232
▁indistinct	-8.47354
▁ladies	-8.47518
▁voice	-8.4774
▁bag	-8.47795
▁t	-8.47977
ne	-8.4799
▁slow	-8.48419
▁zodiac	-8.4857
▁ronnie	-8.48572
▁calm	-8.48596
▁early	-8.48625
la	-8.48768
ia	-8.49217
▁werent	-8.49634
no	-8.4978
▁plane	-8.49945
tic	-8.50057
▁quiet	-8.50545
▁groans	-8.50709
▁cold	-8.50715
▁bobby	-8.50719
▁grunts	-8.50957
▁lucky	-8.51022
▁seems	-8.51168
ck	-8.51227
▁state	-8.51404
▁seat	-8.51414
▁felt	-8.51796
▁spend	-8.51803
▁america	-8.52152
▁d	-8.52207
▁protect	-8.52215
▁sounds	-8.52244
▁double	-8.52895
▁goodbye	-8.52896
▁lord	-8.52897
▁floor	-8.52903
▁dave	-8.52928
x	-8.53055
id	-8.53132
▁sell	-8.53404
ma	-8.53509
▁leg	-8.5376
▁dan	-8.53849
▁absolutely	-8.54006
▁captain	-8.54006
▁explain	-8.54006
▁boat	-8.54041
▁poor	-8.54045
▁unit	-8.54139
▁jump	-8.54584
▁fix	-8.546
▁low	-8.54957
▁near	-8.54962
▁respect	-8.55105
▁tough	-8.55132
▁fbi	-8.55136
▁security	-8.55138
▁laughs	-8.55428
▁ball	-8.55884
▁strong	-8.56081
li	-8.56105
▁program	-8.56266
▁eight	-8.56274
▁past	-8.56276
▁tv	-8.5632
▁rose	-8.56326
▁needed	-8.5655
▁mm	-8.56597
to	-8.56845
▁ran	-8.56886
os	-8.57109
▁star	-8.57288
▁smart	-8.57416
▁mad	-8.5746
▁dear	-8.57487
▁bomb	-8.57504
▁soldier	-8.57961
▁questions	-8.57994
na	-8.58174
▁names	-8.58318
▁broke	-8.58498
▁hospital	-8.58578
▁phil	-8.58592
▁la	-8.58605
▁shouting	-8.58649
▁code	-8.58708
▁machine	-8.59159
▁worked	-8.59304
ent	-8.59519
▁adam	-8.59764
▁lying	-8.59785
▁comes	-8.59838
ta	-8.60065
▁wear	-8.60371
▁sh	-8.60439
ce	-8.60707
▁nick	-8.60751
▁court	-8.6094
▁fault	-8.60946
▁group	-8.60946
▁worth	-8.60964
▁train	-8.61039
▁handle	-8.61121
▁army	-8.61188
▁seriously	-8.61225
▁dis	-8.61528
▁computer	-8.61612
▁month	-8.6164
▁murder	-8.61758
▁middle	-8.6215
▁church	-8.6215
▁contact	-8.6215
▁theyve	-8.6215
▁short	-8.62151
▁ooh	-8.62159
▁paid	-8.62163
▁count	-8.62242
▁words	-8.62409
ry	-8.62557
▁so	-8.62629
▁meant	-8.62812
▁watching	-8.6284
▁fear	-8.6337
▁tommy	-8.63371
▁seeing	-8.63517
son	-8.64049
▁seem	-8.64267
ness	-8.64312
▁shell	-8.6432
▁attention	-8.64604
▁college	-8.64604
▁system	-8.64604
▁grunting	-8.64663
▁yall	-8.64671
▁finally	-8.64676
▁longer	-8.64724
▁fall	-8.64733
▁tom	-8.648
▁hide	-8.64804
▁choice	-8.65401
▁given	-8.65684
▁quit	-8.65689
▁french	-8.65854
▁uncle	-8.65854
▁forever	-8.65856
▁dangerous	-8.65857
▁gunfire	-8.65859
▁mmhmm	-8.65876
co	-8.65915
▁gas	-8.65924
▁hotel	-8.65924
▁mess	-8.65958
do	-8.66483
▁attack	-8.6658
▁dark	-8.67012
▁steve	-8.67024
▁ground	-8.6712
▁others	-8.6712
▁crime	-8.67123
▁master	-8.6713
▁killing	-8.67439
▁sun	-8.68061
▁fat	-8.68099
▁wedding	-8.68405
▁chef	-8.68422
ol	-8.68633
▁list	-8.68672
▁laugh	-8.68715
ine	-8.68726
▁talked	-8.69167
ian	-8.69437
age	-8.69559
▁born	-8.69705
▁earth	-8.6971
▁appreciate	-8.69982
▁miles	-8.70012
▁ring	-8.70075
▁mo	-8.70376
▁ann	-8.70633
▁service	-8.70733
▁beer	-8.70835
em	-8.70906
▁swear	-8.71017
▁join	-8.71025
▁tucker	-8.71075
▁sitting	-8.71097
▁kick	-8.71186
▁expect	-8.71196
▁finished	-8.7174
▁surprise	-8.72001
▁screams	-8.72133
▁ex	-8.72161
▁joke	-8.72182
▁cash	-8.72352
▁mommy	-8.72353
▁russian	-8.72363
ish	-8.7237
▁skin	-8.72408
▁peter	-8.72515
▁test	-8.72587
▁building	-8.72678
▁turned	-8.72948
lo	-8.73003
▁enjoy	-8.73079
▁h	-8.7311
▁charge	-8.73205
▁known	-8.73229
▁changed	-8.73327
▁smell	-8.73463
▁honest	-8.73552
ot	-8.7364
▁club	-8.73701
▁worried	-8.73701
▁giving	-8.73702
▁apple	-8.73717
▁wonder	-8.7443
▁loved	-8.74519
▁moved	-8.74702
▁entire	-8.74904
▁yesterday	-8.75071
▁clothes	-8.75071
▁robert	-8.75072
▁government	-8.75073
▁normal	-8.75086
▁share	-8.75108
▁mmm	-8.75167
▁breathe	-8.75443
ad	-8.75582
ty	-8.7563
am	-8.75966
▁mark	-8.7638
▁president	-8.7646
▁anywhere	-8.7646
▁danni	-8.7646
▁store	-8.76471
▁wonderful	-8.76484
▁over	-8.76601
▁arm	-8.76659
▁wearing	-8.77184
rs	-8.77558
▁secret	-8.77729
▁evil	-8.77869
▁imagine	-8.77869
▁pleasure	-8.77869
▁turkish	-8.77869
▁area	-8.77869
▁worse	-8.77871
▁terrible	-8.77887
▁block	-8.77893
▁offer	-8.78256
ac	-8.78256
om	-8.78294
▁age	-8.783
▁cry	-8.78983
ling	-8.79053
▁horse	-8.79296
▁smoke	-8.79297
▁upset	-8.79298
▁girlfriend	-8.79302
▁apartment	-8.79315
▁busy	-8.79527
▁interesting	-8.79542
▁knock	-8.79583
▁decided	-8.79606
▁crying	-8.79917
ca	-8.79922
▁missed	-8.79963
ass	-8.79982
▁brothers	-8.80526
▁di	-8.80536
▁bank	-8.80737
▁history	-8.80746
▁personal	-8.80772
▁tony	-8.80861
▁carry	-8.80896
▁br	-8.80954
nt	-8.81144
▁lead	-8.81171
▁da	-8.81343
▁walking	-8.81389
▁ones	-8.8197
ous	-8.8214
▁adela	-8.82217
▁darius	-8.82217
▁distance	-8.82217
▁writing	-8.82225
▁seconds	-8.82242
▁track	-8.82249
ul	-8.82258
▁killer	-8.82614
▁n	-8.83122
▁reach	-8.83191
▁lovely	-8.83268
▁suppose	-8.83363
▁victor	-8.83418
▁suck	-8.83601
▁charlie	-8.8371
▁kept	-8.8371
▁marriage	-8.8371
▁green	-8.8371
▁north	-8.83715
▁single	-8.83756
▁movie	-8.83772
▁shh	-8.83943
▁pre	-8.848
time	-8.84888
▁named	-8.8508
▁pete	-8.85191
▁across	-8.85225
▁proud	-8.85225
▁christmas	-8.85226
▁judge	-8.85226
▁sarah	-8.85249
▁sake	-8.85264
▁obviously	-8.85266
▁rich	-8.85273
▁works	-8.85355
▁taste	-8.85573
▁wall	-8.85596
▁copy	-8.85699
ated	-8.8576
▁class	-8.85937
▁cr	-8.85976
▁pro	-8.86038
▁saved	-8.8606
oo	-8.8607
out	-8.86406
▁mate	-8.86487
▁future	-8.86763
▁relax	-8.86763
▁senator	-8.86763
▁general	-8.86763
▁hungry	-8.86773
ut	-8.86777
▁cat	-8.86784
▁chair	-8.86795
▁window	-8.86905
▁key	-8.86955
▁carter	-8.871
▁cab	-8.87166
▁ma	-8.87289
▁van	-8.87309
▁date	-8.87393
▁evening	-8.87463
▁doug	-8.87975
▁except	-8.8814
▁using	-8.88183
▁account	-8.88293
▁department	-8.88326
▁public	-8.88326
▁simple	-8.88326
▁lunch	-8.88326
▁sweetheart	-8.88327
▁bought	-8.88329
▁definitely	-8.88331
▁flight	-8.88331
▁super	-8.88332
▁feet	-8.88371
▁eh	-8.88414
▁freak	-8.88731
▁balls	-8.89244
▁note	-8.89383
▁spot	-8.89911
▁forgot	-8.89913
▁chief	-8.89913
▁experience	-8.89913
▁idiot	-8.89914
▁rather	-8.89918
▁jail	-8.89921
▁spent	-8.8993
▁grab	-8.8994
▁field	-8.89968
▁dying	-8.90075
▁v	-8.90086
▁hundred	-8.90167
▁po	-8.90476
ary	-8.906
▁pray	-8.90691
▁lock	-8.90801
▁card	-8.91148
▁decide	-8.91178
se	-8.91404
▁box	-8.9149
▁difference	-8.91526
▁blind	-8.91526
▁blame	-8.91528
▁grace	-8.91534
▁moondog	-8.91535
▁jake	-8.91548
▁jem	-8.91565
▁station	-8.91658
▁ice	-8.91659
▁land	-8.91698
▁bastard	-8.91815
▁animal	-8.91841
▁partner	-8.91875
▁warm	-8.92403
▁en	-8.92407
▁letter	-8.9242
ir	-8.92754
▁correct	-8.93165
▁driving	-8.93165
▁english	-8.93165
▁heavy	-8.93165
▁instead	-8.93165
▁yep	-8.93165
▁present	-8.93166
▁max	-8.93185
▁stopped	-8.9327
▁trip	-8.93279
▁mar	-8.93357
▁anna	-8.93363
j	-8.93366
and	-8.93382
▁push	-8.93658
▁continue	-8.93721
▁fly	-8.94559
▁keys	-8.9465
▁peace	-8.9481
▁charley	-8.94832
▁deserve	-8.94832
▁lincoln	-8.94832
▁round	-8.94838
▁queen	-8.9484
▁dancing	-8.94862
▁force	-8.94886
the	-8.95194
▁soul	-8.95253
▁message	-8.95271
▁drugs	-8.95685
▁states	-8.96005
▁sp	-8.96017
▁ro	-8.96219
▁gold	-8.96483
▁military	-8.96527
▁olive	-8.96527
▁situation	-8.96527
▁forward	-8.96528
▁cowhand	-8.96528
▁dies	-8.96529
▁birthday	-8.96529
▁risk	-8.96561
▁bro	-8.96666
▁z	-8.96707
▁mikey	-8.96798
▁paris	-8.97168
▁fell	-8.97635
▁realize	-8.97948
▁engine	-8.97951
▁fit	-8.98123
▁games	-8.98153
▁forgive	-8.98233
▁conversation	-8.98251
▁throat	-8.98251
▁mama	-8.98272
▁congratulations	-8.98281
▁level	-8.98284
▁press	-8.98347
▁doin	-8.98365
mo	-8.98536
▁mary	-8.9861
▁paper	-8.98804
▁guard	-8.98805
▁holding	-8.98849
▁brain	-8.98863
land	-8.99449
▁return	-8.99456
▁comrade	-9.00005
▁support	-9.00005
▁upstairs	-9.00005
▁watson	-9.00005
▁travel	-9.00006
▁evidence	-9.00006
▁lisa	-9.0001
▁outta	-9.00017
▁wrote	-9.00018
▁ought	-9.00029
▁begin	-9.00055
▁softly	-9.00135
▁corner	-9.00153
▁color	-9.00223
▁ed	-9.00333
▁pen	-9.00392
ba	-9.0047
▁calls	-9.00675
▁liked	-9.00733
ton	-9.00736
▁pop	-9.00806
▁ca	-9.01087
▁piss	-9.01298
▁mace	-9.01416
▁deep	-9.01424
▁mike	-9.01512
▁bus	-9.01618
▁certain	-9.01627
▁south	-9.01784
▁bunch	-9.01791
▁kitchen	-9.01791
▁private	-9.01791
▁worst	-9.01791
▁scene	-9.01792
▁sold	-9.01795
▁pants	-9.018
▁condition	-9.01872
▁uhhuh	-9.01893
▁fighting	-9.01993
▁lived	-9.02114
im	-9.0224
▁cap	-9.02264
▁male	-9.02273
▁standing	-9.02419
▁rules	-9.02534
go	-9.02612
▁crap	-9.02832
▁pal	-9.02857
▁search	-9.02978
be	-9.03021
▁players	-9.03206
▁agree	-9.03225
▁foot	-9.03594
▁sheriff	-9.03609
▁spanish	-9.03611
▁devil	-9.03617
▁player	-9.03618
▁cost	-9.0362
▁marry	-9.0363
▁involved	-9.03697
▁prove	-9.03698
▁totally	-9.03737
▁sea	-9.03763
▁wine	-9.04086
▁mistake	-9.04241
▁decision	-9.04326
▁weapon	-9.0436
ect	-9.04386
▁whose	-9.04527
ted	-9.04891
▁smile	-9.051
▁doc	-9.05278
▁crash	-9.05365
▁built	-9.05461
▁video	-9.05461
▁remain	-9.05461
▁position	-9.05461
▁stalin	-9.05462
▁bodies	-9.05467
▁darling	-9.05468
▁completely	-9.05595
▁breathing	-9.05958
▁medical	-9.06032
▁bucks	-9.06108
▁weekend	-9.06296
▁fish	-9.06554
▁grow	-9.06615
▁dogs	-9.06765
▁legal	-9.06975
▁stone	-9.0707
▁major	-9.07348
▁groaning	-9.07348
▁neither	-9.07348
▁third	-9.07348
▁andy	-9.07349
▁gasping	-9.07349
▁type	-9.0735
▁price	-9.07354
▁juan	-9.07361
▁gasps	-9.07367
▁speed	-9.0737
▁gay	-9.07371
▁director	-9.07372
▁guilty	-9.07438
▁jay	-9.07473
▁indistinctly	-9.07647
▁feels	-9.0785
▁pa	-9.07858
wa	-9.07866
▁bell	-9.07994
ak	-9.08037
▁cos	-9.08327
▁shed	-9.08343
▁kinda	-9.08427
▁fill	-9.08769
me	-9.08778
▁ow	-9.0887
▁strange	-9.08924
▁burn	-9.08965
▁form	-9.09045
▁nothin	-9.09172
▁glass	-9.09197
▁matthew	-9.09271
▁pregnant	-9.09271
▁remind	-9.09271
▁zeke	-9.09271
▁karen	-9.09271
▁lonnie	-9.09271
▁wild	-9.09271
▁hasnt	-9.09272
▁space	-9.09281
▁beach	-9.09288
▁camp	-9.0932
ah	-9.09337
▁crowd	-9.09356
▁ba	-9.09382
▁rent	-9.09408
line	-9.09512
ho	-9.09534
▁dreams	-9.09545
ha	-9.09712
ai	-9.09736
▁cl	-9.09782
▁ar	-9.09814
de	-9.09819
un	-9.09921
ill	-9.10199
▁finger	-9.10238
▁drug	-9.10248
▁missing	-9.10616
▁crack	-9.11228
▁jennifer	-9.11232
▁perhaps	-9.11232
▁firm	-9.11232
▁investigation	-9.11235
▁coach	-9.11243
▁tight	-9.11245
▁knife	-9.11246
▁awful	-9.11247
▁usually	-9.11285
▁shooting	-9.11362
▁certainly	-9.11412
▁ship	-9.11427
ey	-9.11789
ally	-9.12169
▁reporter	-9.12277
pe	-9.12563
▁san	-9.12598
▁arrest	-9.12696
▁fired	-9.12789
▁per	-9.12871
one	-9.12977
▁u	-9.13002
as	-9.13018
▁loud	-9.13049
▁lay	-9.1318
▁grand	-9.13214
▁libby	-9.13232
▁often	-9.13232
▁pretend	-9.13232
▁neil	-9.13239
▁weak	-9.13239
▁dumb	-9.13243
▁within	-9.13255
▁gotten	-9.13344
▁sad	-9.13532
▁putting	-9.13536
▁mac	-9.13674
▁mission	-9.13754
▁shoes	-9.13788
▁couldve	-9.14293
▁hole	-9.14512
▁accept	-9.1472
▁hero	-9.1475
▁pat	-9.14988
▁favor	-9.15264
▁fool	-9.15264
▁river	-9.15267
▁became	-9.15273
▁delorean	-9.15273
▁cream	-9.15273
▁film	-9.15273
▁tree	-9.15273
▁julie	-9.15276
▁danny	-9.15285
▁stuck	-9.153
▁chicken	-9.15321
▁ray	-9.15374
▁broken	-9.1544
▁arms	-9.15477
▁sing	-9.15806
▁er	-9.15911
▁locked	-9.15955
▁figured	-9.16063
tion	-9.16088
▁bi	-9.16209
▁hall	-9.16351
▁i	-9.16382
▁rule	-9.16397
▁paying	-9.16741
▁pack	-9.16822
▁cute	-9.16973
▁waste	-9.17007
▁suit	-9.17013
▁sharp	-9.17284
▁breakfast	-9.17356
▁introduce	-9.17356
▁target	-9.17356
▁theyd	-9.17356
▁favorite	-9.17365
▁willie	-9.17367
▁paco	-9.17375
▁sexual	-9.17376
▁michelle	-9.17385
▁markos	-9.1739
▁el	-9.17427
▁allowed	-9.17747
▁up	-9.17919
▁tea	-9.18231
▁bo	-9.18272
▁ad	-9.18306
▁art	-9.1831
▁training	-9.18438
▁suspect	-9.18622
tor	-9.18624
end	-9.18692
▁pig	-9.18851
▁suggest	-9.18928
▁bother	-9.18933
▁bear	-9.19278
▁large	-9.19341
mp	-9.19341
▁collect	-9.19436
▁caught	-9.19484
▁fresh	-9.19484
▁cleo	-9.19484
▁switch	-9.19484
▁operation	-9.19486
▁ruth	-9.19493
▁trick	-9.19493
▁jerry	-9.19494
▁babe	-9.19497
▁jewell	-9.19529
ee	-9.19626
▁li	-9.19646
▁amen	-9.19772
▁interested	-9.19802
▁folks	-9.19845
▁main	-9.19909
ph	-9.20044
▁teach	-9.20373
▁se	-9.20703
▁should	-9.2078
▁starts	-9.20911
▁played	-9.2106
▁speaks	-9.21235
▁doctors	-9.21321
io	-9.21612
▁access	-9.21657
▁afternoon	-9.21657
▁doubt	-9.21657
▁innocent	-9.21657
▁lieutenant	-9.21657
▁project	-9.21657
▁written	-9.21657
▁gift	-9.21658
▁banks	-9.21688
▁text	-9.21691
▁texas	-9.21826
▁center	-9.21862
▁singing	-9.22334
ts	-9.22503
per	-9.22541
▁jobs	-9.22663
▁promised	-9.22664
bo	-9.22814
▁passed	-9.2287
ions	-9.22979
ard	-9.2304
▁visit	-9.23135
▁steal	-9.23238
▁escape	-9.23521
▁sc	-9.23529
▁horn	-9.23615
▁soft	-9.23712
▁witness	-9.23786
ure	-9.23803
▁to	-9.23813
▁angry	-9.2388
▁faith	-9.2388
▁gunshot	-9.2388
▁twice	-9.2388
▁priest	-9.2388
▁lift	-9.2388
▁nowhere	-9.23881
▁address	-9.23882
▁sweetie	-9.2398
▁listening	-9.24061
▁goin	-9.24408
▁books	-9.2453
ship	-9.24666
▁rid	-9.24798
▁gi	-9.248
▁wondering	-9.24894
led	-9.25043
▁cook	-9.25127
▁weapons	-9.2522
▁drinking	-9.25264
▁shower	-9.25334
▁consider	-9.25428
▁complete	-9.2599
▁albert	-9.26152
▁bottom	-9.26152
▁boyfriend	-9.26152
▁choose	-9.26152
▁dylan	-9.26152
▁morgan	-9.26152
▁twenty	-9.26152
▁jimmy	-9.26153
▁repeat	-9.26153
▁summer	-9.26154
▁chicago	-9.26154
▁jared	-9.26156
▁henry	-9.26157
▁football	-9.26159
▁extra	-9.26167
▁mister	-9.26174
ence	-9.26182
▁rain	-9.26204
▁jane	-9.2621
▁do	-9.26333
▁breath	-9.26549
▁eating	-9.26712
▁bone	-9.27093
▁keeping	-9.27164
▁fucker	-9.27308
▁sat	-9.2737
▁writer	-9.27422
▁sin	-9.27624
▁mention	-9.28007
▁pulled	-9.28021
ever	-9.28262
▁total	-9.28314
way	-9.28417
▁apologize	-9.28478
▁famous	-9.28478
▁heaven	-9.28478
▁impossible	-9.28478
▁sugar	-9.28478
▁federal	-9.28478
▁taught	-9.28478
▁local	-9.28478
▁score	-9.28483
▁desk	-9.28485
▁neck	-9.28485
▁wire	-9.28487
▁everywhere	-9.28491
▁spirit	-9.28496
▁east	-9.28505
▁alma	-9.28526
▁shine	-9.28533
▁when	-9.28595
▁whatd	-9.28693
▁honestly	-9.28763
▁walked	-9.29041
▁burned	-9.29128
▁magic	-9.29313
▁reading	-9.2949
tra	-9.29638
▁wouldve	-9.29806
▁gods	-9.29893
▁vi	-9.30125
▁ticket	-9.30293
▁client	-9.30302
ble	-9.30343
▁settle	-9.30531
off	-9.30745
▁kirk	-9.30846
▁advice	-9.30859
▁difficult	-9.30859
▁maggie	-9.30859
▁pilot	-9.30859
▁whether	-9.30859
▁credit	-9.30859
▁clay	-9.30863
▁battle	-9.30864
▁nope	-9.30869
▁bread	-9.3087
▁avery	-9.30875
▁monster	-9.30877
▁pressure	-9.30878
▁chill	-9.3088
▁plus	-9.30883
▁claim	-9.3091
▁whore	-9.30923
▁heat	-9.3101
▁amy	-9.31057
▁staying	-9.31608
▁lied	-9.31773
▁ringing	-9.3201
▁post	-9.32298
lng	-9.3235
▁nail	-9.32557
▁concern	-9.3276
head	-9.32772
▁thousand	-9.32794
▁raise	-9.33002
▁cent	-9.33171
▁apart	-9.33274
▁border	-9.33298
▁explosion	-9.33298
▁focus	-9.33298
▁nervous	-9.33298
▁pashto	-9.33298
▁pembroke	-9.33298
▁strength	-9.33298
▁strike	-9.33298
▁vehicle	-9.33298
▁article	-9.33298
▁crew	-9.33298
▁hadnt	-9.33298
▁laura	-9.33298
▁freedom	-9.33298
▁prefer	-9.33301
▁bathroom	-9.33303
▁jones	-9.33307
▁emily	-9.33323
▁basement	-9.33328
▁pussy	-9.33337
▁motherfucking	-9.33338
▁liar	-9.33341
▁purge	-9.33369
▁dirty	-9.33415
▁willing	-9.3352
▁mi	-9.3354
▁scare	-9.33542
▁lake	-9.33568
▁losing	-9.33608
ations	-9.33906
▁arrested	-9.33957
ating	-9.34406
▁ver	-9.34663
▁bloody	-9.3468
▁sacrifice	-9.34788
▁mu	-9.35161
▁build	-9.35182
▁treat	-9.35226
▁mothers	-9.35375
▁can	-9.35438
▁notice	-9.35445
▁base	-9.35446
▁camera	-9.3554
ite	-9.3554
▁female	-9.35798
▁split	-9.35798
▁vietnam	-9.35798
▁insane	-9.35798
▁cancer	-9.35799
▁juice	-9.35799
▁whoever	-9.35805
▁nose	-9.35839
▁kevin	-9.35847
▁simon	-9.35878
▁west	-9.35904
▁matt	-9.35941
▁flying	-9.36738
▁rep	-9.36789
mon	-9.37043
▁fathers	-9.37417
▁hearing	-9.37824
ake	-9.37914
▁bite	-9.3797
▁sue	-9.38112
▁whip	-9.38251
▁jean	-9.38357
▁attorney	-9.38362
▁awesome	-9.38362
▁especially	-9.38362
▁gallegos	-9.38362
▁interview	-9.38362
▁keith	-9.38362
▁relationship	-9.38362
▁whimpers	-9.38362
▁afford	-9.38363
▁funeral	-9.38363
▁tongue	-9.38367
▁pump	-9.38369
▁quarter	-9.38373
▁mitch	-9.38378
▁coke	-9.38408
▁row	-9.38415
▁size	-9.3842
▁due	-9.3849
▁trade	-9.38493
▁bigger	-9.38516
▁cup	-9.38538
▁opens	-9.38542
we	-9.38589
▁feed	-9.38604
▁du	-9.38633
▁no	-9.38791
▁pot	-9.38818
▁faster	-9.38925
▁nicky	-9.38985
▁starting	-9.39118
▁learned	-9.39701
ps	-9.39779
ber	-9.40224
he	-9.40231
▁ghost	-9.40518
▁bottle	-9.40662
▁patient	-9.4068
▁alien	-9.40683
▁older	-9.40731
▁cock	-9.40734
▁natural	-9.40825
▁percent	-9.40979
▁downstairs	-9.40994
▁shirt	-9.40994
▁subject	-9.40994
▁email	-9.40994
▁study	-9.40994
▁neighborhood	-9.40995
▁agency	-9.40995
▁ripley	-9.40996
▁value	-9.40996
▁rush	-9.40998
▁borrow	-9.40998
▁torture	-9.40998
▁esti	-9.41003
▁hiding	-9.41023
▁dare	-9.41042
▁howd	-9.41047
▁james	-9.41052
▁freeze	-9.41067
▁kathy	-9.41072
▁glasses	-9.4112
▁he	-9.41224
▁yelling	-9.41275
cat	-9.41318
▁quickly	-9.41418
▁gives	-9.41539
▁union	-9.41582
▁letting	-9.41611
▁surprised	-9.41691
▁problems	-9.41707
▁nuts	-9.42099
▁fixed	-9.42268
▁su	-9.42385
ped	-9.42649
▁cha	-9.42775
▁pie	-9.42858
▁appear	-9.43117
▁destroy	-9.43159
▁dump	-9.43162
▁bat	-9.43235
by	-9.43391
▁rabbi	-9.43411
▁shots	-9.43577
▁breaking	-9.43608
▁chick	-9.43642
▁criminal	-9.43696
▁plenty	-9.43696
▁procedure	-9.43696
▁process	-9.43696
▁vallejo	-9.43696
▁beria	-9.43697
▁larry	-9.43697
▁swing	-9.437
▁out	-9.437
▁loose	-9.43705
▁airport	-9.43705
▁shame	-9.43706
▁rick	-9.43708
▁castle	-9.43711
▁gang	-9.43712
▁grandma	-9.43723
▁layne	-9.43725
▁ronit	-9.43728
▁boom	-9.43846
▁brad	-9.43948
▁ammo	-9.44068
▁range	-9.44242
▁clients	-9.44333
lin	-9.44427
▁nation	-9.44523
▁bath	-9.44817
▁siren	-9.44821
▁seemed	-9.44913
▁pe	-9.45467
▁file	-9.46012
▁where	-9.46078
▁vampire	-9.46328
▁shake	-9.4634
▁guns	-9.46345
▁bird	-9.46347
▁spoke	-9.46382
▁dollar	-9.46443
▁self	-9.46457
▁exhales	-9.46474
▁justice	-9.46474
▁magazine	-9.46474
▁moustache	-9.46474
▁slept	-9.46474
▁sophie	-9.46474
▁teeth	-9.46474
▁committee	-9.46474
▁shop	-9.46475
▁memory	-9.46485
▁practice	-9.46488
▁meat	-9.46499
▁sentence	-9.46502
▁stage	-9.46564
▁butter	-9.4659
▁joey	-9.46621
▁files	-9.46625
▁lack	-9.46646
▁lt	-9.4665
▁si	-9.46651
▁mass	-9.467
▁whoo	-9.46727
▁bleeding	-9.46728
pa	-9.4673
▁motherfuckers	-9.46856
▁whispers	-9.46952
▁dig	-9.47021
▁everythings	-9.47203
ke	-9.47468
▁expecting	-9.4779
▁bringing	-9.47967
▁friendly	-9.48105
▁loser	-9.48131
her	-9.48392
▁ski	-9.4841
▁guards	-9.48423
▁be	-9.48579
▁closed	-9.48614
▁showed	-9.48679
▁request	-9.48776
▁allow	-9.48815
▁blues	-9.48889
▁command	-9.4895
▁final	-9.49003
▁contract	-9.49331
▁easier	-9.49331
▁regular	-9.49331
▁restaurant	-9.49331
▁stifler	-9.49331
▁threw	-9.49331
▁washington	-9.49331
▁grew	-9.49331
▁amount	-9.49333
▁translat	-9.49334
▁detective	-9.49339
▁beginning	-9.49342
▁sunday	-9.49343
▁heavily	-9.49348
▁emergency	-9.49352
▁bedroom	-9.49357
▁hat	-9.4936
▁laz	-9.49409
▁action	-9.49438
▁lee	-9.49644
lu	-9.49707
men	-9.50034
▁rio	-9.50262
▁rat	-9.50327
▁sexy	-9.50346
▁driver	-9.50513
▁pin	-9.5058
ors	-9.5059
▁wind	-9.50611
▁spit	-9.50656
▁falling	-9.50774
▁race	-9.51139
ich	-9.51226
ious	-9.51228
▁letters	-9.5171
▁wash	-9.51733
▁turns	-9.51829
▁lawyers	-9.5211
▁proper	-9.52156
▁aah	-9.52271
▁lockhart	-9.52273
▁mmmhmm	-9.52273
▁toilet	-9.52273
▁violence	-9.52273
▁whitaker	-9.52273
▁senate	-9.52273
▁nigger	-9.52275
▁pocket	-9.52276
▁spread	-9.52278
▁onto	-9.52281
▁stock	-9.52282
▁bike	-9.52291
▁bridge	-9.523
▁naked	-9.523
▁patch	-9.52334
▁print	-9.5234
▁market	-9.52342
▁laughter	-9.52352
▁held	-9.52359
▁incredible	-9.52362
▁wet	-9.52371
▁sight	-9.52409
▁brave	-9.52418
▁ave	-9.52432
ze	-9.52526
▁invited	-9.52614
▁aw	-9.52734
▁fla	-9.52793
▁gal	-9.52909
▁hill	-9.52927
▁sleeping	-9.52981
ile	-9.53084
ang	-9.53817
▁ac	-9.53832
▁oneil	-9.53842
der	-9.54075
▁draw	-9.54177
ize	-9.5447
▁covered	-9.54502
▁animals	-9.5471
▁everybodys	-9.54932
▁invite	-9.54952
▁pulling	-9.55093
▁picked	-9.55125
▁admit	-9.55289
▁angel	-9.55293
▁hung	-9.55302
▁kincaid	-9.55303
▁language	-9.55303
▁changing	-9.55303
▁snake	-9.55303
▁thatll	-9.55303
▁location	-9.55303
▁central	-9.55303
▁beauty	-9.55309
▁noise	-9.5531
▁awake	-9.55312
▁roger	-9.55313
▁style	-9.55313
▁grandpa	-9.55314
▁navy	-9.55314
▁fellow	-9.55315
▁drank	-9.55321
▁pool	-9.55335
▁immediately	-9.55346
▁trial	-9.55359
▁flat	-9.55436
▁belong	-9.55436
▁manager	-9.55497
▁cheering	-9.55569
▁jacket	-9.55573
▁besides	-9.55823
da	-9.55887
down	-9.5596
▁tall	-9.55994
▁county	-9.56029
ose	-9.56056
ler	-9.56085
▁tape	-9.56244
▁teacher	-9.56289
▁gu	-9.56536
ight	-9.56546
▁product	-9.5666
▁abe	-9.56801
▁checked	-9.56915
▁fan	-9.5709
▁harder	-9.57097
▁chattering	-9.57146
▁legs	-9.57238
▁knees	-9.57354
▁papers	-9.57438
of	-9.57647
ust	-9.57698
▁discuss	-9.57797
▁screw	-9.57908
▁cards	-9.58078
▁chain	-9.58083
▁fa	-9.58176
▁lo	-9.58204
▁feelings	-9.58222
▁somethin	-9.58329
▁stole	-9.58333
▁alcohol	-9.58377
▁according	-9.58428
▁california	-9.58428
▁celebrate	-9.58428
▁disease	-9.58428
▁dwayne	-9.58428
▁excellent	-9.58428
▁garbage	-9.58428
▁greek	-9.58428
▁guitar	-9.58428
▁harold	-9.58428
▁oclock	-9.58428
▁opportunity	-9.58428
▁particular	-9.58428
▁purpose	-9.58428
▁ridiculous	-9.58428
▁opinion	-9.58428
▁pardon	-9.58428
▁piano	-9.58428
▁empty	-9.58428
▁hoping	-9.5843
▁however	-9.58431
▁boring	-9.58441
▁mood	-9.58442
▁pair	-9.5845
▁doll	-9.58455
▁silly	-9.58464
▁lana	-9.58478
▁plant	-9.58479
▁sky	-9.5849
▁coma	-9.58496
▁huge	-9.58524
▁inter	-9.58525
▁louise	-9.58546
▁kable	-9.58568
▁wh	-9.58629
▁prepared	-9.58662
lie	-9.58675
▁helping	-9.58689
back	-9.58704
ade	-9.58789
▁ghosts	-9.5879
▁me	-9.58888
▁career	-9.58901
king	-9.5898
▁ness	-9.58997
▁forced	-9.59088
▁concerned	-9.59124
▁services	-9.59154
▁flowers	-9.59201
oc	-9.59225
▁triple	-9.59238
ism	-9.59301
▁ends	-9.59415
▁dry	-9.5957
▁ni	-9.59673
▁dancer	-9.59691
▁records	-9.59915
▁hook	-9.60075
▁heads	-9.60099
▁bum	-9.60251
ig	-9.60273
▁nah	-9.60347
▁prisoners	-9.60403
ge	-9.60428
va	-9.60911
▁load	-9.61281
▁survive	-9.61297
ern	-9.6149
▁michel	-9.61608
▁excited	-9.61654
▁footsteps	-9.61654
▁holiday	-9.61654
▁interrogation	-9.61654
▁mirror	-9.61654
▁prick	-9.61654
▁progress	-9.61654
▁regret	-9.61654
▁social	-9.61654
▁harper	-9.61654
▁period	-9.61654
▁sweat	-9.61654
▁eben	-9.61654
▁sheep	-9.61654
▁cameron	-9.61655
▁handwriting	-9.61659
▁basically	-9.61659
▁section	-9.61662
▁several	-9.61679
▁linda	-9.6169
▁common	-9.61695
▁button	-9.61696
▁tax	-9.61705
▁cake	-9.61728
▁chest	-9.61737
▁marion	-9.61745
▁weed	-9.61769
▁itd	-9.61821
▁pictures	-9.61867
▁inf	-9.61907
▁hired	-9.61949
▁closes	-9.62143
▁served	-9.62288
▁destroyed	-9.623
▁frances	-9.62511
▁tits	-9.62627
com	-9.62669
▁higher	-9.62688
ng	-9.62879
▁doors	-9.6293
▁fella	-9.63131
▁wa	-9.63198
▁tip	-9.63257
▁fingers	-9.63328
gue	-9.63362
ff	-9.63399
▁dressed	-9.63427
che	-9.63622
▁sa	-9.63729
▁her	-9.64443
▁following	-9.64587
▁thirty	-9.64674
▁tank	-9.64683
▁deliver	-9.64695
▁sucks	-9.64846
▁movies	-9.64846
▁joan	-9.64953
▁hu	-9.64977
▁janice	-9.64987
▁patricia	-9.64987
▁recognize	-9.64987
▁someplace	-9.64987
▁stomach	-9.64987
▁william	-9.64987
▁alarm	-9.64987
▁issue	-9.64987
▁nurse	-9.64987
▁shift	-9.64987
▁blew	-9.64987
▁toast	-9.64987
▁trash	-9.64988
▁kurt	-9.64989
▁donnie	-9.6499
▁mask	-9.6499
▁monday	-9.64991
▁abby	-9.64994
ring	-9.65005
▁beamen	-9.65012
▁mix	-9.65013
▁guest	-9.6503
▁runner	-9.65049
▁announcer	-9.65063
▁dust	-9.65114
▁perform	-9.65138
▁pure	-9.6521
▁indian	-9.65236
▁loan	-9.65487
▁wood	-9.65593
ial	-9.65675
uck	-9.65678
▁lts	-9.65687
▁rings	-9.65932
ow	-9.66065
▁helped	-9.66255
▁shoulder	-9.66336
▁ven	-9.66429
ook	-9.66467
▁who	-9.66526
▁officers	-9.66608
▁sisters	-9.6684
▁details	-9.66924
▁am	-9.66941
▁hunt	-9.67068
▁victims	-9.67558
▁voices	-9.67727
▁bang	-9.67857
ise	-9.67914
▁stayed	-9.67943
▁tie	-9.68203
ier	-9.68338
▁success	-9.68352
▁scream	-9.68394
▁abraham	-9.68435
▁apparently	-9.68435
▁character	-9.68435
▁claire	-9.68435
▁leigh	-9.68435
▁otherwise	-9.68435
▁saturday	-9.68435
▁silver	-9.68435
▁sunshine	-9.68435
▁szell	-9.68435
▁thomas	-9.68435
▁twelve	-9.68435
▁ganz	-9.68435
▁staff	-9.68435
▁harm	-9.68436
▁debt	-9.68436
▁whyd	-9.68436
▁graham	-9.68437
▁brown	-9.68443
▁mummy	-9.68449
▁positive	-9.68453
▁property	-9.68455
▁lucas	-9.68457
▁swim	-9.68457
▁rav	-9.68461
▁franklin	-9.68463
▁plate	-9.68473
▁dropped	-9.68478
▁truly	-9.68479
▁clive	-9.68484
▁benny	-9.68486
▁y	-9.68506
▁weight	-9.68521
▁cure	-9.68521
uff	-9.68617
▁erin	-9.68705
▁gr	-9.68721
boy	-9.68765
▁ruined	-9.68825
▁nearly	-9.6895
▁blessed	-9.68961
▁nicola	-9.68979
▁manage	-9.68996
▁bullet	-9.69006
oh	-9.69029
▁page	-9.69065
ny	-9.692
▁perfectly	-9.69206
▁leader	-9.69424
qu	-9.69537
con	-9.69573
▁porn	-9.69602
▁expected	-9.69861
▁kicked	-9.69864
hen	-9.70153
▁hurts	-9.703
▁bombing	-9.70322
▁everyones	-9.70855
▁va	-9.70901
▁interest	-9.70905
▁med	-9.71018
▁bless	-9.71043
▁gul	-9.71085
▁medic	-9.71155
▁farm	-9.7171
▁release	-9.71748
▁sara	-9.71977
ennial	-9.72007
▁complicated	-9.72007
▁darlene	-9.72007
▁doughnut	-9.72007
▁responsible	-9.72007
▁sobbing	-9.72007
▁society	-9.72007
▁suicide	-9.72007
▁tuesday	-9.72007
▁vacation	-9.72007
▁regard	-9.72007
▁stories	-9.72007
▁expert	-9.72007
▁nokes	-9.72007
▁ugly	-9.72007
▁eddie	-9.72007
▁mexico	-9.72008
▁cheap	-9.72008
▁unbelievable	-9.72008
▁allyson	-9.72013
▁aware	-9.72023
▁commit	-9.72027
▁defendant	-9.72031
▁cheat	-9.72031
▁zone	-9.72037
▁mental	-9.72042
▁season	-9.72045
▁yearold	-9.72055
▁wave	-9.7206
▁mail	-9.7206
▁talkin	-9.72063
▁freeway	-9.72067
▁terry	-9.72098
cul	-9.721
▁statement	-9.72111
▁connection	-9.72114
▁sally	-9.72118
▁arrived	-9.72218
▁created	-9.72321
▁exist	-9.72388
▁chad	-9.72465
ities	-9.72465
▁personally	-9.7249
▁carli	-9.72532
▁bowl	-9.72594
▁ended	-9.72608
▁document	-9.72689
▁songs	-9.72709
▁tim	-9.7276
▁pieces	-9.73008
▁ate	-9.73124
kin	-9.7313
▁clearly	-9.7317
▁ana	-9.73225
ou	-9.73327
▁bigge	-9.73464
▁knocking	-9.73578
▁murderer	-9.73628
▁bon	-9.73658
und	-9.73829
▁clicks	-9.73986
▁at	-9.73987
▁lies	-9.74083
▁numbers	-9.74095
our	-9.74157
ium	-9.74187
▁ph	-9.74211
▁qu	-9.74304
mate	-9.74317
▁keeps	-9.74325
you	-9.74403
▁brains	-9.74525
▁che	-9.7471
▁beating	-9.74719
▁eggs	-9.74852
▁headed	-9.74853
▁ron	-9.75236
lt	-9.75351
▁und	-9.75358
rap	-9.7542
▁counsel	-9.75634
▁birth	-9.75705
▁strip	-9.75709
▁asleep	-9.7571
▁available	-9.7571
▁chocolate	-9.7571
▁example	-9.7571
▁fletcher	-9.7571
▁fortune	-9.7571
▁helicopter	-9.7571
▁london	-9.7571
▁somehow	-9.7571
▁result	-9.7571
▁desert	-9.75711
▁anger	-9.75711
▁beeping	-9.75711
▁ryan	-9.75711
▁trigger	-9.75712
▁vision	-9.75715
▁rough	-9.75717
▁link	-9.75721
▁duty	-9.75734
▁beast	-9.75739
▁secretary	-9.75747
▁brand	-9.75748
▁rowan	-9.75759
▁lowry	-9.75774
▁upon	-9.75816
▁penis	-9.75829
▁rosa	-9.75893
▁moon	-9.75903
▁buzzing	-9.76028
▁pl	-9.76079
▁opening	-9.76314
▁hm	-9.76322
▁lil	-9.76426
▁lots	-9.7657
▁wayne	-9.76623
▁sub	-9.76701
za	-9.76807
▁pissed	-9.76847
▁burning	-9.76923
▁whi	-9.76938
▁lou	-9.7726
▁ton	-9.774
▁egg	-9.77449
room	-9.77496
▁pi	-9.77621
▁lights	-9.77675
▁ken	-9.77817
▁members	-9.77873
▁ti	-9.77978
▁loves	-9.78173
▁matters	-9.78182
▁pan	-9.78251
▁ears	-9.78267
▁sharks	-9.78581
▁limit	-9.79001
▁disappear	-9.79013
▁fellas	-9.79179
ui	-9.79182
▁mis	-9.792
▁hanging	-9.79456
▁eva	-9.79475
▁app	-9.79508
▁defend	-9.79536
▁slip	-9.79549
▁allison	-9.79556
▁brilliant	-9.79556
▁cocaine	-9.79556
▁dovid	-9.79556
▁flesh	-9.79556
▁hephaistion	-9.79556
▁including	-9.79556
▁mcdeere	-9.79556
▁whirring	-9.79556
▁cassie	-9.79557
▁shock	-9.79557
▁speech	-9.79557
▁climb	-9.79557
▁feck	-9.79557
▁cousin	-9.79557
▁buried	-9.79557
▁philip	-9.79557
▁island	-9.79557
▁leak	-9.79558
▁friday	-9.79559
▁sofi	-9.79559
▁francisco	-9.79559
▁stink	-9.79559
▁fantastic	-9.79561
▁sauce	-9.79566
▁permission	-9.79567
▁horrible	-9.79568
▁deuce	-9.79576
▁bright	-9.79576
▁comfortable	-9.79577
▁papa	-9.79577
▁winner	-9.79587
▁package	-9.79588
▁model	-9.7959
▁pge	-9.79593
▁confused	-9.79619
▁harlan	-9.79638
▁tower	-9.79669
▁flow	-9.7967
▁july	-9.79694
red	-9.79742
▁rex	-9.7976
▁paint	-9.79818
▁barking	-9.79889
▁former	-9.79954
▁reality	-9.79956
▁failed	-9.79992
cha	-9.80075
side	-9.80205
▁cases	-9.80215
▁raised	-9.80257
▁lily	-9.80291
▁agreed	-9.80313
▁hon	-9.80378
ach	-9.80456
▁farmer	-9.80508
▁victim	-9.80546
ning	-9.80556
▁shark	-9.80572
▁assholes	-9.80638
▁closer	-9.80719
▁op	-9.81132
▁inc	-9.81139
▁ohh	-9.81199
umb	-9.8135
▁sec	-9.81588
▁ki	-9.81825
▁scar	-9.8183
sta	-9.81835
bi	-9.81879
hi	-9.82261
ki	-9.82342
▁lev	-9.82378
▁signed	-9.82478
bre	-9.82598
▁partners	-9.8274
▁plans	-9.82815
▁connect	-9.8288
ned	-9.82959
▁tour	-9.82976
▁acknowledge	-9.83081
▁serve	-9.831
▁tra	-9.83159
▁create	-9.83205
▁actual	-9.83394
ball	-9.83428
▁tapes	-9.8347
▁streets	-9.83487
▁foreign	-9.83503
▁tw	-9.83521
▁dukhovich	-9.83556
▁genius	-9.83556
▁guarantee	-9.83556
▁homosexual	-9.83556
▁instrument	-9.83556
▁khrushchev	-9.83556
▁literally	-9.83556
▁majesty	-9.83556
▁mullins	-9.83556
▁possibly	-9.83556
▁research	-9.83556
▁smoking	-9.83556
▁traffic	-9.83556
▁whimpering	-9.83556
▁advise	-9.83557
▁harry	-9.83557
▁steak	-9.83557
▁view	-9.83557
▁original	-9.83557
▁talent	-9.83557
▁grandmother	-9.83557
▁thatd	-9.83557
▁earlier	-9.83558
▁square	-9.83559
▁fought	-9.83562
▁among	-9.83563
▁blade	-9.83563
▁kitty	-9.83564
▁parry	-9.83567
▁familiar	-9.83569
▁pipe	-9.8357
▁argue	-9.8357
▁clock	-9.83571
▁route	-9.83574
▁june	-9.83575
▁capone	-9.83581
▁began	-9.83588
▁fence	-9.83596
▁rare	-9.83604
▁allen	-9.83609
▁fake	-9.83617
▁laid	-9.83628
▁aim	-9.8364
▁pink	-9.83647
▁doo	-9.83706
▁professional	-9.83732
▁cates	-9.83809
▁healthy	-9.83834
▁designed	-9.83872
▁deeply	-9.83933
▁diner	-9.83987
tle	-9.83989
▁pr	-9.84011
▁of	-9.84016
▁under	-9.84017
▁fo	-9.841
hu	-9.84175
▁ab	-9.84248
▁charges	-9.84289
ley	-9.84461
▁realized	-9.84463
▁bra	-9.84505
▁ir	-9.84756
▁pounds	-9.84882
▁demo	-9.8518
▁younger	-9.85193
nie	-9.85235
▁murdered	-9.85382
▁towards	-9.85645
▁backup	-9.85814
▁points	-9.85883
▁comp	-9.86025
ja	-9.86053
▁ms	-9.86136
▁photos	-9.86284
▁throwing	-9.86465
ka	-9.86578
au	-9.86623
▁stan	-9.8673
▁provide	-9.86738
▁bee	-9.8676
▁divorce	-9.87365
▁damage	-9.87367
od	-9.87407
▁bust	-9.8742
▁health	-9.87462
just	-9.87533
▁pu	-9.87566
load	-9.87577
▁martin	-9.87617
▁mag	-9.87635
bra	-9.87646
ec	-9.87663
▁jam	-9.87697
▁trans	-9.8771
▁although	-9.87723
▁andrew	-9.87723
▁attitude	-9.87723
▁barbara	-9.87723
▁beyond	-9.87723
▁civil	-9.87723
▁clamoring	-9.87723
▁district	-9.87723
▁halloween	-9.87723
▁kumail	-9.87723
▁pride	-9.87723
▁science	-9.87723
▁shadow	-9.87723
▁steady	-9.87723
▁studio	-9.87723
▁swallow	-9.87723
▁understood	-9.87723
▁garden	-9.87723
▁refuse	-9.87723
▁simply	-9.87723
▁crush	-9.87723
▁lonely	-9.87724
▁faint	-9.87725
▁jerk	-9.87725
▁surgery	-9.87725
▁barely	-9.87725
▁kidnapped	-9.87729
▁organization	-9.8773
▁squad	-9.87731
▁towel	-9.87733
▁donna	-9.87735
▁balance	-9.87744
▁planned	-9.87757
▁planning	-9.87758
▁marine	-9.87772
▁milk	-9.87812
▁suddenly	-9.87826
▁bout	-9.87842
▁forty	-9.87851
▁stolen	-9.87852
▁national	-9.87862
▁path	-9.87912
▁dive	-9.87927
▁add	-9.87938
▁dean	-9.88
▁map	-9.88103
▁vote	-9.88105
▁pm	-9.88151
▁jackie	-9.88151
▁rabbit	-9.88167
▁approaching	-9.88214
▁rise	-9.88366
▁beg	-9.88386
▁stranger	-9.88488
▁tires	-9.88582
low	-9.88683
ank	-9.8873
▁tickets	-9.8874
▁sins	-9.88966
▁option	-9.89014
▁bones	-9.8904
rn	-9.89102
ong	-9.89253
▁gate	-9.89258
▁cheers	-9.89573
day	-9.89905
▁yells	-9.89916
ay	-9.90012
▁staring	-9.90016
ner	-9.90113
▁tu	-9.90182
ez	-9.90351
▁turning	-9.90665
ries	-9.90747
jo	-9.90789
▁stra	-9.90932
▁orders	-9.91025
▁flag	-9.91485
▁complain	-9.91802
house	-9.91827
like	-9.91888
▁physical	-9.91904
▁chose	-9.91971
▁ear	-9.92008
▁appointment	-9.92071
▁attempt	-9.92071
▁cyrus	-9.92071
▁deputy	-9.92071
▁jealous	-9.92071
▁vodka	-9.92071
▁yunger	-9.92071
▁material	-9.92071
▁mostly	-9.92071
▁stood	-9.92071
▁nature	-9.92073
▁gain	-9.92074
bed	-9.92074
▁community	-9.92077
▁elevator	-9.92077
▁booze	-9.92078
▁failure	-9.9208
▁trapped	-9.92081
▁launch	-9.92094
▁twist	-9.92095
▁punk	-9.92096
▁princess	-9.92109
▁muff	-9.92127
▁highway	-9.9214
▁nasty	-9.92146
▁assume	-9.92237
▁tune	-9.92238
▁buttle	-9.9224
▁bal	-9.92257
▁tiny	-9.92263
▁clark	-9.92324
▁match	-9.92348
▁off	-9.92378
▁corn	-9.92415
▁picking	-9.92486
▁fisher	-9.92533
▁subtitles	-9.92553
▁aliens	-9.92592
▁she	-9.92594
▁noticed	-9.92694
▁billion	-9.9272
▁based	-9.9273
▁tt	-9.92744
ition	-9.92748
▁slowly	-9.92771
▁wasted	-9.9282
▁x	-9.92869
▁carefully	-9.92905
▁port	-9.92914
▁knee	-9.93095
▁log	-9.93236
▁bitches	-9.93246
▁highly	-9.93272
▁hells	-9.9336
▁mum	-9.93445
▁growing	-9.93538
▁term	-9.93541
▁cigarette	-9.93554
▁official	-9.93562
▁photo	-9.93598
ger	-9.93631
ability	-9.94019
ign	-9.94123
ug	-9.94132
▁separate	-9.94231
▁bump	-9.94232
▁hardly	-9.94298
▁prayer	-9.94397
▁boo	-9.94547
▁selling	-9.9459
ov	-9.94674
▁pit	-9.94785
▁mistakes	-9.94788
▁gig	-9.94823
ue	-9.94823
val	-9.94851
▁parking	-9.94905
▁lips	-9.94943
▁toe	-9.94951
▁ri	-9.95235
▁boot	-9.9541
▁suffer	-9.95424
▁messages	-9.95474
▁cra	-9.95495
▁lover	-9.95616
▁documents	-9.95751
▁mel	-9.95787
▁bullets	-9.95892
▁te	-9.9599
▁confirm	-9.95996
▁dads	-9.96063
▁wound	-9.96072
▁ant	-9.96232
▁cats	-9.9629
▁dar	-9.96368
des	-9.96451
▁the	-9.96518
▁mmhm	-9.96548
▁gettin	-9.9656
▁comm	-9.96565
▁effect	-9.96587
▁advance	-9.96616
▁ambulance	-9.96616
▁behalf	-9.96616
▁cleitus	-9.96616
▁defense	-9.96616
▁exchange	-9.96616
▁experiment	-9.96616
▁gaga	-9.96616
▁graeme	-9.96616
▁italian	-9.96616
▁league	-9.96616
▁margaret	-9.96616
▁necessary	-9.96616
▁nicole	-9.96616
▁ocean	-9.96616
▁paradise	-9.96616
▁tuttle	-9.96616
▁wednesday	-9.96616
▁album	-9.96617
▁arthur	-9.96617
▁chapter	-9.96617
▁kovic	-9.96617
▁laurie	-9.96617
▁lindsey	-9.96617
▁century	-9.96617
▁cunt	-9.96617
▁cheese	-9.96617
▁shove	-9.96619
▁glory	-9.9662
▁cowboy	-9.96623
▁joking	-9.96623
▁chuckling	-9.96627
▁peyton	-9.96634
▁jury	-9.96636
▁recently	-9.96659
▁poker	-9.96665
▁treatment	-9.96675
▁jill	-9.96691
▁satan	-9.96692
▁standard	-9.96718
▁rae	-9.96747
▁artist	-9.96757
▁trailer	-9.96774
▁hack	-9.96777
▁cow	-9.96826
▁chip	-9.96835
▁heading	-9.96872
▁vampires	-9.96892
▁beth	-9.96956
▁carrie	-9.97008
▁payment	-9.97026
ized	-9.97091
▁bobi	-9.97136
▁clicking	-9.97141
▁patients	-9.97166
▁cars	-9.97192
▁runs	-9.97392
▁stops	-9.97395
▁coughs	-9.97559
▁planet	-9.97569
▁march	-9.97575
ory	-9.97684
berry	-9.97736
▁gra	-9.97896
▁err	-9.97916
ung	-9.98082
▁severe	-9.98159
▁pitch	-9.98172
▁mid	-9.9831
▁student	-9.98333
▁mon	-9.98339
let	-9.98485
▁anti	-9.98602
▁ju	-9.98649
▁engineer	-9.98766
▁enjoying	-9.98774
▁ham	-9.98774
▁pur	-9.98852
▁stars	-9.98934
▁odds	-9.99006
▁pee	-9.99073
▁fi	-9.99117
▁soldiers	-9.99128
▁fr	-9.9927
▁tear	-9.99414
▁bl	-9.99602
▁tears	-9.99608
▁units	-9.9963
▁ja	-9.99907
▁thoughts	-9.99929
▁tri	-9.99941
▁badly	-10.0023
▁bags	-10.0042
mer	-10.0042
▁sending	-10.0064
loans	-10.0072
▁opened	-10.0074
▁fee	-10.0076
▁fail	-10.0087
over	-10.0093
▁ruin	-10.0095
▁require	-10.0102
▁hardt	-10.0107
▁tuck	-10.0122
oop	-10.0125
face	-10.0133
mark	-10.0134
▁village	-10.0136
▁psycho	-10.0137
▁activity	-10.0138
▁amelia	-10.0138
▁attend	-10.0138
▁bloom	-10.0138
▁courage	-10.0138
▁creature	-10.0138
▁cristina	-10.0138
▁desire	-10.0138
▁enemies	-10.0138
▁fabulous	-10.0138
▁faggot	-10.0138
▁insurance	-10.0138
▁lydia	-10.0138
▁mexican	-10.0138
▁monkey	-10.0138
▁pizza	-10.0138
▁prawn	-10.0138
▁schedule	-10.0138
▁smith	-10.0138
▁sneak	-10.0138
▁taylor	-10.0138
▁therapy	-10.0138
▁unlock	-10.0138
▁blanc	-10.0138
▁bunk	-10.0138
▁chinese	-10.0138
▁clinch	-10.0138
▁enemy	-10.0138
▁luther	-10.0138
▁woz	-10.0138
▁slim	-10.0138
▁illegal	-10.0138
▁drove	-10.0138
▁alice	-10.0138
▁presence	-10.0138
▁intelligence	-10.0138
▁silence	-10.0138
▁transport	-10.0138
▁negative	-10.0138
▁luke	-10.0139
▁echo	-10.0139
▁flash	-10.0139
▁pimp	-10.0139
▁atlanta	-10.0139
▁finch	-10.014
▁slight	-10.0141
▁rude	-10.0141
▁rome	-10.0141
▁motor	-10.0142
▁grave	-10.0143
▁stake	-10.0144
▁wipe	-10.0147
▁error	-10.0148
ties	-10.0149
▁jenny	-10.0149
▁dating	-10.015
▁meal	-10.0151
▁heal	-10.0151
▁christian	-10.0152
▁coat	-10.0153
▁badge	-10.0154
▁finding	-10.0158
▁protection	-10.0158
▁grown	-10.0159
ev	-10.0161
▁received	-10.0163
▁inform	-10.0164
▁properly	-10.0165
use	-10.0166
▁shakes	-10.0166
▁lab	-10.0168
▁sean	-10.0171
tch	-10.0184
▁louder	-10.0186
▁americans	-10.0192
▁exp	-10.0195
▁signal	-10.0198
▁bug	-10.0204
▁chin	-10.0214
ilia	-10.022
▁screwed	-10.0222
▁banging	-10.0225
▁carol	-10.0232
▁emotional	-10.0236
▁thousands	-10.0241
▁treated	-10.0243
▁hunter	-10.0243
▁nu	-10.0254
▁bin	-10.0258
▁beers	-10.0263
▁dealer	-10.0265
▁shouts	-10.0283
▁asses	-10.0286
▁reached	-10.0315
▁offered	-10.0324
▁mountain	-10.0332
▁hurting	-10.0334
▁terrorist	-10.0334
▁sometime	-10.034
▁tap	-10.0351
▁rate	-10.0366
▁gut	-10.0371
▁bills	-10.0412
▁closet	-10.0424
▁loss	-10.0428
▁serv	-10.0429
▁jo	-10.0441
▁fart	-10.046
▁lookin	-10.0468
▁ordered	-10.0481
▁meaning	-10.0488
▁recording	-10.0504
▁organ	-10.0509
▁bend	-10.052
▁tone	-10.0522
▁mil	-10.0544
▁cor	-10.0549
▁demand	-10.0574
▁woods	-10.0575
▁butt	-10.0582
▁enter	-10.0594
▁prepare	-10.0603
▁creep	-10.0609
ita	-10.0611
▁express	-10.0633
▁cancel	-10.0638
▁ashamed	-10.0638
▁audience	-10.0638
▁background	-10.0638
▁custody	-10.0638
▁families	-10.0638
▁hooyah	-10.0638
▁insult	-10.0638
▁miracle	-10.0638
▁represent	-10.0638
▁reynolds	-10.0638
▁smooth	-10.0638
▁southjet	-10.0638
▁telephone	-10.0638
▁trauma	-10.0638
▁weather	-10.0638
▁alpha	-10.0638
▁scusa	-10.0638
▁valek	-10.0638
▁flew	-10.0638
▁contain	-10.0638
▁irene	-10.0638
▁superior	-10.0638
▁vegas	-10.0638
▁zeus	-10.0638
▁handsome	-10.0638
▁larson	-10.0638
▁lexi	-10.0638
▁nerve	-10.0638
▁steel	-10.0638
▁gear	-10.0638
▁miami	-10.0638
▁nightmare	-10.0638
▁moron	-10.0638
▁shape	-10.0638
▁valley	-10.0638
▁chanting	-10.0638
▁sobs	-10.0639
▁height	-10.0639
▁diana	-10.0639
▁moral	-10.064
▁memo	-10.064
▁clue	-10.0641
▁padre	-10.0641
▁punch	-10.0641
▁penny	-10.0642
▁winning	-10.0642
▁edge	-10.0643
▁touchdown	-10.0643
▁reaction	-10.0644
▁airline	-10.0646
alam	-10.0648
▁wallet	-10.0648
▁barry	-10.0649
▁jamie	-10.065
▁wise	-10.0652
▁role	-10.0652
▁oil	-10.0655
▁bull	-10.0658
▁aa	-10.0661
▁cries	-10.0664
▁aid	-10.0665
▁bench	-10.0667
▁christie	-10.0667
▁bud	-10.0667
▁birds	-10.0668
▁host	-10.067
▁allie	-10.0671
▁saving	-10.0671
▁johnson	-10.0674
▁discovered	-10.069
▁spin	-10.0702
▁joint	-10.0707
ress	-10.0719
▁smells	-10.0728
▁plays	-10.074
ack	-10.074
▁los	-10.0744
▁media	-10.075
▁math	-10.0752
▁les	-10.0754
▁greatest	-10.0778
▁ap	-10.0783
▁slaves	-10.0789
▁photograph	-10.0794
▁lower	-10.08
ical	-10.0811
hole	-10.0817
▁mc	-10.082
▁bush	-10.0834
hal	-10.0841
▁degree	-10.0858
▁attacked	-10.0858
▁pigs	-10.0858
▁member	-10.0861
▁detail	-10.0863
gged	-10.0867
▁chi	-10.0868
▁chase	-10.0868
▁computers	-10.0869
▁mol	-10.0874
▁vo	-10.0877
▁cares	-10.088
pped	-10.0884
▁all	-10.089
get	-10.0898
▁machines	-10.09
▁lu	-10.0913
ina	-10.0933
▁stu	-10.0934
▁prisoner	-10.0969
▁fund	-10.0969
▁reports	-10.1028
▁resist	-10.1029
▁mal	-10.1049
▁touched	-10.1055
▁phones	-10.1058
▁nicolas	-10.1081
▁pages	-10.1081
▁hundreds	-10.1082
mar	-10.1093
▁approach	-10.1102
▁discover	-10.1112
▁walls	-10.1128
▁remove	-10.1129
▁equal	-10.1147
▁object	-10.1147
▁comin	-10.1154
▁virgin	-10.1162
▁threat	-10.1164
▁jeff	-10.1164
▁smash	-10.1164
▁current	-10.1164
▁dungeon	-10.1164
▁energy	-10.1164
▁explosiveskull	-10.1164
▁heinrich	-10.1164
▁hoffman	-10.1164
▁incident	-10.1164
▁infection	-10.1164
▁interzone	-10.1164
▁jazz	-10.1164
▁lazarus	-10.1164
▁library	-10.1164
▁license	-10.1164
▁mccormack	-10.1164
▁neiman	-10.1164
▁nonsense	-10.1164
▁powder	-10.1164
▁reggie	-10.1164
▁respond	-10.1164
▁review	-10.1164
▁rifle	-10.1164
▁therapist	-10.1164
▁wikus	-10.1164
▁wilkinson	-10.1164
▁angie	-10.1164
▁assistant	-10.1164
▁false	-10.1164
▁internet	-10.1164
▁japanese	-10.1164
▁pathetic	-10.1164
▁charm	-10.1164
▁cherry	-10.1164
▁slam	-10.1164
▁steam	-10.1164
▁alleg	-10.1164
▁snow	-10.1164
▁zero	-10.1164
▁aunt	-10.1164
▁bride	-10.1164
▁ransom	-10.1164
▁warden	-10.1164
▁exciting	-10.1165
▁elwood	-10.1165
▁polite	-10.1165
▁wives	-10.1165
▁television	-10.1165
▁yellow	-10.1165
▁lena	-10.1165
▁golf	-10.1165
▁comfort	-10.1165
▁baseball	-10.1165
▁quarterback	-10.1166
▁woke	-10.1166
▁closing	-10.1166
▁salt	-10.1166
▁irish	-10.1166
▁coward	-10.1167
▁extreme	-10.1168
▁decent	-10.1168
ril	-10.1169
▁lick	-10.117
▁unfortunately	-10.117
▁reasons	-10.117
▁peterson	-10.1172
▁sack	-10.1174
▁safety	-10.1178
▁comedy	-10.118
▁cave	-10.1182
▁nest	-10.1184
▁include	-10.1184
▁physically	-10.1184
▁duel	-10.1187
▁lucy	-10.1193
▁spa	-10.1194
▁belt	-10.1195
▁showing	-10.12
▁inn	-10.121
▁warning	-10.1215
▁fuckers	-10.1215
▁wha	-10.1216
▁managed	-10.1219
▁disappeared	-10.124
▁quietly	-10.1248
▁arse	-10.1258
▁mustve	-10.1262
ux	-10.1268
▁vic	-10.1274
ically	-10.1274
bl	-10.1275
▁mentioned	-10.129
▁rec	-10.1329
▁cal	-10.1331
ya	-10.1338
▁click	-10.1354
▁knocked	-10.1369
tar	-10.1372
▁shows	-10.1393
▁luc	-10.1403
▁murders	-10.1404
wi	-10.1406
▁hal	-10.1449
▁lesson	-10.1449
▁fed	-10.1461
▁weekends	-10.148
▁es	-10.1481
▁waited	-10.1482
▁for	-10.149
▁non	-10.1506
▁der	-10.1526
▁bu	-10.1533
pping	-10.1543
▁answered	-10.155
▁cri	-10.1554
▁checking	-10.1589
▁lands	-10.1607
▁hated	-10.1615
▁bay	-10.1656
ward	-10.1671
ware	-10.1677
que	-10.1695
▁image	-10.1697
▁auto	-10.17
▁dancin	-10.171
▁recommend	-10.171
▁drag	-10.1714
▁gl	-10.1716
▁favour	-10.1719
▁benefit	-10.172
▁candidate	-10.172
▁claude	-10.172
▁creaking	-10.172
▁dallas	-10.172
▁effort	-10.172
▁expensive	-10.172
▁ferguson	-10.172
▁georgy	-10.172
▁graysmith	-10.172
▁gretta	-10.172
▁injured	-10.172
▁jordan	-10.172
▁struggle	-10.172
▁suspicious	-10.172
▁symbol	-10.172
▁wilson	-10.172
▁woodcock	-10.172
▁dozen	-10.172
▁junk	-10.172
▁maintain	-10.172
▁marcus	-10.172
▁permit	-10.172
▁sarge	-10.172
▁blaring	-10.172
▁caleb	-10.172
▁warrant	-10.172
▁wherever	-10.172
▁wray	-10.172
▁sample	-10.172
▁solve	-10.172
▁scoffs	-10.172
▁flea	-10.172
▁babylon	-10.172
▁loving	-10.172
▁hayes	-10.172
▁replace	-10.172
▁moonlight	-10.172
▁insist	-10.172
▁memories	-10.172
▁source	-10.1721
▁multipl	-10.1721
▁jeannie	-10.1721
▁edward	-10.1721
▁tribe	-10.1721
▁uniform	-10.1721
▁bored	-10.1722
▁spring	-10.1722
▁secure	-10.1722
▁aboard	-10.1722
▁roof	-10.1722
▁medicine	-10.1723
▁tro	-10.1723
▁burger	-10.1725
▁confession	-10.1725
▁wack	-10.1726
▁grant	-10.1726
▁vow	-10.1726
▁data	-10.1727
▁boz	-10.1728
▁slap	-10.1733
▁ugh	-10.1737
▁whispering	-10.174
▁rub	-10.174
▁joe	-10.1743
▁ram	-10.1743
▁demon	-10.1743
▁inch	-10.1744
razie	-10.1744
▁pickup	-10.1753
▁complaint	-10.1754
▁joy	-10.1756
▁steven	-10.1763
▁secrets	-10.177
ace	-10.1774
for	-10.1775
▁lifetime	-10.1775
▁lend	-10.1777
▁cocks	-10.1787
▁wounded	-10.1787
▁tail	-10.1795
▁eaten	-10.1796
▁sink	-10.1796
ified	-10.1801
▁anne	-10.1802
▁ag	-10.1805
▁pub	-10.1811
▁dial	-10.1821
▁dope	-10.1825
▁singer	-10.1826
▁fate	-10.1826
▁techniques	-10.1836
▁hum	-10.186
hes	-10.1893
▁pills	-10.1906
▁hearts	-10.1913
▁sports	-10.1925
▁yell	-10.1942
▁armed	-10.1943
ible	-10.1943
ame	-10.1961
▁depends	-10.1968
▁trained	-10.198
▁classic	-10.2005
▁odd	-10.2006
▁yard	-10.2007
▁toward	-10.2007
▁chat	-10.2009
▁employ	-10.2039
▁rig	-10.2064
▁carl	-10.2071
ino	-10.2073
▁engines	-10.2137
▁rolling	-10.2149
rate	-10.2156
▁answers	-10.2165
▁forces	-10.2166
▁clo	-10.2168
▁snap	-10.2222
▁seek	-10.2229
▁curse	-10.2272
▁arrive	-10.2273
▁guilt	-10.2279
▁dirt	-10.2279
board	-10.2282
field	-10.2289
shit	-10.229
▁obvious	-10.2292
▁usual	-10.2292
▁kat	-10.2292
▁announce	-10.2294
▁pakistan	-10.2297
▁site	-10.2298
▁asia	-10.2299
▁arrange	-10.2305
▁charles	-10.2308
▁thud	-10.2308
▁babysitter	-10.2308
▁bishop	-10.2308
▁citizen	-10.2308
▁corporate	-10.2308
▁declan	-10.2308
▁desmond	-10.2308
▁diamond	-10.2308
▁eventually	-10.2308
▁fifty	-10.2308
▁frawley	-10.2308
▁frozen	-10.2308
▁harvard	-10.2308
▁initial	-10.2308
▁moscow	-10.2308
▁occasion	-10.2308
▁rehearsal	-10.2308
▁solution	-10.2308
▁someday	-10.2308
▁svetlana	-10.2308
▁taliban	-10.2308
▁violent	-10.2308
▁volunteer	-10.2308
▁andand	-10.2308
▁ankle	-10.2308
▁babies	-10.2308
▁cadence	-10.2308
▁cube	-10.2308
▁investigate	-10.2308
▁melvin	-10.2308
▁slide	-10.2308
▁zoil	-10.2308
▁couch	-10.2308
▁describe	-10.2308
▁appeal	-10.2308
▁wailing	-10.2308
▁ellen	-10.2308
▁contest	-10.2308
▁saint	-10.2308
▁kidnapping	-10.2308
▁channel	-10.2308
▁hawkins	-10.2308
▁susan	-10.2308
▁susie	-10.2308
▁flashlight	-10.2308
▁detainee	-10.2308
▁lutz	-10.2308
▁patrol	-10.2308
▁resident	-10.2309
▁craig	-10.2309
▁stella	-10.2309
▁fancy	-10.2309
▁executive	-10.231
▁passport	-10.231
▁circle	-10.231
▁marshall	-10.231
▁delay	-10.2311
▁comment	-10.2311
▁limp	-10.2311
▁nazi	-10.2312
▁scout	-10.2312
▁effective	-10.2312
▁fruit	-10.2312
▁generation	-10.2312
▁storm	-10.2312
▁responsibility	-10.2312
▁impression	-10.2314
▁darkness	-10.2317
▁sew	-10.2319
▁homeless	-10.232
▁disgusting	-10.2321
▁johnny	-10.2322
▁betty	-10.2323
▁vari	-10.2324
▁taxes	-10.2325
▁rap	-10.2326
▁exit	-10.2328
▁witnesses	-10.2333
▁coughing	-10.2334
▁bail	-10.2335
▁embarrassing	-10.2345
▁hitting	-10.2345
▁latest	-10.2359
▁camel	-10.2363
▁bond	-10.2365
▁shutter	-10.2366
▁knowledge	-10.2367
▁rip	-10.2368
▁fore	-10.2372
▁dia	-10.2375
▁entirely	-10.2382
▁drawer	-10.2386
▁toy	-10.2388
▁commander	-10.239
▁busted	-10.2391
▁loaded	-10.241
nic	-10.2412
▁iron	-10.2413
▁dy	-10.2417
▁dumped	-10.2429
▁sniffs	-10.2434
▁examin	-10.2439
▁rope	-10.2441
oy	-10.2452
gen	-10.2453
▁shy	-10.2454
▁jackal	-10.2465
four	-10.247
▁mob	-10.2488
▁defin	-10.2501
▁lately	-10.2506
▁terror	-10.2547
▁leading	-10.257
▁offering	-10.2578
▁fl	-10.2581
▁dealing	-10.2586
▁fully	-10.26
▁poster	-10.2611
▁event	-10.2623
▁neighbor	-10.2625
▁dolphin	-10.2628
hand	-10.2639
▁breaks	-10.2648
▁students	-10.27
▁indi	-10.27
▁ras	-10.2724
▁seats	-10.2732
▁plug	-10.2749
▁jt	-10.2762
▁por	-10.278
▁dime	-10.2781
▁rag	-10.2805
▁para	-10.281
rrow	-10.283
▁def	-10.2858
▁becomes	-10.2865
nel	-10.2871
▁windows	-10.2876
▁honk	-10.2878
ology	-10.288
▁touching	-10.2885
▁chris	-10.2905
sters	-10.291
▁incredibl	-10.2914
book	-10.2914
bound	-10.2914
▁fold	-10.2914
▁bel	-10.2915
▁angels	-10.2915
▁helen	-10.2917
▁rapid	-10.2918
▁myth	-10.293
▁antoine	-10.2933
▁borras	-10.2933
▁curious	-10.2933
▁elgyn	-10.2933
▁fridge	-10.2933
▁increase	-10.2933
▁oskar	-10.2933
▁parmenion	-10.2933
▁political	-10.2933
▁popular	-10.2933
▁roussel	-10.2933
▁sherwood	-10.2933
▁skull	-10.2933
▁squeeze	-10.2933
▁stairs	-10.2933
▁thursday	-10.2933
▁tragedy	-10.2933
▁tshirt	-10.2933
▁whistling	-10.2933
▁worship	-10.2933
▁disturb	-10.2933
▁garage	-10.2933
▁glenn	-10.2933
▁intend	-10.2933
▁wreck	-10.2933
▁dawn	-10.2933
▁poison	-10.2933
▁forgotten	-10.2933
▁random	-10.2933
▁slut	-10.2933
▁uneas	-10.2933
▁roaring	-10.2933
▁chromium	-10.2933
▁minor	-10.2933
▁shopping	-10.2933
▁jodie	-10.2933
▁modern	-10.2933
▁timmy	-10.2933
▁adult	-10.2933
while	-10.2933
▁greg	-10.2933
▁authorities	-10.2933
▁accent	-10.2933
▁alert	-10.2934
▁nancy	-10.2934
▁mobile	-10.2934
▁version	-10.2934
▁royal	-10.2934
▁danger	-10.2935
▁intel	-10.2935
▁combat	-10.2935
▁quote	-10.2935
▁committed	-10.2935
▁mortar	-10.2935
▁fox	-10.2936
▁crawl	-10.2936
▁arrangement	-10.2936
▁screen	-10.2936
▁stopping	-10.2936
▁stress	-10.2937
▁chasing	-10.2937
▁award	-10.2938
▁alley	-10.2938
▁label	-10.2938
▁santa	-10.2939
▁series	-10.2939
▁bible	-10.294
▁soak	-10.294
▁thumb	-10.294
▁heck	-10.2941
▁boil	-10.2941
▁thirsty	-10.2941
▁beef	-10.2942
▁commissioner	-10.2944
▁rib	-10.2944
bit	-10.2944
▁murphy	-10.2947
but	-10.295
▁powerful	-10.2951
▁waitress	-10.2952
▁engaged	-10.2953
▁pour	-10.2953
▁brit	-10.2953
▁spoken	-10.2955
▁don	-10.2955
▁fur	-10.2956
▁mercy	-10.2958
▁diego	-10.2959
▁circumstances	-10.2964
▁embarrassed	-10.2967
▁fried	-10.2968
▁shithole	-10.2968
▁creepy	-10.297
▁goal	-10.2974
▁removed	-10.2976
▁boob	-10.2977
▁cable	-10.2994
▁survived	-10.3003
▁ru	-10.301
▁provided	-10.301
▁marks	-10.3012
▁bottles	-10.3014
▁customer	-10.3019
▁suffering	-10.3021
ex	-10.3022
▁snapp	-10.3026
▁movement	-10.3036
▁beard	-10.3043
▁painting	-10.3052
▁cookie	-10.3053
▁hire	-10.3065
▁sand	-10.3066
fuck	-10.307
▁tied	-10.3087
cut	-10.3098
▁filled	-10.3116
▁teaching	-10.3122
▁slayers	-10.3125
▁parker	-10.3125
cy	-10.3149
erry	-10.3165
▁ending	-10.3167
▁choices	-10.3168
▁falls	-10.3178
▁pushing	-10.3179
▁yay	-10.3187
▁rod	-10.3188
▁owner	-10.322
urg	-10.3226
▁sales	-10.3228
▁dolphins	-10.3248
▁messing	-10.3259
ency	-10.3293
▁sale	-10.3309
▁despi	-10.3316
▁terrorists	-10.333
▁guts	-10.3333
▁decisions	-10.3335
ily	-10.335
▁fighter	-10.3382
ify	-10.3398
▁ne	-10.3406
▁souls	-10.3437
▁invent	-10.3452
▁feelin	-10.3475
▁bastards	-10.3478
▁af	-10.3482
▁pla	-10.3487
▁hug	-10.353
▁bur	-10.3534
▁screech	-10.3535
▁design	-10.3536
▁bleed	-10.3538
hood	-10.3543
▁will	-10.3547
work	-10.3564
▁weigh	-10.3583
▁sudden	-10.3583
▁exact	-10.3583
well	-10.3584
▁sail	-10.3587
▁pet	-10.3587
list	-10.3588
log	-10.3592
▁chuck	-10.3593
▁stab	-10.3594
▁addict	-10.3595
▁gross	-10.3595
▁prior	-10.3597
▁kidnap	-10.3598
▁pockets	-10.3599
▁basic	-10.3599
▁sanders	-10.3599
▁brief	-10.3599
ization	-10.36
▁advantage	-10.36
▁boomboom	-10.36
▁ceiling	-10.36
▁chelsea	-10.36
▁chrisann	-10.36
▁cortez	-10.36
▁desperate	-10.36
▁division	-10.36
▁domestic	-10.36
▁empire	-10.36
▁exercise	-10.36
▁financial	-10.36
▁florida	-10.36
▁greece	-10.36
▁grendel	-10.36
▁hebrew	-10.36
▁herakles	-10.36
▁hinkley	-10.36
▁indictment	-10.36
▁inhales	-10.36
▁isabella	-10.36
▁ludlow	-10.36
▁molotov	-10.36
▁muscle	-10.36
▁newspaper	-10.36
▁olga	-10.36
▁orange	-10.36
▁response	-10.36
▁retrieval	-10.36
▁sculley	-10.36
▁squeak	-10.36
▁surrounded	-10.36
▁survivor	-10.36
▁unusual	-10.36
▁wealth	-10.36
▁becoming	-10.36
▁measure	-10.36
▁ntsb	-10.36
▁outfit	-10.36
▁rachel	-10.36
▁byebye	-10.36
▁mitchell	-10.36
▁worm	-10.36
▁cloud	-10.36
▁concert	-10.36
▁proceed	-10.36
▁salad	-10.36
▁capital	-10.36
▁hollywood	-10.36
▁thick	-10.36
▁boston	-10.36
▁crisis	-10.36
▁candy	-10.36
▁opposite	-10.36
▁bravo	-10.36
▁nerd	-10.36
▁yankee	-10.36
▁hammer	-10.36
▁device	-10.36
▁favourite	-10.3601
▁firing	-10.3601
▁miller	-10.3601
▁blanket	-10.3601
▁employee	-10.3601
▁rebel	-10.3601
▁nova	-10.3601
▁fadela	-10.3602
▁ease	-10.3602
▁sensitive	-10.3602
▁inspector	-10.3602
▁purse	-10.3603
▁tempo	-10.3603
▁grail	-10.3603
▁direction	-10.3603
▁minister	-10.3604
▁successful	-10.3604
▁lras	-10.3604
▁intention	-10.3605
▁waterboard	-10.3605
▁motion	-10.3605
▁growling	-10.3606
▁reward	-10.3606
looking	-10.3607
▁bonus	-10.3608
▁maid	-10.3608
▁rape	-10.3609
▁madness	-10.3611
▁facility	-10.3611
▁alcoholic	-10.3611
▁counselor	-10.3614
▁gee	-10.3615
▁plain	-10.3615
▁haul	-10.3616
▁flip	-10.3618
▁germany	-10.3623
▁china	-10.3623
▁bound	-10.3624
▁cage	-10.3627
▁trap	-10.3631
▁moaning	-10.3633
▁actions	-10.3634
▁it	-10.3634
▁fallen	-10.3636
▁earned	-10.3637
▁gosh	-10.3641
▁net	-10.3642
▁highest	-10.3647
▁bass	-10.3648
ugh	-10.3652
▁pile	-10.3654
▁stretch	-10.3656
▁fry	-10.3657
▁fourth	-10.3659
▁squealing	-10.3659
▁sonia	-10.3663
▁dresses	-10.3664
▁cried	-10.3666
▁tob	-10.3666
▁blown	-10.3669
▁pity	-10.367
▁minim	-10.3675
▁exception	-10.3681
▁depend	-10.3684
▁not	-10.3688
▁joker	-10.369
▁metal	-10.3697
▁timing	-10.372
▁hunting	-10.3726
▁cameras	-10.373
▁gloves	-10.374
▁drawing	-10.3743
▁shitty	-10.3749
▁rob	-10.3765
▁worrying	-10.3803
▁fishing	-10.3831
▁tin	-10.3833
▁uni	-10.3836
▁searching	-10.384
gina	-10.3853
▁watched	-10.3864
▁sim	-10.3874
▁tested	-10.3881
▁react	-10.3886
▁suits	-10.3895
▁las	-10.39
▁holes	-10.3923
▁kicking	-10.3931
▁yards	-10.3956
read	-10.3976
▁burns	-10.3978
▁lessons	-10.3982
▁cheer	-10.3985
▁sch	-10.4004
▁olympic	-10.4005
▁spell	-10.4005
▁grade	-10.4011
▁demons	-10.4023
▁events	-10.4023
▁mountains	-10.4026
▁nut	-10.4042
▁costs	-10.4049
▁officials	-10.407
▁terms	-10.4071
▁av	-10.4083
ane	-10.4086
▁gates	-10.4093
▁pran	-10.4098
fe	-10.4118
fer	-10.4125
▁chop	-10.4139
▁thin	-10.4176
▁ra	-10.4178
can	-10.4203
▁bow	-10.4218
enny	-10.4219
▁buzz	-10.4242
▁receive	-10.4247
▁squeal	-10.4251
▁on	-10.4274
▁involve	-10.4279
▁carly	-10.4283
woman	-10.4289
ville	-10.4293
▁val	-10.4294
▁merc	-10.4298
▁produce	-10.4299
box	-10.4301
▁mornin	-10.4304
▁sandwich	-10.4304
▁coordinat	-10.4304
▁abu	-10.4305
▁prints	-10.4307
▁abuse	-10.431
▁journal	-10.4312
▁confident	-10.4313
▁transfer	-10.4314
▁deposit	-10.4314
▁interrupt	-10.4314
▁observ	-10.4314
▁achieve	-10.4314
▁applause	-10.4314
▁automatic	-10.4314
▁behave	-10.4314
▁belief	-10.4314
▁brennan	-10.4314
▁charlotte	-10.4314
▁cipher	-10.4314
▁coincidence	-10.4314
▁cubs	-10.4314
▁darrell	-10.4314
▁delicious	-10.4314
▁delusion	-10.4314
▁fraud	-10.4314
▁hammond	-10.4314
▁harris	-10.4314
▁invitation	-10.4314
▁lewis	-10.4314
▁liquor	-10.4314
▁malenkov	-10.4314
▁mechanic	-10.4314
▁religious	-10.4314
▁revenge	-10.4314
▁salute	-10.4314
▁senior	-10.4314
▁similar	-10.4314
▁smiling	-10.4314
▁tattoo	-10.4314
▁testimony	-10.4314
▁transplant	-10.4314
▁underground	-10.4314
▁zubaydah	-10.4314
▁distress	-10.4314
▁gasoline	-10.4314
▁headaches	-10.4314
▁ignore	-10.4314
▁berlin	-10.4314
▁cheek	-10.4314
▁cyril	-10.4314
▁identity	-10.4314
▁neena	-10.4314
▁element	-10.4314
▁alison	-10.4314
▁cayman	-10.4314
▁skirt	-10.4314
▁plastic	-10.4314
▁clarissa	-10.4314
▁universe	-10.4314
▁thrill	-10.4314
▁troop	-10.4314
▁swimming	-10.4314
▁wore	-10.4314
▁brakes	-10.4314
▁stamp	-10.4314
▁lemon	-10.4314
▁helpmann	-10.4314
▁scrape	-10.4314
▁pearl	-10.4314
▁josie	-10.4314
▁shining	-10.4314
▁stall	-10.4315
▁instructions	-10.4315
▁enforcement	-10.4315
▁mattress	-10.4315
▁reverse	-10.4315
▁therell	-10.4315
▁blah	-10.4316
▁western	-10.4316
▁darts	-10.4316
▁ditch	-10.4316
▁torn	-10.4317
▁southern	-10.4317
▁plot	-10.4317
▁clayton	-10.4318
▁draft	-10.4318
▁raw	-10.4318
▁factory	-10.4318
▁selfish	-10.4318
▁lola	-10.4319
▁stack	-10.4319
▁stream	-10.4319
▁peck	-10.4319
▁persian	-10.4319
▁lamp	-10.4321
▁shore	-10.4321
▁dai	-10.4322
▁vanish	-10.4322
▁authorized	-10.4323
▁filthy	-10.4324
▁lads	-10.4324
▁duck	-10.4324
▁drill	-10.4324
▁tan	-10.4324
▁benway	-10.4325
▁broad	-10.4326
▁dna	-10.4327
▁proof	-10.4327
▁organized	-10.4328
▁captured	-10.4329
▁madame	-10.433
▁wide	-10.4331
▁martini	-10.4332
▁daily	-10.4333
▁cart	-10.4333
▁deck	-10.4346
▁buyin	-10.4347
▁setting	-10.435
▁disk	-10.4351
▁tillman	-10.4353
▁par	-10.4355
▁taxi	-10.4359
rink	-10.436
▁gim	-10.4362
▁amp	-10.4363
▁finale	-10.4364
▁down	-10.4364
▁fade	-10.4366
▁carried	-10.4371
cloth	-10.4373
▁divorced	-10.4376
▁delivery	-10.4378
▁kate	-10.4393
▁thrown	-10.4395
▁counter	-10.4398
▁confirmed	-10.4402
▁rank	-10.4408
▁norma	-10.4416
▁pole	-10.442
▁settled	-10.4424
▁mall	-10.4431
▁blessing	-10.4445
▁belly	-10.4448
▁shar	-10.4478
▁strings	-10.4489
▁lit	-10.4492
▁warn	-10.4509
▁cooking	-10.4521
▁riding	-10.4523
▁charged	-10.4525
▁oi	-10.4532
▁breaths	-10.4535
▁whistles	-10.4536
▁laying	-10.455
▁baron	-10.4556
▁daniels	-10.4559
▁sheets	-10.456
▁starks	-10.456
▁pushed	-10.456
bar	-10.4572
port	-10.4579
▁sucker	-10.4582
▁walkin	-10.4583
▁freaking	-10.4612
▁suspects	-10.4617
▁goodness	-10.4617
▁joining	-10.4672
run	-10.4705
▁tag	-10.4717
▁rd	-10.4737
▁tryin	-10.4741
▁kissed	-10.475
▁degrees	-10.475
uz	-10.4751
ham	-10.4765
▁wheel	-10.4777
▁ec	-10.4795
▁passing	-10.4805
▁cigarettes	-10.4822
▁reported	-10.4842
▁cam	-10.4845
▁what	-10.4854
▁seal	-10.486
▁publish	-10.493
▁bea	-10.4938
▁custom	-10.4977
ude	-10.4986
▁trusted	-10.4997
▁convict	-10.501
▁cooper	-10.501
▁crow	-10.5013
▁gather	-10.5027
▁dec	-10.5035
▁fin	-10.5042
▁convince	-10.5047
win	-10.505
▁trail	-10.5061
▁louis	-10.5064
▁bamb	-10.5072
▁kev	-10.5074
▁electric	-10.508
▁comic	-10.5083
▁ventilat	-10.5083
▁abandon	-10.5083
▁ambassador	-10.5083
▁apologies	-10.5083
▁barbecue	-10.5083
▁bureau	-10.5083
▁cambodia	-10.5083
▁challenge	-10.5083
▁chamber	-10.5083
▁council	-10.5083
▁critical	-10.5083
▁cynthia	-10.5083
▁elbow	-10.5083
▁encourage	-10.5083
▁fifteen	-10.5083
▁gambling	-10.5083
▁gazelle	-10.5083
▁gorgeous	-10.5083
▁grenade	-10.5083
▁helmet	-10.5083
▁hertzfeld	-10.5083
▁individual	-10.5083
▁industry	-10.5083
▁initiat	-10.5083
▁knives	-10.5083
▁marcano	-10.5083
▁misunderstand	-10.5083
▁precious	-10.5083
▁professor	-10.5083
▁profile	-10.5083
▁recipe	-10.5083
▁retreat	-10.5083
▁revolution	-10.5083
▁rhythm	-10.5083
▁rizzo	-10.5083
▁routine	-10.5083
▁scorpion	-10.5083
▁scratch	-10.5083
▁slaughter	-10.5083
▁snarl	-10.5083
▁strict	-10.5083
▁temple	-10.5083
▁tissue	-10.5083
▁underneath	-10.5083
▁whiskey	-10.5083
▁accomplish	-10.5083
▁damato	-10.5083
▁eleven	-10.5083
▁interpol	-10.5083
▁traitor	-10.5083
▁visual	-10.5083
▁xray	-10.5083
▁doorbell	-10.5083
▁durant	-10.5083
▁novel	-10.5083
▁vasily	-10.5083
▁wolf	-10.5083
▁frightened	-10.5083
▁virus	-10.5083
▁conquer	-10.5083
▁mnu	-10.5083
▁session	-10.5083
▁rifki	-10.5083
▁threatening	-10.5083
▁warrior	-10.5083
▁bounc	-10.5083
▁shave	-10.5083
▁solid	-10.5083
▁reilly	-10.5083
▁inmates	-10.5083
▁chinatown	-10.5083
▁drain	-10.5083
▁haunt	-10.5083
▁coast	-10.5083
▁douglas	-10.5083
▁griev	-10.5084
▁clink	-10.5084
▁roars	-10.5084
▁guide	-10.5084
▁dropping	-10.5084
▁psychologist	-10.5084
▁anytime	-10.5084
▁bagels	-10.5084
▁cheney	-10.5084
▁hostile	-10.5084
▁paperwork	-10.5085
▁chronicle	-10.5085
▁testify	-10.5085
▁stroke	-10.5085
▁saber	-10.5085
▁zip	-10.5085
▁ginger	-10.5085
▁latin	-10.5085
▁fashion	-10.5086
▁improve	-10.5086
▁hash	-10.5086
▁grey	-10.5086
▁population	-10.5086
▁heather	-10.5086
▁bucket	-10.5086
▁ksm	-10.5086
▁practically	-10.5087
▁villagers	-10.5087
▁after	-10.5087
▁kansas	-10.5087
▁pursu	-10.5088
▁katie	-10.5088
▁personnel	-10.5088
▁giggle	-10.5089
▁champion	-10.509
▁loner	-10.509
▁theme	-10.509
▁intense	-10.509
▁saul	-10.5091
▁yup	-10.5091
▁dora	-10.5092
▁rumor	-10.5093
▁brian	-10.5093
▁dice	-10.5093
hmer	-10.5094
▁trim	-10.5097
▁agreement	-10.5097
▁et	-10.5097
▁wings	-10.5102
▁grass	-10.5102
▁sonny	-10.5106
▁robbery	-10.5108
▁slice	-10.5108
▁ranch	-10.5109
▁swa	-10.5111
▁hood	-10.5113
▁sword	-10.5113
▁chen	-10.5113
▁teenager	-10.5114
▁handling	-10.5117
▁copies	-10.5117
▁cutting	-10.5121
▁whoohoo	-10.5124
▁active	-10.5129
▁thankyou	-10.5134
▁naturally	-10.5134
▁convicted	-10.5139
▁required	-10.5142
▁mud	-10.5144
▁ford	-10.5148
▁thee	-10.515
▁core	-10.5154
▁heroin	-10.5161
▁float	-10.5163
▁realise	-10.5164
▁dot	-10.5165
▁howdy	-10.5171
▁shithead	-10.5178
▁useless	-10.518
ula	-10.5199
▁escaped	-10.5212
▁stronger	-10.5223
▁cheating	-10.5225
▁eth	-10.5229
▁dougy	-10.5233
▁conf	-10.5235
▁fran	-10.524
uce	-10.5246
▁mim	-10.5246
▁safer	-10.5251
▁arti	-10.5259
▁waiter	-10.5261
▁chopp	-10.5276
▁bark	-10.5283
fic	-10.5298
▁returned	-10.5335
ega	-10.5342
part	-10.5347
tan	-10.5351
▁landed	-10.5354
▁ey	-10.5366
▁tools	-10.5375
▁speakers	-10.5377
▁trac	-10.538
roll	-10.5394
▁barn	-10.5398
▁sucking	-10.5423
▁som	-10.5435
▁neighbors	-10.5478
▁arc	-10.5495
▁rot	-10.5528
▁protecting	-10.5554
▁photographs	-10.5559
▁tool	-10.5615
▁blowing	-10.5618
▁sport	-10.5619
▁tube	-10.562
▁buck	-10.5629
▁poll	-10.5636
lab	-10.5642
▁squ	-10.5648
▁options	-10.566
▁ted	-10.5677
oke	-10.5691
state	-10.5747
▁menu	-10.5749
▁mile	-10.5789
▁betray	-10.5851
▁attract	-10.5861
▁india	-10.5874
izing	-10.5874
rous	-10.5878
▁belongs	-10.588
▁direct	-10.5884
▁german	-10.5887
place	-10.5891
▁numb	-10.5896
phone	-10.5902
▁hen	-10.5906
beat	-10.5906
▁julia	-10.5907
▁macedonia	-10.5907
▁stamm	-10.5911
eath	-10.5912
▁author	-10.5912
▁europe	-10.5913
▁harl	-10.5914
▁authentic	-10.5916
▁japan	-10.5916
▁cigar	-10.5916
▁mickey	-10.5916
uzzle	-10.5916
▁achilles	-10.5916
▁affair	-10.5916
▁anonymous	-10.5916
▁application	-10.5916
▁argument	-10.5916
▁august	-10.5916
▁avenue	-10.5916
▁babak	-10.5916
▁beresford	-10.5916
▁cease	-10.5916
▁champagne	-10.5916
▁choking	-10.5916
▁cocktail	-10.5916
▁collapse	-10.5916
▁crateros	-10.5916
▁disagree	-10.5916
▁disrespect	-10.5916
▁egypt	-10.5916
▁elijah	-10.5916
▁equipment	-10.5916
▁fernando	-10.5916
▁grandfather	-10.5916
▁hidden	-10.5916
▁identify	-10.5916
▁junior	-10.5916
▁monitor	-10.5916
▁motorcycle	-10.5916
▁october	-10.5916
▁offense	-10.5916
▁perimeter	-10.5916
▁potential	-10.5916
▁predator	-10.5916
▁receipt	-10.5916
▁reject	-10.5916
▁strawberry	-10.5916
▁supply	-10.5916
▁surrender	-10.5916
▁teresa	-10.5916
▁terrific	-10.5916
▁thomson	-10.5916
▁trevor	-10.5916
▁uncomfortable	-10.5916
▁university	-10.5916
▁urgent	-10.5916
▁violation	-10.5916
▁violet	-10.5916
▁virgil	-10.5916
▁becker	-10.5916
▁brush	-10.5916
▁dunno	-10.5916
▁fiction	-10.5916
▁instance	-10.5916
▁policy	-10.5916
▁prevent	-10.5916
▁remote	-10.5916
▁rouge	-10.5916
▁status	-10.5916
▁trunk	-10.5916
▁annoying	-10.5916
▁bronco	-10.5916
▁confusing	-10.5916
▁massacre	-10.5916
▁pattern	-10.5916
▁praise	-10.5916
▁bruise	-10.5916
▁sausage	-10.5916
▁await	-10.5917
▁distant	-10.5917
▁leather	-10.5917
▁bryant	-10.5917
▁lambert	-10.5917
▁oath	-10.5917
▁retard	-10.5917
▁disney	-10.5917
▁indeed	-10.5917
▁janessa	-10.5917
▁mercedes	-10.5917
▁romesha	-10.5917
▁cliff	-10.5917
▁kingdom	-10.5917
▁drew	-10.5917
▁brutal	-10.5917
▁yoga	-10.5917
▁corpse	-10.5917
▁barrel	-10.5917
▁itsit	-10.5917
▁uhuh	-10.5917
▁avoid	-10.5917
▁myers	-10.5917
▁wasting	-10.5917
▁midnight	-10.5917
▁josh	-10.5917
▁defeat	-10.5917
▁network	-10.5917
▁socks	-10.5917
▁stain	-10.5917
▁hush	-10.5917
▁begging	-10.5917
▁apology	-10.5917
▁lean	-10.5917
▁bert	-10.5917
▁distort	-10.5917
▁playoffs	-10.5917
▁specifically	-10.5917
▁musicians	-10.5917
▁theory	-10.5917
▁decade	-10.5918
▁comedian	-10.5918
▁phase	-10.5918
ification	-10.5918
▁promote	-10.5918
▁owns	-10.5918
▁operating	-10.5919
▁classified	-10.5919
▁existence	-10.5919
▁riverside	-10.5919
▁noble	-10.592
▁gentleman	-10.592
▁flush	-10.592
▁clever	-10.5921
▁happier	-10.5921
▁grateful	-10.5921
▁replacement	-10.5921
▁ashes	-10.5922
▁aside	-10.5922
▁whatre	-10.5922
▁acid	-10.5922
▁addiction	-10.5922
▁corruption	-10.5923
▁chaos	-10.5924
▁colin	-10.5924
▁fever	-10.5925
▁forgiveness	-10.5926
▁poem	-10.5926
▁forth	-10.5926
▁cue	-10.5926
▁macedonian	-10.5926
▁damon	-10.5927
▁cities	-10.5928
▁capable	-10.593
▁asian	-10.5931
▁inches	-10.5932
▁personality	-10.5933
▁dove	-10.5933
▁ox	-10.5935
▁queer	-10.5938
▁objection	-10.5938
▁attached	-10.5938
▁recon	-10.594
own	-10.5941
▁vet	-10.5941
▁murmuring	-10.5942
▁cast	-10.5942
▁chaser	-10.5942
▁wrap	-10.5942
▁highness	-10.5942
▁helene	-10.5943
▁plead	-10.5943
▁compar	-10.5949
▁golden	-10.5951
▁toss	-10.5952
▁clattering	-10.5953
▁wicked	-10.5953
▁mit	-10.5953
▁armor	-10.5954
▁bury	-10.5956
▁cole	-10.5958
▁spine	-10.5959
▁stable	-10.5959
▁hugh	-10.5974
havin	-10.5974
under	-10.5974
▁pastor	-10.5979
▁foy	-10.5981
▁scary	-10.5985
▁straighten	-10.5988
▁meters	-10.5993
▁cooperate	-10.5993
▁entered	-10.6011
ari	-10.6011
▁photographer	-10.6019
▁released	-10.6025
▁kit	-10.6027
▁ahh	-10.6028
▁added	-10.603
▁sniffl	-10.604
▁breasts	-10.604
▁republicans	-10.604
▁dock	-10.6041
▁mayor	-10.6065
▁washed	-10.6079
▁victory	-10.6088
▁helpful	-10.6093
▁pad	-10.6093
▁melt	-10.615
▁considering	-10.6161
▁visiting	-10.6167
▁structure	-10.6171
▁beau	-10.6175
▁jess	-10.6182
▁hooker	-10.6198
▁drums	-10.6201
gger	-10.6221
▁sooner	-10.6226
▁sucked	-10.6237
tz	-10.6257
eyed	-10.6261
▁bomber	-10.6262
▁wheels	-10.6263
▁joined	-10.6283
▁spells	-10.6291
▁olympics	-10.6291
▁nor	-10.6298
▁tara	-10.6317
▁testing	-10.6332
ological	-10.6356
▁nash	-10.6402
▁how	-10.6405
▁hut	-10.644
licate	-10.6485
anda	-10.649
cent	-10.6495
▁admire	-10.6506
▁heh	-10.6509
▁daniel	-10.6519
▁sheet	-10.6525
▁pound	-10.6527
▁chuckle	-10.6534
▁imim	-10.6538
▁drum	-10.655
▁pill	-10.6555
▁stark	-10.6565
▁prob	-10.6574
▁dreamed	-10.6611
▁quo	-10.6612
▁kno	-10.6612
▁skip	-10.663
▁belli	-10.6631
gh	-10.6632
▁stepp	-10.667
▁drown	-10.6707
ote	-10.6707
hhh	-10.6734
▁gram	-10.674
q	-10.6754
▁impress	-10.6758
▁recruit	-10.6761
▁gene	-10.6774
▁swor	-10.679
hold	-10.6791
▁recover	-10.6796
▁robber	-10.6798
▁woo	-10.6802
mission	-10.6804
dollar	-10.6805
claim	-10.6807
▁just	-10.6809
▁sav	-10.681
▁russia	-10.6816
▁opera	-10.682
▁invest	-10.6822
▁neighbour	-10.6825
▁scienti	-10.6826
▁stereo	-10.6826
▁adopt	-10.6826
▁annabelle	-10.6826
▁anxious	-10.6826
▁assault	-10.6826
▁associate	-10.6826
▁bartender	-10.6826
▁behavior	-10.6826
▁bodyguard	-10.6826
▁bypass	-10.6826
▁cavalry	-10.6826
▁cindy	-10.6826
▁cocksucker	-10.6826
▁colleague	-10.6826
▁communicate	-10.6826
▁concentrate	-10.6826
▁conference	-10.6826
▁congress	-10.6826
▁connolly	-10.6826
▁culture	-10.6826
▁dispatch	-10.6826
▁elephant	-10.6826
▁elizabeth	-10.6826
▁exposure	-10.6826
▁gracias	-10.6826
▁haddonfield	-10.6826
▁homicide	-10.6826
▁iraq	-10.6826
▁journey	-10.6826
▁kendall	-10.6826
▁lease	-10.6826
▁mccool	-10.6826
▁mcdonough	-10.6826
▁memphis	-10.6826
▁operative	-10.6826
▁ordinary	-10.6826
▁oscar	-10.6826
▁platoon	-10.6826
▁poetry	-10.6826
▁politics	-10.6826
▁possession	-10.6826
▁prosecutor	-10.6826
▁reverend	-10.6826
▁samantha	-10.6826
▁sheppard	-10.6826
▁shimmer	-10.6826
▁surveillance	-10.6826
▁survival	-10.6826
▁surviving	-10.6826
▁temper	-10.6826
▁temperature	-10.6826
▁treasury	-10.6826
▁typewriter	-10.6826
▁vessel	-10.6826
▁widow	-10.6826
▁radlo	-10.6826
▁selva	-10.6826
▁snatch	-10.6826
▁fuel	-10.6826
▁branch	-10.6826
▁burden	-10.6826
▁jamaica	-10.6826
▁keating	-10.6826
▁bryce	-10.6826
▁graduate	-10.6826
▁obey	-10.6826
▁judas	-10.6826
▁threatened	-10.6826
▁humming	-10.6826
▁genie	-10.6826
▁reveal	-10.6826
▁soap	-10.6826
▁deaf	-10.6826
▁lamb	-10.6826
▁kidney	-10.6826
▁misery	-10.6826
▁destin	-10.6826
▁investigating	-10.6826
▁nicos	-10.6826
▁napkin	-10.6826
▁skate	-10.6826
▁charlestown	-10.6826
▁masry	-10.6826
▁laden	-10.6826
▁method	-10.6826
▁youyou	-10.6826
▁basis	-10.6826
▁reference	-10.6826
▁sunset	-10.6826
▁uptown	-10.6826
▁facing	-10.6826
▁kayem	-10.6826
▁eits	-10.6827
▁silent	-10.6827
▁breed	-10.6827
rawl	-10.6827
▁fright	-10.6827
▁dutch	-10.6827
▁romance	-10.6828
▁punishment	-10.6828
▁seventeen	-10.6828
▁genetic	-10.6828
▁ivan	-10.6828
▁estate	-10.6828
▁whys	-10.6828
▁leadership	-10.6828
▁finance	-10.6828
▁beeps	-10.6828
▁authority	-10.6829
▁possibility	-10.6829
▁governor	-10.683
▁geez	-10.683
▁sixteen	-10.683
▁thunder	-10.683
▁habit	-10.6831
▁flee	-10.6832
▁tammy	-10.6832
▁sober	-10.6832
▁adventure	-10.6832
▁technically	-10.6833
▁jaw	-10.6833
▁patty	-10.6833
▁puke	-10.6835
▁fork	-10.6835
▁dragon	-10.6836
▁julian	-10.6836
▁coordinates	-10.6838
▁registered	-10.6839
▁medication	-10.6841
▁eve	-10.6841
▁panic	-10.6841
▁noone	-10.6842
▁barts	-10.6842
▁mort	-10.6843
▁matches	-10.6846
▁labor	-10.6847
▁bait	-10.6848
▁tries	-10.6849
▁discussion	-10.6849
▁battery	-10.685
▁sickness	-10.6852
card	-10.6852
▁soup	-10.6852
▁samson	-10.6853
▁dino	-10.6854
▁betting	-10.6857
▁ferm	-10.6857
▁manwhore	-10.686
▁consideration	-10.6862
▁wander	-10.6864
▁apply	-10.6867
▁jet	-10.6867
▁winter	-10.6868
▁angle	-10.6869
▁prim	-10.687
▁visitor	-10.6872
▁jackson	-10.688
▁emma	-10.6881
ppy	-10.6888
gul	-10.6893
▁cargo	-10.6894
fucking	-10.6894
▁lang	-10.6895
▁darko	-10.6906
▁loudly	-10.6906
▁unable	-10.6907
▁tur	-10.6919
▁leon	-10.6923
▁tanker	-10.6924
▁manner	-10.6937
▁sum	-10.6937
▁eli	-10.6939
▁demanding	-10.6945
▁milli	-10.6953
▁this	-10.6955
slav	-10.6959
▁closest	-10.696
▁reform	-10.6976
▁scan	-10.6978
▁hooked	-10.699
▁dei	-10.6991
▁instincts	-10.6992
▁jews	-10.6992
▁discussed	-10.6993
▁lap	-10.6994
▁stoned	-10.7008
▁mini	-10.7009
▁smiled	-10.7011
▁napa	-10.7032
▁din	-10.705
▁evans	-10.7053
▁relatives	-10.7053
▁safely	-10.7069
▁bothered	-10.7073
▁packed	-10.7078
▁accepted	-10.7085
▁actor	-10.7087
▁peel	-10.7093
▁rattl	-10.7106
▁diet	-10.7109
▁shown	-10.7142
▁server	-10.7146
▁prep	-10.716
▁pol	-10.7161
▁freaked	-10.7161
zin	-10.7177
▁prom	-10.7208
▁ofa	-10.723
▁messed	-10.725
▁jumped	-10.73
▁counting	-10.7332
rung	-10.7371
▁tit	-10.7373
▁flu	-10.7382
▁owed	-10.7441
▁shout	-10.7472
▁fri	-10.7475
▁jesse	-10.7518
▁whistle	-10.7519
▁slayer	-10.752
▁slave	-10.7523
▁parent	-10.753
▁trace	-10.7532
not	-10.7558
▁alex	-10.7559
teen	-10.7595
▁mat	-10.7602
▁exam	-10.7616
▁emotion	-10.7617
▁embarrass	-10.7704
rice	-10.773
▁beam	-10.7739
▁conduct	-10.7763
▁develop	-10.7766
▁execut	-10.7767
▁flood	-10.777
keeper	-10.7773
▁preach	-10.7784
▁teenage	-10.7785
▁ambi	-10.7786
▁clar	-10.7788
▁wee	-10.7792
▁earn	-10.7794
▁speaker	-10.78
▁kath	-10.7808
▁you	-10.7811
▁prince	-10.7815
▁confess	-10.7815
▁corrupt	-10.7818
▁abort	-10.7821
▁extract	-10.7821
cra	-10.7821
▁madam	-10.7822
fif	-10.7823
▁detect	-10.7823
▁assure	-10.7824
▁instruct	-10.7824
▁mamma	-10.7825
▁aircraft	-10.7826
▁anniversary	-10.7826
▁appropriate	-10.7826
▁awkward	-10.7826
▁beloved	-10.7826
▁bunny	-10.7826
▁celebrity	-10.7826
▁cemetery	-10.7826
▁competitive	-10.7826
▁confidence	-10.7826
▁consult	-10.7826
▁dammit	-10.7826
▁declaration	-10.7826
▁diondra	-10.7826
▁discipline	-10.7826
▁distract	-10.7826
▁episode	-10.7826
▁exhausted	-10.7826
▁figaro	-10.7826
▁freddy	-10.7826
▁fugitive	-10.7826
▁furniture	-10.7826
▁georgia	-10.7826
▁goddammit	-10.7826
▁hannah	-10.7826
▁hetrick	-10.7826
▁hillbilly	-10.7826
▁hockey	-10.7826
▁horror	-10.7826
▁invisible	-10.7826
▁jerusalem	-10.7826
▁judgment	-10.7826
▁krista	-10.7826
▁laundry	-10.7826
▁lloyd	-10.7826
▁macintosh	-10.7826
▁marquez	-10.7826
▁montreal	-10.7826
▁morolto	-10.7826
▁mulanax	-10.7826
▁mysterious	-10.7826
▁obsessed	-10.7826
▁offensive	-10.7826
▁qaeda	-10.7826
▁reputation	-10.7826
▁reservation	-10.7826
▁restricted	-10.7826
▁ritual	-10.7826
▁shboom	-10.7826
▁sheryl	-10.7826
▁slevin	-10.7826
▁somewhat	-10.7826
▁sonofabitch	-10.7826
▁species	-10.7826
▁technology	-10.7826
▁theories	-10.7826
▁thieves	-10.7826
▁tiamat	-10.7826
▁tokyo	-10.7826
▁toschi	-10.7826
▁turkey	-10.7826
▁unconscious	-10.7826
▁ventress	-10.7826
▁wheelchair	-10.7826
▁withdraw	-10.7826
▁casual	-10.7826
▁charity	-10.7826
▁drift	-10.7826
▁establish	-10.7826
▁eternal	-10.7826
▁jangers	-10.7826
▁krug	-10.7826
▁lounge	-10.7826
▁obligation	-10.7826
▁resume	-10.7826
▁veteran	-10.7826
▁average	-10.7826
▁gunfight	-10.7826
▁instant	-10.7826
▁jeep	-10.7826
▁jeez	-10.7826
▁messiah	-10.7826
▁minnie	-10.7826
▁naughty	-10.7826
▁ralph	-10.7826
▁rooney	-10.7826
▁shatter	-10.7826
▁illinois	-10.7826
▁income	-10.7826
▁renew	-10.7826
▁brick	-10.7826
▁frost	-10.7826
▁reckon	-10.7826
▁wrist	-10.7826
meister	-10.7826
▁dodge	-10.7826
▁pigeon	-10.7826
▁casino	-10.7826
▁motel	-10.7826
▁aksel	-10.7826
▁pact	-10.7826
▁reece	-10.7826
▁basketball	-10.7826
▁spiritual	-10.7826
qualified	-10.7826
▁cnn	-10.7826
▁diving	-10.7826
▁slot	-10.7826
▁fireworks	-10.7826
▁bribe	-10.7826
▁internal	-10.7826
▁radical	-10.7826
▁generous	-10.7826
▁terrified	-10.7826
▁hustle	-10.7826
▁titties	-10.7826
▁pond	-10.7826
▁winston	-10.7826
▁polina	-10.7826
▁bloke	-10.7826
▁nows	-10.7826
▁rosie	-10.7826
▁pepper	-10.7826
▁institution	-10.7826
▁supper	-10.7826
▁budget	-10.7826
▁hahaha	-10.7827
▁ambition	-10.7827
▁entertainment	-10.7827
▁guido	-10.7827
▁shield	-10.7827
▁clown	-10.7827
▁riley	-10.7827
▁dramatic	-10.7827
▁kiki	-10.7827
▁eliot	-10.7827
▁polish	-10.7827
▁elias	-10.7828
▁slick	-10.7828
▁fanny	-10.7828
▁subway	-10.7828
▁locate	-10.7828
▁faci	-10.7828
▁tooth	-10.7828
▁knight	-10.7828
▁wallace	-10.7828
▁candles	-10.7828
▁development	-10.7829
▁impressive	-10.7829
▁ofthe	-10.7829
▁caroline	-10.783
▁arrow	-10.783
▁bookkeeper	-10.783
▁countries	-10.783
▁clich	-10.7831
▁neat	-10.7831
fifth	-10.7831
▁rescue	-10.7831
▁griffin	-10.7831
▁joanna	-10.7832
▁heartbeat	-10.7832
▁marble	-10.7832
▁precisely	-10.7832
▁flo	-10.7832
▁fax	-10.7832
▁flies	-10.7832
▁stammers	-10.7832
▁performance	-10.7833
▁soda	-10.7833
▁grownup	-10.7833
▁dyou	-10.7833
▁spill	-10.7833
▁temporary	-10.7833
▁tech	-10.7834
▁lighthouse	-10.7834
▁foolish	-10.7834
▁task	-10.7835
▁footage	-10.7836
▁zoo	-10.7837
▁haley	-10.7837
▁housekeeper	-10.7838
sky	-10.7838
▁tender	-10.7839
case	-10.7839
▁andr	-10.784
▁wholl	-10.784
▁brent	-10.784
old	-10.7841
▁liberty	-10.7843
▁recommendation	-10.7843
▁pakistani	-10.7844
▁homework	-10.7846
▁directly	-10.7846
▁bardo	-10.7847
▁jag	-10.7848
▁collection	-10.7849
▁tore	-10.785
▁fitch	-10.785
▁painful	-10.7852
▁pace	-10.7852
▁production	-10.7853
▁medal	-10.7854
▁hose	-10.7857
▁angeles	-10.7858
▁disappointed	-10.7859
▁gary	-10.786
away	-10.7862
▁sixty	-10.7862
▁chet	-10.7866
▁reasonable	-10.7868
▁sole	-10.7869
▁kim	-10.7869
▁accused	-10.787
▁kiddo	-10.7871
▁condo	-10.788
▁rack	-10.7885
▁boxes	-10.7887
▁cursed	-10.7889
▁rug	-10.789
▁gathered	-10.7899
▁referr	-10.7911
▁followers	-10.7911
▁damaged	-10.7916
ello	-10.792
▁screeching	-10.7924
▁manita	-10.7924
▁passes	-10.7929
▁spy	-10.794
▁iim	-10.7946
▁filed	-10.7964
▁outer	-10.7966
▁lawn	-10.7967
▁connected	-10.7971
▁raped	-10.798
▁mightve	-10.7984
▁dam	-10.7992
▁coin	-10.7995
▁monte	-10.8004
▁boost	-10.8007
▁fairly	-10.8011
▁chained	-10.8013
▁del	-10.8035
▁fort	-10.8038
▁appeared	-10.8042
▁shelly	-10.808
▁suggested	-10.8102
▁stealing	-10.8132
▁dip	-10.8148
▁pun	-10.8164
lay	-10.8171
stick	-10.8208
▁sip	-10.8209
light	-10.8224
ummy	-10.8279
cla	-10.8333
▁but	-10.8357
▁grad	-10.8376
formed	-10.8407
▁mop	-10.842
itz	-10.8423
▁rac	-10.846
▁scr	-10.852
▁pope	-10.8532
igan	-10.8556
berg	-10.8558
▁sever	-10.8579
▁barb	-10.8614
▁france	-10.8644
ugging	-10.8681
mine	-10.8724
▁scrub	-10.8744
▁haz	-10.8776
▁continu	-10.881
▁leo	-10.8834
▁prime	-10.8889
▁plea	-10.8892
ledge	-10.8894
▁engage	-10.8898
rich	-10.8903
wood	-10.8915
block	-10.8917
world	-10.8917
▁commission	-10.8917
▁villa	-10.892
▁immediate	-10.892
▁batter	-10.8923
▁movin	-10.8927
▁runnin	-10.8927
▁axe	-10.893
▁excess	-10.8933
▁comb	-10.8934
town	-10.8935
▁specific	-10.8935
▁architect	-10.8936
▁gentle	-10.8936
▁electro	-10.8936
▁alyosha	-10.8937
▁analysis	-10.8937
▁banana	-10.8937
▁bargain	-10.8937
▁biscuit	-10.8937
▁brodski	-10.8937
▁cassander	-10.8937
▁chirping	-10.8937
▁commercial	-10.8937
▁compromise	-10.8937
▁concept	-10.8937
▁concussion	-10.8937
▁conflict	-10.8937
▁confront	-10.8937
▁conscience	-10.8937
▁conspiracy	-10.8937
▁crutch	-10.8937
▁december	-10.8937
▁dennis	-10.8937
▁disgrace	-10.8937
▁education	-10.8937
▁embassy	-10.8937
▁expense	-10.8937
▁fascinating	-10.8937
▁gardner	-10.8937
▁generator	-10.8937
▁happily	-10.8937
▁hathaway	-10.8937
▁impact	-10.8937
▁inaudible	-10.8937
▁investigator	-10.8937
▁inviting	-10.8937
▁january	-10.8937
▁kramer	-10.8937
▁krissi	-10.8937
▁lawsuit	-10.8937
▁legitimate	-10.8937
▁liquid	-10.8937
▁lobby	-10.8937
▁manhattan	-10.8937
▁maximum	-10.8937
▁memorandum	-10.8937
▁millaney	-10.8937
▁millimeter	-10.8937
▁ministry	-10.8937
▁mohammed	-10.8937
▁muttering	-10.8937
▁mystery	-10.8937
▁november	-10.8937
▁outpost	-10.8937
▁paralyzed	-10.8937
▁passengers	-10.8937
▁promotion	-10.8937
▁prospect	-10.8937
▁protocol	-10.8937
▁psychiatrist	-10.8937
▁rawhide	-10.8937
▁retired	-10.8937
▁revving	-10.8937
▁robinson	-10.8937
▁russell	-10.8937
▁sabotage	-10.8937
▁sacred	-10.8937
▁salinas	-10.8937
▁satellite	-10.8937
▁seizure	-10.8937
▁shaffer	-10.8937
▁snyder	-10.8937
▁sturges	-10.8937
▁therefore	-10.8937
▁undateable	-10.8937
▁unknown	-10.8937
▁valuable	-10.8937
▁vincent	-10.8937
▁volume	-10.8937
▁bahia	-10.8937
▁banjo	-10.8937
▁charts	-10.8937
▁creek	-10.8937
▁dentist	-10.8937
▁mafia	-10.8937
▁oldfashioned	-10.8937
▁terek	-10.8937
▁transmit	-10.8937
▁vanessa	-10.8937
▁vicente	-10.8937
▁watts	-10.8937
▁breach	-10.8937
▁celia	-10.8937
▁colorado	-10.8937
▁grocer	-10.8937
▁merger	-10.8937
▁shmoo	-10.8937
▁spanky	-10.8937
▁spoil	-10.8937
▁buddies	-10.8937
▁potato	-10.8937
▁shotgun	-10.8937
▁depot	-10.8937
▁felon	-10.8937
▁importance	-10.8937
▁theater	-10.8937
▁trent	-10.8937
▁thief	-10.8937
▁editor	-10.8937
▁google	-10.8937
▁restrain	-10.8937
▁harass	-10.8937
▁jerem	-10.8937
▁blast	-10.8937
▁incoming	-10.8937
▁assigned	-10.8937
▁vriess	-10.8937
▁dragging	-10.8937
▁backpack	-10.8937
▁barbarian	-10.8937
▁untie	-10.8937
▁mourn	-10.8937
▁presume	-10.8937
▁trey	-10.8937
▁vibrat	-10.8937
▁harsh	-10.8937
▁turks	-10.8937
▁rpg	-10.8937
▁region	-10.8937
viet	-10.8937
▁warren	-10.8937
▁whatwhat	-10.8937
▁mercenar	-10.8937
▁numero	-10.8937
chemical	-10.8937
▁crystal	-10.8937
▁kraus	-10.8937
▁description	-10.8937
▁freezing	-10.8937
▁scale	-10.8937
▁web	-10.8937
▁doris	-10.8937
▁jingle	-10.8937
▁shaking	-10.8937
▁residence	-10.8937
▁assuming	-10.8937
▁todd	-10.8937
▁groov	-10.8937
▁constitution	-10.8937
▁scheme	-10.8937
▁tanner	-10.8938
▁plugger	-10.8938
▁bolivia	-10.8938
▁strapped	-10.8938
▁vagina	-10.8938
▁ceo	-10.8938
▁tragic	-10.8938
▁loyalty	-10.8938
▁airplane	-10.8938
▁succ	-10.8938
▁argh	-10.8938
▁surgeon	-10.8938
▁bidd	-10.8939
▁riff	-10.8939
▁romantic	-10.8939
▁update	-10.8939
▁online	-10.8939
▁racist	-10.8939
▁palace	-10.8939
▁broward	-10.8939
▁pause	-10.894
▁item	-10.894
▁stripper	-10.894
▁begun	-10.894
▁hissing	-10.894
▁clang	-10.8941
▁owned	-10.8941
▁bold	-10.8941
truck	-10.8941
▁recall	-10.8941
▁cattle	-10.8941
▁hank	-10.8941
▁pepe	-10.8942
▁philosophy	-10.8942
▁unique	-10.8942
▁skinny	-10.8943
▁hoover	-10.8943
▁mount	-10.8943
▁axel	-10.8944
▁tripped	-10.8944
▁waist	-10.8945
▁raf	-10.8945
▁elite	-10.8945
▁burst	-10.8947
▁reactor	-10.8947
▁crackling	-10.8947
▁narrat	-10.8947
▁dune	-10.8947
▁baptized	-10.8947
▁marty	-10.8949
▁chew	-10.8949
▁dickhead	-10.895
▁kara	-10.895
▁maria	-10.895
▁diary	-10.8952
▁exploded	-10.8952
▁solo	-10.8953
▁dismissed	-10.8953
▁ally	-10.8954
▁forest	-10.8955
lles	-10.8956
▁applauding	-10.8956
▁successor	-10.8957
▁weep	-10.8959
▁ellie	-10.8959
▁portal	-10.8961
▁respectful	-10.8962
▁hitler	-10.8963
▁hatch	-10.8963
▁tito	-10.8964
▁herb	-10.8965
▁wei	-10.8967
▁determined	-10.8969
▁folder	-10.8974
▁specialist	-10.8974
▁donor	-10.8975
▁rake	-10.8977
▁fist	-10.8978
▁denied	-10.8979
▁fet	-10.8982
▁sniffing	-10.8989
▁convinced	-10.8991
▁mein	-10.8992
counterterrorism	-10.8993
corn	-10.8998
▁executed	-10.8999
▁flooded	-10.9
▁developed	-10.9
▁peep	-10.9006
▁spying	-10.901
▁dish	-10.9013
▁attracted	-10.9013
stein	-10.9015
▁recruiting	-10.9017
▁drowning	-10.9017
boat	-10.9025
▁brat	-10.9025
▁burnt	-10.9029
fat	-10.9031
▁dc	-10.9032
oid	-10.9032
▁sharply	-10.9033
▁warned	-10.9037
▁hopeless	-10.9037
▁honking	-10.9057
▁deeper	-10.9069
▁suffered	-10.908
▁publisher	-10.9081
▁locker	-10.9084
▁horny	-10.9094
stone	-10.9105
▁limited	-10.9105
▁touring	-10.9125
▁operate	-10.9158
▁independen	-10.9163
▁requested	-10.9165
▁jr	-10.9169
▁finest	-10.9214
▁purchase	-10.9217
lessness	-10.9233
tta	-10.9279
▁wak	-10.9297
▁hel	-10.9337
▁formal	-10.9354
▁negotiat	-10.9357
▁toxic	-10.937
▁tub	-10.944
pper	-10.9468
aut	-10.9476
vious	-10.9505
▁swi	-10.961
aron	-10.9656
▁prop	-10.9732
nom	-10.974
bag	-10.9741
▁eric	-10.9817
▁grunt	-10.9826
more	-10.9829
ckl	-10.9829
▁shoe	-10.9834
▁suite	-10.9871
▁relative	-10.9876
ably	-10.9878
▁string	-10.9895
▁ai	-10.9907
▁evan	-10.992
▁flower	-10.9952
what	-10.9962
▁ironic	-10.9979
than	-10.9995
▁sens	-11.0002
▁tru	-11.0095
▁accus	-11.0106
▁affect	-11.0125
▁terr	-11.0128
▁punish	-11.0129
▁wick	-11.0132
▁offend	-11.0134
luded	-11.0142
▁approve	-11.015
night	-11.015
▁propose	-11.0151
▁murph	-11.0158
▁moan	-11.0158
▁jewel	-11.0162
▁entr	-11.0163
text	-11.0167
worth	-11.0167
child	-11.0167
point	-11.0167
▁with	-11.0171
check	-11.0175
saw	-11.0175
▁motherfuckin	-11.0177
▁africa	-11.0177
▁witch	-11.0177
▁tradition	-11.0177
▁persia	-11.0177
vinci	-11.0178
▁lind	-11.018
class	-11.018
▁elli	-11.018
▁arab	-11.0182
▁communi	-11.0182
▁predict	-11.0184
▁snor	-11.0185
▁crucifix	-11.0187
▁extinct	-11.0187
▁masturbat	-11.0187
▁suppress	-11.0187
▁adjustment	-11.0187
▁administration	-11.0187
▁albuquerque	-11.0187
▁almighty	-11.0187
▁ambitious	-11.0187
▁arrogant	-11.0187
▁audible	-11.0187
▁austria	-11.0187
▁beverage	-11.0187
▁blunt	-11.0187
▁brazil	-11.0187
▁broadcast	-11.0187
▁canadian	-11.0187
▁celebration	-11.0187
▁circuit	-11.0187
▁column	-11.0187
▁compassion	-11.0187
▁competition	-11.0187
▁correspond	-11.0187
▁cripple	-11.0187
▁crusade	-11.0187
▁depressed	-11.0187
▁depression	-11.0187
▁detention	-11.0187
▁dialogue	-11.0187
▁divided	-11.0187
▁donkey	-11.0187
▁encounter	-11.0187
▁enterprise	-11.0187
▁entitled	-11.0187
▁explosive	-11.0187
▁feinstein	-11.0187
▁firecracker	-11.0187
▁fokkin	-11.0187
▁fulfill	-11.0187
▁funkyzeit	-11.0187
▁giggling	-11.0187
▁graduation	-11.0187
▁grohl	-11.0187
▁haggard	-11.0187
▁happiness	-11.0187
▁hopkins	-11.0187
▁inject	-11.0187
▁international	-11.0187
▁joseph	-11.0187
▁lifeanddeath	-11.0187
▁lorenzo	-11.0187
▁lyrics	-11.0187
▁mackenzie	-11.0187
▁magdalene	-11.0187
▁massapequa	-11.0187
▁minnieboo	-11.0187
▁mississippi	-11.0187
▁montoya	-11.0187
▁mulqueen	-11.0187
▁obama	-11.0187
▁onstage	-11.0187
▁orgasm	-11.0187
▁pacific	-11.0187
▁paranoid	-11.0187
▁password	-11.0187
▁plaintiffs	-11.0187
▁possessed	-11.0187
▁precinct	-11.0187
▁privilege	-11.0187
▁proposal	-11.0187
▁prosecute	-11.0187
▁prosecution	-11.0187
▁radiator	-11.0187
▁railroad	-11.0187
▁razor	-11.0187
▁reception	-11.0187
▁refuge	-11.0187
▁schlomo	-11.0187
▁scholar	-11.0187
▁scissor	-11.0187
▁shaft	-11.0187
▁shirley	-11.0187
▁shortsighted	-11.0187
▁slovnik	-11.0187
▁splash	-11.0187
▁stadium	-11.0187
▁strategy	-11.0187
▁survey	-11.0187
▁sustain	-11.0187
▁tarrance	-11.0187
▁teardrop	-11.0187
▁territory	-11.0187
▁underwear	-11.0187
▁vaughn	-11.0187
▁welfare	-11.0187
▁wickwire	-11.0187
▁wisdom	-11.0187
▁witherspoon	-11.0187
▁wozniak	-11.0187
▁assignment	-11.0187
▁companion	-11.0187
▁condemn	-11.0187
▁divine	-11.0187
▁extend	-11.0187
▁intimate	-11.0187
▁ireland	-11.0187
▁jonah	-11.0187
▁kennedy	-11.0187
▁lingerie	-11.0187
▁mageau	-11.0187
▁nffa	-11.0187
▁patience	-11.0187
▁relief	-11.0187
▁scott	-11.0187
▁stiff	-11.0187
▁vomit	-11.0187
▁addison	-11.0187
▁afterwards	-11.0187
▁assistance	-11.0187
▁canada	-11.0187
▁cotton	-11.0187
▁dildo	-11.0187
▁miserable	-11.0187
▁profit	-11.0187
▁terrain	-11.0187
▁womb	-11.0187
▁apache	-11.0187
▁choke	-11.0187
▁feather	-11.0187
▁gallon	-11.0187
▁lilith	-11.0187
▁parole	-11.0187
▁rehab	-11.0187
▁relations	-11.0187
▁shush	-11.0187
▁snack	-11.0187
▁clamp	-11.0187
▁essay	-11.0187
▁radar	-11.0187
▁terminal	-11.0187
▁urinat	-11.0187
▁jaffe	-11.0187
▁macray	-11.0187
▁repair	-11.0187
▁tolar	-11.0187
▁marvin	-11.0187
▁benji	-11.0187
▁tennis	-11.0187
▁balloon	-11.0187
▁invade	-11.0187
▁vendor	-11.0187
▁assassin	-11.0187
▁hopefully	-11.0187
▁vital	-11.0187
▁cardinal	-11.0187
▁craft	-11.0187
▁oven	-11.0187
▁margie	-11.0187
▁scumbag	-11.0187
▁causing	-11.0187
▁teddy	-11.0187
▁piggy	-11.0187
▁defeo	-11.0187
▁ethics	-11.0187
▁assessment	-11.0187
▁cowgirl	-11.0187
▁compell	-11.0187
▁crop	-11.0187
▁downtown	-11.0187
▁starving	-11.0187
▁whooping	-11.0187
▁drool	-11.0187
▁protest	-11.0187
▁sondra	-11.0187
▁authorization	-11.0187
▁mankind	-11.0187
oulder	-11.0187
▁heels	-11.0187
▁gym	-11.0187
▁magnet	-11.0187
▁gap	-11.0187
▁grind	-11.0187
▁sparrow	-11.0187
▁exclusive	-11.0187
▁pushups	-11.0187
▁orphanage	-11.0187
▁yank	-11.0188
▁shuffl	-11.0188
▁robbed	-11.0188
▁architecture	-11.0188
▁exposed	-11.0188
▁confidential	-11.0188
▁jewish	-11.0188
▁suitcase	-11.0188
▁consistent	-11.0188
▁growls	-11.0188
▁princeton	-11.0188
▁overnight	-11.0188
▁oops	-11.0188
▁swamp	-11.0189
human	-11.0189
▁bendini	-11.0189
▁stanley	-11.0189
▁foryou	-11.0189
▁honour	-11.0189
▁claus	-11.0189
▁software	-11.0189
▁slavery	-11.0189
▁bruce	-11.0189
▁aaron	-11.0189
▁construction	-11.019
▁fluid	-11.019
▁malone	-11.019
▁baptist	-11.019
▁colonel	-11.019
jangle	-11.019
▁clack	-11.019
▁frame	-11.019
▁keyboard	-11.019
▁circus	-11.019
▁upside	-11.019
▁popping	-11.0191
▁burnley	-11.0191
▁wiggle	-11.0191
▁childhood	-11.0191
▁ofyou	-11.0191
▁bingo	-11.0192
▁bacon	-11.0192
▁abortion	-11.0193
▁delight	-11.0193
▁hallway	-11.0193
▁elder	-11.0194
▁kane	-11.0194
affle	-11.0194
▁informant	-11.0194
▁any	-11.0194
▁wong	-11.0194
▁relate	-11.0194
▁tourist	-11.0194
▁alike	-11.0194
▁wax	-11.0195
▁title	-11.0195
▁wooh	-11.0195
▁grossman	-11.0195
▁parade	-11.0195
▁jude	-11.0196
▁astr	-11.0196
▁capps	-11.0196
▁witches	-11.0196
▁brace	-11.0196
▁swiss	-11.0196
▁african	-11.0197
▁function	-11.0197
▁iv	-11.0197
▁christina	-11.0197
▁constantly	-11.0197
▁hedge	-11.0198
▁infant	-11.0198
▁illustr	-11.0198
▁walt	-11.0198
▁swell	-11.0199
▁pork	-11.0199
▁humor	-11.02
▁flatter	-11.0203
▁mega	-11.0203
▁dedicated	-11.0204
▁gently	-11.0204
▁sandwiches	-11.0204
▁buzzes	-11.0204
▁bambi	-11.0205
▁villain	-11.0205
▁foreigners	-11.0205
▁inverted	-11.0206
▁imitate	-11.0206
▁peaceful	-11.0206
▁daylight	-11.0206
▁confirmation	-11.0207
▁scent	-11.0207
▁halfway	-11.021
▁haha	-11.0211
▁rusty	-11.0213
▁losses	-11.0213
▁needles	-11.0214
chever	-11.0215
▁blonde	-11.0215
▁centre	-11.0215
▁chosen	-11.0217
▁roman	-11.0217
▁conviction	-11.0217
▁entry	-11.0218
▁poke	-11.0221
▁rapidly	-11.0222
▁vest	-11.0224
▁proposed	-11.0225
▁gent	-11.0225
▁approved	-11.0228
▁recovery	-11.0229
▁equally	-11.0229
▁lawful	-11.0231
▁drawn	-11.0231
▁seventh	-11.0234
▁assured	-11.0234
▁goodnight	-11.0239
▁dough	-11.024
▁ticking	-11.0243
▁offended	-11.0243
▁punished	-11.0243
▁affected	-11.0243
▁vain	-11.0248
▁sour	-11.0248
▁seri	-11.0248
▁frat	-11.025
▁fuckedup	-11.025
roke	-11.0253
▁ole	-11.0254
▁ore	-11.0255
▁crashes	-11.0256
▁abused	-11.0256
▁lane	-11.0257
▁mistaken	-11.0258
▁conducted	-11.0259
▁buses	-11.0259
▁headline	-11.0262
▁impressed	-11.0266
▁drowned	-11.0267
▁crown	-11.0267
▁classes	-11.027
▁ghostly	-11.0273
▁betrayed	-11.0274
▁larger	-11.0276
▁stray	-11.0277
▁mustnt	-11.0278
▁bean	-11.0279
▁published	-11.0282
▁laser	-11.0283
sap	-11.0288
▁sealed	-11.0291
▁whine	-11.0292
▁newton	-11.0293
▁rv	-11.0293
▁rear	-11.0304
▁voted	-11.0306
▁endless	-11.0309
▁ruler	-11.0325
▁digital	-11.0326
▁adore	-11.0332
▁bosses	-11.0335
▁rage	-11.0346
▁logical	-11.0368
▁meth	-11.0403
ushi	-11.0417
▁inse	-11.0431
▁digg	-11.0433
▁hump	-11.0447
▁inventor	-11.0478
▁pasa	-11.0485
▁chug	-11.0651
▁admir	-11.0651
tten	-11.0652
ford	-11.0668
▁gla	-11.0673
tile	-11.0728
bility	-11.0764
▁compete	-11.084
▁caf	-11.0885
kov	-11.0907
▁skipp	-11.0925
▁que	-11.0997
▁defi	-11.1004
▁squi	-11.1006
▁sniff	-11.1029
▁negotiate	-11.1092
▁anal	-11.1174
▁cough	-11.1252
aste	-11.1286
▁tire	-11.1296
▁glove	-11.1309
▁technique	-11.131
inister	-11.1311
▁dom	-11.1318
▁von	-11.1355
humping	-11.1362
▁sil	-11.1399
orse	-11.1408
▁refer	-11.1504
▁promis	-11.1538
▁rais	-11.1538
▁profession	-11.1551
▁cycl	-11.1551
▁clatter	-11.1552
valent	-11.1563
▁peg	-11.1568
▁determine	-11.1579
maker	-11.1582
ought	-11.1589
fire	-11.159
speaker	-11.1594
proof	-11.1595
service	-11.1595
power	-11.1595
bird	-11.1595
▁terribl	-11.1596
year	-11.1596
▁jenn	-11.1597
write	-11.1598
wide	-11.16
match	-11.1602
▁radi	-11.1604
▁ash	-11.1608
▁champ	-11.1608
▁circ	-11.1608
▁hijack	-11.1609
▁peyt	-11.161
▁loyal	-11.1614
▁blank	-11.1614
▁occur	-11.1614
▁complex	-11.1615
▁cruci	-11.1615
▁forbid	-11.1615
▁tranquil	-11.1615
▁academy	-11.1615
▁accompan	-11.1615
▁accurate	-11.1615
▁activities	-11.1615
▁afghanistan	-11.1615
▁alejandro	-11.1615
▁alexandria	-11.1615
▁anthony	-11.1615
▁aristotle	-11.1615
▁aspirin	-11.1615
▁auction	-11.1615
▁bachelor	-11.1615
▁bailiff	-11.1615
▁bankrupt	-11.1615
▁barracks	-11.1615
▁behaviour	-11.1615
▁berryessa	-11.1615
▁boogeyman	-11.1615
▁breeze	-11.1615
▁brooklyn	-11.1615
▁casoria	-11.1615
▁ceremony	-11.1615
▁chiago	-11.1615
▁chloe	-11.1615
▁collins	-11.1615
▁companies	-11.1615
▁convention	-11.1615
▁corporal	-11.1615
▁corporation	-11.1615
▁creative	-11.1615
▁cricket	-11.1615
▁crucified	-11.1615
▁curtain	-11.1615
▁descend	-11.1615
▁disconnect	-11.1615
▁douche	-11.1615
▁dracula	-11.1615
▁eduardo	-11.1615
▁environment	-11.1615
▁escort	-11.1615
▁evolution	-11.1615
▁extraordinary	-11.1615
▁exwife	-11.1615
▁fantasy	-11.1615
▁feature	-11.1615
▁fitzpatrick	-11.1615
▁flaherty	-11.1615
▁fracture	-11.1615
▁galaxy	-11.1615
▁gladiator	-11.1615
▁gloria	-11.1615
▁gravity	-11.1615
▁greedy	-11.1615
▁hulka	-11.1615
▁imagination	-11.1615
▁influence	-11.1615
▁inspired	-11.1615
▁intercept	-11.1615
▁jensen	-11.1615
▁jeopard	-11.1615
▁katerina	-11.1615
▁kottke	-11.1615
▁krushka	-11.1615
▁kurosawa	-11.1615
▁lonesome	-11.1615
▁loomis	-11.1615
▁lorenson	-11.1615
▁manchester	-11.1615
▁manipulat	-11.1615
▁manufacture	-11.1615
▁merchant	-11.1615
▁muslim	-11.1615
▁neglect	-11.1615
▁nichola	-11.1615
▁nigga	-11.1615
▁nikki	-11.1615
▁obrien	-11.1615
▁obstacle	-11.1615
▁overwhelming	-11.1615
▁paranoia	-11.1615
▁penguin	-11.1615
▁pharmacy	-11.1615
▁philotas	-11.1615
▁phrase	-11.1615
▁pornography	-11.1615
▁portuguese	-11.1615
▁prettier	-11.1615
▁regulations	-11.1615
▁remarkable	-11.1615
▁representative	-11.1615
▁retirement	-11.1615
▁revenue	-11.1615
▁revolve	-11.1615
▁rumbling	-11.1615
▁salvation	-11.1615
▁sangria	-11.1615
▁script	-11.1615
▁seifert	-11.1615
▁sentencing	-11.1615
▁shudders	-11.1615
▁sidewalk	-11.1615
▁solaris	-11.1615
▁sparkle	-11.1615
▁squash	-11.1615
▁stairwell	-11.1615
▁statue	-11.1615
▁stevie	-11.1615
▁sullivan	-11.1615
▁suspended	-11.1615
▁sweep	-11.1615
▁sync	-11.1615
▁tehronne	-11.1615
▁tequila	-11.1615
▁valentina	-11.1615
▁vengeance	-11.1615
▁veronica	-11.1615
▁wrestling	-11.1615
▁amateur	-11.1615
▁ambush	-11.1615
▁anticipat	-11.1615
▁compliment	-11.1615
▁compound	-11.1615
▁devastat	-11.1615
▁elvis	-11.1615
▁england	-11.1615
▁florist	-11.1615
▁fruma	-11.1615
▁grief	-11.1615
▁hartog	-11.1615
▁hippo	-11.1615
▁inappropriate	-11.1615
▁intellectual	-11.1615
▁joshua	-11.1615
▁jungle	-11.1615
▁kassar	-11.1615
▁manifest	-11.1615
▁memorial	-11.1615
▁nickname	-11.1615
▁nixon	-11.1615
▁particip	-11.1615
▁recreation	-11.1615
▁scotch	-11.1615
▁semester	-11.1615
▁significant	-11.1615
▁surface	-11.1615
▁disorder	-11.1615
▁forbidden	-11.1615
▁fundamental	-11.1615
▁humiliate	-11.1615
▁inherit	-11.1615
▁martial	-11.1615
▁mumbling	-11.1615
▁nearchus	-11.1615
▁sunrise	-11.1615
▁elaine	-11.1615
▁creating	-11.1615
▁fingerprints	-11.1615
▁infected	-11.1615
▁nosebleed	-11.1615
▁select	-11.1615
▁skitter	-11.1615
▁warehouse	-11.1615
▁butcher	-11.1615
▁crooked	-11.1615
▁engel	-11.1615
▁jeffrey	-11.1615
▁jocke	-11.1615
▁obliged	-11.1615
▁applied	-11.1615
▁butterfly	-11.1615
▁consequences	-11.1615
▁hanson	-11.1615
▁merwe	-11.1615
▁ruched	-11.1615
▁samuel	-11.1615
▁zeca	-11.1615
▁abanks	-11.1615
▁coffin	-11.1615
▁content	-11.1615
▁koz	-11.1615
▁kumi	-11.1615
▁motive	-11.1615
▁niece	-11.1615
▁parasite	-11.1615
inlaw	-11.1615
▁bigalow	-11.1615
▁shaw	-11.1615
▁spear	-11.1615
▁cruise	-11.1615
▁headquarters	-11.1615
▁stacy	-11.1615
▁declare	-11.1615
▁spicy	-11.1615
▁heap	-11.1615
▁jelly	-11.1615
▁morri	-11.1615
▁kelly	-11.1615
▁overheat	-11.1615
▁render	-11.1615
▁tactic	-11.1615
▁dragged	-11.1615
▁tackle	-11.1615
▁eighteen	-11.1615
▁moore	-11.1615
▁slum	-11.1615
▁wren	-11.1615
▁volk	-11.1615
▁barrier	-11.1615
▁northwestern	-11.1616
▁skinheads	-11.1616
bbet	-11.1616
▁straining	-11.1616
▁hexa	-11.1616
▁preston	-11.1616
▁pussay	-11.1616
▁electronic	-11.1616
▁jules	-11.1616
▁bracelet	-11.1616
▁nadya	-11.1616
▁occurred	-11.1616
▁barrett	-11.1616
▁coughlin	-11.1616
▁buggs	-11.1616
▁maniac	-11.1616
▁principle	-11.1616
▁dorm	-11.1616
▁isis	-11.1616
▁alternative	-11.1616
▁donald	-11.1616
▁arsehole	-11.1616
▁vein	-11.1617
▁flank	-11.1617
▁saddle	-11.1617
▁butthole	-11.1617
▁carrot	-11.1617
▁plaza	-11.1617
▁rotten	-11.1617
▁friendlies	-11.1617
▁relevant	-11.1617
▁bitten	-11.1617
▁wrapped	-11.1617
▁tuition	-11.1617
▁cheque	-11.1617
▁fuss	-11.1617
▁display	-11.1617
▁addition	-11.1617
▁sau	-11.1617
▁resent	-11.1617
▁festival	-11.1617
▁begged	-11.1618
▁paso	-11.1618
▁thirteenth	-11.1618
▁lyle	-11.1618
▁backwards	-11.1618
▁polson	-11.1618
▁scoop	-11.1619
▁predictable	-11.1619
▁robot	-11.1619
▁deduc	-11.1619
▁ripped	-11.1619
think	-11.1619
▁waltz	-11.1619
▁dummy	-11.1619
▁nsa	-11.1619
▁sinned	-11.162
▁engagement	-11.162
▁sector	-11.162
▁portland	-11.162
▁cogs	-11.162
▁chow	-11.162
▁raid	-11.162
▁youth	-11.162
▁aggressive	-11.162
▁stabbing	-11.162
▁electricity	-11.1621
▁brendan	-11.1621
▁communist	-11.1621
▁affection	-11.1621
▁foul	-11.1621
▁cooperation	-11.1621
▁arabic	-11.1621
▁european	-11.1621
▁malia	-11.1622
▁flaps	-11.1622
▁resistance	-11.1622
▁courthouse	-11.1622
▁haircut	-11.1622
▁admitted	-11.1622
▁extraction	-11.1622
▁whoops	-11.1622
fall	-11.1623
▁chica	-11.1623
▁vibe	-11.1623
▁kirkland	-11.1624
▁layton	-11.1625
▁neur	-11.1625
▁poop	-11.1625
▁tort	-11.1626
▁mice	-11.1627
▁scam	-11.1627
▁oppos	-11.1627
▁nearby	-11.1627
▁winger	-11.1628
▁kong	-11.1628
▁appearance	-11.1628
▁mode	-11.1629
▁frustrated	-11.1629
▁spotted	-11.1629
▁bund	-11.1629
▁aero	-11.163
studies	-11.163
▁sharon	-11.163
▁erica	-11.1631
▁noon	-11.1631
▁shill	-11.1631
▁roam	-11.1631
▁controller	-11.1632
▁joanie	-11.1632
▁ditt	-11.1632
▁scum	-11.1632
▁quest	-11.1632
oquet	-11.1632
▁playbook	-11.1634
▁deny	-11.1634
▁oak	-11.1634
▁frontier	-11.1634
▁sensation	-11.1635
▁fitting	-11.1636
▁glow	-11.1637
▁condor	-11.1637
▁chai	-11.1637
▁shek	-11.1638
▁identified	-11.1638
▁controlled	-11.1638
▁deke	-11.1638
▁spir	-11.1639
call	-11.1642
▁passage	-11.1644
▁cmon	-11.1644
▁producer	-11.1645
how	-11.1646
▁soil	-11.1648
moon	-11.1648
gging	-11.165
▁controlling	-11.165
▁duh	-11.165
▁atm	-11.1651
ield	-11.1651
▁everyday	-11.1652
▁roommate	-11.1653
▁hola	-11.1653
▁sailor	-11.1656
▁rust	-11.1658
▁annie	-11.1658
▁ville	-11.166
▁wad	-11.1666
audi	-11.1669
▁nickel	-11.1669
▁vl	-11.1675
▁ak	-11.1676
▁gage	-11.1678
▁wel	-11.1678
▁cycle	-11.168
▁receiver	-11.168
▁preacher	-11.1682
▁mustard	-11.1682
▁hike	-11.1683
▁enh	-11.1688
▁heroes	-11.1689
▁tick	-11.1689
▁goons	-11.1714
▁deceiv	-11.1716
grove	-11.1727
▁ip	-11.1727
▁apo	-11.1751
generate	-11.1757
▁passion	-11.1769
gles	-11.1778
▁deni	-11.1788
▁provid	-11.1791
▁static	-11.1812
athy	-11.1818
▁domin	-11.1847
look	-11.1913
▁wherea	-11.1915
▁palm	-11.1969
▁rami	-11.2035
▁wea	-11.2053
ego	-11.2088
▁phan	-11.2142
ique	-11.2261
play	-11.2264
employment	-11.2327
spare	-11.234
▁devi	-11.2398
arian	-11.2403
lapping	-11.2416
mhm	-11.2453
▁tease	-11.2464
active	-11.2512
▁alan	-11.252
▁ava	-11.2569
dext	-11.2749
mmy	-11.2801
verge	-11.2819
▁righteous	-11.2823
izzl	-11.284
▁evacuate	-11.2858
▁limb	-11.2865
▁magical	-11.2893
▁cobr	-11.2911
▁whisper	-11.2917
▁jew	-11.2966
▁instinct	-11.2972
▁folk	-11.2982
▁beside	-11.2984
cola	-11.3117
▁digit	-11.3125
▁ador	-11.314
▁immortal	-11.3148
ceived	-11.3166
east	-11.3204
ancy	-11.3221
▁tow	-11.3221
▁disappoint	-11.3223
▁ohhh	-11.323
▁capture	-11.3246
▁wip	-11.3251
body	-11.3252
▁libert	-11.3253
▁facilit	-11.3254
authorized	-11.3261
count	-11.3261
print	-11.3261
school	-11.3262
strong	-11.3262
whoa	-11.3262
mouth	-11.3262
course	-11.3262
safe	-11.3264
▁unfortunate	-11.3265
▁intent	-11.3268
kids	-11.327
▁korea	-11.3272
▁livin	-11.3272
▁sittin	-11.3273
▁colon	-11.3278
▁multi	-11.3278
▁thirteen	-11.3279
▁drama	-11.3279
▁consist	-11.3281
speed	-11.3281
▁shaki	-11.3282
▁absolut	-11.3282
▁aggravat	-11.3282
▁intoxicat	-11.3282
efficient	-11.3282
▁acquire	-11.3282
▁alaikum	-11.3282
▁allergic	-11.3282
▁amsterdam	-11.3282
▁antigonus	-11.3282
▁approval	-11.3282
▁arguing	-11.3282
▁association	-11.3282
▁athlete	-11.3282
▁attalus	-11.3282
▁audition	-11.3282
▁babsie	-11.3282
▁bangkok	-11.3282
▁believing	-11.3282
▁blanston	-11.3282
▁blasphem	-11.3282
▁burbank	-11.3282
▁caravan	-11.3282
▁carnival	-11.3282
▁catacombs	-11.3282
▁catholic	-11.3282
▁centipede	-11.3282
▁cept	-11.3282
▁dalavan	-11.3282
▁depressing	-11.3282
▁despair	-11.3282
▁dionysus	-11.3282
▁disguise	-11.3282
▁disobey	-11.3282
▁dublin	-11.3282
▁dunleavy	-11.3282
▁easily	-11.3282
▁economic	-11.3282
▁eivind	-11.3282
▁elegant	-11.3282
▁eliminat	-11.3282
▁equation	-11.3282
▁excellence	-11.3282
▁excitement	-11.3282
▁explanation	-11.3282
▁fabric	-11.3282
▁ferrin	-11.3282
▁fingernail	-11.3282
▁flirting	-11.3282
▁forfeit	-11.3282
▁freud	-11.3282
▁gendarmerie	-11.3282
▁genuine	-11.3282
▁geoffrey	-11.3282
▁georgie	-11.3282
▁glorious	-11.3282
▁guidance	-11.3282
▁harvest	-11.3282
▁harvey	-11.3282
▁hilarious	-11.3282
▁hiphop	-11.3282
▁hodges	-11.3282
▁hotshot	-11.3282
▁humungus	-11.3282
▁iggy	-11.3282
▁immigra	-11.3282
▁inspiring	-11.3282
▁intact	-11.3282
▁intimidate	-11.3282
▁istanbul	-11.3282
▁jigsaw	-11.3282
▁judging	-11.3282
▁katrina	-11.3282
▁kettle	-11.3282
▁koobus	-11.3282
▁kuperman	-11.3282
▁laptop	-11.3282
▁lifestyle	-11.3282
▁lomax	-11.3282
▁lombardi	-11.3282
▁loneliness	-11.3282
▁lsrael	-11.3282
▁magnificent	-11.3282
▁majesti	-11.3282
▁manslaughter	-11.3282
▁markkula	-11.3282
▁martinelli	-11.3282
▁mcdonalds	-11.3282
▁mckenna	-11.3282
▁medevac	-11.3282
▁medieval	-11.3282
▁militia	-11.3282
▁miriam	-11.3282
▁monastery	-11.3282
▁murdock	-11.3282
▁mutual	-11.3282
▁nazareth	-11.3282
▁neighing	-11.3282
▁oogie	-11.3282
▁outstanding	-11.3282
▁pajamas	-11.3282
▁patroclus	-11.3282
▁peanut	-11.3282
▁peasant	-11.3282
▁perspective	-11.3282
▁pervert	-11.3282
▁pingpong	-11.3282
▁prescription	-11.3282
▁privacy	-11.3282
▁prostitute	-11.3282
▁psychic	-11.3282
▁ptolemy	-11.3282
▁quadrant	-11.3282
▁raccoon	-11.3282
▁refinery	-11.3282
▁revelation	-11.3282
▁scenario	-11.3282
▁scylla	-11.3282
▁september	-11.3282
▁shabbos	-11.3282
▁sketch	-11.3282
▁smurf	-11.3282
▁snitch	-11.3282
▁sophisticated	-11.3282
▁souvenir	-11.3282
▁specimen	-11.3282
▁stockholm	-11.3282
▁struggling	-11.3282
▁studied	-11.3282
▁subpoena	-11.3282
▁surrounding	-11.3282
▁sydney	-11.3282
▁sykes	-11.3282
▁syndrome	-11.3282
▁synthetic	-11.3282
▁thorough	-11.3282
▁trembling	-11.3282
▁troubling	-11.3282
▁truffle	-11.3282
▁tunnel	-11.3282
▁turbot	-11.3282
▁unfair	-11.3282
▁unhappy	-11.3282
▁unsolv	-11.3282
▁valentine	-11.3282
▁voltaire	-11.3282
▁walkietalkie	-11.3282
▁wrights	-11.3282
▁yllescas	-11.3282
▁campaign	-11.3282
▁comanche	-11.3282
▁compact	-11.3282
▁curti	-11.3282
▁disaster	-11.3282
▁disrupt	-11.3282
▁dizzy	-11.3282
▁drapes	-11.3282
▁graveyard	-11.3282
▁inconvenien	-11.3282
▁install	-11.3282
▁kalina	-11.3282
▁marianne	-11.3282
▁negro	-11.3282
▁permanent	-11.3282
▁picnic	-11.3282
▁quality	-11.3282
▁radek	-11.3282
▁redneck	-11.3282
▁shaving	-11.3282
▁twentyfive	-11.3282
▁worries	-11.3282
▁bleach	-11.3282
▁burnaley	-11.3282
▁colour	-11.3282
▁combination	-11.3282
▁gallery	-11.3282
▁handcuff	-11.3282
▁handshake	-11.3282
▁meenie	-11.3282
▁moreno	-11.3282
▁morgue	-11.3282
▁museum	-11.3282
▁pencil	-11.3282
▁purple	-11.3282
▁relieve	-11.3282
▁southwest	-11.3282
▁suburb	-11.3282
▁bleating	-11.3282
▁chapman	-11.3282
▁collar	-11.3282
▁firefight	-11.3282
▁glitch	-11.3282
▁scatter	-11.3282
▁shelter	-11.3282
▁sprout	-11.3282
▁violin	-11.3282
▁courtyard	-11.3282
▁eagle	-11.3282
▁hunk	-11.3282
▁reckless	-11.3282
▁spooked	-11.3282
▁domain	-11.3282
▁islam	-11.3282
▁cynic	-11.3282
▁royce	-11.3282
▁bookstore	-11.3282
▁throne	-11.3282
▁spoor	-11.3282
▁lodge	-11.3282
▁raylee	-11.3282
▁cabinet	-11.3282
▁frog	-11.3282
▁alexei	-11.3282
▁clerk	-11.3282
▁epic	-11.3282
▁donuts	-11.3282
▁absence	-11.3282
▁creation	-11.3282
▁democrat	-11.3282
▁lyons	-11.3282
▁maury	-11.3282
▁cunningham	-11.3282
▁bladd	-11.3282
▁sincerity	-11.3282
▁sofa	-11.3282
▁torch	-11.3282
▁ifth	-11.3282
▁margin	-11.3282
▁anyhow	-11.3282
▁blink	-11.3282
▁jammed	-11.3282
▁tolling	-11.3282
▁microphone	-11.3282
▁jingling	-11.3282
▁doomed	-11.3282
▁holly	-11.3282
▁slipping	-11.3282
▁stasi	-11.3282
▁hamburger	-11.3282
▁nanex	-11.3282
▁scoot	-11.3282
▁foster	-11.3282
▁ledger	-11.3282
▁briefcase	-11.3282
▁thudding	-11.3283
▁yves	-11.3283
elching	-11.3283
▁binding	-11.3283
▁veal	-11.3283
▁bount	-11.3283
▁backyard	-11.3283
▁gooks	-11.3283
▁trading	-11.3283
▁drummer	-11.3283
▁eviction	-11.3283
▁preferably	-11.3283
▁crackles	-11.3283
▁convo	-11.3283
▁comiccon	-11.3283
▁stabbed	-11.3283
▁beacon	-11.3284
▁recent	-11.3284
▁valium	-11.3284
▁backache	-11.3284
▁hazard	-11.3284
▁randy	-11.3284
▁transferred	-11.3284
▁carolina	-11.3284
▁evacuation	-11.3284
▁vicki	-11.3284
▁operator	-11.3284
▁panties	-11.3284
▁intensity	-11.3284
▁doggy	-11.3284
inski	-11.3284
▁continuous	-11.3284
▁tuning	-11.3285
▁vicious	-11.3285
▁avenge	-11.3285
▁hassle	-11.3285
▁passionate	-11.3285
▁kidnapper	-11.3285
▁sunlight	-11.3285
▁elsa	-11.3285
▁duties	-11.3285
▁disappointment	-11.3285
▁entrance	-11.3285
▁howling	-11.3285
▁edwin	-11.3285
▁membership	-11.3286
▁whorehouse	-11.3286
▁pussies	-11.3286
▁retai	-11.3286
▁commend	-11.3286
▁chipper	-11.3287
▁horseshit	-11.3287
▁suffo	-11.3287
▁lousy	-11.3287
▁perez	-11.3287
▁outof	-11.3287
▁moses	-11.3287
▁clapping	-11.3287
▁journalist	-11.3288
▁bolt	-11.3288
▁embarrassment	-11.3288
▁departure	-11.3288
▁nosy	-11.3288
▁tasty	-11.3288
▁investment	-11.3288
▁ridge	-11.3288
▁grape	-11.3288
▁grill	-11.3289
▁mouse	-11.3289
▁hijackers	-11.3289
▁lamar	-11.3289
▁priority	-11.3289
▁beginner	-11.3289
▁tomatoes	-11.329
▁rising	-11.329
▁shipped	-11.3291
▁elsewhere	-11.3291
▁flame	-11.3291
▁chimes	-11.3291
▁rega	-11.3291
▁puss	-11.3292
▁korean	-11.3292
▁spaz	-11.3292
▁liberat	-11.3292
▁sacramento	-11.3292
▁conductor	-11.3293
▁erect	-11.3294
▁woof	-11.3294
▁beings	-11.3294
▁fourteen	-11.3294
▁percentage	-11.3294
▁allan	-11.3295
▁premi	-11.3295
▁traditional	-11.3295
▁conny	-11.3295
▁popped	-11.3296
▁hart	-11.3296
▁oren	-11.3297
▁kay	-11.3297
▁reflection	-11.3297
water	-11.3298
▁oral	-11.3298
▁sanderson	-11.3298
▁expression	-11.3299
▁prank	-11.33
▁ahhh	-11.33
▁facebook	-11.3301
▁root	-11.3301
owski	-11.3301
ummies	-11.3302
▁betrayal	-11.3302
▁dishes	-11.3304
▁groom	-11.3308
▁curl	-11.331
▁gambler	-11.331
▁shipment	-11.3313
▁thug	-11.3314
▁accountant	-11.3314
▁accusation	-11.3316
▁mule	-11.3317
▁modest	-11.3319
▁fries	-11.3326
▁roth	-11.3331
▁restore	-11.3332
▁slug	-11.3333
where	-11.3338
▁qui	-11.3352
▁songwrit	-11.3353
hair	-11.3368
▁bash	-11.3386
uddy	-11.3389
▁avie	-11.3394
ella	-11.3458
▁whwh	-11.3466
▁kneel	-11.3485
▁coco	-11.3494
▁oro	-11.3519
aver	-11.356
▁rum	-11.3577
▁wage	-11.3638
life	-11.3655
▁probabilit	-11.3708
goddam	-11.3724
exia	-11.3779
▁earl	-11.3838
▁micro	-11.3839
heim	-11.3841
tox	-11.3877
▁there	-11.3906
izz	-11.3964
▁chim	-11.4187
issa	-11.4219
▁burr	-11.4248
tock	-11.4255
▁terminat	-11.4402
▁toxicolog	-11.4514
pitched	-11.4594
crib	-11.4635
▁resid	-11.473
▁span	-11.4748
corps	-11.4755
▁sigh	-11.4928
eggy	-11.4937
▁republican	-11.4973
▁breast	-11.4975
posed	-11.4988
ifies	-11.5148
▁releas	-11.5166
▁flop	-11.5191
▁murmur	-11.5218
▁attach	-11.5227
▁psycholog	-11.5228
▁gamble	-11.5247
▁confuse	-11.5248
▁filth	-11.5253
▁thirst	-11.5253
▁intens	-11.5259
plane	-11.5259
crow	-11.526
lasting	-11.526
girl	-11.5261
american	-11.5262
bridge	-11.5262
sexual	-11.5262
voice	-11.5262
yearold	-11.5262
around	-11.5262
level	-11.5262
john	-11.5263
shore	-11.5263
seven	-11.5263
▁constant	-11.5265
▁technical	-11.5265
fart	-11.5265
six	-11.5268
▁reflect	-11.5271
▁tomato	-11.5272
▁inspect	-11.5274
▁marshal	-11.5275
amber	-11.5276
▁construct	-11.5277
▁enforce	-11.5279
▁chronic	-11.528
▁dispos	-11.5281
xico	-11.5281
▁hawk	-11.5282
▁rehabilitat	-11.5282
▁contribut	-11.5282
▁depriv	-11.5282
▁destruct	-11.5282
▁metaphor	-11.5282
▁prohibit	-11.5282
hnikov	-11.5282
ijuana	-11.5282
synchronize	-11.5282
▁absurd	-11.5282
▁accomplice	-11.5282
▁accordance	-11.5282
▁adrenaline	-11.5282
▁advisor	-11.5282
▁afghan	-11.5282
▁alligator	-11.5282
▁altogether	-11.5282
▁amazon	-11.5282
▁anchor	-11.5282
▁ancient	-11.5282
▁anxiety	-11.5282
▁arbitration	-11.5282
▁arizona	-11.5282
▁asparagus	-11.5282
▁avalanche	-11.5282
▁baltimore	-11.5282
▁basileus	-11.5282
▁battalion	-11.5282
▁bellasarious	-11.5282
▁belvedere	-11.5282
▁billionaire	-11.5282
▁brandnew	-11.5282
▁brewster	-11.5282
▁brockovich	-11.5282
▁bundermann	-11.5282
▁celebrities	-11.5282
▁cereal	-11.5282
▁certificate	-11.5282
▁cherubini	-11.5282
▁choosing	-11.5282
▁complication	-11.5282
▁concentration	-11.5282
▁confusion	-11.5282
▁congratulate	-11.5282
▁console	-11.5282
▁controversy	-11.5282
▁convert	-11.5282
▁corridor	-11.5282
▁coventry	-11.5282
▁decapitate	-11.5282
▁dehaven	-11.5282
▁demonstrate	-11.5282
▁devoted	-11.5282
▁discretion	-11.5282
▁eamons	-11.5282
▁economy	-11.5282
▁educate	-11.5282
▁encouraging	-11.5282
▁engaging	-11.5282
▁enthusiasm	-11.5282
▁envelope	-11.5282
▁eskimo	-11.5282
▁eurydice	-11.5282
▁exaggerating	-11.5282
▁exorcism	-11.5282
▁faulkner	-11.5282
▁february	-11.5282
▁fergie	-11.5282
▁fishbowl	-11.5282
▁forensic	-11.5282
▁fountain	-11.5282
▁granny	-11.5282
▁horrific	-11.5282
▁hydraulic	-11.5282
▁hydro	-11.5282
▁hypo	-11.5282
▁hypocrite	-11.5282
▁hypothetically	-11.5282
▁impotent	-11.5282
▁incorporated	-11.5282
▁ingredient	-11.5282
▁institute	-11.5282
▁interpreter	-11.5282
▁jacobs	-11.5282
▁janitor	-11.5282
▁joliet	-11.5282
▁jonathan	-11.5282
▁kelevra	-11.5282
▁ketchup	-11.5282
▁kilometer	-11.5282
▁kinky	-11.5282
▁koslova	-11.5282
▁kristen	-11.5282
▁lavrenti	-11.5282
▁leaf	-11.5282
▁leondria	-11.5282
▁levenstein	-11.5282
▁mandatory	-11.5282
▁marvelous	-11.5282
▁minnesota	-11.5282
▁misunderstood	-11.5282
▁mongrel	-11.5282
▁montana	-11.5282
▁mortgage	-11.5282
▁necessity	-11.5282
▁nigerian	-11.5282
▁nightclub	-11.5282
▁nikita	-11.5282
▁ninetythousand	-11.5282
▁notorious	-11.5282
▁obsession	-11.5282
▁occupied	-11.5282
▁offlimits	-11.5282
▁olympia	-11.5282
▁orchestra	-11.5282
▁orlando	-11.5282
▁overbilling	-11.5282
▁oxygen	-11.5282
▁pagniacci	-11.5282
▁painkillers	-11.5282
▁pancakes	-11.5282
▁pausanias	-11.5282
▁phalanx	-11.5282
▁politician	-11.5282
▁polnikov	-11.5282
▁preserve	-11.5282
▁producing	-11.5282
▁puttnam	-11.5282
▁rebuil	-11.5282
▁recognition	-11.5282
▁reduction	-11.5282
▁refusing	-11.5282
▁religion	-11.5282
▁rendezvous	-11.5282
▁rutherford	-11.5282
▁sanitarium	-11.5282
▁satchmo	-11.5282
▁satisfy	-11.5282
▁schanberg	-11.5282
▁selfconscious	-11.5282
▁seminar	-11.5282
▁sfpd	-11.5282
▁shakespeare	-11.5282
▁shareholders	-11.5282
▁shrieking	-11.5282
▁shuddering	-11.5282
▁smurfette	-11.5282
▁splutters	-11.5282
▁sunglasses	-11.5282
▁switzerland	-11.5282
▁symptoms	-11.5282
▁thatthat	-11.5282
▁throughout	-11.5282
▁tolerate	-11.5282
▁transcript	-11.5282
▁treasure	-11.5282
▁tremendous	-11.5282
▁twilight	-11.5282
▁typical	-11.5282
▁unanimous	-11.5282
▁uncontroll	-11.5282
▁undercover	-11.5282
▁utilidor	-11.5282
▁vintage	-11.5282
▁vitamins	-11.5282
▁volmer	-11.5282
▁vulgar	-11.5282
▁walden	-11.5282
▁watermelon	-11.5282
▁watkins	-11.5282
▁whereabouts	-11.5282
▁yakitito	-11.5282
▁yelps	-11.5282
▁yitzchok	-11.5282
▁zhenya	-11.5282
▁aaaah	-11.5282
▁blowjob	-11.5282
▁buffet	-11.5282
▁caliber	-11.5282
▁centuries	-11.5282
▁cherita	-11.5282
▁compartment	-11.5282
▁courier	-11.5282
▁distinguish	-11.5282
▁dripping	-11.5282
▁expedition	-11.5282
▁facetoface	-11.5282
▁garlic	-11.5282
▁gibson	-11.5282
▁hashtag	-11.5282
▁identical	-11.5282
▁identification	-11.5282
▁ifwe	-11.5282
▁ifyou	-11.5282
▁inquir	-11.5282
▁leap	-11.5282
▁lesbian	-11.5282
▁louisiana	-11.5282
▁machete	-11.5282
▁midterm	-11.5282
▁midwest	-11.5282
▁mistress	-11.5282
▁pepsi	-11.5282
▁proposition	-11.5282
▁pulse	-11.5282
▁reflex	-11.5282
▁remix	-11.5282
▁resurrect	-11.5282
▁revue	-11.5282
▁sponsor	-11.5282
▁tanaka	-11.5282
▁triangle	-11.5282
▁trousers	-11.5282
▁twitter	-11.5282
▁unleash	-11.5282
▁verbier	-11.5282
▁vertical	-11.5282
▁aqua	-11.5282
▁aqui	-11.5282
▁blaze	-11.5282
▁boogie	-11.5282
▁deploy	-11.5282
▁embrace	-11.5282
▁lamont	-11.5282
▁morgen	-11.5282
▁obtain	-11.5282
▁overcome	-11.5282
▁parlor	-11.5282
▁penalty	-11.5282
▁rooftop	-11.5282
▁schenk	-11.5282
▁uncover	-11.5282
▁vouch	-11.5282
▁wannabe	-11.5282
▁wheezing	-11.5282
▁amaze	-11.5282
▁blackmail	-11.5282
▁fierce	-11.5282
▁forrest	-11.5282
▁guinea	-11.5282
▁hollow	-11.5282
▁klaus	-11.5282
▁lobster	-11.5282
▁napoleon	-11.5282
▁smear	-11.5282
▁snail	-11.5282
▁chore	-11.5282
▁flick	-11.5282
▁kessi	-11.5282
▁parrot	-11.5282
▁supervis	-11.5282
▁bruno	-11.5282
▁caesar	-11.5282
▁chalk	-11.5282
▁cruel	-11.5282
▁cuba	-11.5282
▁graphic	-11.5282
▁outcome	-11.5282
▁slack	-11.5282
▁theft	-11.5282
▁ththat	-11.5282
▁wrinkle	-11.5282
▁blaming	-11.5282
▁conceal	-11.5282
▁dalton	-11.5282
▁singular	-11.5282
▁spike	-11.5282
▁wagon	-11.5282
sequence	-11.5282
▁bhai	-11.5282
▁phillip	-11.5282
▁whew	-11.5282
▁enola	-11.5282
▁malala	-11.5282
▁martha	-11.5282
▁analyst	-11.5282
▁panicked	-11.5282
▁salary	-11.5282
▁scandal	-11.5282
▁unstable	-11.5282
▁doodle	-11.5282
▁explore	-11.5282
▁frightening	-11.5282
▁spoon	-11.5282
▁hinda	-11.5282
▁nevertheless	-11.5282
▁jvc	-11.5282
▁ogre	-11.5282
▁collaborat	-11.5282
seif	-11.5282
▁doyle	-11.5282
▁hardworking	-11.5282
▁prophet	-11.5282
▁depth	-11.5282
▁truthfully	-11.5282
▁bandaid	-11.5282
▁cheesy	-11.5282
▁combined	-11.5282
▁canvas	-11.5282
▁disabled	-11.5282
▁bennet	-11.5282
▁glorifie	-11.5282
▁superstar	-11.5282
▁holler	-11.5282
▁whatsoever	-11.5282
▁minus	-11.5282
▁ridden	-11.5282
▁veil	-11.5282
▁backstage	-11.5282
▁aisle	-11.5282
▁tweet	-11.5282
▁pawn	-11.5282
▁obli	-11.5282
▁anus	-11.5282
▁italy	-11.5282
▁salon	-11.5282
▁eyeballs	-11.5282
origin	-11.5282
▁repuls	-11.5282
▁communism	-11.5282
▁mammals	-11.5282
▁icu	-11.5282
▁judy	-11.5282
▁condoms	-11.5282
▁stash	-11.5282
▁insight	-11.5282
▁evie	-11.5283
▁illusion	-11.5283
▁divert	-11.5283
▁carpet	-11.5283
▁drugged	-11.5283
▁funky	-11.5283
▁sensible	-11.5283
▁resign	-11.5283
▁fordham	-11.5283
▁ashley	-11.5283
▁notification	-11.5283
▁biologist	-11.5283
toxins	-11.5283
▁innovat	-11.5283
▁consume	-11.5283
ficial	-11.5283
▁sidelines	-11.5283
▁springfield	-11.5283
▁arsch	-11.5283
▁rican	-11.5284
▁sammy	-11.5284
▁cartoonist	-11.5284
▁decay	-11.5284
▁specta	-11.5284
▁bugged	-11.5284
▁carver	-11.5284
▁clinic	-11.5284
▁knickers	-11.5284
▁dried	-11.5284
▁lowlife	-11.5284
▁pirate	-11.5284
▁antique	-11.5285
▁furious	-11.5285
▁scarlet	-11.5285
▁transition	-11.5285
▁spinning	-11.5285
▁feast	-11.5285
▁tiger	-11.5285
▁disposable	-11.5285
▁pending	-11.5285
▁broadway	-11.5285
▁bluff	-11.5285
▁spotlight	-11.5285
▁fragment	-11.5285
▁racine	-11.5286
▁molina	-11.5286
propria	-11.5286
▁mariana	-11.5286
▁humble	-11.5286
▁titty	-11.5286
▁snorting	-11.5286
▁tsk	-11.5286
▁yyou	-11.5286
▁delta	-11.5286
▁defect	-11.5286
▁troph	-11.5286
▁modifie	-11.5286
▁tango	-11.5286
▁prize	-11.5287
▁cancelled	-11.5287
▁glob	-11.5287
▁pinned	-11.5287
▁pike	-11.5287
▁blend	-11.5287
▁reset	-11.5287
▁stump	-11.5287
▁peach	-11.5287
▁fond	-11.5287
▁slipped	-11.5287
▁lump	-11.5288
▁excessive	-11.5288
▁vista	-11.5288
▁whee	-11.5289
▁stunt	-11.5289
▁undergo	-11.5289
▁accountability	-11.5289
▁temptation	-11.529
winkle	-11.529
▁ferry	-11.529
▁rail	-11.529
▁poach	-11.529
▁prepped	-11.529
▁chili	-11.5291
▁chatting	-11.5291
▁virginia	-11.5291
▁shack	-11.5291
▁rico	-11.5291
▁toot	-11.5293
▁allah	-11.5293
▁tension	-11.5294
▁objective	-11.5295
▁lime	-11.5295
▁upper	-11.5296
▁diane	-11.5296
▁revo	-11.5297
minator	-11.5297
▁fame	-11.53
▁gangster	-11.5304
closure	-11.531
▁fide	-11.531
rational	-11.5313
▁bootleggin	-11.5314
▁designat	-11.5317
▁unsee	-11.5323
▁semi	-11.533
dental	-11.533
▁psychological	-11.5335
arleen	-11.5363
▁dash	-11.5378
▁deviate	-11.5399
▁frag	-11.5452
▁pervers	-11.5489
▁justif	-11.5501
▁hisse	-11.5549
code	-11.5563
▁uphol	-11.5597
▁declin	-11.5633
▁israel	-11.5646
horn	-11.5692
citing	-11.574
burger	-11.5801
▁pom	-11.5807
▁chan	-11.5849
opher	-11.6028
▁doj	-11.6071
hamm	-11.6242
▁despise	-11.6257
termination	-11.6262
▁separat	-11.6502
avo	-11.6519
productive	-11.6543
induced	-11.6621
ladi	-11.6763
oscope	-11.6969
trol	-11.7042
▁purchas	-11.7136
▁subtitle	-11.7479
two	-11.7504
▁charg	-11.7517
trina	-11.753
abilities	-11.7536
retches	-11.7572
ologist	-11.7616
▁angl	-11.7674
▁manwhor	-11.768
▁equi	-11.7683
▁slic	-11.7688
▁disgust	-11.7719
▁blond	-11.7723
▁dedicate	-11.7745
▁explode	-11.7745
▁bootleg	-11.7749
▁conti	-11.775
function	-11.7761
stream	-11.7761
fruit	-11.7761
comfort	-11.7761
quarter	-11.7762
screw	-11.7762
knife	-11.7762
minute	-11.7762
finished	-11.7762
important	-11.7762
figure	-11.7762
crazy	-11.7762
christ	-11.7762
shoot	-11.7763
pole	-11.7765
▁precise	-11.7765
▁heavi	-11.7765
▁griff	-11.7766
▁govern	-11.7766
liberation	-11.7767
▁happie	-11.7768
wrote	-11.7771
walkin	-11.7772
▁brenda	-11.7772
▁leavin	-11.7772
▁tempt	-11.7772
▁populat	-11.7773
broad	-11.7776
heart	-11.7776
▁entertain	-11.7779
▁relev	-11.7779
storm	-11.7779
▁cartoon	-11.778
▁intelligen	-11.778
▁francis	-11.778
▁orphan	-11.778
clusive	-11.778
▁bodi	-11.7781
▁detain	-11.7781
ptured	-11.7781
▁municipal	-11.7782
▁harbor	-11.7782
psychiatri	-11.7782
▁constipat	-11.7782
▁contaminat	-11.7782
▁deteriorat	-11.7782
constitute	-11.7782
dynamic	-11.7782
▁abducted	-11.7782
▁abduction	-11.7782
▁adderall	-11.7782
▁affirmative	-11.7782
▁aggression	-11.7782
▁aldren	-11.7782
▁altitude	-11.7782
▁ammunition	-11.7782
▁amnesty	-11.7782
▁anomaly	-11.7782
▁antibiotic	-11.7782
▁antipater	-11.7782
▁antonio	-11.7782
▁argentina	-11.7782
▁arrogance	-11.7782
▁asthma	-11.7782
▁auriga	-11.7782
▁bannion	-11.7782
▁barnicke	-11.7782
▁beautifui	-11.7782
▁bizarre	-11.7782
▁bolitonov	-11.7782
▁bourbon	-11.7782
▁breakthrough	-11.7782
▁briggs	-11.7782
▁brikowsk	-11.7782
▁brokaw	-11.7782
▁bucephalus	-11.7782
▁bulganin	-11.7782
▁bushwick	-11.7782
▁calculator	-11.7782
▁carnivore	-11.7782
▁cathedral	-11.7782
▁catherine	-11.7782
▁cetera	-11.7782
▁chamomile	-11.7782
▁chitchat	-11.7782
▁competitor	-11.7782
▁conclusion	-11.7782
▁consecutive	-11.7782
▁contradict	-11.7782
▁convenience	-11.7782
▁copiague	-11.7782
▁corpsmen	-11.7782
▁cottage	-11.7782
▁curfew	-11.7782
▁davrow	-11.7782
▁decommissioned	-11.7782
▁demurrer	-11.7782
▁depravity	-11.7782
▁describing	-11.7782
▁dessert	-11.7782
▁destitute	-11.7782
▁dinosaur	-11.7782
▁disbarred	-11.7782
▁disciples	-11.7782
▁dispute	-11.7782
▁distinct	-11.7782
▁downhill	-11.7782
▁dreadful	-11.7782
▁dweeb	-11.7782
▁easiest	-11.7782
▁elaziz	-11.7782
▁epilogue	-11.7782
▁essential	-11.7782
▁eustice	-11.7782
▁exaggerate	-11.7782
▁exhibit	-11.7782
▁exhusband	-11.7782
▁exmilitary	-11.7782
▁exploit	-11.7782
▁exquisite	-11.7782
▁extension	-11.7782
▁felipe	-11.7782
▁feud	-11.7782
▁forgave	-11.7782
▁fortyeight	-11.7782
▁franchise	-11.7782
▁frequency	-11.7782
▁gaugamela	-11.7782
▁genogram	-11.7782
▁gilbert	-11.7782
▁glynnis	-11.7782
▁goldfarb	-11.7782
▁greeting	-11.7782
▁gretchen	-11.7782
▁gypsy	-11.7782
▁hallucinating	-11.7782
▁hallucination	-11.7782
▁hancock	-11.7782
▁handkerchief	-11.7782
▁hebitch	-11.7782
▁heterosexual	-11.7782
▁hiccups	-11.7782
▁hobbies	-11.7782
▁horrid	-11.7782
▁huddle	-11.7782
▁impolite	-11.7782
▁imprisoned	-11.7782
▁incriminating	-11.7782
▁indebted	-11.7782
▁ineffective	-11.7782
▁innocence	-11.7782
▁interrogator	-11.7782
▁intimidati	-11.7782
▁invasion	-11.7782
▁isolation	-11.7782
▁johannesburg	-11.7782
▁jurisdiction	-11.7782
▁kaganovich	-11.7782
▁kehoe	-11.7782
▁kennilworth	-11.7782
▁knuckles	-11.7782
▁koppes	-11.7782
▁kriticos	-11.7782
▁limpdick	-11.7782
▁luggage	-11.7782
▁lynch	-11.7782
▁magloan	-11.7782
▁malnick	-11.7782
▁manufacturing	-11.7782
▁marathon	-11.7782
▁marshmallow	-11.7782
▁marvellous	-11.7782
▁mccabe	-11.7782
▁megahertz	-11.7782
▁minivan	-11.7782
▁monsieur	-11.7782
▁mugwump	-11.7782
▁mulholland	-11.7782
▁narcissis	-11.7782
▁necessarily	-11.7782
▁necklace	-11.7782
▁nietzsche	-11.7782
▁nipple	-11.7782
▁nitti	-11.7782
▁nowadays	-11.7782
▁nuclear	-11.7782
▁offseason	-11.7782
▁oklahoma	-11.7782
▁omelet	-11.7782
▁opportunities	-11.7782
▁optimis	-11.7782
▁outspoken	-11.7782
▁pediatric	-11.7782
▁pentagon	-11.7782
▁pharaoh	-11.7782
▁phenomenon	-11.7782
▁phoenix	-11.7782
▁pilates	-11.7782
▁pistachio	-11.7782
▁platform	-11.7782
▁politovsky	-11.7782
▁possibilities	-11.7782
▁precaution	-11.7782
▁prometheus	-11.7782
▁pseudonym	-11.7782
▁quebec	-11.7782
▁rearview	-11.7782
▁recognise	-11.7782
▁recompil	-11.7782
▁reconstruction	-11.7782
▁redemption	-11.7782
▁rehearsing	-11.7782
▁reschedule	-11.7782
▁resources	-11.7782
▁respirator	-11.7782
▁retrograde	-11.7782
▁roxane	-11.7782
▁sabbath	-11.7782
▁sanatorium	-11.7782
▁sarcasm	-11.7782
▁scallop	-11.7782
▁schmuck	-11.7782
▁schwarz	-11.7782
▁scrawny	-11.7782
▁sculpture	-11.7782
▁selfdefense	-11.7782
▁selfrighteous	-11.7782
▁semantics	-11.7782
▁sensitivity	-11.7782
▁sentimental	-11.7782
▁sequel	-11.7782
▁shitbrick	-11.7782
▁shrieks	-11.7782
▁shriveled	-11.7782
▁smuggling	-11.7782
▁snuffles	-11.7782
▁sophistication	-11.7782
▁sorceress	-11.7782
▁spectacular	-11.7782
▁sslimonov	-11.7782
▁stitches	-11.7782
▁strawberries	-11.7782
▁stubborn	-11.7782
▁substitute	-11.7782
▁summary	-11.7782
▁supernatura	-11.7782
▁supplies	-11.7782
▁surprising	-11.7782
▁swept	-11.7782
▁telepathic	-11.7782
▁telluride	-11.7782
▁titanium	-11.7782
▁treacher	-11.7782
▁tsunaron	-11.7782
▁turbulence	-11.7782
▁udall	-11.7782
▁umbrella	-11.7782
▁underestimate	-11.7782
▁unexpected	-11.7782
▁unnecessary	-11.7782
▁unofficial	-11.7782
▁unpleasant	-11.7782
▁unwavering	-11.7782
▁vacuum	-11.7782
▁volcano	-11.7782
▁voluntarily	-11.7782
▁voyles	-11.7782
▁waturi	-11.7782
▁wertzner	-11.7782
▁wilkes	-11.7782
▁wisconsin	-11.7782
▁wizard	-11.7782
▁xerox	-11.7782
▁yeehaw	-11.7782
▁zealot	-11.7782
▁advertis	-11.7782
▁analyze	-11.7782
▁autism	-11.7782
▁balcony	-11.7782
▁beneficial	-11.7782
▁burglar	-11.7782
▁capacity	-11.7782
▁charade	-11.7782
▁choreograph	-11.7782
▁cuckoo	-11.7782
▁cuida	-11.7782
▁detlev	-11.7782
▁dictate	-11.7782
▁disregard	-11.7782
▁endeavor	-11.7782
▁endtoend	-11.7782
▁galilee	-11.7782
▁gossip	-11.7782
▁inspiration	-11.7782
▁masseuse	-11.7782
▁melody	-11.7782
▁mutilat	-11.7782
▁neuf	-11.7782
▁overreact	-11.7782
▁psyche	-11.7782
▁reanimat	-11.7782
▁roaches	-11.7782
▁saloon	-11.7782
▁senhor	-11.7782
▁shelby	-11.7782
▁signature	-11.7782
▁simulation	-11.7782
▁sleaz	-11.7782
▁slope	-11.7782
▁substance	-11.7782
▁travis	-11.7782
▁typing	-11.7782
▁vienna	-11.7782
▁belarus	-11.7782
▁characteristic	-11.7782
▁fabio	-11.7782
▁fumble	-11.7782
▁habib	-11.7782
▁intrud	-11.7782
▁jersey	-11.7782
▁jorge	-11.7782
▁josef	-11.7782
▁occupation	-11.7782
▁overflow	-11.7782
▁preparation	-11.7782
▁rainbow	-11.7782
▁relocate	-11.7782
▁samurai	-11.7782
▁subversi	-11.7782
▁vault	-11.7782
▁witty	-11.7782
▁alphabet	-11.7782
▁apollo	-11.7782
▁communication	-11.7782
▁crotch	-11.7782
▁reassure	-11.7782
▁reserve	-11.7782
▁telex	-11.7782
▁bellhop	-11.7782
▁bikini	-11.7782
▁cloister	-11.7782
▁crucify	-11.7782
▁dignity	-11.7782
▁grandparent	-11.7782
▁hector	-11.7782
▁inhaler	-11.7782
▁kinsa	-11.7782
▁lecture	-11.7782
▁millionaire	-11.7782
▁resort	-11.7782
▁siege	-11.7782
▁snipe	-11.7782
▁spooky	-11.7782
▁stabilize	-11.7782
▁bagoas	-11.7782
▁expired	-11.7782
▁glide	-11.7782
▁resembl	-11.7782
▁saturn	-11.7782
▁sheila	-11.7782
▁thigh	-11.7782
▁transgene	-11.7782
▁woah	-11.7782
▁annoyed	-11.7782
▁bronx	-11.7782
▁bronze	-11.7782
▁charter	-11.7782
▁geology	-11.7782
▁handicap	-11.7782
▁noshow	-11.7782
▁stephanie	-11.7782
▁testicle	-11.7782
forsaken	-11.7782
▁edgar	-11.7782
▁erotic	-11.7782
▁input	-11.7782
▁nolan	-11.7782
▁smack	-11.7782
▁spunk	-11.7782
▁storage	-11.7782
▁torso	-11.7782
▁exotic	-11.7782
▁hyper	-11.7782
▁prius	-11.7782
▁token	-11.7782
▁unpack	-11.7782
▁wewe	-11.7782
▁annual	-11.7782
▁cannon	-11.7782
▁leverage	-11.7782
▁strut	-11.7782
▁urgh	-11.7782
▁gravy	-11.7782
▁juicy	-11.7782
▁linwood	-11.7782
▁slov	-11.7782
▁verbal	-11.7782
appointed	-11.7782
▁coworker	-11.7782
▁strangle	-11.7782
▁romanians	-11.7782
▁deadliest	-11.7782
▁debate	-11.7782
▁ninth	-11.7782
▁shura	-11.7782
▁licence	-11.7782
▁sermon	-11.7782
▁spray	-11.7782
▁earrings	-11.7782
▁harmony	-11.7782
▁jackpot	-11.7782
▁courtney	-11.7782
▁particle	-11.7782
▁klan	-11.7782
▁arena	-11.7782
▁derek	-11.7782
▁krass	-11.7782
▁alamo	-11.7782
▁entity	-11.7782
▁yacht	-11.7782
▁africanamerican	-11.7782
▁emperor	-11.7782
▁marques	-11.7782
▁middlesex	-11.7782
▁sinners	-11.7782
▁specs	-11.7782
▁metallic	-11.7782
▁lrene	-11.7782
▁hysterical	-11.7782
▁sperm	-11.7782
▁vamos	-11.7782
▁anke	-11.7782
▁classmates	-11.7782
▁clap	-11.7782
▁grip	-11.7782
ogenic	-11.7782
▁unreal	-11.7782
▁descent	-11.7782
▁detest	-11.7782
▁slit	-11.7782
mmmmm	-11.7782
▁nanny	-11.7782
qualify	-11.7782
▁merit	-11.7782
▁contingenc	-11.7783
▁tyre	-11.7783
▁vlogg	-11.7783
▁emerge	-11.7783
▁moderate	-11.7783
dispensa	-11.7783
▁mvd	-11.7783
▁gollings	-11.7783
▁abdom	-11.7783
▁bliss	-11.7783
▁carbon	-11.7783
▁monstro	-11.7783
▁redact	-11.7783
▁neighbourhood	-11.7783
▁evasion	-11.7783
▁persist	-11.7783
▁keg	-11.7783
violate	-11.7783
▁cici	-11.7783
▁downfield	-11.7783
▁infiltrate	-11.7784
▁stunn	-11.7784
▁jaded	-11.7784
▁recess	-11.7784
▁beret	-11.7784
▁outwit	-11.7784
▁hostilit	-11.7784
▁keen	-11.7784
▁grasp	-11.7784
▁pedal	-11.7784
▁ails	-11.7785
tinent	-11.7785
▁slain	-11.7786
▁stumbl	-11.7786
▁stats	-11.7786
dolph	-11.7787
hummus	-11.7788
▁insert	-11.7789
▁pension	-11.7789
▁hollis	-11.7793
fianc	-11.78
phony	-11.7802
udge	-11.7804
strom	-11.7809
alcol	-11.7814
▁crep	-11.7814
▁delete	-11.7815
shelf	-11.7815
▁crypt	-11.7823
rrifying	-11.7835
robbing	-11.7837
▁stag	-11.7868
equipped	-11.7891
▁notif	-11.8081
▁organiz	-11.8467
▁admin	-11.8469
verse	-11.8491
resistant	-11.8513
eously	-11.855
onald	-11.8553
ographic	-11.8854
▁induce	-11.9095
parable	-11.9154
terrorism	-11.9523
ownership	-11.9528
▁hoppin	-11.9683
▁structur	-12.0032
▁appreciat	-12.0301
fraction	-12.0305
settling	-12.036
▁stati	-12.0634
colored	-12.0658
nickers	-12.0705
existing	-12.0763
▁texa	-12.0821
writing	-12.0938
conditioning	-12.094
▁figur	-12.1024
▁applaud	-12.1051
▁invert	-12.1059
▁dismiss	-12.1059
▁register	-12.106
perfection	-12.107
▁identifie	-12.1078
▁baptize	-12.1079
▁temporar	-12.1086
▁responsibilit	-12.1086
▁emergenc	-12.1087
▁vampir	-12.1087
oggy	-12.109
mount	-12.1092
▁sacrament	-12.1092
▁securit	-12.1094
identified	-12.1094
rescue	-12.1094
grateful	-12.1095
kansas	-12.1095
draft	-12.1095
screen	-12.1095
tempo	-12.1095
launch	-12.1095
positive	-12.1095
thousand	-12.1095
prepared	-12.1095
practice	-12.1095
hundred	-12.1095
spirit	-12.1095
white	-12.1095
blood	-12.1095
first	-12.1095
reason	-12.1096
▁practical	-12.1098
▁atlant	-12.1103
▁specia	-12.1108
▁surge	-12.1108
▁investigati	-12.1109
fortunately	-12.1109
▁permissi	-12.1109
▁chron	-12.111
stitution	-12.111
olivia	-12.1112
▁alternat	-12.1112
▁elevat	-12.1112
▁physi	-12.1113
▁negat	-12.1113
▁eviden	-12.1113
▁northwest	-12.1115
filtrat	-12.1115
andmother	-12.1115
▁chrom	-12.1115
▁basket	-12.1115
▁hyster	-12.1115
▁cunning	-12.1115
laborate	-12.1115
obsessive	-12.1115
trospecti	-12.1115
▁accelerat	-12.1115
again	-12.1115
▁blubber	-12.1115
▁destabiliz	-12.1115
▁mansplain	-12.1115
▁obstruct	-12.1115
▁resuscitat	-12.1115
▁sanctu	-12.1115
▁trickortreat	-12.1115
▁urban	-12.1115
diminished	-12.1115
distribution	-12.1115
emorrhoid	-12.1115
norfolk	-12.1115
orthodo	-12.1115
percussion	-12.1115
pronounce	-12.1115
▁absolve	-12.1115
▁accommodate	-12.1115
▁acquaint	-12.1115
▁adapt	-12.1115
▁adolescent	-12.1115
▁agencies	-12.1115
▁anaconda	-12.1115
▁ankara	-12.1115
▁anymfay	-12.1115
▁aphrodi	-12.1115
▁apprentice	-12.1115
▁aquarium	-12.1115
▁archibald	-12.1115
▁aspects	-12.1115
▁asphyxiate	-12.1115
▁asprey	-12.1115
▁athletic	-12.1115
▁australia	-12.1115
▁autopilot	-12.1115
▁aztecs	-12.1115
▁babysitting	-12.1115
▁bactria	-12.1115
▁baguette	-12.1115
▁balerdi	-12.1115
▁benedict	-12.1115
▁bereavement	-12.1115
▁berziers	-12.1115
▁blofeld	-12.1115
▁blossom	-12.1115
▁bonjour	-12.1115
▁bouquet	-12.1115
▁brackett	-12.1115
▁breaststroke	-12.1115
▁bridesmaid	-12.1115
▁brigade	-12.1115
▁brisket	-12.1115
▁broccoli	-12.1115
▁brunette	-12.1115
▁buddhist	-12.1115
▁buonasera	-12.1115
▁cappuccino	-12.1115
▁carmichael	-12.1115
▁casket	-12.1115
▁cassette	-12.1115
▁cerebral	-12.1115
▁challenging	-12.1115
▁cheerleader	-12.1115
▁chubby	-12.1115
▁chuggins	-12.1115
▁cleveland	-12.1115
▁climax	-12.1115
▁collateral	-12.1115
▁completion	-12.1115
▁compliance	-12.1115
▁composition	-12.1115
▁comprehend	-12.1115
▁concrete	-12.1115
▁conservatory	-12.1115
▁contemplate	-12.1115
▁contempt	-12.1115
▁continental	-12.1115
▁contusion	-12.1115
▁convenient	-12.1115
▁cordova	-12.1115
▁cortex	-12.1115
▁crawford	-12.1115
▁critters	-12.1115
▁crozier	-12.1115
▁crumple	-12.1115
▁cuddl	-12.1115
▁culprit	-12.1115
▁cupcakes	-12.1115
▁cymbal	-12.1115
▁deceitful	-12.1115
▁delinquent	-12.1115
▁democracy	-12.1115
▁demonstration	-12.1115
▁devotion	-12.1115
▁diabolical	-12.1115
▁disconcerting	-12.1115
▁discreet	-12.1115
▁divorcing	-12.1115
▁druzhinsky	-12.1115
▁dukakis	-12.1115
▁ecstasy	-12.1115
▁ecuador	-12.1115
▁encrypt	-12.1115
▁epiphany	-12.1115
▁expansion	-12.1115
▁experiencing	-12.1115
▁eyebrows	-12.1115
▁factionalism	-12.1115
▁fascinated	-12.1115
