<unk>	0
<s>	0
</s>	0
s	-3.76683
▁im	-4.39335
▁know	-4.55525
▁dont	-4.56172
▁get	-4.76265
▁go	-4.78079
▁like	-4.81473
▁right	-4.89765
▁oh	-4.90321
▁yeah	-4.98109
▁youre	-4.9849
▁come	-4.99347
▁well	-5.02537
▁got	-5.05438
▁one	-5.16488
▁want	-5.22507
▁good	-5.23281
▁thats	-5.24141
▁na	-5.26865
▁okay	-5.29034
ing	-5.29616
▁see	-5.32873
▁think	-5.35781
▁yes	-5.52915
▁gon	-5.55867
▁going	-5.56368
▁look	-5.56788
▁hey	-5.583
▁back	-5.58762
▁man	-5.61119
▁us	-5.61425
▁time	-5.62155
ed	-5.69042
▁take	-5.70263
▁cant	-5.70768
▁ill	-5.72574
▁would	-5.74357
▁hes	-5.77059
▁really	-5.80459
▁tell	-5.83707
▁say	-5.85542
d	-5.9052
▁never	-5.90714
▁could	-5.92674
▁lets	-5.93396
▁need	-5.93893
▁love	-5.94031
▁way	-5.94134
▁something	-5.94217
▁make	-5.98598
▁little	-5.99521
▁didnt	-5.99836
▁thank	-6.00924
▁let	-6.01419
y	-6.0388
▁whats	-6.04803
▁people	-6.05123
▁sorry	-6.05234
▁give	-6.08294
▁	-6.09535
▁mean	-6.12232
▁please	-6.12802
▁god	-6.13151
▁theres	-6.18308
▁ive	-6.20828
▁l	-6.21299
▁sure	-6.26253
▁thing	-6.27445
▁shes	-6.30934
▁two	-6.32337
▁said	-6.34391
▁much	-6.3454
e	-6.38028
▁even	-6.38674
▁day	-6.38949
▁still	-6.4083
▁help	-6.42062
▁first	-6.43397
▁theyre	-6.452
▁uh	-6.45369
er	-6.46002
▁life	-6.46359
▁great	-6.47011
▁mr	-6.47238
ly	-6.47977
▁nothing	-6.48738
▁home	-6.48882
▁sir	-6.50903
▁talk	-6.51355
▁call	-6.51942
▁stop	-6.52112
▁wait	-6.52375
▁new	-6.5271
▁big	-6.52759
▁ever	-6.54881
▁thought	-6.54942
▁hi	-6.57031
▁maybe	-6.57697
▁anything	-6.58825
▁hell	-6.59202
▁find	-6.60435
▁better	-6.60935
▁away	-6.61326
▁ok	-6.61528
▁things	-6.62091
▁guys	-6.62468
▁always	-6.6269
▁keep	-6.62882
▁put	-6.63278
▁work	-6.63674
▁told	-6.65896
▁night	-6.67298
▁long	-6.67973
▁old	-6.69272
▁id	-6.69685
▁last	-6.71771
▁feel	-6.71782
▁every	-6.72024
▁must	-6.73053
▁name	-6.74153
▁nice	-6.74556
▁everything	-6.76076
▁wan	-6.76283
in	-6.7643
▁years	-6.7678
▁believe	-6.77487
▁lot	-6.77497
▁baby	-6.77532
▁around	-6.77762
▁stay	-6.77848
▁leave	-6.78208
▁fine	-6.79823
▁listen	-6.80181
▁move	-6.82375
▁ta	-6.83255
▁wont	-6.84146
▁thanks	-6.84317
▁remember	-6.84783
▁youve	-6.84884
r	-6.84904
▁girl	-6.84912
▁hear	-6.8494
▁kind	-6.8506
▁made	-6.86155
▁youll	-6.8788
▁show	-6.89071
▁world	-6.89357
▁doesnt	-6.89926
▁wanted	-6.90161
▁place	-6.91722
▁dad	-6.92188
▁boy	-6.92253
▁today	-6.9308
▁ready	-6.94012
▁coming	-6.94449
▁left	-6.94689
▁three	-6.9497
▁house	-6.96074
▁car	-6.96199
▁hello	-6.97
▁real	-6.97008
▁huh	-6.97728
▁guy	-6.98332
a	-6.98739
▁bad	-6.99223
▁course	-6.99703
▁next	-6.99703
▁mom	-6.99844
▁enough	-7.00563
▁money	-7.01431
▁miss	-7.02481
▁woman	-7.02602
▁else	-7.03782
▁men	-7.03817
▁might	-7.04078
▁try	-7.04974
▁talking	-7.05222
▁mother	-7.05556
▁mind	-7.05868
▁done	-7.06804
▁wrong	-7.0834
▁kill	-7.0845
▁came	-7.09269
es	-7.09309
▁shit	-7.10221
▁getting	-7.10712
▁together	-7.1118
▁trying	-7.11389
▁understand	-7.11953
▁isnt	-7.12468
▁son	-7.12941
▁best	-7.1313
▁someone	-7.13912
▁ask	-7.14584
t	-7.16015
▁pretty	-7.17115
▁another	-7.17793
al	-7.17891
▁play	-7.18038
▁excuse	-7.1917
n	-7.1939
▁father	-7.19454
o	-7.19604
▁happened	-7.19712
▁job	-7.2056
▁aint	-7.21273
▁whole	-7.21274
▁live	-7.2133
▁hold	-7.21474
▁dead	-7.21821
▁meet	-7.22197
▁guess	-7.22698
▁kids	-7.22976
▁door	-7.23087
▁may	-7.231
▁turn	-7.23319
▁family	-7.23781
▁morning	-7.2451
▁looking	-7.246
▁care	-7.26143
▁beautiful	-7.26354
▁without	-7.28614
▁actually	-7.28622
▁heard	-7.29035
▁ah	-7.29091
▁wasnt	-7.29379
▁music	-7.29595
▁room	-7.29936
▁happy	-7.3054
▁um	-7.30674
▁school	-7.30698
▁friend	-7.30891
▁saw	-7.3093
▁die	-7.30943
▁damn	-7.30979
▁many	-7.3105
▁everybody	-7.31317
▁tomorrow	-7.32103
▁hand	-7.3262
▁went	-7.32899
▁em	-7.33064
▁idea	-7.34294
▁war	-7.34561
▁end	-7.35179
▁tonight	-7.3531
▁seen	-7.35476
▁weve	-7.3572
▁cause	-7.35855
▁dr	-7.36846
▁run	-7.36924
▁head	-7.3721
▁took	-7.37368
▁found	-7.3858
▁sit	-7.38792
▁start	-7.3909
▁hard	-7.39557
▁face	-7.39881
▁knew	-7.4205
▁eat	-7.42379
▁playing	-7.4268
▁used	-7.43473
▁wouldnt	-7.44747
▁matter	-7.45259
▁hope	-7.45356
▁drink	-7.4611
▁watch	-7.46117
▁called	-7.46907
▁youd	-7.46988
▁bit	-7.47007
▁open	-7.47148
▁since	-7.47395
▁yet	-7.47426
▁true	-7.47881
▁kid	-7.48468
▁fight	-7.48573
▁crazy	-7.48809
▁already	-7.48809
▁use	-7.48823
▁alone	-7.50222
▁part	-7.5064
▁late	-7.50933
▁young	-7.51487
▁hit	-7.51676
▁second	-7.51844
▁bring	-7.51923
▁women	-7.52127
▁stuff	-7.52261
▁doctor	-7.52849
▁forget	-7.53098
▁fire	-7.53586
▁says	-7.54
ve	-7.54067
▁dog	-7.54147
▁friends	-7.54899
▁year	-7.55332
▁somebody	-7.56059
▁five	-7.56093
▁mama	-7.56162
▁laughs	-7.56194
▁sighs	-7.56225
▁girls	-7.56537
▁anyone	-7.56561
▁wife	-7.56566
▁thinking	-7.57529
▁problem	-7.57928
▁brother	-7.57929
▁business	-7.58054
▁couldnt	-7.5813
▁read	-7.5838
v	-7.58392
▁havent	-7.58597
▁honey	-7.58599
▁whos	-7.58622
▁worry	-7.59112
▁easy	-7.59632
▁whoa	-7.59638
▁laughing	-7.59777
▁hurt	-7.60065
▁eyes	-7.60561
▁wants	-7.60643
▁christmas	-7.60675
▁saying	-7.60897
▁ago	-7.61205
▁minute	-7.6164
▁walk	-7.61685
▁four	-7.61724
▁days	-7.61786
▁chuckles	-7.61965
▁phone	-7.62268
▁ass	-7.62313
▁dee	-7.63123
▁boys	-7.63513
▁different	-7.63875
▁change	-7.64187
▁rest	-7.64452
▁la	-7.6475
p	-7.64918
▁cool	-7.64929
▁whatever	-7.64965
▁story	-7.64968
▁pay	-7.64971
▁country	-7.64973
▁lost	-7.6498
▁gone	-7.65311
▁dance	-7.65397
en	-7.65953
▁looks	-7.65975
▁town	-7.66329
▁important	-7.67181
ll	-7.67434
▁fun	-7.67514
▁also	-7.67743
▁met	-7.67974
▁soon	-7.68191
▁heart	-7.68308
m	-7.6922
▁probably	-7.70026
▁minutes	-7.70125
▁set	-7.70571
c	-7.70669
▁death	-7.71183
g	-7.71215
▁supposed	-7.71266
▁check	-7.72063
▁mine	-7.72155
▁moment	-7.72543
▁hands	-7.72691
▁king	-7.72773
▁ha	-7.72794
▁un	-7.72869
▁stupid	-7.72946
▁taking	-7.72961
▁high	-7.73332
▁happen	-7.73484
▁lord	-7.73544
▁later	-7.73692
l	-7.73699
▁stand	-7.73851
▁welcome	-7.74154
▁bye	-7.74743
▁shut	-7.75291
▁afraid	-7.75348
▁free	-7.75919
▁killed	-7.76004
▁word	-7.76197
▁everyone	-7.76252
▁person	-7.76489
▁mrs	-7.76567
▁inside	-7.76576
▁children	-7.76856
▁far	-7.77549
▁close	-7.77834
▁point	-7.78137
▁vou	-7.7815
▁sleep	-7.78312
i	-7.78714
▁cut	-7.78766
h	-7.78973
▁elvis	-7.79064
▁least	-7.79073
ers	-7.79097
▁wheres	-7.79373
▁full	-7.79797
▁black	-7.80334
▁anymore	-7.80334
▁side	-7.8077
▁line	-7.81475
▁max	-7.81598
▁hate	-7.81833
▁sister	-7.82675
▁song	-7.82778
▁half	-7.82931
▁working	-7.83242
▁nobody	-7.8335
▁number	-7.83371
▁exactly	-7.83591
f	-7.83956
▁break	-7.84196
▁daughter	-7.84241
▁waiting	-7.84773
▁anyway	-7.8491
▁party	-7.85243
▁week	-7.85375
▁rock	-7.85603
▁city	-7.85617
▁wish	-7.86171
▁sometimes	-7.86481
▁gun	-7.86786
▁chance	-7.86789
▁water	-7.86814
ion	-7.87248
▁makes	-7.87533
▁shot	-7.87632
▁light	-7.88201
▁pick	-7.88839
▁deal	-7.88896
▁blood	-7.89006
▁wow	-7.89009
▁jesus	-7.8908
▁sick	-7.89698
▁married	-7.89705
▁power	-7.90208
▁game	-7.90316
▁front	-7.91124
▁hair	-7.91588
▁goes	-7.91641
ic	-7.92365
▁special	-7.92467
▁dear	-7.92535
▁ladies	-7.92556
u	-7.92857
▁shall	-7.93278
▁trouble	-7.93332
k	-7.9358
▁started	-7.93862
▁ooh	-7.94005
▁president	-7.94007
▁c	-7.94115
▁luck	-7.94539
or	-7.94654
▁bed	-7.94999
▁case	-7.95496
▁reason	-7.95519
▁re	-7.95737
▁dream	-7.9593
est	-7.96426
▁sweet	-7.96941
▁white	-7.97006
▁making	-7.97741
▁ahead	-7.97744
▁asked	-7.97748
▁movie	-7.97809
▁trust	-7.98155
▁general	-7.98502
▁body	-7.98506
▁gave	-7.98512
on	-7.98664
▁news	-7.98685
▁fall	-7.98864
▁though	-7.99249
▁majesty	-7.99271
▁hot	-7.99291
▁lm	-7.9954
▁s	-7.99793
▁write	-7.99924
▁daddy	-8.00063
▁top	-8.00101
▁answer	-8.00179
▁step	-8.00181
▁six	-8.00793
▁arent	-8.00832
▁beat	-8.01088
▁clear	-8.01518
▁question	-8.01778
▁sound	-8.0178
▁send	-8.01907
▁hang	-8.01934
▁months	-8.02039
▁times	-8.02866
▁office	-8.03088
▁air	-8.03139
▁lose	-8.03144
▁funny	-8.0322
▁order	-8.0389
▁walls	-8.04433
▁promise	-8.04557
▁died	-8.0463
▁shouldnt	-8.04828
▁scared	-8.049
▁truth	-8.05648
▁hurry	-8.05649
▁couple	-8.05649
▁shoot	-8.06003
▁anybody	-8.06474
b	-8.06485
▁touch	-8.06491
▁star	-8.06643
▁outside	-8.0694
▁book	-8.07233
▁itll	-8.07308
le	-8.08085
▁sort	-8.08151
▁ya	-8.08159
▁red	-8.08629
▁safe	-8.08708
▁church	-8.08905
▁glad	-8.08996
▁brought	-8.08996
▁cold	-8.08999
▁control	-8.09825
▁behind	-8.0985
▁gentlemen	-8.09851
▁living	-8.09854
▁lady	-8.09899
▁jack	-8.10498
▁quite	-8.10802
▁comes	-8.11146
▁american	-8.11153
▁almost	-8.11582
▁win	-8.11715
▁hours	-8.11888
▁sing	-8.1243
▁grunting	-8.12459
▁dick	-8.12467
▁hmm	-8.12476
it	-8.12548
▁feeling	-8.13127
▁tried	-8.13363
▁parents	-8.13439
▁lives	-8.13541
▁husband	-8.13796
▁either	-8.14237
▁felt	-8.14237
▁learn	-8.14284
▁screaming	-8.14354
▁team	-8.14735
▁bitch	-8.16003
▁theyll	-8.16058
▁buy	-8.16501
▁ring	-8.17345
▁de	-8.17713
▁police	-8.17891
▁maam	-8.17894
▁speak	-8.18498
▁dinner	-8.18827
▁hank	-8.18841
▁telling	-8.19336
▁drive	-8.19336
▁hour	-8.19457
▁heres	-8.1993
▁clean	-8.20353
▁sounds	-8.20531
▁serious	-8.20566
▁charles	-8.2072
▁goodbye	-8.20721
able	-8.21076
▁become	-8.21383
ies	-8.22303
▁straight	-8.22409
▁strong	-8.22495
▁frank	-8.22507
▁food	-8.23637
▁alex	-8.23637
▁alive	-8.23656
▁peter	-8.2375
▁pull	-8.23788
▁th	-8.24297
▁short	-8.2446
▁in	-8.24558
▁fear	-8.24611
▁leaving	-8.24625
▁weeks	-8.2492
man	-8.25066
▁marry	-8.25118
ity	-8.25142
▁ride	-8.25576
▁pain	-8.25639
▁perfect	-8.25782
▁ten	-8.25908
▁an	-8.25925
ar	-8.25926
▁roll	-8.26169
▁needs	-8.26239
▁captain	-8.26634
▁child	-8.26634
▁kidding	-8.26638
st	-8.26701
▁plan	-8.26932
us	-8.27417
▁ruth	-8.27643
▁hospital	-8.27654
▁able	-8.27922
re	-8.27991
▁speaking	-8.28199
▁peace	-8.28664
▁count	-8.28685
▁running	-8.28688
▁gasps	-8.29056
▁fast	-8.29581
▁horse	-8.29589
▁brian	-8.29731
▁wonderful	-8.29773
▁seem	-8.30424
▁human	-8.30689
▁boat	-8.3069
▁hows	-8.3078
▁buddy	-8.30781
▁stage	-8.30842
▁means	-8.30866
▁al	-8.30937
▁cover	-8.3154
▁loved	-8.3154
▁mouth	-8.31852
w	-8.3191
▁wear	-8.32468
▁bet	-8.32788
▁dark	-8.32913
▁follow	-8.33105
▁train	-8.33768
▁voice	-8.33946
▁somewhere	-8.34005
▁security	-8.34008
▁seven	-8.34017
▁crying	-8.34316
▁lucky	-8.34359
▁b	-8.34394
▁surprise	-8.3479
▁picture	-8.35095
▁sent	-8.35137
▁save	-8.35227
▁wed	-8.35306
▁throw	-8.35638
▁lie	-8.35929
▁past	-8.36163
▁pop	-8.36252
▁burn	-8.36435
ie	-8.36958
▁taken	-8.37292
▁uncle	-8.37311
▁secret	-8.37324
▁catch	-8.37384
▁drop	-8.37385
▁seems	-8.37486
▁act	-8.37965
▁kick	-8.38142
▁gets	-8.38403
▁york	-8.38475
▁master	-8.38494
▁sign	-8.38746
▁blue	-8.38749
▁kate	-8.38756
▁record	-8.38825
ch	-8.39144
▁colonel	-8.39626
▁radio	-8.39628
▁eight	-8.3964
▁amazing	-8.39657
▁groans	-8.39744
▁cheering	-8.39769
▁less	-8.39821
▁kiss	-8.39835
▁a	-8.40026
▁prison	-8.40584
▁small	-8.40622
▁finally	-8.40857
z	-8.41184
▁asking	-8.4138
▁sell	-8.41484
▁words	-8.41504
▁smart	-8.41765
▁fact	-8.41942
▁grunts	-8.41964
▁soul	-8.42104
▁cute	-8.42524
▁attack	-8.42812
▁bo	-8.43009
▁south	-8.43149
▁middle	-8.43154
▁proud	-8.43154
▁p	-8.43441
el	-8.43635
▁land	-8.43665
▁singing	-8.4384
▁f	-8.4387
▁indistinct	-8.44203
▁sense	-8.44359
▁poor	-8.44379
▁street	-8.44555
▁changed	-8.44992
▁bill	-8.4551
▁language	-8.45579
▁along	-8.45579
▁lucy	-8.45618
▁agent	-8.4581
▁test	-8.46215
▁entire	-8.46656
▁eye	-8.46741
▁known	-8.46822
▁goddamn	-8.46829
▁fly	-8.46941
▁million	-8.47062
▁dress	-8.47142
▁liked	-8.47187
▁art	-8.47465
ful	-8.47684
▁moving	-8.48063
▁rather	-8.48064
▁lena	-8.48067
▁rules	-8.48367
▁happens	-8.48953
▁enjoy	-8.48971
an	-8.48997
▁longer	-8.49012
▁attention	-8.49329
▁future	-8.49329
▁pass	-8.49626
la	-8.50032
▁teach	-8.50047
▁t	-8.50181
▁class	-8.50493
▁drunk	-8.50607
▁others	-8.50611
▁calm	-8.50611
▁k	-8.50629
▁tv	-8.50663
▁sad	-8.50703
▁watching	-8.50738
▁expect	-8.51052
il	-8.5135
▁quick	-8.5159
▁quiet	-8.51751
▁wake	-8.51908
▁panting	-8.51914
▁clothes	-8.51916
▁club	-8.51921
▁till	-8.5193
▁camera	-8.51956
▁age	-8.52236
▁state	-8.52441
▁meeting	-8.52765
▁calling	-8.5296
▁martha	-8.53226
▁sweetheart	-8.53226
▁presley	-8.53226
▁born	-8.53226
▁lunch	-8.53226
▁arm	-8.53275
▁figure	-8.53345
▁knows	-8.53543
▁push	-8.53732
▁mmm	-8.5403
▁worked	-8.54127
▁chris	-8.54274
▁happening	-8.54334
▁terrible	-8.54559
▁judy	-8.54574
▁aah	-8.54579
▁crowd	-8.54586
▁princess	-8.54589
ri	-8.54606
▁yall	-8.54636
▁soo	-8.54674
▁greatest	-8.5484
▁ones	-8.54997
▁g	-8.55009
▁slow	-8.55755
▁strange	-8.55789
▁weird	-8.55831
▁america	-8.55835
▁forgot	-8.55907
▁french	-8.5591
▁perhaps	-8.5591
▁store	-8.55911
▁giving	-8.55911
▁chuckling	-8.55912
▁emma	-8.55946
▁joe	-8.56069
▁date	-8.56125
▁none	-8.56331
▁wonder	-8.5636
▁wind	-8.56479
▁officer	-8.56575
▁matt	-8.5715
▁continues	-8.57231
▁road	-8.57279
▁danny	-8.57284
▁darling	-8.57285
▁feet	-8.57298
▁present	-8.57395
▁heaven	-8.57637
▁lead	-8.57997
is	-8.58025
▁fair	-8.58428
▁looked	-8.58459
▁caitlyn	-8.58669
▁relax	-8.58669
▁anywhere	-8.58669
▁fault	-8.5867
▁forever	-8.5867
▁stick	-8.58724
▁pray	-8.59002
▁whoo	-8.5913
▁piece	-8.59262
▁ball	-8.59341
▁n	-8.59363
▁ow	-8.5948
▁meant	-8.59583
▁band	-8.5966
th	-8.59909
▁careful	-8.59998
▁m	-8.6
▁possible	-8.60077
▁smile	-8.60077
▁wedding	-8.60082
▁earth	-8.60084
▁swear	-8.6009
▁blow	-8.60096
▁simple	-8.60433
▁fish	-8.60508
▁visit	-8.60584
▁minister	-8.60673
▁sun	-8.60767
▁worth	-8.6124
▁shell	-8.61273
ary	-8.61321
▁john	-8.61446
▁mad	-8.61448
▁near	-8.61503
▁farnaz	-8.61506
▁uhhuh	-8.61506
▁shh	-8.6153
ia	-8.61823
▁leg	-8.61964
▁choice	-8.6214
▁month	-8.62195
▁handle	-8.62198
▁crap	-8.62518
▁hero	-8.62851
▁hundred	-8.62961
▁sea	-8.63016
▁st	-8.63041
▁trip	-8.63122
▁breathe	-8.63197
▁evening	-8.63264
▁merr	-8.6341
▁wall	-8.6345
▁hide	-8.64381
▁respect	-8.64426
▁werent	-8.64426
▁worse	-8.64426
▁dude	-8.64427
▁hungry	-8.6443
▁mmhmm	-8.64435
▁laughter	-8.64439
▁rex	-8.6445
▁prom	-8.64541
ur	-8.64599
▁fool	-8.64783
▁idiot	-8.65093
▁bar	-8.65427
▁ho	-8.65782
▁afshin	-8.65918
▁crumb	-8.65919
▁target	-8.65919
▁tired	-8.6595
▁tour	-8.65983
▁completely	-8.65994
▁bank	-8.66057
▁bell	-8.664
▁brand	-8.66683
▁guard	-8.66696
▁building	-8.67016
ty	-8.67359
▁coffee	-8.67434
▁nelson	-8.67434
▁company	-8.67434
▁absolutely	-8.67451
▁e	-8.67484
▁sally	-8.67543
up	-8.67811
▁mess	-8.68125
ist	-8.68155
▁plane	-8.68447
▁david	-8.68973
▁dangerous	-8.68979
▁paid	-8.68991
▁totally	-8.69033
▁ray	-8.69066
▁feels	-8.69068
▁missed	-8.692
▁shouting	-8.6921
▁spend	-8.70023
▁return	-8.70184
ah	-8.70433
▁snow	-8.70517
piranha	-8.70535
▁jeannette	-8.70535
▁government	-8.70536
▁broke	-8.70542
▁broken	-8.70611
▁mm	-8.70681
▁early	-8.70773
▁deep	-8.71091
▁join	-8.71103
▁miles	-8.71173
▁german	-8.7123
▁chatter	-8.71619
▁bag	-8.71655
▁doc	-8.71695
▁standing	-8.71851
▁isaac	-8.72122
▁history	-8.72122
▁toby	-8.72123
▁kat	-8.7217
▁native	-8.72196
▁seeing	-8.72387
ation	-8.72775
▁seconds	-8.73067
▁film	-8.73076
▁consider	-8.73299
▁lts	-8.73328
ting	-8.73521
less	-8.73626
▁glass	-8.7365
▁ground	-8.73735
▁henry	-8.73735
▁alan	-8.73769
▁christ	-8.73795
▁parker	-8.73857
ness	-8.74682
▁smell	-8.7477
▁ship	-8.74788
ter	-8.75023
▁questions	-8.75034
▁quit	-8.75197
▁especially	-8.75374
▁yesterday	-8.75374
▁audience	-8.75374
▁chief	-8.75403
▁seriously	-8.75641
▁army	-8.7567
▁guns	-8.75786
▁grow	-8.76451
▁given	-8.76467
▁stone	-8.76495
▁finish	-8.76702
▁imagine	-8.76753
▁bomb	-8.76921
▁worried	-8.77041
▁caught	-8.77045
▁favorite	-8.77048
▁theyve	-8.77064
▁over	-8.77106
▁fighting	-8.77164
▁out	-8.77183
▁needed	-8.77648
▁d	-8.77978
▁screams	-8.7803
▁emperor	-8.78153
ta	-8.78275
▁rose	-8.78317
▁yo	-8.78601
▁fat	-8.78636
▁except	-8.78696
ive	-8.78705
▁forgive	-8.78719
▁floor	-8.78736
▁round	-8.78736
▁wrote	-8.78736
▁asshole	-8.78741
▁honor	-8.78746
▁brave	-8.78755
▁unless	-8.78782
▁awful	-8.79127
▁list	-8.79152
ine	-8.79153
▁ro	-8.7988
▁table	-8.80046
▁fell	-8.80134
▁offer	-8.80194
▁rain	-8.80316
▁walking	-8.80352
▁favor	-8.80452
▁dancing	-8.8046
▁bunny	-8.80461
▁spent	-8.80463
▁alright	-8.80464
▁foot	-8.80465
▁sake	-8.80467
▁grab	-8.80474
▁outta	-8.80476
▁field	-8.80515
▁folks	-8.8064
▁laugh	-8.80867
▁breathing	-8.80877
▁wine	-8.8093
▁takes	-8.81235
▁hat	-8.81241
▁shoes	-8.81252
▁jump	-8.8133
▁owe	-8.81336
▁legs	-8.81406
▁lovely	-8.81407
▁gift	-8.81683
▁turned	-8.82086
▁contact	-8.82214
▁lay	-8.82215
▁island	-8.82216
▁private	-8.82217
▁dying	-8.82217
▁richard	-8.82221
▁idgie	-8.82235
▁support	-8.82571
▁hed	-8.82578
▁thy	-8.8264
▁tape	-8.83218
▁travel	-8.83485
▁cry	-8.83519
▁fit	-8.83568
▁rule	-8.83601
▁certain	-8.83844
▁jimmy	-8.84
▁college	-8.84
▁kept	-8.84002
▁professor	-8.84002
▁bunch	-8.84003
▁stuck	-8.84007
▁creaking	-8.84034
▁tally	-8.84115
▁decided	-8.8414
▁seat	-8.84202
▁mission	-8.84278
▁fix	-8.84952
▁co	-8.85201
▁card	-8.8522
▁carry	-8.85393
▁law	-8.85398
▁station	-8.85418
▁explain	-8.85454
▁works	-8.85569
▁sex	-8.85596
▁talked	-8.85633
▁reading	-8.85769
▁pleasure	-8.85818
▁sarafina	-8.85818
▁yussef	-8.85818
▁instead	-8.85818
te	-8.85839
▁tough	-8.85853
▁low	-8.85922
▁prime	-8.8599
▁starting	-8.86176
▁race	-8.86677
un	-8.87113
▁states	-8.87115
▁lived	-8.87232
▁group	-8.87265
▁tree	-8.87273
▁command	-8.87376
▁suppose	-8.87398
▁green	-8.87635
▁gold	-8.87643
▁spot	-8.87656
▁court	-8.87657
▁driving	-8.8767
▁lonely	-8.8767
▁bullshit	-8.87671
▁truck	-8.87672
▁charge	-8.87682
▁pictures	-8.87686
▁wild	-8.87696
▁highness	-8.8772
▁beer	-8.87772
▁busy	-8.87899
ian	-8.88134
▁training	-8.88531
▁engine	-8.887
et	-8.88836
▁books	-8.8892
▁arms	-8.88987
▁ben	-8.89269
▁realize	-8.89334
▁accident	-8.89557
▁english	-8.89557
▁strength	-8.89557
▁laura	-8.89557
▁thev	-8.89564
▁nine	-8.8958
▁lou	-8.89638
▁holy	-8.8975
▁lights	-8.89929
▁whose	-8.90191
▁choose	-8.90208
▁ms	-8.90762
▁warm	-8.90828
▁fuck	-8.90862
▁evil	-8.91142
▁public	-8.91356
▁played	-8.91435
▁apart	-8.91453
▁north	-8.91478
▁charlie	-8.9148
▁jean	-8.9148
▁difference	-8.9148
▁birthday	-8.91481
▁third	-8.91487
▁larry	-8.91491
▁director	-8.91498
▁barry	-8.91498
▁hotel	-8.91536
▁personal	-8.91539
▁appreciate	-8.91539
▁duke	-8.91547
▁sitting	-8.91561
▁post	-8.916
▁interested	-8.91754
▁figured	-8.91879
▁pre	-8.92345
▁tea	-8.92482
▁fan	-8.92598
▁form	-8.92642
▁dare	-8.92743
▁bus	-8.92928
▁mistake	-8.93087
▁flight	-8.93121
▁agree	-8.93137
▁product	-8.93168
na	-8.93432
▁stories	-8.93441
▁forward	-8.93442
▁letter	-8.93442
▁super	-8.93473
▁tony	-8.93485
▁painting	-8.9354
▁mo	-8.93972
▁taste	-8.94601
▁lock	-8.94714
▁con	-8.94827
▁force	-8.94894
▁ii	-8.94971
ce	-8.95034
▁cop	-8.95084
ate	-8.95118
▁cell	-8.952
▁nervous	-8.95276
▁ja	-8.95403
▁battle	-8.95436
▁machine	-8.95441
▁beginning	-8.95441
▁bottom	-8.95455
▁pig	-8.95459
▁groaning	-8.95487
▁area	-8.95753
▁protect	-8.9655
▁box	-8.96885
▁board	-8.97014
▁mike	-8.97246
▁spirit	-8.97271
▁bastard	-8.97274
▁soldier	-8.97308
ment	-8.97334
▁blind	-8.97481
▁enemy	-8.97481
▁impossible	-8.97481
▁scene	-8.97481
▁throat	-8.97482
▁sergei	-8.97498
▁teacher	-8.97516
▁punch	-8.97531
▁stopped	-8.97586
▁san	-8.97922
lo	-8.98239
▁breath	-8.98715
ul	-8.99048
▁tom	-8.99078
▁du	-8.99175
▁system	-8.99389
▁admit	-8.99551
▁summer	-8.99565
▁hasnt	-8.99565
▁jeannie	-8.99567
▁jim	-8.99569
▁jungle	-8.99573
▁definitely	-8.99576
▁jail	-8.99585
▁boss	-8.99654
▁obviously	-8.99664
▁begin	-8.99758
▁w	-9.00248
rs	-9.00469
▁ringing	-9.0071
▁knock	-9.0084
li	-9.01262
▁normal	-9.0155
▁code	-9.01564
▁window	-9.01598
▁sam	-9.01649
▁claire	-9.01692
▁upstairs	-9.01692
▁erik	-9.01693
▁information	-9.01698
▁message	-9.01705
ry	-9.01726
▁sold	-9.01726
▁amen	-9.01736
▁brad	-9.01791
▁earl	-9.01795
▁action	-9.01815
▁gasping	-9.01871
▁games	-9.01983
▁joke	-9.0206
um	-9.02105
▁so	-9.02993
▁students	-9.03006
▁hanging	-9.0306
▁vi	-9.03762
▁mark	-9.03792
▁awesome	-9.03866
▁boyfriend	-9.03866
▁double	-9.03866
▁situation	-9.03866
▁congratulations	-9.03867
▁taught	-9.03869
ling	-9.04132
id	-9.04584
▁saved	-9.0459
▁promised	-9.04608
▁goin	-9.05125
▁pro	-9.05199
se	-9.05331
▁no	-9.05409
▁ex	-9.05423
▁orders	-9.05494
▁names	-9.05554
▁reach	-9.05655
▁ar	-9.05681
▁color	-9.05723
▁health	-9.05852
▁records	-9.05955
▁rich	-9.06016
▁prince	-9.06038
▁extra	-9.06081
▁asleep	-9.06089
▁excited	-9.06089
▁friday	-9.06089
▁luke	-9.06093
▁evelyn	-9.06097
▁practice	-9.06097
▁rafe	-9.06104
▁pageant	-9.06114
▁everywhere	-9.06117
▁france	-9.0614
▁goodnight	-9.06144
▁mary	-9.06233
▁mikey	-9.0635
oo	-9.06363
▁interesting	-9.06561
▁surprised	-9.06645
▁horn	-9.06791
▁learned	-9.06938
▁r	-9.06964
▁holding	-9.07015
ted	-9.07184
▁report	-9.07214
▁i	-9.07392
ent	-9.07459
▁cross	-9.07474
▁build	-9.07858
▁accept	-9.0797
▁fresh	-9.08361
▁afternoon	-9.08361
▁memphis	-9.08361
▁japanese	-9.08361
▁ethan	-9.08362
▁interview	-9.08362
▁often	-9.08362
▁risk	-9.08366
▁prove	-9.08374
▁yep	-9.08376
▁duty	-9.08388
▁shaw	-9.08397
▁steele	-9.08414
▁medical	-9.08438
▁single	-9.08444
▁putting	-9.08551
ous	-9.08666
▁moved	-9.0867
▁allowed	-9.08678
▁continue	-9.09155
▁ab	-9.09165
▁bro	-9.09167
ant	-9.09644
▁screw	-9.09826
▁talent	-9.10349
▁match	-9.10623
▁da	-9.10637
▁sh	-9.10669
▁lieutenant	-9.10687
▁official	-9.10687
▁worst	-9.10687
▁yellow	-9.10687
▁pregnant	-9.10687
▁beauty	-9.10689
▁sheryl	-9.10689
▁rachel	-9.1069
▁loud	-9.1071
▁v	-9.10715
▁mister	-9.10717
ne	-9.10756
▁leavey	-9.10759
▁beach	-9.10764
▁position	-9.10765
ra	-9.1078
▁chicken	-9.10789
▁press	-9.1079
▁cup	-9.10832
▁wellington	-9.10845
▁suit	-9.10851
▁faster	-9.11048
▁staying	-9.11103
▁starts	-9.11116
x	-9.11691
▁trick	-9.12075
▁killing	-9.12119
▁interest	-9.12239
▁loves	-9.12557
▁rob	-9.12738
▁divorce	-9.12782
▁base	-9.12845
▁advertising	-9.13068
▁neither	-9.13068
▁repeat	-9.13068
▁became	-9.13068
▁mommy	-9.13069
▁desk	-9.13082
▁dig	-9.13084
▁santa	-9.13086
▁cash	-9.13096
▁cure	-9.13097
▁michele	-9.13118
▁sweetie	-9.13141
▁patient	-9.13223
▁thousand	-9.13227
▁united	-9.13232
▁beeping	-9.13238
▁russian	-9.1326
▁ohh	-9.1327
▁quickly	-9.13354
▁experience	-9.13565
▁van	-9.13583
▁tou	-9.13629
▁gosh	-9.13764
▁hunt	-9.14432
▁li	-9.14542
▁stars	-9.14669
▁remind	-9.14868
▁smoke	-9.14952
▁sleeping	-9.15015
▁allow	-9.15189
▁share	-9.15233
▁butt	-9.1531
▁dreams	-9.1536
▁gas	-9.15369
▁decision	-9.15507
▁doubt	-9.15507
▁scoffs	-9.15507
▁warren	-9.15507
▁price	-9.15509
▁whether	-9.15509
▁exhales	-9.15516
▁sparkle	-9.1552
▁harry	-9.15523
▁space	-9.15526
▁paris	-9.15548
▁dirty	-9.15605
one	-9.15612
▁service	-9.15697
▁relationship	-9.15703
out	-9.15708
▁nation	-9.15858
▁shake	-9.1602
op	-9.16621
tic	-9.16796
ee	-9.17398
▁due	-9.17892
led	-9.17924
▁h	-9.17971
▁steal	-9.17996
▁grace	-9.17998
▁london	-9.18007
▁writing	-9.18007
▁concert	-9.18007
▁crime	-9.18007
▁pants	-9.18021
▁shame	-9.1803
▁lying	-9.1805
▁moon	-9.1807
▁national	-9.18086
os	-9.1815
to	-9.1817
▁thinks	-9.18218
▁paper	-9.18313
▁brain	-9.18331
▁cost	-9.18437
▁mountain	-9.18456
▁bearing	-9.18491
▁shed	-9.18507
ge	-9.18603
▁gorgonites	-9.18678
ol	-9.18909
▁harder	-9.18948
▁wearing	-9.19195
time	-9.19782
▁sal	-9.19817
▁freak	-9.19931
▁ma	-9.1994
▁honk	-9.20075
▁honest	-9.20169
▁exist	-9.20254
ass	-9.20257
▁waste	-9.20289
▁notice	-9.20321
▁feed	-9.20321
▁shop	-9.20338
▁across	-9.20571
▁angry	-9.20571
▁deserve	-9.20571
▁george	-9.20571
▁mandela	-9.20571
▁mohsen	-9.20571
▁somehow	-9.20571
▁upset	-9.20571
▁twice	-9.20572
▁truly	-9.20572
▁research	-9.20572
▁memory	-9.20573
▁detective	-9.20574
▁difficult	-9.20574
▁kitty	-9.20574
▁teeth	-9.20575
▁quinn	-9.20582
▁fellow	-9.20584
▁incredible	-9.20615
▁beth	-9.20677
▁silly	-9.20698
▁final	-9.20778
▁eating	-9.20957
▁besides	-9.2138
▁flowers	-9.2147
▁sisters	-9.21558
▁heads	-9.21581
▁ca	-9.21626
at	-9.21877
ey	-9.22252
▁papers	-9.22883
ism	-9.22906
ton	-9.22932
▁using	-9.22941
▁bull	-9.22951
ster	-9.22962
▁cheap	-9.23203
▁dauntless	-9.23203
▁marriage	-9.23203
▁possibly	-9.23203
▁garden	-9.23203
▁responsible	-9.23205
▁sunday	-9.23206
▁ugly	-9.23219
▁danger	-9.23233
▁eh	-9.23274
▁arrived	-9.23298
▁sight	-9.233
▁softly	-9.23316
▁yelling	-9.23402
▁commander	-9.23497
ac	-9.23567
▁lesson	-9.23667
▁dis	-9.23693
▁billy	-9.23722
▁passed	-9.23911
▁kinda	-9.24227
am	-9.24545
▁magic	-9.24959
▁aw	-9.25362
▁focus	-9.25555
▁arrest	-9.25565
go	-9.25704
▁brown	-9.25875
▁dumb	-9.25897
▁beyond	-9.25905
▁chisolm	-9.25905
▁freedom	-9.25905
▁major	-9.25905
▁request	-9.25905
▁video	-9.25905
▁insane	-9.25905
▁empire	-9.25906
▁tiger	-9.25907
▁cheese	-9.25908
▁local	-9.25908
▁boring	-9.2592
▁hiding	-9.25925
▁style	-9.25929
▁weekend	-9.25931
▁upon	-9.25937
▁sky	-9.25978
▁mv	-9.26007
▁usually	-9.26031
▁freeze	-9.26105
▁hoping	-9.26109
▁gay	-9.26145
▁helping	-9.26209
▁conversation	-9.26356
▁weapon	-9.26398
▁serve	-9.26409
▁lucas	-9.26702
▁problems	-9.26743
▁nobodys	-9.26882
▁flying	-9.27021
▁closed	-9.27109
▁picked	-9.27256
▁birds	-9.27392
▁boo	-9.27493
▁grand	-9.27665
▁bother	-9.278
▁destroy	-9.2781
▁bum	-9.27837
▁bear	-9.27949
▁tie	-9.27984
▁ba	-9.28126
▁pu	-9.28181
▁mention	-9.28377
▁settle	-9.28406
▁recognize	-9.28414
▁paul	-9.28514
though	-9.28515
▁aunt	-9.28669
▁dillon	-9.28683
▁django	-9.28683
▁kantmiss	-9.28683
▁opinion	-9.28683
▁ronnie	-9.28683
▁bravo	-9.28684
▁bathroom	-9.28686
▁alarm	-9.28687
▁shouldve	-9.28688
▁abigail	-9.28693
▁girlfriend	-9.28693
▁pressure	-9.28697
▁nose	-9.28709
▁wet	-9.2872
em	-9.2873
▁corey	-9.28747
▁suddenly	-9.28794
▁huge	-9.28802
▁pool	-9.28981
▁cops	-9.29008
▁copy	-9.29018
▁tail	-9.29086
▁powerful	-9.29154
▁clicks	-9.29238
▁river	-9.29248
▁knocking	-9.2935
▁bud	-9.29354
▁fucking	-9.29425
▁dan	-9.29479
▁brothers	-9.29542
▁wondering	-9.29724
ier	-9.29959
son	-9.29984
▁feelings	-9.30266
▁park	-9.3082
▁roar	-9.31072
▁per	-9.31169
▁prefer	-9.31305
▁calls	-9.31331
▁skate	-9.3142
▁bright	-9.31513
▁europe	-9.3154
▁mercy	-9.3154
▁necessary	-9.3154
▁nikki	-9.3154
▁shirt	-9.3154
▁weather	-9.3154
▁within	-9.3154
▁helen	-9.3154
▁operation	-9.3154
▁bigger	-9.31541
▁sobbing	-9.31542
▁washington	-9.31542
▁juice	-9.31552
▁whore	-9.31553
▁winner	-9.31564
▁ran	-9.31626
▁teen	-9.31691
▁lab	-9.31711
▁west	-9.31734
▁opening	-9.318
▁drinking	-9.31835
▁losing	-9.31961
▁queen	-9.32127
ped	-9.3217
ial	-9.32518
▁rings	-9.32726
▁vour	-9.32768
▁keeping	-9.33066
▁cl	-9.33352
▁murder	-9.33399
▁paint	-9.33415
▁falling	-9.3344
age	-9.33506
▁missing	-9.33618
▁keys	-9.33659
▁survive	-9.342
▁hook	-9.34363
▁holly	-9.34478
▁district	-9.34481
▁excellent	-9.34481
▁fantastic	-9.34481
▁schedule	-9.34481
▁bought	-9.34484
▁papa	-9.34485
▁philip	-9.34487
▁thatll	-9.34489
▁chess	-9.34489
▁milk	-9.34494
▁path	-9.34525
ma	-9.34612
▁sub	-9.34617
▁gotten	-9.34729
▁listening	-9.34876
▁tires	-9.34956
▁finished	-9.35098
▁strike	-9.35169
▁up	-9.3521
▁artist	-9.35218
▁animal	-9.35233
▁cab	-9.35287
▁dollars	-9.35413
▁pulled	-9.35512
▁pa	-9.35985
ro	-9.36133
▁rid	-9.36923
▁introduce	-9.37232
▁invite	-9.37236
▁sacrifice	-9.37268
and	-9.3735
▁complete	-9.37358
▁album	-9.37512
▁england	-9.37512
▁cancer	-9.37512
▁audition	-9.37512
▁mickey	-9.37512
▁project	-9.37513
▁empty	-9.37514
▁medicine	-9.37517
▁diane	-9.37517
▁angie	-9.37519
▁abby	-9.37521
▁thou	-9.37521
▁chorus	-9.37537
▁famous	-9.37544
▁size	-9.37549
▁apartment	-9.37557
▁involved	-9.37567
▁cake	-9.3758
▁pam	-9.37586
▁joy	-9.3761
▁dust	-9.3762
▁sean	-9.37691
▁arrested	-9.37895
▁tear	-9.37976
▁key	-9.38384
▁plays	-9.38483
▁chattering	-9.3849
▁shows	-9.38622
▁el	-9.38643
▁turning	-9.38694
▁fa	-9.38702
▁do	-9.38766
da	-9.38788
mi	-9.38875
nt	-9.39128
ard	-9.39341
▁cook	-9.39402
ping	-9.39528
▁clears	-9.40007
the	-9.40211
▁faith	-9.40239
▁matters	-9.40306
me	-9.40326
▁howd	-9.40382
▁announce	-9.40434
▁lies	-9.40435
▁tight	-9.40437
▁sharp	-9.40475
▁africa	-9.40559
do	-9.40592
▁meg	-9.40619
▁birth	-9.40632
▁split	-9.40637
▁theater	-9.40637
▁threadgoode	-9.40637
▁whistling	-9.40637
▁television	-9.40637
▁center	-9.40637
▁nature	-9.40637
▁eliot	-9.40638
▁peanut	-9.40639
▁japan	-9.4064
▁hollywood	-9.40641
▁meat	-9.40644
▁babe	-9.40646
▁guest	-9.40652
▁bible	-9.40657
▁rent	-9.40694
▁dale	-9.40718
▁lance	-9.40826
▁sil	-9.40839
▁helped	-9.40941
▁shams	-9.40975
▁sexy	-9.41054
▁ch	-9.4114
iz	-9.41164
land	-9.41179
▁nuts	-9.41378
▁en	-9.41435
▁page	-9.4145
▁monster	-9.41522
▁pilot	-9.41538
▁neighbor	-9.41543
▁partner	-9.41638
▁goodness	-9.41693
▁east	-9.41954
▁acting	-9.42062
▁o	-9.42141
ure	-9.42243
▁planes	-9.4234
▁lu	-9.42365
▁pet	-9.42774
▁vote	-9.4283
▁thunder	-9.42958
▁treat	-9.42966
▁fill	-9.4301
▁pretend	-9.43353
▁shout	-9.43377
way	-9.43434
▁wash	-9.43502
▁separate	-9.43579
▁obvious	-9.43708
▁swim	-9.43854
▁bennett	-9.43862
▁distance	-9.43862
▁guitar	-9.43862
▁heavy	-9.43862
▁senior	-9.43862
▁cousin	-9.43863
▁jerk	-9.43863
▁studio	-9.43863
▁funeral	-9.43863
▁hannah	-9.43863
▁sugar	-9.43863
▁neck	-9.43865
▁address	-9.43869
▁department	-9.4387
▁hyah	-9.43871
▁airport	-9.43872
▁christian	-9.43875
▁earlier	-9.43877
▁treatment	-9.43891
▁rita	-9.43891
▁simply	-9.439
▁corner	-9.43909
▁oil	-9.43948
▁lily	-9.4413
▁whispers	-9.44206
▁se	-9.44285
▁sa	-9.4438
▁closer	-9.44428
sh	-9.44445
▁joey	-9.44447
▁hall	-9.44786
▁photo	-9.44851
▁remain	-9.44878
▁gate	-9.44905
ally	-9.45041
ho	-9.45173
▁lt	-9.45322
▁writer	-9.45378
▁following	-9.45398
▁bob	-9.45623
▁fo	-9.4572
▁shooting	-9.45884
he	-9.46256
▁pack	-9.46258
▁file	-9.4626
▁older	-9.46342
▁beg	-9.4655
▁camp	-9.46626
▁br	-9.46687
ts	-9.4674
▁movies	-9.46887
ize	-9.46951
▁raise	-9.46971
▁usual	-9.47042
▁chair	-9.47183
▁appointment	-9.47196
▁grady	-9.47196
▁novel	-9.47196
▁satellite	-9.47196
▁suicide	-9.47196
▁piano	-9.47196
▁havana	-9.47196
▁juliette	-9.47196
▁phil	-9.47196
▁sergeant	-9.47197
▁edward	-9.47198
▁zach	-9.47199
▁clarissa	-9.472
▁nowhere	-9.472
▁poem	-9.47203
▁performance	-9.47203
▁bridge	-9.47204
▁hostage	-9.47205
▁plus	-9.47206
▁barking	-9.47209
▁eric	-9.47212
▁immediately	-9.47235
▁meal	-9.47258
▁signal	-9.47424
▁soldiers	-9.47497
dnt	-9.47502
▁heat	-9.47537
▁doin	-9.47548
ite	-9.47689
ance	-9.477
▁perfectly	-9.4772
im	-9.47736
▁locked	-9.47772
▁rip	-9.48059
▁dressed	-9.48152
▁signed	-9.48199
▁whistle	-9.48337
▁seemed	-9.48535
ish	-9.48637
▁toys	-9.49047
mo	-9.49531
▁hill	-9.49568
▁breaking	-9.49792
▁opens	-9.49823
ick	-9.49866
ki	-9.49931
ir	-9.49971
▁suspect	-9.50281
per	-9.50343
head	-9.5036
▁decide	-9.50371
▁prepare	-9.50401
▁chip	-9.50435
▁showing	-9.50453
ng	-9.50591
▁cream	-9.50644
▁easier	-9.50644
▁however	-9.50644
▁jorge	-9.50644
▁melissa	-9.50644
▁military	-9.50644
▁political	-9.50644
▁coast	-9.50645
▁british	-9.50646
▁miracle	-9.50647
▁horrible	-9.50647
▁community	-9.50648
▁written	-9.50649
▁silence	-9.50649
▁roof	-9.50653
▁johnny	-9.50663
▁level	-9.50665
▁type	-9.50666
▁taxi	-9.50678
▁weight	-9.50722
▁trade	-9.50725
▁whatd	-9.50748
▁butter	-9.50874
▁male	-9.50876
cy	-9.50877
▁noticed	-9.51048
▁ice	-9.51094
▁plans	-9.51279
▁pie	-9.5157
▁belong	-9.51581
▁judge	-9.51637
▁terms	-9.51661
ang	-9.51727
▁trained	-9.51746
▁tradition	-9.51868
▁ticket	-9.51942
▁selling	-9.52156
no	-9.52178
▁doctors	-9.52457
▁sn	-9.52499
▁someones	-9.52681
▁dry	-9.52726
▁walked	-9.52901
▁j	-9.52915
▁los	-9.52919
ny	-9.52953
▁moments	-9.53228
▁kings	-9.53228
▁perform	-9.53304
▁headed	-9.53541
▁spy	-9.53825
for	-9.53904
▁damage	-9.53924
▁release	-9.53934
▁flow	-9.54052
▁soft	-9.54068
▁program	-9.54208
▁abbott	-9.54215
▁according	-9.54215
▁confused	-9.54215
▁knife	-9.54215
▁crew	-9.54216
▁nope	-9.54216
▁biggest	-9.54216
▁nagra	-9.54217
▁joseph	-9.54218
▁amber	-9.54218
▁edge	-9.54226
▁principal	-9.54229
▁ballet	-9.54253
▁whispering	-9.543
▁manager	-9.54305
▁skin	-9.54357
ut	-9.545
▁personally	-9.54556
▁shy	-9.54583
▁horses	-9.54707
▁screwed	-9.54746
▁maria	-9.54914
ba	-9.54983
▁gal	-9.55243
▁concern	-9.55261
▁ned	-9.55363
lv	-9.55438
▁eggs	-9.55546
▁ships	-9.55547
▁grandma	-9.55551
ov	-9.55606
▁student	-9.55659
▁sucker	-9.55675
▁dogs	-9.55891
▁moms	-9.5612
▁pal	-9.56234
▁couldve	-9.56257
▁siren	-9.56567
▁career	-9.56901
ke	-9.57035
▁cast	-9.57348
men	-9.57375
▁fran	-9.57703
▁escape	-9.57729
▁natural	-9.57757
▁avocado	-9.57822
▁russia	-9.57843
▁stole	-9.57849
▁ought	-9.5785
▁he	-9.57898
▁social	-9.57913
▁expensive	-9.57919
▁nuclear	-9.57919
▁opportunity	-9.57919
▁pizza	-9.57919
▁plenty	-9.57919
▁purpose	-9.57919
▁tahime	-9.57919
▁tongue	-9.57919
▁understood	-9.57919
▁fleet	-9.57919
▁theme	-9.57922
▁trash	-9.57922
▁royal	-9.57922
▁poet	-9.57923
▁california	-9.57924
▁marco	-9.57924
▁scott	-9.57927
▁cabinet	-9.57928
▁macon	-9.57941
▁built	-9.57942
▁growling	-9.57946
▁unfortunately	-9.57951
▁amin	-9.57997
ow	-9.5802
▁mood	-9.58025
▁nurse	-9.58117
▁cia	-9.58132
▁glasses	-9.58135
▁dads	-9.58239
▁prepared	-9.58288
▁indistinctly	-9.58405
▁germany	-9.58492
▁ear	-9.58639
▁bucks	-9.58658
▁all	-9.58673
der	-9.5884
▁cr	-9.58919
▁scream	-9.58998
▁mis	-9.59014
▁lake	-9.59062
▁channel	-9.59402
▁magazine	-9.59444
▁maps	-9.59463
▁everythings	-9.59503
▁closes	-9.59819
ha	-9.59976
▁loss	-9.60391
▁partners	-9.60593
▁draw	-9.60641
we	-9.60717
▁tap	-9.60795
▁ga	-9.61159
▁publish	-9.61417
po	-9.61429
ship	-9.61462
ca	-9.61475
▁sudden	-9.6161
▁total	-9.61611
ot	-9.61627
▁they	-9.61681
▁levi	-9.61684
▁nothin	-9.61721
▁aware	-9.61755
▁available	-9.61765
▁bastian	-9.61765
▁explosion	-9.61765
▁pardeep	-9.61765
▁rough	-9.61765
▁rumbling	-9.61765
▁rancor	-9.61765
▁gordy	-9.61766
▁apache	-9.61766
▁saint	-9.61769
▁mmmhmm	-9.61769
▁madiba	-9.61771
▁chug	-9.61773
▁coach	-9.61773
▁poetry	-9.61779
▁steve	-9.61779
▁positive	-9.61779
▁legend	-9.61782
▁began	-9.61791
▁mack	-9.61794
▁auntie	-9.61797
▁cow	-9.61803
▁james	-9.61819
▁professional	-9.61819
▁victory	-9.61839
▁buffy	-9.61846
▁lila	-9.6185
ious	-9.61857
▁willing	-9.6186
▁ra	-9.61862
▁bleeding	-9.61995
ok	-9.62007
▁ruin	-9.6202
▁hire	-9.62039
▁me	-9.6209
▁gods	-9.62109
▁powers	-9.62261
▁reporter	-9.62278
▁secure	-9.62391
▁riding	-9.62418
▁bowl	-9.62758
▁cheer	-9.63011
▁songs	-9.63216
▁lied	-9.63301
▁germans	-9.63389
▁issue	-9.63427
▁bottle	-9.63458
▁commercial	-9.63468
▁hole	-9.63556
▁bust	-9.63928
▁fired	-9.63983
▁tickets	-9.64282
▁belongs	-9.64289
▁seek	-9.64825
ap	-9.65087
ph	-9.65141
▁market	-9.6528
down	-9.65441
▁paying	-9.65443
▁create	-9.65487
▁review	-9.65602
▁correct	-9.65609
▁add	-9.6561
ble	-9.65615
▁spoke	-9.65688
▁thirty	-9.65759
▁advice	-9.65765
▁agency	-9.65765
▁babies	-9.65765
▁defense	-9.65765
▁monsieur	-9.65765
▁olivia	-9.65765
▁restaurant	-9.65765
▁ridiculous	-9.65765
▁miami	-9.65765
▁teddy	-9.65765
▁albert	-9.65765
▁apple	-9.65765
▁ardi	-9.65766
▁demand	-9.65766
▁clap	-9.65766
▁foreign	-9.65767
▁nyx	-9.65768
▁breakfast	-9.65771
▁monkey	-9.65771
▁wire	-9.65778
▁trap	-9.65781
▁spare	-9.65785
▁deck	-9.65792
▁solve	-9.65792
▁chill	-9.65797
▁dropped	-9.65798
▁patrice	-9.65798
▁speed	-9.658
▁sever	-9.65801
▁view	-9.65817
▁source	-9.65819
▁mona	-9.65841
▁angeles	-9.65847
▁laid	-9.65854
▁spell	-9.65861
▁madame	-9.65874
▁row	-9.65902
▁changing	-9.65902
▁grown	-9.65938
▁honestly	-9.66011
▁mothers	-9.66128
▁carla	-9.66129
▁places	-9.66176
▁depends	-9.6629
▁paintings	-9.66324
▁wide	-9.66361
▁main	-9.66434
▁realized	-9.66436
be	-9.66492
▁lots	-9.6687
▁showed	-9.67046
▁lately	-9.67109
ile	-9.67211
side	-9.6725
▁hardly	-9.67271
▁account	-9.67507
▁fellas	-9.67518
▁sav	-9.67705
▁stayed	-9.67712
▁fingers	-9.67717
▁bird	-9.67721
▁guards	-9.67729
▁toy	-9.67813
▁mate	-9.67854
co	-9.67908
▁driver	-9.68084
ner	-9.68209
▁bi	-9.68742
ip	-9.68772
▁discuss	-9.6894
▁z	-9.69123
▁hug	-9.69132
▁lo	-9.69428
▁bite	-9.69458
▁pen	-9.69472
▁collect	-9.69496
▁replace	-9.69636
▁ahh	-9.69673
▁hung	-9.69769
▁loose	-9.69853
▁wrap	-9.69913
▁bureau	-9.69932
▁criminal	-9.69932
▁element	-9.69932
▁female	-9.69932
▁intense	-9.69932
▁jeffords	-9.69932
▁pearl	-9.69932
▁screen	-9.69932
▁sinestro	-9.69932
▁society	-9.69932
▁surgery	-9.69932
▁chloe	-9.69932
▁indeed	-9.69932
▁held	-9.69932
▁forbidden	-9.69933
▁nick	-9.69933
▁planning	-9.69934
▁subject	-9.69934
▁rugby	-9.69934
▁common	-9.69934
▁example	-9.69936
▁whoever	-9.69936
▁trent	-9.6994
▁village	-9.6994
▁forgotten	-9.69943
▁dramatic	-9.69944
▁cassie	-9.69949
▁punk	-9.69951
▁bogue	-9.69953
▁johnson	-9.69962
▁china	-9.69976
▁lift	-9.69984
▁chirping	-9.69987
▁jealous	-9.70035
▁x	-9.70091
▁math	-9.70193
▁shape	-9.70198
▁minds	-9.70238
mon	-9.70393
▁port	-9.70409
▁fate	-9.70425
▁saving	-9.70453
hi	-9.70585
▁letting	-9.70589
▁wha	-9.70656
▁note	-9.70659
line	-9.70826
end	-9.70906
▁cards	-9.71028
▁higher	-9.71068
ring	-9.71312
▁fr	-9.71318
▁blowing	-9.71455
ni	-9.71575
▁ideas	-9.71577
▁ed	-9.71594
▁block	-9.71604
▁lines	-9.71714
▁angel	-9.71751
▁burning	-9.71862
▁contract	-9.71935
▁computer	-9.71939
▁ghost	-9.71956
▁appear	-9.7196
▁gunshot	-9.71972
▁lovell	-9.71999
ck	-9.72111
▁buying	-9.72308
▁stranger	-9.7231
▁balls	-9.72476
▁keeps	-9.7251
▁singer	-9.72514
▁schools	-9.72525
by	-9.72578
▁cat	-9.72784
▁ad	-9.72919
ever	-9.73092
▁animals	-9.73171
▁self	-9.73339
▁crack	-9.73369
▁piss	-9.7344
▁hee	-9.73458
▁meaning	-9.73497
▁answers	-9.73528
as	-9.73581
▁sin	-9.73745
▁sweat	-9.73881
▁disappear	-9.73938
▁score	-9.73987
▁blame	-9.73987
ois	-9.74082
▁drag	-9.74086
▁itd	-9.74171
rt	-9.74177
▁chose	-9.74202
▁twenty	-9.7426
▁contest	-9.74267
▁afford	-9.7428
▁apparently	-9.7428
▁barbara	-9.7428
▁celebrate	-9.7428
▁character	-9.7428
▁downstairs	-9.7428
▁empress	-9.7428
▁families	-9.7428
▁jersey	-9.7428
▁literally	-9.7428
▁morgan	-9.7428
▁niflheim	-9.7428
▁nonsense	-9.7428
▁ocean	-9.7428
▁otherwise	-9.7428
▁pardon	-9.7428
▁responsibility	-9.7428
▁rosalyn	-9.7428
▁saturday	-9.7428
▁soviet	-9.7428
▁stuart	-9.7428
▁university	-9.7428
▁shadow	-9.7428
▁presence	-9.7428
▁generation	-9.74281
▁starving	-9.74281
▁justice	-9.74281
▁candy	-9.74282
▁romantic	-9.74283
▁selfish	-9.74288
▁stink	-9.74289
▁elise	-9.7429
▁impressive	-9.7429
▁clock	-9.74296
▁fancy	-9.74297
▁pair	-9.74299
▁beast	-9.743
▁duck	-9.7431
▁mail	-9.74313
▁soup	-9.74315
▁bath	-9.7434
▁rise	-9.74353
▁secretary	-9.74354
▁recently	-9.74367
▁clicking	-9.74476
▁received	-9.74486
▁sch	-9.74601
▁ld	-9.74611
▁certainly	-9.74666
▁invited	-9.74682
▁concerned	-9.74691
▁jar	-9.747
back	-9.74705
▁coughs	-9.74762
▁raised	-9.74775
ball	-9.74821
▁fans	-9.74893
▁nights	-9.74973
▁stronger	-9.75005
▁hurts	-9.75063
▁offered	-9.75158
▁honking	-9.75159
▁wings	-9.75476
over	-9.75524
▁warn	-9.75578
▁or	-9.75589
▁kicked	-9.75617
fully	-9.75619
▁track	-9.7563
▁po	-9.75636
▁covered	-9.7571
▁large	-9.75842
▁fl	-9.76055
▁passing	-9.76059
▁bullet	-9.76511
▁there	-9.76895
▁where	-9.76959
▁leader	-9.77001
▁dancer	-9.77371
uck	-9.77473
▁you	-9.77726
▁weapons	-9.7797
▁claim	-9.77995
▁streets	-9.78076
▁bone	-9.78159
ps	-9.78181
▁shock	-9.78285
▁weak	-9.78342
▁cancel	-9.78458
▁pitch	-9.78522
▁awake	-9.78573
▁gross	-9.78688
▁indiana	-9.7871
▁turns	-9.78714
▁grandpa	-9.78821
▁apologize	-9.78825
▁extreme	-9.78825
▁habibeh	-9.78825
▁international	-9.78825
▁license	-9.78825
▁mirror	-9.78825
▁universe	-9.78825
▁vegas	-9.78825
▁vehicle	-9.78825
▁voysey	-9.78825
▁devil	-9.78825
▁footsteps	-9.78825
▁insurance	-9.78825
▁roxy	-9.78825
▁terrific	-9.78825
▁wherever	-9.78825
▁curse	-9.78826
▁uhuh	-9.78826
▁midnight	-9.78826
▁monday	-9.78826
▁atwater	-9.78826
▁attitude	-9.78826
▁claus	-9.78826
▁harbor	-9.78827
▁tobin	-9.78827
▁hayes	-9.78827
▁ugh	-9.78828
▁fought	-9.78829
▁oei	-9.7883
▁prize	-9.78831
▁unbelievable	-9.78831
▁mount	-9.78831
▁noise	-9.78833
▁march	-9.78837
▁logan	-9.7884
▁chrissy	-9.78844
▁handsome	-9.78848
▁loving	-9.78855
▁trial	-9.78855
▁flat	-9.78858
▁alice	-9.78859
▁vision	-9.78868
▁shine	-9.78884
▁chanting	-9.78909
▁rush	-9.78948
▁scary	-9.78948
▁title	-9.78953
▁useless	-9.78992
▁hearing	-9.79019
▁bringing	-9.79046
▁faction	-9.79068
▁disappeared	-9.79185
▁deeply	-9.79286
▁drawing	-9.79437
▁tris	-9.79482
ka	-9.79533
▁pan	-9.79551
▁mayor	-9.79621
▁mar	-9.79741
▁towards	-9.79856
▁expected	-9.80058
▁sooner	-9.80158
king	-9.80202
▁mutants	-9.80291
▁pot	-9.80293
▁harm	-9.80409
▁tip	-9.80431
▁shower	-9.80443
▁pat	-9.80446
▁condition	-9.80647
▁teaching	-9.80691
▁lover	-9.80778
▁units	-9.80971
▁bones	-9.81184
▁threat	-9.81268
▁member	-9.81283
▁finger	-9.81308
▁pi	-9.81432
ti	-9.81829
▁fu	-9.82141
ber	-9.82224
▁ways	-9.82703
▁wood	-9.82709
▁unh	-9.82738
▁load	-9.82796
▁bang	-9.83152
▁pin	-9.83208
▁tune	-9.8329
▁convince	-9.83317
just	-9.83329
▁toast	-9.83415
five	-9.83448
▁hawaii	-9.83565
▁admiral	-9.8358
▁advantage	-9.83587
▁applause	-9.83587
▁charlotte	-9.83587
▁companies	-9.83587
▁courage	-9.83587
▁diamond	-9.83587
▁dozen	-9.83587
▁emergency	-9.83587
▁energy	-9.83587
▁faraday	-9.83587
▁fifteen	-9.83587
▁innocent	-9.83587
▁moscow	-9.83587
▁pacific	-9.83587
▁pathetic	-9.83587
▁surrender	-9.83587
▁technology	-9.83587
▁therefore	-9.83587
▁byebye	-9.83587
▁chinese	-9.83587
▁madeleine	-9.83587
▁radar	-9.83587
▁roger	-9.83587
▁molly	-9.83588
▁drove	-9.83588
▁sneak	-9.83588
▁italian	-9.83588
▁hogue	-9.83589
▁pocket	-9.83589
▁section	-9.8359
▁cowboy	-9.8359
▁webster	-9.83591
▁among	-9.83591
▁valley	-9.83591
▁cliff	-9.83591
▁swimming	-9.83591
▁blew	-9.83596
▁sniffles	-9.83596
▁fbi	-9.83598
▁bike	-9.836
▁property	-9.83603
▁comfortable	-9.83604
▁feminist	-9.83608
▁fortune	-9.83616
▁offense	-9.83617
▁megan	-9.83632
▁hughes	-9.83632
▁boom	-9.83651
▁yearold	-9.83693
▁winter	-9.83711
▁johnston	-9.83732
▁knowledge	-9.8385
▁scare	-9.83907
▁union	-9.83984
▁bu	-9.84061
ice	-9.84084
▁bridesmaids	-9.841
▁filled	-9.84104
▁gae	-9.84133
▁hoo	-9.84158
▁based	-9.84163
▁destroyed	-9.84186
▁mistakes	-9.84269
▁pretending	-9.8435
▁whe	-9.84354
val	-9.84574
▁legal	-9.84592
ible	-9.847
▁drugs	-9.84791
▁backup	-9.84811
▁hind	-9.8491
▁guts	-9.84918
▁growing	-9.85082
▁cap	-9.85124
▁ends	-9.85173
▁expecting	-9.85515
▁bat	-9.86051
▁rolling	-9.86066
▁rehearsal	-9.86196
▁bug	-9.86208
▁unit	-9.86219
▁coward	-9.86234
▁tank	-9.86281
▁shoulder	-9.86281
▁chuckle	-9.86354
▁parts	-9.86441
ney	-9.86488
▁finding	-9.8657
▁gr	-9.8659
▁lad	-9.86732
▁chips	-9.86786
▁ac	-9.87133
▁pe	-9.87297
▁search	-9.87699
maker	-9.87766
off	-9.87785
▁damned	-9.8794
▁charm	-9.87941
▁attend	-9.88037
▁represent	-9.88042
▁spread	-9.88046
▁study	-9.88127
ong	-9.88198
▁thousands	-9.88249
room	-9.88333
▁chest	-9.88336
house	-9.88343
▁chase	-9.88381
▁confess	-9.88524
▁drama	-9.88575
▁occasion	-9.88578
▁ambassador	-9.88587
▁ashamed	-9.88587
▁attorney	-9.88587
▁combination	-9.88587
▁egypt	-9.88587
▁enemies	-9.88587
▁exciting	-9.88587
▁expert	-9.88587
▁giggles	-9.88587
▁mousavi	-9.88587
▁someplace	-9.88587
▁sorrv	-9.88587
▁vacation	-9.88587
▁buried	-9.88587
▁firm	-9.88587
▁flag	-9.88587
▁grew	-9.88587
▁delicious	-9.88588
▁spanish	-9.88589
▁duncan	-9.88589
▁wilson	-9.88589
▁percent	-9.8859
▁switch	-9.88594
▁onto	-9.88595
▁gentleman	-9.88602
▁fence	-9.88608
▁planned	-9.88612
▁jason	-9.88613
▁frozen	-9.88613
▁grade	-9.88622
▁season	-9.88624
▁article	-9.8863
▁surrounded	-9.88632
▁bail	-9.88639
▁archer	-9.88643
▁liar	-9.88644
▁thee	-9.88644
▁coz	-9.88651
▁complicated	-9.88666
▁betty	-9.8867
▁disgusting	-9.88706
▁assure	-9.88712
▁yi	-9.8879
▁le	-9.88843
▁parties	-9.88896
▁classes	-9.88935
▁strip	-9.88939
▁fur	-9.89072
▁for	-9.89127
▁treated	-9.89129
▁lips	-9.89145
▁ate	-9.89352
ized	-9.89365
▁christy	-9.8942
dy	-9.89447
▁fathers	-9.89523
▁fixed	-9.89557
▁di	-9.89581
▁clearly	-9.89603
▁worlds	-9.89702
▁goat	-9.8971
▁cha	-9.89718
▁hu	-9.89903
▁val	-9.89914
▁details	-9.89971
▁attacked	-9.90068
▁su	-9.90181
you	-9.90281
▁smells	-9.90484
▁results	-9.90691
▁springs	-9.90691
▁nd	-9.90737
▁image	-9.90749
▁qu	-9.91171
▁hal	-9.91338
▁badly	-9.91449
▁standard	-9.9158
▁rooms	-9.91671
▁staring	-9.91751
ak	-9.91879
▁hearts	-9.91913
▁judges	-9.91914
▁hated	-9.91917
▁sending	-9.91926
▁pit	-9.92083
▁wa	-9.92099
tor	-9.92299
▁fella	-9.92618
▁gum	-9.92958
▁nah	-9.9296
▁enter	-9.93009
lin	-9.9304
▁deliver	-9.93251
town	-9.93433
ence	-9.93496
▁volunteer	-9.93499
▁insist	-9.93503
▁ti	-9.93603
▁success	-9.9361
well	-9.93647
▁doors	-9.93678
▁regular	-9.9368
▁duk	-9.93772
▁proper	-9.93782
▁brilliant	-9.9385
▁chocolate	-9.9385
▁confidence	-9.9385
▁creature	-9.9385
▁dalloway	-9.9385
▁december	-9.9385
▁detention	-9.9385
▁familiar	-9.9385
▁genius	-9.9385
▁geronimo	-9.9385
▁grandfather	-9.9385
▁horvath	-9.9385
▁library	-9.9385
▁morteza	-9.9385
▁newspaper	-9.9385
▁rainbow	-9.9385
▁response	-9.9385
▁routine	-9.9385
▁thomas	-9.9385
▁tuesday	-9.9385
▁violence	-9.9385
▁belt	-9.93851
▁troops	-9.93851
▁bodies	-9.93851
▁chalk	-9.93851
▁tommy	-9.93851
▁division	-9.93851
▁jeez	-9.93852
▁walters	-9.93852
▁culture	-9.93852
▁holmesburg	-9.93852
▁robbed	-9.93853
▁rope	-9.93853
▁vicki	-9.93854
▁becoming	-9.93854
▁nathanial	-9.93855
▁fetch	-9.93859
▁passport	-9.93861
▁raven	-9.93861
▁navy	-9.93863
▁zone	-9.93864
▁material	-9.9387
▁jerry	-9.93872
▁clever	-9.93876
▁fake	-9.9388
▁whooping	-9.93883
▁wh	-9.93894
▁gim	-9.93904
▁bound	-9.93906
▁collection	-9.93927
▁ramy	-9.93955
▁india	-9.93957
▁murmuring	-9.93975
▁player	-9.93981
▁cutting	-9.93999
▁ignore	-9.94006
▁embarrassing	-9.94058
▁kay	-9.94092
▁lack	-9.941
▁windows	-9.94116
▁ver	-9.94152
▁downing	-9.94224
▁cares	-9.94228
▁buzzing	-9.94253
▁fred	-9.94279
▁approaching	-9.9428
aged	-9.94296
ern	-9.94314
▁ruined	-9.94324
▁eaten	-9.94434
▁slowly	-9.94476
▁ka	-9.94728
all	-9.94826
▁believed	-9.94944
▁hunting	-9.94983
ga	-9.95062
more	-9.95314
ists	-9.95337
▁carrying	-9.9537
▁under	-9.95373
▁media	-9.95639
▁gil	-9.95671
▁sat	-9.95763
▁sucks	-9.95814
▁cy	-9.95999
▁friendly	-9.96079
▁ri	-9.96099
▁bells	-9.965
▁wound	-9.9665
▁refuse	-9.96727
▁brings	-9.96744
▁shoe	-9.96846
tt	-9.96858
▁rat	-9.96885
▁blows	-9.97029
▁direction	-9.97042
▁doll	-9.9707
▁affair	-9.97071
▁holiday	-9.97095
▁alien	-9.97109
▁result	-9.97112
▁ears	-9.9713
▁spring	-9.97148
▁mile	-9.9724
▁cars	-9.97254
▁map	-9.9731
▁knowing	-9.97782
▁tears	-9.97932
ina	-9.98155
▁agents	-9.98373
ves	-9.98376
▁steps	-9.98473
▁suggest	-9.98486
▁fail	-9.98566
ned	-9.98582
▁fi	-9.98591
▁bless	-9.98635
let	-9.98737
▁avoid	-9.98866
▁cheat	-9.98877
▁borrow	-9.99035
never	-9.99089
▁kan	-9.99292
▁muff	-9.99301
▁witness	-9.99318
▁somethin	-9.99362
▁journal	-9.99373
▁iron	-9.99374
▁civil	-9.99385
▁righteous	-9.99391
▁regret	-9.99392
▁script	-9.99396
▁beatrice	-9.99406
▁ceremony	-9.99406
▁chicago	-9.99406
▁comrade	-9.99406
▁equipment	-9.99406
▁evidence	-9.99406
▁ezekiel	-9.99406
▁gonggil	-9.99406
▁guarantee	-9.99406
▁intelligence	-9.99406
▁isabel	-9.99406
▁jenkins	-9.99406
▁lantern	-9.99406
▁literature	-9.99406
▁mexico	-9.99406
▁outfit	-9.99406
▁progress	-9.99406
▁shirin	-9.99406
▁sophia	-9.99406
▁strict	-9.99406
▁twelve	-9.99406
▁closing	-9.99406
▁location	-9.99406
▁mostly	-9.99406
▁shift	-9.99406
▁speech	-9.99406
▁storm	-9.99406
▁dawn	-9.99406
▁process	-9.99406
▁flare	-9.99406
▁float	-9.99407
▁francisco	-9.99408
▁disease	-9.99408
▁banana	-9.99408
▁carolina	-9.99409
▁piggy	-9.99409
▁anytime	-9.9941
▁imperial	-9.9941
▁precious	-9.99411
▁alert	-9.99411
▁bovs	-9.99412
▁option	-9.99412
▁resistance	-9.99412
▁faint	-9.99413
▁bread	-9.99414
▁fruit	-9.99414
▁chili	-9.99416
▁dj	-9.99417
▁shopping	-9.99425
▁snap	-9.99426
▁heavily	-9.99429
▁grant	-9.9943
▁lori	-9.99433
▁physical	-9.9944
▁connection	-9.99443
▁sailor	-9.99449
▁glory	-9.99456
fa	-9.99458
▁barely	-9.99483
▁toss	-9.9949
▁jet	-9.99492
▁ew	-9.99499
▁smoking	-9.99505
▁abc	-9.99514
▁disc	-9.99529
▁joking	-9.99536
▁embarrassed	-9.99554
▁tiny	-9.99557
▁pm	-9.99634
▁richie	-9.99639
▁successful	-9.9966
▁passion	-9.99668
ue	-9.99699
▁wise	-9.99705
▁pom	-9.99784
▁planet	-9.998
▁dish	-9.99851
▁inhales	-9.99887
▁event	-9.99938
▁warning	-10.0006
▁murdered	-10.0007
▁marketing	-10.0013
▁forces	-10.0014
ons	-10.0016
▁talented	-10.0025
▁metal	-10.0029
▁tied	-10.0034
▁makeup	-10.0037
▁roaring	-10.0042
▁caster	-10.0047
▁gives	-10.0047
▁concentrate	-10.0062
▁martin	-10.0062
▁messed	-10.0069
lic	-10.007
▁guardians	-10.0094
▁es	-10.0098
▁commandos	-10.0099
star	-10.011
com	-10.0111
▁ira	-10.0114
ell	-10.0161
▁pushing	-10.0161
▁prayer	-10.017
▁dressing	-10.0177
▁rats	-10.0181
▁ordered	-10.0186
▁fe	-10.0188
bo	-10.0193
▁walker	-10.0209
▁ge	-10.021
og	-10.0244
sk	-10.0253
▁stops	-10.0253
of	-10.0263
▁who	-10.027
mer	-10.0274
▁spit	-10.0277
▁spark	-10.0286
▁servant	-10.0289
▁plate	-10.0291
▁lawyer	-10.0295
ating	-10.0314
▁her	-10.0323
▁coat	-10.0338
▁horne	-10.0342
▁tend	-10.0343
ions	-10.0343
▁ol	-10.0345
if	-10.0355
▁opened	-10.0374
ker	-10.0392
ct	-10.0421
ade	-10.0423
▁be	-10.0461
▁brains	-10.0463
▁waited	-10.047
▁drift	-10.0474
▁crash	-10.0479
▁twist	-10.0493
▁str	-10.0496
ex	-10.05
▁dirt	-10.0506
▁gym	-10.0506
▁desperate	-10.0512
▁drops	-10.0515
▁flash	-10.052
▁religio	-10.0521
▁robert	-10.0521
▁commit	-10.0523
▁demo	-10.0526
▁alcohol	-10.0528
▁afghanistan	-10.0529
▁august	-10.0529
▁barlow	-10.0529
▁capital	-10.0529
▁circus	-10.0529
▁corporal	-10.0529
▁defend	-10.0529
▁destiny	-10.0529
▁device	-10.0529
▁effort	-10.0529
▁fabulous	-10.0529
▁flood	-10.0529
▁halifax	-10.0529
▁hallelujah	-10.0529
▁including	-10.0529
▁khanoum	-10.0529
▁lloyd	-10.0529
▁maureen	-10.0529
▁period	-10.0529
▁politics	-10.0529
▁reputation	-10.0529
▁rifle	-10.0529
▁rudolf	-10.0529
▁sheriff	-10.0529
▁slept	-10.0529
▁someday	-10.0529
▁tattoo	-10.0529
▁text	-10.0529
▁thirsty	-10.0529
▁threw	-10.0529
▁alexander	-10.0529
▁resign	-10.0529
▁launch	-10.0529
▁scratch	-10.0529
▁journey	-10.0529
▁nerve	-10.0529
▁winston	-10.0529
▁humming	-10.0529
▁zeke	-10.0529
▁propose	-10.0529
▁distant	-10.0529
▁shove	-10.0529
▁lisa	-10.0529
▁ammo	-10.053
▁cycle	-10.053
▁victim	-10.053
▁champion	-10.053
▁value	-10.053
▁trapped	-10.053
▁wong	-10.0531
▁hound	-10.0531
▁decent	-10.0532
▁mere	-10.0533
▁jane	-10.0533
▁becky	-10.0534
▁hm	-10.0535
▁dating	-10.0535
▁religion	-10.0537
▁jp	-10.0539
▁crown	-10.054
▁preacher	-10.054
▁heal	-10.054
▁role	-10.0541
▁stolen	-10.0541
▁pure	-10.0542
ttle	-10.0547
▁askey	-10.0548
ford	-10.0549
▁abandoned	-10.0551
▁cabin	-10.0551
▁bush	-10.0553
▁placement	-10.0559
coming	-10.0559
tch	-10.0562
si	-10.0562
▁hah	-10.0565
▁screeching	-10.0568
▁created	-10.057
▁thrown	-10.0571
▁lang	-10.0573
▁crashing	-10.058
ze	-10.0583
▁pounds	-10.0593
▁healthy	-10.0595
▁bra	-10.0596
▁den	-10.0598
mm	-10.0601
▁cookie	-10.0606
▁forced	-10.0613
▁skip	-10.0614
▁carl	-10.0617
▁colored	-10.0624
▁naser	-10.0629
▁pills	-10.0635
▁stations	-10.0673
▁compete	-10.0681
▁counter	-10.0682
▁vet	-10.0706
▁y	-10.0716
▁bombs	-10.0731
▁to	-10.0738
▁u	-10.0746
▁ki	-10.0751
▁sc	-10.0759
▁fires	-10.0797
tion	-10.0799
▁assume	-10.0806
▁non	-10.083
▁fund	-10.0835
▁pulling	-10.0847
▁bam	-10.0851
▁cats	-10.0854
▁suck	-10.0859
▁notes	-10.0868
▁talks	-10.0873
▁cheers	-10.088
▁sponsor	-10.0884
▁gasp	-10.089
ppy	-10.0907
▁boot	-10.091
▁heavens	-10.0912
▁snake	-10.092
▁bow	-10.0922
▁pol	-10.0925
▁wheel	-10.0926
bre	-10.0926
▁talkin	-10.0929
▁lookin	-10.0929
ations	-10.0963
▁rub	-10.0964
▁mu	-10.0966
kin	-10.0993
▁drinks	-10.1008
▁closet	-10.1015
▁lee	-10.1017
qui	-10.1025
▁rivers	-10.1026
oh	-10.1035
▁bills	-10.1041
▁mel	-10.1064
▁suffer	-10.1067
ou	-10.1068
our	-10.1083
app	-10.1084
▁approach	-10.1093
▁greater	-10.1114
▁odd	-10.1115
▁adopt	-10.1118
▁award	-10.1122
▁advance	-10.1125
wood	-10.1129
▁madam	-10.1141
▁ban	-10.1142
▁inter	-10.1146
▁virgin	-10.1149
▁reports	-10.115
▁access	-10.115
▁gettin	-10.1152
▁til	-10.1152
▁transfer	-10.1154
▁abilities	-10.1154
▁abnegation	-10.1154
▁campbell	-10.1154
▁century	-10.1154
▁challenge	-10.1154
▁competition	-10.1154
▁giggling	-10.1154
▁gorgeous	-10.1154
▁grateful	-10.1154
▁hanssen	-10.1154
▁happiness	-10.1154
▁insomnia	-10.1154
▁jordan	-10.1154
▁mistress	-10.1154
▁mollie	-10.1154
▁rattling	-10.1154
▁reservation	-10.1154
▁retreat	-10.1154
▁smash	-10.1154
▁steady	-10.1154
▁crystal	-10.1154
▁collins	-10.1154
▁telephone	-10.1154
▁hawkins	-10.1154
▁maggie	-10.1154
▁oclock	-10.1154
▁clay	-10.1154
▁waffle	-10.1154
▁hom	-10.1154
▁maintain	-10.1154
▁mills	-10.1154
▁kenny	-10.1154
▁describe	-10.1154
▁palace	-10.1154
▁capture	-10.1154
▁firing	-10.1155
▁riot	-10.1155
▁heck	-10.1155
▁trina	-10.1155
▁giant	-10.1155
▁committed	-10.1155
▁status	-10.1155
▁rabbit	-10.1155
▁aaah	-10.1155
▁kaos	-10.1155
▁raid	-10.1156
▁mock	-10.1156
▁route	-10.1156
▁dugan	-10.1156
▁football	-10.1156
▁groom	-10.1156
▁static	-10.1157
▁southern	-10.1157
▁sentence	-10.1157
▁owner	-10.1157
▁label	-10.1157
▁mayday	-10.1157
▁annie	-10.1158
▁pace	-10.1158
▁stock	-10.1158
▁potter	-10.1158
▁fuel	-10.1159
▁colors	-10.116
ular	-10.1161
▁maid	-10.1161
▁gunny	-10.1161
▁brighton	-10.1162
▁wailing	-10.1162
▁bored	-10.1162
▁exit	-10.1163
▁misty	-10.1164
▁jacket	-10.1165
▁jazz	-10.1166
▁aim	-10.1166
▁safety	-10.1167
▁palm	-10.1167
▁satin	-10.1168
▁african	-10.1169
▁leaves	-10.1171
▁bitter	-10.1177
▁coordinates	-10.1177
scrub	-10.1177
▁farm	-10.1182
▁visa	-10.1184
▁tone	-10.1184
▁springboks	-10.1192
▁blown	-10.1193
▁jam	-10.1193
▁latest	-10.1195
▁shutter	-10.1199
▁loaded	-10.12
▁louder	-10.12
▁waves	-10.1208
uff	-10.1208
ille	-10.121
▁sp	-10.1211
▁served	-10.1223
ors	-10.1225
▁pee	-10.1226
▁para	-10.1232
▁entirely	-10.1236
▁smarter	-10.1242
ai	-10.1242
▁agreed	-10.1245
▁sue	-10.1246
▁ham	-10.1269
▁tall	-10.1276
▁mall	-10.1278
▁tr	-10.1287
▁ann	-10.1297
▁heading	-10.1298
ab	-10.1318
▁knees	-10.1346
▁am	-10.1349
▁ani	-10.1352
▁becomes	-10.1356
▁spending	-10.1367
io	-10.1369
▁numbers	-10.137
▁younger	-10.1371
▁stones	-10.1381
▁fist	-10.1383
▁hy	-10.1393
▁speaks	-10.1398
▁landing	-10.1432
▁throwing	-10.1454
▁ru	-10.1474
▁points	-10.1476
▁va	-10.1478
▁when	-10.1483
ess	-10.1511
▁sigh	-10.152
▁hits	-10.153
▁towns	-10.1532
▁yell	-10.154
▁pieces	-10.1547
ffe	-10.1557
▁touching	-10.1558
▁sings	-10.1572
▁rate	-10.159
▁sometime	-10.1595
▁actor	-10.1609
▁writers	-10.1619
▁pages	-10.1623
▁flower	-10.1623
▁ep	-10.1623
ated	-10.1627
ky	-10.1633
ug	-10.164
▁watched	-10.1652
▁artists	-10.1656
act	-10.1662
gged	-10.1676
▁woo	-10.1688
▁sales	-10.1705
▁ended	-10.171
▁ali	-10.1712
▁mi	-10.1724
▁sur	-10.1755
▁buzz	-10.1769
▁impress	-10.1771
▁sink	-10.1774
gh	-10.1775
▁dump	-10.1784
▁teenage	-10.1793
▁cups	-10.1794
▁chi	-10.1799
▁wolf	-10.1802
ob	-10.1803
▁doug	-10.1808
▁moral	-10.1812
▁education	-10.1812
▁organ	-10.1816
▁equal	-10.1818
ified	-10.1818
what	-10.1819
▁traffic	-10.182
▁weigh	-10.182
▁resist	-10.182
▁amount	-10.182
▁campaign	-10.182
▁commission	-10.182
▁cricket	-10.182
▁deborah	-10.182
▁declare	-10.182
▁escort	-10.182
▁inspector	-10.182
▁jeff	-10.182
▁kitchen	-10.182
▁kungfu	-10.182
▁kurtz	-10.182
▁manchukuo	-10.182
▁monitor	-10.182
▁november	-10.182
▁prophecy	-10.182
▁respond	-10.182
▁sensation	-10.182
▁september	-10.182
▁spectacular	-10.182
▁stomach	-10.182
▁thursday	-10.182
▁torture	-10.182
▁valdez	-10.182
▁vernon	-10.182
▁wednesday	-10.182
▁favour	-10.182
▁nightmare	-10.182
▁violent	-10.182
▁tammy	-10.1821
▁environment	-10.1821
▁rude	-10.1821
▁broadcast	-10.1821
▁fried	-10.1821
▁navid	-10.1821
▁permission	-10.1821
▁blaring	-10.1821
▁curious	-10.1821
▁grandmother	-10.1821
▁downtown	-10.1821
▁basically	-10.1821
▁garland	-10.1821
▁bobby	-10.1822
▁blackstone	-10.1822
▁authority	-10.1822
▁lucis	-10.1822
▁package	-10.1822
▁original	-10.1822
▁lousy	-10.1823
▁mira	-10.1823
▁swing	-10.1823
▁reward	-10.1823
▁deaf	-10.1823
▁mental	-10.1824
▁yup	-10.1824
▁filthy	-10.1825
▁foul	-10.1825
▁winning	-10.1825
▁bedroom	-10.1825
▁commitment	-10.1826
▁gail	-10.1826
▁rebel	-10.1826
▁profit	-10.1827
▁pink	-10.1827
▁katia	-10.1828
▁jackson	-10.1829
▁gene	-10.183
▁plain	-10.183
▁dean	-10.1836
▁task	-10.1836
▁coughing	-10.1837
▁discovered	-10.1839
▁marie	-10.1839
▁critical	-10.1846
▁bride	-10.1847
wasting	-10.1847
▁ruby	-10.1847
▁eve	-10.1849
▁jokes	-10.1857
▁han	-10.1858
ley	-10.1859
▁faces	-10.1861
▁highest	-10.1862
work	-10.1872
▁pissed	-10.1875
▁suffering	-10.1876
▁trailer	-10.1879
ach	-10.1887
▁gar	-10.1889
▁kidnappers	-10.1894
▁tro	-10.1903
▁led	-10.1906
▁safer	-10.191
▁finest	-10.191
▁om	-10.1928
▁shelly	-10.1938
wa	-10.1943
▁parking	-10.1944
▁chap	-10.1946
▁painter	-10.1972
▁reporting	-10.1976
med	-10.1978
▁county	-10.1984
▁slams	-10.1991
▁quarters	-10.1992
▁emotional	-10.2001
▁armed	-10.2002
lie	-10.2008
▁sports	-10.2008
ii	-10.2029
▁burned	-10.2034
ants	-10.2049
▁fart	-10.2071
▁holidays	-10.2107
▁testing	-10.2109
▁behave	-10.211
▁manage	-10.2131
▁del	-10.2132
▁recording	-10.2135
▁members	-10.2156
▁sale	-10.2156
▁on	-10.2158
tro	-10.2221
▁beep	-10.2277
▁beating	-10.2281
▁and	-10.2291
▁mutant	-10.2306
▁evan	-10.2308
▁beside	-10.2309
▁dollar	-10.2313
▁wi	-10.2339
▁picking	-10.234
▁bomber	-10.2346
▁bee	-10.237
▁prisoner	-10.2402
can	-10.2405
ump	-10.2406
▁hop	-10.2439
▁mix	-10.2447
ik	-10.2449
▁mars	-10.2451
cr	-10.2468
▁direct	-10.2472
▁range	-10.2472
▁reminds	-10.2473
ther	-10.2473
▁russians	-10.2491
ator	-10.2493
▁delay	-10.2498
▁desert	-10.2499
▁engage	-10.2502
▁uhh	-10.2502
field	-10.2509
▁suite	-10.2512
▁wipe	-10.2514
▁constant	-10.2519
▁actual	-10.252
jar	-10.2521
▁advertise	-10.2526
▁down	-10.2527
▁pr	-10.2531
▁poison	-10.2534
▁holmes	-10.2535
▁fashion	-10.2535
rquez	-10.2535
▁charlene	-10.2535
▁charleshenri	-10.2535
▁committee	-10.2535
▁georgia	-10.2535
▁lesbian	-10.2535
▁panama	-10.2535
▁relative	-10.2535
▁shrimp	-10.2535
▁toilet	-10.2535
▁unhappy	-10.2535
▁vienna	-10.2535
▁zazz	-10.2535
▁zealand	-10.2535
▁charity	-10.2535
▁flew	-10.2535
▁onao	-10.2535
▁policy	-10.2535
▁flame	-10.2535
▁stood	-10.2535
▁chew	-10.2535
▁hidden	-10.2535
▁sexual	-10.2535
▁revenge	-10.2535
▁consent	-10.2535
▁pride	-10.2535
▁subtitle	-10.2535
▁digging	-10.2535
▁suitcase	-10.2535
▁network	-10.2535
▁rasp	-10.2535
▁gooz	-10.2535
▁neighborhood	-10.2535
▁skirt	-10.2535
▁slice	-10.2535
▁solid	-10.2535
▁broadway	-10.2535
▁barbecue	-10.2535
▁combat	-10.2536
▁assistant	-10.2536
▁rattle	-10.2536
▁vince	-10.2536
▁gatlin	-10.2536
▁praise	-10.2536
▁moron	-10.2536
▁blah	-10.2536
▁monk	-10.2537
▁blast	-10.2537
▁motor	-10.2537
▁stix	-10.2537
▁zoo	-10.2537
▁jo	-10.2537
▁elite	-10.2537
▁mini	-10.2538
▁youth	-10.2538
▁perry	-10.2539
▁capable	-10.2539
▁ranch	-10.2541
▁terrorist	-10.2541
▁magneto	-10.2541
▁guilty	-10.2541
▁nasty	-10.2541
▁whv	-10.2542
▁julien	-10.2542
▁pump	-10.2544
▁agreement	-10.2544
▁whinnying	-10.2544
▁explosives	-10.2545
▁iran	-10.2545
▁chosen	-10.2548
▁friendship	-10.2548
▁compared	-10.2548
▁bugger	-10.2549
▁labor	-10.2551
▁invented	-10.2552
▁spoken	-10.2552
▁clattering	-10.2552
▁golden	-10.2554
▁robbery	-10.2554
▁vice	-10.2555
▁properly	-10.2557
▁confirmed	-10.2557
▁ticking	-10.256
▁tax	-10.2561
▁bal	-10.2564
▁stopping	-10.2571
▁fee	-10.2573
▁mid	-10.2575
▁not	-10.258
▁failed	-10.258
▁fallen	-10.258
▁dresses	-10.2587
▁pity	-10.2589
▁claimed	-10.2591
▁seth	-10.2592
▁settled	-10.2609
▁bastards	-10.2609
▁studying	-10.261
▁boats	-10.262
▁mentioned	-10.2627
▁surely	-10.2643
▁products	-10.2644
▁comedy	-10.2647
▁knocked	-10.2656
▁cooking	-10.2657
▁rank	-10.2658
ise	-10.2665
▁announc	-10.2666
▁yards	-10.2666
▁grave	-10.2669
▁ye	-10.2687
rat	-10.269
▁trees	-10.2695
ram	-10.2704
▁gu	-10.272
▁plant	-10.2748
▁traveling	-10.2749
▁breaks	-10.2765
▁evans	-10.2772
▁followed	-10.2774
cal	-10.2777
▁needle	-10.2778
▁comp	-10.2788
ev	-10.2805
▁visiting	-10.2805
▁fishing	-10.2806
▁wheels	-10.2808
▁sponsors	-10.2808
▁boots	-10.281
▁bags	-10.2849
▁bend	-10.2895
▁sons	-10.2903
▁bullets	-10.2919
ush	-10.2925
▁sins	-10.293
▁appears	-10.2932
bu	-10.2945
▁knee	-10.295
gi	-10.2954
▁learning	-10.2967
▁tal	-10.2973
gen	-10.2982
▁at	-10.3013
▁hells	-10.3018
ments	-10.3025
▁whistles	-10.304
▁photograph	-10.305
▁clown	-10.3066
▁limit	-10.3066
▁cigarette	-10.3072
▁drip	-10.3072
que	-10.3073
▁customer	-10.3079
ches	-10.308
ette	-10.3082
▁luca	-10.3088
▁term	-10.3088
▁dealing	-10.3096
▁hon	-10.3126
▁blu	-10.3146
▁millions	-10.3147
ces	-10.3186
▁log	-10.3216
▁costs	-10.3221
af	-10.3228
inous	-10.3236
▁screech	-10.3243
▁corps	-10.3245
▁crawl	-10.3263
▁luc	-10.3268
▁defeat	-10.3268
lock	-10.3271
▁wig	-10.3282
▁mass	-10.3286
▁rec	-10.3287
▁particular	-10.329
▁recent	-10.3291
▁violet	-10.3293
▁louis	-10.3295
▁manchuria	-10.3295
▁julie	-10.3296
▁flu	-10.3298
▁comfort	-10.3301
▁republic	-10.3302
▁revolution	-10.3302
▁jew	-10.3302
▁scholar	-10.3303
▁brief	-10.3304
▁jung	-10.3304
▁aggressive	-10.3304
▁ambulance	-10.3304
▁ancient	-10.3304
▁anthony	-10.3304
▁apollo	-10.3304
▁approve	-10.3304
▁argue	-10.3304
▁associate	-10.3304
▁average	-10.3304
▁beloved	-10.3304
▁brodsky	-10.3304
▁creating	-10.3304
▁creek	-10.3304
▁dammit	-10.3304
▁democracy	-10.3304
▁dinesh	-10.3304
▁duchannes	-10.3304
▁embassy	-10.3304
▁eternity	-10.3304
▁feihung	-10.3304
▁glaive	-10.3304
▁hossein	-10.3304
▁jennifer	-10.3304
▁marcia	-10.3304
▁mexican	-10.3304
▁mysterious	-10.3304
▁portrait	-10.3304
▁potential	-10.3304
▁previous	-10.3304
▁reverend	-10.3304
▁sheldon	-10.3304
▁sikh	-10.3304
▁smack	-10.3304
▁tournament	-10.3304
▁underneath	-10.3304
▁vivian	-10.3304
▁william	-10.3304
▁stretch	-10.3304
▁credit	-10.3304
▁cuch	-10.3304
▁doyle	-10.3304
▁fisherman	-10.3304
▁instrument	-10.3304
▁proceed	-10.3304
▁session	-10.3304
▁moaning	-10.3304
▁otis	-10.3304
▁gunfire	-10.3304
▁taafe	-10.3304
▁fond	-10.3304
▁hisham	-10.3304
▁satisfaction	-10.3304
▁sontee	-10.3304
▁nickname	-10.3304
▁conference	-10.3304
▁skating	-10.3304
▁parade	-10.3304
▁hitler	-10.3304
▁silver	-10.3305
▁recall	-10.3305
▁woke	-10.3305
▁scholarship	-10.3305
▁contain	-10.3305
▁knight	-10.3305
▁erudite	-10.3305
▁inaudible	-10.3305
▁burt	-10.3305
▁stress	-10.3305
▁studies	-10.3305
▁stax	-10.3305
▁extraordinary	-10.3305
▁chart	-10.3305
▁failure	-10.3305
▁western	-10.3305
▁wore	-10.3306
▁wax	-10.3306
▁diana	-10.3306
▁motion	-10.3306
▁jewish	-10.3306
▁pike	-10.3306
▁junk	-10.3307
▁off	-10.3307
▁silent	-10.3307
▁anniversary	-10.3307
▁boze	-10.3307
▁popular	-10.3307
▁curl	-10.3307
▁election	-10.3307
▁exercise	-10.3307
▁smith	-10.3308
▁border	-10.3309
▁trini	-10.3309
▁aside	-10.3309
▁changes	-10.3311
▁fifty	-10.3311
ten	-10.3312
▁sec	-10.3312
▁moder	-10.3313
▁aye	-10.3313
▁bitsy	-10.3314
▁rail	-10.3314
▁craft	-10.3315
▁sid	-10.3315
▁heh	-10.3316
▁factory	-10.3316
▁roth	-10.3317
▁impression	-10.3318
▁protection	-10.3319
▁particularly	-10.332
▁photographer	-10.332
▁chain	-10.3323
▁provided	-10.3323
▁cave	-10.3326
▁pager	-10.3332
▁timing	-10.3332
▁donne	-10.3332
▁vampires	-10.3333
▁matches	-10.3334
▁jobs	-10.3337
br	-10.3341
▁statement	-10.3342
▁tower	-10.3343
▁suffered	-10.3348
▁sonia	-10.3349
▁chester	-10.3353
▁heroes	-10.3353
▁gee	-10.3353
▁consult	-10.3358
▁released	-10.3366
rry	-10.3367
▁badge	-10.3371
▁failing	-10.3377
▁survived	-10.338
▁published	-10.338
▁psycho	-10.3381
▁melt	-10.3381
▁reality	-10.3382
▁lea	-10.3383
▁sweater	-10.3385
▁spirits	-10.3386
▁bitches	-10.3388
▁banging	-10.3389
▁op	-10.3394
▁shared	-10.3396
▁quietly	-10.3402
▁cells	-10.3405
▁carefully	-10.3408
▁reached	-10.3429
▁bandy	-10.3444
▁letters	-10.3445
▁marines	-10.3446
▁nan	-10.3454
▁tag	-10.3455
▁pl	-10.3457
▁noon	-10.3465
▁squeals	-10.3466
▁freaking	-10.3467
▁diet	-10.3473
▁she	-10.3477
▁tale	-10.3489
▁rocks	-10.3501
▁ke	-10.3504
▁murderer	-10.3505
▁protecting	-10.3508
▁sim	-10.3521
▁bb	-10.3536
▁cigarettes	-10.3542
▁flip	-10.3558
▁beeps	-10.3563
▁roses	-10.3572
ero	-10.3575
▁sticking	-10.3601
▁snakes	-10.3602
▁leading	-10.3604
▁sand	-10.3606
▁dia	-10.3611
▁woods	-10.3629
▁touched	-10.3643
▁lit	-10.3644
▁speaker	-10.3666
▁trusted	-10.3673
▁dreamed	-10.3678
▁spin	-10.3702
▁tracks	-10.3716
▁rot	-10.3716
▁gunshots	-10.3735
▁feelin	-10.3739
▁strangers	-10.3744
▁everyones	-10.377
▁checked	-10.3785
ire	-10.3795
▁gut	-10.3795
see	-10.3811
▁presents	-10.382
▁inn	-10.3829
▁stands	-10.3829
▁ln	-10.3832
▁site	-10.3842
▁officers	-10.3849
▁detail	-10.3871
chi	-10.3875
▁cock	-10.3878
▁chick	-10.3896
▁mortal	-10.3897
▁pens	-10.3898
▁adult	-10.3899
▁citizen	-10.3901
▁effect	-10.3903
▁sta	-10.3907
▁sport	-10.3909
▁gorgonite	-10.3911
▁emotion	-10.3914
▁guardian	-10.3916
ron	-10.3923
▁bon	-10.3927
▁greeting	-10.3928
▁commando	-10.3942
▁pla	-10.3949
▁anti	-10.3975
hop	-10.3986
par	-10.3988
▁exam	-10.4009
use	-10.4068
▁relationships	-10.4069
▁interrupt	-10.4084
▁patients	-10.4089
▁spoil	-10.4102
▁explode	-10.4107
▁compromise	-10.4107
▁positions	-10.4108
▁bleed	-10.4109
place	-10.4111
▁michel	-10.4117
old	-10.4119
stage	-10.4121
▁olive	-10.4128
▁express	-10.4131
▁mmhm	-10.4133
▁rhythm	-10.4133
bra	-10.4134
▁visual	-10.4137
▁cruel	-10.4137
▁applaud	-10.4137
▁aloha	-10.4137
▁anderson	-10.4137
▁appeal	-10.4137
▁application	-10.4137
▁assigned	-10.4137
▁bizarre	-10.4137
▁certificate	-10.4137
▁client	-10.4137
▁consort	-10.4137
▁easily	-10.4137
▁fulfill	-10.4137
▁gnarnia	-10.4137
▁horror	-10.4137
▁illegal	-10.4137
▁individual	-10.4137
▁jacob	-10.4137
▁junior	-10.4137
▁katrina	-10.4137
▁kelekian	-10.4137
▁motherfuck	-10.4137
▁paradise	-10.4137
▁phase	-10.4137
▁priscilla	-10.4137
▁recommend	-10.4137
▁rekker	-10.4137
▁septimus	-10.4137
▁stadium	-10.4137
▁stammers	-10.4137
▁suspicious	-10.4137
▁technique	-10.4137
▁tetsuzo	-10.4137
▁texas	-10.4137
▁throughout	-10.4137
▁tissue	-10.4137
▁typical	-10.4137
▁unfair	-10.4137
▁unique	-10.4137
▁unusual	-10.4137
▁velvet	-10.4137
▁vodka	-10.4137
▁wilhelm	-10.4137
▁yonggary	-10.4137
▁atkins	-10.4137
▁battery	-10.4137
▁choking	-10.4137
▁dahl	-10.4137
▁flesh	-10.4137
▁kingdom	-10.4137
▁pleasant	-10.4137
▁superior	-10.4137
▁trumps	-10.4137
▁wicked	-10.4137
▁awav	-10.4137
▁burst	-10.4137
▁carpet	-10.4137
▁cafe	-10.4137
▁frost	-10.4137
▁intel	-10.4137
▁miller	-10.4137
▁shore	-10.4137
▁draft	-10.4137
▁gray	-10.4137
▁warrant	-10.4137
▁whimpering	-10.4137
▁staff	-10.4137
▁lazy	-10.4137
▁susan	-10.4137
▁facing	-10.4137
▁whyd	-10.4137
▁sweden	-10.4137
▁mankind	-10.4137
▁ashley	-10.4137
▁sheila	-10.4138
▁rosie	-10.4138
▁wagon	-10.4138
▁accent	-10.4138
▁edgar	-10.4138
▁rotten	-10.4138
▁sobs	-10.4138
▁leather	-10.4138
▁exchange	-10.4138
▁addition	-10.4138
▁influence	-10.4138
▁balan	-10.4138
▁threatened	-10.4138
▁skateboard	-10.4138
▁plastic	-10.4138
▁daily	-10.4138
▁struck	-10.4138
ez	-10.4138
▁garage	-10.4138
▁aslo	-10.4139
▁nazi	-10.4139
▁puppy	-10.4139
▁objective	-10.4139
▁stiff	-10.4139
▁clue	-10.4139
▁incompetent	-10.4139
▁electricity	-10.4139
▁howard	-10.4139
▁assault	-10.4139
▁appearance	-10.4139
▁andrew	-10.4139
▁margo	-10.4139
▁skinny	-10.4139
▁wrapped	-10.4139
▁paps	-10.414
▁baseball	-10.414
▁chaos	-10.414
▁version	-10.414
▁beggar	-10.414
▁weakness	-10.414
▁kansas	-10.4141
▁satan	-10.4141
▁practically	-10.4141
▁leeman	-10.4141
▁dax	-10.4141
▁fever	-10.4142
▁proof	-10.4142
▁emily	-10.4142
▁gang	-10.4143
▁flies	-10.4143
▁ego	-10.4143
▁forth	-10.4144
beat	-10.4147
▁identity	-10.4147
▁skies	-10.4147
▁stepped	-10.4148
▁allen	-10.4148
▁morales	-10.4149
han	-10.415
▁bout	-10.4151
▁shaking	-10.4154
▁net	-10.4155
▁production	-10.4155
▁link	-10.4155
▁dull	-10.4157
▁tube	-10.4157
▁howling	-10.4158
▁boil	-10.416
▁designed	-10.416
▁lean	-10.4162
▁thump	-10.4162
▁crowe	-10.4169
▁lyrics	-10.4169
▁mustnt	-10.4174
▁mud	-10.4176
▁billion	-10.4177
▁voices	-10.418
▁deny	-10.418
▁lend	-10.418
▁refused	-10.4181
▁leak	-10.4182
▁yah	-10.4183
▁wing	-10.4184
▁drowning	-10.4185
▁producer	-10.419
▁cryin	-10.419
▁blessed	-10.4191
▁lifetime	-10.4192
▁walks	-10.4204
▁sighing	-10.4204
▁geez	-10.4208
▁former	-10.4209
▁au	-10.4217
▁entering	-10.4222
▁cart	-10.4225
▁charming	-10.4226
▁wasted	-10.4232
▁guide	-10.4235
▁farmers	-10.4236
▁tracking	-10.4237
▁tits	-10.4238
ix	-10.4241
▁communications	-10.4251
▁documents	-10.4251
▁missiles	-10.4251
▁helpful	-10.4256
▁wd	-10.4256
▁dies	-10.4257
bit	-10.4271
▁runs	-10.4273
▁belly	-10.4279
▁poster	-10.4285
▁fairy	-10.4292
▁squ	-10.4296
▁ace	-10.4304
▁begg	-10.4306
▁heels	-10.4314
▁movement	-10.4326
▁groups	-10.4329
▁joined	-10.433
▁oooh	-10.4333
▁fin	-10.4343
▁encourage	-10.435
▁engineer	-10.435
▁ending	-10.4361
▁spa	-10.4362
ito	-10.4367
▁is	-10.4376
▁din	-10.4386
▁landed	-10.4392
▁hum	-10.4394
▁nail	-10.4443
▁ana	-10.445
▁prisoners	-10.4451
ened	-10.4457
▁slap	-10.4458
▁sy	-10.4458
▁te	-10.4461
▁thin	-10.4505
▁mmmm	-10.4517
▁kissing	-10.4533
▁listened	-10.4545
za	-10.4547
▁teams	-10.4552
▁med	-10.4555
erto	-10.4564
▁slim	-10.4573
▁bars	-10.4575
ko	-10.4576
▁ghosts	-10.4608
▁childrens	-10.4623
▁er	-10.4641
▁commercials	-10.4645
▁bottles	-10.4651
▁dam	-10.4653
▁magazines	-10.4672
utti	-10.4697
▁vin	-10.4699
▁sha	-10.4705
▁mon	-10.4757
▁lion	-10.4757
▁remains	-10.4757
▁neighbors	-10.4779
▁barn	-10.4787
▁uniform	-10.4806
▁shark	-10.4806
▁drug	-10.481
▁brake	-10.4814
▁quarter	-10.4819
▁salt	-10.4821
▁slam	-10.4826
▁ph	-10.4827
▁anna	-10.4832
▁exception	-10.4838
▁drum	-10.4848
ester	-10.4853
oid	-10.4853
rous	-10.4885
handed	-10.4887
▁falls	-10.4892
▁har	-10.4893
▁painful	-10.4902
▁gl	-10.4914
▁souls	-10.4947
▁connect	-10.4951
mb	-10.4958
ium	-10.4962
▁trail	-10.4969
▁services	-10.4973
▁nations	-10.4978
▁drown	-10.4995
▁corrupt	-10.5009
▁recover	-10.501
▁dol	-10.5011
▁crush	-10.5011
▁abandon	-10.5012
▁chickens	-10.5015
where	-10.5016
▁suits	-10.5016
▁remove	-10.5017
▁medic	-10.5018
hu	-10.5026
▁custom	-10.5026
▁robber	-10.5027
▁exact	-10.5033
▁object	-10.5033
▁despi	-10.5043
▁wate	-10.5043
▁chuck	-10.5044
orna	-10.5044
▁gentle	-10.5044
▁terror	-10.5045
▁dip	-10.5045
▁slight	-10.5046
▁attempt	-10.5046
▁adorable	-10.5046
▁adventure	-10.5046
▁airplane	-10.5046
▁behalf	-10.5046
▁benefit	-10.5046
▁bertie	-10.5046
▁bokke	-10.5046
▁bruno	-10.5046
▁budapest	-10.5046
▁celebrity	-10.5046
▁cognac	-10.5046
▁debbie	-10.5046
▁disgrace	-10.5046
▁dominique	-10.5046
▁elbow	-10.5046
▁eleven	-10.5046
▁evolution	-10.5046
▁fiction	-10.5046
▁florida	-10.5046
▁graveyard	-10.5046
▁happier	-10.5046
▁invasion	-10.5046
▁lincoln	-10.5046
▁marilyn	-10.5046
▁massacre	-10.5046
▁morris	-10.5046
▁mumbling	-10.5046
▁negative	-10.5046
▁noctis	-10.5046
▁passengers	-10.5046
▁patriot	-10.5046
▁permit	-10.5046
▁prevent	-10.5046
▁puppies	-10.5046
▁seriozha	-10.5046
▁spray	-10.5046
▁struggle	-10.5046
▁supreme	-10.5046
▁survival	-10.5046
▁tenebrae	-10.5046
▁terrified	-10.5046
▁tolerate	-10.5046
▁traitor	-10.5046
▁tremendous	-10.5046
▁trigger	-10.5046
▁tshirt	-10.5046
▁turkey	-10.5046
▁underwear	-10.5046
▁vulgar	-10.5046
▁anchor	-10.5046
▁false	-10.5046
▁lomu	-10.5046
▁melvin	-10.5046
▁krstic	-10.5046
▁revving	-10.5046
▁worn	-10.5046
▁barrel	-10.5046
▁snoring	-10.5046
▁apply	-10.5046
▁sonnet	-10.5047
▁freezing	-10.5047
▁formula	-10.5047
▁apology	-10.5047
▁trunk	-10.5047
▁sputter	-10.5047
▁bonnie	-10.5047
▁cord	-10.5047
▁ibs	-10.5047
▁urgent	-10.5047
▁budget	-10.5047
▁square	-10.5047
▁sabela	-10.5047
▁museum	-10.5047
▁honour	-10.5047
▁protest	-10.5047
▁johan	-10.5047
▁hammer	-10.5047
▁walsh	-10.5047
▁uncomfortable	-10.5047
▁blanket	-10.5047
▁waking	-10.5047
▁mutation	-10.5048
▁confident	-10.5048
▁scrap	-10.5048
▁hugh	-10.5048
▁branch	-10.5048
▁bucket	-10.5048
▁patrol	-10.5048
▁childhood	-10.5048
▁grey	-10.5049
▁grass	-10.5049
▁gabe	-10.5049
▁clang	-10.5049
▁civilian	-10.5049
▁cheek	-10.5049
▁daemon	-10.505
▁coke	-10.505
▁habit	-10.505
▁irish	-10.505
▁rally	-10.505
▁begun	-10.505
▁pepper	-10.505
▁ramp	-10.5051
▁clapping	-10.5051
▁hungary	-10.5051
▁merrick	-10.5051
▁sanders	-10.5052
▁yong	-10.5052
▁anger	-10.5052
▁stake	-10.5053
▁data	-10.5053
utton	-10.5053
▁poker	-10.5053
▁ease	-10.5055
▁bury	-10.5055
▁aww	-10.5055
▁stall	-10.5056
▁barnes	-10.5056
▁carrier	-10.5056
▁q	-10.5059
▁july	-10.5059
▁roberto	-10.506
▁active	-10.506
▁darkness	-10.5061
▁thatd	-10.5061
▁ability	-10.5062
▁dragon	-10.5063
▁darn	-10.5063
▁reckon	-10.5063
▁sword	-10.5064
▁dougie	-10.5066
▁bucky	-10.5067
▁dug	-10.5068
▁louise	-10.5069
▁burr	-10.507
▁pickup	-10.5071
▁stable	-10.5071
▁poop	-10.5071
run	-10.5071
▁disappointed	-10.5072
▁frightened	-10.5072
▁required	-10.5072
▁era	-10.5072
▁uhoh	-10.5072
▁brat	-10.5075
▁classic	-10.5075
▁bond	-10.5078
▁willie	-10.5079
▁sang	-10.5081
▁ne	-10.5082
▁hunger	-10.5083
▁lawn	-10.5087
▁coal	-10.5088
▁shipment	-10.5088
▁advanced	-10.5088
▁squealing	-10.509
▁delivery	-10.509
tory	-10.5091
▁discipline	-10.5093
▁anne	-10.5105
▁convinced	-10.5107
▁tender	-10.5108
▁systems	-10.5126
▁separated	-10.5129
▁escaped	-10.5137
▁fighter	-10.5139
▁beard	-10.5144
ei	-10.5145
▁focused	-10.5169
▁pete	-10.5176
jo	-10.5178
▁teachers	-10.518
▁prop	-10.5187
▁bea	-10.5194
▁sla	-10.5196
▁stab	-10.5197
▁evils	-10.5215
▁lower	-10.5215
▁worthy	-10.5222
▁wally	-10.5226
▁safely	-10.5227
▁arrives	-10.5244
▁tons	-10.5251
▁rely	-10.5252
▁screwing	-10.526
▁socks	-10.5263
ole	-10.5266
▁comb	-10.5268
▁brakes	-10.5286
▁hopeful	-10.5288
▁boxing	-10.5291
▁sis	-10.5297
▁greetings	-10.5309
▁tur	-10.5347
▁messing	-10.5354
oi	-10.5358
▁hips	-10.5359
feit	-10.5361
▁yells	-10.538
▁actors	-10.5382
▁bin	-10.5386
▁ap	-10.5387
sha	-10.5398
▁cleaned	-10.54
▁bump	-10.542
▁lawyers	-10.5425
▁tryin	-10.5427
oc	-10.5429
▁affairs	-10.5448
▁tin	-10.5449
▁min	-10.5468
▁shoulders	-10.5496
▁tor	-10.5498
▁threats	-10.5514
▁wit	-10.5516
istic	-10.5522
▁buildings	-10.5528
▁counting	-10.5531
nal	-10.5562
▁americans	-10.559
▁choices	-10.5595
▁players	-10.5595
▁assum	-10.561
▁ministers	-10.5618
▁understanding	-10.5624
▁fed	-10.5633
iy	-10.5634
▁sticks	-10.564
rated	-10.5652
▁egg	-10.5671
ana	-10.5682
▁as	-10.5726
▁ski	-10.5741
▁pilots	-10.5753
ably	-10.5802
▁muscle	-10.5803
▁await	-10.5807
▁zero	-10.5813
▁rem	-10.5815
▁sock	-10.5815
▁mayer	-10.5816
▁scar	-10.5817
▁toward	-10.5818
▁button	-10.5828
▁nut	-10.5831
ward	-10.5832
▁mac	-10.5843
ington	-10.5848
boy	-10.5884
▁mal	-10.5893
ft	-10.5895
▁lessons	-10.5901
bar	-10.5916
ters	-10.5916
▁checking	-10.592
iest	-10.592
▁prior	-10.5933
j	-10.5947
▁mont	-10.5961
gan	-10.5962
▁develop	-10.5982
▁signs	-10.5992
▁cra	-10.5993
arian	-10.5996
▁loser	-10.6
▁require	-10.6004
▁betray	-10.601
▁blues	-10.6012
▁delight	-10.6013
▁rescue	-10.6016
▁trace	-10.6019
pack	-10.6022
two	-10.6023
burn	-10.6024
life	-10.6025
box	-10.6025
burg	-10.6029
▁incredibl	-10.6029
▁earn	-10.6033
▁current	-10.6035
▁rare	-10.6036
▁core	-10.6037
▁wal	-10.6038
bble	-10.6039
face	-10.604
▁livin	-10.6042
▁complex	-10.6042
kull	-10.6042
▁iris	-10.6042
▁author	-10.6043
▁regard	-10.6045
▁regis	-10.6045
▁nathan	-10.6046
▁basic	-10.6046
▁broad	-10.6046
▁squad	-10.6046
▁alpha	-10.6046
▁absurd	-10.6046
▁alabama	-10.6046
▁ansarafina	-10.6046
▁anxious	-10.6046
▁arrogant	-10.6046
▁attached	-10.6046
▁background	-10.6046
▁bruce	-10.6046
▁burden	-10.6046
▁burke	-10.6046
▁champagne	-10.6046
▁cleaver	-10.6046
▁columbia	-10.6046
▁credibility	-10.6046
▁darwin	-10.6046
▁deploy	-10.6046
▁disaster	-10.6046
▁dovlatov	-10.6046
▁eleanor	-10.6046
▁eugene	-10.6046
▁eventually	-10.6046
▁fascinating	-10.6046
▁fifth	-10.6046
▁furniture	-10.6046
▁integrity	-10.6046
▁intention	-10.6046
▁investigation	-10.6046
▁judgment	-10.6046
▁libertus	-10.6046
▁manhattan	-10.6046
▁michael	-10.6046
▁minnesota	-10.6046
▁moira	-10.6046
▁nephew	-10.6046
▁nicholson	-10.6046
▁obsession	-10.6046
▁pellegrini	-10.6046
▁pomegranate	-10.6046
▁proposal	-10.6046
▁purple	-10.6046
▁reschedule	-10.6046
▁sarafine	-10.6046
▁sensitive	-10.6046
▁shrink	-10.6046
▁similar	-10.6046
▁slaughter	-10.6046
▁smooth	-10.6046
▁sorrow	-10.6046
▁squeak	-10.6046
▁storage	-10.6046
▁symbol	-10.6046
▁temple	-10.6046
▁tennessee	-10.6046
▁terribly	-10.6046
▁vasquez	-10.6046
▁whinnies	-10.6046
▁editor	-10.6046
▁honeymoon	-10.6046
▁kevin	-10.6046
▁mathalon	-10.6046
▁muttering	-10.6046
▁spiritual	-10.6046
▁ardent	-10.6046
▁loretta	-10.6046
▁niece	-10.6046
▁bozo	-10.6046
▁churchill	-10.6046
▁jingle	-10.6046
▁maud	-10.6046
▁bodine	-10.6046
▁gilbert	-10.6046
▁kelly	-10.6046
▁stray	-10.6046
▁shakily	-10.6047
▁spurlock	-10.6047
▁email	-10.6047
▁scumbag	-10.6047
▁consum	-10.6047
▁canada	-10.6047
▁multi	-10.6047
▁sunset	-10.6047
▁shining	-10.6047
▁steak	-10.6047
▁spoon	-10.6047
▁hobby	-10.6047
▁whiskey	-10.6047
▁breed	-10.6047
▁priest	-10.6047
▁throne	-10.6047
▁robbie	-10.6047
▁oops	-10.6047
▁theory	-10.6047
▁banned	-10.6047
▁ravenwood	-10.6047
▁cherry	-10.6047
▁eboat	-10.6047
▁creative	-10.6048
▁onlv	-10.6048
▁kasi	-10.6048
▁entertainment	-10.6048
urban	-10.6048
▁choke	-10.6048
▁erma	-10.6048
▁duties	-10.6048
▁festival	-10.6048
▁cease	-10.6048
▁poking	-10.6048
▁privilege	-10.6048
▁promotion	-10.6048
▁towel	-10.6048
▁pork	-10.6048
▁scum	-10.6048
▁aircraft	-10.6048
▁existence	-10.6048
▁haircut	-10.6049
▁brick	-10.6049
▁adam	-10.6049
▁juliana	-10.6049
▁abortion	-10.605
▁classified	-10.605
▁pushkin	-10.605
▁marita	-10.605
▁perimeter	-10.605
▁hip	-10.605
▁gear	-10.6051
▁loan	-10.6052
▁manual	-10.6053
▁drank	-10.6053
▁keg	-10.6053
▁academy	-10.6053
▁stav	-10.6053
▁cue	-10.6054
▁barton	-10.6054
▁drunkard	-10.6054
▁journalist	-10.6054
▁comin	-10.6054
▁amma	-10.6055
▁chairman	-10.6055
▁wales	-10.6056
▁castle	-10.6056
▁serving	-10.6056
▁tries	-10.6057
▁kess	-10.6059
▁lap	-10.6059
▁tomar	-10.606
▁lame	-10.6061
away	-10.6061
▁stain	-10.6065
▁onion	-10.6065
▁andrey	-10.6066
▁operate	-10.607
▁exhausted	-10.6071
▁iii	-10.6071
▁dk	-10.6072
▁punished	-10.6074
▁slave	-10.6077
▁setting	-10.6077
▁demon	-10.6079
▁shaken	-10.6082
bor	-10.6084
▁connected	-10.6086
▁sincere	-10.6089
▁nailed	-10.609
▁shal	-10.6091
▁mixed	-10.6097
▁chat	-10.6097
▁goodlooking	-10.6097
▁rev	-10.6102
▁odds	-10.611
▁suggested	-10.6112
▁codes	-10.6114
▁volunteered	-10.6115
▁delivered	-10.6115
wept	-10.6118
▁pastor	-10.6118
▁fry	-10.6118
▁bald	-10.6119
ja	-10.6121
▁hired	-10.6125
▁begins	-10.6132
▁sucking	-10.6134
▁barb	-10.6135
▁witch	-10.6143
▁busted	-10.6146
▁belonged	-10.6151
▁sniff	-10.6153
ities	-10.6153
▁humans	-10.6156
att	-10.616
shed	-10.6164
▁fore	-10.6166
▁faithful	-10.6179
▁foundation	-10.6185
▁diver	-10.6198
▁shave	-10.6209
▁accepted	-10.6209
▁treating	-10.6217
nda	-10.6221
▁frankly	-10.6221
▁baron	-10.623
▁feeding	-10.6261
▁gram	-10.6284
rate	-10.6295
ink	-10.6309
port	-10.6312
take	-10.6316
▁boarding	-10.6318
▁seats	-10.6334
ming	-10.6335
▁fits	-10.6336
con	-10.6342
▁achieve	-10.6343
▁pleased	-10.6353
▁fort	-10.6355
ane	-10.6358
▁tease	-10.6364
aw	-10.6366
▁kissed	-10.637
▁recorded	-10.6372
ties	-10.6376
unt	-10.6389
▁fighters	-10.6414
iff	-10.6415
▁dun	-10.6421
uda	-10.6444
top	-10.6453
▁spits	-10.6469
▁musical	-10.6476
▁remembered	-10.6477
▁films	-10.6483
▁aliens	-10.6491
▁booked	-10.6495
▁ton	-10.6495
▁hates	-10.6497
▁carol	-10.6502
lan	-10.6504
ggy	-10.6512
▁ob	-10.6517
▁standards	-10.6519
▁si	-10.6536
▁trainer	-10.6539
▁pea	-10.655
▁brands	-10.6583
pin	-10.6598
▁fools	-10.6603
▁marrying	-10.661
▁computers	-10.6623
▁ads	-10.6627
▁leaders	-10.6632
int	-10.6638
wi	-10.6647
▁accounts	-10.665
tical	-10.6655
▁hills	-10.666
▁drivers	-10.6666
▁rode	-10.6668
▁issues	-10.6676
▁bv	-10.6676
▁rod	-10.6688
▁concerns	-10.6723
▁sirens	-10.673
▁suckers	-10.6736
▁glue	-10.6736
pped	-10.6755
▁pun	-10.6757
▁gro	-10.6796
▁gates	-10.6808
nder	-10.6809
gie	-10.6811
▁nicely	-10.6833
▁stuffed	-10.6837
▁inc	-10.6841
▁critic	-10.6842
▁squeal	-10.6872
▁click	-10.6882
lf	-10.6886
▁arrive	-10.6903
▁buck	-10.6909
▁costume	-10.6914
ank	-10.6917
▁cheerleader	-10.6917
▁dagger	-10.6917
▁scout	-10.6919
▁wrist	-10.6921
▁orphan	-10.6921
▁tool	-10.6925
fus	-10.6931
▁sip	-10.6936
▁slip	-10.6936
hand	-10.6942
▁heel	-10.6944
▁tests	-10.6949
▁visitor	-10.6951
▁mountains	-10.6952
rus	-10.6966
▁conversations	-10.6967
▁chas	-10.6967
▁finals	-10.7007
ache	-10.7016
▁blessing	-10.7024
▁mat	-10.7039
ute	-10.704
▁rankin	-10.7053
▁haw	-10.7058
▁clinic	-10.7059
▁greg	-10.7079
looking	-10.7079
ition	-10.7088
missary	-10.709
▁sk	-10.7092
ory	-10.7093
▁rape	-10.7098
ack	-10.71
▁reasons	-10.7101
▁brush	-10.7104
▁rais	-10.7113
▁tab	-10.7121
▁experiment	-10.7121
▁confirm	-10.7123
board	-10.7125
load	-10.7128
▁provide	-10.7129
▁include	-10.713
walk	-10.7134
free	-10.7135
right	-10.7137
▁buff	-10.7141
tive	-10.7143
▁humiliate	-10.7145
inlaw	-10.7153
oughs	-10.7154
▁lili	-10.7154
▁fright	-10.7155
▁germ	-10.7155
▁villa	-10.7155
▁detect	-10.7156
▁sail	-10.7157
▁entertain	-10.7157
▁gorgon	-10.7157
▁compassion	-10.7157
▁adolescent	-10.7158
▁alyssa	-10.7158
▁architect	-10.7158
▁arguing	-10.7158
▁awkward	-10.7158
▁bolshevik	-10.7158
▁broomball	-10.7158
▁cadillac	-10.7158
▁cheerleading	-10.7158
▁climb	-10.7158
▁conscience	-10.7158
▁convention	-10.7158
▁crisis	-10.7158
▁deliberately	-10.7158
▁delicate	-10.7158
▁diplomat	-10.7158
▁divergent	-10.7158
▁downhill	-10.7158
▁dubai	-10.7158
▁dunkirk	-10.7158
▁eagle	-10.7158
▁electronic	-10.7158
▁exclaiming	-10.7158
▁exclusive	-10.7158
▁fernand	-10.7158
▁fossil	-10.7158
▁ghaffarian	-10.7158
▁gypsy	-10.7158
▁imagination	-10.7158
▁independence	-10.7158
▁industry	-10.7158
▁initiate	-10.7158
▁inspiration	-10.7158
▁jonathan	-10.7158
▁kabul	-10.7158
▁karoli	-10.7158
▁keiying	-10.7158
▁loschek	-10.7158
▁luggage	-10.7158
▁mastronardi	-10.7158
▁measure	-10.7158
▁mechanic	-10.7158
▁merchandise	-10.7158
▁messenger	-10.7158
▁microphone	-10.7158
▁opposite	-10.7158
▁oscar	-10.7158
▁pattern	-10.7158
▁possibility	-10.7158
▁powder	-10.7158
▁principle	-10.7158
▁procedure	-10.7158
▁pulse	-10.7158
▁puppet	-10.7158
▁quality	-10.7158
▁reckless	-10.7158
▁recruit	-10.7158
▁science	-10.7158
▁senator	-10.7158
▁sholom	-10.7158
▁signature	-10.7158
▁smiling	-10.7158
▁socalled	-10.7158
▁sofoyan	-10.7158
▁stanley	-10.7158
▁survivor	-10.7158
▁switzerland	-10.7158
▁talbot	-10.7158
▁taylor	-10.7158
▁tehran	-10.7158
▁temperature	-10.7158
▁therapy	-10.7158
▁tunnel	-10.7158
▁unknown	-10.7158
▁whirring	-10.7158
▁bleep	-10.7158
▁breach	-10.7158
▁canyon	-10.7158
▁dummy	-10.7158
▁garsik	-10.7158
▁occurred	-10.7158
▁orchestra	-10.7158
▁pendant	-10.7158
▁phony	-10.7158
▁retard	-10.7158
▁ultimate	-10.7158
▁appetite	-10.7158
▁bandaid	-10.7158
▁exclaims	-10.7158
▁rooty	-10.7158
▁sheep	-10.7158
▁sipsey	-10.7158
▁actress	-10.7158
▁glove	-10.7158
▁intercept	-10.7158
▁smuggl	-10.7158
▁sweep	-10.7158
▁vital	-10.7158
▁countries	-10.7158
▁worship	-10.7158
▁grabbed	-10.7158
▁series	-10.7158
▁carrot	-10.7158
▁courtesy	-10.7158
▁hunch	-10.7158
▁whining	-10.7158
▁gossip	-10.7158
▁briefcase	-10.7158
▁skunk	-10.7158
▁tennis	-10.7158
▁snort	-10.7158
▁drill	-10.7158
▁tramp	-10.7158
▁translat	-10.7158
▁hahaha	-10.7158
▁marvelous	-10.7158
▁cramp	-10.7158
▁kidnapped	-10.7158
▁joanna	-10.7158
▁whitney	-10.7158
▁baker	-10.7158
▁farewell	-10.7158
▁orange	-10.7158
▁tribe	-10.7158
▁finley	-10.7158
▁tux	-10.7158
▁snack	-10.7158
▁levinson	-10.7158
▁retirement	-10.7158
▁sharing	-10.7158
▁plot	-10.7158
▁rudy	-10.7159
▁lurk	-10.7159
▁interior	-10.7159
▁structure	-10.7159
▁wives	-10.7159
▁documentary	-10.7159
▁jury	-10.7159
▁generous	-10.7159
▁ridley	-10.7159
▁grip	-10.7159
▁deposit	-10.7159
▁vietnam	-10.7159
▁vincent	-10.7159
▁pillow	-10.7159
▁jose	-10.716
▁crane	-10.716
▁lucian	-10.716
▁mask	-10.716
▁whatll	-10.716
▁tapping	-10.716
▁observation	-10.716
▁adore	-10.716
▁aboard	-10.7161
▁psychic	-10.7161
▁virginia	-10.7161
▁fame	-10.7161
▁noble	-10.7161
▁unlike	-10.7161
▁supper	-10.7161
▁governor	-10.7162
▁showcase	-10.7162
▁genetic	-10.7162
▁jones	-10.7162
▁related	-10.7163
▁nora	-10.7164
▁rice	-10.7164
▁footage	-10.7164
▁franklin	-10.7164
▁voiceover	-10.7164
▁tug	-10.7164
▁precisely	-10.7164
▁whew	-10.7164
▁lamb	-10.7164
▁communist	-10.7165
▁countess	-10.7165
▁flatter	-10.7166
▁suggestion	-10.7166
▁cries	-10.7166
▁salary	-10.7166
▁raw	-10.7167
▁meanwhile	-10.7167
▁childish	-10.7167
▁coverage	-10.7168
▁chapter	-10.7168
▁milo	-10.7168
▁injured	-10.7168
▁slipped	-10.7168
▁forgiveness	-10.7169
▁located	-10.7169
that	-10.7169
▁carried	-10.717
▁technically	-10.717
▁cathy	-10.717
ology	-10.717
▁advertisement	-10.7171
▁june	-10.7172
▁confession	-10.7172
▁circumstances	-10.7173
▁freeway	-10.7174
▁highway	-10.7174
▁reno	-10.7174
cca	-10.7175
▁slipper	-10.7175
▁prof	-10.7176
▁promoted	-10.7176
▁arranged	-10.7176
▁dismissed	-10.7176
▁kent	-10.7176
▁conduct	-10.7177
▁tina	-10.7177
▁currently	-10.7177
▁hush	-10.718
▁jen	-10.718
▁constantly	-10.7183
▁peaceful	-10.7184
▁pounding	-10.7186
▁forty	-10.7189
▁informed	-10.7189
▁bass	-10.7191
▁jr	-10.7192
▁wander	-10.7199
▁strain	-10.7199
▁earned	-10.7199
▁grosser	-10.7199
▁pole	-10.72
aries	-10.72
▁fourth	-10.7201
▁surprises	-10.7202
▁naturally	-10.7208
▁boxes	-10.7209
▁interpret	-10.7216
▁sharply	-10.7218
▁cable	-10.7219
▁appa	-10.7222
▁je	-10.7226
ide	-10.7226
▁ribs	-10.7228
▁beaten	-10.7231
▁drain	-10.7235
▁corpse	-10.7245
▁canceled	-10.7248
light	-10.7248
▁fade	-10.7252
▁dorris	-10.7257
▁negotiations	-10.7257
▁diapers	-10.7257
ville	-10.726
▁suggesting	-10.7267
▁beta	-10.7268
▁introduced	-10.727
▁smokey	-10.7278
ada	-10.7282
▁manners	-10.7287
ware	-10.7287
made	-10.7288
▁sheet	-10.7289
▁bare	-10.7292
▁sued	-10.7292
▁divorced	-10.7298
▁bunk	-10.7325
▁spying	-10.733
▁victoria	-10.7331
▁don	-10.735
▁shortly	-10.735
▁formed	-10.737
▁contestants	-10.7372
▁peel	-10.7374
den	-10.7377
▁bothering	-10.7381
▁kim	-10.7385
▁cling	-10.7388
▁tools	-10.7398
▁wrists	-10.74
▁visitors	-10.7404
▁engines	-10.7407
▁waters	-10.741
▁rac	-10.7412
▁chances	-10.742
▁returned	-10.7425
bi	-10.7427
▁buttons	-10.7431
▁ding	-10.7432
▁crossing	-10.7432
▁hunter	-10.7434
wan	-10.7442
▁cage	-10.7451
▁drums	-10.7453
▁straighten	-10.7453
▁siri	-10.7461
▁wondered	-10.7465
▁posting	-10.7481
▁effects	-10.7486
▁chicks	-10.7487
▁locker	-10.7492
nie	-10.7496
▁yay	-10.751
▁shown	-10.7524
▁whens	-10.7527
▁tables	-10.754
▁whip	-10.7547
▁cuba	-10.7553
ration	-10.7565
▁emperors	-10.7567
air	-10.7586
▁drives	-10.7596
▁dada	-10.7605
flo	-10.7623
▁sides	-10.765
▁tricks	-10.7658
▁asia	-10.7678
▁signing	-10.7706
pho	-10.7709
stein	-10.7711
▁tanks	-10.7719
▁instant	-10.772
▁events	-10.773
▁husbands	-10.7754
▁nicer	-10.7764
▁idiots	-10.7792
▁bounce	-10.7804
▁com	-10.7805
▁thirteen	-10.7806
▁dancers	-10.7811
▁grav	-10.7812
ats	-10.7815
▁we	-10.7825
▁ram	-10.7835
▁holes	-10.7867
ight	-10.7899
bin	-10.7908
▁kr	-10.7909
▁gi	-10.7921
▁hopeless	-10.7952
▁traditions	-10.7956
▁choos	-10.7964
lash	-10.7969
▁kit	-10.7981
▁ai	-10.7992
▁nu	-10.7998
▁ni	-10.8003
▁tra	-10.8008
▁increase	-10.801
▁photos	-10.8016
▁figures	-10.8024
▁receive	-10.8033
▁caused	-10.8033
som	-10.8046
▁monsters	-10.8046
lau	-10.8051
▁bay	-10.8056
▁ju	-10.8061
▁poo	-10.8064
mine	-10.807
▁meetings	-10.8081
▁unto	-10.81
▁pac	-10.8122
who	-10.8138
ily	-10.8148
ative	-10.8152
jan	-10.8156
▁ward	-10.8159
▁cloud	-10.8165
▁warrior	-10.8167
▁breast	-10.8168
▁daniel	-10.8169
▁host	-10.8169
▁cruise	-10.8171
▁pipe	-10.8172
▁contestant	-10.8174
▁yard	-10.8177
▁marine	-10.8179
cra	-10.8181
▁tire	-10.8181
▁victor	-10.8191
▁pill	-10.8192
▁toe	-10.8206
▁clam	-10.8229
▁vic	-10.8242
▁bun	-10.8246
oli	-10.825
▁stat	-10.8252
mp	-10.8269
▁advise	-10.8273
job	-10.8274
▁can	-10.8275
▁psych	-10.8275
▁facts	-10.8283
keeper	-10.8284
▁string	-10.8285
▁helpless	-10.831
roy	-10.832
▁embarrass	-10.8321
▁web	-10.8327
real	-10.8335
▁discover	-10.8349
▁produc	-10.8351
▁snarl	-10.8354
▁thrill	-10.8355
▁design	-10.8356
▁sew	-10.8363
▁disappoint	-10.8365
▁affect	-10.8366
▁punish	-10.837
▁intend	-10.8371
▁inform	-10.8372
▁restore	-10.8377
▁frighten	-10.8378
q	-10.8379
▁creep	-10.8382
▁rider	-10.8384
chief	-10.8384
▁andre	-10.8385
will	-10.8389
▁crow	-10.8389
four	-10.8393
▁chee	-10.8393
cake	-10.8395
▁absolute	-10.8396
▁sandwich	-10.8398
▁violat	-10.8399
▁rug	-10.8402
▁burns	-10.8402
shit	-10.8403
▁cove	-10.8405
▁abort	-10.8405
▁loyal	-10.8406
▁blank	-10.8406
▁casual	-10.8407
mate	-10.8407
▁triumph	-10.8408
▁acknowledge	-10.8408
▁adapt	-10.8408
▁amateur	-10.8408
▁assignment	-10.8408
▁belgium	-10.8408
▁bonjour	-10.8408
▁butler	-10.8408
▁catholic	-10.8408
▁celebrating	-10.8408
▁celebration	-10.8408
▁chocki	-10.8408
▁council	-10.8408
▁decoration	-10.8408
▁destruction	-10.8408
▁determined	-10.8408
▁dinosaur	-10.8408
▁doolittle	-10.8408
▁draisen	-10.8408
▁dreadful	-10.8408
▁elaheh	-10.8408
▁essential	-10.8408
▁esteban	-10.8408
▁explanation	-10.8408
▁fantasy	-10.8408
▁formavale	-10.8408
▁gennie	-10.8408
▁hokusai	-10.8408
▁houston	-10.8408
▁instinct	-10.8408
▁institution	-10.8408
▁internet	-10.8408
▁invitation	-10.8408
▁isolation	-10.8408
▁janitor	-10.8408
▁karenin	-10.8408
▁liquor	-10.8408
▁lonesome	-10.8408
▁marcus	-10.8408
▁masembuko	-10.8408
▁mcbride	-10.8408
▁mehran	-10.8408
▁memories	-10.8408
▁mirhossein	-10.8408
▁mistletoe	-10.8408
▁naughty	-10.8408
▁negro	-10.8408
▁opportunities	-10.8408
▁overseas	-10.8408
▁parviz	-10.8408
▁perspective	-10.8408
▁philadelphia	-10.8408
▁pienaar	-10.8408
▁proposition	-10.8408
▁reconsider	-10.8408
▁refugee	-10.8408
▁rehearse	-10.8408
▁revival	-10.8408
▁roxeanne	-10.8408
▁santantonio	-10.8408
▁scoop	-10.8408
▁scramble	-10.8408
▁soccer	-10.8408
▁stroke	-10.8408
▁submarine	-10.8408
▁surgeon	-10.8408
▁swift	-10.8408
▁tragic	-10.8408
▁transmission	-10.8408
▁tumnus	-10.8408
▁ulric	-10.8408
▁volume	-10.8408
▁vomit	-10.8408
▁wealth	-10.8408
▁wiggle	-10.8408
▁worries	-10.8408
▁afterwards	-10.8408
▁analyst	-10.8408
▁holland	-10.8408
▁improve	-10.8408
▁jeffrey	-10.8408
▁kaylee	-10.8408
▁monica	-10.8408
▁sausage	-10.8408
▁shelter	-10.8408
▁thief	-10.8408
▁whimpers	-10.8408
▁yankees	-10.8408
▁after	-10.8408
▁beaver	-10.8408
▁cosmos	-10.8408
▁cuz	-10.8408
▁doorbell	-10.8408
▁eddie	-10.8408
▁heartbreak	-10.8408
▁purse	-10.8408
▁satnin	-10.8408
▁savior	-10.8408
▁sermon	-10.8408
▁spivey	-10.8408
▁amusing	-10.8408
▁clerk	-10.8408
▁dodge	-10.8408
▁introduction	-10.8408
▁model	-10.8408
▁arena	-10.8408
▁flirt	-10.8408
▁vessel	-10.8408
▁estate	-10.8408
▁leslie	-10.8408
▁threatening	-10.8408
▁aisle	-10.8408
▁brenda	-10.8408
▁pammie	-10.8408
▁roots	-10.8408
▁operator	-10.8408
▁cried	-10.8408
▁concept	-10.8408
▁indicat	-10.8408
▁blade	-10.8408
▁doomed	-10.8408
▁instructions	-10.8408
▁executive	-10.8408
▁kidnapping	-10.8408
▁departure	-10.8408
▁boundaries	-10.8408
▁specifically	-10.8408
▁yardner	-10.8408
▁steam	-10.8408
▁barks	-10.8408
▁towanda	-10.8408
▁puzzle	-10.8408
▁pumpkin	-10.8408
▁construction	-10.8408
▁growls	-10.8408
▁corporation	-10.8408
▁bolsh	-10.8408
▁esther	-10.8408
▁hobbs	-10.8408
▁glow	-10.8409
▁gotcha	-10.8409
▁brennan	-10.8409
▁babysitter	-10.8409
▁preview	-10.8409
grammie	-10.8409
▁tryouts	-10.8409
▁online	-10.8409
▁lemon	-10.8409
▁beatles	-10.8409
▁rival	-10.8409
▁plum	-10.8409
▁nancy	-10.8409
titude	-10.8409
▁height	-10.8409
▁polish	-10.8409
▁owns	-10.8409
▁skipper	-10.8409
▁ellie	-10.8409
▁irre	-10.8409
▁pregnancy	-10.8409
▁leni	-10.841
▁paperwork	-10.841
▁compos	-10.841
▁effective	-10.841
▁couch	-10.841
▁sheetz	-10.841
▁litter	-10.841
▁upside	-10.841
▁shade	-10.8411
▁memo	-10.8411
▁revolutionary	-10.8411
▁punishment	-10.8411
▁reaction	-10.8411
▁priority	-10.8411
▁sober	-10.8411
▁crackling	-10.8411
▁naked	-10.8411
▁perish	-10.8411
▁affection	-10.8412
▁ox	-10.8412
▁comment	-10.8412
▁fox	-10.8412
▁spill	-10.8412
▁cities	-10.8412
▁twink	-10.8412
▁sentimental	-10.8412
▁attraction	-10.8412
▁stream	-10.8413
▁gloomy	-10.8413
▁choir	-10.8413
▁ashes	-10.8413
▁engagement	-10.8414
otech	-10.8414
▁admire	-10.8414
▁potatoes	-10.8414
▁dose	-10.8414
▁arrangement	-10.8415
▁diary	-10.8415
▁nickel	-10.8415
▁beef	-10.8415
▁headache	-10.8416
▁solution	-10.8416
▁scale	-10.8416
▁micky	-10.8416
▁distraction	-10.8416
▁alley	-10.8417
▁humor	-10.8417
▁expression	-10.8418
▁brit	-10.8419
▁blaze	-10.8419
▁ninety	-10.842
▁clearance	-10.8421
▁wallet	-10.8421
▁warden	-10.8421
▁buen	-10.8422
▁fitting	-10.8422
▁quitting	-10.8422
▁swell	-10.8422
▁iv	-10.8423
▁vari	-10.8423
▁sore	-10.8424
▁objection	-10.8424
▁controlled	-10.8425
▁minstrels	-10.8426
ample	-10.8426
▁copies	-10.8427
▁artistic	-10.8428
▁mum	-10.843
▁fearless	-10.843
▁desire	-10.8431
▁creepy	-10.8433
▁generate	-10.8433
▁applied	-10.8434
▁willy	-10.8435
liness	-10.8436
▁bakery	-10.8437
▁homework	-10.8439
▁mole	-10.844
▁included	-10.844
▁taller	-10.8442
▁slayer	-10.8443
teen	-10.8445
▁clothing	-10.8447
▁weed	-10.8447
war	-10.8448
▁presentation	-10.8448
▁momma	-10.845
▁kai	-10.8453
▁shatters	-10.8457
▁amy	-10.8458
▁vouch	-10.8458
▁badass	-10.846
▁boers	-10.846
▁thrilling	-10.8461
▁mistaken	-10.8461
▁spoiled	-10.8462
▁interfere	-10.8463
▁dominate	-10.8466
▁toure	-10.8468
▁defeated	-10.8469
▁packer	-10.8474
▁dearest	-10.8477
aging	-10.8478
izz	-10.848
▁awaken	-10.8481
▁adopted	-10.8482
▁awarded	-10.8482
▁ink	-10.8489
▁dolly	-10.8491
▁wounded	-10.8493
▁insisted	-10.8496
▁tee	-10.8496
▁kindness	-10.85
▁closest	-10.8502
▁hood	-10.8508
▁cooper	-10.8508
corn	-10.8509
alre	-10.8509
▁judged	-10.8516
▁pancakes	-10.8521
▁drones	-10.8522
▁warned	-10.8531
▁pad	-10.8531
▁cheating	-10.8532
day	-10.8534
▁backside	-10.8537
▁sacrificed	-10.854
▁homeless	-10.8541
▁specialist	-10.8542
▁abo	-10.8542
▁packed	-10.855
▁churches	-10.8551
step	-10.8551
lack	-10.8556
▁joint	-10.8556
▁katie	-10.8557
▁recognized	-10.8557
▁eu	-10.8557
▁dial	-10.856
▁hooked	-10.8567
leg	-10.8574
▁ideal	-10.8575
cket	-10.8577
▁stairs	-10.8584
▁painted	-10.8586
▁degrees	-10.8586
▁skills	-10.8586
▁bowling	-10.859
jack	-10.859
▁smaller	-10.8597
owing	-10.8605
▁colleagues	-10.8619
zel	-10.862
▁flights	-10.8628
▁hav	-10.8634
▁asses	-10.8636
▁imagined	-10.8639
▁protected	-10.8642
▁cos	-10.8642
▁daniels	-10.8652
▁my	-10.8654
▁ble	-10.8661
▁destroying	-10.8662
wing	-10.867
▁toes	-10.867
▁adr	-10.8674
▁fianc	-10.8679
▁laughed	-10.8681
▁orphans	-10.8682
▁dings	-10.8683
▁jumped	-10.8685
▁seated	-10.8685
city	-10.8693
▁sniffs	-10.8696
▁receiv	-10.8733
▁laws	-10.8755
▁losers	-10.8759
▁rum	-10.8767
▁ken	-10.8775
▁wo	-10.8776
▁cocks	-10.878
▁citizens	-10.878
▁adults	-10.8783
▁fixing	-10.8802
▁gin	-10.8803
▁tapes	-10.8813
▁fare	-10.8813
▁limits	-10.8817
▁clowns	-10.8817
▁gifts	-10.8817
▁photographs	-10.8817
▁vers	-10.8821
▁raining	-10.8821
▁customers	-10.8823
▁mc	-10.8831
▁joining	-10.8861
▁bees	-10.8868
zed	-10.8872
▁hairy	-10.8885
some	-10.8888
logical	-10.8904
▁praying	-10.8922
▁sting	-10.8933
ridge	-10.8936
▁sleepy	-10.8953
▁dar	-10.8954
▁manda	-10.8966
▁chin	-10.8976
atch	-10.8981
▁dolls	-10.8984
▁waiter	-10.9044
▁cowards	-10.9051
▁tri	-10.9056
▁dealer	-10.9099
elli	-10.9099
▁content	-10.9133
▁contracts	-10.9145
▁angels	-10.9153
▁of	-10.9173
roll	-10.9182
▁arch	-10.919
any	-10.9198
▁mob	-10.9211
▁ves	-10.9216
▁eli	-10.9216
▁channels	-10.9255
▁handy	-10.9274
▁worker	-10.928
▁scr	-10.9295
term	-10.9301
▁here	-10.9306
▁kindly	-10.932
▁clearing	-10.9333
hunk	-10.9339
▁oo	-10.9355
▁tim	-10.936
cious	-10.9375
there	-10.9378
▁gig	-10.9392
fil	-10.9408
elle	-10.9439
▁strikes	-10.9499
▁pale	-10.9526
▁queens	-10.9531
▁print	-10.9544
▁debt	-10.9593
▁belief	-10.9596
▁shriek	-10.9596
▁colleague	-10.9598
▁missy	-10.9598
▁indian	-10.9606
▁chang	-10.9654
▁loo	-10.9655
▁cru	-10.9678
upper	-10.9698
bab	-10.9708
▁tick	-10.9708
▁twin	-10.9715
▁abs	-10.972
tom	-10.9725
ological	-10.9728
▁gather	-10.9746
▁nurs	-10.9752
▁graduate	-10.9753
▁preach	-10.9757
▁swor	-10.9789
▁caus	-10.9789
tain	-10.9792
▁killer	-10.9795
ability	-10.9796
▁invent	-10.9797
hood	-10.9797
oro	-10.9799
▁reform	-10.98
▁exhaust	-10.9801
▁react	-10.9803
▁whit	-10.9805
▁involve	-10.9807
point	-10.9808
▁compare	-10.9808
piece	-10.981
▁pour	-10.9812
yearold	-10.9812
girl	-10.9813
school	-10.9813
like	-10.9813
yeah	-10.9815
wind	-10.9816
▁numb	-10.9817
▁goddam	-10.9817
▁corn	-10.9817
▁blond	-10.9818
hair	-10.9818
▁eternal	-10.9819
▁technical	-10.982
wise	-10.982
▁immediate	-10.9821
▁butch	-10.9821
water	-10.9821
▁possess	-10.9823
▁defect	-10.9825
▁complain	-10.9827
ado	-10.9827
▁adjust	-10.9828
▁froze	-10.9828
▁harris	-10.9829
▁ref	-10.983
▁slay	-10.9832
▁darlin	-10.9832
▁electric	-10.9833
▁reception	-10.9834
obbs	-10.9836
ographer	-10.9836
▁analysis	-10.9836
▁australia	-10.9836
▁behavior	-10.9836
▁boodikka	-10.9836
▁brooklyn	-10.9836
▁caviar	-10.9836
▁ceiling	-10.9836
▁central	-10.9836
▁continent	-10.9836
▁contrary	-10.9836
▁convoy	-10.9836
▁cosmetic	-10.9836
▁cripple	-10.9836
▁demonstration	-10.9836
▁dispatch	-10.9836
▁dolores	-10.9836
▁dynamite	-10.9836
▁earthquake	-10.9836
▁elevator	-10.9836
▁equikrom	-10.9836
▁excitement	-10.9836
▁explore	-10.9836
▁exposure	-10.9836
▁gallery	-10.9836
▁garrison	-10.9836
▁greek	-10.9836
▁grenade	-10.9836
▁happily	-10.9836
▁hustle	-10.9836
▁identification	-10.9836
▁incident	-10.9836
▁install	-10.9836
▁islam	-10.9836
▁kangaroo	-10.9836
▁kennedy	-10.9836
▁kilowog	-10.9836
▁length	-10.9836
▁manuscript	-10.9836
▁mcduff	-10.9836
▁mehdi	-10.9836
▁melanchol	-10.9836
▁minimum	-10.9836
▁ministry	-10.9836
▁october	-10.9836
▁oldfashioned	-10.9836
▁omega	-10.9836
▁orinoco	-10.9836
▁orleans	-10.9836
▁parachute	-10.9836
▁pilates	-10.9836
▁pineapple	-10.9836
▁primitive	-10.9836
▁probation	-10.9836
▁qualities	-10.9836
▁radioactive	-10.9836
▁ranakar	-10.9836
▁relief	-10.9836
▁resolve	-10.9836
▁reuben	-10.9836
▁rubbish	-10.9836
▁scattered	-10.9836
▁seizure	-10.9836
▁shakespeare	-10.9836
▁siegfried	-10.9836
▁skeleton	-10.9836
▁spritze	-10.9836
▁squash	-10.9836
▁starbucks	-10.9836
▁stereo	-10.9836
▁stiva	-10.9836
▁struthers	-10.9836
▁suppress	-10.9836
▁surveillance	-10.9836
▁telepath	-10.9836
▁titmarch	-10.9836
▁tragedy	-10.9836
▁transaction	-10.9836
▁turtle	-10.9836
▁underground	-10.9836
▁ursula	-10.9836
▁vetsera	-10.9836
▁wardrobe	-10.9836
▁wheelchair	-10.9836
▁xavier	-10.9836
▁yevtushenko	-10.9836
▁bounty	-10.9836
▁cairo	-10.9836
▁caleb	-10.9836
▁deprav	-10.9836
▁depressing	-10.9836
▁embrace	-10.9836
▁exploit	-10.9836
▁hazard	-10.9836
▁intelligent	-10.9836
▁irene	-10.9836
▁jonah	-10.9836
▁namaste	-10.9836
▁narrow	-10.9836
▁necklace	-10.9836
▁pelna	-10.9836
▁radley	-10.9836
▁ralph	-10.9836
▁random	-10.9836
▁stubborn	-10.9836
▁studied	-10.9836
▁supple	-10.9836
▁sympath	-10.9836
▁tackle	-10.9836
▁theft	-10.9836
▁unexpected	-10.9836
▁welch	-10.9836
▁worid	-10.9836
▁yaahh	-10.9836
▁accomplish	-10.9836
▁competing	-10.9836
▁decade	-10.9836
▁extend	-10.9836
▁gerard	-10.9836
▁lambert	-10.9836
▁liquid	-10.9836
▁lonnie	-10.9836
▁thisll	-10.9836
▁yacov	-10.9836
▁conscious	-10.9836
▁galahd	-10.9836
▁nipples	-10.9836
▁sperm	-10.9836
▁buddies	-10.9836
▁jelly	-10.9836
▁tully	-10.9836
▁method	-10.9836
▁google	-10.9836
▁ellen	-10.9836
▁scoot	-10.9836
▁tahoe	-10.9836
▁imitating	-10.9836
▁item	-10.9836
▁deteriorat	-10.9836
▁drew	-10.9836
▁misery	-10.9836
▁yelp	-10.9836
▁sebastian	-10.9836
▁shiny	-10.9836
▁instagram	-10.9836
▁ultra	-10.9836
▁radical	-10.9836
▁ordinary	-10.9836
phrase	-10.9836
▁remote	-10.9836
▁overthrow	-10.9837
▁shuffl	-10.9837
▁salvation	-10.9837
▁dizzy	-10.9837
▁splash	-10.9837
▁display	-10.9837
▁beware	-10.9837
▁flashlight	-10.9837
▁lunatic	-10.9837
▁numer	-10.9837
▁ferry	-10.9837
▁infection	-10.9837
▁profile	-10.9837
▁edition	-10.9837
▁hungarian	-10.9837
▁rapid	-10.9837
▁cents	-10.9837
▁economic	-10.9837
▁overnight	-10.9837
▁organized	-10.9837
▁jody	-10.9837
▁cannon	-10.9838
▁catherine	-10.9838
▁offend	-10.9838
▁obey	-10.9838
▁regime	-10.9838
▁facial	-10.9838
▁championship	-10.9838
▁whatre	-10.9838
▁polite	-10.9838
▁reference	-10.9838
▁twentyfive	-10.9838
berg	-10.9838
▁quote	-10.9838
▁frequency	-10.9838
▁leadership	-10.9839
▁snapping	-10.9839
▁malta	-10.9839
▁bingo	-10.9839
▁shook	-10.9839
▁authorized	-10.9839
▁colla	-10.9839
▁disconnected	-10.9839
▁anthem	-10.9839
▁obligation	-10.9839
▁massive	-10.9839
▁agenda	-10.9839
ienne	-10.9839
▁rising	-10.9839
erris	-10.984
▁pj	-10.984
▁passionate	-10.984
▁limb	-10.984
▁spect	-10.984
▁sawyer	-10.984
▁inevitable	-10.984
▁yea	-10.9841
▁merrell	-10.9841
▁goose	-10.9841
▁dwell	-10.9841
▁swan	-10.9841
▁whine	-10.9842
▁nym	-10.9842
▁alike	-10.9842
▁viper	-10.9842
▁indulge	-10.9842
▁custody	-10.9842
▁tomas	-10.9843
▁sync	-10.9843
▁yum	-10.9843
▁mule	-10.9844
▁whoops	-10.9845
▁foolish	-10.9845
▁alongside	-10.9845
▁basement	-10.9845
▁shipping	-10.9845
▁development	-10.9845
▁surf	-10.9845
▁soda	-10.9845
▁soaked	-10.9846
▁woof	-10.9846
▁wage	-10.9846
▁seduc	-10.9846
▁beam	-10.9847
▁tow	-10.9847
▁transmitter	-10.9847
▁anyou	-10.9847
▁exposed	-10.9847
▁belcher	-10.9848
▁rome	-10.9848
▁recon	-10.9848
▁injury	-10.9848
▁thick	-10.9848
▁popping	-10.9848
▁patch	-10.9849
▁pep	-10.9849
▁shattering	-10.9849
▁christianity	-10.9849
▁possession	-10.9849
▁epic	-10.985
▁burger	-10.985
▁overwhelmed	-10.985
▁dna	-10.985
▁duper	-10.985
aught	-10.9851
▁rach	-10.9851
▁breakdown	-10.9852
▁solo	-10.9853
▁fold	-10.9853
▁tess	-10.9853
▁bean	-10.9854
▁designer	-10.9855
▁frustrated	-10.9856
▁rejected	-10.9856
▁inspired	-10.9856
▁sadness	-10.9857
▁surrounding	-10.9857
▁pta	-10.9857
▁replacement	-10.9858
▁personality	-10.9858
▁crashes	-10.9859
▁sincerely	-10.986
▁nod	-10.986
▁flush	-10.9861
▁corny	-10.9862
▁ruthless	-10.9862
▁partiz	-10.9863
▁greene	-10.9865
▁lens	-10.9865
▁discovery	-10.9866
▁deeds	-10.9868
▁runway	-10.9868
▁muffin	-10.9869
▁disturbed	-10.9869
▁valve	-10.9873
▁haunting	-10.9873
▁ahem	-10.9877
▁oughta	-10.9877
▁doo	-10.9878
▁desperately	-10.9878
▁consideration	-10.988
▁removed	-10.9883
▁setup	-10.9885
▁fog	-10.9888
▁seal	-10.9888
▁delighted	-10.9889
▁printing	-10.989
▁paula	-10.9891
▁cher	-10.9896
▁engaged	-10.9897
▁snarling	-10.9898
▁andy	-10.99
▁showtime	-10.9901
▁teenager	-10.9902
▁wend	-10.9906
▁deserted	-10.9911
▁distinct	-10.9913
▁developing	-10.9915
▁homeland	-10.9916
▁dumped	-10.9917
▁impressed	-10.9917
vus	-10.992
▁blok	-10.9924
lapping	-10.9924
▁donate	-10.9926
▁weirdo	-10.9926
▁belles	-10.9929
▁interrupting	-10.9931
▁chopper	-10.9932
▁lick	-10.9934
▁scored	-10.9937
▁edo	-10.9938
▁spi	-10.9938
▁just	-10.9939
▁undress	-10.9942
▁takeoff	-10.9944
new	-10.995
▁epi	-10.9955
▁kisses	-10.9958
ssing	-10.996
▁howdy	-10.996
▁nervously	-10.9962
▁cracked	-10.9962
tial	-10.9968
▁balloons	-10.9969
▁residents	-10.9969
▁cigars	-10.9969
▁rumors	-10.9969
▁hardest	-10.9973
▁fled	-10.9973
▁tracker	-10.9984
▁louie	-10.9997
ption	-10.9998
▁searching	-10.9999
▁kin	-10.9999
▁jun	-11.0004
▁aires	-11.0013
▁cooked	-11.0014
▁skaters	-11.0015
▁sonic	-11.0023
▁glob	-11.0023
▁manure	-11.0031
▁quicker	-11.0034
▁stare	-11.0041
▁circles	-11.0045
▁wishes	-11.0045
▁eva	-11.0046
mature	-11.0048
▁japs	-11.005
dding	-11.0052
▁performing	-11.0065
▁examin	-11.0073
bon	-11.0076
▁reported	-11.008
▁crossed	-11.0081
▁shrieks	-11.0083
▁packing	-11.0084
▁beliefs	-11.0085
▁bandage	-11.0103
▁warriors	-11.0121
▁breasts	-11.0121
▁strings	-11.0122
▁posted	-11.0125
▁booing	-11.0136
▁jade	-11.0159
▁cheerleaders	-11.0159
▁daggers	-11.0159
▁scouts	-11.0159
▁blessings	-11.0159
ellis	-11.0161
▁illness	-11.017
utter	-11.018
▁coco	-11.0192
▁awaits	-11.0198
▁criticiz	-11.0203
▁ny	-11.0222
▁stew	-11.0234
▁sharks	-11.0236
▁uniforms	-11.0236
▁any	-11.0256
▁mamama	-11.0257
▁pushed	-11.0259
▁robe	-11.0261
▁presume	-11.0271
▁mortals	-11.0275
▁enjoyed	-11.0278
van	-11.0283
ham	-11.0294
▁ku	-11.0295
▁hoop	-11.0306
▁jumping	-11.031
▁swe	-11.0312
cent	-11.0322
▁tan	-11.034
▁humbl	-11.034
hol	-11.0351
▁lecture	-11.0364
track	-11.0409
nel	-11.0414
inch	-11.0421
▁observ	-11.0444
▁plates	-11.047
▁servants	-11.047
▁sparks	-11.047
▁tw	-11.0497
▁directions	-11.051
▁refuses	-11.0511
▁wounds	-11.0511
rien	-11.0512
▁outsider	-11.0543
bet	-11.0548
▁cleared	-11.0552
▁deadly	-11.0568
▁rehearsals	-11.0588
▁bugs	-11.0589
▁et	-11.0594
▁conditions	-11.0632
oon	-11.0647
▁gala	-11.0677
▁blocks	-11.0697
▁rocket	-11.0729
gging	-11.0763
gon	-11.0765
neu	-11.078
▁rav	-11.0787
▁easter	-11.0804
▁observe	-11.0826
agging	-11.0854
hutter	-11.0855
master	-11.086
▁bol	-11.0884
▁mic	-11.089
▁cub	-11.0937
▁cone	-11.095
stone	-11.1004
rained	-11.1032
nox	-11.1071
rad	-11.1085
▁cans	-11.1093
▁hack	-11.1118
arm	-11.1128
▁depend	-11.1219
▁circle	-11.1231
▁frick	-11.1235
tte	-11.1246
▁will	-11.1246
anne	-11.1252
▁spider	-11.126
▁degree	-11.1264
▁document	-11.1265
▁complaint	-11.1269
▁communication	-11.1269
▁stair	-11.1272
ampoo	-11.1273
▁skill	-11.1274
▁pawn	-11.1291
▁ev	-11.1307
▁jap	-11.1307
▁missile	-11.1312
▁musician	-11.1329
fish	-11.1336
hole	-11.1341
come	-11.1356
vie	-11.1362
ept	-11.1364
zzy	-11.1387
onic	-11.1394
pec	-11.1395
▁ignor	-11.1399
▁disturb	-11.1411
▁sol	-11.1418
▁escap	-11.1423
▁cloth	-11.1441
read	-11.1448
▁greet	-11.1451
▁yayayaya	-11.1451
▁distract	-11.1453
▁amaz	-11.1454
▁prepar	-11.1454
▁attract	-11.1456
▁brid	-11.1457
▁tuck	-11.1463
▁employ	-11.1463
▁poke	-11.1464
▁arrange	-11.1466
▁thrash	-11.1466
▁establish	-11.1466
hearted	-11.1467
▁refer	-11.1469
▁rig	-11.147
mill	-11.1474
mark	-11.1475
craft	-11.1476
mother	-11.1476
view	-11.1476
east	-11.1477
bird	-11.1479
claim	-11.1479
know	-11.148
seven	-11.148
source	-11.148
shot	-11.1482
wide	-11.1483
▁promote	-11.1484
boat	-11.1487
▁instruct	-11.1488
▁paw	-11.149
▁assassin	-11.1493
▁potato	-11.1494
lalala	-11.1494
▁withdraw	-11.1494
▁appli	-11.1496
▁collaborat	-11.1498
▁toot	-11.1501
door	-11.1501
▁retire	-11.1501
cott	-11.1502
▁specific	-11.1502
▁scan	-11.1502
bag	-11.1502
mperial	-11.1502
historic	-11.1503
▁forbid	-11.1503
▁chemotherap	-11.1503
▁hypocri	-11.1503
▁abroad	-11.1503
▁acquaintance	-11.1503
▁acquisition	-11.1503
▁activity	-11.1503
▁aggression	-11.1503
▁alcazar	-11.1503
▁alwavs	-11.1503
▁ancestors	-11.1503
▁annoying	-11.1503
▁anxiety	-11.1503
▁arcade	-11.1503
▁archduke	-11.1503
▁argument	-11.1503
▁arizona	-11.1503
▁artificial	-11.1503
▁athens	-11.1503
▁autograph	-11.1503
▁avenue	-11.1503
▁bellefontaine	-11.1503
▁beneath	-11.1503
▁benjamin	-11.1503
▁beverage	-11.1503
▁bluff	-11.1503
▁bodyguard	-11.1503
▁bypass	-11.1503
▁calais	-11.1503
▁carnival	-11.1503
▁censor	-11.1503
▁chamberlain	-11.1503
▁chateau	-11.1503
▁clifton	-11.1503
▁clutch	-11.1503
▁cocktail	-11.1503
▁compliment	-11.1503
▁conceive	-11.1503
▁crocodile	-11.1503
▁dakota	-11.1503
▁depression	-11.1503
▁desperation	-11.1503
▁dessert	-11.1503
▁detroit	-11.1503
▁dialogue	-11.1503
▁dmitrich	-11.1503
▁donnahew	-11.1503
▁dottie	-11.1503
▁echoing	-11.1503
▁economy	-11.1503
▁eeew	-11.1503
▁elizabeth	-11.1503
▁encounter	-11.1503
▁enhance	-11.1503
▁entrance	-11.1503
▁evacuation	-11.1503
▁exhibit	-11.1503
▁facility	-11.1503
▁feature	-11.1503
▁financial	-11.1503
▁flotilla	-11.1503
▁fluffy	-11.1503
▁fountain	-11.1503
▁gaijin	-11.1503
▁garbage	-11.1503
▁gesture	-11.1503
▁giddy	-11.1503
▁granddaughter	-11.1503
▁greenbrier	-11.1503
▁guacamole	-11.1503
▁guidance	-11.1503
▁halberstrom	-11.1503
▁helicopter	-11.1503
▁henderson	-11.1503
▁hollister	-11.1503
▁homosexual	-11.1503
▁honeybelle	-11.1503
▁infinit	-11.1503
▁infrared	-11.1503
▁ingredient	-11.1503
▁initial	-11.1503
▁insect	-11.1503
▁inspiring	-11.1503
▁instance	-11.1503
▁kenneth	-11.1503
▁kingsglaive	-11.1503
▁league	-11.1503
▁leningrad	-11.1503
▁levade	-11.1503
▁loofah	-11.1503
▁lrwin	-11.1503
▁maintenance	-11.1503
▁margaret	-11.1503
▁matthew	-11.1503
▁mccawley	-11.1503
▁mcnabb	-11.1503
▁mehrtens	-11.1503
▁merci	-11.1503
▁metasta	-11.1503
▁microwave	-11.1503
▁mixture	-11.1503
▁montgomery	-11.1503
▁morphine	-11.1503
▁mozart	-11.1503
▁murdock	-11.1503
▁mushroom	-11.1503
▁neighing	-11.1503
▁nigger	-11.1503
▁outrageous	-11.1503
▁oysters	-11.1503
▁pajamas	-11.1503
▁parliament	-11.1503
▁patience	-11.1503
▁penthouse	-11.1503
▁perfume	-11.1503
▁petunia	-11.1503
▁phillips	-11.1503
▁pivot	-11.1503
▁protocol	-11.1503
▁purchase	-11.1503
▁razor	-11.1503
▁reinhardt	-11.1503
▁rewrite	-11.1503
▁rogue	-11.1503
▁roosevelt	-11.1503
▁shelby	-11.1503
▁shiro	-11.1503
▁sophisticated	-11.1503
▁soporific	-11.1503
▁stammering	-11.1503
▁substance	-11.1503
▁supply	-11.1503
▁syrup	-11.1503
▁territory	-11.1503
▁tientsin	-11.1503
▁tobacco	-11.1503
▁tokyo	-11.1503
▁trolley	-11.1503
▁turmoil	-11.1503
▁universal	-11.1503
▁uptight	-11.1503
▁utilit	-11.1503
▁valdosta	-11.1503
▁valuable	-11.1503
▁warrensmith	-11.1503
▁whickering	-11.1503
▁worms	-11.1503
▁wrestle	-11.1503
▁yawpy	-11.1503
▁yoohoo	-11.1503
▁antoine	-11.1503
▁beverly	-11.1503
▁buttanda	-11.1503
▁curtain	-11.1503
▁descend	-11.1503
▁gospel	-11.1503
▁insult	-11.1503
▁invisible	-11.1503
▁jeep	-11.1503
▁lizard	-11.1503
▁mccoy	-11.1503
▁norway	-11.1503
▁portray	-11.1503
▁resume	-11.1503
▁robinson	-11.1503
▁sacred	-11.1503
▁seoul	-11.1503
▁slick	-11.1503
▁slug	-11.1503
▁slut	-11.1503
▁spear	-11.1503
▁staple	-11.1503
▁techno	-11.1503
▁widow	-11.1503
▁basij	-11.1503
▁brett	-11.1503
▁candle	-11.1503
▁cotton	-11.1503
▁imminent	-11.1503
▁jackpot	-11.1503
▁raymond	-11.1503
▁decoy	-11.1503
▁employees	-11.1503
▁entry	-11.1503
▁function	-11.1503
▁gavin	-11.1503
▁grape	-11.1503
▁juror	-11.1503
▁motel	-11.1503
▁betcha	-11.1503
▁stutters	-11.1503
▁craving	-11.1503
▁mutters	-11.1503
▁thud	-11.1503
▁urine	-11.1503
▁viva	-11.1503
▁lodge	-11.1503
▁oohwhee	-11.1503
▁randle	-11.1503
▁serum	-11.1503
▁dyna	-11.1503
▁snoop	-11.1503
▁angle	-11.1503
▁grocer	-11.1503
▁salud	-11.1503
▁whatsoever	-11.1503
▁stove	-11.1503
junction	-11.1503
▁diving	-11.1503
▁region	-11.1503
ssign	-11.1503
▁denied	-11.1503
▁linds	-11.1503
▁cootie	-11.1503
▁josie	-11.1503
▁persand	-11.1503
▁yoshi	-11.1503
▁graz	-11.1503
▁impact	-11.1503
▁transport	-11.1503
▁enormous	-11.1503
▁pigeon	-11.1503
▁gomez	-11.1503
▁naomi	-11.1503
▁compound	-11.1503
▁housing	-11.1503
▁forecast	-11.1503
▁illusion	-11.1503
▁parole	-11.1503
▁swat	-11.1503
▁qualifie	-11.1503
▁clich	-11.1503
▁squeeze	-11.1503
▁ballad	-11.1503
▁bracelet	-11.1503
▁greed	-11.1503
▁austria	-11.1503
▁apsa	-11.1503
▁moans	-11.1503
▁alternative	-11.1503
▁convert	-11.1503
▁walrus	-11.1503
▁denmark	-11.1503
▁montana	-11.1503
▁preparations	-11.1503
▁bankrupt	-11.1503
▁nitro	-11.1503
▁kitten	-11.1503
▁gogol	-11.1503
▁electro	-11.1503
▁oxford	-11.1503
▁vourself	-11.1503
▁harold	-11.1503
▁assistance	-11.1503
▁opium	-11.1503
▁sarcastic	-11.1504
▁biological	-11.1504
▁francis	-11.1504
▁operating	-11.1504
▁mobile	-11.1504
▁entitled	-11.1504
▁iceberg	-11.1504
▁update	-11.1504
▁decode	-11.1504
▁booboo	-11.1504
▁exwife	-11.1504
▁panties	-11.1504
▁lightning	-11.1504
▁paso	-11.1504
▁flaw	-11.1504
▁twentytwo	-11.1504
▁denise	-11.1504
▁definition	-11.1504
▁sector	-11.1504
▁slid	-11.1504
▁tango	-11.1504
▁disarm	-11.1504
▁remarkable	-11.1504
▁comma	-11.1504
▁patron	-11.1504
▁leona	-11.1504
▁davis	-11.1504
▁romance	-11.1504
▁scheme	-11.1504
▁colorado	-11.1504
▁scrum	-11.1504
▁involvement	-11.1504
▁bacon	-11.1504
▁visualize	-11.1505
▁feminine	-11.1505
▁clink	-11.1505
▁neat	-11.1505
▁sopho	-11.1505
▁hmph	-11.1505
▁rico	-11.1505
▁canine	-11.1505
▁connie	-11.1505
▁linda	-11.1505
▁leash	-11.1505
▁hiya	-11.1505
▁expense	-11.1505
▁figuring	-11.1505
▁mcdonald	-11.1505
▁surprising	-11.1505
▁category	-11.1505
▁sauce	-11.1506
▁masterpiece	-11.1506
▁atom	-11.1506
▁booze	-11.1506
▁tension	-11.1506
▁snuck	-11.1506
▁tutor	-11.1506
▁stunt	-11.1506
▁seventeen	-11.1506
▁beings	-11.1506
▁tasty	-11.1506
▁pitts	-11.1506
▁crust	-11.1507
▁sleeve	-11.1507
▁orson	-11.1507
juven	-11.1507
▁burm	-11.1508
▁jeb	-11.1508
▁jessie	-11.1508
▁participate	-11.1508
▁percy	-11.1508
▁robot	-11.1508
▁vibe	-11.1509
▁centuries	-11.1509
▁ula	-11.1509
▁labella	-11.1509
▁imply	-11.1509
▁comic	-11.151
▁factionless	-11.151
▁expectations	-11.151
▁bishop	-11.151
▁slightest	-11.151
▁skull	-11.151
▁mason	-11.151
▁concede	-11.151
▁equality	-11.151
▁arrow	-11.1511
▁hawaiian	-11.1511
▁executed	-11.1511
▁hallowed	-11.1511
▁swaddle	-11.1511
▁debate	-11.1511
▁keon	-11.1511
▁hex	-11.1512
▁harrison	-11.1512
▁rump	-11.1513
▁gently	-11.1513
▁cuff	-11.1514
▁foil	-11.1514
▁tyran	-11.1515
▁fries	-11.1515
▁funky	-11.1517
▁toll	-11.1518
alalala	-11.1518
▁steer	-11.1518
dog	-11.1519
▁shabb	-11.1519
▁everyday	-11.1521
▁ax	-11.1521
▁defi	-11.1521
▁standby	-11.1522
▁butcher	-11.1523
▁brownies	-11.1523
▁tooth	-11.1523
▁colony	-11.1524
▁screeches	-11.1524
▁ouch	-11.1524
▁fuss	-11.1525
▁bait	-11.1525
▁kidney	-11.1525
▁mccl	-11.1526
▁mustache	-11.1526
▁jeweler	-11.1526
▁oliver	-11.1527
▁dom	-11.1528
nuts	-11.1528
▁spain	-11.1528
▁booby	-11.1528
▁roman	-11.1529
▁lust	-11.153
▁rap	-11.153
▁flashes	-11.1531
▁halt	-11.1532
▁dishes	-11.1532
▁aaa	-11.1533
▁haunted	-11.1533
▁now	-11.1533
▁swallowed	-11.1533
▁salva	-11.1534
▁snowman	-11.1536
▁cul	-11.1536
▁discussion	-11.1536
▁wool	-11.1537
mmel	-11.1538
▁levin	-11.154
▁diner	-11.154
▁established	-11.1542
▁tore	-11.1543
▁haul	-11.1543
▁hooting	-11.1545
▁triple	-11.1545
▁sixty	-11.1546
▁boxers	-11.1546
▁poured	-11.1546
▁reformed	-11.1546
▁gathered	-11.1546
▁booma	-11.1547
▁sickness	-11.1548
▁peeking	-11.1549
▁wolfe	-11.1551
▁metro	-11.1552
▁intended	-11.1553
▁tucker	-11.1553
▁eliminat	-11.1554
▁paulo	-11.1555
yayayaya	-11.1555
▁wisely	-11.1556
hario	-11.1556
▁hometown	-11.1559
▁hacking	-11.1559
▁experimented	-11.1559
▁smartest	-11.1562
▁reel	-11.1563
▁hog	-11.1563
▁betrayed	-11.1566
▁headquarters	-11.1571
▁regulations	-11.1571
▁inch	-11.1573
▁crushed	-11.1573
▁youyou	-11.1573
▁hick	-11.1573
hoppers	-11.1575
▁newsman	-11.1578
▁detailed	-11.1582
▁factor	-11.1584
▁formal	-11.1586
▁lane	-11.1586
▁buses	-11.159
▁delayed	-11.1593
▁holdup	-11.1598
▁scaring	-11.1599
▁bubbl	-11.1599
rutti	-11.1599
▁hint	-11.1604
▁handful	-11.1606
▁sponsored	-11.1608
▁shitty	-11.1609
▁connecting	-11.1609
▁twisted	-11.1613
▁peep	-11.1614
▁annu	-11.1615
▁inmates	-11.1616
▁thumbs	-11.1616
▁supplies	-11.1616
▁jewels	-11.1617
▁ruler	-11.162
▁tighten	-11.1621
▁blamed	-11.1624
▁sole	-11.1625
▁crawling	-11.163
teral	-11.1638
▁burnt	-11.1639
▁venu	-11.164
▁reduce	-11.1643
▁that	-11.1645
▁normally	-11.1645
▁marker	-11.1645
jab	-11.1647
marry	-11.1648
▁aha	-11.1649
▁damaged	-11.1652
▁ration	-11.1653
eeze	-11.1655
▁clinical	-11.1656
▁statistics	-11.1661
izer	-11.1667
▁meantime	-11.167
▁avoiding	-11.1676
table	-11.1678
▁honesty	-11.1685
▁spam	-11.1686
▁suspected	-11.1693
▁pitcher	-11.1694
▁pose	-11.1697
▁spreading	-11.1697
▁washed	-11.1707
▁swallows	-11.1707
▁loading	-11.1708
▁clatters	-11.1708
▁addie	-11.1709
▁conditioning	-11.1711
▁marching	-11.1715
▁divide	-11.1716
▁rang	-11.1717
▁chops	-11.1717
▁claiming	-11.1718
▁cracking	-11.1728
▁pissing	-11.1728
▁quin	-11.1736
▁discussing	-11.1738
▁bothered	-11.1742
▁vol	-11.1745
▁fortunate	-11.1748
▁pawns	-11.1752
▁musicians	-11.1753
▁spiders	-11.1753
▁complaints	-11.1754
▁rd	-11.1758
▁existed	-11.176
mas	-11.177
▁salad	-11.1789
▁prints	-11.1795
▁twins	-11.1796
▁gir	-11.1797
▁camping	-11.1798
▁debts	-11.1798
▁indians	-11.1799
▁medal	-11.1804
▁filling	-11.181
ison	-11.1811
▁rockin	-11.1824
▁tearing	-11.183
▁cruis	-11.1838
▁longest	-11.1842
▁harp	-11.1844
▁pipes	-11.1844
▁clouds	-11.1844
▁explained	-11.187
▁supported	-11.1879
▁costumes	-11.189
▁riders	-11.19
▁sum	-11.1906
▁handler	-11.1913
eight	-11.1922
▁zeros	-11.1932
▁muscles	-11.1937
▁jackie	-11.1949
▁fooled	-11.1952
▁sap	-11.1961
▁visited	-11.1975
▁presented	-11.1989
acco	-11.2003
ani	-11.2009
unk	-11.2013
▁gravel	-11.2025
▁dock	-11.2027
▁tested	-11.2047
▁mil	-11.2052
cut	-11.2064
ila	-11.2091
tech	-11.2098
▁hast	-11.211
tant	-11.2112
awa	-11.2125
▁cass	-11.2154
▁bla	-11.2181
▁lookie	-11.2182
▁ven	-11.2204
▁ze	-11.2221
▁conc	-11.2246
▁dix	-11.2251
▁stac	-11.2265
▁workers	-11.2269
eyed	-11.2272
▁leo	-11.2272
▁layer	-11.2313
▁panic	-11.2313
▁pra	-11.2325
dale	-11.2344
qua	-11.2348
crib	-11.235
▁hut	-11.2398
▁zu	-11.2426
pow	-11.2436
woman	-11.2448
pat	-11.2481
▁primar	-11.2496
heid	-11.2509
gar	-11.2543
test	-11.2544
▁tori	-11.2616
ij	-11.2665
ub	-11.2668
ledge	-11.2704
▁sham	-11.2757
▁chop	-11.2806
▁dic	-11.2813
▁yu	-11.2816
▁capt	-11.2831
▁verse	-11.2831
cc	-11.2853
tami	-11.2862
▁tit	-11.2864
rivi	-11.2907
inner	-11.2929
▁maze	-11.2935
▁simpl	-11.294
▁mamamama	-11.2964
cast	-11.2975
▁tu	-11.3015
ouch	-11.3043
hock	-11.3046
luc	-11.3127
bie	-11.3128
itting	-11.313
zer	-11.3131
▁moo	-11.3137
▁ste	-11.3143
itis	-11.319
▁shav	-11.32
▁clatter	-11.3207
▁swallow	-11.3222
▁whisper	-11.3224
▁cough	-11.3224
▁groan	-11.3231
▁emp	-11.324
▁pound	-11.3244
mbi	-11.327
▁kidnapper	-11.3272
▁bridesmaid	-11.3273
▁folk	-11.3277
▁parent	-11.3279
▁par	-11.3284
▁jesu	-11.3297
rows	-11.3299
inkle	-11.3315
▁mist	-11.3321
▁ec	-11.3324
▁banker	-11.333
▁lip	-11.3334
▁vocal	-11.334
▁farmer	-11.3343
▁skater	-11.335
aye	-11.3353
▁dive	-11.3356
▁hur	-11.3371
▁what	-11.339
▁disrespect	-11.339
▁blo	-11.34
▁hump	-11.3405
▁liber	-11.3405
▁discre	-11.3422
▁haunt	-11.3423
night	-11.3441
▁shush	-11.3451
▁howl	-11.3451
▁murmur	-11.3452
▁disgust	-11.3452
▁steel	-11.3455
▁depart	-11.3461
▁convict	-11.3465
▁roast	-11.3465
▁dismiss	-11.3467
▁manner	-11.347
▁prescribe	-11.3473
▁negotiate	-11.3473
▁inspire	-11.3474
clude	-11.3474
▁stud	-11.3474
▁colon	-11.3475
▁peek	-11.3475
▁plea	-11.3475
range	-11.3475
guine	-11.3476
origin	-11.3476
pound	-11.3477
temporary	-11.3477
▁commun	-11.3477
wife	-11.3478
worthy	-11.3479
famous	-11.3479
sound	-11.3479
bearing	-11.3479
foot	-11.3479
minute	-11.3479
child	-11.348
three	-11.348
lift	-11.3483
▁dost	-11.3484
▁prett	-11.3484
bound	-11.3485
▁identit	-11.3485
▁por	-11.3485
▁thorough	-11.3485
change	-11.3486
show	-11.3487
▁belch	-11.3487
▁shoo	-11.3487
▁unfortunate	-11.3487
wait	-11.3488
phone	-11.3489
▁regress	-11.349
name	-11.3491
ookie	-11.3491
▁interrogat	-11.3493
ject	-11.3493
▁sentiment	-11.3495
▁exhal	-11.3495
addle	-11.3496
▁rebe	-11.3497
▁complicat	-11.3497
▁marshal	-11.3497
▁champ	-11.3498
▁reflect	-11.3498
rhea	-11.3501
▁fundamental	-11.3501
▁magnet	-11.3502
unning	-11.3502
▁congratulat	-11.3502
▁caution	-11.3503
▁manufactur	-11.3503
▁reinforce	-11.3503
▁retaliat	-11.3503
▁unleash	-11.3503
▁acquire	-11.3503
▁activities	-11.3503
▁almighty	-11.3503
▁ambush	-11.3503
▁antonito	-11.3503
▁aspect	-11.3503
▁aspire	-11.3503
▁atlanta	-11.3503
▁auction	-11.3503
▁bazooka	-11.3503
▁beyonc	-11.3503
▁bicycle	-11.3503
▁blockbuster	-11.3503
▁blueberry	-11.3503
▁bradshaw	-11.3503
▁brezhnev	-11.3503
▁bruton	-11.3503
▁bumblebee	-11.3503
▁chamber	-11.3503
▁chemical	-11.3503
▁circuit	-11.3503
▁cloak	-11.3503
▁coincidence	-11.3503
▁column	-11.3503
▁competitor	-11.3503
▁comprende	-11.3503
▁concussion	-11.3503
▁congrats	-11.3503
▁consequence	-11.3503
▁conspiracy	-11.3503
▁context	-11.3503
▁controversy	-11.3503
▁crucial	-11.3503
▁deceased	-11.3503
▁dedicated	-11.3503
▁destined	-11.3503
▁disagree	-11.3503
▁disguise	-11.3503
▁divine	-11.3503
▁easiest	-11.3503
▁effmann	-11.3503
▁emigrat	-11.3503
▁esteem	-11.3503
▁evervthing	-11.3503
▁expand	-11.3503
▁exploding	-11.3503
▁extension	-11.3503
▁facebook	-11.3503
▁flavor	-11.3503
▁frequently	-11.3503
▁frown	-11.3503
▁genevieve	-11.3503
▁genuine	-11.3503
▁gnome	-11.3503
▁goddammit	-11.3503
▁graphics	-11.3503
▁grief	-11.3503
▁gypsies	-11.3503
▁hayride	-11.3503
▁hieroglyphics	-11.3503
▁hormones	-11.3503
▁identify	-11.3503
▁improving	-11.3503
▁independent	-11.3503
▁investigate	-11.3503
▁investigating	-11.3503
▁irrelevant	-11.3503
▁jetblue	-11.3503
▁jorgito	-11.3503
▁kamata	-11.3503
▁klerk	-11.3503
▁knives	-11.3503
▁kuznetsov	-11.3503
▁lamaze	-11.3503
▁laundry	-11.3503
▁lunafreya	-11.3503
▁magnificent	-11.3503
▁maneuver	-11.3503
▁mcansh	-11.3503
▁misunderstood	-11.3503
▁morgue	-11.3503
▁mutual	-11.3503
▁mystique	-11.3503
▁nevada	-11.3503
▁nielsen	-11.3503
▁nikolai	-11.3503
▁nowadays	-11.3503
▁obedient	-11.3503
▁odessa	-11.3503
▁opponent	-11.3503
▁opposition	-11.3503
▁orient	-11.3503
▁outnumbered	-11.3503
▁ovarian	-11.3503
▁ovaries	-11.3503
▁parkinsons	-11.3503
▁pencil	-11.3503
▁permanent	-11.3503
▁persuade	-11.3503
▁physician	-11.3503
▁picasso	-11.3503
▁politician	-11.3503
▁pollution	-11.3503
▁population	-11.3503
▁prevail	-11.3503
▁prohibit	-11.3503
▁pronounce	-11.3503
▁provoke	-11.3503
▁quivering	-11.3503
▁rafferty	-11.3503
▁recognise	-11.3503
▁rehearsing	-11.3503
▁resort	-11.3503
▁resuscitate	-11.3503
▁rhyme	-11.3503
▁ricard	-11.3503
▁riviera	-11.3503
▁robicheaux	-11.3503
▁schwow	-11.3503
▁secrecy	-11.3503
▁shanghai	-11.3503
▁shepherd	-11.3503
▁slurp	-11.3503
▁smitt	-11.3503
▁snezhana	-11.3503
▁somewhat	-11.3503
▁spaghetti	-11.3503
▁splendid	-11.3503
▁stanford	-11.3503
▁strategy	-11.3503
▁striptease	-11.3503
▁sunshine	-11.3503
▁supermarket	-11.3503
▁supernatural	-11.3503
▁suspicion	-11.3503
▁telegram	-11.3503
▁tempest	-11.3503
▁terranova	-11.3503
▁thanksgiving	-11.3503
▁thigh	-11.3503
▁treasury	-11.3503
▁truce	-11.3503
▁tucson	-11.3503
▁tummy	-11.3503
▁twitter	-11.3503
▁umbrella	-11.3503
▁uncharted	-11.3503
▁underestimate	-11.3503
▁unpleasant	-11.3503
▁vartan	-11.3503
▁vegetable	-11.3503
▁vegetarian	-11.3503
▁vitamix	-11.3503
▁vronsky	-11.3503
▁whickers	-11.3503
▁wichita	-11.3503
▁ballerina	-11.3503
▁barriers	-11.3503
▁blooper	-11.3503
▁bullseye	-11.3503
▁coleman	-11.3503
▁depressed	-11.3503
▁eager	-11.3503
▁harvest	-11.3503
▁ismay	-11.3503
▁lillian	-11.3503
▁lvovich	-11.3503
▁nashville	-11.3503
▁orlando	-11.3503
▁pediatric	-11.3503
▁penalty	-11.3503
▁refresh	-11.3503
▁relations	-11.3503
▁reliable	-11.3503
▁resembl	-11.3503
▁runnerup	-11.3503
▁stranded	-11.3503
▁swine	-11.3503
▁tobias	-11.3503
▁trauma	-11.3503
▁tumor	-11.3503
▁tyler	-11.3503
▁waltz	-11.3503
▁weasel	-11.3503
▁wretch	-11.3503
▁cindy	-11.3503
▁courtesan	-11.3503
▁cultural	-11.3503
▁dalip	-11.3503
▁enlighten	-11.3503
▁erotic	-11.3503
▁importance	-11.3503
▁italy	-11.3503
▁judging	-11.3503
▁juicy	-11.3503
▁mourn	-11.3503
▁mummy	-11.3503
▁pettinger	-11.3503
▁protein	-11.3503
▁shotgun	-11.3503
▁sustain	-11.3503
▁timmy	-11.3503
▁urinat	-11.3503
▁yummy	-11.3503
▁clamoring	-11.3503
▁mansoor	-11.3503
▁miserable	-11.3503
▁scandal	-11.3503
▁whirl	-11.3503
▁conceal	-11.3503
▁mattress	-11.3503
▁ornament	-11.3503
▁java	-11.3503
▁jingling	-11.3503
▁karp	-11.3503
▁mtb	-11.3503
▁sketch	-11.3503
▁virtu	-11.3503
▁yawn	-11.3503
▁emilia	-11.3503
▁fertilizer	-11.3503
▁hoyos	-11.3503
▁klein	-11.3503
▁warehouse	-11.3503
lipse	-11.3503
▁decorate	-11.3503
▁dispose	-11.3503
▁kasper	-11.3503
▁lipstick	-11.3503
▁promoting	-11.3503
▁frisk	-11.3503
▁envy	-11.3503
▁illustr	-11.3503
▁stomp	-11.3503
▁dentist	-11.3503
▁untie	-11.3503
▁waving	-11.3503
▁pistol	-11.3503
▁imbecile	-11.3503
▁institute	-11.3503
▁plunge	-11.3503
▁tornado	-11.3503
▁kyle	-11.3503
▁phyllis	-11.3503
▁eighteen	-11.3503
▁conflict	-11.3503
▁liberals	-11.3503
▁gulp	-11.3503
▁deedee	-11.3503
▁crunch	-11.3503
▁organization	-11.3503
▁waitress	-11.3503
▁civilization	-11.3503
▁lobby	-11.3503
▁blaming	-11.3503
▁goddess	-11.3503
▁peasant	-11.3503
▁janu	-11.3503
▁argentina	-11.3503
▁behold	-11.3503
▁casualties	-11.3503
▁commandeer	-11.3503
▁basis	-11.3503
▁unstable	-11.3503
▁kebab	-11.3503
▁womb	-11.3503
▁fragile	-11.3503
▁authorities	-11.3503
▁laptop	-11.3503
▁interven	-11.3503
▁venice	-11.3503
▁bartende	-11.3503
▁infantry	-11.3504
▁bleating	-11.3504
▁tranquil	-11.3504
▁zipper	-11.3504
▁flutter	-11.3504
▁gambl	-11.3504
ftwa	-11.3504
▁cheesy	-11.3504
▁nacho	-11.3504
▁teii	-11.3504
▁refrigerator	-11.3504
▁domingo	-11.3504
▁fading	-11.3504
▁nomination	-11.3504
▁fortyfive	-11.3504
▁lucii	-11.3504
▁noodle	-11.3504
▁jeanpierre	-11.3504
▁luanne	-11.3504
▁benedict	-11.3504
▁lutheran	-11.3504
▁fdr	-11.3504
▁clutter	-11.3504
▁dried	-11.3504
▁filmore	-11.3504
▁radiation	-11.3504
▁pudding	-11.3504
▁pimp	-11.3504
▁selection	-11.3504
▁cellphone	-11.3504
▁ethn	-11.3504
▁venture	-11.3504
▁swap	-11.3504
▁define	-11.3504
▁jenny	-11.3504
▁ofem	-11.3504
▁hamlet	-11.3504
▁runnin	-11.3504
▁annette	-11.3504
▁liberty	-11.3505
▁lothos	-11.3505
▁clank	-11.3505
▁pussy	-11.3505
▁chika	-11.3505
▁depth	-11.3505
▁overcome	-11.3505
▁wiring	-11.3505
▁civilized	-11.3505
▁knit	-11.3505
luxe	-11.3505
▁cooperate	-11.3505
▁finland	-11.3505
▁wench	-11.3505
▁comedian	-11.3505
▁squir	-11.3505
▁warlord	-11.3505
▁madison	-11.3505
▁lesa	-11.3505
▁sarah	-11.3505
▁examination	-11.3505
▁humiliation	-11.3505
▁bake	-11.3505
▁prick	-11.3505
▁sponsorship	-11.3505
▁ditch	-11.3505
▁bebe	-11.3505
▁prance	-11.3506
▁banner	-11.3506
▁dickens	-11.3506
▁spotlight	-11.3506
▁contribution	-11.3506
▁harass	-11.3506
▁cardboard	-11.3506
▁hooves	-11.3506
▁loyalty	-11.3506
▁tomatoes	-11.3506
▁appropriate	-11.3506
▁cholesterol	-11.3506
▁haemostat	-11.3506
▁frame	-11.3506
▁kung	-11.3506
▁babysit	-11.3506
▁fluid	-11.3506
▁register	-11.3506
▁educated	-11.3507
▁hamster	-11.3507
▁boob	-11.3507
▁arise	-11.3507
▁oak	-11.3507
▁moderate	-11.3507
▁mouse	-11.3507
▁occasionally	-11.3507
▁literar	-11.3507
▁reverse	-11.3507
▁penny	-11.3507
▁whack	-11.3507
▁billboard	-11.3507
▁crank	-11.3507
▁tide	-11.3507
▁jocko	-11.3507
▁heir	-11.3507
▁philosophy	-11.3507
▁blog	-11.3508
▁savage	-11.3508
▁attractive	-11.3508
▁rash	-11.3508
▁feedback	-11.3508
▁auto	-11.3508
▁twentyone	-11.3509
▁baba	-11.3509
▁sancti	-11.3509
▁thinner	-11.3509
▁arrival	-11.3509
ndez	-11.3509
▁flock	-11.351
▁alison	-11.351
▁dripping	-11.351
ready	-11.351
▁barker	-11.351
enzy	-11.351
▁species	-11.351
▁waist	-11.351
▁hazel	-11.3511
▁decei	-11.3511
▁graceland	-11.3511
▁acceptance	-11.3511
▁caption	-11.3511
▁tele	-11.3511
▁significant	-11.3511
▁conquer	-11.3512
▁minor	-11.3512
▁grandson	-11.3512
▁booey	-11.3512
▁highlight	-11.3512
▁household	-11.3512
▁turf	-11.3512
▁iike	-11.3512
▁gaines	-11.3512
▁benny	-11.3513
▁poof	-11.3513
▁announcement	-11.3513
▁gust	-11.3513
▁stirr	-11.3513
▁isolated	-11.3513
▁nearby	-11.3513
▁chico	-11.3513
▁mur	-11.3513
▁hydr	-11.3513
▁joyce	-11.3513
▁shek	-11.3514
▁pester	-11.3514
▁beau	-11.3514
▁lining	-11.3514
▁global	-11.3515
▁romeo	-11.3515
▁betsy	-11.3515
▁dignity	-11.3515
▁assassination	-11.3515
▁benton	-11.3515
urance	-11.3515
▁distorted	-11.3515
▁condemned	-11.3515
▁benson	-11.3516
▁stance	-11.3516
▁yipp	-11.3516
khan	-11.3516
▁identified	-11.3516
▁semi	-11.3516
long	-11.3517
▁keen	-11.3517
▁violation	-11.3517
▁pinch	-11.3517
▁overtime	-11.3517
▁gull	-11.3518
▁ironic	-11.3518
▁sandwiches	-11.3519
▁canal	-11.3519
▁nausea	-11.3519
▁collapsed	-11.352
chard	-11.352
▁brace	-11.352
▁leap	-11.352
▁icon	-11.352
▁stealth	-11.3521
▁lilies	-11.3521
▁dropping	-11.3521
▁satisfied	-11.3521
▁balance	-11.3521
▁allies	-11.3521
haus	-11.3521
▁trembling	-11.3521
▁trv	-11.3522
▁slot	-11.3522
exic	-11.3522
▁ash	-11.3522
▁coup	-11.3522
▁accused	-11.3523
rumpy	-11.3523
via	-11.3524
▁bore	-11.3525
▁shallow	-11.3525
▁forest	-11.3526
moria	-11.3526
▁spies	-11.3527
▁eternally	-11.3527
▁bouncing	-11.3528
▁trish	-11.3528
▁temporary	-11.3529
▁wholl	-11.3529
▁blonde	-11.353
▁madness	-11.353
▁worthless	-11.353
upe	-11.3531
▁revealed	-11.3532
▁wrecked	-11.3532
▁elected	-11.3532
uis	-11.3532
▁plead	-11.3533
▁negotiated	-11.3533
▁entit	-11.3534
egged	-11.3534
▁vene	-11.3535
▁activated	-11.3535
▁controlling	-11.3537
▁katz	-11.3537
▁transformed	-11.3538
▁heist	-11.3541
zon	-11.3541
▁takin	-11.3542
▁theo	-11.3542
▁arf	-11.3544
▁loosen	-11.3546
▁cleanup	-11.3547
▁mow	-11.3547
acial	-11.3547
▁accountant	-11.3548
▁bold	-11.3548
▁warhead	-11.3548
▁thrashed	-11.3548
▁hotter	-11.3553
▁norman	-11.3558
▁shushing	-11.3558
estine	-11.3558
▁sixth	-11.356
ament	-11.356
▁specialty	-11.3561
vous	-11.3561
▁grin	-11.3562
▁gain	-11.3564
▁affected	-11.3565
▁haha	-11.3566
▁ignoring	-11.3566
▁coma	-11.3567
▁brigad	-11.3567
▁thus	-11.3569
▁disturbing	-11.3571
▁bookie	-11.3572
▁depending	-11.3572
▁distribut	-11.3572
▁dc	-11.3573
▁clark	-11.3574
▁sealed	-11.3574
▁spite	-11.3578
▁compromised	-11.358
▁assist	-11.358
▁toaster	-11.3581
▁preaching	-11.3583
▁gathering	-11.3583
▁hideou	-11.3584
▁angela	-11.3588
▁tame	-11.3588
▁eunuchs	-11.3588
▁fingerprints	-11.3588
▁habsburgs	-11.3588
▁spectacles	-11.3588
▁admirer	-11.3589
▁maxie	-11.359
▁corrupted	-11.359
▁recovered	-11.359
▁hike	-11.3593
▁wiped	-11.3596
▁sewing	-11.3596
▁reviewer	-11.3596
owski	-11.3599
constructive	-11.3602
▁liberate	-11.3603
▁followers	-11.3604
▁endure	-11.3605
▁freakin	-11.3606
▁brushing	-11.3608
▁massage	-11.3611
▁bidd	-11.3612
▁sniffing	-11.3614
▁directed	-11.3614
▁useful	-11.3614
▁tany	-11.3619
▁gaze	-11.3626
▁xe	-11.3627
▁graduat	-11.3627
▁businessman	-11.3629
▁tickle	-11.363
▁optimist	-11.3632
bbing	-11.3636
hipped	-11.3638
▁tuned	-11.3641
▁fuckin	-11.3643
▁borrowed	-11.3648
▁ady	-11.3649
coat	-11.365
▁coin	-11.3654
▁mild	-11.366
▁dep	-11.366
▁coolest	-11.3661
▁loudly	-11.3664
▁searched	-11.3665
▁entered	-11.3665
▁passes	-11.3667
▁mixing	-11.367
▁hitch	-11.3671
▁tent	-11.3674
hmm	-11.3679
▁sinking	-11.3685
▁blocked	-11.3692
▁jud	-11.3698
▁collected	-11.3698
▁discussed	-11.3699
ashi	-11.3702
▁drifting	-11.3706
estic	-11.3707
▁chased	-11.371
▁lud	-11.3711
▁bully	-11.3722
▁transform	-11.3723
▁ford	-11.3725
▁stark	-11.3732
▁performed	-11.3732
aux	-11.3733
▁starve	-11.3734
▁faun	-11.3742
▁representing	-11.3743
rainin	-11.3744
▁attending	-11.3744
martial	-11.3749
▁porn	-11.3755
▁gap	-11.3758
▁tinkl	-11.3761
▁shocking	-11.3768
▁golf	-11.3768
▁heavenly	-11.3776
▁chic	-11.3778
▁ohio	-11.3781
▁wayne	-11.3786
▁thems	-11.379
▁drawer	-11.382
▁payment	-11.383
oka	-11.3836
ridden	-11.3837
hooters	-11.3838
▁kneel	-11.3852
ooks	-11.3858
▁clog	-11.3866
icious	-11.3874
▁ching	-11.3876
▁wince	-11.3919
cat	-11.3928
olog	-11.3939
▁hostil	-11.3967
tzel	-11.3993
▁sic	-11.4005
▁chan	-11.4006
▁fet	-11.4014
▁wen	-11.4027
▁exceptional	-11.4058
empt	-11.4068
▁anthe	-11.4085
▁zeb	-11.4112
ake	-11.4114
tumbling	-11.414
▁cath	-11.4158
▁dime	-11.4177
ised	-11.4226
ung	-11.4233
▁zip	-11.4242
▁tut	-11.4247
ould	-11.4254
▁jok	-11.4281
duct	-11.4303
▁magical	-11.4305
▁fishie	-11.434
▁reminder	-11.4342
▁prim	-11.4397
▁medi	-11.441
rubber	-11.4413
iggl	-11.4423
told	-11.4427
atory	-11.4455
▁span	-11.4463
▁exc	-11.4485
▁ami	-11.4573
▁raf	-11.4605
tentious	-11.4611
▁dart	-11.4622
yov	-11.4663
▁domin	-11.4687
god	-11.4723
▁plato	-11.4734
ola	-11.4744
▁aff	-11.4763
uba	-11.4813
hold	-11.4852
enge	-11.4862
▁ahhh	-11.4928
immon	-11.5017
formation	-11.5072
▁wil	-11.5101
▁flyer	-11.5116
acres	-11.5132
nza	-11.5138
▁fil	-11.516
nx	-11.5164
this	-11.5212
▁logic	-11.5216
▁herm	-11.5222
▁chum	-11.5247
ipped	-11.5323
▁meter	-11.5336
rger	-11.5348
▁sau	-11.5398
▁torme	-11.54
▁manipulat	-11.5408
▁martine	-11.5419
▁concentrat	-11.5422
your	-11.5455
acher	-11.5473
inde	-11.5473
▁frickin	-11.5502
▁mag	-11.5517
udge	-11.5534
▁pond	-11.5542
▁audi	-11.5543
▁secur	-11.5568
▁exce	-11.5574
live	-11.5584
▁marina	-11.5603
▁hoot	-11.5653
▁pala	-11.5672
▁trans	-11.5676
rail	-11.5735
home	-11.5738
▁statistic	-11.576
▁cigar	-11.5762
▁resident	-11.5763
▁pancake	-11.5766
▁balloon	-11.5766
▁dorri	-11.5766
▁negotiation	-11.5766
▁diaper	-11.5769
▁rumor	-11.5771
aby	-11.5771
dressed	-11.5781
▁inhale	-11.5786
▁wave	-11.5803
ugged	-11.5805
▁optim	-11.584
▁drone	-11.5845
ought	-11.5858
▁admir	-11.5872
self	-11.5885
▁taco	-11.5901
▁norm	-11.5924
▁arriv	-11.5934
brid	-11.594
▁clar	-11.594
▁creak	-11.5953
▁elect	-11.5953
ella	-11.5954
▁avenge	-11.5957
▁ange	-11.5958
▁addict	-11.5962
ification	-11.5963
▁carrie	-11.5964
here	-11.5965
▁iraq	-11.5965
▁wreck	-11.5966
▁activat	-11.5966
▁reveal	-11.5966
▁frustrat	-11.5967
▁reject	-11.5972
emons	-11.5973
▁anhe	-11.5973
▁locate	-11.5974
vision	-11.5974
▁profession	-11.5975
drop	-11.5975
witch	-11.5976
pierre	-11.5976
have	-11.5978
▁should	-11.5978
tooth	-11.5978
title	-11.5978
▁guilt	-11.5978
play	-11.5979
fifty	-11.5979
plant	-11.5979
american	-11.5979
boom	-11.5979
friendly	-11.5979
patient	-11.5979
speed	-11.5979
chorus	-11.5979
normal	-11.5979
large	-11.5979
club	-11.598
mouth	-11.598
world	-11.598
check	-11.598
paid	-11.598
good	-11.598
▁coop	-11.598
magneti	-11.5983
weight	-11.5985
plicate	-11.5985
▁speci	-11.5986
▁offens	-11.5986
▁bord	-11.5988
▁ruff	-11.5988
block	-11.5989
human	-11.5989
under	-11.599
▁glor	-11.599
▁radi	-11.5991
▁precise	-11.5991
▁curren	-11.5991
▁scarf	-11.5992
▁choi	-11.5993
wig	-11.5993
▁centuri	-11.5994
care	-11.5994
▁rag	-11.5996
case	-11.5997
▁frag	-11.5997
partment	-11.5998
▁leavin	-11.5998
pump	-11.5999
▁definite	-11.5999
larissa	-11.5999
▁weddin	-11.5999
▁kidnap	-11.6
▁glamo	-11.6001
▁sarcas	-11.6002
▁creation	-11.6002
▁whisk	-11.6002
▁scientific	-11.6002
stock	-11.6002
▁urge	-11.6002
reign	-11.6002
▁brenn	-11.6002
▁temper	-11.6003
▁metaphor	-11.6003
▁brazil	-11.6003
allelu	-11.6003
▁infirm	-11.6003
▁misunderstand	-11.6003
▁accompany	-11.6003
▁bernard	-11.6003
▁powwow	-11.6003
▁stagger	-11.6003
crispy	-11.6003
intellig	-11.6003
knockknock	-11.6003
migrants	-11.6003
qualifications	-11.6003
▁abernathy	-11.6003
▁absorb	-11.6003
▁abstract	-11.6003
▁aerobics	-11.6003
▁agencies	-11.6003
▁airborne	-11.6003
▁aleksandr	-11.6003
▁aleluya	-11.6003
▁alkaseltzer	-11.6003
▁amakasu	-11.6003
▁ambition	-11.6003
▁antonio	-11.6003
▁apologies	-11.6003
▁approval	-11.6003
▁aspirations	-11.6003
▁asylum	-11.6003
▁befriend	-11.6003
▁biscuit	-11.6003
▁boulevard	-11.6003
▁broomstick	-11.6003
▁brunch	-11.6003
▁brussels	-11.6003
▁calendar	-11.6003
▁canvas	-11.6003
▁casbah	-11.6003
▁cautious	-11.6003
▁chilton	-11.6003
▁chimney	-11.6003
▁chipmunk	-11.6003
▁citadel	-11.6003
▁clemmie	-11.6003
▁cockroach	-11.6003
▁colada	-11.6003
▁commotion	-11.6003
▁companion	-11.6003
▁compatible	-11.6003
▁concluded	-11.6003
▁confusion	-11.6003
▁convenient	-11.6003
▁copenhagen	-11.6003
▁crazier	-11.6003
▁czech	-11.6003
▁daphne	-11.6003
▁defensive	-11.6003
▁deflect	-11.6003
▁despair	-11.6003
▁detonator	-11.6003
▁discount	-11.6003
▁disqualifie	-11.6003
▁distinguished	-11.6003
▁dorothy	-11.6003
▁doughnuts	-11.6003
▁einstein	-11.6003
▁elisabeth	-11.6003
▁encryption	-11.6003
▁enforcement	-11.6003
▁enthusiasm	-11.6003
▁envelope	-11.6003
▁espionage	-11.6003
▁evacuate	-11.6003
▁evident	-11.6003
▁excellency	-11.6003
▁excessive	-11.6003
▁fantasies	-11.6003
▁feather	-11.6003
▁fontaine	-11.6003
▁fraud	-11.6003
▁frolov	-11.6003
▁fundraiser	-11.6003
▁ganthet	-11.6003
▁gestapo	-11.6003
▁gracious	-11.6003
▁grigori	-11.6003
▁grotesque	-11.6003
▁gwend	-11.6003
▁hallucinati	-11.6003
▁hendry	-11.6003
▁heritage	-11.6003
▁hulett	-11.6003
▁hysterical	-11.6003
▁imagining	-11.6003
▁improper	-11.6003
▁industries	-11.6003
▁innocence	-11.6003
▁insecure	-11.6003
▁insidious	-11.6003
▁intellectual	-11.6003
▁internship	-11.6003
▁intimate	-11.6003
▁jagger	-11.6003
▁jangling	-11.6003
▁juilliard	-11.6003
▁jumbo	-11.6003
▁jumpjump	-11.6003
▁justify	-11.6003
▁kennelly	-11.6003
▁kostya	-11.6003
▁kowtow	-11.6003
▁kristine	-11.6003
▁kuomintang	-11.6003
▁lawsuit	-11.6003
▁lifestyle	-11.6003
▁loudspeaker	-11.6003
▁lucrative	-11.6003
▁maddox	-11.6003
▁malcolm	-11.6003
▁malibu	-11.6003
▁manjido	-11.6003
▁mariepaule	-11.6003
▁mastallone	-11.6003
▁melody	-11.6003
▁memorial	-11.6003
▁mercedes	-11.6003
▁migraine	-11.6003
▁monobrow	-11.6003
▁monroe	-11.6003
▁motivate	-11.6003
▁motorcycles	-11.6003
▁mujahideen	-11.6003
▁multiple	-11.6003
▁munitions	-11.6003
▁mussolini	-11.6003
▁nabokov	-11.6003
▁navigat	-11.6003
▁necessarily	-11.6003
▁neuromarketing	-11.6003
▁nigel	-11.6003
▁noksu	-11.6003
▁nonetheless	-11.6003
▁nuisance	-11.6003
▁obituary	-11.6003
▁obscure	-11.6003
▁oconnor	-11.6003
▁octave	-11.6003
▁ordnance	-11.6003
▁palardis	-11.6003
▁paranoid	-11.6003
▁peculiar	-11.6003
▁penguin	-11.6003
▁pennsylvania	-11.6003
▁pentagon	-11.6003
▁peoria	-11.6003
▁physec	-11.6003
▁physics	-11.6003
▁pilgrim	-11.6003
▁pocketknife	-11.6003
▁pollute	-11.6003
▁precision	-11.6003
▁profound	-11.6003
▁propaganda	-11.6003
▁prostate	-11.6003
▁protegee	-11.6003
▁psychopath	-11.6003
▁rachael	-11.6003
▁railroad	-11.6003
▁ramsay	-11.6003
▁recipe	-11.6003
▁reenactment	-11.6003
▁relentless	-11.6003
▁rhodes	-11.6003
▁ritual	-11.6003
▁romiski	-11.6003
▁safaa	-11.6003
▁safeguard	-11.6003
▁sapien	-11.6003
▁scientist	-11.6003
▁scissors	-11.6003
▁scotch	-11.6003
▁scotland	-11.6003
▁seminar	-11.6003
▁serpent	-11.6003
▁seventyfive	-11.6003
▁shield	-11.6003
▁siblings	-11.6003
▁simulation	-11.6003
▁sinatra	-11.6003
▁singlespaced	-11.6003
▁smoote	-11.6003
▁solitary	-11.6003
▁sorokina	-11.6003
▁souvenir	-11.6003
▁soweto	-11.6003
▁squawking	-11.6003
▁stenwick	-11.6003
▁stimulat	-11.6003
▁stransky	-11.6003
▁submerged	-11.6003
▁substitute	-11.6003
▁sullivan	-11.6003
▁tamtam	-11.6003
▁tequila	-11.6003
▁territories	-11.6003
▁testimony	-11.6003
▁therapist	-11.6003
▁thieves	-11.6003
▁torpedoes	-11.6003
▁toulouse	-11.6003
▁treasure	-11.6003
▁troglo	-11.6003
▁tweak	-11.6003
▁ukiyoe	-11.6003
▁undercover	-11.6003
▁utagawa	-11.6003
▁utmost	-11.6003
▁vacant	-11.6003
▁valentina	-11.6003
▁veronique	-11.6003
▁viscount	-11.6003
▁vitamin	-11.6003
▁vvedensky	-11.6003
▁westminster	-11.6003
▁woohoo	-11.6003
▁wrangler	-11.6003
▁wrath	-11.6003
▁wrestling	-11.6003
▁youtube	-11.6003
▁zenjirou	-11.6003
▁zucchini	-11.6003
▁alimony	-11.6003
▁apprais	-11.6003
▁baggage	-11.6003
▁brisk	-11.6003
▁bunnies	-11.6003
▁cappie	-11.6003
▁conform	-11.6003
▁creator	-11.6003
▁curry	-11.6003
▁cursing	-11.6003
▁defence	-11.6003
▁deidre	-11.6003
▁disobey	-11.6003
▁fierce	-11.6003
▁fortress	-11.6003
▁gasoline	-11.6003
▁gillesse	-11.6003
▁handcuff	-11.6003
▁herbert	-11.6003
▁knix	-11.6003
▁leverage	-11.6003
▁mystery	-11.6003
▁outstanding	-11.6003
▁overflow	-11.6003
▁refund	-11.6003
▁scope	-11.6003
▁scorch	-11.6003
▁slope	-11.6003
▁spontane	-11.6003
▁substanti	-11.6003
▁superhero	-11.6003
▁token	-11.6003
▁trophy	-11.6003
▁uncertain	-11.6003
▁unnatural	-11.6003
▁vicinity	-11.6003
▁wannabe	-11.6003
▁whereabouts	-11.6003
culty	-11.6003
▁cannibalism	-11.6003
▁chainsaw	-11.6003
▁conservati	-11.6003
▁grueller	-11.6003
▁headband	-11.6003
▁intoleran	-11.6003
▁kilman	-11.6003
▁lucien	-11.6003
▁natasha	-11.6003
▁reserve	-11.6003
▁rouge	-11.6003
▁scottsdale	-11.6003
▁sloven	-11.6003
▁stalking	-11.6003
▁swag	-11.6003
▁uncover	-11.6003
▁wimps	-11.6003
▁wmia	-11.6003
▁xray	-11.6003
▁yadada	-11.6003
▁activis	-11.6003
▁gauge	-11.6003
▁gordon	-11.6003
▁bindle	-11.6003
▁candor	-11.6003
▁deceiving	-11.6003
▁denali	-11.6003
▁error	-11.6003
▁grammy	-11.6003
▁jimmie	-11.6003
▁premier	-11.6003
▁ricky	-11.6003
▁rumbles	-11.6003
▁unarmed	-11.6003
▁vagina	-11.6003
▁vanished	-11.6003
▁chieh	-11.6003
▁communicate	-11.6003
▁harvey	-11.6003
▁hippie	-11.6003
▁lewis	-11.6003
▁mhm	-11.6003
▁pulp	-11.6003
▁website	-11.6003
inhabit	-11.6003
▁ankle	-11.6003
▁larkin	-11.6003
▁raspberr	-11.6003
▁thonon	-11.6003
▁unlocked	-11.6003
▁confine	-11.6003
▁donald	-11.6003
▁ethic	-11.6003
▁proverb	-11.6003
▁rooney	-11.6003
▁utterly	-11.6003
▁weep	-11.6003
▁allergi	-11.6003
▁chrissake	-11.6003
▁denver	-11.6003
▁millionaire	-11.6003
▁plasma	-11.6003
▁synd	-11.6003
drenched	-11.6003
▁chord	-11.6003
▁bapti	-11.6003
▁brew	-11.6003
▁knuckles	-11.6003
▁edited	-11.6003
▁forged	-11.6003
▁penetrat	-11.6003
▁reich	-11.6003
▁bureaucrat	-11.6003
▁detonate	-11.6003
▁napkin	-11.6003
▁reopen	-11.6003
uccin	-11.6003
▁chemo	-11.6003
▁compensat	-11.6003
▁shuttle	-11.6003
▁spinning	-11.6003
▁dragged	-11.6003
▁oven	-11.6003
▁thrive	-11.6003
▁modest	-11.6003
▁abyss	-11.6003
▁ensure	-11.6003
▁mactaggert	-11.6003
▁petersburg	-11.6003
▁thresh	-11.6003
▁vikings	-11.6003
▁shiver	-11.6003
▁vows	-11.6003
▁authorization	-11.6003
▁probing	-11.6003
▁thudding	-11.6003
▁reek	-11.6003
▁transition	-11.6003
▁argent	-11.6003
▁attaboy	-11.6003
▁sideburns	-11.6003
▁vandal	-11.6003
▁stabbed	-11.6003
▁sicily	-11.6003
▁swipe	-11.6003
ducted	-11.6003
▁susie	-11.6003
▁insert	-11.6003
▁conclusion	-11.6003
▁jesse	-11.6003
▁inventory	-11.6003
▁obtain	-11.6003
▁restrain	-11.6003
▁lottery	-11.6003
▁memoriz	-11.6003
▁inseminat	-11.6003
▁historical	-11.6003
▁omelet	-11.6003
▁grease	-11.6003
▁wolve	-11.6003
▁whoohoo	-11.6003
▁jamison	-11.6003
▁pigsty	-11.6003
▁crescen	-11.6004
▁hatred	-11.6004
▁monstro	-11.6004
▁bullfight	-11.6004
▁bruise	-11.6004
▁latin	-11.6004
▁makin	-11.6004
▁estonia	-11.6004
▁cooing	-11.6004
▁emmy	-11.6004
▁alaska	-11.6004
▁sanctuary	-11.6004
▁squadron	-11.6004
▁whoohoohoo	-11.6004
▁magda	-11.6004
▁jewelry	-11.6004
▁tempt	-11.6004
ounce	-11.6004
▁catfish	-11.6004
▁goofy	-11.6004
▁cheeseburger	-11.6004
▁creationism	-11.6004
▁crutch	-11.6004
▁ambien	-11.6004
▁canned	-11.6004
▁sharon	-11.6004
▁surface	-11.6004
▁pepsi	-11.6004
▁polls	-11.6004
▁vault	-11.6004
▁bestsell	-11.6004
▁quack	-11.6004
▁shelf	-11.6004
▁pippin	-11.6004
▁prettier	-11.6004
▁disturbance	-11.6004
▁plumber	-11.6004
▁confront	-11.6004
▁buckoff	-11.6004
▁reset	-11.6004
▁verbal	-11.6004
▁bandits	-11.6004
▁flank	-11.6004
▁mmmmmm	-11.6004
▁racket	-11.6004
▁gannon	-11.6004
▁woochi	-11.6004
▁francine	-11.6005
▁petrol	-11.6005
lastic	-11.6005
ault	-11.6005
▁temptation	-11.6005
▁gown	-11.6005
▁ginger	-11.6005
▁jammed	-11.6005
▁filter	-11.6005
▁beads	-11.6005
▁rican	-11.6005
▁throbbing	-11.6005
▁hippo	-11.6005
▁insufficient	-11.6005
▁roadblock	-11.6005
power	-11.6005
▁riley	-11.6005
▁petition	-11.6005
▁glamour	-11.6005
▁employment	-11.6005
▁birthright	-11.6005
temporal	-11.6005
▁inquiries	-11.6005
▁forehead	-11.6005
▁internal	-11.6005
▁trafficker	-11.6005
▁obli	-11.6005
▁recreat	-11.6005
▁northeast	-11.6005
ocaine	-11.6005
▁glance	-11.6005
▁equat	-11.6005
▁nemo	-11.6005
▁yellowcake	-11.6005
▁claw	-11.6005
▁babysitting	-11.6006
▁clockwork	-11.6006
▁criticism	-11.6006
▁finance	-11.6006
▁squish	-11.6006
▁danj	-11.6006
▁tractor	-11.6006
▁chute	-11.6006
▁terminat	-11.6006
▁corporate	-11.6006
▁embarrassment	-11.6006
▁anticipation	-11.6006
▁whys	-11.6006
▁harsh	-11.6006
▁paddle	-11.6006
▁nineteen	-11.6006
▁blazing	-11.6006
▁receptionist	-11.6006
▁pledge	-11.6006
credible	-11.6006
▁tread	-11.6006
▁collectors	-11.6007
▁inject	-11.6007
▁josh	-11.6007
▁strut	-11.6007
▁clench	-11.6007
▁furious	-11.6007
▁addiction	-11.6007
▁psychotic	-11.6007
▁swimmer	-11.6007
▁pakistani	-11.6007
▁dumpster	-11.6007
▁delinquent	-11.6007
▁spike	-11.6007
reaking	-11.6008
▁revolv	-11.6008
▁regardless	-11.6008
▁glide	-11.6008
▁mileage	-11.6008
▁sunlight	-11.6008
▁semion	-11.6008
▁thread	-11.6008
▁archie	-11.6008
▁govern	-11.6008
▁distribution	-11.6008
width	-11.6008
▁amuse	-11.6008
▁reflection	-11.6008
▁niff	-11.6008
▁stockings	-11.6008
▁dumpling	-11.6008
▁management	-11.6009
▁mahalo	-11.6009
▁coron	-11.6009
▁heap	-11.6009
▁vicar	-11.601
▁quadr	-11.601
▁stitches	-11.601
▁teammate	-11.601
▁flute	-11.601
▁retain	-11.601
▁unison	-11.6011
▁stump	-11.6011
▁hallway	-11.6011
▁motown	-11.6011
▁aza	-11.6011
▁republican	-11.6011
ethel	-11.6011
▁minus	-11.6011
▁wakefield	-11.6012
▁berni	-11.6012
▁parkway	-11.6012
▁righteousness	-11.6012
▁gurgling	-11.6012
▁intimidating	-11.6012
▁pbr	-11.6012
▁checkpoint	-11.6012
▁robberies	-11.6012
▁luckily	-11.6013
▁artwork	-11.6013
communicat	-11.6013
holder	-11.6013
▁bonus	-11.6013
▁lauren	-11.6013
▁shish	-11.6013
▁limo	-11.6013
▁battleship	-11.6013
▁brotherhood	-11.6014
▁loner	-11.6014
▁masha	-11.6014
▁firearm	-11.6014
▁ripped	-11.6014
▁virginie	-11.6014
▁michelle	-11.6014
▁complexion	-11.6014
▁spitting	-11.6014
▁odor	-11.6015
▁gent	-11.6015
▁unload	-11.6015
▁despise	-11.6015
▁dumbass	-11.6015
▁luna	-11.6015
▁interrogation	-11.6016
▁kong	-11.6016
▁cult	-11.6016
▁rebellio	-11.6016
▁awareness	-11.6016
▁withdrawn	-11.6016
▁relieved	-11.6016
▁peak	-11.6016
▁grownup	-11.6016
▁unpack	-11.6016
▁uter	-11.6016
hour	-11.6017
▁muse	-11.6017
▁stir	-11.6017
▁programmed	-11.6018
▁trim	-11.6018
▁daughterinlaw	-11.6018
▁flak	-11.6018
▁glen	-11.6018
▁arouse	-11.6018
▁hinge	-11.6018
▁buddh	-11.6018
▁eyeball	-11.6019
▁excon	-11.6019
▁sack	-11.6019
renches	-11.6019
▁roommate	-11.6019
▁selected	-11.6019
▁herb	-11.602
▁manning	-11.602
▁organic	-11.602
▁natali	-11.602
▁heartbeat	-11.602
▁doorstep	-11.602
▁layton	-11.602
▁parisian	-11.6021
▁roam	-11.6021
▁tripping	-11.6022
▁adjustment	-11.6022
▁spotted	-11.6023
icular	-11.6023
▁perth	-11.6024
uhdu	-11.6024
▁maur	-11.6024
▁embar	-11.6024
▁medication	-11.6024
▁dope	-11.6024
▁aii	-11.6024
▁peril	-11.6024
▁thro	-11.6024
▁passage	-11.6025
stand	-11.6025
burger	-11.6025
▁invaded	-11.6025
▁opposed	-11.6025
▁thoroughly	-11.6025
▁instructor	-11.6025
▁assemble	-11.6026
▁torn	-11.6026
siu	-11.6026
▁protective	-11.6027
▁airline	-11.6028
▁whom	-11.6028
▁alas	-11.6028
▁shipped	-11.6028
▁campus	-11.6028
▁marion	-11.6029
▁hui	-11.6029
▁origin	-11.6029
▁abuse	-11.6029
▁inches	-11.6029
▁pierre	-11.6029
▁thally	-11.6029
▁scann	-11.603
rich	-11.603
▁succeeded	-11.603
▁yanked	-11.603
▁dais	-11.603
▁patti	-11.603
▁moist	-11.6031
▁invested	-11.6031
urray	-11.6031
▁raft	-11.6033
▁dang	-11.6033
▁soil	-11.6033
ji	-11.6034
quet	-11.6035
dental	-11.6035
▁eine	-11.6037
▁manchurian	-11.6037
▁vanity	-11.6038
ehr	-11.6038
▁swore	-11.6038
▁educational	-11.6039
▁lung	-11.6039
▁shah	-11.604
▁violeta	-11.604
▁hairdo	-11.6041
▁addicted	-11.6041
▁thru	-11.6041
▁acceptable	-11.6041
▁slo	-11.6041
▁manipulated	-11.6042
▁prescribed	-11.6042
▁vent	-11.6043
▁blooming	-11.6043
▁crawlin	-11.6045
▁approaches	-11.6046
roaches	-11.6048
▁avenger	-11.6049
▁dav	-11.6049
▁elf	-11.6049
▁rarely	-11.605
▁headline	-11.6051
▁witnesses	-11.6051
▁poked	-11.6051
▁convicted	-11.6052
▁roasted	-11.6052
▁departed	-11.6052
▁popup	-11.6052
▁shak	-11.6054
▁assembled	-11.6055
▁guine	-11.6055
▁messinger	-11.6056
▁circled	-11.6056
▁aging	-11.6059
▁tilt	-11.606
spell	-11.6061
▁slime	-11.6062
▁employed	-11.6063
▁attracted	-11.6063
▁distracted	-11.6063
▁franc	-11.6063
▁mav	-11.6063
cement	-11.6064
▁drawn	-11.6065
▁showoff	-11.6067
rank	-11.6069
▁restored	-11.607
▁coon	-11.607
▁directly	-11.607
▁armies	-11.6071
▁sweetness	-11.6071
▁leftover	-11.6073
▁reacted	-11.6074
bil	-11.6074
▁unclear	-11.6076
▁avocadoes	-11.6076
▁taint	-11.6079
▁eyeb	-11.608
▁idiotic	-11.6081
▁heroic	-11.6083
▁administrat	-11.6084
▁luce	-11.6084
▁sup	-11.6086
▁rescued	-11.6086
▁traced	-11.6086
▁shutting	-11.6089
▁indi	-11.609
▁logo	-11.6091
▁samu	-11.6091
▁keyes	-11.6092
singi	-11.6092
▁cocky	-11.6092
▁armor	-11.6093
▁ross	-11.6095
▁milli	-11.6095
▁regularly	-11.6095
▁git	-11.6095
▁dave	-11.6095
volunt	-11.6096
▁checkup	-11.6096
edict	-11.6097
▁bled	-11.6099
▁oc	-11.61
▁conve	-11.6101
▁charmer	-11.6102
▁losin	-11.6103
▁exploded	-11.6104
▁humiliated	-11.6105
▁astr	-11.6108
▁proven	-11.6109
▁weakly	-11.611
▁ussr	-11.611
▁correction	-11.6112
tologist	-11.6116
ween	-11.6118
tacked	-11.6123
conclusive	-11.6125
▁reaches	-11.6127
discretion	-11.6136
ease	-11.6146
▁rage	-11.6147
▁disrespectful	-11.6149
▁harle	-11.6154
dler	-11.6168
▁replac	-11.6174
▁weaken	-11.6185
▁publication	-11.6185
▁targ	-11.6191
▁cardi	-11.6193
▁convers	-11.6212
▁incen	-11.6212
▁hurl	-11.6212
ussy	-11.6227
▁poly	-11.6227
▁lease	-11.6285
join	-11.6287
ifer	-11.6297
icles	-11.63
▁smok	-11.6309
▁atta	-11.6318
ike	-11.6326
▁ape	-11.6336
investment	-11.6347
▁chant	-11.6361
akers	-11.6366
▁strapp	-11.6384
get	-11.639
while	-11.6397
▁lamp	-11.6401
▁equi	-11.6406
▁dup	-11.6429
▁bolt	-11.6436
vette	-11.6442
ladder	-11.6459
nstable	-11.6462
lessness	-11.6463
front	-11.6499
llows	-11.6555
▁antiqu	-11.657
bia	-11.66
▁bugg	-11.6602
▁peach	-11.6612
lobe	-11.6644
▁pile	-11.6648
verv	-11.6653
▁karat	-11.6654
ettin	-11.6658
▁beck	-11.6726
sparag	-11.6774
xie	-11.6777
fold	-11.6809
ferred	-11.6811
▁beet	-11.6852
hung	-11.6867
▁plugg	-11.688
▁increas	-11.6907
tuna	-11.6941
▁vot	-11.6958
terior	-11.6961
▁peer	-11.6999
alito	-11.7064
▁sti	-11.7107
hhh	-11.7148
about	-11.718
▁glu	-11.7245
sensitivity	-11.729
mination	-11.7381
poli	-11.7432
tile	-11.7436
manche	-11.7465
tub	-11.7535
▁abra	-11.7554
rome	-11.7621
asixseven	-11.7648
▁constitution	-11.7692
accusation	-11.7755
▁behav	-11.7819
were	-11.7847
visor	-11.7885
bbed	-11.7913
ether	-11.8008
uav	-11.8155
▁continu	-11.8187
▁hype	-11.8288
▁achiev	-11.8296
oft	-11.8384
hani	-11.8437
loud	-11.8447
arily	-11.8518
amma	-11.8546
idge	-11.8561
▁meditat	-11.8617
choo	-11.8631
verge	-11.8665
ference	-11.8676
ndergar	-11.8756
fortunately	-11.8817
▁invest	-11.8839
rdin	-11.8854
▁divid	-11.8888
hank	-11.8925
▁rosa	-11.9002
bility	-11.9019
▁jewel	-11.9053
▁immun	-11.9065
▁consul	-11.9073
stoy	-11.9075
rock	-11.9093
▁supplie	-11.9093
▁thumb	-11.9093
▁cooperati	-11.9097
▁inmate	-11.9102
▁springbok	-11.9106
▁strap	-11.9121
▁gallo	-11.9136
ization	-11.9151
nclusive	-11.9168
▁interfer	-11.9173
cles	-11.92
cio	-11.9213
▁craw	-11.9219
founded	-11.922
▁brig	-11.9223
with	-11.9233
▁humiliat	-11.9234
▁opera	-11.9244
▁welcom	-11.9245
aaa	-11.9247
▁surround	-11.9249
avo	-11.9268
▁slav	-11.9272
▁recogniz	-11.9274
▁pru	-11.9275
▁injur	-11.9276
▁bloom	-11.928
plies	-11.9282
▁whinny	-11.9285
▁chirp	-11.9286
vich	-11.9294
▁succeed	-11.9298
▁overwhelm	-11.93
▁wail	-11.9301
▁yank	-11.9302
▁serge	-11.9304
▁oppose	-11.9305
▁invade	-11.9305
▁collapse	-11.9306
▁expose	-11.9307
lookin	-11.9308
level	-11.9309
entine	-11.9309
▁notic	-11.9309
▁inhal	-11.931
soaked	-11.9311
▁academ	-11.9311
grade	-11.9311
pipe	-11.9312
solution	-11.9312
published	-11.9312
drum	-11.9312
winning	-11.9312
blown	-11.9312
physical	-11.9312
fortune	-11.9312
built	-11.9313
writer	-11.9313
class	-11.9313
oggin	-11.9313
▁ugl	-11.9313
type	-11.9313
children	-11.9313
dead	-11.9313
people	-11.9313
first	-11.9313
special	-11.9313
loving	-11.9313
spring	-11.9313
space	-11.9313
talk	-11.9314
white	-11.9314
forget	-11.9314
▁strik	-11.9314
satisfied	-11.9315
▁filth	-11.9315
▁quart	-11.9316
pay	-11.9316
crow	-11.9316
past	-11.9316
cause	-11.9317
forces	-11.9317
▁swaddl	-11.9318
bury	-11.932
▁feminis	-11.932
▁practical	-11.932
▁debat	-11.932
▁mcc	-11.932
▁heavi	-11.9321
▁probabl	-11.9321
▁patric	-11.9321
omew	-11.9325
super	-11.9325
fight	-11.9326
▁julian	-11.9326
▁stitch	-11.9327
ologist	-11.9328
▁mahal	-11.9328
tral	-11.9329
narrati	-11.933
▁cleve	-11.933
boil	-11.9331
▁jock	-11.9331
▁blazin	-11.9331
▁mornin	-11.9332
▁anythin	-11.9332
▁anticipat	-11.9332
hello	-11.9332
month	-11.9332
▁cuttin	-11.9332
▁sittin	-11.9333
▁tempo	-11.9333
jakobson	-11.9333
sufficient	-11.9333
uzzle	-11.9334
maid	-11.9334
▁revol	-11.9334
▁inquir	-11.9334
▁differ	-11.9335
▁influen	-11.9335
iger	-11.9335
▁infant	-11.9335
atherine	-11.9335
▁kiddin	-11.9335
ecutive	-11.9335
▁marvel	-11.9335
tensive	-11.9335
▁nomina	-11.9335
annah	-11.9335
ruly	-11.9336
iliation	-11.9336
▁neighbour	-11.9336
▁barrac	-11.9336
▁distr	-11.9336
▁occur	-11.9336
egreg	-11.9336
▁neurosurge	-11.9336
▁prosecut	-11.9336
▁expans	-11.9336
▁insubordinat	-11.9336
anthrop	-11.9336
deceptive	-11.9336
eapfrog	-11.9336
gnosis	-11.9336
myelosuppression	-11.9336
responsibilities	-11.9336
▁acacia	-11.9336
▁accumulate	-11.9336
▁actionadventure	-11.9336
▁aeroplane	-11.9336
▁afghan	-11.9336
▁agitate	-11.9336
▁agnes	-11.9336
▁ahmadinejad	-11.9336
▁allegiance	-11.9336
▁alpaca	-11.9336
▁ammunition	-11.9336
▁amphion	-11.9336
▁antenna	-11.9336
▁anvthing	-11.9336
▁anvwav	-11.9336
▁anyhow	-11.9336
▁aretha	-11.9336
▁aristide	-11.9336
▁arrogance	-11.9336
▁ashtray	-11.9336
▁ashurst	-11.9336
▁aspirin	-11.9336
▁astound	-11.9336
▁athlete	-11.9336
▁atmosphere	-11.9336
▁automatically	-11.9336
▁ayatollah	-11.9336
▁balcony	-11.9336
▁believing	-11.9336
▁biochemistry	-11.9336
▁blackberry	-11.9336
▁brainwashed	-11.9336
▁bricklayer	-11.9336
▁bridetobe	-11.9336
▁brochure	-11.9336
▁brunette	-11.9336
▁bukowski	-11.9336
▁cafeteria	-11.9336
▁calorie	-11.9336
▁camouflage	-11.9336
▁candace	-11.9336
▁carefui	-11.9336
▁cassandra	-11.9336
▁celebrities	-11.9336
▁cemetery	-11.9336
▁centimeter	-11.9336
▁challenging	-11.9336
▁charging	-11.9336
▁cheddar	-11.9336
▁cheoseon	-11.9336
▁chitchat	-11.9336
▁clarify	-11.9336
▁clumsy	-11.9336
▁cocacola	-11.9336
▁coldblooded	-11.9336
▁complement	-11.9336
▁comprehend	-11.9336
▁contempt	-11.9336
▁contender	-11.9336
▁contradiction	-11.9336
▁corridor	-11.9336
▁cosmopolitan	-11.9336
▁counselor	-11.9336
▁credentials	-11.9336
▁cuddl	-11.9336
▁curator	-11.9336
▁curfew	-11.9336
▁database	-11.9336
▁dauntlessborn	-11.9336
▁decoding	-11.9336
▁degenerate	-11.9336
▁degrad	-11.9336
▁delegation	-11.9336
▁delfont	-11.9336
▁delirious	-11.9336
▁description	-11.9336
▁destination	-11.9336
▁devastate	-11.9336
▁devotion	-11.9336
▁diagnosed	-11.9336
▁disapprove	-11.9336
▁discharged	-11.9336
▁disciple	-11.9336
▁disneyland	-11.9336
▁disorder	-11.9336
▁dolphins	-11.9336
▁dowager	-11.9336
▁drautos	-11.9336
▁ecstasy	-11.9336
▁efficient	-11.9336
▁eggleston	-11.9336
▁elephant	-11.9336
▁emptiness	-11.9336
▁enchilada	-11.9336
▁endorsement	-11.9336
▁energirod	-11.9336
▁enterprises	-11.9336
▁envoy	-11.9336
▁eradicat	-11.9336
▁errands	-11.9336
▁estimate	-11.9336
▁evaluat	-11.9336
▁execution	-11.9336
▁fimple	-11.9336
▁fingernails	-11.9336
▁flamethrower	-11.9336
▁fleuret	-11.9336
▁flounder	-11.9336
▁footprint	-11.9336
▁forensic	-11.9336
▁frivolous	-11.9336
▁fyodor	-11.9336
▁genocide	-11.9336
▁ghouls	-11.9336
▁gibson	-11.9336
▁glickman	-11.9336
▁gnarly	-11.9336
▁gradually	-11.9336
▁granny	-11.9336
▁grasp	-11.9336
▁hampton	-11.9336
▁handicrafts	-11.9336
▁handwriting	-11.9336
▁harbour	-11.9336
▁hasbeen	-11.9336
▁hashtag	-11.9336
▁hawkeye	-11.9336
▁haystack	-11.9336
▁hellraiser	-11.9336
▁hemingway	-11.9336
▁hilarious	-11.9336
▁hirohito	-11.9336
▁homicide	-11.9336
▁honolulu	-11.9336
▁huddle	-11.9336
▁humbug	-11.9336
▁hypothe	-11.9336
▁iginol	-11.9336
▁ikeep	-11.9336
▁immeasurable	-11.9336
▁implement	-11.9336
▁imprisonment	-11.9336
▁incapable	-11.9336
▁incarcerat	-11.9336
▁incarnat	-11.9336
▁incoherent	-11.9336
▁incomplete	-11.9336
▁inconvenien	-11.9336
▁indoctrinat	-11.9336
▁infiltrate	-11.9336
▁inflation	-11.9336
▁initiation	-11.9336
▁insanity	-11.9336
▁inspection	-11.9336
▁interstate	-11.9336
▁intolerable	-11.9336
▁intruder	-11.9336
▁investigator	-11.9336
▁irreversible	-11.9336
▁israel	-11.9336
▁jeopardiz	-11.9336
▁jeopardy	-11.9336
▁jupiter	-11.9336
▁kafka	-11.9336
▁korea	-11.9336
▁kyeta	-11.9336
▁landlady	-11.9336
▁landscape	-11.9336
▁larabee	-11.9336
▁lettuce	-11.9336
▁lezignac	-11.9336
▁licorice	-11.9336
▁lmagine	-11.9336
▁luxury	-11.9336
▁mademoiselle	-11.9336
▁mamacita	-11.9336
▁mandelstam	-11.9336
▁marathon	-11.9336
▁marijuana	-11.9336
▁marseille	-11.9336
▁marvellous	-11.9336
▁mccarthy	-11.9336
▁mediocre	-11.9336
▁mercenary	-11.9336
▁merchant	-11.9336
▁microchip	-11.9336
▁midwest	-11.9336
▁miguel	-11.9336
▁miraculous	-11.9336
▁montevideo	-11.9336
▁muskies	-11.9336
▁muslim	-11.9336
▁neglect	-11.9336
▁neighs	-11.9336
▁nevski	-11.9336
▁nifontov	-11.9336
▁nightgown	-11.9336
▁noogie	-11.9336
▁notebook	-11.9336
▁nuhuh	-11.9336
▁nureyev	-11.9336
▁obsessed	-11.9336
▁obstruction	-11.9336
▁occurrence	-11.9336
▁ocula	-11.9336
▁offshore	-11.9336
▁olympi	-11.9336
▁pavilion	-11.9336
▁peripheral	-11.9336
▁persecute	-11.9336
▁pharmaceutical	-11.9336
▁phenomenon	-11.9336
▁phoenix	-11.9336
▁piccadilly	-11.9336
▁picnic	-11.9336
▁platform	-11.9336
▁playground	-11.9336
▁polygraph	-11.9336
▁pontoon	-11.9336
▁practicing	-11.9336
▁precaution	-11.9336
▁prejudice	-11.9336
▁pristine	-11.9336
▁privy	-11.9336
▁prophecie	-11.9336
▁prostitute	-11.9336
▁providing	-11.9336
▁pulitzer	-11.9336
▁qualify	-11.9336
▁radioactivity	-11.9336
▁receptive	-11.9336
▁recycling	-11.9336
▁redemption	-11.9336
▁redundant	-11.9336
▁reincarnation	-11.9336
▁repaired	-11.9336
▁residency	-11.9336
▁revoir	-11.9336
▁ricochet	-11.9336
▁roberino	-11.9336
▁rosseter	-11.9336
▁rostova	-11.9336
▁rumplemayers	-11.9336
▁sabotag	-11.9336
▁sayogoromo	-11.9336
▁schoolteacher	-11.9336
▁scoundrel	-11.9336
▁scurry	-11.9336
▁segregation	-11.9336
▁selfdefense	-11.9336
▁shambuck	-11.9336
▁shpilkes	-11.9336
▁shreveport	-11.9336
▁simpson	-11.9336
▁skeptical	-11.9336
▁smartypants	-11.9336
▁snowflakes	-11.9336
▁sorority	-11.9336
▁sorrier	-11.9336
▁spitfire	-11.9336
▁stephens	-11.9336
▁stockholm	-11.9336
▁stokau	-11.9336
▁struggling	-11.9336
▁stumble	-11.9336
▁subjugate	-11.9336
▁subscription	-11.9336
▁suffocat	-11.9336
▁supercharge	-11.9336
▁suspended	-11.9336
▁syllabus	-11.9336
▁tactics	-11.9336
▁tampons	-11.9336
▁tarconi	-11.9336
▁telegraph	-11.9336
▁teresa	-11.9336
▁theatre	-11.9336
▁thompson	-11.9336
▁tonybear	-11.9336
▁toothpaste	-11.9336
▁tropical	-11.9336
▁turbulence	-11.9336
▁unacceptable	-11.9336
▁unbearabl	-11.9336
▁unemployed	-11.9336
▁ungrateful	-11.9336
▁unofficial	-11.9336
▁unprepared	-11.9336
▁unsafe	-11.9336
▁unsettl	-11.9336
▁unsuccessful	-11.9336
▁verdict	-11.9336
▁vibrant	-11.9336
▁vocabulary	-11.9336
▁volkswagen	-11.9336
▁vulnerable	-11.9336
▁welfare	-11.9336
▁whilst	-11.9336
▁wisdom	-11.9336
▁wrinkle	-11.9336
▁yakuza	-11.9336
▁yearbook	-11.9336
▁yogurt	-11.9336
▁zionists	-11.9336
▁baboon	-11.9336
▁blitz	-11.9336
▁caboose	-11.9336
▁correspond	-11.9336
▁deprive	-11.9336
▁devote	-11.9336
▁diddy	-11.9336
▁fabric	-11.9336
▁geometr	-11.9336
▁hollow	-11.9336
▁napoleon	-11.9336
▁nutrition	-11.9336
▁obstetric	-11.9336
▁preserve	-11.9336
▁pursue	-11.9336
▁saunter	-11.9336
▁selfpro	-11.9336
▁separation	-11.9336
▁textbook	-11.9336
▁anvwhere	-11.9336
▁chauvinist	-11.9336
▁cheque	-11.9336
▁cottage	-11.9336
▁courier	-11.9336
▁crotch	-11.9336
▁decline	-11.9336
▁devour	-11.9336
▁donkey	-11.9336
▁drastic	-11.9336
▁easv	-11.9336
▁fraley	-11.9336
▁gardner	-11.9336
▁jiffy	-11.9336
▁lawrence	-11.9336
▁louisiana	-11.9336
▁madonna	-11.9336
▁marinka	-11.9336
▁pepperoni	-11.9336
▁pichon	-11.9336
▁possum	-11.9336
▁postcard	-11.9336
▁reborn	-11.9336
▁renech	-11.9336
▁restrict	-11.9336
▁scusi	-11.9336
▁solemn	-11.9336
▁spock	-11.9336
▁swish	-11.9336
▁twentynine	-11.9336
▁unjam	-11.9336
▁vanilla	-11.9336
▁voicemail	-11.9336
▁wiggling	-11.9336
▁yeeha	-11.9336
▁beacons	-11.9336
▁boredom	-11.9336
▁cartridges	-11.9336
▁cinema	-11.9336
▁handshake	-11.9336
▁holster	-11.9336
▁hymie	-11.9336
▁knick	-11.9336
▁koran	-11.9336
▁martyr	-11.9336
▁overture	-11.9336
▁phew	-11.9336
▁repent	-11.9336
▁retail	-11.9336
▁sidekick	-11.9336
▁tactical	-11.9336
▁taiwan	-11.9336
▁veteran	-11.9336
▁virile	-11.9336
▁backstabb	-11.9336
▁bingham	-11.9336
▁bookstore	-11.9336
▁bribe	-11.9336
▁cartoons	-11.9336
▁curb	-11.9336
▁fishermen	-11.9336
▁granddad	-11.9336
▁howie	-11.9336
▁joust	-11.9336
▁missouri	-11.9336
▁neela	-11.9336
▁noisv	-11.9336
▁oath	-11.9336
▁perpet	-11.9336
▁prenup	-11.9336
▁reunion	-11.9336
▁shareholders	-11.9336
▁subtle	-11.9336
▁tiara	-11.9336
▁violin	-11.9336
▁wacky	-11.9336
filtration	-11.9336
▁abundan	-11.9336
▁berlin	-11.9336
▁britain	-11.9336
▁chubby	-11.9336
▁demonstrate	-11.9336
▁evangeli	-11.9336
▁kgb	-11.9336
▁lexus	-11.9336
▁nannies	-11.9336
▁nonstop	-11.9336
▁otto	-11.9336
▁reneg	-11.9336
▁scheming	-11.9336
▁warbling	-11.9336
▁weave	-11.9336
▁bastianini	-11.9336
▁canterbury	-11.9336
▁dickinson	-11.9336
▁firstborn	-11.9336
▁itches	-11.9336
▁lavene	-11.9336
▁mumbles	-11.9336
▁ovation	-11.9336
▁queue	-11.9336
▁yield	-11.9336
historian	-11.9336
▁canoe	-11.9336
▁helm	-11.9336
▁systematic	-11.9336
▁bff	-11.9336
▁dacha	-11.9336
▁karl	-11.9336
▁nevertheless	-11.9336
▁purity	-11.9336
▁ransack	-11.9336
▁robust	-11.9336
▁spook	-11.9336
▁golddigg	-11.9336
▁margin	-11.9336
▁ninth	-11.9336
▁thesis	-11.9336
▁blink	-11.9336
▁persist	-11.9336
▁adios	-11.9336
▁chef	-11.9336
▁harmony	-11.9336
▁jasmine	-11.9336
▁oui	-11.9336
▁deuce	-11.9336
▁groomsmen	-11.9336
▁immortal	-11.9336
▁metaphorical	-11.9336
▁angri	-11.9336
▁endanger	-11.9336
▁nerine	-11.9336
▁parasite	-11.9336
▁console	-11.9336
▁floorboards	-11.9336
▁forklift	-11.9336
▁pliers	-11.9336
▁speculat	-11.9336
▁chopstick	-11.9336
▁whirs	-11.9336
▁whooshing	-11.9336
aggard	-11.9336
▁crawfish	-11.9336
▁freshener	-11.9336
▁huffs	-11.9336
▁exiled	-11.9336
▁scalp	-11.9336
▁sizzle	-11.9336
▁weiss	-11.9336
▁colle	-11.9336
▁grain	-11.9336
▁editing	-11.9336
▁temperament	-11.9336
▁viral	-11.9336
▁llfe	-11.9336
▁neighbourhood	-11.9336
▁ryan	-11.9336
efying	-11.9336
▁adultery	-11.9336
▁overheat	-11.9336
▁anthats	-11.9336
▁macaro	-11.9336
▁countrv	-11.9336
▁dnr	-11.9336
▁impair	-11.9336
▁psychologist	-11.9336
▁restart	-11.9336
▁skewe	-11.9336
▁specs	-11.9336
▁flops	-11.9336
▁lesbo	-11.9336
opher	-11.9336
▁downstream	-11.9336
▁cpa	-11.9336
culating	-11.9336
▁grinding	-11.9336
▁dorm	-11.9336
▁chunks	-11.9336
▁reproduction	-11.9336
▁promising	-11.9336
▁rusty	-11.9336
▁uranium	-11.9336
amese	-11.9336
▁diversion	-11.9336
▁floss	-11.9336
▁narcissists	-11.9336
▁greasy	-11.9336
▁tract	-11.9336
▁commenc	-11.9337
▁erections	-11.9337
▁coconuts	-11.9337
▁slumber	-11.9337
▁strangl	-11.9337
▁caffein	-11.9337
▁devise	-11.9337
▁tyre	-11.9337
▁itit	-11.9337
▁thugs	-11.9337
▁infer	-11.9337
▁transferred	-11.9337
▁reeses	-11.9337
came	-11.9337
▁amput	-11.9337
▁fosse	-11.9337
▁assessment	-11.9337
▁mitchell	-11.9337
▁todd	-11.9337
▁bliss	-11.9337
▁notification	-11.9337
medic	-11.9337
witz	-11.9337
▁panels	-11.9337
▁persistence	-11.9337
▁sneer	-11.9337
▁thatthat	-11.9337
▁colli	-11.9337
▁documentaries	-11.9337
neoplas	-11.9337
▁bombay	-11.9337
▁fidel	-11.9337
▁rubles	-11.9337
▁formalities	-11.9337
▁remake	-11.9337
▁africanamerican	-11.9337
▁manlio	-11.9337
▁vear	-11.9337
▁ode	-11.9337
simplify	-11.9337
▁curt	-11.9337
▁percepti	-11.9337
▁sphere	-11.9337
sibility	-11.9337
▁margari	-11.9337
▁rehab	-11.9337
▁swordfish	-11.9337
▁psychiatrist	-11.9337
▁psychology	-11.9337
▁dictators	-11.9337
▁fireworks	-11.9337
▁disinfectant	-11.9337
▁ketchu	-11.9337
knots	-11.9337
▁debri	-11.9337
▁bloated	-11.9337
▁fiji	-11.9337
▁lasky	-11.9337
▁intuition	-11.9337
▁punctuation	-11.9337
▁ashford	-11.9337
▁integration	-11.9337
mccart	-11.9337
▁jogging	-11.9337
▁upgrade	-11.9337
▁burp	-11.9337
▁mavbe	-11.9337
▁spanking	-11.9337
▁affirmati	-11.9337
▁neville	-11.9337
synthe	-11.9337
▁loneliness	-11.9337
▁uncompromising	-11.9337
▁jockey	-11.9337
▁regina	-11.9337
▁underdog	-11.9337
climate	-11.9337
▁popsicle	-11.9337
▁kinky	-11.9337
▁silverware	-11.9337
▁perks	-11.9337
▁daddies	-11.9337
▁scientifically	-11.9337
commod	-11.9337
▁slamming	-11.9337
remlin	-11.9337
▁extensive	-11.9337
▁friggin	-11.9338
▁murph	-11.9338
▁aching	-11.9338
▁download	-11.9338
▁panzer	-11.9338
▁lemonade	-11.9338
▁squatt	-11.9338
▁resent	-11.9338
▁dork	-11.9338
▁henni	-11.9338
▁fender	-11.9338
▁onward	-11.9338
▁flinch	-11.9338
▁looney	-11.9338
▁output	-11.9338
▁plaque	-11.9338
▁clung	-11.9338
▁congressman	-11.9338
▁thorn	-11.9338
▁inviting	-11.9338
▁straw	-11.9338
▁viewpoint	-11.9338
▁banjo	-11.9338
▁kiwi	-11.9338
▁communism	-11.9338
▁shoplift	-11.9338
▁quarr	-11.9338
▁nominated	-11.9338
▁noggin	-11.9338
▁trespasses	-11.9338
▁claret	-11.9338
▁compass	-11.9338
▁milton	-11.9338
▁stamp	-11.9338
▁girder	-11.9338
▁scoreboard	-11.9338
▁cherish	-11.9339
▁mitch	-11.9339
jangle	-11.9339
▁pirate	-11.9339
▁woodward	-11.9339
▁raindrop	-11.9339
▁controller	-11.9339
▁calculation	-11.9339
▁tracy	-11.9339
▁scarves	-11.9339
▁offence	-11.9339
▁software	-11.9339
▁worthwhile	-11.9339
▁springfield	-11.9339
▁luther	-11.9339
▁proclaim	-11.9339
▁yacht	-11.9339
aggot	-11.9339
▁peterjakobson	-11.9339
▁genero	-11.9339
▁gringo	-11.9339
▁footlong	-11.9339
▁brute	-11.9339
▁grisham	-11.9339
▁keyboard	-11.9339
▁tristen	-11.934
▁liberation	-11.934
▁programming	-11.934
▁fundamentalist	-11.934
▁animat	-11.934
▁stung	-11.934
▁meltdown	-11.934
▁macho	-11.934
▁maddie	-11.934
▁backwards	-11.934
▁vested	-11.934
▁heinous	-11.934
▁documentation	-11.934
▁limp	-11.9341
▁uber	-11.9341
▁radius	-11.9341
ghett	-11.9341
▁clarus	-11.9341
▁consist	-11.9341
▁luche	-11.9341
▁railway	-11.9341
▁pause	-11.9341
▁tobe	-11.9341
▁taboo	-11.9341
▁habitat	-11.9341
▁cyber	-11.9341
▁porch	-11.9341
▁peking	-11.9341
▁slob	-11.9341
▁armani	-11.9341
▁compassionate	-11.9341
▁danko	-11.9341
▁prank	-11.9341
▁looting	-11.9341
▁glee	-11.9341
▁perver	-11.9341
▁captive	-11.9342
▁freelanc	-11.9342
▁revision	-11.9342
yllis	-11.9342
▁denny	-11.9342
▁gangster	-11.9342
▁boobies	-11.9342
▁peop	-11.9342
▁stroll	-11.9342
▁molecules	-11.9342
▁busboy	-11.9342
▁remark	-11.9342
▁tothe	-11.9342
▁thirtyfive	-11.9342
▁chaste	-11.9342
▁overboard	-11.9342
▁socialists	-11.9342
▁sandra	-11.9342
▁attic	-11.9343
▁hungover	-11.9343
▁spiel	-11.9343
▁labour	-11.9343
terran	-11.9343
▁scroll	-11.9343
▁whim	-11.9343
again	-11.9343
▁gyrat	-11.9343
▁nsa	-11.9343
▁scripture	-11.9343
▁shortcut	-11.9343
▁loco	-11.9343
▁factories	-11.9343
▁stripper	-11.9343
▁poisonous	-11.9343
▁shack	-11.9344
▁understa	-11.9344
▁adrop	-11.9344
▁quota	-11.9344
▁anshe	-11.9344
▁alcoholism	-11.9344
▁jabu	-11.9344
▁xmen	-11.9344
▁flick	-11.9344
▁segu	-11.9344
▁ajob	-11.9344
seldo	-11.9344
▁saddle	-11.9345
▁hamid	-11.9345
▁braid	-11.9345
▁snot	-11.9345
▁layette	-11.9345
▁stripped	-11.9345
▁transformers	-11.9345
▁dutch	-11.9345
▁cruelty	-11.9345
▁ravus	-11.9345
▁regretted	-11.9346
▁marshall	-11.9346
▁collaboration	-11.9346
▁revel	-11.9346
▁smother	-11.9346
▁ratings	-11.9346
▁saba	-11.9346
▁flier	-11.9347
tribute	-11.9347
zill	-11.9347
▁wrapping	-11.9347
▁cancelled	-11.9347
▁acid	-11.9347
▁kold	-11.9347
▁seize	-11.9347
▁joan	-11.9348
▁invention	-11.9348
▁sara	-11.9348
▁coug	-11.9348
▁malar	-11.9348
▁deport	-11.9348
▁straightaway	-11.9348
▁jule	-11.9348
▁recite	-11.9348
▁outlet	-11.9348
▁sisterhood	-11.9348
▁mick	-11.9349
▁spitter	-11.9349
▁lyin	-11.9349
▁buckle	-11.9349
▁silas	-11.9349
▁subway	-11.9349
▁courthouse	-11.9349
▁spur	-11.9349
▁font	-11.9349
▁barbie	-11.9349
▁courtney	-11.935
zero	-11.935
▁extract	-11.935
▁seattle	-11.935
▁wring	-11.935
chat	-11.935
▁carlos	-11.9351
▁vibrati	-11.9351
▁galli	-11.9351
stick	-11.9351
▁filmmaker	-11.9351
nbeck	-11.9351
▁lockdown	-11.9351
bbers	-11.9351
▁reaii	-11.9352
▁samir	-11.9352
▁nursery	-11.9352
▁andid	-11.9352
▁ieds	-11.9352
▁intro	-11.9352
▁dora	-11.9352
▁harmless	-11.9352
predictabl	-11.9352
▁hairpin	-11.9352
▁admiralty	-11.9353
▁bowel	-11.9353
▁jamie	-11.9353
▁bash	-11.9353
▁payday	-11.9353
▁hula	-11.9353
▁rockaway	-11.9353
▁maryland	-11.9354
▁wireless	-11.9355
▁willingness	-11.9355
▁rhythmic	-11.9356
▁developers	-11.9356
arina	-11.9356
▁overhead	-11.9357
▁accessori	-11.9357
▁sinner	-11.9357
▁sundown	-11.9357
▁weaponry	-11.9357
▁nina	-11.9357
▁mello	-11.9357
icero	-11.9358
▁regression	-11.9358
▁copier	-11.9359
▁disappointment	-11.9359
▁sunny	-11.9361
lorett	-11.9361
▁leaf	-11.9361
▁admitted	-11.9362
▁cherri	-11.9362
ounge	-11.9364
media	-11.9364
▁damp	-11.9364
genic	-11.9365
▁baha	-11.9365
▁defector	-11.9366
▁fork	-11.9368
▁fda	-11.9369
▁imitate	-11.9369
▁rango	-11.937
▁batch	-11.9372
▁mega	-11.9372
eckoning	-11.9374
refined	-11.9374
▁kris	-11.9375
▁corsa	-11.9375
oodle	-11.9381
▁wheat	-11.9381
imaginative	-11.9381
feld	-11.9383
▁bung	-11.9385
quisit	-11.9388
▁requirement	-11.9388
▁puke	-11.9388
▁clemen	-11.9388
rilla	-11.9389
▁iraqi	-11.939
fisch	-11.9397
ribbon	-11.9398
▁brutaliz	-11.9411
annon	-11.9416
▁rib	-11.9418
▁repl	-11.9421
▁interce	-11.9423
heryl	-11.9425
antali	-11.9427
inister	-11.9428
udent	-11.9434
ctable	-11.9437
▁moat	-11.9437
▁excel	-11.9443
havin	-11.9454
eferral	-11.9459
mboree	-11.9485
▁invi	-11.949
napolis	-11.9497
rita	-11.9515
▁nibbl	-11.9523
▁advocat	-11.9528
▁clippe	-11.9539
▁aust	-11.9551
maniac	-11.9554
scribe	-11.9559
▁glute	-11.9564
▁gregor	-11.9608
▁vocaliz	-11.9633
▁undermin	-11.9667
ovich	-11.968
▁geek	-11.9683
▁dosto	-11.9691
▁nipp	-11.9712
rvin	-11.9713
▁oohooh	-11.9717
ofthe	-11.9723
▁mash	-11.9746
▁prioriti	-11.9764
▁flemi	-11.9811
crap	-11.9835
claud	-11.9836
▁hawk	-11.9858
▁unfi	-11.9883
▁crab	-11.9893
lamin	-11.9898
▁clamp	-11.9899
▁marinat	-11.9929
ipping	-11.9946
rapping	-11.9963
grunt	-12.0003
▁slipp	-12.0016
▁audio	-12.0035
▁dung	-12.0069
▁sambo	-12.0076
▁suz	-12.0092
meditate	-12.0117
▁magn	-12.0123
▁scro	-12.0149
hire	-12.0193
ubert	-12.0208
▁philosophi	-12.0222
▁selfdestruct	-12.0247
▁neon	-12.0275
▁abusi	-12.0284
robbing	-12.0322
▁considerabl	-12.0334
lapsed	-12.0344
▁skim	-12.0359
mela	-12.0442
▁tombs	-12.0494
▁thundercl	-12.0499
mort	-12.0611
fricking	-12.0743
match	-12.0781
▁slate	-12.0932
kids	-12.1131
▁meaningless	-12.1154
humping	-12.1158
▁accus	-12.1169
▁sabe	-12.1234
put	-12.1241
anche	-12.126
cuba	-12.1286
bodv	-12.1324
▁bounc	-12.1325
omen	-12.142
zan	-12.1504
taneously	-12.1703
▁proto	-12.1753
rose	-12.1796
blis	-12.1915
rotting	-12.1943
▁kimb	-12.1952
▁nobod	-12.1953
▁bikin	-12.1962
▁advis	-12.1983
▁polk	-12.2004
▁sniffl	-12.2216
tipping	-12.2277
▁lectur	-12.2375
bby	-12.2548
▁serv	-12.2581
plugged	-12.2623
▁tumblin	-12.2678
▁presum	-12.2689
▁resid	-12.2718
perfection	-12.2768
competent	-12.2838
▁immobilize	-12.2946
destructive	-12.3004
▁kha	-12.3084
▁experienc	-12.3094
occupied	-12.3234
harmed	-12.3322
equipp	-12.3495
verse	-12.3506
duced	-12.3535
announced	-12.3612
▁carbs	-12.3613
audi	-12.3631
guided	-12.364
sheets	-12.3643
nfire	-12.3646
hoohoo	-12.374
▁troubl	-12.3857
vermin	-12.3901
tailed	-12.3946
▁imperfect	-12.4021
▁shatter	-12.4047
▁construct	-12.4049
▁eunuch	-12.4091
▁fingerprint	-12.4091
▁habsburg	-12.4091
▁spectacle	-12.4091
▁headquarter	-12.4095
▁regulation	-12.4096
▁lyric	-12.4106
▁vampire	-12.4106
▁coordinate	-12.4108
▁tribu	-12.4111
▁assembl	-12.4178
minded	-12.4208
▁sacrific	-12.421
▁brutal	-12.4215
▁desir	-12.4224
minated	-12.4226
pelled	-12.4244
▁trembl	-12.4282
▁convinc	-12.4285
profitable	-12.4292
▁transmitt	-12.4292
▁tyra	-12.4292
▁select	-12.4294
▁styl	-12.4299
▁condemn	-12.43
▁distort	-12.4301
▁slee	-12.4305
formal	-12.4305
▁relieve	-12.4306
▁definit	-12.4306
▁isolate	-12.4307
▁execute	-12.4307
▁bogu	-12.4308
▁relate	-12.4308
lord	-12.4309
search	-12.4309
programmed	-12.431
present	-12.4311
conquer	-12.4311
identified	-12.4311
significant	-12.4311
balance	-12.4311
code	-12.4311
▁custod	-12.4311
bishop	-12.4311
▁gloom	-12.4311
▁hallowe	-12.4311
stream	-12.4311
sync	-12.4311
indulge	-12.4312
jumped	-12.4312
perimeter	-12.4312
pepper	-12.4312
effect	-12.4312
kansas	-12.4312
proof	-12.4312
anniversary	-12.4312
dollar	-12.4312
jones	-12.4312
spoken	-12.4312
odor	-12.4313
colored	-12.4313
material	-12.4313
hound	-12.4313
driver	-12.4313
positive	-12.4313
professional	-12.4313
strip	-12.4313
glasses	-12.4313
principal	-12.4313
christian	-12.4313
juice	-12.4313
abigail	-12.4313
girlfriend	-12.4313
ordered	-12.4313
practice	-12.4313
finished	-12.4313
brother	-12.4313
hundred	-12.4313
easy	-12.4313
secret	-12.4313
third	-12.4313
country	-12.4313
death	-12.4313
grand	-12.4313
together	-12.4313
around	-12.4313
something	-12.4313
horse	-12.4313
picked	-12.4313
evelyn	-12.4313
food	-12.4314
nothing	-12.4314
believe	-12.4314
duty	-12.4315
dark	-12.4315
dust	-12.4316
direct	-12.4316
▁absolut	-12.4316
decent	-12.4317
▁participat	-12.4318
▁inevitabl	-12.4318
▁jessi	-12.4318
parents	-12.4319
breaker	-12.4321
▁rabbi	-12.4321
▁dignit	-12.4323
▁tomato	-12.4327
▁obligat	-12.4327
itude	-12.4327
▁journ	-12.4327
▁neutr	-12.4327
▁incompeten	-12.4328
▁contribut	-12.4329
▁molecul	-12.4331
▁grisha	-12.4331
▁mutat	-12.4331
▁spittin	-12.4331
▁economi	-12.4331
▁givin	-12.4332
▁negotia	-12.4333
▁congress	-12.4333
▁curio	-12.4333
▁dyin	-12.4334
ranquil	-12.4334
rupt	-12.4334
agra	-12.4334
▁alternat	-12.4334
▁loneli	-12.4335
▁priva	-12.4335
▁disinfect	-12.4335
stopp	-12.4335
gnant	-12.4335
▁ameri	-12.4335
▁erecti	-12.4335
▁slum	-12.4335
▁narciss	-12.4336
▁reproduc	-12.4336
controll	-12.4336
rrific	-12.4336
iliate	-12.4336
▁smug	-12.4336
hwhee	-12.4336
culate	-12.4336
▁dishwash	-12.4336
▁hercul	-12.4336
▁aggravat	-12.4336
▁alexandrovi	-12.4336
▁astonish	-12.4336
