<unk>	0
<s>	0
</s>	0
s	-3.784
▁im	-4.3373
▁dont	-4.42766
▁know	-4.45052
▁get	-4.6397
▁yeah	-4.65501
▁right	-4.73906
▁like	-4.80352
▁go	-4.80687
▁got	-4.81617
▁oh	-4.85997
▁youre	-4.88852
▁come	-4.89715
▁okay	-4.99922
▁na	-5.05332
▁thats	-5.09101
▁well	-5.16945
▁want	-5.22447
▁think	-5.2858
▁one	-5.29226
▁gon	-5.3094
▁hey	-5.3401
ing	-5.36367
▁good	-5.37545
▁man	-5.38686
▁see	-5.41145
▁going	-5.5137
▁look	-5.53091
▁fuck	-5.56928
▁back	-5.58663
ed	-5.6047
▁take	-5.63728
▁shit	-5.65442
▁hes	-5.67442
▁ill	-5.71064
▁l	-5.71826
▁fucking	-5.72353
▁time	-5.73512
▁really	-5.76377
▁yes	-5.77999
▁us	-5.79124
▁cant	-5.79307
▁say	-5.80501
▁tell	-5.84285
▁whats	-5.85354
▁something	-5.88426
▁need	-5.91828
▁didnt	-5.92693
▁sorry	-5.92945
▁please	-5.93285
▁would	-5.95367
▁mean	-5.95634
▁god	-5.96098
▁lets	-5.96114
d	-5.96718
y	-6.04203
▁way	-6.04206
▁make	-6.0513
▁love	-6.05546
▁thank	-6.06972
▁could	-6.08125
▁let	-6.08356
▁little	-6.08465
▁give	-6.13693
▁people	-6.16752
▁theres	-6.16833
▁	-6.17231
▁never	-6.20557
▁two	-6.21338
▁thing	-6.23677
▁said	-6.2614
▁ive	-6.26986
▁sure	-6.29219
▁call	-6.30034
▁uh	-6.31553
▁guys	-6.33994
▁much	-6.35209
▁shes	-6.35757
▁wait	-6.39046
▁help	-6.39129
▁put	-6.39651
▁talk	-6.39953
▁maybe	-6.42112
▁hi	-6.42587
▁theyre	-6.43636
▁guy	-6.43992
▁stop	-6.46715
▁anything	-6.49676
▁great	-6.49792
e	-6.50872
▁even	-6.51077
▁hell	-6.52482
▁home	-6.52729
▁day	-6.52849
▁night	-6.53177
▁hello	-6.53371
▁first	-6.54226
er	-6.55954
▁still	-6.56413
▁nice	-6.56544
▁find	-6.56758
▁keep	-6.5678
▁work	-6.57397
ly	-6.57427
▁name	-6.58937
▁ta	-6.59531
▁car	-6.59988
▁thought	-6.61733
▁life	-6.62803
▁wan	-6.63039
▁nothing	-6.63831
▁around	-6.65898
▁new	-6.68917
▁better	-6.69091
▁sir	-6.69554
▁big	-6.6994
▁money	-6.70173
▁away	-6.70908
▁feel	-6.72798
▁ever	-6.74225
▁told	-6.7598
▁lot	-6.76273
▁hold	-6.77495
▁hear	-6.77516
▁everything	-6.77731
▁last	-6.78552
▁talking	-6.78606
▁baby	-6.78915
▁believe	-6.79256
a	-6.8067
▁stay	-6.80703
▁kind	-6.81496
▁listen	-6.81932
▁girl	-6.82047
▁coming	-6.82162
▁house	-6.82566
▁real	-6.83024
in	-6.83129
▁three	-6.83178
▁move	-6.83432
▁kill	-6.83833
▁things	-6.85248
▁thanks	-6.86392
▁long	-6.86418
▁place	-6.86419
▁bad	-6.8702
▁huh	-6.87629
▁leave	-6.88448
▁phone	-6.88477
▁fine	-6.88904
▁always	-6.90038
▁doesnt	-6.90706
▁mr	-6.91034
▁years	-6.91762
▁youve	-6.91831
▁wont	-6.92738
▁id	-6.92934
▁remember	-6.92966
▁boy	-6.93058
▁woman	-6.93425
▁door	-6.95769
▁understand	-6.97178
▁every	-6.97449
▁happened	-6.97813
▁getting	-6.98755
▁old	-7.00922
▁wanted	-7.01984
▁made	-7.02342
▁wrong	-7.03566
▁ok	-7.04326
▁ass	-7.05257
n	-7.05781
▁bitch	-7.06346
▁care	-7.07723
▁try	-7.08763
▁else	-7.09322
▁must	-7.09566
▁youll	-7.09589
▁room	-7.09863
▁show	-7.10504
▁aint	-7.11496
▁um	-7.11553
▁open	-7.12457
t	-7.12881
▁done	-7.13168
▁friend	-7.1395
r	-7.13974
▁dad	-7.14536
▁trying	-7.14776
▁tonight	-7.15138
▁might	-7.15423
▁son	-7.15648
▁meet	-7.16113
▁someone	-7.16204
▁ask	-7.16328
▁dude	-7.1685
▁pretty	-7.17155
▁lm	-7.17613
▁shut	-7.17706
▁mom	-7.18257
▁dead	-7.18321
▁world	-7.18948
▁saying	-7.18965
▁excuse	-7.19214
▁guess	-7.19214
▁isnt	-7.19214
▁looking	-7.1925
▁enough	-7.20111
▁whole	-7.21016
▁jesus	-7.21316
▁another	-7.2162
▁play	-7.21736
▁cause	-7.22282
▁watch	-7.22444
▁mind	-7.22935
▁actually	-7.23469
▁left	-7.23844
▁damn	-7.24975
es	-7.2523
o	-7.25665
▁today	-7.25977
▁black	-7.26293
▁next	-7.26613
▁wasnt	-7.27255
▁kids	-7.27549
▁head	-7.28374
▁music	-7.28917
▁course	-7.29209
▁seen	-7.29769
▁saw	-7.2987
▁hard	-7.30599
▁ready	-7.30678
al	-7.31023
▁heard	-7.33327
▁best	-7.33554
▁came	-7.33567
▁check	-7.33717
▁job	-7.33916
▁run	-7.34221
▁mother	-7.35617
▁die	-7.35701
▁crazy	-7.36
▁together	-7.36002
▁start	-7.36632
▁fuckin	-7.37285
▁second	-7.38142
▁hit	-7.38417
▁honey	-7.38855
▁stuff	-7.39219
▁wouldnt	-7.39272
▁bit	-7.40269
▁kid	-7.4036
▁may	-7.40507
▁police	-7.40652
▁la	-7.40702
▁whos	-7.40753
▁turn	-7.41284
▁face	-7.41593
▁everybody	-7.41908
▁ha	-7.42856
▁men	-7.429
▁found	-7.42913
▁father	-7.43056
▁weve	-7.43668
▁went	-7.44051
▁morning	-7.44439
▁minute	-7.44957
▁five	-7.45227
▁matter	-7.4543
▁cool	-7.45591
▁school	-7.45981
▁end	-7.46169
▁many	-7.46274
▁live	-7.46796
▁hot	-7.46802
▁friends	-7.47017
▁probably	-7.47144
c	-7.4724
▁four	-7.47538
▁bring	-7.48176
▁jake	-7.4833
▁hand	-7.4852
▁used	-7.48936
▁somebody	-7.49004
▁happy	-7.49131
▁wife	-7.50282
▁alone	-7.50341
▁called	-7.51553
▁young	-7.51833
▁hope	-7.51875
▁knew	-7.51973
p	-7.52231
▁drink	-7.52279
▁white	-7.52387
▁sit	-7.5253
▁anyway	-7.52788
▁family	-7.52802
▁problem	-7.53159
▁brother	-7.54433
▁easy	-7.54902
▁goddamn	-7.54903
▁frank	-7.56012
▁minutes	-7.5603
▁cut	-7.56144
▁havent	-7.56185
▁days	-7.56209
▁pay	-7.5661
▁yet	-7.56621
▁point	-7.567
▁playing	-7.57268
▁ah	-7.57273
▁whatever	-7.57483
▁wow	-7.57487
▁use	-7.5771
▁hurt	-7.57941
▁supposed	-7.57967
▁killed	-7.58243
▁close	-7.58576
▁says	-7.58597
▁line	-7.59012
▁took	-7.59686
▁person	-7.60069
▁eat	-7.60117
▁later	-7.60219
▁fire	-7.60321
h	-7.60695
▁wheres	-7.61047
▁youd	-7.61056
▁business	-7.61484
▁ago	-7.61486
▁sex	-7.61714
▁beautiful	-7.61939
▁gun	-7.62067
▁miss	-7.6216
▁forget	-7.62383
▁already	-7.62395
▁tomorrow	-7.62395
▁water	-7.62414
▁deal	-7.62696
▁number	-7.63013
▁em	-7.63363
g	-7.6377
▁everyone	-7.64237
▁idea	-7.64913
▁looks	-7.65263
▁couldnt	-7.65717
▁nobody	-7.65882
i	-7.66026
▁high	-7.66756
▁gone	-7.67008
▁without	-7.6708
▁sonny	-7.68542
▁though	-7.6942
▁anybody	-7.69507
▁hands	-7.69723
▁true	-7.70002
▁inside	-7.70498
▁screaming	-7.70574
▁c	-7.70934
▁children	-7.70996
▁part	-7.71034
▁un	-7.71696
▁dick	-7.72251
▁movie	-7.72367
▁safe	-7.7277
or	-7.72775
▁wants	-7.72928
▁worry	-7.73518
▁taking	-7.73542
▁bye	-7.73595
▁happen	-7.7446
▁whoa	-7.75098
ic	-7.75186
▁read	-7.75419
▁shoot	-7.75659
▁yo	-7.7582
▁set	-7.76211
▁working	-7.76562
▁word	-7.76581
▁fun	-7.77085
▁walk	-7.77124
▁power	-7.77142
▁far	-7.77276
▁shot	-7.77697
▁christ	-7.77711
▁paul	-7.7862
▁late	-7.78654
▁six	-7.78738
▁outside	-7.78769
▁story	-7.79311
▁making	-7.80405
▁laughing	-7.80566
▁met	-7.8083
▁eyes	-7.80949
▁mine	-7.81209
▁pick	-7.81212
▁drive	-7.81888
▁anyone	-7.82056
▁fight	-7.8215
▁sam	-7.82198
▁since	-7.82617
▁daddy	-7.82753
▁lost	-7.83199
▁anymore	-7.83741
▁jack	-7.83877
f	-7.83945
▁girls	-7.84028
▁sleep	-7.8417
▁stand	-7.84609
▁asshole	-7.8503
▁hang	-7.85578
m	-7.85781
b	-7.86384
▁half	-7.86419
▁city	-7.86641
l	-7.86745
▁sometimes	-7.86934
▁soon	-7.87064
▁john	-7.87182
▁year	-7.87389
▁thinking	-7.874
▁couple	-7.87788
▁telling	-7.88345
▁town	-7.88398
▁game	-7.88604
▁party	-7.88659
▁different	-7.88975
▁welcome	-7.88975
▁exactly	-7.88989
▁wish	-7.89579
▁death	-7.90177
▁funny	-7.90185
▁alive	-7.90792
▁started	-7.9141
▁free	-7.92014
▁hate	-7.92197
▁boys	-7.92259
▁body	-7.92628
▁husband	-7.92633
▁break	-7.92836
▁question	-7.92947
ers	-7.93117
▁mitch	-7.93241
▁motherfucker	-7.93595
▁also	-7.9387
▁women	-7.9387
▁gave	-7.93872
▁york	-7.93872
▁case	-7.94266
▁rest	-7.9455
▁times	-7.94686
▁trust	-7.9476
▁heart	-7.95168
▁sweet	-7.95738
▁child	-7.95765
▁arent	-7.9577
st	-7.95836
▁side	-7.95854
▁hours	-7.96089
▁kidding	-7.96411
▁charlie	-7.96845
▁goes	-7.9689
▁special	-7.97041
▁hows	-7.97055
▁scared	-7.97144
u	-7.97439
▁week	-7.98145
▁street	-7.98158
▁bed	-7.98735
▁blood	-7.98779
▁aah	-7.99028
▁makes	-7.99193
▁dog	-8.0014
▁almost	-8.00344
▁front	-8.00349
▁lts	-8.00368
on	-8.00475
▁sighs	-8.00489
▁married	-8.02376
▁clear	-8.0323
▁important	-8.03605
▁sick	-8.03729
▁truth	-8.03745
▁ahead	-8.0375
▁change	-8.04122
▁k	-8.04187
▁bobby	-8.04443
▁tried	-8.04508
est	-8.04989
▁red	-8.05042
▁straight	-8.05117
▁food	-8.05139
▁ho	-8.05622
▁touch	-8.05626
▁sound	-8.05793
▁sounds	-8.06607
▁fucked	-8.06626
▁laughs	-8.06871
▁answer	-8.06878
▁re	-8.07029
▁serious	-8.0713
ion	-8.07154
▁weird	-8.07191
▁dinner	-8.07267
ve	-8.07313
▁bet	-8.07418
le	-8.08085
v	-8.08188
▁dr	-8.08366
▁wake	-8.0872
▁mike	-8.09205
▁bro	-8.09397
▁afraid	-8.09441
▁trouble	-8.09441
▁dave	-8.09462
▁speak	-8.09577
▁months	-8.09582
▁sal	-8.09975
▁bullshit	-8.10161
▁air	-8.10188
▁voice	-8.10237
▁asked	-8.11109
▁order	-8.12153
▁stupid	-8.12415
▁cold	-8.12455
▁b	-8.12485
▁full	-8.12607
▁behind	-8.13174
▁chance	-8.13178
▁chuckles	-8.13423
▁feeling	-8.13606
▁th	-8.13678
▁dance	-8.1374
us	-8.13882
▁country	-8.13942
▁sister	-8.14077
▁pull	-8.14651
▁war	-8.14669
ie	-8.14685
▁daniel	-8.14705
▁hmm	-8.14715
▁tv	-8.14735
▁heres	-8.14859
▁radio	-8.15481
▁hair	-8.16276
▁ooh	-8.1628
▁continues	-8.16383
▁grunts	-8.16411
▁news	-8.17011
▁s	-8.1707
▁perfect	-8.17815
▁buddy	-8.17844
▁reason	-8.18046
▁ya	-8.18152
▁top	-8.18653
▁taken	-8.18927
▁buy	-8.19001
▁e	-8.19062
▁mrs	-8.19112
▁happening	-8.1936
▁parents	-8.19767
▁happens	-8.19918
▁dream	-8.2009
▁clean	-8.20099
an	-8.20181
▁either	-8.20262
▁cop	-8.20288
▁hurry	-8.21082
▁brought	-8.21082
ch	-8.21107
▁lady	-8.21133
▁ten	-8.21344
▁officer	-8.21454
▁meeting	-8.21579
▁light	-8.21604
k	-8.21846
▁shouldnt	-8.21908
▁moment	-8.21953
▁send	-8.22289
▁save	-8.22495
▁glad	-8.22743
▁mouth	-8.23107
▁moving	-8.23592
▁grunting	-8.23616
▁lie	-8.24109
▁annie	-8.24435
▁promise	-8.24566
▁piece	-8.24839
▁song	-8.24967
▁coffee	-8.25284
▁drop	-8.25296
▁plan	-8.2577
▁running	-8.26155
▁waiting	-8.26534
▁hour	-8.26608
▁f	-8.26812
▁in	-8.26861
▁gay	-8.27044
▁means	-8.2718
▁fact	-8.27851
▁watching	-8.28338
▁lives	-8.28351
▁itll	-8.2878
▁follow	-8.28832
▁st	-8.29444
▁ladies	-8.29675
up	-8.29922
▁de	-8.30083
▁lose	-8.30522
▁relax	-8.30572
▁catch	-8.30588
▁book	-8.30785
▁ringing	-8.30823
▁beat	-8.3101
▁step	-8.31119
▁fat	-8.31225
▁peter	-8.31425
▁theyll	-8.31481
z	-8.31937
▁daughter	-8.32062
▁uncle	-8.32384
▁sort	-8.32399
▁wind	-8.32597
▁team	-8.33024
▁picture	-8.33066
▁lan	-8.33323
▁floor	-8.33324
▁along	-8.33326
▁human	-8.33333
▁million	-8.33336
▁totally	-8.33378
▁ride	-8.33622
▁ice	-8.34119
able	-8.34144
▁lord	-8.34261
▁control	-8.34262
▁shh	-8.34282
▁screams	-8.34968
▁mmm	-8.35236
el	-8.35571
man	-8.35622
▁doctor	-8.35893
▁calling	-8.35919
▁wall	-8.35999
▁stu	-8.3604
▁bar	-8.36129
▁seven	-8.36139
▁george	-8.36155
▁calm	-8.3616
▁lucky	-8.36372
▁sign	-8.36427
▁g	-8.36499
▁class	-8.36956
ies	-8.37059
▁sense	-8.37116
▁weeks	-8.38396
ation	-8.38497
▁joe	-8.38616
▁pain	-8.38935
▁least	-8.39085
it	-8.39859
▁office	-8.39975
▁road	-8.40068
▁sent	-8.40081
ll	-8.40175
▁seem	-8.40241
▁seems	-8.4026
▁ron	-8.40322
▁dark	-8.41049
ment	-8.41472
re	-8.41793
▁alright	-8.42068
▁mommy	-8.42068
ance	-8.42159
▁crying	-8.42273
▁quiet	-8.4295
▁smart	-8.43098
▁paid	-8.43112
▁learn	-8.43751
▁luck	-8.43973
▁somewhere	-8.44119
▁favorite	-8.44121
▁yall	-8.4415
▁ray	-8.44187
▁groans	-8.44224
▁blow	-8.44511
▁america	-8.4473
▁died	-8.45051
▁seriously	-8.45361
▁cops	-8.45852
▁figure	-8.45886
▁careful	-8.46127
▁super	-8.46188
▁captain	-8.46213
▁mmhmm	-8.4622
▁kick	-8.46429
▁rock	-8.46483
id	-8.46847
▁spend	-8.47278
▁living	-8.47314
▁seat	-8.47365
▁worked	-8.47547
w	-8.47868
▁wear	-8.47888
▁asking	-8.47918
▁date	-8.48319
▁cute	-8.48386
▁murder	-8.48473
▁bag	-8.49155
ist	-8.49158
▁company	-8.49439
▁eye	-8.49474
se	-8.50049
▁fast	-8.50409
at	-8.50431
▁finally	-8.5061
▁seeing	-8.50632
▁ow	-8.5071
▁wonder	-8.51125
▁mad	-8.51494
▁detective	-8.5165
▁worth	-8.51659
is	-8.5183
▁record	-8.51979
▁balls	-8.52587
en	-8.52623
▁middle	-8.52773
▁henry	-8.52773
um	-8.52987
▁cover	-8.5307
▁american	-8.53343
▁da	-8.53483
▁broke	-8.53837
▁nigga	-8.54017
▁kiss	-8.54125
▁able	-8.54191
▁lt	-8.54205
▁card	-8.54613
ta	-8.54624
▁loved	-8.54647
▁needs	-8.54857
▁a	-8.55025
▁blue	-8.5504
▁jerry	-8.55061
▁gasps	-8.55264
▁wed	-8.55267
▁deep	-8.55966
▁hotel	-8.56291
▁throw	-8.56838
less	-8.56872
▁amazing	-8.57398
▁security	-8.57398
▁theyve	-8.57398
▁maam	-8.57401
▁cash	-8.57403
▁alice	-8.57404
▁sitting	-8.57441
▁chattering	-8.57595
▁boat	-8.57597
▁ball	-8.57654
▁dear	-8.57687
▁stick	-8.57859
▁table	-8.58161
▁quick	-8.58302
te	-8.58531
▁secret	-8.58582
▁leaving	-8.58588
▁absolutely	-8.58594
▁past	-8.58653
▁comes	-8.5868
▁message	-8.58797
▁carl	-8.59195
▁speaking	-8.59342
▁lll	-8.60207
▁cell	-8.60246
▁lovely	-8.6031
▁lock	-8.60365
▁tight	-8.60782
▁strong	-8.60868
▁birthday	-8.61013
▁space	-8.61022
▁none	-8.61089
▁quite	-8.61143
▁explain	-8.61373
▁longer	-8.61815
▁slow	-8.62118
▁awesome	-8.62247
▁others	-8.62247
▁film	-8.62248
▁swear	-8.62253
▁bill	-8.62256
▁looked	-8.62655
▁d	-8.62932
et	-8.63014
▁prison	-8.63318
▁small	-8.63352
▁box	-8.63459
▁p	-8.63689
▁knock	-8.63935
th	-8.64307
▁finish	-8.64399
▁mistake	-8.64763
▁kept	-8.64764
▁gentlemen	-8.64765
▁roger	-8.64783
▁killing	-8.65025
▁enjoy	-8.6519
▁sell	-8.65599
▁attack	-8.65672
▁fix	-8.6568
▁eli	-8.65878
▁r	-8.65949
▁beach	-8.65963
▁mm	-8.65966
▁names	-8.66034
▁king	-8.66035
▁sake	-8.66049
ive	-8.66107
▁law	-8.6613
▁key	-8.66429
▁agent	-8.66446
▁arm	-8.66619
▁rich	-8.67235
▁fall	-8.67332
▁possible	-8.67344
▁sweetheart	-8.67346
▁completely	-8.67391
▁gets	-8.67416
▁singing	-8.67727
▁doin	-8.67882
▁wearing	-8.67915
ur	-8.6801
▁fish	-8.68212
▁doc	-8.68644
▁babe	-8.6866
▁college	-8.6866
▁christmas	-8.6866
▁except	-8.6866
▁proud	-8.68663
▁killer	-8.68668
▁brothers	-8.68797
ar	-8.68939
▁joke	-8.69197
ass	-8.693
ness	-8.69601
▁short	-8.69605
▁victor	-8.69754
▁n	-8.69761
▁strange	-8.69904
▁felt	-8.69993
▁werent	-8.69993
▁giving	-8.69997
▁outta	-8.7
▁known	-8.70526
▁t	-8.70639
▁choice	-8.71344
▁forgot	-8.71344
▁major	-8.71344
▁boss	-8.71372
▁hed	-8.71626
▁state	-8.7246
▁ran	-8.72474
▁accident	-8.72708
▁computer	-8.72714
▁english	-8.72715
▁till	-8.72729
▁words	-8.72853
▁pal	-8.72875
▁star	-8.73095
▁act	-8.73222
▁girlfriend	-8.73292
ter	-8.73562
▁ground	-8.73728
▁eight	-8.74049
▁across	-8.74103
▁scene	-8.74103
▁situation	-8.74103
▁video	-8.74103
▁truck	-8.74105
▁grab	-8.74115
▁born	-8.74124
▁lying	-8.74135
▁smell	-8.74725
▁less	-8.74731
▁burn	-8.74805
▁suck	-8.74812
▁smoke	-8.7507
▁machine	-8.755
▁donnie	-8.75512
▁island	-8.75512
▁goodbye	-8.75512
▁beer	-8.75665
ol	-8.75872
▁sim	-8.76049
▁horse	-8.76189
ity	-8.76236
ne	-8.76601
▁south	-8.7694
▁driving	-8.76944
▁definitely	-8.76947
▁crowd	-8.76958
▁dre	-8.77068
▁building	-8.77138
▁quit	-8.77159
▁gold	-8.78377
▁david	-8.78389
▁forever	-8.78391
▁apartment	-8.78396
▁al	-8.78494
to	-8.78677
▁lay	-8.78838
▁bloody	-8.78913
▁join	-8.78951
▁win	-8.79266
▁keys	-8.79392
▁dress	-8.79545
▁near	-8.79718
▁dumb	-8.79841
▁sun	-8.79848
▁language	-8.7986
▁upstairs	-8.7986
▁attention	-8.7986
▁court	-8.7986
▁shall	-8.79863
▁ryan	-8.79871
▁groaning	-8.79892
▁christian	-8.79893
▁station	-8.79932
ri	-8.79949
▁breathing	-8.80284
▁whoo	-8.80286
▁gods	-8.8035
▁hol	-8.80364
ra	-8.80476
▁system	-8.80642
▁become	-8.8065
▁trip	-8.80929
▁honest	-8.80975
▁laugh	-8.81318
▁fault	-8.81353
▁uhhuh	-8.81353
▁sergeant	-8.81354
▁yep	-8.81361
▁wonderful	-8.81372
▁early	-8.81405
▁single	-8.8141
▁sean	-8.81468
ate	-8.81688
▁er	-8.82058
▁ship	-8.8225
▁ii	-8.82355
▁talked	-8.82396
▁standing	-8.82572
▁knows	-8.82676
▁handle	-8.8271
▁breathe	-8.82769
▁conversation	-8.82826
▁seconds	-8.82834
▁fear	-8.8285
▁respect	-8.82857
▁bathroom	-8.82869
▁wedding	-8.82869
▁dying	-8.82871
▁hungry	-8.82874
▁clothes	-8.82875
▁bunch	-8.82882
▁pussy	-8.82907
▁tara	-8.83033
▁feels	-8.83329
▁club	-8.83722
▁lawyer	-8.83748
il	-8.83829
▁fair	-8.8402
▁report	-8.84288
▁land	-8.84293
▁pa	-8.84302
▁ex	-8.84355
▁boyfriend	-8.84408
▁department	-8.8441
▁poor	-8.84434
▁personal	-8.84479
▁works	-8.84538
im	-8.84876
lng	-8.85167
▁camp	-8.8528
▁san	-8.85306
▁bastard	-8.85339
▁steal	-8.85484
▁test	-8.85571
▁appreciate	-8.85703
▁realize	-8.85763
▁write	-8.8579
▁fresh	-8.85945
▁hospital	-8.85969
▁riley	-8.8597
▁bought	-8.85973
▁earth	-8.85974
▁busy	-8.86201
▁finished	-8.86423
▁pass	-8.86665
▁force	-8.86684
▁sing	-8.87259
▁anywhere	-8.87556
▁summer	-8.87556
▁private	-8.87556
▁tough	-8.87556
▁pants	-8.8756
▁mookie	-8.87564
▁feet	-8.8757
▁roll	-8.87947
▁needed	-8.88066
▁bus	-8.88192
▁questions	-8.88327
▁rings	-8.88332
▁band	-8.88669
ful	-8.88756
▁breath	-8.8881
▁pop	-8.88893
▁tape	-8.89005
▁witch	-8.89102
▁hole	-8.89122
▁favor	-8.89165
▁colonel	-8.89169
▁green	-8.89169
▁imagine	-8.89169
▁london	-8.89169
▁worse	-8.89169
▁pleasure	-8.89171
▁alarm	-8.89172
▁jail	-8.89175
▁june	-8.89192
▁listening	-8.89581
▁wouldve	-8.89773
▁push	-8.89958
▁mess	-8.89965
▁v	-8.90188
▁hundred	-8.90253
▁share	-8.90545
▁meant	-8.90703
▁glass	-8.90749
▁brenda	-8.90808
▁engine	-8.90808
▁lunch	-8.90808
▁present	-8.90808
▁neck	-8.90812
▁gasping	-8.90875
▁hide	-8.90885
▁count	-8.90896
▁fit	-8.90899
▁j	-8.90913
▁knocking	-8.91416
▁ring	-8.91835
nt	-8.9197
▁block	-8.91988
ting	-8.92062
▁jump	-8.92104
▁suit	-8.92239
▁nine	-8.92344
▁congratulations	-8.92475
▁jimmy	-8.92475
▁yesterday	-8.92475
▁history	-8.92476
▁north	-8.92476
▁panting	-8.9248
▁weekend	-8.92489
▁stuck	-8.92499
▁whatd	-8.92512
▁evening	-8.92577
out	-8.92607
ro	-8.92985
▁metal	-8.93062
▁bank	-8.93313
▁guard	-8.93628
▁i	-8.93631
▁pizza	-8.93646
▁camera	-8.9375
▁surprise	-8.93913
▁walking	-8.9395
▁general	-8.94023
▁group	-8.9417
▁heavy	-8.9417
▁mark	-8.9421
▁age	-8.94217
▁tired	-8.94227
▁kate	-8.94427
▁train	-8.94583
ce	-8.94946
▁rules	-8.95301
▁window	-8.95445
▁dig	-8.95813
▁third	-8.95894
▁foot	-8.959
▁bob	-8.95916
▁cock	-8.95916
▁sandie	-8.95918
▁missing	-8.9592
▁position	-8.95938
▁eric	-8.95946
▁fucker	-8.95978
▁mo	-8.96045
▁shoes	-8.96226
▁miles	-8.9636
▁movies	-8.96362
▁saved	-8.96428
▁bomb	-8.96438
▁acting	-8.96486
▁art	-8.96649
▁protect	-8.97142
▁goin	-8.97203
▁partner	-8.97216
▁owe	-8.97221
▁sh	-8.97505
▁certain	-8.9751
la	-8.976
▁simple	-8.9762
▁worried	-8.97648
▁future	-8.97649
▁round	-8.97653
▁sweetie	-8.97729
▁plane	-8.98008
▁moved	-8.98037
▁tires	-8.98148
▁lead	-8.98351
▁park	-8.98452
na	-8.98544
▁teach	-8.98795
▁smile	-8.98922
ty	-8.98936
▁howd	-8.99191
x	-8.99214
▁calls	-8.99238
▁fell	-8.99314
▁beyond	-8.99434
▁evidence	-8.99434
▁florida	-8.99434
▁phillip	-8.99434
▁cube	-8.99434
▁shell	-8.99437
▁stopped	-8.99438
▁fbi	-8.99441
▁grand	-8.99491
▁yelling	-8.99652
ish	-8.99738
▁ones	-8.99817
▁locked	-8.99975
▁list	-8.99981
▁nah	-9.00177
▁sea	-9.00293
▁offer	-9.0055
▁horn	-9.00638
▁terr	-9.00786
ent	-9.00796
▁relationship	-9.00868
▁return	-9.0087
▁month	-9.00909
▁con	-9.00986
▁entire	-9.01112
▁california	-9.01252
▁caught	-9.01252
▁perhaps	-9.01252
▁eddie	-9.01252
▁nowhere	-9.01253
▁cream	-9.01253
▁darling	-9.01258
▁howard	-9.01259
▁shed	-9.01661
co	-9.0219
one	-9.02221
▁cross	-9.02728
▁arrest	-9.02732
▁corner	-9.02815
▁jones	-9.02924
▁drugs	-9.02969
▁loud	-9.02996
▁fly	-9.03027
▁legs	-9.03093
▁sarge	-9.03104
▁credit	-9.03104
▁hasnt	-9.03105
▁river	-9.03105
▁extra	-9.03113
▁taste	-9.0317
▁unless	-9.03175
▁sad	-9.03368
▁played	-9.03457
▁folks	-9.03503
ut	-9.03506
ant	-9.03793
▁lights	-9.04275
▁crash	-9.04427
▁continue	-9.04454
▁agree	-9.04709
▁candy	-9.04993
▁terrible	-9.04994
▁ought	-9.05026
▁eh	-9.05107
▁beth	-9.05151
▁putting	-9.05191
▁west	-9.05218
▁billy	-9.05352
▁starting	-9.05582
▁dare	-9.06041
ian	-9.06142
▁se	-9.06175
▁grow	-9.06326
▁talkin	-9.06452
▁ben	-9.06686
ry	-9.06706
▁turned	-9.06873
▁over	-9.06874
▁upset	-9.06899
▁eloise	-9.06914
▁support	-9.06914
▁dangerous	-9.0692
▁mama	-9.0692
▁creaking	-9.06937
▁mum	-9.0694
▁board	-9.06997
▁sandy	-9.07018
▁jay	-9.0702
ul	-9.07072
▁chad	-9.07091
▁interesting	-9.07283
▁lve	-9.07541
▁takes	-9.07604
▁whose	-9.07728
▁rid	-9.07899
▁closed	-9.08037
▁m	-9.08227
as	-9.08254
▁punch	-9.08486
▁cat	-9.08496
▁weapon	-9.08639
▁normal	-9.08733
▁bell	-9.08867
▁adrian	-9.08875
▁drunk	-9.08875
▁lucas	-9.08875
▁sudden	-9.08875
▁lonely	-9.08875
▁neighborhood	-9.08875
▁forward	-9.08875
▁jeff	-9.08878
▁kane	-9.0888
▁race	-9.0888
▁information	-9.08889
▁code	-9.08895
▁involved	-9.08954
▁double	-9.08983
▁fan	-9.08993
▁shouting	-9.09049
▁ms	-9.09169
age	-9.0933
ah	-9.09737
▁named	-9.09984
▁piss	-9.1005
▁turns	-9.10394
▁hat	-9.10506
▁finger	-9.107
▁charge	-9.10702
▁paper	-9.10724
▁government	-9.10875
▁spot	-9.10875
▁wrote	-9.10875
▁rather	-9.10875
▁famous	-9.10881
▁yaya	-9.10893
▁within	-9.10899
▁meg	-9.10994
▁warm	-9.11029
▁kinda	-9.11073
ee	-9.11121
▁base	-9.11249
da	-9.11272
▁wine	-9.11273
▁judge	-9.11292
ton	-9.115
▁birds	-9.11567
▁lance	-9.1157
▁dollars	-9.11625
ure	-9.11897
▁text	-9.12057
oo	-9.12069
os	-9.12126
▁missed	-9.12506
▁honor	-9.12562
▁fighting	-9.12569
▁crap	-9.12575
▁carry	-9.12594
▁blame	-9.12645
▁idiot	-9.12735
▁experience	-9.12762
▁soft	-9.12776
▁w	-9.12851
▁chief	-9.12916
▁kitchen	-9.12916
▁pregnant	-9.12916
▁throat	-9.12916
▁loretta	-9.12916
▁theyd	-9.12916
▁gift	-9.12917
▁nicole	-9.12918
▁spent	-9.1292
▁duke	-9.1292
▁counselor	-9.12924
▁johnny	-9.12942
▁excited	-9.12952
▁starts	-9.12971
▁press	-9.12993
▁problems	-9.13217
▁kat	-9.1327
▁army	-9.13289
▁loves	-9.13296
▁moms	-9.13395
▁holding	-9.13654
ba	-9.13742
▁di	-9.1381
▁ed	-9.14508
▁dis	-9.14618
▁stone	-9.14658
▁reading	-9.14766
▁command	-9.14786
ized	-9.14914
▁richard	-9.14924
▁built	-9.14999
▁instead	-9.14999
▁russell	-9.14999
▁area	-9.14999
▁sydney	-9.14999
▁president	-9.15001
▁lori	-9.15005
▁thatll	-9.15009
▁where	-9.15021
▁dirty	-9.15056
ge	-9.15062
▁swing	-9.15186
sh	-9.15355
▁final	-9.15521
am	-9.15729
▁changed	-9.15772
▁thousand	-9.16272
▁lived	-9.16374
▁color	-9.16682
▁soul	-9.17066
▁jo	-9.17091
ow	-9.17105
▁afternoon	-9.17126
▁contact	-9.17126
▁malorie	-9.17126
▁rush	-9.17126
▁freedom	-9.17132
▁choose	-9.17141
▁risk	-9.17147
▁cup	-9.17237
▁low	-9.17246
▁type	-9.17276
▁broken	-9.17289
▁co	-9.17451
▁staying	-9.17726
▁unit	-9.17881
▁wa	-9.18248
▁expect	-9.18443
▁pack	-9.18449
▁india	-9.18696
▁butt	-9.18713
▁cook	-9.18814
▁shooting	-9.19054
▁account	-9.19296
▁abigail	-9.193
▁lieutenant	-9.193
▁samantha	-9.193
▁themistokles	-9.193
▁beginning	-9.19307
▁local	-9.19325
▁store	-9.19327
▁heat	-9.19333
▁an	-9.19336
▁wild	-9.19346
▁james	-9.19357
▁chocolate	-9.19406
▁leg	-9.19448
▁doug	-9.19467
▁h	-9.19536
▁hunter	-9.19624
▁paula	-9.19804
ted	-9.19933
▁sucks	-9.20503
▁reach	-9.20668
ous	-9.20908
▁visit	-9.21002
▁cap	-9.21072
▁rain	-9.21079
▁given	-9.21131
▁notice	-9.21266
▁nick	-9.21285
un	-9.21347
▁peace	-9.21507
▁decision	-9.21523
▁doubt	-9.21523
▁restaurant	-9.21523
▁genius	-9.21524
▁rachel	-9.21525
▁crew	-9.21529
▁knife	-9.2153
▁heavily	-9.21537
▁sobbing	-9.21539
▁apologize	-9.21544
▁janet	-9.2155
▁ghost	-9.21551
▁barry	-9.21551
▁director	-9.21551
▁usually	-9.2158
▁huge	-9.21611
▁inhales	-9.2175
▁banging	-9.21804
▁treat	-9.21879
▁copy	-9.22171
▁gas	-9.22337
op	-9.22572
▁el	-9.22581
ary	-9.23046
▁sleeping	-9.23372
▁cry	-9.23569
▁nervous	-9.23644
▁plays	-9.23704
▁level	-9.23795
▁neither	-9.23795
▁marriage	-9.23796
▁vegas	-9.23796
▁ellie	-9.23797
▁beauty	-9.23798
▁everywhere	-9.23803
▁booth	-9.2381
▁danny	-9.23815
▁richards	-9.23889
▁bigger	-9.23902
▁action	-9.23924
▁hall	-9.23995
▁driver	-9.2418
▁books	-9.24691
j	-9.2474
▁bo	-9.24922
▁picked	-9.25328
▁guns	-9.25439
▁leon	-9.2574
ine	-9.25877
▁total	-9.25984
▁nothin	-9.26073
▁cheese	-9.2612
▁church	-9.26121
▁difference	-9.26121
▁difficult	-9.26121
▁forgive	-9.26121
▁harold	-9.26121
▁ridiculous	-9.26121
▁shirt	-9.26121
▁bodies	-9.26121
▁aiex	-9.26122
▁operation	-9.26122
▁toast	-9.26123
▁nikki	-9.26123
▁chuckling	-9.26126
▁airport	-9.26131
▁jamie	-9.26163
▁obviously	-9.26191
▁walter	-9.26216
▁eating	-9.26223
▁student	-9.26281
▁guest	-9.26286
▁honestly	-9.26337
▁hoping	-9.26373
▁rent	-9.26528
▁bigge	-9.26694
▁jon	-9.26767
▁cheers	-9.26962
▁prove	-9.27121
ig	-9.27138
▁o	-9.27305
▁fed	-9.27378
▁older	-9.27461
line	-9.27751
▁track	-9.28061
lo	-9.2825
▁doors	-9.28372
▁liked	-9.28395
▁desalvo	-9.28502
▁klara	-9.28502
▁worst	-9.28502
▁mostly	-9.28502
▁zooey	-9.28503
▁emergency	-9.28505
▁milton	-9.28505
▁distance	-9.2851
▁colin	-9.28543
ling	-9.2863
▁jean	-9.28696
▁richie	-9.28697
▁nora	-9.28757
▁boyd	-9.28759
▁mayor	-9.2879
▁pre	-9.28819
ey	-9.28882
▁tom	-9.29181
ping	-9.29343
▁seemed	-9.29398
▁nuts	-9.29453
▁pin	-9.29554
▁sl	-9.29686
▁shower	-9.29918
▁interest	-9.30138
▁hanging	-9.30458
ha	-9.30484
▁wash	-9.30575
▁suppose	-9.30696
▁lynn	-9.30777
▁van	-9.3078
▁bottom	-9.308
holy	-9.30848
▁heaven	-9.30941
▁suzanne	-9.30941
▁trevor	-9.30941
▁address	-9.30941
▁besides	-9.30941
▁speed	-9.30941
▁asleep	-9.30942
▁split	-9.30944
▁professor	-9.30944
▁plus	-9.30946
▁snow	-9.30949
▁flight	-9.30957
▁milk	-9.30971
▁skin	-9.31004
▁mate	-9.31043
▁concerned	-9.31055
▁gaz	-9.31086
▁mary	-9.31102
▁dope	-9.31124
▁service	-9.31186
▁main	-9.31228
▁los	-9.31452
▁turning	-9.31542
▁figured	-9.31562
▁letter	-9.31612
ho	-9.32004
ier	-9.32382
▁note	-9.3248
bo	-9.32781
way	-9.32856
▁bust	-9.33046
▁repeat	-9.33052
▁pray	-9.33128
ca	-9.33249
▁weak	-9.33423
▁admit	-9.33441
▁television	-9.33441
▁whether	-9.33441
▁battle	-9.33443
▁elevator	-9.33443
▁roof	-9.33443
▁tits	-9.33447
▁self	-9.33447
▁tour	-9.33457
▁nose	-9.33462
▁laser	-9.33469
▁role	-9.33481
▁wise	-9.33551
▁warning	-9.33626
▁certainly	-9.33639
son	-9.33692
▁drinking	-9.33735
▁arms	-9.33766
▁crime	-9.33767
ke	-9.33777
▁soldier	-9.33787
▁east	-9.33854
▁closer	-9.33895
▁streets	-9.34214
▁following	-9.34772
▁yells	-9.34904
▁freak	-9.35142
▁per	-9.35346
▁mindy	-9.35424
▁accept	-9.35604
▁shop	-9.35615
▁search	-9.35622
▁bless	-9.35684
▁exist	-9.35701
▁max	-9.3599
▁angry	-9.36005
▁french	-9.36005
▁italian	-9.36005
▁plenty	-9.36005
▁taught	-9.36005
▁thomas	-9.36005
▁jonathan	-9.36006
▁hollywood	-9.36006
▁kelly	-9.36006
▁market	-9.36031
▁professional	-9.36058
▁tony	-9.36062
▁drug	-9.36141
▁screeching	-9.36169
▁trick	-9.36232
ial	-9.36331
▁iii	-9.36363
▁tree	-9.36393
▁interested	-9.36395
▁animal	-9.36412
▁dogs	-9.36633
rs	-9.36648
▁learned	-9.36932
ma	-9.37715
ph	-9.37722
▁hunt	-9.37815
▁brown	-9.37858
▁spread	-9.38142
▁do	-9.38255
▁allow	-9.38282
▁waste	-9.38377
▁hero	-9.38447
▁spoke	-9.38547
▁twenty	-9.38635
▁extreme	-9.38637
▁marcus	-9.38637
▁memory	-9.38637
▁pretend	-9.38637
▁whistling	-9.38637
▁nurse	-9.38637
▁greek	-9.38638
▁rumbling	-9.38638
▁evil	-9.3864
▁pressure	-9.38653
▁upon	-9.38658
▁castle	-9.3866
▁castor	-9.3867
▁immediately	-9.38679
▁lisa	-9.38697
▁heads	-9.38818
▁moaning	-9.38821
▁cheering	-9.38834
▁mothers	-9.3884
ley	-9.38864
ad	-9.38867
▁awful	-9.38895
ions	-9.38972
▁pro	-9.39009
▁remind	-9.3921
▁bucks	-9.3921
▁couldve	-9.39514
▁hearing	-9.39586
▁beeps	-9.39758
li	-9.39769
▁lou	-9.3995
▁den	-9.39993
▁states	-9.40226
▁dreams	-9.40374
▁numbers	-9.40412
ot	-9.40861
▁ac	-9.40938
▁ended	-9.41162
▁sharp	-9.41188
▁especially	-9.41339
▁esther	-9.41339
▁stories	-9.41339
▁walsh	-9.41339
▁coach	-9.41339
▁dancing	-9.41339
▁wailing	-9.41339
▁dropped	-9.41343
▁large	-9.41343
▁screen	-9.41349
▁claire	-9.41355
▁teeth	-9.41361
▁manager	-9.41378
▁chill	-9.41401
▁angeles	-9.41411
▁writing	-9.41445
▁sky	-9.41457
▁belong	-9.4148
▁paying	-9.41542
▁deserve	-9.41601
▁quickly	-9.41656
▁jet	-9.41681
▁joy	-9.41702
men	-9.4184
▁contract	-9.41871
▁remain	-9.41874
▁client	-9.41888
▁realized	-9.4193
▁higher	-9.42147
▁ad	-9.4222
▁gives	-9.42221
▁pictures	-9.42286
▁consider	-9.43195
▁hook	-9.43296
▁load	-9.43324
▁cha	-9.43484
▁chatter	-9.43661
▁kim	-9.43734
▁march	-9.43834
no	-9.43836
▁site	-9.43889
▁speaks	-9.43971
▁interview	-9.43976
▁pu	-9.44076
▁spirit	-9.44116
▁fantastic	-9.44117
▁weather	-9.44117
▁wendy	-9.44117
▁program	-9.44118
▁downtown	-9.44118
▁price	-9.4412
▁whatre	-9.44123
▁bailey	-9.44124
▁rusty	-9.44134
▁disgusting	-9.4415
▁ugh	-9.44186
▁safety	-9.44189
▁mende	-9.44236
▁grown	-9.4426
▁chick	-9.4444
▁bath	-9.44465
▁pam	-9.44576
▁cr	-9.44602
by	-9.44728
▁ticket	-9.44745
▁ears	-9.45287
tion	-9.45301
do	-9.45493
▁sexy	-9.45594
▁bun	-9.4591
▁fi	-9.46087
▁bother	-9.46104
▁rap	-9.46364
▁scream	-9.46374
▁sweat	-9.46478
▁lines	-9.46502
▁orders	-9.46571
▁keeps	-9.46636
▁survive	-9.46713
▁royal	-9.4696
▁cocksucker	-9.46974
▁elliot	-9.46974
▁hobbes	-9.46974
▁ralph	-9.46974
▁sinclair	-9.46974
▁sunday	-9.46974
▁hadnt	-9.46974
▁lainey	-9.46974
▁tongue	-9.46974
▁willie	-9.46975
▁monkey	-9.46976
▁aaron	-9.46976
▁exhales	-9.4698
▁grandma	-9.46988
▁onto	-9.4699
▁lake	-9.47045
me	-9.47081
▁scary	-9.47116
▁decided	-9.47172
▁so	-9.47214
▁angel	-9.47491
▁pissed	-9.47507
▁master	-9.47681
▁field	-9.477
▁promised	-9.47846
▁zo	-9.47969
▁be	-9.48101
▁steve	-9.48188
▁pot	-9.48202
▁pulled	-9.48359
▁grade	-9.4848
▁dee	-9.48569
▁discuss	-9.49415
▁rat	-9.49489
▁talent	-9.49536
▁feelings	-9.49613
▁escape	-9.49652
▁sa	-9.4966
▁feed	-9.49693
▁jew	-9.49846
▁post	-9.49853
▁prince	-9.49863
▁public	-9.49891
▁cindy	-9.49915
▁footsteps	-9.49915
▁friday	-9.49915
▁sheriff	-9.49915
▁thunder	-9.49915
▁gerald	-9.49916
▁larry	-9.49916
▁mask	-9.49916
▁weed	-9.49916
▁practice	-9.49916
▁pilot	-9.49916
▁investigation	-9.49917
▁unbelievable	-9.49917
▁desk	-9.49917
▁willing	-9.49917
▁nathan	-9.49918
▁theater	-9.49919
▁basically	-9.49919
▁imran	-9.49921
▁brian	-9.49922
▁apparently	-9.49922
▁marry	-9.49924
▁papa	-9.49926
▁laura	-9.49938
▁coat	-9.49942
▁season	-9.49948
▁rose	-9.49969
▁guilty	-9.49997
▁robert	-9.50004
ck	-9.50004
▁sold	-9.50025
▁bass	-9.50026
▁matt	-9.50099
▁laid	-9.50138
▁sight	-9.50144
▁pink	-9.50231
▁hm	-9.50234
▁deeply	-9.50269
▁nature	-9.50318
▁surprised	-9.50366
▁using	-9.50488
▁growing	-9.50639
▁claim	-9.50671
▁target	-9.50673
▁bottle	-9.50702
▁nigger	-9.50725
▁begin	-9.50784
▁there	-9.5104
ud	-9.51118
▁wondering	-9.51175
▁nic	-9.51219
▁pen	-9.51245
ny	-9.51327
ir	-9.51374
▁ca	-9.51743
▁officers	-9.51837
time	-9.52027
ls	-9.52055
▁niggers	-9.5212
head	-9.52135
▁assholes	-9.5219
ia	-9.5222
▁crack	-9.52573
▁hung	-9.52612
▁rub	-9.52712
▁trace	-9.52721
▁records	-9.52764
▁aw	-9.52794
▁witness	-9.52877
▁became	-9.52946
▁mckenna	-9.52946
▁often	-9.52946
▁swimming	-9.52946
▁whoever	-9.52948
▁lift	-9.52949
▁aware	-9.52951
▁chair	-9.52955
▁jam	-9.52956
▁bedroom	-9.52958
▁enter	-9.52961
▁pool	-9.52968
▁machinery	-9.52972
▁standard	-9.52982
▁whore	-9.52983
▁belt	-9.53081
▁invited	-9.53084
▁stage	-9.53086
▁cost	-9.53126
▁pee	-9.53181
▁travel	-9.5337
▁photo	-9.53429
▁non	-9.5343
▁beg	-9.53519
▁knees	-9.53747
▁bite	-9.53839
▁rob	-9.53845
▁brain	-9.53923
▁murdered	-9.53992
▁lied	-9.54078
▁motherfuckers	-9.54359
▁bird	-9.546
▁games	-9.54886
tra	-9.55013
▁lots	-9.55044
ac	-9.55182
▁breaking	-9.55268
▁bi	-9.55592
▁borrow	-9.55678
▁keeping	-9.55691
▁pie	-9.55723
om	-9.55777
▁raise	-9.55842
▁bum	-9.55861
▁somethin	-9.56022
▁virgin	-9.56056
▁babies	-9.56071
▁couch	-9.56071
▁devil	-9.56071
▁easier	-9.56071
▁gorgeous	-9.56071
▁michael	-9.56071
▁monday	-9.56071
▁otherwise	-9.56071
▁patterson	-9.56071
▁punk	-9.56071
▁foreign	-9.56071
▁cancer	-9.56072
▁rough	-9.56073
▁fake	-9.56077
▁comfortable	-9.56079
▁meat	-9.56084
▁rigg	-9.56129
▁pete	-9.56162
▁clay	-9.56163
▁boring	-9.56197
▁national	-9.56205
▁motherfucking	-9.56266
▁papers	-9.56349
▁fingers	-9.56349
▁whispers	-9.56408
▁letting	-9.56522
▁drinks	-9.56539
king	-9.57089
▁russian	-9.57089
▁actor	-9.57162
ts	-9.57278
▁tad	-9.57728
tic	-9.57853
▁opens	-9.57855
▁hu	-9.57887
▁fired	-9.57904
▁brains	-9.58346
▁screw	-9.58442
the	-9.58606
▁hon	-9.58771
▁switch	-9.58834
▁match	-9.59228
▁sue	-9.59235
▁trent	-9.59267
▁abdullah	-9.59297
▁condition	-9.59297
▁downstairs	-9.59297
▁marvin	-9.59297
▁mexico	-9.59297
▁regular	-9.59297
▁sausage	-9.59297
▁whistle	-9.59297
▁torment	-9.59297
▁stallworth	-9.59298
▁juice	-9.59298
▁vehicle	-9.59298
▁clue	-9.59301
▁terrific	-9.59302
▁foley	-9.59303
▁grace	-9.59304
▁liar	-9.59306
▁batman	-9.59313
▁queen	-9.59332
▁cameron	-9.59333
▁meal	-9.59346
▁moon	-9.59374
▁jacket	-9.59396
▁coughing	-9.59414
▁bush	-9.59446
▁interviewer	-9.59461
▁spit	-9.59502
▁brave	-9.59539
▁stars	-9.59546
▁beeping	-9.59592
▁ahh	-9.59629
▁union	-9.59668
and	-9.5969
▁losing	-9.59926
▁fool	-9.59945
▁dressed	-9.60135
▁armed	-9.60225
▁hire	-9.60255
▁chest	-9.60311
▁shoulder	-9.60376
ard	-9.60383
▁suspect	-9.6039
▁dry	-9.60408
off	-9.60528
▁ships	-9.60759
▁ch	-9.61279
▁ne	-9.61603
▁reasons	-9.61668
▁view	-9.61805
▁rule	-9.61826
▁slap	-9.62157
▁build	-9.62165
▁hurts	-9.62208
▁cab	-9.62228
ize	-9.62329
▁mention	-9.62334
▁correct	-9.62358
▁secure	-9.62368
▁arrive	-9.62372
▁loose	-9.624
▁sexual	-9.62485
▁madam	-9.62508
▁tea	-9.6253
▁stole	-9.62551
▁process	-9.6258
▁gettin	-9.62597
▁danger	-9.62621
▁knox	-9.62627
▁canada	-9.6263
▁greg	-9.6263
▁hannibal	-9.6263
▁insane	-9.6263
▁literally	-9.6263
▁shouldve	-9.6263
▁spanish	-9.62631
▁curious	-9.62633
▁joking	-9.62641
▁football	-9.62641
▁responsible	-9.62642
▁society	-9.62642
▁cos	-9.62652
▁comin	-9.62656
▁wet	-9.62663
▁assume	-9.62693
▁whispering	-9.62703
▁medical	-9.62724
▁en	-9.62747
▁pino	-9.62763
▁joint	-9.629
▁male	-9.62996
▁shape	-9.63135
▁career	-9.63346
dy	-9.63672
▁opened	-9.63684
▁chicken	-9.63791
▁ro	-9.63804
▁oil	-9.63912
▁tap	-9.64094
io	-9.64137
▁ends	-9.64166
eral	-9.64207
res	-9.64821
▁u	-9.65216
▁direct	-9.6527
▁cast	-9.65661
▁tank	-9.65685
▁design	-9.65701
▁settle	-9.65828
▁divorce	-9.65842
▁chris	-9.65845
▁loss	-9.65862
▁corn	-9.6592
▁freeze	-9.65952
▁sandwich	-9.65999
▁pocket	-9.66075
▁advice	-9.66078
▁breakfast	-9.66078
▁dallas	-9.66078
▁expensive	-9.66078
▁felix	-9.66078
▁military	-9.66078
▁several	-9.66078
▁sixpack	-9.66078
▁threw	-9.66078
▁webber	-9.66078
▁albert	-9.66078
▁stood	-9.66078
▁gym	-9.66078
▁strike	-9.66079
▁whyd	-9.66079
▁common	-9.66079
▁spell	-9.6608
▁grew	-9.66083
▁earlier	-9.66085
▁pair	-9.661
▁jewish	-9.66104
▁zone	-9.66106
▁hiding	-9.66114
▁louis	-9.66122
▁center	-9.66162
▁incredible	-9.66185
▁out	-9.66526
▁allowed	-9.66567
ga	-9.66627
▁reached	-9.6666
ver	-9.66661
▁watched	-9.6675
▁ab	-9.66752
▁who	-9.66782
▁gang	-9.66805
▁lately	-9.66985
ng	-9.67077
▁someones	-9.67077
▁bear	-9.67099
▁rolling	-9.67111
▁asses	-9.67123
▁ba	-9.67132
▁cars	-9.67132
▁issue	-9.67194
▁burning	-9.67247
▁criminal	-9.67353
▁character	-9.67379
▁sucker	-9.67403
lect	-9.67618
▁plans	-9.6789
ble	-9.68084
▁bow	-9.68181
▁ar	-9.68195
▁places	-9.68306
▁ls	-9.68378
gh	-9.68399
mo	-9.68414
▁magic	-9.68545
▁fill	-9.68743
▁cells	-9.6888
▁pe	-9.69007
▁eazy	-9.69095
▁request	-9.69259
▁study	-9.69272
▁serve	-9.69296
▁dial	-9.69298
▁release	-9.69386
▁beck	-9.69416
▁dimitr	-9.69465
▁represent	-9.69647
▁dewald	-9.6965
▁horrible	-9.6965
▁mallory	-9.6965
▁maretto	-9.6965
▁mirror	-9.6965
▁nelson	-9.6965
▁punjabi	-9.6965
▁access	-9.6965
▁boston	-9.6965
▁purge	-9.6965
▁vacation	-9.6965
▁midnight	-9.69651
▁community	-9.69651
▁priest	-9.69652
▁twice	-9.69652
▁familiar	-9.69654
▁gotten	-9.69654
▁kitty	-9.69656
▁swim	-9.69659
▁understood	-9.6967
▁units	-9.69678
▁sword	-9.69691
▁piper	-9.697
▁recently	-9.69723
ious	-9.69738
▁gale	-9.69821
ating	-9.69991
▁harm	-9.69995
▁classic	-9.70038
▁hired	-9.70061
▁due	-9.70151
▁bringing	-9.7026
▁coughs	-9.70271
▁greatest	-9.70454
▁model	-9.7059
land	-9.70649
▁bitches	-9.70721
▁file	-9.70847
▁lee	-9.70999
▁cigarette	-9.71115
▁monster	-9.71118
▁harder	-9.712
▁gate	-9.71201
▁teacher	-9.71348
▁nobodys	-9.71528
▁siren	-9.71562
▁va	-9.71705
▁ohh	-9.71786
▁pulling	-9.71868
▁fart	-9.71935
▁fathers	-9.71943
▁shows	-9.71984
▁opening	-9.72086
▁picking	-9.72763
▁animals	-9.72765
tan	-9.72804
▁complete	-9.72944
▁gr	-9.72947
ally	-9.72992
▁decide	-9.73096
▁fort	-9.731
▁ash	-9.73313
▁zahra	-9.73346
▁bags	-9.73351
▁chicago	-9.73353
▁distant	-9.73353
▁distorted	-9.73353
▁enemy	-9.73353
▁flesh	-9.73353
▁muffled	-9.73353
▁prick	-9.73353
▁rude	-9.73353
▁suicide	-9.73353
▁blind	-9.73353
▁empty	-9.73353
▁ugly	-9.73354
▁amanda	-9.73354
▁woke	-9.73358
▁compton	-9.73363
▁beast	-9.73364
▁ocean	-9.73374
▁narrat	-9.73381
▁stock	-9.73388
▁announcer	-9.73389
▁duty	-9.73404
▁maria	-9.73407
▁yearold	-9.73408
▁mourning	-9.73416
▁christine	-9.73423
▁po	-9.73443
▁rape	-9.73452
▁neb	-9.73455
▁martin	-9.73497
▁chas	-9.73552
▁frankie	-9.73611
▁disappeared	-9.73702
▁scare	-9.73759
▁tied	-9.73764
▁noticed	-9.73788
▁faster	-9.73841
uck	-9.73932
▁bang	-9.74158
▁nation	-9.7429
▁parking	-9.74352
ai	-9.74368
▁yell	-9.74451
ball	-9.74475
▁somebodys	-9.74521
▁mikey	-9.74588
▁tip	-9.74846
▁matthew	-9.7492
▁victim	-9.74953
ber	-9.74968
▁form	-9.74984
▁helping	-9.75019
▁du	-9.75075
▁je	-9.75381
go	-9.75478
ff	-9.7553
▁sirens	-9.75739
ni	-9.75805
▁everybodys	-9.75957
▁walked	-9.75998
ue	-9.76202
ero	-9.76204
per	-9.76516
ler	-9.76803
▁focus	-9.76815
▁ruin	-9.76824
▁niggas	-9.76834
de	-9.76858
▁students	-9.76938
▁bull	-9.76943
▁introduce	-9.76945
▁recognize	-9.76952
▁cards	-9.76954
▁hank	-9.77017
▁collect	-9.77083
▁actress	-9.77116
▁bright	-9.77199
▁champagne	-9.77199
▁exciting	-9.77199
▁impossible	-9.77199
▁kevin	-9.77199
▁license	-9.77199
▁mistress	-9.77199
▁period	-9.77199
▁stretch	-9.77199
▁jules	-9.77199
▁scoffs	-9.77199
▁virus	-9.77199
▁stairs	-9.772
▁network	-9.772
▁whenever	-9.77201
▁mmmhmm	-9.77202
▁nope	-9.77203
▁magazine	-9.77204
▁moron	-9.77208
▁yellow	-9.7721
▁nola	-9.77212
▁stuart	-9.77213
▁naked	-9.77213
▁logan	-9.77216
▁rare	-9.77227
▁cake	-9.77237
▁ghostface	-9.7724
▁bump	-9.77241
▁nasty	-9.77241
▁protection	-9.7727
▁pure	-9.77277
▁andy	-9.7729
▁wire	-9.77343
▁joni	-9.77347
▁embarrassed	-9.77368
▁madame	-9.77377
▁paint	-9.77377
▁shake	-9.77379
▁gary	-9.77384
▁witches	-9.77385
▁checked	-9.77443
▁tail	-9.77494
▁bleeding	-9.77523
▁runs	-9.77595
▁agreed	-9.77733
▁tall	-9.77775
▁app	-9.77924
▁wh	-9.78036
▁vi	-9.78051
tor	-9.78291
▁disappear	-9.78538
▁falling	-9.78612
anc	-9.78623
▁member	-9.78943
▁sometime	-9.78995
end	-9.79126
▁y	-9.79227
▁bud	-9.79253
▁tips	-9.79512
▁showing	-9.79948
▁helped	-9.80029
▁bills	-9.80196
▁pi	-9.80289
▁val	-9.80503
▁soldiers	-9.80657
▁closet	-9.80663
▁farm	-9.80665
▁bon	-9.80754
light	-9.80778
▁jerk	-9.80786
▁bail	-9.8081
▁wound	-9.80834
down	-9.80963
▁amen	-9.80979
▁natural	-9.81053
▁penis	-9.81144
▁porn	-9.8115
▁accounts	-9.81191
▁leo	-9.81198
▁axel	-9.81199
▁collins	-9.81199
▁female	-9.81199
▁jealous	-9.81199
▁kenneth	-9.81199
▁responsibility	-9.81199
▁slept	-9.81199
▁somehow	-9.81199
▁speech	-9.81199
▁staff	-9.81199
▁thirty	-9.81199
▁pardon	-9.81199
▁schedule	-9.81199
▁taylor	-9.81199
▁firm	-9.812
▁saving	-9.812
▁describe	-9.812
▁toilet	-9.812
▁kenny	-9.81201
▁romantic	-9.81201
▁vision	-9.81201
▁sugar	-9.81202
▁norton	-9.81203
▁ripley	-9.81207
▁gentleman	-9.81216
▁storm	-9.81222
▁heh	-9.81238
▁size	-9.81247
▁panic	-9.81254
▁exit	-9.81257
▁katie	-9.81257
▁josh	-9.81267
▁howling	-9.81267
▁comp	-9.81338
▁embarrassing	-9.81422
▁arrived	-9.81511
▁butter	-9.81587
▁image	-9.81644
▁weapons	-9.81658
▁clicking	-9.81668
ip	-9.81804
▁offered	-9.8203
▁passed	-9.82155
▁burned	-9.82275
▁cali	-9.82338
▁mar	-9.82339
▁tellin	-9.82626
▁click	-9.82654
▁ic	-9.827
▁details	-9.82735
pa	-9.82835
▁backup	-9.82958
▁gosh	-9.82983
▁planet	-9.82993
▁gunshot	-9.83051
▁noise	-9.83097
▁bullet	-9.83103
▁apple	-9.83124
▁citizen	-9.8313
▁pound	-9.83138
▁chain	-9.83253
▁fella	-9.83398
▁fellas	-9.8342
▁le	-9.83522
▁buying	-9.83598
ug	-9.83637
▁pr	-9.83723
▁cl	-9.84024
▁am	-9.84053
side	-9.84356
▁tickets	-9.84425
▁photos	-9.84702
▁si	-9.8473
▁deliver	-9.84736
▁hug	-9.84925
▁destroy	-9.84995
▁guests	-9.85083
▁flash	-9.85118
▁prepare	-9.85135
▁inter	-9.8516
▁map	-9.85312
▁ruth	-9.85347
▁according	-9.85366
▁advantage	-9.85366
▁although	-9.85366
▁artemisia	-9.85366
▁assault	-9.85366
▁central	-9.85366
▁douche	-9.85366
▁fantasy	-9.85366
▁greece	-9.85366
▁gunfire	-9.85366
▁illegal	-9.85366
▁jeez	-9.85366
▁pamela	-9.85366
▁quarter	-9.85366
▁thursday	-9.85366
▁umbrella	-9.85366
▁wheel	-9.85366
▁wyatt	-9.85366
▁shame	-9.85366
▁nerve	-9.85366
▁doris	-9.85367
▁afford	-9.85367
▁stress	-9.85367
▁square	-9.85367
▁giggling	-9.85368
▁miami	-9.85368
▁garden	-9.85368
▁closing	-9.85369
▁among	-9.85369
▁unfortunately	-9.85369
▁poem	-9.85371
▁gail	-9.85375
▁reese	-9.85378
▁baseball	-9.85379
▁fanny	-9.85383
▁proof	-9.85395
▁pace	-9.85403
▁handsome	-9.85403
▁mister	-9.85408
▁laughter	-9.85412
▁salad	-9.85414
▁murders	-9.85418
▁snake	-9.85437
▁row	-9.85444
▁hart	-9.85457
▁daisy	-9.85463
▁ditch	-9.85478
▁itd	-9.8549
▁spare	-9.85523
▁weight	-9.85527
▁buzzing	-9.85618
ster	-9.8564
▁charges	-9.85732
▁mission	-9.85806
ov	-9.85884
▁sally	-9.86213
he	-9.86233
▁meaning	-9.86313
▁up	-9.86454
▁towards	-9.86579
▁speakers	-9.86602
▁testing	-9.86647
▁tells	-9.86785
▁covered	-9.86806
ner	-9.86965
ern	-9.87025
▁hills	-9.87031
▁tryin	-9.87033
▁thousands	-9.87079
▁bastards	-9.87086
▁score	-9.87116
you	-9.8713
▁blowing	-9.87292
ki	-9.87434
▁adam	-9.87441
og	-9.87459
▁broad	-9.87467
▁no	-9.87622
▁hee	-9.87624
▁citizens	-9.87653
▁clicks	-9.87662
▁ideas	-9.87698
▁sending	-9.87788
ew	-9.88179
▁bra	-9.88819
▁clients	-9.88832
▁shock	-9.88846
gi	-9.89035
▁hip	-9.89191
▁sub	-9.89348
house	-9.89473
▁smith	-9.89474
▁player	-9.89486
▁sals	-9.895
▁physical	-9.89571
▁recommend	-9.89652
▁legal	-9.89704
▁appointment	-9.89714
▁audience	-9.89714
▁clamoring	-9.89714
▁cocaine	-9.89714
▁detroit	-9.89714
▁device	-9.89714
▁grethe	-9.89714
▁innocent	-9.89714
▁serrano	-9.89714
▁silence	-9.89714
▁sneak	-9.89714
▁stephanie	-9.89714
▁truly	-9.89714
▁twelve	-9.89714
▁motel	-9.89714
▁stalker	-9.89714
▁chanting	-9.89714
▁hindi	-9.89714
▁prefer	-9.89714
▁desert	-9.89714
▁telephone	-9.89714
▁cheap	-9.89715
▁interlinked	-9.89715
▁wasting	-9.89715
▁ipad	-9.89716
▁negative	-9.89718
▁random	-9.89719
▁excellent	-9.89719
▁opportunity	-9.8972
▁borat	-9.89721
▁coast	-9.89723
▁tito	-9.89725
▁tool	-9.89725
▁wherever	-9.89727
▁hallway	-9.89731
▁vito	-9.89732
▁estate	-9.89734
▁accountant	-9.89738
▁clock	-9.8974
▁birth	-9.89754
▁funeral	-9.89771
▁taxi	-9.89782
▁dealing	-9.89787
▁sec	-9.89814
▁impressed	-9.89823
▁damage	-9.89839
▁received	-9.89847
▁carlos	-9.89853
▁sale	-9.89982
▁lower	-9.90009
▁destroyed	-9.90103
ned	-9.90109
▁sink	-9.90117
▁hatcher	-9.9013
▁commander	-9.90164
▁raised	-9.90172
▁personally	-9.90175
▁flowers	-9.90193
▁headed	-9.90259
▁rip	-9.90274
ade	-9.90285
▁subt	-9.90391
▁fo	-9.90525
kin	-9.90667
▁dicks	-9.90696
▁carrying	-9.90737
▁ways	-9.91184
▁kicked	-9.91274
▁wood	-9.91296
▁selling	-9.91349
led	-9.91717
▁sport	-9.92042
ator	-9.9226
▁pig	-9.92434
▁salt	-9.92492
ring	-9.92849
ps	-9.9296
▁cra	-9.932
ii	-9.93223
▁sc	-9.93348
▁sisters	-9.93423
▁tend	-9.93465
▁that	-9.93554
▁bat	-9.9364
▁fl	-9.93713
our	-9.93724
▁confirm	-9.93857
▁americans	-9.93902
▁project	-9.9397
▁mac	-9.94039
▁simpl	-9.94057
▁official	-9.94115
▁indistinct	-9.94119
▁obvious	-9.94121
▁original	-9.94122
▁tu	-9.94135
▁me	-9.94136
▁aunt	-9.94176
▁bug	-9.9421
▁off	-9.9422
▁chuck	-9.94227
▁faith	-9.94244
▁apart	-9.94249
▁applause	-9.94259
▁attorney	-9.94259
▁brett	-9.94259
▁crush	-9.94259
▁defense	-9.94259
▁desperate	-9.94259
▁eventually	-9.94259
▁felicia	-9.94259
▁fruit	-9.94259
▁irene	-9.94259
▁kershaw	-9.94259
▁league	-9.94259
▁museum	-9.94259
▁necessary	-9.94259
▁oclock	-9.94259
▁purpose	-9.94259
▁regret	-9.94259
▁saturday	-9.94259
▁schultz	-9.94259
▁someday	-9.94259
▁stomach	-9.94259
▁strength	-9.94259
▁wolken	-9.94259
▁omar	-9.94259
▁reich	-9.9426
▁faint	-9.9426
▁pollux	-9.9426
▁whirring	-9.9426
▁vagina	-9.94261
▁smack	-9.94262
▁social	-9.94262
▁piano	-9.94262
▁assistant	-9.94264
▁chapter	-9.94265
▁tiny	-9.94266
▁jason	-9.94267
▁property	-9.9427
▁harry	-9.9427
▁bacon	-9.94272
▁neil	-9.94279
▁tuck	-9.94287
▁edge	-9.94295
▁audition	-9.94295
▁quinn	-9.94296
▁laughlng	-9.94304
▁dopeman	-9.94305
▁jim	-9.94305
▁held	-9.94311
▁yard	-9.94326
▁connection	-9.94332
▁powerful	-9.94383
▁troy	-9.94403
ale	-9.94514
▁charles	-9.94666
▁ma	-9.9485
▁quietly	-9.94893
▁clearly	-9.95202
▁lips	-9.95277
▁flying	-9.95443
▁fixed	-9.95608
▁cameras	-9.95625
▁mob	-9.95814
▁showed	-9.95834
▁dads	-9.95847
▁goodness	-9.95916
▁forces	-9.96054
com	-9.96161
▁sports	-9.96551
▁touched	-9.96723
▁page	-9.96742
▁mountain	-9.96751
▁patient	-9.96763
▁pounds	-9.96765
▁sch	-9.96798
di	-9.96846
▁ren	-9.96868
▁lap	-9.96986
▁monsters	-9.97088
▁sand	-9.97114
▁ld	-9.97286
▁prisoner	-9.97305
ism	-9.97417
ise	-9.9772
▁ku	-9.97772
ens	-9.97862
▁suggest	-9.97944
▁stayed	-9.98056
▁pan	-9.98125
▁lookin	-9.98207
▁flip	-9.98307
▁hop	-9.98368
▁dam	-9.9842
use	-9.98616
▁lies	-9.98617
▁dump	-9.98634
q	-9.98762
▁rick	-9.98771
▁trans	-9.98821
▁instrument	-9.99021
▁arjun	-9.99021
▁attempt	-9.99021
▁behavior	-9.99021
▁beverly	-9.99021
▁blindfold	-9.99021
▁clown	-9.99021
▁colqhoun	-9.99021
▁fashion	-9.99021
▁houssam	-9.99021
▁including	-9.99021
▁invisible	-9.99021
▁pistol	-9.99021
▁respond	-9.99021
▁review	-9.99021
▁science	-9.99021
▁silent	-9.99021
▁buried	-9.99021
▁clattering	-9.99021
▁aisle	-9.99022
▁route	-9.99022
▁miracle	-9.99022
▁lugo	-9.99022
▁material	-9.99023
▁cowboy	-9.99024
▁defend	-9.99024
▁cherry	-9.99026
▁impressive	-9.99027
▁written	-9.99027
▁shack	-9.99028
▁fancy	-9.99029
▁blew	-9.99033
▁value	-9.99034
▁coward	-9.99035
▁fred	-9.99035
▁stink	-9.99036
▁winner	-9.99041
▁award	-9.99045
▁rescue	-9.99049
▁custody	-9.99051
▁confused	-9.99053
▁donna	-9.99059
▁bee	-9.99061
▁secretary	-9.99062
▁basement	-9.99076
▁hood	-9.99093
▁statement	-9.99102
▁rex	-9.99119
▁honking	-9.99138
▁stolen	-9.99147
ik	-9.99172
▁direction	-9.99193
▁created	-9.99232
▁miller	-9.99235
▁glasses	-9.99249
▁advance	-9.99251
▁closes	-9.99257
▁prize	-9.9926
uc	-9.99374
▁signal	-9.99409
▁wounded	-9.99467
▁blows	-9.99471
▁doo	-9.99485
▁movement	-9.99554
▁ram	-9.99671
▁arrested	-9.99998
▁shitty	-10.0002
▁port	-10.0012
▁anti	-10.0013
▁walls	-10.0032
▁windows	-10.0035
▁training	-10.0036
▁springs	-10.0053
hand	-10.0071
▁checking	-10.0074
▁daughters	-10.0082
ui	-10.0082
▁pos	-10.0088
min	-10.0108
▁shouts	-10.011
▁artist	-10.0111
▁heading	-10.0112
act	-10.0134
▁chase	-10.0152
▁product	-10.0166
▁option	-10.0174
▁tie	-10.0175
▁rod	-10.0175
▁gl	-10.0192
▁robb	-10.0194
▁cigarettes	-10.0199
▁scar	-10.0204
▁wave	-10.0206
▁issues	-10.0211
hi	-10.0212
▁trap	-10.022
▁reporter	-10.0222
ham	-10.0277
ile	-10.0303
▁reminds	-10.0308
▁tri	-10.0312
▁har	-10.0322
▁diet	-10.0336
▁vic	-10.0357
▁ra	-10.0363
if	-10.0375
▁jess	-10.0375
▁incredibl	-10.0387
▁chose	-10.0393
▁traffic	-10.0401
▁basic	-10.0402
▁arguing	-10.0402
▁available	-10.0402
▁compliment	-10.0402
▁example	-10.0402
▁exercise	-10.0402
▁explosion	-10.0402
▁guarantee	-10.0402
▁hansel	-10.0402
▁lincoln	-10.0402
▁lounge	-10.0402
▁percent	-10.0402
▁procedure	-10.0402
▁progress	-10.0402
▁separate	-10.0402
▁tuesday	-10.0402
▁awake	-10.0402
▁diana	-10.0402
▁ethan	-10.0402
▁mcquarry	-10.0402
▁freddie	-10.0402
▁series	-10.0402
▁email	-10.0402
▁asian	-10.0402
▁clark	-10.0402
▁saint	-10.0402
▁subject	-10.0402
▁mischa	-10.0402
▁pathetic	-10.0402
▁squad	-10.0403
▁colorado	-10.0403
▁ellis	-10.0403
▁brilliant	-10.0403
▁gear	-10.0403
▁tasty	-10.0403
▁deaf	-10.0404
▁slice	-10.0404
▁commitment	-10.0404
▁humor	-10.0405
▁randy	-10.0405
▁owner	-10.0405
▁mail	-10.0405
▁barely	-10.0406
▁boom	-10.041
▁johnson	-10.0411
▁chosen	-10.0411
▁marty	-10.0413
▁helen	-10.0416
▁cow	-10.0417
bit	-10.0418
▁bored	-10.0419
▁hitting	-10.0422
▁doll	-10.0423
▁parties	-10.0428
▁down	-10.043
▁amy	-10.0431
▁failed	-10.0432
▁approaching	-10.0433
▁blast	-10.0436
▁lawn	-10.0437
back	-10.0444
▁gin	-10.0452
▁sm	-10.0456
▁screwed	-10.0461
ture	-10.0461
▁shy	-10.0468
▁all	-10.0478
▁ending	-10.0502
▁cares	-10.051
▁messing	-10.055
▁knocked	-10.0554
▁eggs	-10.056
▁loser	-10.0564
▁min	-10.0579
▁mul	-10.0592
▁leona	-10.0606
▁throwing	-10.0609
▁ted	-10.0612
▁lover	-10.0619
▁wha	-10.0635
▁becomes	-10.0646
▁ordered	-10.0656
▁shout	-10.0661
▁horses	-10.0679
▁beep	-10.0685
▁smells	-10.0692
▁shift	-10.0701
▁neighbor	-10.0702
▁cave	-10.0706
▁trusted	-10.0707
▁sw	-10.0722
▁bond	-10.0734
ice	-10.0742
▁z	-10.0765
▁su	-10.078
▁gi	-10.0804
▁pat	-10.0807
red	-10.0833
▁lo	-10.0835
▁nights	-10.0837
gu	-10.0842
▁ear	-10.0844
ical	-10.0848
▁mc	-10.0852
▁rep	-10.0855
▁draw	-10.0858
▁finding	-10.0869
▁crawl	-10.0879
ists	-10.088
▁connect	-10.0882
▁hatch	-10.089
ship	-10.0901
board	-10.0901
itles	-10.0903
▁walt	-10.0907
▁usual	-10.0915
em	-10.0917
▁or	-10.092
▁earn	-10.092
▁stan	-10.0923
▁confess	-10.0923
▁alcohol	-10.0924
▁react	-10.0926
▁susan	-10.0927
▁transfer	-10.0928
▁silver	-10.0928
▁wrap	-10.0928
▁amount	-10.0928
▁avoid	-10.0928
▁commercial	-10.0928
▁dylan	-10.0928
▁echoing	-10.0928
▁energy	-10.0928
▁families	-10.0928
▁ferrigno	-10.0928
▁grandmother	-10.0928
▁griffith	-10.0928
▁happiness	-10.0928
▁however	-10.0928
▁hurricane	-10.0928
▁jocasta	-10.0928
▁memories	-10.0928
▁murphy	-10.0928
▁purse	-10.0928
▁resident	-10.0928
▁undercover	-10.0928
▁university	-10.0928
▁vaughn	-10.0928
▁violence	-10.0928
▁whimpering	-10.0928
▁changing	-10.0928
▁gather	-10.0928
▁costume	-10.0928
▁cunt	-10.0928
▁jersey	-10.0928
▁attitude	-10.0928
▁tennis	-10.0929
▁cobb	-10.0929
▁jarmo	-10.0929
▁justice	-10.0929
▁merry	-10.0929
▁mobile	-10.0929
▁rope	-10.0929
▁halloween	-10.0929
▁pride	-10.0929
▁online	-10.0929
▁mass	-10.0929
▁combat	-10.0929
▁phil	-10.093
▁german	-10.093
▁abby	-10.093
▁uncomfortable	-10.093
▁motherfuckin	-10.093
▁coke	-10.0931
▁ruthless	-10.0931
▁cia	-10.0931
▁fellow	-10.0932
▁gen	-10.0933
▁locate	-10.0933
▁toss	-10.0933
▁winter	-10.0935
▁habit	-10.0935
▁berry	-10.0936
▁trial	-10.0936
▁indeed	-10.0938
▁answers	-10.0939
▁solve	-10.0944
▁stripper	-10.0945
▁bury	-10.0946
▁slide	-10.0946
▁abandoned	-10.0948
▁gina	-10.0948
▁tapes	-10.095
▁convinced	-10.0955
▁archer	-10.096
▁everyones	-10.0962
▁brit	-10.0963
▁poop	-10.0968
ib	-10.0972
▁br	-10.0973
▁divorced	-10.0974
▁add	-10.0978
▁deny	-10.0981
▁filled	-10.0984
▁x	-10.0994
▁jonesy	-10.0998
▁chop	-10.1029
▁ay	-10.1029
▁fla	-10.1032
▁lad	-10.1036
▁aa	-10.1037
▁signs	-10.1065
bs	-10.1071
▁dickie	-10.1074
▁brings	-10.1095
▁depends	-10.1108
▁gra	-10.1117
▁bands	-10.112
▁ate	-10.1122
▁when	-10.1122
▁bones	-10.1136
▁ding	-10.114
▁hardly	-10.1157
▁fe	-10.1158
▁lawyers	-10.1161
▁matters	-10.1179
▁ja	-10.121
▁parent	-10.1214
aw	-10.1217
▁tear	-10.1221
▁pieces	-10.1223
▁woo	-10.1242
▁dreaming	-10.1243
▁bridge	-10.1245
▁string	-10.1255
▁cloud	-10.1258
▁he	-10.1285
mp	-10.1291
ill	-10.1301
▁trade	-10.1324
▁on	-10.1331
▁simon	-10.1337
▁rats	-10.1338
▁hill	-10.1362
▁nut	-10.138
▁strip	-10.14
▁hells	-10.1421
▁interrupt	-10.1435
▁bleed	-10.1437
ang	-10.1439
▁climb	-10.1445
▁insist	-10.1446
▁whack	-10.1446
▁med	-10.1446
▁mix	-10.1447
▁hump	-10.1449
▁convince	-10.1458
▁invite	-10.1458
▁dust	-10.1464
▁particular	-10.147
▁emotional	-10.1473
▁coop	-10.1476
▁proper	-10.1476
▁express	-10.1478
▁hal	-10.148
ev	-10.148
▁album	-10.1484
▁anniversary	-10.1484
▁becoming	-10.1484
▁boycott	-10.1484
▁complicated	-10.1484
▁confidence	-10.1484
▁fountain	-10.1484
▁garbage	-10.1484
▁helicopter	-10.1484
▁kindergarten	-10.1484
▁muscle	-10.1484
▁possibly	-10.1484
▁raglan	-10.1484
▁sensitive	-10.1484
▁serena	-10.1484
▁smoking	-10.1484
▁smooth	-10.1484
▁toffler	-10.1484
▁turkey	-10.1484
▁universe	-10.1484
▁drag	-10.1484
▁lewis	-10.1484
▁suzy	-10.1484
▁thief	-10.1484
▁trash	-10.1484
▁klan	-10.1484
▁diane	-10.1484
▁organization	-10.1484
▁scratch	-10.1484
▁freezing	-10.1484
▁perimeter	-10.1484
▁darius	-10.1484
▁broadcast	-10.1484
▁tickle	-10.1484
▁planning	-10.1484
▁golf	-10.1484
▁silly	-10.1484
▁pump	-10.1484
▁shots	-10.1484
▁section	-10.1485
▁suge	-10.1485
▁location	-10.1486
▁cleaves	-10.1486
▁package	-10.1487
▁alien	-10.1487
▁attracted	-10.1487
▁coco	-10.1487
▁satan	-10.1488
▁chef	-10.1488
▁iike	-10.1488
▁thud	-10.149
▁uhh	-10.149
▁wit	-10.149
▁bread	-10.1491
▁fallen	-10.1493
▁betty	-10.1494
▁highway	-10.1495
▁auntie	-10.1495
▁hack	-10.1496
▁eve	-10.1496
▁uhoh	-10.1498
▁tone	-10.1498
▁aye	-10.15
▁tune	-10.1501
▁mis	-10.1503
▁inform	-10.1505
▁tax	-10.1513
▁wipe	-10.1513
▁jobs	-10.1517
▁keyes	-10.1518
▁jesse	-10.1522
▁softly	-10.1523
▁thrown	-10.1527
ank	-10.1527
▁louder	-10.1529
ite	-10.1534
▁wasted	-10.154
▁successful	-10.1543
▁mentioned	-10.1547
▁chips	-10.1557
▁homeless	-10.1557
▁horny	-10.1559
▁considered	-10.1561
▁traveling	-10.1571
▁busted	-10.1572
pe	-10.1577
▁ln	-10.1597
▁magnet	-10.1599
▁the	-10.1602
▁stare	-10.1602
▁socks	-10.1609
▁que	-10.162
▁riding	-10.1622
con	-10.1625
▁parts	-10.163
bra	-10.1641
▁doctors	-10.1645
▁passing	-10.1655
▁can	-10.1667
▁goat	-10.1673
▁stab	-10.1682
▁ey	-10.1684
▁indians	-10.1698
▁kissing	-10.1722
▁followed	-10.1725
▁wi	-10.176
ney	-10.1768
▁chi	-10.1781
▁flat	-10.1785
▁beating	-10.1785
▁noon	-10.179
▁murderer	-10.1796
▁victims	-10.1821
▁whip	-10.1826
▁cent	-10.1826
▁tr	-10.1835
▁tunnel	-10.1841
▁canadian	-10.1841
▁cousin	-10.1841
▁detail	-10.1849
▁hated	-10.1849
▁chat	-10.1851
▁players	-10.1852
▁dollar	-10.1857
▁suspects	-10.1874
▁op	-10.188
▁gene	-10.1902
▁sp	-10.191
▁jews	-10.1921
▁par	-10.1924
▁lefty	-10.1938
▁points	-10.1963
fully	-10.1976
▁poison	-10.1984
▁suffer	-10.1986
nder	-10.199
▁te	-10.2006
▁to	-10.2009
▁success	-10.201
▁indian	-10.2015
ium	-10.2022
▁develop	-10.2023
▁pet	-10.2035
▁erase	-10.2045
▁health	-10.2049
ron	-10.2052
cc	-10.2053
der	-10.2055
▁exact	-10.206
ell	-10.2061
▁russia	-10.2064
▁mechanic	-10.2065
▁brand	-10.2066
▁gentle	-10.2069
▁resist	-10.207
▁attend	-10.2071
▁document	-10.2071
▁donkey	-10.2072
▁accent	-10.2072
▁alonzo	-10.2072
▁ambulance	-10.2072
▁background	-10.2072
▁bruno	-10.2072
▁delicious	-10.2072
▁dispatch	-10.2072
▁dwight	-10.2072
▁equipment	-10.2072
▁fraternity	-10.2072
▁hudson	-10.2072
▁kirby	-10.2072
▁kumar	-10.2072
▁leonidas	-10.2072
▁lobster	-10.2072
▁peggy	-10.2072
▁rattling	-10.2072
▁sheila	-10.2072
▁steak	-10.2072
▁stirling	-10.2072
▁surrender	-10.2072
▁tenenbaum	-10.2072
▁chinese	-10.2072
▁diaz	-10.2072
▁evelyn	-10.2072
▁plastic	-10.2072
▁proceed	-10.2072
▁retard	-10.2072
▁adult	-10.2072
▁thumb	-10.2072
▁tommy	-10.2072
▁chalk	-10.2072
▁quote	-10.2072
▁charly	-10.2072
▁misery	-10.2072
▁ultimate	-10.2072
▁alert	-10.2072
▁faggot	-10.2072
▁gross	-10.2072
▁kyle	-10.2072
▁uhuh	-10.2072
▁quality	-10.2072
▁jennie	-10.2072
▁smiling	-10.2073
▁deckard	-10.2073
▁harper	-10.2073
▁envelope	-10.2073
▁digging	-10.2073
▁giant	-10.2074
▁olive	-10.2074
▁fought	-10.2074
▁crackling	-10.2074
▁doorbell	-10.2074
▁therapy	-10.2074
▁agency	-10.2074
▁fence	-10.2075
▁cartman	-10.2075
▁slut	-10.2075
▁joyce	-10.2075
▁growling	-10.2075
▁shopping	-10.2076
▁loving	-10.2076
▁shine	-10.2077
▁lean	-10.2077
▁butcher	-10.2077
▁treatment	-10.2078
▁producer	-10.2079
▁dropping	-10.2079
▁style	-10.208
▁golden	-10.2081
▁eden	-10.2081
▁darkness	-10.2083
▁flag	-10.2084
▁deck	-10.2086
▁bout	-10.2086
▁robin	-10.2093
▁former	-10.2095
▁fifty	-10.2095
▁seats	-10.2099
▁dating	-10.2099
▁rocks	-10.21
▁billion	-10.2106
▁queer	-10.2108
▁gum	-10.2112
▁taco	-10.2118
▁native	-10.2119
▁entirely	-10.2119
▁suffering	-10.212
▁prepared	-10.2122
▁changes	-10.2132
▁disks	-10.2135
cha	-10.2139
▁boyle	-10.2155
▁spin	-10.2168
aii	-10.2172
▁event	-10.2177
▁finest	-10.218
▁pills	-10.2186
▁sons	-10.2187
▁stops	-10.2208
▁pushed	-10.2211
▁leads	-10.2216
▁sooner	-10.2221
▁che	-10.223
▁attacked	-10.2249
▁cara	-10.2255
▁julie	-10.2272
▁media	-10.2277
▁ver	-10.2287
▁jer	-10.2288
erial	-10.2308
▁sniff	-10.231
▁li	-10.231
▁bone	-10.2312
all	-10.2325
ised	-10.2341
▁cart	-10.2372
▁dem	-10.2372
ker	-10.2405
▁girlfriends	-10.2431
▁photograph	-10.2433
▁cheer	-10.2443
▁you	-10.2447
nie	-10.2455
▁persian	-10.2465
▁plate	-10.2469
gging	-10.2499
▁actors	-10.2501
ast	-10.2502
▁stranger	-10.2507
▁snap	-10.2522
hole	-10.2524
▁bottles	-10.253
ette	-10.2546
▁cor	-10.2553
▁unite	-10.2569
▁remains	-10.2573
▁col	-10.2573
▁belongs	-10.2574
▁plant	-10.2602
▁log	-10.2648
▁lame	-10.2655
▁fail	-10.266
▁rot	-10.2672
jack	-10.2677
▁complain	-10.2679
▁fift	-10.268
four	-10.2681
▁warn	-10.2685
▁com	-10.2686
▁environment	-10.269
▁bel	-10.2692
▁mmhm	-10.2693
▁pipe	-10.2695
▁pepper	-10.2697
▁anthony	-10.2697
▁barbara	-10.2697
▁barcelona	-10.2697
▁celebrate	-10.2697
▁choking	-10.2697
▁dessert	-10.2697
▁disease	-10.2697
▁exclaiming	-10.2697
▁explanation	-10.2697
▁financial	-10.2697
▁guitar	-10.2697
▁honeymoon	-10.2697
▁insurance	-10.2697
▁jefferson	-10.2697
▁lesbian	-10.2697
▁maintenance	-10.2697
▁marissa	-10.2697
▁miserable	-10.2697
▁outfit	-10.2697
▁potential	-10.2697
▁racist	-10.2697
▁research	-10.2697
▁response	-10.2697
▁stammers	-10.2697
▁suribachi	-10.2697
▁tequila	-10.2697
▁trigger	-10.2697
▁village	-10.2697
▁violent	-10.2697
▁wolf	-10.2697
▁ashamed	-10.2697
▁lambert	-10.2697
▁shotgun	-10.2697
▁byebye	-10.2697
▁squeal	-10.2697
▁wallace	-10.2697
ably	-10.2697
▁drake	-10.2697
▁injured	-10.2697
▁refuse	-10.2697
▁drain	-10.2697
▁intelligence	-10.2697
▁leroy	-10.2697
▁attractive	-10.2697
▁grandfather	-10.2697
▁hidden	-10.2697
▁mathew	-10.2698
▁texas	-10.2698
▁janice	-10.2698
▁concept	-10.2698
▁psychiatrist	-10.2698
▁survival	-10.2698
of	-10.2698
▁corporation	-10.2698
▁anger	-10.2698
▁martha	-10.2698
▁medicine	-10.2698
▁whew	-10.2698
▁intention	-10.2698
▁authority	-10.2698
▁vote	-10.2698
▁sobs	-10.2698
▁investment	-10.2698
▁firing	-10.2698
▁skate	-10.2699
▁soho	-10.2699
▁comment	-10.2699
▁mental	-10.27
▁rita	-10.27
▁jade	-10.27
▁psycho	-10.2701
▁plug	-10.2701
▁drill	-10.2701
▁boil	-10.2701
▁confession	-10.2704
▁stunt	-10.2704
▁strangler	-10.2705
▁funk	-10.2706
▁powers	-10.2706
▁gain	-10.2707
▁ere	-10.2707
▁button	-10.2707
▁forth	-10.2708
▁badge	-10.2711
▁critical	-10.2712
▁mood	-10.2712
▁indistinctly	-10.2717
▁deadline	-10.2718
▁cutting	-10.2719
▁inf	-10.2719
▁vc	-10.272
▁knowledge	-10.2724
▁checks	-10.2727
▁aim	-10.2729
▁bottomly	-10.2734
▁sol	-10.2737
ire	-10.274
▁ti	-10.2768
▁williams	-10.2794
▁customers	-10.2796
ations	-10.2801
▁expected	-10.2808
▁julia	-10.281
▁manage	-10.2813
▁victory	-10.2814
pt	-10.2821
▁raped	-10.2826
▁boots	-10.2836
▁trained	-10.2838
▁slaves	-10.2839
▁leaves	-10.2839
▁latin	-10.2846
some	-10.2852
▁joey	-10.286
craft	-10.2864
▁ur	-10.2865
▁teaching	-10.2869
▁believed	-10.2883
▁highly	-10.2888
gen	-10.2894
▁wing	-10.2903
▁charlies	-10.2908
▁hundreds	-10.2919
▁staring	-10.2921
▁trac	-10.2926
▁sniffs	-10.2931
▁fa	-10.2948
cat	-10.298
▁breaks	-10.298
berg	-10.2997
▁pigs	-10.3019
▁woods	-10.3023
▁prisoners	-10.3024
▁cur	-10.3028
▁hates	-10.3032
ze	-10.3047
▁sat	-10.3048
▁members	-10.3064
▁cleaning	-10.3077
▁moan	-10.3099
▁faces	-10.3103
▁hay	-10.3107
▁creep	-10.3111
▁chin	-10.3124
▁diamond	-10.3135
▁hostage	-10.3139
▁depend	-10.314
▁chuckle	-10.3148
▁sin	-10.3161
▁waited	-10.3165
ft	-10.3177
ak	-10.3198
▁rom	-10.3203
▁lab	-10.3204
ence	-10.3205
▁marsh	-10.3231
den	-10.3246
▁spa	-10.3249
▁nu	-10.3263
▁mic	-10.3275
night	-10.3289
▁letters	-10.3291
▁ski	-10.3299
ex	-10.3306
▁drown	-10.3314
▁fuckers	-10.3314
▁mi	-10.3316
▁cancel	-10.3328
art	-10.3329
▁tub	-10.3333
▁actual	-10.335
▁recent	-10.3351
▁grant	-10.3352
▁dies	-10.3353
▁slight	-10.3356
▁strangle	-10.3356
▁europe	-10.3361
▁blank	-10.3362
▁flour	-10.3363
▁associate	-10.3364
▁bravo	-10.3364
▁clitoris	-10.3364
▁cynthia	-10.3364
▁effort	-10.3364
▁eriksson	-10.3364
▁fellcla	-10.3364
▁fifteen	-10.3364
▁froze	-10.3364
▁laundry	-10.3364
▁meserve	-10.3364
▁messenger	-10.3364
▁offense	-10.3364
▁permission	-10.3364
▁piranha	-10.3364
▁possibility	-10.3364
▁precious	-10.3364
▁shannon	-10.3364
▁stevie	-10.3364
▁anytime	-10.3364
▁brief	-10.3364
▁jessica	-10.3364
▁maggie	-10.3364
▁sweep	-10.3364
▁unusual	-10.3364
▁ocp	-10.3364
▁warrant	-10.3364
▁baldwin	-10.3364
▁nancy	-10.3364
▁automatic	-10.3364
▁vibe	-10.3364
▁float	-10.3364
▁collar	-10.3364
▁guide	-10.3364
▁bernie	-10.3364
▁border	-10.3364
▁thick	-10.3364
▁unknown	-10.3364
▁pillow	-10.3364
▁positive	-10.3364
▁internet	-10.3365
▁chopper	-10.3365
▁ammo	-10.3365
▁assignment	-10.3365
▁garage	-10.3365
▁delta	-10.3365
▁cujo	-10.3365
▁kilo	-10.3366
▁blanket	-10.3366
▁fries	-10.3366
▁sentence	-10.3366
▁soda	-10.3367
▁patrol	-10.3367
▁reward	-10.3367
▁cmon	-10.3368
▁broadway	-10.3368
▁vanish	-10.3368
▁sailor	-10.3368
▁minor	-10.3368
▁whooping	-10.3368
▁launch	-10.3369
▁patch	-10.337
stein	-10.337
▁roommate	-10.3371
▁dice	-10.3371
▁began	-10.3371
▁fag	-10.3372
▁under	-10.3372
▁friendship	-10.3374
▁amber	-10.3375
▁jackson	-10.3376
▁china	-10.3377
▁retired	-10.3377
▁bound	-10.338
▁chug	-10.338
▁witnesses	-10.3381
▁mustard	-10.3381
state	-10.3383
▁yella	-10.3384
▁discovered	-10.3386
ified	-10.3389
▁dean	-10.3389
for	-10.339
▁fuckedup	-10.339
▁core	-10.3391
▁adopted	-10.3394
▁fourth	-10.3396
▁sighing	-10.3396
▁gar	-10.3397
▁stones	-10.3398
▁host	-10.3398
▁worker	-10.3399
▁mel	-10.3404
▁taj	-10.3405
▁bay	-10.3409
▁reality	-10.3418
▁managed	-10.3418
▁giggles	-10.342
▁parker	-10.342
ax	-10.3422
▁carol	-10.3429
▁nearly	-10.343
▁bike	-10.343
▁ruined	-10.343
▁mal	-10.3434
▁arch	-10.3434
▁phones	-10.3435
▁slowly	-10.3442
ular	-10.3446
▁terry	-10.3454
▁accepted	-10.3464
▁county	-10.3466
▁surely	-10.3468
▁packed	-10.3483
▁writer	-10.3503
▁visiting	-10.3511
▁survivors	-10.3515
▁theo	-10.3517
▁jumped	-10.3519
▁degrees	-10.3531
▁ka	-10.3561
▁counting	-10.3563
▁singer	-10.3569
▁reporting	-10.3576
▁blocks	-10.3581
ily	-10.3585
▁sins	-10.3598
▁younger	-10.3606
▁kit	-10.3606
▁mill	-10.3621
▁enjoying	-10.3623
▁ph	-10.3626
▁signed	-10.3634
▁steps	-10.3634
▁fate	-10.3638
▁hearts	-10.3643
▁reports	-10.3657
▁neighbors	-10.366
que	-10.3671
▁waves	-10.3676
ound	-10.3689
▁reporters	-10.3693
ky	-10.3694
▁systems	-10.3696
▁homey	-10.3749
▁ga	-10.3758
▁path	-10.3804
▁ul	-10.383
val	-10.3832
▁touching	-10.3836
▁shoulders	-10.3839
▁tro	-10.3845
▁odd	-10.3847
▁appear	-10.3852
▁spring	-10.3854
▁russians	-10.3855
▁tube	-10.3857
▁gut	-10.3866
low	-10.3867
▁tut	-10.3901
how	-10.391
port	-10.3913
▁of	-10.3928
▁deserves	-10.3938
▁trees	-10.397
▁for	-10.398
▁crimes	-10.3986
▁ce	-10.3993
ology	-10.4002
▁mates	-10.4009
▁flow	-10.4014
ox	-10.4021
ition	-10.403
▁screech	-10.4031
▁perform	-10.4033
▁remove	-10.405
play	-10.4053
▁object	-10.4063
▁commission	-10.4064
▁charm	-10.4065
▁ghosts	-10.4069
▁fuss	-10.4074
▁commit	-10.4075
▁establish	-10.4076
▁brick	-10.4078
▁bureau	-10.4078
▁cruel	-10.4078
▁occur	-10.4078
▁adventure	-10.4078
▁athens	-10.4078
▁generous	-10.4078
▁gloria	-10.4078
▁ignore	-10.4078
▁jericho	-10.4078
▁junior	-10.4078
▁kazakhstan	-10.4078
▁nickname	-10.4078
▁pattern	-10.4078
▁raheem	-10.4078
▁sacrifice	-10.4078
▁senior	-10.4078
▁squeak	-10.4078
▁squeeze	-10.4078
▁stammering	-10.4078
▁tatiana	-10.4078
▁uniform	-10.4078
▁voight	-10.4078
▁vouch	-10.4078
▁weii	-10.4078
▁wreck	-10.4078
▁xerxes	-10.4078
malcolm	-10.4078
▁humming	-10.4078
▁mosely	-10.4078
▁soap	-10.4078
▁glory	-10.4078
▁lecter	-10.4078
▁bartender	-10.4078
▁version	-10.4078
▁clarence	-10.4078
▁laisse	-10.4078
▁international	-10.4078
▁milano	-10.4078
▁culture	-10.4078
▁hallelujah	-10.4078
▁channel	-10.4078
▁mickey	-10.4079
▁studio	-10.4079
▁washington	-10.4079
▁hahaha	-10.4079
▁poker	-10.4079
▁demand	-10.4079
▁waitress	-10.4079
▁honour	-10.4079
▁newspaper	-10.4079
▁ripped	-10.4079
▁script	-10.4079
▁theory	-10.408
▁status	-10.408
▁mutters	-10.408
▁popular	-10.408
▁evie	-10.408
▁psychic	-10.408
▁solid	-10.4081
▁rookie	-10.4081
▁wore	-10.4081
▁aside	-10.4082
▁kong	-10.4082
▁facility	-10.4083
▁attica	-10.4083
▁winning	-10.4083
▁duck	-10.4083
▁lifestyle	-10.4084
▁cries	-10.4084
▁cassie	-10.4086
▁flare	-10.4087
lux	-10.4087
▁retreat	-10.4089
▁wallet	-10.4092
▁terror	-10.4093
▁scrap	-10.4093
▁grass	-10.4095
▁campers	-10.4097
▁cage	-10.4098
▁heroes	-10.41
fuck	-10.4102
▁nein	-10.4102
▁approve	-10.4103
▁ven	-10.4105
▁cheating	-10.4109
▁dudes	-10.4116
▁timing	-10.4123
▁hiya	-10.4123
▁becky	-10.4128
boy	-10.4129
▁goodnight	-10.413
▁riot	-10.4152
▁nicky	-10.4159
▁jud	-10.4166
▁wo	-10.4171
▁deeper	-10.4171
▁wide	-10.4172
ities	-10.4178
▁loaded	-10.4178
▁forced	-10.42
▁sweater	-10.4206
▁shorty	-10.4213
▁doer	-10.4214
▁relationships	-10.4235
ening	-10.4258
▁fal	-10.426
▁watches	-10.4267
▁cal	-10.4277
▁hostages	-10.4328
▁teams	-10.433
over	-10.4332
los	-10.4336
ward	-10.4385
car	-10.4389
▁bonds	-10.4398
▁at	-10.44
▁lads	-10.4405
▁friendly	-10.4452
▁waiter	-10.4465
▁ban	-10.4468
▁mil	-10.4499
▁images	-10.4504
▁twin	-10.4541
▁mon	-10.4572
ara	-10.4594
▁tire	-10.4605
▁rate	-10.4609
▁effect	-10.4614
▁treasure	-10.4615
▁term	-10.4619
oh	-10.4623
▁toward	-10.4624
▁print	-10.4625
▁incident	-10.4634
▁toy	-10.4646
▁cla	-10.4663
▁chicks	-10.468
▁fund	-10.4683
cub	-10.469
▁hits	-10.47
▁suite	-10.4717
cy	-10.4732
▁buzz	-10.4734
arm	-10.4734
iest	-10.4738
fucking	-10.4747
▁worlds	-10.4764
▁notes	-10.4766
▁likely	-10.4771
▁slip	-10.4774
▁voices	-10.4782
▁tim	-10.4784
▁pitch	-10.48
▁approach	-10.4801
▁jan	-10.4805
lock	-10.4809
▁concern	-10.4811
pin	-10.4822
place	-10.4822
▁jill	-10.4825
worth	-10.4825
▁iron	-10.4826
▁provide	-10.4829
▁medic	-10.4833
▁sparta	-10.4838
through	-10.4843
▁entertain	-10.4845
▁specific	-10.4847
gawa	-10.4847
▁affair	-10.4847
▁avenue	-10.4847
▁azamat	-10.4847
▁basketball	-10.4847
▁boitano	-10.4847
▁cecil	-10.4847
▁coincidence	-10.4847
▁elaine	-10.4847
▁eversmann	-10.4847
▁exclaims	-10.4847
▁fabulous	-10.4847
▁gretel	-10.4847
▁hockey	-10.4847
▁jazz	-10.4847
▁jungle	-10.4847
▁kennedy	-10.4847
▁klaven	-10.4847
▁leprechaun	-10.4847
▁lobby	-10.4847
▁mardukas	-10.4847
▁martelli	-10.4847
▁mercury	-10.4847
▁multiple	-10.4847
▁muslim	-10.4847
▁phoebe	-10.4847
▁pirate	-10.4847
▁precinct	-10.4847
▁religious	-10.4847
▁rifle	-10.4847
▁routine	-10.4847
▁sabrina	-10.4847
▁signature	-10.4847
▁similar	-10.4847
▁soprano	-10.4847
▁steady	-10.4847
▁sullivan	-10.4847
▁supply	-10.4847
▁thumping	-10.4847
▁uplink	-10.4847
▁vault	-10.4847
▁vodka	-10.4847
▁weiss	-10.4847
▁wouid	-10.4847
▁charity	-10.4847
▁constant	-10.4847
▁mutual	-10.4847
▁phase	-10.4847
▁sixteen	-10.4847
▁skull	-10.4847
▁sunshine	-10.4847
▁balance	-10.4847
▁cease	-10.4847
▁rabbit	-10.4847
▁spoil	-10.4847
▁stabbed	-10.4847
▁strict	-10.4847
▁troops	-10.4847
▁carveth	-10.4847
▁gently	-10.4847
▁prevent	-10.4847
▁thisll	-10.4847
▁drove	-10.4847
▁session	-10.4847
▁slater	-10.4847
▁debt	-10.4847
▁mayday	-10.4847
▁practical	-10.4847
▁journey	-10.4848
▁sammy	-10.4848
▁grabbed	-10.4848
▁eva	-10.4848
▁dodge	-10.4848
▁operator	-10.4848
▁organism	-10.4848
▁hailey	-10.4848
▁starving	-10.4848
▁bingo	-10.4848
▁appropriate	-10.4848
▁rattle	-10.4848
▁margot	-10.4848
▁profile	-10.4848
▁orphanage	-10.4848
▁groceries	-10.4849
▁scientist	-10.4849
▁jury	-10.4849
▁denise	-10.4849
▁clang	-10.4849
▁connie	-10.4849
▁sober	-10.4849
▁peach	-10.4849
▁zero	-10.4849
▁compare	-10.4849
▁disrespect	-10.485
▁fbl	-10.485
▁nwa	-10.485
▁scale	-10.485
▁anika	-10.485
▁alex	-10.485
▁foolish	-10.485
▁stuntman	-10.485
▁knight	-10.4851
▁robot	-10.4851
▁loan	-10.4852
▁lamb	-10.4852
▁apology	-10.4853
▁yup	-10.4853
▁murmuring	-10.4853
▁barking	-10.4854
ible	-10.4854
▁ninety	-10.4854
▁beef	-10.4854
▁soup	-10.4854
▁obsessed	-10.4855
▁sail	-10.4855
▁crown	-10.4855
▁dna	-10.4856
▁personality	-10.4856
▁flush	-10.4857
▁jane	-10.4857
▁hayes	-10.4857
▁fireball	-10.4858
▁painful	-10.4859
▁carried	-10.4859
▁bridget	-10.4859
▁blaring	-10.4863
▁production	-10.4863
▁plain	-10.4864
▁solo	-10.487
ami	-10.4872
▁anyways	-10.4873
▁provided	-10.4874
▁healthy	-10.488
▁spy	-10.4881
▁gray	-10.4884
▁setup	-10.4887
▁canceled	-10.4891
▁paulie	-10.4892
▁granted	-10.4892
▁impression	-10.4893
▁bub	-10.4897
▁stopping	-10.49
▁mixed	-10.4901
▁connected	-10.4904
▁released	-10.4906
▁civilians	-10.4913
▁confirmed	-10.4914
▁holly	-10.4917
▁boner	-10.4917
ppy	-10.4918
▁meantime	-10.4918
▁deserved	-10.4924
▁honks	-10.4932
▁brownie	-10.4933
▁chambers	-10.495
▁hooked	-10.4956
▁howdy	-10.4956
▁thin	-10.4958
▁lves	-10.4966
▁carefully	-10.4967
▁curse	-10.4967
▁shared	-10.4976
▁smash	-10.4984
za	-10.4997
▁fore	-10.5001
▁slams	-10.5006
▁nathe	-10.501
▁expecting	-10.5024
▁packing	-10.5024
▁reported	-10.5042
▁partners	-10.5054
let	-10.5056
▁boog	-10.5061
▁grounded	-10.5065
▁dancer	-10.5072
ong	-10.5078
▁ages	-10.5086
ties	-10.509
▁appears	-10.5097
▁ke	-10.5103
▁creeps	-10.5118
wo	-10.5147
▁circle	-10.515
▁covering	-10.5189
▁marg	-10.5195
▁bowl	-10.5196
ttie	-10.5211
▁kicking	-10.5212
gar	-10.5215
▁cleaned	-10.5221
▁mountains	-10.5231
▁pages	-10.5231
▁pla	-10.5237
▁nail	-10.5258
ena	-10.5266
latter	-10.527
ius	-10.5273
▁rec	-10.5285
▁chains	-10.5288
▁songs	-10.5296
mate	-10.5296
▁ml	-10.5299
▁thoughts	-10.5312
ative	-10.5316
▁gates	-10.5345
▁int	-10.537
ub	-10.5376
▁workin	-10.539
▁ri	-10.54
▁prep	-10.5415
▁vent	-10.5421
▁ni	-10.5427
▁tomb	-10.5433
tory	-10.5444
▁knee	-10.5461
▁lesson	-10.5471
▁angels	-10.548
▁mile	-10.5482
▁q	-10.5517
cal	-10.5539
▁killers	-10.5546
▁caused	-10.5565
position	-10.5584
room	-10.5585
tit	-10.5589
▁services	-10.5595
▁embarrass	-10.5597
▁it	-10.5629
▁palm	-10.563
▁feds	-10.5636
▁skip	-10.5637
▁gran	-10.5639
ula	-10.564
▁distract	-10.5641
▁intend	-10.5642
▁spill	-10.5642
work	-10.5642
▁receive	-10.5642
▁understanding	-10.5642
town	-10.5642
▁adopt	-10.5643
▁twist	-10.5644
wood	-10.565
▁mod	-10.5652
water	-10.5653
▁advise	-10.5653
▁shave	-10.5654
▁guilt	-10.5657
ville	-10.5657
▁dirt	-10.5657
field	-10.5658
break	-10.5658
school	-10.5659
▁bunk	-10.5661
roll	-10.5663
bl	-10.5666
▁current	-10.5666
▁lit	-10.5667
▁immediate	-10.5667
▁shove	-10.5667
▁potato	-10.5673
▁judgment	-10.5674
▁toot	-10.5677
▁mook	-10.5677
▁brutal	-10.5679
▁civil	-10.5679
▁orphan	-10.568
▁ethel	-10.568
▁maid	-10.568
▁lalala	-10.568
▁expert	-10.568
▁mystic	-10.5681
▁profit	-10.5681
▁april	-10.5681
▁benicio	-10.5681
▁cereal	-10.5681
▁chandler	-10.5681
▁circumstances	-10.5681
▁crisis	-10.5681
▁cruise	-10.5681
▁dejesus	-10.5681
▁equal	-10.5681
▁experiment	-10.5681
▁explosiveskull	-10.5681
▁fugazy	-10.5681
▁grief	-10.5681
▁homicide	-10.5681
▁institution	-10.5681
▁intruder	-10.5681
▁kwame	-10.5681
▁lorraine	-10.5681
▁lydia	-10.5681
▁mcbride	-10.5681
▁mckinley	-10.5681
▁mexican	-10.5681
▁oberoi	-10.5681
▁olympia	-10.5681
▁olympic	-10.5681
▁redneck	-10.5681
▁rendezvous	-10.5681
▁ruiz	-10.5681
▁sapper	-10.5681
▁satellite	-10.5681
▁skullfucker	-10.5681
▁someplace	-10.5681
▁temporary	-10.5681
▁tokyo	-10.5681
▁underground	-10.5681
▁volunteer	-10.5681
▁worries	-10.5681
▁zhang	-10.5681
▁afterwards	-10.5681
▁alpha	-10.5681
▁fortune	-10.5681
▁naughty	-10.5681
▁result	-10.5681
▁scott	-10.5681
▁whimpers	-10.5681
▁dawn	-10.5681
▁presence	-10.5681
▁mount	-10.5681
▁privacy	-10.5681
▁brakes	-10.5681
▁method	-10.5681
▁robbery	-10.5681
▁vocalizing	-10.5681
▁politics	-10.5681
▁torn	-10.5681
▁garci	-10.5681
▁tactic	-10.5681
▁with	-10.5681
▁joseph	-10.5681
▁snack	-10.5681
▁chirp	-10.5681
▁century	-10.5681
▁steer	-10.5681
▁clever	-10.5681
▁inaudible	-10.5681
▁patricia	-10.5681
▁pumpkin	-10.5682
▁membership	-10.5682
▁backwards	-10.5682
▁hicks	-10.5682
▁rashid	-10.5682
▁paperwork	-10.5682
▁towel	-10.5682
▁oak	-10.5682
▁edward	-10.5682
▁nina	-10.5682
▁sheet	-10.5682
▁sector	-10.5682
▁bride	-10.5683
▁lousy	-10.5683
▁cooperation	-10.5683
▁glue	-10.5683
▁grimes	-10.5683
▁moral	-10.5683
▁medication	-10.5683
▁pause	-10.5683
▁grandpa	-10.5684
▁paris	-10.5684
▁kris	-10.5684
▁negroes	-10.5685
▁flies	-10.5685
▁convention	-10.5686
▁grave	-10.5686
▁planned	-10.5686
▁footage	-10.5687
▁godfather	-10.5687
▁reservation	-10.5687
▁wel	-10.5687
▁restraint	-10.5688
▁alley	-10.5688
duct	-10.5689
▁african	-10.5689
▁forest	-10.5689
▁stall	-10.569
▁bonus	-10.569
▁expression	-10.5691
▁intense	-10.5691
▁medal	-10.5692
▁pinch	-10.5692
▁broom	-10.5692
▁ballet	-10.5694
▁chor	-10.5694
▁shaking	-10.5696
▁range	-10.5696
▁trapped	-10.5698
▁possession	-10.5699
▁filles	-10.57
▁sets	-10.57
▁sickness	-10.5703
▁negotiate	-10.5703
▁mud	-10.5704
▁takin	-10.5704
▁propose	-10.5705
▁drum	-10.5705
▁reasonable	-10.5708
▁pm	-10.5709
▁haunted	-10.5709
▁bunker	-10.571
▁souls	-10.5711
▁armor	-10.5711
▁mmmm	-10.5716
▁roaring	-10.5716
imately	-10.5719
▁dime	-10.572
▁eaten	-10.5721
▁title	-10.5722
▁factor	-10.5727
▁delivery	-10.5731
▁ali	-10.5736
▁stillson	-10.5736
▁charming	-10.5737
▁performing	-10.5738
▁normally	-10.5743
▁chimes	-10.5752
▁shocked	-10.5756
▁escaped	-10.5758
▁triple	-10.5767
ray	-10.577
▁her	-10.5773
▁defeat	-10.5773
▁designed	-10.5775
▁brad	-10.5778
▁bells	-10.5781
▁stronger	-10.5784
▁spartans	-10.5792
▁burgers	-10.5792
▁terrorists	-10.5793
▁bu	-10.5793
▁bothered	-10.5796
▁damon	-10.58
▁wifes	-10.58
▁washed	-10.5818
▁counter	-10.5826
▁boobs	-10.5832
▁hunting	-10.5839
▁texted	-10.5842
▁gags	-10.5853
▁tons	-10.5856
▁parked	-10.5866
ddam	-10.5873
▁buggin	-10.588
▁ari	-10.5881
▁messed	-10.5882
▁pissing	-10.589
▁creatures	-10.5894
▁landed	-10.5896
gs	-10.59
▁sucked	-10.5914
tch	-10.5917
▁contribut	-10.593
▁terms	-10.5935
▁guts	-10.5955
iy	-10.5958
▁suits	-10.5964
▁gig	-10.5972
▁moans	-10.5977
▁ber	-10.5982
▁behave	-10.5988
▁alis	-10.5994
▁les	-10.5997
▁strangers	-10.6003
▁cases	-10.6014
▁dar	-10.6015
▁clouds	-10.6038
rk	-10.604
▁events	-10.6064
▁products	-10.6079
▁moves	-10.6087
ologist	-10.6088
ugh	-10.6092
▁patients	-10.61
▁buns	-10.611
ike	-10.6114
▁latte	-10.6122
▁noises	-10.6162
▁apples	-10.6162
even	-10.6189
▁ko	-10.62
▁models	-10.6227
lam	-10.6236
▁characters	-10.6245
▁pep	-10.6253
ama	-10.6264
▁jokes	-10.6265
jo	-10.6288
▁agents	-10.6307
▁bert	-10.6308
ita	-10.6329
▁kings	-10.6342
▁begins	-10.635
▁gu	-10.6352
▁nightmare	-10.6355
▁threat	-10.6356
▁egg	-10.6357
▁creature	-10.6362
▁degree	-10.6363
pot	-10.6366
mon	-10.637
part	-10.6371
▁toe	-10.6385
cer	-10.6398
▁cracker	-10.6399
▁stroke	-10.6425
press	-10.6435
▁tables	-10.6436
▁colombia	-10.645
▁au	-10.6487
▁jeans	-10.6514
looking	-10.6519
bi	-10.652
load	-10.6524
▁steel	-10.6536
▁typ	-10.6543
▁speaker	-10.655
▁depart	-10.655
▁recover	-10.6551
▁register	-10.6551
▁wig	-10.6551
▁rag	-10.6555
▁reveal	-10.6555
▁bree	-10.6564
▁appro	-10.6565
book	-10.6565
▁actions	-10.6567
tive	-10.6567
▁hum	-10.6574
▁whoohoo	-10.6577
box	-10.6577
▁examine	-10.6578
▁cuba	-10.658
▁africa	-10.6581
▁makin	-10.6586
▁harris	-10.6586
sistance	-10.6587
▁journal	-10.6587
▁comfort	-10.6587
▁conscious	-10.6588
▁homosexual	-10.6588
▁electric	-10.6588
misunderstanding	-10.659
responsibilities	-10.659
▁accurate	-10.659
▁argument	-10.659
▁aurora	-10.659
▁average	-10.659
▁awkward	-10.659
▁baxter	-10.659
▁benefit	-10.659
▁brooklyn	-10.659
▁bruise	-10.659
▁brush	-10.659
▁catherine	-10.659
▁cheetah	-10.659
▁conference	-10.659
▁daedalus	-10.659
▁description	-10.659
▁dilip	-10.659
▁district	-10.659
▁dolores	-10.659
▁dorfler	-10.659
▁easily	-10.659
▁enemies	-10.659
▁grogan	-10.659
▁height	-10.659
▁horror	-10.659
▁kuribayashi	-10.659
▁leather	-10.659
▁mabel	-10.659
▁monitor	-10.659
▁moretti	-10.659
▁nielson	-10.659
▁nipple	-10.659
▁orgasm	-10.659
▁orleans	-10.659
▁peanut	-10.659
▁rachael	-10.659
▁razor	-10.659
▁reckon	-10.659
▁resort	-10.659
▁revelle	-10.659
▁servant	-10.659
▁snoop	-10.659
▁submarine	-10.659
▁succeed	-10.659
▁symptoms	-10.659
▁sync	-10.659
▁taguchi	-10.659
▁tappan	-10.659
▁teresa	-10.659
▁thanksgiving	-10.659
▁uzi	-10.659
▁wendell	-10.659
▁butterfly	-10.659
▁complex	-10.659
▁doodoo	-10.659
▁erotic	-10.659
▁howre	-10.659
▁instant	-10.659
▁ounce	-10.659
▁tampon	-10.659
▁wyler	-10.659
▁entry	-10.659
▁ferry	-10.659
▁forgotten	-10.659
▁palace	-10.659
▁stalking	-10.659
▁appeal	-10.659
▁brogan	-10.659
▁kerry	-10.659
▁laughlin	-10.659
▁novel	-10.659
▁stephen	-10.659
▁yelp	-10.659
▁delay	-10.659
▁ease	-10.659
▁desire	-10.659
▁slick	-10.659
▁fond	-10.659
▁luv	-10.659
▁gorgo	-10.659
▁gracie	-10.659
▁stepped	-10.659
▁kidnapping	-10.659
▁drummer	-10.659
▁political	-10.659
▁orange	-10.659
▁nap	-10.6591
▁construction	-10.6591
▁teenage	-10.6591
▁capital	-10.6591
▁after	-10.6591
▁genetic	-10.6591
▁frame	-10.6591
▁limp	-10.6591
▁rumor	-10.6592
▁childhood	-10.6592
▁legend	-10.6592
▁shrink	-10.6592
▁static	-10.6592
▁marine	-10.6592
▁morton	-10.6593
▁blanc	-10.6593
▁arabic	-10.6593
▁satisfied	-10.6593
▁label	-10.6593
▁debra	-10.6594
▁urge	-10.6594
▁sarah	-10.6594
▁soil	-10.6594
▁selfish	-10.6595
▁elton	-10.6595
▁headache	-10.6595
▁neat	-10.6596
▁bowman	-10.6596
▁comic	-10.6596
▁technically	-10.6597
▁wax	-10.6597
▁copper	-10.6597
stone	-10.6598
▁clap	-10.6598
five	-10.6598
▁engaged	-10.6599
▁motorcycle	-10.6599
▁reaction	-10.6602
▁bose	-10.6602
▁battery	-10.6603
▁fried	-10.6603
▁bind	-10.6605
▁currently	-10.6605
▁diego	-10.6606
▁cure	-10.6607
▁published	-10.6608
cient	-10.6608
▁runner	-10.6608
▁visitor	-10.6609
▁passion	-10.6609
▁specialty	-10.661
▁emily	-10.661
▁cooper	-10.6611
▁flagg	-10.6611
▁involve	-10.6612
▁sixty	-10.6614
▁pub	-10.6614
▁dates	-10.6616
▁conf	-10.662
▁kink	-10.6622
▁bagel	-10.6624
▁stoner	-10.6627
▁yale	-10.6629
▁begging	-10.6632
▁lifetime	-10.6633
▁jackie	-10.664
▁dan	-10.6642
▁recall	-10.6647
▁rage	-10.6647
▁tide	-10.6648
▁lapd	-10.6648
▁boxes	-10.665
▁abuse	-10.6652
▁bent	-10.6653
▁del	-10.6656
▁served	-10.6659
▁experiences	-10.6661
▁hurting	-10.6664
▁poisoning	-10.6666
▁palmer	-10.6677
▁pile	-10.6681
▁calculat	-10.6701
▁affect	-10.6704
▁carter	-10.6708
▁supplies	-10.6711
▁screwing	-10.6731
▁fairy	-10.6742
▁hooker	-10.6742
▁damned	-10.6764
▁freaking	-10.6768
▁concentrate	-10.6771
▁boo	-10.6784
▁ham	-10.6791
▁amb	-10.6794
▁evans	-10.6802
▁shitting	-10.6806
ever	-10.6811
▁toes	-10.6837
▁bars	-10.684
▁offering	-10.6843
▁leading	-10.6848
▁makeup	-10.6854
tle	-10.6855
▁ace	-10.6863
▁pushing	-10.6873
▁funds	-10.6873
▁def	-10.6873
▁enjoyed	-10.6875
▁landing	-10.6891
▁shown	-10.6902
▁fur	-10.6906
▁squ	-10.6906
▁diamonds	-10.6915
▁recorded	-10.6915
ung	-10.6917
ved	-10.6925
▁ol	-10.6933
▁ye	-10.6951
ient	-10.6951
▁til	-10.6951
▁robe	-10.6952
▁cents	-10.6959
▁coo	-10.6966
▁tears	-10.6987
▁holes	-10.699
his	-10.6994
▁oi	-10.7005
▁caves	-10.7006
iii	-10.7024
▁options	-10.7028
fore	-10.7043
▁lane	-10.7048
▁mario	-10.7066
▁trie	-10.7074
▁answered	-10.7102
▁rear	-10.7103
▁promises	-10.7118
▁bullets	-10.712
▁cleared	-10.7123
shit	-10.7124
▁admire	-10.7127
▁lovers	-10.7133
▁matthews	-10.7166
ka	-10.7175
ack	-10.7175
▁sales	-10.7187
▁sn	-10.7226
▁cel	-10.7241
▁sigh	-10.7243
▁falls	-10.7256
▁stands	-10.7267
ckle	-10.7298
▁furn	-10.7299
ger	-10.7303
▁targets	-10.7327
stand	-10.7333
▁buck	-10.7346
▁gal	-10.7352
▁trunk	-10.7357
▁blade	-10.7358
▁daddys	-10.7359
▁rapid	-10.7362
▁slave	-10.7363
▁survivor	-10.7364
apped	-10.7365
▁sock	-10.7366
▁folk	-10.7368
▁listened	-10.7377
▁evan	-10.7377
▁fade	-10.7382
▁contracts	-10.7388
▁popp	-10.7395
rated	-10.74
▁prayer	-10.7414
▁boats	-10.743
uce	-10.7438
▁hy	-10.7439
▁leader	-10.7443
▁lip	-10.746
▁clip	-10.7487
erto	-10.7493
▁organ	-10.7512
▁motherfuck	-10.7524
▁medi	-10.7541
met	-10.7541
mer	-10.7542
▁lick	-10.7545
▁pleased	-10.7546
▁flood	-10.755
▁pour	-10.755
▁punish	-10.7552
▁abandon	-10.7553
▁heal	-10.7553
▁ec	-10.7559
▁dec	-10.7565
free	-10.7568
▁contain	-10.7574
▁begg	-10.7577
sam	-10.758
▁steam	-10.7585
▁puss	-10.7585
▁dais	-10.7586
▁transport	-10.7588
▁euro	-10.759
▁occasion	-10.759
▁reception	-10.759
▁achieve	-10.759
▁aight	-10.759
▁arsehole	-10.759
▁athenian	-10.759
▁caitlin	-10.759
▁campaign	-10.759
▁carpenter	-10.759
▁celebrating	-10.759
▁cleveland	-10.759
▁colleague	-10.759
▁disorder	-10.759
▁divine	-10.759
▁division	-10.759
▁dublin	-10.759
▁enforcement	-10.759
▁enormous	-10.759
▁entrance	-10.759
▁espresso	-10.759
▁execution	-10.759
▁frankenstein	-10.759
▁fridge	-10.759
▁glorious	-10.759
▁hoffman	-10.759
▁implosion	-10.759
▁individual	-10.759
▁infirmary	-10.759
▁inspector	-10.759
▁inviting	-10.759
▁jigsaw	-10.759
▁library	-10.759
▁michelle	-10.759
▁mysterious	-10.759
▁mystery	-10.759
▁namaste	-10.759
▁observe	-10.759
▁opposite	-10.759
▁orchestra	-10.759
▁patrice	-10.759
▁phyllis	-10.759
▁possibilities	-10.759
▁purchase	-10.759
▁quarantine	-10.759
▁remote	-10.759
▁schraeder	-10.759
▁scotch	-10.759
▁scumbag	-10.759
▁shark	-10.759
▁shepard	-10.759
▁structure	-10.759
▁syndrome	-10.759
▁temperature	-10.759
▁tweet	-10.759
▁twombly	-10.759
▁underneath	-10.759
▁underwear	-10.759
▁violation	-10.759
▁voodoo	-10.759
▁wednesday	-10.759
▁attach	-10.759
▁banana	-10.759
▁bribe	-10.759
▁buzzsaw	-10.759
▁casual	-10.759
▁clerk	-10.759
▁clinic	-10.759
▁convoy	-10.759
▁cuff	-10.759
▁devon	-10.759
▁fingerprints	-10.759
▁function	-10.759
▁hiphop	-10.759
▁hysterical	-10.759
▁mumbai	-10.759
▁niece	-10.759
▁outlaws	-10.759
▁policy	-10.759
▁prime	-10.759
▁shelf	-10.759
▁strapped	-10.759
▁angie	-10.759
▁cuz	-10.759
▁frog	-10.759
▁sherman	-10.759
▁unarmed	-10.759
▁muttering	-10.759
▁sample	-10.759
▁generation	-10.759
▁superior	-10.759
▁flirt	-10.759
shoulda	-10.759
▁corrupt	-10.759
▁studied	-10.759
▁tragedy	-10.759
▁fold	-10.759
▁personnel	-10.759
▁dennis	-10.759
▁heather	-10.759
▁inappropriate	-10.759
▁mumbles	-10.759
▁residenc	-10.759
▁surface	-10.759
▁kryptonite	-10.759
▁plague	-10.759
▁impact	-10.759
▁shiny	-10.759
▁sacred	-10.759
▁cried	-10.759
▁imagination	-10.759
▁reiner	-10.759
▁pulse	-10.759
▁dodd	-10.759
▁hammer	-10.759
▁johan	-10.759
▁alibi	-10.759
▁mackey	-10.759
▁dorm	-10.759
▁jenny	-10.759
▁mumbling	-10.759
▁surgery	-10.759
▁spray	-10.759
▁tanner	-10.759
▁francisco	-10.759
▁lease	-10.759
▁jelly	-10.759
▁buff	-10.7591
▁pledge	-10.7591
▁obsession	-10.7591
▁radiation	-10.7591
▁yankee	-10.7591
▁babysitter	-10.7591
▁eleven	-10.7591
▁pimp	-10.7591
▁destruction	-10.7591
▁nino	-10.7591
▁aggressive	-10.7591
▁infected	-10.7591
▁excitement	-10.7591
▁creative	-10.7591
▁whys	-10.7591
▁toad	-10.7591
▁heii	-10.7591
▁upper	-10.7591
▁luis	-10.7592
▁passport	-10.7592
▁subway	-10.7592
▁navy	-10.7592
▁fleet	-10.7592
▁rubber	-10.7592
▁transportation	-10.7592
▁root	-10.7592
▁british	-10.7592
▁harsh	-10.7592
▁newscast	-10.7592
▁tapping	-10.7593
▁western	-10.7593
▁domin	-10.7593
▁slash	-10.7593
▁column	-10.7593
▁caine	-10.7593
▁edition	-10.7593
▁brotherhood	-10.7594
▁swat	-10.7594
▁convict	-10.7594
▁clive	-10.7594
▁maxine	-10.7594
▁toll	-10.7594
▁motion	-10.7595
▁foul	-10.7595
▁virginity	-10.7595
▁sara	-10.7596
▁controlled	-10.7596
▁unlock	-10.7596
▁robbie	-10.7596
cut	-10.7596
▁cities	-10.7597
▁decent	-10.7597
▁flaw	-10.7597
▁math	-10.7599
▁tess	-10.76
▁muthafucka	-10.76
▁darn	-10.7601
▁regard	-10.7601
▁filthy	-10.7602
▁chew	-10.7602
▁addicted	-10.7604
▁rise	-10.7605
▁receiver	-10.7605
▁blues	-10.7607
▁threatened	-10.7608
▁collection	-10.7609
▁commissioner	-10.7611
▁campus	-10.7611
▁ev	-10.7612
▁disappointed	-10.7613
▁superman	-10.7615
▁threatening	-10.7615
▁tina	-10.7615
▁haha	-10.7616
▁surrounded	-10.7616
▁particularly	-10.7616
▁properly	-10.7616
▁replaced	-10.7617
▁setting	-10.7619
▁zoom	-10.7619
▁complaint	-10.7621
▁taik	-10.7621
▁clothing	-10.7623
▁physically	-10.7624
▁limited	-10.7624
▁vern	-10.7624
▁spoken	-10.7625
▁sixth	-10.7626
▁traditional	-10.7627
▁ree	-10.7627
lm	-10.7628
▁noble	-10.7629
▁cargo	-10.7629
▁discussion	-10.7629
▁colors	-10.7629
▁suggestion	-10.7631
▁revealed	-10.7632
▁brandy	-10.7633
▁freezer	-10.7634
▁standup	-10.7638
▁mid	-10.7642
▁photographer	-10.7642
▁passes	-10.7642
▁legit	-10.7647
▁herb	-10.7648
▁sew	-10.7648
▁explosives	-10.7652
▁humvees	-10.7652
▁she	-10.7655
▁bully	-10.7656
▁pier	-10.7661
▁forty	-10.7661
▁figures	-10.7668
▁ew	-10.7671
▁suggested	-10.7673
▁digit	-10.7677
▁badass	-10.7679
▁blown	-10.768
▁assure	-10.7688
▁beston	-10.7697
▁shortly	-10.7703
▁boyz	-10.7704
▁not	-10.7705
▁fist	-10.7706
▁boot	-10.7709
▁smaller	-10.7713
▁talented	-10.7726
▁melt	-10.7729
▁polit	-10.773
▁chasing	-10.7731
▁studying	-10.7731
▁vice	-10.7731
▁ze	-10.7734
iving	-10.7736
▁gotcha	-10.7737
▁mag	-10.7738
ital	-10.7759
▁feeding	-10.7762
▁nig	-10.7764
▁slipp	-10.7769
▁loading	-10.7773
▁considering	-10.7773
▁demons	-10.7776
▁colored	-10.7777
▁wayne	-10.7778
▁ir	-10.7779
▁jewel	-10.7783
▁honored	-10.7787
▁cookies	-10.7788
▁roller	-10.779
rr	-10.7791
▁coins	-10.7801
▁tracking	-10.7804
▁corners	-10.7809
▁rd	-10.7816
▁horns	-10.7817
▁fades	-10.7826
▁mat	-10.7826
ore	-10.7827
▁gil	-10.7837
▁rolled	-10.7842
▁stud	-10.7851
▁ny	-10.7868
nium	-10.787
▁trainer	-10.7877
▁thinkin	-10.7893
▁prints	-10.7901
▁gee	-10.7907
plng	-10.7915
law	-10.7918
▁laying	-10.7946
▁sucking	-10.7953
▁tab	-10.796
▁plates	-10.7976
▁fishing	-10.7981
▁plants	-10.7984
ford	-10.8001
▁pops	-10.8012
star	-10.8025
▁sings	-10.8028
▁vera	-10.8028
▁peep	-10.8036
▁booked	-10.8036
▁ave	-10.8074
pol	-10.8091
lly	-10.813
▁comb	-10.8137
▁der	-10.8149
▁walker	-10.8152
▁cy	-10.816
ological	-10.8169
▁reed	-10.8171
▁jun	-10.8199
▁fu	-10.8218
▁files	-10.8258
▁sur	-10.8269
▁bears	-10.8287
iff	-10.83
▁badly	-10.8309
▁bombs	-10.8314
▁chickens	-10.8318
▁fools	-10.8336
▁tan	-10.8353
ink	-10.8369
gged	-10.8372
▁coordinate	-10.8405
eth	-10.8406
izing	-10.841
▁claims	-10.8411
▁slam	-10.8432
▁grunt	-10.8437
▁mars	-10.8453
▁opinion	-10.8466
▁holiday	-10.8468
▁wrist	-10.8468
▁breast	-10.8468
▁shoe	-10.8482
▁messages	-10.8507
▁here	-10.8508
ado	-10.8513
▁gag	-10.8519
▁translate	-10.8519
▁coin	-10.853
▁tricks	-10.8531
ife	-10.855
▁bois	-10.8556
▁nicely	-10.8574
sky	-10.8589
▁ton	-10.8599
▁cheat	-10.8617
faced	-10.8623
ano	-10.8626
▁what	-10.8627
▁ak	-10.8628
▁mu	-10.8632
bu	-10.8641
▁roar	-10.8659
▁thrill	-10.8662
▁limit	-10.8663
▁haunt	-10.8663
▁discover	-10.8664
▁rev	-10.8666
ought	-10.8667
rrow	-10.8674
▁relate	-10.8674
beat	-10.8676
girl	-10.8679
like	-10.8681
class	-10.8682
▁custom	-10.8682
what	-10.8683
▁grind	-10.8686
person	-10.8686
fall	-10.8687
▁weigh	-10.8687
burg	-10.8687
▁challenge	-10.8692
two	-10.8693
▁tomato	-10.8693
▁drivers	-10.8693
▁emotion	-10.8694
lie	-10.8694
ject	-10.8696
▁livin	-10.8696
▁runnin	-10.8697
▁mort	-10.8698
ware	-10.8698
▁invest	-10.8699
▁serge	-10.87
oul	-10.87
▁trauma	-10.87
▁vietnam	-10.8701
▁commence	-10.8701
▁education	-10.8701
▁luther	-10.8701
▁permit	-10.8701
▁academy	-10.8701
▁agnes	-10.8701
▁alicia	-10.8701
▁anxious	-10.8701
▁bishop	-10.8701
▁bourbon	-10.8701
▁brandnew	-10.8701
▁budget	-10.8701
▁cadillac	-10.8701
▁canaris	-10.8701
▁candice	-10.8701
▁choir	-10.8701
▁choke	-10.8701
▁columbia	-10.8701
▁conspiracy	-10.8701
▁dammit	-10.8701
▁debbie	-10.8701
▁defensive	-10.8701
▁deput	-10.8701
▁destiny	-10.8701
▁dialogue	-10.8701
▁disaster	-10.8701
▁eagle	-10.8701
▁eclipse	-10.8701
▁electronic	-10.8701
▁fantasies	-10.8701
▁fascinating	-10.8701
▁fugitive	-10.8701
▁garrison	-10.8701
▁grutas	-10.8701
▁hummus	-10.8701
▁identified	-10.8701
▁industry	-10.8701
▁intimate	-10.8701
▁jeopard	-10.8701
▁joadson	-10.8701
▁knives	-10.8701
▁kosher	-10.8701
▁lgbt	-10.8701
▁liquor	-10.8701
▁mccormick	-10.8701
▁mercedes	-10.8701
▁michigan	-10.8701
▁moltisanti	-10.8701
▁montgomery	-10.8701
▁nephew	-10.8701
▁nuclear	-10.8701
▁observation	-10.8701
▁ordinary	-10.8701
▁overreact	-10.8701
▁paddle	-10.8701
▁patience	-10.8701
▁protocol	-10.8701
▁psychopath	-10.8701
▁purple	-10.8701
▁reschedule	-10.8701
▁rumspringa	-10.8701
▁sargnt	-10.8701
▁struggle	-10.8701
▁supermarket	-10.8701
▁supper	-10.8701
▁surveillance	-10.8701
▁talbot	-10.8701
▁therapist	-10.8701
▁transmission	-10.8701
▁unavailable	-10.8701
▁volume	-10.8701
▁wheez	-10.8701
▁woodsboro	-10.8701
▁buffalo	-10.8701
▁cannon	-10.8701
▁chisso	-10.8701
▁depressed	-10.8701
▁donny	-10.8701
▁jinx	-10.8701
▁lenore	-10.8701
▁relieve	-10.8701
▁rican	-10.8701
▁sheep	-10.8701
▁tevin	-10.8701
▁update	-10.8701
▁warrior	-10.8701
▁affirmative	-10.8701
▁coffin	-10.8701
▁liddy	-10.8701
▁torch	-10.8701
▁gregory	-10.8701
▁sharing	-10.8701
▁chiming	-10.8701
▁dorn	-10.8701
▁sasha	-10.8701
▁grits	-10.8701
▁pond	-10.8701
▁mercy	-10.8701
▁snatch	-10.8701
▁negotiation	-10.8701
▁repair	-10.8701
▁skank	-10.8701
▁wives	-10.8701
▁annette	-10.8701
▁despi	-10.8702
▁exchange	-10.8702
▁creek	-10.8702
▁picnic	-10.8702
▁barks	-10.8702
▁suze	-10.8702
▁susie	-10.8702
▁beatles	-10.8702
▁forehead	-10.8702
▁prank	-10.8702
sili	-10.8702
▁dragged	-10.8702
▁reverse	-10.8702
▁bryan	-10.8702
▁esu	-10.8702
▁leak	-10.8702
▁branch	-10.8702
▁grill	-10.8702
▁patriot	-10.8702
▁marathon	-10.8702
▁circuit	-10.8702
▁mmmmmm	-10.8703
▁conduct	-10.8703
▁motive	-10.8703
▁display	-10.8703
▁grip	-10.8703
▁butthole	-10.8703
▁bucket	-10.8703
▁owns	-10.8703
▁communist	-10.8703
▁disney	-10.8703
▁assistance	-10.8703
▁dozen	-10.8703
▁whatll	-10.8703
▁exclusive	-10.8704
▁massage	-10.8704
▁warren	-10.8704
▁lockwood	-10.8704
▁australian	-10.8704
▁clapping	-10.8704
▁denver	-10.8704
▁hatred	-10.8704
▁scent	-10.8704
▁tiger	-10.8704
▁heartbeat	-10.8705
▁skinny	-10.8705
▁drama	-10.8705
▁romeo	-10.8705
▁iv	-10.8705
▁motor	-10.8705
▁irish	-10.8705
▁rack	-10.8705
▁beings	-10.8705
▁dots	-10.8705
▁harrison	-10.8705
▁boogie	-10.8705
▁hush	-10.8705
▁task	-10.8705
▁aboard	-10.8706
▁bugger	-10.8706
▁fever	-10.8706
▁glen	-10.8707
▁puke	-10.8707
▁obey	-10.8707
▁blah	-10.8707
▁inches	-10.8707
▁rice	-10.8707
▁nearby	-10.8708
▁solution	-10.8708
kay	-10.8708
▁suspended	-10.8708
▁bible	-10.8708
▁luci	-10.8709
▁mast	-10.8709
▁fran	-10.8709
▁roldy	-10.8711
▁tripping	-10.8712
▁executed	-10.8712
▁ann	-10.8714
▁peterson	-10.8714
inch	-10.8714
▁agreement	-10.8715
▁meanwhile	-10.8715
▁mall	-10.8716
rel	-10.8717
▁skies	-10.8717
▁relative	-10.8718
▁inner	-10.8719
▁teen	-10.8719
▁spain	-10.8719
▁quid	-10.872
▁bench	-10.8721
▁weeping	-10.8721
▁tech	-10.8722
▁slightly	-10.8726
▁joi	-10.8726
▁invented	-10.8726
▁mole	-10.8726
▁vest	-10.8726
away	-10.8726
▁backyard	-10.8727
▁sandwiches	-10.8728
▁homo	-10.8728
▁coma	-10.8729
▁bucky	-10.8729
▁polly	-10.873
▁aid	-10.8731
▁pity	-10.8734
▁pitt	-10.8736
▁officially	-10.8737
▁apply	-10.8744
▁punished	-10.8744
▁creepy	-10.8744
▁nest	-10.8745
▁angela	-10.8747
▁pole	-10.8747
izz	-10.8749
▁payment	-10.8765
▁steele	-10.8767
▁mini	-10.8769
▁shutter	-10.8769
▁poo	-10.877
▁veins	-10.8771
▁killian	-10.8771
▁trailer	-10.8772
▁suffered	-10.8776
▁showers	-10.8777
▁warned	-10.878
▁earned	-10.8786
▁carson	-10.8787
▁finale	-10.879
▁warmer	-10.879
▁settled	-10.8791
▁instruct	-10.8793
▁latest	-10.8795
▁cater	-10.8796
▁ana	-10.8796
▁assist	-10.8796
▁beliefs	-10.8798
▁kindness	-10.8803
▁idiots	-10.8805
ole	-10.881
▁announce	-10.8814
▁focused	-10.8817
▁survived	-10.8817
▁pope	-10.8819
dunk	-10.882
▁hunger	-10.8828
▁tada	-10.8829
▁shocking	-10.8831
▁stoney	-10.8839
▁switched	-10.884
▁shithead	-10.8848
ipped	-10.8848
▁graduat	-10.885
▁gloves	-10.8853
▁ap	-10.8854
▁donuts	-10.8854
▁sources	-10.8854
▁paintings	-10.8855
▁formal	-10.8863
▁smiley	-10.8864
▁proved	-10.8871
▁arty	-10.8872
▁aes	-10.8875
▁searched	-10.8876
▁freaked	-10.8876
▁smiled	-10.8877
▁bio	-10.8879
▁grenades	-10.8882
▁cheeks	-10.8882
▁rangers	-10.8887
▁cracking	-10.8888
▁rig	-10.8893
take	-10.8906
▁beans	-10.8907
▁ki	-10.8909
▁candles	-10.891
▁smoked	-10.8925
nish	-10.8935
▁tur	-10.8936
▁crossed	-10.8945
▁and	-10.8945
▁sticky	-10.8947
▁returned	-10.895
▁imperi	-10.8964
▁ob	-10.8975
▁ai	-10.8976
▁threats	-10.8995
▁hype	-10.9002
▁sniffl	-10.9005
▁crashing	-10.9007
▁locker	-10.9008
▁por	-10.9012
▁by	-10.9014
van	-10.9019
▁lessons	-10.9023
atch	-10.9026
▁protecting	-10.9029
ou	-10.903
ode	-10.9034
blo	-10.9037
▁safely	-10.9039
▁bl	-10.904
▁poet	-10.9051
▁effects	-10.9051
▁snapp	-10.9055
▁twins	-10.9056
▁pill	-10.9058
▁stealing	-10.907
▁pizzas	-10.9073
▁guards	-10.9073
▁banks	-10.9077
▁odds	-10.9079
bound	-10.9082
talk	-10.909
▁tent	-10.909
▁needle	-10.9091
▁tubes	-10.9093
▁joining	-10.9097
▁counts	-10.9113
▁prop	-10.9127
▁bend	-10.9157
▁canadians	-10.9165
▁cousins	-10.9165
▁tunnels	-10.9165
▁turner	-10.9169
▁explaining	-10.9174
▁mayer	-10.9176
▁net	-10.9188
▁sticking	-10.9188
▁chops	-10.9196
▁camps	-10.9196
▁bla	-10.9217
▁recording	-10.9219
▁shifts	-10.9222
▁clubs	-10.9236
▁adjust	-10.9242
▁admir	-10.9242
▁bor	-10.9244
▁tender	-10.9245
▁tag	-10.9274
minent	-10.9289
▁vet	-10.9299
▁deed	-10.9303
tina	-10.9308
ofa	-10.9309
▁prov	-10.931
▁adams	-10.9333
▁broads	-10.9337
▁il	-10.9341
▁disappears	-10.9392
▁sis	-10.9394
▁bangs	-10.9428
pd	-10.9457
▁teachers	-10.9479
▁criminals	-10.9481
erra	-10.9516
▁jacked	-10.9518
▁condo	-10.9523
▁hem	-10.9535
▁sk	-10.9573
▁toi	-10.9615
tte	-10.9655
▁fields	-10.9657
▁masters	-10.9661
cle	-10.9664
▁cough	-10.9681
lis	-10.9704
▁amateur	-10.9715
aged	-10.9718
▁candle	-10.9719
▁demon	-10.9732
▁bean	-10.9737
▁cookie	-10.9739
▁musical	-10.9745
▁just	-10.9751
eastern	-10.9758
lash	-10.9773
itch	-10.9786
▁bur	-10.9786
▁pec	-10.9793
▁bounc	-10.9795
▁writ	-10.9799
▁imitat	-10.9804
test	-10.9806
corn	-10.9822
▁seek	-10.9834
▁boob	-10.9843
▁mush	-10.9852
▁snor	-10.9869
▁nor	-10.9885
called	-10.9894
▁crunch	-10.9902
▁strain	-10.9911
▁soak	-10.9913
▁junk	-10.9918
▁arrange	-10.9921
▁retire	-10.9922
▁uni	-10.9924
▁capture	-10.9926
holland	-10.9927
snake	-10.9929
husband	-10.9929
year	-10.9929
▁replace	-10.9931
well	-10.9931
issue	-10.9932
nuck	-10.9932
type	-10.9932
▁blond	-10.9934
block	-10.9934
▁intens	-10.9936
▁permanent	-10.9936
phone	-10.9936
▁abort	-10.9939
▁create	-10.994
▁reserv	-10.9942
made	-10.9944
tara	-10.9945
▁germ	-10.9948
uzz	-10.9949
▁immun	-10.9949
▁confident	-10.995
▁opera	-10.995
▁courage	-10.995
▁plot	-10.995
▁interfer	-10.9951
▁dahdah	-10.9951
▁disagree	-10.9951
▁savage	-10.9951
▁accomplice	-10.9951
▁acknowledge	-10.9951
▁algeria	-10.9951
▁alternative	-10.9951
▁amsterdam	-10.9951
▁arizona	-10.9951
▁artificial	-10.9951
▁atlanta	-10.9951
▁bachelor	-10.9951
▁bannerman	-10.9951
▁beezel	-10.9951
▁biscuit	-10.9951
▁bleats	-10.9951
▁circus	-10.9951
▁clinking	-10.9951
▁collapse	-10.9951
▁compassion	-10.9951
▁contagious	-10.9951
▁curiosity	-10.9951
▁dolphin	-10.9951
▁donald	-10.9951
▁elderly	-10.9951
▁eliminate	-10.9951
▁encounter	-10.9951
▁enterprise	-10.9951
▁escort	-10.9951
▁exhausted	-10.9951
▁exhibit	-10.9951
▁favour	-10.9951
▁forensic	-10.9951
▁frustration	-10.9951
▁gordon	-10.9951
▁grateful	-10.9951
▁hilarious	-10.9951
▁initial	-10.9951
▁intelligent	-10.9951
▁intimacy	-10.9951
▁intimidat	-10.9951
▁jordan	-10.9951
▁kirsten	-10.9951
▁liquid	-10.9951
▁lonzo	-10.9951
▁lorenzo	-10.9951
▁lunatic	-10.9951
▁massacre	-10.9951
▁mousetrap	-10.9951
▁muskavich	-10.9951
▁narcotics	-10.9951
▁nightclub	-10.9951
▁ninja	-10.9951
▁patrick	-10.9951
▁pencil	-10.9951
▁pizzeria	-10.9951
▁platform	-10.9951
▁pluto	-10.9951
▁population	-10.9951
▁prahba	-10.9951
▁precise	-10.9951
▁pritchard	-10.9951
▁prosecut	-10.9951
▁revolution	-10.9951
▁schoolteacher	-10.9951
▁scissors	-10.9951
▁scully	-10.9951
▁sequence	-10.9951
▁shield	-10.9951
▁shimizu	-10.9951
▁shudders	-10.9951
▁sniper	-10.9951
▁sobvechik	-10.9951
▁sorina	-10.9951
▁steroids	-10.9951
▁stream	-10.9951
▁struecker	-10.9951
▁suspense	-10.9951
▁thompson	-10.9951
▁timothy	-10.9951
▁torsten	-10.9951
▁underpants	-10.9951
▁veronica	-10.9951
▁website	-10.9951
▁welfare	-10.9951
▁wisconsin	-10.9951
▁wizard	-10.9951
▁adorable	-10.9951
▁anticipat	-10.9951
▁ashtray	-10.9951
▁bakersfield	-10.9951
▁cinque	-10.9951
▁davis	-10.9951
▁debate	-10.9951
▁draft	-10.9951
▁durant	-10.9951
▁essential	-10.9951
▁hobby	-10.9951
▁instance	-10.9951
▁libby	-10.9951
▁liberation	-10.9951
▁maintain	-10.9951
▁motherinlaw	-10.9951
▁sophie	-10.9951
▁spear	-10.9951
▁surprising	-10.9951
▁violin	-10.9951
▁ninth	-10.9951
▁sperm	-10.9951
▁warehouse	-10.9951
▁worm	-10.9951
▁angle	-10.9951
▁countries	-10.9951
▁gerry	-10.9951
▁loyal	-10.9951
▁balloon	-10.9951
▁dentist	-10.9951
▁oscar	-10.9951
▁covey	-10.9951
▁evacuate	-10.9951
▁perkins	-10.9951
▁physics	-10.9951
▁rpg	-10.9951
▁yacht	-10.9951
▁donation	-10.9951
▁untie	-10.9951
▁manifest	-10.9951
▁communicate	-10.9951
▁breach	-10.9951
▁consequence	-10.9951
▁tanya	-10.9951
▁courtesy	-10.9951
▁lucy	-10.9951
▁catholic	-10.9951
▁cycle	-10.9951
▁nishi	-10.9951
▁andre	-10.9951
▁todd	-10.9951
▁shining	-10.9951
▁parlor	-10.9951
▁goofy	-10.9951
▁lemon	-10.9951
▁anyhow	-10.9951
▁assuming	-10.9951
▁beau	-10.9951
▁dripping	-10.9951
▁nawal	-10.9951
▁priority	-10.9952
▁typical	-10.9952
▁campbell	-10.9952
▁verbal	-10.9952
▁await	-10.9952
▁panties	-10.9952
▁element	-10.9952
▁modern	-10.9952
▁babysitting	-10.9952
▁jangl	-10.9952
▁identity	-10.9952
▁sorrow	-10.9952
▁duties	-10.9952
▁frickin	-10.9952
▁chickenshit	-10.9952
▁recip	-10.9952
▁interstate	-10.9952
▁employee	-10.9952
▁bubble	-10.9952
▁notary	-10.9952
▁blend	-10.9952
▁transferred	-10.9952
▁decline	-10.9952
▁contest	-10.9952
▁comedian	-10.9952
▁birack	-10.9953
▁alexand	-10.9953
▁parade	-10.9953
▁theme	-10.9953
▁sauce	-10.9953
▁species	-10.9953
▁tadder	-10.9953
▁crank	-10.9953
▁shore	-10.9953
▁deactivated	-10.9953
▁lalalala	-10.9953
▁hound	-10.9953
▁liking	-10.9953
▁stanley	-10.9953
▁ticking	-10.9953
▁replacement	-10.9953
▁arrow	-10.9953
▁aidid	-10.9953
▁announcement	-10.9954
▁overall	-10.9954
▁craig	-10.9954
▁puff	-10.9954
▁jamaican	-10.9954
▁geez	-10.9954
▁rapper	-10.9954
▁porch	-10.9954
▁coloni	-10.9954
▁allah	-10.9954
▁blackburn	-10.9954
▁thou	-10.9954
▁simulat	-10.9954
▁mature	-10.9955
▁reject	-10.9955
▁entertainment	-10.9955
▁scout	-10.9955
▁inmate	-10.9955
▁unique	-10.9956
▁management	-10.9956
▁plantation	-10.9956
▁gypsy	-10.9956
▁internal	-10.9956
▁korean	-10.9956
▁isolated	-10.9956
▁mock	-10.9957
▁alike	-10.9957
▁lockdown	-10.9957
▁mailman	-10.9957
▁perry	-10.9958
▁panel	-10.9958
▁pork	-10.9958
▁tita	-10.9958
▁chap	-10.9958
▁grid	-10.9959
▁maxim	-10.9959
▁dishes	-10.9959
▁firewood	-10.9959
▁mustache	-10.9959
▁gap	-10.9961
▁acid	-10.9961
▁tower	-10.9962
▁gem	-10.9962
▁loop	-10.9962
▁mave	-10.9964
▁alter	-10.9964
▁buzzes	-10.9964
▁slit	-10.9964
ility	-10.9965
▁marie	-10.9966
▁jive	-10.9966
▁define	-10.997
▁active	-10.997
▁doggy	-10.997
▁brass	-10.9971
▁fry	-10.9971
▁streaking	-10.9974
▁princess	-10.9974
▁dug	-10.9975
▁objection	-10.9975
▁worthless	-10.9975
▁studer	-10.9976
▁gunmen	-10.9976
▁seventh	-10.9977
teria	-10.9978
▁hugh	-10.9978
▁wicked	-10.9979
▁shushing	-10.9981
▁kara	-10.9983
▁switches	-10.9984
▁related	-10.9984
▁bam	-10.9985
▁ville	-10.9987
▁spook	-10.9987
▁raid	-10.9988
▁gasp	-10.9989
mond	-10.999
▁straighten	-10.9992
▁jilly	-10.9993
▁annoying	-10.9994
▁jackass	-10.9994
▁popped	-10.9996
▁dip	-10.9997
▁daylight	-11.0002
▁heroin	-11.0007
▁sexually	-11.0008
▁dish	-11.0009
▁twisted	-11.0011
▁useless	-11.0014
▁pouring	-11.0014
▁wiped	-11.0014
▁pickup	-11.0015
▁tomas	-11.0016
rock	-11.0017
▁dimitri	-11.0019
▁gel	-11.0021
▁okla	-11.0021
▁kay	-11.0025
▁lack	-11.0028
▁lyrics	-11.0031
▁cable	-11.0035
▁amend	-11.0041
▁climbed	-11.0042
▁kisses	-11.0044
▁planted	-11.0048
▁mart	-11.0049
▁fee	-11.0049
▁ture	-11.005
▁loosen	-11.0055
▁loudly	-11.0055
▁introduced	-11.0056
▁dumped	-11.0057
▁secured	-11.0058
▁snarls	-11.0062
▁cured	-11.0066
▁delivered	-11.0073
▁drawing	-11.0073
▁et	-11.0075
fic	-11.0076
▁tricky	-11.0078
▁twink	-11.0078
▁hike	-11.0094
oli	-11.0106
▁compromise	-11.0108
▁prey	-11.0112
tv	-11.0112
▁mute	-11.013
win	-11.0135
▁dealer	-11.0139
▁existed	-11.0151
tha	-11.0152
▁passengers	-11.0158
▁eazye	-11.0158
icle	-11.0162
▁cher	-11.0165
▁nell	-11.0168
▁peeing	-11.0168
▁sum	-11.0169
▁continued	-11.0171
▁bothering	-11.018
▁marching	-11.0185
istic	-11.0188
▁import	-11.0205
top	-11.0213
▁translates	-11.0217
▁breasts	-11.0222
▁holidays	-11.0222
▁wrists	-11.0222
▁banker	-11.0223
▁marsha	-11.0224
▁raining	-11.0247
▁cooking	-11.0253
▁trunks	-11.0254
▁blades	-11.0254
▁ge	-11.0258
▁texting	-11.0274
▁traveler	-11.0288
ella	-11.0303
▁dated	-11.0327
▁arab	-11.0328
▁auto	-11.033
▁acted	-11.0331
▁lion	-11.0339
▁nails	-11.034
▁toys	-11.0352
▁treasures	-11.0352
▁yay	-11.0359
▁magical	-11.0372
quin	-11.0375
▁hut	-11.0397
▁kissed	-11.0407
▁frankly	-11.0409
▁vin	-11.0436
▁persians	-11.0449
▁photographs	-11.045
ural	-11.0456
▁hose	-11.0481
udge	-11.0481
▁af	-11.0488
▁bridges	-11.0511
▁strings	-11.0514
eyed	-11.0515
sex	-11.0516
char	-11.0524
ja	-11.0537
▁sleepy	-11.0546
▁wil	-11.0582
ique	-11.0583
illa	-11.0588
ache	-11.0606
ington	-11.0609
▁breaker	-11.0637
▁mcc	-11.0638
communica	-11.0644
lor	-11.0676
▁scores	-11.068
air	-11.0689
▁gunshots	-11.0712
▁deposit	-11.0724
tiva	-11.0735
escent	-11.0742
▁mona	-11.0742
▁mouthing	-11.075
▁forms	-11.0758
▁lighting	-11.0761
▁raf	-11.0811
miss	-11.0873
wing	-11.0934
iological	-11.0954
▁rocket	-11.0955
▁loo	-11.0961
▁dea	-11.1022
nine	-11.1026
▁barn	-11.1054
▁pic	-11.1064
▁shadow	-11.1144
▁decade	-11.1145
▁passenger	-11.1146
▁grenade	-11.1148
▁cheek	-11.1148
▁skill	-11.115
▁william	-11.1153
▁customer	-11.1172
▁ranger	-11.1175
ury	-11.1179
▁graduate	-11.1184
▁ward	-11.1199
▁rog	-11.1204
iber	-11.1206
▁prayin	-11.1224
lon	-11.1256
acy	-11.1262
▁trail	-11.1287
▁vu	-11.1303
▁chocolat	-11.1305
▁abu	-11.1306
itter	-11.1311
▁cloth	-11.1325
▁iook	-11.1328
▁disturb	-11.1328
▁annoy	-11.1331
▁alli	-11.1333
▁surround	-11.1341
▁improv	-11.1347
hood	-11.1348
▁profession	-11.135
▁torture	-11.1352
flower	-11.1356
grade	-11.1357
bird	-11.1357
yearold	-11.1357
american	-11.1358
point	-11.1358
minute	-11.1358
piece	-11.1358
ride	-11.1361
▁psych	-11.1364
job	-11.1366
hunt	-11.1367
▁audit	-11.1368
▁sensation	-11.1372
▁negro	-11.1372
▁poll	-11.1373
▁stitch	-11.1374
▁counsel	-11.1375
▁sittin	-11.1375
▁initiat	-11.1377
maker	-11.1378
▁assign	-11.1378
▁consult	-11.1378
▁slaughter	-11.1379
▁straw	-11.1379
▁scoo	-11.1379
▁fright	-11.138
▁jurisdiction	-11.138
▁abernathy	-11.138
▁aboot	-11.138
▁ackwell	-11.138
▁acoustic	-11.138
▁advisor	-11.138
▁airplane	-11.138
▁amistad	-11.138
▁annihilator	-11.138
▁anuj	-11.138
▁appetite	-11.138
▁application	-11.138
▁asap	-11.138
▁association	-11.138
▁auction	-11.138
▁augsburg	-11.138
▁azazel	-11.138
▁barbecue	-11.138
▁bathtub	-11.138
▁becca	-11.138
▁behold	-11.138
▁bisexual	-11.138
▁blunt	-11.138
▁brenner	-11.138
▁ceremony	-11.138
▁cheerleader	-11.138
▁chuff	-11.138
▁conscience	-11.138
▁convincing	-11.138
▁council	-11.138
▁cricket	-11.138
▁cruisin	-11.138
▁curtains	-11.138
▁database	-11.138
▁deceased	-11.138
▁dedicated	-11.138
▁dejeune	-11.138
▁destination	-11.138
▁devaney	-11.138
▁devote	-11.138
▁diarrhea	-11.138
▁disconnect	-11.138
▁distinct	-11.138
▁elephant	-11.138
▁essay	-11.138
▁estimate	-11.138
▁executive	-11.138
▁expelled	-11.138
▁explode	-11.138
▁explore	-11.138
▁extraordinary	-11.138
▁feather	-11.138
▁feature	-11.138
▁finsecker	-11.138
▁franchise	-11.138
▁handcuff	-11.138
▁hayashi	-11.138
▁headquarters	-11.138
▁immortal	-11.138
▁increase	-11.138
▁institute	-11.138
▁investigator	-11.138
▁isolation	-11.138
▁jupiter	-11.138
▁kashani	-11.138
▁kirsch	-11.138
▁length	-11.138
▁liberty	-11.138
▁loneliness	-11.138
▁malfunction	-11.138
▁medivac	-11.138
▁microwave	-11.138
▁misfit	-11.138
▁moscone	-11.138
▁mutilate	-11.138
▁nitro	-11.138
▁nowadays	-11.138
▁octopus	-11.138
▁oldfashioned	-11.138
▁outstanding	-11.138
▁pappa	-11.138
▁phantom	-11.138
▁porsche	-11.138
▁pretzel	-11.138
▁psychoplasmics	-11.138
▁purging	-11.138
▁rainbow	-11.138
▁raspberry	-11.138
▁reboot	-11.138
▁regulation	-11.138
▁rejoice	-11.138
▁religion	-11.138
▁replicant	-11.138
▁sagdiyev	-11.138
▁sardine	-11.138
▁shaft	-11.138
▁shrieks	-11.138
▁skeleton	-11.138
▁squash	-11.138
▁starstruck	-11.138
▁suzie	-11.138
▁swamp	-11.138
▁sylvia	-11.138
▁tambourine	-11.138
▁technology	-11.138
▁tennessee	-11.138
▁territory	-11.138
▁tunnei	-11.138
▁twat	-11.138
▁unfold	-11.138
▁valuable	-11.138
▁vchip	-11.138
▁vegetable	-11.138
▁volleyball	-11.138
▁wealth	-11.138
▁wolcott	-11.138
▁wwen	-11.138
▁amigo	-11.138
▁bannion	-11.138
▁ceiling	-11.138
▁empire	-11.138
▁hippie	-11.138
▁hulk	-11.138
▁japanese	-11.138
▁relations	-11.138
▁titties	-11.138
▁visual	-11.138
▁degenera	-11.138
▁divide	-11.138
▁griev	-11.138
▁ouch	-11.138
▁corpse	-11.138
▁cripple	-11.138
▁octo	-11.138
▁region	-11.138
▁severe	-11.138
▁solving	-11.138
▁backpack	-11.138
▁charts	-11.138
▁donor	-11.138
▁doyle	-11.138
▁freakshow	-11.138
▁incoming	-11.138
▁knot	-11.138
▁piggy	-11.138
▁rational	-11.138
▁marijuana	-11.138
▁flint	-11.138
▁shane	-11.138
▁authorities	-11.138
▁senor	-11.138
▁ahmad	-11.138
▁dvd	-11.138
▁praise	-11.138
▁helmet	-11.138
▁naomi	-11.138
▁gambl	-11.138
▁civilization	-11.138
▁basis	-11.138
▁douglas	-11.138
▁yule	-11.138
▁suspicious	-11.138
▁psychological	-11.138
▁beloved	-11.138
▁lottery	-11.138
▁hector	-11.138
▁flames	-11.138
▁amaze	-11.138
▁argue	-11.138
▁injury	-11.138
▁hydrant	-11.138
▁manaker	-11.138
▁pacific	-11.138
▁spark	-11.138
▁lavash	-11.138
▁quad	-11.138
rabbi	-11.138
▁whiskey	-11.138
▁fetch	-11.138
▁skating	-11.138
▁minister	-11.138
▁kemp	-11.138
▁dining	-11.138
▁illusion	-11.1381
▁vanilla	-11.1381
▁terrorism	-11.1381
▁hostile	-11.1381
▁polish	-11.1381
▁labour	-11.1381
▁rodney	-11.1381
▁flank	-11.1381
▁galway	-11.1381
▁brew	-11.1381
▁forge	-11.1381
▁article	-11.1381
▁baker	-11.1381
▁puppy	-11.1381
▁paso	-11.1381
▁windsor	-11.1381
▁roast	-11.1381
▁psychotic	-11.1381
▁addiction	-11.1381
▁etheline	-11.1381
▁gender	-11.1381
▁moose	-11.1382
▁independent	-11.1382
▁upside	-11.1382
▁unintelligibly	-11.1382
▁committed	-11.1382
▁heck	-11.1382
▁reflection	-11.1382
▁abdi	-11.1382
▁blog	-11.1382
▁yank	-11.1382
▁supervisor	-11.1382
levant	-11.1382
▁electricity	-11.1382
▁roadblock	-11.1382
▁horseshit	-11.1382
▁japan	-11.1382
▁maze	-11.1382
▁morality	-11.1382
▁submissive	-11.1383
▁expectations	-11.1383
▁feast	-11.1383
▁shaw	-11.1383
▁valley	-11.1383
riends	-11.1383
▁barrel	-11.1383
▁studies	-11.1383
▁keen	-11.1384
▁graduation	-11.1384
▁mouse	-11.1384
▁stockings	-11.1384
▁haircut	-11.1384
▁amish	-11.1384
▁deduct	-11.1384
▁youth	-11.1384
▁bolt	-11.1384
▁brace	-11.1384
▁sealed	-11.1384
▁teasing	-11.1384
ttle	-11.1384
▁surf	-11.1385
▁paui	-11.1385
▁classified	-11.1385
▁paramedic	-11.1385
▁effective	-11.1385
▁whim	-11.1385
▁tonic	-11.1386
▁unlike	-11.1386
▁lois	-11.1386
▁dramatic	-11.1386
jay	-11.1386
▁oj	-11.1386
▁romance	-11.1386
▁organic	-11.1386
▁exam	-11.1386
▁performance	-11.1386
▁trish	-11.1387
▁accidentally	-11.1387
▁frisk	-11.1387
ifies	-11.1387
▁remarkable	-11.1387
▁fame	-11.1387
▁champion	-11.1387
▁perish	-11.1387
▁unload	-11.1387
▁sunny	-11.1388
▁genus	-11.1388
▁caity	-11.1388
▁disco	-11.1388
▁fuel	-11.1389
▁firewater	-11.1389
▁maiden	-11.1389
▁shipping	-11.1389
▁strawberry	-11.1389
▁vow	-11.139
▁barber	-11.139
▁weakness	-11.139
▁aww	-11.1391
▁ants	-11.1391
▁july	-11.1391
▁influence	-11.1392
ency	-11.1392
▁dj	-11.1392
▁prom	-11.1393
▁ofthe	-11.1394
▁hoot	-11.1394
▁tooth	-11.1394
▁dismissed	-11.1395
▁vol	-11.1395
▁willy	-11.1395
▁stepping	-11.1396
▁privileged	-11.1399
▁tout	-11.1399
▁wiggl	-11.1399
▁lamp	-11.1399
▁ability	-11.14
bone	-11.1401
▁jap	-11.1401
▁taxes	-11.1401
▁arise	-11.1402
▁ross	-11.1402
▁sid	-11.1402
▁expired	-11.1403
▁included	-11.1403
▁examiner	-11.1404
▁dickhead	-11.1404
▁ahhh	-11.1404
▁prob	-11.1404
▁shovel	-11.1405
▁homework	-11.1407
▁unclear	-11.1409
▁ssh	-11.141
▁deadend	-11.1411
▁ashes	-11.1413
come	-11.1413
▁cuse	-11.1415
▁rhythm	-11.1415
▁homie	-11.1417
izer	-11.1418
▁wink	-11.1419
▁emotionally	-11.142
▁bir	-11.142
▁ideal	-11.1421
▁erm	-11.1422
▁drawer	-11.1422
▁sore	-11.1423
▁crab	-11.1423
▁junkie	-11.1423
▁moss	-11.1425
▁thrilled	-11.1431
▁mick	-11.1433
▁legally	-11.1435
▁naturally	-11.1435
▁rhymes	-11.1436
▁lala	-11.1437
▁thee	-11.1441
▁mansion	-11.1441
▁registered	-11.1443
▁overhea	-11.1445
▁condom	-11.1446
▁directly	-11.1446
▁hotter	-11.1447
▁funky	-11.145
ren	-11.145
▁healing	-11.1452
▁hollow	-11.1452
▁mantle	-11.1453
▁inch	-11.1453
▁louise	-11.1453
▁stain	-11.1453
▁hopeless	-11.1456
▁taser	-11.1461
eek	-11.1461
▁mustnt	-11.1463
▁narrow	-11.1469
▁cambers	-11.1472
▁expenses	-11.1472
▁hamburgers	-11.1472
▁requires	-11.1473
▁creaks	-11.1473
▁nod	-11.1482
▁flowing	-11.1483
▁insisted	-11.1485
▁bounce	-11.1486
▁cutie	-11.149
▁completed	-11.1491
▁spic	-11.1494
▁issued	-11.1497
immer	-11.1499
▁starin	-11.15
ippy	-11.1504
▁transmitt	-11.1508
▁classes	-11.151
▁interrupting	-11.1514
▁lend	-11.1514
▁blink	-11.1516
▁parenting	-11.1516
▁spoon	-11.1517
▁menu	-11.1525
▁rim	-11.1525
▁fairly	-11.1526
▁scaring	-11.153
▁bumper	-11.1535
▁unh	-11.1537
▁banged	-11.1537
▁oy	-11.1542
▁weirdo	-11.1545
▁requested	-11.1546
▁spiders	-11.1546
▁billboards	-11.1546
▁snort	-11.1548
dom	-11.1553
▁impress	-11.1555
▁quicker	-11.1573
▁manner	-11.1574
lated	-11.1578
▁discussed	-11.1582
▁lungs	-11.1584
▁blamed	-11.1584
▁modeling	-11.1587
▁epi	-11.1591
▁belonged	-11.1599
▁directing	-11.1599
▁creat	-11.1602
▁conv	-11.1603
▁dialing	-11.1607
▁blessed	-11.1612
▁era	-11.1613
▁repeated	-11.1619
▁thems	-11.162
▁shadows	-11.1621
▁decades	-11.1621
▁skills	-11.1621
▁employ	-11.1628
▁farting	-11.1628
▁cleanse	-11.1633
▁treated	-11.1647
▁primar	-11.1655
▁flipp	-11.1658
▁amateurs	-11.1658
▁pronounce	-11.1662
▁appreciated	-11.1663
▁spreading	-11.1669
▁browning	-11.167
tti	-11.1684
gers	-11.1685
▁punched	-11.1686
▁aids	-11.169
oga	-11.1691
▁tale	-11.1696
▁opinions	-11.1696
isa	-11.1699
▁importantly	-11.1709
▁pl	-11.1721
▁reaching	-11.1725
▁content	-11.1729
▁rapids	-11.1733
▁gals	-11.1736
▁peek	-11.1748
▁prayers	-11.1758
▁leaders	-11.1761
▁nightmares	-11.1771
▁laughed	-11.1782
refu	-11.1782
▁crackers	-11.1791
▁dealers	-11.1793
▁joined	-11.1795
ench	-11.1799
▁rebel	-11.1811
inary	-11.1825
▁screamer	-11.1845
▁curl	-11.1873
▁explained	-11.1875
▁rad	-11.1884
nce	-11.1891
▁loc	-11.1895
▁thy	-11.1899
▁watchin	-11.1946
▁playin	-11.1947
lar	-11.1953
ification	-11.2041
▁peel	-11.2044
▁environmental	-11.2079
▁mau	-11.2087
vard	-11.2099
cast	-11.2111
▁dim	-11.2124
tz	-11.2136
▁elia	-11.2148
lab	-11.2195
▁pilla	-11.222
bend	-11.2267
▁cul	-11.2284
▁grad	-11.2294
▁premiere	-11.2297
▁ple	-11.2304
etic	-11.2316
▁pave	-11.2326
▁rul	-11.233
bet	-11.2342
inate	-11.2367
▁inn	-11.2371
▁fra	-11.2384
range	-11.2406
▁stat	-11.2415
adas	-11.2507
▁cro	-11.2537
▁logic	-11.2547
▁bin	-11.2562
▁cre	-11.2604
ota	-11.2605
agra	-11.2624
gro	-11.263
iled	-11.2671
igan	-11.2678
mper	-11.2692
▁closest	-11.2754
omin	-11.2805
enne	-11.281
▁chip	-11.2813
▁donut	-11.2814
▁source	-11.2815
▁chamber	-11.2818
▁supplie	-11.2819
▁terrorist	-11.2823
▁spartan	-11.2838
▁dere	-11.284
▁burger	-11.2841
▁helpful	-11.2849
ador	-11.2855
▁dat	-11.2858
▁roman	-11.287
▁qui	-11.2872
▁lung	-11.2874
▁glove	-11.2892
done	-11.2905
▁refer	-11.2905
arlene	-11.2916
▁wes	-11.2925
tech	-11.2943
▁continu	-11.2985
▁produce	-11.2998
▁yi	-11.3001
▁rais	-11.3002
itched	-11.3003
▁disappoint	-11.3006
▁accomplish	-11.3006
▁caus	-11.3008
▁invent	-11.3008
▁wick	-11.3017
▁excite	-11.3018
▁expire	-11.3019
▁include	-11.3019
whi	-11.3021
ability	-11.3022
heart	-11.3023
wide	-11.3024
foot	-11.3024
mouth	-11.3024
three	-11.3025
yeah	-11.3025
stock	-11.3027
▁buckle	-11.3027
wall	-11.303
berry	-11.303
▁anonymous	-11.3031
wise	-11.3032
▁restrain	-11.3032
wha	-11.3033
▁batter	-11.3035
matic	-11.3035
▁attic	-11.3037
▁stoke	-11.3038
▁twi	-11.3038
▁detect	-11.304
▁champ	-11.304
▁beginnin	-11.3041
bri	-11.3041
▁grocer	-11.3044
▁decorat	-11.3044
▁trump	-11.3044
burger	-11.3044
▁spec	-11.3045
▁beautif	-11.3045
▁trippin	-11.3045
▁scholar	-11.3046
▁remark	-11.3046
▁cigar	-11.3046
▁myth	-11.3046
▁protest	-11.3046
▁vulnerab	-11.3046
▁enlighten	-11.3046
▁hypnoti	-11.3046
▁mathematic	-11.3046
nanana	-11.3046
▁absurd	-11.3046
▁accelerat	-11.3046
▁accused	-11.3046
▁akiko	-11.3046
▁almighty	-11.3046
▁ammunition	-11.3046
▁anderson	-11.3046
▁arnold	-11.3046
▁arriving	-11.3046
▁astrophysic	-11.3046
▁betrayal	-11.3046
▁burglar	-11.3046
▁cahill	-11.3046
▁carmichael	-11.3046
▁chemical	-11.3046
▁cocktail	-11.3046
▁cognac	-11.3046
▁collier	-11.3046
▁combination	-11.3046
▁communications	-11.3046
▁competition	-11.3046
▁concert	-11.3046
▁consumer	-11.3046
▁corporal	-11.3046
▁corpus	-11.3046
▁corsetti	-11.3046
▁cougar	-11.3046
▁delicate	-11.3046
▁devastated	-11.3046
▁diligence	-11.3046
▁discount	-11.3046
▁disrupt	-11.3046
▁doughnut	-11.3046
▁dupea	-11.3046
▁dynamo	-11.3046
▁economic	-11.3046
▁embrace	-11.3046
▁episode	-11.3046
▁escaping	-11.3046
▁exclalm	-11.3046
▁exwife	-11.3046
▁fulfill	-11.3046
▁fundraiser	-11.3046
▁genuine	-11.3046
▁georgia	-11.3046
▁georgie	-11.3046
▁ghetto	-11.3046
▁giraffe	-11.3046
▁guinea	-11.3046
▁halifax	-11.3046
▁harrigan	-11.3046
▁hazmat	-11.3046
▁hebrew	-11.3046
▁heidi	-11.3046
▁henessey	-11.3046
▁heritage	-11.3046
▁hitchhiker	-11.3046
▁horribly	-11.3046
▁hotshot	-11.3046
▁ibabe	-11.3046
▁ignorant	-11.3046
▁illinois	-11.3046
▁indigenous	-11.3046
▁infection	-11.3046
▁inspired	-11.3046
▁invitation	-11.3046
▁iraq	-11.3046
▁janitor	-11.3046
▁katherine	-11.3046
▁kempeitai	-11.3046
▁kevlar	-11.3046
▁kinkabe	-11.3046
▁knickers	-11.3046
▁koushik	-11.3046
▁limousine	-11.3046
▁lnternet	-11.3046
▁loomis	-11.3046
▁luenell	-11.3046
▁luggage	-11.3046
▁mafia	-11.3046
▁mainframe	-11.3046
▁malibu	-11.3046
▁mamma	-11.3046
▁maneuver	-11.3046
▁manhattan	-11.3046
▁margarita	-11.3046
▁marwan	-11.3046
▁measur	-11.3046
▁melody	-11.3046
▁militia	-11.3046
▁milkshake	-11.3046
▁moscow	-11.3046
▁muffin	-11.3046
▁muhammad	-11.3046
▁mulvaney	-11.3046
▁november	-11.3046
▁pancakes	-11.3046
▁pendejo	-11.3046
▁penguin	-11.3046
▁penthouse	-11.3046
▁perspective	-11.3046
▁physicist	-11.3046
▁previous	-11.3046
▁principle	-11.3046
▁profound	-11.3046
▁puppet	-11.3046
▁puzzle	-11.3046
▁raleigh	-11.3046
▁receiving	-11.3046
▁refugees	-11.3046
▁reggae	-11.3046
▁reputation	-11.3046
▁resync	-11.3046
▁revelation	-11.3046
▁revenge	-11.3046
▁rhodes	-11.3046
▁rosenbaum	-11.3046
▁savannah	-11.3046
▁savior	-11.3046
▁selena	-11.3046
▁selwyn	-11.3046
▁semester	-11.3046
▁serpent	-11.3046
▁sheehy	-11.3046
▁shrimp	-11.3046
▁shuddering	-11.3046
▁soviet	-11.3046
▁sponsor	-11.3046
▁stepmother	-11.3046
▁strand	-11.3046
▁strategy	-11.3046
▁strung	-11.3046
▁subzero	-11.3046
▁symbol	-11.3046
▁terrifying	-11.3046
▁ulysses	-11.3046
▁valentine	-11.3046
▁vatican	-11.3046
▁vegetarian	-11.3046
▁vengeance	-11.3046
▁vibrating	-11.3046
▁vocabulary	-11.3046
▁voil	-11.3046
▁whinnies	-11.3046
▁wyoming	-11.3046
▁yurek	-11.3046
about	-11.3046
▁anchor	-11.3046
▁austin	-11.3046
▁bloom	-11.3046
▁congrat	-11.3046
▁excess	-11.3046
▁frightened	-11.3046
▁identify	-11.3046
▁ireland	-11.3046
▁juicy	-11.3046
▁lecture	-11.3046
▁marauder	-11.3046
▁oleary	-11.3046
▁pervert	-11.3046
▁promising	-11.3046
▁reinforcements	-11.3046
▁smear	-11.3046
▁storage	-11.3046
▁strap	-11.3046
▁suitcase	-11.3046
▁terribly	-11.3046
▁testify	-11.3046
▁titty	-11.3046
▁wagon	-11.3046
▁weave	-11.3046
▁wisdom	-11.3046
▁xander	-11.3046
▁bikini	-11.3046
▁canyon	-11.3046
▁charter	-11.3046
▁cinder	-11.3046
▁depressing	-11.3046
▁drape	-11.3046
▁hirawa	-11.3046
▁hooah	-11.3046
▁kidnapped	-11.3046
▁langley	-11.3046
▁metropoli	-11.3046
▁plumbing	-11.3046
▁predator	-11.3046
▁windigo	-11.3046
▁ahooh	-11.3046
▁ankle	-11.3046
▁bronx	-11.3046
▁confusing	-11.3046
▁crayon	-11.3046
▁diction	-11.3046
▁enforc	-11.3046
▁frost	-11.3046
▁detain	-11.3046
▁retro	-11.3046
▁diploma	-11.3046
▁grove	-11.3046
▁disabled	-11.3046
▁khan	-11.3046
▁mommies	-11.3046
▁panicked	-11.3046
▁qualities	-11.3046
▁trafficante	-11.3046
▁combined	-11.3046
▁whooshing	-11.3046
▁wrapped	-11.3046
▁reilly	-11.3046
▁baked	-11.3046
▁oven	-11.3046
▁spectacular	-11.3046
▁programmed	-11.3046
▁microphone	-11.3046
▁carmine	-11.3046
▁yabe	-11.3046
▁cadre	-11.3046
▁clich	-11.3046
▁divers	-11.3046
▁absent	-11.3046
▁racing	-11.3046
▁havin	-11.3046
▁silk	-11.3046
▁carpet	-11.3046
▁oops	-11.3046
▁gratitude	-11.3046
▁franklin	-11.3046
▁coroner	-11.3046
▁everyday	-11.3046
▁shakily	-11.3046
▁carbon	-11.3046
▁italy	-11.3046
▁nazis	-11.3046
▁boundaries	-11.3046
▁dominique	-11.3046
▁maniac	-11.3046
▁thugs	-11.3047
▁claws	-11.3047
▁onstage	-11.3047
▁winston	-11.3047
▁crotch	-11.3047
▁operative	-11.3047
▁activity	-11.3047
▁wesker	-11.3047
▁vogu	-11.3047
▁concentration	-11.3047
▁jupe	-11.3047
▁scholarship	-11.3047
▁karen	-11.3047
▁reverend	-11.3047
▁sidney	-11.3047
▁sunset	-11.3047
▁braying	-11.3047
▁chopped	-11.3047
▁erections	-11.3047
▁promote	-11.3047
▁swanson	-11.3047
▁booze	-11.3047
▁england	-11.3047
▁bruce	-11.3047
▁pilar	-11.3047
▁breeze	-11.3047
▁ulcer	-11.3047
▁fraud	-11.3047
▁engl	-11.3047
▁tropic	-11.3047
▁bridgewater	-11.3047
▁detonation	-11.3047
▁definition	-11.3047
▁petition	-11.3047
▁item	-11.3047
▁theft	-11.3047
▁cautionary	-11.3047
▁inherit	-11.3047
▁stonewall	-11.3047
▁gretta	-11.3047
▁pursuit	-11.3047
elvis	-11.3047
▁wilson	-11.3047
▁olga	-11.3048
▁zip	-11.3048
▁elementary	-11.3048
▁syd	-11.3048
▁compound	-11.3048
▁resolution	-11.3048
▁engagement	-11.3048
▁spank	-11.3048
▁casa	-11.3048
▁inevitable	-11.3048
▁rosewood	-11.3048
▁orbit	-11.3048
▁plum	-11.3048
▁poetry	-11.3048
▁ragged	-11.3048
▁organized	-11.3048
▁jewelry	-11.3048
▁beave	-11.3048
▁cornell	-11.3048
▁traitor	-11.3048
▁jojo	-11.3048
▁slavery	-11.3048
▁hyah	-11.3048
▁surgeon	-11.3048
▁disappointment	-11.3049
▁rash	-11.3049
▁sidewalk	-11.3049
▁france	-11.3049
▁compete	-11.3049
▁merch	-11.3049
▁batteries	-11.3049
▁chili	-11.3049
▁breed	-11.3049
▁blowjob	-11.3049
▁rico	-11.3049
▁slang	-11.3049
▁edgar	-11.3049
▁beak	-11.3049
▁cursing	-11.3049
▁approval	-11.3049
▁ugli	-11.3049
▁authoriz	-11.3049
▁documentary	-11.3049
▁raymond	-11.3049
▁homosexuality	-11.3049
▁arrangement	-11.3049
▁jerkoff	-11.3049
▁retirement	-11.3049
▁heke	-11.305
▁failure	-11.305
▁income	-11.305
▁roland	-11.305
▁argh	-11.305
▁hootch	-11.305
▁rehab	-11.305
▁bondage	-11.305
▁inbound	-11.305
▁regime	-11.3051
▁stiff	-11.3051
▁detector	-11.3051
▁nooo	-11.3051
▁trafficking	-11.3051
▁bunny	-11.3051
▁dink	-11.3051
▁slapping	-11.3051
▁caution	-11.3052
▁intel	-11.3052
▁rail	-11.3052
rence	-11.3052
▁burst	-11.3052
▁stake	-11.3052
▁establishment	-11.3052
▁glock	-11.3052
yard	-11.3052
▁denial	-11.3052
▁bash	-11.3053
▁bead	-11.3053
▁atlanti	-11.3053
▁powder	-11.3053
▁creation	-11.3053
▁interference	-11.3053
▁holler	-11.3053
▁cornish	-11.3054
▁paranoid	-11.3054
▁benny	-11.3054
▁european	-11.3054
lsey	-11.3054
▁faithful	-11.3054
▁scum	-11.3054
mona	-11.3054
▁whoops	-11.3055
▁hoak	-11.3055
▁confirmation	-11.3056
▁hangover	-11.3056
▁spl	-11.3057
▁manual	-11.3057
▁february	-11.3057
▁runaway	-11.3057
▁ridge	-11.3057
▁fax	-11.3057
▁cork	-11.3057
style	-11.3057
▁verse	-11.3058
▁delete	-11.3058
▁payroll	-11.3058
▁bait	-11.3058
▁consol	-11.3058
▁fox	-11.3059
▁tomatoes	-11.3059
▁jeanne	-11.3059
▁extend	-11.3059
▁challenger	-11.3059
▁required	-11.306
▁sack	-11.306
▁shuttle	-11.3061
▁markos	-11.3062
▁alcoholic	-11.3062
▁troll	-11.3062
▁crispy	-11.3062
▁finn	-11.3063
▁potatoes	-11.3063
▁env	-11.3063
▁uli	-11.3064
▁popil	-11.3064
▁activated	-11.3064
▁sadness	-11.3064
▁hopefully	-11.3064
▁growth	-11.3064
▁projector	-11.3065
cell	-11.3066
▁fusses	-11.3066
▁spotted	-11.3067
▁prostitute	-11.3067
▁info	-11.3068
▁stack	-11.3069
▁honky	-11.3069
▁painting	-11.307
▁restricted	-11.3071
▁yoga	-11.3071
▁edit	-11.3072
▁ciao	-11.3072
▁metres	-11.3072
ssette	-11.3073
▁buckley	-11.3073
▁trag	-11.3074
▁skipper	-11.3074
▁ohhh	-11.3074
▁yaah	-11.3075
▁produced	-11.3076
▁halfway	-11.3076
▁sadie	-11.3077
voca	-11.3077
▁intern	-11.3078
▁elite	-11.3078
▁tow	-11.3078
▁heroic	-11.3078
▁tortured	-11.3079
▁whispered	-11.3079
uous	-11.308
▁emma	-11.3081
▁emil	-11.3082
▁vig	-11.3083
▁alan	-11.3083
▁arranged	-11.3084
▁captured	-11.3084
▁holland	-11.3086
▁chen	-11.3088
▁beaten	-11.3089
▁matches	-11.3092
ummy	-11.3095
▁breeding	-11.3097
▁mata	-11.3097
▁mice	-11.3098
▁possessed	-11.3098
▁carrie	-11.3098
▁wander	-11.3099
▁transmitter	-11.3099
▁mina	-11.31
▁mint	-11.31
city	-11.31
▁soaked	-11.31
▁dock	-11.3102
▁rental	-11.3102
▁rapist	-11.3104
▁advised	-11.3104
▁shaved	-11.3104
▁levi	-11.3105
▁originally	-11.3105
▁haul	-11.3105
▁bery	-11.3105
▁forgetting	-11.3106
▁useful	-11.311
▁iim	-11.3113
▁bollocks	-11.3113
▁tooheys	-11.3113
▁musician	-11.3118
▁hail	-11.312
▁perfection	-11.3123
▁recovered	-11.3125
▁crashes	-11.3125
▁bigtime	-11.3126
▁intended	-11.3129
▁spilled	-11.3129
▁rustl	-11.313
▁ringo	-11.3131
▁offender	-11.3132
uk	-11.3133
▁tani	-11.3135
▁playlng	-11.3139
gram	-11.3141
▁ricky	-11.3141
▁goodlooking	-11.3144
▁licking	-11.3149
▁smithy	-11.3151
▁thankyou	-11.3152
▁ford	-11.3155
▁burp	-11.3157
▁poisoned	-11.3166
▁lynne	-11.3167
▁za	-11.3168
▁whacked	-11.3173
▁policeman	-11.3173
▁asset	-11.3177
▁drowning	-11.3181
hoe	-11.3182
▁filed	-11.3189
▁soc	-11.319
▁developing	-11.319
▁recognized	-11.3193
▁ruby	-11.3197
▁jar	-11.3198
▁beard	-11.3198
cept	-11.32
▁jen	-11.3201
▁generally	-11.3205
▁hola	-11.3207
▁humping	-11.3209
▁chicky	-11.321
▁fled	-11.3211
▁allie	-11.3212
▁unemploy	-11.3212
▁tearing	-11.3213
lew	-11.3214
▁crawling	-11.3216
▁niner	-11.3221
▁bailed	-11.3224
▁visa	-11.3227
ider	-11.323
▁suggesting	-11.3236
▁plea	-11.3249
▁highp	-11.3258
▁touches	-11.3259
▁qu	-11.3261
▁fooled	-11.3264
▁checkers	-11.327
▁jerking	-11.3273
▁borrowed	-11.3275
▁wu	-11.328
▁cling	-11.3283
▁bare	-11.3288
▁cole	-11.3288
nte	-11.329
▁posted	-11.3293
▁hull	-11.3297
▁filling	-11.3301
▁starve	-11.3303
▁tid	-11.3303
▁dogg	-11.3308
▁casting	-11.3309
▁para	-11.3316
▁boost	-11.3316
quette	-11.3325
▁prayed	-11.3332
▁kimb	-11.3342
▁driven	-11.3351
▁safer	-11.3353
▁honesty	-11.3358
▁lighter	-11.3379
▁thi	-11.3383
ctor	-11.3385
▁recit	-11.3398
▁peed	-11.3399
anda	-11.34
▁tighten	-11.3403
▁handled	-11.3404
was	-11.3447
cilla	-11.3487
▁pol	-11.349
▁pd	-11.3494
▁clo	-11.3498
▁scr	-11.3561
▁minu	-11.3564
▁corr	-11.3582
▁ele	-11.3585
▁kin	-11.3586
▁flu	-11.3621
▁damp	-11.3667
▁trapp	-11.3682
▁poster	-11.3688
anna	-11.371
▁did	-11.3713
▁indicate	-11.3749
▁rotte	-11.3769
▁participat	-11.3783
call	-11.3787
▁vari	-11.3791
▁patholog	-11.3792
east	-11.3795
▁moo	-11.3825
▁pursue	-11.3835
gate	-11.3844
rocco	-11.3972
innit	-11.398
▁ull	-11.3992
lot	-11.4003
hem	-11.4045
▁mont	-11.4065
▁technical	-11.4079
▁identi	-11.4085
rified	-11.4085
suit	-11.4105
▁cam	-11.4131
▁ju	-11.4136
▁gir	-11.417
▁terra	-11.418
▁seize	-11.4181
▁participate	-11.4215
aze	-11.424
cro	-11.4378
▁inva	-11.4379
bre	-11.4387
aid	-11.4393
▁resu	-11.4453
omb	-11.449
more	-11.4492
▁starr	-11.4545
▁bac	-11.4561
tention	-11.4561
llery	-11.4583
▁ip	-11.4588
just	-11.466
▁meteor	-11.4662
quit	-11.468
tta	-11.4715
▁whisper	-11.4736
▁honk	-11.4764
▁predict	-11.4768
▁groan	-11.4779
▁spoo	-11.4797
▁spider	-11.4811
▁billboard	-11.4818
▁inhale	-11.4826
▁disk	-11.4852
▁notif	-11.4868
▁flower	-11.4901
lasting	-11.4927
creat	-11.494
mont	-11.494
▁offend	-11.4945
▁publish	-11.4946
▁vag	-11.4958
face	-11.4962
hine	-11.4964
▁threaten	-11.4965
pped	-11.497
▁prepar	-11.4986
▁wad	-11.4993
▁possess	-11.4994
▁squawk	-11.4995
▁greet	-11.4995
▁tempt	-11.4995
▁shush	-11.4997
▁recruit	-11.5006
▁insult	-11.5006
▁glow	-11.5008
▁nob	-11.5015
covered	-11.502
while	-11.5021
▁filth	-11.5022
possessed	-11.5023
regard	-11.5023
print	-11.5024
ghostface	-11.5024
ohoo	-11.5024
horse	-11.5024
paper	-11.5025
moving	-11.5025
duty	-11.5025
mindy	-11.5028
bread	-11.5029
quie	-11.5031
▁shoo	-11.5031
think	-11.5032
role	-11.5032
▁humiliat	-11.5032
▁heavi	-11.5032
road	-11.5033
bury	-11.5033
cock	-11.5034
▁korea	-11.5037
▁iris	-11.5038
▁claus	-11.5038
▁premi	-11.5038
▁cleav	-11.5038
▁toke	-11.504
bbed	-11.5041
▁darlin	-11.5041
▁movin	-11.5042
cript	-11.5042
▁reflect	-11.5043
▁mutt	-11.5043
horizo	-11.5044
angel	-11.5044
▁francis	-11.5045
appointed	-11.5045
▁whisk	-11.5046
ization	-11.5046
▁steward	-11.5046
tricia	-11.5046
▁prelim	-11.5046
nostromo	-11.5046
premeditated	-11.5046
▁abnormal	-11.5046
▁absorb	-11.5046
▁activities	-11.5046
▁adachi	-11.5046
▁aggression	-11.5046
▁alabama	-11.5046
▁alligator	-11.5046
▁amarillo	-11.5046
▁amnesia	-11.5046
▁analysis	-11.5046
▁aramaic	-11.5046
▁architect	-11.5046
▁argentina	-11.5046
▁arrival	-11.5046
▁astron	-11.5046
▁athletic	-11.5046
▁attaboy	-11.5046
▁automated	-11.5046
▁autopsy	-11.5046
▁balenciaga	-11.5046
▁battalion	-11.5046
▁beneath	-11.5046
▁benedict	-11.5046
▁beneficial	-11.5046
▁benigna	-11.5046
▁bicycle	-11.5046
▁biltmore	-11.5046
▁binoculars	-11.5046
▁blizzard	-11.5046
▁blouse	-11.5046
▁brazil	-11.5046
▁brezhnev	-11.5046
▁bullseye	-11.5046
▁butterscotch	-11.5046
▁calogero	-11.5046
▁casket	-11.5046
▁category	-11.5046
▁cavalry	-11.5046
▁celebration	-11.5046
▁celebrities	-11.5046
▁chippendale	-11.5046
▁chrissake	-11.5046
▁claustrophobi	-11.5046
▁clutenichols	-11.5046
▁cocksucking	-11.5046
▁compartment	-11.5046
▁competitive	-11.5046
▁conclusion	-11.5046
▁configuration	-11.5046
▁conflict	-11.5046
▁congratulate	-11.5046
▁contrary	-11.5046
▁convenient	-11.5046
▁credibility	-11.5046
▁crossfire	-11.5046
▁crowbar	-11.5046
▁danieiie	-11.5046
▁deception	-11.5046
▁democracy	-11.5046
▁derringer	-11.5046
▁devastating	-11.5046
▁disadvantage	-11.5046
▁disgrace	-11.5046
▁distress	-11.5046
▁donovan	-11.5046
▁douchebag	-11.5046
▁dungeon	-11.5046
▁dysentery	-11.5046
▁easiest	-11.5046
▁educate	-11.5046
▁equation	-11.5046
▁errands	-11.5046
▁ethnic	-11.5046
▁evacuation	-11.5046
▁evaluat	-11.5046
▁exclude	-11.5046
▁exgirlfriend	-11.5046
▁flemming	-11.5046
▁fracture	-11.5046
▁fragment	-11.5046
▁frown	-11.5046
▁frustrating	-11.5046
▁galaxy	-11.5046
▁galentine	-11.5046
▁gauge	-11.5046
▁giovanni	-11.5046
▁gracias	-11.5046
▁grammy	-11.5046
▁greasy	-11.5046
▁hanako	-11.5046
▁happily	-11.5046
▁heinemann	-11.5046
▁hussein	-11.5046
▁hustler	-11.5046
▁inspiration	-11.5046
▁jazeristan	-11.5046
▁jennifer	-11.5046
▁jukebox	-11.5046
▁kansas	-11.5046
▁ketchup	-11.5046
▁landscape	-11.5046
▁lloyd	-11.5046
▁ludmilla	-11.5046
▁maccready	-11.5046
▁maggots	-11.5046
▁majestic	-11.5046
▁marilyn	-11.5046
▁meddows	-11.5046
▁meredith	-11.5046
▁minimum	-11.5046
▁mordecai	-11.5046
▁motoyama	-11.5046
▁mussolini	-11.5046
▁neigh	-11.5046
▁obligation	-11.5046
▁obtain	-11.5046
▁occult	-11.5046
▁offworld	-11.5046
▁okidoki	-11.5046
▁oracle	-11.5046
▁oxygen	-11.5046
▁pagoda	-11.5046
▁paradise	-11.5046
▁password	-11.5046
▁peasant	-11.5046
▁pennsylvania	-11.5046
▁pineapple	-11.5046
▁playground	-11.5046
▁pneumonia	-11.5046
▁podcast	-11.5046
▁premonition	-11.5046
▁principal	-11.5046
▁racetrack	-11.5046
▁radiant	-11.5046
▁receipt	-11.5046
▁rehearsal	-11.5046
▁rehearse	-11.5046
▁rehearsing	-11.5046
▁relief	-11.5046
▁remodel	-11.5046
▁remorse	-11.5046
▁ritual	-11.5046
▁roosevelt	-11.5046
▁saarne	-11.5046
▁sabbath	-11.5046
▁satisfy	-11.5046
▁scramble	-11.5046
▁screwdriver	-11.5046
▁scrotum	-11.5046
▁seafood	-11.5046
▁seasick	-11.5046
▁sentimental	-11.5046
▁shattered	-11.5046
▁shatters	-11.5046
▁sheffield	-11.5046
▁sheldon	-11.5046
▁shivering	-11.5046
▁shuffle	-11.5046
▁sinatra	-11.5046
▁skeptic	-11.5046
▁smother	-11.5046
▁sociopath	-11.5046
▁somafree	-11.5046
▁sophia	-11.5046
▁sophisticated	-11.5046
▁souvenir	-11.5046
▁spakowsky	-11.5046
▁squirrel	-11.5046
▁stadium	-11.5046
▁suppress	-11.5046
▁sylvester	-11.5046
▁sympathy	-11.5046
▁tadpole	-11.5046
▁temple	-11.5046
▁thrust	-11.5046
▁travers	-11.5046
▁twitter	-11.5046
▁uncertain	-11.5046
▁uncuff	-11.5046
▁unfair	-11.5046
▁vacuum	-11.5046
▁vibrator	-11.5046
▁villain	-11.5046
▁virtu	-11.5046
▁vivid	-11.5046
▁voicemail	-11.5046
▁wardrobe	-11.5046
▁warfare	-11.5046
▁webster	-11.5046
▁wrestling	-11.5046
▁arbor	-11.5046
▁biblical	-11.5046
▁blackmail	-11.5046
▁borgens	-11.5046
▁counterfeit	-11.5046
▁dewey	-11.5046
▁equity	-11.5046
▁fuzzy	-11.5046
▁gardner	-11.5046
▁garlic	-11.5046
▁geneva	-11.5046
▁griga	-11.5046
▁injection	-11.5046
▁obscur	-11.5046
▁quiche	-11.5046
▁saigo	-11.5046
▁spontaneous	-11.5046
▁strait	-11.5046
▁tweak	-11.5046
▁vesper	-11.5046
▁widow	-11.5046
▁analyst	-11.5046
▁bonnet	-11.5046
▁bueno	-11.5046
▁couid	-11.5046
▁dawg	-11.5046
▁expand	-11.5046
▁finland	-11.5046
▁mimic	-11.5046
▁reckless	-11.5046
▁resumes	-11.5046
▁scorch	-11.5046
▁skirt	-11.5046
▁slesers	-11.5046
▁stamp	-11.5046
▁terminal	-11.5046
▁unpack	-11.5046
ovich	-11.5046
▁bandari	-11.5046
▁betrayed	-11.5046
▁buddies	-11.5046
▁crystal	-11.5046
▁harbor	-11.5046
▁hawk	-11.5046
▁pleasant	-11.5046
▁asthma	-11.5046
▁bulb	-11.5046
▁crumb	-11.5046
▁cuddl	-11.5046
▁redeem	-11.5046
▁piease	-11.5046
▁reihi	-11.5046
▁tyler	-11.5046
▁viral	-11.5046
▁visible	-11.5046
▁which	-11.5046
▁dyke	-11.5046
▁jasper	-11.5046
▁jeep	-11.5046
▁planko	-11.5046
ashima	-11.5046
▁baltimore	-11.5046
▁bandana	-11.5046
▁bundle	-11.5046
▁abbie	-11.5046
▁stutter	-11.5046
▁unreal	-11.5046
▁carolina	-11.5046
▁cartoon	-11.5046
▁clement	-11.5046
▁sliding	-11.5046
▁slippery	-11.5046
▁urban	-11.5046
▁flunk	-11.5046
▁iove	-11.5046
▁skinnies	-11.5046
▁error	-11.5046
▁mangled	-11.5046
▁repuls	-11.5046
▁whyg	-11.5046
▁hehhehheh	-11.5046
▁lindsay	-11.5046
▁sprinkle	-11.5046
▁quota	-11.5046
▁everett	-11.5046
▁camilla	-11.5046
▁stewardess	-11.5046
▁holabird	-11.5046
▁intestin	-11.5046
▁declare	-11.5046
▁dribbl	-11.5046
▁gossip	-11.5046
▁nix	-11.5046
▁investigating	-11.5046
▁reaiiy	-11.5046
▁brooks	-11.5046
▁whining	-11.5046
▁throne	-11.5046
▁gangsta	-11.5047
▁promotion	-11.5047
▁gurgling	-11.5047
▁consent	-11.5047
▁metallic	-11.5047
▁reference	-11.5047
▁bouchard	-11.5047
▁bracelet	-11.5047
▁linda	-11.5047
appelle	-11.5047
▁gordy	-11.5047
▁thudding	-11.5047
▁millionaire	-11.5047
▁temper	-11.5047
▁nassar	-11.5047
▁bugged	-11.5047
▁burden	-11.5047
▁yoko	-11.5047
▁behalf	-11.5047
▁mungo	-11.5047
▁intercept	-11.5047
▁liane	-11.5047
▁outdoor	-11.5047
▁rumble	-11.5047
▁academic	-11.5047
▁plumber	-11.5047
▁upgrade	-11.5047
▁choosing	-11.5047
▁thigh	-11.5047
▁leap	-11.5047
▁plaza	-11.5047
▁goggles	-11.5047
▁salvation	-11.5047
▁underwater	-11.5047
friggin	-11.5047
▁lemonade	-11.5047
▁delhi	-11.5047
▁deformed	-11.5047
▁chainsaw	-11.5047
▁intact	-11.5047
▁cheeseburger	-11.5047
▁trivia	-11.5048
▁addition	-11.5048
▁joanne	-11.5048
atrix	-11.5048
▁pistone	-11.5048
▁blanche	-11.5048
▁sustain	-11.5048
▁napkin	-11.5048
▁coffeecake	-11.5048
▁tolerate	-11.5048
▁burke	-11.5048
▁legacy	-11.5048
zaki	-11.5048
▁shanna	-11.5048
▁patron	-11.5048
▁psst	-11.5048
▁representative	-11.5048
▁onboard	-11.5048
▁marcy	-11.5048
▁bandaid	-11.5048
▁knoxville	-11.5048
▁upstate	-11.5048
▁cabinet	-11.5048
▁courageous	-11.5048
▁google	-11.5048
▁ruf	-11.5048
▁frail	-11.5048
▁mandate	-11.5048
▁atmosphere	-11.5048
▁struck	-11.5048
▁bookmark	-11.5048
▁clipping	-11.5048
▁clank	-11.5048
▁trem	-11.5048
▁grape	-11.5049
▁whwhat	-11.5049
▁hungover	-11.5049
▁cavit	-11.5049
▁dummy	-11.5049
▁festival	-11.5049
▁trumpet	-11.5049
▁fluid	-11.5049
▁babysit	-11.5049
▁reborn	-11.5049
▁renew	-11.5049
▁ginger	-11.5049
▁jiff	-11.5049
▁grandkids	-11.5049
▁patio	-11.5049
▁riba	-11.5049
▁rising	-11.5049
▁polar	-11.5049
▁flashlight	-11.5049
▁frequency	-11.5049
▁tying	-11.5049
▁tension	-11.505
▁chiii	-11.505
▁tipped	-11.505
▁mami	-11.505
▁nixon	-11.505
▁portia	-11.505
▁marble	-11.505
▁gangster	-11.505
▁interrogation	-11.505
mara	-11.505
▁overnight	-11.505
▁vital	-11.505
▁wildcat	-11.505
▁flourish	-11.505
▁halfhour	-11.505
ujo	-11.505
▁consciousness	-11.5051
▁mornin	-11.5051
▁boobies	-11.5051
▁crazie	-11.5051
▁juliana	-11.5051
▁crip	-11.5051
▁admirable	-11.5051
▁farsi	-11.5051
▁stanton	-11.5051
▁chico	-11.5051
▁deliberately	-11.5051
▁uncie	-11.5051
▁journalist	-11.5051
▁triton	-11.5051
▁ballroom	-11.5052
▁raul	-11.5052
▁gutter	-11.5052
▁fangs	-11.5052
▁aidan	-11.5052
▁rotate	-11.5052
▁forcefully	-11.5052
▁nerd	-11.5052
▁smugg	-11.5052
▁penny	-11.5052
▁shred	-11.5052
▁dibs	-11.5052
▁virginia	-11.5053
▁arson	-11.5053
▁aspirin	-11.5053
▁happier	-11.5053
▁iq	-11.5053
▁zap	-11.5053
▁bilo	-11.5053
▁jock	-11.5053
▁notch	-11.5053
▁zoo	-11.5053
▁shade	-11.5054
▁marx	-11.5054
▁whine	-11.5054
ylli	-11.5054
nshaw	-11.5054
▁holster	-11.5054
▁flexible	-11.5054
▁occupied	-11.5054
▁wright	-11.5054
▁particle	-11.5054
▁prun	-11.5054
▁magn	-11.5055
▁irises	-11.5055
▁swell	-11.5055
▁casing	-11.5055
▁rayette	-11.5055
▁ivan	-11.5055
▁development	-11.5055
▁ratings	-11.5055
▁thirsty	-11.5055
▁airlock	-11.5056
▁maui	-11.5056
▁niv	-11.5056
▁imply	-11.5056
▁replay	-11.5056
▁rach	-11.5057
▁stoker	-11.5057
▁sensational	-11.5057
▁rug	-11.5057
▁apc	-11.5058
▁rolex	-11.5058
▁stitches	-11.5058
▁stem	-11.5058
▁harmless	-11.5059
▁publicity	-11.5059
▁drank	-11.5059
▁tele	-11.5059
door	-11.5059
▁flatter	-11.5061
▁lighthouse	-11.5061
hour	-11.5061
▁mitchell	-11.5061
▁peaceful	-11.5061
▁monk	-11.5061
▁buke	-11.5062
▁raw	-11.5062
▁quest	-11.5062
▁doz	-11.5063
▁resistance	-11.5063
▁gps	-11.5063
▁guardian	-11.5063
wei	-11.5063
▁whale	-11.5063
▁upsetting	-11.5064
▁evac	-11.5065
naise	-11.5066
▁valve	-11.5066
▁abortion	-11.5066
▁abra	-11.5067
▁fitting	-11.5067
▁ravel	-11.5067
▁gma	-11.5068
▁determined	-11.5068
▁cuban	-11.5068
▁acceptable	-11.5069
▁tapped	-11.5069
▁santo	-11.507
▁trenton	-11.5071
▁ceo	-11.5071
▁permanently	-11.5071
▁doom	-11.5072
▁mechanical	-11.5073
▁collector	-11.5073
▁ahem	-11.5074
▁barton	-11.5074
▁dumbass	-11.5075
▁grinder	-11.5075
▁airline	-11.5077
▁benz	-11.5077
▁oral	-11.5077
▁recommendation	-11.5077
▁mun	-11.5077
▁jamm	-11.5079
▁rum	-11.508
▁anus	-11.508
▁tenant	-11.5081
▁playback	-11.5081
▁respectable	-11.5085
▁payoff	-11.5085
bun	-11.5086
▁revving	-11.5086
▁insulted	-11.5087
▁recruited	-11.5087
▁hometown	-11.5088
▁ante	-11.5088
▁fuckface	-11.5089
▁pager	-11.509
▁porno	-11.5091
▁penises	-11.5092
▁bullshitting	-11.5092
▁improvise	-11.5093
▁cj	-11.5093
▁actresses	-11.5093
▁anne	-11.5095
▁consideration	-11.5096
▁accomplished	-11.5096
▁kia	-11.5096
▁jude	-11.5096
aries	-11.5097
▁squawking	-11.5098
▁tempting	-11.5098
▁greeting	-11.5098
▁glowing	-11.5098
tomic	-11.5098
▁rome	-11.5098
▁ella	-11.5099
▁hom	-11.5101
▁handling	-11.5103
▁lighten	-11.5104
▁rang	-11.5104
▁coon	-11.5106
lne	-11.5107
▁mer	-11.511
▁inde	-11.511
▁dispose	-11.5113
▁strained	-11.5113
▁anna	-11.5113
brid	-11.5116
▁irony	-11.5118
▁copies	-11.5119
▁disturbing	-11.512
▁iooking	-11.512
▁cabin	-11.5122
mata	-11.5122
▁cheated	-11.5123
▁assert	-11.5123
▁tuber	-11.5126
▁anal	-11.5128
▁removed	-11.5131
▁scann	-11.5131
▁flooded	-11.5131
▁trin	-11.5132
▁crunching	-11.5132
▁wonderf	-11.5132
▁lars	-11.5132
▁eighth	-11.5132
▁sung	-11.5134
▁shitload	-11.5137
cie	-11.514
▁departed	-11.514
▁homeland	-11.5145
▁dusty	-11.5148
▁distracted	-11.5149
▁erased	-11.5151
▁lair	-11.5154
▁bounced	-11.5155
▁wat	-11.5157
▁shutting	-11.5162
▁daytime	-11.5163
▁poly	-11.5165
▁endless	-11.5166
▁cong	-11.5168
▁sharply	-11.5169
sequent	-11.5175
▁dah	-11.5177
▁topic	-11.5179
▁pit	-11.518
scrib	-11.5182
▁flashy	-11.5182
▁pitcher	-11.5187
▁syri	-11.5188
▁scored	-11.519
▁beaches	-11.519
▁nervously	-11.5193
▁rollin	-11.5203
▁lowly	-11.5203
fan	-11.521
▁corny	-11.5214
atom	-11.5217
▁meters	-11.5221
▁simpler	-11.5229
▁correction	-11.5232
▁taro	-11.5234
▁rever	-11.5235
▁flick	-11.5246
▁merge	-11.5251
▁sau	-11.5267
▁mara	-11.5285
▁infiltrat	-11.5301
▁reform	-11.5303
▁swor	-11.5312
▁mist	-11.5316
▁trimm	-11.5321
▁smoker	-11.5323
pop	-11.5327
▁hitch	-11.5357
▁tanker	-11.5359
▁vam	-11.5377
▁birdie	-11.5399
▁stripp	-11.5416
dialing	-11.5475
▁hel	-11.5482
▁swis	-11.5485
▁ken	-11.5487
urp	-11.5503
laba	-11.5505
▁farmer	-11.5526
▁salva	-11.5553
stage	-11.556
hit	-11.5575
▁imitate	-11.5586
▁dose	-11.5589
ames	-11.559
▁viewer	-11.5605
hopping	-11.5614
▁deca	-11.5636
paid	-11.5663
▁deli	-11.5699
▁yea	-11.5743
▁romania	-11.5797
▁mira	-11.5812
▁jr	-11.5865
▁bran	-11.5905
read	-11.5945
alte	-11.5947
gue	-11.5951
axo	-11.5963
▁premier	-11.606
▁undo	-11.6061
list	-11.6341
roth	-11.6361
▁distribut	-11.6382
▁semi	-11.6398
pit	-11.6434
▁vario	-11.6488
▁earl	-11.6493
▁circl	-11.654
ello	-11.6579
▁boul	-11.6618
▁behav	-11.6654
hei	-11.668
▁ont	-11.6684
▁trou	-11.672
▁vel	-11.6744
plicate	-11.6788
▁defi	-11.6816
blets	-11.6863
horn	-11.6876
▁ito	-11.6881
▁judg	-11.7001
▁hen	-11.7003
habi	-11.7015
▁blar	-11.7018
▁prima	-11.7061
angu	-11.7084
self	-11.7098
opped	-11.7113
glia	-11.7115
▁transmit	-11.7232
licking	-11.7267
tribute	-11.73
▁sac	-11.7313
▁snarl	-11.7313
▁belief	-11.7314
▁giggle	-11.732
▁chime	-11.7321
▁civilian	-11.7323
▁involv	-11.7368
▁intr	-11.7368
▁shak	-11.738
▁fri	-11.739
▁advanc	-11.7413
pression	-11.7418
linked	-11.7423
▁tradition	-11.7448
eater	-11.7455
▁scan	-11.7457
▁mug	-11.7468
▁negotia	-11.7478
▁yum	-11.7482
▁critic	-11.7483
▁morn	-11.7489
▁verif	-11.7497
▁streak	-11.7497
egan	-11.7497
▁weep	-11.7498
▁howl	-11.7499
▁mourn	-11.7499
▁deedee	-11.7503
▁revv	-11.7503
▁addict	-11.7505
▁charle	-11.7514
▁crow	-11.7517
burn	-11.7517
▁engage	-11.7517
▁muthafuck	-11.7517
▁determine	-11.7518
▁activate	-11.7519
▁execute	-11.7519
lookin	-11.752
▁crisp	-11.7521
mark	-11.7521
walk	-11.7521
▁rold	-11.7522
privileged	-11.7523
front	-11.7523
dollar	-11.7524
launch	-11.7524
half	-11.7524
birth	-11.7524
knock	-11.7524
danny	-11.7524
perfect	-11.7524
check	-11.7524
important	-11.7524
married	-11.7524
speak	-11.7525
safe	-11.7525
killer	-11.7525
itts	-11.7525
ofthe	-11.7526
siren	-11.7527
▁micro	-11.7527
change	-11.7528
▁numb	-11.7529
artar	-11.7529
teeth	-11.753
born	-11.753
dick	-11.753
dead	-11.7531
▁definite	-11.7533
▁absolute	-11.7533
▁origin	-11.7534
▁clair	-11.7536
▁choo	-11.7536
▁happie	-11.7538
glass	-11.7538
▁delusion	-11.7539
▁rave	-11.754
▁tickin	-11.7541
▁supervis	-11.7542
▁scienti	-11.7542
umbling	-11.7543
mhmm	-11.7543
▁allerg	-11.7543
quinn	-11.7544
▁tex	-11.7544
oggy	-11.7544
▁surge	-11.7544
▁destruct	-11.7545
▁confront	-11.7545
▁dispens	-11.7546
▁expend	-11.7546
▁hygien	-11.7546
▁kazakh	-11.7546
▁noodle	-11.7546
anxiety	-11.7546
chemistry	-11.7546
choreograph	-11.7546
nourishment	-11.7546
significant	-11.7546
▁abdomin	-11.7546
▁accommodate	-11.7546
▁accumulate	-11.7546
▁acquainted	-11.7546
▁admission	-11.7546
▁adversary	-11.7546
▁aggravat	-11.7546
▁ajmal	-11.7546
▁ancestors	-11.7546
▁aquar	-11.7546
▁ararat	-11.7546
▁assumption	-11.7546
▁athlete	-11.7546
▁august	-11.7546
▁authentic	-11.7546
▁autograph	-11.7546
▁automobile	-11.7546
▁azupep	-11.7546
▁baboon	-11.7546
▁barricade	-11.7546
▁baywatch	-11.7546
▁beacon	-11.7546
▁beheadings	-11.7546
▁believing	-11.7546
▁bellevue	-11.7546
▁bernard	-11.7546
▁berserk	-11.7546
▁birdbath	-11.7546
▁bluffing	-11.7546
▁boddicker	-11.7546
▁bodybuilders	-11.7546
▁bodyguard	-11.7546
▁boomshakalaka	-11.7546
▁brennan	-11.7546
▁briefcase	-11.7546
▁bypass	-11.7546
▁cabbage	-11.7546
▁calendar	-11.7546
▁candidate	-11.7546
▁celebrity	-11.7546
▁censor	-11.7546
▁cerrano	-11.7546
▁cheddar	-11.7546
▁chronic	-11.7546
▁circulat	-11.7546
▁clarify	-11.7546
▁clunking	-11.7546
▁cockroaches	-11.7546
▁conceiv	-11.7546
▁conclude	-11.7546
▁concuss	-11.7546
▁convenience	-11.7546
▁corridor	-11.7546
▁corroborate	-11.7546
▁coyote	-11.7546
▁cremated	-11.7546
▁crooked	-11.7546
▁cynical	-11.7546
▁decipher	-11.7546
▁default	-11.7546
▁delightful	-11.7546
▁demonstration	-11.7546
▁dempsey	-11.7546
▁derogatory	-11.7546
▁desirable	-11.7546
▁dietrich	-11.7546
▁dilemma	-11.7546
▁dinosaur	-11.7546
▁discreet	-11.7546
▁disguise	-11.7546
▁disposal	-11.7546
▁doorknob	-11.7546
▁dynami	-11.7546
▁economy	-11.7546
▁emporium	-11.7546
▁encourage	-11.7546
▁entitled	-11.7546
▁eternity	-11.7546
▁eugene	-11.7546
▁examination	-11.7546
▁exploring	-11.7546
▁exquisite	-11.7546
▁felony	-11.7546
▁feminist	-11.7546
▁fertilize	-11.7546
▁fragile	-11.7546
▁freight	-11.7546
▁fresno	-11.7546
▁freysa	-11.7546
▁fulbright	-11.7546
▁futile	-11.7546
▁fword	-11.7546
▁gabriel	-11.7546
▁gauze	-11.7546
▁geometr	-11.7546
▁gilligan	-11.7546
▁glasgow	-11.7546
▁global	-11.7546
▁groove	-11.7546
▁gunshofl	-11.7546
▁gymnasium	-11.7546
▁hairdresser	-11.7546
▁hannah	-11.7546
▁harassment	-11.7546
▁historical	-11.7546
▁identification	-11.7546
▁impulse	-11.7546
▁incontinent	-11.7546
▁indefinitely	-11.7546
▁industrial	-11.7546
▁infrared	-11.7546
▁insecure	-11.7546
▁inspection	-11.7546
▁instagram	-11.7546
▁installed	-11.7546
▁insubordination	-11.7546
▁kaufman	-11.7546
▁kenosha	-11.7546
▁knucklehead	-11.7546
▁lasagna	-11.7546
▁lauderdale	-11.7546
▁literature	-11.7546
▁lowlife	-11.7546
▁macneil	-11.7546
▁malkina	-11.7546
▁malmsteen	-11.7546
▁mammy	-11.7546
▁manufacture	-11.7546
▁mascot	-11.7546
▁massachusetts	-11.7546
▁mcknight	-11.7546
▁mclaughlin	-11.7546
▁mcnamara	-11.7546
▁mediocr	-11.7546
▁meurice	-11.7546
▁migraine	-11.7546
▁monogamy	-11.7546
▁morgan	-11.7546
▁morgue	-11.7546
▁morris	-11.7546
▁motivation	-11.7546
▁moustache	-11.7546
▁mozart	-11.7546
▁municipal	-11.7546
▁navigate	-11.7546
▁necklace	-11.7546
▁nibbles	-11.7546
▁nightgown	-11.7546
▁nostalgi	-11.7546
▁notorious	-11.7546
▁nozz	-11.7546
▁obstacle	-11.7546
▁offensive	-11.7546
▁offshore	-11.7546
▁oklahoma	-11.7546
▁paralyzed	-11.7546
▁parrot	-11.7546
▁perceive	-11.7546
▁philadelphia	-11.7546
▁philanthropist	-11.7546
▁philosophy	-11.7546
▁pingpong	-11.7546
▁pleurera	-11.7546
▁politician	-11.7546
▁poltergeist	-11.7546
▁pookie	-11.7546
▁portuguese	-11.7546
▁postdeath	-11.7546
▁preservation	-11.7546
▁prevail	-11.7546
▁probiem	-11.7546
▁producing	-11.7546
▁prognosis	-11.7546
▁prohibited	-11.7546
▁prospect	-11.7546
▁provincetown	-11.7546
▁qualify	-11.7546
▁reagan	-11.7546
▁reflex	-11.7546
▁remake	-11.7546
▁resign	-11.7546
▁retract	-11.7546
▁revoke	-11.7546
▁robocop	-11.7546
▁rodrigo	-11.7546
▁roscoe	-11.7546
▁russborough	-11.7546
▁russo	-11.7546
▁sacramento	-11.7546
▁sacrificing	-11.7546
▁seatbelt	-11.7546
▁seizure	-11.7546
▁selfdefen	-11.7546
▁shamiana	-11.7546
▁shelves	-11.7546
▁shirley	-11.7546
▁slauson	-11.7546
▁slurring	-11.7546
▁snlff	-11.7546
▁somali	-11.7546
▁splashing	-11.7546
▁starbucks	-11.7546
▁stimul	-11.7546
▁striking	-11.7546
▁struggling	-11.7546
▁sunglasses	-11.7546
▁supreme	-11.7546
▁swift	-11.7546
▁taggart	-11.7546
▁tarzan	-11.7546
▁tattoo	-11.7546
▁technique	-11.7546
▁thornton	-11.7546
▁thorough	-11.7546
▁thunderclap	-11.7546
▁ticktock	-11.7546
▁trembling	-11.7546
▁trenches	-11.7546
▁trespassing	-11.7546
▁tshirt	-11.7546
▁tyree	-11.7546
▁underestimated	-11.7546
▁unfinished	-11.7546
▁unhappy	-11.7546
▁unheard	-11.7546
▁universal	-11.7546
▁unleash	-11.7546
▁unpatriotic	-11.7546
▁vampire	-11.7546
▁vasquez	-11.7546
▁verdict	-11.7546
▁vessel	-11.7546
▁vibrates	-11.7546
▁vibration	-11.7546
▁videotape	-11.7546
▁violet	-11.7546
▁waffle	-11.7546
▁waldman	-11.7546
▁wanjidon	-11.7546
▁whatnot	-11.7546
▁wheelchair	-11.7546
▁windshield	-11.7546
▁wrath	-11.7546
▁yankeenineniner	-11.7546
biograph	-11.7546
▁analyze	-11.7546
▁apprehen	-11.7546
▁baggage	-11.7546
▁bloke	-11.7546
▁brittany	-11.7546
▁bronze	-11.7546
▁bruh	-11.7546
▁capacity	-11.7546
▁coupon	-11.7546
▁defect	-11.7546
▁deranged	-11.7546
▁dildo	-11.7546
▁doogie	-11.7546
▁editorial	-11.7546
▁election	-11.7546
▁fortunate	-11.7546
▁gangbang	-11.7546
▁gasoline	-11.7546
▁guinness	-11.7546
▁harlem	-11.7546
▁houston	-11.7546
▁indict	-11.7546
▁jheri	-11.7546
▁jiang	-11.7546
▁knob	-11.7546
▁louisiana	-11.7546
▁omelet	-11.7546
▁parasite	-11.7546
▁postcard	-11.7546
▁prestig	-11.7546
▁rabies	-11.7546
▁retail	-11.7546
▁silicon	-11.7546
▁substance	-11.7546
▁suburb	-11.7546
▁synchroni	-11.7546
▁taiaha	-11.7546
▁tannoy	-11.7546
▁transaction	-11.7546
▁transform	-11.7546
▁vicinity	-11.7546
mphatic	-11.7546
▁assembled	-11.7546
▁bookcase	-11.7546
▁brotherinlaw	-11.7546
▁conquer	-11.7546
▁detour	-11.7546
▁dignity	-11.7546
▁dixie	-11.7546
▁dorky	-11.7546
▁dudley	-11.7546
▁eternal	-11.7546
▁fiction	-11.7546
▁globe	-11.7546
▁gulf	-11.7546
▁havana	-11.7546
▁hunch	-11.7546
▁hypo	-11.7546
▁lndian	-11.7546
▁maddox	-11.7546
▁motto	-11.7546
▁oooh	-11.7546
▁piace	-11.7546
▁protein	-11.7546
▁sanderson	-11.7546
▁shelter	-11.7546
▁skimm	-11.7546
▁snicker	-11.7546
▁stumble	-11.7546
▁wilkins	-11.7546
▁align	-11.7546
▁scalp	-11.7546
▁sunrise	-11.7546
▁bolero	-11.7546
▁endanger	-11.7546
▁fourteen	-11.7546
▁hardcore	-11.7546
▁joshua	-11.7546
▁kesher	-11.7546
▁noisy	-11.7546
▁phony	-11.7546
▁randall	-11.7546
▁regain	-11.7546
▁urinal	-11.7546
▁wilderness	-11.7546
▁acute	-11.7546
▁appetiz	-11.7546
▁colony	-11.7546
▁depth	-11.7546
▁dictat	-11.7546
▁eager	-11.7546
▁herpes	-11.7546
▁karl	-11.7546
▁pulsing	-11.7546
▁recap	-11.7546
▁diabolical	-11.7546
▁estonia	-11.7546
▁gesture	-11.7546
▁gooks	-11.7546
▁harassing	-11.7546
▁kanu	-11.7546
▁licence	-11.7546
▁perez	-11.7546
▁cafe	-11.7546
▁handgun	-11.7546
▁orrin	-11.7546
▁pelle	-11.7546
▁piana	-11.7546
▁sushi	-11.7546
▁tyran	-11.7546
▁utter	-11.7546
▁buggy	-11.7546
▁eldad	-11.7546
▁hanson	-11.7546
▁stash	-11.7546
▁yawn	-11.7546
▁ficus	-11.7546
▁herald	-11.7546
▁telescope	-11.7546
▁rowlands	-11.7546
▁tomica	-11.7546
recogni	-11.7546
▁heap	-11.7546
▁kroy	-11.7546
▁newark	-11.7546
▁panther	-11.7546
▁relay	-11.7546
▁dismantl	-11.7546
▁pedro	-11.7546
▁biohazard	-11.7546
▁directress	-11.7546
▁stabilize	-11.7546
▁dresden	-11.7546
▁klein	-11.7546
▁shoppers	-11.7546
▁sumbitch	-11.7546
▁glamorous	-11.7546
▁ofher	-11.7546
runch	-11.7546
▁appearances	-11.7546
▁backseat	-11.7546
▁farther	-11.7546
▁priorities	-11.7546
noxious	-11.7546
▁incen	-11.7546
▁lothar	-11.7546
▁prophecy	-11.7546
▁vocal	-11.7546
▁wein	-11.7546
▁momund	-11.7546
bscene	-11.7546
▁partygoer	-11.7546
▁hallucin	-11.7547
yify	-11.7547
▁donate	-11.7547
▁submit	-11.7547
▁ensure	-11.7547
▁stomp	-11.7547
▁fyi	-11.7547
▁arsen	-11.7547
▁oppression	-11.7547
junction	-11.7547
▁collat	-11.7547
▁bowels	-11.7547
▁bulge	-11.7547
▁wails	-11.7547
▁kkk	-11.7547
▁taime	-11.7547
▁relocat	-11.7547
▁innovati	-11.7547
▁drift	-11.7547
▁oblivious	-11.7547
▁plunge	-11.7547
▁preset	-11.7547
▁nanny	-11.7547
▁convert	-11.7547
▁darren	-11.7547
▁bald	-11.7547
▁kinney	-11.7547
▁pervers	-11.7547
▁theatr	-11.7547
▁corporat	-11.7547
▁kidneys	-11.7547
▁integrity	-11.7547
▁insert	-11.7547
▁preach	-11.7547
▁prowl	-11.7547
▁spiritual	-11.7547
▁lush	-11.7547
▁surfboard	-11.7547
▁exceptional	-11.7547
▁crocke	-11.7547
▁urns	-11.7547
▁sideways	-11.7547
hubby	-11.7547
▁scrapbook	-11.7547
▁apron	-11.7547
▁zipper	-11.7547
▁colum	-11.7547
▁laptop	-11.7547
ounty	-11.7547
▁rival	-11.7547
▁truce	-11.7547
▁dye	-11.7547
▁lethal	-11.7547
▁boardwalk	-11.7548
▁grudge	-11.7548
▁physi	-11.7548
▁upped	-11.7548
▁marath	-11.7548
▁xbox	-11.7548
▁tsk	-11.7548
▁mailbox	-11.7548
▁babbling	-11.7548
▁hayward	-11.7548
kara	-11.7548
▁lightning	-11.7548
▁appreciation	-11.7548
▁gurgle	-11.7548
▁extraction	-11.7548
▁decorations	-11.7548
▁fierce	-11.7548
▁journalism	-11.7548
▁subscribe	-11.7548
▁hazy	-11.7548
▁portray	-11.7548
▁vague	-11.7548
▁hidin	-11.7548
▁clamp	-11.7548
ophobia	-11.7548
▁traumatic	-11.7548
▁chocolatier	-11.7548
▁calder	-11.7548
▁apologies	-11.7548
▁confidential	-11.7548
▁protestant	-11.7548
▁antique	-11.7548
▁bogot	-11.7548
▁pocketbook	-11.7548
▁ribs	-11.7548
▁tripped	-11.7548
▁quant	-11.7548
▁calvin	-11.7548
▁nadia	-11.7548
▁tread	-11.7548
▁outbreak	-11.7549
▁slurp	-11.7549
▁consultant	-11.7549
▁unison	-11.7549
▁necessarily	-11.7549
▁specifically	-11.7549
▁teii	-11.7549
▁allergies	-11.7549
▁bertram	-11.7549
▁sadistic	-11.7549
▁dewa	-11.7549
▁slack	-11.7549
▁awhile	-11.7549
▁vicki	-11.7549
▁ohohoh	-11.7549
▁battlefield	-11.7549
▁withdrawal	-11.7549
▁heip	-11.755
▁faking	-11.755
▁guam	-11.755
▁dunno	-11.755
▁existence	-11.755
▁kingsley	-11.755
▁thethe	-11.755
▁indoor	-11.755
▁dumpster	-11.755
▁jomon	-11.755
▁christopher	-11.755
▁dragging	-11.755
▁limo	-11.755
▁articulate	-11.755
▁circumcised	-11.755
▁eighteen	-11.755
▁variable	-11.755
▁molly	-11.755
▁grabbing	-11.755
▁coleman	-11.755
▁okeydokey	-11.755
▁nude	-11.7551
▁disarm	-11.7551
▁westray	-11.7551
▁juan	-11.7551
▁passbook	-11.7551
▁oof	-11.7551
▁andrew	-11.7551
▁pension	-11.7551
▁lyon	-11.7551
▁kiloton	-11.7551
▁shortcut	-11.7551
▁robinson	-11.7551
▁zahrani	-11.7551
wept	-11.7552
▁whir	-11.7552
bitch	-11.7552
▁courtroom	-11.7552
schers	-11.7552
▁abolitionist	-11.7552
▁brutality	-11.7552
▁righteous	-11.7552
▁attendant	-11.7552
▁personalities	-11.7552
▁venture	-11.7552
▁grim	-11.7553
▁ramey	-11.7553
nail	-11.7553
▁pierre	-11.7553
▁postga	-11.7553
plain	-11.7553
▁rosa	-11.7553
▁minority	-11.7554
▁susanna	-11.7554
▁taters	-11.7554
▁delusional	-11.7554
▁objective	-11.7554
▁frederi	-11.7554
▁colada	-11.7554
▁heartache	-11.7554
▁mainland	-11.7554
▁puking	-11.7554
▁salesman	-11.7554
▁arc	-11.7554
▁rebound	-11.7554
▁grey	-11.7555
▁stella	-11.7555
▁nuke	-11.7555
▁tux	-11.7555
▁housekeeper	-11.7555
▁irre	-11.7555
▁seattle	-11.7555
▁huey	-11.7556
▁playlist	-11.7556
▁mmmmm	-11.7556
▁hassle	-11.7556
▁iong	-11.7556
▁keyboard	-11.7556
▁tolera	-11.7557
▁reload	-11.7557
▁apb	-11.7557
▁sufficient	-11.7557
▁dante	-11.7557
▁spaz	-11.7557
▁attraction	-11.7557
▁mutation	-11.7557
▁luke	-11.7557
▁increasingly	-11.7557
▁kiii	-11.7557
▁scoop	-11.7557
▁kurt	-11.7558
▁handjob	-11.7558
▁steamers	-11.7558
▁trance	-11.7558
▁thong	-11.7558
▁berk	-11.7559
▁token	-11.7559
▁qualified	-11.7559
▁modest	-11.7559
▁montes	-11.7559
▁hbo	-11.7559
kfar	-11.7559
▁restroom	-11.7559
thetic	-11.756
abble	-11.756
▁carats	-11.756
▁tich	-11.756
▁fork	-11.756
▁growls	-11.756
▁patel	-11.756
▁anson	-11.756
▁royalty	-11.756
▁humble	-11.7561
▁muss	-11.7561
▁breakthrough	-11.7561
diac	-11.7561
▁slant	-11.7561
▁overhear	-11.7561
▁aircraft	-11.7561
▁rodman	-11.7562
izzi	-11.7562
▁seduc	-11.7562
▁preparation	-11.7562
▁didi	-11.7562
reign	-11.7562
▁melon	-11.7563
▁eyeball	-11.7563
▁shelley	-11.7564
▁serving	-11.7564
▁meaningless	-11.7564
▁humiliation	-11.7564
▁variation	-11.7564
▁trophy	-11.7565
▁weaponry	-11.7566
▁vase	-11.7566
▁pubes	-11.7566
▁discharged	-11.7567
▁labor	-11.7567
▁publicist	-11.7568
▁exposed	-11.7568
▁clause	-11.757
▁ego	-11.757
▁anonymously	-11.757
▁judgmental	-11.7571
▁scarf	-11.7571
▁robble	-11.7572
▁mack	-11.7573
▁hedge	-11.7573
▁employer	-11.7575
onti	-11.7575
fif	-11.7575
▁spicer	-11.7575
▁batch	-11.7575
▁waist	-11.7576
▁reai	-11.7576
▁recon	-11.7577
▁playboy	-11.7578
▁payback	-11.7579
drivin	-11.7579
▁dej	-11.758
▁daah	-11.758
▁jour	-11.758
pregna	-11.758
ension	-11.7582
▁jac	-11.7582
▁tailor	-11.7583
▁blonde	-11.7583
▁barge	-11.7583
▁nickel	-11.7583
▁intro	-11.7584
▁joan	-11.7585
ephi	-11.7585
▁rlc	-11.7585
▁mere	-11.7586
▁fearless	-11.7587
▁sour	-11.7587
▁processor	-11.7588
▁gunner	-11.7588
▁bj	-11.7588
▁freshen	-11.7589
▁container	-11.7589
▁cour	-11.7589
▁hoop	-11.759
▁masses	-11.7591
fish	-11.7593
▁abc	-11.7595
▁drawn	-11.7599
where	-11.7601
▁drone	-11.7601
▁lava	-11.7601
▁swan	-11.7602
▁unfi	-11.7604
▁betting	-11.7608
▁mia	-11.761
ween	-11.7612
▁seance	-11.7614
▁drew	-11.7614
▁penal	-11.7616
▁server	-11.7616
▁bombers	-11.7618
ubo	-11.7618
▁cami	-11.7619
▁data	-11.762
▁metro	-11.762
▁drugg	-11.7625
▁publisher	-11.7626
▁centre	-11.7642
liness	-11.7647
uate	-11.7655
▁kam	-11.7663
▁slamm	-11.7671
raving	-11.7672
▁acquire	-11.7675
istan	-11.7677
tempo	-11.7681
ledge	-11.7682
azy	-11.769
▁projection	-11.7697
▁narcissist	-11.7702
donna	-11.7707
nlisted	-11.7722
erior	-11.7741
mushroom	-11.7764
▁buzzer	-11.7764
▁referr	-11.7772
intuiti	-11.7776
winces	-11.7799
▁jeweler	-11.7822
▁ape	-11.7825
▁fuse	-11.7827
▁chassi	-11.7833
▁bragg	-11.787
▁erect	-11.7879
gua	-11.7888
▁badger	-11.7911
predictable	-11.7914
▁buttfuck	-11.7999
▁skipp	-11.8017
precedent	-11.8045
bell	-11.8057
agging	-11.8163
▁pear	-11.8222
tell	-11.8253
ryan	-11.8269
▁rewrite	-11.8289
guero	-11.8323
opping	-11.8344
▁vap	-11.8353
▁trad	-11.8388
▁stagg	-11.8437
▁disciplin	-11.8489
dish	-11.8531
▁stac	-11.856
ventilat	-11.8621
ulder	-11.8632
▁allo	-11.8708
log	-11.891
▁technicalit	-11.8917
▁mog	-11.8919
strictions	-11.8942
▁travell	-11.8947
houn	-11.8948
cita	-11.8992
spel	-11.9028
▁commun	-11.9059
▁batt	-11.907
▁juli	-11.9072
▁terrifi	-11.9114
agged	-11.9159
▁restrict	-11.9172
▁arteri	-11.9187
pedo	-11.9227
etera	-11.9263
▁wak	-11.9316
▁pursu	-11.9347
▁eminen	-11.9355
treating	-11.9568
ruck	-11.9653
▁ceme	-11.9682
quel	-11.9692
this	-11.972
ember	-11.9779
agger	-11.9788
busters	-11.9807
posed	-11.9889
writer	-11.9907
chester	-11.9922
▁precede	-12.0225
shaped	-12.0309
got	-12.0341
▁impose	-12.0355
riots	-12.0494
anquet	-12.0507
craz	-12.054
carat	-12.0556
▁creak	-12.0599
▁require	-12.0617
▁expense	-12.0645
▁hamburger	-12.0645
▁camber	-12.0646
▁lyric	-12.0647
▁explosive	-12.065
▁humvee	-12.065
▁vein	-12.065
▁rust	-12.0682
serving	-12.0686
loved	-12.0697
egitimate	-12.0708
home	-12.0712
minded	-12.0734
▁exten	-12.0741
raping	-12.0752
▁neuro	-12.0754
obin	-12.0758
▁whwh	-12.0758
▁recogniz	-12.0812
▁apolog	-12.0814
▁divorc	-12.0816
keeper	-12.0818
umpy	-12.082
▁figur	-12.0821
▁introduc	-12.0825
father	-12.083
▁swap	-12.083
▁disgust	-12.0833
lushing	-12.0835
drops	-12.0837
wearing	-12.0839
▁obsess	-12.0839
▁cassi	-12.0842
▁dismiss	-12.0844
▁butch	-12.0847
scope	-12.0848
▁discharge	-12.0851
▁expose	-12.0851
solution	-12.0853
▁strawberr	-12.0855
▁facilit	-12.0855
▁custod	-12.0856
wait	-12.0856
february	-12.0856
▁confuse	-12.0856
spotted	-12.0856
curl	-12.0857
tight	-12.0857
plug	-12.0857
winning	-12.0857
pipe	-12.0857
grass	-12.0857
rescue	-12.0857
shift	-12.0858
proof	-12.0858
understood	-12.0858
ocean	-12.0858
grown	-12.0858
public	-12.0858
season	-12.0858
protect	-12.0858
interest	-12.0858
loving	-12.0858
movie	-12.0858
running	-12.0858
chuckles	-12.0858
children	-12.0858
together	-12.0858
course	-12.0858
today	-12.0858
pick	-12.0858
▁troph	-12.0858
space	-12.0858
good	-12.0858
storm	-12.0859
tips	-12.086
double	-12.086
body	-12.086
dressed	-12.0862
guns	-12.0863
decent	-12.0864
▁increasing	-12.0864
master	-12.0866
▁aspir	-12.0868
second	-12.087
making	-12.087
▁jamaica	-12.087
▁australia	-12.0871
cake	-12.0871
▁dahdahdah	-12.0872
bec	-12.0872
▁exhal	-12.0873
nows	-12.0874
▁grabbin	-12.0874
▁humbl	-12.0875
▁trait	-12.0875
hattering	-12.0875
▁administrati	-12.0876
hohoho	-12.0876
▁dyin	-12.0876
developed	-12.0876
▁construct	-12.0876
athan	-12.0877
▁inher	-12.0877
▁prior	-12.0878
▁priv	-12.0878
▁puttin	-12.0878
▁assassin	-12.0878
▁unconscious	-12.0878
▁kidnap	-12.0879
▁radiat	-12.0879
▁bouch	-12.0879
titude	-12.0879
audible	-12.0879
brook	-12.0879
omotion	-12.0879
▁barten	-12.0879
▁krypton	-12.0879
wich	-12.0879
imeter	-12.0879
▁stereo	-12.0879
▁symphoni	-12.088
▁unforgiv	-12.088
attentive	-12.088
centric	-12.088
encyclopedia	-12.088
endricks	-12.088
forsaken	-12.088
hisname	-12.088
sensual	-12.088
template	-12.088
tflix	-12.088
▁abetting	-12.088
▁abilities	-12.088
▁abscam	-12.088
▁accusation	-12.088
▁acquaintance	-12.088
▁adrenalin	-12.088
▁agitat	-12.088
▁aircondition	-12.088
▁alaska	-12.088
▁amazon	-12.088
▁ambitious	-12.088
▁amerikkka	-12.088
▁annihilation	-12.088
▁anorexi	-12.088
▁aquinas	-12.088
▁arrogant	-12.088
▁aspen	-12.088
▁attaglia	-12.088
▁autumn	-12.088
▁baloney	-12.088
▁barboza	-12.088
▁beiieve	-12.088
▁benjamin	-12.088
▁beverage	-12.088
▁bizarre	-12.088
▁bonfire	-12.088
▁borough	-12.088
▁bouquet	-12.088
▁broflovski	-12.088
▁brunette	-12.088
▁butterflies	-12.088
▁caffeine	-12.088
▁capabilities	-12.088
▁caribbean	-12.088
▁catalogue	-12.088
▁caucasian	-12.088
▁caviar	-12.088
▁caxton	-12.088
▁chariot	-12.088
▁charlotte	-12.088
▁chopsticks	-12.088
▁chuckllng	-12.088
▁cinnamon	-12.088
▁circumstantial	-12.088
▁claiborne	-12.088
▁coblenz	-12.088
▁coddling	-12.088
▁coglin	-12.088
▁collette	-12.088
▁cologne	-12.088
▁commissary	-12.088
▁compensate	-12.088
▁component	-12.088
▁composure	-12.088
▁concrete	-12.088
▁condiments	-12.088
▁consistency	-12.088
▁contingency	-12.088
▁correspond	-12.088
▁deceiving	-12.088
▁delinquen	-12.088
▁demerius	-12.088
▁desatting	-12.088
▁descend	-12.088
▁destined	-12.088
▁diabet	-12.088
▁diligent	-12.088
▁disengage	-12.088
▁downstream	-12.088
▁drydock	-12.088
▁dumbdumb	-12.088
▁dysfunction	-12.088
▁eggplant	-12.088
▁elegant	-12.088
▁elliman	-12.088
▁empower	-12.088
▁encouraging	-12.088
▁enrique	-12.088
▁enunciat	-12.088
▁epitaph	-12.088
▁etje	-12.088
▁eunuch	-12.088
▁evidently	-12.088
▁exhausting	-12.088
▁exhumed	-12.088
▁experiencing	-12.088
▁exploding	-12.088
▁exposure	-12.088
▁extinct	-12.088
▁eyewitness	-12.088
▁famished	-12.088
▁fascinate	-12.088
▁faucet	-12.088
▁fazools	-12.088
▁fervent	-12.088
▁firepower	-12.088
▁fluttering	-12.088
▁forfeit	-12.088
▁frankensync	-12.088
▁frederickson	-12.088
▁fuckstick	-12.088
▁fujita	-12.088
▁fundamentalists	-12.088
▁gadget	-12.088
▁generosity	-12.088
▁genevieve	-12.088
▁gibberish	-12.088
▁giddyap	-12.088
▁giuseppina	-12.088
▁goddammit	-12.088
▁governor	-12.088
▁gracious	-12.088
▁graphic	-12.088
▁grease	-12.088
▁grentz	-12.088
▁gretzky	-12.088
▁greyhound	-12.088
▁guacamole	-12.088
▁guilford	-12.088
▁guillermo	-12.088
▁gurney	-12.088
▁handicrafts	-12.088
▁harrell	-12.088
▁heirloom	-12.088
▁hemorrhaging	-12.088
▁heterosexual	-12.088
▁highpriced	-12.088
▁housewives	-12.088
▁ignoring	-12.088
▁imagining	-12.088
▁imprison	-12.088
▁inconvenience	-12.088
▁indiscrimina	-12.088
▁insatiable	-12.088
▁insight	-12.088
▁instinct	-12.088
▁intervention	-12.088
▁intrusion	-12.088
▁invalid	-12.088
▁invigorating	-12.088
▁jennings	-12.088
▁jetlagged	-12.088
▁jihad	-12.088
▁kashiwara	-12.088
▁khaleesi	-12.088
▁kilometers	-12.088
▁kilometre	-12.088
▁kolnas	-12.088
▁kramer	-12.088
▁krimp	-12.088
▁kristofferson	-12.088
▁kyushi	-12.088
▁lactose	-12.088
▁lindsey	-12.088
▁lindus	-12.088
▁linguist	-12.088
▁lipstick	-12.088
▁lizard	-12.088
▁magnificent	-12.088
▁mainstream	-12.088
▁majesty	-12.088
▁manicotti	-12.088
▁marvelous	-12.088
▁masturbate	-12.088
▁mcclure	-12.088
▁meadow	-12.088
▁mecca	-12.088
▁mechanism	-12.088
▁memorial	-12.088
▁metaphysic	-12.088
▁miguel	-12.088
▁millennium	-12.088
▁minibar	-12.088
▁misconduct	-12.088
▁misogynist	-12.088
▁mistletoe	-12.088
▁mmmmmartin	-12.088
▁monopoly	-12.088
▁morphis	-12.088
▁mullins	-12.088
▁muriel	-12.088
▁neanderthal	-12.088
▁neutralize	-12.088
▁nimrod	-12.088
▁nitrate	-12.088
▁nonsense	-12.088
▁nuisance	-12.088
▁obligated	-12.088
▁obstruct	-12.088
▁occupation	-12.088
▁omega	-12.088
▁onlooker	-12.088
▁oohwhee	-12.088
▁ooooh	-12.088
▁optimistic	-12.088
▁ostrich	-12.088
▁overhaul	-12.088
▁overlapping	-12.088
▁overwhelmed	-12.088
▁overwhelming	-12.088
▁pajama	-12.088
▁pakistani	-12.088
▁parameters	-12.088
▁participant	-12.088
▁pasadena	-12.088
▁pavilion	-12.088
▁pavlos	-12.088
▁peacock	-12.088
▁peckerwood	-12.088
▁peekaboo	-12.088
▁penitentiary	-12.088
▁perpetrator	-12.088
▁persuade	-12.088
▁phenomena	-12.088
▁philosophi	-12.088
▁phoenix	-12.088
▁pixel	-12.088
▁poiice	-12.088
▁polaroid	-12.088
▁pollution	-12.088
▁poontang	-12.088
▁precision	-12.088
▁prehistoric	-12.088
▁prescription	-12.088
▁presumpt	-12.088
▁prettier	-12.088
▁procreation	-12.088
▁prokofiev	-12.088
▁proposal	-12.088
▁provoke	-12.088
▁proximity	-12.088
▁pterodactyl	-12.088
▁quadrant	-12.088
▁quartet	-12.088
▁racism	-12.088
▁radiologist	-12.088
▁recycl	-12.088
▁refrain	-12.088
▁registration	-12.088
▁regroup	-12.088
▁repartee	-12.088
▁resemblance	-12.088
▁rivai	-12.088
▁rossaveal	-12.088
▁sapphi	-12.088
▁sarcasm	-12.088
▁schematic	-12.088
▁schizophrenic	-12.088
▁schlomit	-12.088
▁schlotzskys	-12.088
▁schmuck	-12.088
▁schumacher	-12.088
▁scotland	-12.088
▁selection	-12.088
▁selfdestruct	-12.088
▁sensitivity	-12.088
▁september	-12.088
▁shakespeare	-12.088
▁shampoo	-12.088
▁shaqu	-12.088
▁sharpshooter	-12.088
▁shepherd	-12.088
▁shouid	-12.088
▁sicilian	-12.088
▁silvi	-12.088
▁sixsixsix	-12.088
▁sketch	-12.088
▁slayer	-12.088
▁snuff	-12.088
▁solemn	-12.088
▁sophomor	-12.088
▁spencer	-12.088
▁spiddal	-12.088
▁sponge	-12.088
▁stateoftheart	-12.088
▁strahm	-12.088
▁strategi	-12.088
▁stubborn	-12.088
▁suffocat	-12.088
▁suicidal	-12.088
▁supermodel	-12.088
▁superpower	-12.088
▁supple	-12.088
▁syllable	-12.088
▁sympathize	-12.088
▁syrup	-12.088
▁testosterone	-12.088
▁theoretical	-12.088
▁thieves	-12.088
▁threequarter	-12.088
▁throuple	-12.088
▁tiramisu	-12.088
▁toucan	-12.088
▁trajectory	-12.088
▁transcend	-12.088
▁transplant	-12.088
▁transylvania	-12.088
▁treacherous	-12.088
▁tricycle	-12.088
▁trudeau	-12.088
▁tulyakbay	-12.088
▁tyrell	-12.088
▁ultraviolet	-12.088
▁unacceptable	-12.088
▁unexpected	-12.088
▁unhealthy	-12.088
▁unnoticed	-12.088
▁unrelated	-12.088
▁unstoppable	-12.088
▁untouched	-12.088
▁unzipping	-12.088
▁uphold	-12.088
▁vaccine	-12.088
▁verdegast	-12.088
▁wagner	-12.088
▁whywhy	-12.088
▁winnebago	-12.088
▁worship	-12.088
▁xoxo	-12.088
▁xylitol	-12.088
▁yknow	-12.088
▁yogurt	-12.088
▁youporn	-12.088
▁yourseif	-12.088
▁yvonne	-12.088
gahertz	-12.088
interpret	-12.088
▁bankrupt	-12.088
▁blossom	-12.088
▁commend	-12.088
▁condemn	-12.088
▁congressm	-12.088
▁depriv	-12.088
▁devour	-12.088
▁entrust	-12.088
▁freud	-12.088
▁fumble	-12.088
▁gaelic	-12.088
▁hawaii	-12.088
▁immigra	-12.088
▁interaction	-12.088
▁perception	-12.088
▁pharmac	-12.088
▁proportion	-12.088
▁resolve	-12.088
▁ruski	-12.088
▁satisfact	-12.088
▁scatter	-12.088
▁statistical	-12.088
▁summat	-12.088
▁zombie	-12.088
adoodle	-12.088
fractions	-12.088
larissa	-12.088
▁anchov	-12.088
▁anwar	-12.088
▁applaud	-12.088
▁audio	-12.088
▁belches	-12.088
▁booyah	-12.088
▁briggs	-12.088
▁butler	-12.088
▁chump	-12.088
▁cissy	-12.088
▁clarity	-12.088
▁coarse	-12.088
▁coconut	-12.088
▁companies	-12.088
▁credentia	-12.088
▁dementia	-12.088
▁diaper	-12.088
▁dubai	-12.088
▁enchant	-12.088
▁enhance	-12.088
▁exfil	-12.088
▁exterminat	-12.088
▁facial	-12.088
▁frequent	-12.088
▁furnace	-12.088
▁hancock	-12.088
▁improvement	-12.088
▁insured	-12.088
▁jacob	-12.088
▁jaywalking	-12.088
▁laguna	-12.088
▁lebel	-12.088
▁manipulati	-12.088
▁mclean	-12.088
▁meshugg	-12.088
▁monroe	-12.088
▁montana	-12.088
▁mormon	-12.088
▁mwah	-12.088
▁oksana	-12.088
▁outrun	-12.088
▁portagee	-12.088
▁recoil	-12.088
▁refill	-12.088
▁reliable	-12.088
▁retches	-12.088
▁reuben	-12.088
▁sabian	-12.088
▁schmid	-12.088
▁tangled	-12.088
▁tranquil	-12.088
▁translation	-12.088
▁unsettl	-12.088
▁welove	-12.088
▁agenda	-12.088
▁farewell	-12.088
▁filter	-12.088
▁finite	-12.088
▁generate	-12.088
▁hickey	-12.088
▁hypnotized	-12.088
▁inflation	-12.088
▁lagoon	-12.088
▁launder	-12.088
▁managing	-12.088
▁mousse	-12.088
▁ongoing	-12.088
▁paninis	-12.088
▁sanction	-12.088
▁senator	-12.088
▁sensor	-12.088
▁shitrocket	-12.088
▁unicef	-12.088
▁uninterested	-12.088
▁avant	-12.088
▁bargain	-12.088
▁clacking	-12.088
▁cohen	-12.088
▁compelling	-12.088
▁emperor	-12.088
▁fortifications	-12.088
▁gazzo	-12.088
▁godawful	-12.088
▁hpv	-12.088
▁hunk	-12.088
▁iisten	-12.088
▁leahy	-12.088
▁prada	-12.088
▁purring	-12.088
▁robberies	-12.088
▁seventeen	-12.088
▁southwest	-12.088
▁sturdy	-12.088
▁theories	-12.088
▁ucla	-12.088
▁anomal	-12.088
▁hellfire	-12.088
▁mashed	-12.088
▁nonono	-12.088
▁sherry	-12.088
▁siege	-12.088
▁slime	-12.088
▁smeet	-12.088
▁valerie	-12.088
▁coeur	-12.088
▁flashdance	-12.088
▁paolo	-12.088
▁survey	-12.088
▁swirl	-12.088
▁timmy	-12.088
▁wacko	-12.088
▁whereabouts	-12.088
▁chunk	-12.088
▁slob	-12.088
▁synthe	-12.088
▁thermo	-12.088
▁carousel	-12.088
▁comfy	-12.088
▁faggy	-12.088
▁karma	-12.088
▁linebacker	-12.088
▁lodge	-12.088
▁scorpio	-12.088
▁senate	-12.088
▁settling	-12.088
▁blogging	-12.088
▁papi	-12.088
▁pfc	-12.088
▁retching	-12.088
▁scheme	-12.088
▁stoop	-12.088
▁swoll	-12.088
trotters	-12.088
▁clyde	-12.088
▁coven	-12.088
▁freelance	-12.088
▁hanley	-12.088
▁orgy	-12.088
▁relent	-12.088
▁strive	-12.088
▁wedgie	-12.088
▁britain	-12.088
▁ibm	-12.088
▁lindem	-12.088
▁spouse	-12.088
esteem	-12.088
▁sphin	-12.088
▁unclefucker	-12.088
▁bozo	-12.088
▁gibb	-12.088
▁abusive	-12.088
▁canoe	-12.088
▁hastings	-12.088
▁worn	-12.088
▁bartending	-12.088
▁depp	-12.088
▁lantern	-12.088
▁salute	-12.088
▁tyson	-12.088
▁hilton	-12.088
▁jeffrey	-12.088
▁mortars	-12.088
▁plugged	-12.088
▁blaming	-12.088
▁bongos	-12.088
▁advocat	-12.088
▁forcing	-12.088
▁vichy	-12.088
▁commie	-12.088
▁hiatus	-12.088
▁masturbating	-12.088
▁violate	-12.088
rteen	-12.088
▁imagina	-12.088
▁splint	-12.088
▁gorilla	-12.088
▁kudos	-12.088
▁peddle	-12.088
▁rudi	-12.088
▁tingling	-12.088
▁madrid	-12.088
▁slope	-12.088
▁belittl	-12.088
▁ovation	-12.088
▁intervene	-12.088
▁energi	-12.088
▁lbj	-12.088
▁hesitate	-12.088
▁ecsta	-12.088
▁jdl	-12.088
▁smores	-12.088
▁croatia	-12.088
▁programming	-12.088
miriam	-12.088
▁antichrist	-12.088
▁magicians	-12.088
▁voyeurism	-12.088
▁colonists	-12.088
▁snagged	-12.088
▁evict	-12.088
▁willful	-12.088
▁betrays	-12.088
▁remand	-12.088
▁lobe	-12.088
▁possum	-12.088
▁colonics	-12.088
▁lassies	-12.088
▁premises	-12.088
▁cheekbone	-12.088
▁silvermans	-12.088
▁tribe	-12.088
▁crossways	-12.088
▁inadequate	-12.088
▁corrado	-12.088
▁barrier	-12.088
▁headphones	-12.088
▁apologise	-12.088
▁throttl	-12.088
livia	-12.088
▁macarthur	-12.088
▁doorbal	-12.088
▁opposed	-12.088
▁denied	-12.088
▁fireworks	-12.088
▁raisins	-12.088
▁apocalypse	-12.088
▁uptight	-12.088
parallel	-12.088
▁cnn	-12.088
▁salwa	-12.088
▁willis	-12.088
▁kosc	-12.088
▁hurl	-12.088
▁outrageous	-12.088
osignature	-12.088
▁psychologist	-12.088
nnett	-12.088
▁mythology	-12.088
▁ciose	-12.088
▁arcade	-12.088
▁foxhole	-12.088
▁summon	-12.088
▁friendlies	-12.088
▁cloak	-12.088
▁scarface	-12.088
▁substantial	-12.0881
▁introduction	-12.0881
▁liability	-12.0881
▁bullhorn	-12.0881
▁spectr	-12.0881
▁atoms	-12.0881
▁deathbed	-12.0881
▁asda	-12.0881
▁squint	-12.0881
▁wages	-12.0881
▁lomper	-12.0881
▁warped	-12.0881
▁carrot	-12.0881
▁dumont	-12.0881
▁queso	-12.0881
▁prompt	-12.0881
▁clockwise	-12.0881
▁pearls	-12.0881
ibility	-12.0881
laborat	-12.0881
▁hummer	-12.0881
▁epidemic	-12.0881
vinci	-12.0881
▁lasses	-12.0881
▁brevi	-12.0881
▁cockmaster	-12.0881
▁monica	-12.0881
▁slaughterhouse	-12.0881
▁dispers	-12.0881
▁glitch	-12.0881
▁pushups	-12.0881
▁sequel	-12.0881
climate	-12.0881
▁modified	-12.0881
▁superset	-12.0881
▁assassinate	-12.0881
▁sunbeam	-12.0881
▁brink	-12.0881
▁mcfe	-12.0881
▁flee	-12.0881
▁haywood	-12.0881
▁smuggling	-12.0881
▁spike	-12.0881
▁unconsciousness	-12.0882
▁vagine	-12.0882
▁jockey	-12.0882
▁sissy	-12.0882
▁beetle	-12.0882
▁penalty	-12.0882
▁renford	-12.0882
▁rye	-12.0882
apher	-12.0882
▁xray	-12.0882
▁vacate	-12.0882
▁extension	-12.0882
▁skipperling	-12.0882
▁expertise	-12.0882
▁dagger	-12.0882
▁jello	-12.0882
▁andand	-12.0882
▁twentynine	-12.0882
▁chode	-12.0882
▁forbid	-12.0882
▁tango	-12.0882
▁guff	-12.0882
▁esta	-12.0882
▁clipper	-12.0882
▁montag	-12.0882
▁mappy	-12.0882
▁nuys	-12.0882
▁fluent	-12.0883
▁beware	-12.0883
▁furious	-12.0883
▁gown	-12.0883
▁detonator	-12.0883
▁selfmade	-12.0883
▁banned	-12.0883
▁northeast	-12.0883
▁mummy	-12.0883
▁phew	-12.0883
▁chimp	-12.0883
▁colour	-12.0883
▁rawness	-12.0883
▁derby	-12.0883
▁confrontation	-12.0883
aux	-12.0883
▁snot	-12.0883
▁indicator	-12.0883
▁outlet	-12.0883
▁administration	-12.0883
▁courtyard	-12.0884
▁communion	-12.0884
▁lucious	-12.0884
▁dojo	-12.0884
▁afro	-12.0884
▁cramp	-12.0884
▁software	-12.0884
▁suki	-12.0884
pepperoni	-12.0884
▁decorative	-12.0884
▁bradley	-12.0884
▁dcs	-12.0884
▁effi	-12.0884
▁outof	-12.0884
▁merit	-12.0884
▁operating	-12.0884
▁shipped	-12.0884
▁surro	-12.0885
▁initiative	-12.0885
▁cinema	-12.0885
▁immunity	-12.0885
▁corona	-12.0885
▁sandler	-12.0885
▁nudge	-12.0885
crimination	-12.0885
▁foster	-12.0885
▁originate	-12.0885
▁nosy	-12.0885
▁toby	-12.0886
credible	-12.0886
vatore	-12.0886
▁blur	-12.0886
▁mediator	-12.0886
▁caroline	-12.0886
▁prophe	-12.0886
▁bearbear	-12.0886
▁operate	-12.0886
giver	-12.0887
▁ocul	-12.0887
▁duff	-12.0887
▁lime	-12.0887
▁pasa	-12.0887
▁cooperate	-12.0887
monos	-12.0887
▁boast	-12.0887
▁blim	-12.0887
▁triad	-12.0887
ahdahdahdah	-12.0887
▁alleg	-12.0887
tivity	-12.0887
▁socket	-12.0887
▁alteration	-12.0887
▁buren	-12.0887
nick	-12.0888
▁swine	-12.0888
▁plotz	-12.0888
ecora	-12.0888
hazard	-12.0888
▁squid	-12.0889
inflat	-12.0889
▁pony	-12.0889
▁mason	-12.0889
▁tray	-12.0889
▁twinkie	-12.0889
▁scam	-12.089
▁solita	-12.089
▁renee	-12.089
emia	-12.089
culous	-12.089
▁indie	-12.089
▁chatting	-12.0891
▁wong	-12.0891
arthur	-12.0891
inded	-12.0891
▁tiff	-12.0891
tarian	-12.0892
▁vince	-12.0892
▁quil	-12.0893
openha	-12.0895
viva	-12.0897
▁hydr	-12.0897
▁hoover	-12.0897
stool	-12.0898
▁lyin	-12.0898
▁caretak	-12.0899
▁appli	-12.0899
turn	-12.09
▁baba	-12.09
▁scrub	-12.09
owow	-12.0902
urray	-12.0903
eith	-12.0906
retta	-12.0906
pupp	-12.0909
▁goose	-12.0916
▁snuggl	-12.0917
dancin	-12.0922
idden	-12.0923
▁veg	-12.0924
uffy	-12.0925
litol	-12.0926
▁confine	-12.0934
amala	-12.0936
enthusiastic	-12.0937
help	-12.0938
office	-12.0939
▁balti	-12.0939
each	-12.0941
▁deriv	-12.0956
erlin	-12.0958
dental	-12.0964
ronto	-12.0967
▁mope	-12.0967
adios	-12.0991
nica	-12.1001
racks	-12.1009
rites	-12.1071
▁vaca	-12.1103
oomar	-12.1132
rawn	-12.1139
▁multi	-12.1149
organizing	-12.1152
puttering	-12.1257
▁rosi	-12.1261
▁wrinkl	-12.1264
pede	-12.1271
▁urinat	-12.1319
▁tendenc	-12.1322
▁spinnin	-12.1329
▁comprehen	-12.1338
▁flak	-12.1353
colombian	-12.148
▁justju	-12.1561
beam	-12.1587
▁strok	-12.1595
owning	-12.1647
▁inju	-12.1656
ratio	-12.1756
tribution	-12.1874
incidentally	-12.2004
▁complic	-12.204
sanity	-12.206
unders	-12.2087
▁bertra	-12.2183
arran	-12.2373
▁sedati	-12.245
▁earlie	-12.2549
▁crescen	-12.2744
culo	-12.2888
aura	-12.3009
adjusted	-12.3337
wiii	-12.3428
▁finaliz	-12.3646
▁indicat	-12.3707
rrection	-12.3717
formed	-12.3886
disciplined	-12.4014
capita	-12.405
▁arabia	-12.4209
▁unnecessar	-12.4252
hero	-12.4299
▁quittin	-12.4514
mashup	-12.4839
falco	-12.4879
ripping	-12.4956
calculation	-12.5154
harmed	-12.5159
comprehensi	-12.5172
▁ribb	-12.5201
rinkle	-12.528
rloin	-12.5301
flake	-12.5388
▁pictur	-12.5462
▁doubl	-12.5568
stains	-12.5573
▁barrac	-12.5587
▁toohey	-12.5644
▁bollock	-12.5644
▁rhyme	-12.5647
quired	-12.5698
weights	-12.5712
rhythms	-12.5731
nguish	-12.5747
rerecord	-12.5754
having	-12.5756
nfl	-12.5762
shootin	-12.5784
▁relativ	-12.5793
uggle	-12.5798
iggling	-12.5804
▁prostitut	-12.5805
▁appreciat	-12.5813
▁surviv	-12.5815
▁attract	-12.5816
▁contro	-12.582
curr	-12.5823
▁replac	-12.5826
▁influen	-12.5828
▁suppos	-12.5829
▁murmur	-12.5832
▁sobb	-12.5834
▁suspend	-12.5842
entional	-12.5842
bears	-12.5846
▁qualifie	-12.5851
▁privilege	-12.5853
▁paranoi	-12.5853
▁isolate	-12.5853
known	-12.5854
▁thirst	-12.5854
▁gyps	-12.5855
sufficient	-12.5855
luke	-12.5855
occupied	-12.5856
wright	-12.5856
flexible	-12.5856
▁rook	-12.5856
▁mutat	-12.5856
▁societ	-12.5856
interference	-12.5856
powder	-12.5856
atlanti	-12.5856
