<unk>	0
<s>	0
</s>	0
s	-3.74565
▁im	-4.3806
▁dont	-4.43614
▁know	-4.48597
▁get	-4.65424
▁like	-4.79364
▁right	-4.79901
▁go	-4.83685
▁yeah	-4.84108
▁got	-4.86289
▁youre	-4.95205
▁come	-5.05041
▁na	-5.06635
▁oh	-5.07834
▁thats	-5.11282
▁want	-5.14518
▁one	-5.16612
▁okay	-5.17563
▁well	-5.20265
▁gon	-5.28536
▁think	-5.28886
▁good	-5.31523
ing	-5.31821
▁see	-5.38901
▁man	-5.45219
ed	-5.48216
▁look	-5.51052
▁hey	-5.54645
▁back	-5.58436
▁time	-5.59526
▁ill	-5.62556
▁hes	-5.64556
▁yes	-5.65386
▁take	-5.65537
▁going	-5.676
▁us	-5.70041
▁fuck	-5.7079
▁need	-5.75388
▁cant	-5.76806
▁fucking	-5.77031
▁would	-5.7956
▁tell	-5.8006
▁shit	-5.84232
▁say	-5.85739
d	-5.89041
▁really	-5.89809
▁didnt	-5.91663
▁could	-5.92017
▁make	-5.94924
▁something	-5.95578
▁lets	-5.9638
▁way	-5.98255
▁mean	-6.00068
▁please	-6.01298
▁people	-6.01474
▁sorry	-6.02213
▁love	-6.03865
▁god	-6.06105
▁little	-6.06281
▁let	-6.06435
y	-6.07235
▁two	-6.07939
▁thank	-6.08166
▁whats	-6.09248
▁ive	-6.12272
▁theres	-6.16779
▁give	-6.16977
▁never	-6.1762
▁	-6.21235
▁said	-6.22043
▁help	-6.25755
▁uh	-6.26669
▁thing	-6.27745
▁l	-6.27855
▁call	-6.28477
▁much	-6.31648
▁sure	-6.34171
▁guys	-6.36238
▁anything	-6.38605
▁shes	-6.41209
▁even	-6.41699
▁stop	-6.4298
▁theyre	-6.43667
▁maybe	-6.4595
▁wait	-6.46667
▁mr	-6.48434
ly	-6.48568
▁talk	-6.486
▁put	-6.49589
▁first	-6.50192
▁work	-6.50925
▁life	-6.51225
▁great	-6.51357
▁find	-6.51363
er	-6.51886
▁ever	-6.52853
▁money	-6.54009
▁day	-6.54933
▁nothing	-6.54951
▁night	-6.55444
▁new	-6.5753
e	-6.58
▁sir	-6.5811
▁home	-6.62405
▁away	-6.62453
▁guy	-6.64155
▁hell	-6.64225
▁around	-6.64503
▁still	-6.6537
▁keep	-6.65389
▁long	-6.66632
▁years	-6.66771
▁nice	-6.68739
▁everything	-6.69508
▁last	-6.6984
▁name	-6.70332
▁kill	-6.70407
▁stay	-6.70777
▁car	-6.71142
▁three	-6.72976
▁things	-6.73112
▁ta	-6.73778
▁leave	-6.74123
▁thought	-6.74348
▁id	-6.74574
▁feel	-6.74604
▁fine	-6.7522
▁place	-6.75485
▁told	-6.76811
▁lot	-6.7727
▁always	-6.78387
▁listen	-6.78908
▁better	-6.78989
▁wan	-6.79087
▁hi	-6.80142
▁house	-6.80987
▁hello	-6.81295
▁doesnt	-6.83689
▁youve	-6.8369
▁girl	-6.83973
▁talking	-6.84167
▁old	-6.84182
▁coming	-6.84339
▁kind	-6.84876
▁move	-6.8493
▁wont	-6.85166
▁hear	-6.85679
▁made	-6.86041
r	-6.86343
▁bad	-6.88256
in	-6.8853
▁done	-6.89516
▁father	-6.90249
▁remember	-6.91794
▁happened	-6.92175
▁baby	-6.92664
▁mom	-6.93776
▁big	-6.93784
▁ok	-6.9546
▁every	-6.9698
▁wanted	-6.97013
▁boy	-6.97543
▁understand	-6.97831
▁must	-6.9826
▁son	-6.98306
▁youll	-6.98322
▁dead	-6.9929
▁left	-6.99296
▁morning	-6.99298
▁next	-6.99541
▁door	-6.99599
▁dad	-6.99906
▁aint	-7.01524
▁hold	-7.02303
▁believe	-7.03014
▁isnt	-7.04316
▁world	-7.04816
▁wrong	-7.05611
▁huh	-7.06398
▁enough	-7.06924
▁ask	-7.07361
▁else	-7.08522
▁real	-7.0916
▁try	-7.09295
p	-7.09823
▁woman	-7.09881
t	-7.09977
▁mother	-7.10697
▁room	-7.10788
▁getting	-7.12521
▁john	-7.12748
▁came	-7.13578
▁thanks	-7.14499
▁today	-7.15469
▁friend	-7.15952
▁course	-7.16048
▁open	-7.16148
▁another	-7.16626
▁care	-7.16943
▁live	-7.16985
▁looking	-7.171
▁wasnt	-7.1721
▁trying	-7.17441
▁show	-7.1747
▁together	-7.17506
▁play	-7.17524
▁start	-7.17717
▁whole	-7.17801
▁best	-7.1781
▁might	-7.18042
a	-7.18191
▁ass	-7.1871
▁head	-7.19368
o	-7.20327
▁um	-7.21395
▁took	-7.22318
▁cause	-7.22965
▁someone	-7.23301
▁men	-7.2345
▁job	-7.23539
▁phone	-7.2359
▁guess	-7.2387
▁wife	-7.25129
n	-7.26474
▁run	-7.2683
▁jesus	-7.27698
▁went	-7.27702
▁mind	-7.28163
es	-7.2944
▁hard	-7.29626
▁killed	-7.30078
▁jack	-7.30218
▁family	-7.30334
▁tonight	-7.30334
▁damn	-7.31347
▁pretty	-7.32017
▁used	-7.32308
▁weve	-7.33385
▁saying	-7.33414
▁may	-7.33687
▁actually	-7.34437
▁saw	-7.34781
▁un	-7.3479
▁use	-7.34944
▁die	-7.35104
▁found	-7.3578
▁called	-7.35959
▁kids	-7.36208
▁wouldnt	-7.36244
▁days	-7.36255
▁heard	-7.36276
▁bitch	-7.36477
▁game	-7.36824
▁nobody	-7.36888
▁meet	-7.3712
▁check	-7.37785
▁ready	-7.37801
▁seen	-7.38152
▁gun	-7.38306
▁many	-7.39535
▁turn	-7.40005
▁school	-7.40151
▁hit	-7.40279
▁without	-7.40518
▁five	-7.40535
m	-7.4054
▁bit	-7.40619
al	-7.40671
▁watch	-7.4111
▁excuse	-7.41638
▁knew	-7.42008
▁second	-7.42037
▁miss	-7.43061
▁em	-7.43133
▁face	-7.44076
▁friends	-7.44964
▁whos	-7.45193
▁four	-7.45433
▁goddamn	-7.46229
▁idea	-7.4642
▁ago	-7.47033
▁shut	-7.4769
▁problem	-7.48389
▁pay	-7.48419
▁youd	-7.48608
▁everybody	-7.5046
i	-7.50629
▁sit	-7.50759
▁ah	-7.50848
▁easy	-7.51046
l	-7.51053
c	-7.51152
▁alone	-7.5186
▁couldnt	-7.51928
▁read	-7.52
▁hand	-7.52968
▁tomorrow	-7.53108
▁beautiful	-7.53529
▁stuff	-7.5353
▁inside	-7.53952
▁drink	-7.54273
▁bring	-7.54833
▁somebody	-7.56057
▁police	-7.56082
▁point	-7.56503
▁lost	-7.56965
g	-7.57111
▁fire	-7.57564
▁matter	-7.57848
▁minute	-7.58235
▁already	-7.58271
▁boys	-7.58408
▁deal	-7.58431
▁kid	-7.58702
▁couple	-7.59158
▁later	-7.59261
▁probably	-7.60058
▁gone	-7.60295
▁cool	-7.61235
▁whatever	-7.6141
▁hurt	-7.61468
▁whoa	-7.61878
▁dog	-7.61973
▁close	-7.62582
▁part	-7.6266
▁crazy	-7.62789
ve	-7.63324
▁week	-7.63327
▁water	-7.6372
▁hands	-7.64158
▁heart	-7.64342
▁honey	-7.64653
▁shot	-7.64791
▁worry	-7.65576
▁anyone	-7.65597
▁eyes	-7.65619
▁end	-7.65831
▁havent	-7.66073
▁everyone	-7.66263
▁thinking	-7.66411
▁case	-7.66519
▁happen	-7.6656
▁late	-7.67285
▁girls	-7.6734
▁says	-7.67449
▁cut	-7.68223
▁number	-7.68225
▁walk	-7.68265
▁playing	-7.68308
▁hope	-7.68613
▁six	-7.69468
▁eat	-7.69946
▁yet	-7.69968
▁brother	-7.70218
h	-7.70383
▁speaking	-7.71347
▁minutes	-7.71513
▁change	-7.71529
▁black	-7.71959
▁set	-7.7202
▁though	-7.72388
▁wheres	-7.72413
▁happy	-7.72992
▁fight	-7.73186
▁music	-7.74018
en	-7.74312
▁far	-7.74488
▁young	-7.75434
b	-7.7613
▁stand	-7.76625
▁book	-7.76677
▁sleep	-7.7668
▁sighs	-7.76714
▁fun	-7.76819
▁gave	-7.77167
▁anyway	-7.77168
▁supposed	-7.77262
on	-7.77568
▁working	-7.78332
▁forget	-7.7878
▁taking	-7.78796
▁soon	-7.79187
▁looks	-7.79214
▁bye	-7.79324
▁exactly	-7.79339
▁since	-7.79836
▁lose	-7.80278
▁blood	-7.80746
▁half	-7.8209
▁true	-7.82105
▁full	-7.82653
▁year	-7.83052
▁town	-7.83202
▁death	-7.83782
▁trust	-7.83929
▁front	-7.84346
▁rest	-7.84393
▁mine	-7.84537
▁pick	-7.84575
▁women	-7.85505
▁richard	-7.85508
▁business	-7.86049
▁free	-7.86073
▁shoot	-7.86937
▁alright	-7.8726
▁welcome	-7.8726
▁funny	-7.87266
▁afraid	-7.87852
▁re	-7.88097
▁war	-7.88495
▁word	-7.88599
▁also	-7.89048
k	-7.89109
f	-7.89357
▁million	-7.8965
▁doctor	-7.89835
▁side	-7.89882
less	-7.90126
▁christ	-7.90262
▁motherfucker	-7.90455
st	-7.90544
▁different	-7.90702
▁wants	-7.90734
▁truth	-7.90864
▁j	-7.91519
▁goes	-7.91792
▁asked	-7.91813
▁wish	-7.92102
▁break	-7.92527
ion	-7.92581
▁person	-7.9265
▁making	-7.92719
▁high	-7.92987
▁molly	-7.93348
▁speak	-7.93583
▁body	-7.93973
▁hang	-7.94133
▁daughter	-7.94282
or	-7.94554
man	-7.94568
▁stupid	-7.94602
▁outside	-7.94603
▁story	-7.94605
▁party	-7.94916
▁chance	-7.94943
▁makes	-7.95442
▁started	-7.9549
▁line	-7.9572
▁hours	-7.96338
▁anymore	-7.96526
▁means	-7.96572
▁g	-7.96673
▁trouble	-7.97298
▁chuckles	-7.97334
▁telling	-7.97471
▁hate	-7.97637
▁buy	-7.97901
▁question	-7.98218
▁behind	-7.98486
▁least	-7.98486
▁either	-7.98487
▁th	-7.98516
▁ben	-7.98657
▁met	-7.98727
▁dance	-7.98904
ic	-7.9892
▁almost	-7.99149
▁s	-7.99481
▁touch	-7.99565
▁michael	-7.99815
▁save	-8.00219
▁clear	-8.00368
▁bullshit	-8.00487
▁died	-8.01147
ers	-8.01287
▁hot	-8.01311
▁pull	-8.01629
▁special	-8.01829
▁team	-8.01863
▁drive	-8.02254
▁months	-8.02493
▁jim	-8.02539
▁anybody	-8.03217
▁safe	-8.03638
▁bed	-8.03662
▁clean	-8.03686
▁sick	-8.046
▁arent	-8.04615
u	-8.05125
▁law	-8.05169
▁ii	-8.05171
▁york	-8.06024
▁brought	-8.06026
▁news	-8.06545
▁sound	-8.06639
▁times	-8.0696
▁sweet	-8.07434
▁de	-8.07799
▁daddy	-8.08137
▁plan	-8.0847
▁sometimes	-8.08495
▁top	-8.09046
ies	-8.09433
▁office	-8.09524
▁street	-8.09622
▁married	-8.09648
▁red	-8.09909
▁alive	-8.10402
▁moment	-8.10451
▁cover	-8.10724
▁b	-8.11061
▁send	-8.11403
▁serious	-8.11733
▁theyll	-8.11887
▁leaving	-8.11888
▁ahead	-8.11891
▁feeling	-8.12267
▁straight	-8.126
▁sam	-8.12644
▁city	-8.12664
▁reason	-8.12667
▁catch	-8.12669
▁perfect	-8.13251
▁light	-8.13352
▁k	-8.13372
▁radio	-8.13411
▁continues	-8.13593
▁win	-8.1374
▁write	-8.13911
▁hurry	-8.14177
▁itll	-8.14177
▁calling	-8.14928
▁country	-8.14955
▁white	-8.14956
le	-8.1496
▁tried	-8.14985
▁ya	-8.1502
▁control	-8.15705
▁children	-8.15733
▁fucked	-8.15738
▁dale	-8.1575
▁sex	-8.16297
▁follow	-8.1651
▁dream	-8.16536
▁running	-8.16538
▁ten	-8.16678
▁waiting	-8.16777
▁wake	-8.17319
ar	-8.1734
▁dr	-8.17366
▁quite	-8.17394
▁billy	-8.17531
▁kidding	-8.18117
▁beat	-8.18445
▁heres	-8.19051
▁dude	-8.19123
▁king	-8.19605
us	-8.1962
▁hows	-8.1997
▁mrs	-8.20545
v	-8.2058
▁sister	-8.20786
▁m	-8.20926
▁air	-8.212
▁hour	-8.21655
▁bill	-8.22141
▁till	-8.22185
▁road	-8.22219
▁important	-8.22219
▁promise	-8.22789
▁drop	-8.22893
▁wow	-8.23057
▁table	-8.23103
▁screaming	-8.23181
▁somewhere	-8.23901
▁alexander	-8.23901
▁sent	-8.23926
▁parents	-8.24167
▁order	-8.24667
▁power	-8.24756
▁bet	-8.25037
▁lives	-8.25305
▁r	-8.25548
▁food	-8.25618
▁david	-8.25619
▁sign	-8.25884
▁cops	-8.25942
▁happening	-8.26488
▁mouth	-8.26503
▁hair	-8.26504
▁lady	-8.26505
▁report	-8.26528
▁looked	-8.26719
▁rock	-8.26904
▁joel	-8.27375
▁laughing	-8.27691
▁asshole	-8.27779
▁officer	-8.27897
▁prison	-8.28065
▁band	-8.28262
▁able	-8.2844
▁answer	-8.28663
est	-8.2869
▁fact	-8.2871
▁boss	-8.29079
▁truck	-8.29091
▁gentlemen	-8.29143
▁maam	-8.29145
▁cia	-8.29152
▁none	-8.29174
▁comes	-8.29542
▁yo	-8.30116
w	-8.30187
▁lm	-8.30493
▁finish	-8.30539
▁asking	-8.30786
▁careful	-8.30849
▁child	-8.30951
▁sense	-8.30952
▁lie	-8.31032
re	-8.31347
▁agent	-8.31468
▁weird	-8.31711
▁bar	-8.32271
▁picture	-8.32461
▁company	-8.32796
▁sort	-8.32821
▁needs	-8.32885
up	-8.32933
▁piece	-8.33358
▁less	-8.33451
▁moving	-8.33735
▁holy	-8.33849
▁throw	-8.34116
▁ha	-8.34182
▁weeks	-8.34511
▁glad	-8.34676
▁shouldnt	-8.3468
▁hmm	-8.34693
is	-8.34875
▁kiss	-8.35135
▁cop	-8.35173
▁song	-8.35389
▁sergeant	-8.35626
it	-8.36065
▁dick	-8.3626
▁buddy	-8.36589
▁information	-8.36592
▁lawyer	-8.37251
ie	-8.37523
▁seven	-8.37549
▁george	-8.37559
▁zodiac	-8.37559
▁living	-8.37562
▁happens	-8.37688
▁scared	-8.37712
▁pain	-8.38334
▁quiet	-8.38383
▁in	-8.38389
▁human	-8.38533
▁along	-8.3854
▁past	-8.38626
able	-8.38685
▁american	-8.39228
▁fair	-8.39294
▁bag	-8.39356
▁act	-8.39471
▁sounds	-8.39669
▁step	-8.40031
▁dollars	-8.40281
▁absolutely	-8.40536
▁tired	-8.40557
▁board	-8.40565
▁p	-8.40788
▁plane	-8.40844
▁ride	-8.40861
ant	-8.41168
▁husband	-8.41309
▁luck	-8.41327
▁shall	-8.41543
▁america	-8.4158
▁fuckin	-8.41969
▁blow	-8.42001
▁figure	-8.4229
▁ones	-8.42447
▁record	-8.42478
▁coffee	-8.4256
▁cold	-8.42562
▁roll	-8.43128
▁laughs	-8.43315
▁quick	-8.43436
▁captain	-8.4359
▁early	-8.43632
▁panting	-8.43646
▁taken	-8.43689
▁fast	-8.4442
▁stick	-8.44618
▁bobby	-8.44638
▁nine	-8.44665
▁owe	-8.45348
▁honor	-8.45671
▁dinner	-8.45685
▁wed	-8.46015
▁cell	-8.46641
▁pass	-8.46744
▁drunk	-8.46749
▁fbi	-8.46753
▁murder	-8.46975
▁meeting	-8.47128
▁hed	-8.47154
▁state	-8.4725
▁c	-8.47465
▁worked	-8.47498
▁paul	-8.47589
▁theyve	-8.47824
▁names	-8.47847
▁dress	-8.48425
▁seems	-8.48449
▁park	-8.48835
▁voice	-8.48841
▁werent	-8.48911
▁eight	-8.48914
▁floor	-8.48915
▁lucky	-8.49158
el	-8.49344
▁chatter	-8.49523
▁indistinct	-8.49855
▁blue	-8.49963
▁eye	-8.49974
▁program	-8.50006
▁lord	-8.50011
▁code	-8.50096
▁army	-8.50181
ch	-8.50431
▁spend	-8.50624
▁possible	-8.51121
▁ronnie	-8.51122
▁wedding	-8.51122
▁dave	-8.51328
▁mm	-8.51396
▁frank	-8.52008
ive	-8.52071
▁choice	-8.52242
▁double	-8.52244
▁small	-8.53198
▁dan	-8.5337
▁accident	-8.53372
▁groans	-8.53381
▁become	-8.53406
▁gets	-8.53439
▁unit	-8.5397
▁smart	-8.54519
▁leg	-8.54528
▁amazing	-8.5453
▁cash	-8.54534
▁security	-8.54541
▁tv	-8.54551
▁shouting	-8.54596
▁month	-8.54604
▁peter	-8.54646
▁turned	-8.54659
▁questions	-8.55006
▁co	-8.5517
et	-8.552
▁sell	-8.55266
▁slow	-8.55385
ur	-8.55435
▁poor	-8.55712
▁calm	-8.55725
▁needed	-8.56524
▁screams	-8.56526
▁bob	-8.56846
▁savage	-8.5687
▁fault	-8.5687
▁ladies	-8.56873
▁adam	-8.56874
▁yall	-8.56895
▁soldier	-8.56969
▁broke	-8.56975
ter	-8.56989
▁grunts	-8.57049
▁fall	-8.57669
▁words	-8.57767
▁meant	-8.5794
▁low	-8.57956
▁attention	-8.5806
▁contact	-8.5806
▁phil	-8.58063
▁seat	-8.58092
▁rose	-8.58095
▁computer	-8.58203
id	-8.58363
▁ho	-8.59088
▁dark	-8.5911
▁middle	-8.59266
▁giving	-8.59266
▁mmhmm	-8.59284
▁learn	-8.5957
▁respect	-8.60032
▁worth	-8.60253
▁handle	-8.60331
te	-8.60448
▁others	-8.60484
▁tom	-8.60616
▁ran	-8.60851
▁join	-8.61133
▁short	-8.61719
▁church	-8.61723
▁born	-8.61752
▁hotel	-8.61757
▁finally	-8.61781
▁bank	-8.61964
▁explain	-8.62552
▁shell	-8.6273
▁hospital	-8.62952
▁system	-8.62969
▁tommy	-8.62969
▁terrible	-8.62969
▁ground	-8.62971
▁paid	-8.62981
▁master	-8.62984
co	-8.63285
▁ring	-8.63534
▁w	-8.63786
▁doug	-8.63949
▁longer	-8.64012
▁tough	-8.64208
▁felt	-8.64235
▁fear	-8.6424
▁chef	-8.64241
ent	-8.6427
▁grunting	-8.64276
▁hide	-8.64297
▁seriously	-8.64495
▁group	-8.64517
th	-8.65329
▁strong	-8.6534
▁works	-8.65421
▁court	-8.65505
an	-8.65664
▁cross	-8.65754
▁service	-8.65856
▁miles	-8.65995
ation	-8.66063
▁laugh	-8.66232
um	-8.66253
▁killing	-8.66322
▁seeing	-8.66341
ful	-8.66417
▁talked	-8.6652
▁evil	-8.66815
▁dangerous	-8.66818
▁lying	-8.66838
▁sitting	-8.66865
▁al	-8.67117
▁list	-8.67153
▁key	-8.67186
▁boat	-8.67191
▁watching	-8.67206
▁beer	-8.67236
ate	-8.67442
rs	-8.67518
x	-8.67554
▁loved	-8.67962
▁personal	-8.68089
▁college	-8.68131
▁swear	-8.68131
▁apple	-8.68138
▁machine	-8.68527
la	-8.68581
▁bomb	-8.68938
▁cry	-8.69057
▁joke	-8.69309
▁french	-8.69465
▁charlie	-8.69465
▁mommy	-8.69465
▁ooh	-8.69467
▁hungry	-8.6947
▁skin	-8.69492
▁shh	-8.69565
▁e	-8.69583
ta	-8.6968
▁kick	-8.69907
▁train	-8.70389
▁ann	-8.7051
▁public	-8.70799
▁across	-8.70816
▁yesterday	-8.70816
▁goodbye	-8.70816
▁share	-8.71001
▁fix	-8.71264
▁knock	-8.71273
▁known	-8.71598
▁steve	-8.7212
▁horse	-8.72185
▁smoke	-8.72186
▁uncle	-8.72186
▁la	-8.72339
▁appreciate	-8.72605
▁crying	-8.72688
▁movie	-8.72693
▁star	-8.73069
no	-8.73131
▁nick	-8.73326
▁near	-8.73411
▁except	-8.73441
▁spot	-8.73571
▁imagine	-8.73575
▁department	-8.73576
▁jake	-8.73589
▁store	-8.73599
▁eh	-8.73621
▁dear	-8.73628
▁building	-8.73879
▁ball	-8.74209
▁given	-8.74496
▁count	-8.74676
▁surprise	-8.74716
▁quit	-8.74845
▁gas	-8.74943
ish	-8.74953
▁turkish	-8.74983
▁future	-8.74983
▁feet	-8.75008
▁charge	-8.75279
▁h	-8.75428
lo	-8.7543
▁wearing	-8.75459
ment	-8.75555
▁cat	-8.76285
ity	-8.76339
▁history	-8.76412
▁grab	-8.76413
to	-8.76414
▁worse	-8.76414
▁sarah	-8.76427
▁sake	-8.76427
▁rich	-8.76448
▁carry	-8.76519
▁missed	-8.76536
▁wear	-8.76538
▁mess	-8.76694
ll	-8.7688
▁honest	-8.77474
ri	-8.77619
▁fat	-8.77624
▁d	-8.77746
▁kept	-8.77861
▁proud	-8.77861
▁sweetheart	-8.77862
▁earth	-8.77866
▁clothes	-8.77868
▁gunfire	-8.77868
▁normal	-8.77877
▁station	-8.77901
▁arm	-8.77973
▁f	-8.78368
▁seem	-8.78383
▁offer	-8.78498
▁states	-8.78799
▁mad	-8.79271
▁worried	-8.79332
▁upset	-8.79332
▁cowhand	-8.79333
▁jem	-8.79365
▁tucker	-8.79373
▁carter	-8.79539
▁knows	-8.79725
▁protect	-8.79828
▁saved	-8.79939
▁hundred	-8.8005
▁message	-8.80055
▁brothers	-8.80064
▁changed	-8.80137
▁wonder	-8.80319
▁wall	-8.8042
▁walking	-8.80809
▁president	-8.80824
▁anywhere	-8.80824
▁difference	-8.80824
▁military	-8.80824
▁government	-8.80825
▁birthday	-8.80826
▁jail	-8.80831
▁definitely	-8.80832
▁outta	-8.80833
▁crime	-8.8084
▁using	-8.80953
▁n	-8.80995
▁busy	-8.81026
▁games	-8.81195
▁moved	-8.81254
▁evening	-8.8157
▁named	-8.81747
▁sun	-8.81761
▁bro	-8.82067
▁pete	-8.82327
▁chief	-8.82339
▁english	-8.82339
▁evidence	-8.82339
▁forever	-8.82339
▁judge	-8.82339
▁relax	-8.82339
▁bunch	-8.82343
▁bought	-8.82344
▁girlfriend	-8.82349
▁wonderful	-8.82357
▁single	-8.82371
▁obviously	-8.82371
▁t	-8.82375
▁interesting	-8.82582
▁copy	-8.8271
▁pro	-8.82889
ous	-8.82922
▁warm	-8.83071
▁suck	-8.83102
▁secret	-8.83127
▁bastard	-8.8314
▁balls	-8.83271
▁lovely	-8.83294
▁trip	-8.83548
▁suppose	-8.83604
▁entire	-8.83717
▁adela	-8.83878
▁lincoln	-8.83878
▁apartment	-8.8389
▁tony	-8.83967
▁totally	-8.8398
▁ro	-8.84344
▁mate	-8.84351
▁jump	-8.84516
▁finished	-8.84595
▁russian	-8.84729
▁paper	-8.84745
▁liked	-8.85042
▁fly	-8.85196
▁seconds	-8.85319
age	-8.85408
▁present	-8.85421
▁pleasure	-8.8544
▁simple	-8.8544
▁forward	-8.85441
▁writing	-8.85449
▁lunch	-8.85464
▁dying	-8.85544
▁card	-8.85594
▁anna	-8.85607
▁date	-8.85736
▁test	-8.86172
na	-8.86202
▁st	-8.86296
▁breathe	-8.86395
▁dogs	-8.86825
▁marriage	-8.87027
▁green	-8.87028
▁area	-8.87028
▁robert	-8.87028
▁throat	-8.87028
▁grace	-8.87028
▁danni	-8.87033
▁max	-8.87036
go	-8.87037
▁mmm	-8.87049
▁olive	-8.87051
ol	-8.87962
▁weekend	-8.87995
▁smell	-8.88039
▁keys	-8.88189
▁letter	-8.88313
▁a	-8.88433
▁general	-8.88476
▁club	-8.8864
▁darius	-8.8864
▁senator	-8.8864
▁wrote	-8.88649
▁round	-8.88656
▁o	-8.88753
▁decided	-8.88839
▁age	-8.88851
▁enjoy	-8.89344
▁push	-8.89358
ting	-8.89368
▁lock	-8.89619
▁guard	-8.89656
▁stopped	-8.9037
ne	-8.90463
▁player	-8.90472
▁experience	-8.90486
ist	-8.90494
em	-8.90788
▁con	-8.91207
▁partner	-8.91345
▁soul	-8.91349
ness	-8.91663
▁certain	-8.91797
▁forgive	-8.91856
▁conversation	-8.91946
▁yep	-8.91946
▁rather	-8.91948
▁super	-8.9195
▁third	-8.91952
▁gay	-8.91956
▁lead	-8.92092
▁mary	-8.92108
▁breathing	-8.92202
▁so	-8.92447
▁expect	-8.92728
▁window	-8.93064
nt	-8.93187
▁blame	-8.93353
ry	-8.93598
▁driving	-8.93641
▁heavy	-8.93641
▁neither	-8.93641
▁private	-8.93641
▁spanish	-8.93641
▁christmas	-8.93642
▁distance	-8.93643
▁flight	-8.93647
▁chair	-8.93666
▁over	-8.93677
▁bus	-8.93923
▁reach	-8.94363
▁mistake	-8.94741
▁animal	-8.94827
▁bell	-8.9507
▁ice	-8.95085
▁san	-8.95109
▁realize	-8.95132
▁built	-8.95365
▁charley	-8.95366
▁instead	-8.95367
▁south	-8.95367
▁coach	-8.95372
▁dancing	-8.95379
▁br	-8.9545
▁rules	-8.95463
▁corner	-8.95469
▁broken	-8.95475
▁softly	-8.95482
▁land	-8.95922
▁feels	-8.96029
▁mark	-8.96208
▁ex	-8.96229
▁pray	-8.9642
li	-8.96427
▁fired	-8.96463
▁drug	-8.96638
▁gold	-8.9709
▁favor	-8.97114
▁forgot	-8.97116
▁upstairs	-8.9712
▁moondog	-8.9712
▁director	-8.97145
▁press	-8.97165
▁mac	-8.97173
▁guilty	-8.97187
▁van	-8.97288
▁mikey	-8.97318
▁wine	-8.97576
▁fish	-8.98014
il	-8.9822
▁track	-8.98426
▁return	-8.98481
▁victor	-8.98672
▁lived	-8.98787
▁fool	-8.98893
▁kitchen	-8.98906
▁dis	-8.98906
▁doin	-8.98961
▁mace	-8.99057
▁i	-8.99092
▁gasps	-8.99105
▁sea	-8.99134
ro	-8.99243
▁drugs	-8.99426
▁freak	-8.99553
▁whose	-8.99558
▁dies	-8.99565
▁continue	-9.00145
▁weapon	-9.00289
▁shooting	-9.004
▁standing	-9.00557
as	-9.00626
▁box	-9.00698
▁libby	-9.00724
▁neil	-9.00724
▁hasnt	-9.00724
▁mama	-9.00731
▁field	-9.0078
▁suit	-9.00816
▁medical	-9.00992
▁shoes	-9.01114
▁reporter	-9.01364
▁killer	-9.01714
▁fell	-9.01893
ary	-9.01965
ce	-9.02273
▁smile	-9.02288
▁fighting	-9.02471
▁perhaps	-9.02576
▁breakfast	-9.02577
▁price	-9.02579
▁foot	-9.02598
▁speed	-9.02605
▁pre	-9.02671
▁singing	-9.02909
▁pants	-9.03033
▁bucks	-9.03036
▁attack	-9.03122
▁training	-9.03243
▁class	-9.03325
▁listening	-9.03355
▁engine	-9.03473
ma	-9.03505
▁blind	-9.04023
ia	-9.04047
▁account	-9.04057
▁brain	-9.04112
▁hole	-9.04162
▁agree	-9.04169
▁holding	-9.043
▁lay	-9.04313
▁strange	-9.04339
▁fit	-9.0435
▁pa	-9.04393
▁heaven	-9.04462
▁delorean	-9.04462
▁firm	-9.04462
▁uhhuh	-9.04462
▁scene	-9.04463
▁zeke	-9.04463
▁spent	-9.04472
▁beach	-9.04474
▁repeat	-9.04483
▁completely	-9.04558
▁certainly	-9.04638
▁missing	-9.04993
▁burn	-9.05097
▁goin	-9.05268
▁players	-9.05409
▁cos	-9.05885
▁arrest	-9.0597
▁dreams	-9.06059
▁sh	-9.06118
▁queen	-9.06163
tic	-9.06252
▁glass	-9.06316
▁afternoon	-9.06385
▁cream	-9.06385
▁karen	-9.06385
▁situation	-9.06386
▁wild	-9.06386
▁address	-9.06387
▁lisa	-9.0639
▁jay	-9.06514
▁di	-9.06552
▁weapons	-9.06847
▁da	-9.07073
time	-9.07184
▁calls	-9.07517
de	-9.07987
▁idiot	-9.08016
▁deep	-9.08036
ra	-9.08262
▁witness	-9.08273
▁nothin	-9.08296
▁peace	-9.0833
▁apart	-9.0833
▁matthew	-9.08346
▁video	-9.08346
▁watson	-9.08346
▁east	-9.08346
▁priest	-9.08347
▁juan	-9.08349
▁everywhere	-9.08353
▁favorite	-9.08355
▁condition	-9.08361
▁north	-9.08366
▁involved	-9.08401
▁losing	-9.0852
▁mission	-9.08811
▁pal	-9.09057
▁gods	-9.09277
▁block	-9.09665
ck	-9.09797
▁force	-9.09819
▁support	-9.09838
▁search	-9.09849
▁color	-9.09906
▁cab	-9.10017
▁finger	-9.10087
▁remind	-9.10113
▁ow	-9.10189
▁bear	-9.10195
▁loud	-9.10207
▁dumb	-9.10339
▁choose	-9.10346
▁suggest	-9.10346
▁stalin	-9.10348
▁chicago	-9.10348
▁worst	-9.10349
▁darling	-9.10351
▁devil	-9.10353
▁knife	-9.10361
out	-9.10589
▁folks	-9.10747
▁shed	-9.10824
▁piss	-9.11401
▁tea	-9.11424
▁mo	-9.11505
▁pop	-9.11542
son	-9.11575
▁banks	-9.12018
▁form	-9.12073
▁suspect	-9.12142
▁sad	-9.12171
▁mike	-9.12179
▁cap	-9.12182
▁pe	-9.12272
▁groaning	-9.12387
▁jennifer	-9.12387
▁keith	-9.12387
▁major	-9.12387
▁willie	-9.12387
▁marry	-9.12397
▁stuck	-9.12398
▁markos	-9.12401
▁male	-9.12403
▁crowd	-9.1247
▁rent	-9.12482
ine	-9.12601
▁allowed	-9.12675
▁nuts	-9.12944
▁played	-9.132
▁rid	-9.13293
ul	-9.1346
▁bother	-9.13529
▁shower	-9.13607
ty	-9.13686
led	-9.13736
▁hero	-9.13894
▁taste	-9.14165
▁risk	-9.14228
▁position	-9.14279
▁lieutenant	-9.1447
▁andy	-9.14471
▁henry	-9.14472
▁camp	-9.14482
▁text	-9.14489
▁jewell	-9.14491
▁congratulations	-9.14498
▁chain	-9.14535
▁ship	-9.14609
▁ed	-9.14632
▁v	-9.1465
▁interested	-9.14756
▁gotten	-9.14778
▁figured	-9.15052
ad	-9.15083
▁grow	-9.15504
z	-9.15807
▁crap	-9.16025
▁steal	-9.16107
▁focus	-9.16165
▁accept	-9.16169
os	-9.1624
▁rule	-9.16292
▁comrade	-9.16442
▁decision	-9.1645
▁ought	-9.16517
▁paris	-9.16555
▁bottom	-9.16598
▁doubt	-9.16598
▁film	-9.16598
▁pretend	-9.16598
▁theyd	-9.16598
▁caught	-9.16601
▁ruth	-9.16601
▁clay	-9.16615
▁gasping	-9.16653
▁amen	-9.16656
▁sharp	-9.1666
om	-9.16693
▁books	-9.17012
▁couldve	-9.17879
▁se	-9.17897
▁cute	-9.17977
▁doc	-9.18546
▁legal	-9.18725
▁became	-9.18772
▁especially	-9.18772
▁pregnant	-9.18772
▁within	-9.18772
▁dylan	-9.18773
▁apologize	-9.18773
▁often	-9.18774
▁twice	-9.18774
▁bathroom	-9.18774
▁investigation	-9.18774
▁sold	-9.18775
▁innocent	-9.18777
▁bodies	-9.18778
mo	-9.18778
▁danny	-9.18782
▁space	-9.18792
▁alma	-9.18792
▁texas	-9.1885
▁awful	-9.18878
im	-9.18882
▁jobs	-9.1891
▁putting	-9.18983
▁indistinctly	-9.1908
▁paying	-9.19224
▁locked	-9.19366
▁gi	-9.19383
▁promised	-9.19545
▁bi	-9.19928
▁opens	-9.20037
ir	-9.20117
▁note	-9.20191
▁starting	-9.20199
▁crash	-9.20404
am	-9.20517
▁decide	-9.2064
▁per	-9.20687
▁waste	-9.20718
per	-9.20871
▁large	-9.20881
and	-9.20926
▁sheriff	-9.20935
▁mothers	-9.20961
▁correct	-9.20986
▁crew	-9.20994
▁morgan	-9.20994
▁pashto	-9.20994
▁written	-9.20994
▁neck	-9.20994
▁battle	-9.20997
▁spirit	-9.21004
▁michelle	-9.21004
▁amy	-9.21053
▁burned	-9.21478
▁kinda	-9.2182
▁starts	-9.2204
▁hall	-9.22141
▁pulled	-9.22364
▁teach	-9.22617
▁visit	-9.22736
▁build	-9.2278
at	-9.22904
▁escape	-9.22984
▁should	-9.23066
▁soft	-9.23127
▁river	-9.23263
▁funeral	-9.23267
▁lift	-9.23269
▁desk	-9.2327
▁gift	-9.23271
▁loose	-9.23271
▁football	-9.23274
▁shine	-9.23291
▁begin	-9.233
▁kevin	-9.23301
▁james	-9.23302
▁thousand	-9.23303
▁client	-9.2331
▁usually	-9.23337
▁cup	-9.23379
ian	-9.23943
▁si	-9.24226
me	-9.24276
▁sue	-9.24592
▁pack	-9.2466
▁fill	-9.24682
▁staying	-9.2469
▁walked	-9.25218
way	-9.25252
▁total	-9.2544
▁fresh	-9.25544
▁eating	-9.25548
▁announce	-9.25593
▁grew	-9.25593
▁impossible	-9.25593
▁nervous	-9.25593
▁emily	-9.25593
▁sugar	-9.25594
▁jared	-9.25597
▁extra	-9.25602
▁shop	-9.25604
▁emergency	-9.25606
▁ronit	-9.2561
▁simon	-9.25655
▁ad	-9.25766
▁boom	-9.25785
▁heat	-9.25841
▁fucker	-9.25871
ng	-9.25958
▁art	-9.2602
ling	-9.26885
▁speaks	-9.2691
▁closed	-9.27002
se	-9.27198
▁mention	-9.27603
▁z	-9.2766
▁notice	-9.27695
▁sexual	-9.2785
▁rabbi	-9.27879
ern	-9.27885
▁tight	-9.27934
▁percent	-9.27958
▁advice	-9.27973
▁gallegos	-9.27973
▁lockhart	-9.27973
▁lonnie	-9.27973
▁shirt	-9.27973
▁albert	-9.27974
▁crack	-9.27978
▁nope	-9.2798
▁basement	-9.27987
▁pressure	-9.27994
▁paco	-9.27995
▁kathy	-9.2802
▁julie	-9.28069
▁center	-9.28135
▁guns	-9.28234
▁pig	-9.28326
▁nicky	-9.28372
▁surprised	-9.28444
line	-9.28525
▁huge	-9.28534
ass	-9.28792
▁ringing	-9.28906
▁cook	-9.29863
▁consider	-9.2987
▁hook	-9.29984
▁deserve	-9.30117
▁joan	-9.3038
▁purge	-9.30391
▁kirk	-9.30405
▁twenty	-9.30408
▁excellent	-9.30412
▁laura	-9.30412
▁grandpa	-9.30413
▁teeth	-9.30415
▁meat	-9.30424
▁plus	-9.30424
▁babe	-9.30424
▁motherfucking	-9.3044
▁ghost	-9.30441
▁pussy	-9.30444
▁summer	-9.30459
▁sweetie	-9.30493
▁pen	-9.30533
▁yelling	-9.30614
▁honestly	-9.30676
▁matt	-9.30698
▁drinking	-9.30755
▁travel	-9.30764
▁letting	-9.30776
▁reading	-9.30829
▁er	-9.30946
▁hearing	-9.31051
▁flying	-9.31183
▁gives	-9.31297
▁whip	-9.3146
▁lied	-9.31517
op	-9.32084
▁keeping	-9.32283
▁command	-9.32409
▁rain	-9.32428
▁hill	-9.32699
▁weak	-9.32736
▁angry	-9.32912
▁awesome	-9.32912
▁target	-9.32912
▁credit	-9.32913
▁jerry	-9.32926
▁whatd	-9.32928
▁west	-9.32973
▁joey	-9.33006
▁manager	-9.33042
▁level	-9.33153
▁vampire	-9.33173
▁action	-9.33243
▁jane	-9.33643
▁dry	-9.33673
▁wondering	-9.3374
▁letters	-9.34083
▁ca	-9.3419
▁arms	-9.34293
▁cost	-9.34475
▁fathers	-9.34676
▁doctors	-9.34682
ts	-9.3488
▁switch	-9.35041
do	-9.35076
ship	-9.35167
▁project	-9.35216
▁horn	-9.35268
▁cock	-9.35268
▁where	-9.35308
▁faith	-9.35458
▁vietnam	-9.35476
▁threw	-9.35477
▁toilet	-9.35477
▁whether	-9.35477
▁juice	-9.35477
▁nowhere	-9.35477
▁mitch	-9.35478
▁washington	-9.35478
▁local	-9.3548
▁mister	-9.35496
▁value	-9.35497
ated	-9.35507
▁size	-9.35512
▁taught	-9.35518
▁dirty	-9.35564
▁sight	-9.35576
▁swing	-9.35592
▁exist	-9.35635
ee	-9.35769
▁bottle	-9.3579
▁alien	-9.35808
▁en	-9.35893
▁type	-9.36465
▁passed	-9.36487
ance	-9.36693
▁dare	-9.36703
he	-9.36761
▁loser	-9.36904
ge	-9.37
▁motherfuckers	-9.37231
▁bone	-9.37632
▁takes	-9.37682
▁aah	-9.38084
▁admit	-9.38101
▁attorney	-9.38108
▁border	-9.38108
▁downstairs	-9.38108
▁female	-9.38108
▁maggie	-9.38108
▁plenty	-9.38108
▁practice	-9.38108
▁prick	-9.38108
▁slept	-9.38108
▁jimmy	-9.38109
▁shame	-9.38116
▁jones	-9.38116
▁pilot	-9.38117
▁hiding	-9.38126
▁layne	-9.38127
▁rick	-9.38223
▁range	-9.38234
▁jacket	-9.38251
▁explosion	-9.38453
▁tree	-9.38479
▁arrested	-9.38682
▁sexy	-9.38889
▁learned	-9.39021
▁falling	-9.39197
▁hat	-9.39496
▁bite	-9.39775
head	-9.40255
▁wire	-9.40514
▁howd	-9.40541
▁ar	-9.40646
▁legs	-9.40673
▁main	-9.40751
▁cancer	-9.40811
▁character	-9.40811
▁difficult	-9.40811
▁exhales	-9.40811
▁federal	-9.40811
▁justice	-9.40811
▁process	-9.40811
▁restaurant	-9.40811
▁sophie	-9.40811
▁strength	-9.40811
▁whimpers	-9.40811
▁whoever	-9.40811
▁cleo	-9.40811
▁freedom	-9.40811
▁afford	-9.40811
▁bread	-9.40821
▁access	-9.40822
▁avery	-9.40823
▁naked	-9.40824
▁rush	-9.40827
▁blues	-9.4093
▁cheering	-9.40941
▁butter	-9.40959
▁aw	-9.40974
▁out	-9.41084
red	-9.4119
▁operation	-9.41222
▁nah	-9.41226
▁bird	-9.41265
▁patient	-9.41278
▁ticket	-9.41278
▁prove	-9.41338
▁camera	-9.41364
▁lake	-9.41406
▁expecting	-9.41602
off	-9.4172
▁prisoners	-9.41852
▁grand	-9.41852
▁showed	-9.41896
▁pictures	-9.41994
▁sat	-9.42223
▁problems	-9.42263
▁el	-9.42506
▁treat	-9.42632
▁sin	-9.42942
▁trade	-9.43337
▁sleeping	-9.43351
pe	-9.43404
▁pat	-9.43539
▁dwayne	-9.43589
▁heavily	-9.43589
▁regular	-9.43589
▁subject	-9.43589
▁tongue	-9.43589
▁vallejo	-9.43589
▁larry	-9.43589
▁willing	-9.43589
▁relationship	-9.43589
▁beauty	-9.43591
▁esti	-9.43591
▁liar	-9.43612
▁bridge	-9.43615
▁coke	-9.43619
▁boyfriend	-9.43619
▁laz	-9.4365
▁row	-9.4374
▁invited	-9.43835
▁quickly	-9.44012
▁union	-9.44098
▁pocket	-9.44106
▁bath	-9.44107
▁boo	-9.44119
▁chicken	-9.44142
▁nation	-9.44149
▁oneil	-9.44181
▁ray	-9.44185
▁prefer	-9.44373
ally	-9.44425
▁to	-9.44465
▁wind	-9.446
▁guards	-9.44664
▁he	-9.44992
▁writer	-9.45015
▁sing	-9.45045
▁following	-9.45329
▁grandma	-9.4539
▁bum	-9.45435
▁older	-9.45568
▁pulling	-9.45617
▁everythings	-9.45725
ure	-9.45732
▁closes	-9.45785
▁files	-9.45816
▁appear	-9.46008
▁destroy	-9.46029
▁mar	-9.46067
▁self	-9.461
▁base	-9.46168
▁raise	-9.46245
▁natural	-9.46288
▁collect	-9.4632
▁somethin	-9.46396
▁article	-9.46446
▁california	-9.46446
▁famous	-9.46446
▁blew	-9.46446
▁insane	-9.46446
▁nigger	-9.46447
▁spread	-9.46448
▁detective	-9.46448
▁tits	-9.46453
▁sunday	-9.46453
▁several	-9.46456
▁airport	-9.46459
▁pair	-9.46461
▁nose	-9.46472
▁benny	-9.46473
▁stage	-9.46476
▁chest	-9.46484
▁laughter	-9.46486
▁due	-9.46491
▁scare	-9.46534
▁bigger	-9.4655
▁glasses	-9.46554
▁file	-9.46826
▁faster	-9.46855
▁whispers	-9.4689
▁clearly	-9.47112
io	-9.47167
ill	-9.47168
▁mass	-9.47234
▁shake	-9.47248
lin	-9.47298
▁no	-9.47462
ut	-9.47548
▁bloody	-9.47659
▁papers	-9.47756
▁numbers	-9.48075
▁lee	-9.48427
▁shots	-9.4852
ac	-9.48561
▁race	-9.48712
ca	-9.48739
▁study	-9.48869
▁lt	-9.48977
▁allow	-9.48982
▁screw	-9.48993
▁turns	-9.49287
▁clients	-9.49353
▁jean	-9.49386
▁easier	-9.49387
▁footsteps	-9.49387
▁holiday	-9.49387
▁whitaker	-9.49387
▁hadnt	-9.49387
▁senate	-9.49387
▁held	-9.49387
▁silly	-9.49387
▁purpose	-9.49387
▁roger	-9.49387
▁neighborhood	-9.49388
▁central	-9.49389
▁aware	-9.49392
▁awake	-9.49393
▁castle	-9.49399
▁stock	-9.49402
▁brad	-9.49495
▁bleeding	-9.4957
▁served	-9.49619
▁thinks	-9.49701
▁concerned	-9.49731
▁bringing	-9.49793
▁county	-9.49873
▁records	-9.49955
▁burning	-9.50146
▁dollar	-9.50222
be	-9.50461
▁harder	-9.50718
▁cards	-9.50813
▁magic	-9.50836
▁loves	-9.50953
▁friendly	-9.50991
j	-9.51017
▁members	-9.51165
the	-9.51356
▁draw	-9.51521
▁interest	-9.51544
▁services	-9.51642
▁breaking	-9.51739
▁market	-9.51942
▁complete	-9.51974
▁wash	-9.52012
▁final	-9.5212
▁settle	-9.52132
▁survive	-9.5214
▁ba	-9.52144
lng	-9.52263
▁doll	-9.52412
▁oclock	-9.52417
▁pembroke	-9.52417
▁progress	-9.52417
▁stomach	-9.52417
▁szell	-9.52417
▁changing	-9.52417
▁mmmhmm	-9.52418
▁basically	-9.5242
▁agency	-9.5242
▁brown	-9.52421
▁ammo	-9.52421
▁navy	-9.52423
▁trial	-9.52438
▁pool	-9.52441
▁button	-9.52445
▁sky	-9.52453
▁incredible	-9.52475
▁patch	-9.52483
▁lana	-9.525
▁kable	-9.5251
▁chad	-9.52513
▁pot	-9.52534
▁created	-9.52593
▁prepared	-9.52626
tra	-9.52639
▁helping	-9.52648
ah	-9.52704
▁stone	-9.52738
▁bigge	-9.52862
▁agreed	-9.52867
▁checked	-9.5287
▁frances	-9.53032
▁loan	-9.53191
ped	-9.53204
▁ave	-9.53261
▁whore	-9.53285
▁rio	-9.53362
▁animals	-9.5338
ke	-9.53392
▁seemed	-9.53582
▁dressed	-9.53599
ions	-9.53892
▁hunt	-9.54341
▁do	-9.54718
▁lts	-9.55111
ize	-9.55126
▁career	-9.55255
▁release	-9.5526
▁invite	-9.55265
▁spoke	-9.55479
▁stole	-9.55483
▁alarm	-9.55542
▁eben	-9.55542
▁language	-9.55542
▁leigh	-9.55542
▁thatll	-9.55542
▁pardon	-9.55542
▁toast	-9.55542
▁location	-9.55543
▁donnie	-9.55543
▁stifler	-9.55543
▁committee	-9.55544
▁torture	-9.55544
▁feck	-9.55548
▁thirty	-9.55552
▁beamen	-9.55554
▁abby	-9.55568
▁truly	-9.55575
▁runner	-9.55583
▁feelings	-9.55622
▁weight	-9.55626
▁match	-9.5567
▁breath	-9.55703
ious	-9.55856
▁ness	-9.55946
▁scream	-9.55987
▁keeps	-9.5601
▁forced	-9.56051
▁besides	-9.56102
▁who	-9.56138
▁whoo	-9.56328
▁sec	-9.56444
▁medic	-9.56681
▁everybodys	-9.56828
ab	-9.57135
▁movies	-9.57572
ho	-9.57896
ap	-9.57946
▁doors	-9.58119
▁u	-9.58147
▁sentence	-9.58473
da	-9.585
▁bones	-9.58519
▁album	-9.58768
▁chocolate	-9.58768
▁guitar	-9.58768
▁otherwise	-9.58768
▁somehow	-9.58768
▁nokes	-9.58768
▁square	-9.58769
▁amount	-9.58769
▁unbelievable	-9.58769
▁permission	-9.5877
▁monday	-9.5877
▁ripley	-9.58771
▁beria	-9.58771
▁noise	-9.58772
▁section	-9.58775
▁jerk	-9.58781
▁remain	-9.58799
▁yearold	-9.58805
▁immediately	-9.58806
▁marion	-9.58808
land	-9.58853
▁lack	-9.58884
▁hoping	-9.58939
▁tall	-9.59067
▁product	-9.59219
▁lou	-9.59292
▁feed	-9.59452
▁porn	-9.59601
▁score	-9.59727
▁gunshot	-9.59728
▁monster	-9.59762
▁fixed	-9.5977
▁sp	-9.59795
▁page	-9.59837
hi	-9.59912
▁knocking	-9.59946
▁murdered	-9.60037
ble	-9.60082
▁dancer	-9.60135
▁chattering	-9.60234
▁helped	-9.60309
by	-9.60342
▁ears	-9.60359
ot	-9.60569
▁ma	-9.60878
▁talkin	-9.60976
▁sisters	-9.61165
▁translat	-9.61541
▁bang	-9.61634
▁divorce	-9.6182
▁vi	-9.61929
▁hung	-9.6194
che	-9.62057
▁pu	-9.62058
▁flat	-9.62088
▁claire	-9.62101
▁disease	-9.62101
▁kincaid	-9.62101
▁moustache	-9.62101
▁patricia	-9.62101
▁sobbing	-9.62101
▁split	-9.62101
▁ugly	-9.62102
▁mood	-9.62102
▁kurt	-9.62102
▁violence	-9.62102
▁available	-9.62105
▁trash	-9.62106
▁handwriting	-9.62106
▁beginning	-9.6211
▁drank	-9.62112
▁rav	-9.62114
▁common	-9.62114
▁mask	-9.62116
▁bedroom	-9.62116
▁allen	-9.62133
▁bike	-9.62136
▁original	-9.62141
▁penis	-9.62148
▁beeping	-9.62179
▁rex	-9.62211
▁brave	-9.62248
▁arrived	-9.62304
▁su	-9.62431
▁destroyed	-9.62591
▁x	-9.62639
▁add	-9.62712
▁brains	-9.62765
kin	-9.62951
▁leader	-9.62984
▁tie	-9.63138
▁clears	-9.63153
▁vehicle	-9.63172
▁murderer	-9.63177
▁lawyers	-9.63178
▁knees	-9.63423
▁smells	-9.63478
▁opened	-9.63523
▁ken	-9.6354
▁driver	-9.63708
▁heading	-9.6419
▁lots	-9.64966
▁bo	-9.65002
one	-9.65038
▁perform	-9.65102
▁rep	-9.65243
▁sacrifice	-9.65268
▁introduce	-9.65303
▁abraham	-9.6555
▁apparently	-9.6555
▁cocaine	-9.6555
▁example	-9.6555
▁garbage	-9.6555
▁majesty	-9.6555
▁mirror	-9.6555
▁someplace	-9.6555
▁according	-9.6555
▁piano	-9.6555
▁stories	-9.6555
▁staff	-9.65552
▁cheap	-9.65553
▁boring	-9.65554
▁harper	-9.65555
▁motor	-9.65555
▁mail	-9.6556
▁capone	-9.65561
▁gang	-9.65567
▁franklin	-9.65575
▁statement	-9.65602
▁freeway	-9.65609
▁moon	-9.65631
▁louise	-9.65652
▁tower	-9.65672
▁refuse	-9.65731
▁tt	-9.65762
▁farm	-9.65772
▁barking	-9.65797
▁li	-9.65822
▁plant	-9.65907
▁nearly	-9.65941
▁rat	-9.66318
▁higher	-9.6638
▁flowers	-9.66439
▁clicks	-9.66504
▁details	-9.66666
▁angel	-9.66711
▁chick	-9.66737
▁procedure	-9.66742
▁nicola	-9.66799
▁bullet	-9.66821
▁shark	-9.6683
▁bombing	-9.66839
▁songs	-9.66851
▁backup	-9.6702
▁tape	-9.67048
▁sucks	-9.67214
oo	-9.67257
▁acting	-9.6729
ton	-9.67319
ti	-9.67472
▁tip	-9.67693
▁siren	-9.67709
▁beating	-9.6771
▁orders	-9.67741
▁everyones	-9.67781
▁ends	-9.67834
▁opening	-9.67912
▁picked	-9.68112
▁tim	-9.68133
▁concern	-9.68183
▁dig	-9.68333
ey	-9.68341
▁bless	-9.68382
tion	-9.6848
▁borrow	-9.68675
ps	-9.68828
▁ghosts	-9.68839
▁post	-9.6897
▁arthur	-9.69121
▁asleep	-9.69121
▁brilliant	-9.69121
▁celebrate	-9.69121
▁london	-9.69121
▁opinion	-9.69121
▁opportunity	-9.69121
▁period	-9.69121
▁sunshine	-9.69121
▁whenever	-9.69121
▁allyson	-9.69124
▁community	-9.69124
▁rough	-9.69126
▁onto	-9.69127
▁memory	-9.69128
▁comfortable	-9.69138
▁linda	-9.69145
▁secretary	-9.6915
▁dust	-9.69151
▁complicated	-9.69157
▁wet	-9.69171
▁weed	-9.69194
▁matters	-9.69244
▁streets	-9.6925
▁clark	-9.69304
▁vision	-9.69329
▁plans	-9.69342
▁ruined	-9.69388
▁abe	-9.69446
▁lily	-9.69494
ou	-9.69521
▁fingers	-9.69591
▁pump	-9.69933
▁stayed	-9.69947
▁expected	-9.70018
▁strike	-9.70463
▁interview	-9.70472
▁wood	-9.70658
▁selling	-9.7066
ber	-9.70734
▁victims	-9.70968
▁tear	-9.70984
▁throwing	-9.71025
▁officers	-9.71195
▁sharks	-9.71487
▁flag	-9.71803
▁bust	-9.71821
▁serve	-9.72038
▁heads	-9.72106
▁stops	-9.72224
▁ended	-9.72323
▁tour	-9.72331
ations	-9.72553
▁chill	-9.72594
ball	-9.72631
▁sweat	-9.72668
▁actual	-9.72684
▁ohh	-9.72725
▁proper	-9.72729
▁style	-9.72752
▁alcohol	-9.72784
▁silver	-9.72786
▁andrew	-9.72825
▁beyond	-9.72825
▁dovid	-9.72825
▁flesh	-9.72825
▁gaga	-9.72825
▁graham	-9.72825
▁kumail	-9.72825
▁smoking	-9.72825
▁tuesday	-9.72825
▁desert	-9.72825
▁deuce	-9.72825
▁empty	-9.72825
▁social	-9.72825
▁twelve	-9.72825
▁barbara	-9.72826
▁harold	-9.72826
▁francisco	-9.72826
▁itd	-9.72827
▁kitty	-9.72829
▁television	-9.72829
▁donna	-9.72829
▁clock	-9.72834
▁responsible	-9.72837
▁lucas	-9.72841
▁swim	-9.72842
▁winner	-9.72845
▁view	-9.72853
▁dropped	-9.72859
▁cries	-9.72861
▁nasty	-9.72861
▁harm	-9.72863
▁standard	-9.72867
▁terry	-9.72881
▁link	-9.72882
▁whyd	-9.72884
▁pure	-9.72884
▁connection	-9.72925
▁sean	-9.73005
▁mu	-9.73007
▁former	-9.73098
▁hired	-9.73156
▁blessed	-9.73263
▁wasted	-9.73294
▁personally	-9.7332
▁coma	-9.73343
▁bat	-9.73421
▁hells	-9.7351
▁ate	-9.73541
▁coughs	-9.73584
▁ana	-9.73679
▁march	-9.73721
▁claim	-9.73837
▁lo	-9.74122
▁criminal	-9.743
▁magazine	-9.74336
▁member	-9.74383
der	-9.74433
▁document	-9.74551
▁teacher	-9.74571
▁signed	-9.74638
bo	-9.74984
▁hon	-9.75232
ard	-9.75459
▁lies	-9.75612
ect	-9.75842
▁smash	-9.76226
▁dump	-9.76239
▁lights	-9.76381
▁freeze	-9.76447
back	-9.76492
▁chose	-9.76598
▁mmhm	-9.76617
▁success	-9.76617
▁expert	-9.76668
▁darlene	-9.76671
▁excited	-9.76671
▁fletcher	-9.76671
▁genius	-9.76671
▁however	-9.76671
▁nicole	-9.76671
▁ridiculous	-9.76671
▁margaret	-9.76671
▁cheese	-9.76671
▁thomas	-9.76672
▁mexico	-9.76672
▁nature	-9.76672
▁among	-9.76672
▁barely	-9.76672
▁steak	-9.76672
▁friday	-9.76673
▁buried	-9.76673
▁appointment	-9.76674
▁booze	-9.76676
▁launch	-9.76676
▁vacation	-9.76681
▁cassie	-9.76683
▁beef	-9.76688
▁rowan	-9.76704
▁mental	-9.76708
▁milk	-9.76712
▁july	-9.76712
▁upon	-9.76713
▁lowry	-9.76717
▁cake	-9.76748
▁sally	-9.76776
ted	-9.768
▁approaching	-9.76913
▁points	-9.76914
▁carli	-9.76997
▁rise	-9.77002
▁balance	-9.77031
▁noticed	-9.77125
sh	-9.77211
▁du	-9.77236
▁pr	-9.77244
▁bl	-9.77319
▁sand	-9.77335
▁provide	-9.77555
▁finding	-9.77562
▁closer	-9.77583
▁trick	-9.77617
▁gut	-9.77763
▁request	-9.77869
▁kicked	-9.77887
▁fan	-9.7795
▁mis	-9.78051
ai	-9.78148
▁closet	-9.78196
we	-9.78432
▁va	-9.78508
▁up	-9.78696
▁eggs	-9.78728
ence	-9.78834
▁stars	-9.78964
un	-9.79083
▁ton	-9.79304
▁ni	-9.79443
▁discuss	-9.79661
▁disappear	-9.79726
▁sins	-9.7997
▁recognize	-9.8038
▁health	-9.80448
▁foreign	-9.80476
▁regret	-9.80641
▁babies	-9.80671
▁ganz	-9.80671
▁including	-9.80671
▁jealous	-9.80671
▁literally	-9.80671
▁ocean	-9.80671
▁saturday	-9.80671
▁society	-9.80671
▁whirring	-9.80671
▁william	-9.80671
▁enemy	-9.80671
▁steady	-9.80671
▁drove	-9.80671
▁papa	-9.80671
▁attitude	-9.80671
▁island	-9.80671
▁eddie	-9.80671
▁glory	-9.80673
▁organization	-9.80674
▁joking	-9.80674
▁chuckling	-9.80677
▁property	-9.80683
▁handsome	-9.80685
▁zone	-9.80687
▁began	-9.80687
▁muff	-9.80693
▁rare	-9.80693
▁deputy	-9.80695
▁season	-9.80699
▁poker	-9.80705
▁suddenly	-9.80751
nial	-9.80774
▁hm	-9.80784
▁received	-9.80857
▁cates	-9.8088
▁buzzing	-9.80903
▁tax	-9.80913
▁lil	-9.8094
▁under	-9.80943
▁voices	-9.80944
ow	-9.81171
▁raised	-9.81211
▁ron	-9.81215
▁bowl	-9.81242
▁wayne	-9.81286
▁pissed	-9.81509
ite	-9.81694
▁pounds	-9.81773
▁cu	-9.81918
ters	-9.81993
▁cr	-9.82203
our	-9.82236
▁pieces	-9.8234
▁debt	-9.82439
▁quarter	-9.8245
▁snake	-9.82483
▁email	-9.82487
▁official	-9.82489
▁parking	-9.82519
you	-9.8256
▁gate	-9.826
▁cars	-9.82671
▁walls	-9.82797
▁fellas	-9.82861
ile	-9.83137
▁le	-9.83199
▁bullets	-9.83334
▁ph	-9.83338
▁beth	-9.83402
▁gig	-9.83507
▁dads	-9.83524
▁path	-9.83538
min	-9.83552
ki	-9.83694
▁ms	-9.83725
▁rings	-9.83956
▁patients	-9.84116
▁tickets	-9.84116
cha	-9.84183
end	-9.84281
▁talent	-9.84397
▁vampires	-9.84414
house	-9.84573
ning	-9.84668
▁martin	-9.84799
▁thousands	-9.84803
▁sara	-9.84814
▁birth	-9.84834
▁allison	-9.84838
▁although	-9.84838
▁ashamed	-9.84838
▁clamoring	-9.84838
▁cristina	-9.84838
▁cyrus	-9.84838
▁defense	-9.84838
▁elevator	-9.84838
▁halloween	-9.84838
▁hephaistion	-9.84838
▁janice	-9.84838
▁khrushchev	-9.84838
▁kovic	-9.84838
▁luther	-9.84838
▁mullins	-9.84838
▁understood	-9.84838
▁wednesday	-9.84838
▁nightmare	-9.84838
▁nurse	-9.84838
▁extreme	-9.84838
▁fortune	-9.84838
▁thatd	-9.84838
▁argue	-9.84838
▁earlier	-9.84838
▁lexi	-9.84838
▁grandmother	-9.84839
▁sofi	-9.84839
▁fought	-9.8484
▁squad	-9.8484
▁june	-9.84842
▁yellow	-9.84842
▁fancy	-9.84845
▁horrible	-9.84847
▁necessary	-9.84851
▁clive	-9.84852
▁bull	-9.84859
▁carrie	-9.84863
▁package	-9.84864
▁fake	-9.84865
▁sauce	-9.84866
▁inter	-9.8487
▁jill	-9.8489
▁cameron	-9.84895
▁safety	-9.84907
▁laid	-9.8495
ig	-9.84973
▁host	-9.85007
▁deeply	-9.85175
lie	-9.85461
▁bin	-9.85467
▁triple	-9.85585
▁perfectly	-9.85709
▁bitches	-9.85719
▁strip	-9.85735
di	-9.85789
▁tires	-9.85796
▁lower	-9.85798
▁growing	-9.8582
▁eva	-9.85885
ita	-9.86008
▁younger	-9.86044
▁engineer	-9.86165
▁plays	-9.86188
▁photos	-9.86501
uck	-9.86635
que	-9.86643
▁print	-9.86685
▁dean	-9.86734
▁cent	-9.86736
▁interrogation	-9.86804
▁fellow	-9.86815
▁cigarette	-9.86846
▁rate	-9.86886
▁professional	-9.86902
ake	-9.8693
▁rip	-9.86991
▁covered	-9.8724
▁reports	-9.87274
▁resist	-9.87276
▁cats	-9.87314
▁cases	-9.87424
▁woods	-9.87516
▁sending	-9.87651
ier	-9.87655
▁tapes	-9.87683
▁nail	-9.87851
▁egg	-9.87952
loans	-9.88132
▁po	-9.88177
▁toe	-9.88362
bi	-9.88375
▁places	-9.88503
▁fella	-9.88527
▁sa	-9.88585
▁connect	-9.88637
▁confirm	-9.88701
▁las	-9.88717
▁prepare	-9.88908
▁physical	-9.89028
▁units	-9.89054
▁counsel	-9.89108
▁spin	-9.89172
▁cleitus	-9.89185
▁courage	-9.89185
▁garden	-9.89185
▁lydia	-9.89185
▁miracle	-9.89185
▁possibly	-9.89185
▁prawn	-9.89185
▁traffic	-9.89185
▁yunger	-9.89185
▁simply	-9.89186
▁nerve	-9.89186
▁anger	-9.89186
▁sheep	-9.89186
▁cousin	-9.89186
▁league	-9.89186
▁trigger	-9.89186
▁golf	-9.89189
▁bloom	-9.8919
▁woke	-9.89194
▁mummy	-9.89196
▁route	-9.89197
▁duty	-9.89197
▁positive	-9.89207
▁therapy	-9.89209
▁treatment	-9.89211
▁brand	-9.89213
▁leak	-9.89214
▁und	-9.89227
▁error	-9.89237
▁confused	-9.89242
▁cure	-9.89245
▁highway	-9.89255
▁oil	-9.89258
▁bout	-9.89265
▁stolen	-9.89286
▁dive	-9.8933
▁boz	-9.89342
▁map	-9.89372
▁failed	-9.89402
▁designed	-9.89438
ust	-9.89442
▁reality	-9.89449
▁hurting	-9.89475
▁signal	-9.89503
▁sink	-9.89507
▁based	-9.89655
▁wh	-9.89811
ors	-9.89999
▁rude	-9.90059
▁cheers	-9.9021
▁highly	-9.90302
▁pm	-9.90738
▁staring	-9.90744
▁headed	-9.90856
▁loss	-9.90901
ator	-9.91014
▁load	-9.91079
ya	-9.91097
ha	-9.9112
▁indian	-9.91369
▁issue	-9.91372
ical	-9.91388
▁term	-9.91399
▁option	-9.91413
▁victim	-9.91418
ose	-9.9151
▁assholes	-9.91615
▁pee	-9.9164
mer	-9.91746
▁pie	-9.91821
▁ri	-9.91893
▁doo	-9.92181
▁cares	-9.92322
ler	-9.92353
▁machines	-9.92368
▁runs	-9.92411
ny	-9.92491
▁shakes	-9.92721
▁suffer	-9.92792
▁pi	-9.93119
▁defend	-9.93191
▁computers	-9.93207
▁demand	-9.93216
▁enter	-9.93246
tin	-9.93266
▁wound	-9.93311
▁sc	-9.93336
▁shift	-9.93487
▁mi	-9.93514
▁particular	-9.93569
▁bright	-9.93666
bra	-9.93672
▁slip	-9.93717
▁finch	-9.9373
▁bravo	-9.93731
▁chelsea	-9.93731
▁district	-9.93731
▁dukhovich	-9.93731
▁dungeon	-9.93731
▁graeme	-9.93731
▁revenge	-9.93731
▁science	-9.93731
▁studio	-9.93731
▁suicide	-9.93731
▁vodka	-9.93731
▁luke	-9.93731
▁surgery	-9.93731
▁mostly	-9.93731
▁philip	-9.93731
▁doughnut	-9.93731
▁ryan	-9.93731
▁blanc	-9.93732
▁pride	-9.93733
▁exchange	-9.93734
▁pipe	-9.93734
▁alice	-9.93735
▁diana	-9.93736
▁kidnapped	-9.93736
▁baseball	-9.93741
▁peyton	-9.93746
▁gear	-9.93746
▁comment	-9.93748
▁rome	-9.9376
▁planned	-9.93762
▁planning	-9.93767
▁pge	-9.93775
▁burger	-9.93776
▁rosa	-9.93819
▁assume	-9.93867
▁shape	-9.93872
▁christie	-9.93913
▁gim	-9.93919
ich	-9.93924
▁buttle	-9.93978
▁bench	-9.94008
▁movement	-9.94085
▁media	-9.94274
▁me	-9.94282
▁greatest	-9.94533
▁realized	-9.94561
▁fisher	-9.94577
ign	-9.94707
ping	-9.94727
▁mid	-9.94764
▁sports	-9.94778
of	-9.94899
▁bags	-9.94985
▁gal	-9.95358
▁partners	-9.95427
▁towards	-9.95442
▁yells	-9.95538
▁photograph	-9.95616
▁ear	-9.95875
▁all	-9.95894
▁spit	-9.95993
▁mountain	-9.96126
▁odd	-9.96163
▁hundreds	-9.96187
▁fuckers	-9.96197
▁bay	-9.96839
▁fund	-9.9687
▁snap	-9.97021
▁badly	-9.97099
au	-9.97105
▁hearts	-9.97154
ach	-9.97541
▁hurts	-9.97555
ff	-9.9774
▁picking	-9.97765
▁deliver	-9.9782
▁aliens	-9.97888
▁phones	-9.98057
▁mix	-9.98078
▁beg	-9.98154
▁butt	-9.98204
▁require	-9.98206
▁create	-9.98215
▁pigs	-9.98388
▁speech	-9.98415
▁jam	-9.98464
▁comfort	-9.9847
▁vote	-9.98488
▁amelia	-9.98493
▁clinch	-9.98493
▁custody	-9.98493
▁families	-9.98493
▁fantastic	-9.98493
▁georgy	-9.98493
▁helicopter	-9.98493
▁hoffman	-9.98493
▁internet	-9.98493
▁mcdeere	-9.98493
▁pizza	-9.98493
▁powder	-9.98493
▁silence	-9.98493
▁taliban	-9.98493
▁thursday	-9.98493
▁vegas	-9.98493
▁whimpering	-9.98493
▁illegal	-9.98493
▁laurie	-9.98493
▁slim	-9.98493
▁jodie	-9.98493
▁miami	-9.98493
▁behalf	-9.98493
▁spring	-9.98495
▁kidnapping	-9.98496
▁alpha	-9.98497
▁failure	-9.98497
▁clue	-9.98498
▁chin	-9.98499
▁aunt	-9.98499
▁height	-9.985
▁parry	-9.98501
▁cherry	-9.98501
▁harry	-9.98503
▁zeus	-9.98504
▁marcus	-9.98505
▁padre	-9.98506
▁echo	-9.98506
▁familiar	-9.98509
▁lena	-9.98512
▁lick	-9.98514
▁stake	-9.98514
▁fence	-9.98515
▁princess	-9.98517
▁slight	-9.98523
▁raw	-9.98525
▁winning	-9.98529
▁sack	-9.98532
▁pink	-9.98551
▁barry	-9.98567
▁penny	-9.98568
▁fa	-9.98573
▁christian	-9.98575
▁jamie	-9.98582
▁forty	-9.98582
▁harlan	-9.98585
▁grown	-9.98637
▁aim	-9.98698
men	-9.98744
▁clicking	-9.98776
▁louder	-9.98863
▁subtitles	-9.98894
▁wounded	-9.98935
▁watched	-9.99055
▁gu	-9.99097
▁knowledge	-9.99137
▁fl	-9.99203
▁planet	-9.99208
ba	-9.99262
▁lab	-9.99404
▁manage	-9.99448
▁commander	-9.99474
▁mustve	-9.99509
▁attacked	-9.99579
ible	-9.99656
hen	-9.99845
▁offered	-9.99889
▁ob	-10.0002
▁mistakes	-10.0005
▁carol	-10.0066
▁belong	-10.0069
oy	-10.0077
ized	-10.0087
▁tap	-10.0113
▁ja	-10.0119
va	-10.0125
▁charges	-10.0143
▁documents	-10.0143
▁fr	-10.0158
▁shove	-10.0162
▁nights	-10.0278
ability	-10.0289
ned	-10.0291
▁crush	-10.0305
▁swallow	-10.0305
▁discover	-10.0307
▁soldiers	-10.0308
ka	-10.0313
▁ven	-10.0313
▁thoughts	-10.0314
▁leaves	-10.0316
▁damage	-10.0322
just	-10.0328
ight	-10.0329
▁abuse	-10.0334
▁fold	-10.0335
▁lev	-10.0342
▁corn	-10.0344
▁express	-10.0346
▁homosexual	-10.0348
▁ski	-10.0349
jo	-10.0349
▁flash	-10.0349
▁ambulance	-10.0349
▁attempt	-10.0349
▁dallas	-10.0349
▁enemies	-10.0349
▁false	-10.0349
▁instrument	-10.0349
▁pathetic	-10.0349
▁research	-10.0349
▁reynolds	-10.0349
▁schedule	-10.0349
▁therapist	-10.0349
▁weather	-10.0349
▁whistling	-10.0349
▁wilkinson	-10.0349
▁blaring	-10.0349
▁saving	-10.0349
▁wherever	-10.0349
▁insult	-10.0349
▁intelligence	-10.0349
▁insurance	-10.0349
▁sobs	-10.035
▁firing	-10.035
▁zero	-10.035
▁stella	-10.035
▁uniform	-10.035
▁quarterback	-10.035
▁jenny	-10.035
▁punch	-10.035
▁decent	-10.035
▁babysitter	-10.035
▁screen	-10.0351
▁label	-10.0352
▁edge	-10.0353
▁beast	-10.0353
▁recently	-10.0355
▁artist	-10.0355
▁usual	-10.0358
▁meal	-10.036
▁role	-10.036
▁tune	-10.0361
▁national	-10.0361
▁cow	-10.0361
▁bud	-10.0361
▁protection	-10.0362
▁duel	-10.0362
▁cave	-10.0362
▁trailer	-10.0366
▁tiny	-10.0366
▁complaint	-10.0366
▁lucy	-10.0367
▁erin	-10.0371
▁salt	-10.0374
▁kate	-10.0385
▁somebodys	-10.0385
▁jackie	-10.0386
▁joint	-10.0392
▁chase	-10.0396
▁disappeared	-10.0403
▁ki	-10.0404
▁cal	-10.0411
▁billion	-10.0429
▁drawing	-10.0433
▁engines	-10.0459
▁math	-10.0459
▁reached	-10.0475
▁shows	-10.0475
▁americans	-10.0489
▁sub	-10.0501
▁non	-10.0505
side	-10.0518
▁messing	-10.0525
▁windows	-10.0526
▁terrorists	-10.0538
▁pin	-10.0555
ten	-10.0571
ni	-10.0585
▁answered	-10.0591
▁ordered	-10.0601
▁demo	-10.0604
▁contract	-10.0634
▁student	-10.0642
▁sometime	-10.0647
bed	-10.0651
ism	-10.0658
▁plate	-10.0658
og	-10.0659
▁showing	-10.0686
▁nicolas	-10.0686
▁bend	-10.0705
▁faces	-10.0707
▁sons	-10.0729
▁cor	-10.0733
▁beers	-10.0734
▁be	-10.0739
con	-10.0745
▁hanging	-10.0755
ock	-10.0758
med	-10.0771
▁kings	-10.0783
▁cheat	-10.0783
▁birds	-10.0791
▁anti	-10.0803
▁cocks	-10.0812
▁rap	-10.0818
▁at	-10.082
▁costs	-10.0822
▁cl	-10.0826
▁mon	-10.0827
azz	-10.0829
▁hardt	-10.0849
▁severe	-10.085
let	-10.0853
▁exact	-10.0861
▁village	-10.0874
▁myth	-10.0875
▁atlanta	-10.0876
▁benefit	-10.0876
▁effort	-10.0876
▁fabulous	-10.0876
▁faggot	-10.0876
▁ferguson	-10.0876
▁incident	-10.0876
▁interzone	-10.0876
▁irene	-10.0876
▁jordan	-10.0876
▁lazarus	-10.0876
▁license	-10.0876
▁lindsey	-10.0876
▁mexican	-10.0876
▁paradise	-10.0876
▁represent	-10.0876
▁taylor	-10.0876
▁wikus	-10.0876
▁woodcock	-10.0876
▁modern	-10.0876
▁pimp	-10.0876
▁superior	-10.0876
▁stood	-10.0876
▁ransom	-10.0876
▁expensive	-10.0876
▁tuttle	-10.0876
▁midnight	-10.0876
▁wives	-10.0876
▁valley	-10.0876
▁alert	-10.0876
while	-10.0876
▁cowboy	-10.0876
▁assistant	-10.0876
▁combat	-10.0876
▁bride	-10.0876
▁sneak	-10.0876
▁contest	-10.0877
▁effective	-10.0877
▁motion	-10.0877
▁chapter	-10.0877
▁model	-10.0877
▁warden	-10.0878
▁yup	-10.0878
▁impression	-10.0878
▁kansas	-10.0878
▁touchdown	-10.0879
▁confession	-10.0879
▁lonely	-10.0879
▁mobile	-10.088
▁data	-10.088
▁darkness	-10.0882
▁wide	-10.0888
▁dial	-10.0894
▁belt	-10.0896
▁properly	-10.0898
▁pickup	-10.0899
▁inform	-10.0902
▁moaning	-10.0904
▁embarrassing	-10.0904
▁warning	-10.0906
▁gl	-10.0907
▁diner	-10.0912
▁scoffs	-10.0921
ga	-10.0925
▁loaded	-10.0926
▁coat	-10.0926
▁moms	-10.0927
▁dumped	-10.0934
▁anne	-10.0937
▁y	-10.0942
gu	-10.0946
uc	-10.0947
▁slowly	-10.0949
▁lll	-10.095
cat	-10.0965
king	-10.0966
▁mentioned	-10.0971
▁gloves	-10.0972
▁jackal	-10.0977
▁stan	-10.098
▁cooking	-10.0985
▁gettin	-10.0992
▁riding	-10.1005
▁pills	-10.101
▁shouts	-10.1024
▁armed	-10.1032
▁the	-10.1032
▁aa	-10.1047
▁marks	-10.1047
▁turning	-10.105
ov	-10.1051
▁led	-10.1073
▁sales	-10.1077
▁mum	-10.108
▁whi	-10.1083
her	-10.1085
▁dime	-10.1123
▁gr	-10.1124
▁hardly	-10.1134
▁recording	-10.1137
▁bastards	-10.1137
▁secrets	-10.1137
▁ways	-10.116
▁messages	-10.1163
▁johner	-10.1165
wa	-10.1179
▁monkey	-10.1192
▁wave	-10.1197
gra	-10.1208
▁touched	-10.122
▁pl	-10.1245
▁tu	-10.1247
▁remains	-10.1261
▁fi	-10.1279
ron	-10.1303
▁rig	-10.1348
▁bottles	-10.1363
▁of	-10.1364
▁tone	-10.1366
▁climb	-10.1379
▁shock	-10.1389
▁ruin	-10.1395
▁chris	-10.1396
▁reasons	-10.1396
▁guarantee	-10.1401
▁curse	-10.1402
▁cra	-10.1405
▁flow	-10.1412
▁becomes	-10.1418
▁recommend	-10.1422
▁sandwich	-10.1424
▁pakistan	-10.1425
▁arrange	-10.143
▁borras	-10.1431
▁circle	-10.1431
▁florida	-10.1431
▁library	-10.1431
▁ludlow	-10.1431
▁lutz	-10.1431
▁mccormack	-10.1431
▁popular	-10.1431
▁practically	-10.1431
▁scusa	-10.1431
▁sherwood	-10.1431
▁smooth	-10.1431
▁wreck	-10.1431
▁angie	-10.1431
▁caleb	-10.1431
▁graysmith	-10.1431
▁wray	-10.1431
▁ellen	-10.1431
▁trauma	-10.1431
▁flea	-10.1431
▁hawkins	-10.1431
▁telephone	-10.1431
▁susie	-10.1431
▁valek	-10.1431
▁gain	-10.1431
▁junk	-10.1431
▁italian	-10.1431
▁cadence	-10.1431
▁century	-10.1431
▁executive	-10.1432
▁cried	-10.1432
▁alison	-10.1432
▁elwood	-10.1432
▁plot	-10.1432
▁review	-10.1432
▁auto	-10.1432
▁trapped	-10.1432
▁steam	-10.1432
▁loving	-10.1432
▁irish	-10.1432
▁fadela	-10.1433
▁forgotten	-10.1433
▁marshall	-10.1433
▁smith	-10.1433
▁memories	-10.1433
▁medicine	-10.1433
▁coward	-10.1434
▁inspector	-10.1434
▁cunt	-10.1434
▁series	-10.1434
▁fruit	-10.1434
▁energy	-10.1435
▁polite	-10.1435
▁duck	-10.1435
▁satan	-10.1435
▁reaction	-10.1436
▁dating	-10.1437
▁peterson	-10.1437
▁benway	-10.144
▁nest	-10.1441
▁wise	-10.1442
▁powerful	-10.1443
▁mercy	-10.1445
▁err	-10.145
▁aid	-10.1451
▁creepy	-10.1452
▁diego	-10.1455
▁fee	-10.1455
▁steven	-10.1461
▁healthy	-10.1464
▁managed	-10.1475
▁discovered	-10.1478
▁eaten	-10.1482
▁suffering	-10.1493
▁advise	-10.1497
▁banging	-10.1515
▁stu	-10.1516
▁tied	-10.1517
▁treated	-10.1518
▁sniffs	-10.152
▁carefully	-10.153
▁homeless	-10.1561
▁slice	-10.1561
▁hunter	-10.1566
day	-10.1581
▁fe	-10.1591
▁meaning	-10.1592
ial	-10.1598
▁leading	-10.1599
over	-10.1604
▁enjoying	-10.1605
▁trained	-10.1609
▁lately	-10.1619
oi	-10.1637
▁weekends	-10.1668
hu	-10.1679
▁odds	-10.1711
▁ver	-10.1712
ette	-10.1712
▁pit	-10.1718
▁answers	-10.1728
▁qu	-10.1729
▁knee	-10.1749
▁yell	-10.1755
▁tank	-10.1768
▁hated	-10.1775
▁neighbor	-10.1783
▁greek	-10.1783
▁result	-10.1783
▁marine	-10.1786
▁photo	-10.1787
▁farmer	-10.1811
bar	-10.1835
▁hug	-10.1862
▁parts	-10.1864
▁plug	-10.1876
well	-10.189
▁bea	-10.1905
▁port	-10.1918
nie	-10.1918
py	-10.1929
▁les	-10.1934
▁solve	-10.1943
▁paint	-10.1948
▁tuck	-10.1955
▁fo	-10.1961
▁screech	-10.1969
▁twist	-10.1978
▁dealer	-10.1981
down	-10.1988
ating	-10.1989
board	-10.1991
▁los	-10.1995
▁guilt	-10.1996
▁app	-10.1998
▁faint	-10.2002
▁rapid	-10.2005
▁cancel	-10.2018
▁favour	-10.2019
ez	-10.2019
▁accent	-10.2019
▁activity	-10.2019
▁advantage	-10.2019
▁audience	-10.2019
▁candidate	-10.2019
▁dozen	-10.2019
▁exciting	-10.2019
▁explosiveskull	-10.2019
▁financial	-10.2019
▁glenn	-10.2019
▁industry	-10.2019
▁knives	-10.2019
▁melvin	-10.2019
▁potential	-10.2019
▁roussel	-10.2019
▁scratch	-10.2019
▁slide	-10.2019
▁someday	-10.2019
▁tragedy	-10.2019
▁traitor	-10.2019
▁volunteer	-10.2019
▁wilson	-10.2019
▁zoil	-10.2019
▁advance	-10.2019
▁chinese	-10.2019
▁current	-10.2019
▁flew	-10.2019
▁garage	-10.2019
▁identity	-10.2019
▁proceed	-10.2019
▁capital	-10.2019
▁authorities	-10.202
▁grail	-10.202
▁guide	-10.202
▁survivor	-10.202
▁negative	-10.202
▁yankee	-10.202
▁craig	-10.202
▁infection	-10.202
▁couch	-10.202
▁nova	-10.202
▁steel	-10.2021
▁aboard	-10.2021
▁leadership	-10.2021
▁transport	-10.2022
▁alley	-10.2022
▁wack	-10.2022
▁secure	-10.2022
sta	-10.2023
▁intention	-10.2023
▁stream	-10.2024
▁direction	-10.2024
▁agreement	-10.2025
▁santa	-10.2025
▁drill	-10.2026
▁comin	-10.2026
▁betty	-10.2027
▁engaged	-10.2029
▁rae	-10.2029
▁counselor	-10.203
▁trap	-10.203
▁comedy	-10.203
▁toss	-10.2031
▁spoken	-10.2033
▁fifty	-10.2035
▁setting	-10.2037
▁wailing	-10.2039
▁fallen	-10.2042
▁interrupt	-10.2042
▁witnesses	-10.2042
▁removed	-10.2042
▁coughing	-10.2046
▁johnson	-10.2047
▁fried	-10.2047
▁bobi	-10.205
▁fry	-10.2051
▁growling	-10.2054
▁meters	-10.2055
▁realise	-10.2056
▁tail	-10.2064
▁lifetime	-10.2067
▁divorced	-10.207
▁off	-10.2071
▁cheating	-10.2076
▁survived	-10.2076
▁stronger	-10.209
▁shy	-10.2091
▁timing	-10.2103
▁beard	-10.2105
▁screwed	-10.2106
ner	-10.2106
ties	-10.2116
▁quietly	-10.2117
▁chi	-10.2121
bit	-10.2124
▁techniques	-10.2128
▁ay	-10.213
▁slayers	-10.2157
▁starks	-10.2157
▁pitch	-10.2176
▁tag	-10.2179
▁gosh	-10.2183
▁mel	-10.2187
▁fart	-10.22
port	-10.2205
▁knocked	-10.2208
▁changes	-10.2229
▁checking	-10.2238
▁ant	-10.2239
▁kicking	-10.2243
ham	-10.2245
▁events	-10.2274
hand	-10.2289
ward	-10.2294
▁reported	-10.2313
▁daughters	-10.233
▁options	-10.233
▁bon	-10.2332
ame	-10.2332
▁boot	-10.2342
▁jo	-10.2353
▁tra	-10.2354
▁grade	-10.2355
face	-10.236
▁pet	-10.2404
▁hal	-10.2407
▁degree	-10.2407
▁defendant	-10.2408
▁wheel	-10.2409
▁tears	-10.241
▁inc	-10.2411
▁yard	-10.2411
▁terrorist	-10.2413
▁toward	-10.2413
ang	-10.2421
▁mile	-10.2436
use	-10.2444
▁pages	-10.245
▁buying	-10.2487
act	-10.2488
▁moves	-10.2498
▁as	-10.2526
▁ti	-10.255
light	-10.2564
▁sale	-10.2571
▁seats	-10.2576
und	-10.2584
▁jt	-10.2588
▁receive	-10.2594
▁wa	-10.26
for	-10.2603
▁heal	-10.2613
▁wipe	-10.2616
▁acknowledge	-10.2616
▁creep	-10.2621
range	-10.2627
load	-10.2627
▁bunk	-10.2629
▁michel	-10.2631
▁weigh	-10.2632
▁rag	-10.2633
▁sail	-10.2635
▁asia	-10.2638
▁rub	-10.2641
▁chuck	-10.2641
▁har	-10.2642
▁virgin	-10.2643
▁charles	-10.2644
▁antoine	-10.2644
▁background	-10.2644
▁behavior	-10.2644
▁ceiling	-10.2644
▁cipher	-10.2644
▁cortez	-10.2644
▁curious	-10.2644
▁cynthia	-10.2644
▁darrell	-10.2644
▁desire	-10.2644
▁frawley	-10.2644
▁gorgeous	-10.2644
▁grendel	-10.2644
▁harvard	-10.2644
▁heinrich	-10.2644
▁interpol	-10.2644
▁material	-10.2644
▁neena	-10.2644
▁neiman	-10.2644
▁oskar	-10.2644
▁outfit	-10.2644
▁patrol	-10.2644
▁political	-10.2644
▁rehearsal	-10.2644
▁response	-10.2644
▁retrieval	-10.2644
▁southjet	-10.2644
▁status	-10.2644
▁unlock	-10.2644
▁flood	-10.2644
▁saint	-10.2644
▁struggle	-10.2644
▁boston	-10.2644
▁brutal	-10.2644
▁thick	-10.2644
▁swimming	-10.2644
serving	-10.2644
▁hayes	-10.2645
▁helpmann	-10.2645
▁insist	-10.2645
▁limp	-10.2645
▁olga	-10.2645
▁violent	-10.2645
▁violet	-10.2645
▁royal	-10.2645
▁favourite	-10.2645
▁adult	-10.2645
▁crawl	-10.2645
▁therell	-10.2645
▁moron	-10.2646
▁edward	-10.2646
▁lras	-10.2646
▁whatre	-10.2646
▁roof	-10.2646
▁intend	-10.2646
▁japanese	-10.2646
▁dawn	-10.2647
▁generation	-10.2647
▁jury	-10.2647
▁successful	-10.2647
▁maintain	-10.2648
▁babylon	-10.2649
▁joe	-10.2649
▁hash	-10.265
▁bible	-10.265
▁unfortunately	-10.2652
▁wallet	-10.2652
▁plain	-10.2652
▁disgusting	-10.2653
▁proof	-10.2653
▁madame	-10.2654
▁quote	-10.2655
▁chanting	-10.2656
▁taxes	-10.2656
▁ugh	-10.2656
▁johnny	-10.2657
▁injured	-10.2659
▁threatening	-10.266
▁cutting	-10.2664
ities	-10.2664
▁earned	-10.2666
▁whispering	-10.2666
▁sew	-10.2667
▁physically	-10.2667
ak	-10.2668
▁scary	-10.2669
▁badge	-10.2672
▁delivery	-10.2676
▁trans	-10.2681
▁pity	-10.2683
▁carried	-10.2687
▁associate	-10.2688
ec	-10.269
▁oi	-10.2694
▁hire	-10.2698
▁latest	-10.27
▁ham	-10.2711
▁dealing	-10.2713
▁drawer	-10.2716
▁busted	-10.272
▁closest	-10.272
▁houses	-10.2724
▁victory	-10.2729
▁forces	-10.2733
ze	-10.2744
ade	-10.2761
▁filled	-10.2762
ddle	-10.2767
row	-10.2777
▁suits	-10.2797
uff	-10.2802
▁drives	-10.2803
▁steps	-10.2806
▁strings	-10.2807
▁slaves	-10.2807
▁shutter	-10.2824
▁scar	-10.2825
▁pushing	-10.2841
ug	-10.2841
▁goodness	-10.2843
▁tro	-10.2844
▁bel	-10.2844
▁depends	-10.2854
erry	-10.2869
▁clo	-10.2874
▁souls	-10.2883
▁bump	-10.2891
all	-10.2891
▁react	-10.2894
hal	-10.2897
ay	-10.2899
▁tend	-10.29
ified	-10.2904
ley	-10.291
▁students	-10.2931
▁iron	-10.2932
▁classic	-10.2937
▁lines	-10.2946
▁ideas	-10.2974
mon	-10.2975
▁facts	-10.2979
gi	-10.2991
▁commit	-10.2991
ell	-10.302
▁signs	-10.302
▁guts	-10.3028
ue	-10.3038
▁minds	-10.3039
▁magazines	-10.3041
tor	-10.3055
▁angels	-10.3072
▁dolphin	-10.3075
▁chop	-10.3075
▁bills	-10.3091
▁seek	-10.3093
▁drum	-10.3094
▁rooms	-10.3096
▁payment	-10.3102
▁menu	-10.3126
alam	-10.3131
▁waiter	-10.3169
ev	-10.3179
za	-10.318
▁com	-10.3182
▁prisoner	-10.3194
▁cameras	-10.3199
▁carly	-10.3216
▁bow	-10.3227
▁complain	-10.3236
▁crow	-10.3244
▁shar	-10.3256
work	-10.3274
▁direct	-10.328
▁convince	-10.3282
▁bur	-10.3284
woman	-10.3286
▁dirt	-10.3288
▁trail	-10.329
looking	-10.329
easy	-10.3291
sa	-10.3291
ja	-10.3291
▁bug	-10.3299
q	-10.3299
cut	-10.3304
▁kev	-10.3304
▁luc	-10.3306
▁dancin	-10.3306
field	-10.3306
▁psycho	-10.331
▁transfer	-10.331
▁confident	-10.3311
▁jeff	-10.3311
▁abandon	-10.3311
▁behave	-10.3311
▁clever	-10.3311
▁confidence	-10.3311
▁corporate	-10.3311
▁crateros	-10.3311
▁desmond	-10.3311
▁enforcement	-10.3311
▁exercise	-10.3311
▁fraud	-10.3311
▁inmates	-10.3311
▁instructions	-10.3311
▁invitation	-10.3311
▁measure	-10.3311
▁monitor	-10.3311
▁moscow	-10.3311
▁october	-10.3311
▁prevent	-10.3311
▁prosecutor	-10.3311
▁reggie	-10.3311
▁sarge	-10.3311
▁sculley	-10.3311
▁similar	-10.3311
▁slevin	-10.3311
▁stroke	-10.3311
▁suspicious	-10.3311
▁svetlana	-10.3311
▁testify	-10.3311
▁transplant	-10.3311
▁university	-10.3311
▁vasily	-10.3311
▁woz	-10.3311
▁byebye	-10.3311
▁andand	-10.3311
▁ankle	-10.3311
▁intel	-10.3311
▁random	-10.3311
▁drew	-10.3311
▁candy	-10.3311
▁coast	-10.3311
▁sunset	-10.3311
▁declan	-10.3311
▁worship	-10.3311
▁version	-10.3311
▁device	-10.3312
▁hush	-10.3312
▁guldo	-10.3312
▁tempo	-10.3312
▁moonlight	-10.3312
▁hostile	-10.3312
▁closing	-10.3312
▁owner	-10.3313
▁stress	-10.3313
▁aside	-10.3313
▁fashion	-10.3313
▁western	-10.3314
▁dora	-10.3314
▁saul	-10.3314
▁selfish	-10.3315
▁colin	-10.3316
▁waterboard	-10.3317
▁bert	-10.3318
▁dna	-10.3318
▁broad	-10.3318
▁katie	-10.332
▁exit	-10.332
▁bored	-10.3321
▁cage	-10.3323
▁highness	-10.3326
▁rape	-10.3327
▁gent	-10.3328
▁fade	-10.333
▁ending	-10.3331
▁active	-10.3333
▁eli	-10.3333
▁cube	-10.3333
▁ag	-10.3334
▁down	-10.3335
▁shithole	-10.3335
▁stopping	-10.3336
▁jackson	-10.3337
▁joy	-10.3341
▁bush	-10.3342
▁bond	-10.3342
▁sonia	-10.3346
▁naturally	-10.3349
▁circumstances	-10.3353
▁daddys	-10.3356
ress	-10.3363
▁murders	-10.3372
▁released	-10.3373
▁allie	-10.3373
▁believed	-10.3373
▁stain	-10.3382
▁provided	-10.3383
▁introduced	-10.3386
▁mil	-10.3391
▁drag	-10.3407
test	-10.3411
nit	-10.3428
▁dope	-10.3468
▁fate	-10.3477
▁asses	-10.3482
▁searching	-10.3483
▁event	-10.3494
▁depend	-10.3495
▁fishing	-10.3506
wi	-10.352
roll	-10.3545
▁drums	-10.355
▁chat	-10.356
▁worker	-10.3563
tle	-10.3565
▁crossing	-10.358
▁tanks	-10.3586
▁acted	-10.3607
▁kissed	-10.3621
▁moral	-10.3665
▁terms	-10.3668
aw	-10.3672
▁feelin	-10.3678
▁cigarettes	-10.3686
▁rocks	-10.3688
ring	-10.3688
▁prints	-10.3688
▁not	-10.3704
fo	-10.3711
▁can	-10.3714
▁thin	-10.3732
▁counts	-10.3733
▁limit	-10.3744
▁sides	-10.3764
ft	-10.3766
▁despi	-10.377
ual	-10.3775
▁effect	-10.3782
▁creature	-10.3784
▁blade	-10.3786
▁detail	-10.3794
▁parent	-10.3799
▁rabbit	-10.3811
▁cleaning	-10.3811
▁han	-10.3815
▁site	-10.3819
▁lesson	-10.3823
▁seal	-10.3831
▁shoulder	-10.3832
oth	-10.3843
gina	-10.3847
▁prayer	-10.3847
▁ram	-10.3867
▁wha	-10.3869
▁someones	-10.3893
▁terror	-10.3896
▁med	-10.3915
▁her	-10.3931
bl	-10.3933
ack	-10.3948
▁actions	-10.3962
▁mob	-10.3974
▁betray	-10.3976
▁conduct	-10.3978
▁design	-10.3983
▁pan	-10.3993
▁remove	-10.3997
▁tin	-10.4
▁obvious	-10.401
▁incredibl	-10.4011
like	-10.4014
▁memo	-10.4015
▁axe	-10.4019
▁mornin	-10.402
▁julia	-10.4021
▁kidnap	-10.4023
▁gross	-10.4025
razie	-10.4025
▁cigar	-10.4025
▁cambodia	-10.4025
▁affair	-10.4025
▁applause	-10.4025
▁barbecue	-10.4025
▁becker	-10.4025
▁beresford	-10.4025
▁brennan	-10.4025
▁bureau	-10.4025
▁cease	-10.4025
▁choking	-10.4025
▁clarissa	-10.4025
▁creaking	-10.4025
▁crisis	-10.4025
▁cyril	-10.4025
▁division	-10.4025
▁elgyn	-10.4025
▁empire	-10.4025
▁encourage	-10.4025
▁eventually	-10.4025
▁gazelle	-10.4025
▁grenade	-10.4025
▁gretta	-10.4025
▁hammond	-10.4025
▁herakles	-10.4025
▁individual	-10.4025
▁investigate	-10.4025
▁liquor	-10.4025
▁memphis	-10.4025
▁molotov	-10.4025
▁ntsb	-10.4025
▁parmenion	-10.4025
▁precious	-10.4025
▁rachel	-10.4025
▁respond	-10.4025
▁tattoo	-10.4025
▁teresa	-10.4025
▁terrific	-10.4025
▁thrill	-10.4025
▁toschi	-10.4025
▁treasury	-10.4025
▁wolf	-10.4025
▁annoying	-10.4025
▁appeal	-10.4025
▁bryce	-10.4025
▁headaches	-10.4025
▁massacre	-10.4025
▁purse	-10.4025
▁rizzo	-10.4025
▁slut	-10.4025
▁mercedes	-10.4025
▁mnu	-10.4025
▁romesha	-10.4025
▁timmy	-10.4025
▁rifki	-10.4025
▁presence	-10.4025
▁instance	-10.4025
▁internal	-10.4025
▁claude	-10.4025
▁myers	-10.4025
▁chamber	-10.4025
▁trunk	-10.4025
▁motorcycle	-10.4026
▁douglas	-10.4026
▁survival	-10.4026
▁testimony	-10.4026
▁indictment	-10.4026
▁musicians	-10.4026
▁network	-10.4026
▁genie	-10.4026
▁josie	-10.4026
▁berlin	-10.4026
▁flashlight	-10.4026
▁anytime	-10.4026
▁bound	-10.4026
▁ginger	-10.4026
▁jeannie	-10.4026
▁minister	-10.4026
▁bamb	-10.4026
▁masry	-10.4027
▁significant	-10.4027
▁zip	-10.4027
▁classified	-10.4027
▁bucket	-10.4027
▁shopping	-10.4027
▁choices	-10.4027
▁scout	-10.4027
▁flip	-10.4027
▁solution	-10.4028
▁intense	-10.4028
▁villagers	-10.4028
▁laden	-10.4028
▁stall	-10.4029
▁thumb	-10.4029
▁forth	-10.4029
▁wore	-10.4029
▁snow	-10.4029
▁rope	-10.4029
▁peck	-10.4029
▁shave	-10.403
▁torn	-10.4031
▁filthy	-10.4031
▁thirsty	-10.4031
▁forgiveness	-10.4032
▁alcoholic	-10.4032
▁eve	-10.4032
▁objection	-10.4033
▁net	-10.4033
▁airline	-10.4035
▁murphy	-10.4036
▁ranch	-10.4037
▁hammer	-10.4038
▁inch	-10.4038
▁bait	-10.404
▁waitress	-10.4043
▁winter	-10.4043
▁cam	-10.4043
▁committed	-10.4045
▁bass	-10.4049
▁gee	-10.4049
▁copies	-10.405
▁cast	-10.4051
▁china	-10.4051
▁bury	-10.4054
▁hitting	-10.4055
▁highest	-10.4057
▁embarrassed	-10.4059
▁when	-10.406
▁mall	-10.4066
ane	-10.4066
▁trucks	-10.4069
▁squealing	-10.4072
▁decisions	-10.4077
▁thrown	-10.4084
▁worlds	-10.4084
▁defin	-10.4091
▁singer	-10.4096
▁confirmed	-10.4097
▁painting	-10.4098
▁filed	-10.4099
▁drinks	-10.4101
▁dy	-10.4105
▁beeps	-10.4105
▁brit	-10.4106
▁bugg	-10.4113
▁joker	-10.4116
▁arse	-10.4117
▁escaped	-10.4117
▁blocks	-10.4131
▁shitty	-10.4135
▁lips	-10.4136
▁helpful	-10.4138
▁goal	-10.414
▁belly	-10.4145
ught	-10.4151
▁examin	-10.4157
▁burns	-10.4164
▁whistles	-10.4177
▁lads	-10.4179
▁holes	-10.4181
▁pub	-10.4181
avi	-10.4184
▁demon	-10.4187
▁attacks	-10.4187
▁teaching	-10.4188
▁parker	-10.4197
▁returned	-10.4202
▁ld	-10.4206
▁tools	-10.4213
▁che	-10.4213
▁cente	-10.4239
gen	-10.4239
▁yay	-10.4251
▁bark	-10.4255
com	-10.4259
▁speakers	-10.4273
▁offering	-10.4278
▁spec	-10.429
▁produce	-10.4298
▁yards	-10.4301
boy	-10.4317
▁learning	-10.4332
▁barn	-10.4361
▁spending	-10.4362
▁walks	-10.4366
▁russians	-10.4372
▁blowing	-10.4392
ology	-10.4392
ise	-10.4431
▁gates	-10.4447
▁stamm	-10.4453
▁how	-10.4459
▁pran	-10.4463
room	-10.447
▁bets	-10.4472
▁scrape	-10.448
▁fore	-10.4482
▁dreaming	-10.4497
ans	-10.4501
▁trains	-10.4532
▁monsters	-10.4556
▁olympic	-10.4557
▁sheet	-10.456
▁lookin	-10.459
▁stranger	-10.4598
▁op	-10.4601
fuck	-10.4661
▁ch	-10.4687
▁falls	-10.4714
▁approach	-10.4729
▁squeal	-10.4745
▁bleed	-10.4746
nk	-10.475
▁contain	-10.4751
▁deposit	-10.4757
ory	-10.4758
umb	-10.476
▁separate	-10.4764
▁replace	-10.4767
ville	-10.4773
born	-10.4775
▁sudden	-10.478
▁emotional	-10.4782
▁macedonia	-10.4787
▁europe	-10.4791
▁employ	-10.4792
▁moments	-10.4792
▁electric	-10.4793
▁addison	-10.4795
▁appropriate	-10.4795
▁boomboom	-10.4795
▁dennis	-10.4795
▁desperate	-10.4795
▁disagree	-10.4795
▁disappointed	-10.4795
▁disrespect	-10.4795
▁distress	-10.4795
▁elijah	-10.4795
▁frozen	-10.4795
▁gasoline	-10.4795
▁georgia	-10.4795
▁greece	-10.4795
▁hebrew	-10.4795
▁hillbilly	-10.4795
▁hinkley	-10.4795
▁homicide	-10.4795
▁initial	-10.4795
▁itsit	-10.4795
▁mccool	-10.4795
▁misunderstand	-10.4795
▁perimeter	-10.4795
▁possession	-10.4795
▁profile	-10.4795
▁receipt	-10.4795
▁romantic	-10.4795
▁selva	-10.4795
▁strawberry	-10.4795
▁supply	-10.4795
▁surrender	-10.4795
▁thomson	-10.4795
▁tshirt	-10.4795
▁underground	-10.4795
▁universe	-10.4795
▁unusual	-10.4795
▁widow	-10.4795
▁bronco	-10.4795
▁policy	-10.4795
▁rehab	-10.4795
▁sausage	-10.4795
▁squeak	-10.4795
▁cliff	-10.4795
▁keating	-10.4795
▁lewis	-10.4795
▁method	-10.4795
▁stairs	-10.4795
▁bryant	-10.4795
▁plastic	-10.4795
▁warrant	-10.4795
▁warrior	-10.4795
▁indeed	-10.4795
▁larson	-10.4795
▁freezing	-10.4795
▁queer	-10.4795
▁whiskey	-10.4795
▁lamp	-10.4795
▁becoming	-10.4795
▁sensitive	-10.4795
▁socks	-10.4795
▁opposite	-10.4795
▁operator	-10.4795
▁roars	-10.4795
▁begged	-10.4795
▁poetry	-10.4795
▁novel	-10.4795
▁title	-10.4795
▁brush	-10.4795
▁punk	-10.4795
▁shining	-10.4795
▁kiki	-10.4795
▁possibility	-10.4796
▁mitchell	-10.4796
▁grey	-10.4796
▁obey	-10.4796
▁mattress	-10.4796
▁oath	-10.4796
▁begins	-10.4796
▁hanson	-10.4796
▁blanket	-10.4796
▁ksm	-10.4796
▁grass	-10.4796
▁heather	-10.4796
▁paperwork	-10.4796
▁population	-10.4796
▁toby	-10.4797
▁after	-10.4797
▁greg	-10.4797
▁clayton	-10.4797
▁factory	-10.4797
▁passport	-10.4797
▁addiction	-10.4797
▁sober	-10.4798
▁sanders	-10.4798
▁unique	-10.4798
▁violation	-10.4799
▁danger	-10.4799
▁reward	-10.48
▁flies	-10.48
▁champion	-10.4801
▁para	-10.4801
▁medal	-10.4802
▁julian	-10.4803
hmer	-10.4803
▁labor	-10.4804
▁commissioner	-10.4804
▁authorized	-10.4804
▁reverse	-10.4806
▁taxi	-10.4806
▁helene	-10.4807
▁vari	-10.4807
▁samson	-10.4808
▁sword	-10.4809
▁stable	-10.481
▁comb	-10.4811
▁homework	-10.4811
▁robbery	-10.4811
▁threatened	-10.4811
▁specialist	-10.4811
▁manwhore	-10.4817
▁nancy	-10.4818
▁jet	-10.4818
▁plead	-10.4819
▁regarding	-10.4821
▁sniffing	-10.4821
▁tillman	-10.483
▁thee	-10.4835
▁sch	-10.484
▁thankyou	-10.484
▁straighten	-10.4842
▁brings	-10.4851
▁corpse	-10.4855
▁screeching	-10.4861
pr	-10.4865
▁metal	-10.4872
▁cells	-10.4878
▁stands	-10.488
▁shithead	-10.4884
▁useless	-10.4884
▁norma	-10.4896
▁actor	-10.4898
▁washed	-10.4906
▁jews	-10.492
▁hunting	-10.4923
▁evans	-10.4939
▁considering	-10.4959
▁breasts	-10.4959
▁marked	-10.499
nic	-10.5
▁laying	-10.5008
▁tested	-10.501
▁jumped	-10.5014
▁spells	-10.5014
▁sucked	-10.5016
▁sooner	-10.5017
ex	-10.5023
read	-10.5033
▁sheets	-10.5036
▁lands	-10.5039
▁grave	-10.5044
▁demons	-10.5047
▁ac	-10.5049
ware	-10.505
▁pays	-10.5059
▁goat	-10.5078
▁fed	-10.5085
▁ted	-10.5092
▁bars	-10.5104
▁rac	-10.5115
rum	-10.5117
▁poll	-10.5142
▁am	-10.5153
ani	-10.5169
▁passing	-10.5174
▁sticking	-10.518
▁rod	-10.5183
▁log	-10.5201
run	-10.5219
pping	-10.5224
▁breaks	-10.5229
oh	-10.523
▁pla	-10.5242
▁mag	-10.5249
▁officials	-10.5252
▁emails	-10.5254
▁pies	-10.5255
ank	-10.5264
▁imim	-10.5273
▁teachers	-10.5304
▁prim	-10.5307
ied	-10.5327
▁click	-10.5346
▁arrive	-10.5349
▁fighter	-10.5349
▁shout	-10.535
▁hu	-10.5353
ition	-10.5379
▁towel	-10.5388
▁symbol	-10.5388
▁award	-10.539
hole	-10.5393
▁spell	-10.5395
▁pound	-10.5398
▁chip	-10.54
▁touching	-10.5407
▁barb	-10.5415
▁nu	-10.5416
▁dudes	-10.5418
▁what	-10.5418
▁nut	-10.5423
▁pol	-10.5428
▁ra	-10.5435
ung	-10.5446
▁pockets	-10.547
▁waited	-10.5472
▁follows	-10.5472
▁remembered	-10.5478
▁stab	-10.5483
▁lover	-10.5506
▁fac	-10.5516
▁fail	-10.5543
▁buzz	-10.5555
▁ec	-10.5569
▁convict	-10.5571
▁poison	-10.5583
book	-10.5591
▁pour	-10.5592
▁grant	-10.5595
▁describe	-10.5598
▁include	-10.5598
▁abu	-10.5603
▁speaker	-10.5605
▁german	-10.5606
▁custom	-10.5609
▁louis	-10.561
▁improve	-10.561
case	-10.5613
stick	-10.5617
▁crimes	-10.5619
▁attend	-10.5625
▁del	-10.5625
boat	-10.5626
▁excess	-10.5626
▁diet	-10.5626
▁prior	-10.5626
▁invest	-10.5626
▁japan	-10.5628
▁satellite	-10.5628
▁skull	-10.5628
▁admire	-10.5628
▁ambassador	-10.5628
▁annabelle	-10.5628
▁anonymous	-10.5628
▁argument	-10.5628
▁avenue	-10.5628
▁challenge	-10.5628
▁champagne	-10.5628
▁charlotte	-10.5628
▁chrisann	-10.5628
▁chromium	-10.5628
▁cocksucker	-10.5628
▁cocktail	-10.5628
▁collapse	-10.5628
▁congress	-10.5628
▁council	-10.5628
▁damato	-10.5628
▁dammit	-10.5628
▁eleven	-10.5628
▁exposure	-10.5628
▁fifteen	-10.5628
▁fridge	-10.5628
▁inhales	-10.5628
▁iraq	-10.5628
▁journey	-10.5628
▁junior	-10.5628
▁lease	-10.5628
▁malenkov	-10.5628
▁november	-10.5628
▁offense	-10.5628
▁ordinary	-10.5628
▁retreat	-10.5628
▁rhythm	-10.5628
▁rouge	-10.5628
▁sheppard	-10.5628
▁shimmer	-10.5628
▁somewhat	-10.5628
▁sonofabitch	-10.5628
▁squeeze	-10.5628
▁surveillance	-10.5628
▁tissue	-10.5628
▁tradition	-10.5628
▁turkey	-10.5628
▁typewriter	-10.5628
▁watts	-10.5628
▁withdraw	-10.5628
▁zubaydah	-10.5628
▁malone	-10.5628
▁mechanic	-10.5628
▁miserable	-10.5628
▁oldfashioned	-10.5628
▁silent	-10.5628
▁burden	-10.5628
▁lambert	-10.5628
▁skirt	-10.5628
▁personnel	-10.5628
▁troops	-10.5628
▁kingdom	-10.5628
▁reece	-10.5628
▁reveal	-10.5628
▁item	-10.5628
▁blast	-10.5628
▁remote	-10.5628
▁bribe	-10.5628
▁krissi	-10.5628
▁drain	-10.5628
▁downtown	-10.5628
▁drift	-10.5628
▁slap	-10.5628
▁youyou	-10.5628
▁ambition	-10.5628
▁await	-10.5628
▁uptown	-10.5628
▁entertainment	-10.5628
▁playoffs	-10.5628
▁flush	-10.5629
▁temple	-10.5629
▁comedian	-10.5629
▁salad	-10.5629
▁lemon	-10.5629
▁multipl	-10.5629
▁cheney	-10.5629
▁online	-10.5629
▁apologies	-10.5629
▁chasing	-10.5629
▁virus	-10.5629
▁ease	-10.5629
▁punishment	-10.5629
▁countries	-10.5629
▁rebel	-10.5629
▁baptist	-10.563
▁subway	-10.563
▁replacement	-10.563
▁fuel	-10.563
▁stiff	-10.563
▁poem	-10.5631
▁stack	-10.5631
▁minor	-10.5631
▁persian	-10.5632
▁cities	-10.5632
▁rescue	-10.5633
▁shore	-10.5633
▁storm	-10.5633
▁responsibility	-10.5633
five	-10.5635
▁successor	-10.5636
▁macedonian	-10.5636
▁ferm	-10.5636
▁inches	-10.5637
▁fitch	-10.5637
▁capable	-10.5638
▁facility	-10.5638
▁pile	-10.5639
▁personality	-10.5639
▁daily	-10.5639
▁martini	-10.564
▁pace	-10.564
▁painful	-10.5644
havin	-10.5644
▁hose	-10.5645
▁organized	-10.5646
▁sonny	-10.5647
▁directly	-10.5648
▁hut	-10.5648
▁offended	-10.5648
▁sheriffs	-10.5651
▁cass	-10.5651
▁loner	-10.5652
▁germany	-10.5652
▁whoohoo	-10.5657
▁prom	-10.5662
▁drowning	-10.5665
ledge	-10.5665
▁lend	-10.5669
▁tanker	-10.5669
▁core	-10.567
▁cable	-10.5672
▁damaged	-10.5676
▁cooperate	-10.5677
▁betrayed	-10.5678
▁por	-10.5678
▁heroin	-10.5683
▁blown	-10.5691
▁comrades	-10.5691
▁operate	-10.5694
▁loudly	-10.5697
▁manner	-10.5698
▁propose	-10.57
▁mim	-10.5701
▁ditch	-10.5703
▁horny	-10.5708
▁entered	-10.5708
▁darko	-10.5712
▁darts	-10.5714
▁vl	-10.5716
▁mayor	-10.5719
▁discussed	-10.572
▁counter	-10.5721
▁ahh	-10.5721
▁bee	-10.5723
▁suspects	-10.5732
▁rank	-10.5761
▁melt	-10.5763
▁diamonds	-10.5765
▁cue	-10.5766
▁wing	-10.5769
▁ge	-10.5781
▁jr	-10.5782
▁citizens	-10.5784
▁susan	-10.5804
▁charged	-10.5805
▁blocked	-10.5813
tz	-10.5818
▁visiting	-10.582
▁freaked	-10.5833
▁trace	-10.5838
▁landed	-10.5841
▁gul	-10.5842
▁guests	-10.5849
▁freaking	-10.5869
▁structure	-10.5872
▁tracks	-10.5874
▁wings	-10.5875
▁fur	-10.588
▁jumping	-10.5909
cy	-10.5922
▁explained	-10.5927
▁dolphins	-10.5934
▁payments	-10.5934
▁tryin	-10.5958
▁greeks	-10.5977
▁neighbors	-10.5977
▁results	-10.5977
▁marines	-10.5977
▁joining	-10.5986
low	-10.5992
▁sta	-10.6002
get	-10.6011
▁just	-10.6021
▁agents	-10.6025
▁dec	-10.6029
▁breathes	-10.6037
▁chances	-10.6041
cul	-10.6047
▁rolling	-10.6056
▁par	-10.6073
▁issues	-10.6084
▁dreamed	-10.6101
▁followed	-10.6103
▁bra	-10.6106
▁tab	-10.612
▁snakes	-10.6127
▁claims	-10.6173
▁cleared	-10.6186
▁cart	-10.6188
▁interviews	-10.6192
lan	-10.6202
▁chicks	-10.6214
▁nash	-10.6239
▁organ	-10.6252
▁buck	-10.6266
▁ras	-10.6272
▁channel	-10.6293
▁arrangement	-10.6296
▁daniel	-10.6298
▁experiment	-10.6298
▁sample	-10.6299
▁slave	-10.6302
▁guest	-10.6304
▁tool	-10.6306
▁cookie	-10.6308
▁chuckle	-10.6313
▁string	-10.6314
▁pill	-10.6322
ral	-10.6325
▁kat	-10.6329
▁groups	-10.633
▁flower	-10.633
▁dom	-10.6336
nder	-10.6359
▁rays	-10.6366
▁toy	-10.6371
zed	-10.6394
ace	-10.6403
▁trees	-10.6407
▁spa	-10.6419
▁cha	-10.642
▁types	-10.6425
▁emma	-10.6427
▁tor	-10.643
▁embarrass	-10.6443
▁rem	-10.6443
▁pleased	-10.6457
▁cd	-10.6469
win	-10.6488
▁delay	-10.6492
▁slaughter	-10.6492
▁cooper	-10.6496
▁sto	-10.6497
itt	-10.6504
▁ignore	-10.6507
▁panic	-10.6512
wood	-10.6515
dollar	-10.6516
point	-10.6516
▁merc	-10.6517
can	-10.6517
▁plea	-10.6518
box	-10.652
▁numb	-10.6521
▁helen	-10.6523
▁runnin	-10.6532
▁mat	-10.6534
▁noon	-10.6536
ficial	-10.6537
▁spark	-10.6537
▁aircraft	-10.6537
▁application	-10.6537
▁assault	-10.6537
▁babak	-10.6537
▁behaviour	-10.6537
▁belief	-10.6537
▁bodyguard	-10.6537
▁branch	-10.6537
▁brodski	-10.6537
▁bunny	-10.6537
▁bypass	-10.6537
▁cavalry	-10.6537
▁celebration	-10.6537
▁celebrity	-10.6537
▁coincidence	-10.6537
▁diondra	-10.6537
▁divine	-10.6537
▁domestic	-10.6537
▁doorbell	-10.6537
▁elizabeth	-10.6537
▁equipment	-10.6537
▁escort	-10.6537
▁fernando	-10.6537
▁fugitive	-10.6537
▁gambling	-10.6537
▁goddammit	-10.6537
▁hathaway	-10.6537
▁helmet	-10.6537
▁hertzfeld	-10.6537
▁horror	-10.6537
▁influence	-10.6537
▁investigator	-10.6537
▁isabella	-10.6537
▁mafia	-10.6537
▁maximum	-10.6537
▁mickey	-10.6537
▁montreal	-10.6537
▁nonsense	-10.6537
▁occasion	-10.6537
▁pattern	-10.6537
▁philosophy	-10.6537
▁platoon	-10.6537
▁professor	-10.6537
▁prosecute	-10.6537
▁protocol	-10.6537
▁qaeda	-10.6537
▁ralph	-10.6537
▁reputation	-10.6537
▁routine	-10.6537
▁senior	-10.6537
▁shatter	-10.6537
▁shboom	-10.6537
▁stereo	-10.6537
▁strict	-10.6537
▁surrounded	-10.6537
▁uncomfortable	-10.6537
▁underneath	-10.6537
▁automatic	-10.6537
▁average	-10.6537
▁durant	-10.6537
▁income	-10.6537
▁jamaica	-10.6537
▁polina	-10.6537
▁reckon	-10.6537
▁tanner	-10.6537
▁theater	-10.6537
▁xray	-10.6537
▁euros	-10.6537
▁fever	-10.6537
▁frost	-10.6537
▁pigeon	-10.6537
▁shotgun	-10.6537
▁aksel	-10.6537
▁session	-10.6537
▁ventilat	-10.6537
▁hopefully	-10.6537
▁solid	-10.6537
▁radical	-10.6537
▁roaring	-10.6537
▁nicos	-10.6537
▁costume	-10.6537
▁sondra	-10.6537
▁uhuh	-10.6537
▁distort	-10.6537
▁doris	-10.6537
▁hollywood	-10.6537
▁salute	-10.6537
▁cheek	-10.6537
▁assuming	-10.6537
▁chinatown	-10.6537
▁hahaha	-10.6537
▁shaft	-10.6537
▁minnie	-10.6537
▁conference	-10.6537
▁bagels	-10.6537
▁giggle	-10.6537
▁robbed	-10.6537
▁theory	-10.6537
▁specifically	-10.6538
▁psychologist	-10.6538
▁airplane	-10.6538
▁eliot	-10.6538
▁riff	-10.6538
▁colonel	-10.6538
▁dramatic	-10.6538
▁begun	-10.6538
▁communicate	-10.6538
▁hesitate	-10.6538
▁arrow	-10.6538
▁chronicle	-10.6538
▁chaos	-10.6538
▁fanny	-10.6538
▁authority	-10.6538
▁operating	-10.6538
▁dodge	-10.6539
▁theme	-10.6539
▁terrified	-10.6539
▁napa	-10.6539
▁blah	-10.6539
▁worm	-10.6539
▁riverside	-10.6539
▁electricity	-10.6539
▁acid	-10.6539
▁moan	-10.6539
▁tooth	-10.654
▁deaf	-10.654
▁draft	-10.654
zin	-10.654
▁bail	-10.654
▁charm	-10.6541
▁patty	-10.6541
▁housekeeper	-10.6542
▁reilly	-10.6542
▁damon	-10.6542
▁joanna	-10.6543
▁dice	-10.6543
▁bonus	-10.6543
▁flames	-10.6544
▁burst	-10.6544
▁forest	-10.6544
▁concentrate	-10.6544
▁shield	-10.6545
▁buzzes	-10.6545
▁grateful	-10.6546
▁crystal	-10.6547
▁jaw	-10.6547
▁liberty	-10.6547
▁pant	-10.6548
▁barts	-10.6549
▁captured	-10.6552
▁rumor	-10.6552
▁discussion	-10.6553
▁noone	-10.6553
▁chen	-10.6555
▁kiddo	-10.6556
▁geez	-10.6556
▁battery	-10.6556
▁disk	-10.6558
▁matches	-10.656
▁arti	-10.6562
▁civil	-10.6562
▁apply	-10.6562
▁understanding	-10.6562
▁clattering	-10.6563
▁impressed	-10.6568
▁bald	-10.6571
▁worrying	-10.6579
▁tur	-10.6579
▁fourth	-10.6581
▁raf	-10.6582
▁notes	-10.6583
▁followers	-10.6583
▁warned	-10.6584
▁convicted	-10.6584
▁gene	-10.6591
▁required	-10.6593
oke	-10.6596
▁dresses	-10.6603
▁passes	-10.6604
▁char	-10.6606
▁ir	-10.6611
▁hopeless	-10.6613
▁pastor	-10.6614
▁reform	-10.6615
▁republicans	-10.6618
▁slots	-10.6618
▁scan	-10.6622
▁positions	-10.6631
▁entirely	-10.6636
▁growl	-10.6639
▁mas	-10.6648
▁rot	-10.6652
▁rob	-10.6653
▁raped	-10.6653
▁pad	-10.6663
▁laws	-10.6664
▁mc	-10.6668
▁blessing	-10.6671
▁appeared	-10.6679
▁instincts	-10.6687
▁employees	-10.6687
▁safer	-10.6689
▁idiots	-10.6697
▁packed	-10.6713
dden	-10.6714
▁dougy	-10.6716
▁accepted	-10.6729
cho	-10.6752
▁husbands	-10.6756
▁safely	-10.6758
▁sole	-10.6762
▁stealing	-10.6763
▁shown	-10.6776
▁samples	-10.6781
▁images	-10.6788
▁landing	-10.6812
illa	-10.6819
▁messed	-10.6822
▁olympics	-10.6827
▁ste	-10.6831
▁cans	-10.6835
▁lessons	-10.6851
▁protecting	-10.6863
▁dicks	-10.6864
▁peel	-10.6866
▁chopp	-10.6875
▁sting	-10.6877
▁counting	-10.6878
▁leads	-10.6888
▁degrees	-10.6898
▁wheels	-10.6898
▁boots	-10.6898
eat	-10.6903
▁on	-10.6908
▁val	-10.6911
▁if	-10.6934
▁recorded	-10.6938
▁sucker	-10.6967
▁belongs	-10.6994
▁fri	-10.6997
▁owed	-10.7003
▁mountains	-10.7016
▁she	-10.7016
▁lovers	-10.7017
gan	-10.704
▁image	-10.7069
▁nails	-10.7069
▁answering	-10.7082
ister	-10.7083
▁reporting	-10.7094
▁wears	-10.711
▁requests	-10.7113
▁tri	-10.7131
▁camel	-10.7134
gar	-10.7156
▁hop	-10.7166
▁quo	-10.7195
rine	-10.7206
▁tube	-10.7223
▁bombs	-10.7233
▁addict	-10.7245
▁trusted	-10.7271
▁cheer	-10.7276
▁tire	-10.7281
▁object	-10.7285
▁basic	-10.7293
▁bal	-10.7295
▁rifle	-10.7295
▁thud	-10.7295
▁slam	-10.7301
▁tribe	-10.7302
▁slayer	-10.7303
▁sport	-10.7311
▁stark	-10.7331
old	-10.7344
▁permit	-10.7346
▁nazi	-10.7351
▁prop	-10.7351
lt	-10.7356
▁exam	-10.7359
▁alex	-10.7369
▁dav	-10.738
uz	-10.739
▁nor	-10.7456
▁opera	-10.746
ney	-10.746
▁sn	-10.7471
▁defeat	-10.7492
eth	-10.7497
▁increase	-10.7507
▁involve	-10.7508
eyed	-10.7509
▁recover	-10.7513
walk	-10.7514
town	-10.7515
year	-10.7516
power	-10.7516
▁ox	-10.7524
▁comp	-10.7525
shit	-10.7526
▁float	-10.7526
▁russia	-10.753
▁confess	-10.753
▁institution	-10.7531
▁prince	-10.7531
▁motherfuckin	-10.7532
▁extract	-10.7533
hour	-10.7535
▁journal	-10.7535
▁minim	-10.7535
▁blank	-10.7536
▁decade	-10.7536
▁specific	-10.7536
▁mamma	-10.7537
▁ambitious	-10.7537
▁anthony	-10.7537
▁awkward	-10.7537
▁bahia	-10.7537
▁banjo	-10.7537
▁burbank	-10.7537
▁cemetery	-10.7537
▁chirping	-10.7537
▁cindy	-10.7537
▁cloquet	-10.7537
▁colleague	-10.7537
▁detention	-10.7537
▁disgrace	-10.7537
▁dispatch	-10.7537
▁egypt	-10.7537
▁enterprise	-10.7537
▁evolution	-10.7537
▁fiction	-10.7537
▁freddy	-10.7537
▁gracias	-10.7537
▁hetrick	-10.7537
▁hooyah	-10.7537
▁inaudible	-10.7537
▁january	-10.7537
▁joseph	-10.7537
▁krug	-10.7537
▁lifeanddeath	-10.7537
▁liquid	-10.7537
▁lobby	-10.7537
▁lorenson	-10.7537
▁macintosh	-10.7537
▁mcdonough	-10.7537
▁merger	-10.7537
▁mississippi	-10.7537
▁mohammed	-10.7537
▁mystery	-10.7537
▁nffa	-10.7537
▁offensive	-10.7537
▁onstage	-10.7537
▁paranoid	-10.7537
▁possessed	-10.7537
▁precinct	-10.7537
▁razor	-10.7537
▁recipe	-10.7537
▁restricted	-10.7537
▁ritual	-10.7537
▁russell	-10.7537
▁sacred	-10.7537
▁scorpion	-10.7537
▁sheryl	-10.7537
▁slovnik	-10.7537
▁solaris	-10.7537
▁sunrise	-10.7537
▁tammy	-10.7537
▁technology	-10.7537
▁temperature	-10.7537
▁terribly	-10.7537
▁therefore	-10.7537
▁turbot	-10.7537
▁undateable	-10.7537
▁vicente	-10.7537
▁vincent	-10.7537
▁wealth	-10.7537
▁wheelchair	-10.7537
▁wickwire	-10.7537
▁yitzchok	-10.7537
▁candle	-10.7537
▁confusing	-10.7537
▁cotton	-10.7537
▁embrace	-10.7537
▁frightened	-10.7537
▁jeep	-10.7537
▁judas	-10.7537
▁resume	-10.7537
▁rooney	-10.7537
▁supper	-10.7537
▁vanessa	-10.7537
▁wrist	-10.7537
▁brick	-10.7537
▁hopkins	-10.7537
▁motel	-10.7537
▁praise	-10.7537
▁thunder	-10.7537
▁dragging	-10.7537
▁lamb	-10.7537
▁renew	-10.7537
▁rpg	-10.7537
▁vibrat	-10.7537
▁finance	-10.7537
▁villa	-10.7537
▁benji	-10.7537
▁starving	-10.7537
▁scale	-10.7537
▁ventress	-10.7537
▁cunningham	-10.7537
▁christina	-10.7537
▁napkin	-10.7537
▁unconscious	-10.7537
▁basis	-10.7537
▁apology	-10.7537
▁generous	-10.7537
▁investigating	-10.7537
▁radiator	-10.7537
▁pushups	-10.7537
▁marcano	-10.7537
▁strapped	-10.7537
▁vital	-10.7538
▁delicious	-10.7538
▁disney	-10.7538
▁messiah	-10.7538
▁architecture	-10.7538
▁kayem	-10.7538
▁trey	-10.7538
▁obligation	-10.7538
▁miller	-10.7538
viet	-10.7538
▁wasting	-10.7538
▁overnight	-10.7538
▁development	-10.7538
▁jewish	-10.7538
▁josh	-10.7538
▁bloke	-10.7538
▁urgent	-10.7538
▁reference	-10.7538
▁shaking	-10.7538
▁palace	-10.7538
▁maid	-10.7539
▁neat	-10.7539
▁slavery	-10.7539
▁griffin	-10.7539
▁waking	-10.7539
▁wallace	-10.7539
▁parade	-10.7539
▁polish	-10.7539
▁bookkeeper	-10.7539
▁vibe	-10.7539
▁seventeen	-10.7539
▁raid	-10.7539
▁spill	-10.754
▁owned	-10.754
▁maria	-10.754
▁performance	-10.754
▁clown	-10.754
▁tito	-10.754
▁brace	-10.754
▁ashes	-10.754
▁gentleman	-10.754
▁todd	-10.754
▁fox	-10.754
▁recall	-10.754
▁fork	-10.754
▁heartbeat	-10.754
▁swiss	-10.754
▁humor	-10.754
▁fax	-10.7541
▁critical	-10.7541
▁pact	-10.7541
▁noble	-10.7541
▁pepe	-10.7541
▁european	-10.7541
▁sixteen	-10.7541
▁habit	-10.7541
▁species	-10.7542
▁hallway	-10.7542
▁soap	-10.7542
▁lean	-10.7542
▁elite	-10.7542
▁yoga	-10.7542
▁kidney	-10.7543
▁ditt	-10.7543
▁delight	-10.7543
▁brian	-10.7543
▁diary	-10.7544
▁dragon	-10.7544
▁wholl	-10.7544
▁lighthouse	-10.7545
▁precisely	-10.7545
▁accidentally	-10.7545
▁deny	-10.7545
▁andr	-10.7547
▁madness	-10.7547
▁dismissed	-10.7548
▁production	-10.7549
▁aug	-10.7549
▁haul	-10.755
▁asian	-10.7551
▁hugh	-10.7551
▁mud	-10.7552
▁crutch	-10.7553
▁conviction	-10.7553
▁dino	-10.7553
▁estate	-10.7554
▁michelin	-10.7554
▁hood	-10.7554
▁murmuring	-10.7556
▁determined	-10.7557
▁whooping	-10.7558
▁sickness	-10.7558
▁angeles	-10.7559
▁mein	-10.756
▁lung	-10.7562
▁handling	-10.7562
▁attracted	-10.7562
▁consult	-10.7562
▁brat	-10.7562
▁kim	-10.7564
▁armor	-10.7564
▁cole	-10.7566
▁gathered	-10.7567
▁executed	-10.757
▁reasonable	-10.757
▁ellie	-10.7571
▁sere	-10.7573
▁warn	-10.7574
▁spine	-10.7575
▁heroes	-10.7575
▁sim	-10.7576
away	-10.7577
▁boxes	-10.758
▁foy	-10.7583
ably	-10.7586
▁finale	-10.7586
▁lang	-10.7587
▁milli	-10.7593
▁this	-10.7595
▁limited	-10.76
▁sealed	-10.7606
▁pon	-10.7607
▁sexually	-10.7608
▁dei	-10.7613
▁helpless	-10.7614
▁kit	-10.7621
▁rum	-10.7622
▁min	-10.7626
▁brakes	-10.7627
▁coin	-10.7631
▁exception	-10.7638
▁twin	-10.7639
not	-10.7641
▁tripp	-10.7643
▁connected	-10.7643
▁tastes	-10.7645
▁equals	-10.7645
▁flam	-10.7645
▁lawn	-10.7647
▁relatives	-10.7653
nce	-10.766
▁ol	-10.767
▁foundation	-10.767
▁server	-10.768
▁lap	-10.7691
▁bent	-10.7697
▁buyin	-10.7701
▁ofthe	-10.7702
▁mortars	-10.7704
▁vows	-10.7704
ude	-10.7722
▁belli	-10.7722
▁pole	-10.7732
gon	-10.774
▁queens	-10.7741
▁misses	-10.7747
▁accounts	-10.7747
▁bothered	-10.7755
▁stinks	-10.7756
▁walkin	-10.7758
▁finest	-10.7765
▁filling	-10.7767
ula	-10.7779
▁objects	-10.7782
▁fairy	-10.7792
▁formal	-10.7796
ello	-10.7807
▁daniels	-10.7808
▁irs	-10.7812
▁pushed	-10.7816
▁cookies	-10.7822
▁mop	-10.7831
▁chips	-10.7835
itation	-10.7842
ological	-10.7879
▁bomber	-10.7885
▁limits	-10.7887
▁crossed	-10.7893
▁rd	-10.7897
▁closely	-10.7908
▁hum	-10.7915
▁thy	-10.7925
▁haz	-10.7942
▁iii	-10.7978
four	-10.8015
▁killers	-10.8019
▁pope	-10.8021
▁blo	-10.8027
▁grad	-10.8032
rich	-10.8032
war	-10.804
▁arc	-10.8052
▁dealers	-10.8053
▁te	-10.8063
▁photographs	-10.8072
▁cents	-10.8078
oma	-10.8084
▁ward	-10.8088
hot	-10.8091
gged	-10.8112
dropping	-10.815
▁ironic	-10.8151
ado	-10.817
▁tricks	-10.8179
▁ru	-10.8181
mat	-10.8188
▁tr	-10.8192
zer	-10.8199
▁criminals	-10.8202
oop	-10.821
▁beau	-10.8212
▁drops	-10.8222
▁strikes	-10.823
▁cub	-10.824
▁tips	-10.8254
▁sirens	-10.8257
zo	-10.8265
▁bu	-10.8297
▁wrap	-10.83
ization	-10.8306
▁gro	-10.8317
vel	-10.8317
▁sentences	-10.8322
▁purchase	-10.833
▁breaths	-10.834
▁boats	-10.8347
ong	-10.8347
rous	-10.8351
▁cough	-10.8367
licate	-10.8377
▁dam	-10.8384
▁threat	-10.8399
▁muscle	-10.8406
▁stink	-10.8411
▁breast	-10.8412
ult	-10.8412
▁whistle	-10.8412
▁folk	-10.8418
▁france	-10.842
▁visitor	-10.8422
▁customer	-10.8427
▁chickens	-10.8435
▁writers	-10.8464
▁uni	-10.8464
anced	-10.8476
ggy	-10.8486
lab	-10.8494
▁explosions	-10.8497
▁cher	-10.851
▁ami	-10.8516
▁pond	-10.8527
▁caused	-10.8536
▁din	-10.8548
▁hack	-10.8551
▁drown	-10.8555
eath	-10.8561
▁sha	-10.8562
▁don	-10.8563
teen	-10.8564
▁flo	-10.8575
▁rais	-10.8579
▁lit	-10.8584
▁os	-10.8589
ury	-10.8595
ugh	-10.8598
▁boil	-10.86
▁punish	-10.8601
▁avoid	-10.8603
▁wick	-10.8605
▁julies	-10.8608
▁ivan	-10.8619
▁dip	-10.8619
▁robber	-10.8625
mouth	-10.8627
life	-10.8628
▁batter	-10.863
place	-10.8632
▁stra	-10.8633
▁sno	-10.8633
ana	-10.8634
▁teenage	-10.8635
▁fift	-10.8635
▁concert	-10.864
▁emotion	-10.8641
▁delusion	-10.8641
▁madam	-10.8642
▁movin	-10.8643
ummy	-10.8644
▁abort	-10.8644
▁corrupt	-10.8644
▁zoo	-10.8645
▁author	-10.8645
▁predict	-10.8646
▁electro	-10.8648
▁compliment	-10.8648
▁identify	-10.8648
▁intimidat	-10.8648
▁achilles	-10.8648
▁alyosha	-10.8648
▁anniversary	-10.8648
▁anxious	-10.8648
▁assignment	-10.8648
▁beloved	-10.8648
▁biscuit	-10.8648
▁ceremony	-10.8648
▁companion	-10.8648
▁compassion	-10.8648
▁connolly	-10.8648
▁coordinates	-10.8648
▁depressed	-10.8648
▁education	-10.8648
▁elephant	-10.8648
▁embassy	-10.8648
▁encounter	-10.8648
▁england	-10.8648
▁furniture	-10.8648
▁gardner	-10.8648
▁graduation	-10.8648
▁haddonfield	-10.8648
▁hilarious	-10.8648
▁hulka	-10.8648
▁international	-10.8648
▁inviting	-10.8648
▁joshua	-10.8648
▁kendall	-10.8648
▁krushka	-10.8648
▁kuperman	-10.8648
▁laundry	-10.8648
▁lilith	-10.8648
▁lyrics	-10.8648
▁marquez	-10.8648
▁millaney	-10.8648
▁mulanax	-10.8648
▁obsessed	-10.8648
▁perspective	-10.8648
▁plaintiffs	-10.8648
▁politics	-10.8648
▁privacy	-10.8648
▁promotion	-10.8648
▁reject	-10.8648
▁religious	-10.8648
▁revolution	-10.8648
▁revving	-10.8648
▁robinson	-10.8648
▁salinas	-10.8648
▁samantha	-10.8648
▁scienti	-10.8648
▁seizure	-10.8648
▁smiling	-10.8648
▁spanky	-10.8648
▁sturges	-10.8648
▁theories	-10.8648
▁trevor	-10.8648
▁unhappy	-10.8648
▁unknown	-10.8648
▁valentina	-10.8648
▁vengeance	-10.8648
▁virgil	-10.8648
▁volume	-10.8648
▁afterwards	-10.8648
▁bargain	-10.8648
▁breach	-10.8648
▁celia	-10.8648
▁content	-10.8648
▁erica	-10.8648
▁gunfight	-10.8648
▁jeez	-10.8648
▁niece	-10.8648
▁plugger	-10.8648
▁predator	-10.8648
▁profit	-10.8648
▁radlo	-10.8648
▁repair	-10.8648
▁terek	-10.8648
▁merwe	-10.8648
▁spear	-10.8648
▁visual	-10.8648
▁sofa	-10.8648
▁vriess	-10.8648
▁assassin	-10.8648
▁dragged	-10.8648
▁backpack	-10.8648
▁assessment	-10.8648
▁anus	-10.8648
▁grocer	-10.8648
▁intellectual	-10.8648
▁assigned	-10.8648
▁yacht	-10.8648
▁worries	-10.8648
▁janessa	-10.8648
▁kraus	-10.8648
▁jungle	-10.8648
▁misery	-10.8648
▁roommate	-10.8648
▁calculat	-10.8648
▁collins	-10.8648
▁principle	-10.8648
▁barbarian	-10.8648
▁fingerprints	-10.8648
▁fireworks	-10.8648
▁administration	-10.8648
▁chalk	-10.8648
▁electronic	-10.8648
▁nows	-10.8648
▁pacific	-10.8648
▁snack	-10.8648
▁stacy	-10.8649
▁charlestown	-10.8649
▁assistance	-10.8649
▁harris	-10.8649
▁skate	-10.8649
▁boogeyman	-10.8649
▁compete	-10.8649
▁breed	-10.8649
▁donald	-10.8649
▁resent	-10.8649
▁declaration	-10.8649
▁vagina	-10.8649
▁remarkable	-10.8649
▁slick	-10.8649
▁colorado	-10.8649
▁legitimate	-10.8649
▁phase	-10.8649
▁circuit	-10.865
▁bolivia	-10.865
▁spiritual	-10.865
▁trent	-10.865
▁pause	-10.865
▁barrel	-10.865
▁description	-10.8651
▁elias	-10.8651
▁groov	-10.8651
▁bartender	-10.8651
▁mort	-10.8651
▁assure	-10.8651
▁surviving	-10.8652
▁appearance	-10.8652
▁governor	-10.8652
▁concept	-10.8652
▁elvis	-10.8652
▁scotch	-10.8652
▁cmon	-10.8652
▁tech	-10.8652
▁soy	-10.8652
▁heh	-10.8653
▁dune	-10.8653
▁happier	-10.8653
inlaw	-10.8653
▁oral	-10.8653
▁soda	-10.8653
▁generator	-10.8653
▁tackle	-10.8653
▁kane	-10.8653
▁retired	-10.8653
▁ridge	-10.8653
▁lola	-10.8654
▁haley	-10.8654
▁mit	-10.8655
▁imitate	-10.8655
▁medication	-10.8655
▁herb	-10.8655
▁puke	-10.8655
▁wei	-10.8655
kers	-10.8655
▁bund	-10.8655
▁entit	-10.8656
▁paralyzed	-10.8656
▁dedicated	-10.8657
▁technically	-10.8657
▁soil	-10.8657
▁footage	-10.8658
▁lingerie	-10.8658
▁crop	-10.8658
▁vet	-10.866
▁deke	-10.866
▁kara	-10.866
▁fag	-10.866
▁pakistani	-10.866
▁hank	-10.8661
▁attached	-10.8661
▁infected	-10.8661
▁registered	-10.8661
▁wel	-10.8662
▁gap	-10.8662
▁collection	-10.8663
▁vest	-10.8664
▁chet	-10.8664
▁denied	-10.8666
▁bold	-10.8666
gger	-10.8667
▁dove	-10.8667
▁fist	-10.867
▁locate	-10.8671
▁soak	-10.8671
▁consideration	-10.8672
▁deck	-10.8673
▁comic	-10.8676
▁sixty	-10.8676
▁tore	-10.8676
▁drawn	-10.8677
▁amp	-10.8678
▁ville	-10.868
▁spying	-10.8682
▁soup	-10.8685
▁palm	-10.8685
▁snor	-10.8686
▁accused	-10.8687
▁particularly	-10.8689
▁decides	-10.8691
▁dish	-10.8691
▁wicked	-10.8692
▁regulations	-10.8692
▁lane	-10.8695
▁ford	-10.8695
▁weep	-10.8697
▁convinced	-10.8699
▁angle	-10.8699
▁buses	-10.87
▁burnt	-10.8704
▁baron	-10.8707
▁granted	-10.8707
▁cursed	-10.8708
▁contained	-10.8713
▁conducted	-10.8717
▁stretch	-10.8718
▁voted	-10.8719
▁mustnt	-10.872
▁relations	-10.8721
▁lad	-10.8722
▁brief	-10.8726
utter	-10.8727
▁unable	-10.8729
▁sharply	-10.8737
▁cargo	-10.8743
▁endless	-10.8745
▁sacrificed	-10.8748
▁belonged	-10.875
▁for	-10.8752
▁grows	-10.8753
▁mixed	-10.8753
▁settled	-10.8759
▁completed	-10.8759
▁passion	-10.8766
▁nailed	-10.8767
▁photographer	-10.877
▁requested	-10.8776
▁residents	-10.8778
▁eits	-10.8778
▁manita	-10.878
bre	-10.8786
▁vic	-10.879
spare	-10.879
▁caps	-10.8792
▁added	-10.88
jangle	-10.8801
▁kath	-10.8802
▁ruler	-10.8803
▁shadows	-10.8807
▁sw	-10.8812
▁posters	-10.8819
▁smiled	-10.8831
zi	-10.8836
▁hooked	-10.8856
▁skills	-10.8865
▁shitting	-10.8877
▁poo	-10.8887
▁focused	-10.8888
▁eu	-10.8901
▁packing	-10.8907
berg	-10.8922
▁tribes	-10.8926
ik	-10.8927
▁et	-10.8929
▁pissing	-10.8945
▁sayin	-10.8947
▁supporting	-10.8949
▁experiments	-10.8951
ically	-10.8952
dan	-10.8958
▁differently	-10.8964
▁der	-10.8964
▁sal	-10.8965
ckl	-10.8979
▁symbols	-10.8982
▁arrives	-10.8985
▁bees	-10.8988
ute	-10.8988
▁protected	-10.8996
▁stepp	-10.9001
▁makeup	-10.9004
▁there	-10.9009
▁wrappe	-10.901
iance	-10.901
▁testing	-10.903
▁sucking	-10.904
▁blades	-10.9041
▁rabbits	-10.9046
unch	-10.9061
lk	-10.9064
▁prayers	-10.9066
rn	-10.9077
▁marc	-10.9089
▁fixing	-10.9093
▁defendants	-10.91
▁prime	-10.9104
▁farmers	-10.9142
▁contribut	-10.9142
more	-10.9151
▁monkeys	-10.9159
▁waves	-10.9159
▁flu	-10.916
call	-10.9174
hhh	-10.9188
▁ber	-10.919
▁stabilize	-10.9198
▁af	-10.9233
fic	-10.924
▁indians	-10.9278
▁loads	-10.928
nia	-10.9284
▁dai	-10.9285
ries	-10.9292
▁professionals	-10.9307
▁fellows	-10.9307
▁interrogations	-10.9308
wing	-10.9322
▁ahhh	-10.9328
▁quarters	-10.9338
▁cru	-10.9356
▁justif	-10.9416
▁skip	-10.9421
▁procedures	-10.9458
▁provid	-10.947
ugging	-10.9474
unt	-10.9474
ole	-10.948
rice	-10.9484
▁vehicles	-10.9488
aut	-10.9498
▁scores	-10.9518
▁gunshots	-10.9519
▁drivers	-10.9522
▁suite	-10.9533
ency	-10.9536
▁shooter	-10.9548
▁whores	-10.9579
▁stones	-10.9583
tte	-10.9592
▁bookie	-10.9612
▁comm	-10.9615
cu	-10.9618
▁shoe	-10.962
ret	-10.9622
▁trac	-10.9649
▁source	-10.9657
▁skill	-10.9662
▁citizen	-10.9663
▁technique	-10.9664
▁glove	-10.9664
▁beside	-10.9668
▁tw	-10.9677
▁som	-10.9683
▁evan	-10.9692
▁carl	-10.9692
▁operations	-10.9702
▁qui	-10.9725
▁invent	-10.9739
nation	-10.9759
▁rud	-10.9786
▁levels	-10.9794
▁ambi	-10.9796
▁vice	-10.98
af	-10.98
hood	-10.9829
▁you	-10.983
▁accus	-10.9837
saw	-10.9837
izing	-10.984
gging	-10.9842
▁recruit	-10.9846
▁impress	-10.9846
▁affect	-10.9851
▁alleg	-10.9851
▁stamp	-10.9854
▁preach	-10.9863
fire	-10.9871
what	-10.9875
world	-10.9876
▁earn	-10.9877
two	-10.9878
class	-10.9878
▁tow	-10.9882
water	-10.9882
wide	-10.9882
▁immediate	-10.9883
▁commission	-10.9883
speed	-10.9884
▁champ	-10.9887
▁witch	-10.989
▁india	-10.9891
bag	-10.9892
human	-10.9893
▁peyt	-10.9894
▁authentic	-10.9896
▁drama	-10.9897
▁fran	-10.9897
▁occur	-10.9897
▁architect	-10.9897
▁smurf	-10.9898
oulder	-10.9898
▁leather	-10.9898
▁guido	-10.9898
▁forbid	-10.9898
▁shriek	-10.9898
counterterrorism	-10.9898
▁adjustment	-10.9898
▁albuquerque	-10.9898
▁alejandro	-10.9898
▁amsterdam	-10.9898
▁analysis	-10.9898
▁approval	-10.9898
▁armstrong	-10.9898
▁bachelor	-10.9898
▁banana	-10.9898
▁basketball	-10.9898
▁believing	-10.9898
▁berryessa	-10.9898
▁clamp	-10.9898
▁concussion	-10.9898
▁cowgirl	-10.9898
▁creek	-10.9898
▁crucified	-10.9898
▁defeo	-10.9898
▁dessert	-10.9898
▁dildo	-10.9898
▁dionysus	-10.9898
▁disaster	-10.9898
▁donkey	-10.9898
▁dunno	-10.9898
▁exclusive	-10.9898
▁fergie	-10.9898
▁funkyzeit	-10.9898
▁galaxy	-10.9898
▁giggling	-10.9898
▁hannah	-10.9898
▁hysterical	-10.9898
▁intact	-10.9898
▁jangers	-10.9898
▁kurosawa	-10.9898
▁loomis	-10.9898
▁lounge	-10.9898
▁manhattan	-10.9898
▁marvelous	-10.9898
▁massapequa	-10.9898
▁millimeter	-10.9898
▁montoya	-10.9898
▁mulqueen	-10.9898
▁mysterious	-10.9898
▁neighing	-10.9898
▁obama	-10.9898
▁oscar	-10.9898
▁pervert	-10.9898
▁picnic	-10.9898
▁portuguese	-10.9898
▁proposal	-10.9898
▁radek	-10.9898
▁railroad	-10.9898
▁rawhide	-10.9898
▁reservation	-10.9898
▁revelation	-10.9898
▁scenario	-10.9898
▁scholar	-10.9898
▁seifert	-10.9898
▁shirley	-10.9898
▁sparrow	-10.9898
▁statue	-10.9898
▁supplies	-10.9898
▁surrounding	-10.9898
▁sydney	-10.9898
▁syndrome	-10.9898
▁tequila	-10.9898
▁territory	-10.9898
▁tiamat	-10.9898
▁titties	-10.9898
▁valium	-10.9898
▁wiggle	-10.9898
▁womb	-10.9898
▁yllescas	-10.9898
▁argh	-10.9898
▁depot	-10.9898
▁drapes	-10.9898
▁eternal	-10.9898
▁extend	-10.9898
▁fruma	-10.9898
▁negotiate	-10.9898
▁pepper	-10.9898
▁spoil	-10.9898
▁buddies	-10.9898
▁importance	-10.9898
▁macray	-10.9898
▁parasite	-10.9898
▁raylee	-10.9898
▁graduate	-10.9898
▁prospect	-10.9898
▁trousers	-10.9898
▁urinat	-10.9898
▁moore	-10.9898
▁muttering	-10.9898
▁jerem	-10.9898
▁sniffles	-10.9898
▁cnn	-10.9898
▁wren	-10.9898
▁commercial	-10.9898
▁diving	-10.9898
▁lonesome	-10.9898
▁omar	-10.9898
▁jocke	-10.9898
▁margie	-10.9898
▁teddy	-10.9898
▁untie	-10.9898
▁preston	-10.9898
▁reverend	-10.9898
▁tennis	-10.9898
▁impact	-10.9898
▁cassander	-10.9898
▁drool	-10.9898
▁ceo	-10.9898
▁hustle	-10.9898
▁dorm	-10.9898
▁gym	-10.9898
▁jingle	-10.9898
▁tragic	-10.9898
▁broadcast	-10.9898
▁culture	-10.9899
▁carrot	-10.9899
▁veal	-10.9899
fucking	-10.9899
▁compell	-10.9899
▁rosie	-10.9899
▁wagon	-10.9899
▁grind	-10.9899
▁begging	-10.9899
▁scheme	-10.9899
▁allegations	-10.9899
▁medium	-10.9899
▁butthole	-10.9899
▁oops	-10.9899
▁stanley	-10.9899
▁craft	-10.9899
▁robot	-10.9899
▁fright	-10.9899
▁owns	-10.9899
▁frog	-10.9899
▁tuning	-10.9899
▁casino	-10.99
▁hippo	-10.99
▁clang	-10.99
▁cogs	-10.99
▁frame	-10.99
▁charts	-10.99
▁gentle	-10.99
▁krista	-10.99
▁software	-10.99
▁cruise	-10.99
▁rattle	-10.99
▁clich	-10.99
▁chaz	-10.99
▁backwards	-10.99
▁suitcase	-10.99
▁honour	-10.99
▁saber	-10.99
▁impressive	-10.99
▁incoming	-10.99
▁audition	-10.99
▁wong	-10.99
▁charity	-10.99
helm	-10.99
▁whorehouse	-10.9901
▁temptation	-10.9901
▁cooperation	-10.9901
▁leap	-10.9901
▁burnley	-10.9901
▁lousy	-10.9901
▁magnet	-10.9901
▁aggressive	-10.9901
▁knight	-10.9901
▁jesse	-10.9901
▁marble	-10.9901
▁waist	-10.9901
▁ofyou	-10.9901
▁genetic	-10.9901
▁broward	-10.9901
▁hijackers	-10.9902
▁dumpling	-10.9902
▁harsh	-10.9902
▁trina	-10.9902
▁attendant	-10.9902
▁babysit	-10.9902
ogue	-10.9902
▁wooh	-10.9902
▁corruption	-10.9902
▁relief	-10.9903
▁sweep	-10.9903
▁magician	-10.9903
▁bobcat	-10.9903
▁scent	-10.9903
▁haircut	-10.9903
▁tourist	-10.9903
▁temper	-10.9903
▁yank	-10.9904
▁bingo	-10.9904
▁popped	-10.9904
▁skinny	-10.9904
▁capps	-10.9904
▁courthouse	-10.9904
▁baptized	-10.9904
▁jude	-10.9904
▁pork	-10.9904
▁task	-10.9904
▁spotted	-10.9904
▁stammers	-10.9905
▁dyou	-10.9905
▁grownup	-10.9905
▁reactor	-10.9905
▁witches	-10.9906
▁reflection	-10.9906
▁mount	-10.9907
▁roam	-10.9907
▁kris	-10.9908
▁constantly	-10.9908
▁fitting	-10.9909
▁axel	-10.9909
▁foolish	-10.9909
▁rug	-10.991
▁unlike	-10.991
▁bardo	-10.9911
▁joanie	-10.9911
▁ava	-10.9912
▁needles	-10.9912
▁chew	-10.9912
▁brent	-10.9912
▁mock	-10.9913
▁portal	-10.9913
cara	-10.9913
▁bitten	-10.9914
▁tries	-10.9915
▁rake	-10.9915
▁controlling	-10.9915
▁donor	-10.9916
▁hospitality	-10.9916
▁sandwiches	-10.9916
▁rusty	-10.9916
▁leo	-10.9917
▁crooked	-10.9919
▁recommendation	-10.9919
▁fries	-10.9919
▁controlled	-10.9919
▁hitler	-10.992
▁tense	-10.992
▁leon	-10.992
▁betting	-10.9921
▁any	-10.9922
▁everyday	-10.9922
▁gary	-10.9925
▁stray	-10.9926
▁toughest	-10.9927
cast	-10.9928
▁distan	-10.9928
▁recovery	-10.9929
▁enh	-10.993
rence	-10.993
▁metro	-10.993
▁divided	-10.993
▁developed	-10.993
▁daylight	-10.993
▁rapidly	-10.9934
▁feat	-10.994
▁cler	-10.994
▁lucki	-10.994
▁friendship	-10.9941
▁affected	-10.9942
▁straining	-10.9943
▁golden	-10.9944
▁goodnight	-10.9944
ek	-10.9945
▁goons	-10.9945
▁drowned	-10.9948
▁classes	-10.9952
▁deadline	-10.9952
▁digital	-10.9952
▁newton	-10.9952
▁volk	-10.9959
▁whine	-10.9964
▁floating	-10.9964
▁publisher	-10.997
▁advised	-10.9976
▁coolest	-10.9978
▁ai	-10.998
▁eth	-10.9984
▁lifeline	-10.9985
▁claus	-10.9986
▁ak	-10.9987
▁sincere	-10.9987
▁recognized	-10.9994
▁parties	-10.9994
▁twisted	-10.9995
▁crown	-10.9996
▁shocked	-11.0001
▁deeper	-11.0003
▁peep	-11.0007
▁legally	-11.0007
▁glu	-11.0009
▁tucking	-11.0012
▁inventor	-11.0013
▁ribs	-11.0014
▁compound	-11.0016
lia	-11.0021
▁stoned	-11.0024
ide	-11.0025
▁fort	-11.0035
▁traded	-11.0037
▁poop	-11.0042
▁tricked	-11.0045
▁caymans	-11.0047
▁dutch	-11.0049
val	-11.0052
▁foreigners	-11.0059
▁inf	-11.0063
▁discipline	-11.0064
▁dock	-11.0066
▁discussing	-11.0068
▁ze	-11.0076
▁grams	-11.0077
▁meantime	-11.0078
▁elbows	-11.008
▁whys	-11.0081
▁teenagers	-11.0082
ora	-11.0111
awa	-11.0111
▁detainees	-11.0113
▁nerds	-11.0113
az	-11.012
▁honesty	-11.0121
▁reminder	-11.0121
▁marketing	-11.0123
▁switched	-11.0124
▁blamed	-11.0127
▁summ	-11.0129
▁traveled	-11.0133
▁mightve	-11.0137
▁sources	-11.0146
▁yesil	-11.0163
▁timeout	-11.0167
▁lighter	-11.0168
▁raining	-11.0172
▁muscles	-11.0179
▁deer	-11.0184
▁customers	-11.0185
▁bitter	-11.0187
▁ey	-11.0193
related	-11.0194
▁pauly	-11.02
▁hatch	-11.0207
▁rifles	-11.0213
▁thuds	-11.0213
▁addicts	-11.0214
▁bounc	-11.0218
▁bothering	-11.0228
▁hen	-11.0249
▁tara	-11.0249
▁attacking	-11.0265
lessness	-11.027
▁awards	-11.028
▁towels	-11.028
iest	-11.0293
ford	-11.0304
▁ap	-11.0305
▁ofa	-11.0314
▁strangers	-11.0327
▁creatures	-11.0347
▁effects	-11.0347
▁laughed	-11.035
▁cooler	-11.0356
▁shoulders	-11.0369
▁emt	-11.0378
estate	-11.038
▁respected	-11.0386
▁tub	-11.0395
▁seated	-11.04
▁economic	-11.0418
▁tease	-11.0421
▁parked	-11.044
rina	-11.0467
▁rolled	-11.047
▁clar	-11.0482
▁carls	-11.0492
rel	-11.0505
▁plates	-11.0516
▁contracts	-11.0517
kov	-11.0533
▁tru	-11.0538
▁fet	-11.0551
▁nun	-11.0554
▁exc	-11.0564
vot	-11.0565
▁casey	-11.0581
▁spits	-11.0586
hold	-11.0598
▁wee	-11.0606
▁beam	-11.0646
cra	-11.0661
▁handy	-11.0679
▁debts	-11.0688
▁signing	-11.0703
▁phan	-11.074
▁vo	-11.0744
▁cleaned	-11.0754
this	-11.078
▁pumps	-11.0781
mine	-11.0788
tches	-11.0795
list	-11.0811
tal	-11.0813
▁mol	-11.0847
▁rode	-11.0894
▁janet	-11.0924
quality	-11.094
▁useful	-11.0953
▁ali	-11.0961
raine	-11.1014
▁sniff	-11.1041
▁whisper	-11.1045
▁grunt	-11.1049
▁sigh	-11.1054
▁mini	-11.106
▁sip	-11.1075
▁bishop	-11.1082
▁newspaper	-11.1083
▁jew	-11.1084
▁detainee	-11.1085
▁nerd	-11.1085
▁instinct	-11.1089
▁diamond	-11.1089
▁mortar	-11.109
▁employee	-11.109
▁vow	-11.1095
▁era	-11.1098
▁prep	-11.1131
▁faci	-11.1134
▁here	-11.1142
▁lip	-11.1143
har	-11.116
▁construct	-11.1162
ux	-11.1167
valent	-11.121
ington	-11.1212
▁regard	-11.1227
▁gather	-11.1231
▁immortal	-11.1237
eller	-11.124
▁woo	-11.1249
night	-11.127
▁introduc	-11.1271
▁snarl	-11.1274
▁scrub	-11.128
▁retard	-11.1281
▁elli	-11.1289
▁chai	-11.1289
▁cloth	-11.129
▁strain	-11.1291
▁honk	-11.1295
▁vanish	-11.1297
▁swor	-11.1297
▁approve	-11.1297
▁dri	-11.1297
▁determine	-11.1298
jack	-11.1298
▁trim	-11.1302
▁felon	-11.1302
▁goddam	-11.1303
school	-11.1306
phone	-11.1306
banks	-11.1307
block	-11.1307
six	-11.1308
kids	-11.131
lles	-11.131
letter	-11.1311
▁recent	-11.1312
▁wail	-11.1316
break	-11.1316
▁reflect	-11.1319
▁warren	-11.1319
▁africa	-11.1319
▁inspect	-11.1319
▁persia	-11.132
▁communi	-11.1321
▁livin	-11.1322
▁stif	-11.1325
▁arrogan	-11.1325
▁holly	-11.1327
ijuana	-11.1327
▁accurate	-11.1327
▁almighty	-11.1327
▁aspirin	-11.1327
▁athlete	-11.1327
▁auction	-11.1327
▁babsie	-11.1327
▁bailiff	-11.1327
▁bangkok	-11.1327
▁barracks	-11.1327
▁beverage	-11.1327
▁breeze	-11.1327
▁brooklyn	-11.1327
▁bruce	-11.1327
▁campaign	-11.1327
▁canadian	-11.1327
▁casoria	-11.1327
▁catholic	-11.1327
▁celebrities	-11.1327
▁clouds	-11.1327
▁competition	-11.1327
▁competitive	-11.1327
▁condemn	-11.1327
▁conflict	-11.1327
▁conscience	-11.1327
▁conspiracy	-11.1327
▁curtain	-11.1327
▁disappointment	-11.1327
▁display	-11.1327
▁dracula	-11.1327
▁expense	-11.1327
▁extraordinary	-11.1327
▁exwife	-11.1327
▁fantasy	-11.1327
▁fascinating	-11.1327
▁festival	-11.1327
▁figaro	-11.1327
▁firecracker	-11.1327
▁fitzpatrick	-11.1327
▁fokkin	-11.1327
▁forensic	-11.1327
▁fulfill	-11.1327
▁georgie	-11.1327
▁gibson	-11.1327
▁gravity	-11.1327
▁grief	-11.1327
▁guidance	-11.1327
▁happily	-11.1327
▁happiness	-11.1327
▁hockey	-11.1327
▁humungus	-11.1327
▁illinois	-11.1327
▁inherit	-11.1327
▁inject	-11.1327
▁ireland	-11.1327
▁istanbul	-11.1327
▁jerusalem	-11.1327
▁judgment	-11.1327
▁kottke	-11.1327
▁kramer	-11.1327
▁laptop	-11.1327
▁loneliness	-11.1327
▁lorenzo	-11.1327
▁mackenzie	-11.1327
▁mageau	-11.1327
▁manchester	-11.1327
▁marilia	-11.1327
▁markkula	-11.1327
▁mcdonalds	-11.1327
▁mchales	-11.1327
▁memorandum	-11.1327
▁ministry	-11.1327
▁moroltos	-11.1327
▁mumbling	-11.1327
▁muslim	-11.1327
▁nazareth	-11.1327
▁neighbours	-11.1327
▁nickname	-11.1327
▁nikita	-11.1327
▁obliged	-11.1327
▁obrien	-11.1327
▁obstacle	-11.1327
▁overwhelming	-11.1327
▁password	-11.1327
▁pharmacy	-11.1327
▁pornography	-11.1327
▁previous	-11.1327
▁prosecution	-11.1327
▁recreation	-11.1327
▁redneck	-11.1327
▁rumbling	-11.1327
▁schenk	-11.1327
▁schlomo	-11.1327
▁shadowchild	-11.1327
▁shaffer	-11.1327
▁shuffle	-11.1327
▁snyder	-11.1327
▁specimen	-11.1327
▁splash	-11.1327
▁stevie	-11.1327
▁strategy	-11.1327
▁sullivan	-11.1327
▁surgeon	-11.1327
▁suspended	-11.1327
▁sync	-11.1327
▁tehronne	-11.1327
▁throughout	-11.1327
▁truffle	-11.1327
▁tunnel	-11.1327
▁underwear	-11.1327
▁valuable	-11.1327
▁vaughn	-11.1327
▁vomit	-11.1327
▁whereabouts	-11.1327
▁wozniak	-11.1327
▁column	-11.1327
▁evacuate	-11.1327
▁extinct	-11.1327
▁feast	-11.1327
▁guinea	-11.1327
▁handshake	-11.1327
▁honeymoon	-11.1327
▁intercept	-11.1327
▁jonah	-11.1327
▁kennedy	-11.1327
▁martha	-11.1327
▁motive	-11.1327
▁passengers	-11.1327
▁pirate	-11.1327
▁ruched	-11.1327
▁shmoo	-11.1327
▁shura	-11.1327
▁southwest	-11.1327
▁studied	-11.1327
▁suppress	-11.1327
▁apache	-11.1327
▁bookstore	-11.1327
▁butcher	-11.1327
▁cynic	-11.1327
▁function	-11.1327
▁newberry	-11.1327
▁radar	-11.1327
▁shush	-11.1327
▁thief	-11.1327
▁ticking	-11.1327
▁veteran	-11.1327
▁warehouse	-11.1327
▁harvey	-11.1327
▁succeed	-11.1327
▁tolar	-11.1327
▁donuts	-11.1327
▁educate	-11.1327
▁entry	-11.1327
▁envy	-11.1327
▁spicy	-11.1327
▁tolling	-11.1327
▁balloon	-11.1327
▁enforc	-11.1327
▁barrier	-11.1327
▁romance	-11.1327
▁welfare	-11.1327
▁backstage	-11.1327
▁slit	-11.1327
▁ashley	-11.1327
▁granny	-11.1327
▁hartog	-11.1327
▁hamburger	-11.1327
▁heels	-11.1327
▁authorization	-11.1327
▁canada	-11.1327
▁terminal	-11.1327
▁maniac	-11.1327
▁whatwhat	-11.1327
▁briefcase	-11.1327
▁numero	-11.1327
▁adventure	-11.1327
▁hexa	-11.1327
▁gallon	-11.1327
▁isis	-11.1327
▁comiccon	-11.1327
nvinci	-11.1327
▁plaza	-11.1327
▁bracelet	-11.1327
▁stalk	-11.1327
▁struck	-11.1327
▁commend	-11.1327
▁tuition	-11.1327
▁harass	-11.1327
▁cartoonist	-11.1327
bbet	-11.1327
▁budget	-11.1327
▁instant	-11.1328
▁eliminat	-11.1328
▁romans	-11.1328
▁hazard	-11.1328
▁relevant	-11.1328
▁zeca	-11.1328
▁dentist	-11.1328
▁install	-11.1328
▁loyalty	-11.1328
▁baker	-11.1328
▁foryou	-11.1328
▁parole	-11.1328
▁springfield	-11.1328
▁coughlin	-11.1328
▁willy	-11.1328
▁gray	-11.1328
▁drummer	-11.1328
▁doggy	-11.1328
▁convo	-11.1328
▁epic	-11.1328
▁engagement	-11.1328
▁paso	-11.1328
▁eviction	-11.1328
▁lyle	-11.1328
▁moses	-11.1328
▁brendan	-11.1328
▁thieves	-11.1328
▁upside	-11.1329
▁contractors	-11.1329
▁billionaire	-11.1329
▁aaron	-11.1329
▁hissing	-11.1329
▁transferred	-11.1329
▁youth	-11.1329
▁grandfather	-11.1329
▁piggy	-11.1329
▁broadway	-11.1329
▁samuel	-11.1329
▁polson	-11.1329
▁fluid	-11.1329
▁infant	-11.1329
▁bacon	-11.1329
▁racist	-11.1329
▁mouse	-11.1329
▁sinned	-11.133
▁tele	-11.133
▁spiral	-11.133
▁investment	-11.133
▁childhood	-11.133
▁gloria	-11.133
▁paycheck	-11.133
▁oak	-11.133
▁admitted	-11.133
▁caroline	-11.1331
▁erect	-11.1331
▁alike	-11.1331
▁rising	-11.1331
▁affection	-11.1331
▁communist	-11.1331
▁kong	-11.1331
▁kirkland	-11.1331
▁minus	-11.1331
▁elsewhere	-11.1332
▁popping	-11.1332
▁abortion	-11.1332
▁privilege	-11.1332
▁korean	-11.1332
▁waive	-11.1332
▁hoover	-11.1332
stone	-11.1332
▁departure	-11.1332
▁nsa	-11.1333
▁google	-11.1333
▁shaw	-11.1333
▁crackling	-11.1333
▁render	-11.1333
▁latin	-11.1333
▁cuff	-11.1334
▁oj	-11.1334
▁hijack	-11.1335
▁hype	-11.1335
▁nearby	-11.1335
▁glow	-11.1335
▁haha	-11.1335
▁chemical	-11.1335
▁groom	-11.1336
▁destiny	-11.1336
▁mere	-11.1336
▁exhausted	-11.1337
▁bolt	-11.1337
▁faithful	-11.1338
▁stir	-11.1338
▁disconnect	-11.1338
▁identified	-11.1338
▁inspired	-11.1338
▁applied	-11.1338
▁expression	-11.1338
▁lifestyle	-11.134
▁curl	-11.1341
fif	-11.1341
▁peaceful	-11.1341
▁sittin	-11.1343
▁root	-11.1343
▁adopted	-11.1344
card	-11.1345
how	-11.1347
▁exploded	-11.1347
▁confirmation	-11.1347
▁accusation	-11.1348
▁passage	-11.1348
▁benton	-11.1349
▁respectful	-11.135
▁losin	-11.135
▁hehe	-11.135
▁gambler	-11.1351
▁compromised	-11.1351
▁halfway	-11.1355
▁annie	-11.1355
▁coll	-11.1356
▁approved	-11.1356
▁tighten	-11.1356
▁chosen	-11.1356
▁wage	-11.1357
▁garl	-11.1358
▁psychological	-11.1359
▁emotionally	-11.136
▁sailor	-11.1361
▁chaser	-11.1361
▁applauding	-11.1363
▁rack	-11.1364
▁assured	-11.1366
▁ark	-11.1369
▁preacher	-11.1371
▁restore	-11.1371
▁thug	-11.1372
▁folder	-11.1374
beat	-11.1374
▁iv	-11.1374
▁sour	-11.1375
▁rv	-11.1378
▁stamped	-11.1378
▁mmmm	-11.138
▁honking	-11.1381
▁hike	-11.1381
▁receiver	-11.1381
▁reel	-11.1381
▁wander	-11.1384
▁scissors	-11.1385
▁strut	-11.1387
▁recruiting	-11.1387
▁rage	-11.1391
▁panick	-11.1393
▁mistaken	-11.1394
▁reaches	-11.1395
▁ip	-11.1396
▁oro	-11.1397
▁chica	-11.1397
▁hog	-11.14
▁rear	-11.1402
▁larger	-11.1404
▁acknowledged	-11.1407
▁shifty	-11.1408
coming	-11.141
▁ole	-11.1411
▁boost	-11.1414
▁beaten	-11.1416
▁abused	-11.1417
▁tricky	-11.1421
▁claws	-11.1423
▁locke	-11.1425
▁flaps	-11.1426
▁chilly	-11.1427
▁weakly	-11.1427
▁businessman	-11.1427
▁ghostly	-11.1429
▁adore	-11.143
▁healed	-11.1432
▁continu	-11.1441
nola	-11.1443
▁scaring	-11.1447
▁stoney	-11.1449
tit	-11.1449
▁cheated	-11.1455
ander	-11.1456
▁bosses	-11.1459
▁swallowed	-11.146
▁pale	-11.1465
▁howdy	-11.1465
▁whoops	-11.1466
▁climbing	-11.1467
▁suffered	-11.1474
▁greatness	-11.1475
▁lace	-11.148
▁generally	-11.1483
▁locker	-11.1484
▁talented	-11.1487
construction	-11.149
▁stabb	-11.1491
▁demanding	-11.1499
▁defending	-11.1499
▁operatives	-11.15
▁bruises	-11.15
▁elders	-11.1501
▁apo	-11.1506
▁risky	-11.1507
▁performed	-11.1522
▁classy	-11.1527
▁slower	-11.1533
▁freaky	-11.1534
▁claiming	-11.1536
▁smaller	-11.1538
▁pearls	-11.1538
▁elements	-11.1538
▁civilians	-11.1538
▁touring	-11.154
▁il	-11.1544
erto	-11.1545
▁sabotage	-11.155
▁select	-11.1562
▁remaining	-11.157
▁bishops	-11.1577
▁newspapers	-11.1577
were	-11.158
▁translate	-11.1585
▁iced	-11.1591
▁ju	-11.1594
▁studying	-11.1597
qualified	-11.1598
▁comms	-11.1613
▁treating	-11.1615
▁shelly	-11.1629
▁worthy	-11.1636
▁ponds	-11.1653
▁threats	-11.1655
▁visitors	-11.1659
▁mae	-11.1662
▁colored	-11.1666
▁slams	-11.1682
▁crashing	-11.1686
▁blinded	-11.1688
▁basics	-11.1694
▁nazis	-11.1694
▁fu	-11.1696
▁reassur	-11.1705
▁wherea	-11.1717
▁stare	-11.1727
▁organs	-11.1731
▁channels	-11.1733
▁arrangements	-11.1733
▁toys	-11.1734
▁pom	-11.1742
▁enjoyed	-11.1746
▁snapp	-11.1758
nut	-11.177
ote	-11.1783
▁atm	-11.1783
▁praying	-11.1785
▁reaching	-11.1797
arian	-11.1798
▁hardin	-11.1823
ara	-11.1823
ada	-11.1832
▁meds	-11.1866
▁mash	-11.1866
ique	-11.1878
▁defi	-11.1888
ngle	-11.1922
▁liver	-11.1934
▁oppos	-11.1948
anne	-11.1954
▁dar	-11.1968
verge	-11.1994
lon	-11.2
nom	-11.202
▁committ	-11.2032
▁skippe	-11.2035
▁anticipate	-11.2044
some	-11.2052
marita	-11.2068
▁patri	-11.2069
ella	-11.2113
▁ale	-11.2149
gul	-11.2149
▁toxic	-11.2162
▁swi	-11.217
▁twi	-11.2233
gulf	-11.2257
atic	-11.2261
closure	-11.2294
ethe	-11.2295
▁via	-11.2474
▁mortal	-11.2563
nium	-11.2589
ink	-11.2677
erman	-11.2693
bro	-11.2706
ceived	-11.2724
▁element	-11.2749
▁sum	-11.275
▁civilian	-11.2751
▁elbow	-11.2751
▁pearl	-11.2752
▁shadow	-11.2753
any	-11.2753
▁gram	-11.2759
hair	-11.276
▁teenager	-11.2768
▁scr	-11.2777
▁pd	-11.2784
▁exp	-11.2793
heon	-11.2797
▁publish	-11.2799
▁von	-11.2815
▁poster	-11.283
▁why	-11.2835
hop	-11.2841
thats	-11.2842
▁hem	-11.2859
▁corps	-11.2866
▁conti	-11.2888
bc	-11.2924
▁devi	-11.2925
▁cycl	-11.2925
▁sever	-11.2927
▁digit	-11.2932
▁promis	-11.2934
▁forc	-11.294
maker	-11.2943
▁clatter	-11.2943
▁attract	-11.2944
▁develop	-11.2948
▁snatch	-11.2948
▁conquer	-11.2949
▁divid	-11.295
▁injur	-11.2951
rde	-11.2952
▁haunt	-11.2953
▁offend	-11.2953
▁psycholog	-11.2954
▁equi	-11.2956
graph	-11.2956
▁engage	-11.2964
▁murph	-11.297
mission	-11.297
claim	-11.2971
cloth	-11.2971
authorized	-11.2972
seven	-11.2972
▁capture	-11.2972
sexual	-11.2973
space	-11.2973
minute	-11.2973
▁execute	-11.2974
count	-11.2975
think	-11.2975
▁walker	-11.2976
safe	-11.2978
▁unfortunate	-11.2978
style	-11.2978
▁probabl	-11.2978
▁fog	-11.2979
▁jess	-11.2981
bait	-11.2981
▁jewel	-11.2981
▁transmit	-11.2982
wise	-11.2982
▁coop	-11.2983
poke	-11.2984
▁potato	-11.2985
▁critic	-11.2986
▁radi	-11.2986
▁lind	-11.2987
▁marshal	-11.2988
scription	-11.299
▁harlin	-11.299
▁achieve	-11.2992
▁refer	-11.2992
▁conscious	-11.2992
▁appoint	-11.2992
▁whee	-11.2992
▁loyal	-11.2992
▁editor	-11.2993
▁douche	-11.2993
▁absence	-11.2993
▁academy	-11.2993
▁activities	-11.2993
▁afghan	-11.2993
▁afghanistan	-11.2993
▁aldren	-11.2993
▁alexandria	-11.2993
▁alligator	-11.2993
▁amateur	-11.2993
▁antigonus	-11.2993
▁approximately	-11.2993
▁arbitration	-11.2993
▁attalus	-11.2993
▁austria	-11.2993
▁battalion	-11.2993
▁blowjob	-11.2993
▁brazil	-11.2993
▁bucephalus	-11.2993
▁buffet	-11.2993
▁capacity	-11.2993
▁caravan	-11.2993
▁carnival	-11.2993
▁centuries	-11.2993
▁choosing	-11.2993
▁companies	-11.2993
▁complication	-11.2993
▁convention	-11.2993
▁courier	-11.2993
▁creaks	-11.2993
▁creating	-11.2993
▁creative	-11.2993
▁cricket	-11.2993
▁crucifix	-11.2993
▁december	-11.2993
▁deploy	-11.2993
▁depressing	-11.2993
▁depression	-11.2993
▁descend	-11.2993
▁despair	-11.2993
▁disguise	-11.2993
▁disobey	-11.2993
▁disorder	-11.2993
▁distephano	-11.2993
▁diversion	-11.2993
▁dublin	-11.2993
▁dunleavy	-11.2993
▁eamons	-11.2993
▁easily	-11.2993
▁eivind	-11.2993
▁election	-11.2993
▁entrance	-11.2993
▁evacuation	-11.2993
▁exhibit	-11.2993
▁extension	-11.2993
▁fabric	-11.2993
▁feinstein	-11.2993
▁flirting	-11.2993
▁florist	-11.2993
▁forrest	-11.2993
▁gallery	-11.2993
▁geoffrey	-11.2993
▁graveyard	-11.2993
▁greedy	-11.2993
▁haggard	-11.2993
▁headquarters	-11.2993
▁humiliate	-11.2993
▁identification	-11.2993
▁imagination	-11.2993
▁imperfect	-11.2993
▁impotent	-11.2993
▁ingredient	-11.2993
▁innkeeper	-11.2993
▁invisible	-11.2993
▁jurisdiction	-11.2993
▁kalina	-11.2993
▁kilometer	-11.2993
▁koz	-11.2993
▁lavrenti	-11.2993
▁lesbian	-11.2993
▁lobster	-11.2993
▁lsrael	-11.2993
▁magnificent	-11.2993
▁malaysia	-11.2993
▁manifest	-11.2993
▁manslaughter	-11.2993
▁martinelli	-11.2993
▁merchant	-11.2993
▁militia	-11.2993
▁minivan	-11.2993
▁minnieboo	-11.2993
▁monastery	-11.2993
▁morgue	-11.2993
▁necessarily	-11.2993
▁neglect	-11.2993
▁negro	-11.2993
▁nichola	-11.2993
▁nigga	-11.2993
▁notify	-11.2993
▁oogie	-11.2993
▁orgasm	-11.2993
▁outstanding	-11.2993
▁pagniacci	-11.2993
▁painkillers	-11.2993
▁patience	-11.2993
▁peanut	-11.2993
▁phalanx	-11.2993
▁phenomenon	-11.2993
▁philotas	-11.2993
▁politician	-11.2993
▁prettier	-11.2993
▁prostitute	-11.2993
▁pulse	-11.2993
▁rebuil	-11.2993
▁reduction	-11.2993
▁regional	-11.2993
▁releasing	-11.2993
▁representative	-11.2993
▁retract	-11.2993
▁revenue	-11.2993
▁revue	-11.2993
▁samurai	-11.2993
▁sangria	-11.2993
▁satisfy	-11.2993
▁scatter	-11.2993
▁schanberg	-11.2993
▁scylla	-11.2993
▁sfpd	-11.2993
▁shareholders	-11.2993
▁shortsighted	-11.2993
▁skitters	-11.2993
▁souvenir	-11.2993
▁splutters	-11.2993
▁squash	-11.2993
▁stadium	-11.2993
▁stephanie	-11.2993
▁struggling	-11.2993
▁survey	-11.2993
▁tokyo	-11.2993
▁unexpected	-11.2993
▁unfair	-11.2993
▁unsolv	-11.2993
▁utilidor	-11.2993
▁vacuum	-11.2993
▁valentine	-11.2993
▁verbier	-11.2993
▁veronica	-11.2993
▁vessel	-11.2993
▁vienna	-11.2993
▁wisdom	-11.2993
▁witherspoon	-11.2993
▁wolves	-11.2993
▁wrestling	-11.2993
▁yelps	-11.2993
▁arguing	-11.2993
▁bleach	-11.2993
▁bleating	-11.2993
▁caesar	-11.2993
▁comanche	-11.2993
▁combination	-11.2993
▁engel	-11.2993
▁exotic	-11.2993
▁fundamental	-11.2993
▁hiphop	-11.2993
▁horizon	-11.2993
▁increasing	-11.2993
▁inhaler	-11.2993
▁kassar	-11.2993
▁kinky	-11.2993
▁leverage	-11.2993
▁nearchus	-11.2993
▁pancakes	-11.2993
▁parrot	-11.2993
▁platter	-11.2993
▁rahman	-11.2993
▁reckless	-11.2993
▁refinery	-11.2993
▁rooftop	-11.2993
▁script	-11.2993
▁smack	-11.2993
▁tanaka	-11.2993
▁thorough	-11.2993
▁variety	-11.2993
▁bendini	-11.2993
▁blackmail	-11.2993
▁debate	-11.2993
▁fingernail	-11.2993
▁forbidden	-11.2993
▁inspiration	-11.2993
▁nosebleed	-11.2993
▁noshow	-11.2993
▁pervers	-11.2993
▁smear	-11.2993
▁sprout	-11.2993
▁superstar	-11.2993
▁domain	-11.2993
▁doodle	-11.2993
▁lodge	-11.2993
▁margin	-11.2993
▁resembl	-11.2993
▁gooks	-11.2993
▁grasp	-11.2993
▁seduce	-11.2993
▁alexei	-11.2993
▁humming	-11.2993
▁slum	-11.2993
▁unstable	-11.2993
▁grape	-11.2993
▁casual	-11.2993
▁griev	-11.2993
▁scoot	-11.2993
▁stomp	-11.2993
chever	-11.2993
▁cardinal	-11.2993
▁modest	-11.2993
▁neur	-11.2993
▁prophet	-11.2993
▁endanger	-11.2993
▁oven	-11.2993
▁slug	-11.2993
▁eighteen	-11.2993
▁kelly	-11.2993
▁presume	-11.2993
▁tarrance	-11.2993
▁jules	-11.2993
▁condor	-11.2993
▁jelly	-11.2993
▁repuls	-11.2993
▁overheat	-11.2993
▁veil	-11.2993
▁invade	-11.2993
▁microphone	-11.2993
▁residence	-11.2993
▁stump	-11.2993
▁degrad	-11.2994
▁surface	-11.2994
▁ledger	-11.2994
▁narrow	-11.2994
▁eyeballs	-11.2994
▁tactic	-11.2994
▁graphic	-11.2994
▁salvation	-11.2994
▁dizzy	-11.2994
▁evasion	-11.2994
▁pussay	-11.2994
▁referring	-11.2994
▁villains	-11.2994
▁retirement	-11.2994
▁consume	-11.2994
▁speculat	-11.2994
▁foster	-11.2994
▁bubb	-11.2994
▁volmer	-11.2994
▁binding	-11.2994
▁dialogue	-11.2994
▁refuge	-11.2994
▁boobs	-11.2994
▁feather	-11.2994
▁arsehole	-11.2994
▁hunk	-11.2994
▁dripping	-11.2994
▁gregory	-11.2994
▁fragment	-11.2994
▁intensity	-11.2994
▁blunt	-11.2994
▁blink	-11.2994
▁consistent	-11.2994
▁blaze	-11.2994
▁scoop	-11.2994
▁cherita	-11.2994
▁inquiries	-11.2994
▁spike	-11.2994
▁throne	-11.2994
▁friendlies	-11.2994
▁randy	-11.2994
▁malia	-11.2994
▁reception	-11.2994
▁pursuit	-11.2994
▁ridden	-11.2994
▁association	-11.2994
▁princeton	-11.2995
▁verbal	-11.2995
▁insert	-11.2995
▁limb	-11.2995
▁righteous	-11.2995
▁premi	-11.2995
▁twat	-11.2995
▁thirteenth	-11.2995
▁riley	-11.2995
▁addition	-11.2995
▁ifthe	-11.2995
▁vermin	-11.2995
▁allergic	-11.2995
ification	-11.2995
▁digging	-11.2995
▁isolation	-11.2995
▁chapel	-11.2995
▁pinned	-11.2995
▁itit	-11.2995
▁psst	-11.2995
▁cabinet	-11.2995
▁prepped	-11.2995
▁salary	-11.2995
▁twentyfive	-11.2995
▁attractive	-11.2995
▁yyou	-11.2996
▁corporation	-11.2996
▁howling	-11.2996
▁antique	-11.2996
▁blend	-11.2996
▁fond	-11.2996
▁journalist	-11.2996
▁archi	-11.2996
▁pike	-11.2996
▁grill	-11.2996
▁dummy	-11.2996
▁dous	-11.2996
▁clapping	-11.2996
▁involvement	-11.2996
▁arabic	-11.2996
▁horseshit	-11.2996
▁heckle	-11.2996
▁chapman	-11.2996
▁perez	-11.2997
▁diane	-11.2997
▁caff	-11.2997
▁joyce	-11.2997
▁saddle	-11.2997
▁priority	-11.2997
▁heck	-11.2997
▁resistance	-11.2997
▁objective	-11.2997
▁quest	-11.2997
▁outhouse	-11.2997
▁predictable	-11.2997
▁chili	-11.2997
▁compare	-11.2997
▁demonstrate	-11.2997
▁beings	-11.2998
▁puss	-11.2998
▁peach	-11.2998
▁attic	-11.2998
▁chow	-11.2998
▁lockdown	-11.2998
▁accountability	-11.2998
▁hamas	-11.2998
▁sundown	-11.2998
▁upper	-11.2998
▁heap	-11.2998
▁cattle	-11.2999
▁wax	-11.2999
▁loot	-11.2999
▁knot	-11.2999
▁keyboard	-11.2999
▁colon	-11.3
▁gersh	-11.3
▁layton	-11.3
▁proust	-11.3
▁extraction	-11.3
▁peg	-11.3
▁fuss	-11.3001
▁marty	-11.3001
▁panties	-11.3001
▁shill	-11.3001
▁expectations	-11.3001
▁sacramento	-11.3001
▁salon	-11.3001
▁wig	-11.3001
▁informant	-11.3001
▁programmed	-11.3001
▁contra	-11.3002
▁harling	-11.3002
▁advisor	-11.3002
rawl	-11.3002
▁african	-11.3002
▁conductor	-11.3003
cake	-11.3003
▁grossman	-11.3003
▁merci	-11.3004
▁prank	-11.3004
▁partnership	-11.3004
▁weakness	-11.3004
▁flatter	-11.3004
with	-11.3004
▁countryside	-11.3005
▁crusader	-11.3005
▁waltz	-11.3005
▁breakdown	-11.3005
▁recon	-11.3005
▁employment	-11.3006
▁concerto	-11.3006
▁stripper	-11.3006
▁equally	-11.3006
▁controller	-11.3006
▁fide	-11.3006
▁facebook	-11.3007
▁sharon	-11.3007
▁shipment	-11.3008
▁jessen	-11.3008
▁shuttle	-11.3009
▁monte	-11.301
▁dickhead	-11.301
▁solo	-11.301
▁hedge	-11.301
▁playbook	-11.3011
▁stasi	-11.3011
▁observe	-11.3011
▁rally	-11.3012
▁allan	-11.3013
▁rust	-11.3013
▁frontier	-11.3014
▁devastated	-11.3014
▁inverted	-11.3014
▁policemen	-11.3015
▁rail	-11.3015
▁spru	-11.3016
▁publicity	-11.3016
▁poke	-11.3018
▁terr	-11.302
▁speeches	-11.3022
▁pronounce	-11.3022
▁felony	-11.3023
▁snip	-11.3023
▁ally	-11.3023
▁crackers	-11.3024
▁sideline	-11.3024
▁dash	-11.3026
▁distracting	-11.3027
▁flop	-11.3028
▁seventh	-11.3028
▁seri	-11.3028
▁homeboy	-11.3029
▁initiated	-11.303
tched	-11.303
▁morale	-11.3031
▁roth	-11.3031
▁sou	-11.3032
level	-11.3032
▁strongest	-11.3032
▁tranquili	-11.3033
▁darkest	-11.3035
▁oxy	-11.3036
▁mold	-11.3037
lez	-11.3037
▁smallest	-11.3038
▁bunker	-11.3038
▁conquered	-11.3038
▁haunted	-11.3038
▁parish	-11.3039
▁published	-11.3039
sky	-11.304
▁madman	-11.3041
▁moss	-11.3042
▁humping	-11.3044
▁proven	-11.3044
▁vain	-11.3044
▁vanished	-11.3046
▁publishing	-11.3047
▁snapped	-11.3048
▁ot	-11.3049
▁lawful	-11.3052
▁spite	-11.3053
▁tender	-11.3054
▁stabbing	-11.3054
▁invented	-11.3055
corn	-11.3056
▁snarling	-11.3056
▁gathering	-11.3056
▁crashes	-11.3057
▁printer	-11.3059
▁singin	-11.306
▁woof	-11.306
bility	-11.3062
▁endure	-11.3067
▁sweater	-11.307
▁dc	-11.3073
▁townie	-11.3075
▁cycle	-11.3076
▁forgiven	-11.3076
▁wiped	-11.3077
▁hunger	-11.3078
tile	-11.3079
▁slaughtered	-11.3079
▁levy	-11.3081
▁topic	-11.3086
▁poisoned	-11.3087
▁guaranteed	-11.3088
▁setup	-11.3089
▁spy	-11.3089
▁cabin	-11.309
▁charming	-11.3094
▁momma	-11.3095
▁approached	-11.3095
▁hisse	-11.3096
▁hacker	-11.3102
▁failing	-11.3104
▁episodes	-11.3109
▁puzzles	-11.3109
▁kneel	-11.3113
▁freezer	-11.3116
▁update	-11.3117
▁vouch	-11.3123
▁logical	-11.3128
▁complaining	-11.3133
▁reserve	-11.314
▁painted	-11.3141
▁crushed	-11.3153
▁delivered	-11.3161
▁mint	-11.3163
▁vol	-11.3173
zier	-11.3173
▁projection	-11.3177
▁wired	-11.3192
▁smashed	-11.3202
upin	-11.3205
▁cad	-11.3211
▁deserved	-11.3214
▁facilit	-11.3215
▁borrowed	-11.3219
▁rece	-11.3219
lapping	-11.3227
▁disappearing	-11.323
▁remained	-11.3241
▁pumping	-11.3252
▁tasted	-11.3254
▁concerning	-11.3258
▁itch	-11.328
▁messy	-11.3307
▁weirdo	-11.3311
▁seeking	-11.3314
▁permitt	-11.3331
▁upsta	-11.3337
▁mute	-11.3347
mhm	-11.3355
▁dealt	-11.336
▁sor	-11.3368
▁frankie	-11.3374
▁walt	-11.3407
mus	-11.3427
▁pine	-11.3436
most	-11.3444
▁bein	-11.3453
▁rami	-11.3458
▁doj	-11.3478
cro	-11.3501
▁titan	-11.3509
▁squi	-11.354
mba	-11.3562
▁micro	-11.3574
ttle	-11.3586
▁independen	-11.3605
▁liberat	-11.3616
aaa	-11.3624
iro	-11.3642
bbie	-11.3671
eenie	-11.3684
aking	-11.3687
▁sentenc	-11.3705
audi	-11.3754
▁dang	-11.3796
▁scarf	-11.3797
▁marti	-11.3875
▁toxicolog	-11.39
▁penn	-11.3905
▁disse	-11.3958
zman	-11.398
▁ku	-11.3998
enny	-11.4038
▁inse	-11.4051
▁beta	-11.4052
▁magical	-11.4066
fficient	-11.4088
▁sticker	-11.4095
▁roller	-11.4119
▁bio	-11.4133
▁rotte	-11.4146
active	-11.4149
hound	-11.4282
tained	-11.4286
illo	-11.4288
▁wal	-11.4299
aste	-11.4312
ipped	-11.4327
oscope	-11.4329
▁frat	-11.4402
pie	-11.4421
date	-11.4434
wil	-11.4436
lance	-11.4452
text	-11.4459
▁bounce	-11.4483
formed	-11.4489
orse	-11.4495
▁squ	-11.4496
▁blond	-11.4553
▁anal	-11.458
uel	-11.4622
ails	-11.4636
▁ple	-11.4662
robe	-11.4677
▁dent	-11.4683
▁deli	-11.469
igan	-11.4702
termination	-11.4711
▁bruise	-11.4749
▁cayman	-11.4751
▁relative	-11.4754
▁resident	-11.4755
▁operative	-11.4762
▁elder	-11.4765
▁eit	-11.4791
▁nob	-11.4812
▁undo	-11.4818
▁foreigner	-11.4837
ggle	-11.4847
▁gasp	-11.4848
▁flee	-11.4864
▁manag	-11.488
▁ador	-11.4883
minded	-11.4883
▁gam	-11.4894
▁disturb	-11.4894
▁logic	-11.4908
▁threaten	-11.491
▁chic	-11.4926
▁consul	-11.4941
▁applaud	-11.4942
▁profession	-11.4942
▁but	-11.4942
▁detect	-11.4946
keeper	-11.4953
▁hump	-11.4959
▁gamble	-11.496
▁promote	-11.4964
▁explode	-11.4964
▁confuse	-11.4966
▁compromise	-11.4966
▁deceive	-11.4968
▁jaffe	-11.4968
▁libert	-11.497
proof	-11.4971
grateful	-11.4972
speaker	-11.4972
screw	-11.4972
bridge	-11.4972
service	-11.4973
worth	-11.4973
together	-11.4973
orium	-11.4974
▁constant	-11.4977
▁technical	-11.4977
▁precise	-11.4977
burg	-11.4977
▁absolute	-11.4978
around	-11.498
▁intent	-11.498
▁bore	-11.4982
▁tomato	-11.4985
▁korea	-11.4986
change	-11.4986
▁leavin	-11.4988
pole	-11.4989
hunt	-11.4989
▁audit	-11.499
▁linger	-11.499
burger	-11.499
ancy	-11.499
string	-11.499
olivia	-11.499
▁chronic	-11.499
▁mercenar	-11.499
▁synthe	-11.4991
▁depart	-11.4991
▁remark	-11.4991
asino	-11.4991
tures	-11.4991
▁initiate	-11.4991
▁narrat	-11.4991
▁thirteen	-11.4991
▁establish	-11.4992
▁dispos	-11.4992
month	-11.4992
▁ore	-11.4993
dynamic	-11.4993
▁aaaah	-11.4993
▁abdom	-11.4993
▁abducted	-11.4993
▁absurd	-11.4993
▁accommodate	-11.4993
▁accompan	-11.4993
▁advertis	-11.4993
▁aggravat	-11.4993
▁alaikum	-11.4993
▁alternative	-11.4993
▁analogy	-11.4993
▁anxiety	-11.4993
▁apollo	-11.4993
▁april	-11.4993
▁argentina	-11.4993
▁arizona	-11.4993
▁asparagus	-11.4993
▁asprey	-11.4993
▁audible	-11.4993
▁avalanche	-11.4993
▁baltimore	-11.4993
▁basileus	-11.4993
▁bidding	-11.4993
▁blanston	-11.4993
▁bolitonov	-11.4993
▁bourbon	-11.4993
▁briggs	-11.4993
▁buick	-11.4993
▁caliber	-11.4993
▁catacombs	-11.4993
▁centipede	-11.4993
▁cept	-11.4993
▁certificate	-11.4993
▁cheerleader	-11.4993
▁chiago	-11.4993
▁choochoo	-11.4993
▁choreograph	-11.4993
▁cinema	-11.4993
▁circus	-11.4993
▁complex	-11.4993
▁conclusion	-11.4993
▁controversy	-11.4993
▁coordinated	-11.4993
▁copiague	-11.4993
▁corporal	-11.4993
▁crucial	-11.4993
▁curtis	-11.4993
▁dehaven	-11.4993
▁demurrer	-11.4993
▁destruction	-11.4993
▁dictate	-11.4993
▁disbarred	-11.4993
▁disrupt	-11.4993
▁distinguish	-11.4993
▁elegant	-11.4993
▁emoji	-11.4993
▁encouraging	-11.4993
▁enthusiasm	-11.4993
▁environment	-11.4993
▁essay	-11.4993
▁essential	-11.4993
▁eustice	-11.4993
▁exaggerate	-11.4993
▁exaggerating	-11.4993
▁excitement	-11.4993
▁explosive	-11.4993
▁faulkner	-11.4993
▁fishbowl	-11.4993
▁flaherty	-11.4993
▁forfeit	-11.4993
▁gendarmerie	-11.4993
▁genuine	-11.4993
▁gilbert	-11.4993
▁hallelujah	-11.4993
▁handcuff	-11.4993
▁hashtag	-11.4993
▁hayslip	-11.4993
▁hector	-11.4993
▁hodges	-11.4993
▁horrifi	-11.4993
▁hydraulic	-11.4993
▁hypothetically	-11.4993
▁imaginary	-11.4993
▁inappropriate	-11.4993
▁incarcerated	-11.4993
▁inconvenien	-11.4993
▁incorporated	-11.4993
▁inspiring	-11.4993
▁instagram	-11.4993
▁invasion	-11.4993
▁jensen	-11.4993
▁jigsaw	-11.4993
▁johannesburg	-11.4993
▁kaganovich	-11.4993
▁kehoe	-11.4993
▁kelevra	-11.4993
▁ketchup	-11.4993
▁koobus	-11.4993
▁kriticos	-11.4993
▁lawsuit	-11.4993
▁limpdick	-11.4993
▁lloyd	-11.4993
▁lombardi	-11.4993
▁luggage	-11.4993
▁lunatic	-11.4993
▁lynch	-11.4993
▁machete	-11.4993
▁majesti	-11.4993
▁manufacture	-11.4993
▁marathon	-11.4993
▁marianne	-11.4993
▁massachusetts	-11.4993
▁mckenna	-11.4993
▁minnesota	-11.4993
▁mistress	-11.4993
▁misunderstood	-11.4993
▁mongrel	-11.4993
▁mortgage	-11.4993
▁necessity	-11.4993
▁necklace	-11.4993
▁nevada	-11.4993
▁ninetythousand	-11.4993
▁nuclear	-11.4993
▁obsession	-11.4993
▁offlimits	-11.4993
▁oklahoma	-11.4993
▁olympia	-11.4993
▁opponent	-11.4993
▁oppress	-11.4993
▁orchestra	-11.4993
▁outpost	-11.4993
▁overbilling	-11.4993
▁pausanias	-11.4993
▁pavitt	-11.4993
▁pinkberry	-11.4993
▁probability	-11.4993
▁prometheus	-11.4993
▁pseudonym	-11.4993
▁ptolemy	-11.4993
▁puttnam	-11.4993
▁rattling	-11.4993
▁rehearsing	-11.4993
▁rendezvous	-11.4993
▁respirator	-11.4993
▁revolve	-11.4993
▁sanitarium	-11.4993
▁satchmo	-11.4993
▁seatbelt	-11.4993
▁sensible	-11.4993
▁sensitivity	-11.4993
▁september	-11.4993
▁servant	-11.4993
▁shabbos	-11.4993
▁shackleford	-11.4993
▁shakespeare	-11.4993
▁sheila	-11.4993
▁shuddering	-11.4993
▁shudders	-11.4993
▁sketch	-11.4993
▁smuggling	-11.4993
▁soccer	-11.4993
▁southbound	-11.4993
▁southeast	-11.4993
▁sprinkle	-11.4993
▁stockholm	-11.4993
▁sunglasses	-11.4993
▁switzerland	-11.4993
▁telepathic	-11.4993
▁toothbrush	-11.4993
▁transcript	-11.4993
▁tremendous	-11.4993
▁unmarked	-11.4993
▁vegetable	-11.4993
▁vintage	-11.4993
▁voltaire	-11.4993
▁voorhees	-11.4993
▁walkietalkie	-11.4993
▁wertzner	-11.4993
▁wrestle	-11.4993
▁wrights	-11.4993
▁wrinkle	-11.4993
▁yakitito	-11.4993
▁zancona	-11.4993
orthodo	-11.4993
▁boogie	-11.4993
▁consequences	-11.4993
▁correspond	-11.4993
▁creator	-11.4993
▁giraffe	-11.4993
▁grohl	-11.4993
▁harbor	-11.4993
▁hobby	-11.4993
▁input	-11.4993
▁islam	-11.4993
▁jersey	-11.4993
▁josef	-11.4993
▁kessi	-11.4993
▁kettle	-11.4993
▁klaus	-11.4993
▁kraut	-11.4993
▁lenses	-11.4993
▁lomax	-11.4993
▁midterm	-11.4993
▁midwest	-11.4993
▁moreno	-11.4993
▁morgen	-11.4993
▁overcome	-11.4993
▁penalty	-11.4993
▁pencil	-11.4993
▁penetrat	-11.4993
▁psychiatrist	-11.4993
▁reliable	-11.4993
▁shelter	-11.4993
▁shook	-11.4993
▁spectacular	-11.4993
▁temporarily	-11.4993
▁terrain	-11.4993
▁travis	-11.4993
▁wannabe	-11.4993
▁wheezing	-11.4993
▁adjusting	-11.4993
▁brewster	-11.4993
▁conceal	-11.4993
▁courtyard	-11.4993
▁fierce	-11.4993
▁granddaddy	-11.4993
▁marvin	-11.4993
▁preparing	-11.4993
▁snitch	-11.4993
▁spoon	-11.4993
▁spoor	-11.4993
▁sustained	-11.4993
▁swamp	-11.4993
▁whacked	-11.4993
▁whew	-11.4993
▁anci	-11.4993
▁annoyed	-11.4993
▁bueno	-11.4993
▁canyon	-11.4993
▁explore	-11.4993
▁kinsa	-11.4993
▁kumi	-11.4993
▁molina	-11.4993
▁reunion	-11.4993
▁chloe	-11.4993
▁phillip	-11.4993
▁trembl	-11.4993
▁analyst	-11.4993
▁carolina	-11.4993
▁cheques	-11.4993
▁clutch	-11.4993
▁earrings	-11.4993
▁frightening	-11.4993
▁holler	-11.4993
▁licence	-11.4993
▁particle	-11.4993
▁scandal	-11.4993
▁separati	-11.4993
▁shaving	-11.4993
▁signature	-11.4993
▁tiger	-11.4993
▁vendor	-11.4993
▁butterfly	-11.4993
▁doyle	-11.4993
▁lube	-11.4993
▁tweet	-11.4993
▁charging	-11.4993
▁console	-11.4993
▁gabe	-11.4993
▁grip	-11.4993
▁harmony	-11.4993
▁nevertheless	-11.4993
▁deduc	-11.4993
▁bennet	-11.4993
▁coworker	-11.4993
▁sincerity	-11.4993
▁cement	-11.4993
▁judy	-11.4993
▁truthfully	-11.4993
▁elaine	-11.4993
▁causing	-11.4993
▁duct	-11.4993
▁aisle	-11.4993
▁oversight	-11.4993
▁web	-11.4993
▁finn	-11.4994
▁luxur	-11.4994
▁narlow	-11.4994
▁scumbag	-11.4994
▁mourn	-11.4994
▁pawn	-11.4994
▁turks	-11.4994
▁plague	-11.4994
▁insight	-11.4994
▁flare	-11.4994
elching	-11.4994
▁hummus	-11.4994
▁keg	-11.4994
▁mammals	-11.4994
▁drugged	-11.4994
▁thudding	-11.4994
▁bronze	-11.4994
▁oldtimer	-11.4994
▁strangle	-11.4994
▁funky	-11.4994
▁illusion	-11.4994
▁derek	-11.4994
▁notification	-11.4994
▁leatherwood	-11.4994
▁pajamas	-11.4994
▁winston	-11.4994
▁sheik	-11.4994
▁trading	-11.4994
▁nibs	-11.4994
▁yves	-11.4994
▁biologist	-11.4994
▁scrawl	-11.4994
▁cripple	-11.4994
▁mald	-11.4994
crow	-11.4994
▁antonio	-11.4994
▁wormhole	-11.4994
▁compact	-11.4994
▁fordham	-11.4994
▁choke	-11.4994
▁keen	-11.4994
▁montana	-11.4994
▁nadya	-11.4994
▁refusing	-11.4994
▁fender	-11.4994
▁arab	-11.4994
▁altitude	-11.4994
▁avie	-11.4994
▁grievance	-11.4994
▁juke	-11.4994
▁mugged	-11.4995
▁honklng	-11.4995
▁proposition	-11.4995
▁leaf	-11.4995
▁squat	-11.4995
▁rican	-11.4995
inski	-11.4995
▁ifyou	-11.4995
▁theft	-11.4995
▁terrorism	-11.4995
▁tsk	-11.4995
▁vicious	-11.4995
▁humble	-11.4995
▁maury	-11.4995
▁scarlet	-11.4995
▁occurred	-11.4995
▁reset	-11.4995
meister	-11.4995
▁flay	-11.4995
▁barrett	-11.4995
▁lump	-11.4995
▁bluff	-11.4995
▁margarita	-11.4995
▁surg	-11.4995
▁slop	-11.4996
▁downey	-11.4996
▁beans	-11.4996
▁gasket	-11.4996
▁jammed	-11.4996
▁temporar	-11.4996
▁modifie	-11.4996
▁continuous	-11.4996
▁poach	-11.4996
▁doomed	-11.4996
▁disposable	-11.4996
▁harassment	-11.4996
▁slipping	-11.4996
▁voting	-11.4996
▁ferrin	-11.4996
▁mcca	-11.4996
▁designated	-11.4996
▁portland	-11.4996
▁discretion	-11.4996
▁chipper	-11.4996
▁satisfied	-11.4996
▁fatso	-11.4996
▁sector	-11.4996
▁authenticity	-11.4996
▁vista	-11.4996
▁snorting	-11.4996
▁crumb	-11.4996
▁spinning	-11.4996
▁tyrant	-11.4996
fall	-11.4997
▁stutter	-11.4997
▁jessup	-11.4997
▁edition	-11.4997
▁kidnapper	-11.4997
▁canary	-11.4997
▁litter	-11.4997
▁embarrassment	-11.4997
shelf	-11.4998
▁psychotic	-11.4998
▁pussies	-11.4998
▁tasty	-11.4998
▁destination	-11.4998
▁collar	-11.4998
▁cancelled	-11.4998
▁verde	-11.4998
▁elsa	-11.4998
▁chatting	-11.4998
▁stroll	-11.4998
▁scam	-11.4999
▁porch	-11.4999
▁courtroom	-11.4999
fathom	-11.4999
▁sunlight	-11.4999
▁revo	-11.4999
▁ferry	-11.4999
▁regardless	-11.4999
▁mice	-11.5
winkle	-11.5
▁panel	-11.5
zech	-11.5
▁lime	-11.5
▁bushel	-11.5001
▁homosexuality	-11.5001
▁conny	-11.5001
▁tipped	-11.5001
▁hawk	-11.5001
▁tide	-11.5001
▁oren	-11.5002
▁corrections	-11.5002
▁sidewalk	-11.5002
heim	-11.5002
parable	-11.5002
▁allah	-11.5003
▁tango	-11.5003
▁intimately	-11.5003
▁inner	-11.5003
▁potatoes	-11.5003
▁portis	-11.5003
▁macke	-11.5004
▁shipped	-11.5004
▁kay	-11.5004
▁interrogator	-11.5004
▁penance	-11.5004
▁grandson	-11.5004
▁fame	-11.5004
studies	-11.5004
▁tension	-11.5005
▁harmful	-11.5005
▁shek	-11.5005
▁catalog	-11.5005
▁sworn	-11.5005
▁legend	-11.5005
▁altar	-11.5005
▁overhead	-11.5005
▁puff	-11.5005
▁dumbass	-11.5005
▁milf	-11.5006
▁poet	-11.5006
▁eagle	-11.5006
▁delete	-11.5006
▁sanderson	-11.5006
▁geek	-11.5006
▁scum	-11.5007
▁distraction	-11.5007
▁naveed	-11.5007
▁melody	-11.5007
▁monies	-11.5008
▁percentage	-11.5008
▁whoaoh	-11.5008
▁buon	-11.5008
▁ache	-11.5008
▁dishes	-11.5009
▁frustrated	-11.5009
▁resurrected	-11.5009
▁viable	-11.5009
▁strap	-11.5009
sale	-11.501
▁lightning	-11.5011
▁mule	-11.5011
▁alta	-11.5012
▁bambi	-11.5012
▁rookie	-11.5012
▁purgers	-11.5013
▁stance	-11.5013
▁stine	-11.5013
▁schoolboy	-11.5014
▁betrayal	-11.5014
▁revi	-11.5015
▁lenny	-11.5016
▁silverman	-11.5016
▁thou	-11.5017
▁concluded	-11.5017
arleen	-11.5017
▁perry	-11.5017
▁memori	-11.5017
▁quitting	-11.5018
▁exposed	-11.5018
▁jaffey	-11.5019
▁donation	-11.502
▁humanz	-11.502
▁presentation	-11.502
ield	-11.502
▁rash	-11.5021
▁brass	-11.5021
▁accountant	-11.5022
▁mayday	-11.5022
▁uk	-11.5022
▁pursuing	-11.5023
▁stretcher	-11.5023
▁arriving	-11.5023
▁flown	-11.5024
▁promoted	-11.5024
▁dustin	-11.5024
▁thumping	-11.5024
▁deeds	-11.5025
▁vera	-11.5025
▁campus	-11.5027
ori	-11.5027
▁booth	-11.5027
▁preserve	-11.5029
▁accomplished	-11.5029
▁dug	-11.5029
▁nickel	-11.5029
▁kip	-11.503
▁bona	-11.503
▁firefighter	-11.5032
▁declared	-11.5032
▁scraping	-11.5033
▁peek	-11.5033
▁losses	-11.5033
▁clinking	-11.5035
▁winger	-11.5036
▁daw	-11.5036
▁penh	-11.5037
▁freshen	-11.5039
▁detected	-11.5039
▁disturbed	-11.5039
▁bates	-11.5041
▁hail	-11.5042
orry	-11.5043
▁wah	-11.5044
▁tenth	-11.5046
▁bootleg	-11.5046
▁honorable	-11.5046
▁expla	-11.5047
▁disturbing	-11.5047
▁gage	-11.5047
▁blackout	-11.5049
▁snatched	-11.5049
▁uhoh	-11.505
▁beep	-11.5051
▁fastest	-11.5053
▁katy	-11.5053
▁erm	-11.5055
▁faintly	-11.5056
▁increased	-11.5057
▁sauc	-11.5057
▁retarded	-11.5059
▁regarded	-11.506
enance	-11.506
▁constitutional	-11.5061
▁collector	-11.5062
▁styler	-11.5062
▁ignored	-11.5064
▁bash	-11.5068
▁alleged	-11.5069
▁included	-11.5071
▁described	-11.5071
▁clothing	-11.5071
▁lone	-11.5076
▁deviate	-11.5077
▁separated	-11.5078
▁briefed	-11.5078
▁pisses	-11.5079
▁punished	-11.5079
▁avoided	-11.508
▁hacked	-11.508
▁dough	-11.508
▁oughta	-11.5081
▁painless	-11.5086
▁crt	-11.5088
▁defeated	-11.509
islav	-11.509
▁addicted	-11.5092
▁replaced	-11.5093
▁boiling	-11.5095
▁fasten	-11.5095
▁maint	-11.5097
▁delayed	-11.51
▁badass	-11.5106
▁fod	-11.5106
▁standup	-11.5107
▁assist	-11.5107
onos	-11.5108
▁poured	-11.511
▁chore	-11.511
▁coal	-11.5119
▁cord	-11.5119
ggin	-11.5119
▁fishin	-11.5126
▁fleet	-11.5129
▁pc	-11.5133
▁severed	-11.5175
▁lai	-11.5176
▁kisses	-11.5178
▁pid	-11.5178
▁dod	-11.5188
stead	-11.5212
▁crossbo	-11.5221
cable	-11.523
horn	-11.5251
▁fuse	-11.526
▁irre	-11.5285
ushi	-11.5292
▁mega	-11.5295
▁clippe	-11.5312
▁yi	-11.5316
▁chap	-11.5321
▁declin	-11.5322
▁painter	-11.5323
▁equal	-11.5326
▁urge	-11.5336
atta	-11.5344
posed	-11.5352
cola	-11.5356
exia	-11.5372
▁swat	-11.5378
tial	-11.5402
▁cabr	-11.5451
▁blonde	-11.5454
▁manipulate	-11.5481
▁cit	-11.5488
cano	-11.5498
▁chev	-11.5519
aver	-11.555
bourg	-11.5553
aug	-11.5566
ipe	-11.5588
hades	-11.559
ncy	-11.5612
▁boner	-11.564
cum	-11.5645
▁vern	-11.5678
▁pitt	-11.5696
tif	-11.5709
▁dart	-11.5716
dental	-11.5748
▁cuba	-11.5764
▁shov	-11.5849
▁cou	-11.5854
amber	-11.5859
dog	-11.5932
▁substitut	-11.5958
pped	-11.5959
▁confi	-11.5963
▁yea	-11.6
▁magn	-11.61
izzl	-11.6103
wan	-11.6136
iggy	-11.6145
dwell	-11.6166
thora	-11.6181
zap	-11.6214
ebb	-11.6241
done	-11.6246
▁til	-11.6271
izz	-11.6324
ility	-11.6363
▁cro	-11.6365
stitution	-11.6373
▁alan	-11.6382
▁sau	-11.6383
itz	-11.6389
settling	-11.6417
▁conf	-11.6434
ego	-11.6454
▁carte	-11.6481
▁induce	-11.6553
▁travell	-11.6634
▁gravel	-11.6656
▁tee	-11.6658
▁appreciat	-11.6667
hub	-11.6709
inister	-11.673
▁limo	-11.6745
▁typ	-11.6787
oosh	-11.6853
▁bol	-11.6943
fare	-11.7027
uddy	-11.7059
▁urg	-11.7063
elected	-11.7083
productive	-11.7091
amin	-11.7125
ilities	-11.7126
▁cla	-11.7141
▁tik	-11.7159
▁republican	-11.7256
▁slot	-11.7256
▁subtitle	-11.7263
ashu	-11.7264
▁scoff	-11.7266
▁brake	-11.7266
▁rib	-11.7279
▁thro	-11.7281
▁whoop	-11.7286
▁updat	-11.7307
▁refu	-11.7319
delia	-11.7352
▁chor	-11.736
▁angl	-11.7382
ifies	-11.7388
▁acqui	-11.7405
▁brag	-11.7407
nesis	-11.7412
▁distract	-11.7423
tribute	-11.7424
▁execut	-11.7434
▁viol	-11.7436
▁clink	-11.7441
▁murmur	-11.7443
▁firefight	-11.7445
▁accomplish	-11.7446
▁stru	-11.7446
▁quar	-11.7449
▁crook	-11.745
▁ohhh	-11.745
where	-11.7453
▁gua	-11.7455
lasting	-11.7456
▁conclude	-11.7463
▁expose	-11.7464
▁complicate	-11.7466
view	-11.7468
▁filth	-11.747
▁thirst	-11.747
plane	-11.747
cycle	-11.747
▁abb	-11.7471
bird	-11.7472
stream	-11.7472
mobile	-11.7472
american	-11.7472
thousand	-11.7472
client	-11.7472
condition	-11.7473
knife	-11.7473
finished	-11.7473
important	-11.7473
paint	-11.7473
blood	-11.7473
weight	-11.7473
crazy	-11.7473
whoa	-11.7473
course	-11.7473
christ	-11.7473
shield	-11.7473
three	-11.7473
bald	-11.7473
shoot	-11.7473
yearold	-11.7473
john	-11.7473
▁generat	-11.7473
match	-11.7474
value	-11.7476
check	-11.7478
▁chant	-11.7478
▁govern	-11.7483
fortunately	-11.7487
▁darlin	-11.749
▁multi	-11.7491
airie	-11.7491
▁confront	-11.7491
▁bodi	-11.7491
▁orphan	-11.7492
▁cartoon	-11.7492
▁steamin	-11.7492
xico	-11.7493
▁roxan	-11.7493
▁cunning	-11.7493
munity	-11.7493
▁bankrupt	-11.7493
▁surf	-11.7493
▁succ	-11.7493
psychiatri	-11.7493
▁belarus	-11.7493
▁conspir	-11.7493
▁contradict	-11.7493
▁cottage	-11.7493
▁urban	-11.7493
clamation	-11.7493
hnikov	-11.7493
junction	-11.7493
paparazzi	-11.7493
▁aargh	-11.7493
▁abduction	-11.7493
▁abilities	-11.7493
▁acquaint	-11.7493
▁affirmative	-11.7493
▁alternate	-11.7493
▁amazon	-11.7493
▁ambush	-11.7493
▁ammunition	-11.7493
▁anomaly	-11.7493
▁aqua	-11.7493
▁arrgh	-11.7493
▁ashtray	-11.7493
▁aspire	-11.7493
▁asthma	-11.7493
▁atlantic	-11.7493
▁auriga	-11.7493
▁australia	-11.7493
▁balerdi	-11.7493
▁ballerina	-11.7493
▁barnicke	-11.7493
▁belvedere	-11.7493
▁bereavement	-11.7493
▁bizarre	-11.7493
▁blasphemy	-11.7493
▁brackett	-11.7493
▁brandnew	-11.7493
▁breakthrough	-11.7493
▁breaststroke	-11.7493
▁broccoli	-11.7493
▁brochure	-11.7493
▁brockovich	-11.7493
▁bulganin	-11.7493
▁burglar	-11.7493
▁bushwick	-11.7493
▁cavity	-11.7493
▁celebrating	-11.7493
▁cereal	-11.7493
▁challenging	-11.7493
▁cherubini	-11.7493
▁chitchat	-11.7493
▁chubby	-11.7493
▁chunk	-11.7493
▁cinnamon	-11.7493
▁cloudy	-11.7493
▁cologne	-11.7493
▁columbia	-11.7493
▁compartment	-11.7493
▁competitor	-11.7493
▁confinement	-11.7493
▁congratulate	-11.7493
▁conservatory	-11.7493
▁contaminat	-11.7493
▁convenience	-11.7493
▁coventry	-11.7493
▁decapitate	-11.7493
▁decommission	-11.7493
▁detroit	-11.7493
▁dinosaur	-11.7493
▁discomfort	-11.7493
▁discourage	-11.7493
▁dispute	-11.7493
▁distinct	-11.7493
▁dukakis	-11.7493
▁dweeb	-11.7493
▁easiest	-11.7493
▁eduardo	-11.7493
▁elaziz	-11.7493
▁electra	-11.7493
▁envelope	-11.7493
▁epilogue	-11.7493
▁equation	-11.7493
▁eurydice	-11.7493
▁evident	-11.7493
▁evolve	-11.7493
▁exhusband	-11.7493
▁exmilitary	-11.7493
▁exorcism	-11.7493
▁expedition	-11.7493
▁factionalism	-11.7493
▁february	-11.7493
▁flavor	-11.7493
▁forgave	-11.7493
▁fountain	-11.7493
▁franchise	-11.7493
▁freud	-11.7493
▁fumble	-11.7493
▁galilee	-11.7493
▁gangbang	-11.7493
▁genogram	-11.7493
▁gladiator	-11.7493
▁glimpse	-11.7493
▁glynnis	-11.7493
▁gradually	-11.7493
▁gravy	-11.7493
▁gretchen	-11.7493
▁griffith	-11.7493
▁guerrilla	-11.7493
▁hampton	-11.7493
▁hawaii	-11.7493
▁hollow	-11.7493
▁hootch	-11.7493
▁huckleberry	-11.7493
▁hydro	-11.7493
▁hypocrite	-11.7493
▁inbound	-11.7493
▁indebted	-11.7493
▁ineffective	-11.7493
▁insemination	-11.7493
▁institute	-11.7493
▁integrity	-11.7493
▁interpreter	-11.7493
▁intrud	-11.7493
▁irritating	-11.7493
▁jacobs	-11.7493
▁jonathan	-11.7493
▁katherine	-11.7493
▁knicks	-11.7493
▁koppes	-11.7493
▁leash	-11.7493
▁leondria	-11.7493
▁liberal	-11.7493
▁lizards	-11.7493
▁louisiana	-11.7493
▁lsharp	-11.7493
▁lubricat	-11.7493
▁lumberjack	-11.7493
▁magdalene	-11.7493
▁malala	-11.7493
▁malaria	-11.7493
▁malnick	-11.7493
▁mandatory	-11.7493
▁masturbate	-11.7493
▁medevac	-11.7493
▁medieval	-11.7493
▁metaphor	-11.7493
▁migraine	-11.7493
▁miguel	-11.7493
▁monsieur	-11.7493
▁moonfog	-11.7493
▁morris	-11.7493
▁municipal	-11.7493
▁murdock	-11.7493
▁museum	-11.7493
▁narcotic	-11.7493
▁negotiation	-11.7493
▁neighbourhood	-11.7493
▁nephew	-11.7493
▁nietzsche	-11.7493
▁nigerian	-11.7493
▁nightclub	-11.7493
▁nikki	-11.7493
▁noodle	-11.7493
▁nowadays	-11.7493
▁obstruct	-11.7493
▁occupation	-11.7493
▁opportunities	-11.7493
▁orlando	-11.7493
▁panetta	-11.7493
▁paranoia	-11.7493
▁pentagon	-11.7493
▁pharaoh	-11.7493
▁phrase	-11.7493
▁pingpong	-11.7493
▁pistachio	-11.7493
▁pneumonia	-11.7493
▁politovsky	-11.7493
▁polnikov	-11.7493
▁possibilities	-11.7493
▁postponed	-11.7493
▁practicing	-11.7493
▁precaution	-11.7493
▁prototype	-11.7493
▁provoke	-11.7493
▁psychic	-11.7493
▁quebec	-11.7493
▁redemption	-11.7493
▁reflex	-11.7493
▁religion	-11.7493
▁relocate	-11.7493
▁remarrie	-11.7493
▁remix	-11.7493
▁reschedule	-11.7493
▁retrograde	-11.7493
▁ribbon	-11.7493
▁rubbish	-11.7493
▁sabbath	-11.7493
▁salaam	-11.7493
▁sanatorium	-11.7493
▁saxophone	-11.7493
▁scallop	-11.7493
▁scavenge	-11.7493
▁schmuck	-11.7493
▁scottsdale	-11.7493
▁scrawny	-11.7493
▁selfconscious	-11.7493
▁semantics	-11.7493
▁semester	-11.7493
▁seminar	-11.7493
▁sensational	-11.7493
▁sequel	-11.7493
▁shapiro	-11.7493
▁shelby	-11.7493
▁shepherds	-11.7493
▁shimotomo	-11.7493
▁shitbrick	-11.7493
▁shoelaces	-11.7493
▁shrapnel	-11.7493
▁shrink	-11.7493
▁simulation	-11.7493
▁snooze	-11.7493
▁snuffles	-11.7493
▁sophisticated	-11.7493
▁sophistication	-11.7493
▁sponsor	-11.7493
▁spooked	-11.7493
▁spooky	-11.7493
▁stairwell	-11.7493
▁stewart	-11.7493
▁strode	-11.7493
▁stubborn	-11.7493
▁subpoena	-11.7493
▁subsequent	-11.7493
▁subversi	-11.7493
▁suspension	-11.7493
▁swept	-11.7493
▁sykes	-11.7493
▁teardrop	-11.7493
▁thailand	-11.7493
▁thompson	-11.7493
▁treason	-11.7493
▁triangle	-11.7493
▁tumbling	-11.7493
▁turbulence	-11.7493
▁twitter	-11.7493
▁umbrella	-11.7493
▁undercover	-11.7493
▁underestimate	-11.7493
▁unfaithful	-11.7493
▁unleash	-11.7493
▁unofficial	-11.7493
▁vititoe	-11.7493
▁voyles	-11.7493
▁vulgar	-11.7493
▁vulnerable	-11.7493
▁watkins	-11.7493
▁westlake	-11.7493
▁whatsoever	-11.7493
▁wisconsin	-11.7493
▁wizard	-11.7493
▁zapped	-11.7493
▁zealot	-11.7493
dolph	-11.7493
▁carpenter	-11.7493
▁characteristic	-11.7493
▁collaborat	-11.7493
▁defect	-11.7493
▁devotion	-11.7493
▁endtoend	-11.7493
▁entries	-11.7493
▁erotic	-11.7493
▁expired	-11.7493
▁firewall	-11.7493
▁globe	-11.7493
▁indicate	-11.7493
▁inhibit	-11.7493
▁inviola	-11.7493
▁juven	-11.7493
▁lamont	-11.7493
▁launder	-11.7493
▁masseuse	-11.7493
▁mutual	-11.7493
▁narked	-11.7493
▁neutral	-11.7493
▁nixon	-11.7493
▁preparation	-11.7493
▁sarcas	-11.7493
▁saturn	-11.7493
▁schwarz	-11.7493
▁shiff	-11.7493
▁singular	-11.7493
▁spencer	-11.7493
▁spunk	-11.7493
▁suburb	-11.7493
▁thigh	-11.7493
▁uncontroll	-11.7493
▁underrated	-11.7493
▁unpleasant	-11.7493
▁woah	-11.7493
▁adapt	-11.7493
▁aristo	-11.7493
▁baggage	-11.7493
▁bhai	-11.7493
▁bikini	-11.7493
▁dignity	-11.7493
▁gossip	-11.7493
▁hafid	-11.7493
▁harvest	-11.7493
▁jeffrey	-11.7493
▁juicy	-11.7493
▁luong	-11.7493
▁nitti	-11.7493
▁parlor	-11.7493
▁regain	-11.7493
▁slack	-11.7493
▁spider	-11.7493
▁sponge	-11.7493
▁spray	-11.7493
▁storage	-11.7493
▁testicle	-11.7493
▁unpack	-11.7493
▁walden	-11.7493
▁website	-11.7493
▁clinic	-11.7493
▁cristo	-11.7493
▁incorr	-11.7493
▁outcome	-11.7493
▁titty	-11.7493
▁wewe	-11.7493
▁blaming	-11.7493
▁bruno	-11.7493
▁creation	-11.7493
▁madison	-11.7493
▁submit	-11.7493
▁thrust	-11.7493
dext	-11.7493
rithm	-11.7493
seif	-11.7493
▁canvas	-11.7493
▁cradle	-11.7493
▁deranged	-11.7493
▁embry	-11.7493
▁handicap	-11.7493
▁napoleon	-11.7493
▁sentiment	-11.7493
▁wither	-11.7493
▁jackpot	-11.7493
▁royce	-11.7493
▁cheesy	-11.7493
▁depth	-11.7493
▁elevate	-11.7493
▁karl	-11.7493
▁rational	-11.7493
▁singsong	-11.7493
▁arena	-11.7493
▁hilton	-11.7493
▁hobbies	-11.7493
▁jvc	-11.7493
▁witty	-11.7493
▁bigalow	-11.7493
▁convert	-11.7493
▁hinda	-11.7493
▁fiona	-11.7493
▁gump	-11.7493
▁lyons	-11.7493
▁banal	-11.7493
▁callahan	-11.7493
▁classmate	-11.7493
▁alamo	-11.7493
▁bandaid	-11.7493
▁caddy	-11.7493
▁firearm	-11.7493
▁scalp	-11.7493
▁disabled	-11.7493
▁sperm	-11.7493
▁africanamerican	-11.7493
▁merri	-11.7493
▁sinners	-11.7493
▁stumble	-11.7493
shelves	-11.7493
▁chimes	-11.7493
▁oui	-11.7493
▁unreal	-11.7493
▁contingenc	-11.7494
defens	-11.7494
▁dvd	-11.7494
▁ethics	-11.7494
▁middlesex	-11.7494
▁coroner	-11.7494
▁tyre	-11.7494
▁glorifie	-11.7494
▁gollings	-11.7494
▁hotshot	-11.7494
▁virtu	-11.7494
▁diehl	-11.7494
▁exceed	-11.7494
▁issa	-11.7494
▁restrain	-11.7494
andmother	-11.7494
▁arsch	-11.7494
▁communism	-11.7494
▁hallucinating	-11.7494
▁italy	-11.7494
▁nanny	-11.7494
▁suffocate	-11.7494
▁visas	-11.7494
▁carpet	-11.7494
▁carbon	-11.7494
▁defy	-11.7494
▁sculpture	-11.7494
▁nanex	-11.7494
▁justification	-11.7494
▁bliss	-11.7494
▁skinheads	-11.7494
▁baroness	-11.7494
▁naomi	-11.7494
▁transformed	-11.7494
▁vlogg	-11.7494
▁artery	-11.7494
▁oxygen	-11.7494
nstein	-11.7494
▁katrina	-11.7494
▁sammy	-11.7494
▁dipshit	-11.7494
▁typical	-11.7494
▁apologise	-11.7494
▁evie	-11.7494
▁deteriorat	-11.7494
▁shaki	-11.7494
▁mooing	-11.7494
▁bloodsuck	-11.7494
intuiti	-11.7494
▁hetero	-11.7494
▁corpsmen	-11.7494
▁glitch	-11.7494
▁whinn	-11.7494
▁crackles	-11.7494
▁smurfette	-11.7494
▁jeffries	-11.7494
▁cuida	-11.7494
▁tolerate	-11.7494
▁nelson	-11.7494
▁kristen	-11.7494
▁outlaw	-11.7494
▁canister	-11.7494
▁swap	-11.7494
▁charade	-11.7494
▁confusion	-11.7494
▁quadrant	-11.7494
▁invoice	-11.7494
▁makin	-11.7495
▁wits	-11.7495
edict	-11.7495
▁confidentiality	-11.7495
▁criticize	-11.7495
▁amazement	-11.7495
▁detachment	-11.7495
▁pedal	-11.7495
▁hague	-11.7495
▁waylander	-11.7495
▁descent	-11.7495
▁waffle	-11.7495
▁concentration	-11.7495
▁decay	-11.7495
▁infiltrate	-11.7495
▁walsh	-11.7495
▁audio	-11.7495
▁graze	-11.7495
▁exterminator	-11.7495
▁outwith	-11.7495
▁hernia	-11.7495
▁estimate	-11.7495
▁carver	-11.7495
▁somber	-11.7495
▁referred	-11.7495
▁flank	-11.7495
▁orphanage	-11.7495
▁occupied	-11.7495
▁wheat	-11.7495
▁arabia	-11.7495
▁vault	-11.7495
▁erratic	-11.7495
▁dawson	-11.7495
▁pending	-11.7495
▁dandy	-11.7495
▁expand	-11.7495
▁gangster	-11.7495
▁ladder	-11.7495
▁slain	-11.7495
▁glaze	-11.7495
▁clank	-11.7495
▁enlist	-11.7495
▁pillow	-11.7495
▁secretaria	-11.7495
▁sniffling	-11.7495
▁alphabet	-11.7495
▁bailey	-11.7495
▁rafkin	-11.7495
▁thems	-11.7496
▁vacat	-11.7496
▁exclaim	-11.7496
▁pansy	-11.7496
▁establishment	-11.7496
▁koslova	-11.7496
mours	-11.7496
▁consciousness	-11.7496
▁galley	-11.7496
▁torah	-11.7496
▁expertise	-11.7496
▁arrogance	-11.7496
▁furious	-11.7496
▁powell	-11.7496
▁magda	-11.7496
▁boise	-11.7496
▁achievement	-11.7496
▁upload	-11.7496
propria	-11.7496
▁retai	-11.7496
▁plateau	-11.7496
▁dispens	-11.7496
▁cremat	-11.7496
▁properties	-11.7496
▁dyke	-11.7496
▁merciful	-11.7496
▁recit	-11.7497
▁stash	-11.7497
▁nadia	-11.7497
▁lightweight	-11.7497
▁pension	-11.7497
▁compuls	-11.7497
▁icu	-11.7497
▁clarity	-11.7497
▁accessory	-11.7497
▁flier	-11.7497
▁activate	-11.7497
▁crank	-11.7497
▁notebook	-11.7497
alyo	-11.7497
▁edgar	-11.7497
▁toot	-11.7497
▁sympathy	-11.7497
▁racine	-11.7498
▁rematch	-11.7498
▁decadent	-11.7498
▁void	-11.7498
▁passionate	-11.7498
▁mercenaries	-11.7498
▁instructor	-11.7498
▁molest	-11.7498
▁dealership	-11.7498
▁brung	-11.7498
ternity	-11.7498
lres	-11.7498
▁classroom	-11.7498
▁utilit	-11.7498
▁spaz	-11.7498
▁urgh	-11.7499
▁slipped	-11.7499
▁mature	-11.7499
▁racket	-11.7499
▁stylis	-11.7499
▁rotate	-11.7499
▁nosy	-11.7499
▁captiv	-11.7499
▁courtney	-11.7499
▁filing	-11.7499
▁confrontation	-11.7499
▁outof	-11.7499
▁virginia	-11.7499
▁lupe	-11.7499
▁esp	-11.7499
▁beret	-11.7499
▁null	-11.75
▁attraction	-11.75
▁hull	-11.75
▁deux	-11.75
▁beginner	-11.75
▁torch	-11.75
▁semen	-11.75
▁tuna	-11.7501
▁excessive	-11.7501
▁sms	-11.7501
neak	-11.7501
▁cult	-11.7501
▁vent	-11.7501
▁spade	-11.7501
▁vicar	-11.7501
▁commitment	-11.7501
▁davis	-11.7501
▁mik	-11.7501
▁weave	-11.7501
▁beamers	-11.7502
▁spall	-11.7502
▁opel	-11.7502
▁reconstruction	-11.7502
▁pasa	-11.7503
▁innovation	-11.7503
forsake	-11.7503
▁robbing	-11.7504
▁sept	-11.7504
▁tomatoes	-11.7504
▁judi	-11.7504
▁management	-11.7504
▁shmu	-11.7504
▁insta	-11.7504
▁grid	-11.7504
▁stunt	-11.7505
▁spice	-11.7505
▁valor	-11.7506
phill	-11.7506
▁pinch	-11.7506
▁spaceship	-11.7506
▁mech	-11.7506
▁idealist	-11.7506
▁maiden	-11.7507
▁dull	-11.7507
▁wend	-11.7507
▁apprehen	-11.7507
▁regretful	-11.7507
▁declare	-11.7507
▁discharged	-11.7507
▁redact	-11.7508
▁oat	-11.7508
▁semi	-11.7508
▁chan	-11.7508
▁clap	-11.7508
▁warrenn	-11.7508
▁rico	-11.7509
▁youse	-11.7509
▁massage	-11.7509
▁clow	-11.7509
▁shack	-11.7509
▁zoom	-11.751
▁fourteen	-11.751
▁settlement	-11.751
▁delusional	-11.751
▁brightest	-11.7511
▁nooo	-11.7512
▁alba	-11.7512
arza	-11.7512
▁herman	-11.7512
▁potter	-11.7512
▁unsee	-11.7513
▁minimal	-11.7513
herald	-11.7513
▁anton	-11.7514
owski	-11.7514
▁tapped	-11.7515
▁mez	-11.7515
▁salam	-11.7515
▁reside	-11.7515
compensat	-11.7516
▁growth	-11.7519
▁canal	-11.7519
▁mason	-11.752
▁aero	-11.752
▁crypt	-11.752
▁wor	-11.7521
▁smartass	-11.7521
wah	-11.7522
▁brighton	-11.7522
▁reich	-11.7523
▁reai	-11.7523
vering	-11.7523
▁ash	-11.7524
rown	-11.7524
▁jag	-11.7526
▁volt	-11.7527
▁duh	-11.7527
▁petal	-11.7528
▁mich	-11.7529
▁piti	-11.7529
strom	-11.753
▁partial	-11.7531
▁hideous	-11.7531
▁login	-11.7532
▁clearance	-11.7533
▁gland	-11.7534
fund	-11.7534
▁kam	-11.7535
▁ballet	-11.7535
▁diesel	-11.7535
▁gps	-11.7535
▁hola	-11.7536
▁protective	-11.7536
▁organize	-11.7539
▁skies	-11.7539
terior	-11.7539
nfield	-11.7539
acle	-11.7539
▁drip	-11.754
▁whisk	-11.7544
▁halt	-11.7544
▁mont	-11.7544
▁humanity	-11.7545
▁jackai	-11.7547
▁producer	-11.7547
▁buzzer	-11.7548
▁tilt	-11.7552
▁eta	-11.7553
▁gill	-11.7555
meal	-11.7555
▁illustrate	-11.7557
▁earl	-11.7557
▁debo	-11.7558
▁trimm	-11.756
▁goodsen	-11.7563
▁sore	-11.7565
▁violate	-11.7567
▁emerge	-11.7569
▁tec	-11.757
obia	-11.757
law	-11.7572
pop	-11.7574
itary	-11.7577
▁comput	-11.7579
▁tempt	-11.7582
▁entertain	-11.7585
▁sass	-11.7586
▁zu	-11.7588
▁walter	-11.7593
▁bam	-11.7594
▁boop	-11.7602
▁mia	-11.7602
▁statistical	-11.7603
arily	-11.7619
iah	-11.7626
berries	-11.7627
otto	-11.7629
▁buckle	-11.7633
bone	-11.7653
▁bono	-11.7659
▁deni	-11.7669
▁elde	-11.7685
▁jugg	-11.7689
eski	-11.7693
▁ththat	-11.7702
▁ambivalen	-11.7716
round	-11.7736
▁coup	-11.7749
opher	-11.7757
▁unwa	-11.7815
▁mutati	-11.7826
▁ofth	-11.7869
▁happie	-11.789
▁synchroni	-11.7923
▁hillar	-11.7991
onald	-11.7992
half	-11.8047
mics	-11.8069
▁friggin	-11.8077
▁detain	-11.8081
igle	-11.8089
▁israel	-11.8129
▁spie	-11.816
▁trib	-11.8163
aux	-11.8192
bun	-11.823
▁your	-11.8253
fulness	-11.8287
▁purchas	-11.8307
mousin	-11.8325
▁disapprove	-11.8333
tribution	-11.8372
▁crapp	-11.839
galoo	-11.8421
randa	-11.845
grove	-11.8486
fat	-11.8498
zzle	-11.8539
master	-11.8594
▁songwrit	-11.8625
▁scrap	-11.8643
nets	-11.8645
witt	-11.8676
▁hart	-11.8684
▁foreclos	-11.872
allel	-11.8721
wait	-11.8775
▁tort	-11.8819
▁toc	-11.8864
▁democra	-11.8971
erich	-11.8998
▁distribute	-11.9036
▁democrat	-11.9076
▁spir	-11.9221
▁astr	-11.9329
▁anticipat	-11.933
tock	-11.9355
▁medi	-11.9356
ssie	-11.9436
luxe	-11.9441
position	-11.9562
liberation	-11.9591
▁hoppin	-11.9591
bach	-11.9621
tub	-11.9757
gwriter	-11.9773
▁structur	-11.9787
▁vir	-11.9836
roaches	-11.9901
pitched	-11.9915
▁slic	-11.9969
based	-12.0004
▁relate	-12.0006
sanna	-12.0077
▁flap	-12.0107
▁troubl	-12.011
▁distribut	-12.0177
▁defer	-12.0236
aron	-12.0255
▁happ	-12.0259
ference	-12.0348
ologist	-12.0348
▁surprising	-12.0371
▁impose	-12.0389
writing	-12.0426
oucher	-12.0551
▁clip	-12.0555
▁episode	-12.058
▁puzzle	-12.0583
▁relation	-12.0586
▁circumstance	-12.0592
▁claw	-12.0594
icky	-12.0598
retches	-12.0614
▁temp	-12.0669
▁statistic	-12.0676
▁trou	-12.0696
▁particip	-12.0703
▁constitution	-12.0711
▁arriv	-12.0711
▁manwhor	-12.0716
pano	-12.072
▁immigra	-12.0739
▁illustr	-12.074
▁tranquil	-12.0741
utti	-12.0743
judging	-12.075
nver	-12.0753
▁gran	-12.0756
▁pursu	-12.0772
▁thump	-12.0774
▁rever	-12.0776
▁disgust	-12.0777
jays	-12.0778
▁infect	-12.078
ague	-12.0782
▁invert	-12.0782
▁attach	-12.0783
▁dismiss	-12.0784
▁adopt	-12.0784
▁devastat	-12.0784
▁register	-12.0786
▁wea	-12.0789
▁goldenbe	-12.0793
▁concentr	-12.0794
▁rook	-12.0795
▁destin	-12.0796
▁juli	-12.0796
body	-12.0797
▁inspire	-12.0797
▁identifie	-12.0798
▁dedicate	-12.0798
rush	-12.0801
▁crusade	-12.0802
▁melod	-12.0802
▁applie	-12.0803
▁responsibilit	-12.0803
▁interrogat	-12.0803
▁emergenc	-12.0804
▁violat	-12.0804
chemical	-12.0805
why	-12.0805
rescue	-12.0805
hmm	-12.0805
operative	-12.0806
fruit	-12.0806
polite	-12.0806
therapy	-12.0806
prepared	-12.0806
father	-12.0806
hundred	-12.0806
access	-12.0806
spirit	-12.0806
definitely	-12.0806
building	-12.0806
dream	-12.0806
shore	-12.0806
tune	-12.0807
▁securit	-12.0807
mount	-12.0807
kansas	-12.0807
lawful	-12.0808
week	-12.0808
broad	-12.0808
butt	-12.0809
▁intens	-12.0809
fifty	-12.0809
soft	-12.0809
ogical	-12.0809
▁intimate	-12.081
▁sacrament	-12.081
piece	-12.0811
▁energ	-12.0811
foot	-12.0812
seek	-12.0812
ofthe	-12.0812
wrote	-12.0812
mega	-12.0813
bike	-12.0813
▁deput	-12.0814
wash	-12.0814
rtation	-12.0814
storm	-12.0815
eagle	-12.0816
▁innocen	-12.0818
▁populat	-12.0819
▁bough	-12.0821
▁investigati	-12.0821
root	-12.0822
▁lovin	-12.0822
flection	-12.0823
▁isolat	-12.0823
▁evict	-12.0823
▁allerg	-12.0823
oslova	-12.0823
arrett	-12.0823
▁relev	-12.0824
clus	-12.0825
asket	-12.0825
▁francis	-12.0825
▁detach	-12.0825
▁indict	-12.0825
filtrat	-12.0825
▁macedon	-12.0825
▁symb	-12.0825
▁northwest	-12.0826
▁amaze	-12.0826
▁consist	-12.0826
▁devas	-12.0826
ptured	-12.0826
▁jeopard	-12.0826
▁regis	-12.0826
▁hallucin	-12.0826
▁suffo	-12.0826
▁purp	-12.0826
sleeve	-12.0827
▁circum	-12.0827
▁downhill	-12.0827
▁negligen	-12.0827
▁unravel	-12.0827
certified	-12.0827
disclosed	-12.0827
emorrhoid	-12.0827
hepburn	-12.0827
losophically	-12.0827
percussion	-12.0827
rrifying	-12.0827
splatter	-12.0827
▁absolve	-12.0827
▁accomplice	-12.0827
▁accordance	-12.0827
▁adequate	-12.0827
▁adrenaline	-12.0827
▁aesthetic	-12.0827
▁alamodey	-12.0827
▁albino	-12.0827
▁alkuwaiti	-12.0827
▁amnesty	-12.0827
▁anchor	-12.0827
▁andahalf	-12.0827
▁ankara	-12.0827
▁anoint	-12.0827
▁anthem	-12.0827
▁antibiotic	-12.0827
▁anymfay	-12.0827
▁aphrodisiac	-12.0827
▁aqueduct	-12.0827
▁aqui	-12.0827
▁arigato	-12.0827
▁athletic	-12.0827
▁autism	-12.0827
▁avril	-12.0827
▁aztecs	-12.0827
▁bannion	-12.0827
▁bellasarious	-12.0827
▁biography	-12.0827
▁blackandwhite	-12.0827
▁blackberrys	-12.0827
▁bladder	-12.0827
▁blofeld	-12.0827
▁blubber	-12.0827
▁bridesmaid	-12.0827
▁brikowski	-12.0827
▁brisket	-12.0827
▁buonasera	-12.0827
▁butbut	-12.0827
▁butterflies	-12.0827
▁carefui	-12.0827
▁carmichael	-12.0827
▁carnivore	-12.0827
▁cerebral	-12.0827
▁cetera	-12.0827
▁chamomile	-12.0827
▁chuggins	-12.0827
▁circulat	-12.0827
▁cleodegaria	-12.0827
▁climax	-12.0827
▁collateral	-12.0827
▁columbo	-12.0827
▁communication	-12.0827
▁completion	-12.0827
▁component	-12.0827
▁compressor	-12.0827
▁condolence	-12.0827
▁constipation	-12.0827
▁contusion	-12.0827
▁coordinator	-12.0827
▁corridor	-12.0827
▁cortex	-12.0827
▁crawford	-12.0827
▁crotch	-12.0827
▁crucify	-12.0827
▁cuckoo	-12.0827
▁culprit	-12.0827
▁cultivat	-12.0827
▁curfew	-12.0827
▁curtie	-12.0827
▁dalavan	-12.0827
▁database	-12.0827
▁deceitful	-12.0827
▁decisionmaking	-12.0827
▁decisive	-12.0827
▁degenerate	-12.0827
▁derelict	-12.0827
▁detlev	-12.0827
▁diabolical	-12.0827
▁dictionary	-12.0827
▁diploma	-12.0827
▁disburse	-12.0827
▁disconcerting	-12.0827
▁discord	-12.0827
▁disengage	-12.0827
▁disinfect	-12.0827
▁disregard	-12.0827
▁djong	-12.0827
▁donnel	-12.0827
▁druzhinsky	-12.0827
▁economy	-12.0827
▁einstein	-12.0827
▁endeavor	-12.0827
▁entrepreneur	-12.0827
▁epiphany	-12.0827
▁exboyfriend	-12.0827
▁exemplar	-12.0827
▁expansion	-12.0827
▁exploring	-12.0827
▁fascinated	-12.0827
▁feminist	-12.0827
▁ferrari	-12.0827
▁fertility	-12.0827
▁finnelli	-12.0827
▁fitzgerald	-12.0827
▁fluctuat	-12.0827
▁fluoride	-12.0827
▁foxtrot	-12.0827
▁fracture	-12.0827
▁frequency	-12.0827
▁futuristic	-12.0827
▁gabriel	-12.0827
▁garnish	-12.0827
▁gatito	-12.0827
▁gediman	-12.0827
▁giuseppe	-12.0827
▁glaukos	-12.0827
▁godfearin	-12.0827
▁goldfarb	-12.0827
▁grandchildren	-12.0827
▁grasshopper	-12.0827
▁gremlins	-12.0827
▁gryphon	-12.0827
▁gypsy	-12.0827
▁halibut	-12.0827
▁hancock	-12.0827
▁handpick	-12.0827
▁hebitch	-12.0827
▁hiccups	-12.0827
▁hillbillies	-12.0827
▁historian	-12.0827
▁hodgkins	-12.0827
▁holster	-12.0827
▁horrid	-12.0827
▁humiliation	-12.0827
▁ignoring	-12.0827
▁imagining	-12.0827
▁immune	-12.0827
▁imprisoned	-12.0827
▁improvise	-12.0827
▁impulses	-12.0827
▁incomplete	-12.0827
▁incriminating	-12.0827
▁indifferent	-12.0827
▁indigen	-12.0827
▁infamous	-12.0827
▁influential	-12.0827
▁insanity	-12.0827
▁insecure	-12.0827
▁inshallah	-12.0827
▁instructed	-12.0827
▁integrated	-12.0827
▁integration	-12.0827
▁intervention	-12.0827
▁intestine	-12.0827
▁intoxicated	-12.0827
▁intrigue	-12.0827
▁irregularities	-12.0827
▁irrelevant	-12.0827
▁irreplaceable	-12.0827
▁jaguar	-12.0827
▁janitor	-12.0827
▁kananga	-12.0827
▁kelvin	-12.0827
▁kennilworth	-12.0827
▁kessler	-12.0827
▁khadija	-12.0827
▁knuckles	-12.0827
▁landlady	-12.0827
▁landlord	-12.0827
▁laundromat	-12.0827
▁leclerc	-12.0827
▁levenstein	-12.0827
▁ligament	-12.0827
▁lipschitz	-12.0827
▁lisianthu	-12.0827
▁literature	-12.0827
▁livelihood	-12.0827
▁lozano	-12.0827
▁lsaiah	-12.0827
▁lumbering	-12.0827
▁machiavelli	-12.0827
▁mainframe	-12.0827
▁malfunction	-12.0827
▁mammoth	-12.0827
▁manufacturing	-12.0827
▁masturbating	-12.0827
▁masturbation	-12.0827
▁mathematic	-12.0827
▁matsumoto	-12.0827
▁mayonnaise	-12.0827
▁mccarthy	-12.0827
▁melanie	-12.0827
▁melendez	-12.0827
▁membrane	-12.0827
▁michelangelo	-12.0827
▁midwicket	-12.0827
▁miriam	-12.0827
▁mistreat	-12.0827
▁morbid	-12.0827
▁morrill	-12.0827
▁mugwump	-12.0827
▁mulholland	-12.0827
▁mulligan	-12.0827
▁mutilat	-12.0827
▁mysteries	-12.0827
▁neighs	-12.0827
▁nickkurtdale	-12.0827
▁ninetynine	-12.0827
▁notorious	-12.0827
▁nurture	-12.0827
▁nutrition	-12.0827
▁obscenit	-12.0827
▁observation	-12.0827
▁occupant	-12.0827
▁ocularis	-12.0827
▁offseason	-12.0827
▁onegative	-12.0827
▁optimistic	-12.0827
▁oriented	-12.0827
▁outrageous	-12.0827
▁outspoken	-12.0827
▁overlook	-12.0827
▁overpriced	-12.0827
▁overreact	-12.0827
▁override	-12.0827
▁overruled	-12.0827
▁overseas	-12.0827
▁pancreatic	-12.0827
▁pasadena	-12.0827
▁pascoe	-12.0827
▁payperview	-12.0827
▁pediatrician	-12.0827
▁perdiccas	-12.0827
▁phoenix	-12.0827
▁physician	-12.0827
▁pilates	-12.0827
▁pilgrim	-12.0827
▁platform	-12.0827
▁porridge	-12.0827
▁poverty	-12.0827
▁preflop	-12.0827
▁premeditated	-12.0827
▁presidium	-12.0827
▁prohibition	-12.0827
▁protagonist	-12.0827
▁pulitzer	-12.0827
▁purification	-12.0827
▁pyramid	-12.0827
▁qualifications	-12.0827
▁quatre	-12.0827
▁rainbow	-12.0827
▁raspberry	-12.0827
▁receiving	-12.0827
▁recognise	-12.0827
▁recognition	-12.0827
▁recompil	-12.0827
▁regroup	-12.0827
▁reichmerl	-12.0827
▁resilient	-12.0827
▁resuppl	-12.0827
▁retrieve	-12.0827
▁rhyme	-12.0827
▁rodriguez	-12.0827
▁romanians	-12.0827
▁rutherford	-12.0827
▁scapegoat	-12.0827
▁scourge	-12.0827
▁secrecy	-12.0827
▁selfrighteous	-12.0827
▁sensations	-12.0827
▁sensual	-12.0827
▁shampoo	-12.0827
▁shannon	-12.0827
▁simplicity	-12.0827
▁sinclair	-12.0827
▁skymall	-12.0827
▁sleaz	-12.0827
▁snigger	-12.0827
▁soandso	-12.0827
▁sorceress	-12.0827
▁soufan	-12.0827
▁spaghetti	-12.0827
▁spectacle	-12.0827
▁spectrum	-12.0827
▁splendid	-12.0827
▁sslimonov	-12.0827
▁stibel	-12.0827
▁stimulation	-12.0827
▁substance	-12.0827
▁supermarket	-12.0827
▁supernatura	-12.0827
▁swollen	-12.0827
▁syringe	-12.0827
▁tamales	-12.0827
▁technician	-12.0827
▁tennyson	-12.0827
▁thanksgiving	-12.0827
▁thoracentesis	-12.0827
▁tickle	-12.0827
▁treasure	-12.0827
▁trespassing	-12.0827
▁trickortreating	-12.0827
▁triumph	-12.0827
▁trombone	-12.0827
▁tropical	-12.0827
▁tsunaron	-12.0827
▁tulips	-12.0827
▁ultimate	-12.0827
▁unacceptable	-12.0827
▁unforgiv	-12.0827
▁unprecedented	-12.0827
▁unreachable	-12.0827
▁untouchable	-12.0827
▁upholster	-12.0827
▁urdu	-12.0827
▁utensil	-12.0827
▁vandalism	-12.0827
▁vaughan	-12.0827
▁vegetarian	-12.0827
▁velocity	-12.0827
▁verdict	-12.0827
▁vericom	-12.0827
▁vicodin	-12.0827
▁videotape	-12.0827
▁vineyard	-12.0827
▁voluntarily	-12.0827
▁vromans	-12.0827
▁wainwright	-12.0827
▁watermelon	-12.0827
▁whiplash	-12.0827
▁whoohoohoo	-12.0827
▁wichita	-12.0827
▁wunderbar	-12.0827
▁xerox	-12.0827
▁yeehaw	-12.0827
▁zombie	-12.0827
funct	-12.0827
▁imprint	-12.0827
▁inclination	-12.0827
▁inevitab	-12.0827
▁moderate	-12.0827
▁punctu	-12.0827
▁ramirez	-12.0827
▁squirrel	-12.0827
▁agenda	-12.0827
▁cabbage	-12.0827
▁canaan	-12.0827
▁continent	-12.0827
▁deforest	-12.0827
▁derecha	-12.0827
▁eloquent	-12.0827
▁facetoface	-12.0827
▁fatalities	-12.0827
▁filter	-12.0827
▁flaky	-12.0827
▁freight	-12.0827
▁gagging	-12.0827
▁glenco	-12.0827
▁grudge	-12.0827
▁identities	-12.0827
▁kohl	-12.0827
▁literary	-12.0827
▁maitre	-12.0827
▁malekai	-12.0827
▁malware	-12.0827
▁memorable	-12.0827
▁millionaire	-12.0827
▁monterey	-12.0827
▁mystic	-12.0827
▁nonetheless	-12.0827
▁oggi	-12.0827
▁opium	-12.0827
▁paragraphs	-12.0827
▁penguin	-12.0827
▁percepti	-12.0827
▁permanent	-12.0827
▁pianist	-12.0827
▁pluto	-12.0827
▁puppy	-12.0827
▁rampage	-12.0827
▁reagan	-12.0827
▁regenerat	-12.0827
▁sawzall	-12.0827
▁solano	-12.0827
▁terminate	-12.0827
▁thatthat	-12.0827
▁tierney	-12.0827
▁treacher	-12.0827
▁treble	-12.0827
▁udall	-12.0827
▁unarmed	-12.0827
▁undertake	-12.0827
▁vertical	-12.0827
▁zykov	-12.0827
▁avila	-12.0827
▁blares	-12.0827
▁booboo	-12.0827
▁burnaley	-12.0827
▁calvin	-12.0827
▁dalton	-12.0827
▁edmond	-12.0827
▁flawed	-12.0827
▁flicker	-12.0827
▁houston	-12.0827
▁infinitely	-12.0827
▁knack	-12.0827
▁menstrua	-12.0827
▁probation	-12.0827
▁refill	-12.0827
▁sanction	-12.0827
▁senile	-12.0827
▁stalingrad	-12.0827
▁staple	-12.0827
▁supervis	-12.0827
▁swerve	-12.0827
▁token	-12.0827
▁uncover	-12.0827
ogenic	-12.0827
▁achangin	-12.0827
▁cannon	-12.0827
▁cockpit	-12.0827
▁decepti	-12.0827
▁deplet	-12.0827
▁ebay	-12.0827
▁excellenc	-12.0827
▁finked	-12.0827
▁gastro	-12.0827
▁inbred	-12.0827
▁kahn	-12.0827
▁likable	-12.0827
▁mutant	-12.0827
▁prius	-12.0827
▁purity	-12.0827
▁salud	-12.0827
▁satrap	-12.0827
▁solemn	-12.0827
▁stench	-12.0827
▁wharf	-12.0827
▁bootlegging	-12.0827
▁farewell	-12.0827
▁grandparent	-12.0827
▁houten	-12.0827
▁imaging	-12.0827
▁inclined	-12.0827
▁kittens	-12.0827
▁knob	-12.0827
▁missouri	-12.0827
▁sermon	-12.0827
▁tarra	-12.0827
▁articulat	-12.0827
▁attire	-12.0827
▁bronx	-12.0827
▁carriage	-12.0827
▁cupcakes	-12.0827
▁misspell	-12.0827
▁quench	-12.0827
▁shaky	-12.0827
▁slov	-12.0827
▁tyler	-12.0827
again	-12.0827
▁halfbreed	-12.0827
▁hyah	-12.0827
▁thirtie	-12.0827
▁catheter	-12.0827
▁legacy	-12.0827
▁misdemeanor	-12.0827
▁ninth	-12.0827
▁ringtone	-12.0827
▁amendment	-12.0827
▁cici	-12.0827
▁divert	-12.0827
▁noisy	-12.0827
▁sensor	-12.0827
▁strawberries	-12.0827
▁strive	-12.0827
▁brew	-12.0827
▁dork	-12.0827
▁implicat	-12.0827
▁retro	-12.0827
▁stardom	-12.0827
▁deadliest	-12.0827
▁gail	-12.0827
▁diaper	-12.0827
▁lrene	-12.0827
▁roast	-12.0827
restri	-12.0827
rrez	-12.0827
▁academi	-12.0827
▁immense	-12.0827
▁tainted	-12.0827
▁granada	-12.0827
▁hooting	-12.0827
▁condu	-12.0827
▁categor	-12.0827
▁coven	-12.0827
▁ctc	-12.0827
▁lamar	-12.0827
▁lightheaded	-12.0827
▁vietnamese	-12.0827
▁anke	-12.0827
▁stepdad	-12.0827
▁hardworking	-12.0827
▁purified	-12.0827
▁emperor	-12.0827
▁jolly	-12.0827
▁wilk	-12.0827
▁chiming	-12.0827
▁generic	-12.0827
▁mosque	-12.0827
▁satanists	-12.0827
▁relic	-12.0827
▁edgy	-12.0827
▁merit	-12.0827
▁textiles	-12.0827
▁moondoggy	-12.0827
▁nassau	-12.0827
▁sunbeds	-12.0827
calyp	-12.0827
▁chrom	-12.0827
▁shady	-12.0827
▁coffins	-12.0827
▁pausing	-12.0827
▁sedated	-12.0827
▁contemplate	-12.0827
▁requirements	-12.0827
▁sanitize	-12.0827
▁acres	-12.0827
▁cummin	-12.0827
▁sven	-12.0827
▁connor	-12.0827
▁sunyi	-12.0827
▁hemorrhage	-12.0827
▁moshe	-12.0827
▁demonstrators	-12.0827
▁detonat	-12.0827
▁boast	-12.0827
▁geograph	-12.0827
▁bankruptcy	-12.0827
▁lakis	-12.0827
▁splint	-12.0827
▁unicorn	-12.0827
▁anyhow	-12.0827
▁headphones	-12.0827
siberia	-12.0827
▁dumpster	-12.0827
▁shiny	-12.0827
▁sleeves	-12.0827
▁guidons	-12.0827
▁resolv	-12.0827
▁shitfaced	-12.0827
▁cramp	-12.0827
▁commute	-12.0827
▁fragile	-12.0827
▁laminate	-12.0827
▁scope	-12.0827
▁persist	-12.0827
▁darwin	-12.0827
▁intoxicating	-12.0827
▁hornets	-12.0827
▁neyer	-12.0827
▁housing	-12.0827
▁libya	-12.0827
▁intubat	-12.0827
▁oooo	-12.0827
▁squaw	-12.0827
▁dlal	-12.0828
▁jeopardize	-12.0828
▁precision	-12.0828
▁stubs	-12.0828
▁confidential	-12.0828
▁lovebirds	-12.0828
▁sorrow	-12.0828
▁forthcoming	-12.0828
▁dusk	-12.0828
▁ebon	-12.0828
bastian	-12.0828
▁civilization	-12.0828
▁editorial	-12.0828
▁miscarriage	-12.0828
▁finchmeister	-12.0828
▁backyard	-12.0828
▁lottery	-12.0828
▁rearrange	-12.0828
▁congregation	-12.0828
▁depravity	-12.0828
▁criticism	-12.0828
▁northwestern	-12.0828
▁arraignment	-12.0828
webs	-12.0828
▁inflat	-12.0828
▁swapped	-12.0828
▁infinit	-12.0828
▁rites	-12.0828
▁gibb	-12.0828
▁manipulation	-12.0828
▁bulletproof	-12.0828
▁vague	-12.0828
dotcom	-12.0828
▁arcade	-12.0828
veston	-12.0828
▁physi	-12.0828
▁jaded	-12.0828
▁sufficient	-12.0828
▁ltaly	-12.0828
rritos	-12.0828
▁timetable	-12.0828
▁cooing	-12.0828
▁alumin	-12.0828
ohohoh	-12.0828
▁insur	-12.0828
▁ethical	-12.0828
▁diamondback	-12.0828
▁goofy	-12.0828
▁restraints	-12.0828
▁huddle	-12.0829
▁whwhat	-12.0829
▁transition	-12.0829
▁attachment	-12.0829
▁cooperating	-12.0829
▁postcard	-12.0829
escent	-12.0829
▁journalism	-12.0829
etically	-12.0829
▁thermo	-12.0829
▁monstrous	-12.0829
▁denise	-12.0829
mitten	-12.0829
▁roxanne	-12.0829
▁quarry	-12.0829
▁wuss	-12.0829
▁intensive	-12.0829
▁twentyseven	-12.0829
obbled	-12.0829
nourish	-12.0829
▁heckling	-12.0829
▁native	-12.0829
▁acceleration	-12.0829
▁mythology	-12.0829
▁accomplishment	-12.0829
▁participant	-12.0829
▁batshit	-12.0829
▁logged	-12.0829
▁pamela	-12.0829
▁molestation	-12.083
fertile	-12.083
▁assessor	-12.083
▁refrigerator	-12.083
contin	-12.083
▁mogul	-12.083
▁disneyland	-12.083
▁excop	-12.083
▁mailbox	-12.083
▁roost	-12.083
▁mummies	-12.083
agogue	-12.083
▁tribeca	-12.083
▁interact	-12.083
▁farther	-12.083
▁cloned	-12.083
▁denny	-12.0831
▁pluck	-12.0831
▁nolan	-12.0831
▁martinez	-12.0831
▁chatted	-12.0831
▁silk	-12.0831
▁narrative	-12.0831
▁allegro	-12.0831
▁malefic	-12.0831
▁brink	-12.0831
▁macworld	-12.0831
▁attendance	-12.0831
▁tillsman	-12.0831
▁rubber	-12.0831
▁foolishness	-12.0831
▁yuck	-12.0832
▁brute	-12.0832
ovich	-12.0832
▁whining	-12.0832
urdy	-12.0832
▁revs	-12.0832
▁displace	-12.0832
▁telex	-12.0832
▁stanton	-12.0832
▁alcoholism	-12.0832
▁bilb	-12.0832
▁decorati	-12.0832
▁mandel	-12.0832
▁csi	-12.0832
▁voil	-12.0833
▁hunch	-12.0833
▁herpe	-12.0833
▁squish	-12.0833
▁glori	-12.0833
▁stool	-12.0833
▁carved	-12.0833
▁mariana	-12.0833
▁stats	-12.0833
▁assessed	-12.0833
▁donate	-12.0833
▁hermo	-12.0833
▁boredom	-12.0834
▁avenge	-12.0834
rthbound	-12.0834
▁susanne	-12.0834
ummies	-12.0834
▁bummed	-12.0834
▁acne	-12.0834
▁hollis	-12.0834
▁frantic	-12.0835
▁pumpkin	-12.0835
▁maze	-12.0835
▁fittest	-12.0835
toxins	-12.0835
▁foul	-12.0835
▁atom	-12.0835
▁scarce	-12.0835
▁prize	-12.0835
▁lsat	-12.0835
▁patsy	-12.0835
▁grim	-12.0835
▁cruel	-12.0835
▁trang	-12.0836
▁caci	-12.0836
▁pipeline	-12.0836
ooned	-12.0836
▁straw	-12.0836
amela	-12.0836
affle	-12.0837
▁testified	-12.0837
▁beech	-12.0837
▁lyin	-12.0837
▁posture	-12.0837
▁phat	-12.0837
▁shipping	-12.0837
▁enslav	-12.0838
▁recap	-12.0839
▁reese	-12.0839
fusion	-12.0839
▁admission	-12.0839
▁cache	-12.0839
▁salva	-12.0839
▁leper	-12.0839
osene	-12.084
▁bonne	-12.084
akand	-12.0841
▁fuzz	-12.0841
▁concu	-12.0842
▁trois	-12.0843
▁mandra	-12.0843
imony	-12.0844
▁transg	-12.0844
▁affiliation	-12.0844
ounty	-12.0845
▁corona	-12.0846
▁rye	-12.0848
▁misha	-12.0849
▁admin	-12.0851
▁transmitter	-12.0852
share	-12.0853
▁karma	-12.0855
talian	-12.0855
▁verse	-12.0856
▁nibbl	-12.0856
vania	-12.0856
▁hassl	-12.0857
sphere	-12.0858
▁recta	-12.0858
reilly	-12.086
▁organiz	-12.086
▁overpa	-12.0861
▁demi	-12.0862
▁cinc	-12.0862
▁empori	-12.0865
▁infra	-12.087
▁kittie	-12.0873
▁marga	-12.0874
▁vende	-12.0874
ntana	-12.0876
uvre	-12.0877
celes	-12.0882
oozy	-12.089
tolerable	-12.0905
ographic	-12.0906
▁tosca	-12.0907
equipped	-12.0908
▁veh	-12.0911
litze	-12.0911
migrant	-12.0915
titude	-12.0922
elain	-12.0923
▁luge	-12.0943
▁participate	-12.0949
quisition	-12.0952
▁inflict	-12.096
▁assert	-12.0963
shape	-12.097
▁scrubb	-12.0971
ehydration	-12.098
▁compose	-12.1008
▁mutt	-12.1063
appa	-12.1082
compatible	-12.1084
▁frag	-12.1104
doyou	-12.1118
rlngs	-12.1126
▁derma	-12.1154
▁selfdestruct	-12.1286
▁hym	-12.1329
vonne	-12.134
▁solv	-12.1343
▁enthusiastic	-12.1349
thefuck	-12.1359
taking	-12.1458
venture	-12.1471
▁deceiv	-12.1479
daisy	-12.1492
▁chinga	-12.1534
bad	-12.154
▁terrorize	-12.155
▁erase	-12.157
slav	-12.1658
▁fudd	-12.1692
▁fiber	-12.1797
anza	-12.1852
▁gorg	-12.1868
lston	-12.1898
moise	-12.1944
lagged	-12.1976
▁loca	-12.2074
sprit	-12.2116
induced	-12.2301
▁despise	-12.2315
sherman	-12.2449
▁unsettl	-12.2581
ammering	-12.261
▁unemploy	-12.2651
andali	-12.267
resistant	-12.2697
▁astrolog	-12.2705
wine	-12.2777
klan	-12.2805
▁demean	-12.2944
▁fianc	-12.3062
▁implement	-12.3131
employment	-12.3386
uzzle	-12.3547
▁grat	-12.3548
eggy	-12.3565
▁produc	-12.3608
fetch	-12.3633
turi	-12.3651
proved	-12.4178
assurance	-12.4384
israeli	-12.4515
▁strippe	-12.4518
▁imbalance	-12.4641
▁advis	-12.4745
marm	-12.4831
watch	-12.5046
served	-12.5143
feeder	-12.5387
▁pictur	-12.5391
existing	-12.549
uties	-12.5539
deemed	-12.5568
▁dehydrat	-12.5581
▁scissor	-12.5585
▁regulation	-12.5589
▁texa	-12.56
