<unk>	0
<s>	0
</s>	0
s	-2.97525
t	-4.14456
ing	-4.19386
d	-4.26075
e	-4.2608
y	-4.36721
n	-4.4558
ed	-4.47304
o	-4.50103
▁	-4.57989
a	-4.63343
r	-4.66116
i	-4.74046
m	-4.75826
g	-4.80132
p	-4.80794
u	-4.85552
▁im	-4.96202
er	-4.96431
c	-4.99606
in	-5.00082
▁know	-5.05789
▁dont	-5.06227
b	-5.14742
▁go	-5.20647
▁s	-5.20881
▁get	-5.243
l	-5.24446
le	-5.40008
▁right	-5.40067
▁like	-5.41719
or	-5.44339
▁got	-5.45212
▁come	-5.4973
w	-5.50254
ll	-5.53167
al	-5.53195
▁youre	-5.53898
▁l	-5.54785
▁yeah	-5.57486
re	-5.58436
▁a	-5.5909
▁oh	-5.59691
▁na	-5.59777
k	-5.61534
ar	-5.6305
f	-5.63456
ly	-5.64513
▁well	-5.64611
▁one	-5.65272
▁re	-5.68147
ck	-5.69342
▁thats	-5.69521
it	-5.72268
h	-5.7267
▁see	-5.73297
▁f	-5.74234
ch	-5.77678
▁want	-5.78394
▁good	-5.83002
▁think	-5.85713
en	-5.86531
es	-5.88433
▁de	-5.88534
▁st	-5.88841
▁man	-5.90105
il	-5.92037
st	-5.9332
▁okay	-5.93814
▁look	-5.94334
at	-5.97197
▁us	-5.9931
an	-5.995
z	-5.99679
▁be	-6.01451
ent	-6.02763
ce	-6.02833
▁back	-6.03453
th	-6.03745
ra	-6.03811
ter	-6.04954
ri	-6.05632
▁gon	-6.05949
▁hey	-6.06195
on	-6.06576
▁say	-6.06846
▁take	-6.07445
▁time	-6.08511
v	-6.08619
▁ma	-6.0922
ve	-6.11705
ke	-6.11872
▁e	-6.12178
▁co	-6.14132
te	-6.1456
▁bo	-6.15039
▁in	-6.15121
▁hes	-6.15192
▁pa	-6.15819
▁yes	-6.16921
▁going	-6.16928
ur	-6.19301
ie	-6.21075
▁p	-6.2152
▁ill	-6.22974
▁c	-6.24273
▁t	-6.24341
▁tell	-6.24532
▁k	-6.24794
▁o	-6.26204
▁need	-6.27157
ic	-6.27483
▁bu	-6.27608
li	-6.28453
ne	-6.28737
el	-6.30505
ro	-6.30795
▁cant	-6.32227
▁ho	-6.32791
la	-6.34623
▁would	-6.35799
▁mean	-6.36691
▁make	-6.37007
ir	-6.37762
▁su	-6.37764
ion	-6.38551
▁ta	-6.39027
▁mi	-6.41091
▁way	-6.41287
de	-6.41527
▁ra	-6.42904
se	-6.43021
ver	-6.43679
▁ca	-6.44018
▁let	-6.44471
▁ro	-6.45738
▁b	-6.45935
x	-6.46673
lo	-6.46937
▁could	-6.4716
▁da	-6.47634
▁to	-6.50258
ol	-6.51053
▁really	-6.51668
▁wh	-6.51861
▁fuck	-6.52104
▁love	-6.52203
▁didnt	-6.52254
un	-6.52262
sh	-6.53401
▁car	-6.54008
▁sh	-6.54432
▁sp	-6.54674
▁po	-6.54748
▁something	-6.54907
▁ha	-6.55152
▁w	-6.55559
ation	-6.55689
▁me	-6.56174
▁whats	-6.56588
▁never	-6.56841
▁give	-6.57242
▁little	-6.58008
▁la	-6.59111
▁lo	-6.59544
▁sir	-6.60054
▁mr	-6.60614
▁con	-6.6097
les	-6.61471
▁work	-6.61537
and	-6.6215
▁th	-6.6224
ate	-6.62355
▁ba	-6.62791
▁lets	-6.63715
▁thank	-6.63721
▁please	-6.64328
ow	-6.6493
vi	-6.65253
▁un	-6.6666
▁theres	-6.67427
ry	-6.67713
▁sorry	-6.69187
▁fa	-6.703
▁two	-6.71108
▁ex	-6.7164
▁day	-6.71701
▁di	-6.71984
▁ive	-6.72649
▁wait	-6.73052
ng	-6.73215
per	-6.73932
▁people	-6.74388
▁ri	-6.74433
ge	-6.74709
▁do	-6.76144
▁call	-6.77308
▁even	-6.77721
et	-6.77867
▁help	-6.78137
us	-6.78984
age	-6.79934
▁said	-6.80266
▁god	-6.80341
▁fucking	-6.80952
▁pro	-6.81161
▁jo	-6.81273
▁mar	-6.81771
▁sc	-6.82145
as	-6.82663
mp	-6.8267
ul	-6.82998
▁thing	-6.83195
▁so	-6.83594
▁cha	-6.83703
▁hi	-6.83782
▁uh	-6.84965
ta	-6.87594
ad	-6.87627
am	-6.87675
▁new	-6.87863
▁shit	-6.88189
man	-6.88234
▁g	-6.89078
▁stop	-6.89206
▁sure	-6.8968
co	-6.91114
▁sa	-6.91414
▁br	-6.91868
ff	-6.92252
▁much	-6.92468
ant	-6.92509
▁find	-6.92634
▁put	-6.92775
ell	-6.94579
is	-6.95473
▁life	-6.95624
ies	-6.95776
▁keep	-6.95953
▁talk	-6.96262
ers	-6.96358
ment	-6.96633
▁name	-6.96701
▁no	-6.96908
▁le	-6.97069
▁theyre	-6.97141
me	-6.98705
▁te	-6.99014
ut	-6.99115
▁he	-6.99764
▁hand	-7.0035
im	-7.00365
ight	-7.00396
▁home	-7.00882
▁feel	-7.00938
id	-7.0134
pe	-7.01377
ive	-7.01807
om	-7.01946
▁first	-7.0259
▁night	-7.03731
▁friend	-7.04085
ty	-7.04136
▁great	-7.04273
▁anything	-7.04406
▁se	-7.05403
▁boy	-7.05905
▁nothing	-7.05938
ick	-7.0788
tion	-7.08288
▁guys	-7.08954
ist	-7.09095
▁wa	-7.0928
▁still	-7.09415
ma	-7.0968
na	-7.09956
▁mo	-7.10505
▁vi	-7.10632
▁big	-7.10676
tt	-7.11004
▁money	-7.11217
ther	-7.11303
▁long	-7.11823
ci	-7.11881
▁ne	-7.11975
▁shes	-7.12039
▁girl	-7.12045
j	-7.12492
▁we	-7.12718
▁kill	-7.12843
▁ask	-7.13199
ugh	-7.13238
▁hu	-7.13432
▁fe	-7.13559
▁tra	-7.14058
▁dr	-7.14124
end	-7.14806
▁must	-7.14847
▁sha	-7.15227
▁kid	-7.15298
▁stay	-7.15475
▁away	-7.15729
▁maybe	-7.16132
est	-7.16485
ting	-7.16521
▁ever	-7.17883
▁better	-7.18827
▁du	-7.19001
▁ru	-7.19126
der	-7.19145
▁thought	-7.19179
▁ti	-7.20033
▁guy	-7.20318
▁place	-7.2085
▁li	-7.20941
able	-7.21095
ard	-7.21321
▁old	-7.22065
▁pi	-7.22283
▁wi	-7.22715
▁around	-7.22821
ph	-7.22882
▁i	-7.22946
ous	-7.23175
▁care	-7.23429
▁an	-7.2372
ni	-7.2385
▁move	-7.23936
▁start	-7.24021
▁always	-7.24264
ful	-7.24403
▁fi	-7.2444
▁listen	-7.24547
▁hell	-7.25634
▁leave	-7.25678
da	-7.25937
▁part	-7.25948
ho	-7.25978
▁last	-7.2634
▁everything	-7.26936
▁gr	-7.27123
▁show	-7.27455
▁for	-7.27657
▁al	-7.28567
▁told	-7.29167
▁miss	-7.29369
ha	-7.29377
ance	-7.29419
▁em	-7.29459
to	-7.29712
▁wan	-7.3073
▁id	-7.30835
▁v	-7.30994
▁pe	-7.31176
tch	-7.31338
▁son	-7.31831
um	-7.32236
▁real	-7.32241
▁ar	-7.3231
▁hear	-7.32439
▁gu	-7.33111
▁fl	-7.33122
▁nice	-7.33198
ble	-7.33776
▁youve	-7.33905
▁ja	-7.34197
▁believe	-7.34337
▁bad	-7.34371
▁play	-7.34882
ger	-7.35141
mo	-7.35469
▁years	-7.35509
▁ju	-7.36338
ally	-7.36549
ca	-7.36786
▁every	-7.36805
▁hold	-7.36936
▁wont	-7.36984
▁kind	-7.37213
ure	-7.3733
▁dis	-7.374
▁lot	-7.37472
▁ga	-7.37524
▁father	-7.37585
ine	-7.37653
▁things	-7.37823
▁che	-7.37866
▁h	-7.38073
▁three	-7.38076
op	-7.3828
ia	-7.38978
ling	-7.39487
▁live	-7.39789
ian	-7.39981
▁doesnt	-7.4034
▁youll	-7.40407
▁made	-7.41017
ence	-7.4103
▁pu	-7.41148
▁tri	-7.41229
▁ass	-7.41672
▁watch	-7.41903
▁coming	-7.41917
▁turn	-7.42008
if	-7.42188
▁door	-7.42385
▁mon	-7.42564
▁done	-7.42613
▁head	-7.4272
▁minute	-7.43482
▁house	-7.43562
▁cr	-7.43653
qui	-7.44089
▁world	-7.44711
▁understand	-7.44987
▁je	-7.46127
▁pre	-7.46138
▁hello	-7.46545
ound	-7.46594
▁mother	-7.46776
▁may	-7.46903
▁laugh	-7.46997
▁remember	-7.48281
ity	-7.48329
▁left	-7.48366
▁fine	-7.48399
▁came	-7.48437
▁dead	-7.49371
▁dad	-7.49783
▁baby	-7.49951
▁open	-7.50604
ak	-7.51334
ba	-7.51612
▁aint	-7.51615
que	-7.52313
▁men	-7.5233
▁ad	-7.52696
▁ni	-7.53145
▁music	-7.53421
▁run	-7.53991
▁huh	-7.54106
son	-7.54599
▁pr	-7.55633
▁mu	-7.55692
▁mom	-7.56033
▁sit	-7.56655
lu	-7.57016
▁win	-7.57609
▁enough	-7.57766
▁cl	-7.57782
▁en	-7.59352
▁course	-7.59666
▁happen	-7.60025
▁plan	-7.60191
▁might	-7.60481
▁ah	-7.61017
▁job	-7.61096
▁another	-7.61112
▁hard	-7.61227
▁war	-7.61554
▁bar	-7.62059
▁family	-7.62252
▁j	-7.62607
▁wrong	-7.62827
▁isnt	-7.62994
▁thanks	-7.63224
▁talking	-7.63308
▁ready	-7.6345
▁meet	-7.6394
▁mind	-7.63961
▁end	-7.64498
▁today	-7.6466
▁gra	-7.64865
▁cre	-7.64953
▁comm	-7.65713
▁close	-7.65778
ish	-7.65994
▁ear	-7.66802
▁sw	-7.66818
▁cla	-7.66946
▁someone	-7.67034
▁gun	-7.67255
ber	-7.67316
▁chi	-7.67438
ner	-7.67672
▁morning	-7.67907
▁cu	-7.68424
▁getting	-7.68821
one	-7.69032
▁fight	-7.69328
▁bring	-7.69584
ton	-7.69609
▁app	-7.69706
be	-7.69897
▁ok	-7.69995
▁found	-7.70326
▁best	-7.70357
tic	-7.70804
▁speak	-7.70893
▁happened	-7.7156
▁wanted	-7.72003
▁try	-7.72236
▁else	-7.72346
act	-7.72875
▁fire	-7.73223
▁brother	-7.73792
▁eye	-7.74036
ize	-7.7538
▁har	-7.75896
▁die	-7.76017
▁week	-7.76031
▁um	-7.76229
ise	-7.76284
▁second	-7.76398
▁next	-7.76592
▁looking	-7.76626
▁trying	-7.76955
▁cause	-7.77766
▁ya	-7.78007
▁wouldnt	-7.78186
▁stand	-7.78267
▁phone	-7.78306
ction	-7.78419
▁wasnt	-7.78498
ness	-7.78712
▁whos	-7.78894
▁bit	-7.78968
▁room	-7.79752
▁problem	-7.80248
▁check	-7.80377
▁use	-7.80641
▁walk	-7.80649
▁woman	-7.80743
▁cor	-7.81369
▁comp	-7.81429
▁guess	-7.82357
▁tonight	-7.82735
▁weve	-7.83285
▁high	-7.83571
▁whole	-7.84482
▁cut	-7.85011
▁knew	-7.85176
▁va	-7.8526
▁pretty	-7.85589
▁saw	-7.85885
▁john	-7.86025
▁everybody	-7.86416
for	-7.87284
va	-7.87607
▁seen	-7.88292
▁matter	-7.88341
▁pay	-7.88381
▁playing	-7.88456
▁am	-7.8846
▁hope	-7.88635
ated	-7.88715
ary	-7.8875
▁word	-7.88869
▁bra	-7.88888
▁heard	-7.89384
▁idea	-7.89689
▁together	-7.8992
▁office	-7.90028
▁school	-7.90136
ward	-7.90548
▁far	-7.90607
▁face	-7.90893
▁person	-7.91294
▁hit	-7.9196
▁went	-7.92335
▁many	-7.92627
▁change	-7.9275
▁dog	-7.93531
▁excuse	-7.93775
▁break	-7.9389
▁whoa	-7.93937
▁cop	-7.94429
▁shut	-7.95243
▁without	-7.95245
ook	-7.95332
▁business	-7.95817
ical	-7.95915
▁power	-7.96069
▁four	-7.9607
▁set	-7.96156
▁deal	-7.96308
qu	-7.96471
▁light	-7.96838
▁pick	-7.97067
nny	-7.97619
▁fun	-7.97666
▁took	-7.97778
▁eat	-7.97891
▁ab	-7.97989
▁pass	-7.98225
mon	-7.98648
▁clear	-7.98978
▁wife	-7.99096
▁hour	-7.99125
▁per	-7.99482
▁shot	-8.00129
▁happy	-8.0063
▁free	-8.00702
▁five	-8.00843
▁cra	-8.00901
▁question	-8.01112
▁nobody	-8.01718
▁read	-8.01806
▁damn	-8.02131
ship	-8.02431
▁drive	-8.02778
▁cho	-8.02784
▁gone	-8.02909
▁heart	-8.03064
▁drink	-8.03565
▁ge	-8.04166
port	-8.0422
▁already	-8.04305
▁point	-8.04362
▁gi	-8.04385
▁year	-8.04581
▁police	-8.04933
▁everyone	-8.05163
▁lost	-8.05605
▁yet	-8.06123
▁rest	-8.06598
▁case	-8.06638
▁wonder	-8.06833
▁youd	-8.07353
▁scream	-8.07475
▁arm	-8.07495
▁called	-8.08032
▁game	-8.08235
▁bill	-8.08363
▁frank	-8.08379
▁true	-8.0838
▁havent	-8.08382
▁tomorrow	-8.08639
▁ring	-8.087
▁jack	-8.08845
▁late	-8.09108
ious	-8.09436
▁ow	-8.09499
▁soon	-8.095
▁crazy	-8.09559
▁alone	-8.10084
▁hurt	-8.1027
▁line	-8.10436
▁sleep	-8.10481
▁shoot	-8.10483
▁killed	-8.10642
▁met	-8.10817
▁act	-8.1112
▁somebody	-8.11146
▁sound	-8.11495
▁forget	-8.11555
▁easy	-8.11563
▁beautiful	-8.11682
▁water	-8.12157
▁blood	-8.12221
▁anyone	-8.12358
▁stuff	-8.12499
▁young	-8.12901
▁luck	-8.13485
▁chance	-8.13737
▁ago	-8.13862
▁since	-8.14165
▁mine	-8.14464
▁black	-8.14607
▁save	-8.14791
▁jesus	-8.14836
▁six	-8.15125
▁sign	-8.15384
▁ten	-8.15615
▁actually	-8.15655
▁number	-8.15795
▁city	-8.15814
▁bla	-8.16028
▁couldnt	-8.16031
▁worry	-8.16078
▁safe	-8.16163
▁star	-8.16182
▁sea	-8.16895
▁pull	-8.16947
▁up	-8.17487
▁follow	-8.18922
▁inside	-8.20084
▁ball	-8.21054
ign	-8.21386
▁probably	-8.21408
▁half	-8.21721
▁step	-8.22121
▁order	-8.22322
▁chuckles	-8.22599
▁side	-8.22758
▁air	-8.23071
▁trust	-8.23351
▁captain	-8.24109
▁town	-8.2568
▁rob	-8.25691
▁cool	-8.2742
▁hate	-8.27753
▁taking	-8.28029
▁later	-8.2823
▁count	-8.28257
▁gave	-8.28391
▁mor	-8.28404
▁christ	-8.28614
▁sighs	-8.28779
▁continue	-8.29098
▁answer	-8.29419
▁whatever	-8.2942
▁book	-8.29521
▁promise	-8.29582
▁sweet	-8.29743
▁wish	-8.29853
▁out	-8.29902
▁supposed	-8.30146
▁rock	-8.30173
press	-8.30308
▁alright	-8.30388
▁america	-8.31362
▁death	-8.31398
▁tw	-8.31576
▁send	-8.31822
▁full	-8.32041
▁bitch	-8.32225
▁children	-8.32353
▁grand	-8.32612
▁touch	-8.3286
▁story	-8.33263
▁exactly	-8.33678
▁street	-8.33852
▁dream	-8.34355
▁gar	-8.34985
▁welcome	-8.35026
▁team	-8.35152
▁anyway	-8.35365
▁hang	-8.35476
▁yo	-8.36032
▁white	-8.36277
▁clean	-8.37274
▁though	-8.37971
▁fast	-8.37993
▁lord	-8.38138
▁lead	-8.38257
▁serious	-8.39013
▁goddamn	-8.39714
▁reason	-8.39728
▁moment	-8.40109
▁hmm	-8.4045
▁honey	-8.4063
▁murder	-8.40968
▁report	-8.41113
▁making	-8.41564
▁afraid	-8.41689
▁important	-8.42053
▁nu	-8.4247
▁learn	-8.42805
▁anybody	-8.4315
▁grunts	-8.43704
▁trouble	-8.43889
▁ahead	-8.43893
▁lose	-8.44675
▁finish	-8.44827
▁behind	-8.45008
▁alive	-8.4515
▁breath	-8.45383
▁perfect	-8.4576
▁stupid	-8.4576
▁arent	-8.45865
▁dance	-8.46409
▁drop	-8.46475
▁daughter	-8.46901
▁blow	-8.47101
▁outside	-8.47113
▁paul	-8.47607
▁almost	-8.47667
▁hurry	-8.47672
▁anymore	-8.48246
▁quick	-8.48257
▁grow	-8.4832
▁different	-8.48439
▁funny	-8.48857
▁voice	-8.49023
▁tony	-8.49581
▁fact	-8.50232
▁front	-8.50399
▁also	-8.50417
▁least	-8.50622
▁truth	-8.50994
▁lady	-8.51747
wood	-8.52067
▁piece	-8.52214
▁engine	-8.53822
▁million	-8.53825
▁doctor	-8.5423
▁sister	-8.54681
▁country	-8.5482
▁wow	-8.55005
▁body	-8.55253
▁gold	-8.55934
▁interest	-8.56309
▁master	-8.56485
▁foot	-8.56522
▁couple	-8.56727
▁control	-8.56728
▁throw	-8.56741
▁protect	-8.56801
▁key	-8.56846
▁expect	-8.56938
▁ski	-8.57161
▁slow	-8.57617
▁catch	-8.57781
▁broke	-8.58021
▁ooh	-8.5804
time	-8.58394
pped	-8.58491
▁figure	-8.59077
▁horse	-8.60413
▁picture	-8.60814
▁special	-8.61475
▁theyll	-8.61475
▁record	-8.62587
▁bye	-8.62742
side	-8.62811
▁charlie	-8.63258
▁gentlemen	-8.63709
▁sometimes	-8.63709
▁husband	-8.64162
▁child	-8.64176
▁along	-8.64864
▁daddy	-8.64904
▁park	-8.6515
▁living	-8.6555
▁christmas	-8.66235
▁bird	-8.6625
▁dark	-8.66264
field	-8.66466
▁secret	-8.66691
▁burn	-8.66848
▁quiet	-8.67163
▁henry	-8.67402
▁itll	-8.67497
▁running	-8.68153
▁favor	-8.68579
▁chatter	-8.686
▁return	-8.68809
▁food	-8.68812
▁straight	-8.68813
▁trans	-8.69567
▁certain	-8.69765
▁brought	-8.70246
▁knock	-8.70246
▁jimmy	-8.70729
▁worth	-8.71469
▁yell	-8.71545
▁heres	-8.71841
▁blue	-8.72453
▁married	-8.72955
▁deep	-8.73001
▁grunting	-8.73433
▁dinner	-8.73438
▁york	-8.73688
▁teach	-8.74956
▁become	-8.75193
▁movie	-8.75474
▁prison	-8.7596
board	-8.76778
▁strong	-8.77246
▁mmm	-8.78023
▁write	-8.78406
▁kiss	-8.789
▁surprise	-8.79068
▁strange	-8.79073
▁bank	-8.79116
▁seven	-8.80153
▁hows	-8.80939
▁goodbye	-8.812
▁attack	-8.82009
▁either	-8.8202
▁buddy	-8.82284
▁gasps	-8.8229
▁qua	-8.82463
▁radio	-8.82828
▁ladies	-8.82845
▁short	-8.83012
▁women	-8.83103
▁shouldnt	-8.83927
▁sense	-8.83989
▁parents	-8.85042
▁small	-8.85056
▁kidding	-8.85157
▁enjoy	-8.86165
▁leaving	-8.86165
▁cross	-8.86468
▁offer	-8.86744
▁choice	-8.86746
▁mistake	-8.87303
▁floor	-8.87342
▁company	-8.87599
▁direct	-8.88075
▁respect	-8.88454
▁opera	-8.8877
▁complete	-8.89331
▁angel	-8.89457
▁motherfucker	-8.90206
▁dress	-8.90316
▁court	-8.90641
▁moving	-8.90819
▁prince	-8.91101
▁james	-8.91132
▁forgot	-8.9199
▁smart	-8.93204
▁present	-8.93255
▁machine	-8.93504
▁general	-8.93806
▁mouth	-8.93818
▁panting	-8.93851
▁smell	-8.94169
▁somewhere	-8.94417
▁window	-8.94425
▁uncle	-8.9446
▁allow	-8.94748
▁peace	-8.96291
▁honest	-8.96303
▁soft	-8.96975
▁explain	-8.97537
▁president	-8.97537
▁indistinct	-8.98173
▁relax	-8.98821
▁agree	-8.98842
▁michael	-8.99135
▁south	-8.99255
▁apart	-9.00107
▁glass	-9.00111
▁detective	-9.00431
▁thousand	-9.00759
▁except	-9.0076
▁green	-9.00793
▁truck	-9.01086
▁drug	-9.01127
▁groans	-9.01416
▁decide	-9.01769
▁theyve	-9.02409
▁future	-9.0241
▁asshole	-9.0308
▁hundred	-9.03412
▁bastard	-9.03415
▁perhaps	-9.03748
▁calm	-9.0421
▁fault	-9.04444
▁coffee	-9.05107
▁crime	-9.0547
▁hospital	-9.06138
▁forever	-9.06498
▁birthday	-9.06831
▁destroy	-9.0788
▁possible	-9.08232
▁animal	-9.08235
▁entire	-9.08587
▁swear	-9.08607
▁weird	-9.09674
▁lawyer	-9.10733
▁notice	-9.10874
▁english	-9.11094
▁north	-9.11188
▁bullshit	-9.11458
▁club	-9.11484
▁crowd	-9.122
▁treat	-9.12622
▁across	-9.12926
▁weapon	-9.12926
▁service	-9.12926
▁normal	-9.14044
▁judge	-9.14056
▁chief	-9.14063
▁mountain	-9.14416
▁spirit	-9.14424
▁worse	-9.1443
▁elect	-9.14719
▁system	-9.14792
▁private	-9.15548
▁ticket	-9.15554
▁arrest	-9.16325
▁island	-9.16693
▁dragon	-9.1824
▁search	-9.18259
▁giving	-9.18643
▁nigger	-9.19026
▁french	-9.19813
▁anywhere	-9.20607
▁travel	-9.2111
▁suppose	-9.212
▁attention	-9.21812
▁security	-9.21812
q	-9.35278
