<unk>	0
<s>	0
</s>	0
s	-3.75555
▁im	-4.42418
▁dont	-4.47286
▁know	-4.50089
▁get	-4.72215
▁right	-4.79511
▁go	-4.80393
▁like	-4.83455
▁yeah	-4.8586
▁got	-4.90896
▁youre	-4.91166
▁come	-4.9313
▁na	-5.03326
▁okay	-5.0883
▁oh	-5.11504
▁thats	-5.12275
▁one	-5.1749
▁well	-5.19858
▁want	-5.2911
▁gon	-5.2999
ing	-5.30084
▁good	-5.34367
▁see	-5.37115
▁hey	-5.39559
▁think	-5.40008
▁man	-5.49319
▁back	-5.5579
ed	-5.55812
▁look	-5.58329
▁take	-5.62232
▁l	-5.66741
▁time	-5.66866
▁us	-5.68033
▁hes	-5.69748
▁fuck	-5.72417
▁yes	-5.74041
▁tell	-5.74422
▁going	-5.75493
▁cant	-5.76984
▁need	-5.78402
▁ill	-5.81262
▁say	-5.81272
▁fucking	-5.81801
▁would	-5.8724
▁shit	-5.893
▁didnt	-5.9057
▁something	-5.90571
▁really	-5.91298
d	-5.94923
▁whats	-5.97091
▁lets	-5.97402
▁sorry	-6.00004
▁mean	-6.00055
▁make	-6.00999
▁let	-6.02109
▁could	-6.0275
▁please	-6.0313
▁	-6.03744
▁never	-6.04932
▁little	-6.05712
▁way	-6.05732
▁love	-6.09289
▁give	-6.14869
▁god	-6.17715
▁people	-6.17877
y	-6.18836
▁said	-6.19887
▁two	-6.21028
▁theres	-6.22185
▁ive	-6.23243
▁help	-6.24413
▁thank	-6.25392
▁shes	-6.26805
▁sure	-6.32869
▁even	-6.35947
▁thing	-6.38063
▁much	-6.38831
e	-6.41153
▁stop	-6.42392
▁put	-6.43111
▁call	-6.44809
er	-6.47154
▁day	-6.47256
▁uh	-6.47626
▁anything	-6.47663
▁night	-6.49721
▁work	-6.49917
▁talk	-6.50007
▁maybe	-6.5069
▁wan	-6.5226
▁wait	-6.525
▁theyre	-6.52546
▁home	-6.52613
▁still	-6.52703
▁life	-6.53165
▁nothing	-6.53335
▁hell	-6.55014
▁keep	-6.56406
▁guys	-6.56832
ly	-6.5758
▁find	-6.58347
▁great	-6.5885
▁first	-6.59843
▁away	-6.60688
▁mr	-6.6089
▁everything	-6.61139
▁guy	-6.62605
▁thought	-6.63682
▁ta	-6.64244
▁better	-6.65023
▁around	-6.66268
▁last	-6.66282
▁baby	-6.66628
▁name	-6.66726
▁money	-6.68262
▁feel	-6.69522
▁kill	-6.69612
▁stay	-6.70172
▁told	-6.70297
▁leave	-6.70481
▁new	-6.72676
▁ever	-6.73132
▁nice	-6.7458
▁years	-6.74665
▁car	-6.75751
▁always	-6.7606
▁long	-6.76912
▁every	-6.7746
in	-6.77751
▁things	-6.78741
▁old	-6.7951
▁fine	-6.79523
▁hi	-6.79591
▁youve	-6.79892
▁listen	-6.8002
▁dead	-6.80298
▁three	-6.80719
▁mom	-6.83463
▁big	-6.83619
▁kind	-6.84295
▁coming	-6.84547
r	-6.85759
▁doesnt	-6.86256
▁believe	-6.86655
▁remember	-6.87196
▁door	-6.87438
▁id	-6.87885
▁sir	-6.88216
▁made	-6.88289
▁done	-6.88473
▁boy	-6.88496
▁bad	-6.88704
▁house	-6.8893
▁hear	-6.89616
▁real	-6.9035
▁lot	-6.90486
▁youll	-6.90736
▁place	-6.91144
▁hello	-6.91293
▁girl	-6.9153
▁aint	-6.93997
▁happened	-6.94892
a	-6.94908
▁woman	-6.95186
▁wont	-6.95666
▁mother	-6.96151
▁son	-6.96726
▁dad	-6.96739
▁huh	-6.97858
▁someone	-6.98941
t	-6.99691
▁move	-7.00534
▁music	-7.01352
▁understand	-7.01361
▁wrong	-7.01361
▁head	-7.01434
▁ask	-7.0177
▁thanks	-7.02003
▁enough	-7.02385
▁wasnt	-7.02385
▁must	-7.02639
▁isnt	-7.03161
▁talking	-7.05586
▁care	-7.06834
l	-7.06991
▁wanted	-7.0749
n	-7.08312
▁course	-7.08488
▁show	-7.09214
▁open	-7.09621
▁next	-7.10143
▁play	-7.10201
▁else	-7.10423
▁family	-7.10601
▁left	-7.10988
▁father	-7.11379
▁trying	-7.11977
▁getting	-7.12228
▁um	-7.1274
▁hold	-7.14205
▁came	-7.14398
▁another	-7.14696
▁might	-7.1528
m	-7.15427
▁world	-7.15475
▁friend	-7.16769
▁looking	-7.17964
▁today	-7.19161
▁room	-7.20396
▁killed	-7.21639
▁mind	-7.21649
▁hope	-7.21667
▁best	-7.22909
▁die	-7.23133
▁damn	-7.23454
▁tonight	-7.24475
▁saw	-7.25121
▁try	-7.25162
▁lm	-7.25168
▁live	-7.25456
▁shut	-7.25969
▁many	-7.26306
▁may	-7.27044
▁school	-7.27083
▁phone	-7.2729
▁went	-7.27418
▁job	-7.27578
▁cause	-7.27807
o	-7.27878
▁playing	-7.28331
▁guess	-7.28403
▁kid	-7.28529
es	-7.28967
▁already	-7.2941
▁found	-7.2941
▁miss	-7.30058
▁hard	-7.311
▁story	-7.31456
▁heard	-7.32544
▁used	-7.326
▁knew	-7.32841
▁men	-7.33229
▁jesus	-7.33541
▁pretty	-7.33541
▁fight	-7.33576
▁wouldnt	-7.33626
▁ready	-7.34766
▁turn	-7.34773
▁business	-7.35283
▁whole	-7.35323
▁took	-7.35674
▁watch	-7.35882
▁face	-7.36069
▁sit	-7.36715
▁morning	-7.36759
al	-7.36822
▁bring	-7.37062
▁wife	-7.3712
▁end	-7.37802
▁meet	-7.38464
▁everybody	-7.39017
▁together	-7.3933
▁use	-7.4015
▁actually	-7.40838
▁start	-7.40867
▁whos	-7.41121
▁called	-7.41443
▁days	-7.42296
▁bitch	-7.42306
▁gun	-7.42482
▁idea	-7.42513
▁friends	-7.4253
▁john	-7.42712
▁gone	-7.43464
▁kids	-7.43759
▁seen	-7.43779
▁problem	-7.44053
▁hand	-7.45977
▁crazy	-7.46269
▁five	-7.46681
▁ass	-7.47196
▁havent	-7.47474
▁run	-7.47778
▁alone	-7.4788
p	-7.4791
▁happy	-7.48286
▁blood	-7.48487
▁matter	-7.48629
▁tomorrow	-7.48693
▁cut	-7.49237
▁ago	-7.50767
▁saying	-7.50919
i	-7.51094
▁hit	-7.51578
▁says	-7.52034
▁anyone	-7.52869
▁probably	-7.54157
c	-7.54435
▁anyway	-7.5459
▁beautiful	-7.5459
▁yet	-7.54596
▁true	-7.55024
▁hands	-7.55045
▁second	-7.55438
▁since	-7.55465
▁everyone	-7.55939
▁read	-7.5609
▁person	-7.56281
▁police	-7.56308
▁looks	-7.56474
▁weve	-7.56785
▁deal	-7.57179
▁bit	-7.5731
▁mine	-7.57557
▁hurt	-7.57677
k	-7.58078
▁supposed	-7.58196
▁fire	-7.58389
▁exactly	-7.58585
▁easy	-7.59025
▁whatever	-7.59025
▁year	-7.59076
▁couldnt	-7.59119
▁drink	-7.60032
▁brother	-7.60494
▁excuse	-7.61319
▁whoa	-7.61788
▁lost	-7.62265
▁young	-7.62568
▁wheres	-7.62688
▁pay	-7.62967
▁inside	-7.63196
st	-7.63227
▁town	-7.63694
▁somebody	-7.64351
▁four	-7.64623
▁gave	-7.64639
▁without	-7.65585
▁later	-7.6568
▁close	-7.65843
▁black	-7.6607
▁death	-7.66072
▁happen	-7.66647
▁shot	-7.66668
▁youd	-7.67059
▁ah	-7.67302
▁stuff	-7.67543
ve	-7.67601
▁eat	-7.6772
▁mark	-7.68293
▁game	-7.68325
▁bed	-7.68386
▁forget	-7.68523
▁cool	-7.68742
▁soon	-7.704
▁body	-7.70548
▁daughter	-7.70912
▁paul	-7.71063
▁eyes	-7.71779
▁fuckin	-7.71832
▁though	-7.71989
▁stupid	-7.72087
▁goddamn	-7.7261
▁sleep	-7.73152
▁stand	-7.73176
▁minutes	-7.73179
▁light	-7.73424
▁break	-7.7368
▁point	-7.7374
▁jimmy	-7.74176
▁ok	-7.74217
▁check	-7.74356
▁lts	-7.74494
▁taking	-7.74729
▁met	-7.74735
ion	-7.74815
▁wants	-7.74993
▁daddy	-7.75205
▁worry	-7.75263
▁walk	-7.75304
▁shoot	-7.75569
▁boys	-7.7569
▁red	-7.7585
▁minute	-7.76799
▁thinking	-7.77191
▁sometimes	-7.77549
▁laughing	-7.7758
▁mike	-7.77735
▁died	-7.77928
▁different	-7.7794
▁trust	-7.78093
▁girls	-7.78243
g	-7.78264
▁dr	-7.78293
▁week	-7.79035
▁word	-7.79041
▁nobody	-7.79069
f	-7.79084
▁working	-7.79162
en	-7.79366
▁part	-7.7937
▁lord	-7.79598
▁making	-7.79605
▁sighs	-7.79655
▁honey	-7.80157
▁hang	-7.80198
▁chuckles	-7.80265
▁anybody	-7.80718
▁em	-7.81019
est	-7.81484
▁continues	-7.82393
▁half	-7.82419
▁max	-7.82426
▁question	-7.82582
▁late	-7.82847
▁un	-7.82938
▁water	-7.83006
▁rest	-7.83062
▁book	-7.83093
▁heart	-7.83448
▁jack	-7.83551
▁eddie	-7.83575
▁couple	-7.83576
▁buy	-7.84419
▁white	-7.84744
on	-7.84958
▁far	-7.85599
▁de	-7.85677
▁war	-7.85746
▁welcome	-7.85921
ie	-7.8682
▁anymore	-7.87115
▁husband	-7.87945
▁case	-7.88133
▁six	-7.88308
▁change	-7.88315
▁party	-7.89157
▁doctor	-7.89193
▁chance	-7.89828
▁promise	-7.89919
▁christ	-7.90087
▁set	-7.9018
▁win	-7.90482
▁clear	-7.91489
▁bill	-7.91989
▁send	-7.92047
▁bullshit	-7.92825
h	-7.93121
▁write	-7.93782
▁makes	-7.9403
▁hows	-7.94712
▁high	-7.9489
▁goes	-7.9497
▁hmm	-7.95259
▁almost	-7.95898
▁hours	-7.95952
▁billy	-7.96109
▁hate	-7.96151
▁ha	-7.96955
▁rock	-7.96996
▁times	-7.97311
▁side	-7.97779
▁fun	-7.97998
▁free	-7.98042
▁small	-7.98398
▁children	-7.98556
▁screaming	-7.987
▁full	-7.99177
▁least	-7.99232
▁trouble	-7.99232
b	-7.9936
▁line	-7.99772
▁months	-7.99815
▁voice	-8.00446
▁sick	-8.00634
▁la	-8.00976
▁speak	-8.01163
▁bye	-8.01287
▁pick	-8.01813
▁behind	-8.01981
▁outside	-8.01983
▁alive	-8.01994
ic	-8.02251
▁th	-8.02559
▁afraid	-8.0268
▁important	-8.0268
▁funny	-8.02689
▁asked	-8.03018
▁sounds	-8.03235
▁sweet	-8.03346
▁touch	-8.03911
▁mrs	-8.04009
▁b	-8.04035
▁either	-8.04094
u	-8.04186
▁s	-8.04336
▁safe	-8.04537
▁cop	-8.04627
▁plan	-8.04662
or	-8.04711
▁also	-8.04809
▁tried	-8.04852
▁c	-8.05477
▁hour	-8.05498
▁dude	-8.05501
▁hot	-8.05519
▁women	-8.05527
▁wow	-8.0553
▁dog	-8.0577
▁laughs	-8.05926
▁save	-8.06733
▁speaking	-8.0677
▁drive	-8.06817
▁telling	-8.06866
▁started	-8.06987
▁cold	-8.07028
▁waiting	-8.07093
▁indistinct	-8.07575
▁front	-8.07717
▁piece	-8.07738
▁bet	-8.07749
▁dance	-8.08116
▁city	-8.08479
▁moment	-8.0853
▁scared	-8.08596
le	-8.09623
▁worth	-8.09724
▁arent	-8.09959
w	-8.10289
▁in	-8.10773
man	-8.10832
▁order	-8.11182
▁number	-8.11575
el	-8.11679
▁ten	-8.12007
ies	-8.12122
▁hair	-8.12282
▁child	-8.13026
▁johnny	-8.13038
ar	-8.13356
ers	-8.134
▁wish	-8.13733
▁drop	-8.13804
▁quite	-8.13892
▁feeling	-8.14424
▁itll	-8.14591
▁g	-8.14616
▁living	-8.14644
▁sister	-8.14749
▁control	-8.15384
▁truth	-8.15384
▁straight	-8.15384
▁radio	-8.15386
▁team	-8.1541
▁lll	-8.15553
▁sound	-8.15554
▁knows	-8.15704
▁theyll	-8.16184
▁leaving	-8.16184
▁mouth	-8.17005
▁ya	-8.17029
▁grunts	-8.17149
▁beat	-8.17289
▁reason	-8.17788
▁dave	-8.17822
▁dream	-8.17975
▁serious	-8.18483
▁shouldnt	-8.18623
▁lady	-8.18644
▁needs	-8.19044
▁office	-8.1933
▁country	-8.19457
▁answer	-8.19657
▁comes	-8.19944
▁brought	-8.20283
an	-8.21011
▁pull	-8.2105
▁fast	-8.2174
▁perfect	-8.21939
▁groans	-8.22
▁lose	-8.22755
▁charlie	-8.22825
▁annie	-8.22827
▁act	-8.23135
▁choice	-8.23687
▁road	-8.23697
▁power	-8.24084
▁clean	-8.24214
▁james	-8.24565
▁ahead	-8.24566
▁grunting	-8.24594
▁top	-8.2463
▁means	-8.24652
▁re	-8.25139
▁state	-8.25177
▁dinner	-8.25435
▁wake	-8.25438
▁motherfucker	-8.25871
▁murder	-8.25897
▁j	-8.25969
▁f	-8.26274
▁french	-8.26319
▁ride	-8.27022
▁lives	-8.2703
▁mommy	-8.27213
▁mmhmm	-8.27237
▁bar	-8.27659
v	-8.27835
▁born	-8.27962
▁along	-8.28114
▁weeks	-8.28117
▁peter	-8.28236
▁throw	-8.28516
▁fault	-8.29022
▁married	-8.29022
▁calm	-8.29031
▁taken	-8.29293
▁finish	-8.29558
▁sex	-8.2974
▁till	-8.29748
▁follow	-8.29984
▁mama	-8.30197
▁eye	-8.30492
▁lt	-8.30767
▁human	-8.3085
▁happening	-8.30868
▁none	-8.30904
▁sign	-8.30966
▁luck	-8.31645
able	-8.31752
▁coffee	-8.318
▁blow	-8.31818
▁lucky	-8.32005
▁crying	-8.3209
re	-8.32489
▁mmm	-8.32714
▁stick	-8.32888
▁street	-8.33387
▁werent	-8.33696
▁buddy	-8.33696
▁grab	-8.33704
▁sam	-8.3373
▁able	-8.33954
▁fucked	-8.33997
▁asking	-8.34588
▁company	-8.34658
▁coach	-8.34658
▁hurry	-8.3466
▁shall	-8.3466
less	-8.34989
▁bag	-8.35175
▁million	-8.3535
▁become	-8.3535
▁shell	-8.35467
▁quick	-8.35488
▁air	-8.35603
▁kiss	-8.35639
▁yall	-8.35645
▁cover	-8.35724
▁fat	-8.35766
▁news	-8.36027
▁step	-8.36365
▁careful	-8.36547
▁birthday	-8.3661
▁fact	-8.3749
▁happens	-8.37644
▁heres	-8.37805
▁catch	-8.38019
▁train	-8.38212
▁mad	-8.38537
▁running	-8.38601
▁kidding	-8.38604
▁past	-8.38643
▁sense	-8.39033
▁loved	-8.39168
z	-8.39241
▁ben	-8.39392
▁teddy	-8.3961
▁meeting	-8.39952
▁weird	-8.40483
▁alright	-8.4063
ation	-8.40668
▁drunk	-8.41616
▁seven	-8.41646
▁seat	-8.4165
ful	-8.41673
▁lie	-8.42024
▁changed	-8.42103
▁glad	-8.42546
▁smell	-8.42575
▁dark	-8.42686
▁somewhere	-8.42702
▁explain	-8.42702
▁dear	-8.42716
▁parents	-8.43074
▁calling	-8.43103
▁gets	-8.43229
▁yo	-8.4327
▁north	-8.43754
▁felt	-8.43754
▁hospital	-8.43754
▁eight	-8.43772
▁feet	-8.43776
▁cops	-8.4385
▁hed	-8.44022
▁seems	-8.4476
▁worse	-8.44818
▁strong	-8.45739
▁respect	-8.45892
▁food	-8.45893
▁crowd	-8.45909
▁poor	-8.45914
▁shed	-8.46037
▁special	-8.46085
us	-8.46637
▁quiet	-8.46836
▁glass	-8.46913
▁asshole	-8.4694
▁words	-8.46981
▁holy	-8.47051
▁art	-8.47104
▁pain	-8.477
ive	-8.47959
▁finally	-8.48155
▁ones	-8.48728
▁secret	-8.49182
▁fair	-8.49191
▁dick	-8.49195
▁jr	-8.49321
▁wed	-8.49535
▁breathing	-8.49557
▁du	-8.50073
▁killer	-8.5012
▁sort	-8.50334
▁tired	-8.50337
▁bastard	-8.50344
▁learn	-8.50554
▁gasps	-8.50584
▁watching	-8.50735
▁less	-8.51021
▁slow	-8.5132
▁phil	-8.51452
▁henry	-8.51456
▁absolutely	-8.5147
▁st	-8.51581
▁sell	-8.52128
▁matt	-8.5218
▁seeing	-8.52475
▁theyve	-8.526
▁uncle	-8.52609
▁names	-8.52648
▁band	-8.52733
▁age	-8.53313
▁t	-8.5337
▁figure	-8.53513
▁rich	-8.53711
ch	-8.53722
▁ooh	-8.53763
▁relax	-8.53763
▁captain	-8.53763
▁harry	-8.53769
▁window	-8.5387
▁song	-8.54074
▁seem	-8.541
▁longer	-8.54656
▁smart	-8.54766
nt	-8.54945
▁pete	-8.54992
up	-8.55892
ur	-8.55951
▁middle	-8.56129
▁todd	-8.5613
▁swear	-8.56131
▁mum	-8.56197
▁wonderful	-8.56203
▁looked	-8.56271
▁month	-8.56302
▁chain	-8.56338
▁fix	-8.56952
▁class	-8.57007
▁gold	-8.57133
▁floor	-8.5733
▁across	-8.57334
▁york	-8.57334
▁kept	-8.57335
▁yeh	-8.57342
▁groaning	-8.57344
▁single	-8.57357
▁p	-8.57679
▁officer	-8.57685
▁stu	-8.57694
▁test	-8.58082
ity	-8.58434
▁russell	-8.58554
▁lisa	-8.58555
▁k	-8.5931
▁king	-8.59355
▁honest	-8.59654
▁grand	-8.59766
▁ladies	-8.59791
▁type	-8.59802
▁nine	-8.59843
▁early	-8.59888
▁ring	-8.59939
▁table	-8.60114
▁prison	-8.60853
▁n	-8.60887
▁anywhere	-8.61038
▁south	-8.61038
▁caught	-8.61041
▁janet	-8.61061
▁richie	-8.61116
▁breathe	-8.61456
▁box	-8.61728
te	-8.61896
▁owe	-8.6192
▁report	-8.62053
▁america	-8.62081
▁fall	-8.62093
▁goodbye	-8.62305
▁boss	-8.62322
▁alan	-8.62324
▁boat	-8.62349
▁busy	-8.62469
▁round	-8.62626
▁bank	-8.62633
▁maam	-8.63593
▁needed	-8.63618
▁van	-8.63638
▁roll	-8.63908
▁picture	-8.63942
▁missing	-8.6418
▁spend	-8.64385
▁chatter	-8.64405
▁killing	-8.64434
▁goin	-8.64774
▁blue	-8.64885
▁others	-8.64885
▁giving	-8.64889
▁moving	-8.64893
▁lily	-8.6499
▁lay	-8.65023
▁soul	-8.65271
▁nigga	-8.65273
▁works	-8.65349
▁record	-8.65542
▁bell	-8.66079
▁amazing	-8.66201
▁rather	-8.66202
ist	-8.66258
▁sad	-8.66294
et	-8.66357
▁burn	-8.66608
▁present	-8.6663
um	-8.66715
▁offer	-8.67088
▁meant	-8.67472
▁doin	-8.67597
▁wonder	-8.67908
▁pass	-8.67913
▁smoke	-8.68608
▁known	-8.68802
▁cohen	-8.68885
▁worried	-8.68885
▁sent	-8.68918
▁missed	-8.69051
it	-8.69093
▁hundred	-8.69376
ia	-8.6942
▁talked	-8.6954
▁following	-8.69618
▁american	-8.69624
▁simple	-8.70142
▁broke	-8.70186
▁mm	-8.70218
▁possible	-8.70255
▁darling	-8.70256
▁gentlemen	-8.70258
▁judge	-8.70267
▁terrible	-8.7027
▁drugs	-8.70279
▁treat	-8.70304
▁ice	-8.70368
▁return	-8.70743
▁fool	-8.70785
▁wall	-8.70895
▁arms	-8.71043
▁forever	-8.71646
▁allen	-8.71657
▁turned	-8.7173
▁shouting	-8.71804
▁warm	-8.71827
ne	-8.71865
▁cell	-8.72165
▁worked	-8.72302
▁w	-8.72688
▁quit	-8.72904
▁arm	-8.73021
▁president	-8.73052
▁ground	-8.73053
▁nigger	-8.73053
▁tommy	-8.73053
▁alice	-8.73058
▁rose	-8.73065
▁kevin	-8.73078
▁seconds	-8.73112
il	-8.73214
▁mo	-8.74171
▁laugh	-8.74235
▁questions	-8.74252
▁frank	-8.743
▁walking	-8.74373
▁definitely	-8.74481
▁sake	-8.74493
▁paid	-8.74494
▁super	-8.74521
▁sitting	-8.74535
ass	-8.74699
▁handle	-8.75765
ro	-8.7592
▁situation	-8.7593
▁strike	-8.7593
▁ryan	-8.75931
▁tv	-8.75961
▁lying	-8.75966
▁unless	-8.75991
id	-8.76194
▁mess	-8.76286
ra	-8.7648
ate	-8.76541
▁a	-8.76627
▁ball	-8.76718
▁strange	-8.7722
▁short	-8.7725
▁mothers	-8.77383
▁attention	-8.77401
▁church	-8.77401
▁major	-8.77401
▁private	-8.77401
▁difference	-8.77401
▁forward	-8.77401
▁panting	-8.77404
▁moved	-8.77441
▁hotel	-8.77465
▁mission	-8.77617
▁star	-8.77669
▁enjoy	-8.77988
▁expect	-8.78006
▁fear	-8.78123
▁william	-8.78141
▁forgive	-8.78791
▁language	-8.78894
▁choose	-8.78894
▁alex	-8.78897
▁wade	-8.78928
▁ed	-8.78953
▁stopped	-8.78959
▁accident	-8.79199
▁breath	-8.7941
▁interview	-8.80013
▁surprise	-8.80146
▁near	-8.80255
▁tape	-8.80291
▁future	-8.80409
▁writing	-8.80443
ul	-8.80534
▁seriously	-8.80669
th	-8.80804
▁push	-8.81037
▁club	-8.81233
▁wear	-8.8125
▁trip	-8.81651
▁stan	-8.81893
▁forgot	-8.81942
▁pleasure	-8.81947
▁security	-8.81962
▁corner	-8.81977
▁katie	-8.82019
▁west	-8.82035
▁park	-8.82669
▁movie	-8.82837
▁letter	-8.82988
▁rules	-8.83101
▁lock	-8.83131
▁kick	-8.83146
▁suppose	-8.83249
▁sea	-8.83293
▁general	-8.8336
▁joe	-8.83411
▁bought	-8.8351
▁english	-8.8351
▁perhaps	-8.8351
▁dying	-8.83511
▁babies	-8.83512
▁christmas	-8.83512
▁appreciate	-8.83516
▁hungry	-8.83516
▁upon	-8.83531
ry	-8.83533
▁earth	-8.83549
▁howd	-8.83568
▁taste	-8.83619
▁takes	-8.83661
▁e	-8.83719
▁army	-8.83736
▁building	-8.83773
ness	-8.83936
▁land	-8.84398
rs	-8.84503
▁i	-8.84504
▁bus	-8.8458
is	-8.84772
▁deep	-8.84807
▁fly	-8.84906
▁standing	-8.85008
▁sweetheart	-8.85097
▁instead	-8.85097
▁spent	-8.85103
▁neck	-8.85104
▁count	-8.85111
▁personal	-8.8516
▁lead	-8.85227
▁cheering	-8.85231
▁hide	-8.85255
▁sun	-8.85308
▁fighting	-8.85738
▁bother	-8.85799
x	-8.86009
▁dreams	-8.86236
▁cry	-8.86258
▁share	-8.86451
▁con	-8.86519
▁entire	-8.86567
▁upstairs	-8.8671
▁island	-8.8671
▁favorite	-8.86712
▁girlfriend	-8.86716
▁chicken	-8.86719
▁babe	-8.86734
▁keys	-8.87
▁ringing	-8.8736
▁shoes	-8.87422
▁jump	-8.87475
age	-8.87529
▁system	-8.87716
▁brain	-8.87761
la	-8.8782
▁given	-8.87967
▁prove	-8.8826
▁favor	-8.88347
▁station	-8.88387
▁dirty	-8.88392
▁copy	-8.8882
▁leg	-8.88943
▁mistake	-8.89331
lo	-8.89422
▁paper	-8.89444
▁honor	-8.89625
▁ghost	-8.90016
▁yesterday	-8.90016
▁tough	-8.90016
▁pants	-8.90026
▁clothes	-8.90029
▁cash	-8.90032
▁field	-8.90071
▁beth	-8.9011
▁dollars	-8.90577
▁fit	-8.9059
▁d	-8.90674
▁listening	-8.90694
to	-8.90699
▁law	-8.91094
▁holding	-8.91213
▁ex	-8.91243
▁realize	-8.91473
▁fell	-8.91599
▁tight	-8.91669
▁nothin	-8.91671
▁david	-8.91711
▁london	-8.91711
▁twice	-8.91711
▁crime	-8.91711
▁proud	-8.91713
▁double	-8.91716
▁green	-8.9173
▁eggsy	-8.91759
▁pa	-8.91777
▁completely	-8.91785
▁eh	-8.91798
ment	-8.9187
▁sing	-8.92109
▁cute	-8.92173
▁legs	-8.92303
▁deserve	-8.92631
▁protect	-8.92853
▁message	-8.92919
▁imagine	-8.93161
▁screams	-8.93384
▁dumb	-8.9342
▁contact	-8.93435
▁especially	-8.93435
▁heaven	-8.93435
▁lampley	-8.93435
▁nancy	-8.93435
▁sweetie	-8.9353
▁bigger	-8.93543
▁post	-8.93823
▁bro	-8.93851
▁aw	-8.94022
▁teach	-8.94431
▁lf	-8.94506
▁per	-8.94713
▁nick	-8.94764
▁gas	-8.94788
▁brothers	-8.94814
▁ray	-8.94826
▁escape	-8.94923
▁julia	-8.95113
▁except	-8.95188
▁scene	-8.95189
▁outta	-8.95197
▁dangerous	-8.95197
▁information	-8.95198
▁driving	-8.95199
ck	-8.95488
▁hole	-8.95494
▁nuts	-8.95536
▁starting	-8.95737
▁v	-8.95767
▁cost	-8.95805
out	-8.95923
▁states	-8.96141
ant	-8.96172
▁bear	-8.96765
▁college	-8.96975
▁government	-8.96975
▁shouldve	-8.96975
▁summer	-8.96975
▁monkey	-8.96976
▁roger	-8.96977
▁court	-8.97006
▁moon	-8.97031
▁wild	-8.97036
▁lars	-8.97038
▁interesting	-8.97205
▁beer	-8.97275
ted	-8.97414
▁dress	-8.97435
▁saved	-8.97622
▁finished	-8.97737
▁charge	-8.98069
▁evening	-8.98275
ous	-8.98298
ll	-8.98329
▁account	-8.9836
▁adam	-8.98376
▁boyfriend	-8.98793
▁detective	-8.98794
▁decision	-8.98795
▁apartment	-8.98806
▁store	-8.98809
▁stuck	-8.98816
▁over	-8.98871
▁neil	-8.98911
▁list	-8.99252
▁ran	-8.99325
▁join	-8.99601
▁promised	-8.99639
▁visit	-8.99691
▁balls	-8.99749
▁cross	-8.99751
▁lve	-9.00113
▁camp	-9.00121
▁r	-9.00137
▁screw	-9.00259
▁bullet	-9.00268
▁peace	-9.00326
▁camera	-9.00347
▁evidence	-9.00645
▁dasong	-9.00645
▁wrote	-9.00645
▁wedding	-9.00647
▁whore	-9.00655
▁molly	-9.00684
▁drinking	-9.00787
at	-9.00799
▁interested	-9.00829
▁co	-9.00997
▁ow	-9.01191
▁low	-9.01278
▁couldve	-9.01588
▁pack	-9.01643
▁joke	-9.02037
▁arrest	-9.02144
▁feed	-9.02271
▁key	-9.0231
▁neither	-9.02532
▁bunch	-9.02536
▁rid	-9.02542
▁fake	-9.02544
▁madame	-9.02594
ty	-9.02847
▁miles	-9.03116
▁casey	-9.03178
▁knock	-9.03545
▁guard	-9.03736
▁records	-9.03859
▁pen	-9.03993
▁books	-9.04128
na	-9.04186
am	-9.0433
▁space	-9.04453
▁congratulations	-9.04455
▁kitchen	-9.04455
▁nowhere	-9.04455
▁video	-9.04455
▁whether	-9.04455
▁devil	-9.04455
▁river	-9.04457
▁heavily	-9.0447
▁vincent	-9.0447
▁scottie	-9.04479
▁doubt	-9.04488
as	-9.04663
▁whoo	-9.05006
▁mate	-9.05277
▁pray	-9.05322
▁picked	-9.05525
ent	-9.05726
ian	-9.05785
▁rain	-9.05958
▁an	-9.06025
▁service	-9.06123
▁horse	-9.0617
▁nervous	-9.06416
▁throat	-9.06416
▁whirring	-9.06416
▁risk	-9.06418
▁wind	-9.06434
▁steal	-9.06435
▁begin	-9.06454
▁shh	-9.0651
▁amen	-9.06514
▁united	-9.06603
▁pre	-9.068
▁locked	-9.06899
▁map	-9.06938
▁da	-9.07034
▁lovely	-9.07146
▁stone	-9.0738
▁feels	-9.07445
▁bite	-9.07866
▁color	-9.07992
▁agree	-9.08138
▁cousin	-9.08144
▁weapon	-9.08175
▁brooks	-9.08416
▁clown	-9.08416
▁somehow	-9.08416
▁worst	-9.08416
▁esther	-9.08416
▁lunch	-9.08416
▁prick	-9.0842
▁yep	-9.08435
▁smile	-9.08444
▁jones	-9.08452
▁certainly	-9.08514
▁pal	-9.09463
▁problems	-9.09662
▁engine	-9.09699
▁group	-9.09865
▁be	-9.09936
▁plane	-9.10017
▁reach	-9.10095
▁lived	-9.10102
▁machine	-9.10265
▁shooting	-9.10306
▁final	-9.1033
▁soft	-9.10384
▁price	-9.10441
▁chief	-9.10457
▁heavy	-9.10457
▁knife	-9.10457
▁midnight	-9.10457
▁harris	-9.10458
▁edward	-9.10461
ri	-9.10464
▁grandma	-9.1047
▁chair	-9.10472
▁simon	-9.10528
▁usually	-9.10545
▁bob	-9.10726
▁quickly	-9.10754
ton	-9.1081
▁hat	-9.10965
▁passed	-9.11042
▁cheers	-9.11248
▁harder	-9.11376
▁hook	-9.11799
▁grow	-9.11954
ary	-9.12342
▁angry	-9.1254
▁apologize	-9.1254
▁whyd	-9.1254
▁operation	-9.12541
▁jerry	-9.12544
▁leena	-9.12547
▁practice	-9.12548
▁candyman	-9.12561
▁sally	-9.12598
▁decided	-9.1281
▁tree	-9.12927
▁sean	-9.12958
▁pro	-9.1303
ce	-9.13134
ta	-9.13287
co	-9.13388
▁named	-9.13485
ts	-9.13502
▁calls	-9.13565
time	-9.13932
▁piss	-9.14226
▁ho	-9.14321
▁carry	-9.14326
▁decide	-9.14424
▁loud	-9.14445
▁spirit	-9.14545
▁afternoon	-9.14668
▁beyond	-9.14668
▁history	-9.14668
▁uhhuh	-9.14668
▁admit	-9.14668
▁beverly	-9.14668
▁gift	-9.14668
▁taught	-9.1467
▁pool	-9.14699
▁position	-9.14701
▁broken	-9.14798
▁hoping	-9.14925
▁reading	-9.14939
▁po	-9.15186
▁rolling	-9.155
▁wine	-9.15615
▁search	-9.1633
▁block	-9.16352
▁raise	-9.16577
▁command	-9.16602
▁al	-9.1661
▁bridge	-9.16732
▁o	-9.16781
▁agent	-9.16788
▁rent	-9.168
▁what	-9.16825
▁drug	-9.16839
▁nah	-9.16842
▁memory	-9.16842
▁shame	-9.16843
▁paris	-9.16848
▁grace	-9.16848
▁wet	-9.16898
▁buzzing	-9.16924
se	-9.16942
ol	-9.17239
▁awful	-9.1743
▁learned	-9.17585
▁pop	-9.18116
▁crack	-9.18133
▁ma	-9.18322
▁walked	-9.18415
▁sisters	-9.18623
▁press	-9.18708
li	-9.18777
▁doc	-9.18861
▁match	-9.18974
▁idiot	-9.1903
▁alarm	-9.19064
▁insane	-9.19064
▁marriage	-9.19064
▁pussy	-9.19064
▁tricia	-9.19064
▁teeth	-9.19065
▁chicago	-9.19065
▁self	-9.19068
▁deadpool	-9.1907
▁marry	-9.19074
▁level	-9.19094
▁stage	-9.19112
▁action	-9.19141
▁obviously	-9.19141
▁putting	-9.19233
▁losing	-9.19291
▁reporter	-9.19293
▁weapons	-9.19314
▁joey	-9.19359
▁surprised	-9.19451
ish	-9.19604
▁using	-9.19647
▁singing	-9.19734
▁showed	-9.19902
▁cook	-9.20408
▁bucks	-9.20718
▁suck	-9.20857
▁scream	-9.20914
▁ii	-9.21058
▁assume	-9.2106
de	-9.21183
▁witness	-9.21262
▁enemy	-9.21336
▁sheriff	-9.21336
▁waldo	-9.21337
▁dramatic	-9.21338
▁miller	-9.21339
▁cunt	-9.2134
▁eating	-9.21358
▁lawyer	-9.21376
▁bomb	-9.21378
▁master	-9.21384
▁student	-9.21391
▁horn	-9.21413
▁h	-9.21575
ling	-9.21726
▁spot	-9.22215
▁chattering	-9.2222
▁games	-9.22309
im	-9.22539
line	-9.22595
ting	-9.22698
▁staying	-9.22836
▁di	-9.2286
▁do	-9.23051
▁date	-9.23458
▁continue	-9.23509
▁normal	-9.23541
▁truck	-9.23662
▁lenny	-9.23662
▁support	-9.23663
▁hasnt	-9.23664
▁vada	-9.23665
▁lieutenant	-9.23665
▁meat	-9.2367
▁liar	-9.23679
▁chow	-9.23679
▁foot	-9.2368
▁flat	-9.23704
▁mary	-9.23805
▁nose	-9.23844
▁turns	-9.23913
ance	-9.2393
▁main	-9.24221
▁tie	-9.24345
▁seemed	-9.24447
▁played	-9.24506
ter	-9.25117
and	-9.25158
▁form	-9.25186
▁cr	-9.25449
▁starts	-9.25503
▁where	-9.2556
▁experience	-9.25773
▁force	-9.25914
▁faith	-9.26019
▁became	-9.26043
▁denny	-9.26043
▁within	-9.26043
▁address	-9.26043
▁area	-9.26043
▁often	-9.26044
▁roof	-9.26045
▁thatll	-9.26045
▁anna	-9.26057
▁emergency	-9.2606
▁george	-9.26068
▁sold	-9.26089
▁board	-9.26145
▁bigge	-9.26397
▁painting	-9.26444
▁theo	-9.26495
▁driver	-9.26529
bo	-9.2676
j	-9.26803
▁wearing	-9.26824
▁whose	-9.2708
▁tap	-9.27473
▁freak	-9.27601
ng	-9.27831
men	-9.28041
▁ear	-9.28179
▁wire	-9.28232
mo	-9.28329
▁spoke	-9.28407
▁tour	-9.28478
▁bottle	-9.28482
▁downstairs	-9.28482
▁everywhere	-9.28482
▁governor	-9.28482
▁michael	-9.28482
▁pregnant	-9.28482
▁saturday	-9.28482
▁snow	-9.28482
▁hadnt	-9.28482
▁lonely	-9.28482
▁barely	-9.28483
▁mickey	-9.28483
▁minnie	-9.28485
▁papa	-9.2849
▁jail	-9.28493
▁aah	-9.28495
▁dig	-9.28498
▁connection	-9.28498
▁sugar	-9.285
▁involved	-9.28515
▁gary	-9.28573
▁softly	-9.2865
▁professional	-9.28695
▁folks	-9.28739
▁ship	-9.28796
▁loves	-9.28816
▁figured	-9.29039
▁knocking	-9.29122
ig	-9.29283
▁bloody	-9.29732
po	-9.30029
▁liked	-9.30328
▁dis	-9.30341
▁hero	-9.30613
▁notice	-9.30719
▁waste	-9.30787
▁sleeping	-9.30857
▁public	-9.30962
▁opportunity	-9.30982
▁ought	-9.30982
▁gunnar	-9.30982
▁relationship	-9.30982
▁distance	-9.30984
▁michelle	-9.30986
▁juan	-9.30999
▁aye	-9.31009
▁weight	-9.31016
▁hail	-9.31143
▁thousand	-9.31261
▁gunshot	-9.31269
▁honestly	-9.31269
▁gotten	-9.31407
▁se	-9.31408
▁fella	-9.31431
▁suit	-9.31496
▁cat	-9.31956
▁he	-9.32089
▁note	-9.32286
▁guns	-9.32691
▁opening	-9.3298
▁accept	-9.33123
▁stole	-9.33467
▁steve	-9.3352
▁extra	-9.33546
▁conversation	-9.33546
▁impossible	-9.33546
▁magazine	-9.33546
▁omara	-9.33546
▁screeching	-9.33546
▁conrad	-9.33546
▁warren	-9.33546
▁martin	-9.33551
▁flight	-9.33555
▁famous	-9.33556
▁stanley	-9.33556
▁innocent	-9.3356
▁lili	-9.3356
▁latin	-9.33566
▁jim	-9.33575
▁cheese	-9.33575
▁excited	-9.33577
▁cake	-9.336
▁hall	-9.33624
▁cup	-9.33626
▁dare	-9.33753
▁skin	-9.33849
▁horses	-9.33897
▁partner	-9.33906
▁file	-9.34226
ern	-9.34371
▁wondering	-9.34509
land	-9.35022
▁tea	-9.35029
ad	-9.35104
head	-9.35115
▁ch	-9.35355
sh	-9.35384
▁remind	-9.35781
▁fellas	-9.35888
▁vote	-9.35906
▁survive	-9.36009
▁attack	-9.3616
▁asleep	-9.36178
▁condition	-9.36178
▁craig	-9.36178
▁excellent	-9.36178
▁exhales	-9.36178
▁otherwise	-9.36178
▁sergeant	-9.36178
▁lucas	-9.36178
▁elizabeth	-9.36178
▁whoever	-9.36178
▁mmmhmm	-9.3618
▁bathroom	-9.3618
▁airport	-9.36186
▁belong	-9.36186
▁thou	-9.36187
▁shop	-9.36194
▁nurse	-9.36234
▁brave	-9.36236
▁jay	-9.36264
▁yelling	-9.36293
▁bang	-9.36306
▁paying	-9.36308
▁dogs	-9.36343
per	-9.36552
▁target	-9.36567
▁banging	-9.36672
▁speaks	-9.36704
▁besides	-9.36764
▁burned	-9.36947
▁out	-9.37458
▁pills	-9.37503
▁closed	-9.37623
▁shots	-9.37634
▁cha	-9.37819
led	-9.37889
▁draw	-9.37993
▁suggest	-9.38318
▁pretend	-9.3837
▁san	-9.38458
▁career	-9.38659
▁health	-9.38677
▁kat	-9.38677
ac	-9.38697
ge	-9.38854
▁afford	-9.3888
▁apparently	-9.3888
▁department	-9.3888
▁genius	-9.3888
▁malcolm	-9.3888
▁professor	-9.3888
▁chinese	-9.3888
▁grew	-9.3888
▁dancing	-9.38881
▁earlier	-9.38885
▁fresh	-9.38893
▁switch	-9.38896
▁richard	-9.38897
▁written	-9.38898
▁russian	-9.38909
▁troy	-9.38912
▁smoking	-9.38944
▁gasping	-9.39035
▁male	-9.39059
▁plans	-9.39133
▁m	-9.39241
ai	-9.3925
▁finger	-9.39376
▁faster	-9.3938
▁lights	-9.39406
▁everythings	-9.39835
▁bull	-9.3988
ill	-9.39953
▁artist	-9.3997
▁followed	-9.40024
▁movies	-9.40066
▁murdered	-9.40067
▁ne	-9.40082
▁fill	-9.40787
tion	-9.40904
▁east	-9.4108
▁suspect	-9.41265
▁deliver	-9.41448
▁boom	-9.41604
▁apart	-9.41639
▁callahan	-9.41658
▁character	-9.41658
▁cream	-9.41658
▁daisy	-9.41658
▁motta	-9.41658
▁rosie	-9.41659
▁village	-9.41659
▁jenny	-9.41659
▁example	-9.41662
▁noah	-9.41664
▁sin	-9.41665
▁easier	-9.41666
▁correct	-9.41669
▁duke	-9.41674
▁social	-9.41709
▁lesson	-9.4176
▁signal	-9.41849
▁kate	-9.41871
▁helped	-9.42203
▁up	-9.42281
▁thinks	-9.42465
▁writer	-9.42479
▁turning	-9.42753
ang	-9.42869
▁u	-9.43272
tic	-9.43381
▁someones	-9.43401
▁medica	-9.43663
▁older	-9.43775
▁ad	-9.43928
ii	-9.43972
▁fish	-9.44036
▁hurts	-9.44169
▁dealer	-9.4424
▁success	-9.44342
▁certain	-9.44361
▁vi	-9.44387
▁fucker	-9.44405
▁bright	-9.44483
▁anthony	-9.44515
▁barbara	-9.44515
▁bishop	-9.44515
▁daniel	-9.44515
▁empty	-9.44515
▁einar	-9.44515
▁storm	-9.44515
▁friday	-9.44516
▁olmo	-9.44517
▁local	-9.44518
▁lena	-9.44518
▁ava	-9.44523
▁louis	-9.44524
▁fortune	-9.44533
▁gang	-9.44543
▁weekend	-9.44553
▁according	-9.44581
▁guilty	-9.44632
▁milk	-9.44639
▁watched	-9.44688
ine	-9.44764
son	-9.44924
▁ohio	-9.44971
▁realized	-9.45027
▁hearing	-9.45054
▁shirt	-9.45127
▁client	-9.45153
▁egg	-9.45157
▁sp	-9.45238
off	-9.45362
▁mikey	-9.45613
▁ab	-9.45707
▁acting	-9.46212
▁travel	-9.46529
▁consider	-9.46529
▁en	-9.46847
▁build	-9.46959
▁exist	-9.47081
▁orders	-9.47122
▁mention	-9.47139
▁difficult	-9.47235
▁breaking	-9.47298
▁students	-9.47385
▁percent	-9.47441
▁doll	-9.47446
▁prefer	-9.4745
▁suspense	-9.47456
▁article	-9.47456
▁evil	-9.47456
▁jungle	-9.47456
▁third	-9.47456
▁thompson	-9.47456
▁beginning	-9.47457
▁source	-9.47458
▁henrik	-9.4746
▁bodies	-9.47462
▁fancy	-9.47463
▁pressure	-9.47466
▁yearold	-9.47476
ka	-9.47476
▁trade	-9.47499
▁sight	-9.47506
▁wailing	-9.47509
▁disgusting	-9.47539
▁roy	-9.47547
▁totally	-9.47547
▁cos	-9.47551
▁gay	-9.47574
▁swing	-9.47592
▁hiding	-9.47661
un	-9.47765
▁scare	-9.47809
▁ld	-9.47927
ha	-9.48025
▁pocket	-9.48189
▁soldier	-9.48219
▁daughters	-9.48316
▁fan	-9.48358
▁expecting	-9.4846
▁su	-9.48491
▁wood	-9.48507
▁bringing	-9.48535
▁lied	-9.48603
▁rule	-9.48647
▁signed	-9.48685
▁hardly	-9.48686
▁bl	-9.48913
▁due	-9.49086
▁lies	-9.49311
▁ln	-9.49404
▁pictures	-9.49643
▁pe	-9.49803
▁text	-9.50098
ma	-9.5012
▁gives	-9.50121
▁lu	-9.50133
▁ruin	-9.50141
▁blame	-9.50213
▁buck	-9.50406
▁candy	-9.5046
▁although	-9.50487
▁bottom	-9.50487
▁purpose	-9.50487
▁sienna	-9.50487
▁split	-9.50487
▁silly	-9.50487
▁stories	-9.50487
▁belt	-9.50488
▁beauty	-9.50488
▁nope	-9.50494
▁began	-9.50504
▁danger	-9.50529
▁loose	-9.50548
▁keeping	-9.50565
▁coat	-9.50604
▁dean	-9.50674
▁el	-9.50674
▁row	-9.50724
▁card	-9.51242
▁issue	-9.51313
▁model	-9.51348
▁bags	-9.51377
ci	-9.51477
▁worlds	-9.51526
▁hill	-9.51558
▁knees	-9.51665
▁no	-9.52179
▁woods	-9.5281
▁campaign	-9.53612
▁colonel	-9.53612
▁escobar	-9.53612
▁incident	-9.53612
▁plenty	-9.53612
▁stephen	-9.53612
▁thunder	-9.53612
▁freedom	-9.53612
▁dillinger	-9.53612
▁official	-9.53612
▁blind	-9.53612
▁investigation	-9.53612
▁advice	-9.53613
▁sidney	-9.53613
▁plus	-9.53619
▁large	-9.53621
▁brian	-9.53626
▁size	-9.53635
▁pont	-9.53639
pe	-9.53644
▁confused	-9.5365
▁valentine	-9.53672
▁gene	-9.5372
▁julie	-9.53807
▁introduce	-9.5382
▁lake	-9.53824
▁tom	-9.53895
▁lane	-9.53949
▁planet	-9.53952
▁letting	-9.53962
▁sec	-9.54044
▁helping	-9.54133
da	-9.54195
▁op	-9.5421
▁bitches	-9.54222
▁leader	-9.54238
do	-9.54292
▁places	-9.54383
no	-9.54404
▁praying	-9.54424
▁armed	-9.54469
▁computer	-9.54493
by	-9.54521
▁dry	-9.54839
▁covered	-9.54865
▁complete	-9.55096
▁sports	-9.55275
▁cars	-9.55337
end	-9.55381
king	-9.55666
ah	-9.55901
▁opens	-9.55979
▁soldiers	-9.56016
▁ve	-9.56318
▁study	-9.56365
▁code	-9.56423
▁allow	-9.56457
▁base	-9.56577
▁serve	-9.56581
ard	-9.56693
▁mmhm	-9.5676
▁weak	-9.56823
▁alexandra	-9.56838
▁corso	-9.56838
▁dozen	-9.56838
▁footsteps	-9.56838
▁ridiculous	-9.56838
▁subject	-9.56838
▁byebye	-9.56838
▁clue	-9.56838
▁scoffs	-9.56838
▁theyd	-9.56838
▁view	-9.56838
▁crain	-9.56838
▁held	-9.56838
▁gym	-9.56838
▁beeping	-9.5684
▁susanna	-9.56843
▁awake	-9.56844
▁aware	-9.5685
▁period	-9.5685
▁understood	-9.5685
▁immediately	-9.56863
▁princess	-9.56863
▁chill	-9.56868
▁pinch	-9.5687
▁duty	-9.56874
▁intense	-9.56878
▁pitch	-9.56896
▁usual	-9.56907
▁auntie	-9.5698
▁carter	-9.56995
▁silver	-9.57008
▁contract	-9.57031
ca	-9.57053
▁bleeding	-9.57111
▁noticed	-9.57181
▁allowed	-9.57224
▁agreed	-9.57267
▁ate	-9.57419
▁wound	-9.57437
▁voices	-9.57559
ee	-9.57607
▁angel	-9.5761
▁ca	-9.57792
▁legal	-9.57796
▁bird	-9.58004
▁page	-9.58241
br	-9.58305
▁pulled	-9.58339
▁bat	-9.58412
ba	-9.58656
▁fired	-9.58763
▁natural	-9.59134
▁si	-9.59188
▁keeps	-9.59417
▁rings	-9.59502
▁everybodys	-9.59632
▁feelings	-9.59742
▁ears	-9.59839
▁create	-9.59905
▁rough	-9.60019
▁trick	-9.60086
▁program	-9.60114
▁among	-9.60119
▁amelia	-9.60171
▁bianca	-9.60171
▁complicated	-9.60171
▁league	-9.60171
▁regret	-9.60171
▁credit	-9.60171
▁tugg	-9.60171
▁ugly	-9.60171
▁desire	-9.60171
▁cancer	-9.60172
▁basically	-9.60173
▁firing	-9.60174
▁ruth	-9.60178
▁battle	-9.60178
▁request	-9.60178
▁property	-9.60181
▁jax	-9.60186
▁sky	-9.60203
▁winner	-9.60204
▁ended	-9.60295
▁grown	-9.60307
▁pot	-9.60441
ni	-9.60579
▁dan	-9.60626
▁lover	-9.60679
▁tied	-9.6069
▁ruf	-9.60752
▁heat	-9.60755
▁closer	-9.6091
▁so	-9.60926
▁tilly	-9.60984
one	-9.6104
▁victim	-9.61328
▁gate	-9.61417
▁letters	-9.61764
▁siren	-9.61967
go	-9.61982
▁tear	-9.6219
side	-9.62395
ick	-9.62398
▁gates	-9.62425
ey	-9.62825
▁officers	-9.63116
▁tick	-9.63196
▁player	-9.632
▁hanging	-9.63229
▁numbers	-9.63232
▁ends	-9.63246
▁garden	-9.63309
▁direct	-9.63328
▁release	-9.6334
▁recognize	-9.63341
▁bone	-9.63374
▁defend	-9.63585
▁alastair	-9.63619
▁brilliant	-9.63619
▁common	-9.63619
▁daiton	-9.63619
▁duffy	-9.63619
▁fruit	-9.63619
▁responsibility	-9.63619
▁trunk	-9.63619
▁whimpering	-9.63619
▁gerda	-9.63619
▁opinion	-9.63619
▁warrant	-9.63619
▁pair	-9.6362
▁courage	-9.63621
▁leila	-9.63621
▁romantic	-9.63622
▁toilet	-9.63622
▁beach	-9.63622
▁border	-9.6363
▁iike	-9.63632
▁randy	-9.63633
▁champion	-9.63641
▁ugh	-9.63684
▁bail	-9.63695
ier	-9.63708
▁crap	-9.6371
▁jacket	-9.63739
▁director	-9.63742
▁market	-9.63747
▁huge	-9.63776
▁timing	-9.63788
os	-9.63791
▁ra	-9.6393
▁sand	-9.6406
▁closes	-9.64237
▁track	-9.6439
▁thy	-9.64657
▁score	-9.64873
▁criminal	-9.64882
▁details	-9.64885
▁patient	-9.64886
▁ticket	-9.64917
lng	-9.65088
▁cock	-9.65093
▁mis	-9.65311
▁ro	-9.65411
dy	-9.65524
▁ar	-9.65702
▁fathers	-9.65732
▁plays	-9.65866
▁carl	-9.66286
qu	-9.66368
ure	-9.66549
▁football	-9.66567
▁min	-9.66573
ial	-9.66591
▁moms	-9.66787
▁destroy	-9.668
ally	-9.66886
nut	-9.66944
▁lee	-9.67007
▁willing	-9.67036
▁literally	-9.67191
▁neighborhood	-9.67191
▁sobbing	-9.67191
▁zeke	-9.67191
▁noise	-9.67191
▁kelly	-9.67191
▁saving	-9.67191
▁current	-9.67191
▁upset	-9.67191
▁piano	-9.67191
▁brown	-9.67192
▁washington	-9.67193
▁mimi	-9.67196
▁june	-9.67198
▁possibly	-9.67204
▁legend	-9.67207
▁assistant	-9.67208
▁hans	-9.67212
▁naked	-9.67212
▁dropped	-9.6722
▁vision	-9.67232
▁powerful	-9.67284
▁coughing	-9.67312
ster	-9.67326
▁magic	-9.67348
▁bath	-9.6736
▁bust	-9.6742
▁smells	-9.6763
▁slowly	-9.67642
▁goldie	-9.67735
▁yells	-9.67913
▁bo	-9.67965
▁expected	-9.68133
▁doug	-9.68375
▁german	-9.68388
▁film	-9.68555
▁heads	-9.6856
▁burning	-9.68564
▁stink	-9.6858
▁trained	-9.6862
▁falling	-9.68625
▁ward	-9.68926
▁pee	-9.69168
▁shower	-9.69217
▁mountain	-9.693
che	-9.69354
▁bum	-9.69363
▁americans	-9.69525
▁gra	-9.69652
▁checked	-9.69858
▁me	-9.70051
di	-9.70273
▁cab	-9.70395
▁mar	-9.70426
▁focus	-9.70507
ship	-9.70532
▁receive	-9.70628
ke	-9.7077
▁chest	-9.70823
cy	-9.70836
▁pieces	-9.70879
▁brooklyn	-9.70894
▁built	-9.70894
▁citizen	-9.70894
▁helicopter	-9.70894
▁maureen	-9.70894
▁military	-9.70894
▁monica	-9.70894
▁suicide	-9.70894
▁texas	-9.70894
▁woke	-9.70894
▁foreign	-9.70894
▁chanting	-9.70895
▁mostly	-9.70895
▁horrible	-9.70895
▁nature	-9.70895
▁pennywise	-9.70895
▁speech	-9.70895
▁insurance	-9.70896
▁university	-9.70896
▁arvin	-9.70898
▁permission	-9.70898
▁boring	-9.709
▁dope	-9.70906
▁coward	-9.70906
▁sunday	-9.70907
▁bobby	-9.70908
▁swim	-9.70908
▁jerk	-9.7091
▁malena	-9.7091
▁comfortable	-9.70912
▁sexual	-9.70913
▁handsome	-9.70921
▁incredible	-9.70934
▁style	-9.70937
▁freeze	-9.70941
▁race	-9.7095
▁shape	-9.71006
be	-9.71065
▁path	-9.71071
▁hug	-9.71205
ball	-9.71235
ping	-9.71376
▁whispers	-9.71468
▁dom	-9.71551
▁sat	-9.71671
▁dressed	-9.71703
▁clicks	-9.71733
▁younger	-9.72135
▁te	-9.72236
▁demon	-9.72432
▁bev	-9.72442
▁sl	-9.72612
▁teacher	-9.72779
▁scar	-9.72861
▁hood	-9.72907
▁somebodys	-9.73043
▁wen	-9.73333
ped	-9.73391
▁answers	-9.73422
▁jan	-9.73538
▁niggas	-9.73584
▁dads	-9.73589
io	-9.73605
▁interest	-9.7389
ile	-9.74097
▁trees	-9.74109
▁process	-9.74205
▁greg	-9.74263
▁lift	-9.74329
▁fail	-9.7437
ley	-9.74493
▁chris	-9.74494
▁aunt	-9.74581
▁butt	-9.74585
▁speed	-9.74595
▁original	-9.746
▁hung	-9.74731
▁affair	-9.7474
▁arthur	-9.7474
▁breakfast	-9.7474
▁expert	-9.7474
▁kayden	-9.7474
▁revenge	-9.7474
▁theater	-9.7474
▁thursday	-9.7474
▁viktor	-9.7474
▁donna	-9.74741
▁buried	-9.74742
▁claire	-9.74742
▁joking	-9.74743
▁sheba	-9.74744
▁wilson	-9.74744
▁familiar	-9.74746
▁begging	-9.74748
▁lucy	-9.74749
▁circle	-9.74755
▁gentleman	-9.74763
▁yul	-9.74771
▁thee	-9.74782
▁unfortunately	-9.74782
▁taxi	-9.74789
▁meal	-9.74806
▁suddenly	-9.74871
▁cable	-9.74916
▁arrived	-9.74933
▁invited	-9.74964
▁wa	-9.75165
▁raised	-9.75215
▁gettin	-9.75478
▁meaning	-9.75734
pa	-9.75927
▁matters	-9.75996
▁brains	-9.76224
▁alien	-9.7642
▁remain	-9.76445
op	-9.76645
▁jobs	-9.76675
ious	-9.76686
und	-9.76785
▁under	-9.77424
▁birds	-9.77449
▁fe	-9.77602
▁flag	-9.77746
▁wash	-9.77814
▁pet	-9.77986
▁add	-9.78004
▁pie	-9.78236
▁dump	-9.78334
▁unit	-9.78339
▁load	-9.78432
town	-9.7848
▁heading	-9.78497
▁everyones	-9.78514
▁drag	-9.78589
▁obvious	-9.78602
▁proper	-9.78638
▁bowl	-9.78649
▁zero	-9.78712
▁jeff	-9.7874
▁vietnam	-9.7874
▁crooked	-9.7874
▁jessica	-9.7874
▁necessary	-9.7874
▁olympic	-9.7874
▁regular	-9.7874
▁sunshine	-9.7874
▁razor	-9.78741
▁terrific	-9.78741
▁mckenzie	-9.78741
▁nathan	-9.78741
▁however	-9.78741
▁chuckling	-9.78742
▁telephone	-9.78742
▁slept	-9.78742
▁spread	-9.78742
▁candice	-9.78742
▁mood	-9.78742
▁blade	-9.78744
▁weii	-9.78745
▁willingham	-9.78746
▁danny	-9.78747
▁bike	-9.7875
▁larry	-9.78751
▁clock	-9.78754
▁exchange	-9.78758
▁fbi	-9.78761
▁jab	-9.78763
▁plate	-9.78769
▁connor	-9.78806
erstr	-9.78807
▁bah	-9.78811
▁print	-9.78835
▁manager	-9.78852
▁stayed	-9.78887
▁warning	-9.79001
▁pm	-9.79013
▁wide	-9.79018
▁disappeared	-9.79097
▁based	-9.79114
▁nearly	-9.7912
▁failed	-9.79145
▁rip	-9.79269
▁coughs	-9.79362
▁studying	-9.79371
▁cast	-9.79392
▁troops	-9.79454
▁lots	-9.796
▁cares	-9.79607
▁hits	-9.79609
▁lately	-9.7975
▁cla	-9.79758
▁sooner	-9.79983
▁fa	-9.80028
▁nights	-9.80174
▁value	-9.8057
▁vehicle	-9.8058
▁nightmare	-9.806
▁cigarettes	-9.80793
day	-9.80851
▁jon	-9.80974
ner	-9.81102
▁whi	-9.81153
ky	-9.81425
▁talkin	-9.81764
ap	-9.8178
▁cards	-9.81919
▁discuss	-9.81922
▁ob	-9.82007
▁showing	-9.8203
▁lookin	-9.82075
▁bless	-9.82123
ny	-9.82173
▁fighter	-9.82402
hi	-9.8262
▁victor	-9.82701
▁sweat	-9.82747
▁sudden	-9.82765
▁bastards	-9.82794
▁finding	-9.82826
▁virgin	-9.82875
▁birth	-9.82904
▁punch	-9.82905
▁climb	-9.82907
▁including	-9.82907
▁jealous	-9.82907
▁koslow	-9.82907
▁lawrence	-9.82907
▁mirror	-9.82907
▁monsieur	-9.82907
▁morris	-9.82907
▁mulligan	-9.82907
▁represent	-9.82907
▁research	-9.82907
▁responsible	-9.82907
▁reverend	-9.82907
▁spanish	-9.82907
▁squeeze	-9.82907
▁stomach	-9.82907
▁violence	-9.82907
▁weather	-9.82907
▁firm	-9.82907
▁pump	-9.82907
▁title	-9.82907
▁funeral	-9.82908
▁mummy	-9.8291
▁refuse	-9.82912
▁elevator	-9.82913
▁appointment	-9.82913
▁cherry	-9.82914
▁wherever	-9.82916
▁penny	-9.82919
▁trace	-9.82923
▁gear	-9.82927
▁march	-9.82938
▁drake	-9.82938
▁defense	-9.82939
▁mail	-9.8294
▁jackson	-9.82974
▁preacher	-9.82984
▁china	-9.82996
▁protection	-9.83015
▁port	-9.83056
▁coke	-9.83059
▁hop	-9.83101
▁gr	-9.83103
▁prepared	-9.83128
▁scary	-9.83145
▁approaching	-9.83177
▁concerned	-9.83185
▁hunting	-9.83266
▁lo	-9.83327
▁lower	-9.83384
▁suffering	-9.83393
▁rat	-9.83587
▁believed	-9.83724
▁screwed	-9.83792
▁putman	-9.83824
▁clearly	-9.83871
▁sexy	-9.83871
ism	-9.83939
▁members	-9.84051
▁com	-9.84173
▁rocks	-9.84247
▁pig	-9.84408
▁shout	-9.84418
▁ending	-9.84421
▁mi	-9.84443
▁spending	-9.84563
▁comment	-9.84925
▁diamond	-9.84933
▁sport	-9.84995
▁training	-9.85048
ator	-9.85054
▁murderer	-9.85244
ler	-9.85247
▁doors	-9.8537
▁prisoner	-9.85468
▁ideas	-9.85482
ho	-9.85624
▁suffer	-9.86355
▁mc	-9.86502
vo	-9.86743
▁sa	-9.86744
▁disappear	-9.86868
▁andre	-9.86939
▁nobodys	-9.87035
▁collect	-9.87056
▁liz	-9.87097
▁indian	-9.87175
▁europe	-9.87202
▁ashamed	-9.87255
▁audience	-9.87255
▁avoid	-9.87255
▁elliott	-9.87255
▁illegal	-9.87255
▁lincoln	-9.87255
▁lorena	-9.87255
▁macbeth	-9.87255
▁medicine	-9.87255
▁miguel	-9.87255
▁science	-9.87255
▁staff	-9.87255
▁surrender	-9.87255
▁sword	-9.87255
▁unusual	-9.87255
▁hammer	-9.87255
▁toast	-9.87255
▁vegas	-9.87255
▁blew	-9.87255
▁inmate	-9.87255
▁onto	-9.87255
▁whenever	-9.87256
▁expensive	-9.87258
▁minister	-9.87258
▁josh	-9.87259
▁rush	-9.87261
▁linda	-9.87262
▁desk	-9.87264
▁rude	-9.8727
▁sarah	-9.87272
▁square	-9.87273
▁bible	-9.87277
▁basement	-9.87279
▁kingsman	-9.87281
▁thirty	-9.87281
▁stokely	-9.87284
▁terry	-9.87287
▁election	-9.87288
▁jamal	-9.87291
▁wave	-9.8731
▁comin	-9.87316
▁heh	-9.8732
▁data	-9.87323
▁national	-9.87323
▁safety	-9.87332
▁itd	-9.87344
▁pity	-9.87404
▁markum	-9.87413
▁cain	-9.87422
▁lack	-9.87451
▁victory	-9.87473
▁clay	-9.87488
▁former	-9.87543
▁grave	-9.8758
▁personally	-9.87717
▁hurting	-9.87749
▁shitty	-9.87921
▁li	-9.87976
▁tail	-9.88186
▁inform	-9.88192
all	-9.88196
▁growing	-9.88327
bed	-9.88342
▁kicked	-9.88354
▁ac	-9.88493
tro	-9.8852
▁stops	-9.88575
ook	-9.88646
▁runs	-9.88668
ver	-9.88703
▁papers	-9.88794
▁pounds	-9.88875
top	-9.8895
▁dia	-9.89262
ated	-9.89372
▁monster	-9.89447
▁shoulder	-9.89455
▁animal	-9.89507
▁cigarette	-9.89513
ten	-9.89527
▁pill	-9.89568
red	-9.89604
▁blowing	-9.89646
▁iii	-9.89662
▁husbands	-9.90068
▁sc	-9.90128
▁shows	-9.90164
▁sons	-9.90168
▁sirens	-9.90237
tin	-9.9025
ware	-9.90309
gu	-9.90409
▁all	-9.90451
▁reports	-9.90633
ow	-9.90641
▁rounds	-9.90643
res	-9.90797
▁crash	-9.90877
▁paint	-9.90909
▁ms	-9.91221
▁brings	-9.91346
▁invite	-9.91536
▁physical	-9.91647
▁total	-9.91661
▁product	-9.91784
▁eagle	-9.918
▁eventually	-9.918
▁flesh	-9.918
▁glory	-9.918
▁grateful	-9.918
▁guitar	-9.918
▁harriet	-9.918
▁jefferson	-9.918
▁keeler	-9.918
▁kofi	-9.918
▁particular	-9.918
▁robinson	-9.918
▁several	-9.918
▁simply	-9.918
▁sneak	-9.918
▁someday	-9.918
▁strength	-9.918
▁dreyman	-9.918
▁regard	-9.918
▁stood	-9.918
▁indeed	-9.91801
▁center	-9.91801
▁repeat	-9.91801
▁gross	-9.91801
▁access	-9.91801
▁heydrich	-9.91801
▁clever	-9.91802
▁glen	-9.91802
▁moral	-9.91803
▁execution	-9.91804
▁stuttering	-9.91804
▁route	-9.91805
▁lean	-9.91805
▁closing	-9.91805
▁winning	-9.91806
▁tits	-9.9181
▁negative	-9.91818
▁carlos	-9.91819
▁priest	-9.91821
▁proof	-9.91824
▁specific	-9.91828
▁secretary	-9.91846
▁direction	-9.91859
▁setting	-9.9188
▁am	-9.91883
▁polly	-9.91887
▁gil	-9.91937
▁fourth	-9.91948
▁whispering	-9.91956
▁spoken	-9.91959
▁golden	-9.91961
▁dayday	-9.91974
▁witch	-9.91988
▁slide	-9.91994
▁vera	-9.9202
▁emotional	-9.92043
▁whod	-9.92053
ized	-9.92053
▁off	-9.92056
▁useless	-9.92104
▁provided	-9.92114
▁reality	-9.92191
▁deeply	-9.92215
▁stars	-9.92329
▁stronger	-9.92468
ors	-9.92555
▁bullets	-9.92772
▁log	-9.92856
▁plant	-9.92881
▁hm	-9.92913
▁returned	-9.93103
▁provide	-9.93203
▁badge	-9.93233
▁backup	-9.93347
▁ai	-9.9346
▁twenty	-9.9352
▁selling	-9.93848
▁animals	-9.94147
▁williams	-9.94164
▁headed	-9.94232
▁guest	-9.94257
ex	-9.94852
▁drinks	-9.95179
▁cheat	-9.9566
▁fingers	-9.95693
nder	-9.96029
▁notes	-9.96034
▁bri	-9.96038
▁psycho	-9.96162
▁poison	-9.96169
▁shock	-9.96184
▁comp	-9.96195
▁settle	-9.96292
▁checking	-9.96298
▁helen	-9.96354
▁app	-9.96414
▁desperate	-9.96414
▁pink	-9.96548
▁slip	-9.96554
▁ambulance	-9.96562
▁associate	-9.96562
▁avner	-9.96562
▁behavior	-9.96562
▁celebrate	-9.96562
▁detroit	-9.96562
▁fought	-9.96562
▁grenade	-9.96562
▁jessie	-9.96562
▁junior	-9.96562
▁miami	-9.96562
▁offense	-9.96562
▁password	-9.96562
▁politics	-9.96562
▁progress	-9.96562
▁tongue	-9.96562
▁trigger	-9.96562
▁tuesday	-9.96562
▁caleb	-9.96562
▁marcus	-9.96562
▁ocp	-9.96562
▁shift	-9.96562
▁studio	-9.96562
▁threw	-9.96562
▁adrian	-9.96562
▁blaring	-9.96562
▁modern	-9.96563
▁maggie	-9.96563
hrer	-9.96564
▁martha	-9.96564
▁location	-9.96564
▁justice	-9.96564
▁yellow	-9.96564
▁munich	-9.96565
▁jury	-9.96571
▁owner	-9.96571
▁baseball	-9.96572
▁nail	-9.96573
▁ignore	-9.96577
▁punk	-9.96583
▁mister	-9.96583
▁nina	-9.96588
▁fence	-9.96589
▁grandpa	-9.9659
▁bedroom	-9.96591
▁fifty	-9.96593
▁debt	-9.96593
▁maid	-9.96599
▁bored	-9.96632
▁tessa	-9.96646
▁aii	-9.96649
▁federa	-9.9665
▁bury	-9.96657
▁wheel	-9.96659
▁bound	-9.96669
▁convinced	-9.96699
▁stolen	-9.96721
▁steven	-9.96742
▁carmen	-9.96801
▁weed	-9.96816
▁cow	-9.96828
▁sid	-9.96852
▁glasses	-9.96893
▁andrea	-9.96896
▁bon	-9.96913
▁shake	-9.97001
▁kim	-9.97113
▁attacked	-9.97269
▁ram	-9.9732
▁carefully	-9.97337
ell	-9.97342
gh	-9.97355
▁event	-9.97513
▁fate	-9.97557
▁arrested	-9.97562
▁joined	-9.97587
▁lips	-9.97752
over	-9.97767
uff	-9.97814
▁fl	-9.98089
▁photos	-9.9811
▁appears	-9.98323
▁phones	-9.98797
▁bay	-9.98976
▁ordered	-9.9904
▁project	-9.99156
▁tip	-9.99229
▁touched	-9.99243
og	-9.99334
▁buyer	-9.99377
▁cleaning	-9.99413
▁doctors	-9.99416
ot	-9.9947
our	-9.9956
▁germans	-9.9961
▁tickets	-9.99725
▁victims	-9.99837
ence	-9.99904
▁ba	-9.99988
▁pleased	-10.001
▁ways	-10.0023
ze	-10.0037
▁traffic	-10.004
ay	-10.0048
▁tent	-10.0089
▁thousands	-10.01
▁disturb	-10.0105
▁gig	-10.0105
▁tells	-10.0106
bar	-10.0127
▁remove	-10.0128
▁guarantee	-10.0129
▁prepare	-10.013
▁measure	-10.0133
▁guilt	-10.0136
tor	-10.0137
▁creep	-10.014
▁sharp	-10.0141
▁exact	-10.0142
ti	-10.0143
▁masters	-10.0147
▁los	-10.0149
▁ka	-10.0151
▁advance	-10.0156
▁amount	-10.0156
▁attorney	-10.0156
▁bangkok	-10.0156
▁borrow	-10.0156
▁california	-10.0156
▁celeste	-10.0156
▁circumstances	-10.0156
▁enemies	-10.0156
▁equipment	-10.0156
▁explosiveskull	-10.0156
▁female	-10.0156
▁garbage	-10.0156
▁italian	-10.0156
▁pizza	-10.0156
▁reputation	-10.0156
▁society	-10.0156
▁sophie	-10.0156
▁steak	-10.0156
▁truly	-10.0156
▁wilcox	-10.0156
▁dawn	-10.0156
▁cheap	-10.0157
▁rumbling	-10.0157
▁albert	-10.0157
▁chocolate	-10.0157
▁brush	-10.0157
▁mask	-10.0157
▁garage	-10.0157
▁yuri	-10.0157
▁wray	-10.0158
▁shopping	-10.0158
▁sentence	-10.0158
▁fort	-10.0158
▁disaster	-10.0159
▁energy	-10.0159
▁jake	-10.0159
▁theory	-10.0159
▁medal	-10.016
▁walter	-10.016
▁aiden	-10.0161
▁motherfucking	-10.0162
▁hugh	-10.0162
▁rare	-10.0163
▁thatd	-10.0165
▁morty	-10.0165
▁friendship	-10.0167
▁angeles	-10.0168
▁grandmother	-10.0168
▁marie	-10.0169
▁hitting	-10.017
▁toy	-10.0171
▁corpse	-10.0171
▁bush	-10.0171
▁yale	-10.0176
▁sew	-10.0179
▁journalist	-10.018
▁stairs	-10.0186
▁edge	-10.019
▁as	-10.0193
▁created	-10.0197
ring	-10.0199
▁elvis	-10.021
▁lap	-10.0214
▁dealing	-10.0222
▁har	-10.0223
▁counter	-10.0227
▁boyle	-10.0228
▁pr	-10.0238
ham	-10.0241
▁non	-10.0243
▁aid	-10.0251
▁reached	-10.0253
▁indistinctly	-10.0256
ating	-10.0257
▁hooker	-10.0261
▁tense	-10.0261
▁damned	-10.0262
▁adams	-10.0276
▁carrying	-10.0278
▁classic	-10.028
▁lines	-10.0282
▁ci	-10.0284
▁singer	-10.0286
▁shota	-10.029
▁ri	-10.0296
▁teaching	-10.0304
▁fucks	-10.031
▁anti	-10.0313
▁flying	-10.032
▁ver	-10.0359
▁bars	-10.0378
▁fo	-10.0385
▁metal	-10.0387
▁hoo	-10.0387
▁br	-10.0404
▁pi	-10.0413
▁hu	-10.0421
▁sh	-10.0423
▁odd	-10.045
▁ali	-10.0459
▁term	-10.0461
▁dreaming	-10.0474
▁tall	-10.0481
▁sha	-10.0492
▁tears	-10.0497
▁thoughts	-10.0502
▁dies	-10.0545
ron	-10.0551
ga	-10.0568
▁ls	-10.0574
con	-10.0587
▁photograph	-10.0609
▁stock	-10.0618
▁songs	-10.0634
ged	-10.0635
▁wast	-10.0639
work	-10.0641
▁parts	-10.0642
▁boo	-10.0648
▁arrive	-10.0656
oo	-10.0657
house	-10.0658
▁cur	-10.0661
ual	-10.0663
▁flow	-10.0668
▁champ	-10.0678
▁gentle	-10.0679
▁strip	-10.0681
▁loyal	-10.0681
▁album	-10.0683
▁briggs	-10.0683
▁british	-10.0683
▁charlotte	-10.0683
▁couch	-10.0683
▁creature	-10.0683
▁jesse	-10.0683
▁lenora	-10.0683
▁macleod	-10.0683
▁material	-10.0683
▁muffled	-10.0683
▁retreat	-10.0683
▁senator	-10.0683
▁tattoo	-10.0683
▁twelve	-10.0683
▁umbrella	-10.0683
▁amber	-10.0683
▁attempt	-10.0683
▁davis	-10.0683
▁proceed	-10.0683
▁rawlings	-10.0683
▁changing	-10.0683
▁boston	-10.0683
▁thomas	-10.0683
▁demand	-10.0683
▁sobs	-10.0683
▁serial	-10.0683
▁ferris	-10.0683
▁impressive	-10.0683
▁monday	-10.0683
▁downtown	-10.0683
▁bravo	-10.0683
▁bingo	-10.0683
urban	-10.0683
▁therell	-10.0683
▁motel	-10.0683
▁contest	-10.0683
▁chopper	-10.0683
▁comfort	-10.0683
▁skinny	-10.0684
▁available	-10.0685
▁arabic	-10.0686
▁chess	-10.0686
▁socialist	-10.0686
▁farm	-10.0686
▁recently	-10.0686
▁manning	-10.0687
▁squad	-10.0688
▁stretch	-10.0688
▁destiny	-10.0689
▁conor	-10.0694
▁executed	-10.0694
▁gina	-10.0694
▁chop	-10.0695
▁brady	-10.0695
▁johnson	-10.0695
▁tony	-10.0696
▁leah	-10.0699
▁fi	-10.0703
▁managed	-10.0704
boy	-10.0705
▁assholes	-10.0705
▁heroin	-10.0707
ina	-10.0711
▁hired	-10.0721
▁received	-10.0721
▁bully	-10.0724
▁union	-10.0724
▁cia	-10.0725
▁shocked	-10.0726
down	-10.073
▁daddys	-10.073
▁blessed	-10.0732
bu	-10.0738
za	-10.0744
▁mentioned	-10.0753
▁considered	-10.0754
▁killers	-10.077
▁wayne	-10.0777
▁harm	-10.0788
▁oneill	-10.0791
▁fore	-10.0793
▁fee	-10.0794
▁towards	-10.0803
▁z	-10.0804
au	-10.0824
tter	-10.0825
▁spit	-10.0825
▁riding	-10.0826
nn	-10.0837
▁opened	-10.0888
▁offering	-10.0889
let	-10.089
▁neighbors	-10.0893
▁pan	-10.0899
▁loss	-10.0928
▁tapes	-10.0959
▁sucks	-10.0985
▁mil	-10.0992
▁val	-10.0994
▁remains	-10.0995
▁resist	-10.0997
▁shoe	-10.1006
▁yard	-10.1013
▁rob	-10.1017
▁actor	-10.1026
for	-10.1026
▁beating	-10.1028
well	-10.1039
way	-10.105
▁presents	-10.1055
▁gods	-10.1092
▁loser	-10.1094
▁fans	-10.11
▁falls	-10.1101
▁rate	-10.1124
▁artists	-10.1134
▁nation	-10.1147
▁enter	-10.1157
▁gunshots	-10.1176
▁bow	-10.1183
▁complain	-10.1185
art	-10.1193
▁talent	-10.1199
▁explode	-10.121
row	-10.1211
▁charm	-10.1212
▁brand	-10.1217
▁moments	-10.1219
▁herr	-10.1222
▁rap	-10.1224
▁iraq	-10.1228
▁lawyers	-10.1228
▁chose	-10.1229
▁alleluia	-10.1238
▁athena	-10.1238
▁central	-10.1238
▁dallas	-10.1238
▁dublin	-10.1238
▁education	-10.1238
▁exciting	-10.1238
▁filthy	-10.1238
▁genuine	-10.1238
▁grief	-10.1238
▁josef	-10.1238
▁judgment	-10.1238
▁kendricks	-10.1238
▁lorraine	-10.1238
▁militia	-10.1238
▁nuke	-10.1238
▁perrkins	-10.1238
▁procedure	-10.1238
▁senior	-10.1238
▁shrink	-10.1238
▁solomon	-10.1238
▁subtitles	-10.1238
▁swallow	-10.1238
▁therapy	-10.1238
▁unbelievable	-10.1238
▁violent	-10.1238
▁vodka	-10.1238
▁heather	-10.1238
▁queen	-10.1238
▁natalie	-10.1238
▁desert	-10.1238
▁planned	-10.1238
▁vicky	-10.1238
▁juice	-10.1239
▁conduct	-10.1239
▁paddy	-10.1239
▁zone	-10.1239
▁advantage	-10.1239
▁spell	-10.1239
▁angie	-10.1239
▁teii	-10.1239
▁viking	-10.124
▁barney	-10.124
▁trail	-10.124
▁quarter	-10.124
▁forgotten	-10.124
▁label	-10.124
▁possession	-10.124
▁announcement	-10.1241
▁string	-10.1241
▁flash	-10.1241
▁selena	-10.1241
▁loving	-10.1242
▁award	-10.1242
▁speedman	-10.1243
▁fellow	-10.1243
▁mercy	-10.1243
▁collection	-10.1244
▁exit	-10.1244
▁shine	-10.1245
▁buzzer	-10.1245
▁pops	-10.1245
▁wallet	-10.1245
▁forest	-10.1246
▁committed	-10.1246
▁joy	-10.1247
▁retarded	-10.125
▁laid	-10.1251
▁aim	-10.1252
▁embarrassed	-10.1255
▁statement	-10.1261
▁hath	-10.1261
▁abandoned	-10.1262
▁earn	-10.1264
▁letham	-10.1267
▁bond	-10.1269
▁dust	-10.1269
bi	-10.1271
▁ticky	-10.1272
▁peel	-10.1275
ble	-10.1278
▁healthy	-10.1282
▁eaten	-10.1286
▁spy	-10.1288
▁hy	-10.1292
ans	-10.1305
▁survived	-10.1312
▁points	-10.1315
▁x	-10.1323
▁escaped	-10.1325
▁pipe	-10.1335
▁mayor	-10.134
▁lads	-10.1344
▁del	-10.1346
ther	-10.135
▁knocked	-10.1354
▁flowers	-10.1356
▁tai	-10.1359
▁ye	-10.136
▁depends	-10.1367
ants	-10.1378
▁hostages	-10.1379
▁jib	-10.1383
▁leading	-10.1419
▁beg	-10.1421
▁staring	-10.1433
▁rec	-10.145
▁rag	-10.1451
▁recording	-10.1458
▁counts	-10.1467
ja	-10.1477
▁lin	-10.1481
▁waited	-10.1481
▁col	-10.1489
ical	-10.153
▁motherfuckers	-10.1531
▁fart	-10.1534
hand	-10.1535
▁rem	-10.1548
▁claim	-10.155
▁concern	-10.1551
▁chances	-10.1556
▁cheer	-10.156
▁pulling	-10.1586
▁arab	-10.1587
▁rope	-10.1591
▁teachers	-10.1594
▁neighbor	-10.1596
▁knee	-10.1598
cu	-10.16
▁nazi	-10.1602
▁les	-10.1604
ip	-10.1605
▁badly	-10.1606
ties	-10.161
ake	-10.161
▁lion	-10.1627
ger	-10.1655
▁cro	-10.1659
que	-10.1667
▁cap	-10.1669
▁bra	-10.1673
ran	-10.1697
rich	-10.1701
▁hunt	-10.1703
▁kings	-10.1723
ph	-10.1742
▁partners	-10.1748
▁suits	-10.1759
▁concentrate	-10.1762
▁faces	-10.1773
▁crawl	-10.1785
▁leak	-10.1786
nie	-10.1792
▁commission	-10.1793
board	-10.1798
▁threat	-10.1822
▁somethin	-10.1822
▁wha	-10.1824
▁secrets	-10.1825
▁announce	-10.1826
▁agency	-10.1826
▁alfredo	-10.1826
▁balkan	-10.1826
▁blizzard	-10.1826
▁century	-10.1826
▁challenge	-10.1826
▁compliment	-10.1826
▁dunnage	-10.1826
▁envelope	-10.1826
▁gabriel	-10.1826
▁gorgeous	-10.1826
▁infection	-10.1826
▁interrupt	-10.1826
▁jordan	-10.1826
▁lazlo	-10.1826
▁leaf	-10.1826
▁margaret	-10.1826
▁mikael	-10.1826
▁nefarious	-10.1826
▁nonsense	-10.1826
▁ocean	-10.1826
▁paradise	-10.1826
▁paranoid	-10.1826
▁patricia	-10.1826
▁response	-10.1826
▁ritual	-10.1826
▁safranek	-10.1826
▁sarge	-10.1826
▁sensitive	-10.1826
▁september	-10.1826
▁underground	-10.1826
▁virus	-10.1826
▁wesiey	-10.1826
▁mannix	-10.1826
▁random	-10.1826
▁crush	-10.1826
▁knowledge	-10.1826
▁spider	-10.1826
▁online	-10.1826
▁drove	-10.1826
▁tragic	-10.1826
▁peggy	-10.1826
▁vickie	-10.1826
▁kidnapper	-10.1826
▁thane	-10.1826
▁influence	-10.1826
▁kinky	-10.1826
▁network	-10.1827
▁dennis	-10.1827
▁pathetic	-10.1827
▁england	-10.1827
▁franco	-10.1827
▁bald	-10.1827
▁planning	-10.1827
▁stewart	-10.1827
▁segar	-10.1827
▁guide	-10.1827
▁robbed	-10.1827
▁curious	-10.1827
▁jewish	-10.1827
▁blanket	-10.1827
▁auto	-10.1827
▁bount	-10.1827
▁zee	-10.1828
▁wrist	-10.1828
▁foster	-10.1828
ville	-10.1828
▁unlike	-10.1828
▁brianna	-10.1829
▁investment	-10.1829
▁potter	-10.1829
▁yup	-10.1829
▁buzzes	-10.183
▁laughter	-10.183
▁confession	-10.183
▁community	-10.1831
▁deny	-10.1832
▁trial	-10.1833
▁minor	-10.1834
▁brendan	-10.1834
▁trash	-10.1834
▁standard	-10.1835
▁hitler	-10.1835
▁defeat	-10.1837
▁tank	-10.1838
▁host	-10.184
▁cutting	-10.1842
▁frankie	-10.1843
▁stable	-10.1844
▁passion	-10.1846
ko	-10.1847
▁kai	-10.1852
▁designed	-10.1854
▁julian	-10.1856
▁gray	-10.1861
▁successful	-10.1863
▁tax	-10.1863
▁confirmed	-10.1865
▁earned	-10.1868
▁scratch	-10.1874
▁mid	-10.1878
▁entirely	-10.188
▁machines	-10.1883
▁eve	-10.1884
▁loaded	-10.1885
▁rise	-10.1895
▁ruined	-10.1904
▁smarter	-10.1906
▁jt	-10.1907
▁karl	-10.1924
▁perfectly	-10.1928
▁tires	-10.1934
▁tri	-10.195
▁makeup	-10.1955
▁hire	-10.1955
▁cuts	-10.1959
▁stew	-10.1969
▁closet	-10.1975
▁attend	-10.1982
▁steps	-10.1984
▁ja	-10.1985
iest	-10.1986
▁laughed	-10.1991
▁res	-10.1992
▁dial	-10.1998
▁wh	-10.1998
rate	-10.2007
▁shatters	-10.2024
▁robert	-10.203
▁tryin	-10.2039
gro	-10.2047
fully	-10.2057
▁hei	-10.2089
oh	-10.2115
▁friendly	-10.2119
▁murders	-10.2135
ou	-10.2153
▁mei	-10.2162
▁pound	-10.2174
▁pure	-10.218
ude	-10.2192
▁hated	-10.2203
▁or	-10.2214
▁uniform	-10.2216
▁evan	-10.2217
▁hundreds	-10.2222
▁appear	-10.2222
▁detail	-10.2224
▁sue	-10.2225
▁parent	-10.2225
▁boot	-10.2227
▁tool	-10.2233
om	-10.2239
▁trusted	-10.2263
▁picking	-10.2276
▁issues	-10.228
▁image	-10.2289
▁ga	-10.2291
▁pockets	-10.2295
▁tra	-10.2316
gie	-10.2318
▁belongs	-10.2355
▁ohh	-10.236
igi	-10.2385
▁bleed	-10.239
▁ste	-10.241
▁confirm	-10.241
▁insist	-10.2411
▁ge	-10.2416
▁schedule	-10.2424
just	-10.2425
▁flip	-10.2427
▁ke	-10.2432
▁brenda	-10.2443
▁kev	-10.2444
▁prince	-10.2446
▁confess	-10.2447
▁smith	-10.2448
▁susan	-10.245
▁bureau	-10.2451
▁charles	-10.2451
▁commercial	-10.2451
▁corporation	-10.2451
▁delicious	-10.2451
▁dentist	-10.2451
▁exercise	-10.2451
▁families	-10.2451
▁kehoe	-10.2451
▁kenny	-10.2451
▁lancelot	-10.2451
▁license	-10.2451
▁marquis	-10.2451
▁neighbourhood	-10.2451
▁pencil	-10.2451
▁purvis	-10.2451
▁review	-10.2451
▁robocop	-10.2451
▁schultz	-10.2451
▁succeed	-10.2451
▁wednesday	-10.2451
▁whitney	-10.2451
▁appeal	-10.2451
▁fitzgerald	-10.2451
▁parole	-10.2451
▁waverly	-10.2451
▁garrett	-10.2451
▁beeps	-10.2451
▁quinn	-10.2451
▁miracle	-10.2451
▁tiger	-10.2452
▁carolina	-10.2452
▁profit	-10.2452
▁stabbed	-10.2452
▁rotten	-10.2452
▁stacy	-10.2452
▁growls	-10.2452
▁solid	-10.2452
▁salad	-10.2452
▁spring	-10.2452
▁vacation	-10.2452
▁inhales	-10.2452
▁suspicious	-10.2452
▁urgent	-10.2452
▁adler	-10.2453
▁padre	-10.2453
▁stress	-10.2453
▁scout	-10.2453
▁bride	-10.2453
▁hence	-10.2454
▁arrangement	-10.2454
▁reward	-10.2454
▁virginia	-10.2454
▁chasing	-10.2454
▁alley	-10.2454
▁gail	-10.2454
▁depressed	-10.2455
▁homicide	-10.2455
▁role	-10.2455
▁stillwater	-10.2456
▁murphy	-10.2456
▁bale	-10.2458
▁tune	-10.2458
▁wise	-10.2459
▁tina	-10.2459
▁hopefully	-10.2459
▁connie	-10.246
▁tries	-10.246
▁robbery	-10.246
▁drill	-10.2461
▁plain	-10.2462
▁grass	-10.2463
▁ease	-10.2464
▁swan	-10.2465
▁cage	-10.2466
▁betrayed	-10.247
▁rank	-10.2471
▁winter	-10.2471
▁witnesses	-10.2472
▁pullman	-10.2475
▁arse	-10.2477
▁rod	-10.2477
▁naturally	-10.2479
▁spare	-10.248
▁copies	-10.248
▁nun	-10.2482
▁dating	-10.2483
▁bout	-10.2487
▁afterwards	-10.249
▁sandy	-10.2492
▁chin	-10.251
ible	-10.2512
▁surely	-10.2516
▁raped	-10.2518
▁destroyed	-10.2521
▁commander	-10.2522
▁farmer	-10.2533
den	-10.2538
▁deserved	-10.2551
▁lan	-10.2552
▁tale	-10.2567
▁pissed	-10.2569
▁her	-10.2574
▁crossed	-10.2588
▁cameras	-10.259
▁visiting	-10.2629
▁hip	-10.2631
▁fu	-10.2633
▁nash	-10.2643
▁mob	-10.2648
▁media	-10.2649
▁toe	-10.2652
▁unc	-10.2654
▁laws	-10.266
▁fixed	-10.2661
▁gosh	-10.2691
ris	-10.2701
ice	-10.2712
▁terms	-10.2732
▁iron	-10.2758
▁va	-10.2761
tch	-10.2769
ize	-10.2789
▁kissing	-10.2792
▁ted	-10.2808
▁nightmares	-10.2812
▁patients	-10.2874
▁cocks	-10.2874
▁newspaper	-10.2881
▁saddam	-10.2881
▁glove	-10.2885
ev	-10.2886
▁pin	-10.2887
▁bones	-10.2897
▁customer	-10.2899
▁dollar	-10.2902
▁likely	-10.2916
▁remembered	-10.2933
▁mile	-10.2945
▁sis	-10.2962
▁hearts	-10.2988
▁mat	-10.2992
the	-10.3011
▁tran	-10.3017
▁sub	-10.302
▁quote	-10.3031
▁clang	-10.307
▁thrill	-10.3078
av	-10.3085
▁divorce	-10.3089
▁sacrifice	-10.3091
▁custom	-10.3099
▁mental	-10.3107
▁africa	-10.3109
▁require	-10.311
▁sandwich	-10.311
▁object	-10.3111
▁lou	-10.3114
▁lovin	-10.3114
▁fights	-10.3117
▁cruel	-10.3117
▁transfer	-10.3117
▁attitude	-10.3118
▁awesome	-10.3118
▁benefit	-10.3118
▁casablanca	-10.3118
▁coincidence	-10.3118
▁cottage	-10.3118
▁doorbell	-10.3118
▁easily	-10.3118
▁explosion	-10.3118
▁fantastic	-10.3118
▁florida	-10.3118
▁houston	-10.3118
▁jarrett	-10.3118
▁jennifer	-10.3118
▁katherine	-10.3118
▁kekambas	-10.3118
▁kennard	-10.3118
▁museum	-10.3118
▁myrtle	-10.3118
▁ooooh	-10.3118
▁policy	-10.3118
▁popular	-10.3118
▁privacy	-10.3118
▁purple	-10.3118
▁renato	-10.3118
▁respond	-10.3118
▁smack	-10.3118
▁tissue	-10.3118
▁typewriter	-10.3118
▁vicomte	-10.3118
▁wealth	-10.3118
▁willard	-10.3118
▁arguing	-10.3118
▁charity	-10.3118
▁dolores	-10.3118
▁feather	-10.3118
▁miserable	-10.3118
▁gallery	-10.3118
▁domino	-10.3118
▁roaring	-10.3118
▁adult	-10.3118
▁sniffles	-10.3118
▁tower	-10.3118
▁headache	-10.3118
▁practical	-10.3118
▁plug	-10.3118
▁swimming	-10.3118
▁coast	-10.3118
▁rifle	-10.3118
▁sunset	-10.3118
▁burger	-10.3118
▁lipstick	-10.3118
▁burke	-10.3118
▁display	-10.3118
▁tess	-10.3119
▁mossad	-10.3119
▁pettyman	-10.3119
▁root	-10.3119
▁stripper	-10.3119
▁trent	-10.3119
▁joan	-10.312
▁fox	-10.312
▁moron	-10.312
▁slice	-10.312
▁andy	-10.3121
▁maniac	-10.3121
▁capable	-10.3121
▁rice	-10.3121
▁abra	-10.3122
▁coco	-10.3122
▁rick	-10.3122
▁task	-10.3123
▁package	-10.3123
▁construction	-10.3124
▁facebook	-10.3124
▁dye	-10.3126
▁tiny	-10.3128
▁gunner	-10.3129
▁myth	-10.313
▁archer	-10.3131
▁purse	-10.3131
▁ron	-10.3132
▁heil	-10.3132
▁sole	-10.3136
▁fade	-10.3138
▁ruby	-10.314
▁mustang	-10.3141
▁reds	-10.3141
▁oil	-10.3141
▁au	-10.3147
▁dudes	-10.3151
▁lit	-10.3152
▁warned	-10.3152
▁clicking	-10.3152
▁hangman	-10.3156
▁joker	-10.3157
▁prize	-10.3166
ward	-10.3169
▁delivery	-10.317
ified	-10.3173
▁joint	-10.3177
▁latest	-10.3184
vin	-10.3189
▁focused	-10.319
▁cheating	-10.3191
ities	-10.3194
▁manner	-10.3198
ory	-10.3199
▁can	-10.3202
▁pub	-10.3208
▁stones	-10.3209
▁filled	-10.3215
iss	-10.3216
▁skills	-10.3224
▁shared	-10.3233
▁ban	-10.3242
▁pretending	-10.3247
▁site	-10.3248
▁drawing	-10.3249
▁manage	-10.3249
▁yous	-10.3256
▁freaking	-10.3261
▁rub	-10.3272
▁chase	-10.3274
▁higher	-10.3285
wrapped	-10.3286
▁boob	-10.3299
▁enjoyed	-10.33
tis	-10.3301
▁yelps	-10.3322
cha	-10.3331
▁painful	-10.3332
▁counting	-10.3337
▁rebels	-10.3339
▁wrap	-10.3345
▁streets	-10.3347
▁pushing	-10.3348
cat	-10.3356
▁unh	-10.3357
ong	-10.3371
▁pea	-10.3372
▁passing	-10.3381
▁poet	-10.3399
▁marv	-10.3405
▁nations	-10.3406
▁anne	-10.3413
▁to	-10.3417
▁cleaned	-10.3431
▁marks	-10.3434
▁ru	-10.3464
▁led	-10.3497
▁wr	-10.3497
▁powers	-10.3504
▁changes	-10.3536
com	-10.3541
▁chi	-10.3544
va	-10.3545
▁walls	-10.3551
▁barb	-10.3563
▁criminals	-10.3571
▁commit	-10.359
▁rebel	-10.3595
▁effect	-10.3596
▁bunker	-10.3597
▁slave	-10.3598
▁admire	-10.3599
▁chick	-10.3599
▁photo	-10.3602
▁season	-10.3602
ette	-10.3604
▁ski	-10.3615
▁slap	-10.3617
▁souls	-10.3619
hoo	-10.3621
▁kit	-10.3629
▁hills	-10.3643
▁players	-10.3669
▁clients	-10.3671
ide	-10.3675
ily	-10.3684
ek	-10.3728
▁assassin	-10.3738
istic	-10.3739
▁we	-10.3749
▁spa	-10.3787
▁fra	-10.3788
▁forces	-10.379
▁intend	-10.3791
▁discover	-10.3794
▁israel	-10.3795
▁stake	-10.3795
▁describe	-10.3805
book	-10.3805
▁secure	-10.3805
▁georg	-10.3806
▁solve	-10.3806
field	-10.3806
spite	-10.3807
▁heal	-10.3808
▁actual	-10.3822
cking	-10.3827
▁isabel	-10.3829
▁mal	-10.3829
▁author	-10.3829
▁fashion	-10.3832
▁fifth	-10.3832
▁junkie	-10.3832
▁accent	-10.3832
▁alcohol	-10.3832
▁bargain	-10.3832
▁chirping	-10.3832
▁custody	-10.3832
▁delilah	-10.3832
▁delusion	-10.3832
▁dungatar	-10.3832
▁exclaim	-10.3832
▁fridge	-10.3832
▁hartigan	-10.3832
▁holiday	-10.3832
▁klaus	-10.3832
▁mystery	-10.3832
▁olivia	-10.3832
▁opposite	-10.3832
▁petroglyphs	-10.3832
▁philatelist	-10.3832
▁principal	-10.3832
▁ramirez	-10.3832
▁rescue	-10.3832
▁restaurant	-10.3832
▁roark	-10.3832
▁salameh	-10.3832
▁snake	-10.3832
▁telfer	-10.3832
▁tooth	-10.3832
▁becoming	-10.3832
▁brief	-10.3832
▁dispatch	-10.3832
▁jassie	-10.3832
▁mccoy	-10.3832
▁merlin	-10.3832
▁crisis	-10.3832
▁entry	-10.3832
▁lauren	-10.3832
▁pickett	-10.3832
▁beast	-10.3832
▁brakes	-10.3832
▁international	-10.3832
▁silent	-10.3832
▁blast	-10.3832
▁kyle	-10.3832
▁float	-10.3832
▁individual	-10.3832
▁uhuh	-10.3832
▁television	-10.3832
▁octopus	-10.3833
▁harford	-10.3833
▁clip	-10.3833
▁cowboy	-10.3833
▁exam	-10.3833
▁activity	-10.3833
▁lousy	-10.3833
▁performance	-10.3833
▁notebook	-10.3833
serving	-10.3833
▁bethany	-10.3833
▁prime	-10.3834
▁rack	-10.3834
▁anger	-10.3834
▁ballistic	-10.3834
▁loyalty	-10.3834
▁series	-10.3834
▁email	-10.3834
▁inches	-10.3835
▁pattern	-10.3836
▁crackling	-10.3836
▁silence	-10.3836
▁soup	-10.3837
▁fries	-10.3837
▁extremely	-10.3837
▁apple	-10.3837
▁danceny	-10.3838
▁andrew	-10.3838
▁universe	-10.384
▁solo	-10.384
▁nasty	-10.384
▁campus	-10.3841
▁african	-10.3841
▁math	-10.3842
▁silhouettes	-10.3842
▁dip	-10.3844
▁scott	-10.3845
▁iraqi	-10.3846
▁satan	-10.3846
▁kiddo	-10.3849
▁arranged	-10.3849
▁sighing	-10.385
▁choke	-10.3852
▁gain	-10.3852
▁homework	-10.3853
▁link	-10.3853
organ	-10.3857
att	-10.3859
▁mia	-10.3868
▁pile	-10.3876
▁highest	-10.388
▁down	-10.3886
▁equal	-10.3898
▁revolution	-10.3906
▁herod	-10.3911
▁forced	-10.3915
▁coz	-10.3917
▁wounded	-10.392
▁meantime	-10.3921
▁lungs	-10.3929
▁county	-10.3929
▁lick	-10.393
uck	-10.3955
▁considering	-10.3961
▁rot	-10.3967
▁filling	-10.3969
▁cooking	-10.3999
ub	-10.4
▁ding	-10.4005
▁chips	-10.4009
▁jumped	-10.401
▁clouds	-10.4017
▁sales	-10.4034
▁tur	-10.4052
▁dings	-10.4058
nk	-10.4064
ame	-10.4065
▁goodness	-10.4067
▁tend	-10.4081
▁eliminate	-10.4092
▁not	-10.4092
▁messing	-10.4093
▁cure	-10.4104
▁swa	-10.4108
▁cal	-10.4111
▁needle	-10.4119
▁hai	-10.4129
▁kissed	-10.4133
▁playin	-10.4136
▁imma	-10.4147
▁yards	-10.4147
▁sting	-10.4152
▁ni	-10.4152
▁losers	-10.416
▁deck	-10.4169
▁improve	-10.4177
▁din	-10.418
▁dancer	-10.4183
wa	-10.4183
▁lab	-10.4189
▁dreamed	-10.4189
▁una	-10.4205
zo	-10.4217
▁range	-10.4231
ud	-10.4236
▁gee	-10.4238
more	-10.4238
▁cl	-10.4257
ters	-10.4281
▁ki	-10.4319
ome	-10.4327
▁pale	-10.4355
▁angels	-10.4357
▁bells	-10.4361
▁candle	-10.4363
▁vampire	-10.4364
▁yelp	-10.437
▁sometime	-10.4376
▁eggs	-10.4404
▁when	-10.4423
▁stranger	-10.4426
tra	-10.4426
▁accidental	-10.4441
▁fed	-10.4443
pen	-10.4452
if	-10.4456
▁q	-10.4461
ration	-10.4484
▁warn	-10.449
▁approach	-10.4502
▁mem	-10.4511
▁jam	-10.4518
▁pour	-10.4518
▁windows	-10.4531
▁environment	-10.4533
▁speaker	-10.454
itt	-10.4542
▁applaud	-10.4548
old	-10.4555
▁hoped	-10.4555
▁limit	-10.456
▁melt	-10.4561
▁worrying	-10.4562
room	-10.4564
▁eli	-10.4565
port	-10.4569
▁drivers	-10.4573
▁torture	-10.4574
itch	-10.4574
beat	-10.4575
▁grant	-10.4575
▁damage	-10.4575
▁curse	-10.4579
▁dirt	-10.4581
▁sup	-10.4585
hour	-10.4587
▁absolute	-10.4588
▁russia	-10.4593
▁restrain	-10.46
▁behave	-10.4602
▁belief	-10.4602
▁blomkvist	-10.4602
▁bollix	-10.4602
▁bulgarian	-10.4602
▁capital	-10.4602
▁cemetery	-10.4602
▁champagne	-10.4602
▁circus	-10.4602
▁colleague	-10.4602
▁conflict	-10.4602
▁cornwallis	-10.4602
▁delegates	-10.4602
▁denzel	-10.4602
▁domergue	-10.4602
▁embassy	-10.4602
▁escort	-10.4602
▁ghetto	-10.4602
▁hanlon	-10.4602
▁industry	-10.4602
▁inspector	-10.4602
▁invitation	-10.4602
▁library	-10.4602
▁liquor	-10.4602
▁mexican	-10.4602
▁norway	-10.4602
▁occasion	-10.4602
▁oclock	-10.4602
▁pardon	-10.4602
▁patience	-10.4602
▁profile	-10.4602
▁pulse	-10.4602
▁similar	-10.4602
▁skull	-10.4602
▁surgeon	-10.4602
▁temple	-10.4602
▁wagon	-10.4602
▁eternal	-10.4602
▁identity	-10.4602
▁jeez	-10.4602
▁orange	-10.4602
▁ouch	-10.4602
▁praise	-10.4602
▁reckon	-10.4602
▁russo	-10.4602
▁supply	-10.4602
▁austin	-10.4602
▁collar	-10.4602
▁crew	-10.4602
▁elena	-10.4602
▁oscar	-10.4602
▁political	-10.4602
▁renate	-10.4602
▁slut	-10.4602
▁mouse	-10.4602
▁saint	-10.4602
▁scrap	-10.4602
▁pervert	-10.4602
▁crank	-10.4602
▁permanent	-10.4602
▁piace	-10.4602
▁stutters	-10.4602
▁speer	-10.4602
▁pimp	-10.4602
▁kidnapped	-10.4602
▁dammit	-10.4602
▁underwear	-10.4602
▁carried	-10.4602
▁remote	-10.4602
▁cocktail	-10.4602
▁transport	-10.4602
▁drift	-10.4602
▁outfit	-10.4602
▁roach	-10.4602
▁authorities	-10.4602
▁bernie	-10.4602
▁cheek	-10.4602
▁pension	-10.4602
▁pat	-10.4602
▁france	-10.4602
▁waitress	-10.4602
▁honking	-10.4602
▁owns	-10.4602
▁untie	-10.4602
▁spud	-10.4602
▁valley	-10.4602
▁jammed	-10.4602
▁backwards	-10.4603
▁argh	-10.4603
▁pride	-10.4603
▁championship	-10.4603
▁sail	-10.4603
▁bobbi	-10.4603
▁georgia	-10.4603
▁limbo	-10.4603
▁editor	-10.4603
▁gangster	-10.4604
▁giant	-10.4604
▁thug	-10.4604
▁effective	-10.4604
▁psychiatrist	-10.4604
▁grip	-10.4604
▁ditch	-10.4604
▁acid	-10.4604
▁karen	-10.4604
▁irish	-10.4605
▁marine	-10.4605
▁waist	-10.4605
▁labor	-10.4605
▁gladys	-10.4605
▁hank	-10.4606
▁sack	-10.4606
▁aside	-10.4606
▁vol	-10.4606
▁bug	-10.4606
▁derry	-10.4606
▁quality	-10.4607
▁technically	-10.4608
▁booth	-10.4608
▁express	-10.4609
▁treatment	-10.461
▁thick	-10.461
▁trap	-10.461
▁accused	-10.4611
▁bleedin	-10.4612
▁gim	-10.4618
cer	-10.4619
▁royal	-10.4619
▁choking	-10.462
▁factory	-10.462
▁hart	-10.4623
▁deco	-10.4624
▁walks	-10.4625
▁mass	-10.4627
▁fallen	-10.4628
▁squeaking	-10.4628
▁palm	-10.4633
eath	-10.4636
▁pinky	-10.4637
▁wicked	-10.4638
▁granted	-10.4641
▁israeli	-10.4642
essa	-10.4645
▁passes	-10.4646
▁spirits	-10.4647
▁germany	-10.4647
▁normally	-10.4651
▁der	-10.4652
lan	-10.4653
▁burnt	-10.4658
▁served	-10.4668
▁charming	-10.4673
▁entering	-10.4674
▁frankly	-10.4682
▁painter	-10.4689
▁moves	-10.4689
▁gotcha	-10.4693
▁rape	-10.4699
▁wipe	-10.47
▁stands	-10.4701
▁skipp	-10.4702
▁services	-10.4721
▁pelts	-10.4725
▁belly	-10.4729
▁tone	-10.4754
mat	-10.4757
▁hid	-10.4759
▁highly	-10.478
▁gut	-10.4786
▁searching	-10.479
▁messed	-10.4818
▁packing	-10.4822
▁extract	-10.4825
▁just	-10.4826
▁sim	-10.4832
you	-10.4836
▁bees	-10.4848
▁slo	-10.4848
▁hon	-10.4849
▁strangers	-10.4849
▁messages	-10.485
▁deserves	-10.4852
▁gu	-10.4853
▁demo	-10.4859
▁gal	-10.4874
▁trans	-10.4878
▁gloves	-10.4879
▁hates	-10.4891
▁signs	-10.4899
▁jane	-10.4902
▁ce	-10.4902
gy	-10.4916
▁nov	-10.4923
▁leads	-10.4932
▁odds	-10.4956
▁thin	-10.4976
▁shooter	-10.4979
▁mu	-10.4995
▁usa	-10.5002
▁wins	-10.5003
cal	-10.5023
light	-10.5029
▁diamonds	-10.5033
▁sticking	-10.5037
▁rats	-10.504
rumme	-10.5052
▁prisoners	-10.5055
▁throwing	-10.506
▁whol	-10.5064
▁med	-10.5067
ium	-10.5118
▁fla	-10.513
car	-10.5133
vie	-10.5163
▁ber	-10.517
▁tu	-10.5177
▁touching	-10.519
▁sta	-10.5193
▁degree	-10.5201
▁member	-10.5208
▁workin	-10.521
▁pio	-10.5222
▁design	-10.5249
▁bee	-10.526
of	-10.5264
▁prayer	-10.5267
▁caused	-10.5284
▁whistle	-10.5286
owned	-10.5291
▁sale	-10.5292
uv	-10.5293
▁files	-10.5326
ata	-10.5327
▁gather	-10.5342
▁skip	-10.5345
mar	-10.5363
▁az	-10.5365
▁ton	-10.5372
▁bands	-10.5378
▁perform	-10.5382
▁connect	-10.5391
▁cancel	-10.5394
▁mix	-10.5398
▁wick	-10.5401
two	-10.5411
▁kuwait	-10.5414
▁disorder	-10.5419
▁goddam	-10.5427
▁authentic	-10.5435
▁argument	-10.5435
▁assault	-10.5435
▁athlete	-10.5435
▁avenue	-10.5435
▁awkward	-10.5435
▁background	-10.5435
▁bollocks	-10.5435
▁cabrini	-10.5435
▁celebrating	-10.5435
▁channel	-10.5435
▁cocaine	-10.5435
▁collapse	-10.5435
▁concrete	-10.5435
▁confidence	-10.5435
▁constant	-10.5435
▁damien	-10.5435
▁device	-10.5435
▁district	-10.5435
▁elbow	-10.5435
▁eleven	-10.5435
▁facility	-10.5435
▁gertrude	-10.5435
▁giovanni	-10.5435
▁harvard	-10.5435
▁headmaster	-10.5435
▁juggernaut	-10.5435
▁keith	-10.5435
▁laundry	-10.5435
▁lurasetti	-10.5435
▁matthew	-10.5435
▁melvin	-10.5435
▁murmansk	-10.5435
▁ornithologist	-10.5435
▁palancio	-10.5435
▁pilot	-10.5435
▁pistol	-10.5435
▁precious	-10.5435
▁principle	-10.5435
▁racist	-10.5435
▁relieved	-10.5435
▁reservation	-10.5435
▁routine	-10.5435
▁scordia	-10.5435
▁shelter	-10.5435
▁someplace	-10.5435
▁stazek	-10.5435
▁stroke	-10.5435
▁summon	-10.5435
▁surgery	-10.5435
▁swore	-10.5435
▁sydney	-10.5435
▁towel	-10.5435
▁tunnel	-10.5435
▁twat	-10.5435
▁unhappy	-10.5435
▁veronika	-10.5435
▁vogelmann	-10.5435
▁wegener	-10.5435
▁wiesler	-10.5435
▁contain	-10.5435
▁hurst	-10.5435
▁lmelda	-10.5435
▁session	-10.5435
▁snack	-10.5435
▁cameroon	-10.5435
▁clatters	-10.5435
▁concept	-10.5435
▁angle	-10.5435
▁powder	-10.5435
▁skirt	-10.5435
▁estate	-10.5435
▁moaning	-10.5435
▁puppy	-10.5435
▁nephew	-10.5435
▁roommate	-10.5435
▁silk	-10.5435
▁drain	-10.5435
▁begbie	-10.5435
▁yis	-10.5435
▁freddy	-10.5435
▁grandfather	-10.5435
▁independent	-10.5435
▁freezing	-10.5436
▁ritter	-10.5436
▁sharing	-10.5436
▁rabbitte	-10.5436
▁status	-10.5436
▁golf	-10.5436
▁adventure	-10.5436
▁happiness	-10.5436
▁patriot	-10.5436
iff	-10.5436
▁punishment	-10.5436
▁intention	-10.5437
▁management	-10.5437
▁internet	-10.5437
▁knight	-10.5437
▁passport	-10.5437
▁development	-10.5437
▁authority	-10.5437
▁clive	-10.5437
▁foul	-10.5437
▁vanger	-10.5438
▁lindo	-10.5438
▁brick	-10.5438
▁iove	-10.5438
▁santa	-10.5438
▁sauce	-10.5439
▁boil	-10.5439
▁steady	-10.544
▁blonde	-10.544
▁fink	-10.544
▁priority	-10.544
▁sync	-10.544
▁critical	-10.5441
▁agreement	-10.5441
▁torn	-10.5441
▁dre	-10.5441
▁quitting	-10.5441
▁pecker	-10.5443
▁peterson	-10.5444
easel	-10.5444
▁flush	-10.5447
▁pole	-10.5447
▁rug	-10.5448
▁balloon	-10.545
▁exhausted	-10.545
▁earl	-10.5451
▁jet	-10.5452
▁sal	-10.5453
▁soda	-10.5456
▁obsessed	-10.5457
▁conf	-10.5457
▁threatened	-10.5457
▁ability	-10.546
▁mere	-10.546
▁invented	-10.5461
▁heroes	-10.5461
▁leda	-10.5462
▁barking	-10.5462
▁moss	-10.5465
▁properly	-10.5466
▁kilo	-10.5467
▁embarrassing	-10.5469
▁recommended	-10.5471
▁forty	-10.5472
▁drowned	-10.5472
▁shy	-10.5473
▁connected	-10.5475
▁hack	-10.5477
gging	-10.5478
▁goodnight	-10.5481
▁settled	-10.5483
▁pam	-10.5485
▁classes	-10.5489
▁meters	-10.5493
▁clanging	-10.55
▁suffered	-10.5513
▁painted	-10.552
▁disturbing	-10.5522
▁experienced	-10.5533
▁hunter	-10.5543
▁mus	-10.5544
ade	-10.5547
▁shitting	-10.5548
▁suspected	-10.5558
▁vl	-10.5558
▁belonged	-10.5563
▁accepted	-10.5568
▁terrorists	-10.557
▁seats	-10.5574
▁guards	-10.5583
mine	-10.5588
▁results	-10.5612
▁shin	-10.563
▁civilians	-10.5632
▁fag	-10.5635
▁accounts	-10.5643
▁jews	-10.5653
▁peep	-10.5653
▁stare	-10.5659
▁shove	-10.5662
▁degrees	-10.5674
▁joining	-10.5678
▁meds	-10.5685
▁becomes	-10.5686
▁guts	-10.5686
▁wondered	-10.5691
▁gin	-10.5695
▁mer	-10.5711
▁enjoying	-10.5738
ability	-10.5746
▁imp	-10.5746
four	-10.575
▁familys	-10.5752
▁ag	-10.5753
▁pend	-10.5757
▁shuts	-10.5769
ray	-10.5793
▁she	-10.581
▁mountains	-10.5813
▁learning	-10.5834
▁projects	-10.5841
▁clubs	-10.5849
▁primar	-10.5853
▁guests	-10.5864
▁ju	-10.5888
▁merci	-10.5888
▁mau	-10.5901
▁polls	-10.5922
▁ei	-10.5925
▁nicer	-10.5926
▁vehicles	-10.5928
▁bru	-10.5942
▁events	-10.5946
▁sens	-10.5951
▁demons	-10.597
▁cells	-10.5972
▁answering	-10.598
ied	-10.5985
ash	-10.5988
▁chat	-10.5998
▁fighters	-10.601
gen	-10.6012
▁bun	-10.6026
▁fur	-10.6049
▁dee	-10.6056
▁wu	-10.607
▁bake	-10.6079
headed	-10.6096
▁pointed	-10.6099
ically	-10.6101
▁comrade	-10.6103
▁jew	-10.6109
▁cloud	-10.6112
▁hostage	-10.6115
▁bean	-10.6116
▁button	-10.6117
▁ap	-10.6135
hu	-10.6142
▁grade	-10.6149
▁wi	-10.616
▁gasp	-10.6191
▁fires	-10.6195
▁bangs	-10.6197
▁targets	-10.6206
we	-10.6214
oc	-10.622
bling	-10.6222
▁funk	-10.6236
▁emma	-10.6236
night	-10.6273
aiiing	-10.6288
▁intern	-10.6298
▁spin	-10.6298
▁monitor	-10.6302
▁recommend	-10.6302
▁publish	-10.6304
▁abandon	-10.6305
▁stab	-10.6305
▁pointing	-10.631
back	-10.631
shed	-10.6311
▁replace	-10.6315
power	-10.6317
▁capture	-10.6317
▁convince	-10.6317
born	-10.6319
bird	-10.6319
native	-10.6328
▁madam	-10.6328
▁mon	-10.6331
▁severe	-10.6331
▁weigh	-10.6333
▁critic	-10.6338
▁assign	-10.6341
▁clark	-10.6342
▁cloth	-10.6342
▁iris	-10.6343
▁inter	-10.6343
▁sara	-10.6344
▁disgrace	-10.6344
▁experiment	-10.6344
▁rhythm	-10.6344
▁savage	-10.6344
▁wouid	-10.6344
▁activities	-10.6344
▁ambush	-10.6344
▁amigo	-10.6344
▁average	-10.6344
▁benjamin	-10.6344
▁blackmail	-10.6344
▁cawdor	-10.6344
▁communication	-10.6344
▁dahye	-10.6344
▁debbie	-10.6344
▁dmitri	-10.6344
▁donovan	-10.6344
▁dopinder	-10.6344
▁eskimo	-10.6344
▁explanation	-10.6344
▁granny	-10.6344
▁haircut	-10.6344
▁inhabit	-10.6344
▁instrument	-10.6344
▁jerska	-10.6344
▁kaspbrak	-10.6344
▁klimek	-10.6344
▁liquid	-10.6344
▁lnspector	-10.6344
▁majesty	-10.6344
▁marybeth	-10.6344
▁mutant	-10.6344
▁nightingale	-10.6344
▁nypd	-10.6344
▁ottavio	-10.6344
▁pancakes	-10.6344
▁penalty	-10.6344
▁population	-10.6344
▁receipt	-10.6344
▁rykov	-10.6344
▁sausage	-10.6344
▁screeches	-10.6344
▁struggle	-10.6344
▁suspended	-10.6344
▁territory	-10.6344
▁unknown	-10.6344
▁vasquez	-10.6344
▁vomit	-10.6344
▁balance	-10.6344
▁condom	-10.6344
▁samuel	-10.6344
▁volume	-10.6344
▁warrior	-10.6344
▁superior	-10.6344
▁absence	-10.6344
▁clerk	-10.6344
▁kirk	-10.6344
▁presence	-10.6344
▁launch	-10.6344
▁terrified	-10.6344
▁misery	-10.6344
▁jaysis	-10.6344
▁cort	-10.6344
▁sammy	-10.6344
▁kidnapping	-10.6344
▁bogart	-10.6344
▁peasant	-10.6344
▁committee	-10.6344
▁tshirt	-10.6344
▁alert	-10.6344
▁stasi	-10.6344
▁cliff	-10.6344
▁leonard	-10.6344
▁francisco	-10.6344
▁wives	-10.6344
▁referee	-10.6344
▁retirement	-10.6344
▁spank	-10.6344
▁beeze	-10.6344
▁thailand	-10.6344
▁whys	-10.6345
▁zip	-10.6345
▁lightning	-10.6345
▁choir	-10.6345
▁cooperate	-10.6345
▁maintain	-10.6345
▁tenderness	-10.6345
▁arrogant	-10.6345
▁begun	-10.6345
▁lyle	-10.6345
▁electricity	-10.6345
▁frame	-10.6345
▁existence	-10.6345
▁torch	-10.6345
▁aight	-10.6345
▁costume	-10.6346
▁offend	-10.6346
▁creek	-10.6346
▁steam	-10.6346
▁brace	-10.6346
▁lazy	-10.6346
▁booze	-10.6346
▁earring	-10.6346
▁puke	-10.6346
▁poppa	-10.6346
▁assignment	-10.6347
▁fax	-10.6348
▁continental	-10.6348
▁laughlng	-10.6348
▁selfish	-10.6348
▁jaw	-10.6349
▁growling	-10.6349
udge	-10.6349
▁broad	-10.635
▁panic	-10.635
vious	-10.635
▁stepped	-10.635
▁wander	-10.635
▁jayne	-10.635
▁temper	-10.635
▁graduate	-10.635
▁lip	-10.6351
▁shipment	-10.6353
▁retired	-10.6353
▁detected	-10.6353
▁marty	-10.6354
uc	-10.6354
▁cue	-10.6355
▁whatre	-10.6355
▁whack	-10.6356
▁personality	-10.6356
boat	-10.6357
▁informant	-10.6357
▁idiots	-10.6358
▁sore	-10.6359
▁suggestion	-10.636
▁stream	-10.636
▁bash	-10.6361
▁shave	-10.6363
▁shithole	-10.6365
▁convicted	-10.6365
▁georgie	-10.6365
▁vice	-10.6366
▁indiana	-10.6366
▁brad	-10.6367
▁dragged	-10.637
▁captured	-10.6371
hop	-10.6371
▁apply	-10.6372
▁backpack	-10.6373
goc	-10.6375
▁thus	-10.6375
tz	-10.6378
▁wil	-10.6378
▁booty	-10.6378
▁che	-10.6385
▁vest	-10.6387
▁asset	-10.6387
▁mixed	-10.6388
▁discovered	-10.6395
▁sum	-10.6399
▁parties	-10.6399
▁gag	-10.641
▁louder	-10.6414
▁barber	-10.6415
▁cabin	-10.6417
▁flames	-10.6421
▁poisoned	-10.6422
▁qua	-10.6422
▁structure	-10.6429
▁blown	-10.6431
eh	-10.6444
▁relatives	-10.6447
▁chip	-10.6449
▁hats	-10.6449
spect	-10.6453
▁driven	-10.6456
apping	-10.6458
▁hardest	-10.6462
right	-10.6468
▁emotions	-10.6471
▁quietly	-10.6471
▁addict	-10.6473
▁bud	-10.6486
▁thinkin	-10.6487
▁wool	-10.6489
▁muscles	-10.6492
▁reeves	-10.6492
▁dam	-10.6496
▁movement	-10.6496
▁tube	-10.6497
▁freaked	-10.6498
▁allie	-10.65
▁christa	-10.6505
▁cracked	-10.6514
▁catholics	-10.6515
▁blocked	-10.6517
▁wasted	-10.6518
▁asses	-10.6524
▁hooked	-10.6525
▁roman	-10.6544
▁ti	-10.6558
▁eatin	-10.6566
▁cracker	-10.657
▁pose	-10.658
▁charges	-10.658
grade	-10.6582
▁engineer	-10.659
▁fuckers	-10.6614
▁sides	-10.6618
▁dressing	-10.6619
▁millions	-10.6619
▁protecting	-10.6631
▁bothering	-10.6651
▁chicks	-10.6651
▁slaves	-10.6654
▁effects	-10.6654
▁seasons	-10.6654
▁landing	-10.6658
aries	-10.6659
▁parking	-10.6661
ella	-10.6661
▁ref	-10.6661
▁formal	-10.6681
▁customers	-10.6681
▁til	-10.6686
▁mistakes	-10.669
bj	-10.669
▁vic	-10.6693
tick	-10.6697
ition	-10.6709
▁mamas	-10.6719
▁nazis	-10.6723
hill	-10.6738
▁mini	-10.6741
▁rep	-10.6745
▁actors	-10.6753
▁sayin	-10.6779
▁bills	-10.678
▁depend	-10.6783
▁batt	-10.6788
▁gall	-10.6805
ova	-10.6808
▁nails	-10.6816
▁pays	-10.6833
▁fears	-10.6836
▁gar	-10.6839
win	-10.6839
▁gi	-10.6858
▁bend	-10.6862
▁my	-10.6869
can	-10.689
▁deed	-10.6904
▁loan	-10.6911
▁document	-10.6914
umb	-10.6917
ung	-10.6919
▁winds	-10.692
ement	-10.6939
izing	-10.6944
▁spott	-10.6957
▁cul	-10.6962
▁liber	-10.7015
▁codes	-10.7045
▁click	-10.7067
vel	-10.7071
▁models	-10.7075
▁worker	-10.7084
▁banks	-10.7088
iving	-10.7098
▁flea	-10.7103
▁nerve	-10.7103
▁shadow	-10.7105
▁snap	-10.711
▁civilian	-10.7111
pot	-10.7111
▁sock	-10.7112
▁toward	-10.7114
▁beside	-10.712
stone	-10.7136
▁tables	-10.714
▁sch	-10.7161
▁tub	-10.7186
▁soc	-10.7206
▁chains	-10.7208
▁questioning	-10.722
low	-10.7224
gar	-10.7225
▁prep	-10.7244
▁drown	-10.7251
any	-10.7261
▁shite	-10.727
▁fin	-10.7273
▁noon	-10.7275
ology	-10.7288
ford	-10.7288
▁smash	-10.7291
▁journal	-10.7295
▁disappoint	-10.7299
▁fold	-10.7302
oir	-10.7304
▁tim	-10.7305
▁recover	-10.7306
class	-10.732
▁separate	-10.7321
erie	-10.7324
▁drives	-10.7324
▁advise	-10.7325
shit	-10.7326
▁dates	-10.7326
▁bombs	-10.7326
▁negotiat	-10.7327
▁numb	-10.7328
bag	-10.733
▁tre	-10.733
▁zoo	-10.7337
▁affect	-10.7339
▁possess	-10.7343
▁civil	-10.7343
▁terror	-10.7343
▁entertain	-10.7343
▁ponch	-10.7343
▁drama	-10.7343
▁achieve	-10.7344
▁trauma	-10.7344
▁accomplish	-10.7344
▁annabeth	-10.7344
▁anniversary	-10.7344
▁approximately	-10.7344
▁atlanti	-10.7344
▁attach	-10.7344
▁audrey	-10.7344
▁august	-10.7344
▁bachelor	-10.7344
▁barbecue	-10.7344
▁bartender	-10.7344
▁burbank	-10.7344
▁canada	-10.7344
▁cheeseburger	-10.7344
▁clamoring	-10.7344
▁cocksucker	-10.7344
▁complex	-10.7344
▁condolences	-10.7344
▁confusion	-10.7344
▁convenient	-10.7344
▁cusimano	-10.7344
▁disguise	-10.7344
▁edvard	-10.7344
▁encounter	-10.7344
▁entitled	-10.7344
▁entrance	-10.7344
▁explosive	-10.7344
▁frozen	-10.7344
▁gazza	-10.7344
▁gbaby	-10.7344
▁generator	-10.7344
▁gerardo	-10.7344
▁giggles	-10.7344
▁gomez	-10.7344
▁hammond	-10.7344
▁heavyweight	-10.7344
▁hudson	-10.7344
▁humvee	-10.7344
▁include	-10.7344
▁independence	-10.7344
▁japanese	-10.7344
▁jersey	-10.7344
▁jorgen	-10.7344
▁karbala	-10.7344
▁kindergarten	-10.7344
▁krueger	-10.7344
▁lesbian	-10.7344
▁lisbeth	-10.7344
▁marigold	-10.7344
▁memorial	-10.7344
▁memories	-10.7344
▁messenger	-10.7344
▁morgue	-10.7344
▁mysterious	-10.7344
▁pierpont	-10.7344
▁potential	-10.7344
▁puzzle	-10.7344
▁rainbow	-10.7344
▁reflect	-10.7344
▁relief	-10.7344
▁ricca	-10.7344
▁sauna	-10.7344
▁symbol	-10.7344
▁theme	-10.7344
▁valuable	-10.7344
▁wisdom	-10.7344
▁worship	-10.7344
▁wrestling	-10.7344
▁buddies	-10.7344
▁clattering	-10.7344
▁coffin	-10.7344
▁decent	-10.7344
▁effort	-10.7344
▁interfere	-10.7344
▁klick	-10.7344
▁polish	-10.7344
▁polite	-10.7344
▁scoop	-10.7344
▁sixteen	-10.7344
▁suffocat	-10.7344
▁vault	-10.7344
▁coroner	-10.7344
▁kingdom	-10.7344
▁permit	-10.7344
▁prevent	-10.7344
▁shotgun	-10.7344
▁smooth	-10.7344
▁wesley	-10.7344
▁studied	-10.7344
▁tramp	-10.7344
▁scale	-10.7344
▁willie	-10.7344
▁wreck	-10.7344
▁redcoats	-10.7344
▁wore	-10.7344
▁farrat	-10.7344
▁poem	-10.7344
▁starving	-10.7344
▁butcher	-10.7344
▁imitate	-10.7344
▁hauser	-10.7344
▁honks	-10.7344
▁rubber	-10.7344
▁fond	-10.7344
▁grens	-10.7344
▁spinning	-10.7344
▁elysium	-10.7344
▁gratitude	-10.7344
▁scholarship	-10.7344
▁pledge	-10.7344
▁division	-10.7344
▁gert	-10.7344
▁excess	-10.7345
▁intelligence	-10.7345
▁tivo	-10.7345
▁alpha	-10.7345
▁antique	-10.7345
▁hawk	-10.7345
▁trapped	-10.7345
▁hump	-10.7345
▁recall	-10.7345
▁appropriate	-10.7345
▁hostile	-10.7345
▁tourvel	-10.7345
▁turay	-10.7345
▁morocco	-10.7345
▁kaap	-10.7345
▁horseshit	-10.7345
▁youth	-10.7345
▁liberty	-10.7345
▁medium	-10.7345
▁slipped	-10.7345
▁daily	-10.7346
▁failure	-10.7346
▁kitty	-10.7346
▁resistance	-10.7346
▁torchia	-10.7346
▁massage	-10.7346
▁cellphone	-10.7346
▁epic	-10.7346
▁sheet	-10.7346
▁wingman	-10.7346
▁bodyguard	-10.7346
▁habit	-10.7346
▁blink	-10.7346
▁carpenter	-10.7346
▁culture	-10.7347
▁noble	-10.7347
▁borderline	-10.7347
▁motor	-10.7347
▁objective	-10.7347
▁edition	-10.7347
▁sunny	-10.7348
▁jazz	-10.7348
▁sandra	-10.7349
antler	-10.7349
▁soil	-10.7349
▁smithers	-10.735
▁marina	-10.735
▁dante	-10.735
▁dishes	-10.735
▁blai	-10.735
▁motion	-10.735
▁screen	-10.7351
▁whatll	-10.7351
▁dj	-10.7351
▁religion	-10.7352
▁tourist	-10.7352
▁halfway	-10.7352
▁annoying	-10.7352
▁whale	-10.7353
▁carries	-10.7353
▁roxy	-10.7354
▁dragon	-10.7354
▁surrounded	-10.7355
▁pl	-10.7356
▁cycle	-10.7356
▁haunted	-10.7359
▁darkness	-10.7359
▁chosen	-10.736
▁diggy	-10.7361
▁fry	-10.7363
▁actions	-10.7363
▁missile	-10.7363
▁warden	-10.7363
▁highway	-10.7364
▁christian	-10.7365
▁engaged	-10.7368
▁nearest	-10.7373
▁grin	-10.7377
▁threatening	-10.738
▁damaged	-10.738
▁mud	-10.738
▁crown	-10.7381
▁erase	-10.7383
▁described	-10.7383
▁gage	-10.7383
▁disappointed	-10.7384
▁assure	-10.7384
ample	-10.7385
▁promis	-10.7388
▁reporters	-10.7388
▁blocks	-10.739
▁para	-10.7392
▁freeman	-10.7393
▁bridger	-10.7397
▁carol	-10.7397
▁platt	-10.7399
▁thor	-10.7401
▁internal	-10.7403
▁thrilled	-10.7405
▁butter	-10.7406
▁pouring	-10.7413
▁spite	-10.7413
nce	-10.7415
▁bucky	-10.7417
▁catches	-10.7425
▁psych	-10.7429
ight	-10.7431
▁cheated	-10.7431
▁insects	-10.7433
▁republicans	-10.7433
▁factor	-10.7434
▁fled	-10.7436
▁businessman	-10.7437
ite	-10.7449
▁drawer	-10.7458
▁engines	-10.7465
▁recorder	-10.7471
▁bowling	-10.748
▁nap	-10.7486
▁om	-10.7489
▁pu	-10.7494
made	-10.7499
▁reminded	-10.7503
▁za	-10.7506
▁safer	-10.7506
▁sw	-10.7508
▁lance	-10.7509
▁refugees	-10.7509
▁seal	-10.752
▁shellie	-10.7524
▁traveling	-10.7529
▁fishing	-10.7534
▁matty	-10.7542
▁suggesting	-10.7545
▁tar	-10.7553
▁options	-10.756
▁generations	-10.756
▁dealt	-10.7564
▁packed	-10.7568
▁trains	-10.7578
▁ace	-10.7588
▁smaller	-10.7594
▁tease	-10.7601
▁uhh	-10.7604
▁billie	-10.761
▁landed	-10.7611
▁interviewed	-10.7621
oma	-10.7635
▁camping	-10.764
▁tis	-10.7646
▁prayers	-10.7655
▁clo	-10.7662
▁lighter	-10.7664
ative	-10.7664
▁reported	-10.7674
▁promote	-10.7683
▁bunkers	-10.7688
▁sticks	-10.7691
▁blows	-10.7732
▁uniforms	-10.774
▁evans	-10.774
▁returning	-10.7742
▁net	-10.7748
▁boxing	-10.778
▁heii	-10.7781
▁testing	-10.7798
▁poll	-10.7819
▁reed	-10.7829
▁disc	-10.7875
▁shoulders	-10.7896
▁pla	-10.7898
▁grad	-10.7905
▁smoked	-10.7907
▁comments	-10.7922
▁shouts	-10.7924
▁tellin	-10.7939
▁kan	-10.7969
cop	-10.7983
▁homer	-10.8
▁fools	-10.8008
▁stinks	-10.802
▁films	-10.8026
▁whip	-10.8031
uit	-10.8033
quil	-10.804
▁tracks	-10.8047
▁scores	-10.8047
▁woo	-10.8096
psy	-10.8097
▁pages	-10.81
▁olive	-10.8107
▁wounds	-10.8108
▁fre	-10.8111
▁ph	-10.8115
stan	-10.812
▁yell	-10.8178
▁grunt	-10.8179
ax	-10.8183
rust	-10.8203
▁candidate	-10.8214
▁diet	-10.8217
▁result	-10.8221
▁option	-10.8223
ule	-10.8223
▁generation	-10.8228
▁chuckle	-10.823
tan	-10.8242
▁flower	-10.8268
▁here	-10.8272
havin	-10.8282
▁attacks	-10.8294
▁yah	-10.8305
uous	-10.8309
▁bur	-10.8309
▁nut	-10.8309
▁slim	-10.8312
lier	-10.8312
▁rum	-10.8314
ments	-10.8326
card	-10.8356
nine	-10.8367
▁multipl	-10.8368
▁ships	-10.8372
etched	-10.8373
heel	-10.8383
▁marsh	-10.8387
ug	-10.8395
▁mol	-10.8395
▁paintings	-10.8399
▁spray	-10.8402
▁echo	-10.8403
▁punish	-10.8414
boom	-10.8417
▁arrange	-10.8424
▁engage	-10.8426
▁invest	-10.8427
place	-10.8428
▁yu	-10.8429
piece	-10.843
print	-10.843
school	-10.8431
loved	-10.8431
what	-10.8431
▁mort	-10.8434
berg	-10.8437
▁doub	-10.8438
ittie	-10.8443
like	-10.8443
▁rev	-10.8445
▁salt	-10.8446
▁slight	-10.8447
▁religio	-10.8447
▁porn	-10.8449
▁establish	-10.845
▁abort	-10.845
▁examine	-10.845
nne	-10.8451
▁asia	-10.8451
▁snatch	-10.8451
▁takin	-10.8451
▁blank	-10.8453
▁conscious	-10.8453
▁strap	-10.8454
▁basic	-10.8455
rnsen	-10.8455
▁acknowledge	-10.8455
▁amanda	-10.8455
▁amazon	-10.8455
▁amsterdam	-10.8455
▁bastide	-10.8455
▁believing	-10.8455
▁beulah	-10.8455
▁bloke	-10.8455
▁bulwark	-10.8455
▁cavalry	-10.8455
▁celebrity	-10.8455
▁cheeco	-10.8455
▁chemical	-10.8455
▁combat	-10.8455
▁combination	-10.8455
▁connolly	-10.8455
▁contempt	-10.8455
▁dessert	-10.8455
▁fabulous	-10.8455
▁fifteen	-10.8455
▁forbid	-10.8455
▁foxcatcher	-10.8455
▁fumitsu	-10.8455
▁furlong	-10.8455
▁giorgio	-10.8455
▁gordon	-10.8455
▁greek	-10.8455
▁guerrilla	-10.8455
▁helium	-10.8455
▁iliad	-10.8455
▁impact	-10.8455
▁inviting	-10.8455
▁isaac	-10.8455
▁jamshidi	-10.8455
▁kilometers	-10.8455
▁knives	-10.8455
▁length	-10.8455
▁lindsay	-10.8455
▁literature	-10.8455
▁magnificent	-10.8455
▁michigan	-10.8455
▁nipple	-10.8455
▁oswaldo	-10.8455
▁prague	-10.8455
▁pretzel	-10.8455
▁privilege	-10.8455
▁protocol	-10.8455
▁raccoon	-10.8455
▁rattling	-10.8455
▁rehab	-10.8455
▁reject	-10.8455
▁rocknroll	-10.8455
▁satellite	-10.8455
▁scenario	-10.8455
▁slewitt	-10.8455
▁slippery	-10.8455
▁sniper	-10.8455
▁sofia	-10.8455
▁spiegel	-10.8455
▁temperature	-10.8455
▁therapist	-10.8455
▁thorough	-10.8455
▁tragedy	-10.8455
▁ultimate	-10.8455
▁uncomfortable	-10.8455
▁unexpected	-10.8455
▁vague	-10.8455
▁vejle	-10.8455
▁venture	-10.8455
▁veronica	-10.8455
▁weaver	-10.8455
▁worries	-10.8455
▁xforce	-10.8455
▁anita	-10.8455
▁cannon	-10.8455
▁centre	-10.8455
▁content	-10.8455
▁corrupt	-10.8455
▁decade	-10.8455
▁dignity	-10.8455
▁expand	-10.8455
▁false	-10.8455
▁imbecile	-10.8455
▁salvy	-10.8455
▁shark	-10.8455
▁whimpers	-10.8455
▁zadie	-10.8455
▁anytime	-10.8455
▁housekeeper	-10.8455
▁whatsoever	-10.8455
▁activated	-10.8455
▁bitcoin	-10.8455
▁crab	-10.8455
▁infected	-10.8455
▁thief	-10.8455
▁chunk	-10.8455
▁drank	-10.8455
▁entity	-10.8455
▁ladder	-10.8455
▁classmate	-10.8455
▁crystal	-10.8455
▁libby	-10.8455
▁sperm	-10.8455
▁denied	-10.8455
▁manifest	-10.8455
▁slams	-10.8455
▁faint	-10.8455
▁method	-10.8455
▁leap	-10.8455
▁refrigerator	-10.8455
▁version	-10.8455
▁clinic	-10.8455
▁leisureland	-10.8455
▁satisfaction	-10.8455
▁ethn	-10.8455
▁stirring	-10.8455
▁valerie	-10.8456
▁grease	-10.8456
▁chica	-10.8456
▁clint	-10.8456
▁hidden	-10.8456
▁honour	-10.8456
▁jody	-10.8456
▁rival	-10.8456
▁panties	-10.8456
▁grub	-10.8456
▁peder	-10.8456
athens	-10.8456
▁veins	-10.8456
▁chung	-10.8456
▁gown	-10.8456
▁cardiff	-10.8456
▁creative	-10.8456
▁hiya	-10.8456
▁documentary	-10.8456
ckle	-10.8456
▁scotch	-10.8456
▁counselor	-10.8457
▁entertainment	-10.8457
▁smiling	-10.8457
▁curda	-10.8457
▁specifically	-10.8457
▁species	-10.8457
▁fiction	-10.8457
mark	-10.8457
▁xmen	-10.8457
▁stakeout	-10.8457
▁socialism	-10.8457
▁iran	-10.8458
▁conviction	-10.8458
▁pony	-10.8458
▁paperwork	-10.8458
▁draft	-10.8458
▁medication	-10.8459
▁reaction	-10.8459
escent	-10.8459
▁fever	-10.8459
▁woof	-10.8459
▁observe	-10.846
▁token	-10.846
▁frost	-10.846
▁opera	-10.846
▁puff	-10.846
▁isabelle	-10.846
▁novel	-10.8461
▁patch	-10.8461
▁steel	-10.8461
▁damon	-10.8461
▁betrayal	-10.8461
▁hallway	-10.8461
▁abuse	-10.8461
▁certifi	-10.8462
▁expression	-10.8462
▁beam	-10.8462
▁inclined	-10.8462
▁mode	-10.8462
▁bowers	-10.8462
▁guardian	-10.8462
▁flies	-10.8462
▁motive	-10.8463
▁dang	-10.8463
omber	-10.8463
▁grandson	-10.8464
▁foolish	-10.8464
▁comic	-10.8465
▁teenager	-10.8465
▁defendant	-10.8467
▁quid	-10.8467
▁asian	-10.8467
ncent	-10.8467
▁cellul	-10.8468
▁hobie	-10.8469
▁ronnie	-10.8469
▁haha	-10.8469
▁dragan	-10.8469
playing	-10.847
▁mentor	-10.847
▁judy	-10.8471
▁cookies	-10.8472
▁ahah	-10.8473
▁amongst	-10.8474
izer	-10.8475
▁debo	-10.8475
nia	-10.8476
▁tor	-10.8477
▁inner	-10.8477
▁johnno	-10.8478
▁daylight	-10.8478
▁tailor	-10.8478
▁ew	-10.8478
▁lust	-10.848
▁angelo	-10.8481
▁halt	-10.8481
▁destined	-10.8481
▁richter	-10.8482
dell	-10.8482
cile	-10.8483
▁monk	-10.8485
▁unto	-10.8485
▁registered	-10.8486
▁fred	-10.849
▁attracted	-10.8491
▁angela	-10.8492
▁coal	-10.8495
▁punished	-10.8495
▁tortured	-10.8496
▁gum	-10.8497
▁impression	-10.8497
▁sweater	-10.8499
▁burglar	-10.85
▁developing	-10.8502
▁sacrificed	-10.8502
▁cursed	-10.8502
▁assist	-10.8503
▁directly	-10.8504
▁scheduled	-10.8505
▁impressed	-10.8505
▁chester	-10.8506
▁sealed	-10.8506
▁agents	-10.8507
▁echoing	-10.8507
▁pacific	-10.8507
▁stopping	-10.851
▁mild	-10.8512
▁beaten	-10.8518
▁guaranteed	-10.8518
▁boomer	-10.8522
seif	-10.8523
▁boxes	-10.8526
▁gathering	-10.8526
▁marshal	-10.8527
▁carson	-10.8527
▁nest	-10.8528
▁tricky	-10.853
▁mmmmm	-10.8534
ife	-10.8537
▁policeman	-10.854
▁webb	-10.854
▁bac	-10.8548
▁consequences	-10.8555
▁scientists	-10.8555
▁crashed	-10.8558
▁gardener	-10.856
▁stocking	-10.857
▁mcc	-10.8571
▁dumped	-10.8571
▁ast	-10.8576
▁aerobics	-10.8585
▁continued	-10.8592
▁shack	-10.8593
▁pals	-10.8593
▁kar	-10.8603
▁assassinate	-10.8606
▁mandy	-10.8611
▁rig	-10.8611
▁cousins	-10.8615
erp	-10.8618
▁hor	-10.8623
▁weirdo	-10.8624
▁messy	-10.8628
▁tele	-10.8629
▁barn	-10.8641
▁imagined	-10.8642
▁wings	-10.8644
▁visitors	-10.8644
▁pad	-10.8648
eah	-10.865
▁sucked	-10.8661
quest	-10.8669
▁sink	-10.8685
▁parker	-10.8686
▁colored	-10.869
▁mari	-10.8691
▁jokes	-10.8698
▁easter	-10.87
▁documents	-10.8716
iy	-10.8733
▁honored	-10.8739
▁bears	-10.8751
▁buttons	-10.8756
▁grades	-10.8764
iii	-10.877
▁sucker	-10.8773
▁produce	-10.878
▁deer	-10.8786
▁hom	-10.8786
▁rays	-10.8808
▁trainer	-10.8808
▁baker	-10.8812
▁closely	-10.8813
▁pri	-10.8817
▁ape	-10.8817
drew	-10.8839
▁pur	-10.8851
▁tools	-10.8867
▁newspapers	-10.8872
▁saddams	-10.8872
▁boots	-10.8904
▁ut	-10.8911
▁systems	-10.8917
▁io	-10.8923
▁ropes	-10.893
▁chatt	-10.8931
▁concerns	-10.8931
▁claims	-10.8931
▁bu	-10.8968
bla	-10.8998
▁mac	-10.9002
▁bump	-10.9005
▁how	-10.9008
▁workers	-10.9015
▁dot	-10.903
▁conn	-10.9034
bert	-10.9045
▁flap	-10.9056
▁monsters	-10.9077
tit	-10.9077
▁catching	-10.9084
▁covering	-10.9097
▁ak	-10.9104
▁pigs	-10.9113
▁cod	-10.9113
▁lecture	-10.912
▁values	-10.9136
▁dat	-10.9145
▁aliens	-10.9165
▁rang	-10.9165
▁ax	-10.92
▁cleared	-10.9225
ever	-10.9252
▁dogg	-10.9252
▁roberts	-10.9273
ease	-10.9314
tal	-10.9333
▁computers	-10.9344
avi	-10.9354
▁waitin	-10.9355
ney	-10.9379
▁for	-10.9389
test	-10.9392
erra	-10.9406
mission	-10.9413
▁shirts	-10.9434
▁coma	-10.9444
▁tire	-10.9453
▁sniff	-10.9468
▁catholic	-10.947
kie	-10.9474
▁cuff	-10.9475
▁troop	-10.9476
▁you	-10.9506
▁il	-10.9514
▁toss	-10.9542
▁cub	-10.9552
gre	-10.9568
▁bounc	-10.9579
person	-10.9593
▁professionals	-10.9606
▁surviv	-10.9606
▁spark	-10.9608
▁develop	-10.9608
▁greater	-10.9611
▁embarrass	-10.9614
looking	-10.9629
▁buzz	-10.9632
pack	-10.965
face	-10.9653
hole	-10.9654
▁lad	-10.9658
▁invent	-10.9661
▁attract	-10.9663
▁transform	-10.9663
▁betray	-10.9664
mouth	-10.968
burn	-10.9681
shot	-10.9682
six	-10.9682
self	-10.9683
fight	-10.9686
wide	-10.9686
▁intens	-10.9687
▁instant	-10.969
▁strict	-10.969
▁unfortunate	-10.9691
spy	-10.9696
▁electric	-10.9696
▁distract	-10.97
▁motherfuckin	-10.9701
▁urge	-10.9703
▁recogni	-10.9704
▁favour	-10.9705
▁peop	-10.9705
▁chamber	-10.9705
▁sentimental	-10.9705
misunderstanding	-10.9705
▁absurd	-10.9705
▁almighty	-10.9705
▁anonymous	-10.9705
▁anxious	-10.9705
▁applause	-10.9705
▁april	-10.9705
▁arriving	-10.9705
▁bathtub	-10.9705
▁biscuit	-10.9705
▁butterflies	-10.9705
▁cafeteria	-10.9705
▁charade	-10.9705
▁claiborne	-10.9705
▁cleveland	-10.9705
▁colossus	-10.9705
▁compartment	-10.9705
▁competition	-10.9705
▁convention	-10.9705
▁corporate	-10.9705
▁couid	-10.9705
▁czech	-10.9705
▁disagree	-10.9705
▁disposal	-10.9705
▁dissolve	-10.9705
▁dwight	-10.9705
▁electrocute	-10.9705
▁evolv	-10.9705
▁financial	-10.9705
▁forfeit	-10.9705
▁galahad	-10.9705
▁gloria	-10.9705
▁haberdashery	-10.9705
▁howayeh	-10.9705
▁humming	-10.9705
▁increase	-10.9705
▁inevitable	-10.9705
▁jewelry	-10.9705
▁joseph	-10.9705
▁journey	-10.9705
▁kiwoo	-10.9705
▁macduff	-10.9705
▁mandarin	-10.9705
▁mcgills	-10.9705
▁neglect	-10.9705
▁nowadays	-10.9705
▁nuclear	-10.9705
▁observation	-10.9705
▁october	-10.9705
▁offlimits	-10.9705
▁palestinian	-10.9705
▁portrait	-10.9705
▁promotion	-10.9705
▁proposal	-10.9705
▁psychologist	-10.9705
▁ralph	-10.9705
▁scatter	-10.9705
▁shakespeare	-10.9705
▁shrimp	-10.9705
▁shush	-10.9705
▁signature	-10.9705
▁snarling	-10.9705
▁splash	-10.9705
▁strangle	-10.9705
▁sympathy	-10.9705
▁tavington	-10.9705
▁theodore	-10.9705
▁therefore	-10.9705
▁trevor	-10.9705
▁triumph	-10.9705
▁trophy	-10.9705
▁vagina	-10.9705
▁violation	-10.9705
▁wallpaper	-10.9705
▁wheezing	-10.9705
▁widow	-10.9705
▁wilkins	-10.9705
▁withdraw	-10.9705
▁wolf	-10.9705
▁zodiac	-10.9705
▁cadei	-10.9705
▁convoy	-10.9705
▁creating	-10.9705
▁debate	-10.9705
▁denver	-10.9705
▁harbor	-10.9705
▁implant	-10.9705
▁irma	-10.9705
▁krill	-10.9705
▁naughty	-10.9705
▁phrase	-10.9705
▁pleasant	-10.9705
▁sieland	-10.9705
▁spoil	-10.9705
▁sweep	-10.9705
▁vessel	-10.9705
▁deuce	-10.9705
▁electronic	-10.9705
▁jeffrey	-10.9705
▁preparing	-10.9705
▁sherman	-10.9705
▁strawberr	-10.9705
▁andand	-10.9705
▁baroness	-10.9705
▁conquer	-10.9705
▁flew	-10.9705
▁narcotics	-10.9705
▁radar	-10.9705
▁reich	-10.9705
▁tropic	-10.9705
▁voil	-10.9705
▁atheist	-10.9705
▁casual	-10.9705
▁item	-10.9705
▁inspire	-10.9705
▁firearm	-10.9705
▁freddie	-10.9705
▁glu	-10.9705
▁instructions	-10.9705
▁roast	-10.9705
▁sinners	-10.9705
▁humiliating	-10.9705
▁investigating	-10.9705
▁pawn	-10.9705
▁resume	-10.9705
▁personnel	-10.9705
▁weep	-10.9705
▁philanthropist	-10.9705
▁shakily	-10.9705
▁convertible	-10.9705
▁imelda	-10.9705
▁mount	-10.9705
▁surface	-10.9705
▁jules	-10.9705
▁fascinating	-10.9705
▁sloppy	-10.9705
▁fargas	-10.9705
▁shrine	-10.9705
▁parrot	-10.9705
▁carlyle	-10.9705
▁download	-10.9705
▁apology	-10.9705
▁occurred	-10.9705
▁whiskey	-10.9705
▁maxandra	-10.9705
▁trumpet	-10.9705
▁democratic	-10.9705
▁lethal	-10.9706
▁breeze	-10.9706
▁expectations	-10.9706
▁imagination	-10.9706
▁quarterback	-10.9706
▁domestic	-10.9706
▁tutor	-10.9706
▁pratt	-10.9706
▁curtain	-10.9706
▁mickah	-10.9706
▁rustl	-10.9706
▁vicious	-10.9706
▁excitement	-10.9706
▁georgina	-10.9706
▁marino	-10.9706
▁bruise	-10.9706
▁disease	-10.9706
▁organs	-10.9706
▁finland	-10.9706
▁nini	-10.9706
▁contribution	-10.9706
▁operating	-10.9706
▁communist	-10.9706
▁protest	-10.9706
▁economic	-10.9706
▁nickname	-10.9706
▁boris	-10.9707
▁depression	-10.9707
▁supper	-10.9707
▁branches	-10.9707
▁blackpool	-10.9707
▁bruce	-10.9707
▁tension	-10.9707
▁estonian	-10.9707
▁miho	-10.9707
▁panda	-10.9707
▁communicate	-10.9707
▁satisfied	-10.9707
▁estimate	-10.9707
▁jason	-10.9707
▁ripped	-10.9707
▁tying	-10.9707
▁patty	-10.9707
▁attractive	-10.9707
▁aspirin	-10.9707
▁harper	-10.9707
▁madison	-10.9707
▁slick	-10.9708
▁doom	-10.9708
▁howre	-10.9708
▁audit	-10.9708
▁gomes	-10.9708
▁tasty	-10.9708
▁engagement	-10.9708
▁ridgeman	-10.9708
▁blah	-10.9708
▁ridge	-10.9708
▁upside	-10.9708
▁mumbling	-10.9708
ably	-10.9709
▁lamb	-10.9709
▁genetic	-10.9709
▁barlow	-10.9709
▁section	-10.9709
▁classified	-10.9709
▁popped	-10.9709
▁valid	-10.9709
▁spaceship	-10.971
▁iook	-10.971
▁peaches	-10.971
cient	-10.971
▁lila	-10.971
▁bait	-10.971
▁abortion	-10.971
▁script	-10.971
▁poland	-10.971
▁exposed	-10.9711
▁bold	-10.9711
▁mick	-10.9711
▁bonus	-10.9711
▁weakness	-10.9711
▁raid	-10.9711
▁survival	-10.9712
▁jamie	-10.9712
▁burst	-10.9712
▁slate	-10.9712
▁mortal	-10.9713
▁rail	-10.9713
▁vandy	-10.9713
▁kidney	-10.9713
▁beings	-10.9713
▁abilities	-10.9714
▁trainee	-10.9715
raising	-10.9715
▁adore	-10.9715
▁dickhead	-10.9716
▁programme	-10.9716
▁forth	-10.9716
▁penis	-10.9717
▁exile	-10.9718
▁thirsty	-10.9718
▁dumbass	-10.9719
▁rome	-10.9719
▁wig	-10.9719
▁rumor	-10.972
▁ying	-10.972
▁discussion	-10.972
▁iv	-10.972
▁european	-10.9721
▁slightly	-10.9722
▁taxes	-10.9722
fucking	-10.9723
▁madness	-10.9726
▁iet	-10.9726
▁july	-10.9728
▁barry	-10.9729
▁salty	-10.9732
▁dish	-10.9732
▁cody	-10.9733
▁forgetting	-10.9734
▁tender	-10.9735
after	-10.9737
▁wage	-10.9739
▁spilled	-10.974
▁rocket	-10.9742
rez	-10.9742
▁your	-10.9744
▁replaced	-10.9744
▁rode	-10.9744
▁speedo	-10.9744
▁desperately	-10.9746
▁rental	-10.9746
▁tossed	-10.9746
▁fist	-10.9747
▁worthless	-10.975
▁collector	-10.9752
▁matches	-10.9752
▁bass	-10.9753
▁dc	-10.9753
▁separated	-10.9754
▁engravings	-10.9755
▁bobo	-10.9756
▁recovered	-10.9756
▁graduated	-10.9757
▁toni	-10.9758
▁hut	-10.9761
▁creepy	-10.9762
▁published	-10.9762
bolt	-10.9762
▁dresses	-10.9762
▁chased	-10.9762
eft	-10.9766
▁restore	-10.9766
▁hacked	-10.9767
▁required	-10.9767
▁jen	-10.9767
▁bree	-10.9773
▁mistaken	-10.9775
▁commissioner	-10.9779
▁payment	-10.978
▁pun	-10.9781
▁performing	-10.9786
▁handcuffs	-10.9787
▁passengers	-10.9787
table	-10.9787
▁insisted	-10.9789
▁useful	-10.979
▁pier	-10.9791
▁sod	-10.9792
▁loudly	-10.9797
arian	-10.9801
▁billion	-10.9801
onald	-10.9803
▁fetch	-10.9804
blo	-10.9807
▁badass	-10.981
▁designer	-10.9813
▁pounding	-10.9816
▁employees	-10.9819
▁nod	-10.9821
ural	-10.9822
▁blamed	-10.9826
lay	-10.9827
fuck	-10.9829
▁bounce	-10.9833
name	-10.9842
▁voted	-10.9844
▁stokes	-10.9852
▁crashing	-10.9858
ological	-10.9859
▁assumed	-10.9867
▁quot	-10.9874
▁existed	-10.9886
▁tracking	-10.9903
▁charged	-10.9908
▁dere	-10.9908
▁arch	-10.9914
▁thuds	-10.9917
cap	-10.9928
▁jo	-10.9933
▁alter	-10.9933
▁peaceful	-10.9937
▁cooked	-10.9942
▁sniffs	-10.9946
▁cuffs	-10.995
▁eu	-10.9953
▁pit	-10.9956
stro	-10.9966
load	-10.9969
▁helpful	-10.9973
▁helpless	-10.9993
▁walkin	-10.9998
▁abu	-11.0008
▁sucking	-11.0014
▁snaps	-11.0016
▁shadows	-11.0016
ison	-11.0026
▁tag	-11.0031
yard	-11.0036
▁bothered	-11.0041
▁hen	-11.0049
ire	-11.0055
▁pushed	-11.0059
▁raining	-11.0065
ull	-11.0068
ways	-11.0088
ach	-11.0091
▁worthy	-11.0093
lon	-11.0096
▁candles	-11.0115
▁vampires	-11.0116
put	-11.0128
▁liberia	-11.0133
▁admir	-11.0139
▁hay	-11.0146
▁feds	-11.0146
▁ko	-11.015
▁who	-11.0156
▁react	-11.0157
▁speakers	-11.018
▁pins	-11.0181
link	-11.0187
▁cleaner	-11.0191
etic	-11.0201
oons	-11.0229
▁arabs	-11.0244
▁sur	-11.0276
▁environmental	-11.029
ows	-11.029
▁spits	-11.0292
▁stoned	-11.0299
▁flu	-11.0306
mme	-11.0321
▁disco	-11.0344
▁answered	-11.0362
▁it	-11.0363
▁tips	-11.0368
tum	-11.0399
cro	-11.0401
hold	-11.0403
erry	-11.0421
wan	-11.0433
▁handy	-11.0441
▁prima	-11.0452
▁dime	-11.0465
ute	-11.0469
rry	-11.0472
decker	-11.0499
▁prom	-11.0501
och	-11.0509
▁cooler	-11.0519
▁bou	-11.0544
evi	-11.0547
bble	-11.0554
▁humble	-11.0555
▁flam	-11.0575
▁twentyf	-11.0583
▁liv	-11.0586
▁ol	-11.0601
hin	-11.0634
hh	-11.064
▁relat	-11.065
heck	-11.0668
▁seduce	-11.0743
▁bam	-11.0759
▁dun	-11.0792
▁rage	-11.0809
sook	-11.0828
▁whisper	-11.0853
▁cough	-11.0855
▁mag	-11.0857
▁fianc	-11.0876
ugh	-11.0877
fic	-11.0883
omin	-11.0883
▁jean	-11.0892
▁expense	-11.0892
▁survivor	-11.0896
▁refugee	-11.0897
▁muscle	-11.0899
▁reeve	-11.0899
▁pelt	-11.09
▁thud	-11.0902
▁terrorist	-11.0902
▁skill	-11.0905
▁dim	-11.0922
▁visitor	-11.0925
▁that	-11.0928
utz	-11.0937
▁of	-11.1024
agra	-11.1026
▁threaten	-11.1053
▁squeak	-11.1082
ibb	-11.1084
audi	-11.1088
▁initiat	-11.109
▁twist	-11.1092
▁obsess	-11.1094
▁register	-11.1097
▁spill	-11.1098
▁flatter	-11.1099
▁corn	-11.1105
▁oi	-11.1106
stream	-11.1108
myth	-11.1109
▁loo	-11.1111
▁dragg	-11.1112
eth	-11.1112
keep	-11.1112
▁robber	-11.1113
foot	-11.1116
▁incredibl	-11.1117
▁fortunate	-11.1118
▁brutal	-11.1118
▁ronni	-11.1118
reason	-11.1118
▁terribl	-11.1119
▁chew	-11.1124
▁elect	-11.1129
turn	-11.1129
▁makin	-11.113
▁racin	-11.1131
▁chalk	-11.1131
▁height	-11.1131
▁occup	-11.1132
iggy	-11.1132
▁plum	-11.1133
▁stir	-11.1133
mmerung	-11.1134
▁afghanistan	-11.1134
▁aggressive	-11.1134
▁airplane	-11.1134
▁analysis	-11.1134
▁ancestor	-11.1134
▁anyhow	-11.1134
▁apologies	-11.1134
▁application	-11.1134
▁approval	-11.1134
▁argue	-11.1134
▁arnold	-11.1134
▁banquo	-11.1134
▁beirut	-11.1134
▁bologna	-11.1134
▁brotherinlaw	-11.1134
▁buddah	-11.1134
▁cabbage	-11.1134
▁cassette	-11.1134
▁centuries	-11.1134
▁climate	-11.1134
▁convincing	-11.1134
▁coxman	-11.1134
▁creaking	-11.1134
▁currency	-11.1134
▁czechoslovakia	-11.1134
▁definition	-11.1134
▁deploy	-11.1134
▁devoted	-11.1134
▁dizzy	-11.1134
▁dubstep	-11.1134
▁eejit	-11.1134
▁faggot	-11.1134
▁fascist	-11.1134
▁festival	-11.1134
▁furniture	-11.1134
▁gambling	-11.1134
▁giddy	-11.1134
▁harridene	-11.1134
▁hilarious	-11.1134
▁hollow	-11.1134
▁ignorant	-11.1134
▁inappropriate	-11.1134
▁inherit	-11.1134
▁injuries	-11.1134
▁instagram	-11.1134
▁instinct	-11.1134
▁institution	-11.1134
▁intercourse	-11.1134
▁intoxicat	-11.1134
▁invincible	-11.1134
▁invisible	-11.1134
▁jellybeans	-11.1134
▁kaysen	-11.1134
▁kentucky	-11.1134
▁kijung	-11.1134
▁ladislav	-11.1134
▁landscape	-11.1134
▁lazarus	-11.1134
▁lennon	-11.1134
▁lobby	-11.1134
▁lucille	-11.1134
▁massacre	-11.1134
▁mechanic	-11.1134
▁mexico	-11.1134
▁milich	-11.1134
▁mitchell	-11.1134
▁moscow	-11.1134
▁obedient	-11.1134
▁outspan	-11.1134
▁oxford	-11.1134
▁parsons	-11.1134
▁patrick	-11.1134
▁philosophy	-11.1134
▁pitiful	-11.1134
▁possibility	-11.1134
▁practicing	-11.1134
▁profound	-11.1134
▁pussies	-11.1134
▁quirke	-11.1134
▁raymond	-11.1134
▁recipe	-11.1134
▁recruit	-11.1134
▁regina	-11.1134
▁resolve	-11.1134
▁resources	-11.1134
▁rewrite	-11.1134
▁ribbon	-11.1134
▁salvatore	-11.1134
▁satisfy	-11.1134
▁semester	-11.1134
▁snoring	-11.1134
▁solitary	-11.1134
▁somewhat	-11.1134
▁squawking	-11.1134
▁statue	-11.1134
▁subpoena	-11.1134
▁substance	-11.1134
▁supernatural	-11.1134
▁surveillance	-11.1134
▁testimony	-11.1134
▁tournament	-11.1134
▁treasure	-11.1134
▁unacceptable	-11.1134
▁unemployed	-11.1134
▁unicorn	-11.1134
▁verdict	-11.1134
▁virtue	-11.1134
▁vitamin	-11.1134
▁volanges	-11.1134
▁wheelchair	-11.1134
▁wolves	-11.1134
▁yield	-11.1134
▁zwaiter	-11.1134
▁amateur	-11.1134
▁applied	-11.1134
▁cloak	-11.1134
▁cotton	-11.1134
▁deputy	-11.1134
▁devine	-11.1134
▁eyebrow	-11.1134
▁felson	-11.1134
▁fischer	-11.1134
▁fleming	-11.1134
▁harvest	-11.1134
▁sunrise	-11.1134
▁thisll	-11.1134
▁unique	-11.1134
▁whew	-11.1134
positive	-11.1134
▁berlin	-11.1134
▁childhood	-11.1134
▁concert	-11.1134
▁confront	-11.1134
▁confusing	-11.1134
▁depth	-11.1134
▁dyke	-11.1134
▁elroy	-11.1134
▁humor	-11.1134
▁lexus	-11.1134
▁renew	-11.1134
▁stroll	-11.1134
▁withers	-11.1134
▁eager	-11.1134
▁reserve	-11.1134
▁forgery	-11.1134
▁imagining	-11.1134
▁ramdon	-11.1134
▁sascha	-11.1134
▁wallace	-11.1134
▁werewolves	-11.1134
▁wilkes	-11.1134
▁worn	-11.1134
▁basket	-11.1134
▁coven	-11.1134
▁filter	-11.1134
▁herald	-11.1134
▁oven	-11.1134
▁shalt	-11.1134
▁syria	-11.1134
▁chord	-11.1134
▁italy	-11.1134
▁viral	-11.1134
▁ellen	-11.1134
▁hollywood	-11.1134
▁melanie	-11.1134
▁robbing	-11.1134
▁vietnamese	-11.1134
▁yummy	-11.1134
▁dalc	-11.1134
▁emerson	-11.1134
▁stained	-11.1134
▁hysterical	-11.1134
▁barrel	-11.1134
▁studies	-11.1134
▁courtesy	-11.1134
through	-11.1134
▁chronic	-11.1134
▁ellis	-11.1134
▁thudding	-11.1134
▁murray	-11.1134
▁facing	-11.1134
▁levy	-11.1134
▁jeannine	-11.1134
▁prettie	-11.1134
▁sorrow	-11.1134
▁bulletproof	-11.1134
▁turkey	-11.1134
▁assuming	-11.1134
▁fireworks	-11.1134
▁dripping	-11.1134
▁cigar	-11.1134
▁sto	-11.1134
▁hawkins	-11.1134
▁mugger	-11.1134
▁glob	-11.1134
▁confidential	-11.1134
▁memoir	-11.1134
▁adopt	-11.1134
▁generous	-11.1134
▁moose	-11.1134
▁hiphop	-11.1134
▁mobray	-11.1134
▁connover	-11.1134
▁gilbert	-11.1134
▁cents	-11.1134
▁chapter	-11.1134
▁immun	-11.1134
▁lunatic	-11.1134
▁felon	-11.1134
▁valium	-11.1134
▁berger	-11.1135
▁harold	-11.1135
▁organization	-11.1135
▁addition	-11.1135
▁subway	-11.1135
▁bubble	-11.1135
▁bunny	-11.1135
▁darius	-11.1135
▁sandborn	-11.1135
▁womb	-11.1135
▁pirate	-11.1135
▁drums	-11.1135
▁membership	-11.1135
▁thinner	-11.1135
▁magnum	-11.1135
▁ponchai	-11.1135
▁transferred	-11.1135
▁peanut	-11.1135
▁mutters	-11.1135
▁nolan	-11.1135
▁dummy	-11.1135
▁parade	-11.1135
▁nelson	-11.1135
▁piay	-11.1135
▁countries	-11.1135
▁pillow	-11.1135
▁arrow	-11.1135
▁chopped	-11.1135
rawn	-11.1136
▁wanker	-11.1136
▁blake	-11.1136
▁overnight	-11.1136
▁immortal	-11.1136
▁vulnerable	-11.1136
▁alvin	-11.1136
▁salary	-11.1136
▁grey	-11.1136
▁regis	-11.1136
▁soap	-11.1136
▁psychotic	-11.1136
▁superpower	-11.1136
▁google	-11.1137
carriage	-11.1137
▁reload	-11.1137
▁diaper	-11.1137
▁roii	-11.1137
▁serb	-11.1137
▁recommendation	-11.1137
▁classroom	-11.1138
▁prosecutor	-11.1138
▁cease	-11.1138
▁theft	-11.1138
▁grill	-11.1138
▁sweden	-11.1138
▁empire	-11.1138
▁aboard	-11.1138
▁racing	-11.1138
alogue	-11.1138
▁upper	-11.1138
▁alike	-11.1139
▁chaos	-11.1139
▁moans	-11.1139
▁knocklng	-11.1139
▁distraction	-11.1139
▁compass	-11.1139
▁flaw	-11.1139
▁berman	-11.1139
▁mistress	-11.114
▁reese	-11.114
▁popper	-11.114
▁mice	-11.114
▁horror	-11.114
▁fork	-11.114
▁salesman	-11.114
▁teasing	-11.1141
▁neat	-11.1141
▁rake	-11.1141
▁snob	-11.1141
▁percentage	-11.1141
▁beef	-11.1141
▁nearby	-11.1142
▁nineball	-11.1142
▁restroom	-11.1142
▁mug	-11.1142
▁flake	-11.1142
▁xman	-11.1142
▁cafe	-11.1143
▁pouncer	-11.1143
door	-11.1144
▁identified	-11.1144
▁determined	-11.1144
▁dominat	-11.1145
▁peak	-11.1145
▁zoom	-11.1146
▁publicity	-11.1146
lmes	-11.1146
▁castle	-11.1146
▁diary	-11.1147
▁cds	-11.1147
▁raw	-11.1147
▁demonic	-11.1148
▁bua	-11.1148
▁funds	-11.1148
▁fuel	-11.1148
skell	-11.1148
▁packet	-11.1149
▁authorized	-11.1149
▁production	-11.1149
▁forgiveness	-11.115
▁dropping	-11.115
▁sandwiches	-11.1151
▁mmmm	-11.1152
▁thai	-11.1152
▁sittin	-11.1152
▁shade	-11.1153
▁moist	-11.1153
▁distan	-11.1154
▁boop	-11.1154
▁duck	-11.1154
▁marshmallows	-11.1155
▁ross	-11.1155
▁slime	-11.1156
▁runner	-11.1157
▁smartass	-11.1157
▁refer	-11.1157
▁tech	-11.1158
▁mg	-11.1159
▁bullion	-11.1159
▁bind	-11.116
▁stunt	-11.116
ummy	-11.1162
▁vanished	-11.1162
▁stunning	-11.1162
▁renton	-11.1163
▁frey	-11.1163
▁shaking	-11.1164
▁alf	-11.1164
▁shattered	-11.1164
▁chino	-11.1165
▁sixty	-11.1167
▁humanity	-11.1167
▁mentally	-11.1167
bone	-11.1167
▁fuckedup	-11.1169
▁sol	-11.1169
▁freeway	-11.117
aught	-11.1172
▁oid	-11.1173
▁uhoh	-11.1173
▁cried	-11.1174
▁fuckface	-11.1174
▁advised	-11.1175
▁pint	-11.1179
▁stocker	-11.118
▁jeopardize	-11.1181
chi	-11.1181
▁taller	-11.1181
pher	-11.1181
▁ole	-11.1182
▁testify	-11.1182
▁reasonable	-11.1183
pelled	-11.1185
▁drawn	-11.1185
▁swed	-11.1186
▁dive	-11.1187
▁cargo	-11.1189
▁mattie	-11.1189
▁originally	-11.1193
▁yoon	-11.1195
▁drunken	-11.1199
▁unable	-11.1204
▁gathered	-11.1206
▁signor	-11.1207
▁reel	-11.1211
▁smashing	-11.1212
duct	-11.1212
▁stev	-11.1213
▁fasten	-11.1213
▁removed	-11.1218
▁lapd	-11.1218
play	-11.1223
▁forgiven	-11.1224
pire	-11.1229
key	-11.1229
path	-11.1236
▁applauding	-11.1236
▁leaked	-11.1237
▁bitter	-11.1241
▁lifetime	-11.1246
▁ink	-11.1248
▁hustle	-11.1249
▁there	-11.125
▁kisses	-11.1256
▁released	-11.1257
▁recognized	-11.1257
▁regional	-11.1259
▁ankles	-11.1267
▁relations	-11.1267
▁taik	-11.1269
▁hass	-11.127
eight	-11.1271
▁rollin	-11.1272
▁workout	-11.1273
▁complaining	-11.1277
▁generally	-11.128
▁discussed	-11.1283
▁wishes	-11.1287
▁caii	-11.1289
▁added	-11.129
▁cu	-11.1293
▁viva	-11.1295
▁lace	-11.1296
eyed	-11.1296
ently	-11.1298
▁forg	-11.1301
ament	-11.1302
▁friggin	-11.1304
▁breasts	-11.1305
▁rattles	-11.1305
▁stammers	-11.1305
▁twins	-11.1305
▁ribs	-11.1305
▁inn	-11.1306
▁oral	-11.1313
aft	-11.1313
▁rein	-11.1315
▁busted	-11.1319
▁hardon	-11.1321
▁congress	-11.1324
▁discussing	-11.1328
▁washing	-11.1335
▁fuckhead	-11.1337
▁commitments	-11.1343
dian	-11.1344
▁scaring	-11.1346
cher	-11.1353
▁weary	-11.1355
▁dock	-11.1372
▁perv	-11.1379
▁expenses	-11.1381
▁jeans	-11.1381
▁survivors	-11.1381
▁colt	-11.139
▁benz	-11.1403
▁pits	-11.1405
ambi	-11.1408
▁prepp	-11.1412
▁trib	-11.1417
▁pressed	-11.1427
▁ay	-11.1443
▁cole	-11.1446
▁prayed	-11.1456
▁candidates	-11.1458
▁safely	-11.1458
▁guarded	-11.1459
▁digg	-11.1461
▁handled	-11.1469
▁tin	-11.1475
▁visited	-11.1475
▁buckle	-11.1487
▁traffick	-11.1489
▁nicked	-11.1491
▁nerves	-11.1496
▁fleas	-11.1496
▁socks	-11.1496
▁pd	-11.1501
bit	-11.1521
▁compete	-11.1524
▁belle	-11.1526
▁beans	-11.1534
▁comrades	-11.1535
▁deeds	-11.1538
position	-11.1556
▁hal	-11.1568
▁feeding	-11.1572
▁brun	-11.158
▁wing	-11.1581
ries	-11.1581
▁crossing	-11.1581
quin	-11.159
▁recorded	-11.1614
ail	-11.1621
▁rolled	-11.1623
tel	-11.1632
▁jumping	-11.1639
▁eater	-11.1644
▁plo	-11.1682
▁spitt	-11.1685
while	-11.1689
net	-11.169
ike	-11.1694
▁declare	-11.1761
form	-11.1762
▁yen	-11.1789
litter	-11.1811
▁loans	-11.1814
veni	-11.184
with	-11.1877
how	-11.1878
shaw	-11.1879
▁dea	-11.1887
▁cam	-11.1895
▁gala	-11.1896
gan	-11.1909
aging	-11.1918
▁peer	-11.1976
aho	-11.1993
▁bullie	-11.2
▁cruise	-11.208
▁evolution	-11.2092
chin	-11.2097
▁mach	-11.2285
▁attendan	-11.235
▁bullshittin	-11.2375
▁et	-11.238
▁ham	-11.2387
▁peg	-11.2406
▁prop	-11.2408
▁pursu	-11.2422
▁prior	-11.2431
ote	-11.2443
▁emotion	-11.2471
ista	-11.2482
gw	-11.2488
▁bin	-11.2501
▁costa	-11.2522
▁shinin	-11.2536
bie	-11.2554
mn	-11.2558
▁insult	-11.2561
▁commitment	-11.2563
▁alh	-11.257
▁cri	-11.2615
ath	-11.2629
▁lung	-11.2642
▁region	-11.2654
▁hustl	-11.2666
cular	-11.2671
▁introduc	-11.2685
▁fri	-11.2693
▁tro	-11.2701
▁jud	-11.2707
ifying	-11.2715
rome	-11.2719
▁employ	-11.2722
▁slid	-11.2735
▁reli	-11.2738
▁destin	-11.274
▁scot	-11.2747
lore	-11.2749
▁disgust	-11.275
▁caus	-11.2752
▁sane	-11.2754
▁convict	-11.2756
▁retard	-11.2761
▁geez	-11.2765
bber	-11.2766
▁ahh	-11.2766
▁gamble	-11.277
▁preach	-11.2771
▁crow	-11.2771
▁approve	-11.2772
▁propose	-11.2772
▁locate	-11.2772
court	-11.2776
break	-11.2776
▁slash	-11.2777
year	-11.2777
thats	-11.2777
▁execute	-11.2779
emma	-11.2781
level	-11.2782
▁descend	-11.2784
▁technical	-11.2786
▁immediate	-11.2786
▁vincen	-11.2788
▁heavi	-11.2788
▁pounce	-11.2789
▁suga	-11.2791
seas	-11.2791
▁pac	-11.2791
▁instruct	-11.2792
▁potato	-11.2792
▁psychiatri	-11.2795
▁posse	-11.2795
cake	-11.2796
▁cooper	-11.2796
solution	-11.2798
▁michel	-11.2798
▁appoint	-11.2798
▁cecil	-11.2798
▁rabbit	-11.2798
▁orphan	-11.2799
▁architect	-11.28
▁mornin	-11.28
▁patter	-11.28
▁hunch	-11.28
▁egypt	-11.28
▁industri	-11.28
▁reflex	-11.28
▁toxic	-11.28
▁academic	-11.28
▁academy	-11.28
▁accurate	-11.28
▁ambition	-11.28
▁ammunition	-11.28
▁anchor	-11.28
▁antonio	-11.28
▁apologizing	-11.28
▁appetite	-11.28
▁baloney	-11.28
▁behalf	-11.28
▁brandnew	-11.28
▁brew	-11.28
▁calendar	-11.28
▁capacity	-11.28
▁casino	-11.28
▁categor	-11.28
▁caviar	-11.28
▁chemistry	-11.28
▁cherokee	-11.28
▁chevalier	-11.28
▁christamaria	-11.28
▁cinderella	-11.28
▁competitive	-11.28
▁conscience	-11.28
▁coordinat	-11.28
▁corporal	-11.28
▁council	-11.28
▁crunch	-11.28
▁deceased	-11.28
▁december	-11.28
▁despise	-11.28
▁diabolical	-11.28
▁diminish	-11.28
▁disconnected	-11.28
▁distress	-11.28
▁duffel	-11.28
▁edinburgh	-11.28
▁equipped	-11.28
▁error	-11.28
▁essential	-11.28
▁eugene	-11.28
▁exhusband	-11.28
▁external	-11.28
▁extinguish	-11.28
▁fantasy	-11.28
▁fingernails	-11.28
▁forensics	-11.28
▁fracture	-11.28
▁frode	-11.28
▁fundraiser	-11.28
▁goldenbeard	-11.28
▁gracias	-11.28
▁gurgling	-11.28
▁hamshari	-11.28
▁hebrew	-11.28
▁helmet	-11.28
▁honecker	-11.28
▁humiliate	-11.28
▁infinite	-11.28
▁inglewood	-11.28
▁inhuman	-11.28
▁initial	-11.28
▁intimate	-11.28
▁invasion	-11.28
▁jacoby	-11.28
▁janiro	-11.28
▁kennedy	-11.28
▁konrad	-11.28
▁kruger	-11.28
▁laboratory	-11.28
▁ladonna	-11.28
▁litalia	-11.28
▁lndlstlnct	-11.28
▁lyric	-11.28
▁machete	-11.28
▁mahjong	-11.28
▁mcswiney	-11.28
▁memphis	-11.28
▁mercenaries	-11.28
▁middleweight	-11.28
▁millennium	-11.28
▁moselle	-11.28
▁mwow	-11.28
▁nixon	-11.28
▁northeast	-11.28
▁november	-11.28
▁opponent	-11.28
▁ordinary	-11.28
▁oregon	-11.28
▁peenalop	-11.28
▁penelope	-11.28
▁pennsylvania	-11.28
▁pepper	-11.28
▁perfume	-11.28
▁perimeter	-11.28
▁picasso	-11.28
▁popcorn	-11.28
▁precaution	-11.28
▁prescription	-11.28
▁preserve	-11.28
▁prostitute	-11.28
▁pudding	-11.28
▁puppet	-11.28
▁purchase	-11.28
▁rachel	-11.28
▁rampage	-11.28
▁resign	-11.28
▁resurrect	-11.28
▁rethink	-11.28
▁rubbish	-11.28
▁seatbelt	-11.28
▁servant	-11.28
▁shampoo	-11.28
▁shanghai	-11.28
▁shokopiwah	-11.28
▁sleeve	-11.28
▁sociopath	-11.28
▁squid	-11.28
▁stitches	-11.28
▁strategy	-11.28
▁supervisor	-11.28
▁supplies	-11.28
▁sustain	-11.28
▁swollen	-11.28
▁temptation	-11.28
▁tennessee	-11.28
▁thieves	-11.28
▁thumping	-11.28
▁transaction	-11.28
▁tremendous	-11.28
▁uncertain	-11.28
▁unfair	-11.28
▁ungrateful	-11.28
▁valmont	-11.28
▁vaseliev	-11.28
▁vocabulary	-11.28
▁wardrobe	-11.28
▁warnekros	-11.28
▁youssef	-11.28
▁zealand	-11.28
▁asshoie	-11.28
▁caesar	-11.28
▁camino	-11.28
▁cobb	-11.28
▁debby	-11.28
▁denmark	-11.28
▁downsizing	-11.28
▁ethan	-11.28
▁flirt	-11.28
▁flock	-11.28
▁hedestad	-11.28
▁inflat	-11.28
▁investigate	-11.28
▁ireland	-11.28
▁irina	-11.28
▁leroy	-11.28
▁mazel	-11.28
▁nineteen	-11.28
▁portnoy	-11.28
▁probation	-11.28
▁resort	-11.28
▁shield	-11.28
▁snitch	-11.28
▁unlock	-11.28
▁donation	-11.28
▁dwelling	-11.28
▁farewell	-11.28
▁judging	-11.28
▁palace	-11.28
▁peyton	-11.28
▁refusing	-11.28
egitimate	-11.28
▁colony	-11.28
▁phase	-11.28
▁pigeon	-11.28
▁plastic	-11.28
▁porch	-11.28
▁sober	-11.28
▁terminal	-11.28
▁yankees	-11.28
▁creation	-11.28
▁allergi	-11.28
▁hijack	-11.28
▁kitsey	-11.28
▁perpetua	-11.28
▁stomp	-11.28
▁tibbs	-11.28
▁adapt	-11.28
▁domingre	-11.28
▁headquarters	-11.28
▁shilling	-11.28
▁unreal	-11.28
▁violate	-11.28
mpf	-11.28
▁prophet	-11.28
▁tumor	-11.28
▁hesitate	-11.28
▁senor	-11.28
▁reveal	-11.28
▁riddle	-11.28
▁ensure	-11.28
▁kurt	-11.28
▁lenka	-11.28
▁sasha	-11.28
▁spectacular	-11.28
▁correspondence	-11.28
▁dedicat	-11.28
▁identify	-11.28
▁scorche	-11.28
▁stockholm	-11.28
▁eighteen	-11.28
▁interact	-11.28
▁mustache	-11.28
▁basis	-11.28
▁impose	-11.28
▁thumbs	-11.28
▁annis	-11.28
▁housing	-11.28
▁wizard	-11.28
▁unstable	-11.28
▁limp	-11.28
▁isley	-11.28
▁nelly	-11.28
▁rusty	-11.28
▁groov	-11.28
▁plague	-11.2801
▁sketch	-11.2801
▁autograph	-11.2801
▁narrow	-11.2801
▁illusion	-11.2801
▁douglas	-11.2801
▁duncan	-11.2801
▁jingle	-11.2801
▁alternative	-11.2801
▁rouge	-11.2801
▁micro	-11.2801
▁eternity	-11.2801
▁microphone	-11.2801
▁immigration	-11.2801
▁hector	-11.2801
▁arsehole	-11.2801
▁integrity	-11.2801
▁bogey	-11.2801
▁burden	-11.2801
▁pluck	-11.2801
▁soak	-11.2801
▁rigged	-11.2801
▁tilden	-11.2801
delicate	-11.2801
▁stalk	-11.2801
▁exceptions	-11.2801
▁lndian	-11.2801
▁burial	-11.2801
▁bugged	-11.2801
▁oath	-11.2801
▁snapped	-11.2801
▁stool	-11.2802
▁curran	-11.2802
▁olson	-11.2802
▁meade	-11.2802
▁endorsement	-11.2802
▁behold	-11.2802
▁sniffling	-11.2802
▁assistance	-11.2802
▁hoax	-11.2802
▁slope	-11.2802
▁riot	-11.2802
term	-11.2802
▁jared	-11.2802
▁nino	-11.2802
▁keycard	-11.2802
▁donald	-11.2802
▁celine	-11.2803
▁fluid	-11.2803
▁technology	-11.2803
▁saddle	-11.2803
▁adjust	-11.2803
▁bribe	-11.2803
▁chinatown	-11.2803
▁circuit	-11.2803
▁bread	-11.2803
▁whoop	-11.2803
▁thread	-11.2803
▁druggie	-11.2803
▁liking	-11.2804
▁evie	-11.2804
▁faking	-11.2804
▁leadership	-11.2804
▁ammo	-11.2804
▁joyce	-11.2804
▁intel	-11.2804
▁drugged	-11.2804
▁gunfire	-11.2804
▁poetry	-11.2805
▁resent	-11.2805
▁scent	-11.2805
▁fife	-11.2805
▁vase	-11.2805
▁headphones	-11.2805
▁stiff	-11.2805
▁inhaler	-11.2805
▁partnership	-11.2805
▁sector	-11.2805
▁automatic	-11.2805
▁abby	-11.2805
▁torment	-11.2805
▁hound	-11.2805
▁countdown	-11.2805
▁obli	-11.2806
▁merry	-11.2806
▁vow	-11.2806
▁villain	-11.2806
▁allowance	-11.2806
▁glow	-11.2806
▁hob	-11.2806
▁flour	-11.2806
▁delete	-11.2807
▁endorse	-11.2807
▁scum	-11.2807
▁invention	-11.2807
▁diana	-11.2807
▁fame	-11.2807
▁static	-11.2807
▁happier	-11.2808
▁smuggler	-11.2808
▁flavor	-11.2808
▁indulge	-11.2808
▁qualified	-11.2808
▁temporar	-11.2808
▁maryland	-11.2808
▁substitute	-11.2808
▁tide	-11.2808
▁yank	-11.2808
▁luci	-11.2808
▁congratulate	-11.2808
▁reduce	-11.2809
▁dunne	-11.2809
▁rash	-11.2809
▁tuck	-11.2809
▁disappointment	-11.2809
▁harmless	-11.2809
▁virginity	-11.2809
▁electrical	-11.281
▁annu	-11.281
▁precisely	-11.281
▁delight	-11.281
▁oni	-11.281
liance	-11.281
▁nero	-11.2811
hearted	-11.2811
▁claus	-11.2812
▁rapidly	-11.2813
▁keen	-11.2813
▁struck	-11.2813
▁plead	-11.2813
▁stall	-11.2814
▁maddy	-11.2814
▁becky	-11.2814
▁dna	-11.2815
▁greeting	-11.2815
▁crude	-11.2815
▁cuba	-11.2816
▁knockout	-11.2816
▁coup	-11.2816
▁leone	-11.2817
▁lester	-11.2817
▁tonic	-11.2817
ssociati	-11.2818
▁metaphorical	-11.2818
▁compared	-11.2818
▁formation	-11.2819
▁legit	-11.282
▁macey	-11.282
▁hittin	-11.282
▁skies	-11.282
▁tsing	-11.282
▁iot	-11.2821
▁passage	-11.2821
▁mankind	-11.2821
▁justify	-11.2821
▁bitten	-11.2823
▁hose	-11.2824
▁opie	-11.2824
▁semi	-11.2825
▁musl	-11.2825
▁clic	-11.2825
▁agony	-11.2827
▁grid	-11.2827
▁dull	-11.2827
▁severely	-11.2829
▁wrestler	-11.2829
▁pip	-11.283
▁cameron	-11.283
▁faithful	-11.2831
▁meanwhile	-11.2831
iness	-11.2831
▁selected	-11.2832
▁specialist	-11.2832
▁slaughtered	-11.2834
▁endure	-11.2834
▁vain	-11.2835
▁howling	-11.2836
quet	-11.2837
▁fleet	-11.2838
▁cries	-11.2839
▁hatch	-11.2839
called	-11.284
▁funni	-11.2841
▁geezer	-11.2841
▁cellar	-11.2841
actic	-11.2841
▁inch	-11.2842
▁hush	-11.2843
leton	-11.2844
▁exhausting	-11.2845
▁reina	-11.2846
▁fury	-11.2847
▁handling	-11.2851
▁ash	-11.2852
▁sharply	-11.2854
▁tb	-11.2856
▁developed	-11.2857
▁tore	-11.2857
lka	-11.2857
▁sewer	-11.2859
▁brat	-11.286
▁whooping	-11.286
▁ec	-11.2861
▁sang	-11.2862
▁baddy	-11.2863
▁sung	-11.2864
▁rear	-11.2867
▁iive	-11.2867
▁pisses	-11.2867
▁goodlooking	-11.2872
▁dearest	-11.2877
▁toll	-11.2878
tech	-11.2878
▁luna	-11.2882
zy	-11.2883
▁canceled	-11.2887
ppy	-11.2887
▁salut	-11.2888
▁musician	-11.289
▁exploded	-11.2891
▁drowning	-11.2894
▁melted	-11.2894
▁limited	-11.2894
▁approached	-11.2895
▁poured	-11.2895
▁lawn	-11.2896
▁now	-11.2896
▁leo	-11.2897
▁measured	-11.2901
etta	-11.2901
▁intended	-11.2902
▁healed	-11.2902
nous	-11.2907
▁pronounce	-11.2908
▁bein	-11.2909
▁lycans	-11.2914
▁frau	-11.2915
iana	-11.2916
other	-11.2921
▁crawled	-11.2925
▁claimed	-11.2927
▁singin	-11.2927
▁talented	-11.2932
▁entered	-11.2933
▁cryin	-11.2933
▁woody	-11.2935
▁kindness	-11.2935
▁skiing	-11.2936
▁difficulty	-11.2936
▁nance	-11.2945
iction	-11.2947
▁simpler	-11.2951
▁hopeless	-11.2951
▁gap	-11.2955
▁cher	-11.2957
▁ahhh	-11.2984
▁shortly	-11.2987
▁washed	-11.2988
▁deeper	-11.299
▁gagg	-11.2991
▁lifted	-11.2993
ippin	-11.2994
pensive	-11.2994
▁concentrat	-11.2996
▁manny	-11.3
▁wired	-11.3011
▁perp	-11.3013
▁tate	-11.3024
▁blessing	-11.3033
▁insults	-11.3046
▁texted	-11.3046
▁thoughtful	-11.3052
▁processing	-11.3053
▁traveled	-11.3054
nched	-11.3062
▁toi	-11.3063
▁gladly	-11.3065
▁ticking	-11.3083
aria	-11.3084
▁marl	-11.3094
▁dill	-11.3099
▁oldies	-11.3103
paw	-11.3115
▁buster	-11.3117
▁whistl	-11.312
▁footballer	-11.3122
shore	-11.3132
▁warner	-11.3141
▁but	-11.3141
▁borne	-11.3155
enin	-11.3164
▁logical	-11.3164
▁gav	-11.3185
▁bab	-11.3195
assi	-11.3196
▁pond	-11.3206
▁pursue	-11.3211
wept	-11.3257
▁seduc	-11.3283
tto	-11.3314
▁ramon	-11.3325
gent	-11.3326
▁layer	-11.3333
▁eng	-11.3334
tric	-11.3353
ubl	-11.337
inned	-11.3379
your	-11.3385
quit	-11.339
case	-11.34
opping	-11.3408
▁latch	-11.3411
fle	-11.3418
▁stat	-11.3452
▁medi	-11.3457
▁commun	-11.346
▁sho	-11.3515
▁wad	-11.3536
▁redhead	-11.3544
▁mop	-11.3569
ack	-11.3569
▁cruis	-11.3577
tches	-11.358
mper	-11.3598
▁swap	-11.3608
aura	-11.3609
▁alp	-11.362
pay	-11.3665
shire	-11.3699
ano	-11.371
ittl	-11.371
▁demonstrate	-11.3728
▁deposit	-11.3816
▁ironic	-11.382
▁ser	-11.3857
▁bong	-11.3877
▁dela	-11.3933
pse	-11.3964
fil	-11.4001
cold	-11.4014
▁shatter	-11.4072
▁smok	-11.4077
▁ku	-11.4095
ambie	-11.4103
vern	-11.4166
ival	-11.4189
ifies	-11.421
▁wal	-11.4228
▁curl	-11.4234
pulsive	-11.4245
was	-11.4264
tible	-11.4296
▁bot	-11.4304
▁poo	-11.4348
hma	-11.4373
▁sten	-11.4388
▁tol	-11.4405
▁spec	-11.447
▁sigh	-11.4498
▁ign	-11.4524
▁herb	-11.4547
▁stoke	-11.455
▁breast	-11.4559
▁stammer	-11.4559
▁rattle	-11.4559
▁aerobic	-11.4563
▁twin	-11.4564
▁relative	-11.4568
▁elvi	-11.457
onic	-11.4571
▁folk	-11.4573
▁rib	-11.4574
▁dil	-11.4586
▁tradition	-11.4591
fit	-11.4591
▁notif	-11.4602
▁suite	-11.462
most	-11.4644
imon	-11.4652
▁juli	-11.4655
horse	-11.4659
▁ratio	-11.4664
▁web	-11.468
▁silve	-11.4686
▁chok	-11.469
▁writ	-11.4694
▁exhaust	-11.4707
umbling	-11.4711
cation	-11.4725
▁brag	-11.4727
▁accord	-11.475
▁frighten	-11.4758
▁flee	-11.4758
culate	-11.4759
▁slaughter	-11.4759
three	-11.476
▁sacr	-11.4761
style	-11.4761
▁vanish	-11.4761
nice	-11.4762
▁stash	-11.4763
▁wrestle	-11.4765
▁specialize	-11.4767
point	-11.4771
▁excite	-11.4773
▁accuse	-11.4774
▁confuse	-11.4774
water	-11.4774
guard	-11.4775
cycle	-11.4775
wood	-11.4776
cheese	-11.4776
worth	-11.4776
figure	-11.4776
vision	-11.4777
▁greed	-11.4779
▁thirst	-11.4779
reach	-11.4781
▁securit	-11.4781
▁teenage	-11.4782
green	-11.4784
▁defens	-11.4784
▁extreme	-11.4786
▁rox	-11.4788
▁innocen	-11.4789
type	-11.4789
coat	-11.479
▁selen	-11.479
▁recent	-11.4791
▁rapid	-11.4792
▁continent	-11.4794
▁leon	-11.4796
▁construct	-11.4796
▁translat	-11.4796
▁intent	-11.4796
▁consult	-11.4796
▁republic	-11.4797
▁runnin	-11.4797
▁hawaii	-11.4797
minded	-11.4798
▁explor	-11.4798
▁manipulat	-11.4798
▁automat	-11.4798
▁reception	-11.4798
▁kiddin	-11.4798
▁diagnos	-11.4799
▁intelligen	-11.4799
cussion	-11.4799
▁rebec	-11.48
▁scholar	-11.48
ficial	-11.48
▁lemon	-11.48
activate	-11.48
▁congrega	-11.48
▁hvap	-11.48
▁indict	-11.48
▁monaster	-11.48
responsibilities	-11.48
▁acquired	-11.48
▁administer	-11.48
▁administration	-11.48
▁africanamerican	-11.48
▁airspace	-11.48
▁alchir	-11.48
▁alderman	-11.48
▁allegiance	-11.48
▁almanac	-11.48
▁amityville	-11.48
▁analyz	-11.48
▁anchovies	-11.48
▁anticipate	-11.48
▁arizona	-11.48
▁arrival	-11.48
▁artifact	-11.48
▁atlanta	-11.48
▁atmosphere	-11.48
▁babysitter	-11.48
▁balabushka	-11.48
▁bastian	-11.48
▁beethoven	-11.48
▁behaving	-11.48
▁berlinghieri	-11.48
▁blackjack	-11.48
▁blindfold	-11.48
▁bohemia	-11.48
▁brunckhorst	-11.48
▁cadillac	-11.48
▁celebration	-11.48
▁certificate	-11.48
▁chariot	-11.48
▁chateau	-11.48
▁choosing	-11.48
▁cicero	-11.48
▁civilization	-11.48
▁cockroach	-11.48
▁colonial	-11.48
▁conclude	-11.48
▁conclusion	-11.48
▁conference	-11.48
▁consumer	-11.48
▁croquette	-11.48
▁darryl	-11.48
▁decency	-11.48
▁deception	-11.48
▁denise	-11.48
▁departure	-11.48
▁discharge	-11.48
▁discreet	-11.48
▁divided	-11.48
▁divinity	-11.48
▁doorknob	-11.48
▁dunsinane	-11.48
▁elegant	-11.48
▁elephant	-11.48
▁emerging	-11.48
▁ephraim	-11.48
▁equation	-11.48
▁erection	-11.48
▁erskine	-11.48
▁expiain	-11.48
▁exploding	-11.48
▁extinction	-11.48
▁exwife	-11.48
▁faculty	-11.48
▁fergus	-11.48
▁finnish	-11.48
▁floyd	-11.48
▁frankfurt	-11.48
▁gestapo	-11.48
▁giggling	-11.48
▁glorious	-11.48
▁grandchildren	-11.48
▁grocery	-11.48
▁guzman	-11.48
▁hallelujah	-11.48
▁happily	-11.48
▁hobbies	-11.48
▁hodgson	-11.48
▁horizon	-11.48
▁hotchkiss	-11.48
▁humanitarian	-11.48
▁hussein	-11.48
▁illinois	-11.48
▁impulse	-11.48
▁inaudible	-11.48
▁increasing	-11.48
▁indige	-11.48
▁infiniti	-11.48
▁injured	-11.48
▁insatiable	-11.48
▁institute	-11.48
▁investigator	-11.48
▁kauai	-11.48
▁kraven	-11.48
▁kurgan	-11.48
▁lazenby	-11.48
▁leonida	-11.48
▁leviticus	-11.48
▁ljoha	-11.48
▁lloyd	-11.48
▁luxury	-11.48
▁mademoiselle	-11.48
▁malfunction	-11.48
▁manhattan	-11.48
▁marbro	-11.48
▁mendoza	-11.48
▁merchandise	-11.48
▁minimum	-11.48
▁montgomery	-11.48
▁moravec	-11.48
▁motivat	-11.48
▁mozart	-11.48
▁murmur	-11.48
▁namgoong	-11.48
▁necessity	-11.48
▁nemesis	-11.48
▁nichol	-11.48
▁nominated	-11.48
▁offensive	-11.48
▁oklahoma	-11.48
▁opposed	-11.48
▁orgasm	-11.48
▁ornament	-11.48
▁orvis	-11.48
▁osiris	-11.48
▁ounce	-11.48
▁outrageous	-11.48
▁outstanding	-11.48
▁overhear	-11.48
▁overreacting	-11.48
▁pedophile	-11.48
▁peppermint	-11.48
▁perspective	-11.48
▁phoenix	-11.48
▁politician	-11.48
▁portsmith	-11.48
▁powaqa	-11.48
▁presume	-11.48
▁quinton	-11.48
▁raisins	-11.48
▁reaiiy	-11.48
▁reboot	-11.48
▁reggie	-11.48
▁repair	-11.48
▁reprogram	-11.48
▁roosevelt	-11.48
▁rottweiler	-11.48
▁sauerkraut	-11.48
▁scissor	-11.48
▁seldom	-11.48
▁selfdefense	-11.48
▁sequence	-11.48
▁sermon	-11.48
▁snarls	-11.48
▁snoop	-11.48
▁stagecoach	-11.48
▁struggling	-11.48
▁sunglasses	-11.48
▁superhero	-11.48
▁syrup	-11.48
▁truce	-11.48
▁trudy	-11.48
▁tvirus	-11.48
▁twitter	-11.48
▁undefeated	-11.48
▁upfront	-11.48
▁uppercut	-11.48
▁uptight	-11.48
▁vienna	-11.48
▁vigorous	-11.48
▁welfare	-11.48
▁wexler	-11.48
▁whichever	-11.48
▁wyoming	-11.48
▁zeppelin	-11.48
▁zombie	-11.48
▁adorable	-11.48
▁agenda	-11.48
▁auction	-11.48
▁bronson	-11.48
▁buffoon	-11.48
▁cambodia	-11.48
▁chump	-11.48
▁colonies	-11.48
▁conceal	-11.48
▁define	-11.48
▁detox	-11.48
▁distinct	-11.48
▁esteem	-11.48
▁exaggerat	-11.48
▁exorcis	-11.48
▁exotic	-11.48
▁fierce	-11.48
▁intuiti	-11.48
▁jumbo	-11.48
▁libel	-11.48
▁madonna	-11.48
▁masturbat	-11.48
▁neutral	-11.48
▁nitrous	-11.48
▁orienta	-11.48
▁petrek	-11.48
▁possum	-11.48
▁quarrel	-11.48
▁reunion	-11.48
▁rveur	-11.48
▁selfpity	-11.48
▁senile	-11.48
▁shoplift	-11.48
▁sprinkle	-11.48
▁statistics	-11.48
▁traitor	-11.48
▁turtle	-11.48
▁tutu	-11.48
▁vacuum	-11.48
▁batteries	-11.48
▁blares	-11.48
▁ceiling	-11.48
▁enlist	-11.48
▁function	-11.48
▁instance	-11.48
▁mancini	-11.48
▁molester	-11.48
▁nevertheless	-11.48
▁organic	-11.48
▁pupil	-11.48
▁radlo	-11.48
▁reopen	-11.48
▁rookie	-11.48
▁seventeen	-11.48
▁stereo	-11.48
▁swerve	-11.48
▁walleye	-11.48
▁whereabouts	-11.48
▁banana	-11.48
▁extend	-11.48
▁gulf	-11.48
▁margin	-11.48
▁piotr	-11.48
▁sheep	-11.48
▁update	-11.48
▁wilderness	-11.48
▁fourteen	-11.48
▁biography	-11.48
▁cramp	-11.48
▁cuddl	-11.48
▁depressing	-11.48
▁dismantle	-11.48
▁exceptional	-11.48
▁ninth	-11.48
▁nonono	-11.48
▁physics	-11.48
▁strand	-11.48
▁tyler	-11.48
▁worm	-11.48
▁canvas	-11.48
▁forcing	-11.48
▁highlander	-11.48
▁oak	-11.48
▁doyle	-11.48
▁fortress	-11.48
▁freeloader	-11.48
▁surprising	-11.48
▁tactics	-11.48
▁willis	-11.48
▁dental	-11.48
▁reconcil	-11.48
▁prodig	-11.48
▁undone	-11.48
▁poker	-11.48
▁battery	-11.48
▁fussing	-11.48
▁yeats	-11.48
▁cmon	-11.48
▁underestimate	-11.48
▁queer	-11.48
▁darn	-11.48
▁leather	-11.48
▁presley	-11.48
▁assessment	-11.48
▁carpet	-11.48
▁grubitz	-11.48
▁meditation	-11.4801
▁shuttle	-11.4801
▁peach	-11.4801
▁brawl	-11.4801
▁sculpture	-11.4801
▁lottery	-11.4801
▁sayaka	-11.4801
▁ugli	-11.4801
titude	-11.4801
▁brood	-11.4801
▁seminar	-11.4801
▁mackey	-11.4801
▁greer	-11.4801
▁elder	-11.4801
▁issy	-11.4801
jeriko	-11.4801
▁actress	-11.4801
▁consent	-11.4801
▁getaway	-11.4801
▁bonfire	-11.4801
▁revolver	-11.4801
▁mailbox	-11.4801
▁occupied	-11.4801
▁trifle	-11.4801
▁enforcement	-11.4801
▁neurotic	-11.4801
▁plunge	-11.4801
▁trend	-11.4801
▁fleance	-11.4801
▁occur	-11.4801
▁granddaddy	-11.4801
▁ahem	-11.4801
▁gordy	-11.4801
▁elementary	-11.4801
▁participate	-11.4801
▁chime	-11.4801
▁preparation	-11.4801
▁matchmaker	-11.4801
▁downhill	-11.4801
▁pippa	-11.4801
▁referring	-11.4801
▁transmitter	-11.4801
▁amusement	-11.4801
▁intercom	-11.4801
▁gdr	-11.4801
▁dietrich	-11.4801
▁fanatic	-11.4801
▁flank	-11.4801
▁justified	-11.4801
▁basketball	-11.4801
▁shboom	-11.4801
▁calvin	-11.4801
▁addison	-11.4801
izarr	-11.4801
▁democrats	-11.4801
▁flashlight	-11.4801
▁executive	-11.4802
▁auden	-11.4802
▁refund	-11.4802
▁rosa	-11.4802
▁destruction	-11.4802
▁hoppy	-11.4802
▁rational	-11.4802
guire	-11.4802
▁sosa	-11.4802
▁leith	-11.4802
▁karma	-11.4802
▁noose	-11.4802
▁jock	-11.4802
▁diagnosis	-11.4802
▁unhook	-11.4802
▁gender	-11.4802
▁orphanage	-11.4802
▁receptionist	-11.4802
▁radiation	-11.4802
▁usher	-11.4802
▁lowkey	-11.4802
▁terri	-11.4802
▁beneficia	-11.4802
▁quiz	-11.4802
▁jenna	-11.4802
▁norma	-11.4802
▁waltz	-11.4802
▁declaration	-11.4802
▁vista	-11.4802
▁masculine	-11.4803
▁beatles	-11.4803
▁margie	-11.4803
▁finance	-11.4803
arius	-11.4803
▁exclusive	-11.4803
▁extension	-11.4803
▁toby	-11.4803
▁consultation	-11.4803
▁recreat	-11.4803
▁geneva	-11.4803
▁confident	-11.4803
iquett	-11.4803
▁postcard	-11.4803
▁romance	-11.4803
▁hazard	-11.4803
▁cooperation	-11.4803
▁consciousness	-11.4803
▁sieg	-11.4803
▁enrich	-11.4804
▁organis	-11.4804
▁chili	-11.4804
▁stanford	-11.4804
▁resolution	-11.4804
▁appearance	-11.4804
▁ripping	-11.4804
▁cuz	-11.4804
▁obey	-11.4804
▁courtroom	-11.4804
▁wiping	-11.4804
▁spook	-11.4804
▁distribution	-11.4804
▁announc	-11.4804
▁cruelty	-11.4805
▁trina	-11.4805
▁repay	-11.4805
▁fanny	-11.4805
▁rambo	-11.4805
▁piggy	-11.4805
▁translation	-11.4805
▁detector	-11.4805
▁checkpoint	-11.4805
▁peeking	-11.4805
▁musket	-11.4805
▁vibe	-11.4805
▁employment	-11.4805
▁heap	-11.4806
▁overcom	-11.4806
▁brent	-11.4806
▁communion	-11.4806
▁cereal	-11.4806
▁rolex	-11.4806
▁racket	-11.4806
▁rising	-11.4806
loaf	-11.4806
▁software	-11.4806
▁embrace	-11.4806
▁entre	-11.4806
▁massive	-11.4807
▁testified	-11.4807
▁deaf	-11.4807
▁stack	-11.4807
▁lockdown	-11.4807
▁dragna	-11.4807
▁iong	-11.4807
▁korean	-11.4807
▁abstract	-11.4808
▁squat	-11.4808
▁anxiety	-11.4808
▁floorboard	-11.4808
▁tov	-11.4808
▁poof	-11.4808
▁foil	-11.4809
▁lyin	-11.4809
▁replacement	-11.4809
▁lame	-11.4809
▁nob	-11.4809
▁bolo	-11.4809
▁juri	-11.4809
▁groom	-11.4809
▁devou	-11.481
▁indicated	-11.481
▁slashes	-11.481
▁certainty	-11.4811
▁instructor	-11.4811
▁ego	-11.4811
▁presidential	-11.4812
▁confirmation	-11.4812
ockey	-11.4812
▁salon	-11.4812
▁bruno	-11.4813
imated	-11.4813
tail	-11.4813
▁detonat	-11.4814
▁dismissed	-11.4815
▁distorted	-11.4815
▁volunteered	-11.4815
▁fitting	-11.4815
▁objection	-11.4816
▁stepping	-11.4816
▁sax	-11.4816
▁rufus	-11.4816
▁crazed	-11.4816
▁lifestyle	-11.4817
▁livin	-11.4817
▁aj	-11.4817
▁gabe	-11.4817
▁yum	-11.4817
▁welty	-11.4818
▁weaponry	-11.4818
▁sleepwalking	-11.4819
▁counseling	-11.4819
▁educated	-11.4819
▁organize	-11.4819
▁consistent	-11.482
▁vanill	-11.482
▁swam	-11.482
▁cave	-11.482
▁bore	-11.4821
▁valve	-11.4821
▁gaby	-11.4821
▁canal	-11.4823
▁approaches	-11.4823
▁greedy	-11.4823
▁muchassi	-11.4824
▁condemned	-11.4824
▁mace	-11.4824
▁instantly	-11.4826
▁strictly	-11.4826
▁shovel	-11.4826
▁anus	-11.4828
▁johnnie	-11.4828
▁lawson	-11.4828
▁priceless	-11.4829
nuck	-11.4829
▁hobo	-11.4829
▁kama	-11.483
▁parkway	-11.4831
▁fatty	-11.4831
▁reno	-11.4832
▁core	-11.4833
▁apprehended	-11.4833
▁brighton	-11.4833
▁losses	-11.4834
▁wept	-11.4834
▁approved	-11.4836
▁proposed	-11.4836
▁located	-11.4836
▁marion	-11.4836
▁reply	-11.4837
▁trustee	-11.4837
▁hotter	-11.4837
▁projector	-11.4838
▁fearless	-11.4839
▁fulltime	-11.4839
▁disorderly	-11.484
▁sow	-11.484
▁armored	-11.484
▁fran	-11.484
▁toke	-11.4841
▁heir	-11.4842
▁frightened	-11.4842
▁sacred	-11.4842
▁calculat	-11.4843
▁nickel	-11.4843
▁mourning	-11.4843
▁swelling	-11.4843
▁stashed	-11.4843
▁lawman	-11.4843
▁clanking	-11.4844
▁investor	-11.4845
▁parttime	-11.4847
▁dire	-11.4848
▁loop	-11.4852
▁bid	-11.4852
▁kuwaiti	-11.4853
▁organized	-11.4853
▁fried	-11.4853
▁diner	-11.4854
▁haul	-11.4854
▁vig	-11.4855
▁apo	-11.4855
▁highness	-11.4855
eddle	-11.4855
▁abused	-11.4856
▁specta	-11.4857
▁tighten	-11.4859
▁lei	-11.4859
▁sixth	-11.4861
▁initiated	-11.4861
▁twisted	-11.4861
▁flattered	-11.4861
▁stingy	-11.4869
▁comply	-11.4869
▁transformed	-11.487
▁backyard	-11.4871
▁physically	-11.4874
▁grove	-11.4874
▁active	-11.4876
▁wheeler	-11.4877
▁setup	-11.4877
▁menac	-11.4877
tore	-11.488
orado	-11.4883
▁puttin	-11.4883
▁historical	-11.4885
▁strangest	-11.4886
▁solved	-11.4887
▁secured	-11.4887
▁bark	-11.4888
▁brandy	-11.4888
mei	-11.489
▁momma	-11.4891
▁eta	-11.4891
▁chewie	-11.4892
▁divorced	-11.4893
▁dug	-11.4894
▁employer	-11.4894
▁willingly	-11.4895
ept	-11.4898
▁folder	-11.4898
▁monitored	-11.4899
▁marita	-11.49
▁roughly	-11.4901
▁teaches	-11.4902
▁lime	-11.4902
▁spraying	-11.4904
▁helena	-11.4904
▁bb	-11.4912
▁fastest	-11.4918
▁deadline	-11.4918
dog	-11.4919
martial	-11.4924
▁bookies	-11.4932
▁handful	-11.4937
▁coin	-11.494
▁bry	-11.4947
▁sor	-11.4951
▁dash	-11.4966
▁multipli	-11.4967
read	-11.4977
▁kin	-11.4978
▁noone	-11.4982
amon	-11.4986
rsten	-11.4986
▁trippin	-11.4988
crib	-11.499
▁cling	-11.4995
▁spine	-11.5
▁soci	-11.5005
▁doorway	-11.5008
ammed	-11.5009
▁traditional	-11.5014
▁busta	-11.5028
▁imagina	-11.5035
▁notch	-11.5057
▁cube	-11.5059
▁hitter	-11.5066
gb	-11.5076
▁encourage	-11.5083
ocus	-11.5083
▁prov	-11.5091
▁narc	-11.51
mbles	-11.5107
▁photographer	-11.5109
▁gaze	-11.5123
▁magn	-11.5147
lem	-11.5149
craft	-11.5174
▁cutter	-11.519
valent	-11.5222
▁agita	-11.5225
▁linger	-11.5299
▁armor	-11.5305
color	-11.5307
▁bog	-11.5314
imming	-11.5338
egged	-11.534
▁mute	-11.5364
▁stre	-11.537
▁advertis	-11.5391
witz	-11.5406
kets	-11.5416
▁select	-11.5423
▁moll	-11.5454
▁groupie	-11.5459
▁shoo	-11.5459
▁wherea	-11.548
slapped	-11.5481
cover	-11.5496
foo	-11.5501
▁chap	-11.5541
▁whippe	-11.5557
lib	-11.5559
▁sag	-11.5644
▁horr	-11.5651
bility	-11.5667
▁mur	-11.5679
▁axe	-11.578
atic	-11.5787
▁vac	-11.5809
rous	-11.5824
▁seize	-11.5876
wait	-11.6033
▁dodge	-11.6045
hell	-11.6102
itz	-11.6103
▁schu	-11.6123
lary	-11.6137
oster	-11.6155
▁shi	-11.6205
▁declar	-11.6233
plicate	-11.6335
▁outof	-11.6354
▁mit	-11.6494
▁remark	-11.654
▁produc	-11.6541
▁advertise	-11.6591
▁merc	-11.6612
▁abusi	-11.6661
▁robot	-11.6718
dess	-11.6723
omb	-11.675
ption	-11.6886
▁encourag	-11.6949
wear	-11.6979
▁capt	-11.7006
logical	-11.7034
▁phon	-11.7048
uka	-11.7052
▁ankle	-11.7059
▁employee	-11.7063
▁consequence	-11.7063
▁insect	-11.7064
▁relation	-11.7067
▁republican	-11.7068
▁scientist	-11.7069
making	-11.7111
▁gab	-11.7129
▁logic	-11.7157
▁cord	-11.7157
▁cabine	-11.7181
nickers	-11.7186
▁defe	-11.7189
▁historic	-11.7193
▁plumb	-11.7214
▁corps	-11.7221
▁arc	-11.7227
▁era	-11.7231
▁nurs	-11.7242
▁mourn	-11.7246
▁squa	-11.7253
▁clank	-11.7254
▁apprehend	-11.7258
▁haunt	-11.7261
▁involv	-11.7262
▁wail	-11.7267
▁stunn	-11.7267
ologists	-11.7268
▁howl	-11.7269
▁swell	-11.727
▁retire	-11.7272
▁compare	-11.7272
q	-11.7272
▁bir	-11.7272
▁cree	-11.7273
father	-11.7274
authorized	-11.7274
wise	-11.7275
flower	-11.7275
connor	-11.7276
ninety	-11.7276
freak	-11.7276
text	-11.7276
trained	-11.7276
minute	-11.7276
girl	-11.7276
know	-11.7276
believe	-11.7276
free	-11.7276
▁consist	-11.7276
▁welt	-11.7278
▁emergenc	-11.728
▁murph	-11.728
track	-11.7281
fire	-11.7283
mones	-11.7283
▁blond	-11.7284
based	-11.7284
▁precise	-11.7285
▁crud	-11.7286
▁peck	-11.7286
▁smuggle	-11.7289
▁happie	-11.7289
road	-11.7289
▁india	-11.7291
▁australia	-11.7291
▁korea	-11.7291
▁catalog	-11.7292
▁borde	-11.7292
▁origin	-11.7293
▁scienti	-11.7294
box	-11.7294
▁distribut	-11.7296
▁drivin	-11.7296
▁everythin	-11.7297
▁beck	-11.7297
terior	-11.7297
▁exploit	-11.7298
▁democra	-11.7298
▁transmit	-11.7298
▁snot	-11.7299
▁francis	-11.7299
▁jacobs	-11.7299
▁granddad	-11.73
wich	-11.73
▁scram	-11.73
▁intellect	-11.73
▁convert	-11.73
▁vocal	-11.73
▁parr	-11.73
biograph	-11.73
▁collaborat	-11.73
▁shouid	-11.73
▁variet	-11.73
centric	-11.73
muzzle	-11.73
osexual	-11.73
subordinat	-11.73
▁accusation	-11.73
▁accusing	-11.73
▁affleck	-11.73
▁aleppo	-11.73
▁argentina	-11.73
▁armstrong	-11.73
▁ascendant	-11.73
▁attaboy	-11.73
▁bahamas	-11.73
▁bankrupt	-11.73
▁baptiz	-11.73
▁barricade	-11.73
▁bassett	-11.73
▁bernardino	-11.73
▁biometric	-11.73
▁blasphem	-11.73
▁brazil	-11.73
▁briegel	-11.73
▁bushwhack	-11.73
▁bypass	-11.73
▁cartridge	-11.73
▁cathedral	-11.73
▁caution	-11.73
▁ceremony	-11.73
▁charcoal	-11.73
▁clarify	-11.73
▁clumsy	-11.73
▁clutch	-11.73
▁consensual	-11.73
▁conservati	-11.73
▁conspiracy	-11.73
▁constitution	-11.73
▁crawford	-11.73
▁database	-11.73
▁daywalker	-11.73
▁decorated	-11.73
▁degenerate	-11.73
▁desoto	-11.73
▁despair	-11.73
▁determination	-11.73
▁devastated	-11.73
▁dinosaur	-11.73
▁diplomacy	-11.73
▁discipline	-11.73
▁discrepanc	-11.73
▁disregard	-11.73
▁dwana	-11.73
▁eclipse	-11.73
▁economy	-11.73
▁elsbeth	-11.73
▁elsewhere	-11.73
▁enterprise	-11.73
▁errand	-11.73
▁esperate	-11.73
▁excellence	-11.73
▁exhibit	-11.73
▁extortion	-11.73
▁extraordinary	-11.73
▁extremis	-11.73
▁eyewitness	-11.73
▁fabric	-11.73
▁facetoface	-11.73
▁february	-11.73
▁fentanyl	-11.73
▁figuring	-11.73
▁florek	-11.73
▁fword	-11.73
▁gazelle	-11.73
▁gentiemen	-11.73
▁goddammit	-11.73
▁gracious	-11.73
▁granddaughter	-11.73
▁grenning	-11.73
▁hamilton	-11.73
▁hemorrhag	-11.73
▁henderson	-11.73
▁heterosexual	-11.73
▁hoodlums	-11.73
▁identification	-11.73
▁ieave	-11.73
▁ignorance	-11.73
▁inbound	-11.73
▁incarcerated	-11.73
▁ingredien	-11.73
▁inspiration	-11.73
▁interpretation	-11.73
▁intersection	-11.73
▁intimacy	-11.73
▁irrelevant	-11.73
▁isolate	-11.73
▁japan	-11.73
▁jerrica	-11.73
▁jerusalem	-11.73
▁jukebox	-11.73
▁jurisdiction	-11.73
▁kangaroo	-11.73
▁katrina	-11.73
▁kessler	-11.73
▁kettle	-11.73
▁knockemstiff	-11.73
▁krystal	-11.73
▁lasagne	-11.73
▁laxative	-11.73
▁leotard	-11.73
▁lewis	-11.73
▁lnhale	-11.73
▁mammoth	-11.73
▁massachusetts	-11.73
▁melanch	-11.73
▁microwave	-11.73
▁mijo	-11.73
▁monahan	-11.73
▁morphine	-11.73
▁motherinlaw	-11.73
▁mutual	-11.73
▁mwah	-11.73
▁napoleon	-11.73
▁nascimento	-11.73
▁navidad	-11.73
▁necklace	-11.73
▁nogood	-11.73
▁noodle	-11.73
▁nutrition	-11.73
▁obligation	-11.73
▁okeydoke	-11.73
▁oldfashioned	-11.73
▁operative	-11.73
▁opportunities	-11.73
▁optimistic	-11.73
▁oshea	-11.73
▁overwhelm	-11.73
▁palmgren	-11.73
▁parachutists	-11.73
▁parallel	-11.73
▁parlor	-11.73
▁peacock	-11.73
▁penitentiary	-11.73
▁persuade	-11.73
▁phenomena	-11.73
▁philadelphia	-11.73
▁philippe	-11.73
▁pieceofshit	-11.73
▁pineapple	-11.73
▁platinum	-11.73
▁polexia	-11.73
▁portuguese	-11.73
▁precinct	-11.73
▁precision	-11.73
▁predictable	-11.73
▁probiem	-11.73
▁provoke	-11.73
▁psychiatry	-11.73
▁quaaludes	-11.73
▁qualification	-11.73
▁quarantine	-11.73
▁recollection	-11.73
▁regift	-11.73
▁regulation	-11.73
▁reluctant	-11.73
▁renegade	-11.73
▁reschedule	-11.73
▁residents	-11.73
▁retrieve	-11.73
▁richmond	-11.73
▁rosalinda	-11.73
▁sandusky	-11.73
▁sapphire	-11.73
▁schweiber	-11.73
▁scoot	-11.73
▁scribble	-11.73
▁seamstress	-11.73
▁selfesteem	-11.73
▁seventyfive	-11.73
▁sheldon	-11.73
▁shlubb	-11.73
▁shriek	-11.73
▁shudder	-11.73
▁significant	-11.73
▁skateboard	-11.73
▁skeptic	-11.73
▁snowstorm	-11.73
▁sophisticat	-11.73
▁specimen	-11.73
▁sponge	-11.73
▁stadium	-11.73
▁storsch	-11.73
▁striking	-11.73
▁submarine	-11.73
▁suicidal	-11.73
▁supermarket	-11.73
▁suspension	-11.73
▁suspicion	-11.73
▁syllable	-11.73
▁syndicate	-11.73
▁synth	-11.73
▁tammy	-11.73
▁tempted	-11.73
▁tiighman	-11.73
▁tobacco	-11.73
▁transplant	-11.73
▁transsexual	-11.73
▁tweezers	-11.73
▁tyrant	-11.73
▁unbearabl	-11.73
▁underneath	-11.73
▁undressed	-11.73
▁unpleasant	-11.73
▁unprecedented	-11.73
▁unpredictable	-11.73
▁untraceable	-11.73
▁vargas	-11.73
▁variations	-11.73
▁vegetable	-11.73
▁verify	-11.73
▁veteran	-11.73
▁vibrant	-11.73
▁vittu	-11.73
▁vulture	-11.73
▁wellenbeck	-11.73
▁wrevock	-11.73
▁wrinkle	-11.73
▁yekke	-11.73
▁youtube	-11.73
▁yukio	-11.73
▁ziegler	-11.73
girdle	-11.73
mplications	-11.73
▁astonish	-11.73
▁baptis	-11.73
▁brothel	-11.73
▁cassio	-11.73
▁crazie	-11.73
▁crucify	-11.73
▁detach	-11.73
▁dishonor	-11.73
▁drummer	-11.73
▁eavesdrop	-11.73
▁enroll	-11.73
▁expired	-11.73
▁falcon	-11.73
▁fulfill	-11.73
▁gardner	-11.73
▁garlic	-11.73
▁guinea	-11.73
▁identical	-11.73
▁identities	-11.73
▁janitor	-11.73
▁knots	-11.73
▁maximum	-11.73
▁methane	-11.73
▁mojo	-11.73
▁omaha	-11.73
▁paralyze	-11.73
▁patrol	-11.73
▁penthouse	-11.73
▁prediction	-11.73
▁reestablish	-11.73
▁salander	-11.73
▁salmon	-11.73
▁sandahl	-11.73
▁seoul	-11.73
▁smear	-11.73
▁snort	-11.73
▁subscribe	-11.73
▁swift	-11.73
▁sworn	-11.73
▁twig	-11.73
▁uncool	-11.73
▁untouch	-11.73
▁upstate	-11.73
▁vouch	-11.73
▁wheat	-11.73
▁adhere	-11.73
▁baggage	-11.73
▁craving	-11.73
▁dawg	-11.73
▁dirch	-11.73
▁dylan	-11.73
▁evacuate	-11.73
▁expertise	-11.73
▁flood	-11.73
▁headhunt	-11.73
▁ignoring	-11.73
▁install	-11.73
▁modified	-11.73
▁obscen	-11.73
▁obtain	-11.73
▁pleasance	-11.73
▁rejoi	-11.73
▁resemble	-11.73
▁snuff	-11.73
▁ufg	-11.73
▁income	-11.73
▁redeem	-11.73
▁submit	-11.73
kovi	-11.73
▁aaron	-11.73
▁afar	-11.73
▁decline	-11.73
▁disarm	-11.73
▁femini	-11.73
▁gracie	-11.73
▁hulk	-11.73
▁mercedes	-11.73
▁nilla	-11.73
▁randone	-11.73
▁revving	-11.73
▁rosemary	-11.73
▁fuzz	-11.73
▁importance	-11.73
▁pumpkin	-11.73
▁settling	-11.73
▁cheesy	-11.73
▁envy	-11.73
▁handgun	-11.73
▁holler	-11.73
▁sofa	-11.73
▁vermin	-11.73
uffalo	-11.73
▁margaritaville	-11.73
▁slag	-11.73
▁strain	-11.73
▁blush	-11.73
▁cadet	-11.73
▁chrissake	-11.73
▁emmet	-11.73
▁hagg	-11.73
▁kersh	-11.73
▁rosina	-11.73
▁lieut	-11.73
▁seattle	-11.73
▁francesco	-11.73
▁oui	-11.73
▁staircase	-11.73
ferty	-11.73
▁janelle	-11.73
▁alexander	-11.73
▁devere	-11.73
▁intolerance	-11.73
▁nigeria	-11.73
▁noticing	-11.73
▁wrench	-11.73
▁holly	-11.73
▁hydra	-11.73
▁overdose	-11.73
▁titties	-11.73
▁dvd	-11.73
▁tolerate	-11.73
▁ulla	-11.73
▁fogg	-11.73
▁delayed	-11.73
▁devastating	-11.73
▁console	-11.73
▁jelly	-11.73
▁jingling	-11.73
▁tingling	-11.73
▁cruci	-11.7301
▁limitations	-11.7301
▁commie	-11.7301
▁feast	-11.7301
▁sacrament	-11.7301
▁aggression	-11.7301
▁cunningham	-11.7301
▁ecstasy	-11.7301
▁gossip	-11.7301
▁stalin	-11.7301
▁caruso	-11.7301
▁involvement	-11.7301
▁leslie	-11.7301
▁waik	-11.7301
▁angus	-11.7301
▁fasil	-11.7301
▁seasick	-11.7301
▁radical	-11.7301
▁ashford	-11.7301
▁scumbag	-11.7301
▁awakening	-11.7301
▁coletti	-11.7301
▁cuppy	-11.7301
▁aryan	-11.7301
▁forgiving	-11.7301
▁yyou	-11.7301
▁colours	-11.7301
▁aisle	-11.7301
▁residenc	-11.7301
▁intellectual	-11.7301
▁clarence	-11.7301
▁swimmer	-11.7301
▁tendenc	-11.7301
▁favourite	-11.7301
▁scramble	-11.7301
▁whining	-11.7301
▁trading	-11.7301
atomic	-11.7301
▁fragile	-11.7301
▁mumbles	-11.7301
▁twentythree	-11.7301
▁anthropoid	-11.7301
▁gunthers	-11.7301
▁thirtythree	-11.7301
▁headlights	-11.7301
▁acquaintance	-11.7301
▁sarcastic	-11.7301
▁obliged	-11.7301
▁underwater	-11.7301
▁urinate	-11.7301
▁abroad	-11.7301
▁dodd	-11.7301
▁deadlights	-11.7301
▁urine	-11.7301
▁garfield	-11.7301
▁polar	-11.7301
▁insur	-11.7301
▁lcf	-11.7301
▁tagged	-11.7301
▁plaza	-11.7301
▁stump	-11.7301
▁wills	-11.7301
▁nanny	-11.7301
▁blowjob	-11.7301
▁bulge	-11.7302
▁erasing	-11.7302
▁cheque	-11.7302
▁lugg	-11.7302
▁hobby	-11.7302
▁recite	-11.7302
▁garza	-11.7302
▁allege	-11.7302
▁slack	-11.7302
▁dribbl	-11.7302
▁buddhist	-11.7302
cherished	-11.7302
▁narrat	-11.7302
▁suitcase	-11.7302
▁slug	-11.7302
▁skee	-11.7302
▁whwhat	-11.7302
▁strapped	-11.7302
▁advisor	-11.7302
▁spike	-11.7302
▁basin	-11.7302
▁bundl	-11.7302
▁kono	-11.7302
adows	-11.7302
▁revol	-11.7302
▁bookstore	-11.7302
check	-11.7302
▁scud	-11.7302
▁undermine	-11.7302
▁evaluation	-11.7302
▁interrogation	-11.7302
▁proposition	-11.7302
▁vital	-11.7303
▁buii	-11.7303
▁observing	-11.7303
▁righteous	-11.7303
▁disney	-11.7303
einstein	-11.7303
▁visa	-11.7303
▁poach	-11.7303
▁exploitation	-11.7303
▁rubbed	-11.7303
wall	-11.7303
robbin	-11.7303
▁refill	-11.7303
▁mobile	-11.7303
▁taunt	-11.7303
▁sanct	-11.7303
▁manipulative	-11.7303
▁mature	-11.7303
stein	-11.7303
▁anderson	-11.7303
▁exploration	-11.7304
▁dusk	-11.7304
▁nutty	-11.7304
▁cere	-11.7304
▁interior	-11.7304
▁diversion	-11.7304
▁operated	-11.7304
▁shady	-11.7304
▁kingsley	-11.7304
▁deceive	-11.7304
▁iose	-11.7304
▁retail	-11.7304
▁tipped	-11.7304
▁horsepower	-11.7304
▁hawaiian	-11.7304
oohooh	-11.7304
▁ownership	-11.7304
▁gush	-11.7304
fall	-11.7304
▁griev	-11.7304
▁sicil	-11.7304
ickets	-11.7305
▁flick	-11.7305
▁evac	-11.7305
▁initiative	-11.7305
▁bmachine	-11.7305
▁necessarily	-11.7305
▁tuna	-11.7305
▁retches	-11.7305
▁elway	-11.7305
▁scarred	-11.7305
▁radi	-11.7305
▁generate	-11.7305
▁intensity	-11.7305
▁paddl	-11.7305
▁stashies	-11.7305
▁preference	-11.7305
▁jockey	-11.7305
▁nosy	-11.7305
▁occupation	-11.7305
▁twentyone	-11.7305
▁malay	-11.7305
▁faxx	-11.7305
▁lucian	-11.7305
▁moonlight	-11.7305
▁heiter	-11.7305
▁gps	-11.7305
▁sensational	-11.7305
▁forehead	-11.7305
▁dumpster	-11.7305
▁dread	-11.7306
▁reform	-11.7306
▁export	-11.7306
▁tux	-11.7306
▁goose	-11.7306
▁tomatoes	-11.7306
▁vibrates	-11.7306
▁wendy	-11.7306
▁winston	-11.7306
▁vivi	-11.7306
▁powell	-11.7306
▁elbe	-11.7306
▁milton	-11.7307
irene	-11.7307
▁uptown	-11.7307
▁keyboard	-11.7307
▁amos	-11.7307
▁chalkies	-11.7307
▁petty	-11.7307
▁reasonably	-11.7307
▁personalities	-11.7307
▁begged	-11.7307
▁stripped	-11.7307
▁nasser	-11.7307
▁utter	-11.7308
▁kung	-11.7308
▁scam	-11.7308
▁onion	-11.7308
▁shipping	-11.7308
▁moran	-11.7308
▁swamp	-11.7308
▁beansie	-11.7308
▁hatred	-11.7309
▁merciless	-11.7309
▁spun	-11.7309
▁heighten	-11.7309
▁kiii	-11.7309
▁verse	-11.7309
▁shirl	-11.7309
▁snatchers	-11.731
▁australian	-11.731
▁unload	-11.731
▁rapist	-11.731
▁roam	-11.731
▁stove	-11.731
▁magician	-11.7311
voj	-11.7311
▁homie	-11.7311
▁harass	-11.7311
▁duties	-11.7311
crypt	-11.7311
▁respectfully	-11.7311
actical	-11.7311
▁dunst	-11.7312
▁deliberately	-11.7312
▁baum	-11.7312
▁mj	-11.7312
▁lynch	-11.7312
▁reek	-11.7312
▁diane	-11.7312
▁vicar	-11.7313
▁yoga	-11.7313
▁supervised	-11.7313
▁potatoes	-11.7313
▁ashes	-11.7313
▁brung	-11.7313
▁silo	-11.7313
▁bacon	-11.7313
▁sailor	-11.7313
▁affection	-11.7313
▁clarkie	-11.7314
racle	-11.7314
▁chef	-11.7314
note	-11.7314
mita	-11.7315
▁mule	-11.7315
aux	-11.7315
▁dita	-11.7315
▁posing	-11.7316
▁plantation	-11.7316
▁nora	-11.7316
▁peddle	-11.7316
▁porno	-11.7316
▁heartbeat	-11.7316
▁payback	-11.7317
▁romeo	-11.7317
▁turf	-11.7318
▁frag	-11.7318
▁dried	-11.7318
▁bravery	-11.7318
▁louie	-11.7318
▁bucket	-11.7319
▁chafe	-11.7319
zard	-11.7319
▁overtime	-11.7319
▁footage	-11.7319
▁minus	-11.732
▁dose	-11.732
▁viet	-11.732
▁spur	-11.732
▁martinis	-11.732
▁mutati	-11.732
▁ringside	-11.7321
▁mmmmmm	-11.7321
▁farther	-11.7322
▁retain	-11.7322
▁vanisher	-11.7322
▁sanity	-11.7323
▁caf	-11.7323
▁drip	-11.7323
▁unwell	-11.7323
▁meaningless	-11.7324
▁consideration	-11.7325
▁dames	-11.7325
▁lesion	-11.7325
▁descendant	-11.7326
▁breakdown	-11.7326
▁slasher	-11.7327
▁boof	-11.7328
▁matchup	-11.7328
▁playback	-11.7328
▁secondhand	-11.7329
▁examiner	-11.7329
▁litera	-11.7329
▁brutally	-11.733
▁fortunately	-11.733
▁crowe	-11.733
▁acceptable	-11.7331
▁haley	-11.7331
▁edit	-11.7331
▁hillman	-11.7331
ivity	-11.7331
▁kris	-11.7332
▁curve	-11.7333
▁duce	-11.7334
▁cour	-11.7334
▁whisk	-11.7334
▁selfless	-11.7334
▁predat	-11.7335
▁babyboom	-11.7335
▁specialty	-11.7337
▁ranch	-11.7337
▁seventy	-11.7338
▁protective	-11.7339
▁bandage	-11.734
▁ciao	-11.7341
▁cleansing	-11.7341
▁dole	-11.7341
▁sour	-11.7342
▁partial	-11.7344
berge	-11.7344
▁betting	-11.7346
prompt	-11.7346
oose	-11.7347
▁gambler	-11.7348
▁fitz	-11.7348
▁stru	-11.7348
▁heist	-11.7349
▁clearance	-11.735
▁negotiate	-11.735
▁hash	-11.7352
arriers	-11.7353
▁hana	-11.7355
▁punches	-11.7355
▁render	-11.7357
lane	-11.7368
▁muck	-11.7369
▁vip	-11.737
▁qui	-11.7374
▁sip	-11.7376
▁realise	-11.7381
▁baffl	-11.7383
▁swi	-11.7386
▁drone	-11.7388
▁pow	-11.7391
ador	-11.7392
▁plumber	-11.7395
▁clan	-11.7396
▁eise	-11.7406
▁toil	-11.7406
▁scann	-11.7409
▁cong	-11.741
▁subtract	-11.7413
ipps	-11.7424
amir	-11.743
▁cordel	-11.7448
▁stakehors	-11.7452
▁casa	-11.7473
▁pace	-11.7484
rrington	-11.7487
▁gri	-11.749
ification	-11.7497
erik	-11.7503
▁sparkle	-11.751
▁pane	-11.7517
bitch	-11.7544
▁meg	-11.7545
▁barbari	-11.7588
▁tosser	-11.7589
ofthe	-11.7602
▁batch	-11.7626
stopp	-11.763
▁gregor	-11.7653
ggies	-11.7656
eech	-11.7657
lagged	-11.766
▁ignit	-11.7673
uttering	-11.7707
▁fiance	-11.78
▁spic	-11.7828
▁clar	-11.785
documented	-11.7876
▁shak	-11.789
▁dressmak	-11.7923
▁epip	-11.7952
etti	-11.7973
▁hog	-11.8071
▁walt	-11.8171
▁oliver	-11.82
▁flame	-11.8211
graph	-11.822
▁scan	-11.8222
▁committ	-11.8234
▁kub	-11.8244
rine	-11.8251
▁zar	-11.8255
uze	-11.8265
eineke	-11.8298
▁chai	-11.8349
▁replica	-11.8368
aki	-11.8471
▁hein	-11.8472
▁mart	-11.8587
▁degrad	-11.8644
▁deli	-11.8728
▁dodg	-11.874
arcel	-11.877
merciful	-11.8797
dinar	-11.8812
▁assemble	-11.8821
▁complet	-11.8829
▁demonstrat	-11.887
▁submissi	-11.8876
oodoo	-11.8901
ffle	-11.8984
lux	-11.9118
delta	-11.9143
cess	-11.9144
▁provid	-11.9283
▁communit	-11.9294
active	-11.9365
otis	-11.939
itation	-11.9393
▁admissi	-11.9483
gone	-11.9498
rug	-11.9535
dale	-11.9575
pence	-11.9609
reme	-11.9635
njo	-11.968
informed	-11.9775
hoohoo	-11.9785
▁epi	-11.9804
▁shov	-11.9817
▁theori	-11.9898
ecke	-11.9914
maker	-11.9928
rati	-11.9937
▁ferr	-11.9971
pression	-12.0031
altering	-12.0036
solin	-12.0132
▁mutt	-12.0148
gression	-12.0159
inning	-12.0199
▁endanger	-12.0205
▁fideli	-12.0317
nounced	-12.0382
▁lycan	-12.039
▁passenger	-12.0395
▁handcuff	-12.0395
▁afterward	-12.0403
▁stair	-12.0404
pressed	-12.0422
▁whee	-12.043
▁roma	-12.0431
nosed	-12.0451
busters	-12.0457
▁graduat	-12.0466
cocking	-12.0474
▁organiz	-12.0505
▁jeopard	-12.0514
umpy	-12.0532
▁separat	-12.0576
kind	-12.058
▁detect	-12.0584
▁impress	-12.0587
phones	-12.0591
▁condemn	-12.0592
▁univers	-12.0593
▁profession	-12.0593
▁surround	-12.0594
▁advi	-12.0599
▁plea	-12.0603
▁craze	-12.0605
▁determine	-12.0606
faithful	-12.0607
struck	-12.0607
identified	-12.0608
abilities	-12.0608
generation	-12.0608
screen	-12.0608
dollar	-12.0609
construction	-12.0609
sync	-12.0609
statement	-12.0609
comfort	-12.0609
fifty	-12.0609
complete	-12.0609
written	-12.0609
normal	-12.0609
finished	-12.0609
direct	-12.0609
johnny	-12.0609
killer	-12.0609
fortune	-12.061
glass	-12.061
wild	-12.061
child	-12.061
drop	-12.061
debt	-12.061
moving	-12.061
motive	-12.061
oftheart	-12.061
changes	-12.0611
week	-12.0611
hmm	-12.0611
watch	-12.0612
temper	-12.0613
▁energ	-12.0613
telling	-12.0614
getting	-12.0614
lenced	-12.0614
luted	-12.0615
▁peddl	-12.0616
▁congratulat	-12.0616
sitting	-12.0617
stock	-12.0618
▁deliberate	-12.0618
pound	-12.0618
▁stead	-12.0619
wire	-12.0619
▁sauc	-12.0621
▁villa	-12.0621
▁prosecut	-12.0623
pool	-12.0623
▁tomato	-12.0625
nitti	-12.0626
▁eva	-12.0626
▁vibrat	-12.0626
▁easie	-12.0626
▁orde	-12.0627
▁differ	-12.0629
▁wipin	-12.0629
▁smilin	-12.0629
▁elevat	-12.0629
▁extensi	-12.0629
▁occ	-12.063
▁anders	-12.063
▁decisi	-12.063
plain	-12.0631
▁regime	-12.0631
▁snug	-12.0631
▁kidnap	-12.0632
nroe	-12.0632
▁henri	-12.0632
▁multi	-12.0632
▁aaa	-12.0633
▁acquaint	-12.0633
▁leisure	-12.0633
izabeth	-12.0633
▁bask	-12.0633
xandra	-12.0633
▁douche	-12.0633
▁limb	-12.0633
faire	-12.0633
▁rehears	-12.0633
infect	-12.0634
hereabout	-12.0634
definite	-12.0634
▁pharmac	-12.0634
▁synd	-12.0634
amphetamine	-12.0634
aphrodi	-12.0634
commerce	-12.0634
disclosure	-12.0634
espresso	-12.0634
esthetic	-12.0634
flavoured	-12.0634
glaesker	-12.0634
incendiary	-12.0634
loweruppermiddle	-12.0634
stricken	-12.0634
supplied	-12.0634
uckingbelievable	-12.0634
▁absorb	-12.0634
▁accelerat	-12.0634
▁acclimate	-12.0634
▁accumulat	-12.0634
▁acknowledgment	-12.0634
▁adekanbi	-12.0634
▁adequate	-12.0634
▁affirmative	-12.0634
▁afghan	-12.0634
▁alaska	-12.0634
▁albino	-12.0634
▁alitzia	-12.0634
▁alternator	-12.0634
▁ambivalence	-12.0634
▁amoroso	-12.0634
▁analyst	-12.0634
▁anatomy	-12.0634
▁anselme	-12.0634
▁antarctica	-12.0634
▁apologise	-12.0634
▁apparition	-12.0634
▁aristocra	-12.0634
▁armadyne	-12.0634
▁arraign	-12.0634
▁articulate	-12.0634
▁ascot	-12.0634
▁ashtray	-12.0634
▁assailant	-12.0634
▁asswipe	-12.0634
▁athletic	-12.0634
▁attila	-12.0634
▁auditorium	-12.0634
▁automobile	-12.0634
▁baklava	-12.0634
▁balcon	-12.0634
▁beaucoup	-12.0634
▁behaviour	-12.0634
▁beijing	-12.0634
▁bieber	-12.0634
▁biochemi	-12.0634
▁blatant	-12.0634
▁blazer	-12.0634
▁blazing	-12.0634
▁bourbon	-12.0634
▁boycott	-12.0634
▁brochure	-12.0634
▁burrito	-12.0634
▁cackling	-12.0634
▁caffeine	-12.0634
▁cajun	-12.0634
▁camilla	-12.0634
▁campbell	-12.0634
▁cardiovascular	-12.0634
▁catastrophe	-12.0634
▁catastrophic	-12.0634
▁cauldron	-12.0634
▁cctv	-12.0634
▁celebrities	-12.0634
▁centinela	-12.0634
▁centipede	-12.0634
▁charging	-12.0634
▁chippendale	-12.0634
▁cicada	-12.0634
▁cilantro	-12.0634
▁claymoore	-12.0634
▁collateral	-12.0634
▁columbus	-12.0634
▁combustion	-12.0634
▁compensation	-12.0634
▁comprende	-12.0634
▁contrary	-12.0634
▁controversial	-12.0634
▁copenhagen	-12.0634
▁corpus	-12.0634
▁couscous	-12.0634
▁cucamonga	-12.0634
▁curfew	-12.0634
▁cushion	-12.0634
▁cutthroat	-12.0634
▁darren	-12.0634
▁dauthuille	-12.0634
▁delinquent	-12.0634
▁departing	-12.0634
▁deprived	-12.0634
▁desalvo	-12.0634
▁devotion	-12.0634
▁dictator	-12.0634
▁dinwoodie	-12.0634
▁discretion	-12.0634
▁disintegrate	-12.0634
▁disruptive	-12.0634
▁dissident	-12.0634
▁dlalogue	-12.0634
▁dolphin	-12.0634
▁downshift	-12.0634
▁dungeon	-12.0634
▁dunnybum	-12.0634
▁dwarf	-12.0634
▁earthologist	-12.0634
▁edmington	-12.0634
▁efficient	-12.0634
▁eisteddfod	-12.0634
▁embezzle	-12.0634
▁emoji	-12.0634
▁enormous	-12.0634
▁escaping	-12.0634
▁ethics	-12.0634
▁evacuation	-12.0634
▁evaporat	-12.0634
▁evict	-12.0634
▁evidently	-12.0634
▁exboyfriend	-12.0634
▁exhaling	-12.0634
▁exposure	-12.0634
▁exquisite	-12.0634
▁fandango	-12.0634
▁fantasies	-12.0634
▁fastforward	-12.0634
▁filipino	-12.0634
▁fontella	-12.0634
▁fountain	-12.0634
▁frustrated	-12.0634
▁fugitive	-12.0634
▁futile	-12.0634
▁gallagher	-12.0634
▁garcia	-12.0634
▁generosity	-12.0634
▁gilcrest	-12.0634
▁gilligan	-12.0634
▁giulio	-12.0634
▁glamis	-12.0634
▁gloom	-12.0634
▁goldfinch	-12.0634
▁gottfried	-12.0634
▁greasy	-12.0634
▁griggs	-12.0634
▁grouch	-12.0634
▁hamburg	-12.0634
▁handkerchief	-12.0634
▁hessenstein	-12.0634
▁hillbill	-12.0634
▁historian	-12.0634
▁hydrogen	-12.0634
▁hyehwa	-12.0634
▁hypothetical	-12.0634
▁illustration	-12.0634
▁impeccable	-12.0634
▁impostor	-12.0634
▁imprisonment	-12.0634
▁infantry	-12.0634
▁inhibit	-12.0634
▁injury	-12.0634
▁inquiry	-12.0634
▁insecur	-12.0634
▁intact	-12.0634
▁interstate	-12.0634
▁intervention	-12.0634
▁intrigu	-12.0634
▁intrude	-12.0634
▁iphone	-12.0634
▁jacuzzi	-12.0634
▁jennings	-12.0634
▁jovial	-12.0634
▁jupiter	-12.0634
▁kameron	-12.0634
▁kastagir	-12.0634
▁kirch	-12.0634
▁knuckle	-12.0634
▁kodug	-12.0634
▁kyoko	-12.0634
▁labourers	-12.0634
▁lntercom	-12.0634
▁lnteresting	-12.0634
▁lonesome	-12.0634
▁lorenzo	-12.0634
▁maggots	-12.0634
▁mahoney	-12.0634
▁maintenance	-12.0634
▁malignant	-12.0634
▁mallory	-12.0634
▁mandatory	-12.0634
▁manufacture	-12.0634
▁marvelous	-12.0634
▁matilda	-12.0634
▁mcdonnell	-12.0634
▁mcmurdo	-12.0634
▁meditating	-12.0634
▁melbourne	-12.0634
▁mercenary	-12.0634
▁metaphysical	-12.0634
▁millimeter	-12.0634
▁minivan	-12.0634
▁minneapolis	-12.0634
▁miraculous	-12.0634
▁mischief	-12.0634
▁mississippi	-12.0634
▁montague	-12.0634
▁mooresville	-12.0634
▁mortgage	-12.0634
▁muppets	-12.0634
▁neanderthal	-12.0634
▁neighs	-12.0634
▁norwegian	-12.0634
▁numerals	-12.0634
▁obnoxious	-12.0634
▁obstacle	-12.0634
▁olivier	-12.0634
▁ongoing	-12.0634
▁onsite	-12.0634
▁outbursts	-12.0634
▁outnumber	-12.0634
▁paleontolog	-12.0634
▁parachute	-12.0634
▁paramedics	-12.0634
▁parasites	-12.0634
▁patriarch	-12.0634
▁peculiar	-12.0634
▁perceptive	-12.0634
▁persuasive	-12.0634
▁petersburg	-12.0634
▁philosophi	-12.0634
▁pinehurst	-12.0634
▁plastique	-12.0634
▁pollock	-12.0634
▁porcelain	-12.0634
▁pornography	-12.0634
▁portugal	-12.0634
▁possibilities	-12.0634
▁prejudice	-12.0634
▁preliminary	-12.0634
▁premiere	-12.0634
▁premium	-12.0634
▁premonition	-12.0634
▁proclaim	-12.0634
▁proportion	-12.0634
▁provincial	-12.0634
▁psychotherapy	-12.0634
▁pumpernickel	-12.0634
▁quixote	-12.0634
▁rasmussen	-12.0634
▁rattigan	-12.0634
▁reassuring	-12.0634
▁rebuil	-12.0634
▁reclinin	-12.0634
▁redemption	-12.0634
▁reduction	-12.0634
▁regency	-12.0634
▁releasing	-12.0634
▁rematch	-12.0634
▁resourceful	-12.0634
▁retiring	-12.0634
▁revenue	-12.0634
▁rewrote	-12.0634
▁rhode	-12.0634
▁robitaille	-12.0634
▁rumpelstiltskin	-12.0634
▁sabbath	-12.0634
▁saliva	-12.0634
▁salvation	-12.0634
▁sanchez	-12.0634
▁sanctuary	-12.0634
▁schoolteacher	-12.0634
▁schwartz	-12.0634
▁scorpio	-12.0634
▁scrub	-12.0634
▁seductive	-12.0634
▁selfconscious	-12.0634
▁serpent	-12.0634
▁severance	-12.0634
▁significance	-12.0634
▁sikorsky	-12.0634
▁simmons	-12.0634
▁sizzl	-12.0634
▁smuggling	-12.0634
▁snooz	-12.0634
▁sophomore	-12.0634
▁sovereign	-12.0634
▁speculation	-12.0634
▁spiral	-12.0634
▁splendid	-12.0634
▁splinter	-12.0634
▁sprawl	-12.0634
▁squelching	-12.0634
▁squirt	-12.0634
▁staggering	-12.0634
▁stearns	-12.0634
▁steriliz	-12.0634
▁straw	-12.0634
▁stubbs	-12.0634
▁subjugat	-12.0634
▁suburbs	-12.0634
▁sugarbear	-12.0634
▁suriorule	-12.0634
▁symmetr	-12.0634
▁symptoms	-12.0634
▁taylor	-12.0634
▁technique	-12.0634
▁testicles	-12.0634
▁thighs	-12.0634
▁threshold	-12.0634
▁thunderclap	-12.0634
▁tminus	-12.0634
▁tourniquet	-12.0634
▁trivial	-12.0634
▁trophies	-12.0634
▁trousers	-12.0634
▁tucson	-12.0634
▁tyanyu	-12.0634
▁tyranny	-12.0634
▁ukraine	-12.0634
▁unanswered	-12.0634
▁unarmed	-12.0634
▁uncommon	-12.0634
▁unconditional	-12.0634
▁uninvited	-12.0634
▁unlicensed	-12.0634
▁unlucky	-12.0634
▁unnecessary	-12.0634
▁unofficial	-12.0634
▁unreliable	-12.0634
▁unsolv	-12.0634
▁unspeakabl	-12.0634
▁untrue	-12.0634
▁velvet	-12.0634
▁vengeance	-12.0634
▁versace	-12.0634
▁violating	-12.0634
▁virtually	-12.0634
▁volatile	-12.0634
▁volcano	-12.0634
▁vulgar	-12.0634
▁whlstl	-12.0634
▁witkin	-12.0634
▁wzab	-12.0634
▁yikes	-12.0634
▁yogurt	-12.0634
▁billionaire	-12.0634
▁cheepcheepcheep	-12.0634
▁erupt	-12.0634
▁injecti	-12.0634
▁knob	-12.0634
▁overtake	-12.0634
▁persecut	-12.0634
▁voyeur	-12.0634
franchise	-12.0634
taneous	-12.0634
▁aquifer	-12.0634
▁bicycle	-12.0634
▁bottie	-12.0634
▁charred	-12.0634
▁civic	-12.0634
▁cocksucking	-12.0634
▁column	-12.0634
▁contemplat	-12.0634
▁crayon	-12.0634
▁divine	-12.0634
▁dossier	-12.0634
▁eduard	-12.0634
▁elaine	-12.0634
▁fascinated	-12.0634
▁feign	-12.0634
▁flammable	-12.0634
▁guinness	-12.0634
▁hermit	-12.0634
▁hippie	-12.0634
▁holley	-12.0634
▁holster	-12.0634
▁jeering	-12.0634
▁kintus	-12.0634
▁knack	-12.0634
▁lraq	-12.0634
▁margot	-12.0634
▁morrow	-12.0634
▁nomak	-12.0634
▁nuala	-12.0634
▁omelet	-12.0634
▁onscreen	-12.0634
▁overlook	-12.0634
▁override	-12.0634
▁reassure	-12.0634
▁sabra	-12.0634
▁teresa	-12.0634
▁trinity	-12.0634
▁vilena	-12.0634
▁website	-12.0634
▁welsh	-12.0634
▁assurance	-12.0634
▁beaver	-12.0634
▁budget	-12.0634
▁colace	-12.0634
▁cynic	-12.0634
▁deluded	-12.0634
▁fetish	-12.0634
▁leverage	-12.0634
▁racial	-12.0634
▁reckless	-12.0634
▁scully	-12.0634
▁sheesh	-12.0634
▁sidekick	-12.0634
▁skag	-12.0634
▁subtle	-12.0634
▁varna	-12.0634
▁violin	-12.0634
plicity	-12.0634
▁awoke	-12.0634
▁bayonet	-12.0634
▁capsule	-12.0634
▁colombia	-12.0634
▁commend	-12.0634
▁debut	-12.0634
▁hendri	-12.0634
▁kevlar	-12.0634
▁napkin	-12.0634
▁prank	-12.0634
▁scandal	-12.0634
▁scorn	-12.0634
▁shelf	-12.0634
▁tiara	-12.0634
▁tinker	-12.0634
▁vapor	-12.0634
▁bulb	-12.0634
▁combine	-12.0634
▁emilie	-12.0634
▁imperative	-12.0634
▁missouri	-12.0634
▁niece	-12.0634
▁noisy	-12.0634
▁runaway	-12.0634
▁xander	-12.0634
▁abdul	-12.0634
▁blunder	-12.0634
▁clamp	-12.0634
▁condone	-12.0634
▁glance	-12.0634
▁painkillers	-12.0634
▁shanks	-12.0634
▁skylar	-12.0634
▁sonofa	-12.0634
▁swimsuit	-12.0634
▁disclose	-12.0634
▁handpick	-12.0634
▁kimber	-12.0634
▁rolf	-12.0634
▁sieep	-12.0634
▁brogues	-12.0634
▁corro	-12.0634
▁dudley	-12.0634
▁gravy	-12.0634
▁okeze	-12.0634
▁santee	-12.0634
▁stabiliz	-12.0634
▁statistical	-12.0634
▁toledo	-12.0634
▁void	-12.0634
▁aroused	-12.0634
▁cassie	-12.0634
▁slab	-12.0634
▁stabbing	-12.0634
▁typing	-12.0634
cenlo	-12.0634
▁arena	-12.0634
▁basque	-12.0634
▁brewery	-12.0634
▁contri	-12.0634
▁harvey	-12.0634
▁pioneer	-12.0634
▁ciean	-12.0634
▁incoming	-12.0634
▁ccb	-12.0634
▁rubbing	-12.0634
▁voting	-12.0634
▁imperial	-12.0634
▁calais	-12.0634
▁cremat	-12.0634
▁crosby	-12.0634
▁panicked	-12.0634
▁dnc	-12.0634
▁tayback	-12.0634
jord	-12.0634
▁harald	-12.0634
▁herrera	-12.0634
▁kimmy	-12.0634
▁prune	-12.0634
▁kathy	-12.0634
▁whatsapp	-12.0634
▁imitating	-12.0634
▁rehearsals	-12.0634
▁reinforcements	-12.0634
▁winstead	-12.0634
▁bedlam	-12.0634
▁dwy	-12.0634
▁giveaway	-12.0634
▁jabbing	-12.0634
▁operates	-12.0634
▁scones	-12.0634
yenne	-12.0634
▁cathy	-12.0634
▁slippers	-12.0634
▁calculations	-12.0634
▁headliner	-12.0634
▁sneer	-12.0634
▁floss	-12.0634
▁incompetent	-12.0634
▁nabbed	-12.0634
▁ransom	-12.0634
▁frequen	-12.0634
▁snore	-12.0634
▁ceasefire	-12.0634
▁transcript	-12.0634
▁douchebag	-12.0634
▁shitfaced	-12.0634
trium	-12.0634
▁canker	-12.0634
▁telegraph	-12.0634
▁cheyenne	-12.0634
▁memorize	-12.0634
▁ponies	-12.0634
▁sportscast	-12.0634
▁firecracker	-12.0634
▁lurch	-12.0634
▁charly	-12.0634
▁franklin	-12.0634
▁laila	-12.0634
▁hospi	-12.0634
▁vocalizing	-12.0634
▁crisp	-12.0634
▁nanette	-12.0634
▁hikers	-12.0634
▁twinkie	-12.0634
▁proctologist	-12.0634
▁ernie	-12.0634
▁hydrop	-12.0634
▁digital	-12.0634
▁greymouth	-12.0634
▁sanitize	-12.0634
▁lemonade	-12.0634
▁exemption	-12.0634
▁looney	-12.0634
▁traumatiz	-12.0634
▁gulp	-12.0634
▁hunchback	-12.0634
▁birger	-12.0634
▁compound	-12.0634
▁whines	-12.0634
▁dismember	-12.0634
▁upperclass	-12.0634
▁everett	-12.0634
▁hereafter	-12.0634
▁tusk	-12.0634
arggh	-12.0634
▁pause	-12.0634
▁ripple	-12.0634
▁urinating	-12.0634
fraction	-12.0634
▁holitzer	-12.0634
shakin	-12.0634
▁waterworks	-12.0634
▁snapshot	-12.0634
▁revoir	-12.0634
▁hornets	-12.0634
▁quarry	-12.0634
▁staple	-12.0635
▁psychology	-12.0635
ggler	-12.0635
▁carrot	-12.0635
▁witchcraft	-12.0635
▁fisk	-12.0635
▁mystic	-12.0635
▁achievements	-12.0635
▁crucifix	-12.0635
▁nakia	-12.0635
▁contradiction	-12.0635
▁olav	-12.0635
▁underdog	-12.0635
▁bugging	-12.0635
▁hostess	-12.0635
▁reference	-12.0635
▁invad	-12.0635
▁elsie	-12.0635
▁freud	-12.0635
▁stoning	-12.0635
▁trashmouth	-12.0635
▁arctic	-12.0635
▁frown	-12.0635
▁swipe	-12.0635
▁mugsy	-12.0635
determin	-12.0635
▁chuck	-12.0635
▁gretta	-12.0635
▁taiwan	-12.0635
▁artery	-12.0635
▁blitz	-12.0635
▁railway	-12.0635
▁rebecca	-12.0635
▁jacobsson	-12.0635
▁aaaaa	-12.0635
▁loath	-12.0635
▁divers	-12.0635
▁improvis	-12.0635
▁akron	-12.0635
▁lawsuit	-12.0635
▁architecture	-12.0635
▁webster	-12.0635
▁offload	-12.0635
▁transmitting	-12.0635
▁operator	-12.0635
▁sensible	-12.0635
▁nels	-12.0635
dependenc	-12.0635
▁coursing	-12.0635
▁leftovers	-12.0635
▁neglig	-12.0635
▁bolts	-12.0636
▁monroe	-12.0636
▁snotty	-12.0636
▁broadway	-12.0636
▁crept	-12.0636
▁rabble	-12.0636
▁cluck	-12.0636
▁doodoo	-12.0636
▁automatically	-12.0636
▁novice	-12.0636
▁fortnight	-12.0636
▁malice	-12.0636
ccup	-12.0636
▁springfield	-12.0636
▁cupcake	-12.0636
▁tinder	-12.0636
▁youngsters	-12.0636
▁molecul	-12.0636
chacha	-12.0636
▁astrologers	-12.0636
▁regiment	-12.0636
▁element	-12.0636
▁hugging	-12.0636
dispute	-12.0636
▁fangs	-12.0636
▁alliance	-12.0636
▁preferably	-12.0636
▁consultant	-12.0636
▁liability	-12.0636
▁patron	-12.0636
▁sphin	-12.0636
▁upload	-12.0636
▁shona	-12.0637
melani	-12.0637
▁panther	-12.0637
▁bundy	-12.0637
▁hunk	-12.0637
▁lodge	-12.0637
▁daryl	-12.0637
▁hmph	-12.0637
▁circulat	-12.0638
▁valour	-12.0638
▁masterpiece	-12.0638
▁bloodstain	-12.0638
▁sensation	-12.0638
▁conform	-12.0638
▁fluff	-12.0638
▁cooch	-12.0638
▁tanis	-12.0638
▁compose	-12.0638
▁castrate	-12.0638
▁cecilia	-12.0638
▁scour	-12.0638
▁implie	-12.0638
▁overload	-12.0638
▁battlefield	-12.0638
▁gunned	-12.0638
▁horton	-12.0638
▁psst	-12.0638
hrub	-12.0638
▁hallowe	-12.0638
▁textbook	-12.0638
pelag	-12.0639
▁roddy	-12.0639
▁nause	-12.0639
▁yuck	-12.0639
▁abide	-12.0639
▁marble	-12.0639
▁chud	-12.0639
▁appall	-12.0639
▁outward	-12.0639
▁hungover	-12.0639
▁slipping	-12.064
▁fiend	-12.064
▁luger	-12.064
▁cysti	-12.064
▁swine	-12.064
imistic	-12.064
▁forum	-12.064
▁ginger	-12.064
▁hippo	-12.064
▁diving	-12.064
▁cahoo	-12.0641
▁outhouse	-12.0641
▁restraints	-12.0641
▁revive	-12.0641
▁buddh	-12.0642
▁gutter	-12.0642
▁futon	-12.0642
▁icing	-12.0642
▁wits	-12.0643
▁wong	-12.0644
ervil	-12.0644
spel	-12.0644
intestin	-12.0645
▁limo	-12.0645
ector	-12.0645
▁terr	-12.0645
▁compromis	-12.0645
▁knit	-12.0646
▁dart	-12.0646
▁repri	-12.0647
▁saloon	-12.0647
cheep	-12.0648
▁empti	-12.0649
▁beau	-12.0651
beas	-12.0651
▁muni	-12.0651
raffi	-12.0651
▁establishment	-12.0652
▁downsize	-12.0652
titis	-12.0653
▁amuse	-12.0653
nquish	-12.0656
fari	-12.0658
estimat	-12.0659
▁algo	-12.0661
▁hurl	-12.0664
▁equi	-12.0664
programmed	-12.0671
▁neuro	-12.0673
embers	-12.0674
tesse	-12.0674
▁candi	-12.0676
▁trench	-12.0682
▁puncture	-12.0684
▁papi	-12.0686
▁archeolog	-12.0688
▁stumble	-12.0689
▁homophob	-12.0689
artisan	-12.0701
▁discriminat	-12.0701
obedi	-12.0704
ennis	-12.0708
▁flexi	-12.0708
cuse	-12.0712
▁smi	-12.0724
▁shiit	-12.0725
ispu	-12.0753
thirty	-12.0753
▁relocat	-12.0762
▁dys	-12.0769
addy	-12.0787
▁bodi	-12.0787
▁slamme	-12.0791
nues	-12.0818
▁esp	-12.0823
▁aggr	-12.0823
dice	-12.0882
▁liberate	-12.0928
circula	-12.0933
grams	-12.0937
melon	-12.0937
▁albania	-12.0979
▁designate	-12.0991
utmost	-12.1011
▁rotate	-12.1048
▁grazi	-12.1056
▁purif	-12.1059
amaic	-12.1079
endangerment	-12.1082
urps	-12.1124
▁decei	-12.1151
tripped	-12.1171
polit	-12.1251
due	-12.1315
flop	-12.1318
rift	-12.1322
▁sanita	-12.1329
ioca	-12.1355
disposition	-12.1381
holo	-12.1419
ndable	-12.1442
▁orbi	-12.1471
▁priorit	-12.149
otics	-12.1514
▁muti	-12.152
mika	-12.1648
ndra	-12.1693
colour	-12.1708
alization	-12.1737
remarkable	-12.1808
dependent	-12.1998
related	-12.2008
▁undergo	-12.2014
▁humbl	-12.2504
memor	-12.2548
▁lectur	-12.2598
▁assembl	-12.2843
▁improv	-12.304
▁myr	-12.3062
voluntary	-12.3083
▁flou	-12.3217
▁eliminat	-12.3613
promoted	-12.3774
ographer	-12.3806
tains	-12.3833
election	-12.3889
traction	-12.418
zzie	-12.4225
▁disabl	-12.4267
harmed	-12.4303
from	-12.4367
▁specializ	-12.4465
rett	-12.4518
▁tract	-12.4808
imagin	-12.4977
quality	-12.5054
▁alban	-12.5095
wheels	-12.5313
▁groan	-12.5361
awki	-12.5385
▁burgl	-12.5394
▁engraving	-12.5397
▁twothir	-12.5402
▁requir	-12.5409
tltle	-12.5446
locating	-12.5449
roller	-12.5458
member	-12.5487
▁valentin	-12.5512
hypno	-12.5524
▁decid	-12.5541
▁rende	-12.5544
▁punctu	-12.5552
sensiti	-12.5563
▁anesthesi	-12.5565
puncher	-12.5566
▁metaphor	-12.557
▁counsel	-12.5571
▁execut	-12.5571
▁morn	-12.5575
▁sleepwalk	-12.558
▁greet	-12.5581
▁annoy	-12.5583
holm	-12.5584
▁volunteer	-12.5592
▁dismiss	-12.5592
crosse	-12.5593
▁distort	-12.5594
▁inclin	-12.5594
▁homicid	-12.5598
▁supervise	-12.5604
▁disast	-12.5605
▁educate	-12.5605
▁indicate	-12.5605
▁expose	-12.5606
job	-12.5607
educated	-12.5607
shirt	-12.5607
pipe	-12.5607
flavor	-12.5608
qualified	-12.5608
indulge	-12.5608
script	-12.5608
proof	-12.5608
mistress	-12.5608
flake	-12.5608
▁depresse	-12.5608
draw	-12.5608
observe	-12.5608
