<unk>	0
<s>	0
</s>	0
s	-3.89553
▁im	-4.31574
▁dont	-4.4099
▁know	-4.46241
▁get	-4.72255
▁like	-4.78755
▁right	-4.83664
▁go	-4.85513
▁youre	-4.88878
▁yeah	-4.89856
▁got	-4.91312
▁oh	-4.97327
▁come	-4.98389
▁na	-5.03249
▁okay	-5.12351
▁thats	-5.12803
▁well	-5.20146
▁want	-5.21799
▁one	-5.27846
▁think	-5.28717
▁gon	-5.30576
▁good	-5.34578
▁see	-5.3969
▁man	-5.44438
▁hey	-5.46757
ing	-5.47199
▁look	-5.58821
▁yes	-5.6012
▁back	-5.61245
▁going	-5.62039
▁take	-5.63051
▁hes	-5.64596
▁ill	-5.65494
▁time	-5.69795
▁fuck	-5.72688
▁cant	-5.74359
▁need	-5.74368
▁us	-5.74758
▁tell	-5.7765
▁say	-5.77907
ed	-5.80031
▁would	-5.84241
▁really	-5.8585
▁please	-5.86943
▁shit	-5.8797
▁fucking	-5.88082
▁something	-5.92435
▁didnt	-5.92691
▁make	-6.0004
▁let	-6.0022
▁sorry	-6.01108
▁love	-6.02485
▁thank	-6.04086
▁god	-6.04425
▁could	-6.04573
▁never	-6.04626
▁little	-6.05696
▁way	-6.05883
▁whats	-6.06687
▁mean	-6.08102
d	-6.08613
▁uh	-6.10505
▁lets	-6.11377
▁give	-6.11992
▁people	-6.14665
▁theres	-6.15425
▁ive	-6.18197
▁l	-6.19416
▁mr	-6.20318
▁said	-6.20535
▁stop	-6.23078
▁much	-6.28072
▁help	-6.29025
▁shes	-6.29331
▁two	-6.30301
▁	-6.31397
▁thing	-6.32835
▁sure	-6.33078
▁talk	-6.3864
▁call	-6.39003
▁wait	-6.42683
▁home	-6.43231
y	-6.4388
▁anything	-6.45245
▁find	-6.46432
▁theyre	-6.47004
▁put	-6.4803
▁work	-6.48048
▁even	-6.51043
▁maybe	-6.51386
▁money	-6.53887
▁wan	-6.54261
▁keep	-6.54596
▁night	-6.55802
▁music	-6.56235
▁around	-6.56779
▁day	-6.56938
▁first	-6.58588
▁hell	-6.59828
ly	-6.60273
▁ta	-6.60534
▁ever	-6.60613
▁thought	-6.61414
er	-6.61753
▁still	-6.62132
▁life	-6.62824
▁great	-6.64722
▁feel	-6.64834
▁everything	-6.65282
▁leave	-6.65481
▁nothing	-6.65816
▁baby	-6.66529
▁better	-6.66891
▁told	-6.67978
▁guy	-6.68185
▁last	-6.68724
▁hi	-6.6948
e	-6.70057
▁guys	-6.70354
▁sir	-6.70366
▁name	-6.70837
▁ok	-6.71328
▁listen	-6.7133
▁long	-6.72136
▁stay	-6.74073
▁girl	-6.74136
▁understand	-6.74942
▁hear	-6.75087
▁id	-6.75991
▁things	-6.76636
▁kill	-6.77053
▁door	-6.78799
▁car	-6.78978
▁years	-6.79327
▁nice	-6.80605
▁away	-6.81425
▁always	-6.81631
▁doesnt	-6.82049
▁remember	-6.82569
▁new	-6.82593
▁coming	-6.83334
▁um	-6.83869
▁lot	-6.84115
▁place	-6.84553
▁wont	-6.85465
▁hello	-6.85529
▁fine	-6.85679
▁woman	-6.87219
▁boy	-6.8723
▁house	-6.87447
▁bad	-6.89532
▁phone	-6.89564
▁every	-6.90335
▁old	-6.9047
▁youve	-6.90819
▁talking	-6.91299
▁three	-6.91741
▁huh	-6.92677
▁done	-6.93136
▁kind	-6.93527
▁youll	-6.93606
▁made	-6.93868
▁hold	-6.93875
in	-6.93907
▁believe	-6.96242
▁happened	-6.96835
▁son	-6.97039
▁father	-6.98429
▁big	-6.99415
▁wrong	-6.99925
▁real	-7.00997
▁dad	-7.01216
▁trying	-7.02622
▁must	-7.02673
▁someone	-7.03609
▁ask	-7.04085
▁aint	-7.04286
▁try	-7.04561
▁isnt	-7.04811
▁world	-7.0498
▁another	-7.05339
▁wanted	-7.0539
▁thanks	-7.05499
▁show	-7.05838
▁enough	-7.06137
▁dead	-7.07349
▁care	-7.07351
▁else	-7.09395
▁course	-7.09671
▁left	-7.09672
▁playing	-7.09939
▁might	-7.11344
▁found	-7.11566
▁next	-7.1276
▁room	-7.13097
▁move	-7.1363
▁mother	-7.13647
▁mind	-7.13688
▁came	-7.14184
▁looking	-7.14448
▁saw	-7.14488
▁job	-7.14544
▁wife	-7.15949
▁cause	-7.16001
▁friend	-7.16177
▁run	-7.16642
▁head	-7.1762
▁today	-7.19547
▁morning	-7.20161
▁mom	-7.20945
▁may	-7.23228
▁getting	-7.23744
▁best	-7.24249
▁tonight	-7.24556
▁pretty	-7.25524
▁wasnt	-7.26829
▁whole	-7.26831
▁guess	-7.27159
a	-7.27947
▁live	-7.28239
▁knew	-7.30168
▁hard	-7.30205
▁ready	-7.30622
▁ah	-7.31287
▁ass	-7.33208
▁end	-7.33372
▁heard	-7.33681
▁called	-7.33702
▁meet	-7.33905
▁shut	-7.34268
▁seen	-7.34529
▁actually	-7.34689
▁family	-7.35039
▁face	-7.35199
▁went	-7.36115
▁bit	-7.36654
t	-7.36876
▁open	-7.3703
▁many	-7.37202
▁weve	-7.38301
▁problem	-7.40425
▁together	-7.40534
▁miss	-7.40791
▁crazy	-7.41291
▁whos	-7.41723
▁school	-7.41978
▁men	-7.42152
▁five	-7.43162
▁wouldnt	-7.43644
▁brother	-7.43721
▁em	-7.44351
▁damn	-7.44846
▁hurt	-7.45511
▁everyone	-7.45565
▁die	-7.46012
▁fuckin	-7.46055
▁excuse	-7.4635
▁alone	-7.46352
▁idea	-7.46741
▁anyone	-7.47555
▁second	-7.48
▁bitch	-7.48734
▁gun	-7.49524
▁tomorrow	-7.49596
▁everybody	-7.49665
▁took	-7.50009
▁water	-7.50157
r	-7.50183
▁use	-7.50229
▁jesus	-7.50424
▁watch	-7.51312
▁sit	-7.52259
▁police	-7.52495
▁story	-7.52951
▁four	-7.53368
▁used	-7.53702
▁kids	-7.53959
al	-7.54034
▁ya	-7.54095
▁whatever	-7.54238
▁play	-7.54274
▁chuckles	-7.54322
▁saying	-7.54527
▁beautiful	-7.54671
es	-7.55075
▁days	-7.55175
▁killed	-7.55329
n	-7.55521
▁nobody	-7.55542
▁turn	-7.55783
▁minute	-7.56195
▁easy	-7.56421
▁start	-7.56884
▁youd	-7.56886
▁hope	-7.57038
▁business	-7.57286
▁minutes	-7.5754
▁bring	-7.58042
▁matter	-7.58493
▁happy	-7.58655
▁since	-7.59563
▁grunts	-7.59845
▁kid	-7.59883
▁six	-7.59995
▁hand	-7.60342
▁eat	-7.60392
▁havent	-7.60476
▁alright	-7.60477
o	-7.60506
▁check	-7.60666
▁already	-7.61865
▁heart	-7.62192
▁fire	-7.62411
▁daddy	-7.62681
▁point	-7.63151
▁hit	-7.63239
▁probably	-7.63275
▁grunting	-7.63335
▁couldnt	-7.63797
▁friends	-7.64098
▁late	-7.64554
▁ago	-7.64705
▁supposed	-7.6476
▁later	-7.6533
▁read	-7.65389
▁case	-7.65445
▁high	-7.6586
▁gone	-7.6614
▁without	-7.66639
▁close	-7.67071
▁stuff	-7.6713
▁worry	-7.67176
▁set	-7.67195
▁sighs	-7.67235
▁yet	-7.67633
▁exactly	-7.67636
▁pay	-7.68023
▁bye	-7.68119
▁wheres	-7.68252
▁eyes	-7.68404
▁inside	-7.68617
▁says	-7.69904
▁soon	-7.69995
▁hands	-7.70021
▁continues	-7.70084
▁true	-7.70633
▁looks	-7.71078
▁whoa	-7.71679
i	-7.71895
▁cut	-7.71924
▁hmm	-7.72141
▁year	-7.72263
l	-7.72758
▁fight	-7.73146
▁working	-7.73634
▁part	-7.7422
▁somebody	-7.74363
▁lost	-7.75333
ve	-7.75372
▁sleep	-7.75428
▁trust	-7.7554
▁free	-7.75585
▁change	-7.75761
▁gave	-7.75855
▁walk	-7.761
▁question	-7.76104
▁deal	-7.76311
▁rest	-7.76493
▁drink	-7.77225
▁goddamn	-7.77455
▁buy	-7.776
▁number	-7.77666
▁fun	-7.77674
▁hate	-7.77836
▁different	-7.77877
▁times	-7.7792
▁couple	-7.78022
▁person	-7.78144
▁wow	-7.78574
▁word	-7.78788
▁bed	-7.79009
▁thinking	-7.7927
▁ha	-7.79431
▁dr	-7.80213
g	-7.80689
▁boys	-7.81357
▁nick	-7.81689
▁death	-7.81935
▁taking	-7.81956
▁pick	-7.82171
▁doctor	-7.82215
▁truth	-7.82504
▁honey	-7.82505
▁tv	-7.82507
▁laughing	-7.82707
▁break	-7.8293
▁joe	-7.82951
▁line	-7.8318
▁mine	-7.83729
▁clear	-7.83783
▁light	-7.8383
▁week	-7.83992
▁white	-7.84248
▁shot	-7.84549
▁hours	-7.84655
▁ben	-7.85298
▁anymore	-7.85411
▁outside	-7.85722
▁women	-7.85739
▁young	-7.85871
▁stand	-7.86444
▁also	-7.866
▁dog	-7.87002
▁book	-7.87208
▁body	-7.87801
▁waiting	-7.88388
▁happen	-7.88741
▁daughter	-7.88843
▁blood	-7.88855
▁means	-7.89446
▁cool	-7.8957
▁sound	-7.89782
▁christ	-7.89884
▁answer	-7.89962
▁husband	-7.90085
▁afraid	-7.90867
▁important	-7.91341
▁sister	-7.91366
▁makes	-7.91705
▁touch	-7.91945
▁full	-7.91959
▁girls	-7.92269
▁stupid	-7.92698
▁jack	-7.92728
▁john	-7.92735
▁side	-7.92785
▁c	-7.93136
▁wants	-7.9342
▁forget	-7.94022
▁screaming	-7.94107
▁arent	-7.94678
▁far	-7.94761
▁drive	-7.95153
▁send	-7.95563
▁news	-7.95599
▁anybody	-7.96637
▁laughs	-7.97093
▁met	-7.97517
▁mike	-7.97805
▁though	-7.97921
▁chance	-7.97957
▁order	-7.98343
▁safe	-7.98423
▁power	-7.98628
▁welcome	-7.98637
▁game	-7.98653
▁moment	-7.98656
▁speak	-7.98752
▁party	-7.98848
▁telling	-7.99102
▁black	-7.99312
▁street	-7.99332
▁emily	-8.00002
▁behind	-8.00678
▁town	-8.00711
▁breathing	-8.00827
▁scared	-8.01417
▁asked	-8.02171
▁hot	-8.02232
▁red	-8.02392
▁sometimes	-8.02396
▁un	-8.0255
ll	-8.02673
▁promise	-8.03236
▁shoot	-8.03431
▁making	-8.03468
▁ahead	-8.0347
▁anyway	-8.03565
▁feeling	-8.03828
▁children	-8.04175
▁reason	-8.04288
▁married	-8.0489
▁child	-8.05021
▁trouble	-8.05053
▁started	-8.05383
▁half	-8.06327
▁funny	-8.07067
▁hour	-8.07285
▁goes	-8.07724
▁front	-8.07793
ic	-8.07933
▁food	-8.08548
▁lady	-8.08572
on	-8.0886
▁ten	-8.09076
▁wish	-8.09229
▁screams	-8.09708
▁died	-8.09778
▁pain	-8.09807
m	-8.09895
▁sick	-8.10029
▁city	-8.10058
▁groans	-8.10107
▁office	-8.11492
▁either	-8.11558
▁calm	-8.1156
▁lm	-8.11761
▁dinner	-8.11796
▁michael	-8.11796
▁perfect	-8.12162
▁church	-8.12323
▁million	-8.1263
▁officer	-8.12699
▁mouth	-8.13112
▁la	-8.13499
▁yo	-8.13504
c	-8.13511
▁hair	-8.13719
▁hang	-8.13863
▁control	-8.13865
▁ooh	-8.13884
▁panting	-8.14674
▁alive	-8.14681
▁tried	-8.1469
▁sounds	-8.14856
▁wake	-8.15452
▁hows	-8.15539
▁parents	-8.15636
▁buddy	-8.16266
▁asshole	-8.16684
▁piece	-8.16684
▁law	-8.16887
▁serious	-8.16945
▁james	-8.1789
▁fucked	-8.18111
▁months	-8.18308
ie	-8.18535
▁running	-8.18716
▁brought	-8.19531
▁hurry	-8.19531
▁living	-8.19533
▁leaving	-8.19534
▁air	-8.19546
▁theyll	-8.19548
▁dear	-8.19553
▁sam	-8.19553
▁dude	-8.1996
▁mary	-8.19998
▁voice	-8.20003
▁least	-8.20365
▁shall	-8.20369
▁pull	-8.20478
▁drop	-8.20831
▁almost	-8.21205
▁save	-8.21928
▁company	-8.22052
▁th	-8.22205
▁special	-8.22427
▁asking	-8.22572
▁sweet	-8.22882
▁bullshit	-8.22894
▁dress	-8.23471
▁lord	-8.23772
▁calling	-8.23839
est	-8.23876
▁lucky	-8.23893
▁relax	-8.24316
▁quite	-8.24703
▁clean	-8.25042
▁speaking	-8.25187
▁seven	-8.25494
▁hospital	-8.25516
▁loved	-8.25872
▁dance	-8.26099
▁holy	-8.26448
▁war	-8.26483
▁crying	-8.26735
▁bill	-8.27085
▁charlie	-8.27294
▁itll	-8.27296
▁follow	-8.27428
▁p	-8.27513
ies	-8.28146
▁radio	-8.28198
▁gasps	-8.28298
ion	-8.28457
▁weeks	-8.28578
▁motherfucker	-8.28915
▁sex	-8.28964
▁ride	-8.2905
▁absolutely	-8.2911
▁fast	-8.29667
▁king	-8.30052
▁amy	-8.30805
▁bet	-8.30996
▁b	-8.31712
▁art	-8.31814
▁s	-8.32231
▁david	-8.32818
▁ladies	-8.32826
▁along	-8.32829
▁re	-8.32937
▁able	-8.32961
▁fall	-8.33109
▁fear	-8.33447
▁truck	-8.33778
▁softly	-8.33834
▁top	-8.34103
▁figure	-8.34356
▁questions	-8.34451
▁write	-8.34675
▁groaning	-8.34757
▁missing	-8.34852
▁happens	-8.34995
▁sort	-8.35579
▁mistake	-8.35654
▁country	-8.35717
▁engine	-8.36329
▁state	-8.36435
▁taken	-8.36525
▁past	-8.36606
▁glad	-8.36691
▁goodbye	-8.36691
▁blue	-8.36693
▁mm	-8.36798
ers	-8.37445
▁comes	-8.37479
▁rick	-8.3753
▁dream	-8.37916
▁plan	-8.3842
▁sense	-8.38636
p	-8.38647
▁maam	-8.38682
▁moving	-8.38683
▁kidding	-8.38684
▁till	-8.38694
▁song	-8.38834
▁ding	-8.38941
▁de	-8.39438
▁lawyer	-8.39681
▁grace	-8.3969
▁birthday	-8.39691
▁choice	-8.39696
▁poor	-8.39698
▁fred	-8.39717
▁heres	-8.39816
▁needs	-8.39973
▁weird	-8.40657
▁lives	-8.40683
▁hotel	-8.40727
▁al	-8.4126
▁frank	-8.41403
▁english	-8.41741
▁dick	-8.41742
▁jake	-8.41742
▁mommy	-8.41778
▁quiet	-8.42494
▁worth	-8.42595
▁straight	-8.42661
▁wall	-8.42686
▁court	-8.42774
▁rather	-8.42784
▁bobby	-8.42787
▁paul	-8.42787
▁rock	-8.42833
▁bank	-8.4284
▁yall	-8.42863
▁words	-8.43424
▁caught	-8.43836
▁somewhere	-8.43836
▁fault	-8.43836
▁kate	-8.43842
▁fact	-8.43882
▁picture	-8.43955
▁cross	-8.44124
▁pass	-8.44335
▁wind	-8.4461
▁i	-8.44742
▁sent	-8.44931
▁mmhmm	-8.44939
▁sign	-8.45084
▁report	-8.4516
▁small	-8.45839
▁swear	-8.45975
▁road	-8.46163
▁explain	-8.46261
▁throw	-8.46573
▁catch	-8.46637
us	-8.47416
▁in	-8.47486
▁beat	-8.47746
▁longer	-8.47829
man	-8.47932
▁lose	-8.48107
▁shouldnt	-8.48161
▁murder	-8.48796
▁indistinct	-8.49135
▁luck	-8.4915
st	-8.49227
▁dark	-8.49257
▁tom	-8.49291
▁kiss	-8.49596
▁g	-8.49754
▁cry	-8.49935
▁happening	-8.50045
▁strong	-8.50117
or	-8.50293
▁davis	-8.50395
k	-8.51281
u	-8.51345
▁prison	-8.51372
▁careful	-8.51465
▁forever	-8.51533
▁wonderful	-8.51563
▁mad	-8.51816
f	-8.52198
▁quick	-8.52403
▁accident	-8.52681
▁felt	-8.52681
▁class	-8.52681
▁gentlemen	-8.52682
▁shell	-8.52802
▁team	-8.52966
▁paper	-8.53007
▁seems	-8.53287
▁roll	-8.53419
▁fix	-8.53539
▁finish	-8.5354
▁gods	-8.53631
▁lunch	-8.53844
▁tough	-8.53844
▁mama	-8.53854
b	-8.54019
▁er	-8.54066
▁adam	-8.54126
▁laugh	-8.54639
▁n	-8.54949
▁box	-8.54987
▁harry	-8.55023
▁finally	-8.55083
▁eight	-8.56206
▁coffee	-8.56211
▁amazing	-8.56212
▁computer	-8.56212
▁bro	-8.56244
▁works	-8.56457
en	-8.5702
▁honor	-8.57099
▁blow	-8.57356
▁collins	-8.57416
▁heavily	-8.57418
▁date	-8.57514
▁none	-8.57581
▁a	-8.57726
▁hed	-8.5773
▁learn	-8.57898
▁cute	-8.57981
▁building	-8.57997
▁imagine	-8.58405
▁mmm	-8.58632
▁babe	-8.58636
▁lying	-8.58651
▁aii	-8.58775
▁cop	-8.58814
▁act	-8.5886
▁floor	-8.58996
▁lie	-8.59215
▁ow	-8.59357
h	-8.5944
▁sad	-8.5975
ation	-8.59782
▁human	-8.59865
▁distance	-8.59873
▁earth	-8.59879
▁feet	-8.59883
▁sophie	-8.59885
▁cell	-8.5991
▁beer	-8.60335
ce	-8.60642
▁knows	-8.60818
▁kick	-8.60861
▁french	-8.61065
▁heavy	-8.6112
▁possible	-8.6112
▁worse	-8.6112
▁barbara	-8.6112
▁fat	-8.61124
▁mate	-8.6124
▁talked	-8.61407
is	-8.61539
▁bag	-8.61603
▁eye	-8.61653
▁changed	-8.61663
▁bar	-8.61803
▁sell	-8.61972
▁boss	-8.62333
▁yesterday	-8.62385
▁alice	-8.62386
▁andy	-8.62404
▁cold	-8.62426
le	-8.62514
▁st	-8.62537
▁needed	-8.62677
▁ted	-8.62685
▁expect	-8.62929
▁handle	-8.62932
▁beach	-8.63602
▁shh	-8.63656
▁gift	-8.63668
▁south	-8.63668
▁vanessa	-8.63668
▁edward	-8.63669
▁smile	-8.63687
▁goin	-8.6395
▁secret	-8.64056
▁sake	-8.64185
▁smell	-8.64245
▁train	-8.64252
▁key	-8.64295
▁evening	-8.64627
less	-8.64812
▁captain	-8.64966
▁copy	-8.65137
▁month	-8.6561
▁cops	-8.65784
ful	-8.65871
▁seem	-8.66253
▁others	-8.66282
▁nobby	-8.66286
▁definitely	-8.66297
▁cheering	-8.66394
ity	-8.66621
an	-8.66637
▁hundred	-8.66885
▁message	-8.66941
▁da	-8.67103
▁wonder	-8.67154
able	-8.67183
▁whoo	-8.67301
▁missed	-8.67354
▁glass	-8.6757
▁future	-8.67615
▁karen	-8.67615
▁werent	-8.67616
▁apartment	-8.67635
▁station	-8.67649
▁doin	-8.67656
▁sitting	-8.67659
▁ray	-8.67662
▁gets	-8.67932
▁smoke	-8.68525
it	-8.68711
▁smart	-8.68814
▁across	-8.68968
▁martin	-8.68971
▁become	-8.69672
▁walking	-8.70043
▁strange	-8.70271
▁terrible	-8.70337
▁brandon	-8.70341
▁return	-8.70966
▁given	-8.71038
▁step	-8.7114
▁broke	-8.715
▁howd	-8.71685
▁bought	-8.71725
▁kept	-8.71732
▁giving	-8.71737
▁arm	-8.71805
▁ones	-8.7181
▁shed	-8.71894
▁stick	-8.72033
▁protect	-8.72255
▁slow	-8.72391
▁belt	-8.72418
▁boat	-8.72466
▁service	-8.72502
▁meant	-8.72613
▁known	-8.72643
▁chatter	-8.72712
▁grand	-8.73001
▁land	-8.73064
▁grab	-8.73141
▁aah	-8.73145
▁carter	-8.73214
▁seriously	-8.73374
▁breathe	-8.73488
▁system	-8.73863
▁president	-8.73865
▁less	-8.7388
▁plane	-8.74011
▁sing	-8.74025
▁york	-8.74312
re	-8.74372
▁tape	-8.74418
▁jail	-8.74565
▁sy	-8.75115
▁surprise	-8.7512
▁dollars	-8.75138
up	-8.75176
▁charge	-8.75469
▁american	-8.75476
▁ground	-8.75683
▁fly	-8.75689
▁win	-8.75753
▁upstairs	-8.76012
▁department	-8.76014
▁seat	-8.76665
▁names	-8.76807
▁favorite	-8.76863
▁movie	-8.76942
▁meeting	-8.77155
▁stig	-8.77464
▁dying	-8.77484
▁phil	-8.77486
▁bud	-8.77514
▁dirty	-8.77536
▁ringing	-8.779
ness	-8.78347
▁idiot	-8.78407
▁share	-8.78463
▁machine	-8.78466
▁soul	-8.78583
z	-8.78759
▁ring	-8.78897
▁drunk	-8.78975
▁outta	-8.78976
▁bob	-8.79007
▁hide	-8.79059
▁d	-8.79119
▁code	-8.79254
ist	-8.79486
▁present	-8.79577
▁enjoy	-8.79739
▁bastard	-8.79987
▁rich	-8.80288
▁carl	-8.80406
▁admit	-8.80479
▁bottle	-8.80491
▁public	-8.80492
▁katie	-8.80495
▁whatd	-8.80506
▁unless	-8.80529
▁worked	-8.80532
▁busy	-8.80568
▁shouting	-8.80579
▁early	-8.80582
▁teach	-8.81176
▁store	-8.81481
▁girlfriend	-8.81541
▁spend	-8.81597
▁wear	-8.8164
▁pal	-8.81727
▁deep	-8.81757
▁they	-8.81783
▁upset	-8.82029
▁charles	-8.8203
▁hungry	-8.82032
▁gena	-8.82042
▁near	-8.82042
▁mess	-8.82125
▁yelling	-8.82139
▁offer	-8.82353
▁listening	-8.824
▁seeing	-8.82539
▁join	-8.8278
▁push	-8.82848
▁keys	-8.82872
▁nah	-8.82876
▁turned	-8.8311
▁where	-8.83142
▁file	-8.83148
▁hole	-8.83174
▁sea	-8.83369
▁using	-8.83392
▁america	-8.83535
▁trip	-8.83582
▁worst	-8.83591
▁anywhere	-8.83591
▁uhhuh	-8.83591
▁sweetheart	-8.83592
▁born	-8.83613
▁gasping	-8.83631
▁dean	-8.8364
▁warm	-8.8383
▁count	-8.83903
▁lock	-8.84083
▁owe	-8.84335
▁treat	-8.84379
▁brad	-8.84668
▁table	-8.84805
▁honest	-8.84878
▁north	-8.85174
▁throat	-8.85178
▁aaron	-8.85179
▁yep	-8.8519
▁crowd	-8.85198
▁tense	-8.85205
▁broken	-8.85241
▁respect	-8.85618
▁killer	-8.85747
▁short	-8.86071
to	-8.86281
▁boyfriend	-8.86285
▁lay	-8.86569
▁loud	-8.86635
▁normal	-8.86656
▁personal	-8.8679
▁situation	-8.86791
▁address	-8.86791
▁christmas	-8.86792
▁driving	-8.86794
▁clothes	-8.86794
▁spot	-8.86795
▁single	-8.86822
▁cook	-8.86919
▁indistinctly	-8.8699
▁star	-8.87243
▁test	-8.8729
▁lights	-8.87505
▁sun	-8.87644
▁mindy	-8.87698
ch	-8.87787
▁fish	-8.87876
▁conversation	-8.87983
▁fair	-8.88119
▁guns	-8.88154
▁quit	-8.88302
▁pop	-8.8838
▁forgot	-8.88428
▁afternoon	-8.88431
▁caesar	-8.88431
▁dottie	-8.88431
▁instead	-8.88432
▁paid	-8.88435
▁security	-8.88445
▁hall	-8.8848
▁judge	-8.88522
▁wed	-8.88643
▁age	-8.88716
▁lovely	-8.89158
th	-8.89637
▁papers	-8.89638
▁uncle	-8.89723
▁jump	-8.89786
ment	-8.89898
▁cat	-8.89978
te	-8.90021
▁ran	-8.90029
▁worried	-8.90097
▁middle	-8.90098
▁proud	-8.90101
▁green	-8.90102
▁takes	-8.9012
▁tired	-8.90159
▁board	-8.90172
▁completely	-8.90193
▁mission	-8.90213
▁val	-8.90387
▁wearing	-8.90558
▁record	-8.90587
▁whose	-8.90646
▁ends	-8.91228
▁press	-8.91474
▁window	-8.91485
▁camera	-8.9152
▁except	-8.91764
▁brown	-8.91792
▁oliver	-8.91798
▁flight	-8.91799
▁totally	-8.9191
▁san	-8.91973
▁bart	-8.92035
▁list	-8.92071
▁problems	-8.92292
▁lead	-8.92462
▁clicks	-8.92515
▁ball	-8.92832
▁bell	-8.93025
▁ice	-8.93118
▁moved	-8.9316
▁fell	-8.9344
▁ex	-8.93446
▁apart	-8.93493
▁peace	-8.93497
▁creaking	-8.93516
▁hasnt	-8.93517
▁west	-8.93517
▁bathroom	-8.93517
▁evil	-8.9352
▁information	-8.93522
▁alarm	-8.93524
▁cash	-8.93527
▁exhales	-8.93748
▁nine	-8.93793
▁teacher	-8.93939
▁finished	-8.93976
▁master	-8.93986
▁he	-8.94151
v	-8.94574
▁attack	-8.94589
▁mark	-8.94604
▁super	-8.94613
▁heaven	-8.94977
▁certain	-8.95122
▁antonio	-8.95271
▁attention	-8.95271
▁pleasure	-8.95271
▁simple	-8.95271
▁kitchen	-8.95271
▁wrote	-8.95273
▁richard	-8.95275
▁watching	-8.95284
▁perhaps	-8.95296
▁van	-8.95531
ant	-8.95672
▁picked	-8.96217
▁film	-8.9635
▁cover	-8.9652
ar	-8.96768
▁agent	-8.96842
▁faith	-8.97039
▁favor	-8.97055
▁henry	-8.97059
▁language	-8.97062
▁cup	-8.97139
▁matt	-8.97196
▁burn	-8.97239
et	-8.98075
▁hook	-8.98282
ry	-8.98305
▁cos	-8.98564
▁joke	-8.98646
▁looked	-8.98772
▁weak	-8.98859
▁maggie	-8.98875
▁within	-8.98875
▁dramatic	-8.98876
▁extra	-8.98876
▁difference	-8.98877
▁cunt	-8.98877
▁bunch	-8.98877
▁killing	-8.99091
▁suck	-8.99383
▁dogs	-8.99485
▁opens	-8.99744
▁starts	-8.99783
▁card	-8.99818
at	-9.00048
▁park	-9.00173
▁bless	-9.00317
▁round	-9.00494
▁comet	-9.00552
▁history	-9.00726
▁albert	-9.00727
▁angry	-9.00728
▁knife	-9.00728
▁elizabeth	-9.00732
▁excited	-9.00737
ive	-9.00795
▁cost	-9.00795
▁crack	-9.01617
▁e	-9.01698
▁form	-9.01774
▁stops	-9.0218
▁rules	-9.02325
▁chucky	-9.02436
▁thousand	-9.02474
▁m	-9.02479
▁account	-9.02479
w	-9.02551
▁chair	-9.02594
▁tight	-9.02596
▁private	-9.02613
▁lewis	-9.02613
▁spanish	-9.02613
▁wedding	-9.02614
▁walter	-9.02625
▁hiding	-9.02666
▁papa	-9.02732
▁ms	-9.02788
▁ls	-9.02876
ally	-9.02999
▁liked	-9.0321
▁tea	-9.03672
▁rain	-9.03722
▁om	-9.03743
▁neo	-9.04128
▁fighting	-9.04179
▁deserve	-9.04187
▁notice	-9.04304
▁pictures	-9.04323
▁island	-9.04344
▁noise	-9.04443
▁wild	-9.04456
▁peter	-9.04462
▁paris	-9.04486
▁gold	-9.04508
▁low	-9.04529
▁footsteps	-9.04536
▁kathy	-9.04536
▁major	-9.04536
▁scoffs	-9.04536
▁video	-9.04536
▁texas	-9.04538
▁twice	-9.04538
▁band	-9.0455
▁breath	-9.04582
▁usually	-9.0462
▁whispers	-9.04875
▁an	-9.05304
▁sal	-9.05309
▁miles	-9.05327
▁couldve	-9.05409
ian	-9.05735
▁suit	-9.05906
▁total	-9.06361
▁eating	-9.06375
▁horse	-9.06391
▁scene	-9.06393
▁demon	-9.06454
▁forgive	-9.06457
▁evidence	-9.06497
▁gekko	-9.06497
▁veronica	-9.06497
▁detective	-9.06499
▁everywhere	-9.06512
▁upon	-9.06523
▁beeping	-9.06622
ra	-9.06852
▁chattering	-9.07092
ting	-9.07483
▁correct	-9.07982
▁appreciate	-9.08241
▁suppose	-9.08275
▁seconds	-9.08313
▁entire	-9.08354
▁starting	-9.08414
▁area	-9.08433
▁crime	-9.08475
▁client	-9.08484
▁brain	-9.08492
▁emergency	-9.08497
▁pregnant	-9.08497
▁tongue	-9.08497
▁stuck	-9.08497
▁obviously	-9.0857
▁taste	-9.08585
▁folks	-9.08975
▁books	-9.09485
▁wouldve	-9.09612
▁pa	-9.09978
▁build	-9.10057
▁doubt	-9.10202
▁east	-9.10339
▁nervous	-9.10396
▁sheriff	-9.10534
▁color	-9.10537
▁warren	-9.10538
▁choose	-9.10538
▁martha	-9.10538
▁forward	-9.10538
▁toast	-9.10539
▁earlier	-9.1054
▁kitty	-9.10544
▁dangerous	-9.10544
▁terry	-9.1055
▁third	-9.10551
▁bigger	-9.10571
▁river	-9.10586
▁fit	-9.10588
▁whore	-9.10634
▁ship	-9.10658
▁decided	-9.10734
▁interesting	-9.10767
▁co	-9.11316
out	-9.1144
▁grow	-9.11539
▁ii	-9.11586
▁pray	-9.1171
▁reach	-9.11821
▁chris	-9.12095
▁marry	-9.1216
▁fingers	-9.12221
▁agree	-9.12356
▁general	-9.12483
▁stock	-9.126
▁club	-9.12616
▁marriage	-9.12621
▁sobbing	-9.12621
▁claire	-9.12622
▁contact	-9.12622
▁group	-9.12624
▁senator	-9.12625
▁steal	-9.12632
▁julia	-9.12632
▁lonely	-9.12643
▁porter	-9.12663
▁sweetie	-9.1269
▁priest	-9.12722
▁dig	-9.12748
▁certainly	-9.12784
▁feels	-9.12919
▁r	-9.12973
▁t	-9.13118
▁gas	-9.13122
▁prove	-9.13655
▁screw	-9.13995
▁wash	-9.14307
▁carry	-9.14455
▁reading	-9.14481
▁birds	-9.14567
▁neither	-9.14749
▁whether	-9.14749
▁somehow	-9.14749
▁jessie	-9.14754
▁arne	-9.14766
▁mister	-9.14772
▁nose	-9.14796
▁silence	-9.14823
▁belong	-9.14866
▁interested	-9.14921
▁ty	-9.15059
▁letter	-9.15118
▁knocking	-9.15119
▁continue	-9.15142
im	-9.15198
▁bloody	-9.15316
▁calls	-9.15448
ass	-9.15665
▁closed	-9.15758
▁rid	-9.15801
▁vi	-9.16089
▁nat	-9.16155
▁search	-9.16176
▁track	-9.16264
▁victims	-9.16326
ling	-9.16346
▁arrest	-9.16615
▁base	-9.16751
▁doll	-9.16767
▁match	-9.16873
▁attorney	-9.16923
▁gordon	-9.16923
▁quentin	-9.16923
▁rufus	-9.16923
▁bunny	-9.16923
▁yellow	-9.16927
▁iike	-9.16927
▁darling	-9.16929
▁lake	-9.16935
▁writing	-9.16937
▁trial	-9.1694
▁sky	-9.16976
▁army	-9.17177
▁quickly	-9.17184
▁anna	-9.1725
▁promised	-9.17642
▁dressed	-9.17702
▁ed	-9.1778
▁arms	-9.17878
▁states	-9.18147
▁f	-9.18365
inous	-9.18378
▁ig	-9.18574
▁sleeping	-9.18681
▁accept	-9.18799
▁fool	-9.18993
▁priests	-9.19039
▁mmhm	-9.19062
ton	-9.19089
▁byebye	-9.19145
▁downstairs	-9.19145
▁opportunity	-9.19145
▁regular	-9.19146
▁dawn	-9.19147
▁tie	-9.19151
▁chef	-9.19151
▁chief	-9.19151
▁pants	-9.19153
▁jim	-9.19157
▁common	-9.19157
▁fathers	-9.19167
▁cake	-9.19198
▁parker	-9.19307
▁guard	-9.19366
▁type	-9.19369
▁passed	-9.19793
▁visit	-9.20593
ted	-9.20616
▁fill	-9.21199
▁soft	-9.21281
nt	-9.21386
▁fresh	-9.21396
▁george	-9.21415
▁rebecca	-9.21418
▁impossible	-9.21418
▁archbishop	-9.2142
▁spent	-9.21421
▁nature	-9.21425
▁dumb	-9.21429
▁armand	-9.21429
▁dreams	-9.21439
▁angel	-9.21447
▁shake	-9.21451
▁angela	-9.21487
▁pro	-9.21576
▁awful	-9.21629
▁tree	-9.21669
▁united	-9.21698
▁balls	-9.21789
▁opening	-9.21793
▁staying	-9.21833
▁price	-9.21992
▁shop	-9.2225
rs	-9.22647
▁k	-9.22738
▁plays	-9.22822
▁bucks	-9.23022
▁standing	-9.23066
▁text	-9.23079
▁legs	-9.23337
▁consider	-9.23345
ty	-9.23463
se	-9.23509
ter	-9.23562
▁risk	-9.23568
ne	-9.23637
▁witness	-9.23687
▁stole	-9.23693
▁became	-9.23743
▁bodies	-9.23743
▁college	-9.23743
▁mmmhmm	-9.23743
▁boston	-9.23743
▁hadnt	-9.23743
▁romantic	-9.23744
▁especially	-9.23745
▁willing	-9.23746
▁congratulations	-9.23746
▁neck	-9.23746
▁abby	-9.23757
▁robby	-9.23771
▁rings	-9.23798
▁deeply	-9.23952
▁bird	-9.23972
▁weekend	-9.23982
▁eh	-9.23995
▁partner	-9.24042
▁guest	-9.24048
▁showed	-9.24079
▁billy	-9.24167
▁locked	-9.24197
▁rule	-9.24277
▁bugs	-9.24286
▁singing	-9.24447
▁besides	-9.24544
▁lt	-9.25432
▁h	-9.25518
no	-9.25545
▁holding	-9.2563
▁drugs	-9.25697
um	-9.25791
▁over	-9.2582
el	-9.25907
as	-9.25935
▁complete	-9.2599
▁aunt	-9.26112
▁difficult	-9.26124
▁vioiet	-9.26124
▁johnnie	-9.26125
▁teeth	-9.26126
▁vivian	-9.26126
▁frost	-9.26128
▁decision	-9.26129
▁annie	-9.26133
▁grandma	-9.26137
▁space	-9.26144
▁cady	-9.26157
▁pussy	-9.26173
▁decide	-9.26174
▁stopped	-9.26202
▁sight	-9.26246
▁buzzing	-9.26315
▁criminal	-9.26407
▁chicken	-9.26504
▁roger	-9.2652
▁begin	-9.26525
▁clearly	-9.26695
ri	-9.26738
▁shoes	-9.26741
▁so	-9.26812
▁yells	-9.26948
ous	-9.26989
▁leg	-9.27071
▁up	-9.27113
▁brothers	-9.2776
▁knock	-9.28173
ary	-9.2838
▁augie	-9.28563
▁briony	-9.28563
▁bishop	-9.28564
▁access	-9.28565
▁bright	-9.2857
▁merrin	-9.28577
▁beauty	-9.28587
▁incredible	-9.28592
▁becky	-9.28601
▁itd	-9.2861
▁stage	-9.28613
▁hoping	-9.28671
▁mum	-9.28693
▁theyd	-9.28931
▁relationship	-9.28944
▁finger	-9.29048
▁el	-9.29526
▁cheers	-9.2957
▁following	-9.29737
▁there	-9.2977
▁dis	-9.3059
▁suffer	-9.30634
▁waste	-9.30806
▁blame	-9.30857
▁steve	-9.31015
▁bother	-9.31018
▁somethin	-9.31023
▁arthur	-9.31063
▁experience	-9.31063
▁sebastian	-9.31063
▁matrix	-9.31063
▁zain	-9.31064
▁monday	-9.31064
▁nowhere	-9.31065
▁memory	-9.31065
▁larry	-9.31067
▁suspect	-9.31071
▁meat	-9.31081
▁papi	-9.3111
▁whispering	-9.31156
▁apologize	-9.31166
▁corner	-9.312
▁putting	-9.31265
▁heat	-9.3135
▁con	-9.3155
▁named	-9.31639
▁lied	-9.31768
▁beeps	-9.31822
▁wondering	-9.31871
▁crap	-9.32148
▁wine	-9.3243
▁note	-9.32496
▁pack	-9.3289
▁ma	-9.33084
▁pretend	-9.33194
▁feelings	-9.33295
▁lies	-9.33295
▁final	-9.33511
draic	-9.33627
▁asleep	-9.33627
▁gerty	-9.33627
▁lieutenant	-9.33627
▁position	-9.33627
▁insane	-9.33628
▁rachel	-9.33628
▁bravo	-9.33628
▁energy	-9.33634
▁aware	-9.33637
▁crackling	-9.33642
▁involved	-9.33644
▁rent	-9.33649
▁pete	-9.33716
▁tear	-9.33808
▁lee	-9.33919
▁drug	-9.34101
il	-9.34128
▁contract	-9.34166
▁weapon	-9.34217
▁animal	-9.34226
▁learned	-9.34289
▁unit	-9.34561
▁pulled	-9.34579
▁that	-9.34772
▁ca	-9.34807
▁en	-9.34969
▁mo	-9.35121
▁piss	-9.35417
▁farm	-9.3581
▁allow	-9.35955
▁feed	-9.35975
▁amen	-9.36012
▁realize	-9.36077
▁jud	-9.36168
▁split	-9.36245
▁program	-9.36249
▁audience	-9.36259
▁firm	-9.36259
▁murdoch	-9.36259
▁orange	-9.36261
▁chuckling	-9.36262
▁shame	-9.36263
▁nino	-9.36267
▁regan	-9.36272
▁cole	-9.36305
▁pat	-9.36321
▁medical	-9.36324
▁main	-9.36341
▁fucker	-9.36489
▁allowed	-9.36566
▁closer	-9.36567
▁force	-9.36624
▁records	-9.36767
▁gang	-9.36831
the	-9.36844
▁rose	-9.3689
▁queen	-9.36914
▁kinda	-9.37051
▁harder	-9.37316
▁moms	-9.37365
▁per	-9.37532
▁bow	-9.37628
▁turns	-9.37722
▁fan	-9.37739
▁walked	-9.37783
▁lived	-9.38117
▁spread	-9.38504
▁bringing	-9.38811
▁turning	-9.38873
▁camp	-9.38949
▁applause	-9.38962
▁fenton	-9.38962
▁regret	-9.38962
▁bottom	-9.38962
▁comin	-9.38962
▁ugh	-9.38963
▁misery	-9.38963
▁jenny	-9.38964
▁sarah	-9.38968
▁enter	-9.3897
▁crown	-9.38973
▁johnny	-9.38973
▁laughter	-9.38985
▁marty	-9.38988
▁milk	-9.38997
▁cora	-9.38998
▁safety	-9.39002
▁mask	-9.3901
▁huge	-9.39032
▁dare	-9.3907
▁manage	-9.39222
▁hearing	-9.39422
▁thy	-9.39481
▁tattoo	-9.39552
▁horn	-9.39613
▁jackson	-9.39615
▁figured	-9.39631
▁spirit	-9.39644
▁pig	-9.39645
▁photo	-9.39694
▁victim	-9.39713
▁murdered	-9.39716
you	-9.39956
▁falling	-9.40197
▁aw	-9.4025
ro	-9.40403
co	-9.4052
▁cares	-9.40621
ul	-9.40651
▁sending	-9.40761
▁bang	-9.4097
age	-9.41086
▁drinking	-9.41122
▁mothers	-9.41428
▁wa	-9.41629
▁speaks	-9.41654
▁closing	-9.41739
▁military	-9.41739
▁stories	-9.41739
▁desk	-9.41741
▁government	-9.41741
▁local	-9.41741
▁morse	-9.41741
▁blade	-9.41743
▁nope	-9.41745
▁empty	-9.41747
▁familiar	-9.41748
▁tommy	-9.41748
▁pressure	-9.41753
▁chirping	-9.41758
▁thatll	-9.41775
▁tony	-9.41793
▁closes	-9.41847
▁barking	-9.41892
▁gotten	-9.41936
▁losing	-9.42055
▁cock	-9.42083
▁faster	-9.42154
ur	-9.42162
▁summer	-9.42411
▁level	-9.42449
▁w	-9.42482
▁devil	-9.42541
▁wood	-9.42836
▁oil	-9.43551
▁freak	-9.43558
▁keeping	-9.43619
▁paint	-9.4366
go	-9.43712
ge	-9.43909
ts	-9.44027
▁escape	-9.44364
▁loose	-9.44426
▁letters	-9.4448
▁nothin	-9.44557
▁brie	-9.44585
▁prefer	-9.44592
▁twenty	-9.44592
▁abilene	-9.44597
▁horrible	-9.44597
▁ridiculous	-9.44597
▁sergeant	-9.44597
▁society	-9.44597
▁whistling	-9.44597
▁fabietto	-9.44597
▁awesome	-9.44597
▁condition	-9.44597
▁often	-9.44598
▁suicide	-9.446
▁tori	-9.44601
▁self	-9.44602
▁clock	-9.44605
▁shouldve	-9.44605
▁mental	-9.44618
▁famous	-9.44621
▁thas	-9.44635
▁bear	-9.44683
▁o	-9.44686
▁buck	-9.44834
▁circle	-9.44893
▁mall	-9.45014
▁foot	-9.45016
▁doc	-9.45145
▁liar	-9.45388
▁gunshot	-9.45456
▁target	-9.45524
▁pure	-9.45847
▁player	-9.46327
▁cars	-9.46477
▁shower	-9.46729
▁repeat	-9.46744
▁breaking	-9.46756
▁dan	-9.46841
▁buying	-9.46879
▁hero	-9.47023
▁discuss	-9.4719
▁focus	-9.4722
▁mention	-9.4729
▁raise	-9.4732
▁crew	-9.47538
▁double	-9.47538
▁enemy	-9.47538
▁pablo	-9.47538
▁purpose	-9.47538
▁vegas	-9.47538
▁buried	-9.47538
▁humming	-9.47539
▁ellie	-9.47541
▁beginning	-9.47543
▁kano	-9.47544
▁plus	-9.47546
▁held	-9.47546
▁guilty	-9.47579
▁jacket	-9.47606
▁metal	-9.47788
na	-9.4814
tion	-9.48395
▁saved	-9.48401
▁tip	-9.48415
▁tires	-9.48486
▁official	-9.48488
▁nuts	-9.48503
▁movies	-9.48635
▁map	-9.48993
▁hanging	-9.49165
▁magic	-9.49545
▁post	-9.49571
land	-9.49607
▁talkin	-9.49644
▁played	-9.49668
▁destroy	-9.49775
▁market	-9.50118
▁believed	-9.50425
▁create	-9.50537
men	-9.5056
▁alpha	-9.50568
▁percent	-9.50568
▁interview	-9.50568
▁large	-9.50572
▁coast	-9.50572
▁jason	-9.50573
▁dunne	-9.50578
▁funeral	-9.50581
▁colm	-9.50581
▁size	-9.50588
▁immediately	-9.50591
▁wet	-9.50604
▁manager	-9.50758
▁hired	-9.50795
▁pills	-9.50982
▁surprised	-9.51059
▁training	-9.51583
▁connection	-9.51583
▁gate	-9.51608
▁scout	-9.51653
▁hardly	-9.51822
▁painting	-9.52047
▁loss	-9.52155
▁sh	-9.52269
▁bite	-9.52426
▁ye	-9.52671
▁garden	-9.53109
▁travel	-9.53233
▁bus	-9.53397
ee	-9.5342
▁assume	-9.53452
▁survive	-9.53456
▁sexual	-9.53579
ni	-9.53591
▁usual	-9.53643
▁bay	-9.53686
▁beyond	-9.53693
▁built	-9.53693
▁kelly	-9.53693
▁meredith	-9.53693
▁morgan	-9.53693
▁rescue	-9.53693
▁taylor	-9.53693
▁blind	-9.53693
▁ocean	-9.53693
▁ugly	-9.53693
▁memories	-9.53693
▁trigger	-9.53693
▁whoever	-9.53694
▁miri	-9.53696
▁brilliant	-9.53702
▁zero	-9.53704
▁pair	-9.53704
▁desire	-9.53705
▁gino	-9.53705
▁view	-9.53714
▁fake	-9.53719
▁sold	-9.53737
▁tower	-9.53738
▁vail	-9.53739
▁male	-9.53764
▁headed	-9.53782
me	-9.53786
▁glasses	-9.53827
▁tone	-9.53873
▁approaching	-9.53905
▁grunt	-9.54476
▁lately	-9.5461
▁exist	-9.54798
▁orlean	-9.5484
▁iii	-9.55122
▁assholes	-9.55257
▁feck	-9.55556
▁ear	-9.55631
▁do	-9.55832
ma	-9.55866
▁picking	-9.56097
▁crash	-9.56174
▁animals	-9.56175
▁lift	-9.56595
▁fort	-9.56761
▁scott	-9.56765
▁support	-9.56878
▁susan	-9.56897
▁tour	-9.56918
▁alfredo	-9.56919
▁bluestar	-9.56919
▁easier	-9.56919
▁florida	-9.56919
▁raymond	-9.56919
▁renfield	-9.56919
▁strength	-9.56919
▁taught	-9.56919
▁thomas	-9.56919
▁tunnel	-9.56919
▁however	-9.56919
▁alejandro	-9.5692
▁swim	-9.56921
▁nancy	-9.56921
▁assistant	-9.56923
▁trash	-9.56923
▁genius	-9.56923
▁prime	-9.5693
▁crawl	-9.56942
▁plans	-9.56943
▁laid	-9.56945
▁barnes	-9.56948
▁smoking	-9.56958
▁gay	-9.56987
▁saving	-9.56997
▁field	-9.57096
▁forced	-9.57202
▁nearly	-9.57211
▁due	-9.57283
▁pearl	-9.57283
▁lf	-9.57511
▁gosh	-9.57585
▁remind	-9.57693
▁options	-9.577
▁mikey	-9.57715
▁block	-9.57862
▁bomb	-9.57915
▁yea	-9.58005
▁aye	-9.58062
▁effort	-9.58064
▁patient	-9.58097
▁nurse	-9.58136
▁monster	-9.58184
▁soldier	-9.58214
▁ho	-9.58372
▁pieces	-9.58537
▁wha	-9.58707
x	-9.58986
▁drinks	-9.59174
▁provide	-9.59274
son	-9.59497
▁paying	-9.59777
▁lou	-9.59817
▁finding	-9.59876
▁load	-9.59998
▁recognize	-9.60004
▁lts	-9.60009
▁daniel	-9.60146
▁legal	-9.60184
▁spoke	-9.60198
▁wrap	-9.60249
▁beverly	-9.60252
▁champagne	-9.60252
▁justice	-9.60252
▁responsible	-9.60252
▁suspense	-9.60252
▁teii	-9.60252
▁theseus	-9.60252
▁trinity	-9.60252
▁whirring	-9.60252
▁clark	-9.60252
▁drove	-9.60252
▁kyle	-9.60252
▁terrific	-9.60253
▁innocent	-9.60256
▁pocket	-9.60256
▁wheel	-9.60256
▁village	-9.60258
▁chocolate	-9.60258
▁majesty	-9.60261
▁linda	-9.60262
▁bedroom	-9.60275
▁shirt	-9.60278
▁anger	-9.6029
▁eeri	-9.60311
un	-9.60326
▁add	-9.60367
▁planet	-9.60447
▁sever	-9.6055
▁murderer	-9.6125
▁freeze	-9.61298
▁casey	-9.6139
▁souls	-9.61431
ine	-9.61561
▁heading	-9.6169
▁matters	-9.61768
▁off	-9.61803
▁j	-9.61817
▁sin	-9.62083
▁knees	-9.62193
▁older	-9.62267
▁shooting	-9.62324
▁ar	-9.62439
▁checked	-9.62531
▁deliver	-9.62758
time	-9.62768
▁punch	-9.62917
▁switch	-9.62918
▁draw	-9.6306
▁strip	-9.63168
▁boo	-9.63495
▁games	-9.63627
▁among	-9.6368
▁thirty	-9.63697
▁channel	-9.637
▁england	-9.637
▁extreme	-9.63701
▁ansel	-9.63701
▁whenever	-9.63701
▁kevin	-9.63702
▁rattling	-9.63703
▁roof	-9.63703
▁joking	-9.63703
▁football	-9.63704
▁minister	-9.63706
▁elias	-9.63709
▁skin	-9.6371
▁axel	-9.6371
▁prick	-9.63718
▁credit	-9.63728
▁complicated	-9.63729
▁handsome	-9.63735
▁steven	-9.63781
▁commander	-9.63784
▁hat	-9.63792
▁suddenly	-9.63805
▁chimes	-9.63811
▁uhoh	-9.63814
▁original	-9.63822
▁naked	-9.63854
▁bath	-9.63855
▁clicking	-9.64015
▁brave	-9.64049
▁pissed	-9.64108
▁quietly	-9.64165
▁dj	-9.64168
▁greatest	-9.64238
▁leader	-9.64297
▁ch	-9.64425
▁no	-9.6454
▁remain	-9.64698
▁nicky	-9.64705
li	-9.64751
▁scream	-9.64826
▁acting	-9.64928
way	-9.64967
▁elevator	-9.65084
▁shift	-9.65084
▁saturday	-9.65134
▁tune	-9.65146
▁sue	-9.65172
▁ghost	-9.6518
▁cigarette	-9.6518
▁knee	-9.65232
ff	-9.654
▁lines	-9.65425
▁pee	-9.65788
and	-9.65964
▁ohh	-9.66251
head	-9.66365
▁dads	-9.66447
ent	-9.66793
▁disappear	-9.66959
▁settle	-9.67021
▁social	-9.6711
▁gettin	-9.67241
▁insurance	-9.67272
▁junior	-9.67272
▁lindy	-9.67272
▁oglethorpe	-9.67272
▁process	-9.67272
▁traffic	-9.67272
▁rough	-9.67272
▁cancer	-9.67272
▁teddy	-9.67273
▁stampler	-9.67274
▁staff	-9.67274
▁victoria	-9.67276
▁grade	-9.67277
▁breakfast	-9.67277
▁trapped	-9.67278
▁apparently	-9.6728
▁duty	-9.6728
▁sunday	-9.67283
▁jerk	-9.67283
▁onto	-9.67284
▁pool	-9.67291
▁wherever	-9.67291
▁director	-9.67292
▁chanting	-9.67311
▁kimi	-9.67319
▁dh	-9.67319
▁johnson	-9.67319
▁stone	-9.67324
▁bury	-9.67345
▁victory	-9.67381
▁hurts	-9.67393
▁statement	-9.674
▁sec	-9.67428
▁kab	-9.67468
ure	-9.6748
▁prepared	-9.67483
▁failed	-9.67537
▁screeching	-9.67545
king	-9.67585
▁raised	-9.67592
▁covered	-9.67895
▁sand	-9.67901
▁boots	-9.67923
▁windows	-9.67945
▁searching	-9.67986
▁motherfuckers	-9.68026
▁tits	-9.68189
▁daughters	-9.68306
▁details	-9.68371
▁menu	-9.68467
ia	-9.68473
▁chill	-9.68493
▁pre	-9.68877
▁ticket	-9.68924
▁si	-9.691
▁doctors	-9.69127
▁someones	-9.69434
▁showing	-9.6947
▁officers	-9.69504
▁rat	-9.69591
▁numbers	-9.69736
de	-9.69842
▁pin	-9.69921
▁weapons	-9.7013
▁di	-9.70227
▁announc	-9.70352
led	-9.70454
lo	-9.70454
▁dump	-9.70646
if	-9.70671
▁fi	-9.70787
▁obvious	-9.70839
▁natural	-9.70875
▁speech	-9.70891
▁chose	-9.70924
▁background	-9.70976
▁exciting	-9.70976
▁globe	-9.70976
▁inspector	-9.70976
▁mirror	-9.70976
▁pardon	-9.70976
▁responsibility	-9.70976
▁restaurant	-9.70976
▁screen	-9.70976
▁whyd	-9.70976
▁biggest	-9.70976
▁oclock	-9.70976
▁speed	-9.70976
▁location	-9.70976
▁piano	-9.70976
▁style	-9.70977
▁rumbling	-9.70977
▁merger	-9.70977
▁online	-9.70979
▁keeley	-9.70979
▁written	-9.7098
▁fox	-9.7098
▁brush	-9.70989
▁smith	-9.70999
▁truly	-9.71004
▁capable	-9.71012
▁exit	-9.71013
▁shape	-9.71015
▁jet	-9.71056
▁subtitles	-9.71095
▁discovered	-9.71121
▁arrived	-9.71134
▁bust	-9.71178
▁reality	-9.71238
▁hire	-9.71297
▁agreed	-9.71393
▁emotional	-9.71402
▁cases	-9.71495
▁sexy	-9.71647
▁sisters	-9.71745
▁thuds	-9.71799
▁expected	-9.71885
▁concern	-9.71892
▁interest	-9.71955
▁trap	-9.72004
▁higher	-9.72028
▁butt	-9.72499
▁cousin	-9.72663
▁helping	-9.72675
▁customers	-9.7283
▁fired	-9.72856
▁los	-9.729
id	-9.73059
▁seek	-9.73135
▁soldiers	-9.73302
▁blows	-9.73497
one	-9.73505
▁woods	-9.73511
▁print	-9.73565
▁ba	-9.74068
▁everybodys	-9.74169
▁foreign	-9.74232
▁proceed	-9.74364
ittie	-9.74463
▁swing	-9.7457
▁introduce	-9.74602
ate	-9.74648
▁beg	-9.74682
▁ought	-9.74744
▁bridge	-9.74765
▁fog	-9.74789
▁celebrate	-9.74822
▁excellent	-9.74822
▁gideon	-9.74822
▁godfrey	-9.74822
▁literally	-9.74822
▁melody	-9.74822
▁otherwise	-9.74822
▁possibly	-9.74822
▁daesu	-9.74822
▁alex	-9.74822
▁current	-9.74822
▁square	-9.74822
▁blaring	-9.74823
▁sharon	-9.74823
▁corky	-9.74824
▁plenty	-9.74826
▁twelve	-9.74826
▁baseball	-9.74827
▁percy	-9.74827
▁thunder	-9.74828
▁flies	-9.74829
▁robbie	-9.7483
▁fellow	-9.74833
▁changing	-9.74848
▁leon	-9.7487
▁basic	-9.74933
▁ace	-9.75003
▁invited	-9.75013
▁gee	-9.75196
▁noticed	-9.75292
▁arrested	-9.75373
▁las	-9.75511
▁heh	-9.75651
▁fixed	-9.7586
▁flying	-9.75981
▁ofthe	-9.76147
▁bones	-9.76198
ler	-9.76348
▁charges	-9.76372
▁fund	-9.76503
▁brings	-9.76606
▁stars	-9.76647
▁value	-9.76682
▁artist	-9.76777
▁stranger	-9.76921
▁fella	-9.76923
▁stayed	-9.7712
▁scouts	-9.77408
▁pan	-9.77575
▁horns	-9.77763
▁va	-9.78029
▁cheap	-9.78214
▁study	-9.78387
iy	-9.78405
▁prepare	-9.78591
ish	-9.78611
▁health	-9.78665
▁sharp	-9.78686
▁grass	-9.78697
▁insist	-9.78816
▁advice	-9.78822
▁california	-9.78822
▁cindy	-9.78822
▁desperate	-9.78822
▁disgusting	-9.78822
▁europe	-9.78822
▁grenouille	-9.78822
▁miami	-9.78822
▁monsieur	-9.78822
▁threw	-9.78822
▁cecilia	-9.78822
▁potential	-9.78822
▁british	-9.78822
▁karate	-9.78823
▁sugar	-9.78823
▁schedule	-9.78826
▁saul	-9.78827
▁shopping	-9.78827
▁inez	-9.78829
▁spotlight	-9.7883
▁hammer	-9.78835
▁comment	-9.78837
sh	-9.78837
▁rare	-9.78843
▁hm	-9.78843
▁dropped	-9.78847
▁birth	-9.78849
▁rex	-9.78855
▁golden	-9.78862
▁bound	-9.78865
▁national	-9.78869
▁wallet	-9.78873
▁erm	-9.78928
▁louis	-9.79109
ah	-9.79133
▁piease	-9.79158
▁disappeared	-9.79169
▁county	-9.79241
▁mentioned	-9.79245
▁created	-9.79313
pa	-9.79603
▁suggest	-9.7997
▁files	-9.80021
▁ko	-9.80032
▁bastards	-9.80183
▁towards	-9.80226
ze	-9.80408
▁ol	-9.80559
▁students	-9.80741
▁trick	-9.80741
▁project	-9.80797
▁spring	-9.80823
▁subject	-9.80829
▁career	-9.80878
▁airline	-9.80898
▁egg	-9.80914
▁swan	-9.80925
just	-9.80963
▁action	-9.80969
▁sometime	-9.80973
▁customer	-9.80974
ier	-9.81117
▁rob	-9.8123
▁siren	-9.81358
▁heads	-9.81369
▁doors	-9.8146
▁sat	-9.81883
▁fail	-9.82213
▁awake	-9.82245
side	-9.82274
▁le	-9.82336
▁signs	-9.82487
▁ruin	-9.82718
▁release	-9.82751
▁perfume	-9.82815
▁rip	-9.82906
▁woke	-9.82949
▁agador	-9.82988
▁ambulance	-9.82988
▁dracula	-9.82988
▁fantastic	-9.82988
▁geoghan	-9.82988
▁heimish	-9.82988
▁intensifies	-9.82988
▁margaret	-9.82988
▁paige	-9.82988
▁practice	-9.82988
▁stevie	-9.82988
▁stomach	-9.82988
▁vehicle	-9.82988
▁whimpering	-9.82988
▁afford	-9.82989
▁uncomfortable	-9.82989
▁midnight	-9.82989
▁friday	-9.8299
▁mickey	-9.8299
▁washington	-9.8299
▁beast	-9.82991
▁kris	-9.82991
▁theme	-9.82991
▁television	-9.82993
▁virus	-9.82994
▁defense	-9.82994
▁mitchell	-9.82995
▁property	-9.82996
▁weii	-9.82998
▁temple	-9.82998
▁valley	-9.83002
▁comfortable	-9.83004
▁storm	-9.83008
▁airport	-9.83012
▁buzzes	-9.83033
▁chest	-9.83035
▁weight	-9.83035
▁highway	-9.83046
▁palm	-9.83075
▁stolen	-9.83086
▁ewing	-9.83128
▁sanders	-9.83145
▁confirmed	-9.83192
▁diner	-9.83195
bh	-9.8324
ey	-9.83254
▁pen	-9.8326
▁stab	-9.83306
▁hurting	-9.83322
▁cia	-9.83342
▁guide	-9.83589
▁kit	-9.83738
▁coughs	-9.83745
les	-9.83794
ng	-9.83806
▁tall	-9.83816
▁flowers	-9.83838
▁ken	-9.83918
▁seemed	-9.83992
ial	-9.84095
▁staring	-9.8411
▁sayin	-9.8425
▁op	-9.84478
am	-9.84496
▁blowing	-9.84499
▁gim	-9.84537
ol	-9.84667
▁ordered	-9.84953
▁who	-9.84968
▁issue	-9.84973
do	-9.84978
▁bullets	-9.84993
▁bullet	-9.85189
▁prints	-9.8524
▁member	-9.8527
▁flat	-9.85271
▁student	-9.85288
▁graves	-9.85307
▁walks	-9.86126
▁watched	-9.86159
▁loves	-9.86459
▁jobs	-9.86513
by	-9.86564
▁sio	-9.86635
▁review	-9.86837
▁success	-9.87072
▁curse	-9.87104
▁je	-9.87131
▁rub	-9.8714
▁dirt	-9.87176
▁cream	-9.87178
▁all	-9.87278
▁drag	-9.87299
▁hip	-9.87311
ving	-9.87324
▁cheese	-9.87335
▁fortune	-9.87336
▁intense	-9.87336
▁laura	-9.87336
▁lisbeth	-9.87336
▁lorraine	-9.87336
▁opinion	-9.87336
▁presence	-9.87336
▁progress	-9.87336
▁trevor	-9.87336
▁understood	-9.87336
▁unfortunate	-9.87336
▁violet	-9.87336
▁wreck	-9.87336
▁catherine	-9.87336
▁explosiveskull	-9.87336
▁justin	-9.87336
▁creaks	-9.87337
▁mostly	-9.87337
▁community	-9.87337
▁sniffles	-9.87337
▁muffled	-9.87338
▁novel	-9.87338
▁operator	-9.87338
▁smiling	-9.87338
▁jeez	-9.87338
▁philippe	-9.87338
▁internet	-9.87341
▁spit	-9.87342
▁blew	-9.87343
▁rushman	-9.87349
▁therapy	-9.87349
▁reverend	-9.87352
▁planning	-9.87354
▁clue	-9.87356
▁static	-9.8736
▁nasty	-9.87366
▁tank	-9.87371
▁bout	-9.87392
▁path	-9.87399
▁protection	-9.87422
▁cast	-9.87435
▁cape	-9.87445
ac	-9.87448
▁scary	-9.87448
▁navy	-9.87452
ley	-9.87519
▁signal	-9.87561
▁x	-9.87578
▁dani	-9.87592
▁inhales	-9.87641
▁beans	-9.87753
▁gives	-9.87867
▁agents	-9.87904
▁counter	-9.87997
▁suffering	-9.88095
ii	-9.8819
▁be	-9.88227
ill	-9.88311
▁loser	-9.88319
▁answers	-9.88457
▁fires	-9.8859
▁joey	-9.88601
▁of	-9.88628
▁sacrifice	-9.88691
▁shows	-9.89173
ud	-9.89256
▁mis	-9.89303
▁on	-9.89442
▁threat	-9.89548
▁german	-9.89576
pe	-9.89583
▁pulling	-9.89636
▁grandmother	-9.89652
▁loan	-9.89663
▁plate	-9.89708
▁result	-9.89771
▁shoulder	-9.89811
▁matthew	-9.89814
▁whistle	-9.89828
▁yard	-9.89862
▁odd	-9.89868
ged	-9.90054
▁ai	-9.90119
▁plant	-9.90198
▁hon	-9.90346
tic	-9.90347
▁gut	-9.9038
▁sp	-9.90425
▁mar	-9.90573
ily	-9.912
▁bump	-9.91516
▁email	-9.9154
▁avoid	-9.91553
▁divorce	-9.9165
▁event	-9.91705
▁illegal	-9.91727
▁particular	-9.9174
▁sudden	-9.91744
▁cab	-9.91779
▁experiment	-9.9186
▁silver	-9.91881
▁bennett	-9.91882
▁blonde	-9.91882
▁garbage	-9.91882
▁juice	-9.91882
▁london	-9.91882
▁revenge	-9.91882
▁warrant	-9.91882
▁indeed	-9.91882
▁freedom	-9.91883
▁silent	-9.91883
▁robert	-9.91884
▁cherry	-9.91885
▁bike	-9.91886
▁honking	-9.91888
▁attractive	-9.91889
▁failure	-9.91889
▁gentleman	-9.91889
▁proof	-9.91891
▁thou	-9.919
▁aside	-9.91904
▁mercy	-9.91912
▁talent	-9.91917
▁coleman	-9.91919
▁gary	-9.91928
▁barely	-9.9195
▁tiny	-9.91952
▁sarge	-9.9196
▁mood	-9.91971
▁yearold	-9.91973
▁angeles	-9.91997
▁mail	-9.92
▁suits	-9.92013
▁thrown	-9.92112
▁dale	-9.92115
▁policeman	-9.92115
▁du	-9.9212
▁out	-9.92127
▁rise	-9.92154
▁sons	-9.92206
let	-9.92227
▁escaped	-9.92256
▁li	-9.9228
▁honestly	-9.92287
▁slowly	-9.92341
▁realized	-9.92404
ir	-9.9241
▁cards	-9.92435
▁reached	-9.92571
▁mustve	-9.92676
▁burned	-9.92678
▁growing	-9.92842
▁pot	-9.9294
▁ja	-9.92989
▁burning	-9.92992
▁sooner	-9.93133
▁stan	-9.93145
▁viva	-9.93258
▁dry	-9.93282
▁goodness	-9.93412
▁expecting	-9.93451
▁kissing	-9.93677
av	-9.93708
▁ln	-9.93747
ba	-9.93975
▁whistles	-9.93979
▁click	-9.94183
▁touched	-9.94185
ver	-9.94273
▁operation	-9.94419
▁center	-9.94427
ow	-9.94433
▁tickets	-9.94472
▁william	-9.94504
▁apple	-9.9453
▁thin	-9.94537
▁chain	-9.9457
▁sl	-9.94685
▁writer	-9.94705
▁ears	-9.94839
▁sub	-9.95119
▁speaker	-9.95513
▁dealing	-9.95664
▁bat	-9.95981
▁route	-9.95984
▁bleed	-9.96104
▁comfort	-9.96168
▁serve	-9.9619
▁walls	-9.96311
day	-9.96313
▁borrow	-9.96316
down	-9.96354
though	-9.96383
▁tim	-9.96383
▁chase	-9.96389
board	-9.96402
▁separate	-9.96406
house	-9.96465
▁stretch	-9.96486
▁exact	-9.96506
▁prom	-9.96508
▁ideas	-9.96523
▁develop	-9.96607
▁perform	-9.96642
▁max	-9.96643
▁toilet	-9.96643
▁distant	-9.96644
▁gorgeous	-9.96644
▁including	-9.96644
▁jealous	-9.96644
▁katrine	-9.96644
▁necessary	-9.96644
▁period	-9.96644
▁saverio	-9.96644
▁science	-9.96644
▁tuesday	-9.96644
▁twitter	-9.96644
▁wouid	-9.96644
▁lgby	-9.96644
▁conference	-9.96644
▁candy	-9.96644
▁darnell	-9.96644
▁isaac	-9.96644
▁japanese	-9.96644
▁morpheus	-9.96644
▁investigation	-9.96646
▁decent	-9.96646
▁diana	-9.96646
▁vacation	-9.96647
▁battle	-9.96647
▁magazine	-9.96649
▁dancing	-9.96649
▁dominic	-9.9665
▁coward	-9.9665
▁gross	-9.96652
▁committed	-9.96653
▁dope	-9.96653
▁race	-9.96657
▁pathetic	-9.96658
▁data	-9.96658
▁owns	-9.96659
▁caii	-9.96668
▁maria	-9.9667
▁rome	-9.96672
▁princess	-9.96677
▁maid	-9.96679
▁forth	-9.9668
ance	-9.96681
▁dragon	-9.96693
▁classic	-9.96722
▁rae	-9.96732
▁cf	-9.968
▁pm	-9.96809
▁fireman	-9.96865
▁ways	-9.97099
▁fireworks	-9.97102
▁based	-9.97171
▁math	-9.97362
▁moon	-9.97598
▁wounds	-9.97718
▁younger	-9.97764
▁depends	-9.97812
▁terms	-9.97919
▁nation	-9.97962
▁ward	-9.98012
▁selling	-9.98312
▁hu	-9.98414
▁eli	-9.98443
▁v	-9.9845
▁hill	-9.98484
▁fa	-9.98614
▁dea	-9.98742
io	-9.98834
▁abuse	-9.98944
▁helped	-9.99063
▁sirens	-9.99172
▁cheer	-9.99277
▁routine	-9.99413
▁smells	-9.99415
▁border	-9.99417
▁expert	-9.99451
▁lookin	-9.9946
▁quarter	-9.99516
▁critic	-9.99519
▁affair	-9.9955
▁cookie	-9.99669
▁dollar	-9.99691
▁ro	-9.99868
▁mile	-9.99901
▁bum	-10.0021
ti	-10.0027
▁photos	-10.0029
▁queens	-10.0041
▁hug	-10.0041
ad	-10.0055
▁reasons	-10.0073
▁rogers	-10.0083
▁hunt	-10.0084
▁opened	-10.0086
▁led	-10.0091
▁ended	-10.0102
▁hung	-10.0114
ack	-10.0123
▁secure	-10.0139
▁ove	-10.014
▁trade	-10.0142
brew	-10.0143
some	-10.0143
▁lick	-10.015
▁jones	-10.015
▁cure	-10.0157
▁orders	-10.0158
▁marshal	-10.016
▁likely	-10.0162
▁cloud	-10.0164
▁beiieve	-10.0164
▁favour	-10.0164
▁garage	-10.0164
▁guarantee	-10.0164
▁international	-10.0164
▁karl	-10.0164
▁laurie	-10.0164
▁maradona	-10.0164
▁motive	-10.0164
▁mulwray	-10.0164
▁orchestra	-10.0164
▁practical	-10.0164
▁professor	-10.0164
▁slept	-10.0164
▁thompson	-10.0164
▁wolverton	-10.0164
▁clyde	-10.0164
▁impact	-10.0164
▁jasper	-10.0164
▁vagina	-10.0164
▁heip	-10.0164
▁silly	-10.0164
▁granny	-10.0164
▁violent	-10.0164
▁nadine	-10.0165
▁shelter	-10.0165
▁slut	-10.0165
▁quote	-10.0165
▁alert	-10.0165
▁driss	-10.0165
▁expensive	-10.0165
▁howard	-10.0165
▁scum	-10.0165
▁firing	-10.0165
▁rifle	-10.0165
▁rope	-10.0165
▁defendant	-10.0165
▁honour	-10.0165
▁fourteen	-10.0166
▁salad	-10.0166
▁russell	-10.0166
▁electricity	-10.0166
▁doorbell	-10.0166
▁chopper	-10.0167
▁ivy	-10.0167
▁bash	-10.0168
▁basement	-10.0168
▁mobile	-10.0168
▁chosen	-10.0172
▁according	-10.0172
▁weston	-10.0174
▁grown	-10.0176
▁wailing	-10.0177
▁circumstances	-10.0181
▁professional	-10.0183
▁joy	-10.0187
ab	-10.0191
▁raped	-10.0197
▁row	-10.0203
▁places	-10.0208
▁steel	-10.0209
▁royal	-10.021
▁bleeding	-10.0211
▁lack	-10.0216
po	-10.0224
▁stronger	-10.0226
▁tra	-10.0228
▁shitty	-10.0228
▁lots	-10.0228
▁letting	-10.023
▁banging	-10.0243
▁attacked	-10.0255
▁pushed	-10.0266
▁carrying	-10.0268
▁gi	-10.027
▁parking	-10.0284
ank	-10.0285
▁backup	-10.0298
▁can	-10.0299
▁cooking	-10.0301
lic	-10.0324
ai	-10.0327
▁carrie	-10.033
ating	-10.0357
▁salt	-10.0376
▁les	-10.0378
▁ahh	-10.0383
▁lab	-10.0385
▁dealer	-10.0399
▁ne	-10.0419
▁character	-10.0428
▁bi	-10.0441
▁page	-10.0458
▁model	-10.0471
▁strike	-10.0475
▁union	-10.0494
▁you	-10.0515
▁ju	-10.0517
per	-10.0527
▁answering	-10.0527
od	-10.0532
▁gum	-10.0537
▁reporter	-10.0544
▁pit	-10.0548
oo	-10.0567
▁buzz	-10.0628
▁snap	-10.0635
▁attend	-10.0643
▁march	-10.0645
▁ab	-10.0653
▁desert	-10.0656
▁rocks	-10.0658
▁roy	-10.0661
ville	-10.0669
▁se	-10.067
▁wire	-10.067
▁wipe	-10.0673
▁victor	-10.0674
▁margo	-10.0685
▁commit	-10.0688
▁opera	-10.0689
▁danger	-10.069
▁blanchard	-10.0691
▁climb	-10.0691
▁cocaine	-10.0691
▁hidden	-10.0691
▁offense	-10.0691
▁portuguese	-10.0691
▁rhonda	-10.0691
▁stadium	-10.0691
▁escort	-10.0691
▁example	-10.0691
▁randall	-10.0691
▁yosille	-10.0691
▁eddie	-10.0691
▁trauma	-10.0691
▁patrol	-10.0691
▁boring	-10.0691
▁dripping	-10.0691
▁rude	-10.0691
▁jewish	-10.0691
▁scent	-10.0691
▁carlos	-10.0691
▁grew	-10.0691
▁counselor	-10.0692
▁brax	-10.0692
▁fancy	-10.0692
▁bible	-10.0692
▁status	-10.0692
▁merk	-10.0692
▁motion	-10.0692
▁version	-10.0693
▁logue	-10.0693
▁clients	-10.0694
ens	-10.0695
▁eden	-10.0696
▁chat	-10.0696
▁dating	-10.0697
▁darkness	-10.0698
▁prize	-10.07
▁fifty	-10.07
▁bored	-10.0701
▁cabin	-10.0701
▁moaning	-10.0701
▁winter	-10.0703
▁article	-10.0704
▁demons	-10.0705
▁trailer	-10.0707
▁y	-10.0711
▁lifetime	-10.0712
▁boom	-10.0714
▁mu	-10.0715
▁warned	-10.0717
▁wilder	-10.0727
▁civil	-10.0728
▁tail	-10.073
da	-10.0735
ized	-10.0736
▁loudly	-10.0737
ca	-10.0738
▁sucks	-10.0746
▁personally	-10.0749
▁movement	-10.0754
▁pie	-10.0756
ability	-10.0759
▁smaller	-10.0759
▁closet	-10.0762
▁lean	-10.0763
▁screwed	-10.0769
▁edge	-10.0775
ated	-10.0779
▁amys	-10.0787
iest	-10.0802
▁vo	-10.0808
▁axe	-10.0814
▁behave	-10.0814
▁armed	-10.0814
▁lighter	-10.0818
▁tests	-10.0823
bo	-10.0824
ke	-10.0824
▁messing	-10.0842
▁bull	-10.0853
▁thoughts	-10.0863
▁hearts	-10.0869
▁advance	-10.0876
▁sale	-10.0881
▁faces	-10.0881
▁cap	-10.0882
▁learning	-10.0884
ho	-10.0893
▁passing	-10.0912
▁hated	-10.0984
▁appear	-10.1003
ja	-10.1005
▁device	-10.1023
▁sentence	-10.1031
▁degree	-10.1038
▁adult	-10.1076
▁rev	-10.1096
▁deb	-10.11
▁changes	-10.1103
▁torture	-10.1138
▁goal	-10.1163
▁leaves	-10.1171
mo	-10.1175
▁guards	-10.1192
▁snow	-10.1197
▁screech	-10.1203
ship	-10.1206
▁checking	-10.1208
▁assault	-10.1214
▁belongs	-10.1215
▁damage	-10.1222
▁smooth	-10.123
▁streets	-10.123
▁corn	-10.1231
▁pink	-10.1235
▁proper	-10.1237
▁sandwich	-10.124
▁lucie	-10.1241
▁weather	-10.1244
▁iron	-10.1244
▁effect	-10.1245
▁altar	-10.1246
▁ashamed	-10.1246
▁august	-10.1246
▁available	-10.1246
▁cherokee	-10.1246
▁choking	-10.1246
▁confused	-10.1246
▁dispatch	-10.1246
▁easily	-10.1246
▁eventually	-10.1246
▁fought	-10.1246
▁garvin	-10.1246
▁gittes	-10.1246
▁helicopter	-10.1246
▁katia	-10.1246
▁license	-10.1246
▁outfit	-10.1246
▁shakily	-10.1246
▁simply	-10.1246
▁sunshine	-10.1246
▁whiskey	-10.1246
▁clone	-10.1246
▁jodie	-10.1246
▁natalie	-10.1246
▁pleasant	-10.1246
▁pervert	-10.1246
▁specific	-10.1246
▁neighborhood	-10.1246
▁thrill	-10.1246
▁division	-10.1246
▁chicago	-10.1246
▁quince	-10.1247
▁cardinal	-10.1247
▁urgent	-10.1247
▁popular	-10.1247
▁forgotten	-10.1247
▁clever	-10.1247
▁myers	-10.1247
▁positive	-10.1247
▁massage	-10.1247
▁denny	-10.1248
▁kang	-10.1248
▁winner	-10.1249
▁gunfire	-10.1249
▁peg	-10.1249
▁robbery	-10.125
▁lightning	-10.1251
▁uhh	-10.1251
▁plain	-10.1252
▁recently	-10.1255
▁aim	-10.1258
▁nights	-10.1258
▁ap	-10.1258
▁powerful	-10.1261
▁daniela	-10.1263
▁u	-10.1267
▁received	-10.1268
▁coughing	-10.1268
ize	-10.127
▁charming	-10.1272
▁coke	-10.1275
▁echoing	-10.1275
▁earn	-10.1275
▁punished	-10.1275
▁lips	-10.1277
▁warning	-10.1287
▁concerned	-10.1293
▁sally	-10.1296
▁fate	-10.1306
ium	-10.1321
▁tied	-10.1331
▁freaking	-10.1334
▁fed	-10.1341
▁equal	-10.1347
▁perfectly	-10.135
▁to	-10.1353
▁treated	-10.1358
ta	-10.1358
▁trained	-10.1385
ator	-10.139
que	-10.1392
▁daddys	-10.1396
om	-10.1404
▁spending	-10.1408
▁signed	-10.1413
▁media	-10.1427
▁prisoners	-10.1445
▁followed	-10.1445
▁score	-10.1457
▁beating	-10.1474
▁cookies	-10.1491
▁hells	-10.1506
▁grave	-10.1507
▁steps	-10.1514
of	-10.1525
▁fellas	-10.1546
▁cr	-10.1562
▁ts	-10.1567
▁pr	-10.1585
▁bra	-10.1585
▁bone	-10.1588
▁yell	-10.1594
▁claim	-10.1596
he	-10.1603
▁pilot	-10.1614
▁explosion	-10.1616
▁toward	-10.163
▁hood	-10.1632
▁beside	-10.1632
▁pound	-10.1635
▁nun	-10.1641
ster	-10.1645
▁hates	-10.1649
▁joint	-10.165
car	-10.165
▁wolf	-10.1675
ha	-10.1693
▁aa	-10.17
▁tears	-10.1708
▁somebodys	-10.1714
▁pet	-10.1727
▁psycho	-10.1754
ped	-10.1754
▁estimate	-10.1771
line	-10.1776
▁seal	-10.1778
tch	-10.178
ger	-10.1796
ade	-10.1798
▁gather	-10.1803
▁pour	-10.1804
▁challenge	-10.1807
beat	-10.1812
▁update	-10.1812
▁eric	-10.1822
▁prince	-10.1829
▁kim	-10.1831
▁choices	-10.1833
▁courage	-10.1833
▁drama	-10.1834
▁amount	-10.1834
▁austin	-10.1834
▁avenue	-10.1834
▁behavior	-10.1834
▁benefit	-10.1834
▁burmese	-10.1834
▁dallas	-10.1834
▁dessert	-10.1834
▁dibiasky	-10.1834
▁flesh	-10.1834
▁gemini	-10.1834
▁grateful	-10.1834
▁hollywood	-10.1834
▁ieave	-10.1834
▁joanna	-10.1834
▁mexico	-10.1834
▁multiple	-10.1834
▁perimeter	-10.1834
▁policy	-10.1834
▁servant	-10.1834
▁svenning	-10.1834
▁trunk	-10.1834
▁tutar	-10.1834
▁babies	-10.1834
▁thudding	-10.1835
▁pookie	-10.1835
▁sheiiy	-10.1835
▁downtown	-10.1835
▁permission	-10.1835
▁disease	-10.1835
▁jerry	-10.1835
▁reputation	-10.1835
▁golf	-10.1835
▁existence	-10.1835
▁hyperion	-10.1835
▁governor	-10.1835
▁paperwork	-10.1835
▁traitor	-10.1835
▁fetch	-10.1835
▁sixsmith	-10.1835
▁possession	-10.1835
▁fbi	-10.1836
▁bread	-10.1836
▁leigh	-10.1836
▁yup	-10.1837
▁cmon	-10.1838
▁penis	-10.1838
▁peterson	-10.1838
▁puffy	-10.184
▁bugger	-10.1842
▁wiii	-10.1842
▁rear	-10.1843
▁chances	-10.1843
▁cage	-10.1844
▁songs	-10.1846
▁squeaking	-10.1846
▁brandi	-10.1847
▁slide	-10.1848
▁assure	-10.185
▁france	-10.1852
▁stairs	-10.1854
▁wounded	-10.1855
▁coat	-10.1858
▁sighing	-10.1863
▁served	-10.1864
▁earned	-10.1869
▁punish	-10.1873
cy	-10.1885
▁hunting	-10.1887
▁deeper	-10.1888
▁loaded	-10.189
▁crashed	-10.1892
▁drives	-10.1895
▁destroyed	-10.1896
▁considered	-10.1916
▁bitches	-10.192
uck	-10.1924
ck	-10.1924
▁po	-10.1962
▁au	-10.1963
▁cats	-10.1967
▁marking	-10.1985
▁kicked	-10.1985
▁sha	-10.1985
ide	-10.1992
▁fishing	-10.1995
▁shouts	-10.2008
▁lover	-10.2011
▁frankie	-10.2025
▁girlfriends	-10.203
▁pounds	-10.2044
bi	-10.2049
▁comm	-10.2071
ning	-10.2089
▁matthews	-10.211
▁breathes	-10.2117
▁members	-10.2123
▁breaks	-10.2132
▁eggs	-10.2136
▁tap	-10.2153
▁strangers	-10.2155
ong	-10.2198
▁sins	-10.2202
▁sport	-10.2202
▁flag	-10.2204
▁nut	-10.2207
▁millions	-10.2211
▁seq	-10.2236
▁tire	-10.2237
▁session	-10.2241
▁electronic	-10.2241
▁lesson	-10.2256
hand	-10.2275
▁sa	-10.2278
ot	-10.2279
▁driver	-10.23
▁slip	-10.2316
▁lo	-10.2319
▁pipe	-10.232
▁prisoner	-10.2329
leg	-10.233
▁notes	-10.2331
▁del	-10.2342
▁flash	-10.2343
ring	-10.2349
▁india	-10.236
▁chickens	-10.236
▁moves	-10.2365
▁bo	-10.2367
▁wo	-10.237
▁che	-10.2376
▁approach	-10.2376
▁smash	-10.2378
▁fighter	-10.2403
▁facts	-10.2407
▁attempt	-10.2426
▁confess	-10.2426
▁confirm	-10.2427
lacking	-10.2436
▁ignore	-10.2438
▁dust	-10.2444
▁webb	-10.2446
▁produce	-10.2446
▁refuse	-10.2449
▁inter	-10.245
▁moments	-10.2458
▁bush	-10.2459
▁transfer	-10.2459
▁arcamax	-10.2459
▁broadcast	-10.2459
▁coakley	-10.2459
▁declan	-10.2459
▁fifteen	-10.2459
▁harvard	-10.2459
▁instrument	-10.2459
▁insult	-10.2459
▁jeanbaptiste	-10.2459
▁jennifer	-10.2459
▁magua	-10.2459
▁mexican	-10.2459
▁psychopath	-10.2459
▁research	-10.2459
▁response	-10.2459
▁rezendes	-10.2459
▁soccer	-10.2459
▁thursday	-10.2459
▁unexpected	-10.2459
▁vietnam	-10.2459
▁wrist	-10.2459
▁brakes	-10.2459
▁clinic	-10.2459
▁miracle	-10.246
▁oak	-10.246
▁telephone	-10.246
▁oracle	-10.246
▁museum	-10.246
▁recall	-10.246
▁yonas	-10.246
▁empire	-10.246
▁pillow	-10.246
▁loyalty	-10.246
▁medicine	-10.246
▁pride	-10.246
▁unbelievable	-10.246
▁ordinary	-10.246
▁poetry	-10.246
▁fruit	-10.246
▁editor	-10.246
▁jax	-10.246
▁resident	-10.2461
▁jew	-10.2461
▁incident	-10.2461
▁toto	-10.2461
▁jury	-10.2461
▁medication	-10.2461
▁foolish	-10.2461
▁unlike	-10.2462
hala	-10.2462
▁russian	-10.2462
▁minor	-10.2462
▁raiden	-10.2462
▁began	-10.2462
▁tallis	-10.2462
▁ease	-10.2463
▁coach	-10.2463
▁bertie	-10.2463
▁rape	-10.2463
▁commitment	-10.2463
▁stood	-10.2463
▁chew	-10.2464
▁homework	-10.2464
▁china	-10.2464
▁button	-10.2466
▁christine	-10.2467
▁tucker	-10.2467
▁crimes	-10.2467
▁electric	-10.2471
▁clattering	-10.2472
▁lapd	-10.2472
▁healy	-10.2473
▁copies	-10.2473
▁creepy	-10.2474
▁bass	-10.2474
▁spider	-10.2476
▁becker	-10.2477
▁disappointed	-10.2479
▁fourth	-10.2481
▁butter	-10.2481
▁germany	-10.2483
▁wi	-10.2487
▁app	-10.2488
▁barn	-10.249
▁passes	-10.2494
▁growls	-10.2504
▁lower	-10.2505
▁thousands	-10.2507
▁driven	-10.2513
▁anne	-10.2517
life	-10.2518
▁warn	-10.252
▁mayor	-10.2521
▁towels	-10.2561
what	-10.2568
▁leads	-10.258
▁jumped	-10.258
▁documents	-10.2589
▁offered	-10.2589
▁messed	-10.2589
▁deer	-10.2592
▁kings	-10.2592
ou	-10.2593
▁praying	-10.2594
back	-10.26
val	-10.2608
▁fades	-10.2616
▁recording	-10.2626
▁husbands	-10.2629
off	-10.2632
▁peoples	-10.2646
▁reported	-10.2648
▁kicking	-10.2684
▁rot	-10.2691
▁machines	-10.2697
▁rolling	-10.2701
oise	-10.2702
ane	-10.2709
▁americans	-10.2725
my	-10.2728
▁tu	-10.2728
▁bend	-10.2739
▁remove	-10.274
▁voices	-10.2742
ady	-10.2746
j	-10.2747
tr	-10.2748
qu	-10.2749
ris	-10.275
▁oi	-10.2752
▁fu	-10.2758
cu	-10.2796
▁tag	-10.2798
ya	-10.2825
▁log	-10.2832
ism	-10.2837
for	-10.2852
▁fee	-10.2856
▁dial	-10.2864
▁monsters	-10.2866
▁badly	-10.2866
▁blocks	-10.2867
▁wig	-10.2869
▁detail	-10.2887
▁runs	-10.289
▁arrive	-10.2893
▁persons	-10.2898
▁squeeze	-10.2898
▁slave	-10.2902
▁product	-10.2905
▁snake	-10.2907
▁stripper	-10.2909
▁chick	-10.291
▁source	-10.2911
▁standard	-10.2911
▁shadow	-10.2912
her	-10.2914
▁jean	-10.2917
▁non	-10.2918
▁pe	-10.2921
▁beep	-10.2923
▁dom	-10.2925
▁badge	-10.2928
tone	-10.2933
▁spi	-10.2934
▁den	-10.2936
▁rep	-10.2951
ina	-10.2953
▁pigs	-10.2958
▁prayer	-10.2963
ney	-10.2973
▁contracts	-10.2977
ox	-10.2981
▁ra	-10.3002
▁ka	-10.3014
ye	-10.3016
▁crush	-10.3041
▁shock	-10.305
▁cheat	-10.3053
▁cum	-10.3055
▁sweat	-10.3064
fuck	-10.3064
▁sc	-10.307
▁sneak	-10.3077
▁squeal	-10.3081
▁collect	-10.3084
ham	-10.3084
▁creat	-10.3085
▁ad	-10.3088
▁inform	-10.3092
▁direct	-10.3101
▁pitch	-10.3102
▁vote	-10.3102
▁determine	-10.3102
▁spy	-10.3104
ical	-10.3106
ain	-10.3118
▁invite	-10.3118
▁moral	-10.3119
▁waitress	-10.312
▁potato	-10.312
▁under	-10.3122
▁senior	-10.3124
▁abbey	-10.3126
▁bollocks	-10.3126
▁catholic	-10.3126
▁custody	-10.3126
▁donkey	-10.3126
▁garabedian	-10.3126
▁insects	-10.3126
▁intelligence	-10.3126
▁miserable	-10.3126
▁paranoid	-10.3126
▁penalty	-10.3126
▁saviano	-10.3126
▁sheldon	-10.3126
▁signature	-10.3126
▁spray	-10.3126
▁suspicious	-10.3126
▁volunteer	-10.3126
▁whimpers	-10.3126
▁argument	-10.3126
▁kingdom	-10.3126
▁woogie	-10.3126
▁worm	-10.3126
▁knowledge	-10.3126
▁trudy	-10.3126
▁technique	-10.3126
▁mysterious	-10.3126
▁aaahhh	-10.3126
▁instance	-10.3126
▁duncan	-10.3126
▁giggling	-10.3126
▁planned	-10.3126
▁eliza	-10.3126
▁squad	-10.3126
▁kmart	-10.3126
▁gavin	-10.3126
▁hoghead	-10.3126
▁curious	-10.3126
▁cried	-10.3127
▁cheque	-10.3127
▁authority	-10.3127
▁spoon	-10.3127
▁sword	-10.3127
▁sensitive	-10.3127
▁wrapped	-10.3127
▁lousy	-10.3127
▁monk	-10.3127
▁ripley	-10.3127
▁legend	-10.3127
▁jimmy	-10.3127
▁gear	-10.3127
▁pizza	-10.3128
▁brent	-10.3128
▁university	-10.3128
▁slit	-10.3129
▁extraordinary	-10.3129
▁iong	-10.3129
▁labor	-10.3129
▁gain	-10.313
▁duh	-10.313
▁agreement	-10.3131
▁duck	-10.3132
▁cameron	-10.3133
▁strain	-10.3133
▁treatment	-10.3136
▁gage	-10.3136
▁ticking	-10.3137
▁mmmm	-10.3138
▁barry	-10.3138
▁express	-10.3138
▁grey	-10.3139
▁applauding	-10.314
▁spell	-10.314
▁spare	-10.3141
▁july	-10.3144
▁mat	-10.3146
▁parish	-10.3147
▁pancakes	-10.3148
▁dearest	-10.3149
▁wise	-10.3151
▁shine	-10.3152
▁sean	-10.3153
▁healthy	-10.3154
▁ti	-10.3156
▁parties	-10.3161
▁exercise	-10.3163
▁horses	-10.3164
▁scaring	-10.3168
▁settled	-10.3171
▁toes	-10.3198
▁studying	-10.32
▁journalist	-10.3201
▁carefully	-10.3217
▁burns	-10.3218
▁crashing	-10.3218
▁whi	-10.3224
▁billion	-10.324
ph	-10.3241
▁recorded	-10.3254
ang	-10.3254
▁barb	-10.3254
ations	-10.3256
cal	-10.3259
▁cameras	-10.3265
▁toys	-10.3265
ble	-10.3265
▁schools	-10.3273
▁neighbors	-10.3279
▁stripes	-10.3282
▁clips	-10.3286
kin	-10.3288
ise	-10.3292
▁pushing	-10.3319
▁kissed	-10.332
▁hits	-10.3328
▁shooter	-10.3332
▁prayers	-10.3346
ard	-10.3356
▁cleaned	-10.3374
▁com	-10.3382
▁tryin	-10.3384
▁eva	-10.3387
oh	-10.3397
▁services	-10.344
▁guts	-10.3443
ile	-10.3454
▁flats	-10.3459
▁swans	-10.3472
▁image	-10.3477
▁bowl	-10.3481
▁artists	-10.3487
▁mc	-10.3487
ways	-10.3495
aw	-10.3514
well	-10.3522
end	-10.3535
▁scar	-10.356
▁photograph	-10.3573
wa	-10.358
▁connect	-10.359
▁shout	-10.3593
▁para	-10.3598
▁dot	-10.3607
▁rabbit	-10.3617
▁appointment	-10.3617
▁unlock	-10.3619
▁passage	-10.3623
▁stake	-10.3625
▁meal	-10.3629
▁material	-10.3629
▁flame	-10.363
▁nightmare	-10.3632
▁vision	-10.3636
▁bond	-10.3637
amo	-10.3654
ette	-10.3661
▁ph	-10.3705
oon	-10.3715
di	-10.3722
mon	-10.373
▁anyways	-10.3738
▁journal	-10.3761
▁panic	-10.3761
▁request	-10.3765
▁reports	-10.3766
▁creep	-10.3778
light	-10.3792
▁rush	-10.3794
thing	-10.3799
ner	-10.38
▁sink	-10.3801
▁compliment	-10.3803
▁trump	-10.3804
▁cancel	-10.3808
▁grant	-10.3813
▁command	-10.3818
ping	-10.3819
▁launch	-10.3825
▁fore	-10.3826
▁faint	-10.3826
▁actual	-10.3828
boy	-10.3838
▁creek	-10.384
▁cuff	-10.384
▁anniversary	-10.384
▁clements	-10.384
▁conscience	-10.384
▁delicious	-10.384
▁dillon	-10.384
▁fabulous	-10.384
▁fantasy	-10.384
▁female	-10.384
▁fridge	-10.384
▁happiness	-10.384
▁homicide	-10.384
▁journey	-10.384
▁katherine	-10.384
▁kazakhstan	-10.384
▁macleish	-10.384
▁measure	-10.384
▁nathaniel	-10.384
▁pacific	-10.384
▁patrizia	-10.384
▁prescription	-10.384
▁promotion	-10.384
▁reckon	-10.384
▁sacha	-10.384
▁shaughnessy	-10.384
▁syndicate	-10.384
▁teldar	-10.384
▁testify	-10.384
▁theater	-10.384
▁unusual	-10.384
▁violin	-10.384
▁embrace	-10.384
▁lazy	-10.384
▁marchino	-10.384
▁coincidence	-10.384
▁crystal	-10.384
▁alien	-10.384
▁nuclear	-10.384
▁harvey	-10.384
▁paradise	-10.384
▁gallery	-10.3841
▁habit	-10.3841
▁agency	-10.3841
▁random	-10.3841
▁accent	-10.3841
▁whitney	-10.3841
▁titties	-10.3841
▁false	-10.3841
▁cocktail	-10.3841
▁turkey	-10.3841
▁generous	-10.3841
▁cruel	-10.3841
▁charity	-10.3841
▁duke	-10.3841
▁lottery	-10.3841
▁political	-10.3841
▁retail	-10.3841
▁soap	-10.3841
▁heels	-10.3841
▁oleg	-10.3841
▁arrival	-10.3841
▁mitch	-10.3841
▁families	-10.3842
▁creative	-10.3842
▁june	-10.3842
▁zone	-10.3842
▁approximately	-10.3842
▁section	-10.3842
▁moron	-10.3842
▁darian	-10.3842
▁starving	-10.3843
▁package	-10.3843
▁after	-10.3843
▁lucy	-10.3844
▁worship	-10.3844
▁dna	-10.3844
▁shelley	-10.3844
▁punk	-10.3844
▁condor	-10.3845
▁drain	-10.3845
▁accountant	-10.3846
▁secretary	-10.3846
▁bee	-10.3846
▁soup	-10.3846
▁technically	-10.3846
▁ranch	-10.3847
▁sniper	-10.3849
▁wide	-10.385
▁iet	-10.3851
▁spoken	-10.3852
▁intention	-10.3853
▁emma	-10.3855
▁growling	-10.3855
▁visitor	-10.3856
▁momma	-10.3858
▁reasonable	-10.3859
ably	-10.3859
▁advised	-10.3861
▁sixth	-10.3863
▁when	-10.3864
▁tools	-10.3864
▁sharply	-10.3866
▁naturally	-10.387
▁manual	-10.3871
▁connected	-10.3873
▁manny	-10.3877
▁whoot	-10.3877
▁breaths	-10.388
▁noises	-10.3884
▁deserves	-10.3884
▁horny	-10.3885
▁cheating	-10.3888
▁yorkin	-10.3892
over	-10.3894
▁accounts	-10.3898
▁louder	-10.3903
au	-10.3908
▁fae	-10.3911
▁resumes	-10.3927
▁plug	-10.3931
▁deserved	-10.3933
▁skills	-10.3944
▁marks	-10.3963
▁ricky	-10.3964
▁painful	-10.3965
▁makeup	-10.3973
ung	-10.3991
▁enjoyed	-10.3994
▁returned	-10.4009
▁melt	-10.4012
▁construct	-10.4018
▁su	-10.4027
▁shorts	-10.4041
▁jo	-10.4044
▁ac	-10.4049
▁nightmares	-10.4053
so	-10.406
use	-10.4065
▁tend	-10.4066
▁holes	-10.4074
▁musical	-10.4095
▁ge	-10.4097
▁cla	-10.4101
bag	-10.4131
▁birt	-10.4135
▁throwing	-10.4141
▁yards	-10.4181
be	-10.4195
▁tan	-10.42
▁cleaning	-10.4214
ell	-10.4221
▁messages	-10.4244
▁cleared	-10.4247
▁trusted	-10.4285
hole	-10.4312
▁reminds	-10.4312
▁min	-10.4314
▁orleans	-10.4326
▁contain	-10.4354
ov	-10.437
▁scare	-10.4386
▁object	-10.4386
▁cowboy	-10.4387
▁abortion	-10.4388
▁andrew	-10.4392
▁motorcycle	-10.4394
▁season	-10.4395
▁cocks	-10.4395
▁generation	-10.4395
▁design	-10.441
▁term	-10.441
▁drawer	-10.4424
▁units	-10.4439
pped	-10.4451
▁reg	-10.4455
▁jon	-10.4476
▁hahaha	-10.4484
▁defend	-10.4487
while	-10.4487
▁heal	-10.4492
▁trees	-10.4523
▁poison	-10.4529
▁tanner	-10.4558
▁nail	-10.4558
▁represent	-10.4559
▁shoe	-10.456
▁discover	-10.4562
▁scratch	-10.4564
▁que	-10.4584
▁realise	-10.4596
▁puss	-10.4596
▁physical	-10.4598
▁trace	-10.4599
▁madam	-10.4601
▁weigh	-10.4602
▁sittin	-10.4606
reak	-10.4608
▁exhibit	-10.4608
▁aid	-10.4608
▁afterwards	-10.461
▁appropriate	-10.461
▁argue	-10.461
▁clucking	-10.461
▁corridor	-10.461
▁council	-10.461
▁erika	-10.461
▁explanation	-10.461
▁fizel	-10.461
▁grief	-10.461
▁grimsby	-10.461
▁library	-10.461
▁lutz	-10.461
▁lynn	-10.461
▁peopie	-10.461
▁podcast	-10.461
▁protocol	-10.461
▁sahar	-10.461
▁shouid	-10.461
▁spartan	-10.461
▁struggle	-10.461
▁temporary	-10.461
▁tragedy	-10.461
▁underwear	-10.461
▁universe	-10.461
▁vetlesen	-10.461
▁violence	-10.461
▁wednesday	-10.461
▁alleged	-10.461
▁elvis	-10.461
▁lorna	-10.461
▁serving	-10.461
▁stabbed	-10.461
▁thief	-10.461
▁restrain	-10.461
▁capture	-10.461
▁commission	-10.461
▁carpet	-10.461
▁anacott	-10.461
▁breast	-10.461
▁brutal	-10.461
▁database	-10.461
▁theory	-10.461
▁infirmary	-10.461
▁lobster	-10.461
▁financial	-10.461
▁surgery	-10.461
▁allison	-10.461
▁gook	-10.461
▁duties	-10.461
▁oscar	-10.461
▁panties	-10.461
▁haunt	-10.461
▁password	-10.461
▁tiger	-10.461
▁rustling	-10.461
▁lisa	-10.461
▁exclusive	-10.461
▁terribly	-10.461
▁unconscious	-10.461
▁brian	-10.461
▁organization	-10.461
▁advantage	-10.4611
▁belief	-10.4611
▁infected	-10.4611
▁whatre	-10.4611
▁dunno	-10.4611
▁chapter	-10.4611
▁typing	-10.4611
▁individual	-10.4611
▁jonas	-10.4611
▁childhood	-10.4611
▁bail	-10.4611
▁shotgun	-10.4611
▁education	-10.4611
▁facility	-10.4612
▁dishes	-10.4612
▁skull	-10.4612
▁lionel	-10.4612
▁bride	-10.4612
▁agh	-10.4613
▁jaw	-10.4613
▁fuel	-10.4613
▁castle	-10.4613
▁inches	-10.4613
▁judgment	-10.4614
▁investment	-10.4614
▁effective	-10.4614
▁chord	-10.4614
▁solo	-10.4615
▁arse	-10.4615
▁pile	-10.4616
▁powers	-10.4616
▁clearance	-10.4616
▁potatoes	-10.4616
▁todd	-10.4616
▁weakness	-10.4617
▁lawyers	-10.4617
▁management	-10.4617
▁rene	-10.4617
▁rice	-10.4618
▁host	-10.4618
▁entry	-10.4618
▁ross	-10.4621
▁factory	-10.4624
▁convinced	-10.4626
▁fallen	-10.4626
▁frightened	-10.4626
▁robbed	-10.4626
▁fuckedup	-10.4626
▁adopted	-10.4629
▁setting	-10.4629
▁deny	-10.4631
▁roaring	-10.4633
▁dings	-10.4633
▁andie	-10.4634
post	-10.4636
▁cave	-10.4637
▁becom	-10.4638
▁designed	-10.4641
▁mid	-10.4642
▁eaten	-10.4643
▁granted	-10.4644
▁useless	-10.4645
▁cheated	-10.4647
▁confessed	-10.4649
▁coin	-10.4649
▁carson	-10.4649
▁liz	-10.465
▁ate	-10.4658
▁judy	-10.4659
▁hunter	-10.466
▁lao	-10.4663
▁meantime	-10.4664
▁sw	-10.4665
▁introduced	-10.4667
▁ruined	-10.4669
▁busted	-10.4679
▁normally	-10.468
▁clatters	-10.4686
mb	-10.469
▁belly	-10.4691
▁woo	-10.47
▁sum	-10.4702
▁bam	-10.4712
▁tit	-10.4713
▁spa	-10.4714
ka	-10.4715
▁filled	-10.472
▁films	-10.4728
▁mayo	-10.4731
▁umm	-10.4733
▁heroin	-10.4743
ative	-10.4761
▁waited	-10.477
▁successful	-10.4776
▁mountains	-10.4788
▁protected	-10.479
▁fart	-10.4798
▁painter	-10.48
pi	-10.4802
▁champions	-10.4806
ki	-10.4821
▁baron	-10.4824
▁counting	-10.4832
▁mer	-10.4841
▁meaning	-10.4842
▁est	-10.4847
▁bio	-10.4849
ay	-10.4883
▁receive	-10.4885
▁appears	-10.491
res	-10.4933
▁imprint	-10.4976
▁tale	-10.4979
rus	-10.4989
ps	-10.4989
ight	-10.5014
▁chop	-10.5049
▁gal	-10.5076
▁remains	-10.5086
▁ji	-10.5108
ttle	-10.5111
▁clap	-10.5132
▁pl	-10.5134
▁site	-10.5147
gar	-10.5152
▁fre	-10.5157
▁sup	-10.5176
▁touching	-10.5179
ap	-10.5181
▁gunshots	-10.519
bb	-10.5199
ig	-10.52
▁anti	-10.5212
▁cultur	-10.5218
▁stammer	-10.522
▁studie	-10.5224
▁monkey	-10.5225
▁owner	-10.5226
▁newspaper	-10.5232
▁rumor	-10.5234
▁champion	-10.5235
▁direction	-10.5235
▁string	-10.5237
▁cow	-10.5238
▁folk	-10.524
▁option	-10.524
▁virgin	-10.5244
▁fade	-10.5248
▁for	-10.526
▁skip	-10.5261
ming	-10.5273
▁depend	-10.5277
▁mel	-10.5278
▁z	-10.528
▁hills	-10.5292
ik	-10.5307
▁drawing	-10.5327
▁guests	-10.5333
▁stat	-10.535
▁pleased	-10.5359
▁interrupt	-10.5359
nc	-10.536
▁leak	-10.5361
▁drown	-10.5369
▁types	-10.5369
that	-10.5373
omber	-10.539
▁noon	-10.5393
▁hum	-10.5394
▁shush	-10.5399
▁weep	-10.5399
▁banks	-10.54
▁echo	-10.5401
▁stress	-10.5403
▁ambush	-10.5409
▁iook	-10.541
▁grind	-10.5412
▁mac	-10.5412
▁bunk	-10.5413
▁bark	-10.5415
▁twist	-10.5416
▁ton	-10.5416
ball	-10.5416
▁advise	-10.5419
wood	-10.5426
▁recent	-10.543
▁tech	-10.5432
▁earl	-10.5438
▁gre	-10.544
▁couid	-10.5442
▁yank	-10.5443
▁allegations	-10.5443
▁attitude	-10.5443
▁audition	-10.5443
▁bacon	-10.5443
▁barclay	-10.5443
▁baylor	-10.5443
▁bronson	-10.5443
▁clown	-10.5443
▁district	-10.5443
▁essential	-10.5443
▁exclaims	-10.5443
▁favourite	-10.5443
▁ferguson	-10.5443
▁filip	-10.5443
▁greece	-10.5443
▁halsey	-10.5443
▁holiday	-10.5443
▁kendall	-10.5443
▁litvenko	-10.5443
▁muscle	-10.5443
▁nonsense	-10.5443
▁patience	-10.5443
▁platform	-10.5443
▁prophet	-10.5443
▁scissors	-10.5443
▁select	-10.5443
▁structure	-10.5443
▁testimony	-10.5443
▁underneath	-10.5443
▁vocalizing	-10.5443
▁assaad	-10.5443
▁cliff	-10.5443
▁distort	-10.5443
▁niece	-10.5443
▁scandal	-10.5443
▁calder	-10.5443
▁equipment	-10.5443
▁mathias	-10.5443
▁luke	-10.5443
▁begging	-10.5443
▁stewart	-10.5443
▁authorities	-10.5443
▁harold	-10.5443
▁unique	-10.5443
▁clank	-10.5443
▁briefcase	-10.5443
▁solara	-10.5443
▁struck	-10.5443
▁hubba	-10.5443
▁chinese	-10.5443
▁reaiiy	-10.5443
▁wives	-10.5443
▁parole	-10.5443
▁foster	-10.5443
▁anytime	-10.5443
▁cyrus	-10.5443
▁grandfather	-10.5443
▁surgeon	-10.5443
▁ollie	-10.5443
▁flashlight	-10.5443
▁huron	-10.5443
▁steam	-10.5443
▁impressive	-10.5443
▁saint	-10.5444
▁envelope	-10.5444
▁reception	-10.5444
▁swimming	-10.5444
▁pattern	-10.5444
▁technology	-10.5444
▁typical	-10.5444
▁northcott	-10.5444
▁mouse	-10.5444
▁monet	-10.5444
▁bruno	-10.5444
▁titty	-10.5445
▁seattle	-10.5445
▁bonus	-10.5445
▁popping	-10.5445
▁fork	-10.5445
▁igby	-10.5445
▁blah	-10.5445
▁taxes	-10.5445
▁arrangement	-10.5446
▁supply	-10.5446
▁treasure	-10.5446
▁blast	-10.5446
▁burst	-10.5446
▁santa	-10.5446
▁tsk	-10.5446
▁expression	-10.5446
▁analyst	-10.5447
▁identified	-10.5447
▁stream	-10.5447
▁supper	-10.5448
▁suggestion	-10.5448
▁dull	-10.5449
▁pub	-10.545
▁tres	-10.545
▁embarrassed	-10.545
▁retainer	-10.545
▁eve	-10.545
▁temper	-10.545
▁century	-10.5451
▁sway	-10.5451
▁discussion	-10.5451
▁hopefully	-10.5451
▁convention	-10.5451
▁sandwiches	-10.5452
▁mil	-10.5452
▁mob	-10.5452
▁embarrassing	-10.5453
▁baked	-10.5453
▁mi	-10.5453
▁kiddo	-10.5454
▁abandoned	-10.5455
▁sato	-10.5456
▁stigman	-10.5456
▁greed	-10.5457
▁brains	-10.5459
▁faintly	-10.546
▁lola	-10.546
▁spin	-10.546
▁directly	-10.5461
▁thee	-10.5461
▁residence	-10.5461
▁molest	-10.5462
▁cutting	-10.5463
▁witnesses	-10.5465
handed	-10.5467
▁stopping	-10.5467
▁clas	-10.5469
▁particularly	-10.5469
▁vend	-10.5472
▁shithole	-10.5476
▁separated	-10.5485
▁kisses	-10.5488
▁released	-10.5492
▁hump	-10.5495
▁title	-10.5498
▁concentrate	-10.5502
▁fingerprints	-10.5508
▁survived	-10.5508
▁hooker	-10.5509
▁forest	-10.551
▁tub	-10.5513
▁dumped	-10.5516
▁timing	-10.5522
▁delivered	-10.5522
▁moans	-10.5527
▁emotions	-10.5529
▁fairy	-10.5531
▁hen	-10.5548
ron	-10.5551
▁knocked	-10.5555
▁hor	-10.5555
fa	-10.5564
▁covers	-10.5566
▁falls	-10.5572
▁booge	-10.5575
▁prayed	-10.5575
▁ga	-10.5588
▁heavens	-10.5588
▁am	-10.5591
▁waves	-10.56
▁fashion	-10.5607
▁scientists	-10.5619
▁joined	-10.562
ut	-10.5621
▁minds	-10.5651
▁wink	-10.5655
▁bug	-10.5657
▁points	-10.5661
▁testing	-10.5678
▁enjoying	-10.5697
▁highly	-10.5699
▁dai	-10.5723
▁lit	-10.5726
▁pipes	-10.5729
▁sports	-10.5735
ju	-10.5743
▁joints	-10.5756
▁shares	-10.5774
▁sch	-10.5801
▁wins	-10.5804
▁affairs	-10.5808
▁chains	-10.5828
▁dreaming	-10.5831
▁tw	-10.5838
ast	-10.5848
cho	-10.5852
▁speakers	-10.586
▁col	-10.587
▁becomes	-10.5893
fi	-10.5905
▁phones	-10.593
▁abs	-10.5934
▁hoped	-10.5947
ga	-10.5957
ied	-10.5957
▁cigarettes	-10.5961
▁ghosts	-10.5961
▁secrets	-10.5965
▁drum	-10.5997
ker	-10.6037
▁acts	-10.604
▁sigh	-10.6063
▁mas	-10.6076
▁handed	-10.6076
▁bla	-10.6094
▁os	-10.6113
▁wound	-10.6115
▁her	-10.6116
▁spirits	-10.6117
▁uniform	-10.6129
▁myth	-10.613
▁fans	-10.613
▁zombie	-10.6133
▁brick	-10.6135
▁shark	-10.6137
▁mountain	-10.6144
▁neighbor	-10.6144
▁parent	-10.6152
▁thud	-10.6153
com	-10.6161
▁damned	-10.6164
ious	-10.617
▁stays	-10.6185
▁stink	-10.6185
▁dancer	-10.6191
▁childs	-10.6194
▁begins	-10.6215
ug	-10.6235
▁inc	-10.6241
▁kiii	-10.6247
ments	-10.6271
▁complain	-10.6278
▁port	-10.6282
range	-10.6303
▁glow	-10.6307
▁bargain	-10.6307
▁rate	-10.6315
▁resist	-10.6316
▁uhuh	-10.6323
▁charm	-10.6325
▁plea	-10.6325
▁apply	-10.6326
▁jam	-10.6326
book	-10.6328
▁mommys	-10.633
field	-10.6332
▁howl	-10.6334
▁chuck	-10.6335
like	-10.6337
▁fianc	-10.6338
▁numb	-10.6338
reader	-10.6341
▁fift	-10.6341
pot	-10.6343
vin	-10.6345
▁sara	-10.6347
▁harm	-10.6347
▁tradition	-10.6348
▁mimi	-10.6348
▁desi	-10.6349
▁corrupt	-10.6349
▁occasion	-10.6351
▁hollis	-10.6351
▁architect	-10.6351
ologist	-10.6352
▁bachelor	-10.6352
▁commercial	-10.6352
▁eleven	-10.6352
▁remote	-10.6352
▁strict	-10.6352
▁abbess	-10.6352
▁beloved	-10.6352
▁bleep	-10.6352
▁butcher	-10.6352
▁caitlyn	-10.6352
▁campaign	-10.6352
▁cavendish	-10.6352
▁central	-10.6352
▁ceremony	-10.6352
▁chowdhury	-10.6352
▁cincinnati	-10.6352
▁clamoring	-10.6352
▁clerk	-10.6352
▁communicate	-10.6352
▁congress	-10.6352
▁consulate	-10.6352
▁crisis	-10.6352
▁damien	-10.6352
▁darien	-10.6352
▁dignity	-10.6352
▁etienne	-10.6352
▁exchange	-10.6352
▁firephina	-10.6352
▁frobisher	-10.6352
▁goddammit	-10.6352
▁guitar	-10.6352
▁helmet	-10.6352
▁karras	-10.6352
▁kungfu	-10.6352
▁length	-10.6352
▁marzzone	-10.6352
▁missouri	-10.6352
▁mohawk	-10.6352
▁munro	-10.6352
▁mystery	-10.6352
▁naughty	-10.6352
▁obsessed	-10.6352
▁pamela	-10.6352
▁proposal	-10.6352
▁racist	-10.6352
▁satellite	-10.6352
▁sharla	-10.6352
▁stegman	-10.6352
▁stiff	-10.6352
▁studio	-10.6352
▁violation	-10.6352
▁walenski	-10.6352
▁connie	-10.6352
▁euros	-10.6352
▁inmate	-10.6352
▁knives	-10.6352
▁profit	-10.6352
▁pickett	-10.6352
▁aspro	-10.6352
▁clink	-10.6352
▁convict	-10.6352
▁magnificent	-10.6352
▁ultimate	-10.6352
▁buddies	-10.6352
▁molly	-10.6352
▁brodie	-10.6352
▁modal	-10.6352
▁someplace	-10.6352
▁anderson	-10.6352
▁neighbourhood	-10.6352
▁aisle	-10.6352
▁digging	-10.6352
▁basis	-10.6352
▁quincy	-10.6352
▁scholarship	-10.6352
▁ahem	-10.6352
▁wasting	-10.6352
▁rahil	-10.6352
▁jessica	-10.6352
▁plague	-10.6352
▁debbie	-10.6352
▁droning	-10.6352
▁relative	-10.6352
▁feast	-10.6352
▁noelle	-10.6352
▁whys	-10.6352
▁solid	-10.6352
▁magda	-10.6352
▁chasing	-10.6352
▁concept	-10.6352
▁delay	-10.6353
▁francisco	-10.6353
▁ruddy	-10.6353
▁prosecution	-10.6353
▁carved	-10.6353
▁inaudible	-10.6353
▁falk	-10.6353
▁stiii	-10.6353
▁rafto	-10.6353
▁barrel	-10.6353
▁prosecutor	-10.6353
▁bingo	-10.6353
▁concert	-10.6353
▁furniture	-10.6353
▁rakel	-10.6353
▁maniac	-10.6353
▁reflection	-10.6353
▁massive	-10.6353
▁jeff	-10.6354
▁danny	-10.6354
▁meg	-10.6354
▁kung	-10.6354
▁megan	-10.6354
▁sheriffs	-10.6354
▁batteries	-10.6354
▁tur	-10.6354
▁selfish	-10.6354
▁colors	-10.6354
▁chatting	-10.6354
▁lemon	-10.6354
▁lime	-10.6354
▁task	-10.6354
▁loop	-10.6354
▁announcement	-10.6355
▁condo	-10.6355
▁wore	-10.6355
▁broad	-10.6355
▁production	-10.6356
▁redwood	-10.6356
▁floorboard	-10.6356
▁thang	-10.6356
▁territory	-10.6356
▁ashes	-10.6356
▁upper	-10.6357
▁headache	-10.6357
▁greve	-10.6357
▁profile	-10.6358
▁negative	-10.6358
▁q	-10.6358
▁through	-10.6359
▁sync	-10.6359
▁pole	-10.636
▁clapping	-10.6361
▁ru	-10.6362
▁personality	-10.6363
▁goldman	-10.6363
▁cee	-10.6364
▁junk	-10.6364
drew	-10.6365
▁humanity	-10.6366
▁annoying	-10.6367
▁fe	-10.6369
▁threatened	-10.6369
▁lame	-10.637
▁bolt	-10.6371
che	-10.6372
▁required	-10.6374
▁threatening	-10.6375
▁backyard	-10.6376
▁unh	-10.6377
▁regarding	-10.638
▁instructions	-10.6383
▁handcuffs	-10.6383
▁mankind	-10.6384
▁drowned	-10.6387
▁dieter	-10.6389
▁actor	-10.6389
▁blown	-10.6395
▁delivery	-10.6398
▁scotty	-10.6401
▁gathered	-10.6402
▁divorced	-10.6403
▁gloves	-10.6403
▁requesting	-10.6409
▁she	-10.6412
▁impressed	-10.6414
▁flu	-10.6423
▁condoms	-10.6423
▁balance	-10.6425
vo	-10.6426
tt	-10.6428
▁ham	-10.6429
tu	-10.6437
▁bare	-10.644
▁easter	-10.6444
▁surely	-10.6446
▁wayne	-10.645
uk	-10.6459
rn	-10.6462
▁lads	-10.6464
▁tops	-10.6475
▁tourists	-10.6485
▁roars	-10.6485
we	-10.6488
▁vice	-10.6488
▁tr	-10.6493
▁sift	-10.6495
▁cocking	-10.6501
▁fuckers	-10.6502
▁rippers	-10.6505
▁requires	-10.6506
▁filed	-10.6506
▁reads	-10.6506
▁wally	-10.6514
▁rey	-10.6524
▁wings	-10.6526
▁uns	-10.6529
rr	-10.6542
▁tracking	-10.6545
▁laws	-10.6547
▁riding	-10.6548
ns	-10.6551
▁reaching	-10.6554
▁cuts	-10.6555
▁farmer	-10.6562
▁mont	-10.6578
▁rumors	-10.6588
ates	-10.6595
▁leading	-10.6598
▁od	-10.66
▁ram	-10.6616
fall	-10.6621
▁joining	-10.6623
▁visions	-10.6629
arve	-10.6631
ny	-10.6637
▁bl	-10.6639
▁locks	-10.6645
ign	-10.6652
▁dreamed	-10.6657
▁claims	-10.6689
▁beth	-10.6691
▁miz	-10.6695
▁pi	-10.6704
▁degrees	-10.6712
▁idiots	-10.6719
▁il	-10.6721
▁sca	-10.6728
▁epi	-10.6733
▁stripe	-10.6747
ids	-10.6757
▁meetings	-10.6761
▁scan	-10.6768
▁der	-10.6783
lapping	-10.6787
ava	-10.6796
fully	-10.6797
▁sas	-10.6798
▁roman	-10.68
▁sticks	-10.6808
▁io	-10.6828
▁par	-10.6831
▁deadly	-10.6865
ue	-10.6875
oca	-10.6887
▁hundreds	-10.689
▁sis	-10.6923
▁sonmi	-10.6942
ern	-10.6944
▁whip	-10.6956
▁aj	-10.6969
▁bars	-10.6971
▁bombs	-10.6971
▁kicks	-10.6972
dia	-10.701
▁gates	-10.7011
▁ni	-10.7026
▁officials	-10.7027
▁mortal	-10.7047
▁chip	-10.7047
pin	-10.7047
▁mon	-10.7064
▁we	-10.707
mer	-10.708
▁demand	-10.709
▁limit	-10.7102
▁roses	-10.7117
jo	-10.713
▁nerve	-10.7135
▁employee	-10.7136
▁poem	-10.7142
▁scientist	-10.7143
▁document	-10.7146
▁chuckle	-10.7154
▁flower	-10.7161
▁nasa	-10.7164
face	-10.7168
▁toy	-10.7174
▁rooms	-10.7182
▁murders	-10.7194
▁hop	-10.7196
▁inn	-10.7197
▁manner	-10.7201
▁chil	-10.7212
▁partners	-10.7226
▁amo	-10.7228
op	-10.7248
▁mud	-10.7259
▁disappoint	-10.7271
fore	-10.7291
▁indian	-10.73
▁sweep	-10.7305
▁snarl	-10.7308
▁chart	-10.7308
▁brand	-10.7311
▁spill	-10.7313
▁beck	-10.7316
▁drill	-10.7316
▁franc	-10.7318
▁establish	-10.732
▁trail	-10.7322
▁sur	-10.7327
▁describe	-10.7328
right	-10.7334
called	-10.7335
town	-10.7335
▁eternal	-10.7337
▁cu	-10.7338
▁boil	-10.7338
▁incredibl	-10.734
ten	-10.7343
▁pas	-10.7345
▁addict	-10.7347
▁usa	-10.7349
▁unto	-10.735
▁consult	-10.7351
▁detect	-10.7351
▁alcohol	-10.7351
▁philip	-10.7352
▁pump	-10.7352
▁casual	-10.7352
▁academy	-10.7352
▁assignment	-10.7352
▁auction	-10.7352
▁average	-10.7352
▁awkward	-10.7352
▁brooklyn	-10.7352
▁candidate	-10.7352
▁capuano	-10.7352
▁clemens	-10.7352
▁clich	-10.7352
▁companies	-10.7352
▁deflect	-10.7352
▁description	-10.7352
▁eagle	-10.7352
▁election	-10.7352
▁elliott	-10.7352
▁eurostream	-10.7352
▁exploding	-10.7352
▁greek	-10.7352
▁hawaii	-10.7352
▁infection	-10.7352
▁jersey	-10.7352
▁katharine	-10.7352
▁leila	-10.7352
▁magnus	-10.7352
▁minimum	-10.7352
▁morahan	-10.7352
▁nigga	-10.7352
▁pierrot	-10.7352
▁politics	-10.7352
▁purchase	-10.7352
▁razor	-10.7352
▁resources	-10.7352
▁ronnie	-10.7352
▁salvation	-10.7352
▁scatter	-10.7352
▁slaughter	-10.7352
▁surrender	-10.7352
▁tiffany	-10.7352
▁tobin	-10.7352
▁tragic	-10.7352
▁transmission	-10.7352
▁warrior	-10.7352
▁wheezing	-10.7352
▁airplane	-10.7352
▁erwin	-10.7352
▁faggot	-10.7352
▁avery	-10.7352
▁bowden	-10.7352
▁cruces	-10.7352
▁dennis	-10.7352
▁haji	-10.7352
▁glory	-10.7352
▁isolat	-10.7352
▁wallace	-10.7352
▁sylvia	-10.7352
▁autopsy	-10.7352
▁britney	-10.7352
▁capital	-10.7352
▁thick	-10.7352
▁modern	-10.7352
▁freezing	-10.7352
▁gerry	-10.7352
▁refrigerator	-10.7352
▁overmeyer	-10.7352
▁evaluation	-10.7352
▁babysitter	-10.7352
▁steady	-10.7352
▁scotch	-10.7352
▁series	-10.7352
▁connor	-10.7352
▁league	-10.7352
▁assistance	-10.7353
▁sarnt	-10.7353
▁couch	-10.7353
▁chorus	-10.7353
▁caf	-10.7353
▁knight	-10.7353
▁francoise	-10.7353
▁tess	-10.7353
▁daffy	-10.7353
▁bergen	-10.7353
▁broadway	-10.7353
▁abide	-10.7353
▁appearance	-10.7353
▁invitation	-10.7353
▁limo	-10.7353
▁network	-10.7353
▁fabi	-10.7353
▁ripping	-10.7353
▁tshirt	-10.7353
▁stanley	-10.7353
▁assigned	-10.7353
▁rotten	-10.7353
▁classified	-10.7354
▁admiral	-10.7354
▁noah	-10.7354
▁seb	-10.7354
▁michelle	-10.7354
▁conley	-10.7354
▁dragged	-10.7355
▁marvel	-10.7355
▁upside	-10.7355
▁rec	-10.7355
▁acid	-10.7355
▁deputy	-10.7355
▁disappointment	-10.7355
▁nearby	-10.7356
▁wagon	-10.7356
▁soil	-10.7356
▁stalker	-10.7356
▁cooper	-10.7356
▁grandpa	-10.7356
▁bait	-10.7357
▁role	-10.7357
▁slight	-10.7357
▁courthouse	-10.7357
▁ridge	-10.7357
▁extend	-10.7357
▁erase	-10.7357
▁firefall	-10.7358
▁danielle	-10.7358
▁booth	-10.7358
▁sandman	-10.7358
ute	-10.7359
▁bitten	-10.7359
▁allen	-10.7359
▁mason	-10.7359
▁toss	-10.736
▁filthy	-10.736
▁pork	-10.736
▁raid	-10.7361
▁shave	-10.7361
▁marshall	-10.7362
▁barrett	-10.7364
▁wildman	-10.7364
▁chairman	-10.7364
▁aka	-10.7364
▁breed	-10.7365
▁battery	-10.7365
▁faithful	-10.7366
▁entertainer	-10.7366
▁crank	-10.7367
▁friendship	-10.7367
▁deck	-10.7369
▁whooping	-10.737
▁jen	-10.7371
▁dc	-10.7374
▁harris	-10.7376
▁related	-10.7376
▁miller	-10.7377
▁barbie	-10.7377
▁metro	-10.738
▁matches	-10.738
▁kin	-10.7381
▁float	-10.7382
▁disturbing	-10.7383
▁breakup	-10.7383
ito	-10.7383
▁pinky	-10.7384
▁pint	-10.7385
▁grasse	-10.7385
▁consequences	-10.7386
▁highness	-10.7387
▁kiiied	-10.7388
▁burnt	-10.7392
▁bench	-10.7395
▁requested	-10.7397
▁yale	-10.7398
▁rank	-10.7399
▁server	-10.74
▁complaining	-10.7401
▁refused	-10.7406
▁dolphins	-10.7409
▁cursed	-10.741
▁sew	-10.7412
▁nervously	-10.7425
▁entirely	-10.7427
▁ste	-10.7431
▁jock	-10.7433
▁soph	-10.7433
▁dolly	-10.7436
will	-10.7437
▁arch	-10.7437
▁han	-10.7441
ters	-10.7442
▁jar	-10.7444
name	-10.7447
▁citizens	-10.7454
▁slower	-10.7457
vey	-10.7463
▁focused	-10.7465
▁finest	-10.7466
▁straighten	-10.7475
▁passengers	-10.7477
▁youyou	-10.7479
licate	-10.7482
▁realm	-10.7486
▁divers	-10.7491
▁searched	-10.7506
▁helpful	-10.7509
▁pretending	-10.7533
▁workers	-10.7544
room	-10.7545
und	-10.7558
box	-10.7568
▁screwing	-10.7572
▁shown	-10.7573
▁mini	-10.7573
shit	-10.7591
amas	-10.7591
▁geez	-10.7596
▁obs	-10.7596
bar	-10.7597
▁sucking	-10.7606
ada	-10.7607
▁directions	-10.7614
▁newspapers	-10.7614
▁mass	-10.7618
▁diet	-10.7625
ille	-10.763
▁bon	-10.7656
▁teaching	-10.7659
ola	-10.7659
▁materials	-10.766
▁flames	-10.766
▁culture	-10.7681
▁arrives	-10.7685
▁taxi	-10.7691
▁engineer	-10.7697
▁tellin	-10.7701
▁ag	-10.7703
gh	-10.7708
▁handy	-10.7741
▁worlds	-10.7744
nal	-10.776
▁bov	-10.7763
▁prep	-10.7765
▁snaps	-10.7768
▁stands	-10.7771
▁characters	-10.7779
imp	-10.7788
▁seats	-10.7797
▁and	-10.781
▁bur	-10.7815
▁drops	-10.7821
▁the	-10.7824
▁impression	-10.7831
sion	-10.7832
red	-10.7844
▁results	-10.7847
▁shoulders	-10.7848
▁shite	-10.7863
ix	-10.7868
▁tin	-10.7871
▁issues	-10.7871
▁friendly	-10.7872
▁tricks	-10.7886
ont	-10.7889
▁airlines	-10.7894
▁actions	-10.7894
▁answered	-10.7907
▁booked	-10.7923
bs	-10.7948
ima	-10.7964
▁ri	-10.7989
▁psyche	-10.7997
▁gu	-10.7999
▁bun	-10.8017
cks	-10.8035
▁bags	-10.8043
▁waters	-10.8063
▁workin	-10.8074
▁permit	-10.8082
ement	-10.8098
▁waitin	-10.8117
eral	-10.8127
▁targets	-10.8132
▁devils	-10.8156
▁masters	-10.8172
▁cur	-10.8177
▁adams	-10.8185
ose	-10.8194
▁forces	-10.8207
▁teams	-10.8209
▁cough	-10.8214
ber	-10.8216
▁comb	-10.8218
▁whisper	-10.8219
mp	-10.822
▁snack	-10.8248
▁chamber	-10.8249
▁mill	-10.8257
▁boot	-10.8257
▁roads	-10.8262
▁parts	-10.8265
▁rhythm	-10.8269
▁rap	-10.827
▁wave	-10.8298
▁prices	-10.8347
▁comic	-10.8358
▁shack	-10.8362
▁ke	-10.8372
▁respond	-10.8378
▁recover	-10.8381
ward	-10.8385
▁wander	-10.8387
▁rowin	-10.8392
▁tex	-10.8393
▁ron	-10.8396
▁troop	-10.8402
▁sta	-10.8412
▁sn	-10.8414
▁me	-10.8421
▁towns	-10.8423
▁jess	-10.8426
▁taik	-10.843
▁award	-10.8431
▁betray	-10.8431
▁medic	-10.8434
▁mix	-10.8434
▁quarantine	-10.8436
▁propose	-10.8436
load	-10.8437
▁convince	-10.844
▁alter	-10.8441
▁solve	-10.8442
▁link	-10.8443
▁fag	-10.8444
school	-10.8444
yearold	-10.8444
kick	-10.8445
▁guilt	-10.8447
▁ut	-10.8449
two	-10.845
▁comp	-10.845
ora	-10.8452
▁tuck	-10.8453
▁mag	-10.8454
▁ital	-10.8456
▁leavin	-10.8459
▁symbol	-10.846
▁inject	-10.846
▁affect	-10.846
▁refer	-10.8462
▁institution	-10.8462
▁conservative	-10.8463
▁diagnos	-10.8463
▁discreet	-10.8463
▁solemn	-10.8463
▁almighty	-10.8463
▁amateur	-10.8463
▁anonymous	-10.8463
▁audio	-10.8463
▁baltimore	-10.8463
▁beneath	-10.8463
▁borat	-10.8463
▁britgaz	-10.8463
▁broccoli	-10.8463
▁caldwell	-10.8463
▁calendar	-10.8463
▁capacity	-10.8463
▁celebrating	-10.8463
▁cellular	-10.8463
▁chayim	-10.8463
▁clarissa	-10.8463
▁cocksucker	-10.8463
▁colonel	-10.8463
▁confidence	-10.8463
▁coyote	-10.8463
▁crimson	-10.8463
▁disagree	-10.8463
▁disaster	-10.8463
▁draft	-10.8463
▁elbow	-10.8463
▁elegant	-10.8463
▁enemies	-10.8463
▁exhusband	-10.8463
▁forbidden	-10.8463
▁fugitive	-10.8463
▁gardner	-10.8463
▁glenna	-10.8463
▁halloween	-10.8463
▁headquarters	-10.8463
▁iieutenant	-10.8463
▁indicate	-10.8463
▁inspiration	-10.8463
▁itaiian	-10.8463
▁kersek	-10.8463
▁kirby	-10.8463
▁leather	-10.8463
▁medevac	-10.8463
▁metaphor	-10.8463
▁militia	-10.8463
▁misunderstand	-10.8463
▁morgue	-10.8463
▁negro	-10.8463
▁niobe	-10.8463
▁orbit	-10.8463
▁platoon	-10.8463
▁procedure	-10.8463
▁relief	-10.8463
▁religion	-10.8463
▁scenario	-10.8463
▁schenectady	-10.8463
▁schmuck	-10.8463
▁seduce	-10.8463
▁selfdefense	-10.8463
▁slocumb	-10.8463
▁squash	-10.8463
▁squawking	-10.8463
▁survival	-10.8463
▁temperature	-10.8463
▁thirteen	-10.8463
▁tolerate	-10.8463
▁toothpicks	-10.8463
▁turtle	-10.8463
▁twoshoes	-10.8463
▁underground	-10.8463
▁unhappy	-10.8463
▁unknown	-10.8463
▁confusing	-10.8463
▁crib	-10.8463
▁sliding	-10.8463
▁wilkes	-10.8463
▁ceii	-10.8463
▁revolution	-10.8463
▁skirt	-10.8463
▁visual	-10.8463
▁jefe	-10.8463
▁woodshed	-10.8463
▁addition	-10.8463
▁casper	-10.8463
▁ryan	-10.8463
▁chaos	-10.8463
▁gym	-10.8463
▁rudy	-10.8463
▁judging	-10.8463
fire	-10.8463
▁scope	-10.8463
▁ciean	-10.8463
▁honks	-10.8463
▁brett	-10.8463
▁headphones	-10.8463
▁medal	-10.8463
▁insert	-10.8463
▁parrish	-10.8463
▁tanaka	-10.8463
▁smack	-10.8463
▁steak	-10.8463
▁owned	-10.8463
▁fading	-10.8463
▁tennis	-10.8463
▁someday	-10.8463
▁cartoon	-10.8463
▁pudding	-10.8463
▁elder	-10.8463
▁rubbish	-10.8464
▁entrance	-10.8464
▁passionate	-10.8464
▁babbitt	-10.8464
▁jazz	-10.8464
▁resolve	-10.8464
▁lynda	-10.8464
▁psychological	-10.8464
▁zachry	-10.8464
▁evacuate	-10.8464
▁ifyou	-10.8464
▁cooperate	-10.8464
▁kofi	-10.8464
▁scumbag	-10.8464
▁pipeline	-10.8464
▁bann	-10.8464
ire	-10.8464
▁underline	-10.8464
▁blanket	-10.8464
▁virginia	-10.8464
▁denial	-10.8464
▁sample	-10.8464
▁performance	-10.8464
▁shaking	-10.8464
▁harassment	-10.8464
▁sobs	-10.8464
▁burden	-10.8464
▁possibility	-10.8464
▁horseshit	-10.8465
▁regardless	-10.8465
▁liam	-10.8465
▁purse	-10.8465
▁wiley	-10.8465
▁depression	-10.8465
▁div	-10.8465
▁feedback	-10.8465
▁priority	-10.8465
▁rapist	-10.8465
▁jessup	-10.8465
▁fever	-10.8465
▁ripped	-10.8465
▁activity	-10.8465
▁witch	-10.8465
▁thread	-10.8465
▁thisll	-10.8465
▁grip	-10.8465
▁begun	-10.8466
▁species	-10.8466
▁identity	-10.8466
▁biii	-10.8466
▁whooshes	-10.8466
▁quint	-10.8466
▁penny	-10.8466
▁destiny	-10.8466
▁beef	-10.8467
▁mainland	-10.8467
▁vital	-10.8467
▁romance	-10.8467
▁quality	-10.8467
▁rodeo	-10.8467
▁conscious	-10.8467
▁dropping	-10.8468
▁liable	-10.8468
▁aboard	-10.8468
▁patch	-10.8468
▁thirsty	-10.8468
▁dash	-10.8469
▁privilege	-10.8469
▁dried	-10.8469
▁franco	-10.8469
▁reduced	-10.847
▁preserve	-10.847
▁motherfucking	-10.847
▁sully	-10.8471
▁alley	-10.8471
▁pence	-10.8471
▁poe	-10.8471
▁chloe	-10.8471
▁brief	-10.8472
▁wing	-10.8472
▁now	-10.8473
▁panel	-10.8473
▁troy	-10.8473
▁maintain	-10.8474
▁winning	-10.8475
▁dodg	-10.8475
▁dismissed	-10.8476
▁ek	-10.8477
▁gse	-10.8477
▁chile	-10.8478
▁johnna	-10.8478
▁presentation	-10.8478
▁fist	-10.8479
▁active	-10.8479
▁twat	-10.8479
▁depressed	-10.8481
▁madame	-10.8483
▁possessed	-10.8484
otto	-10.8485
▁arranged	-10.8485
nva	-10.8486
▁richie	-10.8486
▁debt	-10.8487
▁deported	-10.8488
▁qua	-10.8491
▁gel	-10.8493
▁nanny	-10.8493
▁factor	-10.8494
▁properly	-10.8494
▁lap	-10.8495
▁balder	-10.8495
▁hallway	-10.8495
▁mixed	-10.8495
▁kiiier	-10.8498
▁sore	-10.8499
▁areas	-10.8501
▁supplies	-10.8501
▁chunk	-10.8502
▁thistles	-10.8502
▁shrieks	-10.8502
▁noble	-10.8503
▁accused	-10.8506
▁jesse	-10.8507
▁examin	-10.8511
▁sail	-10.8513
▁removed	-10.8515
▁dies	-10.8516
▁useful	-10.8516
▁assist	-10.8516
▁wired	-10.8516
▁meters	-10.8518
▁sandy	-10.8518
▁sensei	-10.8519
▁legally	-10.8519
berg	-10.8521
▁taco	-10.8522
▁boxes	-10.8522
▁cable	-10.8524
▁bid	-10.8525
▁forty	-10.8525
▁drowning	-10.8525
▁scenes	-10.8525
▁heights	-10.8527
▁mistaken	-10.853
▁sealed	-10.8531
▁lure	-10.8534
▁jane	-10.8535
▁pays	-10.8538
cient	-10.8548
▁assumed	-10.8553
▁suggested	-10.8554
▁bin	-10.8561
▁hatch	-10.8565
▁shorter	-10.8565
▁tube	-10.8576
▁rig	-10.8578
▁socks	-10.8579
▁hint	-10.8586
▁lifted	-10.8586
▁posted	-10.8588
▁swat	-10.8592
▁payment	-10.8598
▁rd	-10.8599
▁ian	-10.86
▁ima	-10.8601
▁proved	-10.8601
inister	-10.8601
▁vows	-10.8603
▁oneill	-10.8606
ex	-10.8606
▁packed	-10.861
▁ku	-10.8611
▁pierc	-10.8617
▁broker	-10.8619
▁bombing	-10.8622
▁twins	-10.8623
▁jokes	-10.8626
▁colleagues	-10.8629
▁watches	-10.863
▁slams	-10.8634
▁cheaper	-10.8641
▁helpless	-10.8643
▁snorts	-10.8655
▁worthy	-10.8658
▁sucked	-10.8668
▁charged	-10.867
▁bothering	-10.8671
▁signor	-10.8676
▁arts	-10.8687
▁combat	-10.8692
▁tested	-10.8695
▁dda	-10.87
▁poems	-10.8706
hill	-10.8716
ual	-10.872
▁sucker	-10.872
▁imagined	-10.8724
▁dec	-10.873
▁chin	-10.8733
▁debate	-10.8738
▁soak	-10.8743
▁blessing	-10.8748
top	-10.8753
ana	-10.8762
can	-10.8767
▁ending	-10.8771
▁differently	-10.8776
ara	-10.8783
▁contains	-10.8785
▁laughed	-10.8785
▁danced	-10.8788
▁laying	-10.8791
▁walkie	-10.8794
▁offering	-10.8804
▁dada	-10.8809
▁crossed	-10.8823
▁jeans	-10.8836
▁wars	-10.8841
▁protecting	-10.8841
▁counts	-10.8842
ties	-10.8846
▁returning	-10.8846
▁hol	-10.8861
▁pic	-10.8869
grad	-10.8876
▁pets	-10.8886
▁nuns	-10.8888
ez	-10.8889
tor	-10.8899
▁it	-10.8899
▁scores	-10.8901
▁sting	-10.8901
tra	-10.8901
▁revs	-10.8912
▁presents	-10.8912
▁adults	-10.8913
els	-10.8914
▁es	-10.892
▁formal	-10.8939
▁pages	-10.8943
lie	-10.8952
▁tore	-10.8952
▁quarters	-10.8968
form	-10.9002
rick	-10.9005
ica	-10.9012
▁admire	-10.9017
▁sauce	-10.9017
▁odds	-10.9021
▁anal	-10.9029
▁shots	-10.9031
ano	-10.9049
▁chu	-10.905
▁nap	-10.9074
▁defen	-10.9087
▁events	-10.909
▁sounded	-10.9091
aii	-10.9094
▁dam	-10.9097
▁concerns	-10.9133
▁rats	-10.9152
▁tart	-10.9157
art	-10.917
▁sakes	-10.9195
▁ther	-10.9204
▁tri	-10.9219
she	-10.9234
▁nurses	-10.9237
▁equi	-10.9264
▁beers	-10.9283
▁connections	-10.929
ub	-10.9293
▁listened	-10.9304
▁wil	-10.9306
ese	-10.9358
nce	-10.9361
sky	-10.9376
pl	-10.938
ak	-10.9396
▁et	-10.94
▁oni	-10.9412
▁players	-10.9418
ery	-10.9434
▁sk	-10.9443
▁pos	-10.9451
ena	-10.9466
pro	-10.9467
▁instinct	-10.949
▁dip	-10.9491
▁troubles	-10.9494
▁diamond	-10.9494
▁politician	-10.9494
▁investigator	-10.9497
looking	-10.9498
▁snort	-10.9501
▁ripper	-10.9504
▁towel	-10.9507
▁relationships	-10.951
▁require	-10.952
old	-10.9526
▁prior	-10.9528
hi	-10.9533
▁imitat	-10.9554
▁keeper	-10.9559
reme	-10.9564
yo	-10.9578
▁worrying	-10.9588
▁flee	-10.9604
▁via	-10.9605
▁ash	-10.9606
bel	-10.9612
▁intern	-10.9619
▁fools	-10.9626
ppy	-10.9629
▁chap	-10.966
▁wh	-10.9661
▁appeal	-10.9663
gon	-10.9663
lock	-10.9666
▁flow	-10.9666
▁despi	-10.9671
▁ties	-10.9675
▁harass	-10.9678
▁prevent	-10.9679
▁defeat	-10.9682
▁adopt	-10.9682
where	-10.9683
key	-10.9685
▁disguise	-10.9686
▁include	-10.9686
▁flip	-10.9688
ctor	-10.9689
▁define	-10.9689
▁translate	-10.969
pitched	-10.9692
▁hack	-10.9693
point	-10.9694
three	-10.9695
▁bore	-10.9696
born	-10.9696
▁imagin	-10.9696
mark	-10.9696
▁batter	-10.9697
▁polite	-10.9697
▁instant	-10.9698
▁definite	-10.97
▁precise	-10.97
hour	-10.9701
▁wealth	-10.9702
▁korea	-10.9708
▁stare	-10.9708
▁dicks	-10.9709
▁porn	-10.9709
▁counsel	-10.9711
▁gentle	-10.9712
▁heii	-10.9712
▁fabric	-10.9712
▁observe	-10.9712
▁orphan	-10.9712
▁doug	-10.9712
▁fran	-10.9713
▁inherit	-10.9713
▁stamp	-10.9713
▁oooh	-10.9713
▁enormous	-10.9713
▁flavor	-10.9713
▁forbid	-10.9713
▁genuine	-10.9713
▁pecker	-10.9713
▁sausage	-10.9713
▁unfair	-10.9713
▁adorable	-10.9713
▁amnesia	-10.9713
▁anxious	-10.9713
▁apologise	-10.9713
▁appetite	-10.9713
▁arkansas	-10.9713
▁avenge	-10.9713
▁balcony	-10.9713
▁baldini	-10.9713
▁barbecue	-10.9713
▁benji	-10.9713
▁boulevard	-10.9713
▁caputo	-10.9713
▁cecelio	-10.9713
▁centuries	-10.9713
▁certificate	-10.9713
▁conflict	-10.9713
▁contribut	-10.9713
▁distress	-10.9713
▁enforcement	-10.9713
▁erection	-10.9713
▁evolution	-10.9713
▁fairfax	-10.9713
▁foxtrot	-10.9713
▁georgie	-10.9713
▁glanton	-10.9713
▁graham	-10.9713
▁gypsy	-10.9713
▁happier	-10.9713
▁harrigan	-10.9713
▁hawthorne	-10.9713
▁holocaust	-10.9713
▁honeymoon	-10.9713
▁indulge	-10.9713
▁industry	-10.9713
▁inisherin	-10.9713
▁intelligent	-10.9713
▁intimate	-10.9713
▁itsits	-10.9713
▁jungle	-10.9713
▁juvenile	-10.9713
▁kennedy	-10.9713
▁leash	-10.9713
▁liquor	-10.9713
▁manipulat	-10.9713
▁mccann	-10.9713
▁monitor	-10.9713
▁motel	-10.9713
▁opposite	-10.9713
▁ottersen	-10.9713
▁pajamas	-10.9713
▁patterson	-10.9713
▁penguin	-10.9713
▁pfeiffer	-10.9713
▁regiment	-10.9713
▁resnick	-10.9713
▁sagdiyev	-10.9713
▁savior	-10.9713
▁shakespeare	-10.9713
▁shrimp	-10.9713
▁sidewalk	-10.9713
▁similar	-10.9713
▁suspension	-10.9713
▁talbot	-10.9713
▁tigest	-10.9713
▁tofu	-10.9713
▁vagine	-10.9713
▁vengeance	-10.9713
▁whataburger	-10.9713
▁worries	-10.9713
▁yogurt	-10.9713
▁adapt	-10.9713
▁alvarez	-10.9713
▁cemetery	-10.9713
▁coffin	-10.9713
▁giggles	-10.9713
▁meiks	-10.9713
▁pursue	-10.9713
▁sierra	-10.9713
▁strangl	-10.9713
▁tobias	-10.9713
▁wiener	-10.9713
▁herald	-10.9713
▁powder	-10.9713
▁shaft	-10.9713
▁sterling	-10.9713
▁superior	-10.9713
▁trilling	-10.9713
▁hottest	-10.9713
▁reef	-10.9713
▁schisa	-10.9713
▁bennie	-10.9713
▁error	-10.9713
▁anyhow	-10.9713
▁ooooh	-10.9713
▁precious	-10.9713
▁tricia	-10.9713
▁arcana	-10.9713
▁psychiatrist	-10.9713
▁mutual	-10.9713
▁personnel	-10.9713
▁ambition	-10.9713
▁assuming	-10.9713
▁april	-10.9713
▁nigger	-10.9713
▁exorcism	-10.9713
▁latin	-10.9713
▁prostitute	-10.9713
▁recess	-10.9713
▁whinnies	-10.9713
▁alternative	-10.9713
▁felon	-10.9713
▁blink	-10.9713
▁sheep	-10.9713
▁verde	-10.9713
▁whatwhat	-10.9714
▁commence	-10.9714
▁sookie	-10.9714
▁landlord	-10.9714
▁prague	-10.9714
▁nikas	-10.9714
▁decade	-10.9714
▁phase	-10.9714
▁transferred	-10.9714
▁compensation	-10.9714
▁sniffling	-10.9714
▁burger	-10.9714
▁furious	-10.9714
▁transmitters	-10.9714
▁canada	-10.9714
▁engagement	-10.9714
▁freddy	-10.9714
▁masterpiece	-10.9714
▁pony	-10.9714
▁depth	-10.9714
▁blake	-10.9714
▁confusion	-10.9714
▁preschool	-10.9714
▁divine	-10.9714
▁peasant	-10.9714
▁distraction	-10.9714
▁puppet	-10.9714
▁sharing	-10.9714
▁groceries	-10.9714
▁patrick	-10.9714
▁breach	-10.9714
▁guzman	-10.9714
▁skinny	-10.9714
▁josephine	-10.9714
▁josh	-10.9714
▁fold	-10.9714
▁root	-10.9714
▁forehead	-10.9714
▁tiff	-10.9714
▁whoohoo	-10.9715
come	-10.9715
▁stray	-10.9715
▁cuffee	-10.9715
▁iggy	-10.9715
▁committee	-10.9715
▁vulnerable	-10.9715
▁conduct	-10.9715
▁geeta	-10.9715
▁luisa	-10.9715
▁irish	-10.9715
▁buckner	-10.9715
▁collar	-10.9715
▁undress	-10.9715
▁dough	-10.9715
▁couidnt	-10.9715
▁beam	-10.9715
▁sworn	-10.9715
▁devoted	-10.9715
▁toro	-10.9715
▁tyres	-10.9715
▁northern	-10.9715
▁terrified	-10.9715
▁franklin	-10.9716
▁dedicated	-10.9716
▁mummy	-10.9716
▁virginity	-10.9716
▁laundry	-10.9716
▁acceptance	-10.9716
▁riva	-10.9716
▁buddh	-10.9716
▁diary	-10.9717
▁corruption	-10.9717
▁brace	-10.9717
▁smear	-10.9717
▁solution	-10.9717
▁footage	-10.9717
▁stepped	-10.9717
▁lockdown	-10.9717
▁gare	-10.9717
▁thug	-10.9718
▁imagination	-10.9718
▁aggressive	-10.9718
▁chow	-10.9718
▁andrea	-10.9718
▁neat	-10.9718
▁copper	-10.9718
▁hence	-10.9719
▁horsemen	-10.9719
▁confession	-10.9719
▁marvin	-10.9719
▁bruise	-10.9719
▁deaf	-10.9719
▁rail	-10.9719
▁yaddy	-10.9719
▁perv	-10.972
▁suspended	-10.972
▁function	-10.972
▁dumbass	-10.972
▁iove	-10.972
▁aldo	-10.9721
▁overdose	-10.9721
▁grandson	-10.9721
▁ironic	-10.9721
▁midst	-10.9721
▁portal	-10.9721
▁approved	-10.9721
▁comon	-10.9722
▁hideous	-10.9722
▁milo	-10.9722
▁cries	-10.9723
▁parade	-10.9723
▁recommendation	-10.9723
▁constantly	-10.9724
▁distracted	-10.9724
▁retarded	-10.9724
▁foul	-10.9725
▁coz	-10.9726
▁poet	-10.9726
act	-10.9728
▁shiny	-10.9728
▁inch	-10.9728
▁shattering	-10.9729
▁grid	-10.9729
▁divided	-10.9731
▁classical	-10.9733
▁dyer	-10.9733
▁drumming	-10.9734
▁marie	-10.9734
▁sniffing	-10.9735
▁eighth	-10.9735
▁cog	-10.9735
▁slipped	-10.9736
▁compromised	-10.9737
▁humble	-10.9737
▁christian	-10.9738
▁ditch	-10.9738
▁specialist	-10.9739
▁forgetting	-10.9739
▁mere	-10.974
▁graduated	-10.9741
▁spoiled	-10.9741
▁disturbed	-10.9741
▁mamma	-10.9741
▁whining	-10.9744
▁robin	-10.9745
▁handling	-10.9746
▁flirting	-10.9746
▁unable	-10.9748
▁showtime	-10.9748
▁recovered	-10.975
▁lone	-10.975
▁reced	-10.9755
▁spite	-10.9755
▁flowing	-10.9758
▁iive	-10.9759
▁core	-10.976
▁spec	-10.9761
▁twisted	-10.9763
▁kidnappe	-10.9766
ella	-10.9766
▁ize	-10.9767
▁range	-10.9769
▁hopeless	-10.977
▁damaged	-10.977
▁demanding	-10.9771
▁mamm	-10.9771
▁dye	-10.9773
▁wiped	-10.9774
▁stain	-10.9775
▁bargaining	-10.9776
▁yah	-10.9777
kind	-10.9777
▁dime	-10.9779
▁jude	-10.978
uh	-10.9782
▁lane	-10.9786
▁shy	-10.9786
▁healing	-10.979
ever	-10.9796
▁sinking	-10.9797
▁forger	-10.9797
▁shocking	-10.9801
shore	-10.9802
▁lotte	-10.9803
▁whit	-10.9805
▁trans	-10.9809
▁lungs	-10.9815
▁onions	-10.9815
▁rustles	-10.9815
▁cutter	-10.9816
▁exams	-10.9817
▁wishes	-10.9819
▁poo	-10.9821
▁shithead	-10.9824
▁recorder	-10.9825
▁peters	-10.9829
▁fairly	-10.9831
▁safer	-10.9832
▁seize	-10.9835
▁blocked	-10.9843
▁crackles	-10.9848
▁needle	-10.9848
▁spike	-10.9852
▁fulfill	-10.9855
▁discussed	-10.9858
cott	-10.9858
▁dock	-10.9858
▁freaked	-10.9863
▁vet	-10.9865
▁dozens	-10.9873
▁lobos	-10.9873
▁assets	-10.9873
▁quicker	-10.9877
▁assassins	-10.9878
▁bent	-10.9878
▁shove	-10.9879
▁costs	-10.9881
▁tapes	-10.989
▁traveling	-10.9903
▁thinkin	-10.9904
▁accepted	-10.9906
▁repeating	-10.9917
▁ants	-10.9924
▁golic	-10.9924
▁liquid	-10.9926
▁walkin	-10.9964
▁chambers	-10.9965
▁ic	-10.997
▁til	-10.9972
ency	-10.9981
▁safely	-11.0004
▁psych	-11.0009
▁foundation	-11.001
▁dive	-11.0012
dr	-11.0024
ology	-11.0025
▁cracking	-11.0034
ible	-11.0045
▁uncles	-11.0051
▁filming	-11.0051
▁announce	-11.0057
▁gall	-11.0058
oul	-11.0062
aging	-11.0068
▁honored	-11.0076
▁ages	-11.0079
ole	-11.0079
▁conversations	-11.0081
▁pope	-11.0089
ised	-11.0112
▁nicer	-11.0118
▁bees	-11.0124
▁tables	-11.0139
▁shadows	-11.014
▁chicks	-11.014
ors	-11.0141
mone	-11.0167
▁inna	-11.0172
▁ant	-11.0179
▁offers	-11.0193
▁ci	-11.0198
eating	-11.0198
▁stores	-11.0199
▁fina	-11.0207
▁relaxed	-11.0218
▁bounc	-11.0223
▁cd	-11.023
rious	-11.0246
▁manu	-11.025
▁moo	-11.0254
▁proven	-11.0285
▁feckin	-11.0287
▁favorites	-11.0289
▁reporters	-11.0293
bl	-11.0305
▁killers	-11.031
ita	-11.0321
▁williams	-11.0322
▁apples	-11.0323
▁yu	-11.035
▁germans	-11.0353
▁lovers	-11.0361
▁marys	-11.0364
ore	-11.0364
tan	-11.0369
tics	-11.037
▁organize	-11.0371
talk	-11.0375
▁boats	-11.0378
▁ny	-11.0385
▁projects	-11.0414
▁replace	-11.0415
▁planes	-11.0429
ski	-11.043
ines	-11.0439
pad	-11.0445
▁fo	-11.0459
gger	-11.0462
mmer	-11.0469
▁interests	-11.0481
plan	-11.0491
▁beds	-11.0493
▁or	-11.0494
ities	-11.0494
▁pea	-11.0528
▁hangs	-11.0528
hh	-11.053
▁saturdays	-11.0537
ius	-11.0563
▁fields	-11.061
lets	-11.0614
rrow	-11.0627
▁ret	-11.0637
izz	-11.064
▁radi	-11.065
▁ang	-11.0677
▁nicely	-11.069
▁pla	-11.0711
▁bears	-11.0733
▁anan	-11.0753
▁br	-11.0755
read	-11.0778
▁slam	-11.0779
▁deals	-11.0781
lin	-11.0784
▁skill	-11.079
mal	-11.0812
▁gangs	-11.0817
itch	-11.0831
sen	-11.0848
▁shaw	-11.0874
▁regard	-11.0881
▁clip	-11.0882
▁questioning	-11.0885
▁roar	-11.0891
▁corners	-11.0896
▁frame	-11.0898
▁principle	-11.0912
▁donut	-11.0913
▁reaction	-11.0915
▁settlement	-11.0919
▁choke	-11.0919
▁elephant	-11.0919
▁creature	-11.092
ence	-11.0923
▁hesitate	-11.0926
▁knocks	-11.0927
▁communication	-11.0928
▁oop	-11.0929
▁colleague	-11.0929
mm	-11.0938
▁tourist	-11.0939
▁exhale	-11.0939
▁ki	-11.094
▁pill	-11.0951
▁gr	-11.0962
▁accus	-11.0974
ened	-11.1007
▁cal	-11.1014
ache	-11.1015
▁robb	-11.102
oid	-11.1021
▁cracker	-11.1026
ark	-11.1029
▁def	-11.1036
▁fla	-11.1039
▁rag	-11.105
▁dine	-11.1054
inem	-11.1063
▁disturb	-11.1065
▁tracks	-11.1079
ified	-11.1082
▁attach	-11.1088
▁shin	-11.1096
▁greet	-11.1096
▁adul	-11.1098
▁recommend	-11.1099
▁bald	-11.1101
▁pale	-11.1104
▁handing	-11.1105
▁offend	-11.1108
▁ew	-11.1108
▁swallow	-11.1109
▁spoil	-11.111
▁deport	-11.1112
▁frighten	-11.1112
▁delight	-11.1115
▁stall	-11.1115
▁puzzle	-11.1116
power	-11.1118
▁flush	-11.112
▁should	-11.112
mouth	-11.1121
phone	-11.1122
▁compromise	-11.1122
▁restore	-11.1122
foot	-11.1123
ofthe	-11.1123
vail	-11.1125
type	-11.1127
yard	-11.1127
icles	-11.1128
▁invest	-11.1128
▁africa	-11.1133
ries	-11.1133
▁cockroach	-11.1135
▁norm	-11.1137
▁darlin	-11.1138
ological	-11.1138
▁prob	-11.1138
away	-11.114
▁memo	-11.114
▁confident	-11.1141
▁adjust	-11.1141
▁dread	-11.1142
▁neighbour	-11.1142
▁lyin	-11.1142
▁explosive	-11.1142
▁deliberate	-11.1142
▁unpleasant	-11.1142
responsibilities	-11.1142
▁album	-11.1142
▁analysis	-11.1142
▁apologies	-11.1142
▁audrey	-11.1142
▁aurelia	-11.1142
▁bathtub	-11.1142
▁battalion	-11.1142
▁benzevich	-11.1142
▁buick	-11.1142
▁camille	-11.1142
▁casserole	-11.1142
▁chemistry	-11.1142
▁choosing	-11.1142
▁colonial	-11.1142
▁colour	-11.1142
▁companion	-11.1142
▁contrary	-11.1142
▁donnie	-11.1142
▁doughnuts	-11.1142
▁egyptian	-11.1142
▁enlighten	-11.1142
▁evacuation	-11.1142
▁evidently	-11.1142
▁exclaiming	-11.1142
▁famiiy	-11.1142
▁georgia	-11.1142
▁glatzel	-11.1142
▁global	-11.1142
▁godfather	-11.1142
▁hanzo	-11.1142
▁harlem	-11.1142
▁identify	-11.1142
▁injuries	-11.1142
▁innocence	-11.1142
▁inspire	-11.1142
▁intellect	-11.1142
▁irene	-11.1142
▁jewelry	-11.1142
▁jordan	-11.1142
▁keister	-11.1142
▁kjikerud	-11.1142
▁kobritz	-11.1142
▁lesbian	-11.1142
▁lincoln	-11.1142
▁lindsey	-11.1142
▁loneliness	-11.1142
▁marquis	-11.1142
▁masturbat	-11.1142
▁midwife	-11.1142
▁mwah	-11.1142
▁necronomicon	-11.1142
▁neighing	-11.1142
▁nipples	-11.1142
▁occupation	-11.1142
▁oriordan	-11.1142
▁pascow	-11.1142
▁pathfinder	-11.1142
▁phangan	-11.1142
▁philadelphia	-11.1142
▁poiice	-11.1142
▁practicing	-11.1142
▁privacy	-11.1142
▁prostitution	-11.1142
▁reunite	-11.1142
▁rodriguez	-11.1142
▁salvatore	-11.1142
▁samuel	-11.1142
▁sarcastic	-11.1142
▁schreber	-11.1142
▁separation	-11.1142
▁shannon	-11.1142
▁shook	-11.1142
▁souschef	-11.1142
▁splendid	-11.1142
▁sponsor	-11.1142
▁squirrel	-11.1142
▁stephanie	-11.1142
▁struggling	-11.1142
▁superintendent	-11.1142
▁surviving	-11.1142
▁svenson	-11.1142
▁sweeney	-11.1142
▁swift	-11.1142
▁theories	-11.1142
▁thrash	-11.1142
▁tinkling	-11.1142
▁tournament	-11.1142
▁tourniquet	-11.1142
▁tremendous	-11.1142
▁valuable	-11.1142
▁vessel	-11.1142
▁wicked	-11.1142
▁yvonne	-11.1142
▁adventure	-11.1142
▁compound	-11.1142
▁daryl	-11.1142
▁grasp	-11.1142
▁haircut	-11.1142
▁hyah	-11.1142
▁merilee	-11.1142
▁negotiate	-11.1142
▁nepal	-11.1142
▁payroll	-11.1142
▁plastic	-11.1142
▁reverse	-11.1142
▁stereo	-11.1142
▁syringe	-11.1142
▁volume	-11.1142
▁welfare	-11.1142
▁intel	-11.1142
▁marbles	-11.1142
▁mockingbird	-11.1142
▁serial	-11.1142
▁tweet	-11.1142
▁coconut	-11.1142
▁presume	-11.1142
▁shilling	-11.1142
▁collings	-11.1142
▁luisella	-11.1142
▁thump	-11.1142
▁totai	-11.1142
▁lafours	-11.1142
▁marijuana	-11.1142
▁sieve	-11.1142
▁adele	-11.1142
▁cawing	-11.1142
▁keith	-11.1142
▁actress	-11.1142
▁asap	-11.1142
▁chemical	-11.1142
▁ransom	-11.1142
▁resign	-11.1142
▁roommate	-11.1142
▁behalf	-11.1142
▁microphone	-11.1142
▁scrub	-11.1142
▁courtesy	-11.1142
▁investigating	-11.1142
▁sizzling	-11.1142
▁lerner	-11.1142
▁accomplice	-11.1142
▁glance	-11.1142
▁vicious	-11.1142
▁resent	-11.1142
▁hazard	-11.1142
▁bumstead	-11.1142
▁economic	-11.1142
▁absence	-11.1142
▁ceo	-11.1142
▁mellow	-11.1142
▁corporation	-11.1142
▁judith	-11.1142
▁lobby	-11.1142
▁teemo	-11.1142
▁fond	-11.1142
▁petrie	-11.1142
▁montana	-11.1142
▁figuring	-11.1142
▁gray	-11.1142
▁fraud	-11.1142
▁kettle	-11.1142
▁silk	-11.1142
▁apology	-11.1142
▁molten	-11.1142
▁pinero	-11.1142
▁statue	-11.1142
▁empti	-11.1142
▁disorder	-11.1142
▁invisible	-11.1142
▁blares	-11.1142
▁burke	-11.1142
▁compassion	-11.1142
▁medium	-11.1142
▁graduate	-11.1142
▁righteous	-11.1142
▁centre	-11.1142
▁perrish	-11.1142
▁hostile	-11.1142
▁mitsy	-11.1142
▁ammo	-11.1142
▁gotcha	-11.1142
▁overnight	-11.1142
▁denied	-11.1142
▁zulu	-11.1143
▁chubby	-11.1143
▁dummy	-11.1143
▁profound	-11.1143
▁tsung	-11.1143
▁spicy	-11.1143
▁porch	-11.1143
▁stepfather	-11.1143
▁merchan	-11.1143
▁oslo	-11.1143
▁biood	-11.1143
▁temptation	-11.1143
▁sunset	-11.1143
▁murphy	-11.1143
▁hissing	-11.1143
▁rising	-11.1143
▁spiritual	-11.1143
▁corporate	-11.1143
▁sophisticated	-11.1143
▁dumpster	-11.1144
▁fanny	-11.1144
▁guv	-11.1144
▁underage	-11.1144
▁jonna	-11.1144
▁entit	-11.1144
▁estate	-11.1144
▁francis	-11.1144
▁extraction	-11.1144
▁texan	-11.1144
▁whatll	-11.1144
▁drool	-11.1144
▁weiss	-11.1144
▁income	-11.1144
▁toof	-11.1144
▁saddle	-11.1145
ague	-11.1145
▁modest	-11.1145
▁classroom	-11.1145
▁beings	-11.1145
▁stunt	-11.1145
cap	-11.1145
▁specifically	-11.1145
▁starina	-11.1145
▁auto	-11.1145
▁digger	-11.1146
▁wax	-11.1146
▁rode	-11.1146
▁rover	-11.1146
▁pimp	-11.1146
▁shane	-11.1146
▁settling	-11.1146
▁loving	-11.1146
▁alimony	-11.1146
▁stuckey	-11.1146
▁confirmation	-11.1146
▁hallow	-11.1147
▁gps	-11.1147
▁tele	-11.1147
▁crackhead	-11.1147
▁engaged	-11.1148
▁mmmmm	-11.1148
▁nathan	-11.1148
▁bruner	-11.1148
▁keyboard	-11.1148
▁creation	-11.1148
▁angle	-11.1148
▁fries	-11.1148
▁korean	-11.1148
▁fluid	-11.1149
▁sammy	-11.1149
▁bucket	-11.1149
▁aww	-11.1149
▁ego	-11.1149
▁abducted	-11.1149
▁crooked	-11.1149
▁salary	-11.115
▁vanished	-11.115
▁fame	-11.115
▁vein	-11.1151
▁rug	-11.1151
▁traditional	-11.1151
▁oxy	-11.1151
enny	-11.1151
▁programmed	-11.1151
▁wage	-11.1151
▁flipped	-11.1152
▁spotted	-11.1152
▁shrieking	-11.1153
▁churchill	-11.1153
▁gig	-11.1154
▁growth	-11.1154
▁infinite	-11.1154
▁surface	-11.1155
▁frontier	-11.1155
▁smartass	-11.1155
▁salesman	-11.1155
▁leo	-11.1155
▁breakdown	-11.1155
▁haha	-11.1155
▁sack	-11.1156
▁native	-11.1156
▁amuse	-11.1156
▁grove	-11.1157
▁adore	-11.1157
▁sel	-11.1157
▁aida	-11.1158
▁runner	-11.116
▁facing	-11.116
▁auntie	-11.1161
▁vibrate	-11.1161
daya	-11.1161
▁bedtime	-11.1161
▁bah	-11.1162
▁interfere	-11.1162
▁relieved	-11.1163
▁spain	-11.1163
▁deai	-11.1164
▁franks	-11.1165
▁ships	-11.1165
▁clothing	-11.1166
▁framed	-11.1167
▁invented	-11.1169
▁spine	-11.117
▁beaten	-11.117
▁compare	-11.1171
▁tender	-11.1171
▁wallis	-11.1172
▁heroes	-11.1173
▁sweater	-11.1174
▁bind	-11.1174
▁stalled	-11.1174
▁producer	-11.1175
▁diego	-11.1175
▁rental	-11.1176
▁discovery	-11.1177
▁iot	-11.1177
▁described	-11.1178
▁goodnight	-11.1178
▁frenchie	-11.1178
▁groove	-11.1179
▁endure	-11.1179
▁plead	-11.1182
▁buzzer	-11.1183
▁shovel	-11.1184
▁betrayed	-11.1184
lous	-11.1184
▁hunger	-11.1185
rent	-11.1185
▁scraping	-11.1185
▁builds	-11.1185
▁bitter	-11.1186
▁boney	-11.1188
▁outer	-11.1189
▁established	-11.1189
▁despise	-11.1191
▁fuckface	-11.1194
▁down	-11.1196
▁bunker	-11.1199
▁jay	-11.1199
▁determined	-11.1199
▁owl	-11.12
▁weed	-11.1202
▁goodlooking	-11.1202
▁poisoned	-11.1205
▁nailed	-11.1206
▁spilling	-11.1208
▁snarling	-11.1208
▁reject	-11.1212
▁lens	-11.1212
▁traded	-11.1216
▁prop	-11.1216
▁yyou	-11.1216
▁fl	-11.1218
▁businessman	-11.1219
▁authorize	-11.1221
▁weirdo	-11.1222
▁shushing	-11.1222
▁badass	-11.1224
▁claimed	-11.1226
▁hostages	-11.1227
▁cents	-11.1227
▁bubbles	-11.1227
▁shatters	-11.1227
▁scratching	-11.1229
▁rushing	-11.1236
▁vol	-11.1237
▁hmmm	-11.1237
▁dink	-11.1238
erous	-11.124
▁net	-11.1241
▁squealing	-11.1243
▁twin	-11.1248
▁generally	-11.125
▁kindness	-11.125
▁accuse	-11.1255
▁chev	-11.1257
▁assess	-11.126
▁sniffs	-11.1261
▁steer	-11.1261
▁workout	-11.1264
▁fisher	-11.1273
▁beard	-11.1278
▁shortly	-11.1281
▁punched	-11.1286
▁reminded	-11.1293
▁associates	-11.1294
▁costumes	-11.1294
▁internal	-11.1297
onies	-11.1303
▁smarter	-11.1304
▁honesty	-11.1308
▁chuckys	-11.1312
▁secretly	-11.1316
▁entr	-11.1319
▁baker	-11.1323
▁switching	-11.1343
▁rounds	-11.1345
▁imitate	-11.1351
▁tons	-11.1359
▁texted	-11.1359
▁communications	-11.1363
▁ze	-11.137
▁pu	-11.137
▁tracked	-11.1372
▁posting	-11.1374
▁ohio	-11.1378
all	-11.1381
▁figures	-11.1389
▁misses	-11.1389
▁brig	-11.1391
▁lan	-11.1395
▁investigators	-11.1397
▁hee	-11.1399
nky	-11.1406
▁shutter	-11.1411
▁nic	-11.1411
▁packing	-11.1414
▁pickin	-11.1418
▁armor	-11.1424
▁snacks	-11.1431
▁locker	-11.1442
nts	-11.1444
▁visiting	-11.1451
▁pose	-11.1453
▁respected	-11.1457
▁handled	-11.1463
▁employees	-11.1466
▁manners	-11.1467
▁limits	-11.1467
▁demands	-11.1467
▁cooked	-11.147
▁scrap	-11.1472
▁presented	-11.1476
▁bells	-11.1482
ethe	-11.1484
low	-11.1489
▁howls	-11.1493
▁sharks	-11.1501
bia	-11.1501
▁cooler	-11.1504
▁senat	-11.1512
bine	-11.1514
ort	-11.1533
▁cows	-11.1535
ink	-11.1558
▁gil	-11.156
▁tai	-11.1564
▁motorcycles	-11.157
▁amor	-11.1576
▁drawers	-11.1582
▁scares	-11.1583
eight	-11.1584
about	-11.1602
▁stakes	-11.1605
▁meals	-11.1605
▁connects	-11.1607
▁closely	-11.1608
▁demonstrate	-11.1609
tte	-11.1627
late	-11.1628
▁sources	-11.1641
▁sticking	-11.1648
▁cart	-11.1673
atic	-11.1681
rop	-11.1684
▁magical	-11.1687
▁drivers	-11.1703
ization	-11.1705
▁hoods	-11.1711
▁rad	-11.1713
oc	-11.1737
▁fin	-11.1745
▁sentences	-11.1746
▁vos	-11.1761
▁your	-11.1782
▁strikes	-11.1782
▁unions	-11.1782
pping	-11.1785
▁mist	-11.1787
own	-11.1792
gram	-11.1795
eem	-11.1798
▁reporting	-11.181
han	-11.1817
▁my	-11.1843
▁womens	-11.1849
▁surprises	-11.1866
▁lecture	-11.1883
▁outsider	-11.1899
rence	-11.1909
▁dudes	-11.1916
icu	-11.1921
ked	-11.1932
▁subjects	-11.1962
▁subt	-11.1991
▁remembered	-11.1992
▁values	-11.1999
rum	-11.2003
▁specialize	-11.201
▁romania	-11.2014
ani	-11.2026
▁ven	-11.2033
▁cousins	-11.2035
pit	-11.204
▁fur	-11.205
▁needles	-11.207
▁gen	-11.207
miii	-11.2091
▁tunes	-11.2098
▁twi	-11.2101
▁bu	-11.2132
ites	-11.2159
▁patients	-11.2182
▁sol	-11.22
▁virgi	-11.2209
▁exists	-11.222
▁paintings	-11.2257
▁michaels	-11.2263
▁here	-11.2263
▁dinners	-11.2263
▁floors	-11.229
▁cru	-11.2299
▁assassin	-11.2301
▁mari	-11.2304
▁buildings	-11.2326
▁dates	-11.2336
▁docs	-11.2338
▁callin	-11.2349
▁pow	-11.2356
▁fri	-11.2377
▁mal	-11.2397
tling	-11.2399
▁jacksons	-11.2407
▁ast	-11.2411
lew	-11.245
ken	-11.2457
▁christo	-11.246
wi	-11.2481
▁flo	-11.2484
▁pd	-11.2484
pack	-11.2511
▁bothers	-11.2528
▁have	-11.2532
▁caused	-11.2545
port	-11.2568
▁reservation	-11.2579
▁terrorist	-11.258
▁ankle	-11.2582
▁gasp	-11.2584
▁blossom	-11.2586
▁peanut	-11.2586
▁reference	-11.2586
▁sheet	-11.2588
▁ritual	-11.259
▁rattle	-11.259
▁dozen	-11.2594
▁passenger	-11.2597
▁criminals	-11.2598
▁dim	-11.2599
▁lobo	-11.2599
▁resume	-11.26
▁decides	-11.2602
▁vow	-11.2602
tre	-11.2609
bra	-11.2614
▁weekends	-11.2637
bie	-11.2638
are	-11.2639
▁exception	-11.2653
▁pod	-11.266
▁asset	-11.2664
▁suite	-11.2672
▁wu	-11.2677
▁cau	-11.2681
▁immortal	-11.2693
▁rivers	-11.2707
▁publish	-11.271
▁slap	-11.2715
ory	-11.272
▁loo	-11.273
▁tru	-11.2731
spect	-11.2733
▁pointing	-11.2735
more	-11.2736
maker	-11.2742
▁ruth	-11.2743
ility	-11.2747
faced	-11.2752
▁trespass	-11.2755
▁sati	-11.2758
▁mock	-11.2761
▁flirt	-11.2764
▁stitch	-11.2769
▁wail	-11.2772
▁threaten	-11.2772
▁possess	-11.2772
▁download	-11.2773
▁invent	-11.2773
strom	-11.2774
▁intend	-11.2775
▁intent	-11.2775
▁stash	-11.2775
▁reward	-11.2778
▁puff	-11.2778
ush	-11.278
cen	-11.2781
▁explode	-11.2781
place	-11.2782
▁activate	-11.2784
▁declare	-11.2784
▁relieve	-11.2784
▁crow	-11.2785
▁divide	-11.2785
▁temp	-11.2785
bound	-11.2787
related	-11.2789
four	-11.279
found	-11.279
party	-11.279
could	-11.279
▁sav	-11.2791
cake	-11.2791
▁custom	-11.2792
▁mai	-11.2792
sick	-11.2794
wise	-11.2794
▁constant	-11.2795
▁immediate	-11.2795
▁virtu	-11.2795
high	-11.2795
▁chast	-11.2795
▁technical	-11.2796
under	-11.2796
free	-11.2796
▁install	-11.2797
▁rapid	-11.2798
▁instruct	-11.2798
▁zoo	-11.2799
▁beaut	-11.2799
nut	-11.28
▁teenage	-11.2801
▁beau	-11.2802
azz	-11.2802
pure	-11.2802
▁holla	-11.2804
▁kiddin	-11.2805
▁calculat	-11.2806
▁incarcerat	-11.2806
▁extract	-11.2806
terior	-11.2806
▁react	-11.2807
▁russel	-11.2807
▁deposit	-11.2807
▁urge	-11.2808
pistol	-11.2808
▁blank	-11.2808
▁micro	-11.2808
▁environment	-11.2808
▁aircraft	-11.2808
▁albany	-11.2808
▁anthony	-11.2808
▁anticipate	-11.2808
▁antoine	-11.2808
▁atlas	-11.2808
▁atmosphere	-11.2808
▁authentic	-11.2808
▁believing	-11.2808
▁biscuit	-11.2808
▁bleach	-11.2808
▁blindfold	-11.2808
▁bonjour	-11.2808
▁bridesmaids	-11.2808
▁celebration	-11.2808
▁chook	-11.2808
▁clarify	-11.2808
▁clinton	-11.2808
▁columbia	-11.2808
▁column	-11.2808
▁complex	-11.2808
▁composer	-11.2808
▁crenshaw	-11.2808
▁cricket	-11.2808
▁definition	-11.2808
▁deploy	-11.2808
▁dermot	-11.2808
▁disgrace	-11.2808
▁disrespect	-11.2808
▁economy	-11.2808
▁eileen	-11.2808
▁eleonore	-11.2808
▁enterprise	-11.2808
▁espresso	-11.2808
▁everlasting	-11.2808
▁exboyfriend	-11.2808
▁expense	-11.2808
▁feature	-11.2808
▁fleas	-11.2808
▁fortunate	-11.2808
▁gennaro	-11.2808
▁geronimo	-11.2808
▁gossip	-11.2808
▁gracious	-11.2808
▁griffin	-11.2808
▁hajj	-11.2808
▁housewife	-11.2808
▁ibrahim	-11.2808
▁illinois	-11.2808
▁inappropriate	-11.2808
▁industrial	-11.2808
▁injured	-11.2808
▁inlaw	-11.2808
▁inspection	-11.2808
▁investigate	-11.2808
▁involving	-11.2808
▁irrelevant	-11.2808
▁isherwell	-11.2808
▁javier	-11.2808
▁jupiter	-11.2808
▁jurisdiction	-11.2808
▁kiefer	-11.2808
▁libby	-11.2808
▁linklater	-11.2808
▁loomis	-11.2808
▁lunatic	-11.2808
▁makayla	-11.2808
▁manufacture	-11.2808
▁mccormick	-11.2808
▁mikael	-11.2808
▁millwall	-11.2808
▁monastery	-11.2808
▁moreno	-11.2808
▁mortgage	-11.2808
▁munch	-11.2808
▁myrtle	-11.2808
▁natasha	-11.2808
▁negotiation	-11.2808
▁observation	-11.2808
▁october	-11.2808
▁oklahoma	-11.2808
▁overwhelmed	-11.2808
▁paradiso	-11.2808
▁peadar	-11.2808
▁peculiar	-11.2808
▁pencil	-11.2808
▁pennsylvania	-11.2808
▁penthouse	-11.2808
▁peretti	-11.2808
▁phenomenon	-11.2808
▁philanthropist	-11.2808
▁phillip	-11.2808
▁picnic	-11.2808
▁plymouth	-11.2808
▁poverty	-11.2808
▁principal	-11.2808
▁prophecy	-11.2808
▁purcell	-11.2808
▁rainbow	-11.2808
▁redecorat	-11.2808
▁religious	-11.2808
▁reserve	-11.2808
▁restrict	-11.2808
▁retribution	-11.2808
▁sacred	-11.2808
▁sarcasm	-11.2808
▁seatbelt	-11.2808
▁sedition	-11.2808
▁september	-11.2808
▁shampoo	-11.2808
▁sheperd	-11.2808
▁simpson	-11.2808
▁smug	-11.2808
▁sonofabitch	-11.2808
▁specimen	-11.2808
▁sputters	-11.2808
▁stockholm	-11.2808
▁stowaway	-11.2808
▁superstar	-11.2808
▁tartarus	-11.2808
▁thorough	-11.2808
▁tissue	-11.2808
▁transaction	-11.2808
▁unleash	-11.2808
▁unlucky	-11.2808
▁unsighted	-11.2808
▁variety	-11.2808
▁verdict	-11.2808
▁vodka	-11.2808
▁wawaw	-11.2808
▁wheelchair	-11.2808
▁xanax	-11.2808
▁yeeah	-11.2808
▁yucca	-11.2808
▁cheek	-11.2808
▁comfy	-11.2808
▁dentist	-11.2808
▁drask	-11.2808
▁drummond	-11.2808
▁feminine	-11.2808
▁forbes	-11.2808
▁google	-11.2808
▁haeju	-11.2808
▁housekeeping	-11.2808
▁index	-11.2808
▁item	-11.2808
▁lodge	-11.2808
▁mercedes	-11.2808
▁preparing	-11.2808
▁salander	-11.2808
▁segment	-11.2808
▁stosh	-11.2808
▁valentine	-11.2808
▁videotape	-11.2808
acci	-11.2808
▁gagging	-11.2808
▁juicy	-11.2808
▁oxygen	-11.2808
▁retreat	-11.2808
▁snoring	-11.2808
▁toothbrush	-11.2808
▁torch	-11.2808
▁craft	-11.2808
▁jolly	-11.2808
▁marcus	-11.2808
▁oui	-11.2808
▁grape	-11.2808
▁yacht	-11.2808
▁ilych	-11.2808
▁piston	-11.2808
▁ancestors	-11.2808
▁jelly	-11.2808
▁lexy	-11.2808
▁pedro	-11.2808
▁resort	-11.2808
▁stove	-11.2808
▁frequent	-11.2809
▁trilogy	-11.2809
▁meself	-11.2809
▁registr	-11.2809
▁grabbing	-11.2809
▁rogue	-11.2809
▁subzero	-11.2809
▁illusion	-11.2809
▁annual	-11.2809
▁hwan	-11.2809
▁knot	-11.2809
▁mimicking	-11.2809
▁norway	-11.2809
▁truetru	-11.2809
▁maintenance	-11.2809
▁kilometers	-11.2809
▁snapshot	-11.2809
▁terminal	-11.2809
▁jingle	-11.2809
▁competition	-11.2809
▁remarkabl	-11.2809
▁chiming	-11.2809
▁discharge	-11.2809
▁humility	-11.2809
▁ayres	-11.2809
▁crotch	-11.2809
▁dipshit	-11.2809
▁laptop	-11.2809
▁excessive	-11.2809
▁beac	-11.2809
▁generator	-11.2809
▁harsh	-11.2809
▁psychiatric	-11.2809
▁bloke	-11.2809
▁parasite	-11.2809
▁maximum	-11.2809
▁tribe	-11.2809
▁ledford	-11.2809
▁kamal	-11.2809
▁whisky	-11.2809
sheila	-11.2809
▁flank	-11.2809
▁gunnar	-11.2809
▁ignorant	-11.2809
▁executive	-11.2809
▁scheme	-11.2809
▁facial	-11.2809
▁shelton	-11.2809
▁consent	-11.2809
▁destruction	-11.2809
▁foam	-11.2809
▁sasha	-11.2809
▁carlyn	-11.2809
▁locate	-11.2809
▁twentyfour	-11.2809
▁musket	-11.2809
▁pluck	-11.2809
▁frederick	-11.2809
▁mailbox	-11.2809
▁riley	-11.2809
▁robinson	-11.281
▁liberace	-11.281
▁tuning	-11.281
▁napoli	-11.281
▁slay	-11.281
▁backwards	-11.281
▁interpretation	-11.281
▁limb	-11.281
▁swish	-11.281
▁bailey	-11.281
▁boobs	-11.281
▁booga	-11.281
▁prank	-11.281
▁motor	-11.281
▁mojo	-11.281
▁psychotic	-11.281
▁dadadada	-11.281
▁convey	-11.281
▁chickenshit	-11.281
▁accompany	-11.281
▁upright	-11.281
▁toxic	-11.281
▁krista	-11.281
▁fabricant	-11.281
▁yankee	-11.281
▁bulldo	-11.281
gulf	-11.281
▁necessarily	-11.281
▁cattle	-11.2811
▁halt	-11.2811
▁ruling	-11.2811
▁malaysian	-11.2811
▁roam	-11.2811
▁interior	-11.2811
▁snoo	-11.2811
▁riddle	-11.2811
▁marley	-11.2811
▁tasty	-11.2811
▁blur	-11.2811
▁void	-11.2811
▁olivia	-11.2811
▁claw	-11.2812
▁saloon	-11.2812
▁booze	-11.2812
▁genny	-11.2812
▁obligated	-11.2812
▁rumour	-11.2812
▁hush	-11.2812
▁refil	-11.2812
▁toid	-11.2812
▁soda	-11.2812
▁peaceful	-11.2812
▁eise	-11.2812
▁acknowledge	-11.2812
▁awol	-11.2812
▁convenient	-11.2812
▁alike	-11.2812
▁groom	-11.2812
▁civilian	-11.2813
▁chello	-11.2813
▁cubano	-11.2813
▁floss	-11.2813
▁humor	-11.2813
▁vern	-11.2813
▁vibrating	-11.2813
▁waii	-11.2813
▁morality	-11.2813
▁operate	-11.2813
▁waiter	-11.2813
▁cities	-11.2814
▁minus	-11.2814
▁bev	-11.2814
▁dumpling	-11.2814
▁piace	-11.2814
▁junkie	-11.2814
▁grain	-11.2814
▁grownup	-11.2815
▁exile	-11.2815
▁objection	-11.2815
▁raw	-11.2815
▁executed	-11.2815
▁instructor	-11.2815
▁weatherman	-11.2816
▁collection	-11.2816
▁restart	-11.2816
▁heiio	-11.2816
▁payload	-11.2816
▁susanna	-11.2816
▁flown	-11.2816
titude	-11.2817
▁alec	-11.2817
▁attic	-11.2818
▁surrounded	-11.2818
▁maat	-11.2818
▁sour	-11.2818
cord	-11.2818
▁lamb	-11.2818
▁irr	-11.2818
▁hijack	-11.2819
▁nuke	-11.2819
▁argh	-11.2819
▁decorat	-11.2819
▁exhausted	-11.2819
▁hobby	-11.2819
▁janet	-11.282
▁edit	-11.282
▁heinous	-11.282
▁pause	-11.2821
▁amongst	-11.2821
▁stalking	-11.2821
▁wool	-11.2822
▁rust	-11.2822
▁development	-11.2822
▁whereas	-11.2822
▁quitting	-11.2822
▁payback	-11.2822
▁designation	-11.2823
▁educated	-11.2823
▁brass	-11.2823
tick	-11.2823
▁accomplished	-11.2823
▁joo	-11.2824
▁retired	-11.2824
▁bushes	-11.2826
▁approaches	-11.2826
▁halfway	-11.2826
▁num	-11.2826
▁tito	-11.2827
cre	-11.2827
▁undo	-11.2827
▁tighten	-11.2828
▁schoo	-11.2828
▁label	-11.2829
▁dug	-11.2829
▁encouraged	-11.2829
▁blackmailing	-11.2829
▁callaway	-11.283
▁premises	-11.2831
▁marine	-11.2831
▁scooter	-11.2831
▁flicker	-11.2831
▁comply	-11.2831
▁cafe	-11.2831
▁clubs	-11.2832
▁wealthy	-11.2832
▁rocket	-11.2832
▁freeway	-11.2832
▁hog	-11.2832
▁activated	-11.2833
▁declared	-11.2833
▁kc	-11.2833
▁hitler	-11.2834
▁headline	-11.2834
▁rage	-11.2834
▁cheerleader	-11.2836
run	-11.2836
▁hotter	-11.2836
▁sonya	-11.2837
▁shore	-11.2838
▁drawn	-11.2838
lvi	-11.2838
▁vent	-11.2839
▁cooing	-11.2839
▁bridget	-11.284
▁bogg	-11.2842
▁physically	-11.2842
▁takin	-11.2843
▁dish	-11.2843
▁tomb	-11.2843
▁losses	-11.2845
▁greedy	-11.2845
▁giri	-11.2846
▁oven	-11.2846
▁exposed	-11.2846
this	-11.2847
▁delighted	-11.2847
▁swallowed	-11.2847
▁solved	-11.2848
▁wakeup	-11.2848
▁clay	-11.2849
▁downer	-11.285
▁frisk	-11.2851
drom	-11.2851
▁grows	-11.2851
▁fried	-11.2852
▁passion	-11.2855
▁hitting	-11.2857
▁poop	-11.2858
pace	-11.2859
▁attached	-11.2859
▁hacked	-11.2859
▁organized	-11.286
▁reaches	-11.2861
▁feei	-11.2866
▁limited	-11.2867
▁stable	-11.2867
▁nazi	-11.2868
▁diplomatic	-11.2868
▁this	-11.2869
pensive	-11.287
▁relations	-11.287
▁coordinates	-11.287
▁democrats	-11.287
▁freakin	-11.287
bon	-11.2871
▁whine	-11.2871
ixie	-11.2871
▁perfection	-11.2873
▁rivera	-11.2874
▁traced	-11.2876
▁iooked	-11.2877
▁stressed	-11.2877
▁ruthless	-11.2878
▁realised	-11.2878
▁wandering	-11.288
▁licky	-11.288
▁slipper	-11.2881
▁tricky	-11.2884
▁drilling	-11.2888
▁canceled	-11.2889
▁sexually	-11.2893
▁bosses	-11.2895
▁informed	-11.2896
▁shocked	-11.2896
▁crushed	-11.2896
▁ideal	-11.2896
▁prey	-11.2896
tiv	-11.2897
hoo	-11.2898
fucking	-11.29
▁oid	-11.2905
▁leaking	-11.2905
▁mount	-11.2909
▁yelps	-11.291
▁issued	-11.2912
▁purge	-11.2912
▁defending	-11.2914
▁lighton	-11.2914
▁dees	-11.2918
▁conf	-11.2921
▁creeping	-11.2922
▁peep	-11.2926
▁sneaking	-11.293
▁borrowed	-11.2932
▁pam	-11.2933
▁lawn	-11.2937
▁defender	-11.2938
▁noone	-11.2938
▁avoided	-11.2938
▁lend	-11.2938
▁recognized	-11.2942
▁loosen	-11.2942
▁correctly	-11.2943
▁punishing	-11.2945
case	-11.2947
uring	-11.2959
▁attending	-11.2964
ames	-11.2965
show	-11.2975
lon	-11.2977
▁amend	-11.298
▁grande	-11.298
▁comforting	-11.2981
▁switched	-11.2981
▁epic	-11.2985
▁touches	-11.2985
▁islands	-11.2991
▁increases	-11.2991
▁healer	-11.2992
▁lucas	-11.2992
▁harvesters	-11.2992
▁teenagers	-11.2992
▁caus	-11.2995
▁evan	-11.2997
▁forge	-11.2997
anford	-11.3003
▁rains	-11.3003
▁blamed	-11.3007
▁doorman	-11.3012
▁proceeding	-11.3023
▁swinging	-11.3023
nnies	-11.3032
▁rattles	-11.3032
▁rituals	-11.3032
▁rum	-11.3035
▁forms	-11.3044
▁lotion	-11.3044
▁painted	-11.3046
▁fet	-11.3048
▁strongly	-11.3049
▁punching	-11.305
▁delivering	-11.305
with	-11.3055
▁employ	-11.306
▁gent	-11.3061
▁fiveo	-11.3064
▁nickel	-11.3065
▁placed	-11.3072
▁oops	-11.3073
▁regards	-11.3074
▁hesitates	-11.3075
▁visited	-11.3076
▁frames	-11.3076
▁fooled	-11.3078
▁sorts	-11.3079
▁classy	-11.3085
▁vita	-11.3087
▁mae	-11.3091
fusion	-11.3095
▁hick	-11.3112
▁diamonds	-11.3114
▁politicians	-11.3114
dre	-11.3115
▁spreading	-11.3117
▁ve	-11.3119
▁feeding	-11.3125
▁esp	-11.3127
nder	-11.3132
▁tearing	-11.3136
▁whin	-11.3137
▁provid	-11.314
▁slipp	-11.3142
▁correction	-11.3144
▁designat	-11.3149
▁burner	-11.3152
▁smoked	-11.3156
who	-11.3166
▁coma	-11.317
nogo	-11.3182
hot	-11.3187
▁ranks	-11.3187
ep	-11.319
▁attacks	-11.3199
▁nerves	-11.3199
▁chips	-11.32
▁reader	-11.3217
▁grounded	-11.3227
boo	-11.3232
▁seated	-11.3237
▁landed	-11.3237
▁bricks	-11.3239
▁zombies	-11.3239
▁ana	-11.324
▁dun	-11.3246
▁drums	-11.3247
▁raining	-11.3248
▁zo	-11.3249
▁lad	-11.3258
▁owners	-11.3281
▁studies	-11.3281
▁strings	-11.3281
▁monkeys	-11.3281
▁chops	-11.3288
▁balling	-11.3304
▁hid	-11.3314
▁doo	-11.3317
▁seasons	-11.3323
▁andrews	-11.3323
▁objects	-11.3324
▁generations	-11.3324
▁scor	-11.3326
ically	-11.3331
ux	-11.3333
▁bot	-11.3349
istic	-11.3363
▁bonds	-11.3366
▁photographs	-11.3368
▁und	-11.3371
▁scars	-11.3372
▁explained	-11.3375
ood	-11.3389
▁boyfriends	-11.3397
▁goat	-11.3398
▁glori	-11.3401
▁gag	-11.3406
▁standards	-11.3408
▁snakes	-11.3408
▁products	-11.3408
▁strippers	-11.3409
▁bada	-11.3429
▁choppe	-11.3439
▁headin	-11.3451
▁lessons	-11.3451
▁electronics	-11.3451
▁sessions	-11.3451
je	-11.3454
▁not	-11.3463
tain	-11.3483
▁retrieve	-11.3493
▁explosions	-11.3494
▁julie	-11.3501
▁obe	-11.3502
▁villain	-11.3529
▁robe	-11.3537
▁yay	-11.3557
tal	-11.3564
▁hav	-11.3572
ford	-11.3591
▁signing	-11.3615
▁bums	-11.3616
▁winding	-11.3622
▁experts	-11.3623
▁crossing	-11.3625
▁yous	-11.3626
▁lined	-11.3627
eat	-11.3643
▁identi	-11.3656
▁cra	-11.3658
▁cad	-11.3666
unded	-11.367
▁ext	-11.3674
ograph	-11.3677
▁aba	-11.3695
edic	-11.3695
▁arrange	-11.3699
▁goodman	-11.3704
▁plates	-11.3711
▁presidents	-11.3734
▁systems	-11.3734
▁cons	-11.3736
▁sings	-11.375
▁hoo	-11.3755
▁ay	-11.3765
▁freed	-11.3767
▁belts	-11.3778
nosy	-11.3781
▁gri	-11.3784
▁springs	-11.3799
▁suggests	-11.3807
lar	-11.3821
atur	-11.3835
wo	-11.385
▁pur	-11.3861
py	-11.3885
▁pupp	-11.3887
▁butts	-11.3888
mpressionist	-11.3891
▁smit	-11.3906
▁lest	-11.391
▁quo	-11.3915
rie	-11.3918
rish	-11.396
▁shifts	-11.3977
▁elevators	-11.3977
rite	-11.3986
chen	-11.4001
▁mug	-11.4014
▁did	-11.402
oa	-11.4025
▁tackle	-11.4028
table	-11.4036
▁hats	-11.4036
una	-11.4063
▁efforts	-11.4068
▁tro	-11.4081
rity	-11.4084
▁fare	-11.4095
aba	-11.4105
uddy	-11.4126
cuz	-11.4139
rade	-11.4147
set	-11.4152
▁organ	-11.4173
▁muff	-11.4212
hol	-11.422
▁tax	-11.4224
▁tab	-11.423
ean	-11.4243
▁liars	-11.4251
▁chi	-11.4252
iar	-11.4262
▁mechanic	-11.4263
isse	-11.4264
▁blo	-11.4286
izing	-11.4297
▁levels	-11.4297
▁summers	-11.4297
tro	-11.4298
▁overse	-11.4299
▁af	-11.4326
▁tattoos	-11.4344
▁emotion	-11.4355
umm	-11.4385
▁automat	-11.4385
▁commend	-11.4406
▁char	-11.4407
fish	-11.4423
▁mos	-11.4426
▁sip	-11.4452
chi	-11.4463
▁resting	-11.4492
▁heller	-11.4494
atch	-11.4496
▁deco	-11.4498
mino	-11.4501
▁bites	-11.4506
ional	-11.4507
▁vest	-11.4515
cular	-11.4527
▁bake	-11.4533
▁mart	-11.4546
▁clatter	-11.4556
youre	-11.4557
▁groan	-11.4565
▁how	-11.4568
zi	-11.457
▁moan	-11.457
how	-11.458
▁method	-11.458
▁repair	-11.458
▁forensic	-11.4586
▁survivor	-11.4586
▁stroke	-11.4586
▁increase	-11.459
▁costume	-11.4593
▁luca	-11.4594
▁associate	-11.4594
▁harvester	-11.4595
▁citizen	-11.4597
▁teenager	-11.4597
▁sock	-11.4598
▁firework	-11.4608
cation	-11.4612
▁bean	-11.4615
▁crackle	-11.4617
▁semi	-11.4621
▁sen	-11.4622
▁sou	-11.4628
▁toe	-11.4651
wen	-11.4654
tov	-11.466
▁angels	-11.4663
▁vic	-11.4668
arian	-11.467
▁refuge	-11.469
bone	-11.4698
▁what	-11.4699
▁squ	-11.4713
▁dru	-11.4719
work	-11.4719
▁damon	-11.4722
arie	-11.4724
▁invit	-11.4726
▁ber	-11.4729
▁refus	-11.473
night	-11.4734
▁consum	-11.4744
▁bel	-11.4752
gun	-11.4756
make	-11.4759
lep	-11.4763
▁applaud	-11.4765
▁squeak	-11.4765
▁rubb	-11.477
▁disconnect	-11.4772
▁succeed	-11.4772
▁impress	-11.4773
coming	-11.4773
▁reveal	-11.4775
▁abandon	-11.4777
▁achieve	-11.4778
▁grill	-11.478
▁gamble	-11.4781
term	-11.4782
▁delete	-11.4783
▁pronounce	-11.4783
▁promote	-11.4783
q	-11.4784
guard	-11.4785
▁convent	-11.4788
tom	-11.4788
century	-11.4789
sexual	-11.4789
world	-11.4789
famous	-11.479
tail	-11.479
glass	-11.479
second	-11.479
guy	-11.479
wind	-11.479
blood	-11.479
check	-11.4791
mail	-11.4792
wash	-11.4792
▁filth	-11.4792
▁permanent	-11.4793
master	-11.4793
▁mode	-11.4794
boat	-11.4795
▁absolute	-11.4797
▁lug	-11.4797
dale	-11.4798
ification	-11.48
itude	-11.48
ulls	-11.4801
▁russia	-11.4801
▁reflex	-11.4801
▁inconvenien	-11.4801
▁tropic	-11.4801
▁trench	-11.4802
▁sensation	-11.4802
job	-11.4802
▁australia	-11.4802
keeper	-11.4803
▁cuban	-11.4803
▁leap	-11.4803
▁goddam	-11.4803
have	-11.4804
▁michel	-11.4804
▁lovin	-11.4805
▁reflect	-11.4806
partment	-11.4806
▁rang	-11.4806
▁champ	-11.4806
▁transport	-11.4807
▁abort	-11.4807
▁contest	-11.4807
▁infant	-11.4807
▁joseph	-11.4807
▁protest	-11.4807
tta	-11.4807
▁confidential	-11.4807
▁loyal	-11.4807
▁sodom	-11.4808
▁piggy	-11.4808
▁meticulous	-11.4808
▁unspeakab	-11.4808
▁distinct	-11.4808
▁miraculous	-11.4808
▁surprising	-11.4808
ogenic	-11.4808
splenda	-11.4808
▁abraham	-11.4808
▁absurd	-11.4808
▁administration	-11.4808
▁adrenaline	-11.4808
▁advertising	-11.4808
▁advil	-11.4808
▁aggravat	-11.4808
▁albano	-11.4808
▁alissa	-11.4808
▁amygdala	-11.4808
▁anomaleum	-11.4808
▁arabella	-11.4808
▁archdiocese	-11.4808
▁articulate	-11.4808
▁astronaut	-11.4808
▁aurora	-11.4808
▁autograph	-11.4808
▁barstow	-11.4808
▁beignet	-11.4808
▁bianchini	-11.4808
▁biciklom	-11.4808
▁blondie	-11.4808
▁bounty	-11.4808
▁brisbane	-11.4808
▁cambodia	-11.4808
▁cambridge	-11.4808
▁catastroph	-11.4808
▁caviar	-11.4808
▁ceiling	-11.4808
▁chittering	-11.4808
▁chrissake	-11.4808
▁cieiia	-11.4808
▁circus	-11.4808
▁colmsonnylarry	-11.4808
▁colombia	-11.4808
▁connery	-11.4808
▁conspiracy	-11.4808
▁controversial	-11.4808
▁crumpet	-11.4808
▁curfew	-11.4808
▁cynic	-11.4808
▁dammit	-11.4808
▁december	-11.4808
▁dekalb	-11.4808
▁deluca	-11.4808
▁desperation	-11.4808
▁doorstep	-11.4808
▁drakos	-11.4808
▁encounter	-11.4808
▁escalator	-11.4808
▁excavator	-11.4808
▁exwife	-11.4808
▁fidget	-11.4808
▁fleurdelis	-11.4808
▁footprints	-11.4808
▁fundamental	-11.4808
▁garrett	-11.4808
▁ghetto	-11.4808
▁ghhol	-11.4808
▁gracias	-11.4808
▁graziella	-11.4808
▁guillem	-11.4808
▁hafferty	-11.4808
▁handwriting	-11.4808
▁happiest	-11.4808
▁heraklion	-11.4808
▁homosexual	-11.4808
▁horrific	-11.4808
▁horrox	-11.4808
▁humiliate	-11.4808
▁hypocri	-11.4808
▁illiterate	-11.4808
▁inferior	-11.4808
▁info	-11.4808
▁initial	-11.4808
▁injury	-11.4808
▁insanity	-11.4808
▁inspiring	-11.4808
▁interrogation	-11.4808
▁jangshemash	-11.4808
▁jocelyn	-11.4808
▁kansas	-11.4808
▁karma	-11.4808
▁kentucky	-11.4808
▁knutzhorn	-11.4808
▁kombat	-11.4808
▁krueger	-11.4808
▁lawsuit	-11.4808
▁legitimate	-11.4808
▁lewyn	-11.4808
▁lmpala	-11.4808
▁luggage	-11.4808
▁luigino	-11.4808
▁lukashenko	-11.4808
▁mafia	-11.4808
▁manufacturing	-11.4808
▁marybeth	-11.4808
▁massachusetts	-11.4808
▁massacre	-11.4808
▁mcdonald	-11.4808
▁minivan	-11.4808
▁miscarriage	-11.4808
▁mohammed	-11.4808
▁mongrel	-11.4808
▁nominee	-11.4808
▁oatmeal	-11.4808
▁obama	-11.4808
▁obscene	-11.4808
▁obsession	-11.4808
▁offensive	-11.4808
▁opponent	-11.4808
▁overwhelming	-11.4808
▁painkillers	-11.4808
▁parachute	-11.4808
▁paragraph	-11.4808
▁parakeet	-11.4808
▁paranoia	-11.4808
▁paretti	-11.4808
▁patriot	-11.4808
▁pepper	-11.4808
▁perception	-11.4808
▁pheasant	-11.4808
▁popcorn	-11.4808
▁primitive	-11.4808
▁pursuit	-11.4808
▁racket	-11.4808
▁rebuild	-11.4808
▁recognise	-11.4808
▁reinforcements	-11.4808
▁relevant	-11.4808
▁resonance	-11.4808
▁roccaraso	-11.4808
▁ryder	-11.4808
▁sabotage	-11.4808
▁satanic	-11.4808
▁selfrighteous	-11.4808
▁sentinels	-11.4808
▁shepherd	-11.4808
▁sizzles	-11.4808
▁sleepwalk	-11.4808
▁souvenir	-11.4808
▁spectacular	-11.4808
▁spencer	-11.4808
▁squelching	-11.4808
▁storage	-11.4808
▁strode	-11.4808
▁sunglasses	-11.4808
▁suspicion	-11.4808
▁swamp	-11.4808
▁sweatshirt	-11.4808
▁sweetbreads	-11.4808
▁syllabus	-11.4808
▁symmetry	-11.4808
▁tarzan	-11.4808
▁therapist	-11.4808
▁tonsillitis	-11.4808
▁travis	-11.4808
▁umbrella	-11.4808
▁unavailable	-11.4808
▁unbearable	-11.4808
▁unemployment	-11.4808
▁unfold	-11.4808
▁ungrateful	-11.4808
▁unpredictable	-11.4808
▁untouchable	-11.4808
▁vanderohe	-11.4808
▁vatican	-11.4808
▁vegetarian	-11.4808
▁vomit	-11.4808
▁vulgar	-11.4808
▁wardrobe	-11.4808
▁wrath	-11.4808
▁yelburton	-11.4808
▁zheng	-11.4808
▁artisan	-11.4808
▁buckingham	-11.4808
▁burnett	-11.4808
▁carolyn	-11.4808
▁croissant	-11.4808
▁cycle	-11.4808
▁enhance	-11.4808
▁essence	-11.4808
▁essex	-11.4808
▁ireland	-11.4808
▁irritate	-11.4808
▁keller	-11.4808
▁laddie	-11.4808
▁leroy	-11.4808
▁oath	-11.4808
▁ouch	-11.4808
▁phew	-11.4808
▁predator	-11.4808
▁remorse	-11.4808
▁spook	-11.4808
▁stockholder	-11.4808
▁swarm	-11.4808
▁tampon	-11.4808
▁whatcha	-11.4808
▁breyer	-11.4808
▁firearm	-11.4808
▁francais	-11.4808
▁fryer	-11.4808
▁millionaire	-11.4808
▁opportunities	-11.4808
▁pendant	-11.4808
▁prescient	-11.4808
▁reboot	-11.4808
▁sweden	-11.4808
▁throne	-11.4808
▁whatsoever	-11.4808
ahahahahahah	-11.4808
▁abyss	-11.4808
▁awaits	-11.4808
▁bandaid	-11.4808
▁crucified	-11.4808
▁forcing	-11.4808
▁oreo	-11.4808
▁palace	-11.4808
▁prospects	-11.4808
▁sunrise	-11.4808
▁disabled	-11.4808
▁eev	-11.4808
▁iife	-11.4808
▁larkin	-11.4808
▁predict	-11.4808
▁promising	-11.4808
▁viral	-11.4808
▁iko	-11.4808
▁fellini	-11.4808
▁flunk	-11.4808
▁luton	-11.4808
▁abuel	-11.4809
▁hellenic	-11.4809
▁malfunction	-11.4809
▁peddl	-11.4809
▁atm	-11.4809
▁grabbed	-11.4809
▁myseif	-11.4809
▁occurred	-11.4809
▁pinned	-11.4809
▁titans	-11.4809
▁yoshi	-11.4809
▁sinned	-11.4809
▁naomi	-11.4809
▁brookfield	-11.4809
▁hauling	-11.4809
▁twobit	-11.4809
▁persua	-11.4809
▁strut	-11.4809
▁stuart	-11.4809
▁sailboat	-11.4809
▁velez	-11.4809
▁lumin	-11.4809
▁telegram	-11.4809
stage	-11.4809
▁constitution	-11.4809
▁nord	-11.4809
▁thurman	-11.4809
▁determination	-11.4809
▁midwest	-11.4809
▁foreplay	-11.4809
▁sloppy	-11.4809
▁convertible	-11.4809
▁fragile	-11.4809
▁willow	-11.4809
▁yknow	-11.4809
▁romina	-11.4809
▁cartels	-11.4809
▁baroness	-11.4809
▁hannah	-11.4809
▁perks	-11.4809
▁software	-11.4809
▁interference	-11.4809
▁interstate	-11.4809
▁farewell	-11.4809
▁allergic	-11.4809
▁utica	-11.4809
▁historical	-11.4809
▁vault	-11.4809
▁agitated	-11.4809
▁fiction	-11.4809
▁caroline	-11.4809
▁casualties	-11.4809
▁monica	-11.4809
▁shauna	-11.4809
▁dental	-11.4809
▁beneficiary	-11.4809
▁bloated	-11.4809
▁operative	-11.4809
▁lipstick	-11.4809
▁curtain	-11.4809
▁psychologist	-11.4809
▁willie	-11.4809
▁outrageous	-11.4809
▁gerick	-11.4809
▁walsh	-11.4809
▁granddaughter	-11.4809
▁polish	-11.4809
▁sutra	-11.4809
▁vegan	-11.4809
▁verge	-11.4809
▁inevitable	-11.4809
▁introduction	-11.4809
▁intuition	-11.4809
▁shuttle	-11.4809
▁hendri	-11.4809
▁piay	-11.4809
▁grail	-11.4809
▁fock	-11.4809
▁spark	-11.4809
▁referring	-11.4809
▁mick	-11.4809
elimina	-11.4809
▁malone	-11.4809
▁embarrassment	-11.4809
▁helen	-11.4809
▁expelled	-11.4809
▁formula	-11.4809
▁spinoff	-11.4809
▁communist	-11.4809
▁lizard	-11.4809
▁poker	-11.4809
▁republican	-11.4809
▁zane	-11.4809
▁bovver	-11.481
▁buffet	-11.481
▁savage	-11.481
▁plot	-11.481
▁colorado	-11.481
▁pulp	-11.481
▁sustain	-11.481
▁burial	-11.481
▁victorious	-11.481
▁nword	-11.481
cheeseburger	-11.481
▁distill	-11.481
▁veil	-11.481
▁denise	-11.481
▁customary	-11.481
▁japan	-11.481
▁roast	-11.481
▁urine	-11.481
▁donald	-11.481
▁evi	-11.481
▁meme	-11.481
▁supervisor	-11.481
▁delta	-11.481
▁monde	-11.481
▁dragging	-11.481
▁overall	-11.481
▁southwest	-11.481
▁expertise	-11.481
▁burson	-11.481
▁dispute	-11.481
▁hatred	-11.481
▁oana	-11.481
▁dojo	-11.481
▁campfire	-11.481
▁elena	-11.481
▁ieft	-11.481
ternity	-11.481
▁confidentiality	-11.481
▁harp	-11.481
▁lyon	-11.481
▁sober	-11.481
▁slash	-11.481
▁shaving	-11.481
▁fiend	-11.4811
▁lurk	-11.4811
▁aaah	-11.4811
▁mature	-11.4811
▁slack	-11.4811
▁heath	-11.4811
▁naples	-11.4811
▁jj	-11.4811
▁hardware	-11.4811
▁truce	-11.4811
eewa	-11.4811
▁covid	-11.4811
▁philosoph	-11.4811
▁portrait	-11.4811
▁qualified	-11.4811
▁sufficient	-11.4811
▁discretion	-11.4811
▁tango	-11.4811
▁sofa	-11.4811
▁dreadful	-11.4811
▁libido	-11.4811
▁jits	-11.4811
▁rash	-11.4811
▁curry	-11.4811
▁begged	-11.4811
▁depress	-11.4811
▁occasionally	-11.4812
▁disappearance	-11.4812
▁consciousness	-11.4812
▁zebra	-11.4812
▁hahn	-11.4812
▁festival	-11.4812
▁chores	-11.4812
rice	-11.4812
▁aione	-11.4812
▁ifs	-11.4812
▁quant	-11.4812
▁shear	-11.4812
▁incarceration	-11.4812
▁martinez	-11.4812
▁semen	-11.4812
▁implie	-11.4812
▁reset	-11.4812
▁demo	-11.4812
▁turk	-11.4812
▁syrian	-11.4812
▁petty	-11.4812
omination	-11.4812
▁intensi	-11.4813
▁princeton	-11.4813
▁alexand	-11.4813
▁sailor	-11.4813
▁chapel	-11.4813
oohooh	-11.4813
▁drape	-11.4813
▁derick	-11.4813
▁waah	-11.4813
▁sawyer	-11.4813
▁courtroom	-11.4813
▁shang	-11.4813
▁mediation	-11.4813
▁corona	-11.4813
▁gateway	-11.4813
▁affection	-11.4814
▁mmmmmm	-11.4814
▁kha	-11.4814
▁slim	-11.4814
▁vicar	-11.4814
▁aight	-11.4814
▁hugh	-11.4814
▁cabinet	-11.4814
▁gurgling	-11.4814
▁attendant	-11.4814
▁frito	-11.4814
▁searing	-11.4814
▁conviction	-11.4815
▁symbolic	-11.4815
▁nsa	-11.4815
▁bellow	-11.4815
▁susanne	-11.4816
▁zion	-11.4816
▁inconvenient	-11.4816
▁stitches	-11.4816
▁exhibition	-11.4816
antom	-11.4816
▁travelling	-11.4817
▁tee	-11.4817
▁berlin	-11.4817
▁wilson	-11.4817
▁deceived	-11.4817
▁tension	-11.4817
▁barney	-11.4817
▁wade	-11.4817
▁wolves	-11.4817
▁fowl	-11.4818
▁stack	-11.4818
▁gangster	-11.4818
▁andre	-11.4818
▁baba	-11.4818
▁cramp	-11.4819
stabbing	-11.4819
▁thong	-11.4819
▁vel	-11.4819
▁liu	-11.4819
▁vp	-11.482
hood	-11.482
▁investor	-11.482
▁rival	-11.482
ntact	-11.4821
▁sandra	-11.4821
▁untie	-11.4821
▁african	-11.4821
▁mentor	-11.4821
ggy	-11.4821
cept	-11.4822
▁jang	-11.4823
▁epa	-11.4823
▁vous	-11.4823
▁edw	-11.4823
ilian	-11.4823
▁lem	-11.4823
▁projection	-11.4823
▁fuss	-11.4824
▁hamp	-11.4824
▁bloodline	-11.4824
▁chic	-11.4824
▁overreacting	-11.4824
▁surrounding	-11.4824
orah	-11.4825
▁virtue	-11.4825
▁admitted	-11.4825
▁facebook	-11.4825
five	-11.4826
▁directories	-11.4826
▁donna	-11.4826
▁oppose	-11.4826
▁puffer	-11.4826
▁gently	-11.4827
▁rapidly	-11.4827
▁eff	-11.4827
▁flattered	-11.4827
▁registered	-11.4827
▁supporters	-11.4828
▁marion	-11.4828
▁puked	-11.4828
▁capri	-11.4829
▁hopin	-11.4829
▁vain	-11.4829
▁slum	-11.483
▁herb	-11.483
▁zoom	-11.483
▁tapping	-11.4831
▁lucien	-11.4831
▁fra	-11.4831
▁jammed	-11.4832
▁scale	-11.4833
▁cellar	-11.4833
▁precisely	-11.4833
▁promoted	-11.4834
▁hash	-11.4834
▁banana	-11.4834
▁bluffing	-11.4834
▁clanging	-11.4834
▁departing	-11.4835
▁acre	-11.4835
▁colin	-11.4836
▁sprinklers	-11.4836
▁margot	-11.4837
▁drone	-11.4838
▁parttime	-11.4839
▁deet	-11.484
▁dice	-11.484
▁mustard	-11.484
▁eternally	-11.484
▁madness	-11.4841
▁grilled	-11.4842
▁revealed	-11.4842
▁linger	-11.4843
▁crunching	-11.4845
▁bradlee	-11.4845
▁peak	-11.4845
▁sul	-11.4845
▁restored	-11.4845
▁brandy	-11.4846
▁seventh	-11.4847
most	-11.4847
▁replaced	-11.4847
▁firemen	-11.4848
▁cove	-11.4849
▁quest	-11.4849
▁intended	-11.4849
▁sche	-11.485
▁worthless	-11.485
▁jackass	-11.485
▁huntin	-11.485
▁vers	-11.4851
▁cha	-11.4852
▁shipment	-11.4853
▁milli	-11.4855
▁daylight	-11.4855
▁gramma	-11.4857
▁rumble	-11.4857
▁gap	-11.4858
▁sickness	-11.4858
▁bulletin	-11.4862
▁uk	-11.4863
▁trespassing	-11.4866
▁hound	-11.4866
▁turd	-11.4867
▁iim	-11.4868
▁pace	-11.4868
▁whack	-11.4869
▁altered	-11.4872
▁wandered	-11.4872
▁coal	-11.4872
▁sar	-11.4873
▁consumer	-11.4875
▁starve	-11.4878
▁followers	-11.4879
▁bully	-11.488
▁ration	-11.4882
▁beads	-11.4885
▁dere	-11.4885
▁jonesy	-11.4885
▁wasps	-11.4885
▁sipe	-11.4886
▁topic	-11.4888
headed	-11.4889
ulia	-11.489
genital	-11.4892
▁mild	-11.4892
best	-11.4893
▁some	-11.4894
▁interrupted	-11.4895
▁howdo	-11.4896
▁heyward	-11.4898
▁perfumer	-11.4899
▁taiking	-11.49
▁saysoe	-11.4907
▁reminder	-11.4907
▁sweeping	-11.4907
▁disappointing	-11.4908
▁updated	-11.4913
prompt	-11.4914
▁carried	-11.4917
▁collected	-11.4917
▁glowing	-11.4918
▁applying	-11.4918
▁kiiiing	-11.4918
▁awe	-11.4921
▁eta	-11.4923
▁fogg	-11.4924
eligible	-11.4924
▁attempted	-11.4924
▁any	-11.4925
▁needham	-11.4925
▁smashed	-11.4926
▁interrupting	-11.4929
▁tow	-11.4938
▁assaulted	-11.4939
▁verse	-11.4942
▁abused	-11.4943
▁appeared	-11.4944
iiy	-11.4952
▁boner	-11.4956
▁crushing	-11.496
▁digital	-11.4963
onna	-11.4963
▁tempt	-11.4968
▁cruis	-11.4969
umbles	-11.4971
▁closest	-11.4975
▁risky	-11.4976
▁pouring	-11.4981
▁goose	-11.4983
▁merr	-11.4984
▁cured	-11.4985
▁arrows	-11.4985
▁drift	-11.4986
▁passports	-11.4987
rry	-11.4987
▁snowing	-11.4991
▁wy	-11.4995
▁missi	-11.5
▁stupido	-11.5002
▁holden	-11.5004
▁stu	-11.5014
▁cryin	-11.5015
▁richer	-11.5024
▁understandable	-11.5025
▁ski	-11.5034
▁forensics	-11.5036
▁survivors	-11.5036
▁elo	-11.5038
▁exceptional	-11.504
ado	-11.5049
▁coup	-11.5053
bling	-11.5054
▁failing	-11.5056
▁suggesting	-11.5061
▁messy	-11.5063
state	-11.5067
▁tis	-11.5071
▁por	-11.5077
▁sadly	-11.5081
▁rapp	-11.5083
▁blossoms	-11.5087
▁peanuts	-11.5087
▁references	-11.5087
▁sheets	-11.5087
dollar	-11.5089
▁goats	-11.5095
▁pickle	-11.5099
▁poster	-11.5102
▁primar	-11.5113
awk	-11.5116
▁pear	-11.5121
▁mono	-11.5129
▁chokes	-11.5139
▁creatures	-11.5139
▁elephants	-11.5139
▁shootin	-11.5141
martial	-11.5142
▁peas	-11.5156
rison	-11.5164
▁mutt	-11.5164
▁barri	-11.5165
▁rely	-11.5168
▁bearing	-11.517
worn	-11.5176
▁doubted	-11.5176
▁rhythmic	-11.5185
▁instincts	-11.519
ament	-11.5192
▁cracked	-11.521
▁comics	-11.5237
▁mills	-11.5243
▁automatic	-11.5251
▁lookout	-11.5261
▁texting	-11.5263
▁payin	-11.5287
▁charts	-11.5287
▁indians	-11.5289
▁washing	-11.5302
▁dated	-11.5307
▁mover	-11.5308
▁marrying	-11.5314
▁sly	-11.5317
▁hairy	-11.532
▁ferri	-11.5339
▁jams	-11.5339
▁nana	-11.5343
beii	-11.5343
▁stinks	-11.5344
▁myths	-11.5347
▁uniforms	-11.5347
hl	-11.535
▁importantly	-11.5356
tie	-11.5371
▁dancers	-11.5377
▁fasten	-11.5379
▁lion	-11.5388
▁hooking	-11.5391
lam	-11.5393
▁virgins	-11.5399
▁drawings	-11.54
▁stammers	-11.54
▁nina	-11.5403
▁cone	-11.5413
six	-11.5414
▁aids	-11.545
▁abortions	-11.5453
▁cowboys	-11.5453
▁curl	-11.5457
▁nails	-11.5463
▁oversee	-11.5469
▁facet	-11.5477
▁treating	-11.5478
▁but	-11.5484
itation	-11.5495
take	-11.5497
▁mort	-11.5499
▁penni	-11.5506
▁unlocks	-11.5506
▁passages	-11.5507
▁appointments	-11.5507
▁rabbits	-11.5507
▁ado	-11.5515
tly	-11.5546
za	-11.5556
▁slaves	-11.556
▁slowing	-11.5571
▁fees	-11.558
▁rider	-11.5591
wski	-11.5596
jack	-11.5599
nine	-11.5606
▁sho	-11.5608
▁flags	-11.5613
iate	-11.5616
▁feared	-11.562
teen	-11.5622
row	-11.5634
rine	-11.5645
▁recite	-11.5646
▁haz	-11.5664
▁pilots	-11.5668
▁viv	-11.5677
▁tease	-11.5678
▁influence	-11.569
▁naive	-11.5717
▁devices	-11.5723
▁fighters	-11.5734
▁bulls	-11.5746
▁finance	-11.5753
▁slo	-11.5753
▁nu	-11.5769
▁lac	-11.5771
▁cro	-11.5777
▁models	-11.5778
▁geni	-11.5783
▁slot	-11.5804
▁ob	-11.5809
▁catching	-11.5809
▁explaining	-11.5813
▁barr	-11.5823
▁borders	-11.5833
▁routines	-11.5833
anne	-11.5836
inal	-11.5863
▁routes	-11.5877
lover	-11.5878
nquire	-11.5886
▁operations	-11.5889
▁centers	-11.589
▁mars	-11.5899
▁missy	-11.5903
air	-11.5912
▁wal	-11.5914
▁writers	-11.5919
▁mor	-11.5937
lia	-11.5938
▁loans	-11.5944
▁grandmothers	-11.5944
▁threats	-11.5946
▁medi	-11.5953
▁bru	-11.596
▁plants	-11.596
umb	-11.5991
▁initiate	-11.6008
▁gener	-11.6011
nor	-11.6025
nite	-11.6062
▁cult	-11.6067
trap	-11.6071
▁ann	-11.6076
▁ep	-11.6105
did	-11.6114
oof	-11.6135
▁wit	-11.6144
itty	-11.615
aro	-11.6155
ico	-11.6191
ame	-11.622
▁lag	-11.6224
abh	-11.6231
your	-11.627
lk	-11.628
gummy	-11.6292
▁abnormal	-11.6303
▁mut	-11.6382
year	-11.639
▁fatal	-11.6405
▁myr	-11.6416
▁sai	-11.6421
cam	-11.6425
▁domin	-11.6429
▁nno	-11.6432
▁nin	-11.6492
▁eu	-11.6495
hopper	-11.6501
long	-11.6519
rified	-11.6527
rous	-11.6533
diment	-11.654
▁bre	-11.6555
kan	-11.6558
bee	-11.656
▁gin	-11.6567
▁wei	-11.6581
lier	-11.6611
▁rout	-11.6635
wit	-11.6639
▁sim	-11.6645
vy	-11.6662
nny	-11.6663
▁ax	-11.6666
rep	-11.6668
then	-11.6678
▁rand	-11.6689
▁confe	-11.6698
hold	-11.6713
▁arc	-11.673
▁aspirin	-11.6743
ram	-11.6773
lateral	-11.6823
opped	-11.6836
▁coo	-11.6865
▁compa	-11.6866
ili	-11.6874
hy	-11.6878
▁brew	-11.6886
▁submit	-11.6889
▁scam	-11.6913
▁uri	-11.692
ello	-11.692
ugging	-11.6954
aka	-11.6957
west	-11.6969
▁juli	-11.697
rate	-11.6982
▁exam	-11.6992
▁merc	-11.6995
▁terr	-11.7001
▁vin	-11.7008
umbling	-11.7009
▁shel	-11.7037
▁mcc	-11.7042
▁sniff	-11.7046
▁cane	-11.7047
pressed	-11.7047
▁pier	-11.705
tag	-11.7053
▁shov	-11.7058
▁sophi	-11.7061
▁algorithm	-11.708
▁rehearsal	-11.7083
▁passport	-11.709
▁arrow	-11.7092
▁fireball	-11.7098
▁rustle	-11.7098
▁fingerprint	-11.7099
▁hatche	-11.7102
vision	-11.7105
▁condom	-11.7109
▁civiliz	-11.7112
jugat	-11.7114
▁onion	-11.712
▁tick	-11.7132
▁unzipp	-11.714
▁sten	-11.7146
▁digit	-11.7152
▁mam	-11.7168
▁author	-11.7171
iflow	-11.7175
gee	-11.7175
▁pho	-11.718
▁lung	-11.7182
tile	-11.7182
▁cod	-11.7185
▁expos	-11.7187
armed	-11.7187
▁allie	-11.7192
exus	-11.7198
▁legit	-11.7209
▁origin	-11.721
▁profession	-11.7213
▁rod	-11.7218
▁valid	-11.7222
▁ramp	-11.7223
▁entertain	-11.7236
▁imagina	-11.7249
▁cou	-11.725
▁splash	-11.7259
▁accord	-11.7263
▁crunch	-11.7263
▁introduc	-11.7264
▁annoy	-11.7264
▁abe	-11.7264
▁cloth	-11.7267
amin	-11.7268
friend	-11.7268
▁attract	-11.727
▁rou	-11.7271
▁scr	-11.7272
ku	-11.7272
▁swell	-11.7272
▁flick	-11.7273
▁scoot	-11.7273
▁recruit	-11.7274
▁snatch	-11.7275
dependen	-11.7277
▁dismiss	-11.7278
sworth	-11.7279
shop	-11.7282
▁retire	-11.7283
evel	-11.7283
▁puke	-11.7284
▁spear	-11.7285
piece	-11.7286
▁complicate	-11.7286
play	-11.7286
hunt	-11.7286
woman	-11.7286
▁gram	-11.7287
view	-11.7287
order	-11.7287
acceptable	-11.7288
▁hitchhike	-11.7288
count	-11.7289
winning	-11.7289
mobile	-11.7289
through	-11.7289
seven	-11.7289
third	-11.729
security	-11.729
week	-11.729
miss	-11.7291
level	-11.7291
▁expire	-11.7291
▁hamburg	-11.7293
think	-11.7293
capable	-11.7294
home	-11.7294
▁hobb	-11.7294
▁shir	-11.7295
▁atti	-11.7295
dress	-11.7296
site	-11.7296
emia	-11.7297
wide	-11.7297
person	-11.7297
eft	-11.73
buck	-11.73
wait	-11.7301
rried	-11.7301
eppin	-11.7301
▁canvas	-11.7301
▁snip	-11.7301
fast	-11.7301
▁mattress	-11.7302
▁daria	-11.7303
▁corp	-11.7303
▁officia	-11.7303
▁marv	-11.7304
▁motherfuckin	-11.7304
▁polo	-11.7304
▁drivin	-11.7304
▁mornin	-11.7304
nklin	-11.7304
▁berl	-11.7305
▁roos	-11.7305
aila	-11.7305
▁resurrect	-11.7305
▁givin	-11.7306
stead	-11.7306
▁zach	-11.7306
▁livin	-11.7306
▁neglect	-11.7306
▁interpret	-11.7306
water	-11.7306
▁vigil	-11.7307
▁uncertain	-11.7307
▁musk	-11.7307
▁nois	-11.7308
▁conspir	-11.7308
▁olive	-11.7308
▁rom	-11.7308
morr	-11.7308
▁bureau	-11.7308
▁buff	-11.7308
dolph	-11.7308
negotiat	-11.7308
▁cigz	-11.7308
▁simultaneous	-11.7308
▁spaghetti	-11.7308
▁testosterone	-11.7308
owitz	-11.7308
▁acquaintance	-11.7308
▁advisor	-11.7308
▁affirmative	-11.7308
▁agenda	-11.7308
▁aghadoe	-11.7308
▁alligator	-11.7308
▁ambassador	-11.7308
▁angrier	-11.7308
▁antenna	-11.7308
▁approval	-11.7308
▁aqui	-11.7308
▁arraign	-11.7308
▁asylum	-11.7308
▁attagirl	-11.7308
▁bakary	-11.7308
▁bastien	-11.7308
▁beautifui	-11.7308
▁berlioz	-11.7308
▁bismuth	-11.7308
▁bizarre	-11.7308
▁bonsoir	-11.7308
▁bourbon	-11.7308
▁brackett	-11.7308
▁bragging	-11.7308
▁brigitte	-11.7308
▁bronteroc	-11.7308
▁bulletproof	-11.7308
▁cadillac	-11.7308
▁camilla	-11.7308
▁camouflage	-11.7308
▁capoeira	-11.7308
▁carnegie	-11.7308
▁carpenter	-11.7308
▁casefile	-11.7308
▁casket	-11.7308
▁catechism	-11.7308
▁checkabarame	-11.7308
▁chingachgook	-11.7308
▁chirring	-11.7308
▁cinema	-11.7308
▁clumsy	-11.7308
▁coalition	-11.7308
▁complications	-11.7308
▁congrat	-11.7308
▁congratulate	-11.7308
▁contempt	-11.7308
▁convincing	-11.7308
▁cornstarch	-11.7308
▁corporal	-11.7308
▁cripple	-11.7308
▁curiosity	-11.7308
▁cushion	-11.7308
▁cybebe	-11.7308
▁deceased	-11.7308
▁despair	-11.7308
▁detention	-11.7308
▁digicom	-11.7308
▁disciples	-11.7308
▁discipline	-11.7308
▁discrepanc	-11.7308
▁doiiars	-11.7308
▁domestic	-11.7308
▁dorchester	-11.7308
▁dorothy	-11.7308
▁dribble	-11.7308
▁dryclean	-11.7308
▁earthrealm	-11.7308
▁efficient	-11.7308
▁eievator	-11.7308
▁elaborate	-11.7308
▁elmhurst	-11.7308
▁emerging	-11.7308
▁empathy	-11.7308
▁empingao	-11.7308
▁endearing	-11.7308
▁ethiopian	-11.7308
▁exaggerat	-11.7308
▁exotic	-11.7308
▁explore	-11.7308
▁expriest	-11.7308
▁fantasies	-11.7308
▁feminist	-11.7308
▁filpatrick	-11.7308
▁firecracker	-11.7308
▁flourish	-11.7308
▁fontenot	-11.7308
▁frustrated	-11.7308
▁furnace	-11.7308
▁fuzzy	-11.7308
▁gaillard	-11.7308
▁germs	-11.7308
▁giovanni	-11.7308
▁gorilla	-11.7308
▁granddaddy	-11.7308
▁granite	-11.7308
▁gratitude	-11.7308
▁gravy	-11.7308
▁grenade	-11.7308
▁harbor	-11.7308
▁hilarious	-11.7308
▁hispanic	-11.7308
▁horror	-11.7308
▁humanitarian	-11.7308
▁hustle	-11.7308
▁hygien	-11.7308
▁iaughin	-11.7308
▁immune	-11.7308
▁indictment	-11.7308
▁industries	-11.7308
▁ingredients	-11.7308
▁input	-11.7308
▁intensifying	-11.7308
▁intersection	-11.7308
▁intervention	-11.7308
▁jacque	-11.7308
▁jocasta	-11.7308
▁kennedi	-11.7308
▁kintry	-11.7308
▁kolpos	-11.7308
▁krakow	-11.7308
▁kujaku	-11.7308
▁larrabee	-11.7308
▁liberty	-11.7308
▁lullaby	-11.7308
▁mademoiselle	-11.7308
▁maestro	-11.7308
▁magalie	-11.7308
▁mandatory	-11.7308
▁manslaughter	-11.7308
▁marshmallow	-11.7308
▁matsumoto	-11.7308
▁mckenna	-11.7308
▁melania	-11.7308
▁melissa	-11.7308
▁meronym	-11.7308
▁michigan	-11.7308
▁mikie	-11.7308
▁misunderstood	-11.7308
▁miyagi	-11.7308
▁mohican	-11.7308
▁monopoly	-11.7308
▁monument	-11.7308
▁morphine	-11.7308
▁mozart	-11.7308
▁neighs	-11.7308
▁nennella	-11.7308
▁nitwit	-11.7308
▁nonlethal	-11.7308
▁november	-11.7308
▁opposing	-11.7308
▁ordeal	-11.7308
▁ornament	-11.7308
▁outstanding	-11.7308
▁paquin	-11.7308
▁paralyzed	-11.7308
▁pelissier	-11.7308
▁penelope	-11.7308
▁pepperoni	-11.7308
▁petition	-11.7308
▁piranha	-11.7308
▁playground	-11.7308
▁precinct	-11.7308
▁premature	-11.7308
▁premier	-11.7308
▁presbyterian	-11.7308
▁probiem	-11.7308
▁prominent	-11.7308
▁proposition	-11.7308
▁province	-11.7308
▁pyramids	-11.7308
▁recipe	-11.7308
▁recipient	-11.7308
▁redridge	-11.7308
▁reiax	-11.7308
▁remix	-11.7308
▁resilient	-11.7308
▁resourceful	-11.7308
▁ruckus	-11.7308
▁samantha	-11.7308
▁sancholo	-11.7308
▁scientific	-11.7308
▁scoop	-11.7308
▁scorpion	-11.7308
▁sensible	-11.7308
▁shamblers	-11.7308
▁shanley	-11.7308
▁singapore	-11.7308
▁sociopath	-11.7308
▁solicit	-11.7308
▁solitary	-11.7308
▁soninlaw	-11.7308
▁spartacus	-11.7308
▁sphynx	-11.7308
▁sponge	-11.7308
▁sputtering	-11.7308
▁strapped	-11.7308
▁strawberries	-11.7308
▁streetwalker	-11.7308
▁stroehmann	-11.7308
▁subgate	-11.7308
▁subscribe	-11.7308
▁substantial	-11.7308
▁surveillance	-11.7308
▁synthient	-11.7308
▁tactical	-11.7308
▁tapdanc	-11.7308
▁tequila	-11.7308
▁thrift	-11.7308
▁timothy	-11.7308
▁tomatoes	-11.7308
▁toothpaste	-11.7308
▁totem	-11.7308
▁tramadol	-11.7308
▁transcend	-11.7308
▁transformed	-11.7308
▁trembling	-11.7308
▁tribute	-11.7308
▁trillion	-11.7308
▁troubie	-11.7308
▁troupe	-11.7308
▁typewriter	-11.7308
▁undercover	-11.7308
▁underrated	-11.7308
▁uneasy	-11.7308
▁unmarried	-11.7308
▁unnecessary	-11.7308
▁ursula	-11.7308
▁vacuum	-11.7308
▁velocity	-11.7308
▁verify	-11.7308
▁violated	-11.7308
▁wagner	-11.7308
▁wallbrook	-11.7308
▁whomever	-11.7308
▁windthorne	-11.7308
▁wretched	-11.7308
▁xrays	-11.7308
▁yakov	-11.7308
▁yuko	-11.7308
▁zdorovije	-11.7308
▁zeffirelli	-11.7308
yield	-11.7308
▁airborne	-11.7308
▁alibi	-11.7308
▁bartender	-11.7308
▁carriage	-11.7308
▁carrots	-11.7308
▁coroner	-11.7308
▁crossexamin	-11.7308
▁devour	-11.7308
▁douche	-11.7308
▁dyke	-11.7308
▁eager	-11.7308
▁execution	-11.7308
▁falcon	-11.7308
▁garlic	-11.7308
▁gesture	-11.7308
▁grandparents	-11.7308
▁greasy	-11.7308
▁haskins	-11.7308
▁intimidat	-11.7308
▁juiie	-11.7308
▁keaty	-11.7308
▁klick	-11.7308
▁marjorie	-11.7308
▁narrative	-11.7308
▁neutral	-11.7308
▁oyster	-11.7308
▁platter	-11.7308
▁prenup	-11.7308
▁sindell	-11.7308
▁southeast	-11.7308
▁sprain	-11.7308
▁stutter	-11.7308
▁worid	-11.7308
▁astronomer	-11.7308
▁banu	-11.7308
▁budget	-11.7308
▁cannon	-11.7308
▁louisiana	-11.7308
▁pellet	-11.7308
▁redneck	-11.7308
▁shuffl	-11.7308
▁sushi	-11.7308
▁swerve	-11.7308
▁tabansi	-11.7308
▁widow	-11.7308
▁gulp	-11.7308
▁accelerat	-11.7308
▁aroused	-11.7308
▁doomed	-11.7308
▁hamptons	-11.7308
▁headhunter	-11.7308
▁lesek	-11.7308
▁mower	-11.7308
▁reconcil	-11.7308
▁sperm	-11.7308
▁worldcure	-11.7308
▁bbc	-11.7308
▁crescendo	-11.7308
▁cuputovati	-11.7308
▁noticing	-11.7308
▁oblivio	-11.7308
▁overhear	-11.7308
▁torment	-11.7308
▁confined	-11.7308
▁elements	-11.7308
▁gravit	-11.7308
▁raven	-11.7308
▁tampa	-11.7308
▁unholy	-11.7308
▁whereabouts	-11.7308
▁disposable	-11.7308
▁staircase	-11.7308
▁symptoms	-11.7308
▁ernie	-11.7309
▁hilton	-11.7309
▁lizzy	-11.7309
▁tatti	-11.7309
▁lunar	-11.7309
▁plancha	-11.7309
▁humiliating	-11.7309
▁yoona	-11.7309
▁impair	-11.7309
ynx	-11.7309
▁canned	-11.7309
▁ingenious	-11.7309
▁purple	-11.7309
▁doyle	-11.7309
▁teie	-11.7309
▁kidnapping	-11.7309
phrase	-11.7309
▁goddess	-11.7309
▁tidy	-11.7309
▁daisies	-11.7309
▁menacing	-11.7309
▁straw	-11.7309
▁basketball	-11.7309
▁swapp	-11.7309
▁serra	-11.7309
▁silverware	-11.7309
▁beware	-11.7309
▁cinder	-11.7309
▁fascinating	-11.7309
▁whitford	-11.7309
▁britain	-11.7309
▁carolina	-11.7309
▁motivat	-11.7309
▁integrity	-11.7309
▁unanimity	-11.7309
▁unplug	-11.7309
▁creativity	-11.7309
▁joburg	-11.7309
▁reproduc	-11.7309
▁ethan	-11.7309
▁nanna	-11.7309
▁invad	-11.7309
▁rookie	-11.7309
▁underwater	-11.7309
▁uncas	-11.7309
▁warehouse	-11.7309
▁immigrants	-11.7309
▁dedication	-11.7309
▁obligation	-11.7309
▁revelation	-11.7309
▁stride	-11.7309
▁cloudberry	-11.7309
▁scram	-11.7309
▁lust	-11.7309
▁piggyback	-11.7309
▁unstable	-11.7309
rgas	-11.7309
▁crazie	-11.7309
▁scramble	-11.7309
▁blogger	-11.7309
▁circulation	-11.7309
▁babysitting	-11.7309
▁stalin	-11.7309
▁gender	-11.7309
▁klu	-11.7309
▁disneyland	-11.7309
▁behold	-11.7309
▁blush	-11.7309
▁nuance	-11.7309
▁haske	-11.7309
▁glamour	-11.7309
▁ofyour	-11.7309
▁requirements	-11.7309
▁consistent	-11.7309
▁glue	-11.7309
▁ciose	-11.7309
▁levy	-11.7309
▁gringo	-11.7309
▁gentile	-11.7309
▁outworld	-11.7309
▁podium	-11.7309
▁analyz	-11.7309
▁charade	-11.7309
▁doughboy	-11.7309
▁vibrator	-11.7309
▁accusations	-11.7309
▁overpass	-11.7309
▁akil	-11.7309
▁singsong	-11.7309
▁moderate	-11.7309
▁unemployed	-11.7309
▁competent	-11.7309
▁pulse	-11.7309
▁reproduction	-11.7309
▁prius	-11.7309
▁jonjo	-11.7309
magnet	-11.7309
▁chestnut	-11.7309
▁slink	-11.7309
▁puii	-11.7309
▁beeface	-11.7309
▁seoul	-11.7309
▁tilda	-11.7309
▁web	-11.7309
▁joyrid	-11.7309
▁stacy	-11.7309
▁aasen	-11.731
▁expendable	-11.731
▁helium	-11.731
▁coddy	-11.731
▁riot	-11.731
▁incompetent	-11.731
▁inheritance	-11.731
▁tractor	-11.731
▁twentyfive	-11.731
▁uber	-11.731
▁nude	-11.731
▁nanana	-11.731
▁satisfaction	-11.731
▁tatin	-11.731
▁institute	-11.731
▁torn	-11.731
▁whatshis	-11.731
▁kilo	-11.731
▁orthop	-11.731
▁sebbo	-11.731
▁meow	-11.731
▁waltz	-11.731
▁pavement	-11.731
▁vroom	-11.731
▁hhow	-11.731
▁womb	-11.731
▁finna	-11.731
▁narc	-11.731
chester	-11.731
▁jangling	-11.731
▁interact	-11.731
▁retirement	-11.731
▁checkmate	-11.731
▁entertainment	-11.731
▁bruv	-11.731
▁choc	-11.731
▁inquiries	-11.731
▁cooch	-11.731
▁brainwash	-11.731
▁extension	-11.731
▁squat	-11.731
▁bummer	-11.731
▁hooting	-11.731
▁transferring	-11.731
▁busload	-11.731
▁pension	-11.731
▁providence	-11.731
▁fauci	-11.731
▁catfish	-11.731
▁suitcase	-11.731
▁yuri	-11.7311
▁skating	-11.7311
▁guz	-11.7311
▁pudg	-11.7311
▁russ	-11.7311
▁davy	-11.7311
▁slang	-11.7311
▁masculine	-11.7311
▁quarterback	-11.7311
▁janie	-11.7311
▁replie	-11.7311
▁bruce	-11.7311
▁howre	-11.7311
▁corpus	-11.7311
▁abruptly	-11.7311
▁raving	-11.7311
▁population	-11.7311
pul	-11.7311
▁preferred	-11.7311
▁contractors	-11.7311
▁tangle	-11.7311
▁observers	-11.7311
▁pillar	-11.7311
▁filter	-11.7311
▁fence	-11.7311
▁finch	-11.7311
▁undone	-11.7311
▁celebrity	-11.7311
▁vassary	-11.7311
▁corpse	-11.7311
▁cease	-11.7311
▁docket	-11.7311
lbeck	-11.7311
▁squirt	-11.7311
▁replacement	-11.7311
▁poppy	-11.7312
▁spank	-11.7312
▁yuck	-11.7312
▁vincent	-11.7312
▁countries	-11.7312
▁convert	-11.7312
▁thatthat	-11.7312
▁enchant	-11.7312
▁catatonic	-11.7312
▁climate	-11.7312
▁occupied	-11.7312
▁satisfied	-11.7312
▁slovakia	-11.7312
▁genetic	-11.7312
▁franchise	-11.7312
▁programming	-11.7312
▁seventeen	-11.7312
▁region	-11.7312
▁piane	-11.7312
cution	-11.7312
▁wimp	-11.7312
▁venable	-11.7312
▁excitement	-11.7312
▁warbling	-11.7312
oogum	-11.7312
▁flare	-11.7312
▁subside	-11.7312
▁leadership	-11.7312
▁froze	-11.7312
▁exactiy	-11.7312
▁mongo	-11.7312
▁meatbag	-11.7312
▁bueno	-11.7312
▁petland	-11.7312
▁chemo	-11.7313
▁dining	-11.7313
▁staging	-11.7313
▁rooster	-11.7313
▁fanci	-11.7313
▁amat	-11.7313
▁dart	-11.7313
▁zeus	-11.7313
▁calculation	-11.7313
▁edition	-11.7313
▁itit	-11.7313
▁musicians	-11.7313
▁arro	-11.7313
▁demi	-11.7313
▁liking	-11.7313
▁vibe	-11.7313
▁ribbon	-11.7314
▁salmon	-11.7314
▁rima	-11.7314
▁sunny	-11.7314
▁tuna	-11.7314
▁frog	-11.7314
▁assassination	-11.7314
▁frag	-11.7314
▁disability	-11.7314
▁cooperation	-11.7314
▁merci	-11.7314
▁retest	-11.7314
ofy	-11.7314
▁harmless	-11.7314
▁waving	-11.7314
▁pooh	-11.7315
▁achievement	-11.7315
▁fiddle	-11.7315
▁anhe	-11.7315
▁tripping	-11.7315
ault	-11.7315
▁eyeball	-11.7315
chever	-11.7315
▁trivial	-11.7315
▁waive	-11.7315
▁arson	-11.7315
▁injection	-11.7315
▁appleton	-11.7315
▁heck	-11.7315
▁suz	-11.7315
▁traders	-11.7316
torious	-11.7316
▁stepping	-11.7316
▁handgun	-11.7316
▁australian	-11.7316
▁intro	-11.7316
▁spout	-11.7316
nova	-11.7316
▁jeremy	-11.7316
▁ministry	-11.7316
▁strategy	-11.7316
▁hoid	-11.7316
▁bias	-11.7316
ortho	-11.7317
▁script	-11.7317
▁whoosh	-11.7317
▁youth	-11.7317
▁iight	-11.7317
▁bangee	-11.7317
▁impal	-11.7317
▁fireplace	-11.7317
▁shade	-11.7317
▁scarf	-11.7317
▁elite	-11.7317
▁foreman	-11.7318
▁leapt	-11.7318
▁wilderness	-11.7318
▁hover	-11.7318
▁hart	-11.7318
▁mit	-11.7318
▁jamie	-11.7318
▁heartache	-11.7318
▁aimless	-11.7318
▁flake	-11.7318
▁heli	-11.7319
▁residenc	-11.7319
▁ferry	-11.7319
▁hisse	-11.7319
▁apb	-11.7319
▁tide	-11.7319
▁planner	-11.7319
▁merit	-11.7319
▁betsy	-11.7319
▁hysterically	-11.7319
▁harmon	-11.7319
▁expand	-11.732
▁fractured	-11.732
▁marina	-11.732
▁chica	-11.732
▁severely	-11.732
▁portion	-11.732
▁snowman	-11.732
▁sneakers	-11.7321
▁supportive	-11.7321
▁stability	-11.7321
▁nursery	-11.7321
▁spotli	-11.7321
▁gem	-11.7321
▁stockings	-11.7321
▁vu	-11.7321
▁gangbanger	-11.7321
▁signai	-11.7322
▁homemade	-11.7322
▁slice	-11.7322
▁maddog	-11.7322
▁were	-11.7322
otine	-11.7322
▁reai	-11.7323
▁grudge	-11.7323
huckle	-11.7323
▁lice	-11.7323
hearted	-11.7323
▁shield	-11.7323
▁stalked	-11.7323
▁balm	-11.7324
▁porno	-11.7324
▁packet	-11.7324
▁geek	-11.7325
▁andes	-11.7325
▁agony	-11.7325
▁hypnotize	-11.7326
▁yoke	-11.7326
▁workshop	-11.7326
▁relic	-11.7326
▁mustache	-11.7326
▁certainty	-11.7326
▁dire	-11.7327
▁slop	-11.7327
▁ninety	-11.7327
▁anim	-11.7327
▁quiz	-11.7327
▁arrogant	-11.7328
▁siow	-11.7328
▁permanently	-11.7328
zzz	-11.7328
▁dickhead	-11.7328
ffy	-11.7329
▁murmuring	-11.7329
▁stunning	-11.7329
▁terrifying	-11.7329
▁hitchhiker	-11.7329
▁enable	-11.733
▁tachi	-11.733
▁rib	-11.733
▁commando	-11.733
▁alia	-11.7331
▁payoff	-11.7331
▁gunned	-11.7332
▁shiv	-11.7332
▁shattered	-11.7334
▁fatty	-11.7334
▁peach	-11.7334
▁tries	-11.7334
stand	-11.7334
▁dadada	-11.7334
lent	-11.7334
▁controlled	-11.7334
▁playback	-11.7335
▁morales	-11.7335
▁waitresses	-11.7335
▁heartbeat	-11.7335
▁agreeable	-11.7335
▁crushes	-11.7335
▁gaines	-11.7335
uous	-11.7335
icial	-11.7336
▁murderous	-11.7336
▁ira	-11.7337
▁deeds	-11.7337
▁artistic	-11.7338
▁freshman	-11.7338
etto	-11.7338
▁dole	-11.7339
▁contraction	-11.7339
▁selfie	-11.7339
▁lockup	-11.7341
xter	-11.7341
▁instantly	-11.7341
▁pronounced	-11.7342
▁deleted	-11.7342
▁mona	-11.7342
▁recruited	-11.7343
▁snatched	-11.7343
▁attracted	-11.7343
▁smi	-11.7343
▁entertained	-11.7344
▁superb	-11.7344
▁seventy	-11.7345
▁fury	-11.7345
yho	-11.7345
▁dinosaurs	-11.7345
▁meeks	-11.7345
▁narcotics	-11.7345
▁prototypes	-11.7345
▁sig	-11.7346
tious	-11.7346
▁chad	-11.7346
▁archer	-11.7349
▁pastry	-11.7351
▁crate	-11.7351
▁significant	-11.7352
▁tarr	-11.7352
▁controlling	-11.7352
▁mothership	-11.7354
▁vested	-11.7354
▁fiance	-11.7354
▁acceptable	-11.7354
article	-11.7356
▁speeches	-11.7356
▁maiden	-11.7356
▁puzzled	-11.7356
▁shhh	-11.7357
▁tran	-11.7357
▁lever	-11.7361
▁hail	-11.7361
▁dio	-11.7362
▁booty	-11.7362
▁rewarded	-11.7362
▁insta	-11.7363
▁berg	-11.7363
rawl	-11.7364
▁richest	-11.7365
▁oughta	-11.7365
▁policemen	-11.7366
▁forgiven	-11.7366
▁dominate	-11.7367
▁bleedin	-11.7368
▁gman	-11.7369
▁mea	-11.7371
▁rubber	-11.7372
▁tapi	-11.7372
▁wisely	-11.7372
▁recommended	-11.7372
▁cesare	-11.7373
usz	-11.7373
▁defined	-11.7373
▁expose	-11.7373
▁jap	-11.7374
▁skilled	-11.7374
▁webber	-11.7375
▁backpack	-11.7376
▁pastor	-11.7376
▁pisses	-11.7377
▁sixty	-11.7378
▁employer	-11.7381
▁hike	-11.7381
▁prevented	-11.7382
▁harassed	-11.7382
▁putney	-11.7382
▁fled	-11.7382
▁readout	-11.7382
▁vince	-11.7382
▁curt	-11.7383
▁publisher	-11.7384
▁equally	-11.7385
open	-11.7386
yla	-11.7387
▁ox	-11.7388
▁iate	-11.7388
▁whereve	-11.7391
▁carving	-11.7391
▁responded	-11.7392
▁bray	-11.7394
▁disarm	-11.7395
▁standup	-11.7395
▁nest	-11.7396
▁pike	-11.7397
▁greeting	-11.7398
▁complaint	-11.7399
ranged	-11.7402
▁illegally	-11.7403
▁bumper	-11.7404
▁phon	-11.7408
▁billie	-11.7409
▁reloads	-11.7409
▁occurs	-11.7409
▁vegetables	-11.7409
▁hath	-11.7409
▁fling	-11.7414
▁validate	-11.7416
▁ambushed	-11.7422
▁voted	-11.7422
▁thieve	-11.7425
▁teaches	-11.7426
▁ruby	-11.7427
▁bled	-11.743
▁tod	-11.7432
▁defended	-11.7433
▁pomp	-11.7433
ool	-11.7436
▁engineering	-11.7436
▁cargo	-11.7438
▁reel	-11.7439
▁bol	-11.7439
▁catal	-11.7441
▁robber	-11.7444
▁posed	-11.7444
▁muffie	-11.7445
▁ridin	-11.7447
▁ignored	-11.7448
▁pled	-11.745
▁secured	-11.7453
▁howling	-11.7453
▁detailed	-11.7454
erson	-11.7462
▁chased	-11.7462
▁approached	-11.7462
▁grinding	-11.7466
▁classes	-11.7466
▁weeping	-11.7467
▁thumbs	-11.7475
▁cigars	-11.7475
▁napkins	-11.7475
▁candles	-11.7475
▁cher	-11.7477
▁poisoning	-11.7481
▁rangers	-11.7481
▁representing	-11.7484
▁freaky	-11.7489
▁deserted	-11.7491
▁missus	-11.7493
▁pitched	-11.7497
▁ohhh	-11.7498
▁photographing	-11.7498
▁sher	-11.75
▁spying	-11.7508
▁sweating	-11.7509
cul	-11.7511
▁sext	-11.7513
▁skim	-11.7513
▁dod	-11.752
▁emailed	-11.7521
▁bumped	-11.7524
ezvous	-11.7525
▁consist	-11.7526
▁smashing	-11.7526
▁sporting	-11.7526
▁hinge	-11.7531
▁reviewed	-11.7532
▁spac	-11.7534
inners	-11.7535
▁whoops	-11.7538
▁pasta	-11.7538
▁rods	-11.7542
▁fireballs	-11.7542
▁algorithms	-11.7542
▁rehearsals	-11.7542
ellos	-11.7542
ider	-11.7549
▁lily	-11.7556
▁slamm	-11.7558
▁sealing	-11.7559
▁sane	-11.7559
▁marching	-11.7564
▁sole	-11.7567
llor	-11.7571
▁layer	-11.7577
▁rainy	-11.7579
▁characterize	-11.7581
▁finances	-11.7582
▁gran	-11.7584
▁bir	-11.7596
ril	-11.76
oface	-11.7604
▁wasted	-11.7605
▁hardon	-11.7609
▁strokes	-11.761
▁methods	-11.761
▁repairs	-11.761
▁yorker	-11.7611
▁asses	-11.7612
▁venu	-11.7614
▁singer	-11.7618
▁repeated	-11.7627
▁fallin	-11.7634
▁retain	-11.7637
▁rein	-11.7642
▁panick	-11.7644
▁qui	-11.7646
onald	-11.7647
ports	-11.7648
berry	-11.7649
▁rab	-11.7654
▁banged	-11.7663
giving	-11.7668
▁owen	-11.7669
▁concerning	-11.7671
▁isla	-11.7671
▁triple	-11.7671
▁lob	-11.7677
▁pods	-11.7678
▁ankles	-11.7678
▁terrorists	-11.7678
▁reservations	-11.7678
▁mais	-11.7686
▁pinch	-11.7689
raff	-11.7693
▁appreciated	-11.7697
▁remaining	-11.7699
▁cornered	-11.7701
▁whoop	-11.7707
lomo	-11.7717
▁quieter	-11.7727
ross	-11.7735
▁donuts	-11.7746
▁principles	-11.7747
▁reactions	-11.7747
▁settlements	-11.7749
▁smoker	-11.7755
▁capp	-11.7757
▁marketing	-11.7763
▁destroying	-11.7765
▁suites	-11.7771
▁shitting	-11.7777
▁vid	-11.7778
going	-11.7784
▁crackers	-11.7788
vious	-11.7791
▁growl	-11.7794
▁jamm	-11.7812
▁mango	-11.7819
donna	-11.7832
▁standin	-11.7834
▁shawn	-11.7834
▁pissing	-11.7837
▁pav	-11.7845
▁underestimate	-11.7857
▁suited	-11.786
▁tortur	-11.7866
date	-11.7871
▁liver	-11.7873
mar	-11.7887
▁drumm	-11.7889
▁dealin	-11.7893
adio	-11.7905
▁mcki	-11.7912
▁pressed	-11.7922
▁py	-11.7934
▁ver	-11.7935
rais	-11.7936
▁hereb	-11.7949
▁boost	-11.7966
▁har	-11.7979
▁buckle	-11.7987
▁malin	-11.7991
▁sor	-11.7993
▁eatin	-11.7998
rose	-11.8021
▁pine	-11.8024
▁turnin	-11.8031
ummy	-11.8031
▁playin	-11.8041
▁skipp	-11.8059
▁improve	-11.8071
▁wee	-11.8076
▁taped	-11.8079
▁wolfe	-11.8093
arland	-11.8108
▁inhale	-11.8118
anita	-11.8126
▁blam	-11.8134
blow	-11.8149
evin	-11.8162
▁itch	-11.8164
▁rais	-11.8167
▁ani	-11.8169
cor	-11.8212
ween	-11.8218
iii	-11.8218
oud	-11.8224
zers	-11.8225
ilities	-11.8227
▁virg	-11.8232
▁peek	-11.8243
seif	-11.8255
▁fer	-11.827
▁permitt	-11.8293
ipped	-11.8294
simo	-11.8295
▁squeez	-11.8305
tur	-11.8328
raci	-11.8342
equity	-11.8343
ivity	-11.8395
▁alli	-11.84
vag	-11.8402
bell	-11.8407
▁reli	-11.8411
aaa	-11.8427
▁supervis	-11.8436
mia	-11.8474
▁dub	-11.8476
but	-11.8479
▁rj	-11.8486
hro	-11.8489
gent	-11.8514
burg	-11.8535
▁cooke	-11.8582
umber	-11.8595
▁whil	-11.8625
▁shitter	-11.8638
hund	-11.8654
▁rott	-11.8676
▁bratt	-11.8677
butt	-11.8698
laris	-11.8704
▁rehearse	-11.8728
tches	-11.8729
lash	-11.8732
▁flop	-11.8732
▁reside	-11.8752
▁abus	-11.8766
▁tame	-11.8774
▁oc	-11.878
alling	-11.879
aux	-11.8792
▁libera	-11.8817
ddy	-11.8824
▁financ	-11.8842
tarte	-11.8849
▁organiz	-11.8858
jah	-11.8866
ccan	-11.8893
▁whale	-11.8898
▁exhausti	-11.8906
▁respectful	-11.8921
▁platin	-11.8932
▁strippe	-11.8938
uccin	-11.8958
ob	-11.896
▁admir	-11.8971
▁sauc	-11.8978
reach	-11.9029
▁hola	-11.907
ple	-11.9093
▁brun	-11.9093
bilities	-11.9152
ulas	-11.9167
tray	-11.9169
▁villa	-11.9198
▁deli	-11.9199
escent	-11.9202
▁receiv	-11.9254
abie	-11.9265
▁bounce	-11.9265
opp	-11.9275
▁flap	-11.9277
tivity	-11.9301
▁finai	-11.9327
lish	-11.9342
wincy	-11.9362
tale	-11.9367
▁inhal	-11.9374
▁arn	-11.9395
ashi	-11.9464
essa	-11.9474
▁cleanse	-11.9476
▁hawke	-11.9492
ugged	-11.9506
hhhh	-11.952
▁str	-11.9529
▁raisin	-11.9543
utton	-11.9579
▁pha	-11.9609
▁sm	-11.9628
▁bugg	-11.9706
▁scrape	-11.9736
▁harl	-11.9739
icia	-11.9758
lio	-11.9766
ifted	-11.9773
▁shu	-11.9776
aunt	-11.9798
eezer	-11.9813
ntro	-11.9864
orno	-11.9875
nto	-11.9893
syllab	-11.9938
fashionable	-11.994
▁charg	-11.9957
owning	-11.9989
tained	-11.9993
ural	-12.0012
handler	-12.0029
▁liquidat	-12.0034
▁fac	-12.0049
▁toni	-12.0072
pri	-12.0087
nished	-12.0094
▁opi	-12.0101
orte	-12.0102
▁pave	-12.0103
▁guid	-12.0104
▁env	-12.0109
hell	-12.0112
▁prim	-12.0119
▁pol	-12.0124
sander	-12.019
minis	-12.0191
▁immigra	-12.0205
eria	-12.0216
▁continu	-12.0224
elu	-12.0236
▁iv	-12.0245
▁circl	-12.0251
▁ska	-12.026
▁devi	-12.027
hiro	-12.0274
▁rog	-12.0281
cluded	-12.0291
▁severe	-12.0297
bility	-12.0298
oose	-12.0306
▁steele	-12.0313
▁hub	-12.0314
iddling	-12.0322
watch	-12.0328
rva	-12.0332
ifer	-12.0342
▁shatter	-12.0346
closure	-12.0347
dad	-12.035
ifies	-12.0392
bil	-12.0407
▁tack	-12.0411
▁candle	-12.0413
cet	-12.0414
▁cigar	-12.0414
▁pap	-12.0415
▁napkin	-12.0415
▁thumb	-12.0419
▁yelp	-12.0424
▁bubble	-12.043
▁dolphin	-12.0432
▁glove	-12.0433
▁hostage	-12.0433
▁height	-12.044
▁cent	-12.0448
okie	-12.0456
▁lip	-12.0459
omping	-12.0467
▁ranger	-12.0472
tized	-12.0488
meters	-12.0521
▁foo	-12.0522
ewing	-12.0523
pass	-12.0525
birth	-12.0527
oured	-12.0527
▁zip	-12.0534
self	-12.0536
apple	-12.0538
derman	-12.0541
cable	-12.0541
▁groov	-12.0548
lessness	-12.055
▁cesar	-12.0553
icky	-12.0554
▁depart	-12.0557
ential	-12.0561
▁embarrass	-12.0565
▁ignor	-12.0579
▁clu	-12.058
rington	-12.0586
▁arriv	-12.0588
▁interfer	-12.0588
▁mole	-12.0591
llen	-12.0591
▁refresh	-12.0592
▁stroll	-12.0592
▁expir	-12.0592
▁slag	-12.0593
▁twitch	-12.0594
▁significan	-12.0594
▁bluff	-12.0596
▁clang	-12.0599
▁suppos	-12.06
▁blackmail	-12.0603
bud	-12.0606
▁distract	-12.0607
▁register	-12.0608
▁accomplish	-12.0609
▁ahhh	-12.061
umption	-12.061
▁retard	-12.0611
▁reduce	-12.0611
▁luc	-12.0612
round	-12.0614
▁outrage	-12.0614
▁excite	-12.0614
word	-12.0615
▁nurs	-12.0615
bler	-12.0616
▁arrogan	-12.0616
smith	-12.0617
▁approve	-12.0618
▁evolve	-12.0618
▁grin	-12.0618
conscious	-12.0619
▁flatter	-12.0619
▁titter	-12.0619
mother	-12.0619
burn	-12.0619
month	-12.062
▁chant	-12.062
human	-12.0621
flop	-12.0621
shield	-12.0621
know	-12.0621
sync	-12.0621
stream	-12.0622
fried	-12.0622
function	-12.0622
wealth	-12.0622
privilege	-12.0622
identified	-12.0623
generation	-12.0623
judgment	-12.0623
hundreds	-12.0623
coach	-12.0623
logue	-12.0623
bury	-12.0623
smoking	-12.0623
bird	-12.0623
horse	-12.0623
grab	-12.0623
minute	-12.0623
child	-12.0623
reason	-12.0623
first	-12.0623
sweet	-12.0624
tube	-12.0624
▁encourage	-12.0624
▁thirst	-12.0625
strong	-12.0625
▁territor	-12.0625
▁educate	-12.0625
shake	-12.0625
manship	-12.0625
spring	-12.0625
finger	-12.0625
kept	-12.0626
tax	-12.0626
▁hysterical	-12.0627
hair	-12.0628
▁boar	-12.0628
food	-12.0628
▁withdraw	-12.0629
little	-12.0629
▁kessle	-12.0629
figured	-12.0629
▁husse	-12.063
▁walt	-12.063
bash	-12.063
pilot	-12.063
▁programme	-12.063
argh	-12.063
▁brid	-12.0631
▁brillian	-12.0631
leave	-12.0632
wipe	-12.0632
▁diploma	-12.0633
▁extraordinar	-12.0634
▁shag	-12.0634
code	-12.0634
▁scot	-12.0635
▁famili	-12.0635
▁margin	-12.0635
▁prettie	-12.0635
▁wrinkl	-12.0635
horns	-12.0635
▁continent	-12.0635
▁tranquil	-12.0636
▁sketch	-12.0638
▁dancin	-12.0638
▁relate	-12.0638
▁lightnin	-12.0638
▁festiv	-12.0638
bertie	-12.0638
believable	-12.0638
▁runnin	-12.0639
▁hyper	-12.0639
▁grocer	-12.0639
gular	-12.0639
iddle	-12.0639
nternal	-12.064
▁puttin	-12.064
▁dept	-12.064
▁govern	-12.064
▁asia	-12.064
▁rake	-12.064
▁descend	-12.064
▁triumph	-12.064
▁accura	-12.064
▁republic	-12.0641
▁compete	-12.0641
sippi	-12.0641
▁infer	-12.0641
▁fright	-12.0641
ecutive	-12.0641
▁differ	-12.0641
▁expel	-12.0641
meyer	-12.0641
historic	-12.0641
▁glamo	-12.0641
▁cleve	-12.0641
▁scholar	-12.0641
▁hysteri	-12.0641
kilometer	-12.0641
▁norw	-12.0641
▁aaaah	-12.0642
recogniz	-12.0642
▁septic	-12.0642
bourne	-12.0642
circuit	-12.0642
crucia	-12.0642
fleur	-12.0642
grandchildren	-12.0642
greatgrandmother	-12.0642
semblance	-12.0642
tacles	-12.0642
zhen	-12.0642
▁abbott	-12.0642
▁abyzou	-12.0642
▁accumulat	-12.0642
▁acquisition	-12.0642
▁admission	-12.0642
▁adversary	-12.0642
▁affirmations	-12.0642
▁afresh	-12.0642
▁alabama	-12.0642
▁allegiance	-12.0642
▁amazon	-12.0642
▁appetizer	-12.0642
▁apprehend	-12.0642
▁appropriation	-12.0642
▁archangel	-12.0642
▁archivist	-12.0642
▁argentine	-12.0642
▁arguing	-12.0642
▁arizona	-12.0642
▁arlene	-12.0642
▁ascend	-12.0642
▁aspergers	-12.0642
▁attaboy	-12.0642
▁auditing	-12.0642
▁autumn	-12.0642
▁bailiff	-12.0642
▁baldwin	-12.0642
▁ballpark	-12.0642
▁banshees	-12.0642
▁barbaric	-12.0642
▁beckwourth	-12.0642
▁behaviour	-12.0642
▁biscayne	-12.0642
▁bleak	-12.0642
▁blueprint	-12.0642
▁breeze	-12.0642
▁briegleb	-12.0642
▁brotherinlaw	-12.0642
▁buffalo	-12.0642
▁bullseye	-12.0642
▁burglar	-12.0642
▁caterpillar	-12.0642
▁celsius	-12.0642
▁cereal	-12.0642
▁ceremoni	-12.0642
▁cerveza	-12.0642
▁cetera	-12.0642
▁chauffeur	-12.0642
▁chevotarevich	-12.0642
▁chivalry	-12.0642
▁ciccio	-12.0642
▁cindino	-12.0642
▁circumcised	-12.0642
▁circumcision	-12.0642
▁civic	-12.0642
▁claustrophobic	-12.0642
▁clerq	-12.0642
▁cloister	-12.0642
▁cloves	-12.0642
▁collaborat	-12.0642
▁communicating	-12.0642
▁composing	-12.0642
▁comprend	-12.0642
▁comstock	-12.0642
▁confiscate	-12.0642
▁connecticut	-12.0642
▁consensual	-12.0642
▁consolidat	-12.0642
▁contagious	-12.0642
▁contemplat	-12.0642
▁contemporar	-12.0642
▁context	-12.0642
▁correspond	-12.0642
▁cortez	-12.0642
▁criswell	-12.0642
▁crocodile	-12.0642
▁crusader	-12.0642
▁cryotube	-12.0642
▁cuckoo	-12.0642
▁cuisine	-12.0642
▁debutante	-12.0642
▁demeanour	-12.0642
▁derouche	-12.0642
▁deserving	-12.0642
▁diastema	-12.0642
▁disbarred	-12.0642
▁discriminat	-12.0642
▁distribut	-12.0642
▁doherty	-12.0642
▁douglas	-12.0642
▁drought	-12.0642
▁earthquake	-12.0642
▁easiest	-12.0642
▁eiectr	-12.0642
▁eisenhower	-12.0642
▁embassy	-12.0642
▁embezzl	-12.0642
▁encrypted	-12.0642
▁enforcer	-12.0642
▁engrave	-12.0642
▁enrolled	-12.0642
▁enthusiasm	-12.0642
▁escaping	-12.0642
▁etcetera	-12.0642
▁euphemism	-12.0642
▁evergreen	-12.0642
▁exgirlfriend	-12.0642
▁experiencing	-12.0642
▁external	-12.0642
▁extinct	-12.0642
▁feather	-12.0642
▁focale	-12.0642
▁foliage	-12.0642
▁frustrating	-12.0642
▁frustration	-12.0642
▁gallagher	-12.0642
▁gambling	-12.0642
▁garrulous	-12.0642
▁gauloises	-12.0642
▁geneva	-12.0642
▁geography	-12.0642
▁geriatrics	-12.0642
▁ghastly	-12.0642
▁granmi	-12.0642
▁graz	-12.0642
▁grieving	-12.0642
▁hallucination	-12.0642
▁haystack	-12.0642
▁heartbreak	-12.0642
▁hiphop	-12.0642
▁housewives	-12.0642
▁houston	-12.0642
▁humidity	-12.0642
▁hurray	-12.0642
▁hypersleep	-12.0642
▁hypothetical	-12.0642
▁icebreaker	-12.0642
▁ieaving	-12.0642
▁immature	-12.0642
▁imminent	-12.0642
▁immunity	-12.0642
▁imprisoned	-12.0642
▁improvising	-12.0642
▁incidentaiiy	-12.0642
▁inclined	-12.0642
▁independence	-12.0642
▁indoors	-12.0642
▁infiltrate	-12.0642
▁injustice	-12.0642
▁insecure	-12.0642
▁interrogate	-12.0642
▁intrigu	-12.0642
▁invasion	-12.0642
▁invoice	-12.0642
▁irrational	-12.0642
▁isoiation	-12.0642
▁jafar	-12.0642
▁janice	-12.0642
▁justify	-12.0642
▁kanavan	-12.0642
▁kangaroo	-12.0642
▁kareem	-12.0642
▁ketamine	-12.0642
▁kfryc	-12.0642
▁kidstuff	-12.0642
▁killcullen	-12.0642
▁knickers	-12.0642
▁knuckle	-12.0642
▁kreplach	-12.0642
▁kumbaya	-12.0642
▁laboratory	-12.0642
▁lchaim	-12.0642
▁leblanc	-12.0642
▁leopards	-12.0642
▁lisdoonvarna	-12.0642
▁lollipop	-12.0642
▁lundhelgesen	-12.0642
▁lynch	-12.0642
▁macbeth	-12.0642
▁macneii	-12.0642
▁magnum	-12.0642
▁manhattan	-12.0642
▁marathon	-12.0642
▁mascot	-12.0642
▁maurice	-12.0642
▁mcnamara	-12.0642
▁mechanism	-12.0642
▁microchip	-12.0642
▁microscop	-12.0642
▁miguel	-12.0642
▁miniature	-12.0642
▁misheard	-12.0642
▁mitzvah	-12.0642
▁mnemosyne	-12.0642
▁modifier	-12.0642
▁morrisey	-12.0642
▁motherinlaw	-12.0642
▁motorbike	-12.0642
▁moustache	-12.0642
▁moyerson	-12.0642
▁multitude	-12.0642
▁murray	-12.0642
▁mystifying	-12.0642
▁namaste	-12.0642
▁narcissist	-12.0642
▁nectar	-12.0642
▁netflix	-12.0642
▁nikolas	-12.0642
▁nixon	-12.0642
▁noakes	-12.0642
▁nowadays	-12.0642
▁nuggets	-12.0642
▁obituary	-12.0642
▁obliging	-12.0642
▁obscure	-12.0642
▁obtuse	-12.0642
▁odysse	-12.0642
▁offiicers	-12.0642
▁olympus	-12.0642
▁ontario	-12.0642
▁opposition	-12.0642
▁orlando	-12.0642
▁ottawa	-12.0642
▁outbreak	-12.0642
▁outburst	-12.0642
▁outlaw	-12.0642
▁overslept	-12.0642
▁overthrow	-12.0642
▁oxycontin	-12.0642
▁pajaros	-12.0642
▁parody	-12.0642
▁paxton	-12.0642
▁pedophile	-12.0642
▁pentagon	-12.0642
▁perspective	-12.0642
▁peruvian	-12.0642
▁phoenix	-12.0642
▁plaintiff	-12.0642
▁plutonium	-12.0642
▁porcupines	-12.0642
▁posillipo	-12.0642
▁potsdam	-12.0642
▁pragmatic	-12.0642
▁prescribe	-12.0642
▁prognosis	-12.0642
▁promiscu	-12.0642
▁puddle	-12.0642
▁pumpernickel	-12.0642
▁python	-12.0642
▁quarrel	-12.0642
▁railroad	-12.0642
▁reagan	-12.0642
▁receipt	-12.0642
▁reconnect	-12.0642
▁rectangle	-12.0642
▁redistribut	-12.0642
▁reduction	-12.0642
▁remedy	-12.0642
▁renoir	-12.0642
▁renowned	-12.0642
▁reproach	-12.0642
▁reservoirs	-12.0642
▁revoir	-12.0642
▁safecracker	-12.0642
▁salvage	-12.0642
▁santiago	-12.0642
▁satanist	-12.0642
▁scheindal	-12.0642
▁schematic	-12.0642
▁schizophreni	-12.0642
▁scribbling	-12.0642
▁seducti	-12.0642
▁semester	-12.0642
▁sentimental	-12.0642
▁sherrif	-12.0642
▁sherrigans	-12.0642
▁shoplift	-12.0642
▁shrapnel	-12.0642
▁shrink	-12.0642
▁shudders	-12.0642
▁sinclair	-12.0642
▁siphon	-12.0642
▁sisterinlaw	-12.0642
▁sleazy	-12.0642
▁slovenia	-12.0642
▁smudge	-12.0642
▁sneeze	-12.0642
▁sniggers	-12.0642
▁snuff	-12.0642
▁soprano	-12.0642
▁sought	-12.0642
▁spectrum	-12.0642
▁stavros	-12.0642
▁stewardess	-12.0642
▁stipulate	-12.0642
▁storebought	-12.0642
▁stranded	-12.0642
▁striking	-12.0642
▁strychnine	-12.0642
▁sublime	-12.0642
▁subpoena	-12.0642
▁subsequent	-12.0642
▁substance	-12.0642
▁suffice	-12.0642
▁sugai	-12.0642
▁sullivan	-12.0642
▁summoned	-12.0642
▁supermodel	-12.0642
▁swagger	-12.0642
▁swollen	-12.0642
▁sympathi	-12.0642
▁sympathy	-12.0642
▁syphilis	-12.0642
▁theologian	-12.0642
▁tokyo	-12.0642
▁trophies	-12.0642
▁tsunami	-12.0642
▁unethical	-12.0642
▁unprecedented	-12.0642
▁unravel	-12.0642
▁upbringing	-12.0642
▁uppercut	-12.0642
▁uproot	-12.0642
▁uzbek	-12.0642
▁vaccine	-12.0642
▁vaughn	-12.0642
▁vicinity	-12.0642
▁voluptuous	-12.0642
▁warriner	-12.0642
▁watermelon	-12.0642
▁weasel	-12.0642
▁whatnot	-12.0642
▁wilshire	-12.0642
▁wisconsin	-12.0642
▁wisdom	-12.0642
▁wonderfui	-12.0642
▁wyatt	-12.0642
▁yawns	-12.0642
▁yengeese	-12.0642
▁yibberin	-12.0642
ectomy	-12.0642
▁admin	-12.0642
▁bikini	-12.0642
▁confront	-12.0642
▁counsellor	-12.0642
▁evangeli	-12.0642
▁exploit	-12.0642
▁geisha	-12.0642
▁interpol	-12.0642
▁justjust	-12.0642
▁plummet	-12.0642
▁postpone	-12.0642
▁reimburse	-12.0642
▁saliva	-12.0642
▁sequel	-12.0642
▁thundercl	-12.0642
▁vouch	-12.0642
▁autonom	-12.0642
▁balham	-12.0642
▁beaver	-12.0642
▁bribe	-12.0642
▁bromley	-12.0642
▁chapstick	-12.0642
▁cohen	-12.0642
▁compiete	-12.0642
▁courier	-12.0642
▁crucial	-12.0642
▁dangling	-12.0642
▁darvo	-12.0642
▁duration	-12.0642
▁fewer	-12.0642
▁flawed	-12.0642
▁friggin	-12.0642
▁habla	-12.0642
▁hooray	-12.0642
▁hudson	-12.0642
▁idolater	-12.0642
▁importance	-12.0642
▁jeffrey	-12.0642
▁larynx	-12.0642
▁legacy	-12.0642
▁maternal	-12.0642
▁midterms	-12.0642
▁mopey	-12.0642
▁mornting	-12.0642
▁nagging	-12.0642
▁noodle	-12.0642
▁pitiful	-12.0642
▁plumbing	-12.0642
▁preacher	-12.0642
▁prodig	-12.0642
▁quench	-12.0642
▁ramona	-12.0642
▁scoffing	-12.0642
▁snicker	-12.0642
▁soothe	-12.0642
▁spinach	-12.0642
▁tennessee	-12.0642
▁toxin	-12.0642
▁turnips	-12.0642
▁twanging	-12.0642
▁uploaded	-12.0642
▁uterus	-12.0642
▁vinyl	-12.0642
▁whew	-12.0642
▁whyre	-12.0642
▁array	-12.0642
▁boundaries	-12.0642
▁characteristics	-12.0642
▁edison	-12.0642
▁freelance	-12.0642
▁gospel	-12.0642
▁grieve	-12.0642
▁impulse	-12.0642
▁livestock	-12.0642
▁loaf	-12.0642
▁mutiny	-12.0642
▁nypd	-12.0642
▁reiki	-12.0642
▁richmond	-12.0642
▁rikers	-12.0642
▁saudi	-12.0642
▁sermon	-12.0642
▁sieep	-12.0642
▁sydney	-12.0642
▁tombstone	-12.0642
archy	-12.0642
▁assembl	-12.0642
▁clunk	-12.0642
▁conceal	-12.0642
▁dalton	-12.0642
▁foureyes	-12.0642
▁headshots	-12.0642
▁ifthe	-12.0642
▁lenox	-12.0642
▁restoration	-12.0642
▁scalp	-12.0642
▁statistical	-12.0642
▁syrup	-12.0642
mika	-12.0642
▁antiques	-12.0642
▁brundy	-12.0642
▁daft	-12.0642
▁herrings	-12.0642
▁ieast	-12.0642
▁implants	-12.0642
▁juror	-12.0642
▁patriarch	-12.0642
▁ambitious	-12.0642
▁conleywhite	-12.0642
▁cotton	-12.0642
▁crucifix	-12.0642
▁hastings	-12.0642
▁ideology	-12.0642
▁inflict	-12.0642
▁jurin	-12.0642
▁placing	-12.0642
▁variable	-12.0642
▁fiona	-12.0642
▁hyman	-12.0642
▁maggot	-12.0642
▁twinkie	-12.0642
▁ecstasy	-12.0642
▁ladder	-12.0642
▁panei	-12.0642
▁precision	-12.0642
▁stoie	-12.0642
njunction	-12.0642
▁carousel	-12.0642
▁handicapped	-12.0642
▁slick	-12.0642
▁stefanos	-12.0642
▁ukrain	-12.0642
heyheyhey	-12.0642
scrupu	-12.0642
▁lump	-12.0642
▁meatballs	-12.0642
▁outerbridge	-12.0642
abroad	-12.0642
egian	-12.0642
▁commandeer	-12.0642
▁hasashi	-12.0642
▁orgasm	-12.0642
thematic	-12.0642
▁fumes	-12.0642
▁isabel	-12.0642
▁muttering	-12.0642
▁strawberry	-12.0642
▁novak	-12.0642
▁unrest	-12.0642
▁fyi	-12.0642
▁movin	-12.0642
▁cervix	-12.0642
pulsive	-12.0642
▁lilies	-12.0642
▁pregnancy	-12.0642
▁iraq	-12.0642
▁oxford	-12.0642
▁tailgate	-12.0642
mbour	-12.0642
▁anoos	-12.0642
▁apoll	-12.0642
▁cautious	-12.0642
▁tiptoe	-12.0642
rinth	-12.0642
▁aaaaah	-12.0642
▁authorization	-12.0642
▁caliph	-12.0642
▁homie	-12.0642
▁sincerely	-12.0642
▁dosage	-12.0642
▁slicing	-12.0642
cture	-12.0642
▁asph	-12.0642
▁bulk	-12.0642
▁darwinism	-12.0642
▁ferocious	-12.0642
▁surpass	-12.0642
▁marcell	-12.0642
▁remand	-12.0642
▁selves	-12.0642
squez	-12.0642
▁aching	-12.0642
▁solitude	-12.0642
▁recycle	-12.0642
▁bicke	-12.0642
▁bureaucra	-12.0642
▁babbl	-12.0642
▁freddie	-12.0642
▁claymore	-12.0642
▁squall	-12.0642
▁yyeah	-12.0642
▁gerald	-12.0642
▁charities	-12.0642
▁grimal	-12.0642
▁collarbone	-12.0642
▁ensure	-12.0642
▁willam	-12.0642
▁susie	-12.0642
▁excise	-12.0642
▁terminate	-12.0642
▁pirate	-12.0642
woke	-12.0642
▁skimming	-12.0642
▁gabrielle	-12.0642
▁harlot	-12.0642
▁croak	-12.0642
▁sonnet	-12.0642
▁quatre	-12.0642
▁rosie	-12.0642
▁stenner	-12.0642
▁inadequate	-12.0642
▁insensitive	-12.0642
appointed	-12.0642
▁seren	-12.0642
▁eliminate	-12.0642
▁lethal	-12.0642
▁yasser	-12.0642
▁basket	-12.0642
▁initiative	-12.0642
▁pansies	-12.0642
▁yourseif	-12.0642
▁giddy	-12.0642
▁vampire	-12.0642
▁indicating	-12.0642
▁conspirator	-12.0642
▁hostess	-12.0642
▁igniting	-12.0642
▁minimal	-12.0642
▁intrica	-12.0642
▁mambo	-12.0642
▁drastic	-12.0642
▁nodd	-12.0642
▁precedent	-12.0642
▁premium	-12.0642
▁apprais	-12.0643
▁canoe	-12.0643
▁departure	-12.0643
abolis	-12.0643
▁conclusion	-12.0643
▁druot	-12.0643
▁catalogue	-12.0643
▁combination	-12.0643
▁breathtaking	-12.0643
cogniti	-12.0643
nominat	-12.0643
▁belize	-12.0643
▁appreciative	-12.0643
▁jensen	-12.0643
▁scotland	-12.0643
▁sodomized	-12.0643
▁bisexual	-12.0643
▁darius	-12.0643
▁lilly	-12.0643
▁participate	-12.0643
tanos	-12.0643
▁reassur	-12.0643
▁leftovers	-12.0643
▁bawling	-12.0643
▁souad	-12.0643
▁inferno	-12.0643
▁butler	-12.0643
▁hospitai	-12.0643
derate	-12.0643
▁statute	-12.0643
▁bihan	-12.0643
▁revisit	-12.0643
▁perpetrator	-12.0643
▁nympho	-12.0643
▁elisa	-12.0643
▁normai	-12.0643
▁tubbs	-12.0643
▁tooth	-12.0643
▁clipper	-12.0643
▁rambling	-12.0643
▁wellbeing	-12.0643
▁shrine	-12.0643
▁transpo	-12.0643
▁pumpkin	-12.0643
▁blabb	-12.0643
▁skeletor	-12.0643
shalom	-12.0643
▁analyse	-12.0643
▁zachary	-12.0643
▁discount	-12.0643
▁display	-12.0643
▁snot	-12.0643
▁descendant	-12.0643
▁triumphant	-12.0643
▁flood	-12.0643
▁timetables	-12.0643
▁ellen	-12.0643
perative	-12.0643
▁gaming	-12.0643
▁nerd	-12.0643
▁trend	-12.0643
▁scanner	-12.0643
▁upgrade	-12.0643
▁accurate	-12.0643
trude	-12.0643
▁landlady	-12.0643
▁wifi	-12.0643
▁locksmith	-12.0643
▁arsehole	-12.0643
▁bracelet	-12.0643
▁daisy	-12.0643
▁outcome	-12.0644
▁encouragement	-12.0644
▁devastation	-12.0644
▁warfare	-12.0644
▁amph	-12.0644
▁steai	-12.0644
▁brook	-12.0644
▁litres	-12.0644
▁doggy	-12.0644
▁migra	-12.0644
▁educator	-12.0644
▁leclerc	-12.0644
▁repay	-12.0644
igious	-12.0644
▁abett	-12.0644
▁improvement	-12.0644
▁championship	-12.0644
▁claude	-12.0644
▁loosing	-12.0644
▁earliest	-12.0644
▁allright	-12.0644
▁psst	-12.0644
▁conlon	-12.0644
▁stench	-12.0644
▁unbeiievabie	-12.0644
▁undead	-12.0644
▁unearth	-12.0644
▁mesh	-12.0644
▁preference	-12.0644
▁olympic	-12.0644
▁hamster	-12.0644
▁tbone	-12.0644
▁reliable	-12.0644
▁withst	-12.0644
▁slug	-12.0644
▁armenian	-12.0644
▁goldfish	-12.0644
▁rooftop	-12.0644
▁degenerate	-12.0644
▁recept	-12.0644
▁honcho	-12.0644
▁snapping	-12.0644
▁sherry	-12.0644
▁swab	-12.0644
▁thirtytwo	-12.0644
▁eternity	-12.0644
stellar	-12.0644
berserk	-12.0644
▁ayrs	-12.0644
▁protestant	-12.0644
▁henley	-12.0645
▁jeep	-12.0645
▁dsi	-12.0645
▁neglectful	-12.0645
▁resync	-12.0645
▁orphanage	-12.0645
▁rebirth	-12.0645
▁tacoma	-12.0645
mphatic	-12.0645
▁sorrow	-12.0645
▁igniti	-12.0645
▁bumble	-12.0645
▁ginger	-12.0645
nquish	-12.0645
▁architecture	-12.0645
▁apiece	-12.0645
▁criticism	-12.0645
▁penetrate	-12.0645
▁theatre	-12.0645
▁identificati	-12.0645
▁ofthing	-12.0645
▁referee	-12.0645
▁smother	-12.0645
▁fiight	-12.0645
▁chaz	-12.0645
▁dahl	-12.0645
▁extinguisher	-12.0645
▁splice	-12.0645
dante	-12.0645
made	-12.0645
▁firefight	-12.0645
▁mede	-12.0645
▁esco	-12.0645
▁unofficially	-12.0645
▁raffl	-12.0645
oxide	-12.0645
▁tread	-12.0645
▁foxhole	-12.0645
▁wons	-12.0645
▁pigface	-12.0646
▁rebellio	-12.0646
▁delac	-12.0646
▁ethical	-12.0646
▁iying	-12.0646
▁ripoff	-12.0646
▁crois	-12.0646
▁utter	-12.0646
▁transportation	-12.0646
▁pegged	-12.0646
▁blackburn	-12.0646
▁mime	-12.0646
▁biack	-12.0646
▁toby	-12.0646
▁anomaly	-12.0646
▁frenzy	-12.0646
▁trajectory	-12.0646
▁orient	-12.0646
▁verb	-12.0646
▁ingest	-12.0646
▁purity	-12.0646
▁underway	-12.0646
▁garne	-12.0646
▁georgetown	-12.0646
▁ajob	-12.0646
▁courtmartial	-12.0646
▁diane	-12.0646
▁dislike	-12.0646
▁brit	-12.0647
praise	-12.0647
▁waik	-12.0647
▁absorb	-12.0647
▁acquainted	-12.0647
▁forsaken	-12.0647
▁january	-12.0647
▁revenue	-12.0647
▁tolerance	-12.0647
▁cocoa	-12.0647
▁voluntar	-12.0647
▁athena	-12.0647
▁voila	-12.0647
▁rubens	-12.0647
▁pinot	-12.0647
▁bloom	-12.0647
▁spinning	-12.0647
▁sebas	-12.0647
▁shelves	-12.0647
▁penance	-12.0647
▁piling	-12.0647
▁binary	-12.0647
▁stew	-12.0647
▁barlow	-12.0647
▁jagger	-12.0647
▁shady	-12.0647
▁grease	-12.0647
▁salute	-12.0647
▁centi	-12.0647
▁rico	-12.0647
▁disney	-12.0647
▁polar	-12.0647
▁earring	-12.0647
▁consultant	-12.0647
▁biff	-12.0648
▁pantyho	-12.0648
▁sixmonth	-12.0648
▁derive	-12.0648
▁huff	-12.0648
▁collapsed	-12.0648
ounge	-12.0648
▁transit	-12.0648
▁christianity	-12.0648
▁shunt	-12.0648
▁continental	-12.0648
▁withdrawal	-12.0648
▁fax	-12.0648
▁secre	-12.0648
endous	-12.0648
▁fisherman	-12.0648
▁pothead	-12.0648
▁anthat	-12.0648
▁milliondollar	-12.0648
▁deposition	-12.0648
▁invention	-12.0648
▁pollo	-12.0648
▁iphone	-12.0648
▁rend	-12.0648
▁wrinkles	-12.0648
▁reducer	-12.0648
▁baptist	-12.0648
▁marj	-12.0649
▁quadr	-12.0649
▁crust	-12.0649
▁agne	-12.0649
▁fairfield	-12.0649
▁oftime	-12.0649
▁doodl	-12.0649
▁gobble	-12.0649
▁insistent	-12.0649
▁egghead	-12.0649
▁tartu	-12.0649
▁lightyear	-12.0649
▁rubble	-12.0649
▁lori	-12.0649
▁objective	-12.0649
▁courageous	-12.0649
▁darn	-12.0649
▁heap	-12.0649
▁robot	-12.0649
▁keen	-12.0649
▁yeii	-12.0649
metic	-12.0649
▁renew	-12.0649
urance	-12.065
▁corr	-12.065
▁elke	-12.065
▁bewildered	-12.065
▁infatuated	-12.065
▁containment	-12.065
▁troublemaker	-12.065
▁butterfl	-12.065
▁allowance	-12.065
▁rach	-12.065
▁marco	-12.065
▁blog	-12.065
▁biue	-12.065
▁lightheaded	-12.065
ardass	-12.065
▁chatty	-12.065
▁dehydrated	-12.065
▁ici	-12.065
▁furthe	-12.0651
▁rhee	-12.0651
▁faii	-12.0651
▁lauren	-12.0651
▁rho	-12.0651
▁titz	-12.0651
astronom	-12.0651
▁slavery	-12.0651
▁resurrection	-12.0651
▁catkin	-12.0651
▁mattresses	-12.0651
▁moose	-12.0651
▁regional	-12.0651
▁kla	-12.0651
▁continuously	-12.0652
▁sixteen	-12.0652
▁potter	-12.0652
▁turf	-12.0652
itsy	-12.0652
▁helio	-12.0652
▁visa	-12.0652
▁chiid	-12.0652
▁autis	-12.0652
▁viens	-12.0652
▁prosecut	-12.0652
▁maxim	-12.0652
boro	-12.0652
▁waking	-12.0652
▁skype	-12.0652
▁trait	-12.0653
▁condescending	-12.0653
▁macho	-12.0653
▁sensational	-12.0653
coup	-12.0653
▁gallon	-12.0653
▁excellency	-12.0653
rimba	-12.0653
▁seniority	-12.0654
▁trenches	-12.0654
fighting	-12.0654
▁lamp	-12.0654
▁nevin	-12.0654
▁mediate	-12.0654
ppa	-12.0654
▁spitting	-12.0654
▁freebie	-12.0654
▁overhead	-12.0654
▁intentionally	-12.0654
▁droid	-12.0654
▁rational	-12.0654
knob	-12.0655
▁spice	-12.0655
▁attache	-12.0655
▁thru	-12.0655
▁claus	-12.0655
▁overtime	-12.0655
▁incest	-12.0655
▁poetic	-12.0655
▁twig	-12.0655
▁laces	-12.0655
▁booties	-12.0655
▁tamper	-12.0655
siege	-12.0655
▁aero	-12.0655
▁pitty	-12.0655
otten	-12.0655
▁ziploc	-12.0656
▁meaningless	-12.0656
▁flock	-12.0656
▁alcoholic	-12.0656
opulation	-12.0656
▁tumble	-12.0656
mean	-12.0656
▁kesslee	-12.0656
▁trespasses	-12.0656
▁inquiry	-12.0656
▁iose	-12.0657
▁troll	-12.0657
▁firepower	-12.0657
▁yoga	-12.0657
culty	-12.0657
▁wireless	-12.0657
▁gloria	-12.0657
▁roma	-12.0658
▁trim	-12.0658
▁quoi	-12.0658
stav	-12.0658
▁attachment	-12.0658
▁dogshit	-12.0659
▁enduring	-12.0659
▁cockroaches	-12.0659
▁bravery	-12.0659
▁meds	-12.0659
▁nickname	-12.066
▁gator	-12.066
▁plight	-12.066
cant	-12.066
▁divest	-12.066
▁denies	-12.066
tolerabl	-12.066
▁casing	-12.066
▁restroom	-12.066
▁experimentation	-12.066
▁axle	-12.066
▁stir	-12.0661
▁clueless	-12.0661
▁campout	-12.0661
pirin	-12.0661
▁detained	-12.0661
▁dropoff	-12.0661
▁jeb	-12.0662
ieber	-12.0662
mart	-12.0662
▁ipo	-12.0662
▁splitting	-12.0662
▁bagged	-12.0662
▁skies	-12.0663
▁jose	-12.0663
vette	-12.0663
▁hose	-12.0663
▁peerreviewed	-12.0664
▁zapped	-12.0664
▁hamburger	-12.0664
▁icky	-12.0664
▁speechless	-12.0664
close	-12.0664
▁handcuffed	-12.0664
▁realistic	-12.0664
▁beget	-12.0664
▁repeatedly	-12.0664
▁hives	-12.0664
▁metres	-12.0664
▁stockton	-12.0665
tyba	-12.0665
▁projector	-12.0665
▁combo	-12.0665
ancy	-12.0665
▁credi	-12.0665
ambros	-12.0665
▁mira	-12.0666
▁axelle	-12.0666
▁patches	-12.0666
▁whim	-12.0666
▁detonated	-12.0666
ombre	-12.0666
▁guardian	-12.0666
rignon	-12.0666
▁jan	-12.0666
▁dose	-12.0666
▁lsland	-12.0667
▁waist	-12.0667
▁hotline	-12.0668
istine	-12.0668
▁toll	-12.0668
▁pont	-12.0668
▁moist	-12.0668
▁conclude	-12.0669
▁rhyme	-12.0669
▁outraged	-12.0669
▁handball	-12.0669
▁township	-12.0669
▁moot	-12.067
▁grr	-12.067
bule	-12.067
▁bono	-12.067
mium	-12.0671
cinna	-12.0671
usine	-12.0672
▁wel	-12.0672
▁highlight	-12.0672
▁amenable	-12.0672
▁satisfying	-12.0672
▁stresses	-12.0672
▁nightnight	-12.0672
▁hull	-12.0672
▁slurping	-12.0672
▁geo	-12.0672
▁villar	-12.0673
▁flipping	-12.0673
▁schu	-12.0673
▁douse	-12.0674
▁mido	-12.0674
▁mandy	-12.0674
▁combine	-12.0674
encies	-12.0674
▁zeal	-12.0675
▁collector	-12.0675
ulus	-12.0675
▁awakened	-12.0675
▁playboy	-12.0676
ease	-12.0676
▁hideout	-12.0676
▁luda	-12.0676
▁heathen	-12.0676
▁evolved	-12.0677
▁rut	-12.0677
▁fitness	-12.0677
▁taikin	-12.0677
▁gravel	-12.0677
▁headset	-12.0677
core	-12.0678
▁exhausting	-12.0678
▁departed	-12.0678
▁childish	-12.0679
▁davidson	-12.0679
▁turnoff	-12.0679
▁lighthouse	-12.068
▁overf	-12.0681
▁lax	-12.0682
abby	-12.0682
▁logo	-12.0682
loft	-12.0683
▁peacefully	-12.0683
▁disc	-12.0684
▁maryland	-12.0684
skinned	-12.0685
thought	-12.0685
taps	-12.0687
▁sunup	-12.0687
▁bold	-12.0688
▁handlers	-12.0688
▁stem	-12.0688
▁slammed	-12.0689
▁realiz	-12.0689
▁cord	-12.0689
▁politely	-12.069
▁pinched	-12.069
▁gambled	-12.069
▁fulltime	-12.0691
▁warts	-12.0691
▁tittering	-12.0692
▁refreshing	-12.0692
▁strolling	-12.0692
▁twitching	-12.0692
▁assho	-12.0692
▁bina	-12.0692
▁alas	-12.0692
▁suppress	-12.0693
▁coop	-12.0693
▁technologi	-12.0693
▁lux	-12.0693
▁hup	-12.0694
manue	-12.0695
▁undercook	-12.0695
▁runoff	-12.0697
▁yaya	-12.0697
pending	-12.0698
▁achieved	-12.0698
▁sadness	-12.07
▁woken	-12.0701
▁exploded	-12.0701
▁boiler	-12.0701
▁vine	-12.0702
▁mustang	-12.0702
▁youse	-12.0703
▁tenure	-12.0705
tchin	-12.0705
▁bullshitting	-12.0706
▁italy	-12.0706
▁succeeded	-12.0706
▁disconnected	-12.0707
▁ahad	-12.0707
recht	-12.0707
▁alto	-12.0708
atro	-12.0708
▁deadline	-12.0709
▁lineage	-12.0709
▁zu	-12.071
working	-12.071
▁kabal	-12.0711
▁phi	-12.0711
▁quin	-12.0711
▁swelling	-12.0712
▁splashing	-12.0712
▁dement	-12.0713
▁too	-12.0713
zzing	-12.0713
ortion	-12.0713
▁greer	-12.0713
▁dined	-12.0714
▁playtime	-12.0714
▁astro	-12.0715
▁expired	-12.0716
▁ahahahah	-12.0717
▁frenchman	-12.072
▁downloaded	-12.0721
▁stashed	-12.0721
▁stitched	-12.0721
▁designer	-12.0721
▁mia	-12.0722
▁disguised	-12.0723
▁reb	-12.0723
▁included	-12.0725
▁showdown	-12.0725
▁launcher	-12.0726
wire	-12.0727
▁madman	-12.0727
▁gunmen	-12.0727
▁facetime	-12.0729
▁translated	-12.0731
▁loner	-12.0731
▁stoppin	-12.0731
▁mule	-12.0733
▁quarantined	-12.0734
▁proposed	-12.0734
▁offended	-12.0735
▁macy	-12.0735
▁poll	-12.0736
▁envie	-12.0737
told	-12.0738
▁lire	-12.074
twood	-12.0741
centr	-12.0744
▁bund	-12.0748
wine	-12.0748
▁ditched	-12.0749
▁manicur	-12.0749
ometer	-12.0749
▁mocking	-12.0752
▁publishing	-12.0752
▁defeated	-12.0754
▁smoothly	-12.0754
▁dusty	-12.0759
▁psychotherap	-12.076
▁awarded	-12.0764
▁linked	-12.0764
▁carol	-12.0764
▁poly	-12.0767
▁bigtime	-12.0767
▁cel	-12.077
▁stretcher	-12.0771
anyon	-12.0771
▁flushing	-12.0772
▁kn	-12.0776
▁sung	-12.0779
▁terror	-12.078
▁ak	-12.0781
▁illana	-12.0782
▁creamer	-12.0783
▁reviewer	-12.0784
▁hah	-12.0784
▁tumbl	-12.0786
iros	-12.0788
▁fal	-12.0788
▁goddamnit	-12.079
▁consideration	-12.079
▁backfire	-12.0791
▁appealing	-12.0792
▁resisted	-12.0793
▁reconsider	-12.0794
▁pest	-12.0798
▁makeover	-12.0799
▁posing	-12.0803
▁hiking	-12.0804
▁electro	-12.0804
▁ville	-12.0807
dise	-12.0808
▁leaked	-12.0808
▁recovering	-12.0813
▁responding	-12.0813
▁hopeful	-12.0814
▁duff	-12.0816
▁indicati	-12.0818
▁socially	-12.0819
▁challenged	-12.0821
▁buster	-12.0824
▁gand	-12.0828
hey	-12.083
brows	-12.0834
▁complimented	-12.0835
omin	-12.0835
▁trumped	-12.0836
▁bella	-12.0839
▁unite	-12.084
ripos	-12.0842
▁beaches	-12.0848
▁trooper	-12.085
▁pager	-12.0851
▁refugee	-12.0856
ggage	-12.0865
ndition	-12.0876
▁tickle	-12.0879
alliance	-12.0899
▁brat	-12.09
▁pointers	-12.0902
▁protector	-12.0905
▁tanne	-12.0931
▁container	-12.0952
▁nee	-12.0964
▁anguish	-12.0967
▁devin	-12.0972
▁fleet	-12.0975
▁semina	-12.0986
▁dui	-12.0986
pier	-12.0987
▁exclud	-12.1003
▁shackle	-12.1007
rogen	-12.1036
▁caval	-12.1042
before	-12.105
▁senor	-12.1066
▁rosa	-12.1068
▁provider	-12.1083
lagging	-12.1084
generate	-12.1089
tterd	-12.1091
immigrant	-12.1098
nsils	-12.1119
▁gl	-12.1129
▁buen	-12.1136
compatible	-12.1142
trombo	-12.1143
mpire	-12.1149
▁fou	-12.1155
▁mitt	-12.1157
▁crud	-12.1161
▁sab	-12.1179
▁queer	-12.1186
storm	-12.1202
▁dunk	-12.1216
▁urina	-12.122
▁chor	-12.1233
▁foreigner	-12.1257
▁nik	-12.1263
▁zipper	-12.1274
▁assassinat	-12.1305
▁awaken	-12.1323
▁crom	-12.1333
aritas	-12.1357
▁offth	-12.1362
amy	-12.1383
▁qu	-12.1385
▁flashe	-12.1389
▁gardener	-12.1398
hurst	-12.1426
▁brin	-12.1429
▁rotat	-12.1435
base	-12.1438
osse	-12.1448
▁gale	-12.1468
ketch	-12.1515
▁lang	-12.1593
▁isl	-12.1603
▁revolv	-12.161
eering	-12.1617
cop	-12.1683
willed	-12.1683
▁gro	-12.1683
tier	-12.1694
holland	-12.171
arb	-12.1733
▁clam	-12.1757
▁prepp	-12.1761
▁supp	-12.1789
▁admoni	-12.1798
cold	-12.1822
▁bullie	-12.1834
rley	-12.1928
inish	-12.1929
▁hawk	-12.1943
ope	-12.1953
▁pun	-12.1953
▁fielder	-12.1998
▁gunn	-12.2016
▁riv	-12.2034
▁dol	-12.2041
unctio	-12.2061
▁vena	-12.2069
▁fil	-12.2095
▁bradle	-12.2116
▁noc	-12.212
printed	-12.2129
▁deprive	-12.2142
find	-12.2147
▁evaluate	-12.2151
▁bung	-12.2155
lady	-12.2175
mortality	-12.2181
▁const	-12.2209
▁tannin	-12.2228
▁abnormalit	-12.2232
▁chur	-12.2242
▁fatalit	-12.2267
▁genera	-12.2297
▁mccl	-12.2358
▁rela	-12.2369
bath	-12.2439
▁stoo	-12.2442
▁pul	-12.2455
cute	-12.2504
hah	-12.2507
▁fau	-12.2516
▁ejaculat	-12.2521
▁cran	-12.2532
▁barge	-12.257
▁vivi	-12.2638
ckless	-12.2639
▁vip	-12.2665
▁exhaust	-12.2665
replaceable	-12.271
amic	-12.2731
logy	-12.2735
bj	-12.276
hank	-12.2818
rich	-12.2839
puppies	-12.2863
▁liberat	-12.2871
▁resid	-12.2874
▁arrang	-12.2883
▁coincid	-12.2887
hara	-12.2974
▁remov	-12.2978
▁rehears	-12.3004
eariy	-12.3008
▁inquir	-12.3012
ith	-12.3033
ital	-12.3036
graphic	-12.3042
▁yum	-12.3068
▁caca	-12.309
▁allo	-12.3179
▁schi	-12.3182
ota	-12.3218
▁exten	-12.3273
▁relat	-12.328
meteo	-12.3342
▁stefan	-12.3375
▁ramb	-12.3435
▁furlo	-12.344
▁influenc	-12.3442
bach	-12.346
acial	-12.359
▁keg	-12.3639
rax	-12.3657
agged	-12.3694
▁trac	-12.3759
ofthem	-12.3764
▁nyu	-12.3775
rseif	-12.379
▁sacrific	-12.3854
▁demonstrat	-12.388
stitute	-12.3945
▁snappe	-12.3948
▁chit	-12.3956
nique	-12.3988
▁recit	-12.4029
proved	-12.4073
riori	-12.4077
otsie	-12.4218
anzi	-12.4234
soaked	-12.4234
▁revol	-12.4242
▁behav	-12.4273
ebox	-12.4335
▁recurr	-12.4375
quality	-12.439
▁chum	-12.4393
olent	-12.4414
why	-12.4427
hard	-12.4438
inky	-12.4447
punishment	-12.4494
ramp	-12.4564
▁underestimat	-12.4594
▁infl	-12.4687
gnac	-12.4822
jang	-12.4824
version	-12.4851
▁compatib	-12.4875
olera	-12.4882
▁alumn	-12.4931
▁merri	-12.4934
▁mali	-12.5001
urname	-12.5045
▁cava	-12.5059
announced	-12.507
▁lingui	-12.5088
nguished	-12.5133
▁pieas	-12.5141
consistenc	-12.5169
▁ferr	-12.5183
achi	-12.5184
▁revis	-12.5189
tempo	-12.5203
▁physic	-12.5232
▁troubl	-12.5247
listed	-12.5248
▁uncon	-12.5272
▁gradua	-12.5283
exist	-12.53
bron	-12.5302
actu	-12.5305
▁hesitat	-12.5327
▁fertili	-12.5347
factory	-12.5357
posed	-12.5367
zzling	-12.5381
▁shriek	-12.5387
▁kidnap	-12.539
hou	-12.5397
▁handcuff	-12.5398
▁requir	-12.5407
▁occur	-12.5416
▁vegetable	-12.5416
▁wasp	-12.5423
▁coordinate	-12.5426
▁bead	-12.5431
▁relation	-12.5431
▁thistle	-12.5432
▁reload	-12.5433
therapy	-12.5433
▁democrat	-12.5434
▁consequence	-12.5434
▁pancake	-12.544
▁circumstance	-12.544
▁subtitle	-12.544
▁chime	-12.5443
▁diplomat	-12.5445
▁stair	-12.5447
▁instruction	-12.5448
▁stabili	-12.5448
▁tool	-12.5457
hhhhh	-12.5477
▁smok	-12.5481
▁machin	-12.5488
tycoo	-12.5498
▁unfi	-12.55
hacked	-12.5503
rehouse	-12.552
▁gib	-12.5526
cooked	-12.5535
▁cheerlead	-12.5544
belli	-12.5552
▁zap	-12.5552
▁stalk	-12.5554
▁humb	-12.5559
▁chang	-12.5562
olved	-12.5563
▁surround	-12.5564
▁supplie	-12.5577
▁writ	-12.5579
bred	-12.5582
alms	-12.5587
▁infinit	-12.5589
fight	-12.5589
keep	-12.5589
▁updat	-12.5589
heart	-12.5592
▁satisfy	-12.5592
▁murmur	-12.5595
▁terrify	-12.5595
▁encourag	-12.5595
▁stunn	-12.5595
▁appreciat	-12.5596
▁overreact	-12.5596
▁chirp	-12.56
▁smuggle	-12.5602
earned	-12.5603
spots	-12.5603
tural	-12.5604
▁negativ	-12.5604
▁profil	-12.5604
▁commute	-12.5605
▁untra	-12.5606
▁peerreview	-12.5606
apia	-12.5607
▁snob	-12.5608
▁abduct	-12.561
▁crook	-12.561
▁suspend	-12.561
pelled	-12.5611
earth	-12.5611
pster	-12.5613
body	-12.5613
▁chlo	-12.5614
▁slurp	-12.5614
▁engage	-12.5615
▁detaine	-12.5615
girl	-12.5616
▁expan	-12.5616
▁fracture	-12.5616
▁deceive	-12.5617
▁execute	-12.5617
trained	-12.5618
grain	-12.5619
▁involve	-12.5619
charge	-12.5619
tamper	-12.562
terror	-12.562
script	-12.5621
turned	-12.5621
defined	-12.5621
significant	-12.5621
flake	-12.5621
people	-12.5621
author	-12.5621
cloth	-12.5621
nails	-12.5621
finance	-12.5621
anguage	-12.5621
depress	-12.5622
wolves	-12.5622
daughter	-12.5622
stroke	-12.5622
digit	-12.5622
fashion	-12.5622
regard	-12.5622
alimony	-12.5622
aggressive	-12.5622
solution	-12.5622
chambers	-12.5622
broker	-12.5623
▁nerv	-12.5623
alcohol	-12.5623
faithful	-12.5623
convict	-12.5623
chief	-12.5623
safe	-12.5623
lord	-12.5623
effective	-12.5623
physical	-12.5623
claim	-12.5623
deserved	-12.5623
lionel	-12.5623
skull	-12.5623
naturally	-12.5623
after	-12.5623
heroin	-12.5623
leigh	-12.5623
▁excellenc	-12.5623
degree	-12.5623
shock	-12.5623
professional	-12.5623
pathetic	-12.5623
dragon	-12.5623
brush	-12.5623
yaddy	-12.5623
bedroom	-12.5623
empty	-12.5623
familiar	-12.5623
involved	-12.5623
club	-12.5623
breath	-12.5623
regan	-12.5623
film	-12.5623
guest	-12.5623
american	-12.5623
elizabeth	-12.5623
perhaps	-12.5623
floor	-12.5623
culture	-12.5623
choice	-12.5624
speaking	-12.5624
distance	-12.5624
class	-12.5624
david	-12.5624
believe	-12.5624
course	-12.5624
death	-12.5624
guess	-12.5624
held	-12.5624
bugs	-12.5624
killing	-12.5624
okay	-12.5624
guts	-12.5624
▁strateg	-12.5624
suspect	-12.5624
awful	-12.5624
▁amu	-12.5624
credit	-12.5624
▁overdo	-12.5625
wagon	-12.5625
▁harvest	-12.5625
picture	-12.5625
▁ministr	-12.5625
scale	-12.5625
▁deput	-12.5625
▁destin	-12.5626
▁universit	-12.5626
▁majest	-12.5626
beard	-12.5626
▁energ	-12.5626
value	-12.5626
piace	-12.5627
▁securit	-12.5627
sorry	-12.5627
jacket	-12.5628
▁approximate	-12.5628
▁continuous	-12.5628
▁apparent	-12.5628
statement	-12.5628
nathan	-12.5628
dick	-12.5628
▁acknowledg	-12.5629
paper	-12.5629
valid	-12.5629
▁heavi	-12.5629
smear	-12.563
maybe	-12.563
▁syria	-12.563
active	-12.563
record	-12.5631
▁cram	-12.5631
trial	-12.5631
dead	-12.5631
cult	-12.5632
intens	-12.5632
taking	-12.5632
entures	-12.5632
ritos	-12.5633
▁probabi	-12.5633
produc	-12.5633
aware	-12.5633
▁malaysia	-12.5634
nobby	-12.5634
▁democra	-12.5634
annah	-12.5634
▁slur	-12.5634
▁duplicat	-12.5635
▁superhero	-12.5635
cock	-12.5635
▁luis	-12.5635
▁compute	-12.5635
▁delusion	-12.5635
▁technic	-12.5635
▁convenien	-12.5635
deeds	-12.5636
▁ethic	-12.5636
ndlers	-12.5636
were	-12.5636
midst	-12.5636
▁staple	-12.5636
associat	-12.5637
▁concei	-12.5637
▁unfuckin	-12.5637
▁raft	-12.5637
▁vanish	-12.5637
half	-12.5637
trusted	-12.5637
▁spinnin	-12.5637
▁exclusi	-12.5637
▁draggin	-12.5637
number	-12.5638
▁nev	-12.5638
▁anythin	-12.5638
beiievabie	-12.5638
▁investigati	-12.5638
▁lecler	-12.5638
▁preten	-12.5638
▁dyin	-12.5639
orky	-12.5639
▁devastat	-12.5639
around	-12.5639
▁transmitt	-12.5639
▁compensat	-12.5639
prick	-12.5639
uaiiy	-12.564
zero	-12.564
▁athen	-12.564
▁inevitab	-12.564
▁expend	-12.564
▁participa	-12.564
▁apocalyp	-12.564
ware	-12.564
▁beneficia	-12.564
nclusion	-12.564
ercise	-12.564
▁excess	-12.564
▁mmmmmmmmm	-12.5641
▁wolv	-12.5641
▁infirm	-12.5641
▁precede	-12.5641
pict	-12.5641
urban	-12.5641
loyd	-12.5641
arran	-12.5641
jiv	-12.5641
yeah	-12.5641
▁darwin	-12.5641
▁communi	-12.5641
▁smoo	-12.5641
iatric	-12.5642
▁catalog	-12.5642
▁impossibi	-12.5642
▁ancest	-12.5642
▁applica	-12.5642
▁cerv	-12.5642
▁autobiograph	-12.5642
▁deprav	-12.5642
▁henriques	-12.5642
▁hexagon	-12.5642
▁hymn	-12.5642
▁levit	-12.5642
▁mckinley	-12.5642
▁necessit	-12.5642
▁tweedled	-12.5642
▁voyeur	-12.5642
andmaude	-12.5642
anesthesiologist	-12.5642
arthritis	-12.5642
cerebra	-12.5642
enforceable	-12.5642
eparable	-12.5642
familly	-12.5642
fscxfscy	-12.5642
▁academic	-12.5642
▁acquire	-12.5642
▁adjective	-12.5642
▁administrative	-12.5642
▁affidavit	-12.5642
▁affiliations	-12.5642
▁affliction	-12.5642
▁afghanistan	-12.5642
▁ahlgren	-12.5642
▁albatross	-12.5642
▁algebra	-12.5642
▁altogether	-12.5642
▁amazed	-12.5642
▁amtech	-12.5642
▁anesthesia	-12.5642
▁antagonist	-12.5642
▁antagonize	-12.5642
▁anxiety	-12.5642
▁arabic	-12.5642
▁ashcroft	-12.5642
▁asparagus	-12.5642
▁aspie	-12.5642
▁assaoui	-12.5642
▁association	-12.5642
▁asthmatic	-12.5642
▁astonishing	-12.5642
▁athletic	-12.5642
▁atlanta	-12.5642
▁atroci	-12.5642
▁atroph	-12.5642
▁attiliuccio	-12.5642
▁autua	-12.5642
▁backandforth	-12.5642
▁backstreet	-12.5642
▁bangkok	-12.5642
▁banjo	-12.5642
▁bankrupt	-12.5642
▁barricade	-12.5642
▁beirut	-12.5642
▁bernard	-12.5642
▁bernardino	-12.5642
▁bewitch	-12.5642
▁bicycle	-12.5642
▁billionaire	-12.5642
▁biochemist	-12.5642
▁blizzard	-12.5642
▁blockbuster	-12.5642
▁blomkvist	-12.5642
▁boerhaave	-12.5642
▁bolshevik	-12.5642
▁bonanza	-12.5642
▁bouquet	-12.5642
▁britanni	-12.5642
▁broadmoor	-12.5642
▁bygones	-12.5642
▁cackles	-12.5642
▁cannibal	-12.5642
▁canopy	-12.5642
▁captivating	-12.5642
▁cartridge	-12.5642
▁cementary	-12.5642
▁certify	-12.5642
▁chakra	-12.5642
▁chaperones	-12.5642
▁charcoal	-12.5642
▁chimney	-12.5642
▁chipmunk	-12.5642
▁cholesterol	-12.5642
▁chronicle	-12.5642
▁cigezze	-12.5642
▁claudia	-12.5642
▁clergy	-12.5642
▁clickbait	-12.5642
▁cloying	-12.5642
▁cobalt	-12.5642
▁cocacola	-12.5642
▁cockadoodie	-12.5642
▁coidcock	-12.5642
▁commotion	-12.5642
▁component	-12.5642
▁comprehend	-12.5642
▁conchita	-12.5642
▁concierge	-12.5642
▁concrete	-12.5642
▁concussion	-12.5642
▁conquests	-12.5642
▁contagion	-12.5642
▁contradiction	-12.5642
▁coronavirus	-12.5642
▁cortisol	-12.5642
▁counterfeit	-12.5642
▁craigslist	-12.5642
▁credentials	-12.5642
▁culminat	-12.5642
▁custodia	-12.5642
▁daydream	-12.5642
▁debauchery	-12.5642
▁deluxe	-12.5642
▁depose	-12.5642
▁desecrate	-12.5642
▁deterrent	-12.5642
▁deutsch	-12.5642
▁dialogue	-12.5642
▁diapers	-12.5642
▁dictate	-12.5642
▁dictionary	-12.5642
▁discomfort	-12.5642
▁disembark	-12.5642
▁disengage	-12.5642
▁disintegrate	-12.5642
▁distancing	-12.5642
▁dododo	-12.5642
▁dododododododo	-12.5642
▁dormitory	-12.5642
▁doviak	-12.5642
▁ducati	-12.5642
▁dunkirk	-12.5642
▁dwindling	-12.5642
▁eavesdrop	-12.5642
▁eduardo	-12.5642
▁einstein	-12.5642
▁elastic	-12.5642
▁elected	-12.5642
▁elementary	-12.5642
▁elisabetta	-12.5642
▁emasculate	-12.5642
▁embellish	-12.5642
▁emergencies	-12.5642
▁empathize	-12.5642
▁encryption	-12.5642
▁enforced	-12.5642
▁enigma	-12.5642
[...]
