<unk>	0
<s>	0
</s>	0
s	-3.88302
▁im	-4.51036
▁dont	-4.57362
▁know	-4.68285
▁get	-4.72453
▁go	-4.75144
▁oh	-4.84583
▁right	-4.89493
▁come	-4.89827
▁got	-4.97406
▁well	-4.9744
▁like	-4.99682
▁youre	-5.07594
▁thats	-5.15965
▁one	-5.17292
▁yeah	-5.18761
▁good	-5.26293
▁think	-5.33202
▁na	-5.38194
▁see	-5.39337
ing	-5.42178
▁want	-5.43714
▁hey	-5.48292
▁yes	-5.49779
▁look	-5.51945
▁ill	-5.52613
▁okay	-5.5519
▁back	-5.55687
▁us	-5.60652
▁gon	-5.6128
▁going	-5.62186
▁time	-5.63668
ed	-5.64857
▁cant	-5.69921
▁hes	-5.72163
▁take	-5.72981
▁say	-5.81749
▁man	-5.85101
▁would	-5.85495
▁way	-5.87114
▁lets	-5.90602
▁little	-5.91494
▁never	-5.91587
▁tell	-5.92556
▁mr	-5.9366
▁thank	-5.95115
▁really	-5.95826
▁could	-5.98929
▁ive	-5.99568
▁sir	-6.00299
▁whats	-6.01822
▁make	-6.02005
▁let	-6.02161
▁something	-6.05854
▁didnt	-6.11467
▁need	-6.12623
▁l	-6.12663
▁mean	-6.14054
▁sorry	-6.14123
▁love	-6.14715
d	-6.1619
▁theres	-6.16985
y	-6.17199
▁give	-6.17414
▁wait	-6.18115
▁help	-6.19956
▁two	-6.20031
▁please	-6.21313
▁sure	-6.27244
▁theyre	-6.29939
▁	-6.33471
▁uh	-6.35556
▁much	-6.3704
▁thing	-6.38219
▁said	-6.38821
▁stop	-6.38935
▁must	-6.40164
▁people	-6.40482
▁day	-6.43127
▁night	-6.43317
▁great	-6.4547
▁find	-6.45515
▁first	-6.46769
▁home	-6.47256
▁away	-6.48575
▁keep	-6.49155
▁put	-6.5103
▁guys	-6.52737
▁even	-6.54001
▁old	-6.54979
▁life	-6.5522
▁ever	-6.57705
▁call	-6.58972
▁boy	-6.58977
▁anything	-6.59925
▁thought	-6.60014
▁work	-6.60563
▁big	-6.61215
▁always	-6.6217
▁maybe	-6.62365
▁shes	-6.62584
▁still	-6.62735
e	-6.63185
▁better	-6.63315
▁nothing	-6.63469
▁wont	-6.63696
▁god	-6.64031
▁id	-6.64574
▁youll	-6.6662
▁new	-6.66765
▁hello	-6.66865
ly	-6.67608
▁youve	-6.67614
er	-6.68512
▁ta	-6.69432
▁coming	-6.71506
▁everything	-6.72109
▁dad	-6.72773
▁long	-6.73251
▁told	-6.74008
▁house	-6.75263
▁hi	-6.75499
▁last	-6.75741
▁things	-6.7606
▁name	-6.7661
▁nice	-6.7816
▁thanks	-6.79207
▁fine	-6.79934
▁around	-6.80384
▁place	-6.81129
▁every	-6.81776
▁move	-6.82298
▁stay	-6.83461
▁hear	-6.83501
▁isnt	-6.84319
▁talk	-6.8436
▁girl	-6.86109
▁hold	-6.87988
▁play	-6.88855
▁doesnt	-6.88909
▁believe	-6.90438
▁listen	-6.90854
▁leave	-6.91701
▁may	-6.9179
▁money	-6.92177
▁run	-6.92446
▁kind	-6.92455
▁made	-6.92741
▁feel	-6.92809
▁ready	-6.93826
▁huh	-6.94503
▁three	-6.9582
▁years	-6.96023
▁ok	-6.96347
▁might	-6.96672
▁course	-6.96885
▁lot	-6.97518
▁bad	-6.9865
▁hell	-6.99198
▁father	-6.99232
▁miss	-7.00206
▁world	-7.00646
▁left	-7.00705
▁done	-7.00707
▁mother	-7.01496
▁whoa	-7.01545
▁show	-7.01619
▁room	-7.02361
▁wrong	-7.02669
▁understand	-7.03069
▁remember	-7.04023
▁real	-7.04499
▁weve	-7.05256
▁mom	-7.0587
▁car	-7.0618
a	-7.07788
▁mind	-7.08
▁guy	-7.08307
▁enough	-7.09721
▁try	-7.10769
▁today	-7.10946
▁school	-7.11419
▁wan	-7.11859
▁wanted	-7.11902
▁care	-7.1304
▁watch	-7.13758
▁together	-7.13759
▁next	-7.13759
▁best	-7.14087
▁else	-7.14715
▁happened	-7.14888
▁friend	-7.15137
▁another	-7.15679
▁talking	-7.15961
▁morning	-7.16328
▁meet	-7.18521
▁excuse	-7.18611
▁ah	-7.18883
▁ask	-7.21222
▁dead	-7.21881
▁son	-7.22025
▁live	-7.22145
▁playing	-7.22283
▁family	-7.22705
▁wouldnt	-7.22733
▁guess	-7.23605
▁came	-7.2372
▁head	-7.24743
in	-7.25161
t	-7.2574
▁tonight	-7.25874
▁music	-7.26173
▁start	-7.27457
▁seen	-7.28062
▁baby	-7.29517
▁chuckles	-7.29598
▁someone	-7.3049
▁pretty	-7.30637
▁kids	-7.30643
▁minute	-7.30878
▁fire	-7.31043
▁getting	-7.32029
▁found	-7.32489
▁mrs	-7.32934
▁hope	-7.33369
▁hand	-7.33819
▁idea	-7.34016
▁gone	-7.34828
▁everyone	-7.35258
▁men	-7.35744
▁ha	-7.35933
▁matter	-7.3599
▁story	-7.36834
r	-7.37099
▁trying	-7.37404
o	-7.37522
▁kid	-7.3763
▁havent	-7.3763
▁heard	-7.37997
▁tomorrow	-7.38033
▁yet	-7.38039
▁laughing	-7.38142
▁em	-7.39113
▁wasnt	-7.39253
▁happy	-7.39663
▁use	-7.39847
es	-7.40119
▁kill	-7.40826
▁saw	-7.40903
▁george	-7.40904
▁friends	-7.41017
▁days	-7.41264
▁without	-7.41319
▁door	-7.41404
▁turn	-7.41574
▁lost	-7.41745
▁looking	-7.42169
▁many	-7.42318
▁worry	-7.42965
▁wish	-7.42996
▁whole	-7.43858
▁bring	-7.4399
▁five	-7.46031
▁youd	-7.46464
▁check	-7.46529
▁hurry	-7.469
n	-7.47273
▁eat	-7.47428
▁went	-7.48235
▁whos	-7.48257
▁bit	-7.49064
▁everybody	-7.49367
▁second	-7.49376
▁since	-7.49559
▁easy	-7.49585
▁water	-7.49836
▁knew	-7.5004
▁open	-7.50405
▁alone	-7.50497
▁children	-7.50501
▁actually	-7.50503
▁mine	-7.50966
▁hard	-7.51626
▁late	-7.51803
▁shut	-7.5232
i	-7.52511
▁job	-7.53128
▁anyone	-7.53752
▁took	-7.55662
▁number	-7.56049
▁dear	-7.5647
▁game	-7.56553
▁true	-7.56657
al	-7.56676
▁young	-7.56992
▁wow	-7.57117
▁looks	-7.57984
▁town	-7.5804
▁end	-7.58251
▁face	-7.58591
▁aint	-7.58596
▁brother	-7.59065
▁wheres	-7.59203
▁red	-7.59299
▁problem	-7.59572
▁ray	-7.59609
▁laughs	-7.59712
▁business	-7.60087
▁wife	-7.60578
▁afraid	-7.60601
▁die	-7.60737
▁damn	-7.61258
▁grunts	-7.61314
▁shall	-7.6161
▁phone	-7.6163
▁later	-7.61712
▁already	-7.62131
▁woman	-7.62133
▁king	-7.62315
▁soon	-7.63042
▁set	-7.63101
▁honey	-7.63167
▁lm	-7.63196
▁read	-7.63518
▁doctor	-7.63747
▁beautiful	-7.6421
▁break	-7.64278
▁called	-7.64694
▁used	-7.65086
▁stuff	-7.65265
▁trouble	-7.65908
▁dance	-7.66038
▁heart	-7.66162
▁close	-7.66291
▁gentlemen	-7.66332
▁um	-7.66366
▁ago	-7.66872
▁couldnt	-7.66907
▁year	-7.66998
▁fight	-7.67106
▁boys	-7.67943
▁party	-7.68272
▁stand	-7.68823
▁forget	-7.69029
▁dr	-7.70254
▁four	-7.70266
▁eyes	-7.70595
▁cause	-7.70686
▁cool	-7.70722
▁supposed	-7.70838
▁anyway	-7.70903
▁dog	-7.70938
▁line	-7.71124
▁book	-7.71725
▁arent	-7.72413
▁funny	-7.72434
▁sit	-7.72447
▁far	-7.72547
▁fun	-7.72702
▁welcome	-7.72983
▁thinking	-7.73241
▁stupid	-7.73557
▁pick	-7.73564
▁continues	-7.74142
▁hit	-7.74422
▁says	-7.74494
▁howard	-7.74717
▁light	-7.7475
▁sighs	-7.74795
▁un	-7.74907
▁high	-7.7495
▁sleep	-7.75215
▁pull	-7.75664
▁crazy	-7.75891
▁taking	-7.76498
▁girls	-7.76707
▁hurt	-7.76964
▁part	-7.77201
▁cat	-7.77454
▁hmm	-7.77639
▁somebody	-7.77675
▁inside	-7.77678
▁cheering	-7.77706
▁lady	-7.77715
▁city	-7.7829
▁learn	-7.79649
▁parents	-7.79689
▁pay	-7.79721
▁joe	-7.79885
▁screaming	-7.80211
▁cut	-7.80279
▁gasps	-7.81016
▁chance	-7.81167
▁moment	-7.81176
▁important	-7.81347
est	-7.82072
▁change	-7.82209
▁ooh	-7.83235
▁walk	-7.83694
▁hands	-7.83998
▁quite	-7.84555
▁working	-7.84747
▁happen	-7.84923
▁computer	-7.85024
▁john	-7.85139
▁almost	-7.85155
▁sea	-7.8572
▁whatever	-7.85804
▁luck	-7.86272
▁making	-7.86463
▁exactly	-7.86472
l	-7.86472
▁side	-7.86536
▁heres	-7.86581
▁minutes	-7.86697
▁waiting	-7.86865
▁probably	-7.87116
▁free	-7.87639
▁question	-7.87749
▁aah	-7.87791
▁wonderful	-7.87834
▁news	-7.87883
▁six	-7.88437
▁behind	-7.88445
▁least	-7.88454
▁hang	-7.88608
▁ladies	-7.89796
▁bed	-7.90128
▁theyll	-7.90473
▁drink	-7.90718
▁child	-7.91134
▁itll	-7.91161
▁point	-7.91348
▁sweet	-7.91774
▁special	-7.91849
m	-7.92349
▁fast	-7.92384
▁half	-7.92532
▁ahead	-7.92544
▁death	-7.9324
▁goodbye	-7.9324
▁dale	-7.93252
▁week	-7.93332
▁rest	-7.935
▁hot	-7.94076
▁gave	-7.94609
▁green	-7.94649
▁anymore	-7.95368
▁makes	-7.95587
▁met	-7.96001
▁bye	-7.96088
▁catch	-7.96159
▁clear	-7.96436
▁duck	-7.96697
▁hate	-7.96864
▁send	-7.97207
▁carl	-7.97218
▁police	-7.9751
▁bob	-7.97532
▁country	-7.97543
▁chip	-7.9768
▁word	-7.9848
▁deal	-7.98511
▁crowd	-7.98628
▁air	-7.98649
▁lose	-7.98972
▁dude	-7.9926
▁throw	-7.99709
▁ow	-8.00141
▁puss	-8.00289
▁write	-8.00446
▁wants	-8.00707
▁sister	-8.00743
g	-8.00817
▁b	-8.0101
▁though	-8.01194
▁along	-8.01269
▁anybody	-8.01274
▁boss	-8.01281
▁ball	-8.01575
en	-8.02038
▁white	-8.02046
▁nobody	-8.02301
▁trust	-8.02429
▁different	-8.02806
▁s	-8.02881
▁saying	-8.02962
▁sort	-8.03582
▁henry	-8.03582
▁lts	-8.04716
▁full	-8.04799
▁grunting	-8.0522
▁rock	-8.05261
▁safe	-8.05735
▁plan	-8.05986
▁war	-8.06324
▁brought	-8.06744
▁dinner	-8.06744
on	-8.07035
▁power	-8.07103
▁save	-8.07339
▁follow	-8.07551
▁million	-8.07944
▁perfect	-8.08209
▁earth	-8.08333
▁couple	-8.08365
▁answer	-8.08378
▁hours	-8.08624
▁quick	-8.08996
▁hair	-8.09239
▁land	-8.09308
▁asked	-8.10036
▁captain	-8.1043
▁sound	-8.1047
▁tried	-8.10859
▁lovely	-8.10904
▁general	-8.11248
▁step	-8.11302
▁team	-8.11323
▁ya	-8.11414
▁bet	-8.11426
p	-8.11473
▁lord	-8.11684
▁glad	-8.11692
▁touch	-8.1171
▁times	-8.11829
▁small	-8.12401
st	-8.12629
▁sounds	-8.12893
▁control	-8.13229
▁killed	-8.13255
▁evil	-8.13386
▁re	-8.13857
▁dream	-8.13872
▁speak	-8.14206
▁perhaps	-8.14247
▁goes	-8.15293
▁secret	-8.15533
▁daughter	-8.15709
▁th	-8.15716
▁food	-8.16017
▁groans	-8.1604
▁means	-8.16075
▁sometimes	-8.16423
▁shoot	-8.16454
▁yi	-8.16605
▁quiet	-8.16746
▁married	-8.16885
ers	-8.1695
▁seems	-8.16972
▁sick	-8.17425
▁ship	-8.17492
▁star	-8.17553
▁win	-8.17768
▁either	-8.17772
▁also	-8.17772
▁hows	-8.17838
f	-8.17982
▁promise	-8.18142
▁top	-8.18784
▁darling	-8.19587
▁hotel	-8.19603
▁reason	-8.20229
▁officer	-8.2035
▁president	-8.20498
▁daddy	-8.20517
▁drive	-8.20991
▁drop	-8.21189
▁outside	-8.21418
▁living	-8.21424
▁fact	-8.22107
▁case	-8.22114
▁till	-8.22413
▁ride	-8.22584
▁ones	-8.23189
▁kurt	-8.23304
▁mary	-8.23342
▁frank	-8.2382
or	-8.23909
▁telling	-8.23945
▁coach	-8.24162
▁person	-8.24208
▁song	-8.24236
▁seven	-8.24256
▁growling	-8.2429
▁finally	-8.24311
▁needs	-8.24582
▁c	-8.24742
▁suppose	-8.25006
▁blue	-8.25046
▁black	-8.25136
▁rather	-8.25217
▁front	-8.25217
▁truth	-8.25218
▁seem	-8.25384
le	-8.25912
▁screams	-8.25972
▁uncle	-8.26188
▁shouldnt	-8.26188
▁hour	-8.26875
▁wonder	-8.27155
▁david	-8.27168
▁sent	-8.27175
▁ten	-8.27221
▁horse	-8.27763
▁feeling	-8.27789
▁ben	-8.27937
▁lives	-8.28011
▁karen	-8.28159
▁road	-8.28185
▁cold	-8.28189
▁singing	-8.2851
re	-8.2909
▁leaving	-8.29159
▁mama	-8.29307
k	-8.29436
tor	-8.29947
▁started	-8.30144
▁running	-8.30172
▁mmm	-8.30209
▁able	-8.30361
able	-8.30531
▁knows	-8.31028
▁piece	-8.31222
▁cats	-8.31577
▁camp	-8.31705
▁class	-8.31709
▁office	-8.32149
▁wizard	-8.3222
▁theyve	-8.32221
▁poor	-8.32228
▁pass	-8.32816
ic	-8.32839
▁meant	-8.3285
▁loved	-8.33047
▁moving	-8.33266
▁alive	-8.33267
▁miles	-8.33907
▁happening	-8.3398
▁christmas	-8.34314
ie	-8.34321
▁shot	-8.34333
▁wed	-8.34448
▁died	-8.34867
▁count	-8.35167
▁serious	-8.3525
▁months	-8.35292
▁potter	-8.35381
▁human	-8.35463
▁bees	-8.35616
▁fish	-8.36024
▁buddy	-8.36454
▁sign	-8.36499
▁gun	-8.37119
ion	-8.37334
▁witch	-8.37476
▁shh	-8.37868
▁lunch	-8.38635
▁kermit	-8.38639
▁mud	-8.38672
▁fred	-8.38722
▁scared	-8.38765
▁g	-8.39063
▁careful	-8.39676
▁straight	-8.39714
▁coffee	-8.3975
▁harry	-8.3975
▁women	-8.39754
▁calm	-8.39777
▁lucky	-8.40109
▁taken	-8.40585
▁beat	-8.40615
▁strange	-8.40803
▁p	-8.40971
▁master	-8.41024
▁voice	-8.41079
▁eye	-8.41129
▁buy	-8.41147
▁fall	-8.41792
▁slow	-8.41882
▁jeremy	-8.4201
▁somewhere	-8.4201
▁dangerous	-8.42017
▁body	-8.42019
▁shell	-8.42022
man	-8.42211
▁billy	-8.42214
▁christian	-8.42216
▁handle	-8.4249
▁words	-8.42855
c	-8.43893
▁finish	-8.43969
▁wake	-8.44357
▁jellicle	-8.44627
▁train	-8.44826
▁evening	-8.44951
▁return	-8.45134
▁dorothy	-8.45499
▁happens	-8.45654
▁maam	-8.46692
▁date	-8.46768
▁n	-8.46803
▁smell	-8.46818
▁boat	-8.47006
▁window	-8.47046
▁books	-8.47379
▁mad	-8.47534
▁brain	-8.47579
▁short	-8.4762
▁bill	-8.4766
▁worth	-8.47668
▁wear	-8.47804
▁dark	-8.47893
▁rowley	-8.47896
▁radio	-8.4791
▁names	-8.48141
▁box	-8.48583
▁gene	-8.48759
▁greg	-8.49075
▁forever	-8.49113
▁others	-8.49114
▁scott	-8.49114
▁none	-8.49162
▁roll	-8.49411
w	-8.49466
▁picture	-8.49545
▁speaking	-8.49742
▁grow	-8.50139
▁weird	-8.50153
▁turned	-8.50164
▁except	-8.50251
▁across	-8.5035
▁summer	-8.50364
us	-8.50378
▁manny	-8.50405
▁aunt	-8.5041
▁tom	-8.50444
▁lll	-8.50556
▁leg	-8.50698
▁law	-8.50743
▁marry	-8.51119
▁fly	-8.51278
▁map	-8.51314
▁jack	-8.51582
▁foot	-8.51603
▁feet	-8.51611
▁order	-8.51723
▁cover	-8.51859
▁join	-8.51973
▁sing	-8.52104
an	-8.52708
▁company	-8.52864
h	-8.53106
ar	-8.5328
▁become	-8.53304
▁key	-8.53428
ies	-8.53652
▁a	-8.53773
▁deep	-8.5389
▁imagine	-8.53925
▁magic	-8.5401
▁pleasure	-8.54146
▁giving	-8.54147
▁hungry	-8.54152
▁tea	-8.548
▁building	-8.54935
▁attack	-8.55079
b	-8.55233
▁worked	-8.55308
▁forgot	-8.55433
▁gadget	-8.55444
▁alvin	-8.55445
▁security	-8.55448
▁tired	-8.55465
▁gary	-8.55477
▁busy	-8.55595
▁figure	-8.55698
▁sun	-8.55964
▁bear	-8.56217
ll	-8.56236
▁choice	-8.56761
▁major	-8.56761
▁alex	-8.56761
▁shouting	-8.5683
▁chattering	-8.56964
▁faster	-8.56999
▁comes	-8.57196
▁street	-8.57374
▁entire	-8.57964
ting	-8.58038
▁chief	-8.58094
▁york	-8.58094
▁jesus	-8.58094
▁birthday	-8.58095
▁mouse	-8.58096
▁born	-8.58126
u	-8.58209
▁eight	-8.58375
▁engine	-8.58461
▁sense	-8.58575
▁expect	-8.58634
▁dollars	-8.58666
▁middle	-8.59445
▁round	-8.59447
▁terrible	-8.59475
▁certainly	-8.5955
▁ground	-8.59687
▁saved	-8.59803
▁monster	-8.60149
▁animal	-8.6015
▁longer	-8.60249
out	-8.60272
▁art	-8.60618
▁wilma	-8.60816
▁ellie	-8.60816
▁possible	-8.60817
▁kidding	-8.60821
▁van	-8.60837
▁blow	-8.61037
▁grand	-8.61119
▁kiss	-8.61314
▁dress	-8.61331
▁field	-8.61547
▁relax	-8.61812
▁weeks	-8.6204
▁tight	-8.62082
▁favorite	-8.62206
▁cheese	-8.62207
▁bank	-8.62233
▁quickly	-8.6242
▁finished	-8.6263
▁de	-8.62871
ch	-8.6341
▁gets	-8.63494
▁wild	-8.63595
▁afternoon	-8.63612
▁super	-8.63616
▁service	-8.63616
▁oz	-8.63619
▁yelling	-8.63695
▁known	-8.63765
▁hed	-8.6388
▁push	-8.63958
▁enjoy	-8.64219
▁commenta	-8.6434
▁looked	-8.64484
▁blood	-8.64834
▁brenda	-8.65041
▁caught	-8.65041
▁proud	-8.65041
▁susan	-8.65041
▁worse	-8.65041
▁stuck	-8.65045
▁tv	-8.65047
▁fault	-8.6505
▁absolutely	-8.65057
▁clean	-8.65079
▁unless	-8.65081
▁st	-8.65109
▁stick	-8.65162
▁princess	-8.65165
▁k	-8.65323
▁fool	-8.65483
▁calling	-8.65637
▁charge	-8.65647
▁planet	-8.6589
▁letter	-8.66051
▁table	-8.66291
▁near	-8.66358
▁smart	-8.66361
▁ernie	-8.66491
▁goddamn	-8.66504
▁early	-8.66557
▁board	-8.66831
to	-8.6723
▁present	-8.67296
▁tree	-8.67397
▁in	-8.67404
▁fear	-8.67572
▁share	-8.67751
▁doug	-8.67915
▁past	-8.67955
▁friday	-8.67963
▁panting	-8.68025
▁player	-8.68138
▁lt	-8.68323
▁ho	-8.68591
▁mistake	-8.68784
▁queen	-8.68832
▁granny	-8.68837
▁wind	-8.6885
▁martin	-8.69339
▁low	-8.6945
▁tough	-8.69454
▁grab	-8.69456
▁football	-8.69458
▁boots	-8.69458
▁alan	-8.69462
▁walter	-8.6947
▁questions	-8.69526
▁wh	-8.69613
▁lead	-8.69639
▁movie	-8.6997
▁explain	-8.70083
▁reach	-8.70122
▁chicken	-8.70351
▁jump	-8.70383
▁bag	-8.70493
▁rich	-8.70741
▁meimei	-8.70969
▁hero	-8.71126
ment	-8.71263
▁dreams	-8.71502
▁aw	-8.71526
▁killer	-8.71579
▁given	-8.71695
▁cry	-8.72049
▁bell	-8.72078
▁rescue	-8.72285
▁fat	-8.72381
▁scene	-8.72491
▁shit	-8.72513
▁upon	-8.72529
▁report	-8.72559
▁changed	-8.73031
▁cute	-8.73031
▁pa	-8.73333
▁yo	-8.73507
▁sell	-8.7363
▁works	-8.73696
▁fell	-8.7397
▁ran	-8.74066
▁felt	-8.74069
▁tim	-8.74629
less	-8.74854
▁pain	-8.75058
▁husband	-8.75167
ish	-8.75261
▁josh	-8.75381
▁harold	-8.75657
▁wedding	-8.75663
ful	-8.75706
▁whoo	-8.75727
ta	-8.75759
▁ringing	-8.76002
▁f	-8.76117
▁eh	-8.76138
▁mess	-8.76219
▁la	-8.76249
z	-8.76338
▁state	-8.76341
▁seconds	-8.76405
▁lights	-8.76412
▁cop	-8.76686
▁mark	-8.76774
▁island	-8.76788
▁fair	-8.76911
▁spot	-8.77246
▁alexander	-8.7727
▁swear	-8.7727
▁hasnt	-8.7727
▁werent	-8.77271
▁press	-8.77346
▁brothers	-8.77361
▁laugh	-8.77662
▁meeting	-8.77815
▁act	-8.7794
▁pop	-8.78005
▁missing	-8.78255
▁pig	-8.78496
▁thousand	-8.78506
▁practice	-8.78675
▁strong	-8.78739
▁ch	-8.78758
▁broke	-8.78852
▁river	-8.78903
▁excellent	-8.78909
▁mike	-8.78919
▁sitting	-8.78967
▁single	-8.78969
▁unit	-8.7903
▁certain	-8.79033
▁heh	-8.79322
▁cops	-8.79335
▁wearing	-8.79515
▁kick	-8.79701
▁awful	-8.79715
▁offer	-8.79785
ity	-8.79969
▁wall	-8.80047
th	-8.80116
▁message	-8.80167
▁seat	-8.80186
▁frog	-8.80196
▁egg	-8.80217
▁mighty	-8.80219
▁bee	-8.80274
▁appreciate	-8.80343
▁surprise	-8.80363
▁forgive	-8.80492
▁attention	-8.80576
▁amazing	-8.80576
▁north	-8.80577
▁space	-8.80583
▁gold	-8.80584
▁sad	-8.80597
▁wondering	-8.81334
▁mouth	-8.81375
▁butt	-8.81554
▁bailey	-8.81812
▁fix	-8.81907
▁mm	-8.82158
▁anywhere	-8.82271
▁third	-8.82271
▁truck	-8.82273
▁carmen	-8.82313
▁peach	-8.82331
▁warner	-8.82382
▁rid	-8.82395
▁pete	-8.82459
▁e	-8.82901
▁bird	-8.83522
▁protect	-8.83533
▁build	-8.83552
▁grandma	-8.83589
▁teach	-8.8385
▁indistinct	-8.83866
▁south	-8.83995
▁forward	-8.83995
▁future	-8.83998
▁race	-8.84
▁sword	-8.84025
▁nose	-8.84103
▁holy	-8.84143
up	-8.84343
▁park	-8.8462
▁lived	-8.85082
▁trip	-8.85102
▁monkey	-8.85445
▁arm	-8.85548
▁beach	-8.85674
▁french	-8.85741
▁zach	-8.85744
▁kept	-8.85749
▁lloyd	-8.85749
▁throat	-8.85749
▁worried	-8.85749
▁yesterday	-8.85749
▁uhhuh	-8.85749
▁angry	-8.8575
▁simple	-8.85751
▁floor	-8.85754
▁group	-8.85755
▁groaning	-8.85769
▁lie	-8.85787
▁anna	-8.85792
▁totally	-8.85818
▁hide	-8.85823
▁decided	-8.85887
▁ohh	-8.86026
▁stars	-8.86221
▁bitch	-8.86734
▁age	-8.86814
▁less	-8.86919
ive	-8.87111
ve	-8.87138
▁soul	-8.87196
▁hundred	-8.87281
▁stone	-8.87312
▁mate	-8.87362
▁personal	-8.87504
▁dennis	-8.87535
▁hannah	-8.87535
▁angus	-8.87536
▁battle	-8.87539
▁dirty	-8.87594
▁joke	-8.87641
▁higher	-8.8792
▁asking	-8.88074
▁watching	-8.88259
▁post	-8.88652
▁heaven	-8.89122
▁papa	-8.89353
▁ought	-8.89362
▁dave	-8.89362
▁mister	-8.89369
▁ice	-8.89413
▁bus	-8.89456
▁besides	-8.89563
▁interested	-8.89591
▁hunt	-8.90599
▁horn	-8.9065
▁cross	-8.90848
▁machine	-8.90931
▁camera	-8.90973
▁escape	-8.90975
▁realize	-8.91026
▁paper	-8.91044
ness	-8.91175
▁definitely	-8.91213
▁impossible	-8.91222
▁james	-8.91307
▁beer	-8.91385
▁double	-8.91395
▁promised	-8.91675
▁dare	-8.91682
▁ass	-8.91876
ry	-8.92358
▁spy	-8.926
▁el	-8.92698
▁mention	-8.92736
▁code	-8.9278
▁moved	-8.92934
▁quit	-8.92952
▁hill	-8.93082
▁court	-8.93088
▁crusoe	-8.93092
▁kitchen	-8.93092
▁college	-8.93092
▁zack	-8.93094
▁size	-8.93107
▁experience	-8.93121
▁todd	-8.93143
▁stopped	-8.93154
▁doubt	-8.9329
▁locked	-8.93361
▁hardly	-8.93617
▁missed	-8.93632
▁ahh	-8.94025
is	-8.94212
▁dogs	-8.94253
▁trick	-8.94278
▁bar	-8.9435
▁walking	-8.94424
ro	-8.94522
▁bright	-8.94826
▁station	-8.94848
▁smile	-8.94946
▁history	-8.95015
▁melissa	-8.95015
▁instead	-8.95015
▁famous	-8.95017
▁chess	-8.95024
▁nine	-8.95024
▁aye	-8.9504
▁indeed	-8.95042
▁mommy	-8.95043
▁west	-8.95048
▁peter	-8.95221
▁army	-8.95249
▁takes	-8.95368
▁goin	-8.95784
▁horses	-8.95848
▁talked	-8.95987
▁test	-8.96068
▁plans	-8.96075
▁crash	-8.96158
at	-8.96162
▁ii	-8.96223
▁carry	-8.96613
▁normal	-8.96833
▁action	-8.9685
v	-8.96919
▁public	-8.96958
▁swim	-8.96971
▁congratulations	-8.96976
▁private	-8.96976
▁wrote	-8.96976
▁sake	-8.96982
▁paid	-8.96985
▁betty	-8.9699
▁danger	-8.97002
▁moon	-8.97016
▁tony	-8.97094
▁owe	-8.97171
▁bomb	-8.97232
▁growls	-8.97245
▁bloody	-8.97267
▁crying	-8.9755
you	-8.97557
▁shoes	-8.97574
▁woods	-8.98082
▁continue	-8.98267
▁hat	-8.98386
▁standing	-8.9859
▁waste	-8.98754
▁richard	-8.98971
▁language	-8.98976
▁situation	-8.98976
▁kitty	-8.98977
▁bunch	-8.98978
▁clever	-8.98985
▁robin	-8.98986
▁vegas	-8.99023
▁broken	-8.99043
▁games	-8.99304
▁eggs	-8.99409
ation	-8.99691
▁store	-8.99702
▁club	-8.99736
▁record	-9.00093
▁fired	-9.00123
▁form	-9.00127
▁spend	-9.0041
▁destroy	-9.00658
▁pal	-9.00851
▁brave	-9.00853
▁glass	-9.00959
▁seeing	-9.00969
▁mountain	-9.01
▁especially	-9.01016
▁candy	-9.0102
▁outta	-9.01027
▁everywhere	-9.01031
▁ring	-9.01043
▁christ	-9.01043
▁corner	-9.01072
▁needed	-9.01163
▁interesting	-9.01352
▁folks	-9.01382
me	-9.01433
▁gus	-9.01542
▁birds	-9.01561
▁begin	-9.016
▁huge	-9.02003
▁animals	-9.02018
▁fit	-9.02131
▁knock	-9.02207
▁bite	-9.02242
▁leo	-9.0234
▁heads	-9.02479
▁allow	-9.02735
▁system	-9.03062
▁hospital	-9.03085
▁kevin	-9.031
▁soccer	-9.031
▁wolf	-9.031
▁sergeant	-9.031
▁washington	-9.031
▁marnie	-9.031
▁bottom	-9.03102
▁thatll	-9.03102
▁mmhmm	-9.0311
▁idiot	-9.03122
▁theyd	-9.03133
ten	-9.03179
▁american	-9.03198
▁rangers	-9.03259
▁papers	-9.03292
il	-9.03364
▁gosh	-9.03443
▁whose	-9.03729
▁fu	-9.03979
▁fill	-9.04039
▁breath	-9.0422
▁cook	-9.04352
▁search	-9.04752
▁steal	-9.04772
▁agree	-9.04996
▁lake	-9.05188
▁juni	-9.05207
▁max	-9.05214
▁prince	-9.05214
▁peace	-9.05214
▁grace	-9.05229
▁breakfast	-9.05231
▁meh	-9.05232
▁clothes	-9.05237
▁center	-9.05262
▁bridge	-9.05269
▁con	-9.05272
▁roger	-9.05301
▁position	-9.05304
▁gasping	-9.0545
▁pants	-9.05635
▁greatest	-9.05776
▁ted	-9.06383
▁pictures	-9.06634
▁risk	-9.06697
▁feels	-9.07007
▁fighting	-9.07009
▁base	-9.07168
▁final	-9.07225
▁force	-9.07248
▁nicole	-9.07401
▁rudy	-9.07401
▁thunder	-9.07401
▁travis	-9.07401
▁alarm	-9.07402
▁rogo	-9.07407
▁yep	-9.07413
▁lee	-9.07454
▁usually	-9.07467
▁roy	-9.07489
▁losing	-9.07526
▁month	-9.07599
▁plane	-9.07685
▁suit	-9.07814
▁mei	-9.07906
▁up	-9.08092
▁per	-9.08339
ous	-9.0906
▁warm	-9.09061
▁card	-9.09164
▁block	-9.09291
▁paul	-9.09535
it	-9.09595
▁church	-9.09618
▁arthur	-9.09624
▁daniel	-9.09624
▁fahmarr	-9.09624
▁hamilton	-9.09624
▁beatrix	-9.09624
▁upset	-9.09624
▁spongebob	-9.09624
▁foster	-9.09624
▁nope	-9.09626
▁robert	-9.09633
▁often	-9.09634
▁garden	-9.09644
▁forest	-9.09649
la	-9.09679
▁dying	-9.0968
▁area	-9.09713
▁bastard	-9.0981
▁gift	-9.09812
▁closer	-9.09894
▁mission	-9.09922
▁teacher	-9.09936
▁arms	-9.09967
▁track	-9.11211
▁dar	-9.11462
ter	-9.11829
▁large	-9.11844
▁neither	-9.11896
▁shouldve	-9.11896
▁twice	-9.11896
▁otis	-9.11896
▁nowhere	-9.11897
▁simply	-9.11907
▁sky	-9.11932
▁doin	-9.11988
▁cell	-9.11994
▁beeping	-9.12028
▁sam	-9.12063
ur	-9.12067
▁o	-9.12177
▁starting	-9.12455
▁honor	-9.12704
▁j	-9.12716
▁ma	-9.12733
▁r	-9.1293
▁treat	-9.13128
ey	-9.13195
▁keys	-9.13251
ist	-9.13318
age	-9.13393
▁visit	-9.13716
▁notice	-9.14009
▁howd	-9.14015
▁difficult	-9.14222
▁english	-9.14222
▁london	-9.14222
▁pardon	-9.14222
▁ronnie	-9.14222
▁driving	-9.14222
▁alright	-9.14223
▁theatre	-9.14228
▁cash	-9.1423
▁memory	-9.14235
▁national	-9.14241
▁lying	-9.14251
▁whered	-9.14277
▁obviously	-9.14287
▁shake	-9.14324
▁accident	-9.14411
▁surprised	-9.14521
▁respect	-9.14565
▁royal	-9.14645
▁ar	-9.14851
▁states	-9.14855
▁closed	-9.1516
▁legs	-9.15726
▁merr	-9.15923
▁loves	-9.16028
▁over	-9.16111
▁w	-9.16306
▁speed	-9.16423
▁nervous	-9.16468
x	-9.16498
▁stories	-9.16606
▁kingdom	-9.16607
▁dumb	-9.16623
▁hut	-9.16631
▁eating	-9.16634
▁fay	-9.16667
▁andy	-9.16667
▁farm	-9.16716
▁squeaking	-9.16783
son	-9.16785
▁eagle	-9.16923
▁legend	-9.16923
▁tail	-9.1708
se	-9.1708
▁breathing	-9.17107
▁rule	-9.17161
▁prove	-9.17199
▁not	-9.17211
▁gas	-9.17583
▁crime	-9.17596
by	-9.17867
ary	-9.18395
▁bother	-9.1846
▁arrest	-9.18685
▁breaking	-9.18696
▁raise	-9.18826
▁taste	-9.18871
▁lay	-9.18878
▁lab	-9.19026
▁floop	-9.19042
▁heavy	-9.19042
▁beginning	-9.19042
▁desert	-9.19042
▁rumbling	-9.19042
▁stargirl	-9.19045
▁girlfriend	-9.19051
▁view	-9.19052
▁type	-9.19084
▁involved	-9.19131
▁problems	-9.19143
▁nearly	-9.19258
▁lve	-9.19347
▁chipmunks	-9.19429
▁paris	-9.19701
▁breathe	-9.19703
▁wings	-9.1979
de	-9.19935
▁monsters	-9.20249
▁pack	-9.20664
▁tr	-9.20758
▁staying	-9.21279
▁fresh	-9.2137
▁rain	-9.21478
▁named	-9.21482
▁audience	-9.21542
▁awesome	-9.21542
▁upstairs	-9.21542
▁vacation	-9.21542
▁jason	-9.21544
▁common	-9.21544
▁department	-9.21544
▁spent	-9.21547
▁france	-9.2155
▁johnny	-9.21558
▁ella	-9.2157
▁seriously	-9.21845
▁spirit	-9.21975
▁of	-9.2198
▁ls	-9.22052
▁shouts	-9.22153
▁dads	-9.22856
▁pray	-9.23141
▁prepare	-9.23926
▁madam	-9.23981
▁match	-9.24019
▁bruce	-9.24106
▁extra	-9.24106
▁plenty	-9.24106
▁ridiculous	-9.24106
▁within	-9.24106
▁byebye	-9.24106
▁merlin	-9.24106
▁committee	-9.24106
▁teeth	-9.24107
▁jerry	-9.24107
▁shop	-9.24107
▁drunk	-9.24108
▁monty	-9.24108
▁chuckling	-9.24111
▁harper	-9.24112
▁twenty	-9.24116
▁written	-9.24118
▁wicked	-9.2412
▁maddy	-9.24121
▁mice	-9.24125
▁batman	-9.24126
▁sold	-9.24162
▁scream	-9.24241
▁guard	-9.24258
▁belong	-9.24265
▁tie	-9.24336
▁shed	-9.24495
▁figured	-9.24534
▁noise	-9.24549
▁fellow	-9.24563
▁film	-9.24583
▁band	-9.24805
el	-9.24897
▁flying	-9.25035
▁falling	-9.25124
▁bucks	-9.25208
▁blows	-9.25342
▁shooting	-9.25426
▁travel	-9.25443
▁fingers	-9.2566
▁orders	-9.25721
▁picked	-9.25728
▁accept	-9.25861
ether	-9.25893
▁command	-9.2607
▁bowl	-9.26498
▁soft	-9.26607
▁honest	-9.26634
▁lock	-9.26673
▁america	-9.2668
▁village	-9.2673
▁advance	-9.26737
▁hadnt	-9.26738
▁biggest	-9.26738
▁support	-9.26738
▁dancing	-9.26738
▁daphne	-9.26738
▁telephone	-9.26738
▁jones	-9.26738
▁speech	-9.26738
▁bigger	-9.26738
▁brace	-9.26739
▁giant	-9.26739
▁bike	-9.2674
▁choose	-9.2674
▁information	-9.26742
▁fancy	-9.26743
▁winnie	-9.26744
▁nasty	-9.26746
▁crane	-9.2675
▁dropped	-9.26752
▁thas	-9.2677
▁yall	-9.268
▁hall	-9.26839
▁bond	-9.26841
▁exclaims	-9.26878
▁list	-9.26982
▁deserve	-9.27091
▁mayor	-9.27135
▁guest	-9.27388
▁hole	-9.27542
▁dry	-9.27614
▁flowers	-9.28508
time	-9.28769
go	-9.29034
▁helped	-9.29075
▁blame	-9.292
▁snow	-9.29204
▁loud	-9.29214
▁interest	-9.29234
ng	-9.29382
▁favor	-9.29436
▁amanda	-9.2944
▁mitchell	-9.2944
▁mmmhmm	-9.2944
▁philip	-9.2944
▁nancy	-9.2944
▁genius	-9.29441
▁emergency	-9.29443
▁property	-9.29445
▁silly	-9.29453
▁market	-9.29453
▁laughter	-9.29459
▁truly	-9.29459
▁clue	-9.29461
▁exciting	-9.2947
▁powerful	-9.29494
▁jill	-9.29602
▁songs	-9.29794
ce	-9.29796
▁season	-9.30046
▁contact	-9.30093
▁yells	-9.30161
▁goodness	-9.30217
▁h	-9.30365
▁passed	-9.30383
▁v	-9.3055
▁jj	-9.30758
▁players	-9.30823
▁ca	-9.30872
ance	-9.30996
▁tickets	-9.31081
▁cost	-9.31172
▁movies	-9.31258
▁liked	-9.31388
▁study	-9.31761
▁sight	-9.31768
▁beg	-9.3178
ri	-9.32121
▁andre	-9.32144
▁haldeman	-9.32218
▁kelly	-9.32218
▁ocean	-9.32218
▁sweetheart	-9.32218
▁theodore	-9.32218
▁ugly	-9.32218
▁universe	-9.32218
▁charlie	-9.32218
▁science	-9.32219
▁beauty	-9.32219
▁snap	-9.32219
▁sugar	-9.32219
▁panda	-9.32223
▁elizabeth	-9.32226
▁loan	-9.3223
▁brown	-9.32235
▁excited	-9.32243
▁filthy	-9.32245
ine	-9.32247
▁stolen	-9.32269
▁clock	-9.32297
▁tuck	-9.32491
▁wally	-9.32621
▁operation	-9.32889
▁account	-9.32905
▁strike	-9.32927
▁nah	-9.32947
▁showed	-9.32971
▁stage	-9.33337
as	-9.33362
▁no	-9.33543
▁ln	-9.33692
ma	-9.33774
▁si	-9.33974
▁bat	-9.34285
ow	-9.34399
▁milk	-9.34599
▁rules	-9.3463
▁chatter	-9.34651
▁en	-9.34882
▁warne	-9.34906
ac	-9.34935
▁hung	-9.34943
▁scare	-9.3496
ge	-9.34997
▁loose	-9.35042
▁england	-9.35075
▁necessary	-9.35075
▁worst	-9.35075
▁tour	-9.35075
▁weekend	-9.35075
▁courage	-9.35076
▁woodward	-9.35077
▁possibly	-9.35078
▁smoke	-9.35078
▁barn	-9.35082
▁shame	-9.35083
▁patrick	-9.35084
▁apartment	-9.35091
▁lars	-9.351
▁crown	-9.35105
▁barking	-9.35115
▁ugh	-9.35115
▁completely	-9.35192
▁mustnt	-9.3521
ung	-9.35243
▁killing	-9.35281
▁lifting	-9.35485
ba	-9.35495
▁dressed	-9.35842
▁acting	-9.35879
▁whistle	-9.35888
▁student	-9.35949
▁expecting	-9.36038
▁trees	-9.36196
ts	-9.36246
▁social	-9.3637
▁sh	-9.3645
▁gods	-9.36519
▁heat	-9.36561
▁older	-9.3716
▁remain	-9.37616
▁introduce	-9.37796
▁decide	-9.37822
▁opening	-9.37938
▁pieces	-9.37974
▁burn	-9.37994
▁apart	-9.38
▁character	-9.38014
▁asleep	-9.38016
▁beverly	-9.38016
▁brilliant	-9.38016
▁stahr	-9.38016
▁fantastic	-9.38017
▁linda	-9.38017
▁built	-9.38025
▁pressure	-9.38031
▁mail	-9.38034
▁pool	-9.38036
▁neck	-9.3804
▁arrived	-9.38098
▁softly	-9.3816
▁ate	-9.38204
▁cole	-9.38268
▁vote	-9.38556
▁stops	-9.38605
▁lf	-9.38773
▁decision	-9.38826
▁rabbit	-9.38909
▁kinda	-9.3902
▁out	-9.39096
▁rat	-9.39192
▁played	-9.39337
ling	-9.39645
▁whales	-9.39746
▁se	-9.39816
▁wood	-9.40221
▁blind	-9.40644
▁crack	-9.4078
▁project	-9.41015
▁cruel	-9.41047
▁evidence	-9.41047
▁lieutenant	-9.41047
▁literally	-9.41047
▁macavity	-9.41047
▁precious	-9.41047
▁strength	-9.41047
▁mostly	-9.41047
▁program	-9.41047
▁delicious	-9.41047
▁colonel	-9.41048
▁heck	-9.41049
▁apologize	-9.41049
▁british	-9.41049
▁willing	-9.41049
▁duty	-9.41049
▁comfortable	-9.41055
▁soup	-9.41056
▁writing	-9.41058
▁touchdown	-9.41058
▁lonely	-9.41063
▁comin	-9.41067
▁incredible	-9.41069
▁began	-9.41069
▁dame	-9.41107
▁whimpers	-9.41145
▁richie	-9.41276
▁prepared	-9.41351
▁uhh	-9.41472
▁tip	-9.41556
▁leader	-9.41635
land	-9.41711
▁tall	-9.4177
▁german	-9.41877
▁bottle	-9.42036
▁pat	-9.42071
▁fathers	-9.42075
▁flower	-9.42144
▁ab	-9.42779
▁helping	-9.42871
▁jim	-9.43005
▁murder	-9.43066
▁feed	-9.43178
um	-9.43208
te	-9.43317
▁wash	-9.43326
▁consider	-9.43463
▁freak	-9.4347
▁jan	-9.4347
▁calls	-9.43715
▁reading	-9.43717
▁lift	-9.43725
▁complete	-9.43817
ra	-9.43926
▁co	-9.44002
▁self	-9.44007
▁paint	-9.44018
▁trade	-9.44098
▁stole	-9.44114
▁champ	-9.44123
▁applause	-9.44172
▁female	-9.44172
▁opinion	-9.44172
▁scoffs	-9.44172
▁interview	-9.44172
▁squawking	-9.44172
▁reavis	-9.44172
▁bathroom	-9.44174
▁bought	-9.44174
▁switch	-9.44174
▁hooch	-9.44175
▁species	-9.44175
▁aaah	-9.44177
▁jail	-9.44178
▁georgia	-9.44178
▁violet	-9.4418
▁crew	-9.44181
▁whimpering	-9.44194
▁rosen	-9.44205
▁wet	-9.44206
▁grant	-9.44213
▁suddenly	-9.44267
▁ford	-9.44301
▁tub	-9.44303
▁nature	-9.44306
▁exhales	-9.44339
▁witches	-9.44361
▁charming	-9.44365
▁hoping	-9.44436
▁couldve	-9.44624
▁wine	-9.44656
▁it	-9.44662
▁nuts	-9.44779
▁denys	-9.45005
▁sp	-9.45098
▁lawyer	-9.45208
▁tongue	-9.45208
▁circle	-9.4526
▁t	-9.45271
▁spring	-9.4528
▁gate	-9.4529
▁fellas	-9.45291
▁yard	-9.45332
way	-9.45646
and	-9.45673
▁starts	-9.45981
▁keeping	-9.46364
▁clears	-9.46768
▁turns	-9.46848
▁toast	-9.47252
▁correct	-9.47254
▁natural	-9.47271
▁total	-9.47279
▁foreign	-9.47362
▁austin	-9.47397
▁became	-9.47397
▁keller	-9.47397
▁lerigot	-9.47397
▁terrific	-9.47397
▁justice	-9.47398
▁appointment	-9.47398
▁bread	-9.47402
▁aboard	-9.47404
▁desk	-9.47412
▁stine	-9.47419
▁safety	-9.47422
▁gim	-9.47426
▁forgotten	-9.47428
▁emily	-9.47446
▁prize	-9.47498
▁whatd	-9.47516
▁invited	-9.47549
▁herring	-9.47553
▁mo	-9.47574
▁coughing	-9.47615
▁feelings	-9.47701
▁whispering	-9.47744
▁dis	-9.47842
▁perfectly	-9.47914
li	-9.48137
▁lad	-9.48166
one	-9.48439
▁cars	-9.48546
▁training	-9.4865
▁wheel	-9.48701
▁mile	-9.48851
▁ro	-9.4901
▁lion	-9.49455
▁due	-9.49532
▁moves	-9.49576
▁faith	-9.49588
▁bath	-9.49593
na	-9.49637
▁i	-9.49691
▁students	-9.49719
▁jellicles	-9.49852
▁places	-9.49886
▁listening	-9.49958
▁iron	-9.50185
▁punch	-9.50278
▁harm	-9.50343
▁health	-9.50521
▁bro	-9.50587
▁fletch	-9.50605
▁dig	-9.50707
▁slip	-9.50723
▁sand	-9.50726
▁cackling	-9.50731
▁conversation	-9.50731
▁holmes	-9.50731
▁monroe	-9.50731
▁taught	-9.50731
▁thomas	-9.50731
▁tiktok	-9.50731
▁credit	-9.50731
▁hubbell	-9.50731
▁address	-9.50731
▁felix	-9.50731
▁bedders	-9.50731
▁dracula	-9.50732
▁someday	-9.50732
▁danny	-9.50732
▁cream	-9.50733
▁inspector	-9.50734
▁focus	-9.50734
▁majesty	-9.50735
▁local	-9.50738
▁immediately	-9.5075
▁square	-9.50751
▁disgusting	-9.50754
▁minion	-9.50755
▁cast	-9.50766
▁tomatoes	-9.50776
▁uhoh	-9.50791
▁skin	-9.50798
▁row	-9.508
▁bringing	-9.50868
▁honestly	-9.50894
▁turning	-9.50953
▁di	-9.51
▁pet	-9.51014
▁noticed	-9.51041
▁viva	-9.51078
▁destroyed	-9.51322
▁sooner	-9.51555
ure	-9.51588
▁boo	-9.51672
▁cos	-9.51705
▁lies	-9.51876
▁angel	-9.51956
▁san	-9.51957
▁hug	-9.51958
▁jerk	-9.51964
▁price	-9.51994
▁knight	-9.52073
▁finger	-9.52118
▁ticket	-9.52118
▁regret	-9.52212
▁reporter	-9.52349
▁notes	-9.52593
▁climb	-9.52702
et	-9.52704
▁lads	-9.52864
id	-9.53019
▁smells	-9.53141
▁da	-9.53191
▁enter	-9.53294
▁ruin	-9.53328
ca	-9.53573
▁doors	-9.53633
▁poison	-9.53795
▁challenge	-9.53938
▁bow	-9.5394
▁m	-9.54044
▁proper	-9.54076
▁condition	-9.54171
▁dump	-9.54174
▁anthony	-9.54179
▁empty	-9.54179
▁enemy	-9.54179
▁however	-9.54179
▁marriage	-9.54179
▁saturday	-9.54179
▁split	-9.54179
▁assistant	-9.54181
▁sloan	-9.54181
▁roof	-9.54181
▁japan	-9.54181
▁penny	-9.54182
▁script	-9.54182
▁crap	-9.54194
▁chanting	-9.54203
▁nurse	-9.54211
▁secretary	-9.54225
▁main	-9.54291
▁fletcher	-9.54309
▁butter	-9.54694
men	-9.54717
▁allowed	-9.54782
▁bligh	-9.54922
▁plus	-9.54967
▁harder	-9.55137
▁lately	-9.55155
▁string	-9.55232
▁pocket	-9.55581
▁cup	-9.55594
▁rope	-9.5564
▁whale	-9.55698
▁fan	-9.55721
▁le	-9.55785
▁lots	-9.55788
co	-9.55889
▁can	-9.56355
▁zoo	-9.56428
▁lions	-9.56472
▁sleeping	-9.56893
he	-9.56982
▁draw	-9.57061
▁holding	-9.57101
side	-9.57143
▁discuss	-9.57205
▁suffer	-9.57284
▁guns	-9.57292
▁mel	-9.57374
▁load	-9.57414
▁judge	-9.5749
▁release	-9.57516
▁mum	-9.57601
▁launch	-9.57605
▁surely	-9.57612
▁add	-9.57651
▁flat	-9.57729
▁rings	-9.57735
▁piggy	-9.57743
▁neighbor	-9.57749
▁sponge	-9.5775
▁easier	-9.5775
▁eleanor	-9.5775
▁pizza	-9.5775
▁randall	-9.5775
▁gross	-9.57751
▁squawks	-9.57751
▁tower	-9.57751
▁kidnapped	-9.57752
▁referee	-9.57752
▁jenning	-9.57753
▁community	-9.57754
▁eric	-9.57755
▁turbo	-9.57755
▁yellow	-9.57755
▁blart	-9.57755
▁jesse	-9.57764
▁hiding	-9.57769
▁daffy	-9.57785
▁aim	-9.57816
▁manager	-9.57819
▁ed	-9.57832
▁ian	-9.57903
▁under	-9.57958
▁indistinctly	-9.5802
▁metal	-9.58039
▁agreed	-9.58114
▁worlds	-9.58577
nt	-9.58615
▁seats	-9.5862
▁pigs	-9.58638
▁hook	-9.58683
▁exist	-9.58904
▁creep	-9.5897
▁fail	-9.58988
ia	-9.59159
▁ear	-9.59172
▁restaurant	-9.59189
▁creatures	-9.59247
▁coat	-9.59285
▁cake	-9.5931
▁opens	-9.59329
▁partner	-9.5934
▁color	-9.59347
▁criminal	-9.59361
▁ghost	-9.59373
▁cow	-9.59398
▁ba	-9.59778
ne	-9.59781
▁following	-9.59782
▁nights	-9.59927
ho	-9.60069
▁announce	-9.60413
▁guests	-9.60567
▁all	-9.60641
▁falls	-9.60671
▁fourth	-9.60715
ical	-9.60873
▁rub	-9.61087
▁screw	-9.61096
▁prison	-9.61302
tic	-9.61341
▁dust	-9.61364
▁he	-9.61392
▁les	-9.61393
▁africa	-9.61396
▁express	-9.61407
▁admit	-9.61449
▁norman	-9.61453
▁advice	-9.61454
▁alphonse	-9.61454
▁dawn	-9.61454
▁research	-9.61454
▁sheriff	-9.61454
▁stanwyk	-9.61454
▁steiner	-9.61454
▁bunny	-9.61455
▁william	-9.61455
▁somehow	-9.61455
▁target	-9.61455
▁horrible	-9.61455
▁buried	-9.61455
▁niki	-9.61455
▁curious	-9.61455
▁giggles	-9.61456
▁spanish	-9.61456
▁purpose	-9.61458
▁knife	-9.61458
▁difference	-9.61465
▁nick	-9.61467
▁model	-9.61468
▁shrieking	-9.61481
▁belt	-9.61487
▁weight	-9.61493
▁original	-9.61495
▁oil	-9.61499
▁professional	-9.61502
▁african	-9.61512
▁goldi	-9.61633
▁disappeared	-9.61746
▁magical	-9.6184
cy	-9.61887
▁muppets	-9.62528
▁z	-9.62734
▁score	-9.62789
ai	-9.62876
▁devil	-9.63016
▁fur	-9.63136
▁shower	-9.63157
▁pounds	-9.63168
ant	-9.63174
▁ears	-9.63576
▁member	-9.63609
▁hanging	-9.64017
▁ended	-9.6422
▁attempt	-9.64909
▁awake	-9.64994
▁doc	-9.65047
▁d	-9.65078
▁wire	-9.65087
▁settle	-9.65123
▁rise	-9.65236
▁steel	-9.6524
▁begins	-9.65255
ton	-9.65277
▁electric	-9.65283
▁stomach	-9.653
▁bookshop	-9.653
▁dixon	-9.653
▁equipment	-9.653
▁journey	-9.653
▁license	-9.653
▁shaolin	-9.653
▁slappy	-9.653
▁snoring	-9.653
▁studio	-9.653
▁toilet	-9.653
▁garbage	-9.65301
▁mystery	-9.65301
▁meat	-9.65301
▁underwater	-9.65303
▁onto	-9.65305
▁spell	-9.65306
▁billina	-9.65307
▁grave	-9.6531
▁flight	-9.65312
▁destiny	-9.65313
▁beyond	-9.65313
▁sunday	-9.65314
▁odd	-9.65316
▁boyfriend	-9.6532
▁bride	-9.6532
▁marion	-9.65336
▁handsome	-9.65337
▁shape	-9.65344
▁factory	-9.65345
▁coast	-9.65349
▁defense	-9.65352
▁champion	-9.65357
▁roaring	-9.65382
▁joy	-9.65383
▁headed	-9.65395
▁ends	-9.65707
▁panic	-9.65897
▁letting	-9.6604
▁thousands	-9.66263
▁note	-9.66378
▁ordered	-9.6642
▁lover	-9.66648
▁bugs	-9.66921
▁ac	-9.66939
rs	-9.67067
▁shirt	-9.6711
▁alien	-9.6715
▁source	-9.6717
▁plant	-9.67187
▁native	-9.67205
▁wave	-9.67207
▁agent	-9.67237
▁file	-9.67244
▁prisoner	-9.67304
▁pro	-9.67549
▁cal	-9.67613
ized	-9.67715
ate	-9.67759
▁tune	-9.67961
▁app	-9.68034
▁do	-9.68212
mi	-9.68386
▁meaning	-9.68489
▁warn	-9.68493
▁wee	-9.6857
head	-9.68686
▁ld	-9.68715
we	-9.68723
mo	-9.68845
▁ann	-9.69053
▁schedule	-9.69089
▁survive	-9.69104
▁direct	-9.69125
▁east	-9.69189
▁weak	-9.69251
▁europe	-9.69279
▁prefer	-9.69298
▁bernstein	-9.693
▁champagne	-9.693
▁chocolate	-9.693
▁insane	-9.693
▁intelligence	-9.693
▁otherwise	-9.693
▁held	-9.693
▁extreme	-9.69301
▁complex	-9.69301
▁grandfather	-9.69302
▁saving	-9.69303
▁nonsense	-9.69303
▁government	-9.69304
▁apparently	-9.69308
▁repeat	-9.69311
▁katie	-9.69319
▁unbelievable	-9.69325
▁romantic	-9.6933
▁castle	-9.69332
▁bess	-9.69339
▁fearless	-9.69345
▁heavily	-9.69387
▁rent	-9.69436
▁sweetie	-9.69443
▁refuse	-9.69446
▁tiny	-9.69458
▁manage	-9.69499
▁crawl	-9.69528
▁x	-9.69535
▁net	-9.69539
▁hired	-9.69576
▁acres	-9.69602
▁fate	-9.69673
▁failed	-9.69698
▁ruined	-9.69722
▁ex	-9.69752
▁copy	-9.69838
ah	-9.6992
▁wouldve	-9.69969
▁kit	-9.70278
▁brains	-9.70407
▁talkin	-9.70504
▁reports	-9.70617
oo	-9.70634
ee	-9.70875
our	-9.70937
▁friendly	-9.70945
▁hurts	-9.70994
▁letters	-9.70997
▁wa	-9.71039
▁costume	-9.71246
▁sale	-9.71301
▁cousin	-9.71327
▁diamond	-9.71352
▁plate	-9.71366
▁sometime	-9.71425
▁signal	-9.71465
▁cares	-9.7185
▁po	-9.71919
▁nobodys	-9.72012
▁picking	-9.72523
▁marshal	-9.72632
▁pretend	-9.72639
▁sons	-9.72903
▁doctors	-9.72994
▁whisper	-9.73019
▁var	-9.73033
▁ku	-9.73092
▁toy	-9.73171
▁ge	-9.73196
▁fi	-9.73314
▁positive	-9.73327
▁sudden	-9.73339
▁usual	-9.7334
▁freeze	-9.73415
▁object	-9.73422
im	-9.73433
▁nothin	-9.73434
▁chuck	-9.73438
▁joseph	-9.73457
▁aware	-9.73465
▁campaign	-9.73467
▁innocent	-9.73467
▁jeez	-9.73467
▁palace	-9.73467
▁sefton	-9.73467
▁spider	-9.73467
▁surrender	-9.73467
▁threw	-9.73467
▁demand	-9.73467
▁grandpa	-9.73467
▁ingrid	-9.73467
▁uhuh	-9.73467
▁afford	-9.73467
▁piano	-9.73468
▁louis	-9.7347
▁dick	-9.73471
▁honking	-9.73471
▁opportunity	-9.73472
▁freedom	-9.73473
▁meal	-9.73489
▁loving	-9.73489
▁jacket	-9.73492
▁director	-9.7351
▁spread	-9.73523
▁cage	-9.73529
▁checking	-9.73549
▁scary	-9.73549
▁created	-9.73567
▁gotcha	-9.73677
▁sniffing	-9.73692
▁settled	-9.73739
▁sandy	-9.73743
▁sub	-9.73842
▁faces	-9.73857
▁deeply	-9.73894
▁guide	-9.73953
▁lookin	-9.73977
▁non	-9.74006
▁realized	-9.74077
▁stink	-9.74137
▁mothers	-9.7415
▁guts	-9.74193
▁style	-9.74219
▁ideas	-9.74367
▁cheers	-9.74514
▁blowing	-9.74857
ul	-9.75004
▁prom	-9.75033
ent	-9.75045
▁hon	-9.7512
▁remind	-9.75161
▁gasp	-9.75372
▁serve	-9.75405
▁helicopter	-9.7555
▁hatch	-9.75554
▁using	-9.75563
▁page	-9.75617
▁skip	-9.75626
▁beast	-9.7564
▁direction	-9.75649
▁button	-9.75776
▁streets	-9.75782
ster	-9.75807
▁career	-9.75892
▁rocks	-9.75965
wee	-9.7606
j	-9.76267
▁ne	-9.76578
ga	-9.76791
▁finding	-9.76908
▁tires	-9.77065
▁fr	-9.77132
▁spit	-9.77181
ard	-9.77292
▁witness	-9.77343
ty	-9.77416
▁jam	-9.77549
be	-9.77601
▁particular	-9.77684
▁rush	-9.77744
▁australia	-9.77754
▁somethin	-9.77782
▁bernard	-9.77813
▁video	-9.77815
▁bullshit	-9.77815
▁eclipse	-9.77815
▁fbi	-9.77815
▁galaxy	-9.77815
▁guitar	-9.77815
▁society	-9.77815
▁watergate	-9.77815
▁expert	-9.77815
▁false	-9.77815
▁ultimate	-9.77815
▁jacob	-9.77815
▁silence	-9.77815
▁section	-9.77816
▁lisa	-9.77816
▁fought	-9.77817
▁doll	-9.77817
▁newspaper	-9.77818
▁gang	-9.77819
▁blah	-9.77819
▁simon	-9.7782
▁airport	-9.77822
▁commandant	-9.77827
▁bedroom	-9.77828
▁tommy	-9.77828
▁mercy	-9.77829
▁bonnet	-9.77836
▁basement	-9.77849
▁stock	-9.77863
▁drac	-9.77885
▁carol	-9.77891
▁zoot	-9.77905
▁march	-9.77983
▁frightened	-9.77984
▁pot	-9.78009
▁grown	-9.78022
▁vi	-9.78059
▁male	-9.78077
▁perro	-9.7815
▁lance	-9.78183
dy	-9.78235
▁rooms	-9.78253
▁pee	-9.78444
▁painful	-9.78654
▁frogs	-9.78824
▁officers	-9.78842
▁expected	-9.79005
▁print	-9.79145
▁sports	-9.79153
▁vampires	-9.79274
▁sail	-9.79303
▁bo	-9.79581
▁organ	-9.797
▁followed	-9.79806
▁gee	-9.7986
▁pre	-9.79904
▁emerald	-9.8014
▁robot	-9.80207
▁pound	-9.80259
▁walked	-9.80343
ir	-9.80502
▁pulled	-9.80566
▁pie	-9.80808
▁formula	-9.80825
▁ms	-9.81139
back	-9.81169
ted	-9.81199
▁com	-9.813
led	-9.81381
▁fund	-9.81386
▁tu	-9.8142
▁suggest	-9.81443
▁checked	-9.81509
▁al	-9.8155
ated	-9.81745
▁success	-9.81755
ving	-9.81808
james	-9.81951
▁defeat	-9.8198
▁request	-9.81987
▁disappear	-9.81991
▁event	-9.8212
▁invite	-9.82146
▁pink	-9.82154
▁forces	-9.82227
▁obvious	-9.82233
▁ranch	-9.8224
bo	-9.82242
▁americans	-9.82249
▁gettin	-9.82336
▁energy	-9.8236
▁hollywood	-9.8236
▁league	-9.8236
▁level	-9.8236
▁professor	-9.8236
▁theater	-9.8236
▁twelve	-9.8236
▁whoever	-9.8236
▁potential	-9.82361
▁alert	-9.82361
▁philsie	-9.82361
▁harris	-9.82361
▁desperate	-9.82361
▁miami	-9.82361
▁lassard	-9.82361
▁value	-9.82361
▁headquarters	-9.82362
▁trevor	-9.82363
▁cabin	-9.82364
▁phil	-9.82364
▁penguin	-9.82365
▁so	-9.82366
▁lewis	-9.82367
▁ericka	-9.82367
▁rotten	-9.82367
▁swimming	-9.82369
▁coward	-9.82371
▁planned	-9.82375
▁wide	-9.82376
▁trapped	-9.82377
▁barney	-9.82384
▁records	-9.82389
▁china	-9.82401
▁barely	-9.82406
▁guilty	-9.82436
do	-9.82449
▁angelo	-9.82461
▁hitting	-9.82522
▁buzzing	-9.82623
▁pe	-9.8263
▁charles	-9.82695
▁plays	-9.82751
▁jd	-9.82796
▁warning	-9.8288
▁fairy	-9.82976
▁numbers	-9.83282
▁lo	-9.83324
▁pen	-9.83432
▁chi	-9.83607
▁coughs	-9.83797
▁strangers	-9.83917
▁appears	-9.83995
▁seemed	-9.84115
▁deadly	-9.84121
boo	-9.8419
▁maya	-9.84309
▁mu	-9.84376
your	-9.84595
▁photo	-9.84597
▁everybodys	-9.8463
▁sacrifice	-9.84633
▁chase	-9.84707
▁inter	-9.84795
▁babe	-9.84865
▁priest	-9.8488
▁quarter	-9.84935
▁ghosts	-9.84987
▁tiger	-9.85013
▁soldier	-9.85031
▁buck	-9.8506
▁dollar	-9.85116
▁germans	-9.85496
▁deliver	-9.86016
▁leaves	-9.8647
▁sid	-9.86484
▁collect	-9.86517
▁u	-9.86547
for	-9.86732
▁cards	-9.86807
▁curse	-9.86897
▁recognize	-9.86897
▁assure	-9.86901
▁perform	-9.86937
▁dj	-9.87065
▁tomato	-9.87067
▁among	-9.87091
▁alpha	-9.87122
▁arrival	-9.87122
▁bravo	-9.87122
▁bruno	-9.87122
▁ceremony	-9.87122
▁effort	-9.87122
▁fabulous	-9.87122
▁intelligent	-9.87122
▁jealous	-9.87122
▁offense	-9.87122
▁ritual	-9.87122
▁sarah	-9.87122
▁scarecrow	-9.87122
▁weather	-9.87122
▁moaning	-9.87122
▁saint	-9.87122
▁uniform	-9.87122
▁duke	-9.87123
▁glinda	-9.87123
▁midnight	-9.87123
▁pancake	-9.87123
▁supper	-9.87124
▁winning	-9.87124
▁rough	-9.87125
▁imagination	-9.87126
▁drew	-9.87126
▁hissing	-9.87126
▁several	-9.87127
▁simmons	-9.87127
▁whooping	-9.87129
▁attractive	-9.87129
▁dork	-9.87136
▁precisely	-9.87151
▁squad	-9.87153
▁cellar	-9.87165
▁skull	-9.87181
▁friendship	-9.87192
▁madeline	-9.87206
▁discovered	-9.8722
red	-9.87257
▁bully	-9.87279
▁horner	-9.87454
▁lower	-9.87534
▁und	-9.87584
▁roars	-9.87589
▁horns	-9.87643
▁matters	-9.87667
▁slowly	-9.87675
▁arrested	-9.87844
▁hood	-9.87919
ver	-9.87943
▁au	-9.88105
▁carrying	-9.88257
▁sniffs	-9.88317
▁diet	-9.88625
▁cleaning	-9.8866
▁tears	-9.8874
▁pan	-9.88819
▁growing	-9.88907
▁wondered	-9.88917
▁spare	-9.89079
▁grunt	-9.89635
▁agents	-9.89671
▁rec	-9.89695
▁bug	-9.8981
▁grandmother	-9.89858
▁gorilla	-9.89901
▁russian	-9.89949
▁shoulder	-9.89952
▁winner	-9.89953
ol	-9.89962
▁current	-9.90008
▁baker	-9.90009
▁creature	-9.9005
▁actor	-9.90114
▁driver	-9.90373
▁je	-9.90464
▁rats	-9.90514
▁sisters	-9.90611
▁windows	-9.90638
▁painting	-9.90681
▁minds	-9.90732
▁trash	-9.91729
▁crush	-9.91731
▁concern	-9.9176
▁talent	-9.91774
▁seek	-9.91858
ian	-9.91968
▁helen	-9.91974
▁attend	-9.92122
▁babies	-9.92122
▁clarence	-9.92122
▁clemson	-9.92122
▁device	-9.92122
▁fetch	-9.92122
▁fidgit	-9.92122
▁grew	-9.92122
▁lizzie	-9.92122
▁mavis	-9.92122
▁michael	-9.92122
▁ordinary	-9.92122
▁thief	-9.92122
▁utah	-9.92122
▁cancer	-9.92123
▁pond	-9.92123
▁planning	-9.92124
▁recall	-9.92124
▁gadgetmobile	-9.92124
▁wherever	-9.92125
▁fever	-9.92125
▁familiar	-9.92127
▁florence	-9.92127
▁churchill	-9.92134
▁edge	-9.92136
▁dozen	-9.92137
▁announcement	-9.92147
▁screen	-9.92148
▁fryer	-9.92152
▁solo	-9.92158
▁pure	-9.92162
▁bandit	-9.92176
▁exclaiming	-9.92182
▁unfortunately	-9.92199
▁according	-9.92204
ha	-9.92229
▁toby	-9.92233
▁disease	-9.92252
▁mmmm	-9.92269
ot	-9.92289
▁fond	-9.92292
▁useless	-9.92328
▁received	-9.92346
▁text	-9.92357
▁pity	-9.92382
▁access	-9.92395
▁mis	-9.92405
▁busted	-9.92428
▁eaten	-9.9251
▁stronger	-9.92517
▁hire	-9.92522
▁belle	-9.92578
ill	-9.92596
▁jean	-9.92598
▁troops	-9.92611
▁ver	-9.92631
▁concentrate	-9.92774
▁owls	-9.92829
▁shows	-9.92832
▁hundreds	-9.92871
▁offered	-9.93237
▁messed	-9.93277
▁gloves	-9.93375
▁maria	-9.93435
▁paulas	-9.93505
ea	-9.93591
▁br	-9.93652
wa	-9.93663
▁fully	-9.93692
▁bay	-9.93854
▁bones	-9.93875
▁suck	-9.94316
ay	-9.94432
ern	-9.94448
▁likely	-9.94509
▁waters	-9.9453
just	-9.94633
▁millions	-9.9482
▁powers	-9.94928
what	-9.94978
▁julie	-9.95151
▁miracle	-9.95165
▁limit	-9.95166
▁coconut	-9.95194
▁chas	-9.95209
▁candle	-9.95269
▁sending	-9.95335
▁lines	-9.95344
ec	-9.95429
▁be	-9.95492
▁somethings	-9.95625
ize	-9.95859
ble	-9.96079
per	-9.96162
ka	-9.96285
▁sweat	-9.96645
▁gives	-9.96704
ped	-9.9684
▁gifts	-9.96933
▁sink	-9.96944
▁swallow	-9.97025
▁waited	-9.97097
ni	-9.97153
▁storm	-9.97198
▁wise	-9.97222
beat	-9.97295
▁avoid	-9.97385
▁aylwood	-9.97385
▁benefit	-9.97385
▁california	-9.97385
▁celia	-9.97385
▁centipede	-9.97385
▁daxiat	-9.97385
▁explanation	-9.97385
▁families	-9.97385
▁insult	-9.97385
▁jeanluc	-9.97385
▁jungle	-9.97385
▁kansas	-9.97385
▁larue	-9.97385
▁lorraine	-9.97385
▁museum	-9.97385
▁nerak	-9.97385
▁nixon	-9.97385
▁parrish	-9.97385
▁proctor	-9.97385
▁reverend	-9.97385
▁rudolph	-9.97385
▁ruettiger	-9.97385
▁throne	-9.97385
▁tragedy	-9.97385
▁wreck	-9.97385
▁zaphod	-9.97385
▁largo	-9.97385
▁morris	-9.97385
▁hidden	-9.97386
▁international	-9.97386
▁military	-9.97386
▁valley	-9.97387
▁rare	-9.97387
▁plain	-9.97388
▁competition	-9.97389
▁constantine	-9.97389
▁memories	-9.97389
▁monday	-9.97389
▁earlier	-9.97389
▁motion	-9.97389
▁popular	-9.97391
▁therell	-9.97391
▁jimmy	-9.97392
▁kitka	-9.97392
▁otto	-9.97392
▁ladder	-9.97393
▁lazy	-9.97396
▁guardian	-9.97396
▁fake	-9.97398
▁giggling	-9.97399
▁fence	-9.974
▁political	-9.97401
▁temple	-9.97403
▁pair	-9.97405
▁selfish	-9.97413
▁gum	-9.97418
▁recently	-9.97431
▁dean	-9.97463
▁goodnight	-9.97474
▁role	-9.975
▁millie	-9.9751
▁collection	-9.97511
▁bury	-9.97538
▁heroes	-9.97618
▁las	-9.97638
▁path	-9.97661
off	-9.97682
▁behave	-9.97687
▁comment	-9.9775
▁tricks	-9.97763
▁personally	-9.97791
▁outfit	-9.97861
▁hop	-9.98066
▁breakin	-9.98075
▁locker	-9.98102
▁burning	-9.98205
▁knocked	-9.98322
▁pills	-9.98477
▁yay	-9.98578
▁towards	-9.98592
▁su	-9.98664
▁riding	-9.98821
▁heading	-9.98874
▁bon	-9.98988
▁signed	-9.992
▁daughters	-9.99207
▁jane	-9.9928
▁tin	-9.99376
▁someones	-9.99538
the	-9.99541
▁rap	-9.99617
▁an	-9.99718
▁touched	-9.99721
▁landed	-9.99784
▁ye	-9.99835
▁par	-9.99917
▁loyal	-10.0001
▁stretch	-10.0016
▁stayed	-10.0033
▁adventure	-10.0044
▁fans	-10.0057
▁subject	-10.0072
▁pawn	-10.0076
▁claim	-10.0078
▁rose	-10.0078
▁neighbour	-10.0078
▁issue	-10.0081
▁servant	-10.0081
▁depend	-10.0084
▁writer	-10.0137
▁paying	-10.0145
▁to	-10.0148
▁guards	-10.0177
▁blast	-10.0193
▁tape	-10.0218
▁design	-10.0219
ham	-10.0222
▁bless	-10.0224
ti	-10.0231
▁scratch	-10.0238
▁steam	-10.0242
▁bastards	-10.0247
▁confirm	-10.0253
▁borrow	-10.0254
▁insist	-10.0256
▁guarantee	-10.0271
▁solve	-10.0272
▁chill	-10.0274
▁drinks	-10.0281
▁rob	-10.0281
▁sandwich	-10.0286
▁cure	-10.0287
▁spoke	-10.0288
▁sharp	-10.0289
▁april	-10.0294
▁caxton	-10.0294
▁century	-10.0294
▁dahlberg	-10.0294
▁derek	-10.0294
▁downstairs	-10.0294
▁frankenstein	-10.0294
▁generous	-10.0294
▁honeymoon	-10.0294
▁insurance	-10.0294
▁lunna	-10.0294
▁olaf	-10.0294
▁period	-10.0294
▁poseidon	-10.0294
▁possum	-10.0294
▁reputation	-10.0294
▁satellite	-10.0294
▁shelter	-10.0294
▁thursday	-10.0294
▁traffic	-10.0294
▁trigger	-10.0294
▁wryn	-10.0294
▁alais	-10.0294
▁lamb	-10.0294
▁swarm	-10.0294
▁chipettes	-10.0294
▁bradford	-10.0294
▁nanny	-10.0294
▁someplace	-10.0294
▁silver	-10.0294
▁humming	-10.0294
▁accent	-10.0294
▁lightning	-10.0294
▁eddie	-10.0294
▁quality	-10.0294
▁chubby	-10.0294
▁retreat	-10.0294
▁adorable	-10.0294
▁garage	-10.0294
▁solid	-10.0295
▁dutch	-10.0295
▁stood	-10.0295
▁journalist	-10.0295
▁logan	-10.0295
▁colson	-10.0295
▁alice	-10.0295
▁mmmmmm	-10.0295
▁medicine	-10.0296
▁reverse	-10.0296
▁distance	-10.0296
▁sunny	-10.0296
▁steady	-10.0297
▁slight	-10.0297
▁spies	-10.0298
▁proof	-10.0298
▁brat	-10.0299
▁potion	-10.0299
▁anger	-10.03
▁commissioner	-10.0301
▁darkness	-10.0301
▁screeching	-10.0303
▁confused	-10.0304
▁dramatic	-10.0306
▁lack	-10.0307
▁gale	-10.0311
▁glasses	-10.0314
▁boom	-10.0328
▁designed	-10.0331
▁concerned	-10.0335
▁jewels	-10.0335
que	-10.0339
▁raised	-10.0344
▁screwed	-10.0349
▁martini	-10.0358
am	-10.0358
▁heavens	-10.0367
▁clicks	-10.0374
▁ape	-10.0376
▁makeup	-10.0376
▁praying	-10.0395
▁drugs	-10.0397
▁counter	-10.0404
tan	-10.0407
▁county	-10.041
▁gu	-10.0418
▁knocking	-10.0419
day	-10.0421
▁highly	-10.0422
▁crashing	-10.0427
hi	-10.0457
▁covered	-10.0459
fully	-10.0462
ite	-10.0471
▁secrets	-10.049
king	-10.0497
io	-10.05
▁writers	-10.0513
▁who	-10.0546
▁stands	-10.0552
▁disguise	-10.0555
▁image	-10.0576
ier	-10.0584
▁staring	-10.0587
▁answers	-10.0591
▁elm	-10.0594
▁chain	-10.0619
▁sits	-10.0634
▁appear	-10.0635
os	-10.0645
▁jew	-10.0651
▁dealing	-10.0651
▁concert	-10.0656
▁coin	-10.0656
▁nickel	-10.0659
▁flood	-10.066
▁deck	-10.0662
▁patient	-10.0663
▁cloud	-10.0663
▁adult	-10.0665
▁nerve	-10.067
▁snake	-10.0672
▁weapon	-10.0673
▁shine	-10.068
▁lesson	-10.0685
mp	-10.0708
▁fella	-10.0709
▁cooper	-10.0709
▁pleased	-10.0715
▁pit	-10.0718
▁whee	-10.0721
▁hahaha	-10.0728
lo	-10.0731
ley	-10.075
▁capture	-10.0757
▁belongs	-10.0759
▁moms	-10.079
em	-10.0796
▁oi	-10.0801
well	-10.0805
▁bears	-10.0828
▁ending	-10.083
▁meow	-10.0837
▁squeak	-10.0838
▁hearing	-10.0838
▁chew	-10.0843
uck	-10.0843
▁cheat	-10.0846
▁flush	-10.0848
▁divorce	-10.086
▁brand	-10.0861
▁assume	-10.0868
▁equal	-10.087
▁purse	-10.087
▁heavi	-10.0871
▁exact	-10.0871
▁gentle	-10.0879
▁slave	-10.0881
▁border	-10.0882
▁although	-10.0882
▁arnhem	-10.0882
▁bernie	-10.0882
▁brittany	-10.0882
▁brundish	-10.0882
▁buffalo	-10.0882
▁convention	-10.0882
▁creaking	-10.0882
▁disaster	-10.0882
▁enemies	-10.0882
▁flintstone	-10.0882
▁florida	-10.0882
▁gregorio	-10.0882
▁houston	-10.0882
▁illegal	-10.0882
▁investigation	-10.0882
▁ireland	-10.0882
▁kaycee	-10.0882
▁libby	-10.0882
▁principal	-10.0882
▁regular	-10.0882
▁routine	-10.0882
▁schnitzel	-10.0882
▁semester	-10.0882
▁smooth	-10.0882
▁university	-10.0882
▁farewell	-10.0882
▁dilly	-10.0882
▁relationship	-10.0882
▁bugger	-10.0882
▁stream	-10.0882
▁hisses	-10.0882
▁steer	-10.0882
▁desire	-10.0882
▁cramp	-10.0882
▁boggis	-10.0883
▁ouch	-10.0883
▁hayden	-10.0883
▁martian	-10.0883
▁chapter	-10.0883
▁wilson	-10.0883
▁orange	-10.0883
▁claude	-10.0883
▁nuclear	-10.0883
▁whistling	-10.0883
▁changing	-10.0883
▁library	-10.0883
▁blade	-10.0883
▁cave	-10.0884
▁surface	-10.0884
▁operator	-10.0884
▁jewish	-10.0884
▁abby	-10.0884
▁chairman	-10.0884
▁gentleman	-10.0885
▁quest	-10.0885
▁aside	-10.0886
▁nome	-10.0886
▁weli	-10.0886
▁poop	-10.0887
▁artist	-10.0887
▁merely	-10.0889
▁sally	-10.0891
▁jay	-10.0891
▁bobby	-10.0891
▁process	-10.0892
▁haha	-10.0894
▁archy	-10.0897
▁billion	-10.0908
▁lawn	-10.0911
▁seth	-10.0911
▁prey	-10.0913
▁creepy	-10.0918
▁laser	-10.0918
▁wayne	-10.093
▁lips	-10.0941
▁entirely	-10.0941
▁oops	-10.0953
ship	-10.0959
▁wishes	-10.0977
▁rams	-10.0986
▁clearly	-10.0991
▁crossed	-10.1001
der	-10.1015
▁dings	-10.1019
▁hunting	-10.1032
line	-10.1073
▁bl	-10.1076
▁enjoying	-10.1077
▁weapons	-10.1096
▁lessons	-10.1098
▁caused	-10.112
▁zip	-10.1136
▁parts	-10.114
▁counting	-10.1143
ring	-10.1178
sh	-10.118
▁fields	-10.1181
▁natives	-10.1202
▁ahhh	-10.121
▁float	-10.121
▁pea	-10.1231
▁fart	-10.1242
▁thin	-10.1247
▁shadow	-10.1282
▁snail	-10.1282
▁zone	-10.1282
▁emoji	-10.1285
▁chair	-10.1287
▁nightmare	-10.1288
▁mortal	-10.1291
▁detective	-10.1291
▁banana	-10.1292
▁trap	-10.1297
▁vampire	-10.1299
▁parent	-10.1305
▁nation	-10.1319
▁bone	-10.1328
▁stranger	-10.1336
les	-10.135
▁runs	-10.1367
▁squeeze	-10.1369
▁beats	-10.1398
▁pi	-10.1408
like	-10.141
▁hates	-10.1415
▁mar	-10.1415
▁tear	-10.1418
▁bust	-10.1418
▁shock	-10.142
▁believed	-10.142
▁gather	-10.1423
▁mi	-10.1432
gged	-10.1433
ism	-10.1448
▁humans	-10.1456
▁du	-10.1456
▁sneak	-10.1457
▁defend	-10.1462
▁impress	-10.1464
ible	-10.1467
▁novel	-10.1472
▁incident	-10.1473
▁remove	-10.1485
▁dirt	-10.1487
▁require	-10.1492
▁separate	-10.1492
▁for	-10.1493
▁occasion	-10.1501
▁twin	-10.1501
▁shin	-10.1503
▁rome	-10.1504
▁confess	-10.1505
▁junk	-10.1505
▁mood	-10.1506
▁advantage	-10.1507
▁aquitaine	-10.1507
▁atlantic	-10.1507
▁circumstances	-10.1507
▁deuteronomy	-10.1507
▁distant	-10.1507
▁easily	-10.1507
▁elevator	-10.1507
▁governor	-10.1507
▁happiness	-10.1507
▁holiday	-10.1507
▁individual	-10.1507
▁jenny	-10.1507
▁nashville	-10.1507
▁perrito	-10.1507
▁represent	-10.1507
▁responsibility	-10.1507
▁scolex	-10.1507
▁temporary	-10.1507
▁thirty	-10.1507
▁towel	-10.1507
▁whirring	-10.1507
▁eerie	-10.1507
▁raymond	-10.1507
▁cinderella	-10.1507
▁chamber	-10.1507
▁contract	-10.1507
▁attitude	-10.1507
▁central	-10.1507
▁dining	-10.1507
▁rifle	-10.1507
▁entrance	-10.1508
▁dashwood	-10.1508
▁anytime	-10.1508
▁fox	-10.1508
▁chapel	-10.1508
▁liar	-10.1508
▁arena	-10.1508
▁pathetic	-10.1508
▁greetings	-10.1508
▁railway	-10.1508
▁wore	-10.1508
▁punishment	-10.1508
▁slipped	-10.1508
▁zero	-10.1508
▁gower	-10.1508
▁assignment	-10.1508
▁failure	-10.1509
▁wig	-10.1509
▁brick	-10.1509
▁available	-10.1509
▁daisy	-10.1509
▁jolly	-10.1509
▁academy	-10.1509
▁dummy	-10.151
▁geez	-10.151
▁diary	-10.151
▁loch	-10.151
▁decent	-10.151
▁marine	-10.151
▁amount	-10.151
▁neat	-10.1511
▁taxi	-10.1511
▁denied	-10.1511
▁peterson	-10.1511
▁blaring	-10.1512
▁gain	-10.1512
▁grandson	-10.1513
▁tolly	-10.1515
▁spoken	-10.1516
▁protection	-10.1516
▁ahem	-10.1516
▁thatd	-10.1516
▁johnson	-10.1519
▁beef	-10.1519
▁diego	-10.1519
▁bleeding	-10.1521
▁palm	-10.1521
▁lois	-10.1522
▁lame	-10.1522
▁sage	-10.1525
▁marty	-10.1525
▁clicking	-10.1527
▁hail	-10.1529
▁modern	-10.153
▁cable	-10.153
▁nest	-10.1536
▁louder	-10.1538
▁bush	-10.1538
▁madame	-10.1542
ut	-10.1545
▁snarling	-10.155
▁victoria	-10.1551
▁trail	-10.1552
▁zing	-10.1555
▁citizens	-10.1556
▁impressed	-10.1563
▁hills	-10.1565
no	-10.1571
▁tied	-10.1575
▁murdered	-10.1582
▁burned	-10.1586
▁carefully	-10.1592
ny	-10.1599
▁watched	-10.16
▁packed	-10.1601
▁stones	-10.1606
▁announc	-10.1608
▁houses	-10.1612
▁monkeys	-10.1619
▁lied	-10.1622
ating	-10.1623
▁stealing	-10.1645
▁mat	-10.1648
use	-10.1653
▁walls	-10.1662
▁jumped	-10.1663
▁reached	-10.1663
▁knees	-10.1666
▁noon	-10.1671
▁unh	-10.1672
▁ap	-10.1675
▁parking	-10.1677
▁kissed	-10.1678
▁aha	-10.1693
▁joined	-10.1694
po	-10.1698
▁snakes	-10.1736
▁rum	-10.1746
▁del	-10.176
▁moo	-10.1765
ial	-10.1781
▁fishing	-10.1783
▁soldiers	-10.1792
▁steps	-10.1797
▁goat	-10.1801
▁goal	-10.1807
ily	-10.1807
op	-10.181
▁bull	-10.1816
▁ski	-10.1832
▁site	-10.1839
▁dreaming	-10.1852
▁lit	-10.1855
▁chat	-10.1857
▁touching	-10.186
▁hay	-10.1865
▁landing	-10.187
▁receive	-10.1872
▁cows	-10.1877
▁wars	-10.1882
▁wah	-10.189
▁cough	-10.192
umble	-10.1921
▁hoped	-10.1924
▁drinking	-10.1944
▁gal	-10.1945
▁mon	-10.1947
▁savage	-10.1948
▁instrument	-10.1952
▁senior	-10.1952
▁result	-10.1955
▁scientist	-10.1964
▁tank	-10.1964
▁thumb	-10.1964
ence	-10.1964
▁sport	-10.1967
▁shoe	-10.1968
▁drum	-10.1969
▁damned	-10.1978
▁fl	-10.1985
▁hass	-10.2002
▁cre	-10.2009
▁tale	-10.2055
light	-10.2064
▁ming	-10.2069
if	-10.2081
▁va	-10.2101
▁boil	-10.2107
▁rip	-10.2122
▁wing	-10.2124
▁smash	-10.2127
▁snarl	-10.2128
house	-10.2147
▁rook	-10.2151
▁explode	-10.2152
▁convince	-10.2152
road	-10.2152
▁griff	-10.2167
▁steve	-10.2167
▁bi	-10.2167
▁actress	-10.2174
▁auction	-10.2174
▁celebrate	-10.2174
▁cortez	-10.2174
▁council	-10.2174
▁diablo	-10.2174
▁draft	-10.2174
▁excalibur	-10.2174
▁fashion	-10.2174
▁footsteps	-10.2174
▁gardner	-10.2174
▁glynnis	-10.2174
▁italian	-10.2174
▁jonathan	-10.2174
▁maligore	-10.2174
▁marvin	-10.2174
▁monitor	-10.2174
▁permission	-10.2174
▁quentin	-10.2174
▁rehearse	-10.2174
▁valuable	-10.2174
▁welker	-10.2174
▁whenever	-10.2174
▁dardis	-10.2174
▁huddle	-10.2174
▁klaus	-10.2174
▁shaft	-10.2174
▁oldknow	-10.2174
▁superior	-10.2174
▁thieves	-10.2174
▁squidward	-10.2174
▁destruction	-10.2174
▁policy	-10.2174
▁jailbreak	-10.2174
▁grateful	-10.2174
▁tyler	-10.2174
▁cannonball	-10.2174
▁intruder	-10.2174
▁stans	-10.2174
▁navy	-10.2174
▁sheet	-10.2174
▁begun	-10.2174
▁blew	-10.2174
▁cowboy	-10.2175
▁lemon	-10.2175
▁fortune	-10.2175
▁slept	-10.2175
▁extraordinary	-10.2175
▁mummy	-10.2175
▁fifth	-10.2175
▁staff	-10.2176
▁noble	-10.2176
▁doorbell	-10.2176
▁responsible	-10.2176
▁performance	-10.2176
▁medal	-10.2176
▁karate	-10.2177
▁shane	-10.2177
▁bert	-10.2177
▁smith	-10.2177
▁debt	-10.2178
▁surrounded	-10.2178
▁slater	-10.2178
▁toto	-10.2178
▁define	-10.2179
▁inga	-10.2179
▁moron	-10.2179
▁aii	-10.2181
▁practically	-10.2181
▁sat	-10.2182
▁title	-10.2182
▁cove	-10.2184
▁cube	-10.2185
▁fuss	-10.2188
▁vice	-10.2188
locks	-10.219
▁sexy	-10.2193
▁helena	-10.2194
▁boring	-10.2194
▁athlete	-10.2194
▁knowledge	-10.2196
▁bror	-10.2196
▁shrieks	-10.2197
▁setting	-10.22
▁embarrassed	-10.2206
▁bombs	-10.2209
▁grass	-10.2213
▁germany	-10.2222
▁closes	-10.2233
▁bump	-10.2233
een	-10.227
▁degrees	-10.227
▁andi	-10.2274
▁belly	-10.2277
▁led	-10.2279
▁dent	-10.2284
▁engineer	-10.2288
▁mars	-10.2289
▁traveling	-10.2294
▁que	-10.2297
▁ra	-10.23
▁am	-10.2303
ball	-10.2314
▁cooking	-10.2322
▁classic	-10.2324
▁fooled	-10.2349
▁remembered	-10.2355
▁selling	-10.2376
▁chances	-10.2378
▁bags	-10.2427
▁cr	-10.2429
▁depends	-10.2434
▁ad	-10.2435
▁seal	-10.2436
hh	-10.2448
▁buying	-10.2455
den	-10.2477
mon	-10.2483
▁col	-10.2493
▁schools	-10.251
▁hated	-10.2523
▁plates	-10.2525
jo	-10.2551
▁criminals	-10.257
▁colors	-10.257
away	-10.2576
▁understanding	-10.2592
▁y	-10.2616
▁shift	-10.2619
▁yards	-10.2631
▁vehicle	-10.2666
▁mammoth	-10.2671
ious	-10.2676
▁dragon	-10.2678
▁gin	-10.2678
▁muppet	-10.2681
▁sis	-10.2698
▁math	-10.2706
▁ali	-10.2714
▁gen	-10.2716
▁loser	-10.2746
my	-10.2749
ste	-10.275
▁the	-10.2774
▁breaks	-10.2803
▁drown	-10.2808
av	-10.2814
ons	-10.283
▁charm	-10.2846
▁delay	-10.2847
▁roast	-10.2849
▁repair	-10.285
work	-10.2851
▁piss	-10.2855
▁earn	-10.2863
▁rogers	-10.2864
▁kings	-10.2864
▁shove	-10.2866
▁shark	-10.2867
ifl	-10.287
▁link	-10.287
▁points	-10.2874
▁wipe	-10.2875
▁official	-10.2876
▁mmhm	-10.2885
▁mornin	-10.2885
▁vest	-10.2887
▁iris	-10.2887
▁rhino	-10.2888
▁ancient	-10.2888
▁attorney	-10.2888
▁clayton	-10.2888
▁coincidence	-10.2888
▁conference	-10.2888
▁deputy	-10.2888
▁division	-10.2888
▁eventually	-10.2888
▁fronkonsteen	-10.2888
▁gamart	-10.2888
▁glue	-10.2888
▁gorgeous	-10.2888
▁greek	-10.2888
▁hardborough	-10.2888
▁injury	-10.2888
▁jakarta	-10.2888
▁mistoffelees	-10.2888
▁muffled	-10.2888
▁mysterious	-10.2888
▁nelson	-10.2888
▁purple	-10.2888
▁revenge	-10.2888
▁shrimp	-10.2888
▁subtitle	-10.2888
▁surgery	-10.2888
▁sydney	-10.2888
▁tinkles	-10.2888
▁tricia	-10.2888
▁underneath	-10.2888
▁volunteer	-10.2888
▁winifred	-10.2888
▁democrat	-10.2888
▁presence	-10.2888
▁grasshopper	-10.2888
▁rodrick	-10.2888
▁baroness	-10.2888
▁chicago	-10.2888
▁garlic	-10.2888
▁severine	-10.2888
▁glory	-10.2888
▁invisible	-10.2888
▁vincent	-10.2888
▁texas	-10.2888
▁glow	-10.2889
▁halt	-10.2889
▁plastic	-10.2889
▁example	-10.2889
▁miserable	-10.2889
▁bodies	-10.2889
▁julian	-10.2889
▁honks	-10.2889
▁martha	-10.2889
▁material	-10.2889
▁assistance	-10.2889
▁education	-10.2889
▁pansy	-10.2889
▁whoohoo	-10.2889
▁ohara	-10.2889
▁comrade	-10.2889
▁firing	-10.2889
▁stove	-10.2889
▁daily	-10.2889
▁turkey	-10.2889
▁cia	-10.2889
▁feast	-10.2889
▁dominic	-10.2889
▁whatll	-10.2889
▁rail	-10.289
▁impressive	-10.289
▁centre	-10.289
▁sandra	-10.289
▁dropping	-10.289
▁munch	-10.289
▁complicated	-10.289
▁polite	-10.2891
▁capable	-10.2891
▁dice	-10.2891
▁dyou	-10.2891
▁vision	-10.2891
▁riddler	-10.2891
▁ash	-10.2892
▁package	-10.2892
▁christine	-10.2892
▁robbery	-10.2892
▁lucy	-10.2893
▁brooks	-10.2893
▁woke	-10.2894
▁heather	-10.2894
▁greedy	-10.2894
▁mountains	-10.2894
▁bait	-10.2895
▁relieved	-10.2896
▁chopper	-10.2896
▁howling	-10.2897
▁bound	-10.2897
▁ability	-10.2897
▁junior	-10.2898
▁my	-10.2898
▁highway	-10.2899
▁stopping	-10.2899
▁range	-10.2901
▁officially	-10.2901
▁fee	-10.2902
▁squealing	-10.2904
▁highness	-10.2906
▁disappointed	-10.2906
▁particularly	-10.291
▁mixed	-10.2911
▁siren	-10.2914
▁properly	-10.2916
▁porter	-10.293
▁embarrassing	-10.2931
▁fore	-10.2931
▁drowning	-10.2934
▁healthy	-10.2936
▁and	-10.2943
▁observe	-10.2944
▁burglars	-10.296
▁bu	-10.2982
▁entering	-10.2986
ps	-10.2988
▁accepted	-10.2991
▁warned	-10.3014
ner	-10.302
ja	-10.303
▁nothings	-10.3033
▁armed	-10.3042
▁tryin	-10.3061
▁farmers	-10.3065
▁pops	-10.3091
▁rocky	-10.3092
fer	-10.3102
▁moments	-10.3109
▁ducky	-10.3111
▁backup	-10.3115
▁scientists	-10.312
▁trained	-10.312
▁returned	-10.3121
▁mc	-10.3126
▁dressing	-10.3135
ail	-10.3144
▁joining	-10.3159
ii	-10.3163
▁leads	-10.3172
▁speaks	-10.3177
zz	-10.318
ions	-10.3198
▁drivers	-10.3207
▁es	-10.3214
▁tigers	-10.3217
▁sticks	-10.322
ches	-10.3238
ki	-10.3253
▁banks	-10.3255
▁nails	-10.3281
▁thoughts	-10.3288
▁plants	-10.3293
▁wha	-10.3296
aw	-10.3301
▁kim	-10.3311
▁cap	-10.3321
ves	-10.3326
▁knights	-10.3348
▁reporters	-10.3363
▁maker	-10.3375
▁nail	-10.3393
▁yell	-10.34
▁suspect	-10.3404
▁arrive	-10.3417
▁wears	-10.3429
▁mirror	-10.3431
▁scholarship	-10.3431
▁communist	-10.3433
▁cigar	-10.3438
▁explosion	-10.3438
▁adam	-10.3442
▁apple	-10.3443
▁learning	-10.3455
▁off	-10.3463
▁deny	-10.3467
▁moor	-10.3472
▁pulling	-10.348
▁paula	-10.348
▁arab	-10.3481
▁holes	-10.3482
bout	-10.3487
▁woo	-10.3489
▁opened	-10.3496
▁chest	-10.3509
▁thick	-10.3524
▁product	-10.3531
▁beep	-10.3562
uld	-10.3573
▁embarrass	-10.3575
▁heal	-10.3582
▁victor	-10.3583
▁badge	-10.3593
▁interrupt	-10.3593
▁wrap	-10.3598
▁approach	-10.3605
▁disturb	-10.3606
▁flash	-10.361
▁buzz	-10.3612
▁port	-10.3613
▁mart	-10.3617
▁develop	-10.3619
down	-10.3627
pp	-10.3629
▁damage	-10.3635
▁chick	-10.3635
ock	-10.3636
▁secure	-10.3637
▁sex	-10.3639
phone	-10.3639
class	-10.3639
world	-10.3639
▁terribl	-10.364
▁sha	-10.3643
▁instant	-10.3644
book	-10.3645
▁idiots	-10.3649
▁drag	-10.3649
▁brush	-10.3653
▁tod	-10.3654
▁specific	-10.3657
▁inform	-10.3657
▁plot	-10.3657
▁scientific	-10.3657
▁ashamed	-10.3658
▁average	-10.3658
▁bartender	-10.3658
▁beloved	-10.3658
▁beneath	-10.3658
▁bertram	-10.3658
▁concierge	-10.3658
▁devereaux	-10.3658
▁elliot	-10.3658
▁enormous	-10.3658
▁episode	-10.3658
▁fitzhume	-10.3658
▁genuine	-10.3658
▁helsing	-10.3658
▁including	-10.3658
▁jeanloup	-10.3658
▁kelmot	-10.3658
▁magrathea	-10.3658
▁matthias	-10.3658
▁mcelrathbey	-10.3658
▁monsieur	-10.3658
▁passenger	-10.3658
▁schooi	-10.3658
▁smiling	-10.3658
▁studied	-10.3658
▁sukarno	-10.3658
▁triangle	-10.3658
▁unusual	-10.3658
▁fiend	-10.3658
▁firm	-10.3658
▁malfunction	-10.3658
▁marysville	-10.3658
▁scale	-10.3658
▁confidence	-10.3658
▁transport	-10.3658
▁geoffrey	-10.3658
▁liddy	-10.3658
▁chinese	-10.3658
▁earthquake	-10.3658
▁urgent	-10.3658
▁infantry	-10.3658
▁hammer	-10.3658
▁kennedy	-10.3658
▁crud	-10.3658
▁gray	-10.3658
▁neighborhood	-10.3658
▁winston	-10.3658
▁trace	-10.3658
▁humma	-10.3658
▁pillow	-10.3658
▁asshole	-10.3658
▁garth	-10.3658
▁activity	-10.3658
▁doberman	-10.3658
▁expensive	-10.3658
▁quarterback	-10.3658
▁combat	-10.3658
▁appropriate	-10.3659
▁bedford	-10.3659
▁mask	-10.3659
▁electronic	-10.3659
▁baseball	-10.3659
▁clown	-10.3659
▁scum	-10.3659
▁justin	-10.3659
▁whyd	-10.3659
▁crab	-10.3659
▁spain	-10.3659
▁murmuring	-10.366
▁plum	-10.366
▁rj	-10.366
▁discipline	-10.366
▁muckle	-10.366
▁creation	-10.3661
▁sentence	-10.3661
▁flesh	-10.3661
▁trial	-10.3661
▁kaye	-10.3661
▁wallet	-10.3661
▁sack	-10.3662
▁yearold	-10.3662
▁mansion	-10.3662
▁juice	-10.3662
▁freddy	-10.3662
▁jelly	-10.3662
▁annie	-10.3663
▁copper	-10.3663
▁chosen	-10.3663
▁treatment	-10.3663
▁chad	-10.3663
▁motor	-10.3664
▁agreement	-10.3664
▁producer	-10.3664
▁heartbeat	-10.3665
▁foolish	-10.3666
▁statement	-10.3666
▁amen	-10.3666
▁conduct	-10.3666
▁halfway	-10.3667
▁deadline	-10.3667
▁von	-10.3671
looking	-10.3674
▁medical	-10.3674
▁sixth	-10.3674
▁fallen	-10.3681
▁convinced	-10.3683
▁pm	-10.3684
▁parties	-10.3686
▁yaya	-10.3686
▁useful	-10.369
▁beam	-10.3691
▁blown	-10.3692
▁pile	-10.3692
▁golf	-10.3693
▁mass	-10.3699
▁layer	-10.3699
▁heights	-10.3701
▁approaching	-10.3704
▁joint	-10.3705
▁former	-10.3708
▁highest	-10.3715
▁dock	-10.3716
▁sonic	-10.3717
▁delivered	-10.3718
ight	-10.372
▁joker	-10.3721
▁ve	-10.3728
▁pickles	-10.3732
va	-10.3734
▁loaded	-10.3738
▁yee	-10.3739
▁klopeks	-10.3752
▁successful	-10.3753
▁painted	-10.3753
om	-10.3758
▁los	-10.3763
▁zed	-10.3765
▁ju	-10.3771
▁mid	-10.3777
▁studying	-10.3789
▁yea	-10.3796
▁duh	-10.3798
▁demons	-10.382
▁filling	-10.383
▁feathers	-10.3856
▁enjoyed	-10.3864
▁younger	-10.387
▁beeps	-10.3873
▁suspects	-10.3875
▁attacked	-10.3885
▁leading	-10.3903
▁husbands	-10.3906
▁thumbs	-10.3909
▁tanks	-10.3909
▁boarding	-10.391
▁jobs	-10.3928
▁pin	-10.3942
▁thinkin	-10.3958
▁fe	-10.3965
▁cleaner	-10.3974
▁puts	-10.3976
lin	-10.3989
▁currents	-10.3997
▁members	-10.4012
▁bend	-10.4012
▁charges	-10.4013
▁fools	-10.4015
▁increase	-10.402
mer	-10.4024
▁cart	-10.4036
▁wal	-10.4064
▁diamonds	-10.4067
▁pl	-10.4094
ast	-10.4101
ile	-10.4112
▁fails	-10.4123
ub	-10.4137
▁rot	-10.4154
▁showing	-10.4167
rt	-10.4229
▁cu	-10.423
▁sniff	-10.4236
▁stake	-10.4243
▁shout	-10.4245
▁ai	-10.4248
▁rate	-10.4254
▁finance	-10.4255
▁grip	-10.4259
ass	-10.4259
▁knee	-10.4259
▁cheer	-10.4262
pped	-10.4263
▁baudelaire	-10.4265
▁pipe	-10.4267
▁nap	-10.4269
▁magazine	-10.4274
▁maid	-10.4275
▁krab	-10.4278
▁cl	-10.4279
▁feather	-10.4279
▁glove	-10.4282
▁trains	-10.4289
▁dudes	-10.4291
▁deserves	-10.4303
▁tent	-10.4305
da	-10.4347
▁is	-10.4348
▁jokes	-10.4371
▁eagles	-10.4374
▁liver	-10.4379
▁dam	-10.4382
▁bang	-10.4386
▁ax	-10.439
▁sue	-10.4393
▁experiment	-10.4438
▁shatter	-10.4451
▁swing	-10.4458
two	-10.4473
▁drama	-10.4475
▁unfortunate	-10.4478
bs	-10.4479
▁actual	-10.4479
▁litter	-10.4481
▁fran	-10.4482
▁chose	-10.4486
▁threat	-10.4487
▁fruit	-10.4488
▁greet	-10.4489
▁descend	-10.4491
▁absurd	-10.4491
▁apologies	-10.4491
▁bacon	-10.4491
▁barricade	-10.4491
▁berkeley	-10.4491
▁cahill	-10.4491
▁cavanaugh	-10.4491
▁cease	-10.4491
▁commodore	-10.4491
▁dialogue	-10.4491
▁gulag	-10.4491
▁jonah	-10.4491
▁kazuhiko	-10.4491
▁lemur	-10.4491
▁macgregor	-10.4491
▁muscle	-10.4491
▁pronounce	-10.4491
▁prophecy	-10.4491
▁puzzle	-10.4491
▁relief	-10.4491
▁russell	-10.4491
▁saigon	-10.4491
▁schuyler	-10.4491
▁scotland	-10.4491
▁segretti	-10.4491
▁slide	-10.4491
▁sunshine	-10.4491
▁supply	-10.4491
▁thompson	-10.4491
▁thunderclap	-10.4491
▁tragic	-10.4491
▁turtle	-10.4491
▁understood	-10.4491
▁watson	-10.4491
▁wegman	-10.4491
▁worries	-10.4491
▁yawns	-10.4491
▁content	-10.4491
▁deaf	-10.4491
▁eternal	-10.4491
▁pleasant	-10.4491
▁tattoo	-10.4491
▁gently	-10.4491
▁wolves	-10.4491
▁conclusion	-10.4491
▁krauts	-10.4491
▁authorities	-10.4491
▁lisp	-10.4491
▁muffin	-10.4491
▁sweep	-10.4491
▁basket	-10.4491
▁stiles	-10.4491
▁mombi	-10.4491
▁funeral	-10.4491
▁sequel	-10.4491
▁sunset	-10.4491
▁chaos	-10.4491
▁kidnapping	-10.4491
▁squish	-10.4491
▁salmon	-10.4491
▁lucas	-10.4491
▁cowgirl	-10.4491
▁acquaintance	-10.4491
▁flora	-10.4491
▁crook	-10.4491
▁utter	-10.4491
▁chitter	-10.4491
▁diane	-10.4491
▁nonnie	-10.4491
▁maintain	-10.4491
▁construction	-10.4491
▁damian	-10.4491
▁lend	-10.4491
▁prickl	-10.4491
▁beatrice	-10.4491
▁diana	-10.4492
▁strict	-10.4492
▁possibility	-10.4492
▁mechanic	-10.4492
▁viru	-10.4492
▁reelect	-10.4492
▁backwards	-10.4492
▁root	-10.4492
▁subway	-10.4493
▁development	-10.4493
▁betcha	-10.4493
▁chef	-10.4493
▁spaceship	-10.4493
▁bingo	-10.4494
▁hitler	-10.4495
▁tide	-10.4496
▁ricky	-10.4496
▁distorted	-10.4496
▁award	-10.4496
▁amongst	-10.4497
▁annoying	-10.4497
▁fascinating	-10.4497
▁serving	-10.4497
▁hue	-10.4498
▁article	-10.4498
▁media	-10.4498
▁bail	-10.4499
▁buckle	-10.4499
▁dega	-10.45
▁theme	-10.4501
▁morgana	-10.4501
▁arranged	-10.4501
▁dash	-10.4502
▁delighted	-10.4502
▁hash	-10.4502
▁vern	-10.4502
▁dreadful	-10.4503
▁bedtime	-10.4503
▁aww	-10.4505
▁bud	-10.4508
▁oss	-10.4508
▁tickle	-10.4508
▁glori	-10.4508
▁jackie	-10.4508
zy	-10.4509
▁dana	-10.4509
▁exhausted	-10.4512
za	-10.4512
▁daylight	-10.4512
boy	-10.4513
▁when	-10.4514
▁thee	-10.4514
▁rever	-10.4515
ther	-10.4516
▁sighing	-10.4517
▁select	-10.4519
▁bored	-10.4522
▁host	-10.4523
▁lane	-10.4525
▁goose	-10.4526
▁pod	-10.4529
▁sweater	-10.4531
▁loudly	-10.4533
▁lifetime	-10.4539
▁dial	-10.4543
▁blessed	-10.4547
▁corps	-10.4555
▁introduced	-10.4555
▁meowing	-10.4557
▁dan	-10.4561
▁flip	-10.4564
▁smarter	-10.4568
▁stairs	-10.4575
▁forced	-10.4578
▁deeper	-10.4578
▁gr	-10.4591
▁warriors	-10.4594
with	-10.4605
ery	-10.4606
▁prayed	-10.4616
hu	-10.462
▁toes	-10.4623
▁smaller	-10.4624
▁speaker	-10.4625
▁fog	-10.4627
▁arch	-10.463
▁paws	-10.4632
▁disco	-10.4634
▁customers	-10.4653
▁singer	-10.466
▁mentioned	-10.466
▁grades	-10.467
▁skills	-10.467
▁terms	-10.467
▁fixed	-10.468
▁testing	-10.4697
▁loss	-10.4718
▁units	-10.4723
▁grounded	-10.4727
▁acts	-10.4731
▁whas	-10.4736
▁messing	-10.4742
▁habitat	-10.4745
▁rolled	-10.4753
▁tor	-10.4763
▁ships	-10.4777
▁closet	-10.4789
▁tapes	-10.4828
▁victim	-10.4836
ries	-10.4844
▁actors	-10.4862
▁fa	-10.4864
ied	-10.4878
▁poe	-10.4886
▁doo	-10.4892
▁listened	-10.4892
▁teams	-10.49
▁badly	-10.492
▁buttons	-10.4921
▁reminds	-10.4922
▁ze	-10.4926
▁prim	-10.4934
▁files	-10.496
ue	-10.4965
▁et	-10.4968
▁poet	-10.501
fe	-10.5021
ette	-10.5023
tto	-10.5028
ze	-10.5034
▁drove	-10.5042
▁menu	-10.5043
▁where	-10.5071
ify	-10.5086
▁yii	-10.5112
ook	-10.5119
▁brings	-10.5152
▁dates	-10.5153
▁autograph	-10.5167
▁bullet	-10.5174
▁claw	-10.5177
▁element	-10.5178
▁option	-10.5183
▁toward	-10.5191
▁chuckle	-10.5202
▁bands	-10.5214
▁suite	-10.5214
▁farmer	-10.5244
▁ton	-10.5249
▁sa	-10.5259
▁ding	-10.5262
▁crimes	-10.5271
▁legends	-10.5275
let	-10.5275
▁hearts	-10.5275
▁spin	-10.5296
▁flu	-10.5296
rey	-10.5305
▁sol	-10.5307
▁frighten	-10.5319
ona	-10.5343
▁attract	-10.5351
stone	-10.5356
▁cancel	-10.5357
▁connect	-10.5358
▁succeed	-10.536
▁faint	-10.536
▁herr	-10.536
▁intend	-10.5363
▁haunt	-10.5364
ator	-10.5364
itates	-10.5365
▁down	-10.5375
▁positions	-10.5375
▁iii	-10.5375
▁wander	-10.5377
▁create	-10.5379
▁dang	-10.538
worm	-10.5381
▁vip	-10.5382
life	-10.5383
town	-10.5383
▁brad	-10.5385
▁splendid	-10.5386
▁slim	-10.5386
▁iv	-10.5388
▁gumb	-10.5394
▁mega	-10.5395
▁salt	-10.5395
▁af	-10.5397
▁stunt	-10.5398
▁western	-10.5398
▁resist	-10.5399
▁sauce	-10.54
▁tahiti	-10.54
▁airborne	-10.54
▁background	-10.54
▁blaze	-10.54
▁broadcast	-10.54
▁bypass	-10.54
▁carriage	-10.54
▁ceiling	-10.54
▁congress	-10.54
▁cotton	-10.54
▁curfew	-10.54
▁empire	-10.54
▁enchant	-10.54
▁exercise	-10.54
▁famiiy	-10.54
▁fortress	-10.54
▁fraser	-10.54
▁gnome	-10.54
▁gradenko	-10.54
▁infinite	-10.54
▁instance	-10.54
▁isaac	-10.54
▁lasalles	-10.54
▁montana	-10.54
▁mowbray	-10.54
▁napoleon	-10.54
▁naughty	-10.54
▁oclock	-10.54
▁opponent	-10.54
▁ornament	-10.54
▁outstanding	-10.54
▁peculiar	-10.54
▁plague	-10.54
▁presume	-10.54
▁privacy	-10.54
▁puckett	-10.54
▁ralph	-10.54
▁remote	-10.54
▁respond	-10.54
▁smuntz	-10.54
▁sobbing	-10.54
▁stammers	-10.54
▁supreme	-10.54
▁therefore	-10.54
▁unfair	-10.54
▁vinci	-10.54
▁violin	-10.54
▁vogel	-10.54
▁voyage	-10.54
▁werewolf	-10.54
▁bloke	-10.54
▁chancellor	-10.54
▁cherry	-10.54
▁choke	-10.54
▁curtis	-10.54
▁fischer	-10.54
▁flew	-10.54
▁legacy	-10.54
▁yacht	-10.54
▁cattle	-10.54
▁divatox	-10.54
▁breadfruit	-10.54
▁channing	-10.54
▁worid	-10.54
▁financial	-10.54
▁headache	-10.54
▁incoming	-10.54
▁carried	-10.54
▁moans	-10.54
▁version	-10.54
▁salute	-10.54
▁joking	-10.54
▁invitation	-10.54
▁cheap	-10.54
▁clap	-10.54
▁influence	-10.54
▁association	-10.54
▁interfere	-10.54
▁favourite	-10.54
▁ashore	-10.54
▁sikes	-10.54
▁authority	-10.54
▁demonstration	-10.54
▁blanket	-10.5401
▁catwoman	-10.5401
▁magnet	-10.5401
▁disney	-10.5401
▁display	-10.5401
▁oome	-10.5401
▁solomon	-10.5401
▁leap	-10.5401
▁limb	-10.5401
▁maax	-10.5401
▁argue	-10.5401
▁resistance	-10.5401
▁pamela	-10.5401
▁ginger	-10.5401
▁championship	-10.5401
▁ease	-10.5401
▁custody	-10.5401
▁oooh	-10.5401
▁harvest	-10.5401
▁zordon	-10.5401
▁poetry	-10.5401
▁commitment	-10.5402
▁jury	-10.5402
▁pride	-10.5402
▁potty	-10.5402
▁possession	-10.5402
▁hostage	-10.5402
▁minor	-10.5402
▁upper	-10.5402
▁ofthe	-10.5402
▁seattle	-10.5403
▁involve	-10.5403
▁budget	-10.5403
▁spotted	-10.5403
▁dunne	-10.5404
▁humble	-10.5404
▁gday	-10.5404
▁narrat	-10.5404
▁burst	-10.5405
▁laid	-10.5405
▁judy	-10.5405
▁megan	-10.5406
▁swell	-10.5406
▁monte	-10.5406
▁dating	-10.5406
▁june	-10.5407
▁peaceful	-10.5407
▁becky	-10.5407
▁sec	-10.5408
▁ham	-10.5409
▁sanders	-10.5409
▁skies	-10.5409
▁ew	-10.5409
▁tum	-10.541
▁rocket	-10.541
▁og	-10.5411
▁benson	-10.5411
▁inch	-10.5411
▁bayonets	-10.5411
▁gulps	-10.5411
▁suspended	-10.5412
▁fuel	-10.5413
▁soviet	-10.5413
▁musician	-10.5414
▁herd	-10.5415
▁discussion	-10.5416
▁fifty	-10.5417
▁tone	-10.5418
nce	-10.5418
▁replaced	-10.5418
▁tropic	-10.5419
▁pole	-10.5419
▁neighing	-10.542
▁campus	-10.542
▁homework	-10.5421
▁kneel	-10.5424
▁ink	-10.5424
ming	-10.5424
▁victory	-10.5426
▁wounded	-10.5427
▁dup	-10.5428
▁gulls	-10.5431
▁teenagers	-10.5432
▁putty	-10.5434
▁passion	-10.5436
▁intended	-10.5437
▁exam	-10.5438
▁baron	-10.5441
▁healed	-10.5444
▁para	-10.5445
rimmer	-10.545
▁managed	-10.5452
▁reality	-10.5452
▁kindness	-10.5453
▁pitch	-10.5454
▁addie	-10.546
▁passes	-10.5462
▁blasted	-10.5462
▁classes	-10.5462
▁tests	-10.5465
▁floating	-10.5469
fi	-10.547
▁mini	-10.547
▁clangs	-10.5473
▁shy	-10.5473
▁ty	-10.5475
▁jar	-10.5476
▁rank	-10.5476
▁bars	-10.5481
▁sinking	-10.5482
▁beans	-10.5493
▁commander	-10.5493
▁revs	-10.5494
ora	-10.5496
▁rep	-10.5503
▁anne	-10.5504
▁based	-10.5505
▁frankie	-10.5511
▁considered	-10.5512
pe	-10.5526
▁climbing	-10.5528
▁tools	-10.5534
▁freaking	-10.5541
▁finest	-10.5543
▁bots	-10.5545
pping	-10.5546
▁recipes	-10.5555
▁souls	-10.5559
▁corn	-10.5562
▁tracker	-10.5563
▁statu	-10.5566
iy	-10.5566
▁workers	-10.5568
▁bowling	-10.5569
▁tag	-10.5569
▁worthy	-10.5573
▁raining	-10.5575
▁drawings	-10.5576
▁marsh	-10.5579
▁dancers	-10.5588
▁orphans	-10.5597
▁walks	-10.5605
▁exchange	-10.561
▁balance	-10.5615
▁spending	-10.5616
▁hustle	-10.562
lic	-10.5628
▁krabs	-10.5639
▁messages	-10.5641
▁mor	-10.565
▁rhythmic	-10.5679
ally	-10.5685
▁kissing	-10.5721
▁traps	-10.5723
▁tales	-10.5727
▁hog	-10.5744
▁nerves	-10.5745
▁jews	-10.5745
▁rolling	-10.5765
▁issues	-10.5765
▁servants	-10.5765
▁hip	-10.5768
▁workin	-10.5776
hand	-10.5783
▁candles	-10.5784
mit	-10.5795
▁beating	-10.5799
▁improve	-10.5801
ima	-10.5808
some	-10.5829
▁passing	-10.583
▁goody	-10.5837
ran	-10.5842
▁robots	-10.5851
ese	-10.5861
oh	-10.5883
cu	-10.5895
▁des	-10.5899
▁me	-10.5911
▁sources	-10.5915
▁prisoners	-10.5923
▁mal	-10.5933
▁sl	-10.5938
▁ag	-10.595
▁partners	-10.5958
▁ki	-10.5963
▁ropes	-10.598
▁detect	-10.5984
che	-10.5985
eth	-10.6024
▁delete	-10.6031
▁mort	-10.6048
▁commit	-10.6057
▁balls	-10.6096
▁torture	-10.6102
▁whistles	-10.611
▁ken	-10.6111
▁qu	-10.6118
tion	-10.6132
▁cur	-10.6138
ack	-10.6143
▁costs	-10.6151
▁contacts	-10.6154
▁nephew	-10.6167
▁location	-10.6167
▁punk	-10.6169
▁effect	-10.6172
▁submarine	-10.6174
▁term	-10.6179
▁winter	-10.618
▁elephant	-10.6181
▁pirate	-10.6181
▁cigarette	-10.6183
▁affair	-10.6184
▁photograph	-10.6186
▁orphan	-10.6187
▁skill	-10.6192
▁grade	-10.6193
▁pill	-10.6195
▁missile	-10.6196
▁films	-10.6199
▁greater	-10.62
▁worm	-10.6206
▁indian	-10.6209
▁locks	-10.621
▁christians	-10.6215
▁owner	-10.6216
▁ga	-10.6216
ably	-10.6248
▁hum	-10.625
▁hunter	-10.6251
▁ps	-10.6254
▁demon	-10.6261
▁wished	-10.6263
ward	-10.6265
▁transfer	-10.6268
▁comfort	-10.6278
ison	-10.6293
▁ob	-10.6304
▁complain	-10.6323
wood	-10.6331
▁escort	-10.6347
▁estimate	-10.6349
▁pump	-10.635
▁teachers	-10.635
▁reward	-10.635
zing	-10.635
▁proceed	-10.6351
▁betray	-10.6352
▁regard	-10.6353
▁assum	-10.6355
▁finals	-10.6357
▁mock	-10.636
▁pip	-10.6362
▁spoil	-10.6363
▁yup	-10.6375
board	-10.6376
ler	-10.6379
▁as	-10.638
fall	-10.6384
▁morgan	-10.6387
▁extinct	-10.6392
▁transylvania	-10.6392
hearted	-10.6395
▁odds	-10.6396
▁treasure	-10.6397
▁makin	-10.6398
▁permit	-10.6398
▁dodge	-10.6399
▁occur	-10.6399
▁favour	-10.6399
▁basic	-10.64
▁contest	-10.64
▁almighty	-10.64
▁altogether	-10.64
▁arnold	-10.64
▁bippityboppity	-10.64
▁braxton	-10.64
▁centuries	-10.64
▁channel	-10.64
▁cinnamon	-10.64
▁clattering	-10.64
▁column	-10.64
▁commercial	-10.64
▁conservancy	-10.64
▁delamere	-10.64
▁dessert	-10.64
▁emmett	-10.64
▁eyebrows	-10.64
▁fommy	-10.64
▁frederick	-10.64
▁fregley	-10.64
▁granger	-10.64
▁gremlin	-10.64
▁guidance	-10.64
▁harbor	-10.64
▁heehaw	-10.64
▁hooray	-10.64
▁jennyanydots	-10.64
▁librarian	-10.64
▁magruder	-10.64
▁mcashton	-10.64
▁melody	-10.64
▁necklace	-10.64
▁organization	-10.64
▁patrol	-10.64
▁permanent	-10.64
▁picnic	-10.64
▁pitcairn	-10.64
▁powder	-10.64
▁prevent	-10.64
▁progress	-10.64
▁resort	-10.64
▁reynolds	-10.64
▁rhyme	-10.64
▁rude	-10.64
▁rueland	-10.64
▁ruth	-10.64
▁shermin	-10.64
▁slaghoople	-10.64
▁stepmother	-10.64
▁strutter	-10.64
▁suicide	-10.64
▁throttle	-10.64
▁tuesday	-10.64
▁tugger	-10.64
▁umezaki	-10.64
▁widow	-10.64
▁wisdom	-10.64
▁certificate	-10.64
▁marcus	-10.64
▁nfl	-10.64
▁sherlock	-10.64
▁vomit	-10.64
▁industri	-10.64
▁serum	-10.64
▁warrant	-10.64
▁whew	-10.64
▁barefoot	-10.64
▁denmark	-10.64
▁battery	-10.64
▁chimney	-10.64
▁nadya	-10.64
▁leak	-10.64
▁allergic	-10.64
▁rumsfield	-10.64
▁paradise	-10.64
▁illusion	-10.64
▁behold	-10.64
▁yowling	-10.64
▁unique	-10.64
▁robbed	-10.64
▁consultant	-10.64
▁popcorn	-10.64
▁cliff	-10.64
▁basically	-10.64
▁pilot	-10.64
▁vermin	-10.64
▁wives	-10.64
▁basketball	-10.64
▁muttering	-10.64
▁heelis	-10.64
▁shaking	-10.6401
▁rubber	-10.6401
▁birth	-10.6401
▁wasting	-10.6401
▁youth	-10.6401
▁unknown	-10.6401
▁confusion	-10.6401
▁lew	-10.6401
▁executive	-10.6401
▁dairy	-10.6401
▁luna	-10.6401
▁charity	-10.6401
▁shortcut	-10.6401
▁gregory	-10.6401
▁quack	-10.6401
▁glorious	-10.6401
▁personnel	-10.6401
▁reflection	-10.6401
▁attic	-10.6402
▁raven	-10.6402
▁lightfoot	-10.6402
▁cabinet	-10.6402
▁naked	-10.6402
▁syne	-10.6402
▁beings	-10.6402
▁reception	-10.6402
▁robbie	-10.6402
▁turk	-10.6402
▁madison	-10.6402
▁whoops	-10.6403
▁automatic	-10.6403
▁flatter	-10.6403
▁childhood	-10.6403
▁laundry	-10.6403
▁patty	-10.6403
▁dragged	-10.6404
▁irish	-10.6404
▁silo	-10.6404
▁mexico	-10.6404
▁physical	-10.6405
▁chapin	-10.6405
▁limo	-10.6405
▁invention	-10.6405
▁shore	-10.6405
▁crank	-10.6405
▁sore	-10.6406
▁stepped	-10.6406
▁rice	-10.6407
▁gaby	-10.6408
▁zipper	-10.6408
▁nearby	-10.6408
▁gagging	-10.6408
▁anti	-10.6409
▁forty	-10.6409
▁freshman	-10.641
▁impression	-10.641
▁daddys	-10.641
▁quitting	-10.6411
▁griffin	-10.6411
▁mumbling	-10.6412
▁applauding	-10.6412
▁maxie	-10.6412
▁sonny	-10.6413
▁julien	-10.6413
▁tense	-10.6415
▁runner	-10.6415
▁humanity	-10.6415
▁triple	-10.6416
▁tada	-10.6417
▁cocky	-10.6417
▁dougie	-10.6418
▁cord	-10.642
▁ditch	-10.642
▁expression	-10.6421
▁attached	-10.6421
▁supplies	-10.6422
▁rear	-10.6423
▁barnes	-10.6425
▁cory	-10.6426
▁yah	-10.6426
▁hunch	-10.6427
▁jet	-10.6427
kin	-10.6431
▁stu	-10.6431
▁legal	-10.6432
▁jin	-10.6432
▁shovel	-10.6433
▁instructions	-10.6435
▁rookie	-10.6435
▁albert	-10.6437
▁forgetting	-10.6439
▁haunted	-10.6441
▁hah	-10.6442
▁carter	-10.6457
▁cackles	-10.6457
▁critters	-10.6457
▁crows	-10.6458
▁boxes	-10.6458
▁dusty	-10.6461
▁lick	-10.6462
▁appeared	-10.6466
▁hmmm	-10.6466
▁normally	-10.6471
▁dies	-10.6475
ath	-10.6483
▁lang	-10.6484
▁marker	-10.6485
▁allies	-10.6498
▁sailing	-10.6508
▁fung	-10.6511
xious	-10.6517
▁wonders	-10.6521
▁produce	-10.6523
▁dolphins	-10.6526
▁manners	-10.6526
ologist	-10.6528
▁this	-10.6529
▁sch	-10.6537
▁helpful	-10.6541
▁sting	-10.6548
▁towns	-10.655
▁rescued	-10.6552
▁cracking	-10.656
eat	-10.6561
▁sides	-10.6568
▁arrangements	-10.6572
▁beard	-10.658
ick	-10.6581
bag	-10.6586
▁tunnels	-10.6596
▁controll	-10.66
▁tested	-10.66
▁nut	-10.6617
▁worms	-10.6618
▁tend	-10.6627
su	-10.664
▁hells	-10.6647
▁reported	-10.6654
▁drives	-10.6664
▁tob	-10.6666
▁maids	-10.6666
▁auntie	-10.6673
▁ni	-10.6674
ap	-10.6676
▁reasons	-10.6682
▁mouthing	-10.6691
▁peek	-10.6693
els	-10.6699
▁timing	-10.6712
▁marks	-10.6718
▁islands	-10.6719
▁bulls	-10.6741
▁nod	-10.6744
iest	-10.6769
▁pine	-10.6774
▁fed	-10.6776
▁bearing	-10.6776
▁er	-10.6778
▁dada	-10.6782
▁elms	-10.6787
▁hm	-10.679
▁roses	-10.6807
▁we	-10.6813
▁dive	-10.6821
▁sin	-10.6828
▁parker	-10.6831
▁mistakes	-10.6836
▁revolution	-10.6843
fu	-10.685
▁here	-10.6853
▁rust	-10.6871
pen	-10.6872
▁goodies	-10.6877
ned	-10.6904
ang	-10.6905
▁cape	-10.6921
▁pies	-10.6932
▁captains	-10.6934
ong	-10.694
▁cousins	-10.695
▁compete	-10.6962
▁arts	-10.6966
▁waves	-10.6974
▁pant	-10.6989
▁tan	-10.701
▁skipp	-10.7023
▁te	-10.7106
gue	-10.7116
▁gates	-10.7122
▁causes	-10.7129
▁bottles	-10.7143
▁laws	-10.7144
right	-10.7155
▁rabbits	-10.7168
▁wanting	-10.7171
ello	-10.7196
▁hurting	-10.7251
▁provide	-10.7257
▁scar	-10.7263
▁loo	-10.7264
top	-10.7271
nya	-10.7278
▁flame	-10.7279
▁pattern	-10.728
▁dip	-10.7281
▁gear	-10.7284
▁await	-10.7285
▁curtain	-10.7285
▁pumpkin	-10.7285
pit	-10.7286
gar	-10.7288
▁rehearsal	-10.7289
▁temperature	-10.7289
▁drill	-10.7289
▁bucket	-10.7291
▁coffin	-10.7292
▁cent	-10.7293
▁comic	-10.7294
▁tunnel	-10.7297
▁australian	-10.7302
▁drug	-10.7302
▁folk	-10.7309
▁customer	-10.731
▁spirits	-10.7315
ois	-10.7337
▁voices	-10.7337
▁demo	-10.735
▁prayer	-10.7353
▁kills	-10.7371
▁tails	-10.7373
istic	-10.7388
und	-10.7391
ney	-10.7415
▁transform	-10.7424
▁mix	-10.7424
put	-10.7427
▁fighter	-10.7433
▁bum	-10.7435
sky	-10.744
▁dancer	-10.7445
water	-10.7445
▁drawing	-10.745
bla	-10.7452
▁cared	-10.7463
▁punish	-10.7468
face	-10.7468
▁remark	-10.7472
▁assign	-10.7472
▁twist	-10.7473
▁stress	-10.7473
▁abandon	-10.7474
▁mill	-10.7475
▁brief	-10.7483
▁ban	-10.7485
▁shoo	-10.7486
▁don	-10.7486
▁preserve	-10.7487
▁admire	-10.7487
▁replace	-10.7489
▁retire	-10.749
▁bridges	-10.7491
rr	-10.7491
six	-10.7492
play	-10.7492
free	-10.7493
piece	-10.7493
▁ignore	-10.7495
▁grim	-10.7496
▁profession	-10.7497
▁absolute	-10.7498
▁examine	-10.7499
▁goddam	-10.75
hood	-10.7503
▁mere	-10.7506
▁habit	-10.7507
▁movin	-10.7508
▁runnin	-10.7508
▁compass	-10.7508
▁achieve	-10.7509
▁compliment	-10.751
▁possess	-10.751
▁blank	-10.751
▁scram	-10.751
▁whip	-10.7511
▁advisor	-10.7511
▁assault	-10.7511
▁august	-10.7511
▁behavior	-10.7511
▁bishop	-10.7511
▁blindfold	-10.7511
▁buffet	-10.7511
▁bustopher	-10.7511
▁cemetery	-10.7511
▁circus	-10.7511
▁clumsy	-10.7511
▁crikey	-10.7511
▁delinquent	-10.7511
▁diddly	-10.7511
▁dinosaurs	-10.7511
▁discount	-10.7511
▁disgrace	-10.7511
▁distinguished	-10.7511
▁eternity	-10.7511
▁exploding	-10.7511
▁fozzie	-10.7511
▁gavin	-10.7511
▁grief	-10.7511
▁hardware	-10.7511
▁identify	-10.7511
▁inspiration	-10.7511
▁investigate	-10.7511
▁kaiser	-10.7511
▁kavula	-10.7511
▁kelp	-10.7511
▁kermie	-10.7511
▁leopard	-10.7511
▁liliane	-10.7511
▁lsabel	-10.7511
▁motel	-10.7511
▁muskie	-10.7511
▁olivia	-10.7511
▁orleans	-10.7511
▁peanut	-10.7511
▁politics	-10.7511
▁preacher	-10.7511
▁safari	-10.7511
▁schirmer	-10.7511
▁separation	-10.7511
▁skimbleshanks	-10.7511
▁tintagel	-10.7511
▁tissue	-10.7511
▁trading	-10.7511
▁undead	-10.7511
▁undercover	-10.7511
▁waitzkin	-10.7511
▁whinnies	-10.7511
▁whinnying	-10.7511
▁wimbo	-10.7511
▁casino	-10.7511
▁couid	-10.7511
▁doublecross	-10.7511
▁lenny	-10.7511
▁radar	-10.7511
▁vlad	-10.7511
▁unicorn	-10.7511
▁sequence	-10.7511
▁facing	-10.7511
▁kirk	-10.7511
▁ryan	-10.7511
▁blend	-10.7511
▁bloom	-10.7511
▁reboot	-10.7511
▁porridge	-10.7511
▁applied	-10.7511
▁gym	-10.7511
▁italy	-10.7511
▁balloon	-10.7511
▁apology	-10.7511
▁gracious	-10.7511
▁regiment	-10.7511
▁quote	-10.7511
▁conquer	-10.7511
▁maureen	-10.7511
▁drain	-10.7511
▁bradbury	-10.7511
▁agency	-10.7511
▁branch	-10.7511
▁venom	-10.7511
▁woohoo	-10.7511
▁arguing	-10.7511
▁patience	-10.7511
▁batmobile	-10.7511
▁opposite	-10.7511
▁pedal	-10.7511
▁marvelous	-10.7511
▁destination	-10.7511
▁foul	-10.7511
▁pacific	-10.7511
▁duties	-10.7511
▁trillian	-10.7511
▁civilian	-10.7512
▁lousy	-10.7512
▁dyke	-10.7512
▁depressed	-10.7512
▁reef	-10.7512
▁romance	-10.7512
▁silent	-10.7512
▁pluck	-10.7512
▁cluck	-10.7512
▁digging	-10.7512
▁employee	-10.7512
▁sniffles	-10.7512
▁tummy	-10.7512
▁manual	-10.7512
▁capital	-10.7512
▁vital	-10.7512
▁shopping	-10.7512
▁hurl	-10.7512
▁length	-10.7512
▁shield	-10.7512
▁depth	-10.7512
▁sync	-10.7512
▁disappointment	-10.7512
▁spray	-10.7513
▁scout	-10.7513
▁retirement	-10.7513
▁reaction	-10.7513
▁typical	-10.7513
▁tray	-10.7513
▁sophisticated	-10.7514
▁spark	-10.7514
▁humor	-10.7514
▁stall	-10.7514
▁scent	-10.7514
▁chirping	-10.7514
▁angle	-10.7514
▁moles	-10.7514
▁appearance	-10.7514
▁shave	-10.7514
▁fuck	-10.7514
▁qualified	-10.7515
▁crust	-10.7515
▁oak	-10.7515
▁travelling	-10.7515
▁thirsty	-10.7515
▁objective	-10.7515
▁rover	-10.7515
▁drake	-10.7516
▁magician	-10.7516
▁electricity	-10.7516
▁after	-10.7516
▁execution	-10.7516
▁alley	-10.7516
▁grey	-10.7516
▁torpedoes	-10.7516
▁yoho	-10.7516
▁technically	-10.7517
▁programmed	-10.7517
▁wholl	-10.7517
▁household	-10.7517
▁production	-10.7518
▁confirmation	-10.7518
▁soda	-10.7518
▁milles	-10.7518
▁waltz	-10.7518
▁creative	-10.7519
▁machinery	-10.752
▁plug	-10.752
▁minus	-10.752
▁forth	-10.752
▁fits	-10.7521
▁related	-10.7522
▁suggestion	-10.7522
▁sacred	-10.7522
▁passage	-10.7524
▁organized	-10.7524
▁rode	-10.7525
▁headline	-10.7526
▁tries	-10.7526
▁fairies	-10.7527
▁task	-10.7527
▁kate	-10.7528
▁gump	-10.7528
▁threatened	-10.7529
▁prime	-10.753
▁bam	-10.753
▁mayday	-10.7532
▁sole	-10.7535
▁brady	-10.7539
▁bitter	-10.7539
▁easter	-10.7543
▁tooth	-10.7544
▁richest	-10.7546
▁momma	-10.7548
▁abandoned	-10.7548
▁assigned	-10.7548
▁directly	-10.755
▁vibrations	-10.755
kg	-10.7551
▁hint	-10.7551
▁pier	-10.7552
▁removed	-10.7552
▁spoiled	-10.7553
▁brandy	-10.7554
▁pest	-10.7558
▁fork	-10.756
▁bid	-10.7561
▁wifes	-10.7564
▁den	-10.7566
▁developed	-10.7567
▁kisses	-10.7569
▁wandering	-10.7569
▁gi	-10.7569
▁frightening	-10.7569
▁psycho	-10.757
▁ft	-10.7571
▁earned	-10.7571
▁nuns	-10.7574
▁scheduled	-10.7576
▁robbers	-10.7576
▁barks	-10.7578
gon	-10.758
▁sincere	-10.758
▁served	-10.7582
▁survived	-10.7587
▁gathering	-10.7597
▁requested	-10.7606
ren	-10.7608
▁blessing	-10.7608
▁worrying	-10.762
▁rd	-10.7626
▁communications	-10.7627
▁brakes	-10.7627
▁planted	-10.7633
▁pretending	-10.7642
▁wasted	-10.7642
ple	-10.7658
ties	-10.7662
▁suffering	-10.7663
▁hiya	-10.7663
▁cameras	-10.7669
▁cor	-10.7673
▁frankly	-10.7677
▁robe	-10.7683
▁quietly	-10.7689
▁lil	-10.7698
▁spike	-10.7699
▁quicker	-10.77
▁treated	-10.77
▁honored	-10.7701
▁poll	-10.7703
▁bubbles	-10.7705
▁pri	-10.7706
▁safely	-10.771
▁traveler	-10.7713
ust	-10.7722
▁bullie	-10.7723
▁mates	-10.7731
▁cents	-10.7732
▁ages	-10.7736
▁laying	-10.7737
▁trips	-10.775
tty	-10.7751
▁ram	-10.7756
▁missiles	-10.7757
▁affairs	-10.7759
▁shown	-10.7767
▁kin	-10.7793
▁hopes	-10.7808
▁teaching	-10.7831
▁adams	-10.7836
ber	-10.7852
▁changes	-10.7854
▁dragons	-10.7863
▁lookout	-10.7874
ax	-10.7885
nie	-10.7905
▁wins	-10.7905
▁bananas	-10.7916
▁continu	-10.7917
▁fires	-10.7936
▁neighbours	-10.7969
▁grannys	-10.8007
ron	-10.8018
▁gut	-10.8019
▁dreamed	-10.8031
▁sur	-10.8048
▁mall	-10.805
bar	-10.8051
ina	-10.8059
▁planets	-10.8065
▁che	-10.8092
▁fin	-10.8111
lum	-10.8112
aah	-10.8122
car	-10.8128
▁events	-10.8143
vol	-10.8148
▁at	-10.8157
rent	-10.8162
▁engines	-10.8197
tter	-10.8217
▁eats	-10.8224
▁sum	-10.8234
▁sneeze	-10.8242
▁strings	-10.8243
▁ph	-10.8244
▁nicely	-10.8246
▁turner	-10.8251
▁some	-10.8272
aging	-10.8275
ture	-10.8288
gh	-10.8297
sho	-10.8319
▁circles	-10.8326
▁anyways	-10.8327
nda	-10.8337
ade	-10.8364
▁min	-10.8372
ood	-10.8373
▁babysit	-10.8385
▁strip	-10.8412
field	-10.8414
un	-10.8419
▁dor	-10.842
▁strikes	-10.8434
▁boats	-10.8437
▁cro	-10.8443
▁gall	-10.8451
▁partys	-10.8456
▁starv	-10.8467
bble	-10.8471
▁wound	-10.8491
ility	-10.8496
▁hen	-10.85
▁chop	-10.8504
▁comet	-10.8504
▁psych	-10.8505
▁troubles	-10.8508
▁pad	-10.8509
▁she	-10.8519
▁ka	-10.8526
▁colour	-10.853
▁exit	-10.8532
▁sailor	-10.8537
▁cheek	-10.8539
ake	-10.8545
▁swor	-10.8545
▁bubble	-10.8547
▁recipe	-10.8548
▁arrangement	-10.8548
spiker	-10.8549
▁chipmunk	-10.8555
▁sends	-10.856
▁paw	-10.8561
▁hast	-10.8565
▁germ	-10.8571
▁ducks	-10.8579
kee	-10.8591
gie	-10.8607
▁sock	-10.8611
asser	-10.8615
▁bare	-10.862
▁cells	-10.8661
▁bur	-10.8666
▁tracks	-10.867
iter	-10.8682
zo	-10.8685
ks	-10.8695
▁weigh	-10.8702
▁holds	-10.8709
▁fulfill	-10.8712
▁spawn	-10.8714
▁recommend	-10.8715
ute	-10.8719
▁invest	-10.8719
room	-10.8722
▁contain	-10.8723
▁tech	-10.8725
▁sal	-10.8731
▁tomb	-10.8733
ena	-10.8735
▁restore	-10.8736
▁wealth	-10.8738
soviet	-10.8742
▁guilt	-10.8742
▁cock	-10.8744
▁custom	-10.8745
▁practical	-10.8748
▁eve	-10.875
ities	-10.8751
▁mou	-10.8752
▁region	-10.8755
▁counsel	-10.8756
▁adopt	-10.8758
▁employ	-10.8758
five	-10.8759
▁civil	-10.8759
▁kidnap	-10.8759
sk	-10.8759
shot	-10.876
audible	-10.8761
▁adjust	-10.8761
▁cannon	-10.8761
▁bootleg	-10.8761
▁violent	-10.8761
▁annual	-10.8761
▁anonymous	-10.8761
▁apologise	-10.8761
▁aquarium	-10.8761
▁artichokie	-10.8761
▁aruk	-10.8761
▁automated	-10.8761
▁awkward	-10.8761
▁babbling	-10.8761
▁beacon	-10.8761
▁becoming	-10.8761
▁belgium	-10.8761
▁bikini	-10.8761
▁bissinger	-10.8761
▁blotz	-10.8761
▁bounty	-10.8761
▁caviar	-10.8761
▁chauffeur	-10.8761
▁circuit	-10.8761
▁civilization	-10.8761
▁clamoring	-10.8761
▁clarinet	-10.8761
▁clarissa	-10.8761
▁conscience	-10.8761
▁dungeon	-10.8761
▁eberhardt	-10.8761
▁elbow	-10.8761
▁esquire	-10.8761
▁falafel	-10.8761
▁feature	-10.8761
▁furnace	-10.8761
▁gambling	-10.8761
▁gazoo	-10.8761
▁gracie	-10.8761
▁grady	-10.8761
▁grape	-10.8761
▁hanover	-10.8761
▁heffley	-10.8761
▁helmet	-10.8761
▁hilarious	-10.8761
▁himmel	-10.8761
▁hmph	-10.8761
▁holland	-10.8761
▁humphrey	-10.8761
▁hurricane	-10.8761
▁identification	-10.8761
▁injured	-10.8761
▁institution	-10.8761
▁juvenile	-10.8761
▁keynote	-10.8761
▁liquid	-10.8761
▁lobby	-10.8761
▁luggage	-10.8761
▁macmorrow	-10.8761
▁metaphor	-10.8761
▁moscow	-10.8761
▁occupation	-10.8761
▁odile	-10.8761
▁offensive	-10.8761
▁outlaw	-10.8761
▁polk	-10.8761
▁preconceptions	-10.8761
▁pursue	-10.8761
▁reject	-10.8761
▁representative	-10.8761
▁revoir	-10.8761
▁rupert	-10.8761
▁sabotage	-10.8761
▁saliva	-10.8761
▁satisfaction	-10.8761
▁september	-10.8761
▁snores	-10.8761
▁softpaws	-10.8761
▁sorrow	-10.8761
▁squirrel	-10.8761
▁stroke	-10.8761
▁struggle	-10.8761
▁struther	-10.8761
▁sunflower	-10.8761
▁symbol	-10.8761
▁technology	-10.8761
▁terrified	-10.8761
▁unexpected	-10.8761
▁wainwright	-10.8761
▁whatsoever	-10.8761
▁wyoming	-10.8761
▁caesar	-10.8761
▁drix	-10.8761
▁explosive	-10.8761
▁jersey	-10.8761
▁machete	-10.8761
▁ncaa	-10.8761
▁scandal	-10.8761
▁sexual	-10.8761
▁slaughter	-10.8761
▁smite	-10.8761
▁ufo	-10.8761
▁buddies	-10.8761
▁iike	-10.8761
▁knives	-10.8761
▁stallyn	-10.8761
▁vault	-10.8761
▁granada	-10.8761
▁imitating	-10.8761
▁tarik	-10.8761
▁wailing	-10.8761
▁racing	-10.8761
▁allamerican	-10.8761
▁district	-10.8761
▁fierce	-10.8761
▁puddle	-10.8761
▁wiggin	-10.8761
▁identity	-10.8761
▁memorial	-10.8761
▁tolerate	-10.8761
▁crystal	-10.8761
▁sophie	-10.8761
▁vessel	-10.8761
▁wages	-10.8761
▁ivory	-10.8761
▁hans	-10.8761
▁flippers	-10.8761
▁fireworks	-10.8761
▁vicious	-10.8761
▁wakati	-10.8761
▁jeff	-10.8761
▁despite	-10.8761
▁hitchhikers	-10.8761
▁suspicious	-10.8761
▁chemical	-10.8761
▁gipping	-10.8761
▁breed	-10.8761
▁bidding	-10.8761
▁humina	-10.8761
▁dedicate	-10.8761
▁reference	-10.8761
▁whorehouse	-10.8761
▁canada	-10.8761
▁typewriter	-10.8761
▁arriving	-10.8761
▁burden	-10.8761
▁coleye	-10.8761
▁downtown	-10.8761
▁sup	-10.8761
▁fantasies	-10.8761
▁ltaly	-10.8761
▁proposition	-10.8762
▁gig	-10.8762
▁puppy	-10.8762
▁krim	-10.8762
▁neighbourhood	-10.8762
▁closing	-10.8762
▁ahoy	-10.8762
▁pursuit	-10.8762
▁jewelry	-10.8762
▁seville	-10.8762
▁flashlight	-10.8762
▁television	-10.8762
▁cried	-10.8762
▁occurred	-10.8762
▁jeanette	-10.8762
▁ashley	-10.8762
▁wagon	-10.8762
▁puke	-10.8762
▁haveyou	-10.8762
▁enterprise	-10.8762
▁giri	-10.8762
▁indoor	-10.8762
▁rapping	-10.8762
▁welch	-10.8762
▁wyl	-10.8762
▁estate	-10.8762
▁beak	-10.8762
▁route	-10.8762
▁rummag	-10.8763
▁obey	-10.8763
▁milton	-10.8763
▁critical	-10.8763
▁ox	-10.8763
▁slice	-10.8763
▁agh	-10.8763
▁groom	-10.8763
▁paperwork	-10.8764
▁flea	-10.8764
▁myth	-10.8764
▁eugene	-10.8764
▁cooi	-10.8764
▁bounce	-10.8764
▁oath	-10.8764
▁rumble	-10.8764
▁dishes	-10.8765
▁sector	-10.8765
▁unborn	-10.8765
▁emotional	-10.8765
▁kitten	-10.8765
▁drinkwater	-10.8766
▁poisonous	-10.8766
▁broadway	-10.8766
▁godfather	-10.8766
▁web	-10.8766
▁psst	-10.8766
▁freezing	-10.8766
▁clawson	-10.8767
▁keen	-10.8767
▁mobile	-10.8767
▁courtland	-10.8767
▁valve	-10.8767
▁hawke	-10.8768
▁assist	-10.8768
▁stalk	-10.8768
▁sensitive	-10.8768
▁sneakers	-10.8768
▁elsewhere	-10.8768
▁kart	-10.8768
▁jamie	-10.8769
▁richardson	-10.8769
▁roommate	-10.877
▁stung	-10.877
▁entry	-10.877
▁indicate	-10.8771
▁unlike	-10.8771
▁perth	-10.8771
▁bleh	-10.8771
itive	-10.8771
▁hugh	-10.8771
▁determined	-10.8772
▁inspired	-10.8772
▁appetite	-10.8772
▁mason	-10.8772
▁hacker	-10.8772
▁geek	-10.8773
▁peru	-10.8773
▁ciao	-10.8773
▁footage	-10.8773
▁squash	-10.8773
▁mullet	-10.8774
▁carries	-10.8774
▁nur	-10.8775
▁romeo	-10.8775
▁itch	-10.8776
▁realise	-10.8776
▁tug	-10.8777
▁woodsman	-10.8777
▁sixty	-10.8777
havin	-10.8777
▁bulldozer	-10.8778
▁reel	-10.8779
▁worthless	-10.878
▁dough	-10.878
▁inn	-10.8782
▁didi	-10.8784
▁spat	-10.8785
▁erase	-10.8786
▁cue	-10.8788
▁angeles	-10.8788
get	-10.8792
▁they	-10.8792
▁backyard	-10.8793
▁invented	-10.8794
▁hike	-10.8794
▁grin	-10.8796
▁gay	-10.8796
▁hollow	-10.8799
▁label	-10.88
▁policeman	-10.8804
▁exploded	-10.8805
▁details	-10.8807
▁biting	-10.8807
▁spur	-10.8808
▁wiped	-10.8809
▁viper	-10.881
▁ensur	-10.8811
▁bien	-10.8812
▁solved	-10.8814
▁stare	-10.8814
ell	-10.8817
▁union	-10.8819
▁regarding	-10.8821
▁unable	-10.8822
▁rag	-10.8822
flint	-10.8823
▁delivery	-10.8823
▁recognized	-10.8823
▁hitch	-10.8826
▁nailed	-10.8827
▁mick	-10.8829
▁por	-10.883
▁relatives	-10.8835
▁coyotes	-10.8835
▁prawns	-10.8835
▁nervously	-10.8836
▁gathered	-10.8839
▁sling	-10.884
headed	-10.884
▁ruby	-10.884
▁lighten	-10.8841
lot	-10.8844
▁lily	-10.8846
▁guessed	-10.8852
▁swallowed	-10.8854
▁confirmed	-10.8856
▁coaches	-10.8856
▁hare	-10.8857
▁assumed	-10.8859
▁sneaking	-10.8859
▁evan	-10.8864
▁instincts	-10.8864
▁shivers	-10.8865
▁cheating	-10.8867
▁pr	-10.887
▁thrown	-10.8871
▁pope	-10.8876
▁lan	-10.8879
▁tighter	-10.8887
▁collecting	-10.8891
▁stations	-10.8892
▁provo	-10.8894
▁vogons	-10.8894
▁juns	-10.8894
▁risky	-10.8898
▁scan	-10.8902
▁chequ	-10.8907
▁cookies	-10.8907
oui	-10.891
omic	-10.8912
very	-10.8916
authorized	-10.8919
▁seize	-10.8921
▁slippers	-10.8924
▁visitors	-10.8924
range	-10.8926
▁transferr	-10.893
▁ohhh	-10.8933
▁realm	-10.8938
▁culture	-10.8945
▁messy	-10.8947
▁machines	-10.8949
gas	-10.895
▁traveled	-10.8952
▁snacks	-10.8953
▁belonged	-10.8954
▁jumpy	-10.8958
▁bothered	-10.8966
▁foryou	-10.8966
▁feeding	-10.8966
▁sticky	-10.8969
▁musical	-10.8969
▁charged	-10.8969
▁tire	-10.8971
▁rely	-10.8971
ugh	-10.8977
▁damp	-10.8979
zed	-10.8982
▁shared	-10.8986
▁blues	-10.8999
▁hesitates	-10.9003
▁bal	-10.901
▁bothering	-10.9018
▁prayers	-10.9029
bra	-10.9037
▁computers	-10.9039
▁what	-10.9041
▁cigarettes	-10.9043
▁boyd	-10.9059
opat	-10.906
▁mulle	-10.9066
▁illness	-10.907
▁options	-10.9073
▁bullets	-10.9073
▁rebel	-10.9075
food	-10.9098
▁nem	-10.9099
tes	-10.9102
▁magazines	-10.9103
▁feared	-10.9105
▁drops	-10.9108
bit	-10.9112
▁pipes	-10.9113
▁pushed	-10.9118
▁naive	-10.9128
nows	-10.9133
▁deed	-10.9134
▁mil	-10.9144
gai	-10.9158
▁mammoths	-10.9164
▁abs	-10.9164
lapping	-10.9183
▁detectives	-10.9225
▁deer	-10.923
▁incidents	-10.9233
all	-10.9244
lea	-10.9253
▁adults	-10.9255
ral	-10.9258
▁shines	-10.9269
▁li	-10.9273
▁bot	-10.928
mate	-10.9285
▁adventures	-10.9289
▁sucks	-10.9315
aunt	-10.9317
tuna	-10.9324
▁sn	-10.9335
▁queens	-10.9336
▁danced	-10.9338
iers	-10.934
ice	-10.9342
▁shoulders	-10.9348
▁bakers	-10.9348
▁presents	-10.9366
▁hose	-10.9375
▁bel	-10.9378
▁photos	-10.9381
▁her	-10.9406
▁sails	-10.9415
chi	-10.9425
ime	-10.9432
▁sc	-10.9474
▁cleared	-10.9475
▁aliens	-10.9503
▁grounds	-10.9527
▁mati	-10.9533
▁sounding	-10.954
bach	-10.9546
ash	-10.955
col	-10.9555
ins	-10.9557
▁est	-10.9558
ele	-10.9559
lie	-10.9563
▁baba	-10.9563
▁cakes	-10.9567
▁exists	-10.9569
▁pockets	-10.9598
▁via	-10.9626
▁wil	-10.9644
will	-10.9656
cha	-10.9659
▁wheels	-10.966
▁stat	-10.9664
▁becomes	-10.9675
itation	-10.9687
▁springs	-10.9693
▁ei	-10.9706
▁covers	-10.9711
tically	-10.9712
▁sings	-10.9713
▁walker	-10.9724
▁fri	-10.9745
▁aunts	-10.9748
▁grows	-10.9751
ids	-10.9752
any	-10.9768
of	-10.9776
▁wi	-10.9794
▁click	-10.9805
▁tab	-10.9812
▁ami	-10.9818
▁bats	-10.9819
▁accounts	-10.9822
▁dep	-10.9824
▁qui	-10.9826
eck	-10.9856
lush	-10.987
▁on	-10.9889
▁keeper	-10.989
▁strain	-10.9897
nic	-10.9899
▁fights	-10.99
▁ana	-10.9906
▁flak	-10.9913
▁fright	-10.9913
ddy	-10.9921
bal	-10.9923
lier	-10.9926
▁sigh	-10.9927
▁medic	-10.9944
owned	-10.9947
▁chips	-10.9955
▁battalion	-10.9957
▁breeze	-10.9957
▁reservation	-10.9957
▁technique	-10.9957
▁parad	-10.9958
▁gunshot	-10.996
ping	-10.996
▁connection	-10.9961
eau	-10.9963
▁puppet	-10.9964
▁whore	-10.9964
▁generation	-10.9964
▁cd	-10.9964
▁review	-10.9965
▁snack	-10.9973
▁hesitate	-10.9975
▁tool	-10.9978
▁degree	-10.9981
how	-10.9983
nes	-10.9985
inky	-10.9987
▁growl	-10.9989
▁masters	-10.9991
▁chap	-10.9992
ular	-11.0002
▁toe	-11.0024
key	-11.0046
▁stir	-11.0053
▁dec	-11.0059
▁publish	-11.006
▁owl	-11.0064
▁grove	-11.0068
hat	-11.008
▁untie	-11.0091
▁strap	-11.0099
▁sketch	-11.0106
▁tick	-11.0111
▁tradition	-11.0122
epo	-11.0126
▁hack	-11.0126
▁invent	-11.0126
▁ach	-11.0131
▁lap	-11.0133
▁dom	-11.0136
ame	-11.0137
can	-11.0138
▁that	-11.014
▁splash	-11.014
▁surf	-11.0146
▁affect	-11.0147
▁melvin	-11.0148
handed	-11.0149
▁establish	-11.015
▁reveal	-11.0151
▁disappoint	-11.0151
▁mug	-11.0152
▁dismiss	-11.0152
▁pour	-11.0152
▁trans	-11.0153
▁exhaust	-11.0153
▁doom	-11.016
place	-11.016
born	-11.0164
▁flow	-11.0166
▁describe	-11.0167
▁compare	-11.0167
bound	-11.0167
walk	-11.0167
train	-11.0168
▁fift	-11.0169
▁gato	-11.017
▁hors	-11.0171
skull	-11.0171
school	-11.0171
chair	-11.0172
▁snip	-11.0173
▁oat	-11.0173
type	-11.0173
dont	-11.0174
▁fortunate	-11.0175
human	-11.0176
boat	-11.0176
▁constant	-11.0176
▁log	-11.0177
hole	-11.0179
▁recent	-11.0181
▁execut	-11.0182
▁torpedo	-11.0183
▁shots	-11.0185
▁kat	-11.0186
▁knuck	-11.0186
▁livin	-11.0186
▁sixteen	-11.0188
▁unconscious	-11.0188
▁shipp	-11.0188
▁argh	-11.0188
▁darlin	-11.0189
▁prank	-11.0189
▁corrupt	-11.0189
▁forbid	-11.0189
▁electron	-11.0189
misunderstanding	-11.019
▁airplane	-11.019
▁amulet	-11.019
▁approval	-11.019
▁atlantis	-11.019
▁batcave	-11.019
▁bellhop	-11.019
▁beware	-11.019
▁brannit	-11.019
▁cabillo	-11.019
▁calendar	-11.019
▁catholic	-11.019
▁celebrity	-11.019
▁coordinates	-11.019
▁curiosity	-11.019
▁dawg	-11.019
▁dignity	-11.019
▁domestic	-11.019
▁election	-11.019
▁equipped	-11.019
▁facility	-11.019
▁fountain	-11.019
▁guignol	-11.019
▁hartmann	-11.019
▁imprisoned	-11.019
▁improbability	-11.019
▁jaguar	-11.019
▁jenkins	-11.019
▁kikuyu	-11.019
▁kilbourne	-11.019
▁liberty	-11.019
▁madagascar	-11.019
▁mckeltch	-11.019
▁mistress	-11.019
▁mvp	-11.019
▁nassau	-11.019
▁negative	-11.019
▁oldfashioned	-11.019
▁orchard	-11.019
▁peopie	-11.019
▁perfume	-11.019
▁periscope	-11.019
▁petunia	-11.019
▁population	-11.019
▁procedure	-11.019
▁propeller	-11.019
▁province	-11.019
▁puberty	-11.019
▁quintel	-11.019
▁response	-11.019
▁resumes	-11.019
▁rinaldi	-11.019
▁satisfied	-11.019
▁sedative	-11.019
▁shabby	-11.019
▁shotgun	-11.019
▁shuffle	-11.019
▁socalled	-11.019
▁solution	-11.019
▁stadium	-11.019
▁stanley	-11.019
▁stereo	-11.019
▁struck	-11.019
▁supervisor	-11.019
▁theodora	-11.019
▁tournament	-11.019
▁umbrella	-11.019
▁unhappy	-11.019
▁unpleasant	-11.019
▁vacuum	-11.019
▁vegetarian	-11.019
▁veryfar	-11.019
▁vigusian	-11.019
▁violence	-11.019
▁waiver	-11.019
▁wharton	-11.019
▁whiskey	-11.019
▁wisconsin	-11.019
▁yoohoo	-11.019
▁assassin	-11.019
▁baffl	-11.019
▁chorus	-11.019
▁counterattack	-11.019
▁error	-11.019
▁introduction	-11.019
▁iowa	-11.019
▁judging	-11.019
▁lajoie	-11.019
▁leather	-11.019
▁lodge	-11.019
▁mawr	-11.019
▁profound	-11.019
▁sofa	-11.019
▁steak	-11.019
▁clerk	-11.019
▁eager	-11.019
▁federal	-11.019
▁footprints	-11.019
▁melodrama	-11.019
▁niece	-11.019
▁reaper	-11.019
▁reign	-11.019
▁session	-11.019
▁appeal	-11.019
▁buoy	-11.019
▁hysterical	-11.019
▁trousers	-11.019
▁larry	-11.019
▁begging	-11.019
▁menace	-11.019
▁telegram	-11.019
▁survivors	-11.019
▁zamu	-11.019
▁aisle	-11.019
▁cornwall	-11.019
▁relations	-11.019
▁excess	-11.019
▁hank	-11.019
▁shelf	-11.019
▁generator	-11.019
▁republican	-11.019
▁hawkins	-11.019
▁lgor	-11.019
▁mustache	-11.019
▁opposition	-11.019
▁joanne	-11.019
happily	-11.019
▁yummy	-11.019
▁fortyfive	-11.019
▁ransom	-11.019
▁disrespect	-11.019
▁aggressive	-11.019
▁carpet	-11.019
▁essay	-11.019
▁leonard	-11.019
▁plankton	-11.019
▁alumn	-11.019
▁francisco	-11.019
▁phase	-11.019
▁lecture	-11.019
▁wrinkle	-11.019
▁description	-11.019
▁online	-11.019
▁banner	-11.019
▁lemonade	-11.019
▁referring	-11.019
▁comedian	-11.019
▁blake	-11.019
▁neville	-11.019
▁companion	-11.019
▁nadine	-11.019
▁chemist	-11.019
▁dickens	-11.019
▁sheep	-11.019
▁album	-11.019
▁recess	-11.019
▁pimp	-11.019
▁reckon	-11.019
▁maude	-11.019
▁avenue	-11.019
▁blixen	-11.019
▁delightful	-11.0191
▁instructor	-11.0191
▁traitor	-11.0191
▁yuck	-11.0191
▁passionate	-11.0191
▁unnatural	-11.0191
▁scatting	-11.0191
▁blaming	-11.0191
▁intention	-11.0191
▁embrace	-11.0191
▁grasp	-11.0191
▁troll	-11.0191
▁begged	-11.0191
▁pulse	-11.0191
▁network	-11.0191
▁frozen	-11.0191
▁gordon	-11.0191
▁accomplishment	-11.0191
▁mounties	-11.0191
▁series	-11.0191
▁pony	-11.0191
▁dimension	-11.0191
▁ltalian	-11.0191
▁privilege	-11.0191
▁craft	-11.0191
▁pellets	-11.0191
▁therapy	-11.0191
▁underground	-11.0191
▁independent	-11.0191
▁mental	-11.0191
▁minister	-11.0192
▁skinny	-11.0192
▁dday	-11.0192
▁bunion	-11.0192
▁dropbox	-11.0192
▁rubble	-11.0192
▁inaudible	-11.0192
▁accidentally	-11.0192
keep	-11.0192
plement	-11.0192
▁spill	-11.0192
▁mutters	-11.0192
▁happier	-11.0192
▁massive	-11.0192
▁cheerful	-11.0193
▁moonlight	-11.0193
▁unload	-11.0193
▁patton	-11.0193
▁villain	-11.0193
▁timmy	-11.0193
▁yahoo	-11.0193
▁potatoes	-11.0193
▁rug	-11.0193
▁stuntman	-11.0193
▁gateway	-11.0194
▁pox	-11.0194
▁summon	-11.0194
▁sidewalk	-11.0194
▁refer	-11.0194
▁soil	-11.0194
▁eagleton	-11.0194
▁eighteen	-11.0194
▁raid	-11.0194
▁trunk	-11.0194
▁pki	-11.0194
▁hallway	-11.0194
▁villagers	-11.0194
▁historical	-11.0195
▁dull	-11.0195
▁razo	-11.0195
▁trophy	-11.0195
▁waddl	-11.0195
▁mica	-11.0195
▁swan	-11.0195
▁senat	-11.0196
▁tourist	-11.0196
▁flown	-11.0196
▁counselor	-11.0196
▁overtime	-11.0196
▁riverton	-11.0196
▁benny	-11.0196
▁flies	-11.0196
▁bandage	-11.0196
▁presidential	-11.0197
▁booth	-11.0197
▁rib	-11.0197
inister	-11.0197
▁mmmmm	-11.0197
▁european	-11.0198
▁broad	-11.0198
▁rang	-11.0198
▁oven	-11.0198
▁poem	-11.0198
▁bugle	-11.0198
▁rapidly	-11.0199
▁barge	-11.0199
kind	-11.0199
▁zachary	-11.0199
▁dc	-11.0199
▁wool	-11.02
▁tutor	-11.02
▁berlin	-11.02
▁hideous	-11.02
▁hq	-11.02
▁temper	-11.0201
▁feei	-11.0202
▁robotic	-11.0202
▁fried	-11.0203
▁approaches	-11.0203
eroni	-11.0203
▁email	-11.0203
▁through	-11.0203
▁committed	-11.0203
▁isolated	-11.0203
▁antique	-11.0204
▁peck	-11.0205
▁reai	-11.0207
▁standard	-11.0207
▁fame	-11.0207
▁snooping	-11.0208
▁trespassing	-11.0208
▁scraping	-11.0208
▁crest	-11.0209
▁vanished	-11.021
▁mui	-11.0211
▁compared	-11.0212
ations	-11.0213
▁mee	-11.0213
▁examiner	-11.0213
mar	-11.0213
▁fist	-11.0214
▁internal	-11.0215
▁kenne	-11.0215
▁instantly	-11.0216
▁systems	-11.0217
▁vine	-11.0219
▁purser	-11.022
▁shipment	-11.022
▁trailer	-11.0221
▁loosen	-11.0222
▁retired	-11.0223
▁echoing	-11.0223
▁update	-11.0223
▁dia	-11.0225
▁usses	-11.0226
▁dismissed	-11.0228
▁doomed	-11.0228
▁published	-11.0228
▁thus	-11.0229
▁strongest	-11.023
▁gator	-11.0231
▁cra	-11.0232
▁lace	-11.0234
▁andrea	-11.0235
▁gar	-11.0238
▁twisted	-11.0239
▁cutting	-11.0241
▁stamps	-11.0242
▁thuds	-11.0242
▁endless	-11.0243
wan	-11.0244
▁showtime	-11.0244
▁spawning	-11.0245
▁circulat	-11.0247
▁required	-11.0247
▁shade	-11.0248
esis	-11.025
▁blink	-11.0253
▁naturally	-11.0253
▁asses	-11.0254
▁heywood	-11.0256
▁pals	-11.0256
▁sensei	-11.0257
▁hopeless	-11.0258
▁pup	-11.0259
▁hunger	-11.026
▁funk	-11.0262
▁pinky	-11.0267
▁pissed	-11.0269
▁charts	-11.0277
▁shocked	-11.0281
▁bry	-11.0282
▁daytime	-11.0288
▁eu	-11.0291
▁smashing	-11.0296
▁lung	-11.0302
▁pul	-11.0303
▁gogh	-11.0304
▁talented	-11.0304
▁jacques	-11.0304
▁pearls	-11.031
▁jilly	-11.0316
▁fairly	-11.0319
▁actions	-11.0322
▁ohoh	-11.0322
active	-11.0322
▁dreamt	-11.0326
▁tasted	-11.0334
▁walkon	-11.0334
tical	-11.0334
▁howdy	-11.0338
▁treaty	-11.0339
▁dope	-11.0341
▁payments	-11.0344
▁riddles	-11.0344
▁existed	-11.0349
▁sucker	-11.0353
▁poisoned	-11.0357
▁entered	-11.0358
tain	-11.0359
▁climbed	-11.0359
▁shortly	-11.0363
▁tricky	-11.037
▁tal	-11.0372
▁clients	-11.0379
▁emotions	-11.0379
▁printer	-11.0381
row	-11.0387
ency	-11.0389
ors	-11.0395
▁standin	-11.0398
▁medi	-11.0399
▁chaps	-11.0413
▁considering	-11.0423
▁bunk	-11.0426
▁ir	-11.0431
nn	-11.0436
▁disapprove	-11.0442
▁germs	-11.0448
▁dictate	-11.0449
▁fuller	-11.0452
▁talks	-11.0463
▁cooked	-11.0466
▁poster	-11.0473
▁coffins	-11.0483
▁packing	-11.0484
▁imagined	-11.0485
▁hei	-11.0491
▁tricked	-11.0495
ability	-11.0496
▁speeding	-11.0496
▁ay	-11.0505
▁marshall	-11.0506
▁tracking	-11.0513
▁photographs	-11.0518
▁stings	-11.0518
▁elephants	-11.0518
▁pirates	-11.0518
die	-11.0521
▁franks	-11.0524
▁patch	-11.0529
eight	-11.0532
▁searching	-11.0536
▁char	-11.0537
▁kicked	-11.0545
▁stays	-11.0552
▁lightly	-11.0554
▁grandmas	-11.0556
ama	-11.0569
cr	-11.057
▁inf	-11.0571
▁bangs	-11.0578
where	-11.0579
▁facts	-11.0584
▁sala	-11.0596
▁mouths	-11.0602
▁explosions	-11.0624
▁cigars	-11.0624
▁arrives	-11.0625
▁oof	-11.0627
▁scramble	-11.063
▁bor	-11.0665
▁nicer	-11.0677
▁melt	-11.0679
▁losers	-11.0682
▁drums	-11.0693
▁results	-11.0696
▁formal	-11.0705
▁pushing	-11.0715
▁chin	-11.0717
▁severe	-11.072
▁nightmares	-11.0732
▁nations	-11.0734
▁nu	-11.0735
▁guessing	-11.0738
min	-11.0765
▁clouds	-11.0767
▁patients	-11.0767
▁cuts	-11.0769
▁coins	-11.077
▁val	-11.0779
dest	-11.0781
▁joes	-11.0795
▁sire	-11.0795
▁claims	-11.0796
▁sleepy	-11.0797
▁boxing	-11.0805
▁evacuate	-11.0838
▁coconuts	-11.084
▁chickens	-11.084
▁fianc	-11.0861
ome	-11.0871
▁russians	-11.0876
▁winners	-11.0876
▁winds	-11.0877
lan	-11.0879
▁jac	-11.0881
ception	-11.0904
shed	-11.0915
▁quarters	-11.0915
▁getyou	-11.0917
▁crate	-11.0924
▁ail	-11.0942
▁funds	-11.0953
point	-11.0953
▁spits	-11.0976
▁trusted	-11.0978
eyed	-11.0982
▁beasts	-11.0986
▁directions	-11.0987
▁serves	-11.0989
tze	-11.0998
▁dim	-11.1005
▁toys	-11.1007
ove	-11.1017
▁kr	-11.1045
▁shirts	-11.106
used	-11.1088
▁pend	-11.1089
its	-11.1092
▁dime	-11.1096
era	-11.1121
▁tar	-11.113
▁sod	-11.1143
▁peep	-11.1152
pan	-11.1163
ino	-11.1174
tail	-11.1176
▁ron	-11.1194
▁prices	-11.1209
▁angels	-11.1209
▁wink	-11.1231
▁buildings	-11.1236
▁brag	-11.1244
eous	-11.1257
gan	-11.1267
arm	-11.127
▁booked	-11.1276
▁tongues	-11.1284
▁lawyers	-11.1284
▁stor	-11.1298
even	-11.1302
test	-11.1303
youre	-11.131
▁wand	-11.1364
▁opera	-11.1368
ante	-11.137
▁burns	-11.1371
cou	-11.1393
yard	-11.14
zi	-11.1421
ieve	-11.1437
▁operations	-11.1437
pers	-11.144
▁tucks	-11.1442
▁yanke	-11.1447
ames	-11.1448
ological	-11.147
▁med	-11.1471
▁cary	-11.1471
▁interests	-11.1486
val	-11.1508
▁missy	-11.153
kes	-11.1535
▁fellows	-11.1553
▁noises	-11.1553
rated	-11.156
▁bore	-11.1586
▁rains	-11.1595
ened	-11.1596
▁heroic	-11.1604
com	-11.1604
▁include	-11.1607
east	-11.1618
▁bent	-11.1621
▁fo	-11.1622
▁cartoon	-11.1623
bling	-11.1624
▁cheerleader	-11.1624
▁rockefeller	-11.1624
▁wednesday	-11.1624
▁relay	-11.1624
▁princes	-11.1626
fin	-11.1629
▁emotion	-11.1632
▁item	-11.1633
▁there	-11.1634
▁knot	-11.1634
▁zuzu	-11.1634
▁document	-11.1634
▁client	-11.1638
▁slipper	-11.1642
▁ja	-11.1642
▁warrior	-11.1644
▁dolphin	-11.1644
▁klopek	-11.1645
▁oop	-11.1651
▁fade	-11.1651
▁beside	-11.1653
gen	-11.1655
▁temp	-11.1659
▁visitor	-11.1663
mic	-11.1665
▁radi	-11.1668
doubted	-11.1669
▁speeds	-11.1677
uttering	-11.1683
▁bub	-11.1685
ffel	-11.1687
cru	-11.1688
cent	-11.1688
▁accidents	-11.1709
▁oblig	-11.1714
▁manner	-11.1716
table	-11.1744
▁terror	-11.1744
▁ruff	-11.1748
jack	-11.1754
ctic	-11.1778
▁theo	-11.1781
▁hoo	-11.1784
▁ideal	-11.1785
▁areas	-11.1788
bu	-11.1794
▁signs	-11.1794
▁discover	-11.1798
▁ren	-11.1799
fish	-11.1801
ini	-11.1801
▁aid	-11.1804
▁defy	-11.1804
▁mourn	-11.1806
▁distract	-11.1808
▁ri	-11.181
▁attach	-11.1811
say	-11.1815
▁accomplish	-11.1815
▁fold	-11.1819
▁honour	-11.1819
cut	-11.1821
word	-11.1829
▁activate	-11.1831
▁resolve	-11.1831
▁approve	-11.1833
▁frame	-11.1834
▁arrange	-11.1834
▁silk	-11.1834
▁brie	-11.1834
wind	-11.1835
▁commission	-11.1835
▁restrain	-11.1836
daughter	-11.1836
▁glide	-11.1837
▁milli	-11.1837
wise	-11.1838
minded	-11.1838
bury	-11.1839
▁gamble	-11.184
▁toll	-11.1842
▁incredibl	-11.1844
▁brit	-11.1845
▁merchan	-11.1848
▁cockroach	-11.1849
▁mode	-11.1849
▁cruise	-11.1849
▁bald	-11.1849
stick	-11.1849
▁tap	-11.185
▁commun	-11.1851
▁cloth	-11.1851
▁vexin	-11.1852
ically	-11.1852
▁norm	-11.1852
▁ferr	-11.1853
▁deposit	-11.1853
▁infect	-11.1854
▁kiddin	-11.1854
▁addict	-11.1854
▁atta	-11.1854
▁install	-11.1854
▁earl	-11.1855
new	-11.1855
▁fau	-11.1855
▁roman	-11.1855
▁journal	-11.1856
▁burro	-11.1856
▁sew	-11.1856
▁straw	-11.1856
▁vocal	-11.1856
▁devot	-11.1856
▁inhabit	-11.1856
▁reluctant	-11.1856
▁speculat	-11.1856
▁activities	-11.1856
▁admission	-11.1856
▁alternative	-11.1856
▁ambush	-11.1856
▁ammunition	-11.1856
▁anastasia	-11.1856
▁ancestor	-11.1856
▁antidote	-11.1856
▁arizona	-11.1856
▁aspirin	-11.1856
▁baboons	-11.1856
▁behalf	-11.1856
▁behaviour	-11.1856
▁beryl	-11.1856
▁bluebeard	-11.1856
▁bourbon	-11.1856
▁brooklyn	-11.1856
▁burrito	-11.1856
▁cabbage	-11.1856
▁camouflage	-11.1856
▁celebrating	-11.1856
▁censor	-11.1856
▁chandelier	-11.1856
▁chitchat	-11.1856
▁choking	-11.1856
▁clark	-11.1856
▁combination	-11.1856
▁comprehend	-11.1856
▁connors	-11.1856
▁cottage	-11.1856
▁creaks	-11.1856
▁delusion	-11.1856
▁dempsey	-11.1856
▁doughnut	-11.1856
▁dushanbe	-11.1856
▁easiest	-11.1856
▁economy	-11.1856
▁erwin	-11.1856
▁excitement	-11.1856
▁facilities	-11.1856
▁fenderbaum	-11.1856
▁fluffy	-11.1856
▁gardiner	-11.1856
▁gibberish	-11.1856
▁glgs	-11.1856
▁godmother	-11.1856
▁gratitude	-11.1856
▁gypsy	-11.1856
▁halloween	-11.1856
▁hightower	-11.1856
▁hobby	-11.1856
▁horror	-11.1856
▁industry	-11.1856
▁infirmary	-11.1856
▁ingenious	-11.1856
▁investigating	-11.1856
▁investigative	-11.1856
▁judgment	-11.1856
▁kangaroo	-11.1856
▁khan	-11.1856
▁knapps	-11.1856
▁kodo	-11.1856
▁kramer	-11.1856
▁lincoln	-11.1856
▁lolita	-11.1856
▁lyric	-11.1856
▁macarena	-11.1856
▁mcgovern	-11.1856
▁mcmillan	-11.1856
▁mertin	-11.1856
▁millbarge	-11.1856
▁mombasa	-11.1856
▁monstrous	-11.1856
▁montgomery	-11.1856
▁mortgage	-11.1856
▁muiranthias	-11.1856
▁muslim	-11.1856
▁necessarily	-11.1856
▁nigel	-11.1856
▁nijmegen	-11.1856
▁nintendo	-11.1856
▁nitwit	-11.1856
▁nowadays	-11.1856
▁nutmeg	-11.1856
▁octopus	-11.1856
▁okeydoke	-11.1856
▁orchestra	-11.1856
▁osmosis	-11.1856
▁perimeter	-11.1856
▁phlurm	-11.1856
▁pistol	-11.1856
▁pittsburgh	-11.1856
▁platoon	-11.1856
▁premises	-11.1856
▁proposal	-11.1856
▁pyramid	-11.1856
▁recognise	-11.1856
▁rehydrate	-11.1856
▁reinforcements	-11.1856
▁reopen	-11.1856
▁roosevelt	-11.1856
▁rubbish	-11.1856
▁ruh	-11.1856
▁rumpelteazer	-11.1856
▁scaredycat	-11.1856
▁shoplift	-11.1856
▁signature	-11.1856
▁similar	-11.1856
▁smack	-11.1856
▁soothing	-11.1856
▁stacey	-11.1856
▁staircase	-11.1856
▁steckler	-11.1856
▁stepsisters	-11.1856
▁struggling	-11.1856
▁suspicion	-11.1856
▁taylor	-11.1856
▁temporarily	-11.1856
▁thorough	-11.1856
▁tokyo	-11.1856
▁transplant	-11.1856
▁tynah	-11.1856
▁ucla	-11.1856
▁underwear	-11.1856
▁veterinarian	-11.1856
▁volcano	-11.1856
▁yawning	-11.1856
▁afterwards	-11.1856
▁britain	-11.1856
▁bruise	-11.1856
▁bulk	-11.1856
▁clinic	-11.1856
▁condemn	-11.1856
▁conrad	-11.1856
▁elegan	-11.1856
▁lavender	-11.1856
▁phew	-11.1856
▁phillips	-11.1856
▁southwest	-11.1856
▁terence	-11.1856
▁thug	-11.1856
▁wretch	-11.1856
▁amusing	-11.1856
▁babbles	-11.1856
▁bueno	-11.1856
▁monaster	-11.1856
▁offend	-11.1856
▁seventeen	-11.1856
▁stray	-11.1856
▁virgi	-11.1856
▁wallace	-11.1856
▁combined	-11.1856
▁constable	-11.1856
▁martinez	-11.1856
▁apprentice	-11.1856
▁holt	-11.1856
▁ambien	-11.1856
▁reilly	-11.1856
▁bradlee	-11.1856
▁narrow	-11.1856
▁panero	-11.1856
▁pudding	-11.1856
▁scalp	-11.1856
▁yelp	-11.1856
▁hyperspace	-11.1856
▁fragile	-11.1856
▁joelle	-11.1856
▁lease	-11.1856
▁masai	-11.1856
▁banquet	-11.1856
▁magnificent	-11.1856
dise	-11.1856
▁whiz	-11.1856
▁pregnant	-11.1856
▁violation	-11.1856
▁waitress	-11.1856
▁environment	-11.1856
▁globe	-11.1856
▁carrot	-11.1856
scill	-11.1857
▁bolt	-11.1857
▁download	-11.1857
▁residence	-11.1857
▁polish	-11.1857
▁microphone	-11.1857
▁prompt	-11.1857
▁skimble	-11.1857
▁heaveho	-11.1857
▁predict	-11.1857
▁luther	-11.1857
▁outrageous	-11.1857
▁believing	-11.1857
▁blob	-11.1857
▁jazz	-11.1857
▁toronto	-11.1857
▁festival	-11.1857
▁visual	-11.1857
▁propose	-11.1857
▁forbidden	-11.1857
▁groov	-11.1857
luja	-11.1857
▁rabble	-11.1857
▁nickname	-11.1857
▁pompo	-11.1857
▁overthrow	-11.1857
▁bonnie	-11.1857
▁kenny	-11.1857
▁occasional	-11.1857
▁whipped	-11.1857
▁koobeeday	-11.1857
▁denver	-11.1857
▁ahmed	-11.1857
▁infra	-11.1857
▁whirl	-11.1857
▁mold	-11.1857
▁anderson	-11.1857
▁soap	-11.1857
▁smoking	-11.1857
▁barnyard	-11.1857
▁riff	-11.1857
▁humour	-11.1857
▁administration	-11.1857
▁operative	-11.1857
▁contrary	-11.1857
▁saddle	-11.1857
▁lunatic	-11.1858
▁misery	-11.1858
▁jackpot	-11.1858
▁slipping	-11.1858
▁patties	-11.1858
▁dwarf	-11.1858
▁priorities	-11.1858
▁atmosphere	-11.1858
▁spectre	-11.1858
▁engagement	-11.1858
▁exterminator	-11.1858
▁notebook	-11.1858
▁gravity	-11.1858
▁inspection	-11.1858
▁twentysix	-11.1858
▁robineau	-11.1858
▁gag	-11.1858
▁hades	-11.1858
▁rita	-11.1858
▁ripped	-11.1858
▁stiff	-11.1858
▁tasty	-11.1858
▁twerp	-11.1858
▁preston	-11.1858
▁rodent	-11.1858
▁furious	-11.1858
▁brian	-11.1858
▁cozy	-11.1858
▁franco	-11.1858
▁existence	-11.1858
▁hull	-11.1858
▁surgeon	-11.1858
▁wrench	-11.1858
bone	-11.1858
▁boogie	-11.1858
▁meanwhile	-11.1859
▁thread	-11.1859
▁clip	-11.1859
ville	-11.1859
▁chub	-11.1859
▁gummy	-11.1859
▁jock	-11.1859
burger	-11.1859
▁accelerator	-11.1859
▁tackle	-11.1859
▁chump	-11.1859
▁leeches	-11.1859
▁poker	-11.1859
▁twa	-11.186
▁ladybug	-11.186
▁stack	-11.186
▁wheat	-11.186
▁snapped	-11.186
▁measure	-11.186
▁classroom	-11.186
▁pork	-11.186
▁whatre	-11.186
▁starkey	-11.186
▁acid	-11.186
▁homing	-11.186
▁henk	-11.186
▁caption	-11.186
▁finch	-11.186
▁bookkeeper	-11.186
▁worn	-11.186
▁intense	-11.186
▁josephine	-11.186
▁choo	-11.1861
▁edition	-11.1861
▁preparation	-11.1861
▁coup	-11.1861
▁oxen	-11.1861
▁iet	-11.1861
▁religion	-11.1861
▁spice	-11.1862
▁cooperation	-11.1862
▁nbs	-11.1862
▁portrait	-11.1862
▁chimes	-11.1862
▁echoes	-11.1862
▁upside	-11.1862
▁considerate	-11.1862
▁willie	-11.1862
▁kidnapper	-11.1862
▁alike	-11.1862
▁doyou	-11.1862
▁tonic	-11.1862
▁fuzzy	-11.1863
▁butterfly	-11.1863
▁disposal	-11.1863
▁stern	-11.1863
▁cruiser	-11.1863
▁tempo	-11.1863
▁dodgers	-11.1863
▁raising	-11.1863
▁virtue	-11.1863
▁woof	-11.1863
▁moat	-11.1864
▁coke	-11.1864
▁trumpet	-11.1864
▁regional	-11.1864
▁consideration	-11.1864
▁lsnt	-11.1864
▁barton	-11.1864
▁distraction	-11.1865
▁data	-11.1865
▁moi	-11.1865
▁donation	-11.1865
▁assemble	-11.1866
▁perrin	-11.1866
▁wowser	-11.1866
▁leaderless	-11.1867
▁milo	-11.1867
▁dug	-11.1867
▁stranded	-11.1867
▁bellow	-11.1868
▁robinson	-11.1868
▁bible	-11.1868
▁capt	-11.1868
▁dong	-11.1868
▁ozma	-11.1868
▁eastern	-11.1869
▁bravery	-11.1869
▁sideline	-11.1869
▁shredding	-11.187
▁terrifying	-11.187
▁hup	-11.187
▁hospitality	-11.187
▁crop	-11.1871
▁agony	-11.1871
▁toss	-11.1871
▁divided	-11.1871
▁protective	-11.1872
▁snowman	-11.1872
▁conch	-11.1872
▁grownup	-11.1873
▁barber	-11.1874
▁whil	-11.1874
▁inches	-11.1874
▁mow	-11.1874
▁benj	-11.1874
▁ashes	-11.1874
ory	-11.1875
▁placed	-11.1875
▁earthling	-11.1876
▁takin	-11.1876
▁bora	-11.1877
▁nora	-11.1877
▁penal	-11.1877
▁wellknown	-11.1877
▁inventor	-11.1878
▁vet	-11.1879
▁iive	-11.1879
▁included	-11.188
eval	-11.188
▁growth	-11.188
▁ross	-11.1881
▁bein	-11.1882
omin	-11.1883
▁described	-11.1883
▁sang	-11.1884
▁collector	-11.1884
▁canal	-11.1885
▁mustang	-11.1886
▁haul	-11.1887
▁tender	-11.1889
▁registered	-11.189
form	-11.189
▁luci	-11.1891
▁sharing	-11.1891
▁folder	-11.1895
▁revealed	-11.1902
▁rarely	-11.1903
▁jo	-11.1903
▁burnt	-11.1905
▁reasonable	-11.1909
▁ti	-11.1909
▁container	-11.191
▁bestow	-11.1911
▁gonzo	-11.1911
▁ol	-11.1914
▁straining	-11.1915
▁transformed	-11.1916
▁logical	-11.1917
▁apply	-11.1918
▁sobs	-11.192
▁pint	-11.1921
▁melting	-11.1921
▁smiler	-11.1921
▁archie	-11.1929
▁expose	-11.1929
▁guaranteed	-11.193
▁mistaken	-11.1932
ev	-11.1935
▁op	-11.1944
▁rod	-11.1944
▁der	-11.1952
▁sacrificed	-11.1955
▁banging	-11.1957
▁swinging	-11.1957
▁howls	-11.1959
▁stevens	-11.1959
▁fooglies	-11.1959
▁initials	-11.1959
▁underhills	-11.1959
▁wasps	-11.1959
▁mint	-11.196
▁fleet	-11.1961
▁rations	-11.1963
▁rollin	-11.1966
▁forms	-11.1966
▁flashing	-11.1966
▁publisher	-11.1967
▁hy	-11.197
▁neednt	-11.1976
▁driven	-11.1979
▁insisted	-11.1979
▁designer	-11.198
▁ahha	-11.1981
ament	-11.1983
▁camel	-11.1986
▁sucked	-11.1989
▁completed	-11.1989
charge	-11.1992
▁confin	-11.1994
▁dy	-11.1996
▁movement	-11.2
▁toots	-11.2001
mu	-11.2005
▁missus	-11.2006
▁lakers	-11.2006
▁gram	-11.2007
not	-11.2008
▁suggested	-11.2008
▁scratching	-11.2011
▁slate	-11.2012
▁busting	-11.2014
▁stretching	-11.2015
hen	-11.2016
▁pale	-11.2016
▁suing	-11.2017
▁safer	-11.2017
▁meantime	-11.2017
▁reminded	-11.2021
▁oy	-11.203
▁visa	-11.2033
▁trib	-11.2037
▁torch	-11.2038
mber	-11.2041
▁diapers	-11.2042
▁stringer	-11.2052
▁sag	-11.2054
▁rein	-11.2056
▁scann	-11.2057
▁foundation	-11.2061
▁hangin	-11.2061
▁blaster	-11.2063
▁pinch	-11.2066
▁announced	-11.2071
▁tame	-11.2072
▁newman	-11.2078
▁washed	-11.208
▁escaped	-11.2082
▁fades	-11.2083
▁documents	-11.2083
▁zuzus	-11.2083
▁mau	-11.2088
▁dimes	-11.2105
ups	-11.2113
▁axe	-11.2114
mine	-11.2133
▁ec	-11.2135
productive	-11.2141
amin	-11.2143
▁pushy	-11.2151
▁lu	-11.2157
cher	-11.2158
▁milking	-11.2163
going	-11.2164
▁socks	-11.2164
▁translat	-11.2165
▁cheeks	-11.2167
▁eatin	-11.2169
▁blocked	-11.2172
▁pads	-11.2174
▁accepting	-11.2191
▁climber	-11.2192
▁owes	-11.2193
coat	-11.22
▁smelly	-11.2206
▁temperatures	-11.2209
▁buckets	-11.2209
▁rehearsals	-11.2209
▁crashed	-11.2217
▁treating	-11.2237
position	-11.2238
▁invad	-11.2247
ause	-11.2262
▁risking	-11.2263
▁watches	-11.2264
▁tanne	-11.2269
▁tes	-11.228
▁hunters	-11.2283
▁lighter	-11.2284
▁claws	-11.2288
eye	-11.2291
▁elements	-11.2293
bel	-11.2314
than	-11.2326
▁coo	-11.2326
▁spying	-11.2327
chester	-11.2333
▁tit	-11.2343
▁cases	-11.2354
▁baileys	-11.2359
▁butts	-11.2366
nette	-11.238
▁apples	-11.2381
▁tru	-11.2384
▁dearly	-11.2385
▁whatwhat	-11.2393
▁offering	-11.2393
▁ven	-11.2402
▁pussy	-11.2421
▁vehicles	-11.2422
▁sirens	-11.2422
hello	-11.2432
▁reporting	-11.2433
▁buyer	-11.2437
▁reaching	-11.2449
ition	-11.2453
▁winding	-11.2458
▁instruments	-11.2465
▁seniors	-11.2465
inner	-11.2467
hoo	-11.2469
▁sticking	-11.2479
▁bio	-11.2485
▁comb	-11.249
▁faithful	-11.2491
▁rend	-11.2493
▁hu	-11.2494
▁novels	-11.2497
▁emojis	-11.2508
▁peas	-11.2515
now	-11.2521
▁promises	-11.253
▁dow	-11.2539
▁vic	-11.2542
▁wo	-11.2552
▁floods	-11.2552
▁decks	-11.2552
▁coopers	-11.2553
ab	-11.2555
▁ke	-11.2565
▁swis	-11.2568
▁marrying	-11.2578
▁exterminate	-11.2581
▁pawns	-11.2596
▁subjects	-11.2596
▁limits	-11.264
▁miracles	-11.264
▁wak	-11.2643
ett	-11.2654
▁comments	-11.2659
▁mir	-11.2667
▁alb	-11.2672
imate	-11.2681
▁gorillas	-11.2684
▁paintings	-11.2684
urg	-11.2719
▁sounded	-11.2729
▁starve	-11.2734
old	-11.2739
rie	-11.2746
▁answered	-11.2748
are	-11.2751
▁boards	-11.2754
▁disc	-11.2754
▁indi	-11.277
iff	-11.2772
▁emeralds	-11.2772
▁organs	-11.2777
lf	-11.2791
▁ego	-11.2829
▁generals	-11.2848
▁signals	-11.2862
▁costumes	-11.2862
▁sales	-11.2873
mation	-11.2875
nel	-11.2885
▁passer	-11.2923
▁primar	-11.2929
▁mend	-11.2931
ification	-11.2934
▁amor	-11.295
▁prop	-11.2965
▁tot	-11.2997
mal	-11.2998
▁coats	-11.2998
▁senses	-11.3007
▁deb	-11.3025
▁wanton	-11.3043
▁cups	-11.3048
▁bing	-11.3069
▁jerks	-11.309
▁figures	-11.3102
stein	-11.3115
▁catching	-11.3146
▁swo	-11.3161
identified	-11.3162
hle	-11.3174
▁obs	-11.3174
▁resting	-11.3185
bed	-11.3188
ire	-11.3188
▁pointing	-11.3212
▁ache	-11.3219
▁uni	-11.322
▁tri	-11.3224
nning	-11.3231
net	-11.3238
lorn	-11.324
▁tips	-11.3245
lip	-11.3258
▁decisions	-11.3275
itz	-11.3282
▁stag	-11.3314
▁proven	-11.3321
▁una	-11.3322
lon	-11.3331
▁sta	-11.3371
ified	-11.3389
lock	-11.3391
▁troop	-11.3408
ltitude	-11.341
eating	-11.3413
skin	-11.3415
▁seasons	-11.3417
did	-11.3437
lam	-11.3471
▁thi	-11.3472
▁slum	-11.3503
att	-11.3528
▁lyn	-11.3539
▁rev	-11.355
▁dun	-11.3566
owns	-11.357
▁but	-11.3593
▁til	-11.3596
hy	-11.3602
▁sayin	-11.361
▁roar	-11.3618
▁burglar	-11.3621
▁rainbow	-11.3624
▁guinea	-11.3624
▁bothers	-11.3624
▁maniac	-11.3625
oli	-11.3629
▁riddle	-11.363
▁decade	-11.3631
▁eli	-11.3633
▁mammal	-11.3633
▁diaper	-11.3635
▁vogon	-11.3638
▁communication	-11.3642
▁sniper	-11.3643
▁stair	-11.3645
▁brake	-11.3645
▁jun	-11.3647
▁tribe	-11.3648
▁labor	-11.3651
▁proves	-11.3653
lade	-11.3655
iana	-11.3656
ium	-11.3665
▁cookie	-11.3666
▁factor	-11.3668
▁bean	-11.3668
rial	-11.3669
▁lip	-11.3673
▁hub	-11.3702
▁payment	-11.3702
amo	-11.3735
▁loca	-11.3737
▁pun	-11.374
cca	-11.3751
▁hun	-11.3757
▁swam	-11.3765
▁stinkin	-11.3769
aken	-11.3775
bell	-11.3778
▁penetrate	-11.3779
▁crunch	-11.3783
▁slack	-11.3786
▁prepar	-11.3787
grown	-11.379
▁recover	-11.3792
itched	-11.3801
llowed	-11.3801
▁shrink	-11.3804
▁echo	-11.3804
▁casa	-11.3805
▁proto	-11.3808
▁function	-11.3809
▁squeal	-11.3811
▁neigh	-11.3811
▁depart	-11.3813
▁puff	-11.3814
▁thrill	-11.3816
▁register	-11.3818
▁experienc	-11.3822
girl	-11.3824
▁dread	-11.3826
load	-11.3829
▁encourage	-11.383
▁explore	-11.3831
▁defens	-11.3831
▁frau	-11.3831
▁declare	-11.3832
through	-11.3833
▁origin	-11.3834
▁relieve	-11.3834
talk	-11.3835
turned	-11.3835
port	-11.3835
▁filth	-11.3836
gram	-11.3836
rigging	-11.3836
▁daff	-11.3837
list	-11.3837
▁mush	-11.3837
box	-11.3837
tooth	-11.3838
baker	-11.3838
▁engage	-11.3838
worth	-11.3838
plus	-11.3838
▁cruci	-11.3838
mouth	-11.3838
course	-11.3839
guard	-11.3839
track	-11.3839
▁bleed	-11.3841
speed	-11.3842
▁unbelievabl	-11.3843
weight	-11.3843
▁precise	-11.3843
▁immediate	-11.3843
three	-11.3844
job	-11.3845
▁aqu	-11.3845
▁cleve	-11.3846
▁mexic	-11.3847
▁teenage	-11.3848
▁vocaliz	-11.3848
▁exhibit	-11.3849
▁religio	-11.385
▁sensation	-11.385
▁withdraw	-11.385
▁russia	-11.385
▁dispos	-11.3851
door	-11.3851
▁equ	-11.3851
▁galactic	-11.3852
▁morph	-11.3853
▁vibrat	-11.3853
made	-11.3854
holder	-11.3854
▁disagree	-11.3854
▁rapid	-11.3854
▁refresh	-11.3855
▁immortal	-11.3855
▁polar	-11.3855
▁rival	-11.3855
▁contra	-11.3855
flex	-11.3855
▁mutt	-11.3855
rpent	-11.3855
ncredibl	-11.3855
▁mount	-11.3855
▁physi	-11.3855
▁triumph	-11.3856
▁urge	-11.3856
▁oppos	-11.3856
▁jenni	-11.3856
▁consist	-11.3856
▁liquor	-11.3856
greatgrandfather	-11.3856
▁accurate	-11.3856
▁alabama	-11.3856
▁anchor	-11.3856
▁apiary	-11.3856
▁artillery	-11.3856
▁asthma	-11.3856
▁aviation	-11.3856
▁beeblebrox	-11.3856
▁belknap	-11.3856
▁bicycle	-11.3856
▁bizarre	-11.3856
▁blumburtt	-11.3856
▁briefcase	-11.3856
▁brisbane	-11.3856
▁broussard	-11.3856
▁bungalow	-11.3856
▁cafeteria	-11.3856
▁carnival	-11.3856
▁cecilia	-11.3856
▁chalice	-11.3856
▁chelina	-11.3856
▁chronic	-11.3856
▁circumnavigat	-11.3856
▁cockatoo	-11.3856
▁colleague	-11.3856
▁coloma	-11.3856
▁congratulate	-11.3856
▁continent	-11.3856
▁contradiction	-11.3856
▁convenience	-11.3856
▁corridor	-11.3856
▁davis	-11.3856
▁dedication	-11.3856
▁defence	-11.3856
▁dehydrated	-11.3856
▁delinko	-11.3856
▁delirious	-11.3856
▁doktor	-11.3856
▁drisella	-11.3856
▁dublin	-11.3856
▁eccentric	-11.3856
▁ecstasy	-11.3856
▁eisenhower	-11.3856
▁endangered	-11.3856
▁entitled	-11.3856
▁envelope	-11.3856
▁escaping	-11.3856
▁essential	-11.3856
▁everlasting	-11.3856
▁exploring	-11.3856
▁exquisite	-11.3856
▁eyewitness	-11.3856
▁fairchild	-11.3856
▁fascist	-11.3856
▁furniture	-11.3856
▁garnett	-11.3856
▁gasoline	-11.3856
▁geographic	-11.3856
▁glamour	-11.3856
▁gossip	-11.3856
▁gracias	-11.3856
▁greenbaum	-11.3856
▁gurney	-11.3856
▁handshake	-11.3856
▁harbour	-11.3856
▁hawaii	-11.3856
▁hideandseek	-11.3856
▁huff	-11.3856
▁humiliating	-11.3856
▁iceberg	-11.3856
▁impact	-11.3856
▁impeccabl	-11.3856
▁impulse	-11.3856
▁indonesia	-11.3856
▁intellectual	-11.3856
▁inviting	-11.3856
▁jacuzzi	-11.3856
▁january	-11.3856
▁jefferson	-11.3856
▁jumanji	-11.3856
▁kirstie	-11.3856
▁kovac	-11.3856
▁lizard	-11.3856
▁lombok	-11.3856
▁mackerel	-11.3856
▁makebelieve	-11.3856
▁margaret	-11.3856
▁matilda	-11.3856
▁matteo	-11.3856
▁meerkat	-11.3856
▁mmmmmmmmm	-11.3856
▁mongrel	-11.3856
▁monstrule	-11.3856
▁morocco	-11.3856
▁motorcycle	-11.3856
▁mowgli	-11.3856
▁multipl	-11.3856
▁mungojerrie	-11.3856
▁nagamaki	-11.3856
▁newyork	-11.3856
▁ounce	-11.3856
▁overseas	-11.3856
▁overwhelm	-11.3856
▁papillon	-11.3856
▁pavarotti	-11.3856
▁pentagon	-11.3856
▁pneumonia	-11.3856
▁poachers	-11.3856
▁preserving	-11.3856
▁principle	-11.3856
▁proclaim	-11.3856
▁profile	-11.3856
▁quimby	-11.3856
▁raccoons	-11.3856
▁receipt	-11.3856
▁relentless	-11.3856
▁rosamund	-11.3856
▁satisfactory	-11.3856
▁schmidlapp	-11.3856
▁schuster	-11.3856
▁sensible	-11.3856
▁shakespeare	-11.3856
▁shirley	-11.3856
▁solicitor	-11.3856
▁souvenirs	-11.3856
▁spectroscope	-11.3856
▁sponsor	-11.3856
▁stonehenge	-11.3856
▁streak	-11.3856
▁stubborn	-11.3856
▁sunblock	-11.3856
▁sunrise	-11.3856
▁sympathy	-11.3856
▁syrup	-11.3856
▁textopolis	-11.3856
▁thrift	-11.3856
▁topkick	-11.3856
▁trampoline	-11.3856
▁transmission	-11.3856
▁tremendous	-11.3856
▁tucson	-11.3856
▁tunnei	-11.3856
▁ultra	-11.3856
▁unacceptable	-11.3856
▁unaji	-11.3856
▁uncomfortable	-11.3856
▁unemployed	-11.3856
▁uuh	-11.3856
▁vicinity	-11.3856
▁vinny	-11.3856
▁winslow	-11.3856
▁wondrous	-11.3856
▁zombie	-11.3856
▁zubi	-11.3856
▁abort	-11.3856
▁ahchoo	-11.3856
▁aristocrat	-11.3856
▁bambi	-11.3856
▁bargain	-11.3856
▁barrier	-11.3856
▁bbc	-11.3856
▁bedrock	-11.3856
▁confident	-11.3856
▁creole	-11.3856
▁cuckoo	-11.3856
▁elderly	-11.3856
▁epic	-11.3856
▁incorrect	-11.3856
▁lantern	-11.3856
▁maroon	-11.3856
▁negus	-11.3856
▁oould	-11.3856
▁parlor	-11.3856
▁parrot	-11.3856
▁pervert	-11.3856
▁piasters	-11.3856
▁pilgrim	-11.3856
▁portsmouth	-11.3856
▁resign	-11.3856
▁sensor	-11.3856
▁spooked	-11.3856
▁squirt	-11.3856
▁subtle	-11.3856
▁willat	-11.3856
▁wrist	-11.3856
▁areyou	-11.3856
▁conceal	-11.3856
▁ellman	-11.3856
▁envy	-11.3856
▁frustrat	-11.3856
▁herald	-11.3856
▁inhabitants	-11.3856
▁parasite	-11.3856
▁roadblock	-11.3856
▁ryley	-11.3856
▁tuxedo	-11.3856
▁bulb	-11.3856
▁cherish	-11.3856
▁cretin	-11.3856
▁grain	-11.3856
▁gusgus	-11.3856
▁harsh	-11.3856
▁omg	-11.3856
▁priya	-11.3856
▁felicity	-11.3856
▁ambulance	-11.3856
▁discourage	-11.3856
▁hadley	-11.3856
▁method	-11.3856
▁sperm	-11.3856
▁stomp	-11.3856
▁tampa	-11.3856
▁clinks	-11.3856
▁edgy	-11.3856
▁thump	-11.3856
▁yowls	-11.3856
▁vitamin	-11.3856
▁beetle	-11.3856
▁bugging	-11.3856
▁boston	-11.3856
▁solitary	-11.3856
▁toothbrush	-11.3856
▁sardine	-11.3856
▁shelves	-11.3856
▁drool	-11.3856
▁panorama	-11.3856
▁pindi	-11.3856
▁farrar	-11.3856
▁inci	-11.3856
▁pact	-11.3856
▁grocer	-11.3856
▁treacherous	-11.3856
▁courtesy	-11.3856
▁minimum	-11.3856
▁convert	-11.3856
▁extend	-11.3856
▁derval	-11.3856
▁cradle	-11.3856
erature	-11.3856
▁bureau	-11.3856
▁mushroom	-11.3856
▁whims	-11.3856
▁pasad	-11.3857
▁donnagon	-11.3857
▁lottery	-11.3857
▁vandalism	-11.3857
▁ferrell	-11.3857
▁meteorite	-11.3857
▁tennis	-11.3857
▁cocktail	-11.3857
▁joanna	-11.3857
▁rattling	-11.3857
▁radioactivity	-11.3857
▁stunning	-11.3857
▁skate	-11.3857
▁tornado	-11.3857
▁cherie	-11.3857
▁doggy	-11.3857
▁appreciation	-11.3857
▁dietrich	-11.3857
▁resent	-11.3857
▁aero	-11.3857
▁andrews	-11.3857
▁whines	-11.3857
▁adios	-11.3857
yeah	-11.3857
▁arlette	-11.3857
▁autops	-11.3857
▁barbarian	-11.3857
▁confidential	-11.3857
▁flaming	-11.3857
▁moines	-11.3857
▁hyper	-11.3857
▁oars	-11.3857
▁linden	-11.3857
▁stalin	-11.3857
▁hermit	-11.3857
▁incompetent	-11.3857
▁kindergarten	-11.3857
▁aircraft	-11.3857
▁donald	-11.3857
▁bleep	-11.3857
▁gulf	-11.3857
▁intensive	-11.3857
▁racket	-11.3857
▁beady	-11.3857
▁flare	-11.3857
▁velma	-11.3857
▁metropoli	-11.3857
▁companionship	-11.3857
▁latin	-11.3857
▁musnt	-11.3857
▁thornton	-11.3857
guy	-11.3857
▁absence	-11.3857
▁pinned	-11.3857
▁keypad	-11.3857
▁gaze	-11.3857
▁overnight	-11.3857
▁athen	-11.3857
▁liking	-11.3857
▁promotion	-11.3857
▁addition	-11.3857
▁micro	-11.3857
▁mormon	-11.3857
▁peasant	-11.3857
▁handkerchief	-11.3857
▁imaginary	-11.3857
▁loneliness	-11.3857
appointed	-11.3857
▁scheme	-11.3857
▁fridge	-11.3857
▁usher	-11.3857
▁measl	-11.3857
▁bryant	-11.3857
tox	-11.3857
cadabra	-11.3857
▁creator	-11.3857
▁absent	-11.3857
▁cheesecake	-11.3857
▁pesky	-11.3857
▁martial	-11.3857
▁yeehaw	-11.3858
▁ifyou	-11.3858
▁jeep	-11.3858
▁stitch	-11.3858
▁random	-11.3858
▁ritz	-11.3858
▁sixyearold	-11.3858
▁entertainment	-11.3858
▁dyna	-11.3858
▁ellen	-11.3858
▁cartoonist	-11.3858
▁grill	-11.3858
▁wrapped	-11.3858
▁armonica	-11.3858
plex	-11.3858
▁slant	-11.3858
▁edgar	-11.3858
▁cupboard	-11.3858
▁immortality	-11.3858
▁stirrup	-11.3858
▁lyle	-11.3858
honkin	-11.3858
▁sleeve	-11.3858
▁disorderly	-11.3858
▁edward	-11.3858
▁iong	-11.3858
▁asia	-11.3858
▁shaw	-11.3858
▁mangy	-11.3858
▁gunfire	-11.3858
▁iook	-11.3858
▁liarian	-11.3858
▁weave	-11.3858
▁snapping	-11.3858
▁valet	-11.3858
▁kiri	-11.3858
▁audition	-11.3858
▁distinction	-11.3858
▁trillion	-11.3858
▁percent	-11.3858
▁sloth	-11.3858
▁superstition	-11.3858
▁organism	-11.3858
▁arrow	-11.3859
▁geoff	-11.3859
▁inhales	-11.3859
▁jeopardy	-11.3859
▁jurisdiction	-11.3859
▁seizure	-11.3859
▁voluntar	-11.3859
▁belief	-11.3859
▁thrust	-11.3859
scot	-11.3859
▁marcy	-11.3859
▁dynamic	-11.3859
▁drift	-11.3859
▁notify	-11.3859
▁wack	-11.3859
▁classified	-11.3859
▁affection	-11.3859
▁embassy	-11.3859
▁monopoly	-11.3859
▁robbing	-11.3859
▁flock	-11.3859
▁pug	-11.3859
▁effective	-11.386
▁thorn	-11.386
▁meilin	-11.386
▁piace	-11.386
▁grub	-11.386
▁plea	-11.386
▁aidit	-11.386
▁sammy	-11.386
▁admiral	-11.386
▁brokendown	-11.386
▁firewall	-11.386
▁salary	-11.386
▁narc	-11.386
▁porch	-11.386
▁muck	-11.3861
▁frost	-11.3861
▁sample	-11.3861
▁beau	-11.3861
▁respectfully	-11.3861
▁distinctly	-11.3861
▁popping	-11.3861
▁chinon	-11.3861
▁domino	-11.3861
▁static	-11.3861
▁riot	-11.3861
▁cork	-11.3861
▁hopping	-11.3861
▁underway	-11.3862
▁lucien	-11.3862
▁slavery	-11.3862
▁psychic	-11.3862
▁travelled	-11.3862
▁overdo	-11.3862
▁organist	-11.3862
▁nina	-11.3862
▁dazzling	-11.3862
▁swap	-11.3862
▁salon	-11.3863
▁waist	-11.3863
▁lamp	-11.3863
▁muert	-11.3863
▁panel	-11.3863
▁occupie	-11.3863
▁dorm	-11.3863
▁whys	-11.3863
▁tripped	-11.3863
▁cocoa	-11.3864
▁snot	-11.3864
▁portion	-11.3864
▁sicily	-11.3864
▁twitchy	-11.3864
rray	-11.3864
▁advised	-11.3864
▁collapsed	-11.3864
▁paranoid	-11.3864
▁hatton	-11.3864
▁colley	-11.3864
▁cassi	-11.3864
▁morale	-11.3864
▁weakness	-11.3864
▁rho	-11.3865
▁initiate	-11.3865
▁satan	-11.3865
▁cockroaches	-11.3865
▁gunner	-11.3865
▁hover	-11.3866
▁hamburger	-11.3866
▁peak	-11.3866
▁pois	-11.3867
▁marie	-11.3867
▁soar	-11.3867
▁modest	-11.3867
▁abra	-11.3867
▁whack	-11.3867
▁fluid	-11.3867
▁warden	-11.3867
▁deai	-11.3868
▁missionary	-11.3868
▁harmless	-11.3868
▁linger	-11.3868
▁betrayal	-11.3868
▁lifestyle	-11.3869
▁selfless	-11.3869
▁urin	-11.3869
▁waka	-11.3869
▁housekeeper	-11.3869
▁heir	-11.3869
▁humiliated	-11.3869
▁outnumbered	-11.387
▁promoted	-11.387
▁forg	-11.387
▁eastman	-11.387
▁voi	-11.387
▁successor	-11.387
▁fink	-11.387
▁vast	-11.387
▁cries	-11.3871
eep	-11.3871
▁breakdown	-11.3871
▁lean	-11.3871
▁gao	-11.3871
▁ramp	-11.3871
▁lens	-11.3872
▁merci	-11.3872
▁tele	-11.3872
▁firewood	-11.3872
▁mellow	-11.3872
▁bake	-11.3872
▁hoist	-11.3874
▁jinx	-11.3874
▁zit	-11.3874
▁colony	-11.3874
▁turd	-11.3875
▁hola	-11.3875
▁hooting	-11.3875
▁tidy	-11.3875
▁yaah	-11.3875
▁brushes	-11.3876
stage	-11.3876
▁constantly	-11.3876
▁gap	-11.3877
▁presentation	-11.3877
▁driveway	-11.3877
▁podo	-11.3877
▁senate	-11.3877
▁stella	-11.3877
▁curb	-11.3878
wau	-11.3878
eft	-11.3878
oolah	-11.3878
▁wheelers	-11.3879
▁exception	-11.3879
▁recovery	-11.388
▁mushy	-11.388
▁engaged	-11.388
▁allen	-11.388
▁bulletin	-11.388
▁pose	-11.3881
care	-11.3881
▁hiphop	-11.3881
▁carpenter	-11.3882
▁snickering	-11.3884
▁madness	-11.3884
▁coverup	-11.3884
▁sidekicks	-11.3885
▁wartime	-11.3885
▁whiskers	-11.3885
▁approved	-11.3885
▁framed	-11.3885
▁fulltime	-11.3885
▁discovery	-11.3885
▁caraway	-11.3886
▁adored	-11.3886
▁pia	-11.3886
▁packers	-11.3887
▁tapping	-11.3887
onica	-11.3887
▁copies	-11.3887
keeper	-11.3887
▁rental	-11.3887
▁warts	-11.3888
▁pace	-11.3888
▁salad	-11.3888
▁thered	-11.3889
▁hart	-11.3889
▁birdie	-11.389
▁runaway	-11.389
▁slime	-11.3891
▁dubb	-11.3891
▁horri	-11.3891
▁legally	-11.3891
▁rushes	-11.3892
▁witnesses	-11.3892
▁ooo	-11.3892
▁freezer	-11.3893
▁endure	-11.3893
▁gat	-11.3894
▁mild	-11.3894
▁vent	-11.3894
▁wealthy	-11.3895
▁drawn	-11.3895
try	-11.3898
▁tenth	-11.39
▁bench	-11.39
▁barker	-11.39
▁accomplished	-11.3904
▁hilo	-11.3905
▁crunching	-11.3905
▁eel	-11.3906
▁tubes	-11.3906
▁gli	-11.3907
▁equally	-11.3908
▁divert	-11.3908
▁gown	-11.391
▁complaint	-11.3914
▁provided	-11.3915
▁cooing	-11.3915
▁notion	-11.3915
rick	-11.3915
▁stable	-11.3915
▁nathan	-11.3916
▁staked	-11.3917
▁tres	-11.3917
▁matches	-11.3918
anza	-11.3919
▁secured	-11.3921
praise	-11.3922
▁gregg	-11.3923
▁dood	-11.3923
▁earthman	-11.3923
▁larger	-11.3925
▁reminder	-11.3927
▁ticking	-11.3927
▁yeehah	-11.3928
▁straighten	-11.3929
▁positively	-11.3929
▁callback	-11.393
▁stressed	-11.393
▁donna	-11.3931
▁unto	-11.3931
stella	-11.3933
▁ankles	-11.3934
▁slurps	-11.3934
▁moody	-11.3938
▁mist	-11.3938
▁divorced	-11.3942
vio	-11.3945
▁connected	-11.3948
▁probe	-11.3949
▁transforming	-11.3949
igh	-11.3951
▁scaring	-11.3951
▁sane	-11.3952
take	-11.3952
▁amuse	-11.3959
▁proceeding	-11.396
▁your	-11.3965
▁estimat	-11.3965
▁cursed	-11.3965
▁princesses	-11.3966
▁dresses	-11.397
▁wits	-11.3971
▁linked	-11.3974
▁repaired	-11.3974
ob	-11.3976
▁locate	-11.3977
▁bigtime	-11.3978
▁rig	-11.3979
▁fry	-11.3981
▁highp	-11.3981
▁troupe	-11.3984
▁insects	-11.3984
▁predators	-11.3984
▁vandals	-11.3984
▁naming	-11.3985
aming	-11.3987
▁hearse	-11.3994
▁coop	-11.3994
icy	-11.3996
▁pasta	-11.3998
▁performers	-11.3999
▁released	-11.4
▁nighttime	-11.4002
▁irony	-11.4009
▁defender	-11.401
▁organize	-11.4011
ural	-11.4012
▁spyglass	-11.4012
▁spends	-11.4013
▁skiing	-11.4019
dor	-11.4023
▁clubs	-11.4025
▁myst	-11.4026
▁handcuff	-11.4027
▁crushed	-11.4027
▁buster	-11.4027
name	-11.403
come	-11.4034
▁cured	-11.4034
▁tinkers	-11.4036
▁vegetables	-11.4036
▁heels	-11.4037
cathed	-11.4043
▁planes	-11.4044
▁perc	-11.4046
cho	-11.405
▁wel	-11.4053
▁drawers	-11.4055
▁deserved	-11.4057
▁sweating	-11.406
▁pretended	-11.4063
▁weed	-11.4066
▁thoughtful	-11.4067
▁attempted	-11.408
▁delivering	-11.4083
▁cir	-11.4083
▁decades	-11.4087
▁mammals	-11.4087
▁slit	-11.4089
▁tun	-11.409
▁suggesting	-11.4094
▁tribes	-11.4096
▁sci	-11.41
▁shorter	-11.411
▁lou	-11.4112
▁ally	-11.4113
▁harmed	-11.4116
▁loot	-11.4117
▁seti	-11.4122
▁chugg	-11.4123
seven	-11.4131
▁items	-11.4139
▁knots	-11.4139
▁thou	-11.4139
▁includes	-11.414
ronto	-11.4148
▁barbe	-11.4151
awing	-11.4159
▁discussing	-11.416
▁meta	-11.4163
▁tucked	-11.4167
ula	-11.4168
▁ruining	-11.4172
▁kam	-11.4172
rake	-11.4173
▁appreciated	-11.4175
▁practiced	-11.4175
▁gib	-11.4178
lash	-11.4181
▁cone	-11.4182
▁punching	-11.4182
▁rung	-11.4186
▁reviews	-11.4191
▁generations	-11.4191
▁puppets	-11.4191
sive	-11.4193
▁ohio	-11.42
▁chim	-11.4201
▁oid	-11.4204
▁mature	-11.4205
▁washing	-11.4205
meter	-11.4211
▁clo	-11.4212
▁ofa	-11.4213
▁secretly	-11.4216
▁av	-11.422
▁nate	-11.4239
▁sighting	-11.4251
▁yyou	-11.4251
▁rou	-11.4262
▁tablet	-11.4266
izer	-11.4268
lumber	-11.4271
▁unse	-11.4278
▁choppe	-11.429
▁australians	-11.4297
▁awaits	-11.4297
▁comics	-11.4297
▁curtains	-11.4297
▁pumpkins	-11.4297
▁if	-11.4308
▁recorder	-11.432
aaaah	-11.4322
peck	-11.4323
▁visiting	-11.4332
▁captur	-11.4332
fro	-11.4341
▁indians	-11.4341
▁jets	-11.4342
children	-11.4344
hour	-11.4349
▁submarines	-11.435
▁effects	-11.435
▁protected	-11.4372
▁yank	-11.4382
ito	-11.4382
▁murderer	-11.4389
▁feeder	-11.4391
▁recording	-11.44
▁caba	-11.4402
▁watchin	-11.4408
leen	-11.4409
▁seated	-11.4414
▁dron	-11.4418
▁victims	-11.4423
▁explained	-11.4446
▁neuro	-11.4446
▁tract	-11.445
uch	-11.4455
read	-11.4456
▁baudelaires	-11.4457
▁stakes	-11.4458
▁lin	-11.4465
bash	-11.4466
▁diver	-11.4471
▁cleaned	-11.4476
▁operat	-11.4479
ozo	-11.4487
▁relaxed	-11.4499
ado	-11.4503
▁communists	-11.4511
▁mirrors	-11.4511
▁scholarships	-11.4511
▁sac	-11.4518
▁caps	-11.452
▁kicking	-11.4529
jour	-11.4538
▁threaten	-11.4553
▁shifts	-11.4568
▁playin	-11.4569
▁stab	-11.4571
▁catchy	-11.4596
▁explaining	-11.46
▁savages	-11.4619
▁manor	-11.463
ken	-11.4638
▁fib	-11.4645
elli	-11.4652
cin	-11.4657
▁floats	-11.4665
▁calculat	-11.4672
▁mortals	-11.4674
▁shadows	-11.4674
▁snails	-11.4674
▁zones	-11.4674
▁chairs	-11.4674
▁lone	-11.4676
▁allie	-11.4691
▁delet	-11.4698
oyalty	-11.4701
▁cobb	-11.4702
▁intern	-11.4705
ius	-11.4705
▁counted	-11.4707
▁goals	-11.4728
▁concerts	-11.473
▁nickels	-11.4731
▁chains	-11.4733
▁you	-11.4743
oge	-11.475
ose	-11.4792
hua	-11.4795
▁lively	-11.4804
cat	-11.484
▁julies	-11.4845
bert	-11.4846
run	-11.4889
▁grandmothers	-11.4897
ridden	-11.4899
▁navigate	-11.4904
▁purchase	-11.4904
hhh	-11.4905
eline	-11.4927
hold	-11.4941
▁priests	-11.4953
▁babes	-11.4953
▁sacrifices	-11.4959
link	-11.4965
▁lass	-11.4967
▁camping	-11.4971
▁hem	-11.498
ford	-11.4996
▁chatt	-11.4997
agging	-11.5011
▁prints	-11.5022
▁nil	-11.5024
▁banker	-11.5024
▁pickle	-11.504
▁helicopters	-11.5067
▁pages	-11.5067
▁needle	-11.5088
▁crowded	-11.5107
▁inde	-11.5124
▁ant	-11.5142
▁wei	-11.5152
▁ned	-11.5155
▁kindly	-11.516
tile	-11.517
▁kn	-11.5185
▁nob	-11.5201
dance	-11.5219
▁pent	-11.5231
fitting	-11.5232
rating	-11.5241
▁devils	-11.5241
▁auto	-11.5274
▁leon	-11.5295
▁sel	-11.5298
▁restaurants	-11.5299
llen	-11.53
▁creeps	-11.5302
▁hooks	-11.5307
nap	-11.5331
cal	-11.5355
▁felin	-11.5361
kill	-11.5379
ography	-11.5392
tow	-11.5402
▁calculate	-11.5403
▁summ	-11.5422
▁concept	-11.5427
▁exc	-11.5451
▁bil	-11.5456
▁sw	-11.5458
ption	-11.5458
▁pra	-11.5464
odie	-11.547
▁prior	-11.5492
▁spe	-11.5498
most	-11.5498
ink	-11.5528
cro	-11.5563
▁rhythm	-11.5567
▁novelt	-11.5568
over	-11.5585
▁crim	-11.5611
scend	-11.5637
gu	-11.5644
▁za	-11.5657
onies	-11.5673
chin	-11.5712
▁invade	-11.579
▁eighth	-11.5807
▁batch	-11.5813
ocked	-11.5822
unker	-11.5824
iness	-11.5829
arge	-11.5853
▁educate	-11.5899
nick	-11.5901
▁mus	-11.5911
▁dee	-11.5914
▁bra	-11.5917
spective	-11.5929
▁wakin	-11.5959
rice	-11.5969
more	-11.5993
rap	-11.5994
▁author	-11.6026
▁scu	-11.6027
▁fon	-11.6046
▁simp	-11.6052
nox	-11.6056
▁curl	-11.6057
ada	-11.6064
▁fort	-11.607
acious	-11.6076
▁toot	-11.6083
▁clang	-11.6097
cuse	-11.6098
▁capsule	-11.6124
▁dumdum	-11.6124
▁overlord	-11.6124
▁gokart	-11.6124
▁replacement	-11.6129
▁graduat	-11.6129
▁vegetable	-11.6131
▁tinker	-11.6131
▁rumor	-11.6137
▁heel	-11.6137
post	-11.6139
▁instinct	-11.614
▁kidney	-11.6142
▁pearl	-11.6142
cuffs	-11.6142
▁flee	-11.6144
▁shiver	-11.6146
▁citizen	-11.6147
▁how	-11.6148
▁rul	-11.6148
▁trou	-11.6154
▁cora	-11.6155
▁visi	-11.6155
▁statue	-11.6168
▁acre	-11.6169
▁shallow	-11.6179
▁pu	-11.618
race	-11.6185
▁worship	-11.6189
▁admir	-11.619
▁shar	-11.6199
cession	-11.6201
▁ranger	-11.6204
▁rancher	-11.6212
dom	-11.6222
▁div	-11.6224
▁laker	-11.6229
▁gla	-11.6235
▁drawer	-11.624
▁involv	-11.625
▁charle	-11.6253
▁swat	-11.6257
▁imagin	-11.6262
icles	-11.6266
zie	-11.6279
▁athlet	-11.628
lent	-11.6284
hem	-11.6284
oint	-11.6287
▁entertain	-11.6289
▁swirl	-11.6289
bre	-11.6297
power	-11.6299
▁plac	-11.6302
▁screech	-11.6303
▁consult	-11.6303
▁foo	-11.6303
▁shudder	-11.6304
mark	-11.6305
▁confi	-11.6305
▁dre	-11.6305
dress	-11.6307
here	-11.6307
▁accord	-11.6308
▁promis	-11.6312
birds	-11.6313
friend	-11.6313
▁wither	-11.6316
▁logic	-11.6316
▁suspend	-11.632
style	-11.6323
got	-11.6323
▁delight	-11.6328
foot	-11.6329
▁chivalr	-11.6331
ograph	-11.6332
▁lump	-11.6332
▁stain	-11.6333
▁divide	-11.6333
▁inspire	-11.6334
▁determine	-11.6334
▁greed	-11.6335
proof	-11.6336
▁tur	-11.6336
jinx	-11.6336
▁circl	-11.6337
denial	-11.6337
text	-11.6338
space	-11.6338
print	-11.6338
direct	-11.6338
burn	-11.6338
lived	-11.6338
minute	-11.6339
▁coco	-11.6339
hq	-11.6339
defense	-11.634
nature	-11.634
maybe	-11.634
▁walt	-11.6341
▁convenient	-11.6341
plan	-11.6342
▁colon	-11.6342
▁beck	-11.6342
▁triumphant	-11.6342
▁technical	-11.6343
▁preten	-11.6343
heard	-11.6343
▁inject	-11.6344
front	-11.6345
doola	-11.6345
▁confuse	-11.6346
▁expos	-11.6346
fire	-11.6346
fast	-11.6348
logy	-11.6348
▁crippl	-11.6349
bleh	-11.6349
▁potato	-11.6349
▁convey	-11.635
▁prettie	-11.635
bait	-11.635
▁definite	-11.635
▁constitution	-11.635
▁bea	-11.635
neck	-11.635
▁hawk	-11.6351
▁inspect	-11.6351
▁accelerat	-11.6352
▁beautifu	-11.6352
▁lovin	-11.6353
▁whit	-11.6353
▁robbin	-11.6353
▁sittin	-11.6353
based	-11.6354
brain	-11.6355
▁enclos	-11.6355
▁vanish	-11.6355
ravity	-11.6356
▁francis	-11.6356
vil	-11.6356
erci	-11.6356
▁acquaint	-11.6356
▁scholar	-11.6356
▁workshop	-11.6356
jui	-11.6356
▁viola	-11.6356
▁brigad	-11.6356
▁nevii	-11.6356
▁christoph	-11.6356
▁mmmmmmmmmmmm	-11.6356
▁rehab	-11.6356
bolical	-11.6356
clusive	-11.6356
evolved	-11.6356
ezvous	-11.6356
structure	-11.6356
▁accompany	-11.6356
▁acknowledge	-11.6356
▁adelaide	-11.6356
▁advertising	-11.6356
▁affirmative	-11.6356
▁almond	-11.6356
▁amateur	-11.6356
▁animation	-11.6356
▁anniversary	-11.6356
▁apparition	-11.6356
▁applesauce	-11.6356
▁argument	-11.6356
▁ashtray	-11.6356
▁atlanta	-11.6356
▁ausfahrt	-11.6356
▁authentic	-11.6356
▁avalanche	-11.6356
▁babinot	-11.6356
▁balcony	-11.6356
▁bathtub	-11.6356
▁beepbeep	-11.6356
▁bennington	-11.6356
▁berserk	-11.6356
▁binoculars	-11.6356
▁biscuits	-11.6356
▁bjornson	-11.6356
▁blimp	-11.6356
▁blonde	-11.6356
▁bolinari	-11.6356
▁bookcase	-11.6356
▁bouvar	-11.6356
▁brinkerhoff	-11.6356
▁buffoon	-11.6356
▁bulchar	-11.6356
▁burlesque	-11.6356
▁cardiopep	-11.6356
▁caribbean	-11.6356
▁catalogue	-11.6356
▁cautious	-11.6356
▁cecily	-11.6356
▁celebration	-11.6356
▁cereal	-11.6356
▁cholesterol	-11.6356
▁clatters	-11.6356
▁compartment	-11.6356
▁completion	-11.6356
▁concludes	-11.6356
▁convincing	-11.6356
▁corporation	-11.6356
▁cottins	-11.6356
▁crocodile	-11.6356
▁crustacean	-11.6356
▁cynical	-11.6356
▁dandelion	-11.6356
▁deceitful	-11.6356
▁december	-11.6356
▁decoys	-11.6356
▁demolition	-11.6356
▁deodorant	-11.6356
▁depression	-11.6356
▁despair	-11.6356
▁devlin	-11.6356
▁dictionary	-11.6356
▁dispatch	-11.6356
▁distress	-11.6356
▁dossier	-11.6356
▁dottie	-11.6356
▁dynamite	-11.6356
▁edgaar	-11.6356
▁eject	-11.6356
▁elvis	-11.6356
▁espionage	-11.6356
▁evolution	-11.6356
▁expenses	-11.6356
▁fanfare	-11.6356
▁femur	-11.6356
▁ferocious	-11.6356
▁fickle	-11.6356
▁firefrorefiddle	-11.6356
▁folley	-11.6356
▁frenzy	-11.6356
▁fugitive	-11.6356
▁gertrude	-11.6356
▁ghoul	-11.6356
▁gipper	-11.6356
▁gretchen	-11.6356
▁grizabella	-11.6356
▁grumbling	-11.6356
▁gustav	-11.6356
▁harlem	-11.6356
▁hibernate	-11.6356
▁hortono	-11.6356
▁hubbard	-11.6356
▁imbecile	-11.6356
▁imperceptible	-11.6356
▁inappropriate	-11.6356
▁inconvenience	-11.6356
▁ineffable	-11.6356
▁infestation	-11.6356
▁ingredient	-11.6356
▁inherit	-11.6356
▁instagram	-11.6356
▁intact	-11.6356
▁intimidate	-11.6356
▁intolerant	-11.6356
▁investigator	-11.6356
▁jadoube	-11.6356
▁kalmbach	-11.6356
▁karaoke	-11.6356
▁lachrymose	-11.6356
▁lemchek	-11.6356
▁lettuce	-11.6356
▁locust	-11.6356
▁ludicrous	-11.6356
▁mandatory	-11.6356
▁marvellous	-11.6356
▁mccord	-11.6356
▁mcgregor	-11.6356
▁melancholy	-11.6356
▁microchip	-11.6356
▁microwave	-11.6356
▁miniature	-11.6356
▁miriam	-11.6356
▁montmartre	-11.6356
▁munro	-11.6356
▁muthaiga	-11.6356
▁neenurt	-11.6356
▁nellie	-11.6356
▁neutralize	-11.6356
▁ninetynine	-11.6356
▁nogood	-11.6356
▁nomolos	-11.6356
▁norwegian	-11.6356
▁notorious	-11.6356
▁okeysolo	-11.6356
▁oprah	-11.6356
▁pajamas	-11.6356
▁parseghian	-11.6356
▁penicillin	-11.6356
▁phantom	-11.6356
▁pingpong	-11.6356
▁piracy	-11.6356
▁preliminar	-11.6356
▁preposterous	-11.6356
▁prosecutor	-11.6356
▁purcell	-11.6356
▁purrfectly	-11.6356
▁pyjamas	-11.6356
▁quarry	-11.6356
▁recordplayer	-11.6356
▁repulsive	-11.6356
▁rescuing	-11.6356
▁robaire	-11.6356
▁robogadget	-11.6356
▁rufus	-11.6356
▁sanctuary	-11.6356
▁saunders	-11.6356
▁sausage	-11.6356
▁scenario	-11.6356
▁sceptre	-11.6356
▁schmuck	-11.6356
▁schroeder	-11.6356
▁scotch	-11.6356
▁seamstress	-11.6356
▁shepherd	-11.6356
▁sinatra	-11.6356
▁sloppy	-11.6356
▁slugs	-11.6356
▁snorts	-11.6356
▁solemn	-11.6356
▁sourpuss	-11.6356
▁spaghetti	-11.6356
▁specimen	-11.6356
▁strangle	-11.6356
▁strasser	-11.6356
▁strategy	-11.6356
▁striking	-11.6356
▁strums	-11.6356
▁stuart	-11.6356
▁substance	-11.6356
▁suitcase	-11.6356
▁superhero	-11.6356
▁swift	-11.6356
▁syllable	-11.6356
▁taffeta	-11.6356
▁terrace	-11.6356
▁terrain	-11.6356
▁testimony	-11.6356
▁tiffany	-11.6356
▁toothpaste	-11.6356
▁trajectory	-11.6356
▁trowbridge	-11.6356
▁tsavo	-11.6356
▁twittering	-11.6356
▁underestimate	-11.6356
▁unmarried	-11.6356
▁vandenberg	-11.6356
▁vinnie	-11.6356
▁volante	-11.6356
▁volleyball	-11.6356
▁volts	-11.6356
▁volume	-11.6356
▁vulcan	-11.6356
▁vulture	-11.6356
▁walkietalkie	-11.6356
▁westminster	-11.6356
▁wimoweh	-11.6356
▁wynn	-11.6356
▁yoriko	-11.6356
▁astound	-11.6356
▁beddersvere	-11.6356
▁blouse	-11.6356
▁blubber	-11.6356
▁casual	-11.6356
▁choir	-11.6356
▁demolish	-11.6356
▁detorre	-11.6356
▁digital	-11.6356
▁diplomat	-11.6356
▁durant	-11.6356
▁fleming	-11.6356
▁guiet	-11.6356
▁importance	-11.6356
▁introducing	-11.6356
▁jeopardi	-11.6356
▁juggl	-11.6356
▁matherson	-11.6356
▁mccoy	-11.6356
▁migra	-11.6356
▁murk	-11.6356
▁ngong	-11.6356
▁nutrition	-11.6356
▁paddle	-11.6356
▁palmyra	-11.6356
▁panzer	-11.6356
▁refund	-11.6356
▁ribbon	-11.6356
▁scoop	-11.6356
▁sliding	-11.6356
▁smog	-11.6356
▁spooky	-11.6356
▁superstar	-11.6356
▁sweetiepie	-11.6356
bbidibo	-11.6356
▁absorb	-11.6356
▁airraid	-11.6356
▁comanche	-11.6356
▁contaminat	-11.6356
▁crotche	-11.6356
▁cyber	-11.6356
▁dealership	-11.6356
▁doeuvre	-11.6356
▁falter	-11.6356
▁fishermen	-11.6356
▁fourteen	-11.6356
▁haiii	-11.6356
▁horde	-11.6356
▁igor	-11.6356
▁macaro	-11.6356
▁mph	-11.6356
▁orbit	-11.6356
▁ovo	-11.6356
▁phony	-11.6356
▁pucker	-11.6356
▁stool	-11.6356
▁stroll	-11.6356
▁suspense	-11.6356
▁warehouse	-11.6356
▁wouid	-11.6356
▁altar	-11.6356
▁devon	-11.6356
▁licence	-11.6356
▁bootlegging	-11.6356
▁cheesy	-11.6356
▁creek	-11.6356
▁duchess	-11.6356
▁grumbles	-11.6356
▁unarmed	-11.6356
▁comfy	-11.6356
▁hogging	-11.6356
▁omelet	-11.6356
▁trippin	-11.6356
▁wager	-11.6356
▁whooshing	-11.6356
▁gouda	-11.6356
▁snatched	-11.6356
▁canyon	-11.6356
▁noseholes	-11.6356
▁oscar	-11.6356
▁horizon	-11.6356
▁perkins	-11.6356
▁snappy	-11.6356
▁exceed	-11.6356
▁fraid	-11.6356
▁panicked	-11.6356
▁pigeon	-11.6356
bbbut	-11.6356
▁defici	-11.6356
▁finstock	-11.6356
▁molly	-11.6356
▁october	-11.6356
afied	-11.6356
▁chord	-11.6356
▁drip	-11.6356
▁tackleberry	-11.6356
▁ninetyeight	-11.6356
▁patzer	-11.6356
▁tibet	-11.6356
▁millionaire	-11.6356
▁finletter	-11.6356
▁yodel	-11.6356
▁regulations	-11.6356
▁recurr	-11.6356
▁imposter	-11.6356
▁lipstick	-11.6356
▁sleaz	-11.6356
▁unstable	-11.6356
▁diorama	-11.6357
▁lapcat	-11.6357
▁profit	-11.6357
▁fruitcake	-11.6357
▁oxford	-11.6357
▁samuel	-11.6357
week	-11.6357
▁divina	-11.6357
▁vichy	-11.6357
▁basis	-11.6357
▁liquorice	-11.6357
parallel	-11.6357
▁enforcement	-11.6357
▁glitter	-11.6357
▁ignorant	-11.6357
▁fading	-11.6357
▁consum	-11.6357
▁adrift	-11.6357
▁awhile	-11.6357
▁chowder	-11.6357
▁allergies	-11.6357
▁preview	-11.6357
▁butler	-11.6357
▁intimate	-11.6357
▁puppies	-11.6357
▁insubordination	-11.6357
▁prostitution	-11.6357
▁syp	-11.6357
▁compound	-11.6357
▁toad	-11.6357
▁previous	-11.6357
▁wilkins	-11.6357
▁rubbing	-11.6357
▁theories	-11.6357
▁obtain	-11.6357
oxide	-11.6357
▁chopping	-11.6357
▁fuji	-11.6357
▁jellyfish	-11.6357
▁fiction	-11.6357
▁expeditio	-11.6357
▁heartache	-11.6357
▁brink	-11.6357
▁token	-11.6357
▁papi	-11.6357
▁whining	-11.6357
▁flap	-11.6357
▁hostility	-11.6357
▁norton	-11.6357
▁abode	-11.6357
▁gargl	-11.6357
▁midget	-11.6357
▁fangs	-11.6357
▁keble	-11.6357
▁gallery	-11.6357
▁verso	-11.6357
▁fingerprint	-11.6357
▁resident	-11.6357
▁wimp	-11.6357
▁chunk	-11.6357
▁hush	-11.6357
▁snuck	-11.6357
▁wieder	-11.6357
▁curator	-11.6357
▁entom	-11.6357
▁knitting	-11.6357
▁clack	-11.6357
▁decompos	-11.6357
▁penalty	-11.6357
▁hydro	-11.6357
▁inferna	-11.6357
▁despise	-11.6357
▁observation	-11.6357
▁collar	-11.6357
▁finley	-11.6357
▁biologist	-11.6357
▁couch	-11.6357
▁extensive	-11.6357
▁referred	-11.6357
▁scientifically	-11.6357
▁specifically	-11.6357
▁quiver	-11.6357
▁hostile	-11.6357
▁iying	-11.6357
▁wills	-11.6357
▁morality	-11.6357
▁herbs	-11.6358
▁vince	-11.6358
ride	-11.6358
▁arrogant	-11.6358
▁regulator	-11.6358
▁rochester	-11.6358
▁viral	-11.6358
▁wormsley	-11.6358
▁boredom	-11.6358
▁ferrand	-11.6358
kiki	-11.6358
▁kumar	-11.6358
▁disarm	-11.6358
▁coupling	-11.6358
rteen	-11.6358
▁fiancee	-11.6358
shire	-11.6358
▁rookery	-11.6358
▁offence	-11.6358
▁whittle	-11.6358
▁famine	-11.6358
▁edith	-11.6358
▁blaine	-11.6358
valry	-11.6358
▁ramos	-11.6358
▁latitude	-11.6358
▁watt	-11.6358
▁moray	-11.6358
▁robberies	-11.6358
▁rising	-11.6358
▁gretta	-11.6358
▁permitted	-11.6358
▁mirage	-11.6358
▁hyah	-11.6358
▁tunis	-11.6358
▁grotto	-11.6358
▁properties	-11.6358
berlin	-11.6358
▁cancelled	-11.6358
▁whawhat	-11.6358
▁uther	-11.6358
▁shutters	-11.6358
▁cliffside	-11.6358
▁excla	-11.6358
▁batgas	-11.6359
▁decree	-11.6359
▁refine	-11.6359
▁hypothetically	-11.6359
▁buzzard	-11.6359
▁valentine	-11.6359
▁forevermore	-11.6359
▁toons	-11.6359
▁overall	-11.6359
▁pinhead	-11.6359
▁pupil	-11.6359
▁coveted	-11.6359
▁defi	-11.6359
▁oiwa	-11.6359
▁eldest	-11.6359
▁bleat	-11.6359
▁dojo	-11.6359
▁howre	-11.6359
▁measurement	-11.6359
▁rumour	-11.6359
▁groceries	-11.6359
▁theory	-11.6359
▁traveller	-11.6359
▁cinch	-11.6359
▁primate	-11.6359
▁pinoc	-11.6359
▁trenches	-11.6359
vada	-11.6359
▁granddaughter	-11.636
▁suitors	-11.636
▁compact	-11.636
▁corporate	-11.636
▁embark	-11.636
▁phrase	-11.636
▁skeleton	-11.636
▁flavor	-11.636
▁bracelet	-11.636
▁physics	-11.636
▁humorous	-11.636
▁oohooh	-11.636
▁array	-11.636
▁olive	-11.636
▁zab	-11.636
▁didn	-11.636
▁protest	-11.636
▁passport	-11.636
▁lull	-11.636
▁karlin	-11.636
▁disturbance	-11.636
▁petition	-11.636
▁detain	-11.636
▁dwell	-11.636
▁activating	-11.636
▁snout	-11.636
▁teri	-11.636
▁burrow	-11.636
▁baking	-11.636
▁magnum	-11.636
▁infection	-11.636
▁barbar	-11.6361
▁survival	-11.6361
▁reflex	-11.6361
▁tension	-11.6361
▁password	-11.6361
▁dante	-11.6361
▁banish	-11.6361
▁waving	-11.6361
dolf	-11.6361
imum	-11.6361
▁worldwide	-11.6361
▁achievement	-11.6361
▁eva	-11.6361
▁jagged	-11.6361
▁scat	-11.6361
▁ambition	-11.6361
▁timber	-11.6361
▁impose	-11.6361
▁hangover	-11.6361
▁alias	-11.6361
▁dentist	-11.6361
▁rattle	-11.6361
▁kwan	-11.6361
▁rewind	-11.6362
▁yikes	-11.6362
▁grid	-11.6362
▁eligible	-11.6362
▁fowl	-11.6362
▁novelist	-11.6362
▁haircut	-11.6362
cadill	-11.6362
▁jog	-11.6362
▁capit	-11.6362
nversion	-11.6362
▁keyboard	-11.6362
▁reborn	-11.6362
▁freddie	-11.6362
▁stokely	-11.6363
atherine	-11.6363
▁communicate	-11.6363
▁fivefoot	-11.6363
▁cities	-11.6363
▁fabri	-11.6363
▁dna	-11.6363
▁hallucination	-11.6363
inch	-11.6363
▁eww	-11.6363
▁unlock	-11.6363
▁pierre	-11.6363
▁teammate	-11.6363
▁mardi	-11.6363
▁edna	-11.6363
▁biz	-11.6364
▁spotlight	-11.6364
▁pont	-11.6364
▁accountant	-11.6364
▁onion	-11.6364
▁conveyor	-11.6364
▁dribbling	-11.6364
▁figuring	-11.6364
▁mash	-11.6365
▁detector	-11.6365
▁grot	-11.6365
▁stepping	-11.6365
▁jaw	-11.6365
▁tid	-11.6365
▁reelection	-11.6365
▁clan	-11.6365
▁crackling	-11.6365
▁hatred	-11.6365
▁hoof	-11.6365
▁begone	-11.6365
▁lug	-11.6365
▁hence	-11.6365
▁sunlight	-11.6365
▁wiggle	-11.6365
▁exhibition	-11.6366
▁torn	-11.6366
▁foreman	-11.6366
▁underage	-11.6366
▁penis	-11.6366
▁shant	-11.6366
▁parche	-11.6366
▁ix	-11.6367
▁swiped	-11.6367
▁nooo	-11.6367
▁civilized	-11.6367
tight	-11.6367
▁highfive	-11.6367
▁broom	-11.6367
▁partake	-11.6367
▁virtual	-11.6367
▁inva	-11.6368
▁reub	-11.6368
▁intercepted	-11.6368
▁lair	-11.6368
▁gret	-11.6368
▁fag	-11.6368
▁hobo	-11.6368
▁contribution	-11.6368
▁injection	-11.6368
▁singoff	-11.6368
▁ofthem	-11.6368
▁eee	-11.6369
year	-11.6369
▁midst	-11.6369
▁abuse	-11.6369
atu	-11.6369
▁management	-11.6369
▁frenchmen	-11.6369
▁showgirl	-11.6369
▁attain	-11.6369
▁defenseless	-11.6369
arian	-11.637
▁hick	-11.637
▁colorful	-11.637
▁macho	-11.637
▁bev	-11.637
▁qual	-11.6371
▁racers	-11.6371
▁scope	-11.6371
▁kath	-11.6371
▁aqua	-11.6371
▁mech	-11.6372
▁vee	-11.6372
▁dorf	-11.6372
▁degenerate	-11.6373
▁glance	-11.6373
▁strait	-11.6373
▁tux	-11.6373
▁capers	-11.6373
▁were	-11.6374
▁instructed	-11.6374
▁hahn	-11.6374
▁pinto	-11.6374
▁grit	-11.6375
▁zman	-11.6375
▁mob	-11.6376
▁operate	-11.6376
▁recon	-11.6377
▁highlight	-11.6377
▁mite	-11.6377
▁portal	-11.6377
ready	-11.6377
▁hoop	-11.6378
▁budge	-11.6378
▁croaking	-11.6378
▁lollygagging	-11.6378
dressed	-11.6378
▁warmth	-11.6378
▁attraction	-11.6378
▁ignoring	-11.6378
▁sewer	-11.6378
▁cub	-11.6379
▁brownies	-11.638
▁losses	-11.638
▁normality	-11.6381
▁deter	-11.6381
▁pud	-11.6381
▁era	-11.6382
tti	-11.6382
▁yellin	-11.6382
▁gambler	-11.6382
▁dangle	-11.6382
▁sadness	-11.6382
▁rigging	-11.6383
▁fortunately	-11.6383
▁lunchtime	-11.6383
lessness	-11.6384
▁ruben	-11.6384
▁tempted	-11.6385
▁legit	-11.6385
▁neglected	-11.6385
▁overreacted	-11.6385
▁dish	-11.6385
icka	-11.6386
▁acro	-11.6386
▁acceptable	-11.6387
▁declared	-11.6387
▁encouraged	-11.6387
▁foreigners	-11.6387
▁burglary	-11.6387
▁backpack	-11.6388
▁spotless	-11.6388
▁duo	-11.6388
▁biggie	-11.6389
▁explorer	-11.6389
▁verse	-11.639
▁respectable	-11.639
tag	-11.6391
▁fries	-11.6391
▁raft	-11.6391
▁restraint	-11.6391
▁decorated	-11.6393
▁kincaids	-11.6394
▁politicians	-11.6394
▁olympics	-11.6394
▁arf	-11.6394
▁pester	-11.6395
▁wiser	-11.6395
▁clearance	-11.6397
carbon	-11.6397
▁bala	-11.6398
▁grease	-11.6399
▁reduce	-11.6399
▁splendidly	-11.6399
▁cinder	-11.64
eah	-11.64
▁oaty	-11.64
▁kiddo	-11.64
▁swed	-11.6402
▁mia	-11.6405
▁marrie	-11.6405
▁kay	-11.6406
▁protector	-11.6406
▁july	-11.6406
sanitary	-11.6406
▁dion	-11.6407
▁todo	-11.6407
oped	-11.6407
▁clanging	-11.6408
▁thrilled	-11.6408
▁startled	-11.6408
pal	-11.6408
▁hatches	-11.6409
▁swamp	-11.641
▁eliminat	-11.6412
▁metro	-11.6413
▁preserved	-11.6416
▁ole	-11.6416
▁rubin	-11.6417
▁standby	-11.6417
nnae	-11.6418
▁everyday	-11.6418
ound	-11.6418
hut	-11.6419
▁honoured	-11.6419
▁distracted	-11.6419
▁graduated	-11.6421
▁moist	-11.6421
▁functioning	-11.6421
▁iim	-11.6421
▁dominate	-11.6424
▁corny	-11.6427
▁stillwell	-11.6428
▁fro	-11.6428
cumber	-11.6428
▁salty	-11.6429
▁childish	-11.6431
▁established	-11.6431
▁coachman	-11.6431
▁affected	-11.6434
▁mourning	-11.6435
▁deceive	-11.6437
▁rollers	-11.6439
▁bitten	-11.6442
▁nazi	-11.6443
▁sil	-11.6443
▁irritat	-11.6445
▁damaged	-11.6445
▁jewel	-11.6446
overt	-11.6448
▁perfection	-11.6448
▁surfing	-11.645
▁splashing	-11.645
▁pouring	-11.645
▁beaten	-11.6452
▁cello	-11.6452
▁weaker	-11.6455
▁admired	-11.6456
▁maidens	-11.6459
▁assets	-11.6459
▁beverages	-11.6459
▁consequences	-11.6459
▁meadows	-11.6459
▁napkins	-11.6459
▁nerds	-11.6459
▁symptoms	-11.6459
▁vibes	-11.6459
▁chores	-11.6459
▁knuckles	-11.6459
▁debate	-11.646
▁weighing	-11.6464
▁plank	-11.6465
▁fatal	-11.6466
▁optimist	-11.6467
▁taco	-11.6468
▁nor	-11.647
▁wedge	-11.647
▁yap	-11.6471
▁dreamers	-11.6474
▁chilly	-11.6476
song	-11.6476
▁fainted	-11.6477
▁succeeded	-11.6477
▁attracted	-11.6477
▁rash	-11.6478
▁briefing	-11.6478
▁mustard	-11.6479
▁mixing	-11.6479
▁correctly	-11.6482
▁stormy	-11.6483
▁floati	-11.6483
▁traditional	-11.6486
▁shattered	-11.6489
▁mocking	-11.6493
▁pumping	-11.6493
▁complaining	-11.6494
makers	-11.6494
▁bagel	-11.6494
▁jamm	-11.6496
▁turnout	-11.6497
▁assured	-11.6497
▁scarf	-11.6498
▁associates	-11.6499
▁cryin	-11.6501
▁tax	-11.6503
▁goof	-11.6503
▁dinging	-11.6511
▁roasted	-11.6512
liness	-11.6515
▁terminate	-11.6521
▁drowned	-11.6523
▁remarkabl	-11.6524
otics	-11.6525
▁applications	-11.6526
▁barrels	-11.6526
▁munchkins	-11.6526
▁mutants	-11.6526
▁diversions	-11.6526
▁zords	-11.6526
▁ari	-11.6526
▁clams	-11.6526
▁obligations	-11.6526
▁graduate	-11.6527
▁flags	-11.6528
▁tile	-11.6528
butt	-11.6532
▁globa	-11.6532
▁wired	-11.6533
▁zinged	-11.6535
▁disturbing	-11.6537
▁interrupting	-11.6537
▁healing	-11.6538
hilis	-11.6539
▁any	-11.654
▁sonar	-11.6543
▁chewed	-11.6546
▁judged	-11.6546
▁finale	-11.6551
▁chained	-11.6551
▁cite	-11.6553
▁borrowed	-11.6558
▁filed	-11.6559
▁cling	-11.656
▁wad	-11.6566
▁piper	-11.6573
▁freaky	-11.6573
▁coron	-11.6574
▁mooing	-11.6575
▁unti	-11.6579
▁fling	-11.658
▁shocking	-11.6582
▁trashed	-11.6582
▁pear	-11.6584
▁hale	-11.6585
▁shallows	-11.6593
▁replacements	-11.6594
▁capsules	-11.6594
▁dumdums	-11.6594
▁gokarts	-11.6594
▁overlords	-11.6594
▁owi	-11.6594
▁rumors	-11.6594
▁flushing	-11.6595
▁kidneys	-11.6597
breast	-11.6598
▁defeated	-11.6605
rag	-11.6606
▁snowy	-11.6607
▁blackberr	-11.6607
rid	-11.6609
▁blamed	-11.6609
▁sailed	-11.6612
▁printed	-11.6612
▁ranchers	-11.6614
▁statues	-11.6615
▁witnessed	-11.6617
▁steamer	-11.6622
▁ants	-11.6622
▁proved	-11.6642
▁thankyou	-11.6647
▁maniacs	-11.6662
▁guineas	-11.6662
▁rainbows	-11.6662
hel	-11.6664
▁snipers	-11.6668
▁factors	-11.6669
▁dealt	-11.6671
▁pounding	-11.6674
▁funding	-11.6676
▁girlie	-11.6681
▁badger	-11.6686
▁ble	-11.6686
▁props	-11.6687
▁armor	-11.6695
▁architectur	-11.6696
▁ironed	-11.6699
▁madly	-11.6701
▁trainer	-11.6703
rav	-11.671
▁horny	-11.6727
tails	-11.673
▁jacque	-11.673
▁psychologica	-11.673
▁relays	-11.6731
▁cheerleaders	-11.6731
▁rockefellers	-11.6731
▁wednesdays	-11.6731
▁cartoons	-11.6731
▁blinded	-11.6736
▁ara	-11.6744
▁remained	-11.6745
▁hooking	-11.6753
▁rustle	-11.6759
▁closeup	-11.6763
▁irs	-11.6778
▁inco	-11.6791
▁peer	-11.6791
▁commanded	-11.6794
rest	-11.68
▁gunshots	-11.6801
▁battalions	-11.6801
▁breezes	-11.6801
▁reservations	-11.6801
▁techniques	-11.6801
▁whores	-11.6801
▁connections	-11.6802
▁strains	-11.6804
▁guarded	-11.6804
▁weirdo	-11.6812
probation	-11.6812
▁goons	-11.683
tero	-11.6858
▁joshie	-11.686
▁barbi	-11.6864
▁colours	-11.6871
cra	-11.6872
▁sailors	-11.6872
▁exits	-11.6872
▁wounds	-11.6873
▁hens	-11.6875
ledge	-11.6877
sfield	-11.6878
▁owners	-11.6886
pip	-11.6886
▁flake	-11.689
▁retr	-11.6906
rett	-11.6921
▁habits	-11.6925
▁drills	-11.6942
▁patterns	-11.6942
▁gears	-11.6942
▁flames	-11.6942
▁spa	-11.6946
▁salv	-11.6946
▁provides	-11.6946
▁chem	-11.6951
▁bombed	-11.6952
▁dated	-11.6971
▁spine	-11.6976
▁sins	-11.6991
▁freely	-11.6995
lau	-11.6997
throw	-11.6998
▁peel	-11.6999
▁headin	-11.7011
▁locations	-11.7013
▁nephews	-11.7013
▁winters	-11.7013
▁punks	-11.7013
▁petit	-11.7035
terior	-11.7037
▁classy	-11.7039
▁warming	-11.7046
▁isabel	-11.7055
▁alib	-11.706
▁downs	-11.7063
▁nui	-11.7074
▁ci	-11.7074
▁laughed	-11.7082
nne	-11.7082
▁autographs	-11.7085
▁tons	-11.7086
▁lotion	-11.7107
▁fab	-11.713
▁weep	-11.7132
▁idol	-11.7133
▁babysitt	-11.7136
▁misses	-11.7139
▁mach	-11.714
▁criticis	-11.7151
▁grizzl	-11.7158
frig	-11.7174
▁punt	-11.7194
▁tortur	-11.7207
anned	-11.7232
▁stripp	-11.7236
fax	-11.7244
▁wiz	-11.7247
▁postpone	-11.7266
▁heath	-11.7274
▁duel	-11.7275
titude	-11.7285
▁kane	-11.7286
▁priorit	-11.7308
aries	-11.7311
▁formulate	-11.7349
▁magn	-11.7372
tom	-11.7403
▁zoom	-11.7403
pot	-11.7415
▁noki	-11.7442
cab	-11.7444
▁spr	-11.7499
▁overru	-11.7526
filled	-11.7536
ripping	-11.7541
▁receiv	-11.7564
pian	-11.7569
uge	-11.7569
▁skim	-11.7573
▁educat	-11.7596
▁maur	-11.7601
ttling	-11.7616
cture	-11.762
▁rustlin	-11.763
yho	-11.7652
rax	-11.7685
iona	-11.7719
had	-11.7729
▁pep	-11.7731
would	-11.7731
night	-11.7768
ickens	-11.7802
▁domini	-11.7807
▁tro	-11.7834
addie	-11.7897
▁domin	-11.7907
rites	-11.7929
▁ger	-11.7935
▁sip	-11.7947
til	-11.7949
quet	-11.7993
dict	-11.8008
erator	-11.8069
gent	-11.8095
▁conjure	-11.8102
▁entr	-11.8131
orte	-11.8138
▁squa	-11.8138
▁emir	-11.8168
▁cha	-11.818
▁gab	-11.8184
icks	-11.8186
ella	-11.8224
▁arr	-11.8263
ummy	-11.8302
▁spar	-11.8323
met	-11.834
▁gala	-11.8364
▁scor	-11.8395
nald	-11.8426
▁scho	-11.8451
nders	-11.8484
lick	-11.8503
bran	-11.8519
nova	-11.8524
ano	-11.8527
state	-11.8538
ittle	-11.8545
pid	-11.856
ova	-11.856
cidentally	-11.8596
ui	-11.8611
ggie	-11.8614
nia	-11.8625
xie	-11.8643
action	-11.8668
▁critic	-11.8673
ux	-11.8709
itable	-11.8712
moi	-11.8717
oobee	-11.8747
▁vel	-11.8775
▁cooperat	-11.878
▁cab	-11.8789
ode	-11.8843
oven	-11.8843
rane	-11.8866
▁mer	-11.8895
bru	-11.8898
▁exp	-11.8903
onic	-11.891
bin	-11.8923
urst	-11.8946
▁shhh	-11.896
▁prob	-11.8961
cate	-11.8967
▁replica	-11.8976
city	-11.8995
rano	-11.8997
▁vot	-11.901
cci	-11.9021
▁translate	-11.905
ako	-11.906
▁prep	-11.907
liable	-11.9099
▁fue	-11.9135
unch	-11.9144
nium	-11.915
real	-11.9153
illian	-11.9163
gui	-11.9173
▁styl	-11.9196
▁chug	-11.9231
▁architect	-11.9235
▁midw	-11.9244
▁hallucin	-11.927
ewa	-11.9282
otic	-11.9285
pee	-11.9295
shes	-11.9303
dated	-11.9315
▁vec	-11.9319
q	-11.932
ooh	-11.9325
ology	-11.9335
certainty	-11.9337
berry	-11.9337
wei	-11.9344
▁trai	-11.9358
▁flag	-11.9359
▁bun	-11.9368
aya	-11.9371
pressed	-11.9382
▁batt	-11.9386
isla	-11.9401
orous	-11.9404
marked	-11.9405
ndo	-11.9412
▁corp	-11.9415
▁bark	-11.9428
maker	-11.9439
▁exclaim	-11.944
anne	-11.944
▁groan	-11.9441
▁att	-11.9444
▁bart	-11.945
▁scrap	-11.9451
▁robber	-11.9453
▁clam	-11.9456
▁mutant	-11.9459
▁barrel	-11.9459
▁diversion	-11.9459
▁application	-11.9459
▁munchkin	-11.946
▁obligation	-11.9464
▁crow	-11.9464
▁vandal	-11.9465
▁insect	-11.9465
▁predator	-11.9465
vine	-11.9467
▁fooglie	-11.9469
▁underhill	-11.9469
▁wasp	-11.947
▁initial	-11.947
▁coyote	-11.9474
▁prawn	-11.9474
▁zord	-11.9475
▁relative	-11.9476
appl	-11.9476
▁cackle	-11.9477
▁critter	-11.9477
▁vid	-11.9477
▁gras	-11.9483
▁exhale	-11.9485
itch	-11.9485
▁height	-11.9486
▁chart	-11.9493
▁termin	-11.9497
defeat	-11.9502
verse	-11.9504
lore	-11.9504
breaking	-11.9509
ftin	-11.9511
▁steven	-11.9512
oft	-11.9517
▁howl	-11.9517
faced	-11.9518
▁tex	-11.9519
ractor	-11.952
▁ration	-11.9531
minate	-11.9533
▁memo	-11.9538
▁dud	-11.9545
udge	-11.9555
▁mic	-11.956
▁yeeha	-11.9564
▁bulldo	-11.9565
▁refu	-11.9568
▁zap	-11.9573
▁oaf	-11.9579
burs	-11.958
▁loaf	-11.9581
▁performer	-11.9583
▁luc	-11.9587
tribute	-11.9589
▁rick	-11.959
break	-11.9597
▁overreact	-11.9597
▁demonstrate	-11.9603
aise	-11.9605
witt	-11.9605
▁juli	-11.9616
▁surviv	-11.9621
▁slick	-11.9625
▁numero	-11.9633
▁trespass	-11.9634
▁purr	-11.9638
▁confus	-11.9639
▁spreadin	-11.9639
pack	-11.964
▁snoop	-11.9642
▁alleg	-11.9643
▁applaud	-11.9643
nosed	-11.9645
▁obsess	-11.9646
▁consec	-11.9648
▁neglect	-11.965
▁snicker	-11.9651
▁ador	-11.9654
▁archi	-11.9654
father	-11.9656
change	-11.9656
▁garde	-11.9658
ulent	-11.9659
▁nun	-11.966
pound	-11.9662
▁tack	-11.9662
ridge	-11.9664
▁amaze	-11.9665
▁supervise	-11.9665
▁crisp	-11.9665
ought	-11.9665
▁humiliate	-11.9666
▁guil	-11.9667
por	-11.9668
drop	-11.9668
lethal	-11.9668
▁stead	-11.9668
zord	-11.9668
warming	-11.9669
dix	-11.9669
scope	-11.9669
writer	-11.9669
grade	-11.967
confirmed	-11.9671
▁isolate	-11.9671
respect	-11.9671
horn	-11.9671
physical	-11.9671
hurst	-11.9671
fifty	-11.9671
flesh	-11.9671
amount	-11.9671
bombs	-11.9671
dollar	-11.9671
bonnet	-11.9671
twenty	-11.9671
written	-11.9671
hundred	-11.9672
peach	-11.9672
fault	-11.9672
horse	-11.9672
second	-11.9672
nothing	-11.9672
summer	-11.9672
george	-11.9672
breath	-11.9672
jun	-11.9672
▁contribut	-11.9673
shoot	-11.9673
smith	-11.9674
▁secre	-11.9675
▁transmitt	-11.9675
▁flawless	-11.9675
pants	-11.9675
think	-11.9676
▁munk	-11.9676
wire	-11.9676
▁substitut	-11.9676
logical	-11.9676
cake	-11.9676
ooga	-11.9677
rope	-11.9677
cool	-11.9678
▁satscram	-11.9679
shore	-11.9679
scrap	-11.9679
▁spu	-11.9679
▁villa	-11.968
path	-11.968
▁dine	-11.9681
▁candida	-11.9681
▁georgi	-11.9682
▁dunn	-11.9682
▁karat	-11.9682
storm	-11.9683
▁teen	-11.9683
▁poke	-11.9683
▁brow	-11.9683
▁heave	-11.9683
inlaw	-11.9683
▁electro	-11.9683
▁ambitio	-11.9683
▁reflect	-11.9684
taking	-11.9685
forth	-11.9685
▁mamma	-11.9685
bats	-11.9686
▁happie	-11.9686
cript	-11.9686
wwhat	-11.9686
▁raisin	-11.9686
▁leavin	-11.9686
▁alcohol	-11.9686
▁dwar	-11.9687
▁eligib	-11.9687
▁hittin	-11.9687
hoohoo	-11.9687
▁interrogat	-11.9687
▁offici	-11.9687
▁mario	-11.9687
▁administrat	-11.9687
▁competit	-11.9687
▁twit	-11.9687
▁commence	-11.9687
ngeles	-11.9688
ortex	-11.9688
▁sentimental	-11.9688
▁extensi	-11.9688
ignment	-11.9688
▁supposi	-11.9688
oobeeday	-11.9688
▁influen	-11.9688
▁sacr	-11.9688
▁hitchhike	-11.9689
rinkle	-11.9689
▁compel	-11.9689
▁libra	-11.9689
magne	-11.9689
bob	-11.9689
▁despera	-11.9689
▁serge	-11.9689
▁handicap	-11.9689
▁stew	-11.9689
▁succ	-11.9689
▁meteor	-11.9689
▁griddle	-11.9689
▁hidin	-11.9689
nigger	-11.969
abilities	-11.969
▁anticipat	-11.969
▁reanimati	-11.969
▁resurrect	-11.969
▁synthe	-11.969
culty	-11.969
incomprehensible	-11.969
prehension	-11.969
responsibilities	-11.969
tempered	-11.969
yourself	-11.969
▁abbott	-11.969
▁abruptly	-11.969
▁accomplice	-11.969
▁accusation	-11.969
▁administer	-11.969
▁adrenaline	-11.969
▁adrienne	-11.969
▁afloat	-11.969
▁agencies	-11.969
▁algebra	-11.969
▁alistair	-11.969
▁alternator	-11.969
▁ambassador	-11.969
▁andromeda	-11.969
▁anemone	-11.969
▁angrily	-11.969
▁antibiotic	-11.969
▁antimatter	-11.969
▁appetizer	-11.969
▁arcade	-11.969
▁arkansas	-11.969
▁armistead	-11.969
▁arranging	-11.969
▁artificial	-11.969
▁auxiliary	-11.969
▁bachelor	-11.969
▁barrymore	-11.969
▁bartending	-11.969
▁batcopter	-11.969
▁batsignal	-11.969
▁beagle	-11.969
▁beastmaster	-11.969
▁behaving	-11.969
▁belgian	-11.969
▁benefactor	-11.969
▁bertrand	-11.969
▁bittrich	-11.969
▁blizzard	-11.969
▁bombardment	-11.969
▁boombastic	-11.969
▁botswana	-11.969
▁brantford	-11.969
▁brontoc	-11.969
▁brutal	-11.969
▁budapest	-11.969
▁canadian	-11.969
▁cannibal	-11.969
▁castiglione	-11.969
▁ceramic	-11.969
▁charcoal	-11.969
▁charleshenri	-11.969
▁charlotte	-11.969
▁cheetah	-11.969
▁chickenshit	-11.969
▁chomper	-11.969
▁chrissake	-11.969
▁clarity	-11.969
▁cleopatra	-11.969
▁collateral	-11.969
▁cologne	-11.969
▁colombia	-11.969
▁compensate	-11.969
▁competing	-11.969
▁concluded	-11.969
▁consulate	-11.969
▁contagious	-11.969
▁contempt	-11.969
▁copilot	-11.969
▁credentials	-11.969
▁cricket	-11.969
▁crisis	-11.969
▁cycle	-11.969
▁cymbal	-11.969
▁dawdle	-11.969
▁deborah	-11.969
▁declaration	-11.969
▁delbruck	-11.969
▁deliberate	-11.969
▁deprive	-11.969
▁detroit	-11.969
▁dialects	-11.969
▁didgeridoo	-11.969
▁discontent	-11.969
▁dissolve	-11.969
▁doorknob	-11.969
▁doublecheck	-11.969
▁drixenol	-11.969
▁drumroll	-11.969
▁dumbdumb	-11.969
▁eckhard	-11.969
▁ecosystem	-11.969
▁eindhoven	-11.969
▁embroider	-11.969
▁emplacement	-11.969
▁encyclopedia	-11.969
▁enquire	-11.969
▁enslave	-11.969
▁enthusiasm	-11.969
▁entitlement	-11.969
▁equivalent	-11.969
▁eureka	-11.969
▁eviscerat	-11.969
▁explicit	-11.969
▁facial	-11.969
▁falcon	-11.969
▁falkstein	-11.969
▁ferguson	-11.969
▁fernand	-11.969
▁fiji	-11.969
▁flank	-11.969
▁frambois	-11.969
▁fronds	-11.969
▁furnished	-11.969
▁furthermore	-11.969
▁furtillo	-11.969
▁garcia	-11.969
▁garebear	-11.969
▁gaulle	-11.969
▁generosity	-11.969
▁giddap	-11.969
▁gigantic	-11.969
▁glaucus	-11.969
▁glute	-11.969
▁google	-11.969
▁goosebumps	-11.969
▁graham	-11.969
▁gresham	-11.969
▁grieving	-11.969
▁grotesque	-11.969
▁guacamole	-11.969
▁gypsies	-11.969
▁heehee	-11.969
▁hefty	-11.969
▁heirloom	-11.969
▁hendri	-11.969
▁hendricks	-11.969
▁hitchhiking	-11.969
▁houghton	-11.969
▁hudnutt	-11.969
▁hypothalamus	-11.969
▁impatient	-11.969
▁improbable	-11.969
▁impulsive	-11.969
▁incapacitate	-11.969
▁incorrigible	-11.969
▁induce	-11.969
▁inquiry	-11.969
▁intervention	-11.969
▁intestine	-11.969
▁intrigue	-11.969
▁intrusion	-11.969
▁invincible	-11.969
▁invoices	-11.969
▁irregular	-11.969
▁jankanoo	-11.969
▁journo	-11.969
▁juilliard	-11.969
▁kamikaze	-11.969
▁kazoo	-11.969
▁keith	-11.969
▁kettle	-11.969
▁kgsc	-11.969
▁kippelstein	-11.969
▁krishna	-11.969
▁lacquer	-11.969
▁lafarge	-11.969
▁lamborghini	-11.969
▁laviron	-11.969
▁lodging	-11.969
▁luxury	-11.969
▁magnifique	-11.969
▁magnusson	-11.969
▁malaria	-11.969
▁malibu	-11.969
▁marseilles	-11.969
▁mattress	-11.969
▁mechanism	-11.969
▁memsahib	-11.969
▁minneapolis	-11.969
▁misfits	-11.969
▁misinterpret	-11.969
▁morosky	-11.969
▁musicmusic	-11.969
▁mussolini	-11.969
▁mutated	-11.969
▁mutineers	-11.969
▁mwah	-11.969
▁mycroft	-11.969
▁nevilie	-11.969
▁nifty	-11.969
▁nostril	-11.969
▁nourishment	-11.969
▁oatyoaty	-11.969
▁ordeal	-11.969
▁oream	-11.969
▁oswald	-11.969
▁outlook	-11.969
▁overflow	-11.969
▁overlook	-11.969
▁pablo	-11.969
▁pakistan	-11.969
▁pampered	-11.969
▁pangani	-11.969
▁paragraph	-11.969
▁parliament	-11.969
▁parlour	-11.969
▁participat	-11.969
▁pepperoni	-11.969
▁perignon	-11.969
▁perpendicular	-11.969
▁perpetrator	-11.969
▁persecute	-11.969
▁pesticide	-11.969
▁philadelphia	-11.969
▁philanthropi	-11.969
▁phineus	-11.969
▁phoenix	-11.969
▁plaster	-11.969
▁platform	-11.969
▁platypus	-11.969
▁playground	-11.969
▁polluted	-11.969
▁polyester	-11.969
▁porcupine	-11.969
▁positivity	-11.969
▁ppppp	-11.969
▁practicing	-11.969
▁predicament	-11.969
▁prestigious	-11.969
▁prosperity	-11.969
▁provision	-11.969
▁purified	-11.969
▁puttanesca	-11.969
▁quadling	-11.969
▁rachel	-11.969
▁raheem	-11.969
▁ratfucking	-11.969
▁rattlesnake	-11.969
▁reconsider	-11.969
▁refrain	-11.969
▁rehearsing	-11.969
▁remix	-11.969
▁removal	-11.969
▁removing	-11.969
▁renegade	-11.969
▁resemble	-11.969
▁resolution	-11.969
▁retching	-11.969
▁reunion	-11.969
▁rhine	-11.969
▁ritchie	-11.969
▁rivage	-11.969
▁rommel	-11.969
▁rottweiler	-11.969
▁salvatore	-11.969
▁samburu	-11.969
▁sartre	-11.969
▁scudders	-11.969
▁scurry	-11.969
▁seagull	-11.969
▁selfdestruct	-11.969
▁selfinject	-11.969
▁shampoo	-11.969
▁shipwreck	-11.969
▁shirazi	-11.969
▁shrivel	-11.969
▁shushing	-11.969
▁siberia	-11.969
▁simmer	-11.969
▁sizzling	-11.969
▁skedaddle	-11.969
▁skulking	-11.969
▁smoosh	-11.969
▁snorting	-11.969
▁software	-11.969
▁sorority	-11.969
▁splatter	-11.969
▁splinter	-11.969
▁spoons	-11.969
▁starspangled	-11.969
▁steuben	-11.969
▁stewart	-11.969
▁stoller	-11.969
▁strauss	-11.969
▁streetlamp	-11.969
▁strumming	-11.969
▁sturgis	-11.969
▁suspension	-11.969
▁sutton	-11.969
▁sycamore	-11.969
▁sympathetic	-11.969
▁tantrum	-11.969
▁tapestries	-11.969
▁tennessee	-11.969
▁territory	-11.969
▁toichi	-11.969
▁tolstoy	-11.969
▁transient	-11.969
▁trinkets	-11.969
▁tuscany	-11.969
▁tweedie	-11.969
▁twig	-11.969
▁unannounced	-11.969
▁unashamed	-11.969
▁uncommon	-11.969
▁uncover	-11.969
▁unemployment	-11.969
▁unnecessary	-11.969
▁unprovoked	-11.969
▁urchin	-11.969
▁vaccine	-11.969
▁variety	-11.969
▁vengeance	-11.969
▁ventriloquist	-11.969
▁vintage	-11.969
▁vogsphere	-11.969
▁voicemail	-11.969
▁voltage	-11.969
▁vootstaps	-11.969
▁vulgar	-11.969
▁vulnerab	-11.969
▁warfare	-11.969
▁watermelon	-11.969
▁weasel	-11.969
▁wendy	-11.969
▁werewolves	-11.969
▁whereabouts	-11.969
▁whichever	-11.969
▁wigwam	-11.969
▁windmill	-11.969
▁womb	-11.969
▁woodruff	-11.969
▁wrath	-11.969
▁wreath	-11.969
▁wrestling	-11.969
▁yabbadabbadoo	-11.969
▁yippee	-11.969
▁yogurt	-11.969
▁youtube	-11.969
custome	-11.969
▁aeroplane	-11.969
▁alteration	-11.969
▁audio	-11.969
▁flicker	-11.969
▁flounder	-11.969
▁gopher	-11.969
▁ifthey	-11.969
▁interpret	-11.969
▁lawsuit	-11.969
▁occupy	-11.969
▁philosoph	-11.969
▁sevenandahalf	-11.969
▁sheik	-11.969
▁sonofabitch	-11.969
▁toxic	-11.969
▁twentyfour	-11.969
empress	-11.969
enburg	-11.969
ipher	-11.969
onscreen	-11.969
▁appalling	-11.969
▁backfiring	-11.969
▁bankroll	-11.969
▁batteries	-11.969
▁boulder	-11.969
▁conflict	-11.969
▁contemplat	-11.969
▁cottonmouths	-11.969
▁detach	-11.969
▁dizzy	-11.969
▁duration	-11.969
▁examination	-11.969
▁fanatic	-11.969
▁figment	-11.969
▁hector	-11.969
▁hysteri	-11.969
▁imperative	-11.969
▁ionely	-11.969
▁kattie	-11.969
▁kipper	-11.969
▁lounge	-11.969
▁madonna	-11.969
▁mastermind	-11.969
▁mcdonalds	-11.969
▁mercedes	-11.969
▁ministry	-11.969
▁motive	-11.969
▁overdue	-11.969
▁picts	-11.969
▁poofy	-11.969
▁postcard	-11.969
▁prude	-11.969
▁purity	-11.969
▁rejuvenat	-11.969
▁retches	-11.969
▁saloon	-11.969
▁scoffing	-11.969
▁shrunk	-11.969
▁subdue	-11.969
▁synchroniz	-11.969
▁tenfour	-11.969
▁thumbthumbs	-11.969
▁twanging	-11.969
▁upcoming	-11.969
▁wept	-11.969
▁wrestle	-11.969
▁yonder	-11.969
▁yosef	-11.969
zilla	-11.969
▁abbey	-11.969
▁diminish	-11.969
▁fingernails	-11.969
▁gladiator	-11.969
▁halfbreed	-11.969
▁handgun	-11.969
▁hardcore	-11.969
▁janitor	-11.969
▁lonnie	-11.969
▁nineteen	-11.969
▁recycl	-11.969
▁replacing	-11.969
▁retard	-11.969
▁skating	-11.969
▁stank	-11.969
▁taiwan	-11.969
▁twitters	-11.969
▁vanquish	-11.969
▁allez	-11.969
▁bogus	-11.969
▁duct	-11.969
▁immature	-11.969
▁kgb	-11.969
▁mutation	-11.969
▁sermon	-11.969
▁shaky	-11.969
▁sherry	-11.969
▁sinuses	-11.969
▁snoot	-11.969
▁stabiliz	-11.969
▁stench	-11.969
▁studies	-11.969
▁technological	-11.969
▁divulg	-11.969
▁parasol	-11.969
▁pebbles	-11.969
▁satanists	-11.969
▁scoot	-11.969
▁yokel	-11.969
▁missouri	-11.969
▁slurr	-11.969
▁textbooks	-11.969
▁argentin	-11.969
▁elevate	-11.969
▁mischie	-11.969
▁surprising	-11.969
▁booger	-11.969
▁buggy	-11.969
▁fiesta	-11.969
▁hugger	-11.969
▁thudding	-11.969
▁cuddl	-11.969
▁dinesen	-11.969
▁dispense	-11.969
▁holler	-11.969
changa	-11.969
tofa	-11.969
▁gird	-11.969
▁hurleys	-11.969
▁sniggers	-11.969
▁pattering	-11.969
evaluate	-11.969
owski	-11.969
▁insolen	-11.969
▁trembl	-11.969
▁ummm	-11.969
▁pottersville	-11.969
▁thermo	-11.969
▁acoustic	-11.969
▁modified	-11.969
▁savor	-11.969
▁shucks	-11.969
▁fraternity	-11.969
▁retina	-11.969
▁wardro	-11.969
▁bookstore	-11.969
▁levy	-11.969
▁homeschooled	-11.969
▁tamper	-11.969
▁actua	-11.969
▁pocketknife	-11.969
▁probability	-11.969
▁neutr	-11.969
▁slams	-11.969
▁transaction	-11.969
▁encounter	-11.969
▁luncheon	-11.969
▁sayaka	-11.969
▁francs	-11.969
▁michel	-11.969
▁mythology	-11.969
▁yourjob	-11.969
▁attribute	-11.969
▁sinners	-11.969
▁slobber	-11.969
▁anyplace	-11.969
▁fend	-11.969
▁spiritual	-11.969
▁whoohah	-11.969
▁overslept	-11.969
▁patriotism	-11.969
▁playdate	-11.969
▁digger	-11.969
▁vows	-11.969
reconcil	-11.969
▁taik	-11.969
▁justify	-11.969
▁sodium	-11.969
snatch	-11.969
▁baywatch	-11.969
▁brazilian	-11.969
▁eileen	-11.969
▁oneeighty	-11.969
▁elders	-11.969
ordan	-11.969
▁boingo	-11.969
▁destructive	-11.969
▁housing	-11.969
▁shaq	-11.969
▁flaw	-11.969
oxygen	-11.969
▁integrity	-11.969
▁lrish	-11.969
▁fanci	-11.969
▁lalalalaa	-11.969
▁alphabet	-11.969
▁dunbar	-11.969
▁beauties	-11.969
▁infamous	-11.969
▁vineyard	-11.969
▁bankruptcy	-11.969
▁columbia	-11.969
▁teensy	-11.969
▁jeering	-11.969
▁lonesome	-11.969
▁sharpshoot	-11.969
▁hopalong	-11.969
gamma	-11.969
▁endeavors	-11.969
▁myfriend	-11.969
▁handicapped	-11.969
▁doggone	-11.969
▁breasts	-11.969
▁expire	-11.969
▁ignition	-11.969
▁maniacally	-11.969
▁minimal	-11.969
▁podium	-11.969
emorrhoids	-11.969
▁biology	-11.969
▁donkey	-11.969
trike	-11.969
▁meyer	-11.969
▁conceited	-11.969
▁cunning	-11.969
▁steward	-11.969
▁improvis	-11.969
▁douglas	-11.969
▁loneli	-11.969
▁concei	-11.969
▁onboard	-11.969
▁rebuild	-11.969
▁retract	-11.969
▁onward	-11.969
▁headphones	-11.969
▁java	-11.969
▁bubbling	-11.969
▁domain	-11.969
▁beaver	-11.969
▁slap	-11.969
▁pillaging	-11.9691
▁aircondition	-11.9691
▁defective	-11.9691
▁frodo	-11.9691
▁jessup	-11.9691
▁jarren	-11.9691
▁journalism	-11.9691
▁joyride	-11.9691
▁junkyard	-11.9691
▁protestant	-11.9691
▁thataway	-11.9691
▁wallpaper	-11.9691
▁unorthodox	-11.9691
▁carved	-11.9691
▁ofthis	-11.9691
▁originated	-11.9691
▁peguy	-11.9691
▁physici	-11.9691
▁homesick	-11.9691
▁admiralty	-11.9691
▁bummer	-11.9691
▁filter	-11.9691
▁decline	-11.9691
▁rustlers	-11.9691
▁buena	-11.9691
▁utilit	-11.9691
▁effe	-11.9691
▁controversial	-11.9691
▁dripping	-11.9691
▁skeptical	-11.9691
▁wiring	-11.9691
▁pimples	-11.9691
▁petals	-11.9691
▁felonies	-11.9691
▁maggie	-11.9691
▁indecent	-11.9691
letter	-11.9691
▁biood	-11.9691
▁tumbling	-11.9691
▁decay	-11.9691
▁donut	-11.9691
▁ofhere	-11.9691
▁scrubb	-11.9691
▁spleen	-11.9691
▁zarkin	-11.9691
▁swine	-11.9691
▁chelo	-11.9691
▁squid	-11.9691
▁freight	-11.9691
▁gutters	-11.9691
▁enlist	-11.9691
▁graveyard	-11.9691
▁brute	-11.9691
▁scatter	-11.9691
▁morphine	-11.9692
▁kilo	-11.9692
▁piggies	-11.9692
▁sims	-11.9692
▁sava	-11.9692
▁venture	-11.9692
▁palpitat	-11.9692
▁crock	-11.9692
▁steed	-11.9692
▁devine	-11.9692
muel	-11.9692
▁razz	-11.9692
▁squaw	-11.9692
▁choosing	-11.9692
▁hypo	-11.9692
▁divine	-11.9692
▁greetham	-11.9692
▁odor	-11.9692
▁repay	-11.9692
▁kitties	-11.9692
▁slay	-11.9692
▁scorch	-11.9692
▁slob	-11.9692
▁dishono	-11.9692
▁astro	-11.9692
▁overcoat	-11.9692
commend	-11.9692
▁gallant	-11.9692
▁weenie	-11.9692
▁bedbug	-11.9692
▁interrogation	-11.9692
▁medium	-11.9692
▁cobra	-11.9692
▁hind	-11.9692
▁sissy	-11.9693
▁icebox	-11.9693
sappo	-11.9693
▁contestant	-11.9693
▁raking	-11.9693
▁panther	-11.9693
▁revive	-11.9693
▁borderline	-11.9693
▁vroom	-11.9693
▁despi	-11.9693
▁boast	-11.9693
▁vogonity	-11.9693
▁radiation	-11.9693
▁rave	-11.9693
▁theoretically	-11.9693
▁frock	-11.9693
▁humid	-11.9693
▁snare	-11.9693
▁characteristic	-11.9693
▁mural	-11.9693
dale	-11.9693
▁amusement	-11.9693
▁edison	-11.9693
▁conservat	-11.9693
▁merge	-11.9693
▁lark	-11.9693
▁captive	-11.9693
▁fuses	-11.9693
▁comming	-11.9693
▁orient	-11.9693
▁beggar	-11.9693
▁swordfish	-11.9693
▁soontobe	-11.9693
▁infant	-11.9694
▁colonies	-11.9694
▁lyon	-11.9694
▁poli	-11.9694
▁airdrop	-11.9694
▁campfire	-11.9694
▁marvel	-11.9694
▁span	-11.9694
▁complimentary	-11.9694
▁rack	-11.9694
▁mack	-11.9694
crib	-11.9694
▁continuous	-11.9694
▁blueprint	-11.9694
▁aione	-11.9694
▁factories	-11.9694
▁colonic	-11.9694
▁iight	-11.9694
▁stephano	-11.9694
chain	-11.9694
▁overboard	-11.9694
nderson	-11.9694
▁discretion	-11.9694
▁enthusiastic	-11.9694
▁preservation	-11.9694
▁scroung	-11.9694
▁roja	-11.9694
▁shun	-11.9694
▁defendant	-11.9694
▁eyelash	-11.9694
▁huan	-11.9694
▁quiz	-11.9695
▁amos	-11.9695
▁mantis	-11.9695
▁upward	-11.9695
▁inbound	-11.9695
▁campbell	-11.9695
▁seams	-11.9695
▁purg	-11.9695
▁hilltop	-11.9695
▁acquired	-11.9695
▁income	-11.9695
▁quake	-11.9695
▁cafe	-11.9695
▁maze	-11.9695
▁countess	-11.9695
▁outhouse	-11.9695
▁niro	-11.9695
▁arise	-11.9695
bang	-11.9695
▁adjustment	-11.9695
▁employment	-11.9695
▁reactor	-11.9696
▁plumber	-11.9696
▁electrician	-11.9696
▁addiction	-11.9696
▁brotherinlaw	-11.9696
▁rally	-11.9696
▁chooch	-11.9696
▁cornerstone	-11.9696
▁concentration	-11.9696
▁quinc	-11.9696
▁observers	-11.9696
▁relat	-11.9696
▁slump	-11.9696
inari	-11.9696
▁amel	-11.9696
▁amber	-11.9696
▁charleston	-11.9696
▁flapping	-11.9696
▁schme	-11.9696
▁bind	-11.9696
▁nnn	-11.9696
▁testify	-11.9696
▁relevant	-11.9696
▁expectations	-11.9696
▁pantry	-11.9696
▁jiggle	-11.9696
riving	-11.9697
▁vicar	-11.9697
▁galley	-11.9697
▁thigh	-11.9697
▁admitted	-11.9697
▁elza	-11.9697
▁imaginable	-11.9697
▁maddie	-11.9697
▁prospect	-11.9697
▁deben	-11.9697
acles	-11.9697
▁foolishness	-11.9698
▁them	-11.9698
▁bold	-11.9698
▁moped	-11.9698
▁feedback	-11.9698
▁tumble	-11.9698
▁dumpster	-11.9698
▁dunno	-11.9698
▁candidate	-11.9698
▁pierce	-11.9698
▁constitutional	-11.9698
▁permitting	-11.9698
▁heli	-11.9698
▁preoccup	-11.9698
▁chev	-11.9699
▁vase	-11.9699
▁compassion	-11.9699
▁devastated	-11.9699
▁disappearance	-11.9699
▁windsor	-11.9699
▁harmonize	-11.9699
▁premiere	-11.9699
▁stockings	-11.9699
along	-11.9699
▁zac	-11.9699
mpse	-11.97
▁brass	-11.97
▁butch	-11.97
▁sanct	-11.97
▁mink	-11.97
▁bebo	-11.97
▁prettier	-11.97
▁taxes	-11.97
▁clamp	-11.97
▁parce	-11.97
▁alas	-11.97
▁prone	-11.97
▁cripples	-11.97
▁catfish	-11.9701
▁sensational	-11.9701
▁withdrawal	-11.9701
▁trapping	-11.9701
▁ivan	-11.9701
tiary	-11.9701
▁plotting	-11.9701
▁moral	-11.9701
▁revolting	-11.9701
minus	-11.9701
▁maga	-11.9701
vious	-11.9701
▁shawn	-11.9702
▁stumble	-11.9702
▁heroism	-11.9702
▁caveless	-11.9702
▁suis	-11.9702
▁airfield	-11.9702
▁slapping	-11.9702
▁seren	-11.9702
▁hotshot	-11.9702
▁adequate	-11.9703
▁markham	-11.9703
▁bick	-11.9703
▁flit	-11.9703
▁barred	-11.9703
▁packet	-11.9703
hell	-11.9703
▁ninety	-11.9704
▁recommendation	-11.9704
▁stem	-11.9704
▁ebo	-11.9704
▁crass	-11.9704
▁transmitter	-11.9704
▁bubby	-11.9705
▁gloomy	-11.9705
▁kimberly	-11.9705
▁spiffy	-11.9705
▁mck	-11.9705
▁upgraded	-11.9705
▁analyzed	-11.9705
▁franklin	-11.9705
▁tangle	-11.9705
▁flatten	-11.9705
▁relic	-11.9705
▁luke	-11.9705
▁whwhat	-11.9706
▁wax	-11.9706
▁munker	-11.9706
▁organise	-11.9706
▁oyes	-11.9706
▁chum	-11.9706
▁leftover	-11.9706
▁confession	-11.9707
▁rentac	-11.9707
▁yoga	-11.9707
▁genie	-11.9707
▁bathro	-11.9707
▁rio	-11.9707
anoma	-11.9708
▁diva	-11.9708
▁merchant	-11.9708
programmed	-11.9708
▁fatty	-11.9708
▁mitt	-11.9709
▁ballast	-11.9709
cure	-11.9709
▁rump	-11.9709
▁deliveries	-11.971
▁q	-11.971
oodle	-11.971
▁spitting	-11.971
▁confide	-11.971
▁ahhah	-11.971
▁fireplace	-11.971
▁entertainer	-11.971
▁sanity	-11.971
▁milt	-11.971
▁conveniently	-11.9711
▁triumphantly	-11.9711
▁allah	-11.9711
▁deem	-11.9711
this	-11.9711
▁ahold	-11.9712
▁lethal	-11.9712
▁hurst	-11.9712
▁sportsman	-11.9712
▁stripes	-11.9713
▁foam	-11.9713
▁pub	-11.9714
▁farther	-11.9714
best	-11.9714
▁bragging	-11.9714
▁teeny	-11.9714
▁crispy	-11.9714
▁tacky	-11.9714
cell	-11.9715
▁amazed	-11.9715
▁guild	-11.9715
▁organic	-11.9715
▁recruited	-11.9715
▁disgusted	-11.9715
▁rubies	-11.9715
▁hillary	-11.9715
▁jap	-11.9716
▁tings	-11.9717
▁slo	-11.9717
▁muddy	-11.9717
▁handbag	-11.9718
▁hedge	-11.9718
▁seventy	-11.9718
▁checkmate	-11.9718
▁supervised	-11.9719
insky	-11.972
▁drap	-11.972
▁conv	-11.972
▁implicate	-11.972
▁wwhat	-11.972
stand	-11.9721
▁denial	-11.9721
▁bluffing	-11.9721
▁loitering	-11.9721
▁quarreling	-11.9721
▁satisfying	-11.9721
▁treasurer	-11.9722
▁weepy	-11.9722
toxin	-11.9722
asses	-11.9722
▁chow	-11.9723
▁boyett	-11.9723
▁jingl	-11.9723
▁lala	-11.9724
▁ori	-11.9724
▁daf	-11.9724
▁lumpy	-11.9724
▁calf	-11.9724
▁occasionally	-11.9724
▁extinction	-11.9725
▁chivalry	-11.9725
▁lovebirds	-11.9725
stian	-11.9725
chio	-11.9726
▁publicity	-11.9726
▁adi	-11.9726
▁disable	-11.9726
▁forgiveness	-11.9728
▁slot	-11.9728
▁booby	-11.9729
▁strainer	-11.9729
▁flyby	-11.9729
▁gundy	-11.9729
▁outsiders	-11.973
▁scenery	-11.973
▁blabb	-11.973
▁nether	-11.973
▁projector	-11.973
▁repel	-11.9731
▁willy	-11.9732
▁obsessed	-11.9732
▁spank	-11.9732
▁composer	-11.9732
▁sass	-11.9732
team	-11.9733
▁alongside	-11.9733
▁yara	-11.9734
▁crunchy	-11.9734
▁countryside	-11.9735
▁fraud	-11.9735
▁ridge	-11.9735
▁negotiating	-11.9735
▁glider	-11.9736
▁policemen	-11.9736
lington	-11.9736
▁pigment	-11.9737
▁tease	-11.9737
▁painless	-11.9737
▁dino	-11.9737
▁manpower	-11.9738
tious	-11.9738
nail	-11.9741
▁hud	-11.9742
▁purring	-11.9742
▁kw	-11.9742
▁overreacting	-11.9742
▁doe	-11.9742
▁dji	-11.9743
▁sandwiches	-11.9743
▁digest	-11.9743
▁scratches	-11.9743
▁suitable	-11.9743
cue	-11.9743
▁grime	-11.9743
▁silky	-11.9744
▁accommodations	-11.9744
▁anglosaxons	-11.9744
▁barnstormers	-11.9744
▁blossoms	-11.9744
▁shillings	-11.9744
▁somalis	-11.9744
▁suburbs	-11.9744
▁tora	-11.9745
▁cameraman	-11.9745
char	-11.9746
▁burbl	-11.9747
▁numer	-11.9747
▁moss	-11.9748
▁stained	-11.9748
▁withered	-11.9748
▁worshiped	-11.9749
▁activated	-11.9749
▁resolved	-11.9749
▁steele	-11.975
▁peeled	-11.9751
▁abe	-11.9751
▁reply	-11.9751
rich	-11.9753
▁kc	-11.9754
hale	-11.9756
▁yow	-11.9756
▁businessmen	-11.9757
▁sna	-11.9757
▁dew	-11.9757
vable	-11.9758
▁risen	-11.9759
▁taran	-11.9759
▁boob	-11.9759
▁satin	-11.9761
▁slicker	-11.9761
▁frieda	-11.9761
▁wanda	-11.9762
▁xo	-11.9762
▁bass	-11.9763
▁goofing	-11.9763
▁superman	-11.9763
▁consulting	-11.9763
▁shuddering	-11.9763
▁entertaining	-11.9763
▁fleeing	-11.9764
▁yuk	-11.9764
▁secretive	-11.9764
▁puffed	-11.9765
▁departed	-11.9765
▁recovered	-11.9765
▁restored	-11.9765
▁tut	-11.9765
cely	-11.9766
▁stre	-11.9767
▁bulldoz	-11.9769
▁pout	-11.977
▁edit	-11.977
▁assembled	-11.9775
▁pastor	-11.9776
▁madman	-11.9776
▁mended	-11.9781
▁reproduc	-11.9782
▁separately	-11.9782
▁shrinking	-11.9784
▁babysitter	-11.9784
▁trader	-11.9785
nbrand	-11.9785
▁hiring	-11.9786
▁brightest	-11.9788
▁handling	-11.979
▁sharply	-11.9794
dad	-11.9795
lain	-11.9795
▁undo	-11.9795
▁lana	-11.9796
▁hesitation	-11.9796
▁managing	-11.9798
▁hyd	-11.9798
▁melvined	-11.9798
mund	-11.98
▁ignored	-11.98
▁wisely	-11.98
uffa	-11.9802
technic	-11.9804
▁defying	-11.9805
▁cutter	-11.9807
▁emil	-11.9808
▁reside	-11.981
▁chicky	-11.9814
▁tranquill	-11.9815
▁invested	-11.9815
▁recommended	-11.9815
▁tilt	-11.9817
▁slacker	-11.9817
pool	-11.9817
elic	-11.9818
▁memor	-11.9821
grudge	-11.9821
▁sharky	-11.9824
▁wildest	-11.9825
▁hacking	-11.9825
▁veer	-11.9825
fraction	-11.9826
▁penetrat	-11.9828
▁scarce	-11.9831
nice	-11.9831
▁punished	-11.9832
▁hiho	-11.9833
▁nee	-11.9835
▁observed	-11.9838
▁reher	-11.984
▁knockin	-11.9845
▁bushy	-11.9846
▁backwater	-11.9847
▁fulfilling	-11.9848
▁betrayed	-11.9849
▁imperi	-11.9851
▁forgiven	-11.9851
▁launcher	-11.9851
▁pall	-11.9852
ehen	-11.9857
▁admirer	-11.9859
▁beaches	-11.9862
▁chaser	-11.9864
▁canceled	-11.9866
▁walkie	-11.9866
▁toaster	-11.987
mitch	-11.9875
▁just	-11.988
▁riches	-11.9883
oplas	-11.9883
assed	-11.9884
▁shutting	-11.9886
▁vera	-11.9886
▁frequent	-11.9888
▁ohare	-11.9889
▁escorting	-11.989
▁rewarding	-11.989
▁thor	-11.9894
▁practis	-11.9901
▁burp	-11.9903
▁suspected	-11.9904
▁pointers	-11.9906
▁sketche	-11.9907
▁rasp	-11.991
▁dryer	-11.9911
▁excusez	-11.9913
▁settl	-11.9914
▁levin	-11.9917
▁delayed	-11.9917
▁entre	-11.9921
▁ale	-11.9922
▁shifted	-11.9922
▁fasten	-11.9922
▁dearie	-11.9923
▁freshly	-11.9928
▁miller	-11.9929
▁ruffle	-11.9929
sided	-11.9933
▁experimenting	-11.9933
nam	-11.9937
▁excit	-11.9943
▁gavel	-11.9947
venue	-11.9948
nfield	-11.9957
▁photographer	-11.996
▁bella	-11.996
▁lent	-11.9962
▁poo	-11.9967
▁sweetest	-11.9969
▁warmer	-11.9973
▁sss	-11.9976
▁readers	-11.9977
▁buyin	-11.9981
▁bravely	-11.9984
ndle	-11.9984
▁challenged	-11.9988
▁aide	-11.9989
▁brighter	-11.9995
▁duet	-11.9997
ask	-11.9999
▁trotte	-11.9999
mographic	-12.0002
▁jer	-12.0003
▁obligat	-12.0005
▁adventurer	-12.0009
iq	-12.0012
▁awaken	-12.0012
▁mumbl	-12.0018
▁stutter	-12.0028
▁tempt	-12.0032
▁lapse	-12.0034
ggin	-12.0042
▁drivein	-12.0051
▁hippi	-12.0054
▁stirr	-12.0063
▁pegg	-12.0063
▁radic	-12.0064
quaint	-12.0069
arse	-12.0091
▁denie	-12.0093
▁boiler	-12.0094
▁oni	-12.0129
morrow	-12.0131
trooper	-12.0143
▁gush	-12.0151
▁discharg	-12.0174
▁bogg	-12.0187
ample	-12.0211
▁keny	-12.0221
tripoli	-12.0241
▁lash	-12.0243
▁hump	-12.0253
▁sab	-12.0268
trap	-12.0307
wall	-12.0311
cooperative	-12.0354
harm	-12.0378
ucci	-12.0406
▁tarta	-12.0415
bareback	-12.042
raz	-12.0438
▁frightful	-12.0438
▁observa	-12.0455
plication	-12.0457
accom	-12.0494
eiia	-12.0544
▁gran	-12.0548
▁squeez	-12.058
▁blur	-12.0586
malay	-12.0599
▁jol	-12.0599
nvas	-12.0603
▁heater	-12.0611
▁raf	-12.0624
lves	-12.0655
▁decorat	-12.0665
▁shad	-12.068
▁seeker	-12.0739
▁prun	-12.0765
▁mod	-12.0774
▁willi	-12.0778
mina	-12.0829
▁nip	-12.0829
▁fil	-12.0836
▁financ	-12.0842
mobile	-12.0842
▁belch	-12.0876
ience	-12.088
person	-12.0884
▁wit	-12.0888
▁asa	-12.0904
▁rox	-12.0911
ugula	-12.0967
▁conf	-12.0973
▁baz	-12.0986
ofthe	-12.0991
▁verif	-12.1001
▁gru	-12.1016
▁mingle	-12.1024
▁crumbl	-12.1027
substantiate	-12.1048
▁negotiat	-12.1053
▁committ	-12.1055
▁identifie	-12.1061
iku	-12.1146
▁bou	-12.1169
nography	-12.1243
tipping	-12.1254
▁boon	-12.1257
▁curv	-12.1259
▁hassl	-12.1262
▁jimi	-12.1273
awful	-12.1284
nstein	-12.1285
▁jud	-12.131
▁associate	-12.1313
▁ascen	-12.1331
rown	-12.1343
ammo	-12.1367
▁wilt	-12.1446
▁stretche	-12.145
view	-12.15
▁ang	-12.1502
▁somet	-12.1527
▁conjur	-12.1574
▁kar	-12.158
azing	-12.1585
ncer	-12.16
▁insi	-12.1601
enni	-12.1606
▁cul	-12.1639
▁symp	-12.164
▁merri	-12.1817
orium	-12.1817
▁quai	-12.1826
undance	-12.1905
tchard	-12.191
indig	-12.1922
▁intermi	-12.1929
▁indic	-12.1972
nct	-12.1988
brush	-12.2121
▁purchas	-12.2136
▁navigat	-12.2136
anford	-12.2148
▁increas	-12.2158
▁lava	-12.2159
winkie	-12.2172
▁regrette	-12.2252
ndum	-12.2309
trumpet	-12.2315
▁ici	-12.2346
lism	-12.2356
rsity	-12.2396
▁bod	-12.2419
▁signor	-12.2424
conception	-12.2432
▁exterminat	-12.2494
▁bomber	-12.2506
morous	-12.253
▁clim	-12.2694
▁trauma	-12.2718
hip	-12.2724
▁sever	-12.2725
▁negotiate	-12.2732
eech	-12.2758
imble	-12.2769
▁substantia	-12.2799
threatening	-12.2834
▁outof	-12.2852
arina	-12.2918
served	-12.3003
chop	-12.3038
▁converge	-12.3045
kid	-12.3045
uga	-12.306
▁abou	-12.3129
bagg	-12.3129
▁harass	-12.313
▁prune	-12.3153
but	-12.3195
▁decor	-12.3205
genev	-12.3258
quat	-12.3312
▁grandchild	-12.3345
were	-12.3358
▁magnif	-12.3366
▁balanc	-12.3386
▁fli	-12.3431
unk	-12.3503
▁swab	-12.3545
perat	-12.3576
▁haiya	-12.3577
nsa	-12.3627
▁malle	-12.3637
ipes	-12.3694
almy	-12.3747
graphic	-12.3763
breaker	-12.3779
▁concentrat	-12.3894
▁puttin	-12.3921
▁whwh	-12.3963
▁tasti	-12.397
▁dab	-12.398
guided	-12.3981
▁contri	-12.3999
itude	-12.4005
hap	-12.4012
▁scr	-12.4025
▁doubl	-12.4056
pounder	-12.4101
▁mcc	-12.4101
doc	-12.4176
cant	-12.4194
▁glo	-12.4197
▁muc	-12.4219
arti	-12.4224
glasses	-12.4239
long	-12.4242
▁coll	-12.4247
cracker	-12.4268
▁ev	-12.4287
ducted	-12.4324
▁feli	-12.4328
▁frequen	-12.4357
tobe	-12.4362
▁craw	-12.4369
▁considerabl	-12.4376
▁vie	-12.4384
▁trim	-12.4393
cular	-12.44
▁stylin	-12.4434
▁shriek	-12.4437
▁whimper	-12.4441
▁optim	-12.4446
enomination	-12.4452
bbie	-12.4458
▁beverage	-12.4461
▁consequence	-12.4461
▁meadow	-12.4461
▁symptom	-12.4461
▁chore	-12.4461
▁nerd	-12.4463
▁napkin	-12.4463
▁ankle	-12.4467
▁slurp	-12.4467
▁annul	-12.4471
▁vibe	-12.4471
▁thud	-12.4474
▁knuckle	-12.4475
▁stamp	-12.4476
▁expo	-12.448
▁instruction	-12.4481
egory	-12.4482
▁detail	-12.4485
▁brid	-12.4485
▁vibration	-12.4486
▁jell	-12.4487
▁detonat	-12.4488
▁asset	-12.4493
▁maiden	-12.4493
▁voic	-12.4495
pines	-12.45
▁sob	-12.4503
▁teenager	-12.4503
▁gull	-12.4507
▁chimi	-12.451
▁ange	-12.4516
▁marg	-12.4517
elain	-12.4519
▁assembl	-12.4525
▁india	-12.4538
▁genetic	-12.4539
▁adventur	-12.4543
▁moder	-12.4544
▁ignor	-12.4549
▁resid	-12.4556
pad	-12.4562
▁chris	-12.4562
ootie	-12.4586
▁serv	-12.4587
▁grea	-12.4592
bug	-12.4592
known	-12.4593
ctur	-12.4596
omat	-12.4601
allah	-12.4604
▁disgust	-12.4604
oaster	-12.4608
nklin	-12.4614
hopper	-12.4614
▁cind	-12.4616
▁decid	-12.4619
▁carpent	-12.462
itary	-12.4623
uke	-12.4628
▁reprogram	-12.4629
▁provid	-12.4631
▁sacrific	-12.4632
▁juan	-12.4636
▁appetit	-12.4636
▁bluff	-12.4638
▁quarrel	-12.4638
▁satisfy	-12.4638
▁lollygagg	-12.464
▁croak	-12.464
▁loiter	-12.4642
▁terrify	-12.4642
▁shredd	-12.4642
▁instruct	-12.4643
▁fascinat	-12.4644
▁realiz	-12.4645
▁annoy	-12.4645
ancing	-12.4645
▁recruit	-12.4646
after	-12.4651
▁outnumber	-12.4651
watch	-12.4652
▁strand	-12.4652
▁surround	-12.4654
occupie	-12.4656
▁waldo	-12.4658
▁distort	-12.4658
wide	-12.4661
glass	-12.4662
▁promot	-12.4664
▁analyze	-12.4665
▁specia	-12.4665
▁condo	-12.4665
▁gloom	-12.4666
paper	-12.4666
▁kimberl	-12.4666
wipe	-12.4666
▁advise	-12.4667
▁collapse	-12.4667
control	-12.4667
▁destin	-12.4667
natural	-12.4667
▁paranoi	-12.4667
▁upgrade	-12.4667
▁butterfl	-12.4667
yearold	-12.4667
▁troph	-12.4667
woman	-12.4668
▁thirst	-12.4668
park	-12.4668
▁laundr	-12.4668
▁spiff	-12.4668
▁dumm	-12.4668
adequate	-12.4668
gundy	-12.4669
tangle	-12.4669
▁beyon	-12.4669
▁academ	-12.4669
loud	-12.4669
civilized	-12.4669
wiggle	-12.4669
▁distinct	-12.467
hawk	-12.467
galactic	-12.467
whack	-12.467
engage	-12.467
spects	-12.467
measure	-12.467
portrait	-12.467
jets	-12.467
raising	-12.467
▁twitch	-12.4671
broadway	-12.4671
▁swipe	-12.4671
grave	-12.4671
sensitive	-12.4671
qualified	-12.4671
folk	-12.4671
body	-12.4671
automatic	-12.4671
abuse	-12.4671
conduct	-12.4671
jelly	-12.4671
complicated	-12.4671
polite	-12.4671
thumb	-12.4671
shark	-12.4671
responsible	-12.4671
grip	-12.4671
available	-12.4671
spoken	-12.4671
grass	-12.4671
banks	-12.4671
exact	-12.4671
dozen	-12.4671
distance	-12.4671
stretch	-12.4671
carrying	-12.4671
schedule	-12.4672
difference	-12.4672
proper	-12.4672
dominat	-12.4672
built	-12.4672
travel	-12.4672
patrick	-12.4672
elizabeth	-12.4672
spirit	-12.4672
knock	-12.4672
mommy	-12.4672
floor	-12.4672
jerk	-12.4672
picked	-12.4672
grab	-12.4672
blood	-12.4672
service	-12.4672
wedding	-12.4672
black	-12.4672
president	-12.4672
computer	-12.4672
general	-12.4672
women	-12.4672
important	-12.4672
worry	-12.4672
feeding	-12.4672
dealing	-12.4672
▁communicat	-12.4672
violet	-12.4673
crazy	-12.4673
planted	-12.4673
▁shiv	-12.4673
▁homicid	-12.4673
luded	-12.4673
▁quart	-12.4673
court	-12.4673
aware	-12.4674
llsh	-12.4674
decent	-12.4674
secure	-12.4674
▁grou	-12.4674
▁premier	-12.4674
▁harmoniz	-12.4674
gasps	-12.4675
sixty	-12.4675
crucia	-12.4675
▁intens	-12.4675
wont	-12.4675
▁stoke	-12.4676
controll	-12.4676
▁creativ	-12.4676
▁sensitiv	-12.4676
click	-12.4676
tips	-12.4676
cube	-12.4676
▁bounc	-12.4676
▁definit	-12.4677
▁react	-12.4677
▁undertake	-12.4677
▁eugen	-12.4677
plank	-12.4677
swallow	-12.4677
daisy	-12.4677
▁apparent	-12.4677
tasteful	-12.4677
whee	-12.4677
wrap	-12.4677
hair	-12.4677
calcula	-12.4678
dragon	-12.4678
▁regre	-12.4678
▁jigg	-12.4679
trunk	-12.4679
munch	-12.4679
loving	-12.4679
▁sicil	-12.468
legs	-12.468
dodgers	-12.468
when	-12.468
▁fuzz	-12.468
▁extravagan	-12.468
▁surfac	-12.468
▁troubl	-12.4681
▁comprend	-12.4682
▁harve	-12.4682
▁compani	-12.4682
▁dolph	-12.4682
cilia	-12.4682
▁independen	-12.4682
cussions	-12.4682
▁trench	-12.4682
▁hypocri	-12.4683
▁compute	-12.4683
▁twer	-12.4683
▁superstitio	-12.4683
gulch	-12.4683
▁audit	-12.4684
▁slee	-12.4684
▁presto	-12.4684
▁inhal	-12.4684
▁froze	-12.4684
▁soci	-12.4684
▁gordo	-12.4685
▁intent	-12.4685
▁yu	-12.4685
making	-12.4685
▁journa	-12.4685
▁humbl	-12.4685
▁sugg	-12.4686
▁patriot	-12.4686
▁smokin	-12.4686
▁blix	-12.4686
tux	-12.4686
▁regulat	-12.4686
▁wastin	-12.4686
▁givin	-12.4686
▁stephan	-12.4686
▁televisi	-12.4686
▁abracad	-12.4686
▁respirat	-12.4687
▁manipulat	-12.4687
▁hospita	-12.4687
flus	-12.4687
noch	-12.4687
▁hillbill	-12.4687
▁necessit	-12.4687
crust	-12.4687
▁construct	-12.4687
▁pacifi	-12.4687
▁checkmat	-12.4687
▁fantas	-12.4688
▁civi	-12.4688
▁incl	-12.4688
▁diggin	-12.4688
▁apath	-12.4688
scription	-12.4688
crease	-12.4688
▁defect	-12.4688
▁blamin	-12.4688
ollowing	-12.4688
disi	-12.4688
▁empti	-12.4688
udder	-12.4688
▁aggress	-12.4688
educt	-12.4688
▁outrage	-12.4688
▁activati	-12.4688
▁hemorrh	-12.4689
▁karl	-12.4689
▁felon	-12.4689
▁daph	-12.4689
▁intima	-12.4689
plied	-12.4689
▁endeavo	-12.4689
▁bankrupt	-12.4689
ustache	-12.4689
equently	-12.4689
▁regime	-12.4689
▁miserab	-12.4689
▁brazil	-12.4689
▁persuasi	-12.4689
ictory	-12.4689
▁responsi	-12.4689
gnant	-12.4689
▁columb	-12.4689
recogniz	-12.469
uko	-12.469
ruly	-12.469
slaught	-12.469
mmage	-12.469
▁autopilot	-12.469
accurac	-12.469
cdonald	-12.469
iger	-12.469
toastin	-12.469
▁ambro	-12.469
▁authoritative	-12.469
▁commod	-12.469
▁comparative	-12.469
▁contemptuous	-12.469
▁discreet	-12.469
▁disrupt	-12.469
▁egypt	-12.469
▁eloquent	-12.469
▁flipflop	-12.469
▁frazz	-12.469
▁incessant	-12.469
▁incredul	-12.469
▁infiltrat	-12.469
▁moffitt	-12.469
▁okiedok	-12.469
▁prohibit	-12.469
▁punctual	-12.469
▁significant	-12.469
▁unequivocal	-12.469
▁vivid	-12.469
▁whoaohoh	-12.469
armadillo	-12.469
cloths	-12.469
conspicuous	-12.469
dabbadoo	-12.469
hehhehheh	-12.469
myheaven	-12.469
ohhohh	-12.469
ookaroo	-12.469
oooaaa	-12.469
precedent	-12.469
rewski	-12.469
simulator	-12.469
spoonful	-12.469
stretcherbearers	-12.469
strophe	-12.469
wgbh	-12.469
ydawg	-12.469
▁absaroka	-12.469
▁adversar	-12.469
▁agamemnon	-12.469
▁agitated	-12.469
▁agonizing	-12.469
▁alchemists	-12.469
▁alligator	-12.469
▁allpowerful	-12.469
▁amphibian	-12.469
▁anecdotes	-12.469
▁anesthetic	-12.469
▁animated	-12.469
▁anthropologist	-12.469
▁antibodies	-12.469
▁antonio	-12.469
▁aokay	-12.469
▁apaches	-12.469
▁appliances	-12.469
▁apprehended	-12.469
▁aristotle	-12.469
▁arjuna	-12.469
▁arsenal	-12.469
▁arsenic	-12.469
▁aspiration	-12.469
▁asskisser	-12.469
▁assurance	-12.469
▁astronaut	-12.469
▁austria	-12.469
▁authorization	-12.469
▁bacteri	-12.469
▁bagpipes	-12.469
▁bandanna	-12.469
▁baptis	-12.469
▁batarang	-12.469
▁batscanner	-12.469
▁bedspread	-12.469
▁bejesus	-12.469
▁belmont	-12.469
▁beneficiary	-12.469
▁bewilder	-12.469
▁bicamera	-12.469
▁bismarck	-12.469
▁blanche	-12.469
▁bloodsucker	-12.469
▁bourgeois	-12.469
▁breach	-12.469
▁britannic	-12.469
▁brussels	-12.469
▁bylaws	-12.469
▁caloriesyou	-12.469
▁cambridge	-12.469
▁cantaloupe	-12.469
▁carburetor	-12.469
▁cardiovascular	-12.469
▁carpathian	-12.469
▁caterpillar	-12.469
▁chappaquiddick	-12.469
▁chiefyweefy	-12.469
▁christensen	-12.469
▁chromosomes	-12.469
▁clodhopper	-12.469
▁closedcircuit	-12.469
▁cocacola	-12.469
▁cognac	-12.469
▁commotion	-12.469
▁compensation	-12.469
▁component	-12.469
▁compress	-12.469
▁concussion	-12.469
▁confetti	-12.469
▁configuration	-12.469
▁congrat	-12.469
▁conjuga	-12.469
▁connoisseur	-12.469
▁conquest	-12.469
▁consciousness	-12.469
▁conspiracy	-12.469
▁constituency	-12.469
▁contraband	-12.469
▁conundrum	-12.469
▁coordinator	-12.469
▁coustal	-12.469
▁craven	-12.469
▁crisscross	-12.469
▁cruller	-12.469
▁crusader	-12.469
▁crusades	-12.469
▁culprit	-12.469
▁cushion	-12.469
▁cyclist	-12.469
▁dannunzio	-12.469
▁debacle	-12.469
▁decapitate	-12.469
▁deceased	-12.469
▁deflectors	-12.469
▁deinflated	-12.469
▁delicacy	-12.469
▁denunciation	-12.469
▁depiction	-12.469
▁depressing	-12.469
▁detention	-12.469
▁determination	-12.469
▁detrimental	-12.469
▁devilmaycare	-12.469
▁disconnect	-12.469
▁dishonest	-12.469
▁disinherited	-12.469
▁dismount	-12.469
▁dissect	-12.469
▁distraught	-12.469
▁distribution	-12.469
▁dormitory	-12.469
▁dunmeade	-12.469
▁durham	-12.469
▁dwayne	-12.469
▁dwight	-12.469
▁ecstatic	-12.469
▁electrocution	-12.469
▁emerging	-12.469
▁encouraging	-12.469
▁enigma	-12.469
▁enlightened	-12.469
▁enlightening	-12.469
▁entonces	-12.469
▁errand	-12.469
▁escapo	-12.469
▁espera	-12.469
▁espresso	-12.469
▁evicted	-12.469
▁execuse	-12.469
▁exemplifie	-12.469
▁extinguisher	-12.469
▁extracurricular	-12.469
▁facade	-12.469
▁failsafe	-12.469
▁falko	-12.469
▁fertili	-12.469
▁fetzer	-12.469
▁fitzgerald	-12.469
▁fjords	-12.469
▁flavour	-12.469
▁flintmarket	-12.469
▁floyd	-12.469
▁fornication	-12.469
▁fossil	-12.469
▁frigate	-12.469
▁frittata	-12.469
▁fundamental	-12.469
▁galaxies	-12.469
▁gallipoli	-12.469
▁garbies	-12.469
▁gauntlet	-12.469
▁gazpacho	-12.469
▁genteel	-12.469
▁gibraltar	-12.469
▁giddyap	-12.469
▁giddyup	-12.469
▁gidget	-12.469
▁gillet	-12.469
▁gingerbread	-12.469
▁gippo	-12.469
▁giraffe	-12.469
▁gizmo	-12.469
▁glitch	-12.469
▁glutton	-12.469
▁goblins	-12.469
▁goggles	-12.469
▁growltiger	-12.469
▁gumshoes	-12.469
▁gwynne	-12.469
▁halfsister	-12.469
▁hancock	-12.469
▁harakiri	-12.469
▁headstrong	-12.469
▁hellsgate	-12.469
▁hereabouts	-12.469
▁hesquiat	-12.469
▁highstrung	-12.469
▁historian	-12.469
▁horrified	-12.469
▁horrocks	-12.469
▁hxhprc	-12.469
▁hydraulic	-12.469
▁illustrations	-12.469
▁immunity	-12.469
▁immunologist	-12.469
▁inexperience	-12.469
▁inexplicabl	-12.469
▁inferior	-12.469
▁inferno	-12.469
▁ingenuity	-12.469
▁injuries	-12.469
▁innovative	-12.469
▁inquiries	-12.469
▁inquisitive	-12.469
▁insanity	-12.469
▁insignificant	-12.469
▁instantaneous	-12.469
▁institute	-12.469
▁intellect	-12.469
▁intro	-12.469
▁intruding	-12.469
▁irrevocabl	-12.469
▁jackinthebox	-12.469
▁jailbird	-12.469
▁jamaica	-12.469
▁juju	-12.469
▁kadoya	-12.469
▁kawasaki	-12.469
▁kilometres	-12.469
▁kilowatts	-12.469
▁krashinski	-12.469
▁kremlin	-12.469
▁lathbury	-12.469
▁latvia	-12.469
▁laurent	-12.469
▁laverne	-12.469
▁leningrad	-12.469
▁liberace	-12.469
▁lilliputians	-12.469
▁lmmunity	-12.469
▁lullaby	-12.469
▁magnolia	-12.469
▁mandarin	-12.469
▁matrimony	-12.469
▁metrocard	-12.469
▁michigan	-12.469
▁midmorning	-12.469
▁milady	-12.469
▁milkshake	-12.469
▁minivan	-12.469
▁mirkutsk	-12.469
▁miscreant	-12.469
▁misjudge	-12.469
▁misunderstood	-12.469
▁modifications	-12.469
▁mollusc	-12.469
▁mollusk	-12.469
▁monarch	-12.469
▁monsoon	-12.469
▁monument	-12.469
[...]
