<unk>	0
<s>	0
</s>	0
s	-4.02235
▁im	-4.37481
▁know	-4.52843
▁dont	-4.53432
▁get	-4.71194
▁right	-4.79714
▁go	-4.83483
▁oh	-4.88193
▁got	-4.89282
▁like	-4.89627
▁yeah	-4.9239
▁come	-4.94282
▁youre	-4.96053
▁na	-5.02546
▁okay	-5.04398
▁thats	-5.12142
▁one	-5.20116
▁	-5.20649
▁well	-5.25641
▁gon	-5.27298
▁l	-5.2956
▁want	-5.36134
▁good	-5.3756
▁see	-5.37701
▁think	-5.38998
▁hey	-5.41149
ing	-5.4423
▁look	-5.50999
▁back	-5.5212
▁man	-5.56147
▁going	-5.63429
▁time	-5.66182
▁yes	-5.68446
▁take	-5.6856
▁cant	-5.71474
▁us	-5.72959
▁need	-5.78915
▁ill	-5.78985
ed	-5.79844
▁hes	-5.7993
▁say	-5.80989
▁really	-5.83692
▁love	-5.85106
▁tell	-5.85588
▁way	-5.85817
▁would	-5.89609
▁could	-5.959
▁little	-5.9645
▁lets	-5.96712
▁thank	-5.96781
▁sorry	-5.99359
▁please	-6.01093
▁something	-6.02987
▁let	-6.04013
▁god	-6.04675
▁make	-6.05093
▁whats	-6.06649
▁mean	-6.06951
▁never	-6.07301
d	-6.12598
▁ive	-6.14285
▁theres	-6.18551
▁didnt	-6.1997
▁give	-6.22603
▁thing	-6.24991
▁said	-6.2737
▁people	-6.30951
▁stop	-6.3269
▁two	-6.33481
▁wait	-6.33965
▁help	-6.34441
▁great	-6.35069
▁day	-6.36066
▁life	-6.37261
▁guys	-6.38846
▁theyre	-6.39679
▁sure	-6.43932
▁mr	-6.44229
▁shes	-6.44235
▁much	-6.46452
▁hi	-6.48285
▁ta	-6.48512
▁even	-6.4924
▁call	-6.49654
▁find	-6.50372
▁nothing	-6.51297
y	-6.5145
▁first	-6.51635
e	-6.51775
▁uh	-6.51984
▁work	-6.52853
▁still	-6.56203
▁put	-6.57011
▁hell	-6.57404
▁night	-6.5852
▁maybe	-6.59122
▁baby	-6.61175
▁keep	-6.62536
▁anything	-6.63082
▁talk	-6.63192
▁new	-6.67135
▁home	-6.68416
▁away	-6.69037
▁big	-6.69195
▁dad	-6.69274
▁ever	-6.69295
▁nice	-6.69752
▁better	-6.69853
▁last	-6.70491
▁feel	-6.70867
▁thought	-6.71096
▁hear	-6.7111
▁years	-6.71114
▁wan	-6.71145
▁around	-6.71932
▁long	-6.72056
▁done	-6.74067
a	-6.75211
▁told	-6.75791
▁always	-6.7601
▁aint	-6.76672
▁guy	-6.76998
▁sir	-6.77402
▁every	-6.77482
▁lm	-6.77884
▁coming	-6.78247
▁fine	-6.78473
▁place	-6.78997
▁everything	-6.79572
▁stay	-6.81556
▁mom	-6.81912
▁world	-6.82698
ly	-6.86862
▁three	-6.87126
▁hold	-6.87179
▁youve	-6.87612
▁move	-6.88533
▁thanks	-6.89007
er	-6.89327
▁leave	-6.89528
▁boy	-6.90233
▁lot	-6.91041
▁name	-6.91404
▁believe	-6.91407
▁ok	-6.91643
▁kind	-6.91915
▁things	-6.9281
▁made	-6.93607
▁show	-6.93665
▁listen	-6.95345
▁remember	-6.95603
▁jack	-6.95833
▁wont	-6.96614
▁shit	-6.974
▁must	-6.97428
▁house	-6.97436
▁hello	-6.99154
▁id	-6.99668
▁doesnt	-6.99898
▁girl	-6.99912
▁ready	-6.99967
▁old	-7.01779
▁left	-7.0244
▁wrong	-7.03006
▁talking	-7.03062
▁de	-7.03157
▁money	-7.03582
▁try	-7.03686
▁care	-7.03755
▁today	-7.0445
▁bad	-7.05795
▁door	-7.06083
▁live	-7.06603
▁real	-7.06676
▁getting	-7.06923
▁another	-7.07105
▁kill	-7.08301
▁youll	-7.08613
▁son	-7.08957
t	-7.09166
▁trying	-7.09671
▁father	-7.11959
▁isnt	-7.12007
▁tonight	-7.12321
▁car	-7.12909
▁je	-7.12955
▁best	-7.13285
▁wanted	-7.13429
▁actually	-7.14878
▁understand	-7.14899
▁woman	-7.15852
▁cause	-7.17941
▁huh	-7.18829
▁dead	-7.21781
▁might	-7.22247
▁next	-7.22945
▁guess	-7.22982
▁men	-7.23444
▁someone	-7.23452
▁friend	-7.23767
▁play	-7.23958
▁everybody	-7.24357
▁um	-7.24876
▁enough	-7.25069
▁meet	-7.26448
▁else	-7.26515
▁wasnt	-7.27239
▁whole	-7.27242
▁phone	-7.27467
▁seen	-7.27812
▁course	-7.27977
▁looking	-7.28246
▁may	-7.29793
▁ask	-7.29799
▁came	-7.30151
▁run	-7.30891
▁mind	-7.31273
▁job	-7.31293
▁excuse	-7.31344
al	-7.31592
▁die	-7.31734
n	-7.31806
▁un	-7.33019
▁head	-7.33142
▁playing	-7.33731
▁miss	-7.33794
▁whos	-7.33827
▁morning	-7.34047
▁many	-7.3413
▁yöu	-7.34313
▁bring	-7.34395
▁music	-7.34441
▁start	-7.34481
es	-7.34691
▁family	-7.34832
▁together	-7.34836
▁turn	-7.3485
▁pretty	-7.35228
▁saw	-7.3523
▁watch	-7.35501
▁damn	-7.36115
▁hope	-7.36858
▁fight	-7.38995
▁without	-7.40097
▁used	-7.4105
▁end	-7.41109
▁found	-7.41409
▁happened	-7.41939
▁open	-7.41949
r	-7.42121
▁everyone	-7.42209
in	-7.42999
▁weve	-7.43051
▁fun	-7.43085
▁room	-7.43592
▁second	-7.43932
o	-7.44459
▁school	-7.44518
▁took	-7.45216
▁heart	-7.45326
▁idea	-7.45451
▁happy	-7.45655
▁went	-7.46097
▁use	-7.46297
▁fire	-7.46466
▁tomorrow	-7.47428
▁five	-7.47897
▁kids	-7.48038
▁hard	-7.48536
▁heard	-7.488
▁hand	-7.49653
▁honey	-7.49692
▁whoa	-7.49703
▁crazy	-7.50614
i	-7.50618
▁knew	-7.51073
▁beautiful	-7.51425
▁working	-7.52204
▁laughing	-7.52606
▁mother	-7.52735
▁called	-7.52838
▁dr	-7.53214
▁part	-7.54173
▁sighs	-7.54909
▁saying	-7.55806
▁game	-7.56119
▁friends	-7.56167
▁eyes	-7.56224
▁ah	-7.56667
▁hot	-7.56768
▁face	-7.56942
▁tu	-7.57144
▁kid	-7.57608
▁matter	-7.57655
▁minutes	-7.57851
▁em	-7.58516
▁boys	-7.58568
▁bit	-7.58596
▁ben	-7.58669
▁pay	-7.58782
▁alone	-7.58789
▁stuff	-7.59795
▁inside	-7.59796
▁walk	-7.60166
▁lts	-7.60295
▁days	-7.60914
▁shut	-7.60914
▁le	-7.61108
▁cool	-7.6129
▁yet	-7.61329
▁worry	-7.61923
▁eat	-7.61943
▁gone	-7.61959
▁la	-7.62008
▁anyone	-7.62359
▁deal	-7.62361
▁check	-7.62626
▁lost	-7.62886
▁four	-7.63428
▁wouldnt	-7.63996
▁supposed	-7.64487
▁minute	-7.64929
▁brother	-7.65482
▁six	-7.65546
▁party	-7.65699
▁year	-7.66036
▁mama	-7.66064
▁pas	-7.66497
▁stand	-7.66657
▁already	-7.67147
▁problem	-7.67693
▁welcome	-7.67695
▁since	-7.682
▁true	-7.68801
▁break	-7.68968
ll	-7.69308
▁easy	-7.69915
▁somebody	-7.69947
▁looks	-7.70232
▁bye	-7.71041
ve	-7.71321
▁business	-7.71605
▁havent	-7.71605
▁gave	-7.72178
▁wife	-7.72178
▁number	-7.72246
▁th	-7.7279
▁grunts	-7.72874
▁wants	-7.73057
▁thinking	-7.73062
▁sleep	-7.73119
▁close	-7.73439
▁wow	-7.73914
▁chuckles	-7.74074
▁trust	-7.74338
▁cest	-7.74537
▁safe	-7.7491
▁ass	-7.75066
▁probably	-7.75083
▁daddy	-7.75097
▁makes	-7.75161
▁cut	-7.75319
▁clear	-7.75446
▁hurt	-7.75991
▁ago	-7.76272
▁youd	-7.76289
▁killed	-7.76859
▁blood	-7.76869
▁making	-7.77483
▁says	-7.77815
▁sit	-7.78139
▁nobody	-7.7826
▁read	-7.7857
▁laughs	-7.78749
l	-7.7892
▁hit	-7.79183
▁different	-7.79185
▁water	-7.80165
▁met	-7.80716
▁question	-7.80753
▁speaking	-7.80872
▁hands	-7.81052
▁far	-7.8122
f	-7.81232
▁couldnt	-7.81868
▁perfect	-7.82322
▁ya	-7.827
▁goes	-7.83169
▁forget	-7.83706
▁later	-7.83779
▁dance	-7.83882
▁whatever	-7.84349
▁point	-7.84674
▁ricky	-7.85048
▁chance	-7.85344
▁war	-7.85424
on	-7.85879
▁set	-7.85904
▁word	-7.85975
▁wheres	-7.86171
▁soon	-7.86222
▁hate	-7.86506
▁george	-7.86972
▁almost	-7.86973
▁special	-7.86979
▁free	-7.87054
▁though	-7.87606
▁mine	-7.87735
▁rest	-7.87833
▁person	-7.87954
▁heres	-7.8837
▁girls	-7.8895
▁line	-7.8897
▁screaming	-7.8904
▁high	-7.89415
▁means	-7.90213
▁side	-7.90316
▁change	-7.90622
▁moment	-7.908
▁full	-7.90966
▁late	-7.91031
▁bob	-7.91567
g	-7.91978
▁team	-7.92297
▁re	-7.92907
▁ha	-7.93622
▁ladies	-7.94563
▁book	-7.95013
▁lose	-7.95245
▁child	-7.95276
▁story	-7.95284
▁death	-7.95292
▁gasps	-7.95522
▁light	-7.95626
▁exactly	-7.9602
▁promise	-7.96341
▁voice	-7.9656
▁wish	-7.97386
▁anyway	-7.98213
▁white	-7.98973
▁sometimes	-7.99207
c	-7.99468
▁continues	-7.99487
▁afraid	-7.9971
▁anymore	-7.9971
▁hours	-8.00155
est	-8.00239
▁happen	-8.00366
▁m	-8.01157
▁waiting	-8.01185
▁taking	-8.01298
▁power	-8.01412
▁c	-8.01889
▁city	-8.02017
▁pick	-8.02026
▁grunting	-8.02042
▁hang	-8.02367
▁lll	-8.02634
▁fast	-8.02656
▁buddy	-8.02777
▁jesus	-8.02779
▁red	-8.03227
▁young	-8.03472
▁shot	-8.03519
▁least	-8.03567
▁drink	-8.03658
▁f	-8.04036
▁dog	-8.04047
▁save	-8.04167
▁doctor	-8.04264
▁speak	-8.04509
▁president	-8.05138
▁hubie	-8.05139
▁running	-8.05147
▁top	-8.05151
le	-8.05549
st	-8.05822
p	-8.06044
▁plan	-8.06264
▁times	-8.06631
▁bitch	-8.06735
▁started	-8.07361
▁human	-8.07509
▁half	-8.07548
▁touch	-8.07633
▁news	-8.07719
▁bed	-8.07867
▁shoot	-8.07886
▁fall	-8.07941
▁drive	-8.08252
▁sweet	-8.08317
▁truth	-8.0837
▁also	-8.08378
▁ahead	-8.08381
▁feet	-8.08385
▁lt	-8.08566
ie	-8.08877
▁anybody	-8.09204
▁behind	-8.09204
▁brought	-8.09204
▁ball	-8.0931
▁s	-8.09514
▁amazing	-8.10037
▁tried	-8.10072
▁scared	-8.10131
▁week	-8.10768
▁hmm	-8.10881
▁front	-8.10886
▁singing	-8.11126
▁black	-8.11724
▁married	-8.11725
▁arent	-8.11726
▁living	-8.11783
▁follow	-8.12657
b	-8.12783
▁win	-8.12834
▁asked	-8.13263
▁it	-8.13361
▁john	-8.13433
▁gentlemen	-8.13443
▁along	-8.1345
▁alive	-8.13461
▁seems	-8.13985
u	-8.14036
▁food	-8.14307
▁stupid	-8.14311
▁air	-8.14371
▁reason	-8.14385
▁song	-8.14501
▁secret	-8.14869
▁telling	-8.14959
▁hurry	-8.15188
▁ow	-8.15293
▁date	-8.15363
▁king	-8.15564
▁lives	-8.15684
▁que	-8.15749
▁dinner	-8.16074
▁body	-8.16085
▁throw	-8.16469
h	-8.16525
▁send	-8.16566
▁important	-8.16865
▁kidding	-8.16969
▁moving	-8.1697
▁lord	-8.17033
▁daughter	-8.1711
▁b	-8.17407
▁sound	-8.17456
▁happening	-8.17466
é	-8.17488
▁street	-8.18014
▁women	-8.18017
▁grace	-8.18769
▁funny	-8.1879
▁case	-8.18806
▁blue	-8.18939
▁sister	-8.1894
▁eye	-8.1905
▁sign	-8.1905
▁sounds	-8.19328
▁greg	-8.1969
▁dear	-8.20534
▁office	-8.20547
▁colonel	-8.2062
▁maam	-8.20621
▁zoey	-8.20633
▁outside	-8.21322
▁aii	-8.21625
▁sense	-8.217
▁yo	-8.22352
▁french	-8.22498
▁feeling	-8.22731
▁couple	-8.22733
ers	-8.23284
▁children	-8.23454
▁finally	-8.23502
▁step	-8.23728
▁gun	-8.23873
▁died	-8.24044
▁sick	-8.24415
ion	-8.24677
▁rose	-8.24682
▁luck	-8.25279
▁shake	-8.25383
▁buy	-8.2595
▁hows	-8.26363
▁till	-8.26376
▁carl	-8.26481
▁comes	-8.26716
▁order	-8.26927
▁ooh	-8.27317
▁kiss	-8.27549
te	-8.27874
▁slow	-8.28146
▁teddy	-8.28346
▁glad	-8.28355
▁earth	-8.28357
▁country	-8.28364
▁kate	-8.28375
▁hair	-8.28482
▁answer	-8.28969
▁beat	-8.29295
▁control	-8.29354
or	-8.29396
▁r	-8.2984
▁finish	-8.30665
▁dude	-8.30773
▁seem	-8.30926
us	-8.3136
▁york	-8.31414
▁captain	-8.31414
▁trouble	-8.31415
m	-8.31465
▁cheering	-8.31506
▁needs	-8.31539
▁figure	-8.31609
▁dream	-8.32136
▁eight	-8.32346
▁serious	-8.32354
▁calm	-8.32454
▁rain	-8.32467
▁leaving	-8.32478
▁theyll	-8.32491
▁quite	-8.32553
▁hour	-8.32912
▁et	-8.32947
▁words	-8.33012
▁wake	-8.33351
▁careful	-8.33462
▁pull	-8.33847
▁weird	-8.34506
▁police	-8.34557
▁arnie	-8.34572
▁gilbert	-8.34573
▁drop	-8.34588
▁write	-8.34966
▁honor	-8.35313
▁max	-8.35633
▁proud	-8.35647
▁goodbye	-8.35648
▁ten	-8.35752
▁smell	-8.35811
▁join	-8.36167
▁cute	-8.36316
▁general	-8.36619
▁small	-8.36632
▁security	-8.36738
▁absolutely	-8.36744
▁crowd	-8.36747
▁army	-8.36831
▁learn	-8.37097
▁roy	-8.37835
▁green	-8.38945
▁wonderful	-8.39014
▁past	-8.39015
▁asking	-8.39093
re	-8.39227
▁husband	-8.39501
▁bar	-8.39858
▁wedding	-8.40069
▁cold	-8.40069
▁watching	-8.40146
▁seven	-8.40158
▁fact	-8.40675
▁gets	-8.40679
▁round	-8.40688
▁record	-8.41808
▁act	-8.41977
▁known	-8.42149
▁en	-8.42228
▁either	-8.42354
▁iike	-8.42364
▁il	-8.42965
▁picture	-8.43007
ies	-8.43222
▁months	-8.43353
▁class	-8.43502
▁charlie	-8.4352
▁lady	-8.43538
▁law	-8.43696
▁wed	-8.43757
▁julia	-8.44179
▁ring	-8.44358
▁turned	-8.444
▁magic	-8.44604
▁mmm	-8.44684
▁brian	-8.44685
▁zeus	-8.44698
▁bobby	-8.44705
▁wear	-8.45011
▁system	-8.45399
▁clean	-8.4583
▁weeks	-8.45856
▁future	-8.45886
▁tv	-8.45892
▁town	-8.45942
▁knows	-8.46146
th	-8.46348
▁choice	-8.46618
▁ground	-8.46623
▁park	-8.46743
▁catch	-8.46781
▁contact	-8.46809
▁fat	-8.46941
▁strong	-8.4695
▁near	-8.4706
▁straight	-8.47069
▁forever	-8.47087
▁rachel	-8.47089
▁shall	-8.47093
▁totally	-8.47124
▁shouting	-8.47185
▁cover	-8.47441
▁i	-8.47445
man	-8.48215
▁they	-8.48265
▁road	-8.48308
▁yep	-8.4831
▁parents	-8.48427
▁box	-8.4859
▁crawl	-8.49097
▁queen	-8.49117
▁gold	-8.49531
▁louise	-8.49568
▁meeting	-8.49755
▁a	-8.49761
▁handle	-8.49942
▁hundred	-8.50359
▁key	-8.50644
▁kevin	-8.50792
▁shouldnt	-8.50793
▁panting	-8.50794
▁yall	-8.50875
▁count	-8.51428
▁calling	-8.51431
▁become	-8.51636
▁relax	-8.51722
▁ones	-8.5174
▁birthday	-8.52059
ic	-8.52205
▁les	-8.52248
▁qui	-8.52318
▁ride	-8.5266
▁meant	-8.52829
▁less	-8.52965
▁mouth	-8.53005
able	-8.53363
▁non	-8.53449
▁paint	-8.53564
▁able	-8.53904
▁pain	-8.54057
▁ce	-8.54156
▁worked	-8.54251
▁sex	-8.54497
▁possible	-8.54639
▁somewhere	-8.54639
▁copy	-8.54683
▁sent	-8.54828
▁lucky	-8.54848
▁lie	-8.54906
▁fear	-8.55509
▁fix	-8.55648
▁deep	-8.55753
▁evil	-8.55955
▁goddamn	-8.55955
▁doin	-8.55983
▁tree	-8.56238
▁questions	-8.56832
▁cell	-8.56903
▁explain	-8.5698
vous	-8.57058
▁worth	-8.57135
▁mad	-8.57174
▁anywhere	-8.57288
▁company	-8.57288
▁situation	-8.57288
▁history	-8.57288
▁gay	-8.57302
▁born	-8.57397
▁bet	-8.57762
▁pass	-8.58236
▁pop	-8.58386
▁building	-8.58581
▁stuck	-8.58641
▁court	-8.5868
▁none	-8.58804
▁wonder	-8.59184
▁bank	-8.59696
▁gods	-8.5989
▁ray	-8.60089
▁field	-8.60106
▁missing	-8.60133
▁happens	-8.60269
▁saved	-8.60391
▁screams	-8.60448
▁kick	-8.6066
▁mess	-8.60671
▁mar	-8.60876
▁thousand	-8.61124
▁imagine	-8.61166
▁nine	-8.61256
▁grab	-8.61274
▁dark	-8.61389
▁katniss	-8.61398
▁island	-8.61398
▁sophie	-8.61402
▁sort	-8.61419
▁groans	-8.61626
▁longer	-8.62069
▁g	-8.62217
▁rock	-8.62494
▁american	-8.62603
▁wall	-8.62621
▁tough	-8.62691
▁hercules	-8.62807
▁perhaps	-8.62807
▁dancing	-8.62808
▁radio	-8.62809
▁troy	-8.62844
▁jai	-8.6289
▁stick	-8.63372
▁seat	-8.63757
▁pour	-8.63795
▁breathe	-8.63853
▁fly	-8.63906
▁piece	-8.64022
▁pa	-8.64034
▁felt	-8.64189
▁attention	-8.64235
▁sky	-8.64279
en	-8.64312
▁low	-8.64334
▁joe	-8.6435
▁tired	-8.64365
▁shh	-8.64471
▁list	-8.64679
▁protect	-8.64843
▁mission	-8.65526
▁college	-8.65685
▁shell	-8.65735
▁seriously	-8.65829
▁sing	-8.65903
▁v	-8.6598
▁ringing	-8.66214
▁fish	-8.66492
▁works	-8.66883
k	-8.66938
▁million	-8.66957
▁hospital	-8.67138
▁middle	-8.67155
▁moses	-8.67156
▁bruce	-8.6716
▁horse	-8.67411
an	-8.67751
▁loved	-8.67814
▁return	-8.67896
▁teach	-8.68081
▁sun	-8.68153
▁standing	-8.6832
▁art	-8.68345
ful	-8.68384
▁boat	-8.68447
▁taken	-8.68483
▁charles	-8.68648
▁jules	-8.68648
▁sheiiey	-8.68648
▁ginger	-8.6865
▁floor	-8.68661
▁in	-8.68928
▁laugh	-8.69253
▁brain	-8.69548
▁share	-8.69946
▁service	-8.7002
▁mark	-8.70069
▁ne	-8.70125
▁whoo	-8.70153
▁spent	-8.70165
▁foreman	-8.70166
▁definitely	-8.70168
▁bernie	-8.70176
▁bigger	-8.70189
▁vee	-8.70223
▁unless	-8.70227
▁te	-8.70248
▁lucas	-8.70255
▁faith	-8.70642
▁p	-8.70937
▁enjoy	-8.70955
▁knock	-8.70966
▁lock	-8.71214
▁quick	-8.71487
▁entire	-8.71594
▁broke	-8.71654
▁chuck	-8.71662
▁forgot	-8.717
▁kaulder	-8.71701
▁linda	-8.71713
▁h	-8.72301
▁attack	-8.72345
▁age	-8.72351
▁bell	-8.72399
▁card	-8.7284
▁offer	-8.72895
▁lve	-8.73152
▁smart	-8.73152
▁awesome	-8.73264
▁worse	-8.73264
▁sebastian	-8.73264
▁summer	-8.73264
▁caught	-8.73266
▁russian	-8.73289
▁bud	-8.73313
▁completely	-8.73325
less	-8.73331
▁trick	-8.73932
▁cross	-8.74005
el	-8.74385
▁asshole	-8.74736
▁camera	-8.7478
▁tina	-8.74869
▁star	-8.74901
▁beeping	-8.74924
▁state	-8.74951
▁bella	-8.75039
it	-8.75067
▁breathing	-8.75182
w	-8.75275
▁games	-8.75485
▁looked	-8.75935
▁lee	-8.7599
▁command	-8.76136
▁fair	-8.76164
▁walking	-8.76196
▁truck	-8.7641
up	-8.76414
▁respect	-8.76436
▁paris	-8.76439
▁uncle	-8.76461
▁monsieur	-8.76464
▁plus	-8.76464
▁weii	-8.76465
▁early	-8.76499
▁fighting	-8.76563
▁report	-8.77006
▁changed	-8.7702
▁si	-8.77097
ation	-8.77207
▁push	-8.77344
▁w	-8.77507
▁short	-8.77565
▁surprise	-8.77796
▁seconds	-8.77815
▁appreciate	-8.77858
▁chris	-8.77879
▁mistake	-8.77996
▁fell	-8.78
▁sea	-8.78005
▁frank	-8.78008
▁agent	-8.78069
▁soul	-8.78072
▁une	-8.78094
▁across	-8.78103
▁washington	-8.78104
▁quoi	-8.7812
▁se	-8.78147
▁clothes	-8.78152
▁lisa	-8.7825
▁sam	-8.78267
▁ice	-8.78291
▁wearing	-8.78695
▁ho	-8.78899
▁feels	-8.79408
▁alarm	-8.79443
▁survive	-8.79546
▁america	-8.79697
▁others	-8.7977
▁austin	-8.7977
▁forward	-8.7977
▁jake	-8.79778
▁space	-8.79813
▁crying	-8.80054
▁arm	-8.80612
▁reach	-8.8075
▁boss	-8.81237
▁bathroom	-8.81437
▁melon	-8.81461
▁nervous	-8.81465
▁paige	-8.81465
▁restaurant	-8.81465
▁congratulations	-8.81465
▁giving	-8.81468
▁mmhmm	-8.81473
▁dying	-8.81485
▁jump	-8.81525
▁moon	-8.8163
▁rent	-8.81633
▁christ	-8.8168
▁gene	-8.82372
▁needed	-8.82411
▁takes	-8.82419
▁d	-8.82458
▁est	-8.83016
▁werent	-8.83189
▁football	-8.83192
▁hungry	-8.83192
▁major	-8.83195
▁terrible	-8.83201
▁heh	-8.83223
▁single	-8.83226
▁super	-8.8327
▁robot	-8.83278
▁jj	-8.84155
▁orders	-8.84382
z	-8.84514
▁blow	-8.84524
▁destroy	-8.84642
▁paul	-8.84768
▁al	-8.8478
▁bill	-8.84853
▁lead	-8.84868
▁glass	-8.84872
▁simple	-8.84873
▁fault	-8.84946
▁heavy	-8.84949
▁moi	-8.84973
▁computer	-8.84995
▁machine	-8.85001
▁paper	-8.8503
▁beer	-8.85039
▁ship	-8.85082
▁starting	-8.8509
▁hole	-8.85311
▁miles	-8.85448
▁va	-8.85615
out	-8.86198
▁missed	-8.86309
▁race	-8.86464
▁moved	-8.86501
▁mm	-8.866
▁dangerous	-8.86618
▁marshal	-8.86688
▁chief	-8.86729
▁swear	-8.86729
▁whatd	-8.86747
▁groaning	-8.86804
▁message	-8.86833
▁hide	-8.86848
▁yelling	-8.86874
▁e	-8.86894
▁gift	-8.86944
▁table	-8.86974
▁du	-8.87438
et	-8.87744
▁sell	-8.88053
▁holding	-8.88057
ter	-8.88078
▁remind	-8.88118
v	-8.88178
▁except	-8.88475
▁uhhuh	-8.88547
hrer	-8.88548
▁rather	-8.88548
▁halloween	-8.88548
▁tommy	-8.88549
▁paid	-8.88554
▁walter	-8.88561
▁patch	-8.88576
▁sitting	-8.88583
▁jail	-8.88611
▁foot	-8.88614
▁busy	-8.88633
▁joke	-8.88691
▁officer	-8.88816
▁lang	-8.88859
▁au	-8.88948
▁mon	-8.89052
▁rings	-8.89329
▁cat	-8.89509
▁spend	-8.89963
▁honest	-8.90138
▁o	-8.90208
▁quiet	-8.90315
▁darling	-8.904
▁alright	-8.90401
▁favorite	-8.90402
▁driving	-8.90404
▁upon	-8.9041
▁poor	-8.90415
▁personal	-8.90464
▁code	-8.90555
ry	-8.90606
me	-8.90614
ng	-8.91114
▁sad	-8.91114
▁listening	-8.91523
ity	-8.91558
▁pray	-8.91831
▁chatter	-8.91859
▁pack	-8.91961
▁dare	-8.92097
▁crap	-8.92128
▁final	-8.9219
▁jasmine	-8.92286
▁larry	-8.92286
▁toronto	-8.92286
▁beach	-8.92287
▁suis	-8.9229
▁female	-8.92292
▁devil	-8.923
▁band	-8.92349
▁male	-8.92358
▁decided	-8.92442
▁square	-8.92499
▁mountain	-8.92507
▁names	-8.92999
ness	-8.93077
▁painting	-8.93162
▁seeing	-8.93364
▁land	-8.94045
▁rick	-8.94072
▁apart	-8.94197
▁north	-8.94209
▁yesterday	-8.94209
▁jimmy	-8.94209
▁cosette	-8.94211
▁boyfriend	-8.94215
▁neck	-8.94218
▁master	-8.94245
▁hotel	-8.94271
▁fit	-8.94366
▁month	-8.9439
▁group	-8.94435
▁partner	-8.9447
▁lovely	-8.94522
▁hat	-8.95149
▁given	-8.95217
▁steal	-8.95735
▁target	-8.95851
▁feed	-8.95862
▁agree	-8.95934
▁charge	-8.96144
▁chocolate	-8.9617
▁worried	-8.9617
▁terry	-8.9617
▁throat	-8.96176
▁lying	-8.96215
▁peter	-8.96238
▁bag	-8.96339
ment	-8.96368
▁corner	-8.96441
▁folks	-8.96595
▁wood	-8.96774
▁books	-8.96776
▁dollars	-8.96866
▁spot	-8.96909
▁evening	-8.97217
▁dress	-8.97346
▁goin	-8.97633
▁an	-8.97871
▁wine	-8.98049
▁fool	-8.9809
▁fresh	-8.9815
▁doyle	-8.9817
▁vincent	-8.9817
▁instead	-8.9817
▁kept	-8.98172
▁drunk	-8.98177
▁ellis	-8.9835
ent	-8.98373
▁tour	-8.98398
▁grandpa	-8.98428
▁blind	-8.98452
ist	-8.98746
▁peace	-8.98954
▁hanging	-8.99288
▁owe	-8.99354
▁expect	-8.9947
▁burn	-8.99661
▁hero	-8.99697
▁lin	-8.99708
▁mo	-8.9974
▁build	-8.99782
▁scott	-9.00042
▁nick	-9.00066
▁certain	-9.00102
▁tech	-9.00189
▁audience	-9.00211
▁south	-9.00214
▁ronny	-9.00214
▁brianna	-9.00228
▁nature	-9.00249
▁tom	-9.00301
▁breath	-9.00312
▁brothers	-9.00393
▁quit	-9.0041
▁girlfriend	-9.0057
▁bomb	-9.00572
▁window	-9.00579
ant	-9.00606
▁finished	-9.00813
▁dis	-9.01211
▁fired	-9.01227
▁k	-9.01359
▁co	-9.01399
▁wind	-9.01594
▁heat	-9.01906
▁arrest	-9.02006
▁trip	-9.02083
▁realize	-9.02105
▁grow	-9.02106
▁tight	-9.02188
▁indistinct	-9.0219
▁lunch	-9.02283
▁rudy	-9.02294
▁bruno	-9.02297
▁peeta	-9.02298
▁afternoon	-9.02301
▁pleasure	-9.02305
▁izzy	-9.02312
▁chon	-9.02318
▁incredible	-9.02321
▁weekend	-9.02329
▁third	-9.02347
▁pen	-9.02412
▁horn	-9.02547
▁adam	-9.02716
▁photo	-9.02717
▁where	-9.02767
▁bon	-9.02947
▁talked	-9.03439
▁ex	-9.03607
▁train	-9.03712
▁t	-9.03911
▁west	-9.04286
▁english	-9.04422
▁stella	-9.04422
▁video	-9.04422
▁bullshit	-9.04422
▁spanish	-9.04422
▁cheese	-9.04422
▁donna	-9.04426
▁club	-9.04428
▁roz	-9.04432
▁losing	-9.04482
▁theo	-9.0449
▁papa	-9.04544
▁putting	-9.04552
▁present	-9.04699
▁powers	-9.04779
▁yöur	-9.04829
▁figured	-9.04883
▁letter	-9.05178
▁track	-9.06178
▁study	-9.0619
▁fuck	-9.06359
▁brave	-9.06487
▁double	-9.06596
▁hasnt	-9.06596
▁rosie	-9.06597
▁sweetheart	-9.06597
▁position	-9.06634
▁cream	-9.06639
▁freaky	-9.06673
▁united	-9.06767
▁closer	-9.06829
▁suit	-9.06847
▁smile	-9.0706
▁guard	-9.07149
▁picked	-9.07471
▁visit	-9.08161
il	-9.08323
▁dads	-9.08475
▁lay	-9.08502
▁favor	-9.08815
▁diane	-9.08818
▁coffee	-9.08818
▁richard	-9.08819
▁andrew	-9.0882
▁andy	-9.08822
▁clock	-9.08827
▁liesel	-9.08832
▁distance	-9.0884
▁skin	-9.08841
▁type	-9.089
▁taste	-9.09151
▁flight	-9.09329
▁cake	-9.09342
▁grand	-9.09351
▁hed	-9.09358
▁burger	-9.09387
▁learned	-9.09434
▁liked	-9.09468
▁hug	-9.09715
tre	-9.1001
▁ii	-9.10076
▁huge	-9.10102
▁wash	-9.1037
▁lived	-9.1055
▁carry	-9.10752
▁raise	-9.10871
▁rich	-9.1105
▁eddie	-9.1109
▁government	-9.1109
▁truly	-9.1109
▁kitchen	-9.11091
▁area	-9.11091
▁roof	-9.11092
▁felix	-9.11098
▁chuckling	-9.11104
▁oui	-9.11108
▁julie	-9.11111
▁size	-9.11114
▁nose	-9.11134
ting	-9.11149
▁holy	-9.1124
ate	-9.11311
▁atom	-9.11356
▁teacher	-9.11356
▁locked	-9.11538
▁weapon	-9.1172
▁ja	-9.11785
▁driver	-9.1185
to	-9.11979
is	-9.12106
▁travel	-9.12118
▁kinda	-9.12148
▁rules	-9.12493
▁plays	-9.12513
▁prove	-9.12816
▁ton	-9.12885
▁howd	-9.13257
▁mike	-9.1326
▁prison	-9.13294
▁strange	-9.13342
▁beyond	-9.13416
▁goldmember	-9.13416
▁jacob	-9.13416
▁wrote	-9.13416
▁support	-9.13416
▁memory	-9.13416
▁amara	-9.13417
▁within	-9.13419
▁river	-9.1342
▁medical	-9.13457
▁broken	-9.13518
▁gosh	-9.13791
▁reporter	-9.13834
▁beeps	-9.13842
▁shoes	-9.13846
▁greatest	-9.13971
▁pal	-9.13978
nt	-9.13984
▁bastard	-9.14075
▁movie	-9.14082
▁bird	-9.14101
▁lights	-9.14109
▁using	-9.14229
▁continue	-9.14524
▁chicken	-9.14654
▁dans	-9.14743
▁st	-9.14746
▁ran	-9.1484
▁fill	-9.15085
▁roll	-9.15637
▁dig	-9.15704
▁arms	-9.15763
▁babe	-9.15797
▁enemy	-9.15797
▁lloyd	-9.15797
▁roger	-9.15797
▁impossible	-9.15797
▁candy	-9.15798
▁twice	-9.15798
▁dolan	-9.158
▁pressure	-9.15803
▁balls	-9.15805
▁center	-9.1582
▁interesting	-9.16055
▁bucks	-9.16159
▁judge	-9.1619
▁force	-9.1629
▁engine	-9.16349
▁beckett	-9.16459
▁account	-9.16462
▁gas	-9.16488
▁level	-9.16491
▁risk	-9.16525
▁plane	-9.16572
▁ld	-9.16633
▁bro	-9.1722
▁ann	-9.17865
▁east	-9.18155
▁cia	-9.18193
▁extra	-9.18204
▁fischoeder	-9.18236
▁private	-9.18236
▁upstairs	-9.18236
▁strength	-9.18236
▁writing	-9.18237
▁cash	-9.18237
▁sold	-9.18238
▁information	-9.18238
▁coach	-9.18239
▁annie	-9.18302
▁indistinctly	-9.18358
▁cow	-9.18369
▁gasping	-9.18446
▁whispers	-9.18515
▁warning	-9.18518
▁cars	-9.18798
▁falco	-9.18903
▁action	-9.19015
▁crime	-9.19025
▁strike	-9.19032
▁cost	-9.19267
ii	-9.19597
ch	-9.20504
▁named	-9.20507
▁forgive	-9.20666
▁loose	-9.20678
▁lambert	-9.20736
▁excellent	-9.20741
▁data	-9.20743
▁excited	-9.20744
▁pool	-9.20744
▁lonely	-9.20745
▁james	-9.20762
▁stopped	-9.20836
▁van	-9.20938
▁mi	-9.20946
▁pre	-9.21019
▁doubt	-9.21137
ty	-9.21149
▁cale	-9.21426
▁store	-9.21526
▁promised	-9.2153
▁lawyer	-9.21572
▁ghost	-9.21594
▁ali	-9.21632
ne	-9.21922
▁begin	-9.22148
▁due	-9.22612
▁sisters	-9.2284
▁played	-9.22889
▁marry	-9.2291
▁cry	-9.22927
▁warm	-9.22952
▁enter	-9.23022
▁pam	-9.23137
▁witch	-9.23233
▁brown	-9.23242
▁thunder	-9.233
▁built	-9.233
▁credit	-9.233
▁nerve	-9.233
▁ridiculous	-9.23301
▁bunch	-9.23301
▁zack	-9.23301
▁harry	-9.23301
▁everywhere	-9.23302
▁hank	-9.23302
▁harper	-9.23304
▁thatll	-9.23316
▁obviously	-9.23369
▁states	-9.23434
▁plans	-9.23468
▁turning	-9.23495
rs	-9.235
▁starts	-9.23727
na	-9.23937
▁j	-9.24197
▁sake	-9.24201
▁path	-9.24219
ar	-9.24337
▁wouldve	-9.24585
▁lake	-9.24663
▁lies	-9.25233
▁opens	-9.25572
▁complete	-9.25592
▁numbers	-9.25625
ous	-9.25758
ke	-9.25916
▁main	-9.25921
▁rebecca	-9.25932
▁emergency	-9.25932
▁teeth	-9.25934
▁upset	-9.25934
▁june	-9.25935
▁reaiiy	-9.25935
▁daryn	-9.2594
▁violet	-9.2594
▁boom	-9.25986
▁par	-9.25998
▁tessa	-9.26012
▁certainly	-9.26066
▁quickly	-9.26111
▁loves	-9.2612
▁do	-9.263
▁besides	-9.26322
ra	-9.26518
▁stars	-9.26537
▁kissed	-9.26738
▁bite	-9.26753
ee	-9.26836
▁killing	-9.27021
▁tire	-9.27024
▁vi	-9.27055
▁stage	-9.27067
ta	-9.27239
▁bot	-9.2735
▁leg	-9.27873
▁con	-9.28153
▁eating	-9.2816
▁staying	-9.28183
▁tall	-9.28305
▁screw	-9.2834
um	-9.2838
▁normal	-9.28536
▁wild	-9.28592
▁snow	-9.28616
▁breakfast	-9.28634
▁difference	-9.28635
▁genius	-9.28635
▁empty	-9.28636
▁shouldve	-9.28638
▁tower	-9.2864
▁spiderman	-9.28641
▁glenn	-9.28643
▁mount	-9.28643
▁jason	-9.28644
▁advance	-9.28658
▁laughter	-9.2866
▁purpose	-9.28673
▁pro	-9.28677
▁chanting	-9.28714
▁reading	-9.28732
ur	-9.28876
▁suck	-9.2901
▁keys	-9.29018
at	-9.29277
▁heaven	-9.2949
▁yells	-9.29513
▁accident	-9.29592
▁calls	-9.29606
▁taylor	-9.29628
▁cops	-9.29679
▁hitler	-9.29713
▁rule	-9.29781
▁artist	-9.29861
▁tes	-9.30138
▁dreams	-9.30282
▁out	-9.30338
▁treat	-9.30449
▁thinks	-9.30491
▁shower	-9.30897
▁loud	-9.313
▁london	-9.31412
▁mmmhmm	-9.31412
▁ritchie	-9.31412
▁worst	-9.31412
▁bought	-9.31412
▁bernard	-9.31413
▁shame	-9.31414
▁beginning	-9.31415
▁practice	-9.31421
▁outta	-9.31422
▁comfortable	-9.31423
▁whispering	-9.31493
▁bono	-9.31499
eux	-9.31519
▁add	-9.31528
▁helped	-9.31556
▁sexy	-9.31732
▁nuts	-9.31738
▁faster	-9.31777
▁turns	-9.31815
▁film	-9.32028
▁chattering	-9.32052
▁lots	-9.32322
▁cheers	-9.32417
▁rip	-9.32429
▁operation	-9.32484
▁button	-9.32558
▁siren	-9.32797
▁soldiers	-9.32953
▁des	-9.333
▁form	-9.33457
▁punch	-9.33475
▁weapons	-9.33481
▁murder	-9.33672
▁aw	-9.33809
x	-9.34004
ia	-9.34042
▁chill	-9.34127
▁public	-9.34137
▁soft	-9.34145
▁seal	-9.34152
▁maureen	-9.34269
▁scoffs	-9.34269
▁especially	-9.34269
▁nowhere	-9.34269
▁taught	-9.34271
▁chili	-9.34272
▁sobbing	-9.34273
▁milo	-9.34279
▁fbi	-9.34284
▁eric	-9.34288
▁bien	-9.3429
▁eh	-9.3432
▁hiding	-9.34348
▁ro	-9.34628
ce	-9.34635
ally	-9.34861
▁file	-9.35293
▁gate	-9.35529
▁goal	-9.35582
▁there	-9.35619
de	-9.35702
▁tape	-9.36124
ts	-9.36519
than	-9.36548
▁focus	-9.36898
time	-9.36976
▁deliver	-9.37061
▁cheap	-9.37105
▁sugar	-9.37211
▁christmas	-9.37211
▁saving	-9.37211
▁ought	-9.37212
▁danny	-9.37216
▁price	-9.37217
▁battle	-9.37225
▁carol	-9.37226
▁emily	-9.37239
▁gabe	-9.37248
▁mais	-9.37255
▁held	-9.37272
▁vegas	-9.37289
▁exhales	-9.37312
▁gotten	-9.37346
▁no	-9.37357
▁mud	-9.37362
ling	-9.37425
▁destroyed	-9.37721
▁introduce	-9.38401
▁monster	-9.385
▁decision	-9.38524
▁serve	-9.38533
▁n	-9.38735
▁barn	-9.39142
▁birds	-9.39354
▁press	-9.394
▁bless	-9.39529
▁feelings	-9.39614
▁admit	-9.39663
▁crash	-9.39734
▁mini	-9.39801
▁san	-9.39837
▁swim	-9.40024
▁decide	-9.40079
▁correct	-9.40151
▁freeze	-9.40183
▁spread	-9.40191
ge	-9.40193
▁daniel	-9.40207
▁danger	-9.40239
▁foxxy	-9.40241
▁leonidas	-9.40241
▁nigel	-9.40241
▁rumbling	-9.40241
▁whirring	-9.40241
▁medicine	-9.40242
▁steve	-9.40243
▁beast	-9.40243
▁scene	-9.40251
▁wailing	-9.40261
▁dragon	-9.40267
▁mommy	-9.4027
▁meat	-9.4027
▁safety	-9.40292
▁gil	-9.40315
▁scary	-9.40317
▁cory	-9.4032
▁weather	-9.40336
▁everythings	-9.40344
▁bringing	-9.40495
▁keeping	-9.40882
▁so	-9.40926
▁draw	-9.41221
▁signed	-9.41252
la	-9.41337
▁butt	-9.41398
▁test	-9.41505
▁suspect	-9.41551
▁legend	-9.41562
▁cousin	-9.41576
▁regret	-9.41578
▁shirt	-9.416
▁view	-9.41629
▁station	-9.4163
▁zeta	-9.41656
▁animal	-9.41666
▁patient	-9.4167
▁soldier	-9.41674
▁color	-9.41696
ary	-9.4174
iy	-9.41951
▁drinking	-9.41956
▁legs	-9.42195
lng	-9.42321
▁cal	-9.42615
ted	-9.42638
▁killer	-9.42643
▁sais	-9.42983
▁ends	-9.4321
▁launch	-9.43257
▁over	-9.43262
▁shop	-9.43336
▁tongue	-9.43366
▁babies	-9.43366
▁daesu	-9.43366
▁beauty	-9.43367
▁split	-9.43367
▁cooper	-9.43372
▁dumb	-9.43372
▁plenty	-9.43376
▁heavily	-9.43386
▁common	-9.434
▁immediately	-9.43412
▁map	-9.43413
▁flor	-9.43426
ro	-9.43499
▁aids	-9.43525
▁apologize	-9.43634
▁dogs	-9.43697
▁doctors	-9.43699
▁bus	-9.43734
▁cooking	-9.43754
▁surprised	-9.43788
▁flying	-9.44322
age	-9.44326
ais	-9.44339
▁fingers	-9.44574
▁drones	-9.446
▁deserve	-9.44607
▁bottle	-9.44777
▁idiot	-9.448
▁basement	-9.44812
▁couldve	-9.44846
▁wire	-9.44932
ma	-9.45252
as	-9.45265
ive	-9.45585
▁sleeping	-9.45748
▁piss	-9.45833
▁amen	-9.45925
▁bridge	-9.4596
▁closes	-9.45979
▁experience	-9.46356
▁sacrifice	-9.46366
▁spare	-9.46389
▁stole	-9.46528
▁nothin	-9.46554
▁ruth	-9.46573
▁twenty	-9.46591
▁advice	-9.46592
▁asleep	-9.46592
▁caesar	-9.46592
▁difficult	-9.46592
▁fantastic	-9.46592
▁jorge	-9.46592
▁kaiju	-9.46592
▁england	-9.46592
▁isabelle	-9.46594
▁military	-9.46595
▁anchor	-9.46602
▁announcer	-9.46607
▁rise	-9.4661
▁farm	-9.46619
▁fake	-9.46625
▁liar	-9.4665
▁celebrate	-9.46682
▁pants	-9.46684
▁bake	-9.46697
▁sweetie	-9.46713
▁noticed	-9.4674
▁butter	-9.46761
▁dean	-9.46796
▁hoping	-9.46825
▁electric	-9.46916
▁toi	-9.46946
▁fathers	-9.47099
ass	-9.47334
▁nu	-9.47343
▁ai	-9.47417
▁talkin	-9.4753
▁eggs	-9.47697
▁acting	-9.47826
▁victor	-9.48035
▁pictures	-9.48036
▁doors	-9.48079
▁records	-9.48094
▁conversation	-9.48188
▁writer	-9.48297
▁heads	-9.48381
▁awful	-9.48493
▁yard	-9.48503
im	-9.48898
▁las	-9.48969
▁bo	-9.49136
▁breaking	-9.4914
▁borrow	-9.49148
▁repeat	-9.49445
▁grant	-9.49614
▁marty	-9.49649
▁waste	-9.49818
▁defense	-9.49925
▁exciting	-9.49925
▁sergeant	-9.49925
▁spencer	-9.49925
▁stauffenberg	-9.49925
▁stomach	-9.49925
▁wouid	-9.49925
▁gwen	-9.49925
▁stories	-9.49925
▁nope	-9.49926
▁online	-9.49928
▁ugly	-9.49928
▁zone	-9.49929
▁toast	-9.49932
▁dick	-9.49933
▁planning	-9.49936
▁dropped	-9.49943
▁duke	-9.49943
▁involved	-9.49947
▁quarter	-9.4995
▁bottom	-9.49957
uppper	-9.50037
▁row	-9.50131
▁billy	-9.50208
▁metal	-9.50232
▁base	-9.50273
▁letting	-9.50324
▁harder	-9.50678
▁boxing	-9.51118
tll	-9.51578
▁sec	-9.51589
▁stone	-9.51698
▁tear	-9.51742
ez	-9.52017
▁sub	-9.52367
▁access	-9.52553
▁clears	-9.52628
▁paintings	-9.52961
▁helping	-9.53048
▁sudden	-9.53271
▁total	-9.53304
▁blog	-9.53332
▁match	-9.53343
▁lion	-9.53349
▁rough	-9.53361
▁percent	-9.53364
▁viola	-9.53365
▁whip	-9.53372
▁apparently	-9.53373
▁criminal	-9.53373
▁miracle	-9.53373
▁ocean	-9.53373
▁possibly	-9.53373
▁saturday	-9.53373
▁whoever	-9.53374
▁couid	-9.53374
▁local	-9.53374
▁japanese	-9.53374
▁assistant	-9.53378
▁jersey	-9.53384
▁thirty	-9.53384
▁angry	-9.53385
▁fruit	-9.53405
▁chest	-9.53412
▁lift	-9.53473
▁martin	-9.53519
▁shed	-9.53624
▁signal	-9.5363
▁all	-9.53822
▁planet	-9.53889
▁comme	-9.53947
os	-9.54047
▁cook	-9.54157
▁ls	-9.54163
▁lower	-9.54198
▁program	-9.54202
▁passed	-9.54245
ow	-9.54378
▁bone	-9.54401
▁per	-9.54427
▁measure	-9.54917
▁aim	-9.54939
▁scare	-9.55
▁duck	-9.55021
▁robert	-9.55116
▁noise	-9.55152
▁sword	-9.55152
▁storm	-9.55154
▁tank	-9.55193
▁exit	-9.55194
▁guest	-9.55242
▁smells	-9.55288
ish	-9.55291
▁camp	-9.55931
ai	-9.56259
▁bother	-9.56499
▁pr	-9.56511
▁disappear	-9.56631
son	-9.56636
▁address	-9.56869
▁somethin	-9.56908
▁debora	-9.56915
▁choose	-9.56945
▁iittie	-9.56945
▁pregnant	-9.56945
▁travis	-9.56945
▁blaring	-9.56945
▁thief	-9.56945
▁ugh	-9.56945
▁finnick	-9.56946
▁silver	-9.56947
▁unbelievable	-9.56948
▁crew	-9.56949
▁lori	-9.56949
▁self	-9.56968
▁doc	-9.56977
▁manager	-9.57015
▁honking	-9.5705
▁cart	-9.5706
▁softly	-9.57076
▁hunter	-9.57142
▁richie	-9.57143
▁bleeding	-9.57189
▁pissed	-9.57283
▁kim	-9.57291
▁faire	-9.57291
▁runs	-9.57968
▁pulled	-9.57983
▁wondering	-9.58093
▁older	-9.58237
▁fellas	-9.58257
▁board	-9.58309
▁closed	-9.58339
▁vie	-9.58377
▁phones	-9.58525
▁relationship	-9.58851
▁nurse	-9.58939
▁jean	-9.5906
by	-9.59374
▁tie	-9.59411
▁grave	-9.59582
▁walker	-9.59615
ine	-9.59762
▁climb	-9.6021
▁hook	-9.60298
▁tip	-9.60333
▁mention	-9.60398
▁direct	-9.60427
do	-9.60453
ance	-9.60468
▁helen	-9.60519
▁abe	-9.60547
▁speech	-9.60547
▁lovin	-9.60613
▁became	-9.60648
▁eisenheim	-9.60648
▁familiar	-9.60648
▁flesh	-9.60648
▁olivia	-9.60648
▁perseus	-9.60648
▁soccer	-9.60648
▁opportunity	-9.60649
▁ryan	-9.60649
▁central	-9.60649
▁afford	-9.60649
▁vision	-9.60649
▁department	-9.60649
▁chinese	-9.60649
▁innocent	-9.6065
▁borg	-9.6065
▁impressive	-9.60651
▁wilson	-9.60652
▁massage	-9.60652
▁inspector	-9.60653
▁milk	-9.60654
▁sa	-9.60659
▁complicated	-9.60666
▁opening	-9.60666
▁comin	-9.6067
▁logan	-9.60672
▁apartment	-9.60673
▁gain	-9.60679
▁wet	-9.60682
▁hut	-9.60686
▁barely	-9.60689
▁growling	-9.60689
▁vice	-9.60699
▁speed	-9.60745
▁witches	-9.60751
▁jackson	-9.60773
▁created	-9.6088
▁heading	-9.61018
▁hal	-9.61024
▁pla	-9.61038
▁mary	-9.61168
▁crashing	-9.61181
▁showed	-9.61184
▁training	-9.61408
▁leo	-9.61562
que	-9.61627
▁lied	-9.61636
way	-9.61815
▁ears	-9.61862
▁parts	-9.62262
▁following	-9.62552
▁pig	-9.62638
▁nargle	-9.62669
▁location	-9.62717
am	-9.62733
▁jaeger	-9.62765
▁sat	-9.62774
▁student	-9.62789
▁leader	-9.6296
▁ma	-9.63225
▁headed	-9.63749
▁moms	-9.63772
▁warn	-9.63801
▁sur	-9.63883
▁ch	-9.64207
▁fan	-9.64329
▁obvious	-9.64391
▁ambrosia	-9.64495
▁clamoring	-9.64495
▁footsteps	-9.64495
▁neither	-9.64495
▁pilgrim	-9.64495
▁packard	-9.64498
▁theme	-9.64499
▁iron	-9.64504
▁bravo	-9.64507
▁dan	-9.64508
▁onto	-9.64519
▁written	-9.64528
▁famous	-9.64528
▁grew	-9.64529
▁secretary	-9.64531
▁china	-9.64549
▁professional	-9.64572
▁roaring	-9.64641
▁rare	-9.64676
▁swing	-9.64758
▁tony	-9.64758
▁interested	-9.64791
▁lungs	-9.64803
▁prom	-9.64845
▁gettin	-9.64952
▁focker	-9.65022
li	-9.65481
▁crack	-9.65738
no	-9.65749
▁dry	-9.65769
▁seemed	-9.65771
▁bow	-9.65942
▁da	-9.65977
▁interest	-9.66018
▁dit	-9.66048
▁moves	-9.66066
▁chain	-9.66355
▁lines	-9.66395
▁note	-9.66576
▁animals	-9.66642
▁nightmare	-9.66668
▁bullet	-9.66691
▁sight	-9.6673
▁district	-9.66737
▁spirit	-9.66752
▁mis	-9.66769
avec	-9.66918
▁prefer	-9.67125
ir	-9.67299
ian	-9.67345
▁rooms	-9.67631
▁streets	-9.67836
▁allow	-9.68198
▁post	-9.68258
▁secure	-9.68275
▁champ	-9.68468
▁applause	-9.68495
▁burlington	-9.68495
▁cotton	-9.68495
▁dubois	-9.68495
▁frazier	-9.68495
▁marriage	-9.68495
▁mercy	-9.68495
▁xerxes	-9.68495
▁byebye	-9.68495
▁negative	-9.68495
▁somehow	-9.68495
▁friday	-9.68495
▁often	-9.68495
▁alert	-9.68495
▁berlin	-9.68495
▁subject	-9.68495
▁problems	-9.68497
▁cowboy	-9.68498
▁marvin	-9.68498
▁skylar	-9.68502
▁grover	-9.68503
▁chloe	-9.68504
▁research	-9.68511
▁iook	-9.68513
▁robbie	-9.68523
▁castle	-9.68524
▁tout	-9.6853
▁justice	-9.68531
▁bright	-9.68539
▁mood	-9.68568
▁style	-9.68576
▁dc	-9.68586
▁grown	-9.68607
▁invited	-9.68635
▁coat	-9.68642
▁march	-9.68653
▁pu	-9.68673
▁hall	-9.6873
▁grid	-9.6874
▁carter	-9.68864
▁speaks	-9.68883
moi	-9.69004
▁perfectly	-9.69168
▁unit	-9.69354
▁hardly	-9.6944
▁tim	-9.69455
▁goodness	-9.69503
▁iet	-9.69507
▁kicking	-9.69767
▁freak	-9.70011
▁changes	-9.70169
ny	-9.70234
▁bike	-9.70271
▁bear	-9.70367
▁falling	-9.7065
▁patients	-9.70732
▁pizza	-9.7086
▁chair	-9.70906
▁angel	-9.70909
▁winner	-9.7094
herr	-9.70966
▁intern	-9.71045
▁ape	-9.71062
ga	-9.71089
▁li	-9.71121
▁gives	-9.71538
▁design	-9.71668
▁who	-9.71869
▁checking	-9.71897
homme	-9.72061
▁peoples	-9.72082
ette	-9.72083
▁player	-9.72138
▁suggest	-9.72163
▁search	-9.72226
▁switch	-9.7227
▁somebodys	-9.72383
▁assume	-9.72415
▁escape	-9.72433
ue	-9.72446
▁vote	-9.7248
▁cr	-9.72496
▁dirt	-9.72512
▁fait	-9.72578
▁skank	-9.72593
▁chose	-9.72597
▁threat	-9.7264
▁gentle	-9.72645
▁automated	-9.72661
▁church	-9.72661
▁david	-9.72661
▁freedom	-9.72661
▁otherwise	-9.72661
▁valentine	-9.72661
▁whether	-9.72661
▁bodies	-9.72661
▁augie	-9.72661
▁fought	-9.72661
▁moaning	-9.72661
▁cotys	-9.72661
▁amount	-9.72662
uffled	-9.72662
▁slept	-9.72662
▁elevator	-9.72662
▁glory	-9.72662
▁henry	-9.72663
▁current	-9.72663
▁kenton	-9.72663
▁british	-9.72663
▁toilet	-9.72663
▁knox	-9.72664
▁witness	-9.72664
▁clue	-9.72665
▁saint	-9.72666
▁bread	-9.72668
▁marius	-9.72671
▁jealous	-9.72675
▁energy	-9.72677
▁sauce	-9.72678
▁aunt	-9.72689
▁national	-9.72698
▁generation	-9.727
▁deux	-9.72703
▁aware	-9.72704
▁league	-9.72754
▁powerful	-9.72756
▁amy	-9.72761
▁suddenly	-9.72788
▁former	-9.72811
▁garden	-9.72813
▁buzzing	-9.72818
▁shape	-9.72833
▁whooping	-9.72839
▁jacket	-9.72889
▁naked	-9.72916
▁echoing	-9.73078
▁mayor	-9.73088
▁keeps	-9.73126
▁screwed	-9.73134
▁filled	-9.73238
▁cage	-9.73271
▁higher	-9.73291
▁expected	-9.73293
▁lately	-9.73307
▁pieces	-9.73386
▁bigge	-9.73496
▁smoke	-9.73708
ac	-9.73774
▁mu	-9.73951
▁ordered	-9.73999
▁shouts	-9.74034
▁followed	-9.74169
▁giris	-9.74328
▁units	-9.74438
ism	-9.74479
▁remain	-9.74482
▁students	-9.74549
▁sending	-9.74733
▁throwing	-9.74734
▁players	-9.74742
fully	-9.74834
▁object	-9.75126
▁attempt	-9.75136
▁champion	-9.75204
ah	-9.75268
▁client	-9.75278
▁shark	-9.75282
▁giri	-9.75292
▁showing	-9.75351
▁drone	-9.75361
▁ideas	-9.75753
▁pe	-9.76142
▁rush	-9.7625
▁rob	-9.76281
▁cop	-9.76347
ns	-9.76402
ri	-9.76443
▁echo	-9.76507
▁secrets	-9.76509
▁discuss	-9.76645
▁lui	-9.76662
▁release	-9.76792
▁suppose	-9.76802
▁arr	-9.7684
▁cast	-9.76991
▁brilliant	-9.77009
▁california	-9.77009
▁capitol	-9.77009
▁evidence	-9.77009
▁guitar	-9.77009
▁insane	-9.77009
▁international	-9.77009
▁noisy	-9.77009
▁potential	-9.77009
▁sheriff	-9.77009
▁solid	-9.77009
▁gym	-9.77009
▁hadnt	-9.77009
▁ramses	-9.77009
▁romantic	-9.77009
▁insurance	-9.77009
▁piano	-9.7701
▁studio	-9.77011
▁basically	-9.77015
▁decent	-9.77015
▁beam	-9.77016
▁drift	-9.77018
▁zero	-9.77018
▁memories	-9.7702
▁miller	-9.77023
▁aah	-9.77032
▁theory	-9.77039
▁dna	-9.7704
▁pure	-9.77043
▁dina	-9.77054
▁desk	-9.77068
▁committed	-9.77078
▁payment	-9.77122
▁package	-9.77153
▁joy	-9.77158
▁wide	-9.77166
▁lack	-9.77238
▁bout	-9.77404
▁clicks	-9.77591
dden	-9.77691
▁dressed	-9.77722
▁tet	-9.77784
▁ln	-9.77837
ped	-9.77908
▁backup	-9.78128
io	-9.78244
▁passing	-9.78511
▁painter	-9.78601
▁systems	-9.78826
▁angels	-9.78829
▁fail	-9.78996
▁block	-9.79076
▁issue	-9.79586
▁shield	-9.79735
▁mirror	-9.79738
▁shoulder	-9.79795
▁belong	-9.79822
▁finger	-9.79862
▁score	-9.80254
▁challenge	-9.80323
▁burgers	-9.80387
da	-9.8039
▁watched	-9.80439
▁beg	-9.80519
▁meaning	-9.8062
clear	-9.80927
▁success	-9.80996
▁flash	-9.81046
▁approach	-9.8112
▁pretend	-9.81137
▁sand	-9.81207
▁junk	-9.81243
▁career	-9.81351
▁weak	-9.81422
▁sharp	-9.81456
▁bust	-9.81502
▁handsome	-9.81532
▁according	-9.81555
▁adventure	-9.81555
▁families	-9.81555
▁fridge	-9.81555
▁heartbeat	-9.81555
▁peopie	-9.81555
▁physical	-9.81555
▁precious	-9.81555
▁reserve	-9.81555
▁thomas	-9.81555
▁indeed	-9.81555
▁merde	-9.81555
▁threw	-9.81555
▁stood	-9.81555
▁iove	-9.81555
▁thornton	-9.81555
▁fancy	-9.81562
▁earlier	-9.81562
▁sunday	-9.81562
▁owner	-9.81569
▁knife	-9.81569
▁jerk	-9.81583
▁cathy	-9.81591
▁meal	-9.81596
▁unfortunately	-9.81596
▁estel	-9.81598
▁tiny	-9.81612
▁create	-9.81617
▁usually	-9.81645
▁jr	-9.81671
▁wheeler	-9.81699
line	-9.81705
▁engaged	-9.81706
▁clicking	-9.81708
▁dirty	-9.81718
▁humans	-9.81719
▁arrived	-9.81724
▁hearing	-9.81727
▁changing	-9.81744
▁vais	-9.81748
▁honestly	-9.81816
▁cents	-9.82001
▁boobs	-9.82081
▁mas	-9.82111
▁realized	-9.82125
▁phil	-9.82151
▁yöure	-9.82159
▁millions	-9.82194
▁arrested	-9.8223
▁hef	-9.82329
▁flowers	-9.82359
ul	-9.82383
▁fixed	-9.82629
▁off	-9.82692
▁ate	-9.82837
▁knocking	-9.82866
▁ropes	-9.82891
▁matters	-9.82957
▁barb	-9.83002
▁prim	-9.83095
▁pulling	-9.83462
▁apes	-9.83518
▁beating	-9.83542
▁kissing	-9.83586
▁jo	-9.83691
▁mothers	-9.83701
ton	-9.84143
ick	-9.84184
▁cheer	-9.84212
one	-9.84339
▁cannon	-9.84439
▁senior	-9.84485
▁article	-9.84485
▁fence	-9.84525
▁carnie	-9.84547
▁deck	-9.84591
▁plate	-9.84617
▁grade	-9.84692
▁dollar	-9.84724
▁jewel	-9.84728
▁fella	-9.84958
▁cares	-9.85036
▁be	-9.85118
▁nah	-9.85179
head	-9.85346
▁accept	-9.85442
▁daughters	-9.85607
▁hill	-9.85816
▁tick	-9.85839
▁brief	-9.85894
▁feei	-9.8593
▁mix	-9.86028
▁notice	-9.86098
▁trade	-9.86119
▁under	-9.8621
▁mid	-9.8625
▁prince	-9.86282
▁gal	-9.86284
▁dylan	-9.86316
▁hastings	-9.86316
▁haymitch	-9.86316
▁ignore	-9.86316
▁sarah	-9.86316
▁theater	-9.86316
▁valkyrie	-9.86316
▁champagne	-9.86316
▁everdeen	-9.86316
▁stairs	-9.86316
▁loomis	-9.86317
▁susan	-9.86317
▁peanut	-9.86317
▁todd	-9.86317
▁biodome	-9.86317
▁insist	-9.86317
▁katherine	-9.86317
▁literally	-9.86317
▁trash	-9.86318
▁pardon	-9.86318
▁recognize	-9.86318
▁bounce	-9.86319
▁regular	-9.86321
▁dramatic	-9.86324
▁cétait	-9.86324
▁allez	-9.86327
▁judgment	-9.86332
▁heck	-9.86333
▁duty	-9.86343
▁vika	-9.8635
▁soup	-9.86355
▁deborah	-9.86356
▁natural	-9.86361
▁motor	-9.86366
▁freshman	-9.86368
▁golden	-9.86386
▁mister	-9.86389
▁edge	-9.86409
▁hired	-9.86479
▁eaten	-9.86484
▁bond	-9.86498
▁route	-9.86521
▁victory	-9.86535
▁bath	-9.86588
▁maria	-9.86604
ster	-9.86707
▁ana	-9.86743
▁raised	-9.86789
▁sale	-9.86901
▁younger	-9.86946
▁fate	-9.87013
co	-9.87039
▁commander	-9.87309
▁closet	-9.87469
▁painted	-9.875
▁rate	-9.87558
▁leaves	-9.87686
▁lil	-9.87804
ier	-9.88015
▁touched	-9.88157
▁pin	-9.88195
▁brains	-9.88354
▁blame	-9.88421
▁schedule	-9.88637
▁po	-9.88675
▁tears	-9.88754
▁tess	-9.89314
▁gasp	-9.89346
▁nigger	-9.89437
▁giant	-9.89447
▁funeral	-9.89482
▁pearl	-9.8951
▁tone	-9.89524
▁circle	-9.89541
▁affair	-9.89543
▁whistle	-9.89554
▁comment	-9.89565
▁cookie	-9.89598
▁prime	-9.89605
▁sport	-9.89606
▁egg	-9.89612
▁sometime	-9.8963
▁movement	-9.89695
tion	-9.89745
▁ended	-9.8989
men	-9.89923
▁pee	-9.90188
▁consider	-9.90514
▁es	-9.90517
▁laws	-9.90519
▁dump	-9.90522
▁paying	-9.90577
▁panic	-9.90622
▁load	-9.90645
▁sweat	-9.90695
▁desert	-9.90964
▁process	-9.90978
▁bills	-9.91072
▁settle	-9.9109
▁spin	-9.91184
▁sandwich	-9.91234
▁iive	-9.91243
▁sneak	-9.91282
ized	-9.91294
▁large	-9.9131
▁confused	-9.91316
▁garbage	-9.91316
▁language	-9.91316
▁lincoln	-9.91316
▁michael	-9.91316
▁outfit	-9.91316
▁positive	-9.91316
▁shouid	-9.91316
▁surrender	-9.91316
▁universe	-9.91316
▁university	-9.91316
▁whenever	-9.91316
▁whimpering	-9.91316
▁thorin	-9.91317
▁anger	-9.91317
▁permission	-9.91317
▁rosa	-9.91317
▁lyons	-9.91318
▁blew	-9.91318
▁hades	-9.91319
▁connais	-9.91321
▁performance	-9.91321
▁monday	-9.91323
▁airport	-9.91325
▁cafe	-9.91328
▁minister	-9.91329
▁connie	-9.91331
▁mail	-9.91334
▁bored	-9.91335
▁thumb	-9.91335
▁heather	-9.91337
▁gentleman	-9.91342
▁santa	-9.91342
▁creaking	-9.91351
▁monkey	-9.91354
▁forest	-9.9136
▁laid	-9.91363
▁cab	-9.91366
▁whyd	-9.9138
▁fifty	-9.914
▁yearold	-9.91435
▁homework	-9.91439
▁lab	-9.91533
▁falls	-9.9154
▁simon	-9.91569
off	-9.9157
▁tan	-9.91588
▁prepared	-9.91651
▁kisses	-9.91682
▁allowed	-9.91701
▁spell	-9.91707
▁hostages	-9.91719
▁tas	-9.91722
▁el	-9.91724
▁riding	-9.91744
▁stronger	-9.91745
▁sooner	-9.92105
▁tryin	-9.9231
▁studying	-9.92337
▁growing	-9.92373
▁thousands	-9.92373
▁messed	-9.92448
▁concentrate	-9.92472
op	-9.92519
▁matt	-9.92668
▁tickets	-9.92794
▁rid	-9.93145
cy	-9.93179
▁wave	-9.93622
▁lover	-9.93633
▁cai	-9.93678
▁guests	-9.93784
ated	-9.93785
▁finding	-9.93956
▁yell	-9.94095
▁scream	-9.94115
▁someones	-9.94207
over	-9.94329
▁shout	-9.94449
▁bull	-9.9456
▁ear	-9.94601
ée	-9.94648
▁tattoo	-9.94698
▁channel	-9.94699
▁wa	-9.94772
▁pocket	-9.94789
▁page	-9.94793
▁mate	-9.94943
▁nobodys	-9.94974
▁fr	-9.95084
▁steps	-9.95163
▁weight	-9.95187
and	-9.9521
▁hurts	-9.95261
▁hunt	-9.95536
▁ahh	-9.95698
▁gather	-9.95758
▁iii	-9.95814
▁believed	-9.95845
work	-9.95877
▁mountains	-9.9596
▁langs	-9.96184
▁wins	-9.96239
▁javi	-9.96324
nic	-9.96344
▁connect	-9.96373
▁rub	-9.964
▁mimi	-9.96446
nd	-9.96449
▁knowing	-9.96463
▁exact	-9.96473
▁mmhm	-9.96555
▁comfort	-9.96558
▁bush	-9.96559
▁trap	-9.96574
▁birth	-9.96577
▁aaron	-9.9658
▁anniversary	-9.9658
▁downstairs	-9.9658
▁enemies	-9.9658
▁eventually	-9.9658
▁fromm	-9.9658
▁jumanji	-9.9658
▁obannon	-9.9658
▁science	-9.9658
▁sensitive	-9.9658
▁understood	-9.9658
▁whistling	-9.9658
▁proceed	-9.9658
▁pym	-9.9658
▁mostly	-9.9658
▁someday	-9.9658
▁shopping	-9.9658
▁monique	-9.96582
▁belt	-9.96582
▁illegal	-9.96583
▁junior	-9.96584
▁calvin	-9.96584
▁joking	-9.96585
▁horrible	-9.96586
▁howard	-9.96586
▁quarterback	-9.96587
▁dropping	-9.96588
▁rien	-9.96589
▁pbs	-9.9659
▁crackling	-9.96592
▁fuel	-9.96592
▁wiii	-9.96592
▁rude	-9.96593
▁journey	-9.96597
▁horsemen	-9.96599
▁shows	-9.966
▁johanna	-9.966
▁salem	-9.96609
▁princess	-9.96612
▁iot	-9.96613
▁shift	-9.96627
the	-9.96629
▁usual	-9.96631
▁buried	-9.96638
▁capable	-9.96643
▁jude	-9.96647
▁social	-9.96659
▁claim	-9.96661
▁ranger	-9.96671
▁silly	-9.96672
▁setting	-9.96678
▁humanity	-9.96682
▁concerned	-9.96705
▁jeez	-9.96708
▁naughton	-9.96708
▁willing	-9.96716
▁chad	-9.96718
▁growls	-9.96724
sh	-9.96732
▁grandfather	-9.96736
▁corn	-9.96783
▁bra	-9.96796
▁troops	-9.96815
▁coughs	-9.96912
▁deeply	-9.9701
▁disappeared	-9.97035
▁cards	-9.97045
▁approaching	-9.97087
▁murdered	-9.97153
▁lips	-9.97325
▁kicked	-9.9777
▁ge	-9.97901
▁thin	-9.97951
▁collect	-9.98018
▁dinosaurs	-9.98045
▁towards	-9.98045
▁lean	-9.98081
▁hm	-9.98152
▁virgin	-9.98336
▁z	-9.98953
di	-9.98975
▁ss	-9.9905
▁stops	-9.99161
▁link	-9.99239
▁genetic	-9.99271
▁shooting	-9.99478
id	-9.99484
▁zetas	-9.99568
▁deb	-9.99765
ka	-9.99871
▁pie	-9.99911
▁pot	-10.002
▁wheel	-10.0025
▁cup	-10.0029
▁disease	-10.003
▁snake	-10.003
▁interview	-10.0031
he	-10.0033
▁cherevin	-10.0038
ize	-10.0042
▁shadow	-10.0043
ti	-10.0048
▁ap	-10.0065
▁prayer	-10.0069
▁rat	-10.0074
▁guards	-10.0081
go	-10.0084
▁loser	-10.0085
▁request	-10.0136
▁crush	-10.0155
▁zoo	-10.0155
▁finds	-10.0163
▁tro	-10.0168
▁defeat	-10.0182
▁talent	-10.0184
▁papers	-10.0188
▁blows	-10.0189
▁torture	-10.019
▁wipe	-10.0191
▁coast	-10.0202
▁spoke	-10.0207
▁emotional	-10.0207
▁prepare	-10.0208
▁aurora	-10.0214
▁chicago	-10.0214
▁defend	-10.0214
▁emmett	-10.0214
▁equipment	-10.0214
▁fashion	-10.0214
▁girard	-10.0214
▁revenge	-10.0214
▁scratch	-10.0214
▁bosley	-10.0214
▁homosexual	-10.0214
▁civilization	-10.0214
▁illusion	-10.0214
▁staff	-10.0214
▁sydney	-10.0214
▁remote	-10.0214
▁baseball	-10.0214
▁kiah	-10.0214
▁kong	-10.0214
▁simply	-10.0215
▁wherever	-10.0215
ey	-10.0215
▁easier	-10.0215
▁crown	-10.0215
▁thinkin	-10.0215
▁desire	-10.0216
▁began	-10.0216
▁several	-10.0216
▁nasty	-10.0217
▁soir	-10.0217
▁connection	-10.0218
▁mash	-10.0218
▁sack	-10.0218
▁peut	-10.0219
▁pair	-10.0222
▁von	-10.0225
▁madame	-10.0226
▁dust	-10.0227
▁rage	-10.0229
▁debt	-10.0232
▁sandy	-10.0234
▁nein	-10.0235
tes	-10.0237
▁firm	-10.024
▁hans	-10.024
▁delivery	-10.0242
▁ruined	-10.0243
▁quietly	-10.0246
▁cameras	-10.0248
▁slip	-10.0249
▁manage	-10.025
▁failed	-10.0252
ily	-10.0255
▁ra	-10.0258
▁image	-10.0268
▁fred	-10.0272
▁freaking	-10.0273
▁searching	-10.0274
▁loss	-10.0279
▁treated	-10.0281
▁bend	-10.0282
▁foul	-10.0304
▁bi	-10.0309
▁clearly	-10.0315
▁log	-10.0316
em	-10.0317
▁ver	-10.034
ha	-10.035
▁dies	-10.036
▁nights	-10.0364
▁friendly	-10.0386
▁mouths	-10.0388
▁bobbi	-10.039
▁pm	-10.0392
▁qu	-10.0399
▁lou	-10.0438
▁reai	-10.0471
ations	-10.0473
▁ils	-10.0474
rai	-10.0493
▁yards	-10.0509
▁ni	-10.0524
▁di	-10.055
▁market	-10.0588
▁poop	-10.0605
▁professor	-10.0613
▁novel	-10.0613
▁tells	-10.0622
▁nate	-10.0622
▁explosive	-10.0628
▁rope	-10.0631
▁season	-10.0632
▁ticket	-10.0632
▁pilot	-10.0634
▁guns	-10.0641
▁jew	-10.0641
▁mile	-10.0643
▁stranger	-10.0644
▁chuckle	-10.0645
▁singer	-10.067
▁photos	-10.0679
▁adams	-10.0682
▁wrap	-10.0684
▁fighter	-10.0686
ook	-10.0693
▁boot	-10.0699
▁horses	-10.0709
▁bags	-10.0713
ung	-10.0721
▁ruin	-10.0722
▁partners	-10.0723
back	-10.0737
▁codes	-10.0745
▁officers	-10.0761
▁affect	-10.0763
▁dial	-10.0765
▁ron	-10.0768
▁mole	-10.078
▁dive	-10.0789
▁steel	-10.0791
▁sparta	-10.0794
ons	-10.0796
▁brace	-10.0797
▁resist	-10.08
▁transfer	-10.0801
▁byrnes	-10.0802
▁dennit	-10.0802
▁error	-10.0802
▁femme	-10.0802
▁fernando	-10.0802
▁gipsy	-10.0802
▁javert	-10.0802
▁jazz	-10.0802
▁mystery	-10.0802
▁pablo	-10.0802
▁perimeter	-10.0802
▁shelter	-10.0802
▁sunshine	-10.0802
▁trigger	-10.0802
▁truman	-10.0802
▁buffalo	-10.0802
▁davis	-10.0802
▁delta	-10.0802
▁heip	-10.0802
▁salad	-10.0802
▁example	-10.0802
▁osborn	-10.0802
▁kraken	-10.0802
▁propose	-10.0802
▁becca	-10.0802
▁faulkner	-10.0802
▁midnight	-10.0802
▁among	-10.0802
▁daccord	-10.0802
▁twentyfive	-10.0802
▁slice	-10.0802
▁swallow	-10.0802
▁izzi	-10.0802
▁darrow	-10.0802
▁joanne	-10.0802
▁mansfield	-10.0802
▁racing	-10.0802
▁phase	-10.0802
▁property	-10.0802
▁martel	-10.0803
▁trace	-10.0803
▁whatre	-10.0803
▁thrace	-10.0803
▁childhood	-10.0803
▁shine	-10.0803
▁chef	-10.0803
▁hump	-10.0804
▁winning	-10.0804
▁arthur	-10.0804
▁available	-10.0804
▁behave	-10.0804
▁wolf	-10.0804
▁alley	-10.0804
▁internet	-10.0804
▁complaint	-10.0805
▁extremely	-10.0805
▁dois	-10.0805
▁necessary	-10.0805
▁whore	-10.0805
▁murmuring	-10.0806
▁booth	-10.0806
▁slide	-10.0807
▁proof	-10.0808
▁darkness	-10.0808
▁bury	-10.0808
▁creepy	-10.0809
▁ellen	-10.0809
▁dave	-10.0809
▁guilty	-10.081
▁chasing	-10.0816
▁rhodes	-10.0818
▁screeching	-10.0819
ff	-10.082
▁fo	-10.0822
▁hop	-10.0823
side	-10.0823
▁lair	-10.0828
▁reality	-10.083
▁parties	-10.0835
▁gear	-10.0845
▁scotty	-10.0849
▁mentioned	-10.0851
▁ceo	-10.0854
▁mido	-10.0854
▁hunting	-10.0857
▁belly	-10.0861
▁agreed	-10.087
▁billion	-10.087
▁jackie	-10.0872
▁parler	-10.0879
▁intercept	-10.0887
▁roars	-10.0892
▁pete	-10.0911
▁reached	-10.0911
▁jumped	-10.0912
▁sang	-10.0929
▁squeeze	-10.0952
▁fort	-10.0958
▁lessons	-10.0958
▁boots	-10.0977
▁com	-10.098
▁stayed	-10.0985
▁speakers	-10.0988
▁sports	-10.1009
▁cleaning	-10.1029
▁recording	-10.1032
▁legal	-10.1038
▁learning	-10.1044
▁buying	-10.1074
ck	-10.1082
q	-10.1095
▁scar	-10.111
ler	-10.112
▁hates	-10.1128
▁picking	-10.1148
▁su	-10.1177
▁bug	-10.1182
▁flow	-10.1185
▁fires	-10.1199
▁answers	-10.1203
▁surely	-10.1209
▁merci	-10.1219
▁caused	-10.1229
▁opinion	-10.1238
▁experiment	-10.1238
▁source	-10.1238
▁evan	-10.1247
▁trial	-10.1249
▁roommate	-10.1249
▁magician	-10.1254
▁treatment	-10.1254
▁dinosaur	-10.1255
▁toward	-10.1255
▁chick	-10.1259
▁sans	-10.1259
▁revolution	-10.1291
▁ohh	-10.1304
▁iris	-10.133
▁woods	-10.1332
▁speaker	-10.1335
light	-10.1346
▁drown	-10.1349
▁vas	-10.1362
▁harm	-10.1364
though	-10.1372
▁bio	-10.1376
bi	-10.138
▁suffer	-10.1382
▁bleed	-10.1384
▁smooth	-10.1387
▁screen	-10.1393
kin	-10.1397
ical	-10.1397
▁fi	-10.1401
▁corps	-10.1401
▁divorce	-10.1403
▁invite	-10.1405
▁german	-10.1413
▁desperate	-10.1415
▁russia	-10.1417
▁cure	-10.1417
▁tornado	-10.1419
yard	-10.1419
▁flat	-10.1425
▁poison	-10.1426
▁council	-10.1426
▁ashamed	-10.1427
▁avenue	-10.1427
▁beloved	-10.1427
▁beneath	-10.1427
▁blast	-10.1427
▁cambridge	-10.1427
▁creek	-10.1427
▁dignity	-10.1427
▁global	-10.1427
▁gottlieb	-10.1427
▁hmhmm	-10.1427
▁jungle	-10.1427
▁lieutenant	-10.1427
▁olbricht	-10.1427
▁response	-10.1427
▁responsible	-10.1427
▁rhesus	-10.1427
▁thursday	-10.1427
▁william	-10.1427
▁geneva	-10.1427
▁worn	-10.1427
▁wreck	-10.1427
▁martha	-10.1427
▁merry	-10.1427
▁drove	-10.1427
▁powder	-10.1427
▁museum	-10.1427
▁particular	-10.1427
▁edward	-10.1427
▁cliff	-10.1427
▁dallas	-10.1427
▁texas	-10.1427
▁foreign	-10.1427
▁random	-10.1427
▁hollywood	-10.1427
▁oath	-10.1427
▁steak	-10.1427
▁wagon	-10.1427
▁popular	-10.1427
▁bravestone	-10.1427
▁vault	-10.1427
▁title	-10.1427
▁boring	-10.1427
▁charity	-10.1427
▁string	-10.1428
▁rico	-10.1428
▁reward	-10.1429
▁capture	-10.1429
▁loan	-10.1429
▁environment	-10.1429
▁lightning	-10.1429
▁steady	-10.1429
▁hayes	-10.1429
▁taxi	-10.143
▁spain	-10.1431
▁visual	-10.1432
▁johnson	-10.1433
▁tous	-10.1433
▁loving	-10.1433
▁uhoh	-10.1433
▁dawn	-10.1434
▁pipe	-10.1435
▁midas	-10.1436
▁iz	-10.1437
▁tub	-10.1438
▁protection	-10.1438
▁passion	-10.1439
▁disgusting	-10.144
▁spoken	-10.144
▁stolen	-10.144
▁syd	-10.1441
▁becky	-10.1441
▁multipl	-10.1443
▁germany	-10.1443
▁sexual	-10.1445
▁commit	-10.1447
▁discovered	-10.1456
▁for	-10.1459
▁halt	-10.146
▁nancy	-10.1461
▁impressed	-10.1463
▁faut	-10.1466
▁brad	-10.1466
▁hamptons	-10.1466
▁personally	-10.1473
▁dish	-10.1476
▁managed	-10.1479
▁bitches	-10.1487
▁murderer	-10.1495
▁sw	-10.1495
▁drinks	-10.1496
▁pleased	-10.1498
▁avis	-10.15
▁watchers	-10.1513
▁jen	-10.1515
▁eu	-10.1526
▁ants	-10.1534
▁repair	-10.1542
▁rolling	-10.1546
▁traveling	-10.155
▁attacked	-10.1553
ver	-10.1554
▁enjoyed	-10.1556
▁skills	-10.1557
▁wings	-10.1557
▁bu	-10.1558
▁minds	-10.1558
▁returned	-10.1562
▁expecting	-10.1565
▁burning	-10.1565
▁stealing	-10.157
ca	-10.157
▁boner	-10.1584
▁blowing	-10.1587
▁pushing	-10.1599
▁staring	-10.1603
▁tricks	-10.1606
▁cap	-10.1607
▁event	-10.1614
▁pilots	-10.1614
▁dreamed	-10.1616
▁shadows	-10.1625
▁faces	-10.1627
▁tea	-10.1655
▁belongs	-10.1671
▁tr	-10.1678
▁mac	-10.1679
▁moments	-10.1681
▁til	-10.1689
▁on	-10.1711
▁fans	-10.1712
ang	-10.1722
▁hated	-10.1758
con	-10.1772
▁assure	-10.1779
▁up	-10.1796
▁bowl	-10.1806
▁hitlers	-10.1832
▁lo	-10.1838
▁kings	-10.1859
ble	-10.1866
lo	-10.1878
▁that	-10.1883
▁exist	-10.1886
▁damage	-10.1887
▁ways	-10.1895
▁movies	-10.1901
▁bat	-10.1902
▁project	-10.1909
▁eagle	-10.1912
▁creature	-10.1916
lin	-10.1922
ren	-10.1924
▁lesson	-10.1947
ap	-10.1953
▁blues	-10.197
ut	-10.1976
▁regarde	-10.1986
▁sin	-10.1988
▁depend	-10.1997
▁beck	-10.2004
▁taik	-10.2009
▁confirm	-10.2012
down	-10.2023
▁plant	-10.2028
▁songs	-10.2031
wood	-10.2036
weight	-10.2037
▁para	-10.2041
▁oni	-10.2045
born	-10.205
▁tables	-10.2056
▁contain	-10.2058
▁brush	-10.2059
▁perform	-10.206
▁solve	-10.207
▁curse	-10.207
▁wi	-10.207
▁stub	-10.2075
▁louis	-10.2079
▁madam	-10.2081
▁jur	-10.2085
▁refuse	-10.2087
▁range	-10.209
▁progress	-10.2092
▁advantage	-10.2093
▁amelia	-10.2093
▁attitude	-10.2093
▁bohme	-10.2093
▁confusing	-10.2093
▁dodge	-10.2093
▁frozen	-10.2093
▁harvard	-10.2093
▁hemingway	-10.2093
▁lucille	-10.2093
▁mexico	-10.2093
▁odonnell	-10.2093
▁paradise	-10.2093
▁period	-10.2093
▁peyton	-10.2093
▁philip	-10.2093
▁rathbone	-10.2093
▁rescue	-10.2093
▁suicide	-10.2093
▁thumping	-10.2093
▁valjean	-10.2093
▁uniform	-10.2093
▁ancient	-10.2093
▁duchess	-10.2093
▁whimpers	-10.2093
▁email	-10.2093
▁impact	-10.2093
▁starving	-10.2093
▁tanya	-10.2093
▁denham	-10.2094
▁denise	-10.2094
▁including	-10.2094
▁telephone	-10.2094
▁becoming	-10.2094
▁helmet	-10.2094
▁fifteen	-10.2094
▁downtown	-10.2094
▁chapter	-10.2094
▁closing	-10.2094
▁incoming	-10.2094
▁acid	-10.2094
▁keri	-10.2094
▁stiii	-10.2094
▁fever	-10.2094
▁construction	-10.2094
▁chaos	-10.2094
▁palace	-10.2094
▁marcus	-10.2094
▁stopping	-10.2094
▁waterloo	-10.2094
▁technology	-10.2095
▁award	-10.2095
▁motel	-10.2095
▁gunshot	-10.2095
▁cities	-10.2095
▁aboard	-10.2095
▁narrat	-10.2095
▁bedroom	-10.2096
▁reaction	-10.2096
▁license	-10.2096
▁mental	-10.2096
▁grandson	-10.2096
▁thirsty	-10.2096
▁footage	-10.2097
▁allen	-10.2097
▁solution	-10.2097
▁lilli	-10.2097
▁dire	-10.2097
▁oil	-10.2098
▁review	-10.2098
▁swimming	-10.2099
▁teii	-10.2099
▁personne	-10.21
▁knowledge	-10.2103
▁straighten	-10.2104
▁vow	-10.2104
▁chosen	-10.2104
▁winter	-10.2105
▁cheated	-10.2105
▁squirly	-10.2106
▁healthy	-10.2106
▁mistakes	-10.211
▁sally	-10.2111
▁received	-10.2113
▁host	-10.2116
▁reports	-10.2116
▁wise	-10.2117
▁hood	-10.212
▁badge	-10.2122
▁cassie	-10.213
▁laser	-10.2143
▁warned	-10.2148
▁blessed	-10.2163
▁tied	-10.2163
▁he	-10.2165
▁hire	-10.2173
▁climbing	-10.2176
ord	-10.2179
▁spartans	-10.2185
▁survived	-10.2186
▁neur	-10.2187
▁trained	-10.2199
▁pitch	-10.22
▁attend	-10.2204
▁knees	-10.2209
▁marrying	-10.2211
ial	-10.223
▁odds	-10.2233
▁protected	-10.224
▁sil	-10.2245
lie	-10.2248
▁ze	-10.2249
▁jam	-10.2252
▁represent	-10.2254
▁selling	-10.226
land	-10.2268
you	-10.2273
▁med	-10.2274
▁chicks	-10.2282
▁trees	-10.2283
▁traitor	-10.2316
▁counting	-10.2332
▁grades	-10.2345
▁warp	-10.2354
▁vo	-10.2375
eur	-10.2375
▁noon	-10.2389
▁hip	-10.2401
king	-10.2412
▁hung	-10.2427
▁pet	-10.243
tic	-10.2442
▁fe	-10.2443
▁to	-10.2454
ze	-10.2465
▁pan	-10.2473
▁checked	-10.2503
▁sucks	-10.253
▁tri	-10.2553
▁organ	-10.2565
▁greater	-10.2582
tin	-10.26
▁detail	-10.2604
▁hits	-10.2608
▁demand	-10.2614
▁chi	-10.2615
▁spit	-10.2615
▁barricade	-10.2626
▁candle	-10.2626
▁option	-10.263
▁condition	-10.2635
▁member	-10.2636
▁fellow	-10.2636
▁drug	-10.2638
itched	-10.2638
▁am	-10.2665
▁ke	-10.267
▁classic	-10.2693
▁equal	-10.27
▁mum	-10.2723
▁jet	-10.2729
board	-10.2744
skull	-10.2748
▁grill	-10.2757
car	-10.276
▁discover	-10.2761
▁puff	-10.2764
▁ar	-10.2766
▁dé	-10.2767
▁bail	-10.2773
▁appear	-10.2775
▁frame	-10.2784
▁charm	-10.2786
▁remove	-10.2786
▁immediate	-10.2797
▁stretch	-10.2801
▁pi	-10.2803
▁movin	-10.2804
▁transport	-10.2806
▁basic	-10.2807
▁courage	-10.2807
▁trauma	-10.2807
▁plug	-10.2808
▁bernström	-10.2808
▁besoin	-10.2808
▁dessert	-10.2808
▁distort	-10.2808
▁division	-10.2808
▁editor	-10.2808
▁emperor	-10.2808
▁evergreen	-10.2808
▁gauguin	-10.2808
▁giggling	-10.2808
▁gretel	-10.2808
▁hallelujah	-10.2808
▁intelligence	-10.2808
▁magazine	-10.2808
▁oiiver	-10.2808
▁patience	-10.2808
▁phoenix	-10.2808
▁practicing	-10.2808
▁profile	-10.2808
▁relative	-10.2808
▁shrieks	-10.2808
▁tambourine	-10.2808
▁television	-10.2808
▁territory	-10.2808
▁underwear	-10.2808
▁valens	-10.2808
▁value	-10.2808
▁violence	-10.2808
▁vodka	-10.2808
▁warehouse	-10.2808
▁wharf	-10.2808
▁bethany	-10.2808
▁contract	-10.2808
▁conference	-10.2808
▁competition	-10.2808
▁actuaiiy	-10.2808
▁freezing	-10.2808
▁expensive	-10.2808
▁smiling	-10.2808
▁teschen	-10.2808
▁silence	-10.2808
▁unique	-10.2808
▁content	-10.2808
▁claire	-10.2808
▁bunny	-10.2808
▁accent	-10.2808
▁firing	-10.2808
▁shane	-10.2808
▁lucy	-10.2808
▁doris	-10.2808
▁bride	-10.2808
▁punk	-10.2809
ock	-10.2809
▁prick	-10.2809
▁pender	-10.2809
▁fanny	-10.2809
▁louisette	-10.2809
▁surgery	-10.2809
▁apple	-10.2809
▁maddy	-10.2809
▁franklin	-10.2809
▁holiday	-10.281
▁species	-10.281
▁standard	-10.281
▁struck	-10.281
▁violent	-10.281
▁lottery	-10.281
▁section	-10.281
▁quality	-10.2811
▁spray	-10.2811
▁woke	-10.2811
▁axe	-10.2812
▁agreement	-10.2813
▁leap	-10.2813
▁disaster	-10.2814
▁ease	-10.2814
▁grateful	-10.2814
▁spring	-10.2815
▁jelly	-10.2815
▁scan	-10.282
▁spy	-10.2823
▁shy	-10.2825
▁haunted	-10.2825
wat	-10.2826
▁direction	-10.2826
▁falcon	-10.2828
▁daylight	-10.2828
vi	-10.2829
▁retired	-10.2829
▁convinced	-10.2831
▁blown	-10.2836
▁pounding	-10.2846
▁justin	-10.2859
og	-10.2862
▁designed	-10.2864
▁porter	-10.287
▁ticking	-10.2875
▁forced	-10.2876
▁smaller	-10.2877
▁timing	-10.2886
ious	-10.289
▁sucker	-10.2897
ite	-10.2898
▁she	-10.2901
▁surface	-10.2906
▁locker	-10.2911
sma	-10.2913
▁hairy	-10.2919
▁frickin	-10.2922
▁rocks	-10.2949
▁walls	-10.2949
▁chips	-10.295
▁carrying	-10.295
▁gum	-10.2978
▁drugs	-10.2984
▁depends	-10.2996
▁cleaned	-10.2999
▁nat	-10.3006
▁teaching	-10.3027
▁port	-10.3036
oo	-10.304
▁messing	-10.3045
▁sum	-10.3053
▁cole	-10.3078
▁mal	-10.3091
▁ou	-10.3093
▁clients	-10.3103
▁jaegers	-10.3143
▁facts	-10.3167
▁initiate	-10.3168
▁sp	-10.3169
▁x	-10.3185
▁maniacal	-10.3193
hi	-10.3197
▁points	-10.3204
▁touching	-10.321
▁describe	-10.3211
▁wires	-10.3217
▁menu	-10.3246
▁sirens	-10.3263
▁goat	-10.3278
ice	-10.3308
▁text	-10.3309
▁wh	-10.331
▁begins	-10.3312
▁ghosts	-10.3315
▁crimes	-10.3329
▁hon	-10.3334
▁ka	-10.3352
▁grunt	-10.3368
der	-10.3371
▁official	-10.3385
▁chirp	-10.3388
▁character	-10.3389
▁stink	-10.3393
▁stock	-10.3396
▁vehicle	-10.3401
▁labor	-10.3401
▁flame	-10.3406
▁folk	-10.3407
▁customer	-10.341
und	-10.3429
▁signs	-10.343
▁cl	-10.3434
▁imitat	-10.3445
▁era	-10.3454
▁ti	-10.3463
▁cul	-10.3489
▁lookin	-10.3491
▁interrupt	-10.3497
▁nation	-10.3503
ship	-10.351
gging	-10.3511
what	-10.3517
field	-10.3518
▁und	-10.3523
▁monitor	-10.3526
▁down	-10.3529
▁sink	-10.3536
▁respond	-10.3543
▁develop	-10.3543
▁seek	-10.3548
▁flag	-10.3554
▁convince	-10.3554
▁engage	-10.3555
▁sh	-10.3562
▁health	-10.3564
▁actual	-10.3568
▁emotion	-10.3569
▁proper	-10.357
▁bum	-10.3571
▁mort	-10.3572
▁elle	-10.3573
▁tuck	-10.3575
▁alex	-10.3575
▁civil	-10.3575
▁favour	-10.3577
▁alpha	-10.3577
▁avoid	-10.3577
▁behavior	-10.3577
▁busbee	-10.3577
▁fabulous	-10.3577
▁fantasy	-10.3577
▁grief	-10.3577
▁hashimoto	-10.3577
▁lobster	-10.3577
▁malcolm	-10.3577
▁material	-10.3577
▁midget	-10.3577
▁minnesota	-10.3577
▁nonsense	-10.3577
▁november	-10.3577
▁oclock	-10.3577
▁operator	-10.3577
▁orange	-10.3577
▁oscorp	-10.3577
▁politics	-10.3577
▁puzzle	-10.3577
▁responsibility	-10.3577
▁signature	-10.3577
▁smash	-10.3577
▁society	-10.3577
▁talladega	-10.3577
▁tissue	-10.3577
▁vienna	-10.3577
▁federal	-10.3577
▁flew	-10.3577
▁traffic	-10.3577
▁utter	-10.3577
▁expert	-10.3577
▁yacht	-10.3577
▁neighborhood	-10.3577
▁conflict	-10.3577
▁clown	-10.3577
▁portrait	-10.3577
▁abort	-10.3577
▁opposite	-10.3577
▁mcara	-10.3577
▁exchange	-10.3577
▁arius	-10.3577
▁root	-10.3577
▁nephew	-10.3577
▁tracy	-10.3577
▁kingdom	-10.3577
▁pourquoi	-10.3577
▁trunk	-10.3577
▁empire	-10.3577
▁detective	-10.3577
▁cookbook	-10.3577
▁muttering	-10.3577
▁influence	-10.3577
▁divine	-10.3577
▁garage	-10.3577
▁terrific	-10.3577
▁freddy	-10.3577
▁juniper	-10.3577
▁kenny	-10.3577
▁authority	-10.3577
▁championship	-10.3578
▁feast	-10.3578
▁flashlight	-10.3578
▁education	-10.3578
▁rising	-10.3578
▁shining	-10.3578
▁dwarves	-10.3578
▁trapped	-10.3578
ory	-10.3578
▁contest	-10.3578
▁shaking	-10.3578
▁sentence	-10.3578
▁passionate	-10.3578
▁yeh	-10.3578
▁moral	-10.3578
▁tuesday	-10.3578
▁beany	-10.3579
▁moonlight	-10.3579
▁vacation	-10.3579
▁humor	-10.3579
▁when	-10.3579
▁yup	-10.3579
▁mobile	-10.358
▁political	-10.358
▁mutant	-10.358
▁sequence	-10.358
▁grandmother	-10.358
▁practically	-10.358
▁spooky	-10.358
▁version	-10.3581
▁lamb	-10.3581
▁headache	-10.3581
▁alien	-10.3581
▁distraction	-10.3581
▁effie	-10.3582
▁allies	-10.3582
▁alter	-10.3582
▁auto	-10.3583
▁slight	-10.3583
▁programmed	-10.3583
▁statement	-10.3583
terior	-10.3583
▁carlos	-10.3584
▁friendship	-10.3584
▁objection	-10.3585
▁hooting	-10.3586
▁howling	-10.3586
▁herd	-10.3587
▁carver	-10.3587
▁france	-10.3588
▁plain	-10.3589
▁quil	-10.359
▁cutting	-10.3592
▁nora	-10.3593
▁fallen	-10.3594
▁cheating	-10.3597
▁embarrassing	-10.3604
▁century	-10.3606
▁barking	-10.3607
▁quell	-10.3609
▁passengers	-10.3612
▁mass	-10.3613
▁brings	-10.3616
ag	-10.3617
▁tune	-10.3618
▁beef	-10.3618
erto	-10.364
ions	-10.3652
▁pretending	-10.3653
low	-10.3657
▁fac	-10.3658
▁wasted	-10.3658
▁served	-10.3661
▁palm	-10.3662
▁piedges	-10.3668
▁core	-10.3674
▁you	-10.3682
▁bump	-10.3695
▁shared	-10.3699
▁lick	-10.3699
▁highly	-10.3702
▁waiter	-10.3706
▁muscles	-10.3711
▁whoops	-10.3721
▁filling	-10.3725
▁knocked	-10.3738
▁crossed	-10.374
omin	-10.3744
▁tale	-10.3753
▁vois	-10.3754
▁explained	-10.3765
▁spending	-10.3768
▁details	-10.3769
ley	-10.3771
▁boxes	-10.3775
▁net	-10.3786
▁thy	-10.3788
▁bern	-10.38
more	-10.3803
▁enjoying	-10.3807
▁strangers	-10.3815
▁guide	-10.3852
▁mot	-10.3863
▁plates	-10.3869
ways	-10.3881
▁forty	-10.3885
▁sharks	-10.3897
▁ac	-10.3919
▁spirits	-10.3926
▁answering	-10.3927
▁rounds	-10.3962
▁pit	-10.3964
▁poe	-10.3967
cra	-10.397
▁worlds	-10.3973
▁victors	-10.3998
▁bones	-10.4001
mp	-10.4005
▁cher	-10.4008
▁ami	-10.4019
ded	-10.4028
▁sc	-10.4055
▁voi	-10.4063
ise	-10.4064
▁forms	-10.4064
▁bl	-10.4076
▁assassin	-10.4076
▁tap	-10.4084
▁costs	-10.4142
▁forces	-10.4157
▁flip	-10.417
▁bastards	-10.4171
per	-10.4175
rac	-10.4177
▁hurting	-10.4177
▁volunteer	-10.4188
▁pound	-10.4193
▁cha	-10.4197
▁cloud	-10.4215
▁treasure	-10.4221
▁vu	-10.4221
▁border	-10.4221
▁breast	-10.4226
▁village	-10.4226
▁include	-10.4226
▁letters	-10.423
▁effect	-10.4231
▁lit	-10.4233
▁spider	-10.4233
▁rabbit	-10.4234
▁cos	-10.4235
▁slave	-10.4235
▁missile	-10.4236
ign	-10.4236
▁skill	-10.424
▁odd	-10.4241
▁doll	-10.4249
▁worrying	-10.4273
▁charges	-10.4289
▁lands	-10.4306
▁pink	-10.4326
▁shock	-10.4329
▁woo	-10.4335
▁jokes	-10.4344
ball	-10.4349
▁weep	-10.4361
▁burst	-10.4362
▁shrink	-10.4366
era	-10.4366
▁leak	-10.4369
▁heal	-10.437
hole	-10.4373
▁lame	-10.4375
▁flee	-10.4389
▁rep	-10.4392
▁coup	-10.4394
▁squirl	-10.4394
▁original	-10.44
▁stands	-10.4401
▁africa	-10.4403
ring	-10.4406
▁runnin	-10.4407
▁ash	-10.4407
▁drag	-10.4409
▁dwarf	-10.441
▁antonio	-10.441
▁confidence	-10.441
▁convict	-10.441
▁coyote	-10.441
▁cristina	-10.441
▁detroit	-10.441
▁driscoll	-10.441
▁désolé	-10.441
▁effort	-10.441
▁elizabeth	-10.441
▁employee	-10.441
▁enterprise	-10.441
▁florida	-10.441
▁greek	-10.441
▁hermann	-10.441
▁manuscript	-10.441
▁memoirs	-10.441
▁murphy	-10.441
▁nolan	-10.441
▁plague	-10.441
▁rattling	-10.441
▁satisfied	-10.441
▁semester	-10.441
▁shmuel	-10.441
▁steam	-10.441
▁struggle	-10.441
▁stryker	-10.441
▁subtitles	-10.441
▁temperature	-10.441
▁teresa	-10.441
▁thanksgiving	-10.441
▁tractor	-10.441
▁tressler	-10.441
▁twelve	-10.441
▁underneath	-10.441
▁valuable	-10.441
▁viktor	-10.441
▁woojin	-10.441
▁ceiling	-10.441
▁jerry	-10.441
▁morris	-10.441
▁oxygen	-10.441
▁residence	-10.441
▁kababik	-10.441
▁gomez	-10.441
▁mankind	-10.441
▁robinson	-10.441
▁prevent	-10.441
▁piease	-10.4411
▁spoon	-10.4411
▁romance	-10.4411
▁lawsuit	-10.4411
▁autograph	-10.4411
▁software	-10.4411
▁failure	-10.4411
while	-10.4411
▁clapping	-10.4411
▁urgent	-10.4411
▁begun	-10.4411
▁sobs	-10.4411
▁hush	-10.4411
▁happier	-10.4411
▁jamais	-10.4411
▁servant	-10.4411
▁prize	-10.4411
▁yellow	-10.4412
▁development	-10.4412
▁foolish	-10.4412
▁commitment	-10.4412
▁nico	-10.4413
▁whale	-10.4413
▁library	-10.4413
▁balance	-10.4413
▁episode	-10.4413
▁fox	-10.4413
▁series	-10.4413
▁preacher	-10.4414
▁lemon	-10.4414
▁toss	-10.4414
▁sunny	-10.4414
▁recently	-10.4414
▁skies	-10.4415
▁inaudible	-10.4415
▁discussion	-10.4415
▁yoga	-10.4416
▁motion	-10.4417
▁halfway	-10.4418
▁debra	-10.4418
▁thick	-10.4419
▁carried	-10.4419
▁geez	-10.4419
▁alan	-10.4419
▁fais	-10.4421
▁burglar	-10.4421
▁mere	-10.4421
▁officially	-10.4422
▁rear	-10.4423
▁inch	-10.4423
▁planned	-10.4423
▁coughing	-10.4424
▁wil	-10.4426
▁hitting	-10.4427
▁growth	-10.4427
▁voir	-10.4427
▁highness	-10.4428
▁fraud	-10.443
▁souls	-10.4433
▁thrilled	-10.4433
▁bay	-10.4434
▁chimes	-10.4434
▁delay	-10.4435
▁beth	-10.4435
▁badass	-10.4435
▁abandoned	-10.4436
▁fries	-10.4441
▁normally	-10.4444
▁mistaken	-10.4446
▁royal	-10.4447
▁coordinates	-10.4449
▁yelps	-10.4449
▁highp	-10.4452
▁fur	-10.4455
tu	-10.4457
▁liv	-10.4457
▁dumped	-10.4463
ime	-10.4465
▁yah	-10.4469
gon	-10.4477
▁thrown	-10.4477
▁q	-10.4481
▁ages	-10.4489
▁briefing	-10.449
▁rand	-10.449
▁drums	-10.4495
▁mags	-10.451
▁tail	-10.4511
▁helpful	-10.4515
▁salut	-10.4521
lly	-10.4529
las	-10.453
▁burned	-10.4541
▁costumes	-10.4542
▁punching	-10.4544
▁jobs	-10.4546
▁wing	-10.455
▁u	-10.4555
▁wast	-10.4563
▁spark	-10.457
▁zombies	-10.4573
▁sadie	-10.4579
▁visiting	-10.4583
cha	-10.4583
▁pounds	-10.4588
▁missiles	-10.4588
▁laying	-10.4592
▁mall	-10.4592
▁scale	-10.4598
quand	-10.4599
▁members	-10.4618
▁demands	-10.4618
▁fellows	-10.4619
▁covered	-10.4641
▁feelin	-10.4652
avoir	-10.4652
un	-10.4674
▁sticking	-10.468
▁rats	-10.468
led	-10.4683
ade	-10.471
▁hills	-10.4729
▁issues	-10.4744
▁ba	-10.4747
▁chip	-10.4753
▁counter	-10.4755
▁luis	-10.4758
▁dec	-10.4764
▁joining	-10.4768
▁winners	-10.4775
ink	-10.4778
▁dreaming	-10.478
den	-10.4797
cho	-10.4818
▁chin	-10.4833
▁rap	-10.4891
pr	-10.4893
cc	-10.4909
▁mortal	-10.4932
▁gates	-10.4935
▁lu	-10.494
ol	-10.494
▁ju	-10.4942
▁can	-10.4965
▁spott	-10.4976
▁beats	-10.4983
▁hearts	-10.499
▁lawyers	-10.5011
▁fart	-10.5045
▁opened	-10.5055
▁flu	-10.5063
▁regard	-10.5067
▁boxe	-10.5068
ties	-10.508
▁tastes	-10.5093
▁pat	-10.5107
rie	-10.5113
▁beep	-10.5122
▁blank	-10.5128
▁sphere	-10.513
▁helicopter	-10.513
▁vandergeld	-10.5134
▁adult	-10.5137
ima	-10.5138
▁marine	-10.5143
▁zombie	-10.5145
▁bang	-10.5148
▁windows	-10.5154
▁shoe	-10.5155
▁corpse	-10.516
▁ranch	-10.5164
▁dealing	-10.5168
▁complex	-10.5209
▁ag	-10.5222
▁fift	-10.5222
▁breaks	-10.5234
▁earn	-10.5258
▁cats	-10.5259
grid	-10.5263
phone	-10.5263
mon	-10.5268
▁boney	-10.5276
let	-10.5278
▁twist	-10.5281
▁ambush	-10.5284
▁escort	-10.5285
▁insult	-10.5286
▁truc	-10.5291
▁separate	-10.5299
▁stress	-10.53
▁receive	-10.5304
▁occasion	-10.531
▁breach	-10.5312
▁unh	-10.5315
▁europe	-10.5317
▁broad	-10.5319
▁brittany	-10.5319
▁circus	-10.5319
▁coiiins	-10.5319
▁cornwall	-10.5319
▁delicious	-10.5319
▁donkey	-10.5319
▁donovan	-10.5319
▁embassy	-10.5319
▁fantine	-10.5319
▁financial	-10.5319
▁gavroche	-10.5319
▁gorgeous	-10.5319
▁inhales	-10.5319
▁invisible	-10.5319
▁offense	-10.5319
▁protocol	-10.5319
▁purple	-10.5319
▁quelquun	-10.5319
▁recognition	-10.5319
▁relief	-10.5319
▁sniffing	-10.5319
▁stammers	-10.5319
▁supply	-10.5319
▁unusual	-10.5319
▁upbeat	-10.5319
▁valerie	-10.5319
▁cancer	-10.5319
▁pussy	-10.5319
▁tiger	-10.5319
▁typing	-10.5319
▁committee	-10.5319
▁nataiie	-10.5319
▁storage	-10.5319
▁apollonia	-10.5319
▁vital	-10.5319
▁lazy	-10.5319
▁flies	-10.5319
▁iast	-10.5319
▁fortune	-10.5319
▁graduation	-10.5319
▁snoring	-10.5319
▁hammer	-10.5319
▁suspicious	-10.5319
▁choke	-10.5319
▁token	-10.5319
▁deaf	-10.532
▁web	-10.532
▁corporation	-10.532
▁fireworks	-10.532
▁facility	-10.532
▁moscow	-10.532
▁argos	-10.532
▁simca	-10.532
▁throne	-10.532
▁anytime	-10.532
▁clinic	-10.532
▁dentist	-10.532
▁imagination	-10.532
▁blink	-10.532
▁pumpkin	-10.532
▁francisco	-10.532
▁sanford	-10.532
▁tyler	-10.532
▁oggie	-10.532
▁pathetic	-10.532
▁plastic	-10.532
▁golf	-10.532
▁adorable	-10.532
▁supper	-10.532
▁custody	-10.532
▁replacement	-10.532
▁japan	-10.532
▁limo	-10.532
▁shotgun	-10.532
▁sammy	-10.5321
▁cabinet	-10.5321
▁preston	-10.5321
▁seattle	-10.5321
▁nascar	-10.5321
▁darren	-10.5321
▁ellic	-10.5321
▁define	-10.5321
▁selfish	-10.5321
▁loyal	-10.5322
▁device	-10.5322
▁exercise	-10.5322
▁abby	-10.5322
quez	-10.5323
▁dating	-10.5323
▁sector	-10.5323
▁perry	-10.5323
▁electricity	-10.5323
▁forgotten	-10.5323
▁jim	-10.5324
▁bible	-10.5324
▁sacred	-10.5324
▁tango	-10.5324
▁indian	-10.5324
▁inez	-10.5324
▁ferry	-10.5324
▁brutal	-10.5325
▁alice	-10.5325
▁product	-10.5325
▁buzzes	-10.5325
through	-10.5326
▁mansion	-10.5326
▁apply	-10.5326
▁haul	-10.5326
▁campus	-10.5327
▁betty	-10.5327
▁surrounded	-10.5327
▁threatened	-10.5327
▁lsnt	-10.5327
▁distan	-10.5327
▁highline	-10.5327
▁vache	-10.5328
▁express	-10.5329
▁cabin	-10.5329
▁highway	-10.5329
▁rocket	-10.5329
▁located	-10.5329
▁stark	-10.533
▁rue	-10.5331
▁pork	-10.5331
▁lecture	-10.5332
▁benny	-10.5332
▁bass	-10.5333
▁judith	-10.5333
▁routine	-10.5333
▁benson	-10.5335
▁teenager	-10.5335
▁mmmm	-10.5337
▁goodnight	-10.5338
▁ladder	-10.5339
▁thee	-10.5345
▁directly	-10.5346
▁bitter	-10.5349
au	-10.5353
▁useful	-10.5357
▁glasses	-10.5359
▁rice	-10.5359
▁shushing	-10.536
▁task	-10.5364
▁banging	-10.5364
▁actor	-10.5365
▁issued	-10.5367
▁planted	-10.5373
▁serv	-10.5373
▁hells	-10.5374
▁math	-10.5375
▁considered	-10.5378
▁classes	-10.5379
▁twins	-10.5379
▁mixed	-10.538
▁lesions	-10.5382
▁ab	-10.5383
▁pier	-10.5385
▁union	-10.5386
▁mes	-10.5405
nows	-10.5409
▁fairy	-10.5409
▁bal	-10.5412
▁benefits	-10.5413
▁wishes	-10.5413
▁terms	-10.5415
▁slowly	-10.5421
▁dings	-10.5423
▁messy	-10.5425
▁scientists	-10.543
▁gig	-10.5434
▁successful	-10.5439
▁thoughts	-10.5443
▁phi	-10.5444
▁degrees	-10.5464
▁not	-10.5485
▁prisoners	-10.5493
▁mat	-10.5506
▁sue	-10.5511
▁slaves	-10.5515
▁spiders	-10.5515
aged	-10.5517
▁eli	-10.5532
▁customers	-10.5534
▁bare	-10.5539
▁spa	-10.5542
▁banks	-10.5543
ait	-10.5548
▁yay	-10.555
▁stare	-10.5588
▁seasons	-10.5601
▁robe	-10.5608
lock	-10.5612
▁tend	-10.5616
▁vers	-10.5621
▁vin	-10.5623
▁prayers	-10.5632
tra	-10.5643
▁waves	-10.5644
dy	-10.5651
▁hundreds	-10.5654
▁rhythmic	-10.5656
▁salt	-10.5666
mer	-10.5667
ja	-10.5676
▁dancer	-10.5679
▁remains	-10.5706
▁sire	-10.5707
ure	-10.5712
▁ty	-10.58
▁led	-10.5802
toi	-10.5811
▁chat	-10.582
▁conversations	-10.5828
▁deposit	-10.5832
uck	-10.5846
ug	-10.5857
▁colors	-10.5857
she	-10.5876
▁boo	-10.589
of	-10.5907
▁unti	-10.591
▁places	-10.5925
act	-10.5929
oid	-10.5933
▁frau	-10.5961
ide	-10.5988
▁mc	-10.5993
▁gl	-10.6007
▁sl	-10.6017
▁chop	-10.603
▁ian	-10.6035
▁parle	-10.6038
▁trusting	-10.6057
ys	-10.6066
bo	-10.6068
▁ca	-10.6074
▁skip	-10.6097
▁groan	-10.6107
▁whoop	-10.6125
▁skeleton	-10.6134
▁blanket	-10.6139
▁knee	-10.6141
▁muscle	-10.6145
▁dip	-10.6148
▁flower	-10.6165
▁advise	-10.6165
▁spoil	-10.6167
▁herb	-10.6172
▁fric	-10.6175
▁cour	-10.6175
rten	-10.6177
▁prisoner	-10.619
▁fa	-10.6194
ni	-10.6203
ese	-10.6207
otic	-10.6223
▁inter	-10.6231
ches	-10.6241
pot	-10.6246
room	-10.6246
like	-10.6253
▁hack	-10.6258
▁fund	-10.6259
oc	-10.6261
school	-10.6264
▁shush	-10.6276
▁sail	-10.6283
▁pea	-10.6288
▁abandon	-10.6288
▁likely	-10.6296
▁peu	-10.6296
▁zoe	-10.6305
▁custom	-10.6306
▁faint	-10.6308
ney	-10.6309
▁extract	-10.6313
▁produce	-10.6313
▁weakness	-10.6315
▁retire	-10.6316
▁trail	-10.6316
ay	-10.6317
▁just	-10.6317
▁soph	-10.6318
▁tak	-10.6318
▁buff	-10.6318
▁greet	-10.6319
▁remark	-10.6319
▁anderson	-10.6319
▁appétit	-10.6319
▁beacon	-10.6319
▁bilbo	-10.6319
▁bleep	-10.6319
▁bolivar	-10.6319
▁carlisle	-10.6319
▁cassandra	-10.6319
▁circuit	-10.6319
▁colour	-10.6319
▁destiny	-10.6319
▁disguise	-10.6319
▁dwight	-10.6319
▁eternity	-10.6319
▁etienne	-10.6319
▁famiiy	-10.6319
▁flood	-10.6319
▁fountain	-10.6319
▁function	-10.6319
▁gandalf	-10.6319
▁happiness	-10.6319
▁hebrew	-10.6319
▁however	-10.6319
▁johanson	-10.6319
▁joohwan	-10.6319
▁kidnapping	-10.6319
▁landlord	-10.6319
▁landolfa	-10.6319
▁liberty	-10.6319
▁liwen	-10.6319
▁manhattan	-10.6319
▁mcginty	-10.6319
▁naughty	-10.6319
▁obsessed	-10.6319
▁phillip	-10.6319
▁pistol	-10.6319
▁privacy	-10.6319
▁procedure	-10.6319
▁refrigerator	-10.6319
▁santoro	-10.6319
▁saumensch	-10.6319
▁schooi	-10.6319
▁stammering	-10.6319
▁strict	-10.6319
▁submarine	-10.6319
▁ultimate	-10.6319
▁uncomfortable	-10.6319
▁venezuela	-10.6319
▁voyage	-10.6319
▁yourseif	-10.6319
▁arena	-10.6319
▁beiieve	-10.6319
▁protein	-10.6319
▁withdraw	-10.6319
▁wrist	-10.6319
▁analyst	-10.6319
▁buddies	-10.6319
▁flunk	-10.6319
▁gutterboy	-10.6319
▁hummingbird	-10.6319
▁clasky	-10.6319
▁radical	-10.6319
▁uppercut	-10.6319
▁collins	-10.6319
▁prostitute	-10.6319
▁instructions	-10.6319
▁skirt	-10.6319
▁iife	-10.6319
▁jones	-10.6319
▁clattering	-10.632
▁gollum	-10.632
▁whiskey	-10.632
▁antony	-10.632
▁entrance	-10.632
▁polite	-10.632
▁pension	-10.632
▁uber	-10.632
▁aye	-10.632
▁instance	-10.632
▁existence	-10.632
▁investment	-10.632
▁juice	-10.632
▁crois	-10.632
▁pursuit	-10.632
▁pump	-10.632
▁boogie	-10.632
▁bonnie	-10.632
▁magnificent	-10.632
▁bradley	-10.632
▁stiff	-10.632
▁priest	-10.632
▁cease	-10.632
▁network	-10.632
▁bouge	-10.632
▁expense	-10.632
▁destruction	-10.632
▁miami	-10.632
▁commercial	-10.632
▁addition	-10.632
▁bubble	-10.632
▁mmmmmm	-10.6321
▁cattle	-10.6321
▁offline	-10.6321
▁slipped	-10.6321
▁jewish	-10.6321
▁agency	-10.6321
▁static	-10.6321
▁creative	-10.6321
▁counselor	-10.6321
▁gossie	-10.6321
▁massive	-10.6321
▁housemother	-10.6321
▁engagement	-10.6321
▁pubie	-10.6321
▁infected	-10.6321
j	-10.6322
▁gang	-10.6322
▁songwriter	-10.6322
▁haif	-10.6322
▁furniture	-10.6323
▁prophecy	-10.6323
▁volume	-10.6323
▁chemical	-10.6323
▁grandma	-10.6323
▁mec	-10.6324
▁investigation	-10.6324
▁jamie	-10.6324
▁megan	-10.6324
▁touchdown	-10.6324
▁beli	-10.6325
▁reign	-10.6325
▁forgiveness	-10.6325
▁communicate	-10.6325
▁cochrane	-10.6327
▁chase	-10.6327
▁lever	-10.6328
▁trailer	-10.633
▁factory	-10.633
▁compromised	-10.633
▁madness	-10.633
▁tiles	-10.6331
▁hallway	-10.6331
▁praise	-10.6331
▁sniper	-10.6332
▁vite	-10.6332
▁jp	-10.6333
▁standby	-10.6333
▁hunger	-10.6335
▁fried	-10.6335
▁robbed	-10.6336
▁smoking	-10.6337
▁betrayed	-10.6341
▁wounded	-10.6344
▁provided	-10.6346
▁hail	-10.6346
▁craft	-10.6347
▁sentinels	-10.6348
▁sy	-10.635
▁removed	-10.6352
▁digital	-10.6352
▁deny	-10.6352
▁pity	-10.6353
▁damaged	-10.6355
▁vast	-10.6356
▁loudly	-10.636
▁useless	-10.636
▁trucks	-10.6369
▁oid	-10.6369
▁drowned	-10.6371
▁mayan	-10.6371
▁meters	-10.6371
▁bid	-10.6371
▁javier	-10.6372
▁escaped	-10.6376
shot	-10.6377
▁connected	-10.638
▁charming	-10.6383
mate	-10.6384
▁shortly	-10.6388
▁brand	-10.6391
▁horny	-10.6396
▁pris	-10.6402
▁waited	-10.6402
▁sponsors	-10.6403
▁hardest	-10.6404
▁pancakes	-10.6404
▁spared	-10.6405
▁honesty	-10.6406
▁hooked	-10.6407
▁homeless	-10.6408
▁checks	-10.6408
▁greatness	-10.642
▁tributes	-10.6423
▁survivors	-10.6423
▁suite	-10.6424
▁focused	-10.643
▁suggesting	-10.643
▁endure	-10.6431
lar	-10.6433
▁fee	-10.6434
▁cracking	-10.6437
ning	-10.6439
▁services	-10.644
▁warner	-10.6442
▁cheeks	-10.6442
▁entered	-10.6447
rri	-10.6449
▁worthy	-10.645
▁carefully	-10.6452
▁remembered	-10.6472
pp	-10.6481
▁passes	-10.6488
▁sings	-10.6498
ept	-10.6519
▁trainer	-10.6529
▁americans	-10.6533
▁tracking	-10.6534
▁bridget	-10.6534
day	-10.6534
eat	-10.6537
▁pays	-10.6539
▁farts	-10.6539
▁lai	-10.6543
▁cet	-10.6543
▁cor	-10.6549
▁vehicles	-10.6556
ner	-10.6579
▁encourage	-10.658
chi	-10.6583
▁fore	-10.6583
▁reaching	-10.6597
▁shown	-10.66
▁skipp	-10.6601
ill	-10.6606
my	-10.6614
▁toe	-10.6624
▁sk	-10.6637
▁cord	-10.6644
▁protecting	-10.6646
▁reader	-10.6649
▁cherevins	-10.6651
▁sor	-10.6651
▁wheels	-10.6651
▁singers	-10.6653
ends	-10.6661
▁cas	-10.6669
▁don	-10.6673
ott	-10.6673
▁booker	-10.6679
▁sch	-10.668
▁understanding	-10.668
▁sounded	-10.6687
oli	-10.6699
▁queens	-10.6709
▁catching	-10.6712
▁scores	-10.6727
▁hum	-10.6728
just	-10.6738
aw	-10.6753
ipped	-10.6755
▁wears	-10.6766
ify	-10.6771
▁fed	-10.6783
▁bullets	-10.6785
▁interests	-10.6788
mo	-10.6795
▁laisse	-10.6806
▁operate	-10.6813
▁madea	-10.6821
▁leaders	-10.6823
ok	-10.6825
▁mist	-10.683
▁signing	-10.6837
▁ven	-10.6846
▁ri	-10.6847
▁boxer	-10.6854
▁epi	-10.6855
▁rum	-10.6921
ible	-10.693
ach	-10.6931
om	-10.6933
ax	-10.6938
▁decisions	-10.6939
ves	-10.6955
▁files	-10.6959
fic	-10.696
▁op	-10.6965
ative	-10.6977
mi	-10.6979
▁pile	-10.6983
▁waters	-10.6996
▁artists	-10.6996
een	-10.7013
ors	-10.7017
▁schools	-10.7022
ero	-10.7043
▁me	-10.7047
iong	-10.705
▁gu	-10.7052
▁conduct	-10.7097
aux	-10.7109
ica	-10.7113
▁oops	-10.7115
ew	-10.7115
min	-10.712
ham	-10.7155
oon	-10.7159
▁sau	-10.7162
▁snap	-10.7162
ition	-10.7169
▁buck	-10.7171
▁hu	-10.7177
▁exp	-10.718
▁presents	-10.7183
▁maid	-10.7199
▁roar	-10.7218
▁protest	-10.7226
▁fights	-10.7231
ries	-10.7231
▁girlfriends	-10.7232
▁burns	-10.7238
▁chang	-10.724
▁warrant	-10.7242
▁stud	-10.7242
▁element	-10.7245
▁dozen	-10.7245
▁towel	-10.7246
▁hostile	-10.7248
▁preparation	-10.725
aging	-10.7252
▁tunnel	-10.7252
▁thud	-10.7252
looking	-10.7255
▁degree	-10.7255
▁barrel	-10.7255
▁costume	-10.7256
▁lip	-10.7257
▁beside	-10.7261
▁visitor	-10.7267
▁bound	-10.7271
▁fu	-10.7289
▁rot	-10.7305
▁reasons	-10.7313
▁toy	-10.7323
▁tin	-10.7338
umb	-10.734
▁photograph	-10.7342
place	-10.7345
▁jess	-10.7354
house	-10.7355
town	-10.7357
hand	-10.7357
all	-10.7362
ual	-10.7366
▁messages	-10.737
ence	-10.737
box	-10.7375
contact	-10.7375
▁buzz	-10.7379
▁riot	-10.738
bell	-10.7382
▁caus	-10.7384
▁resident	-10.7387
▁chew	-10.7387
fish	-10.7387
▁drill	-10.7388
▁holes	-10.7389
our	-10.7389
▁dun	-10.7398
▁thrill	-10.74
▁cancel	-10.74
▁ships	-10.7401
▁achieve	-10.7406
▁guarantee	-10.7407
vor	-10.7407
▁awake	-10.7408
od	-10.7412
▁guilt	-10.7415
▁incredibl	-10.7416
▁sixty	-10.7418
▁unfortunate	-10.7419
▁absolute	-10.742
▁director	-10.7422
▁mechanic	-10.7423
cation	-10.7424
▁gabriel	-10.7426
▁confess	-10.7428
▁makin	-10.7429
▁specific	-10.7429
▁meteor	-10.743
▁disagree	-10.743
▁conceal	-10.743
▁worship	-10.743
▁accompany	-10.743
▁album	-10.743
▁annabelle	-10.743
▁anonymous	-10.743
▁appointment	-10.743
▁argument	-10.743
▁arkenstone	-10.743
▁attorney	-10.743
▁babbling	-10.743
▁baxter	-10.743
▁bourguignon	-10.743
▁brooklyn	-10.743
▁caution	-10.743
▁ceremony	-10.743
▁choking	-10.743
▁destination	-10.743
▁fiddle	-10.743
▁foxtrot	-10.743
▁gaylord	-10.743
▁guatemala	-10.743
▁injured	-10.743
▁insecure	-10.743
▁lamarque	-10.743
▁lsabel	-10.743
▁mwah	-10.743
▁mysterious	-10.743
▁nickname	-10.743
▁ordinary	-10.743
▁ozzie	-10.743
▁philadelphia	-10.743
▁phrase	-10.743
▁picasso	-10.743
▁pulse	-10.743
▁receipt	-10.743
▁reputation	-10.743
▁rogue	-10.743
▁rycart	-10.743
▁shannon	-10.743
▁switchblade	-10.743
▁tiffany	-10.743
▁turkey	-10.743
▁vietnam	-10.743
▁walcott	-10.743
▁yknow	-10.743
▁aussi	-10.743
▁cycle	-10.743
▁dutch	-10.743
▁latrell	-10.743
▁ringtone	-10.743
▁fitzgerald	-10.743
▁chiming	-10.743
▁scouts	-10.743
▁false	-10.7431
▁nipple	-10.7431
▁myth	-10.7431
▁transferred	-10.7431
▁youtube	-10.7431
▁corwin	-10.7431
ucius	-10.7431
▁stadium	-10.7431
▁cameron	-10.7431
▁mashido	-10.7431
▁scholarship	-10.7431
▁atlas	-10.7431
▁mickey	-10.7431
▁oyster	-10.7431
▁adjust	-10.7431
▁apology	-10.7431
▁hydro	-10.7431
▁shrike	-10.7431
▁angle	-10.7431
▁vermont	-10.7431
▁detonator	-10.7431
▁lethal	-10.7431
▁chum	-10.7431
▁individual	-10.7431
▁pouce	-10.7431
▁athena	-10.7431
▁economic	-10.7431
▁dizzy	-10.7431
▁stacy	-10.7431
▁jurgen	-10.7431
▁powell	-10.7431
▁fierce	-10.7431
▁google	-10.7431
▁micro	-10.7431
oeuf	-10.7431
▁rubber	-10.7431
▁saber	-10.7431
▁backwards	-10.7431
▁bacon	-10.7431
▁mako	-10.7431
▁fluid	-10.7431
▁batteries	-10.7431
▁minos	-10.7431
▁shortcut	-10.7431
▁liiiy	-10.7431
▁dummy	-10.7431
▁community	-10.7431
▁questce	-10.7431
▁cruel	-10.7431
▁pride	-10.7432
▁hartman	-10.7432
▁soak	-10.7432
▁sawyer	-10.7432
▁daily	-10.7432
▁retirement	-10.7432
▁centre	-10.7432
▁wore	-10.7432
▁copyright	-10.7432
▁beings	-10.7432
▁raising	-10.7432
▁alors	-10.7432
▁partnership	-10.7432
▁heil	-10.7433
▁extension	-10.7433
▁audition	-10.7433
▁soda	-10.7433
▁whipped	-10.7433
▁crunch	-10.7433
▁allonsy	-10.7433
▁possibility	-10.7433
▁robbery	-10.7433
▁reverse	-10.7433
▁victoria	-10.7433
▁grass	-10.7433
▁tide	-10.7434
▁minor	-10.7434
▁rode	-10.7434
▁activity	-10.7434
▁malibu	-10.7434
▁anniversaire	-10.7434
▁contamination	-10.7434
▁battery	-10.7434
▁jeremy	-10.7435
▁wade	-10.7435
▁livin	-10.7435
▁entry	-10.7435
▁chamber	-10.7436
▁holly	-10.7436
▁haha	-10.7437
▁presidential	-10.7437
▁mechanical	-10.7437
assic	-10.7438
▁filthy	-10.7439
▁guardian	-10.744
▁gim	-10.744
▁fargo	-10.744
▁cries	-10.744
▁avant	-10.7441
▁venom	-10.7441
▁cave	-10.7442
cap	-10.7442
▁circumstances	-10.7442
▁homo	-10.7443
▁uhuh	-10.7443
▁gray	-10.7443
▁ether	-10.7443
▁role	-10.7444
▁dishes	-10.7444
▁winch	-10.7444
▁jab	-10.7445
ude	-10.7447
▁soil	-10.7448
▁ashes	-10.7449
▁disappointed	-10.7451
▁shr	-10.7451
▁bench	-10.7453
▁disturbing	-10.7454
▁begging	-10.7455
▁rollin	-10.7456
▁naturally	-10.7457
▁gale	-10.7457
▁thermos	-10.7458
▁delighted	-10.7458
▁nailed	-10.7459
▁punches	-10.746
▁francs	-10.7463
▁mimic	-10.7463
▁fold	-10.7464
▁sighing	-10.7465
fi	-10.7465
▁aller	-10.7467
▁rack	-10.7467
▁sou	-10.7468
▁heroes	-10.7472
▁active	-10.7477
▁statue	-10.7478
foot	-10.7482
▁diablos	-10.7484
▁fleet	-10.7484
▁confirmed	-10.7485
▁settled	-10.7485
▁tease	-10.7487
▁cured	-10.7491
▁shrinking	-10.7491
▁interrupting	-10.7497
▁sling	-10.7497
▁fuse	-10.7498
▁lifetime	-10.7502
▁ol	-10.7504
▁associates	-10.7505
▁tourists	-10.7505
▁terrorists	-10.7505
▁taiking	-10.7509
▁lex	-10.751
▁quest	-10.7513
▁suffering	-10.7513
▁entirely	-10.7513
▁busted	-10.7514
▁sore	-10.7515
▁switched	-10.7519
▁results	-10.7526
▁inc	-10.7531
▁drawer	-10.7539
▁tricky	-10.7545
▁dune	-10.7546
▁citizens	-10.7546
▁guts	-10.7548
▁paula	-10.7553
▁sucked	-10.7565
▁recipes	-10.7568
▁youi	-10.7573
▁bothering	-10.7576
eight	-10.7585
▁communications	-10.759
▁cougars	-10.759
itating	-10.7594
▁joint	-10.7594
▁testing	-10.7605
▁toys	-10.761
▁washed	-10.7611
▁visitors	-10.7612
▁filming	-10.7617
▁combat	-10.7621
▁bee	-10.7623
▁pd	-10.7624
▁packed	-10.7626
▁investigate	-10.7635
▁carin	-10.7638
▁ace	-10.7646
▁er	-10.7648
stro	-10.7652
▁reported	-10.7657
▁rabbits	-10.7675
▁cons	-10.7692
▁feeding	-10.7699
▁wondered	-10.7703
▁attends	-10.7721
▁erase	-10.7722
▁voices	-10.7727
ose	-10.7747
▁siri	-10.7755
▁magicians	-10.7762
▁site	-10.7765
▁attacking	-10.777
▁vol	-10.7779
▁returning	-10.7787
▁images	-10.7805
havin	-10.7811
▁gr	-10.7813
▁events	-10.7829
▁becomes	-10.7829
▁chan	-10.783
▁whistles	-10.7847
▁blend	-10.7849
erman	-10.7854
▁cookies	-10.7855
▁handles	-10.7859
▁lively	-10.7863
for	-10.7867
▁ted	-10.7868
rous	-10.7885
ib	-10.7891
▁painful	-10.79
han	-10.7905
▁choices	-10.791
ak	-10.7936
▁wished	-10.794
▁districts	-10.7955
▁exception	-10.7959
▁seed	-10.7962
ral	-10.8002
▁nurses	-10.8004
▁chickens	-10.8011
iiy	-10.8024
tric	-10.8035
ium	-10.8045
▁severe	-10.8055
pers	-10.8059
▁shave	-10.8059
▁nicely	-10.8063
▁or	-10.8069
▁fro	-10.807
▁trusted	-10.8085
▁deserves	-10.8087
▁dar	-10.8087
row	-10.8096
▁ger	-10.8099
▁keeper	-10.8103
tom	-10.8109
▁ward	-10.811
▁jacks	-10.8115
art	-10.8116
▁writes	-10.8116
▁monsters	-10.8129
▁peaceful	-10.8137
bil	-10.814
tle	-10.814
▁wishing	-10.8162
▁buttons	-10.8174
ico	-10.8175
▁prend	-10.8179
▁figures	-10.818
nia	-10.8192
▁dudes	-10.8195
▁wha	-10.8211
▁tellin	-10.8217
oster	-10.823
sive	-10.8234
▁medi	-10.8243
▁cla	-10.8255
▁din	-10.8256
ep	-10.828
▁gia	-10.8282
té	-10.8293
▁risks	-10.8303
▁accounts	-10.8305
▁rolls	-10.8311
spite	-10.8323
jo	-10.8336
▁anti	-10.8336
▁tor	-10.8339
▁monte	-10.8354
▁react	-10.8365
▁drivers	-10.8366
▁geo	-10.8382
▁damned	-10.8386
▁suits	-10.8395
▁sal	-10.8396
▁tracks	-10.84
▁grows	-10.8439
▁click	-10.8453
▁sim	-10.8455
▁limit	-10.8464
▁engineer	-10.8469
▁concern	-10.847
▁wound	-10.8471
▁inspire	-10.8477
▁clone	-10.8495
▁method	-10.8495
▁sample	-10.8496
▁arrive	-10.8497
▁diamond	-10.85
▁compliment	-10.85
▁mask	-10.8501
▁cougar	-10.8503
▁communication	-10.8508
▁spartan	-10.8522
▁dates	-10.8525
▁fits	-10.8525
▁ending	-10.8532
▁armor	-10.8533
ong	-10.8534
cher	-10.8534
▁ant	-10.8544
▁cable	-10.8546
ini	-10.8547
▁sales	-10.8553
ean	-10.8554
ake	-10.8561
▁bark	-10.8568
ncy	-10.857
rt	-10.8573
▁viv	-10.8582
▁publish	-10.8583
▁embarrass	-10.8603
▁mode	-10.8606
▁gifts	-10.8608
▁prepar	-10.8611
boy	-10.8612
but	-10.8614
right	-10.8622
ward	-10.8622
two	-10.8625
mouth	-10.8626
▁dash	-10.8632
▁olive	-10.8632
bar	-10.8633
cost	-10.8635
▁machines	-10.8638
▁distract	-10.8639
ras	-10.8642
▁trad	-10.8646
▁haunt	-10.865
▁breed	-10.8655
▁divide	-10.8656
▁reno	-10.8662
▁jinx	-10.8664
▁gamble	-10.8664
▁graduate	-10.8665
▁creep	-10.8666
▁delight	-10.8667
▁float	-10.8668
▁technical	-10.8669
▁walt	-10.867
▁weigh	-10.8671
▁zip	-10.8672
▁explore	-10.8674
▁commence	-10.8674
▁burt	-10.8677
▁august	-10.8677
▁jane	-10.8678
▁audit	-10.8678
▁confront	-10.8679
▁punish	-10.8679
▁basket	-10.868
▁parce	-10.868
▁disrespect	-10.868
▁maintain	-10.868
▁supplie	-10.868
▁vacuum	-10.868
▁adriana	-10.868
▁afterwards	-10.868
▁andante	-10.868
▁atlantic	-10.868
▁beaucoup	-10.868
▁boulot	-10.868
▁bulb	-10.868
▁canvas	-10.868
▁chorus	-10.868
▁colombia	-10.868
▁concept	-10.868
▁dakota	-10.868
▁dilio	-10.868
▁doomed	-10.868
▁draft	-10.868
▁dummkopf	-10.868
▁excitement	-10.868
▁fortunate	-10.868
▁hennessy	-10.868
▁himmler	-10.868
▁hypnotized	-10.868
▁ignoring	-10.868
▁illyria	-10.868
▁infant	-10.868
▁injuries	-10.868
▁injury	-10.868
▁institution	-10.868
▁intact	-10.868
▁intelligent	-10.868
▁juicy	-10.868
▁junebug	-10.868
▁koba	-10.868
▁lndistinct	-10.868
▁lyrics	-10.868
▁majesty	-10.868
▁matthew	-10.868
▁melody	-10.868
▁merritt	-10.868
▁messenger	-10.868
▁michigan	-10.868
▁millennium	-10.868
▁mourir	-10.868
▁myseif	-10.868
▁oldfashioned	-10.868
▁plot	-10.868
▁primitive	-10.868
▁proposal	-10.868
▁raylene	-10.868
▁raynell	-10.868
▁religious	-10.868
▁riddick	-10.868
▁savior	-10.868
▁snickers	-10.868
▁stenz	-10.868
▁survival	-10.868
▁terrifying	-10.868
▁tokyo	-10.868
▁undercover	-10.868
▁vengeance	-10.868
▁weicome	-10.868
▁ankle	-10.868
▁audio	-10.868
▁discre	-10.868
▁meilleur	-10.868
▁miserable	-10.868
▁observation	-10.868
▁worf	-10.868
▁crumble	-10.868
▁fbl	-10.868
▁headquarters	-10.868
▁presence	-10.868
▁whooshing	-10.868
▁astronomy	-10.868
▁vickie	-10.868
▁stuart	-10.8681
▁incident	-10.8681
▁misery	-10.8681
▁breeze	-10.8681
▁grabbed	-10.8681
▁lagoon	-10.8681
▁ohohoh	-10.8681
▁someplace	-10.8681
▁carnival	-10.8681
▁hollow	-10.8681
▁cruise	-10.8681
▁executive	-10.8681
▁maintenant	-10.8681
▁rotten	-10.8681
▁coughlin	-10.8681
▁organization	-10.8681
▁penthouse	-10.8681
▁chores	-10.8681
▁athens	-10.8681
▁disconnect	-10.8681
▁underworld	-10.8681
▁assignment	-10.8681
▁bribe	-10.8681
▁curious	-10.8681
▁playoffs	-10.8681
▁moron	-10.8681
▁sooah	-10.8681
▁saddle	-10.8681
▁granny	-10.8681
▁hahaha	-10.8681
▁reset	-10.8681
▁steer	-10.8681
▁brick	-10.8681
▁hankins	-10.8681
▁gps	-10.8681
▁principal	-10.8681
▁gravity	-10.8681
▁grey	-10.8681
▁vicious	-10.8681
▁berries	-10.8681
▁attractive	-10.8681
▁favourite	-10.8681
▁pillow	-10.8681
▁april	-10.8681
▁knight	-10.8681
▁karl	-10.8681
▁albert	-10.8681
▁groceries	-10.8681
▁explosion	-10.8681
▁pennsylvania	-10.8681
▁allergic	-10.8681
▁pooter	-10.8681
▁vanilla	-10.8681
▁dope	-10.8682
▁huddle	-10.8682
▁vraiment	-10.8682
▁oven	-10.8682
▁dragging	-10.8682
▁loyalty	-10.8682
▁haircut	-10.8682
▁passport	-10.8682
▁activation	-10.8682
▁parlor	-10.8682
▁kili	-10.8682
▁maxwell	-10.8683
▁jenna	-10.8683
▁antman	-10.8683
▁spill	-10.8683
▁voul	-10.8683
▁subway	-10.8683
▁dougie	-10.8683
▁noah	-10.8683
▁silent	-10.8683
▁yorktown	-10.8683
▁stake	-10.8684
▁parade	-10.8684
▁snarling	-10.8684
▁mccarter	-10.8684
▁veut	-10.8684
▁sensation	-10.8684
▁impress	-10.8684
▁youth	-10.8685
▁anthe	-10.8685
▁aside	-10.8685
▁grain	-10.8685
▁reese	-10.8685
▁temper	-10.8686
▁chow	-10.8686
▁heiio	-10.8686
▁charter	-10.8686
▁fetch	-10.8686
▁creation	-10.8686
▁arrival	-10.8686
▁zoom	-10.8687
▁raven	-10.8687
▁possession	-10.8687
▁policy	-10.8688
▁gaze	-10.8688
▁wicke	-10.8688
▁mumbling	-10.8689
▁quitting	-10.8689
▁janet	-10.8689
▁exceeding	-10.869
▁coverage	-10.869
▁weaknesses	-10.869
▁constantly	-10.869
▁nickel	-10.8691
▁estate	-10.8691
▁avai	-10.8692
▁groove	-10.8692
▁dock	-10.8692
▁pleasant	-10.8693
▁habit	-10.8693
▁approved	-10.8693
▁electro	-10.8693
▁wel	-10.8694
pal	-10.8694
▁bucket	-10.8694
▁wallet	-10.8695
▁fog	-10.8695
▁bracer	-10.8695
▁fois	-10.8695
▁squeaking	-10.8696
▁christian	-10.8696
▁lease	-10.8697
▁suggestion	-10.8697
▁tucker	-10.8698
▁waitress	-10.8698
▁tender	-10.8699
▁provide	-10.8699
▁kiddo	-10.8699
▁intended	-10.87
▁invented	-10.87
▁rv	-10.87
▁carley	-10.8701
▁melted	-10.8701
▁spice	-10.8702
▁ont	-10.8703
▁deadline	-10.8703
▁attached	-10.8704
▁frightened	-10.8704
▁recruiter	-10.8704
▁fury	-10.8706
▁seventh	-10.8706
▁corey	-10.8707
▁hiring	-10.8708
▁adopted	-10.8708
▁lens	-10.8709
▁dug	-10.871
▁drawn	-10.8711
▁raptor	-10.8711
▁embarrassed	-10.8712
▁reasonable	-10.8712
▁mooing	-10.8715
ttering	-10.8717
▁fleas	-10.8717
pu	-10.8719
▁nearest	-10.872
▁hotter	-10.8721
▁agents	-10.8721
▁sons	-10.8721
▁gent	-10.8723
▁formation	-10.8724
▁yea	-10.8725
▁twisted	-10.8725
▁earned	-10.8725
rence	-10.8726
▁limb	-10.8727
▁shocked	-10.8729
▁activate	-10.873
▁oliver	-10.873
▁tada	-10.8731
▁manual	-10.8735
▁endless	-10.8735
▁wiped	-10.8736
▁sweetest	-10.8739
▁persians	-10.8741
▁lj	-10.8743
▁bald	-10.8746
dern	-10.8746
▁this	-10.8747
▁released	-10.875
▁obs	-10.8755
▁hike	-10.876
▁div	-10.8762
▁lawn	-10.8765
▁curtains	-10.8765
▁giggles	-10.8765
▁pretzels	-10.8765
▁loaded	-10.8767
▁buns	-10.8774
▁fears	-10.8777
▁sacrificed	-10.8777
▁hint	-10.8781
▁conn	-10.8782
▁loading	-10.8799
▁closest	-10.8801
▁borrowed	-10.8806
▁exc	-10.8809
▁slams	-10.8814
▁orcs	-10.8814
▁remaining	-10.8819
▁shots	-10.882
▁pills	-10.8826
▁evacuate	-10.8828
▁sealed	-10.883
▁marks	-10.8833
▁gross	-10.8834
▁onions	-10.8841
▁importantly	-10.8844
▁boarding	-10.8844
▁broadcast	-10.8845
▁beard	-10.885
ability	-10.8862
▁wounds	-10.8863
▁boats	-10.8863
▁arts	-10.8864
▁inn	-10.887
▁nail	-10.8876
▁was	-10.8884
▁thuds	-10.8886
▁tunnels	-10.8887
itter	-10.8887
▁kur	-10.8892
esh	-10.8892
▁digg	-10.8895
▁landed	-10.8899
▁illness	-10.8909
if	-10.8918
▁wang	-10.8922
corporate	-10.8923
▁mel	-10.8936
▁tre	-10.8938
▁handled	-10.8939
▁coo	-10.894
▁seats	-10.8943
▁cuba	-10.8945
uit	-10.8945
tas	-10.8956
▁sticks	-10.896
▁clouds	-10.896
▁effects	-10.8964
▁dressing	-10.8983
▁flames	-10.8984
ou	-10.9
▁needle	-10.9006
▁options	-10.9009
▁promises	-10.9021
▁sont	-10.9023
▁creatures	-10.9033
▁cells	-10.9039
ack	-10.9044
▁plants	-10.9048
▁reporting	-10.9051
▁treatments	-10.9058
▁finn	-10.9058
▁bugs	-10.906
▁dam	-10.9062
▁crossing	-10.9064
▁evans	-10.9072
bs	-10.9074
ptic	-10.9077
amp	-10.9081
▁honored	-10.9082
illa	-10.9082
▁answered	-10.9101
▁pouring	-10.9106
▁bin	-10.9116
▁sparr	-10.9117
▁pages	-10.9132
▁cd	-10.9135
yl	-10.9143
▁affairs	-10.9156
▁translate	-10.9162
▁crawling	-10.9175
ett	-10.9181
▁badly	-10.9182
▁lid	-10.9198
table	-10.9199
▁shoulders	-10.9207
▁ani	-10.9208
▁blocks	-10.9208
▁flush	-10.921
gro	-10.922
▁pos	-10.9222
ov	-10.9232
▁talks	-10.9233
▁prov	-10.9244
▁ken	-10.9258
▁freaks	-10.9258
▁bears	-10.9258
▁gi	-10.9263
▁kat	-10.9263
▁finishing	-10.9277
▁coma	-10.9278
rk	-10.9284
▁qua	-10.9286
▁notes	-10.9294
▁sights	-10.9301
▁lra	-10.9303
ipping	-10.9332
▁tanks	-10.9355
how	-10.9381
ress	-10.9385
unk	-10.9391
ho	-10.9395
▁walkers	-10.941
tri	-10.942
▁lis	-10.9435
▁terror	-10.944
▁mag	-10.9442
▁stations	-10.946
▁lakes	-10.9465
uk	-10.9486
metry	-10.9514
nda	-10.954
ada	-10.9541
▁trop	-10.9548
▁dal	-10.9564
ven	-10.957
▁sen	-10.9589
▁killers	-10.959
ana	-10.9591
▁sakes	-10.9607
hold	-10.962
▁sayin	-10.9621
tel	-10.9628
gy	-10.963
ber	-10.9633
linking	-10.9635
aire	-10.9649
▁pose	-10.9663
▁engines	-10.9683
och	-10.9691
▁ph	-10.9706
▁eb	-10.9714
inger	-10.972
▁atoms	-10.9722
▁caller	-10.9729
ked	-10.9729
▁hairs	-10.9731
term	-10.9748
▁pent	-10.9748
▁sn	-10.9748
end	-10.9752
ei	-10.9758
rice	-10.9767
wn	-10.978
ex	-10.9802
▁jud	-10.9804
▁stew	-10.9804
ility	-10.9807
pri	-10.9809
▁whisper	-10.982
▁lac	-10.9841
tty	-10.9845
▁womens	-10.9858
▁recover	-10.9864
▁cock	-10.987
▁sigh	-10.9877
▁gar	-10.9879
▁squeal	-10.9882
▁blinds	-10.9885
▁tours	-10.9885
▁shatter	-10.9888
▁honk	-10.9888
▁hopes	-10.9907
ari	-10.9909
ris	-10.9911
▁titan	-10.9917
▁psych	-10.9917
▁politician	-10.9919
▁victim	-10.9919
▁session	-10.9919
▁spear	-10.9919
▁blade	-10.9919
▁technique	-10.9919
▁sheet	-10.9922
▁arrow	-10.9924
▁ans	-10.9925
▁boob	-10.9925
▁sailor	-10.9927
▁clam	-10.9929
▁satellite	-10.9929
▁warrior	-10.9929
▁recipe	-10.9932
▁cheek	-10.9933
▁groups	-10.9933
▁dom	-10.9933
▁scientist	-10.9936
▁avi	-10.994
▁jap	-10.9945
▁onion	-10.9945
bas	-10.9945
▁genes	-10.9957
▁model	-10.9959
▁craz	-10.9966
▁appel	-10.9966
▁tradition	-10.9971
▁piedge	-10.9975
▁demi	-10.9977
▁farmer	-10.9984
▁gros	-10.9994
▁owes	-10.9994
▁ad	-10.9997
▁parti	-11.0002
ern	-11.0007
▁nut	-11.0008
ius	-11.0008
▁ét	-11.0012
ache	-11.0018
year	-11.0033
▁andr	-11.0033
▁equ	-11.0038
▁trans	-11.0043
berry	-11.0046
▁caii	-11.0049
run	-11.0052
rious	-11.0053
well	-11.0054
▁demon	-11.0057
four	-11.0059
hood	-11.0062
▁leads	-11.0064
▁screech	-11.0065
▁computers	-11.0065
joe	-11.0071
▁print	-11.0071
▁possess	-11.0072
▁display	-11.0075
▁adopt	-11.0077
▁betray	-11.008
▁collapse	-11.0083
▁teenage	-11.0085
ko	-11.0085
▁nurs	-11.0089
▁flirt	-11.009
berg	-11.0091
▁replace	-11.0093
ware	-11.0096
▁moore	-11.0097
▁drama	-11.0098
▁monkeys	-11.0098
▁constant	-11.0098
▁chant	-11.01
meter	-11.01
▁decorat	-11.01
▁doug	-11.0105
▁honeymoon	-11.0105
▁lifes	-11.0106
▁tooth	-11.0106
▁heii	-11.0107
▁casual	-11.0108
▁terra	-11.0109
▁francis	-11.0109
▁spectacu	-11.0109
▁aleksandr	-11.0109
▁autolycus	-11.0109
▁benjamin	-11.0109
▁blush	-11.0109
▁bourbon	-11.0109
▁butterflies	-11.0109
▁cackling	-11.0109
▁canaan	-11.0109
▁coiby	-11.0109
▁coincidence	-11.0109
▁combination	-11.0109
▁commotion	-11.0109
▁concrete	-11.0109
▁crisis	-11.0109
▁dencre	-11.0109
▁eager	-11.0109
▁easily	-11.0109
▁enjolras	-11.0109
▁exhausted	-11.0109
▁exploit	-11.0109
▁eyewitness	-11.0109
▁finnerty	-11.0109
▁fluffy	-11.0109
▁ghetto	-11.0109
▁gibberish	-11.0109
▁gracias	-11.0109
▁gratitude	-11.0109
▁grigio	-11.0109
▁gruff	-11.0109
▁handshake	-11.0109
▁hiphop	-11.0109
▁historic	-11.0109
▁hysterical	-11.0109
▁iadies	-11.0109
▁index	-11.0109
▁intense	-11.0109
▁interference	-11.0109
▁interpol	-11.0109
▁invasion	-11.0109
▁iraq	-11.0109
▁jadore	-11.0109
▁karaoke	-11.0109
▁laundry	-11.0109
▁leather	-11.0109
▁literature	-11.0109
▁ministry	-11.0109
▁mississippi	-11.0109
▁motorcycle	-11.0109
▁negotiator	-11.0109
▁newspaper	-11.0109
▁nigga	-11.0109
▁olympus	-11.0109
▁orbit	-11.0109
▁orchestra	-11.0109
▁outstanding	-11.0109
▁petrified	-11.0109
▁plutarch	-11.0109
▁privilege	-11.0109
▁province	-11.0109
▁prudence	-11.0109
▁purchase	-11.0109
▁recall	-11.0109
▁rhinoceros	-11.0109
▁rubbish	-11.0109
▁savage	-11.0109
▁scotland	-11.0109
▁script	-11.0109
▁southwest	-11.0109
▁spaghetti	-11.0109
▁splash	-11.0109
▁stereo	-11.0109
▁thunderclap	-11.0109
▁totaiiy	-11.0109
▁toujours	-11.0109
▁transplant	-11.0109
▁tydeus	-11.0109
▁unhappy	-11.0109
▁wilkinsburg	-11.0109
▁wrath	-11.0109
▁benedict	-11.0109
▁cyber	-11.0109
▁granger	-11.0109
▁kayla	-11.0109
▁lesbian	-11.0109
▁lolaus	-11.0109
▁metaphor	-11.0109
▁observe	-11.0109
▁pirates	-11.0109
▁tammy	-11.0109
▁canyon	-11.0109
▁clever	-11.0109
▁derek	-11.0109
▁domestic	-11.0109
▁fourteen	-11.0109
▁muhammad	-11.0109
▁info	-11.0109
▁diaper	-11.0109
▁surviving	-11.0109
▁dialogue	-11.0109
▁vegetables	-11.0109
▁ahmet	-11.0109
▁application	-11.0109
▁basil	-11.0109
▁oxford	-11.0109
▁carolina	-11.0109
▁eunice	-11.0109
▁rodin	-11.0109
▁tolan	-11.0109
▁christina	-11.0109
▁hilarious	-11.0109
▁lambassadeur	-11.0109
▁fuji	-11.0109
▁picard	-11.0109
▁unfair	-11.0109
▁venture	-11.0109
▁anarchy	-11.0109
▁henley	-11.0109
▁cried	-11.0109
▁kuchi	-11.0109
▁vibe	-11.0109
▁montana	-11.0109
▁reveal	-11.0109
▁appeal	-11.0109
▁surveillance	-11.0109
▁piayboy	-11.0109
▁forbidden	-11.0109
▁waik	-11.0109
▁stepping	-11.0109
▁dix	-11.0109
▁infection	-11.0109
▁institute	-11.0109
▁intimate	-11.0109
▁moans	-11.0109
▁sunset	-11.0109
▁whining	-11.0109
▁vulnerable	-11.0109
▁gambling	-11.0109
▁examination	-11.0109
▁frogs	-11.0109
▁aisle	-11.0109
▁franz	-11.0109
▁piace	-11.0109
▁biological	-11.0109
▁culture	-11.0109
▁snickering	-11.0109
▁ici	-11.0109
▁valley	-11.011
▁fortress	-11.011
▁eject	-11.011
▁toxic	-11.011
▁ollie	-11.011
▁radiation	-11.011
▁pepper	-11.011
▁permit	-11.011
▁scanner	-11.011
▁therapist	-11.011
▁fellowship	-11.011
▁deployment	-11.011
▁kroll	-11.011
▁admission	-11.011
▁celebration	-11.011
▁forehead	-11.011
▁description	-11.011
▁formula	-11.011
▁arriv	-11.011
▁bailey	-11.011
▁bingo	-11.011
▁hesitate	-11.011
▁cartoon	-11.011
▁sorrow	-11.011
▁surgeon	-11.011
▁password	-11.011
▁bloom	-11.011
▁babysitter	-11.011
▁iisten	-11.011
▁execution	-11.011
▁iran	-11.011
▁announcement	-11.011
▁vivian	-11.011
▁suspense	-11.011
▁marlene	-11.011
▁appearance	-11.0111
▁trouper	-11.0111
▁effective	-11.0111
▁blur	-11.0111
▁hypocrite	-11.0111
▁classified	-11.0111
▁compassion	-11.0111
▁noble	-11.0111
▁generous	-11.0111
▁couch	-11.0111
▁porch	-11.0111
▁diary	-11.0111
▁whiie	-11.0111
▁imperial	-11.0111
▁stall	-11.0112
▁dj	-11.0112
▁sidewalk	-11.0112
▁karate	-11.0112
▁veal	-11.0112
▁hence	-11.0112
▁stressful	-11.0112
▁vrai	-11.0112
▁debate	-11.0112
▁iost	-11.0113
▁assembl	-11.0113
▁silk	-11.0113
▁lockdown	-11.0113
▁settlement	-11.0113
▁starlight	-11.0113
▁harmless	-11.0113
▁fisherman	-11.0113
▁balloon	-11.0113
▁medication	-11.0114
▁peak	-11.0114
▁drain	-11.0114
▁pill	-11.0114
▁burton	-11.0114
▁glow	-11.0114
▁unknown	-11.0114
▁analysis	-11.0114
▁sleeve	-11.0114
▁confident	-11.0114
▁stubby	-11.0114
▁donner	-11.0115
▁foster	-11.0115
▁gregory	-11.0115
▁stain	-11.0115
▁psycho	-11.0115
▁boil	-11.0115
▁fiancee	-11.0115
▁tackle	-11.0115
▁velvet	-11.0115
▁concert	-11.0115
▁bartender	-11.0116
▁coke	-11.0116
▁assigned	-11.0117
▁gaby	-11.0117
▁dawg	-11.0117
▁monde	-11.0117
▁hoid	-11.0117
▁payday	-11.0117
▁immortality	-11.0117
▁bait	-11.0117
▁melons	-11.0117
▁savoir	-11.0118
▁admire	-11.0118
▁collection	-11.0118
▁slap	-11.0118
▁jive	-11.0118
▁label	-11.0119
▁mustard	-11.012
▁latin	-11.012
▁oral	-11.012
▁kno	-11.0121
▁bess	-11.0121
▁eastern	-11.0121
▁marcy	-11.0121
▁gently	-11.0122
▁technically	-11.0122
burg	-11.0122
▁monet	-11.0122
▁forth	-11.0122
▁receiver	-11.0122
▁owns	-11.0123
▁length	-11.0123
▁graphic	-11.0123
▁controlling	-11.0123
▁inches	-11.0125
play	-11.0125
▁surf	-11.0126
▁rally	-11.0126
▁humming	-11.0127
eval	-11.0127
▁predict	-11.0127
▁avenger	-11.0127
▁gambler	-11.0128
▁nous	-11.0128
▁dedicated	-11.0129
▁stein	-11.0129
▁bonus	-11.0129
god	-11.013
▁jar	-11.0131
uh	-11.0131
▁tori	-11.0132
▁background	-11.0132
▁gee	-11.0132
▁backpack	-11.0132
▁thruster	-11.0134
▁shore	-11.0135
▁recruited	-11.0136
▁eve	-11.0137
▁ouch	-11.0138
▁dale	-11.0138
▁homeland	-11.0138
▁transform	-11.0139
▁straining	-11.014
▁assist	-11.0141
▁caiied	-11.0141
▁stack	-11.0143
▁app	-11.0144
▁jury	-11.0146
▁crashes	-11.0147
▁curl	-11.0148
▁marshall	-11.0148
efficient	-11.0148
▁paie	-11.015
▁burnin	-11.0151
▁canceled	-11.0151
▁beans	-11.0151
▁brakes	-11.0152
headed	-11.0154
▁squealing	-11.0155
▁void	-11.0158
▁mint	-11.0159
▁hacker	-11.0161
iest	-11.0161
▁newton	-11.0164
▁fond	-11.0164
▁your	-11.0166
▁newt	-11.0168
ire	-11.0169
▁bund	-11.0173
▁lane	-11.0174
▁fame	-11.0175
▁appeared	-11.0176
▁maze	-11.0176
▁detailed	-11.0177
▁pole	-11.0177
▁booing	-11.0178
▁referr	-11.018
▁neighbors	-11.018
▁tax	-11.0183
▁rend	-11.0187
▁pacifi	-11.0189
▁mou	-11.0192
▁defeated	-11.0196
▁talented	-11.0196
▁requested	-11.0196
▁hunted	-11.0201
▁secured	-11.0205
▁shorter	-11.0208
▁wolves	-11.0208
▁coll	-11.0208
▁mona	-11.0211
▁tempt	-11.0212
med	-11.0215
▁mia	-11.0215
▁jay	-11.0216
▁the	-11.0217
▁deserved	-11.0223
▁peel	-11.0228
▁dose	-11.023
▁skull	-11.0233
▁solo	-11.0234
▁rumors	-11.0236
▁bama	-11.0238
▁comms	-11.0238
▁gens	-11.0239
ieve	-11.0243
▁incompeten	-11.0244
lt	-11.0246
▁considering	-11.0247
gs	-11.0249
trude	-11.0249
▁traditional	-11.025
▁sean	-11.025
▁granted	-11.0255
▁blocking	-11.0263
▁exclaims	-11.0264
▁buster	-11.0265
▁sweeps	-11.0265
▁andre	-11.0266
▁sleepin	-11.0267
ito	-11.027
▁manny	-11.027
mor	-11.0273
▁tasted	-11.0273
western	-11.0275
▁locks	-11.028
▁punched	-11.0281
▁dol	-11.0286
▁scrap	-11.0289
▁satellites	-11.0292
▁warriors	-11.0292
▁honks	-11.0293
▁farmers	-11.0307
▁sid	-11.0311
▁sis	-11.0314
▁announce	-11.0315
▁tang	-11.0317
ten	-11.032
▁diamonds	-11.0321
▁compliments	-11.0321
▁cables	-11.0321
▁concerns	-11.0321
hoo	-11.0326
▁homme	-11.0329
▁gra	-11.0335
▁drawing	-11.0336
wrapped	-11.0344
▁makeup	-11.0348
▁listened	-11.0357
▁targeted	-11.036
▁treating	-11.0361
inner	-11.0377
plicate	-11.0381
▁parles	-11.0387
▁seize	-11.0391
▁safely	-11.0399
▁pushed	-11.0411
ember	-11.0419
▁loo	-11.0434
▁laughed	-11.0435
▁sole	-11.0436
▁helps	-11.0438
▁handler	-11.0446
▁ding	-11.0457
▁characters	-11.0463
▁labors	-11.0464
▁landing	-11.0474
▁diet	-11.048
▁carbon	-11.0482
abie	-11.0489
▁conditions	-11.0492
▁spits	-11.0492
▁penn	-11.0498
▁ci	-11.0504
▁quan	-11.0506
▁parked	-11.0522
cle	-11.0528
▁att	-11.0538
lum	-11.0541
izing	-11.0553
▁cobb	-11.0559
▁rd	-11.0561
▁offering	-11.0562
▁explosives	-11.0565
▁markets	-11.0579
▁los	-11.0587
▁ren	-11.062
▁tai	-11.0627
▁chari	-11.0627
oney	-11.0639
▁workin	-11.064
▁handy	-11.0645
▁lapd	-11.0651
▁comments	-11.0662
▁circles	-11.0666
▁danced	-11.0676
▁vive	-11.0681
▁kin	-11.0703
lets	-11.0714
▁fails	-11.0724
▁belle	-11.0735
sk	-11.0737
▁waitin	-11.0755
tez	-11.076
▁uses	-11.0761
▁tripp	-11.0786
▁bikes	-11.0787
▁adore	-11.0795
▁heavi	-11.0808
▁comb	-11.0817
▁fockers	-11.0818
say	-11.0824
▁spr	-11.0825
▁locations	-11.0838
viva	-11.0851
bble	-11.0861
▁shove	-11.0867
▁wars	-11.0872
enez	-11.0879
▁sever	-11.0885
▁exits	-11.0897
▁ducks	-11.0897
▁groom	-11.0897
▁shav	-11.0919
hu	-11.0919
▁stones	-11.0926
▁ye	-11.0937
ox	-11.0952
▁por	-11.0985
rate	-11.0987
▁ji	-11.0994
▁shirts	-11.1014
tial	-11.1015
▁ww	-11.1056
tag	-11.1072
▁declare	-11.1078
state	-11.1098
▁nap	-11.1112
ities	-11.1125
rg	-11.1126
▁remembering	-11.1128
▁che	-11.1136
▁wo	-11.1146
▁industri	-11.1161
▁bots	-11.1162
▁passe	-11.1166
har	-11.1168
▁sera	-11.12
▁urg	-11.1204
dog	-11.1208
▁fou	-11.1211
▁bou	-11.1236
zer	-11.1243
▁falcos	-11.1252
▁trib	-11.1276
oh	-11.1281
▁roses	-11.1288
▁sha	-11.1302
▁hips	-11.1317
port	-11.1326
▁pale	-11.1357
▁lap	-11.1372
▁duri	-11.1383
▁ming	-11.1389
ard	-11.139
▁smiles	-11.14
ians	-11.1421
ezvous	-11.1426
eal	-11.1433
▁min	-11.144
▁term	-11.145
bre	-11.1453
rlock	-11.1456
▁moo	-11.1463
tz	-11.1473
▁bombs	-11.148
▁strip	-11.1481
▁cooi	-11.1485
rrow	-11.1488
▁why	-11.151
▁danse	-11.1543
▁sweep	-11.1545
vé	-11.1548
erge	-11.1553
▁guessed	-11.1582
▁faggot	-11.1585
▁orphan	-11.1585
▁snack	-11.1586
▁attraction	-11.1588
▁emp	-11.1588
▁coward	-11.1589
▁jordan	-11.159
▁teammate	-11.1592
bel	-11.1595
▁tool	-11.1595
▁exclaim	-11.1596
▁await	-11.1597
▁heel	-11.1598
▁slam	-11.1598
▁survivor	-11.1599
▁citizen	-11.16
▁benefit	-11.16
▁orc	-11.1602
▁tribute	-11.1605
oul	-11.1606
▁sens	-11.1606
▁homey	-11.161
▁squa	-11.1611
▁parent	-11.1615
▁structur	-11.1616
▁gut	-11.1617
▁clo	-11.1622
▁capital	-11.1628
▁cent	-11.1628
▁coin	-11.1639
▁asset	-11.164
ement	-11.1642
active	-11.1643
▁drum	-11.1643
eyed	-11.1658
▁fre	-11.166
▁bam	-11.1663
▁parl	-11.1664
book	-11.167
▁disappoint	-11.1696
▁tra	-11.1697
▁frighten	-11.1699
list	-11.17
face	-11.17
▁cheat	-11.1706
class	-11.1707
destruct	-11.1709
▁martini	-11.1709
eii	-11.1709
▁recruit	-11.1712
century	-11.1718
natural	-11.1719
weather	-11.172
tape	-11.172
type	-11.172
fighting	-11.172
free	-11.172
wise	-11.1722
watch	-11.1723
▁vomit	-11.1725
rock	-11.1734
▁rag	-11.1738
door	-11.1738
nata	-11.1738
▁deli	-11.1738
▁attract	-11.1739
▁adapt	-11.1739
▁mock	-11.1741
▁emerge	-11.1741
▁dur	-11.1743
▁attach	-11.1744
▁petit	-11.1745
▁slaughter	-11.1746
gala	-11.1747
rebor	-11.1748
▁expose	-11.1752
tte	-11.1752
▁dedicate	-11.1752
ecks	-11.1753
▁wee	-11.1755
▁tramp	-11.1757
▁premier	-11.1759
▁eva	-11.176
▁groov	-11.176
▁widow	-11.1763
▁farmin	-11.1764
▁trouv	-11.1765
▁wealth	-11.1765
▁fiancé	-11.1766
▁upper	-11.1768
▁wax	-11.177
▁realise	-11.1771
▁scienti	-11.1772
▁wander	-11.1773
▁commun	-11.1773
▁counsel	-11.1773
mperial	-11.1773
▁sororit	-11.1774
▁interpret	-11.1774
▁kidnappe	-11.1775
▁hydra	-11.1775
▁colon	-11.1776
▁after	-11.1776
▁unleash	-11.1776
responsibilities	-11.1776
▁absurd	-11.1776
▁acquired	-11.1776
▁afflovest	-11.1776
▁ahhaha	-11.1776
▁almighty	-11.1776
▁ambassador	-11.1776
▁ambulance	-11.1776
▁amphiaraus	-11.1776
▁antibiotics	-11.1776
▁anxiety	-11.1776
▁arizona	-11.1776
▁atmosphere	-11.1776
▁average	-11.1776
▁bennett	-11.1776
▁bikini	-11.1776
▁bluff	-11.1776
▁bonjour	-11.1776
▁centerfoid	-11.1776
▁chimichanga	-11.1776
▁choosing	-11.1776
▁cienfuegos	-11.1776
▁clucking	-11.1776
▁cocoon	-11.1776
▁colleague	-11.1776
▁copeland	-11.1776
▁critical	-11.1776
▁crotch	-11.1776
▁dagger	-11.1776
▁democracy	-11.1776
▁desmond	-11.1776
▁deutscher	-11.1776
▁dynamite	-11.1776
▁elephant	-11.1776
▁encounter	-11.1776
▁enslave	-11.1776
▁envelope	-11.1776
▁explode	-11.1776
▁february	-11.1776
▁felicia	-11.1776
▁genuine	-11.1776
▁girifriend	-11.1776
▁glaeser	-11.1776
▁globe	-11.1776
▁grenade	-11.1776
▁grenkin	-11.1776
▁grip	-11.1776
▁horror	-11.1776
▁hubermann	-11.1776
▁iearn	-11.1776
▁install	-11.1776
▁instinct	-11.1776
▁josef	-11.1776
▁kommandant	-11.1776
▁kotler	-11.1776
▁liquid	-11.1776
▁luxury	-11.1776
▁mademoiselle	-11.1776
▁mannequin	-11.1776
▁maurice	-11.1776
▁mendelson	-11.1776
▁miranda	-11.1776
▁miriam	-11.1776
▁napoleon	-11.1776
▁nevada	-11.1776
▁négatif	-11.1776
▁orlando	-11.1776
▁ostrich	-11.1776
▁outbreak	-11.1776
▁outcome	-11.1776
▁pencil	-11.1776
▁perspective	-11.1776
▁pingpong	-11.1776
▁poetry	-11.1776
▁precursors	-11.1776
▁probabi	-11.1776
▁pyjamas	-11.1776
▁reckless	-11.1776
▁reconsider	-11.1776
▁regimen	-11.1776
▁rhyme	-11.1776
▁ritual	-11.1776
▁romulus	-11.1776
▁shakespeare	-11.1776
▁similar	-11.1776
▁smaug	-11.1776
▁sniffles	-11.1776
▁sophisticat	-11.1776
▁souvenir	-11.1776
▁spidey	-11.1776
▁squawking	-11.1776
▁struggling	-11.1776
▁surprising	-11.1776
▁tofu	-11.1776
▁trousers	-11.1776
▁versailles	-11.1776
▁veteran	-11.1776
▁voicemail	-11.1776
▁worries	-11.1776
▁wyantwheeler	-11.1776
▁yellowjacket	-11.1776
equinox	-11.1776
▁angei	-11.1776
▁beetee	-11.1776
▁cinna	-11.1776
▁clanks	-11.1776
▁farewell	-11.1776
▁knives	-11.1776
▁mandarin	-11.1776
▁mildred	-11.1776
▁mosquito	-11.1776
▁phony	-11.1776
▁purse	-11.1776
▁sabres	-11.1776
▁symbol	-11.1776
▁tubab	-11.1776
▁vicky	-11.1776
▁judging	-11.1776
▁maddow	-11.1776
▁sushi	-11.1776
▁transcend	-11.1776
▁veins	-11.1776
▁wyant	-11.1776
▁medusa	-11.1776
▁virus	-11.1776
▁crappy	-11.1776
▁seventyfive	-11.1776
▁apologies	-11.1776
▁claws	-11.1776
▁oracle	-11.1776
▁bosco	-11.1776
▁debutante	-11.1776
▁submit	-11.1776
▁denied	-11.1776
▁morphine	-11.1776
▁arab	-11.1776
▁tennis	-11.1776
▁goddess	-11.1776
▁knack	-11.1776
▁ralf	-11.1776
▁banana	-11.1776
▁kilometer	-11.1776
▁merrick	-11.1776
▁exclusive	-11.1776
▁ninja	-11.1776
▁crave	-11.1776
▁eponine	-11.1776
▁extraordinary	-11.1776
▁lunatic	-11.1776
▁reef	-11.1776
▁bensley	-11.1776
▁leaf	-11.1776
▁jingle	-11.1776
▁authorized	-11.1776
▁biscuits	-11.1776
▁invitation	-11.1776
▁voiture	-11.1776
▁endora	-11.1776
▁fulfill	-11.1776
▁suitcase	-11.1776
▁dessus	-11.1776
▁triumphant	-11.1776
▁urine	-11.1776
▁slipping	-11.1776
▁defy	-11.1776
▁mouse	-11.1776
▁yummy	-11.1776
▁isabella	-11.1776
▁reservation	-11.1776
▁rustling	-11.1776
▁aggressive	-11.1776
▁opponent	-11.1776
▁donald	-11.1776
▁stash	-11.1776
▁bummer	-11.1776
▁whew	-11.1776
▁strand	-11.1776
▁technologies	-11.1776
▁piay	-11.1776
dolf	-11.1776
▁polish	-11.1776
▁puppy	-11.1776
▁repay	-11.1776
▁rouge	-11.1776
▁townsend	-11.1776
▁rattle	-11.1776
▁arise	-11.1777
▁bernice	-11.1777
▁gagging	-11.1777
▁slick	-11.1777
▁roast	-11.1777
▁operating	-11.1777
▁kume	-11.1777
▁bleat	-11.1777
▁wives	-11.1777
▁heap	-11.1777
▁karen	-11.1777
▁salary	-11.1777
▁earring	-11.1777
▁inbound	-11.1777
▁amigo	-11.1777
▁dragged	-11.1777
▁sober	-11.1777
▁whack	-11.1777
▁upside	-11.1777
▁elementary	-11.1777
▁apologise	-11.1777
▁barbay	-11.1777
▁legitim	-11.1777
▁tadpole	-11.1777
▁yeux	-11.1778
▁sonya	-11.1778
▁avez	-11.1778
▁theories	-11.1778
▁princeton	-11.1778
▁potatoes	-11.1778
▁resistance	-11.1778
puis	-11.1778
▁godforsaken	-11.1778
▁sheii	-11.1778
▁mainland	-11.1778
▁pony	-11.1778
▁scam	-11.1779
▁spitting	-11.1779
▁exactiy	-11.1779
▁genre	-11.1779
▁tactical	-11.1779
▁durian	-11.1779
▁juan	-11.1779
▁mummy	-11.1779
▁colin	-11.1779
▁homeiess	-11.1779
▁wiry	-11.178
▁sworn	-11.178
▁confirmation	-11.178
▁management	-11.178
▁descend	-11.178
▁tense	-11.178
▁chopper	-11.178
fall	-11.178
▁mutation	-11.178
▁believing	-11.178
▁clap	-11.1781
▁celebrating	-11.1781
▁shiver	-11.1781
▁summon	-11.1781
▁banner	-11.1781
▁rail	-11.1781
▁scrapper	-11.1781
▁loop	-11.1781
▁crane	-11.1781
▁nuke	-11.1781
▁regional	-11.1782
▁essential	-11.1782
▁exhume	-11.1782
▁hypnosis	-11.1782
▁shaft	-11.1782
▁shrieking	-11.1782
▁bachelor	-11.1782
▁dontdont	-11.1782
▁joan	-11.1782
▁obey	-11.1783
▁occasionally	-11.1783
▁cooperate	-11.1783
▁margo	-11.1783
▁reliable	-11.1783
▁hisses	-11.1783
▁phonebook	-11.1783
▁keen	-11.1783
▁panicked	-11.1784
▁filter	-11.1784
▁kara	-11.1785
▁impression	-11.1786
▁copies	-11.1786
▁darn	-11.1786
▁determined	-11.1786
▁extraction	-11.1787
▁bcd	-11.1787
adill	-11.1787
▁poke	-11.1787
▁baskin	-11.1787
▁personnel	-11.1788
▁haut	-11.1788
▁steiner	-11.1788
▁sock	-11.1788
▁annoying	-11.1789
▁mayday	-11.1789
▁grandp	-11.1789
▁sharing	-11.1789
▁fitness	-11.1789
▁marco	-11.179
▁personality	-11.179
▁shao	-11.1791
▁brit	-11.1791
▁relieved	-11.1791
▁brandt	-11.1791
▁warmth	-11.1792
▁ivy	-11.1792
▁selected	-11.1792
▁iate	-11.1792
▁laven	-11.1792
▁firstclass	-11.1792
▁royce	-11.1792
▁monarch	-11.1793
▁ahem	-11.1793
▁quant	-11.1793
▁expression	-11.1794
▁lemkova	-11.1794
▁hola	-11.1794
▁toll	-11.1794
▁employers	-11.1795
▁insects	-11.1795
▁squirrels	-11.1795
▁recovery	-11.1795
▁barrier	-11.1795
▁dill	-11.1795
▁loin	-11.1795
▁july	-11.1796
▁applauding	-11.1797
▁moorer	-11.1797
▁huit	-11.1797
▁clay	-11.1798
▁prep	-11.1799
semble	-11.1799
▁auction	-11.1799
▁itching	-11.1799
▁geek	-11.18
▁fulltime	-11.18
▁birdie	-11.1801
▁stunt	-11.1801
▁properly	-11.1801
▁cramped	-11.1803
▁register	-11.1803
▁stable	-11.1803
▁ivan	-11.1804
▁galen	-11.1804
▁taunting	-11.1805
▁reaping	-11.1805
▁shaw	-11.1806
▁stat	-11.1806
▁truce	-11.1806
▁camel	-11.1808
▁vont	-11.1808
▁steeler	-11.1808
▁faites	-11.1808
▁graduated	-11.1808
cular	-11.1809
▁thankful	-11.1809
mmons	-11.181
▁inspired	-11.1812
▁cruci	-11.1812
▁guaranteed	-11.1812
▁easley	-11.1814
▁artie	-11.1815
▁matches	-11.1815
▁unclear	-11.1815
▁tele	-11.1815
▁pickup	-11.1816
▁disco	-11.1817
quet	-11.1819
▁fasten	-11.182
▁comprends	-11.182
▁deactivate	-11.1822
▁tops	-11.1822
▁frightening	-11.1822
▁ore	-11.1823
▁separated	-11.1824
read	-11.1825
▁topic	-11.1826
▁investors	-11.1827
▁hilt	-11.183
▁ham	-11.183
▁rim	-11.183
ough	-11.1831
▁cocking	-11.1831
▁discovery	-11.1832
▁charger	-11.1837
▁limited	-11.1837
▁gogh	-11.1838
▁suresh	-11.1839
▁engineering	-11.184
▁poo	-11.184
▁correctly	-11.1842
▁easter	-11.1842
▁cane	-11.1843
▁dresses	-11.1844
▁solved	-11.1844
▁cursed	-11.1845
▁chased	-11.1847
▁singin	-11.1849
▁developed	-11.185
▁grind	-11.185
gara	-11.1852
▁mainly	-11.1852
prompt	-11.1853
▁tits	-11.1854
▁wilder	-11.1854
▁goodlooking	-11.1855
▁jaime	-11.1856
▁ducky	-11.1856
▁blessing	-11.1857
▁godking	-11.1858
▁ability	-11.1858
▁scavs	-11.186
▁requires	-11.1861
▁performed	-11.1861
▁rigs	-11.1861
▁fry	-11.1862
▁wit	-11.1863
▁fireman	-11.1868
▁nest	-11.1868
▁prop	-11.1868
▁tighter	-11.1869
▁soy	-11.187
▁magical	-11.1875
▁pry	-11.1877
▁latest	-11.1877
▁commissioner	-11.1882
▁reminder	-11.1883
fin	-11.1885
val	-11.1885
▁dome	-11.1893
▁mens	-11.1896
▁howdy	-11.1899
▁temps	-11.1901
▁treaty	-11.1901
ami	-11.1902
▁intr	-11.1902
▁bowling	-11.1906
▁fisher	-11.1906
▁drowning	-11.1907
▁flowing	-11.1908
▁toid	-11.1911
▁prob	-11.1912
▁experienced	-11.1913
▁assholes	-11.1917
▁filed	-11.1923
▁pads	-11.1923
▁deeper	-11.1924
▁requesting	-11.1924
stful	-11.1926
▁lads	-11.193
▁dialing	-11.1932
▁walks	-11.1932
▁martyr	-11.1938
▁parker	-11.1938
pped	-11.1939
▁feeiing	-11.1948
▁hel	-11.1953
▁structure	-11.1955
▁awaits	-11.196
▁heels	-11.1961
▁tools	-11.1961
▁assets	-11.1962
tard	-11.1971
▁slower	-11.1971
▁fishy	-11.1973
▁sting	-11.1974
▁tent	-11.1975
▁troi	-11.1994
▁squeals	-11.1995
▁pressed	-11.1998
▁hein	-11.1998
▁county	-11.2004
▁diver	-11.201
ppy	-11.2011
▁pasta	-11.2018
▁rolled	-11.2021
▁borrowing	-11.2027
▁wage	-11.2028
ologist	-11.2029
▁nails	-11.2033
▁gout	-11.2034
▁crop	-11.2034
▁bre	-11.2037
▁foundation	-11.2038
▁lighter	-11.2045
▁cult	-11.2046
eak	-11.2052
▁eighty	-11.2055
▁barrels	-11.2063
▁hostiles	-11.2063
▁preparations	-11.2064
▁amp	-11.2065
▁hor	-11.2066
▁snaps	-11.2067
▁endings	-11.2069
▁mont	-11.2072
exi	-11.2076
▁whi	-11.2078
mean	-11.2087
▁pub	-11.2091
▁imagined	-11.2093
▁blankets	-11.2097
▁reminded	-11.2102
▁peach	-11.2102
▁hiss	-11.2112
ace	-11.2113
ating	-11.2123
▁ki	-11.2123
evi	-11.2125
▁closely	-11.2127
▁den	-11.2128
▁adults	-11.2132
▁marines	-11.2132
▁bobo	-11.214
▁teams	-11.2145
▁washing	-11.2147
▁corpses	-11.2153
▁batt	-11.2154
dium	-11.2155
ousy	-11.2161
▁dolls	-11.2166
▁hay	-11.2183
pense	-11.2196
▁ny	-11.2198
ara	-11.2199
▁officials	-11.2201
▁here	-11.2203
▁partir	-11.2205
▁nations	-11.2206
▁dos	-11.2207
uture	-11.2211
sits	-11.2215
▁lamen	-11.2217
▁equals	-11.223
ust	-11.2231
▁candles	-11.2234
▁barricades	-11.2235
▁cret	-11.2237
▁pops	-11.2242
▁will	-11.2243
▁workers	-11.2245
▁ky	-11.2256
▁buildings	-11.226
ically	-11.2262
scheduled	-11.2263
▁eagles	-11.2269
▁tribe	-11.2289
▁roommates	-11.2304
▁elli	-11.2306
eu	-11.2325
▁wu	-11.2336
▁robb	-11.2344
▁dag	-11.2344
vel	-11.2348
ru	-11.2349
▁layer	-11.2363
ville	-11.237
rack	-11.2372
▁humble	-11.2378
ified	-11.2389
▁sleepy	-11.2395
▁pockets	-11.2407
▁shu	-11.2407
▁losers	-11.2408
▁els	-11.241
rine	-11.2428
▁callin	-11.2436
▁pearls	-11.2442
wing	-11.2475
▁fences	-11.2477
▁decks	-11.2479
▁covering	-11.2479
▁carnies	-11.2484
idney	-11.2492
▁tag	-11.2492
▁tropic	-11.2492
▁carni	-11.2508
▁hopeful	-11.2515
ccord	-11.2516
▁pol	-11.2523
▁declar	-11.2526
▁grounds	-11.2538
▁formal	-11.2544
▁lend	-11.256
inq	-11.2573
nnie	-11.2578
▁chairs	-11.2582
▁pizzas	-11.2582
rl	-11.2583
▁kindly	-11.2587
▁julias	-11.2604
▁ordering	-11.2643
▁chances	-11.2667
▁manque	-11.2674
▁hals	-11.2679
▁owed	-11.268
▁media	-11.2686
▁relationships	-11.2687
▁jeans	-11.2688
▁sadde	-11.269
▁skate	-11.2693
▁lovers	-11.2701
▁careers	-11.271
▁maniac	-11.2711
old	-11.2713
fey	-11.2713
▁puts	-11.2716
▁noises	-11.2723
top	-11.2723
rum	-11.2727
▁gat	-11.2727
▁sets	-11.2731
test	-11.2736
▁serai	-11.2737
▁husbands	-11.274
▁quel	-11.2742
▁scares	-11.2748
anc	-11.2757
▁anal	-11.2757
nny	-11.2767
pente	-11.2769
▁faced	-11.2785
etic	-11.2793
▁y	-11.28
ome	-11.2812
tif	-11.2819
▁idiots	-11.2829
▁basements	-11.2829
▁regrets	-11.2863
▁cousins	-11.2864
lake	-11.2865
▁butts	-11.2867
ator	-11.2868
rish	-11.2885
▁understands	-11.2893
fore	-11.2896
za	-11.2898
presentation	-11.2908
▁chas	-11.2913
▁serves	-11.2914
mar	-11.2928
eth	-11.2938
▁cur	-11.2945
vais	-11.2946
▁nor	-11.2957
▁operations	-11.2972
▁by	-11.2975
ano	-11.2977
▁minn	-11.2981
▁wav	-11.2983
▁films	-11.2985
ato	-11.3006
▁taylors	-11.3007
▁iv	-11.3008
▁goals	-11.302
▁gai	-11.3021
▁mob	-11.3041
▁cath	-11.3073
▁paths	-11.3079
cat	-11.3087
ray	-11.3111
▁sm	-11.3112
▁stores	-11.3115
▁xi	-11.3134
▁strikes	-11.315
sis	-11.3154
▁actions	-11.3158
apoli	-11.3158
▁fin	-11.3175
▁becketts	-11.3188
ros	-11.3193
▁cardi	-11.3218
sup	-11.3219
▁hitch	-11.3221
▁ref	-11.3227
▁tons	-11.3249
▁couples	-11.3255
ants	-11.326
handed	-11.3264
▁mari	-11.3293
▁flights	-11.3297
▁faci	-11.333
alty	-11.336
▁comm	-11.3372
▁trains	-11.3384
race	-11.3386
▁stab	-11.3386
▁horns	-11.341
take	-11.342
ki	-11.3441
uous	-11.3476
▁her	-11.3483
▁nost	-11.3486
▁melt	-11.3511
▁of	-11.3517
▁corners	-11.3523
air	-11.3538
▁ir	-11.3542
▁cramp	-11.3545
winding	-11.3546
▁increase	-11.3566
print	-11.3572
▁idol	-11.3575
▁instrument	-11.3576
▁bargain	-11.3576
▁nerd	-11.3577
▁rainbow	-11.3577
▁region	-11.3578
ddling	-11.3579
eries	-11.3583
▁electronic	-11.3586
ain	-11.3586
▁temple	-11.3588
▁pattern	-11.359
▁feature	-11.3593
▁result	-11.3598
▁pancake	-11.36
▁rumor	-11.3601
▁sponsor	-11.3601
▁hostage	-11.3607
bot	-11.3617
▁activat	-11.3617
▁sweater	-11.3623
▁fist	-11.3627
nc	-11.3633
▁commission	-11.3647
▁server	-11.3649
▁dot	-11.3653
▁raid	-11.3661
power	-11.368
▁promis	-11.3684
▁overse	-11.369
▁garde	-11.37
▁thr	-11.37
jack	-11.3702
▁opera	-11.3703
▁crow	-11.3708
point	-11.3708
with	-11.371
ulation	-11.3712
known	-11.3713
hawk	-11.3714
stream	-11.3714
walk	-11.3716
guard	-11.3716
craft	-11.3716
▁laiss	-11.3718
sexual	-11.3718
icon	-11.3719
▁timer	-11.3719
speed	-11.372
third	-11.372
▁multi	-11.3721
three	-11.3721
found	-11.3722
pants	-11.3723
▁creat	-11.3727
five	-11.3727
ector	-11.3727
▁twi	-11.3729
reader	-11.373
band	-11.373
▁disturb	-11.373
▁disgust	-11.3732
▁detect	-11.3739
gil	-11.374
▁recommend	-11.374
▁succeed	-11.374
▁reckon	-11.374
▁intend	-11.3744
▁crook	-11.3744
▁invent	-11.3744
van	-11.3745
ological	-11.3748
▁snipe	-11.3749
▁avenge	-11.3749
▁sour	-11.375
▁begg	-11.3751
▁cloth	-11.3752
▁compromise	-11.3753
udge	-11.3753
▁lemkov	-11.3754
leigh	-11.3757
▁evolve	-11.3757
▁medic	-11.3759
ection	-11.3759
▁cochran	-11.376
this	-11.376
▁filth	-11.376
▁terribl	-11.3761
▁shoo	-11.3763
▁permanent	-11.3764
▁precise	-11.3764
▁recent	-11.3765
▁extreme	-11.3765
uda	-11.3766
▁what	-11.3767
ford	-11.3767
▁numb	-11.3767
▁robots	-11.3768
▁hustle	-11.3768
▁branch	-11.3768
▁inject	-11.3768
▁korea	-11.3768
▁whit	-11.3768
▁swede	-11.3769
▁scoot	-11.3769
▁gaug	-11.377
▁india	-11.377
taker	-11.3771
ault	-11.3772
your	-11.3772
▁raisin	-11.3772
▁prai	-11.3772
▁extinct	-11.3773
▁blond	-11.3773
▁henchm	-11.3774
▁immortal	-11.3774
▁entertain	-11.3774
▁daw	-11.3775
▁egypt	-11.3775
▁slut	-11.3775
▁russell	-11.3775
▁forbid	-11.3775
▁muhamm	-11.3776
▁adrenaline	-11.3776
beautifui	-11.3776
▁acrisius	-11.3776
▁adventurous	-11.3776
▁advertising	-11.3776
▁afghanistan	-11.3776
▁antwine	-11.3776
▁anxious	-11.3776
▁architect	-11.3776
▁aspic	-11.3776
▁atlanta	-11.3776
▁awkward	-11.3776
▁behalf	-11.3776
▁bizarre	-11.3776
▁borovsky	-11.3776
▁brannen	-11.3776
▁bulk	-11.3776
▁cafeteria	-11.3776
▁certificate	-11.3776
▁chariots	-11.3776
▁cheerleader	-11.3776
▁cinema	-11.3776
▁ciub	-11.3776
▁cleopatra	-11.3776
▁collapsing	-11.3776
▁companies	-11.3776
▁compound	-11.3776
▁conclude	-11.3776
▁connpod	-11.3776
▁convenient	-11.3776
▁corrupt	-11.3776
▁crawford	-11.3776
▁cufflink	-11.3776
▁cuisine	-11.3776
▁curiosity	-11.3776
▁dammit	-11.3776
▁dennis	-11.3776
▁devastat	-11.3776
▁diabetic	-11.3776
▁disposal	-11.3776
▁dobler	-11.3776
▁earthquake	-11.3776
▁eduard	-11.3776
▁eleven	-11.3776
▁embrace	-11.3776
▁embryo	-11.3776
▁enormous	-11.3776
▁eusebios	-11.3776
▁georgie	-11.3776
▁gottschalk	-11.3776
▁grandkids	-11.3776
▁greece	-11.3776
▁gulia	-11.3776
▁gulliver	-11.3776
▁hammond	-11.3776
▁handkerchief	-11.3776
▁happily	-11.3776
▁harbor	-11.3776
▁hatherton	-11.3776
▁hedgehog	-11.3776
▁hispanic	-11.3776
▁hmmmmm	-11.3776
▁hobby	-11.3776
▁houston	-11.3776
▁inquisitor	-11.3776
▁intensifies	-11.3776
▁interrogation	-11.3776
▁intervention	-11.3776
▁janitor	-11.3776
▁jinhai	-11.3776
▁kiran	-11.3776
▁kopi	-11.3776
▁liquor	-11.3776
▁maclean	-11.3776
▁mahimahi	-11.3776
▁mainframe	-11.3776
▁maintenance	-11.3776
▁makebelieve	-11.3776
▁mamma	-11.3776
▁marvelous	-11.3776
▁merchant	-11.3776
▁mockingjay	-11.3776
▁molehill	-11.3776
▁motivation	-11.3776
▁nauseous	-11.3776
▁negotiate	-11.3776
▁negotiation	-11.3776
▁nitrogen	-11.3776
▁nouvelle	-11.3776
▁nowadays	-11.3776
▁oakenshield	-11.3776
▁offensive	-11.3776
▁onscreen	-11.3776
▁overwhelmed	-11.3776
▁palladium	-11.3776
▁penguin	-11.3776
▁perfume	-11.3776
▁pithom	-11.3776
▁platts	-11.3776
▁pookie	-11.3776
▁poseidon	-11.3776
▁promotion	-11.3776
▁refresh	-11.3776
▁revving	-11.3776
▁rhino	-11.3776
▁rookie	-11.3776
▁roosevelt	-11.3776
▁samurai	-11.3776
▁sattler	-11.3776
▁schmidt	-11.3776
▁scotch	-11.3776
▁shaky	-11.3776
▁shanghai	-11.3776
▁sidekick	-11.3776
▁sniffling	-11.3776
▁stawicki	-11.3776
▁stephanie	-11.3776
▁stimulate	-11.3776
▁substantial	-11.3776
▁switzerland	-11.3776
▁thermal	-11.3776
▁tragic	-11.3776
▁tremendous	-11.3776
▁triads	-11.3776
▁undercard	-11.3776
▁vantastic	-11.3776
▁vapid	-11.3776
▁veterinarian	-11.3776
▁vicinity	-11.3776
▁vitamin	-11.3776
▁vonnegut	-11.3776
▁wendy	-11.3776
▁windshield	-11.3776
▁worid	-11.3776
▁xanax	-11.3776
▁xavier	-11.3776
▁xibalba	-11.3776
▁yeeee	-11.3776
▁yield	-11.3776
▁zeppelin	-11.3776
▁alphabet	-11.3776
▁asteroid	-11.3776
▁conscious	-11.3776
▁consult	-11.3776
▁cunning	-11.3776
▁database	-11.3776
▁destined	-11.3776
▁embee	-11.3776
▁envoy	-11.3776
▁evelyn	-11.3776
▁explanation	-11.3776
▁gelé	-11.3776
▁grape	-11.3776
▁italian	-11.3776
▁landscape	-11.3776
▁maddox	-11.3776
▁nineteen	-11.3776
▁regain	-11.3776
▁scheme	-11.3776
▁seventeen	-11.3776
▁stroke	-11.3776
▁toppings	-11.3776
▁website	-11.3776
▁whereabouts	-11.3776
▁charging	-11.3776
▁clanging	-11.3776
▁clutch	-11.3776
▁dorm	-11.3776
▁dreamwalker	-11.3776
▁flare	-11.3776
▁fundrais	-11.3776
▁harmony	-11.3776
▁holmes	-11.3776
▁lewis	-11.3776
▁loaf	-11.3776
▁possum	-11.3776
▁ufo	-11.3776
▁vagina	-11.3776
▁butterfly	-11.3776
▁casino	-11.3776
▁homepage	-11.3776
▁howre	-11.3776
▁mutual	-11.3776
▁playdoh	-11.3776
▁reduce	-11.3776
▁sculpture	-11.3776
▁fiirt	-11.3776
halos	-11.3776
▁chrissake	-11.3776
▁delfi	-11.3776
▁natalie	-11.3776
▁scandal	-11.3776
▁tumbleweed	-11.3776
▁bliss	-11.3776
▁blueprints	-11.3776
▁gusto	-11.3776
▁diversion	-11.3776
▁transmission	-11.3776
▁levier	-11.3776
▁greasy	-11.3776
▁nedry	-11.3776
▁irrelevant	-11.3776
▁fiona	-11.3776
▁hardworking	-11.3776
▁forks	-11.3776
▁fumble	-11.3776
▁robbins	-11.3776
▁backbone	-11.3776
▁tyres	-11.3776
▁congratuiations	-11.3776
▁microwave	-11.3776
▁funky	-11.3776
▁binding	-11.3776
▁constitution	-11.3776
▁assuming	-11.3776
▁exwife	-11.3776
▁snitch	-11.3776
▁wheelchair	-11.3776
▁arles	-11.3776
▁laptop	-11.3776
▁reference	-11.3776
▁thudding	-11.3776
▁briefcase	-11.3776
▁bamberg	-11.3776
▁crisp	-11.3776
▁gesture	-11.3776
▁zelda	-11.3776
▁brandnew	-11.3776
▁demonstrat	-11.3776
▁holland	-11.3776
▁choy	-11.3776
▁clerk	-11.3776
▁barging	-11.3776
▁upload	-11.3776
▁authorities	-11.3776
▁britney	-11.3776
▁distress	-11.3776
▁whittle	-11.3776
▁edition	-11.3776
▁instagram	-11.3776
▁russellfield	-11.3776
▁carnal	-11.3776
▁hatred	-11.3776
▁kearney	-11.3776
▁elvis	-11.3776
▁fanfare	-11.3776
▁salmon	-11.3776
▁bouncing	-11.3776
▁resurrection	-11.3776
▁bidding	-11.3776
▁treason	-11.3776
▁chrys	-11.3776
▁denial	-11.3776
▁werewolf	-11.3776
▁microphone	-11.3776
▁slug	-11.3776
▁independence	-11.3776
▁unison	-11.3776
▁owned	-11.3776
▁frappe	-11.3776
▁obstacle	-11.3776
▁suntribune	-11.3776
▁graduating	-11.3776
▁babysit	-11.3776
▁honour	-11.3776
▁sheep	-11.3776
▁sherman	-11.3776
▁namani	-11.3776
▁receptionist	-11.3776
▁booze	-11.3776
▁texture	-11.3777
▁northeast	-11.3777
▁beware	-11.3777
▁degas	-11.3777
▁pudding	-11.3777
▁parole	-11.3777
▁neutral	-11.3777
▁sinkhole	-11.3777
omeda	-11.3777
▁finance	-11.3777
▁inbetween	-11.3777
▁establishment	-11.3777
▁beggar	-11.3777
▁righteous	-11.3777
▁harness	-11.3777
▁babysitting	-11.3777
▁ferber	-11.3777
▁cammie	-11.3777
▁venir	-11.3777
▁encore	-11.3777
▁entertainment	-11.3777
▁vibration	-11.3777
▁drownded	-11.3777
▁rebellion	-11.3777
▁dautre	-11.3777
▁tandy	-11.3777
▁climate	-11.3777
▁jamey	-11.3777
▁prank	-11.3777
▁dork	-11.3777
▁greetings	-11.3777
▁rosalie	-11.3777
▁blackbird	-11.3778
▁ferai	-11.3778
▁saign	-11.3778
▁spiritual	-11.3778
▁overall	-11.3778
▁pregnancy	-11.3778
▁unnecessary	-11.3778
▁leadership	-11.3778
▁pavel	-11.3778
▁controi	-11.3778
▁ruies	-11.3778
▁rash	-11.3778
▁ratio	-11.3778
▁whoohoo	-11.3778
▁bever	-11.3778
▁integr	-11.3778
▁norman	-11.3778
▁thresh	-11.3778
▁depth	-11.3778
▁odyssey	-11.3778
amér	-11.3778
▁roaches	-11.3778
▁graveyard	-11.3778
▁josh	-11.3778
▁snowball	-11.3778
igible	-11.3778
▁scum	-11.3778
▁cheerio	-11.3778
▁waltz	-11.3778
▁semi	-11.3779
▁hunk	-11.3779
▁delightful	-11.3779
▁grit	-11.3779
▁motts	-11.3779
ably	-11.3779
▁titanic	-11.3779
intellectual	-11.3779
▁holyfield	-11.3779
▁skinner	-11.3779
▁luke	-11.3779
▁mmmmm	-11.3779
▁bunker	-11.3779
▁ripper	-11.3779
▁ridge	-11.3779
▁belongings	-11.378
▁gamemaker	-11.378
▁archive	-11.378
▁eise	-11.378
▁arrivé	-11.378
▁servantless	-11.378
▁fright	-11.378
▁accusation	-11.378
▁griev	-11.378
▁yum	-11.378
▁hidin	-11.378
▁dixie	-11.3781
▁ahooh	-11.3781
▁ripping	-11.3781
▁probl	-11.3781
▁starboard	-11.3781
▁perish	-11.3781
▁ambition	-11.3781
▁logical	-11.3781
▁compass	-11.3782
veau	-11.3782
▁production	-11.3782
▁jewelry	-11.3783
▁facebook	-11.3783
▁ego	-11.3783
▁sweden	-11.3783
▁lighthouse	-11.3783
▁cmon	-11.3783
▁piggy	-11.3783
acious	-11.3783
▁hawaii	-11.3783
▁maii	-11.3783
▁sketch	-11.3783
▁sufficient	-11.3783
▁absorb	-11.3783
▁algorithm	-11.3783
▁pont	-11.3784
▁peril	-11.3784
▁amazed	-11.3784
▁boost	-11.3784
▁scottish	-11.3784
▁iater	-11.3784
▁joue	-11.3784
▁mieux	-11.3784
▁tauriel	-11.3785
▁paco	-11.3785
▁kneel	-11.3786
▁ciass	-11.3786
▁triple	-11.3786
▁affection	-11.3786
▁lynch	-11.3786
▁bugged	-11.3786
▁sittin	-11.3786
▁notion	-11.3786
▁item	-11.3787
▁republican	-11.3787
▁envy	-11.3787
▁stirr	-11.3787
▁condemned	-11.3787
▁offended	-11.3787
▁legit	-11.3787
▁commencer	-11.3787
▁nip	-11.3787
▁elm	-11.3787
▁donor	-11.3788
▁imagining	-11.3788
▁swan	-11.3788
idian	-11.3788
▁decorator	-11.3789
▁aww	-11.3789
▁stream	-11.3789
▁coil	-11.3789
▁kidney	-11.3789
▁pré	-11.3789
▁restored	-11.3789
lgia	-11.379
▁beh	-11.379
▁esp	-11.379
▁slot	-11.379
▁eff	-11.3791
▁bugger	-11.3791
▁hart	-11.3791
▁airline	-11.3791
▁peep	-11.3791
▁balin	-11.3791
▁bec	-11.3792
▁barge	-11.3792
▁slurping	-11.3792
▁admitted	-11.3792
▁breakdown	-11.3792
▁raving	-11.3792
▁mitch	-11.3793
apar	-11.3793
▁required	-11.3793
▁breaches	-11.3794
▁addicted	-11.3794
▁rejected	-11.3794
▁sustained	-11.3794
▁invested	-11.3794
▁wrestled	-11.3794
▁accuse	-11.3794
▁gem	-11.3795
▁dep	-11.3795
▁pep	-11.3796
▁fiancée	-11.3796
▁payback	-11.3796
▁stoke	-11.3796
▁smith	-11.3797
▁aaah	-11.3799
▁handcuffs	-11.3799
▁resources	-11.3799
▁silhouettes	-11.3799
▁cocky	-11.3799
▁enthusiastic	-11.38
away	-11.38
▁danielle	-11.38
▁hera	-11.38
tors	-11.3801
▁fini	-11.3801
▁jour	-11.3802
▁tornadoes	-11.3802
▁assimilated	-11.3802
▁tumor	-11.3802
▁everyday	-11.3803
▁accountant	-11.3803
quest	-11.3804
▁fax	-11.3805
▁metro	-11.3805
▁originally	-11.3805
▁thai	-11.3805
▁lung	-11.3806
▁exposed	-11.3806
▁null	-11.3807
▁compared	-11.3808
▁armies	-11.3808
▁apr	-11.3809
▁worm	-11.381
▁magn	-11.381
▁compatible	-11.3811
▁cork	-11.3811
▁evolved	-11.3811
astic	-11.3811
▁rustle	-11.3812
▁bravest	-11.3813
▁bathrooms	-11.3813
▁echoes	-11.3814
▁itit	-11.3814
▁switches	-11.3816
▁attracted	-11.3816
▁angeles	-11.3816
▁beaten	-11.3817
▁hugg	-11.3819
▁minima	-11.382
▁randy	-11.382
pass	-11.382
▁penis	-11.3821
ques	-11.3822
▁potion	-11.3823
▁emotionally	-11.3823
▁crowing	-11.3823
▁policeman	-11.3823
▁printed	-11.3824
▁resolve	-11.3824
▁vp	-11.3824
▁yu	-11.3824
▁recovered	-11.3825
▁melting	-11.3826
▁tuna	-11.3826
▁tomb	-11.3828
▁shutting	-11.3828
▁viens	-11.3829
▁detected	-11.383
▁sharply	-11.383
▁dull	-11.3832
▁grinding	-11.3833
▁wandering	-11.3833
▁flushed	-11.3833
▁legion	-11.3833
▁setup	-11.3834
▁chen	-11.3834
▁rockin	-11.3836
▁hawk	-11.3837
▁gloves	-11.3839
dict	-11.3839
▁cigarettes	-11.3839
▁seagulls	-11.3839
▁cones	-11.384
▁bruises	-11.384
▁creaks	-11.384
▁weed	-11.3841
▁loosen	-11.3843
▁bolt	-11.3844
▁printing	-11.3844
▁strongest	-11.3845
▁framed	-11.3848
était	-11.3849
▁launcher	-11.3852
▁insulted	-11.3853
▁sickle	-11.3854
▁followers	-11.3858
▁divorced	-11.3859
▁laide	-11.386
six	-11.3861
▁volunteered	-11.3861
▁slim	-11.3863
▁louder	-11.3863
▁mentor	-11.3865
▁taller	-11.3865
▁berry	-11.3866
▁heavenly	-11.3866
▁shorts	-11.3867
▁mé	-11.3867
▁tortured	-11.3869
▁deri	-11.387
▁skipping	-11.387
▁refused	-11.3872
iness	-11.3872
▁asses	-11.3873
▁sailing	-11.3876
▁bosses	-11.3876
▁roller	-11.3876
▁strain	-11.3877
▁cooky	-11.3877
▁prophets	-11.3881
▁milestones	-11.3881
▁huffs	-11.3881
▁ratings	-11.3881
▁plums	-11.3881
▁civilians	-11.3881
▁existed	-11.3883
▁whir	-11.3887
▁puke	-11.3887
stone	-11.3888
zt	-11.3888
▁surprises	-11.3894
▁gags	-11.3896
step	-11.3897
▁butch	-11.3898
▁chilly	-11.3901
▁napkins	-11.3905
▁sinking	-11.3909
▁bak	-11.3912
▁buckle	-11.3912
▁prey	-11.3918
▁arrangements	-11.3923
▁particles	-11.3923
▁charts	-11.3924
▁spite	-11.3925
▁junkie	-11.3927
▁overlook	-11.3935
▁blocked	-11.3936
▁missus	-11.3939
▁snapp	-11.3943
▁remained	-11.3944
▁sage	-11.395
▁marketing	-11.3951
▁import	-11.3955
▁hopeless	-11.3956
▁muss	-11.396
star	-11.3962
▁features	-11.3965
▁patterns	-11.3965
▁unf	-11.3968
▁quun	-11.3969
mont	-11.397
▁goof	-11.397
most	-11.3971
▁driven	-11.3975
▁realm	-11.3977
iii	-11.3983
▁cooked	-11.399
▁bonding	-11.399
▁failing	-11.4005
▁jordans	-11.4007
▁camels	-11.4008
▁attacks	-11.4016
▁thread	-11.4019
▁cracker	-11.4024
▁sticky	-11.4028
▁shipp	-11.4044
▁walkin	-11.4044
▁charged	-11.4046
▁shatters	-11.4047
▁demons	-11.4047
▁clams	-11.4049
▁japs	-11.405
▁sailors	-11.405
▁abst	-11.4072
late	-11.4073
▁protester	-11.4077
tory	-11.4079
▁bits	-11.4085
olini	-11.4086
▁classy	-11.4086
▁barks	-11.4088
▁limits	-11.4091
▁methods	-11.4092
▁samples	-11.4092
▁masks	-11.4092
▁inspires	-11.4093
▁pissing	-11.4098
yo	-11.4103
▁cardio	-11.4107
lim	-11.4119
▁engineers	-11.4122
▁fuller	-11.4125
▁bounds	-11.4134
▁elements	-11.4134
▁towels	-11.4134
▁dozens	-11.4134
▁fooled	-11.414
▁askin	-11.4142
▁sta	-11.4145
luc	-11.4149
▁lily	-11.4152
▁jacked	-11.4153
▁présent	-11.416
▁playin	-11.4162
▁canad	-11.4165
▁prayed	-11.4165
▁carrie	-11.4169
tynine	-11.4171
▁skeletons	-11.4177
▁dealt	-11.4179
lle	-11.418
▁hatch	-11.419
▁span	-11.4196
▁sleeper	-11.4198
▁execute	-11.4206
▁gigs	-11.4209
▁ram	-11.4209
▁missions	-11.421
▁alarmed	-11.4219
▁vandergelds	-11.4219
▁hid	-11.422
▁poster	-11.4224
▁heater	-11.4235
▁tricked	-11.4242
ight	-11.4245
▁dealer	-11.4251
▁aide	-11.4252
▁vip	-11.4259
ura	-11.426
▁includes	-11.4261
▁breasts	-11.4262
▁villages	-11.4262
▁armed	-11.4282
▁heroic	-11.4289
ization	-11.43
ubi	-11.4302
▁stinks	-11.4305
▁lining	-11.4306
▁seated	-11.4313
hon	-11.4319
▁beautifully	-11.4327
▁organs	-11.4342
space	-11.4343
agile	-11.4345
▁counted	-11.4361
▁stayin	-11.4372
▁aaaah	-11.4374
rapping	-11.439
▁projects	-11.4391
▁damages	-11.4392
▁bri	-11.4415
▁repairs	-11.4417
▁interact	-11.4417
▁cru	-11.4423
▁trials	-11.4435
▁scars	-11.4436
▁flows	-11.4438
▁ski	-11.4441
apo	-11.4453
▁bars	-11.446
polis	-11.4461
vez	-11.4472
▁gen	-11.4479
▁interviews	-11.4516
lon	-11.4517
▁troubles	-11.4519
▁diseases	-11.4521
avo	-11.4526
▁fitz	-11.4529
cut	-11.4533
▁reaiize	-11.4549
rich	-11.4556
remy	-11.4558
esme	-11.4563
▁bulls	-11.4566
▁kit	-11.4571
▁counts	-11.4576
▁rides	-11.4584
▁pies	-11.4586
feit	-11.4594
iff	-11.4596
▁mit	-11.4603
▁creo	-11.4608
▁funerals	-11.4609
▁dub	-11.4628
aught	-11.4629
▁lad	-11.4631
hl	-11.464
▁anne	-11.4644
▁articles	-11.4653
▁seniors	-11.4653
ament	-11.4656
doo	-11.4661
mination	-11.4683
tro	-11.4684
▁but	-11.4685
▁shields	-11.469
ffs	-11.469
▁yank	-11.4695
▁mirrors	-11.4696
▁tans	-11.4703
▁persons	-11.4708
night	-11.4708
▁ga	-11.4721
bach	-11.4731
bat	-11.4736
▁objects	-11.4742
▁champions	-11.4742
▁drawl	-11.4768
▁interns	-11.4781
some	-11.4782
▁penetrate	-11.4784
ola	-11.4791
pper	-11.4821
hhh	-11.4823
▁nightmares	-11.4829
▁chains	-11.4831
bra	-11.4839
tale	-11.4844
▁hippo	-11.4871
▁pigs	-11.4873
▁nargles	-11.4873
arold	-11.4878
▁ped	-11.4882
▁soo	-11.4894
her	-11.4897
main	-11.4906
▁boards	-11.4925
tex	-11.4929
tations	-11.4931
▁roberts	-11.4956
▁storms	-11.4962
▁swords	-11.4964
▁cooks	-11.4969
▁programs	-11.497
▁sounding	-11.4977
tres	-11.4984
▁worker	-11.501
ark	-11.5025
bet	-11.5028
umpy	-11.5029
can	-11.5031
eft	-11.5036
eaving	-11.5036
▁bong	-11.5044
▁pad	-11.5047
ula	-11.5057
▁cleared	-11.5062
new	-11.5085
▁bottles	-11.5097
▁writers	-11.5104
tan	-11.511
bag	-11.5124
mb	-11.5128
▁clip	-11.5128
ope	-11.5129
▁blam	-11.5133
▁views	-11.5141
▁suspects	-11.5142
▁lure	-11.5144
▁legends	-11.5144
▁ré	-11.5147
▁tests	-11.5151
▁laisser	-11.5152
▁ideal	-11.517
▁ber	-11.5186
▁powering	-11.5199
▁yanke	-11.5209
▁ninety	-11.521
▁acc	-11.5226
put	-11.5248
bles	-11.5248
cop	-11.5256
iu	-11.5265
▁nom	-11.5276
kung	-11.528
heat	-11.5281
▁rou	-11.5285
▁stumbl	-11.5301
hy	-11.5305
▁ferr	-11.5306
arian	-11.5308
▁recorder	-11.5309
▁accidents	-11.5323
▁heavens	-11.5324
▁pros	-11.5332
▁rhythm	-11.5335
▁smok	-11.5368
▁readings	-11.5375
ening	-11.5375
▁parted	-11.5397
▁ru	-11.5415
autre	-11.5432
▁exam	-11.5451
▁tir	-11.5474
cus	-11.5476
too	-11.5482
▁char	-11.5483
spers	-11.5492
▁ple	-11.55
▁temp	-11.5505
▁reins	-11.5509
▁lash	-11.5524
né	-11.554
▁cu	-11.5543
▁ku	-11.5551
▁levels	-11.5551
▁judges	-11.5556
▁bol	-11.5561
lla	-11.5571
▁founder	-11.5586
pris	-11.5599
▁squeez	-11.56
tar	-11.5617
sav	-11.5617
pro	-11.5628
cast	-11.5628
▁bun	-11.5639
▁mus	-11.5648
▁soi	-11.5658
▁entre	-11.567
ummy	-11.5676
gh	-11.5677
▁peck	-11.5688
▁cakes	-11.5692
will	-11.5706
▁grin	-11.5717
▁cared	-11.5738
itzer	-11.5744
grams	-11.5774
▁corpora	-11.5775
▁dwell	-11.5778
fest	-11.5797
▁planes	-11.5797
▁bard	-11.58
▁yap	-11.5811
ification	-11.5819
▁hiya	-11.5822
▁mic	-11.5835
▁stag	-11.5836
▁trips	-11.5839
extended	-11.5843
▁winds	-11.5863
hot	-11.5879
▁arg	-11.5881
elli	-11.5887
bon	-11.5888
▁sno	-11.5901
armed	-11.5907
round	-11.592
▁unloa	-11.5921
flop	-11.5924
▁grandpas	-11.5928
▁fools	-11.593
▁mega	-11.5973
▁enti	-11.5997
rot	-11.602
▁spar	-11.6052
▁cough	-11.6065
graph	-11.6066
▁airplane	-11.6076
▁javelin	-11.6076
▁rev	-11.6077
▁coconut	-11.6085
▁cadet	-11.6085
▁rustler	-11.6086
▁decade	-11.6086
▁rumble	-11.6086
▁elder	-11.6087
▁particle	-11.6091
▁chart	-11.6093
▁unreal	-11.6093
▁wolve	-11.6096
▁pretzel	-11.6097
▁curtain	-11.6097
▁grownup	-11.6097
▁intention	-11.6098
▁giggle	-11.6099
▁arrangement	-11.6101
▁terrorist	-11.6103
▁hampton	-11.6103
igu	-11.6106
▁luca	-11.6108
▁twin	-11.6111
▁tourist	-11.6118
▁dim	-11.6121
▁brownie	-11.6122
▁abs	-11.6124
▁associate	-11.6137
▁slop	-11.6138
▁retr	-11.6145
ante	-11.6148
▁nasa	-11.615
tching	-11.616
▁at	-11.6165
▁lesion	-11.6168
▁quo	-11.617
ternal	-11.617
▁reap	-11.6173
tomy	-11.6179
tled	-11.618
▁memori	-11.618
veloci	-11.6187
▁decid	-11.6196
keeper	-11.6198
world	-11.6205
▁sensor	-11.6207
▁compli	-11.6208
ughton	-11.6209
filte	-11.621
▁manner	-11.621
thats	-11.6215
viens	-11.6215
cream	-11.6215
easley	-11.6216
bound	-11.6216
raptor	-11.6217
fleet	-11.6217
ladder	-11.6218
horn	-11.6218
grade	-11.6218
yeah	-11.6219
quil	-11.6219
dollar	-11.6219
color	-11.622
service	-11.622
gun	-11.622
life	-11.622
piece	-11.6221
word	-11.6221
sticks	-11.6221
tail	-11.6222
style	-11.6222
league	-11.6223
level	-11.6224
hair	-11.6224
hearted	-11.6225
▁gurgl	-11.6225
▁bolster	-11.6226
stack	-11.6228
▁dread	-11.6229
▁stunn	-11.6229
▁taunt	-11.623
fire	-11.6231
yearold	-11.6232
shop	-11.6234
sky	-11.6234
▁establish	-11.6239
▁inform	-11.624
▁deploy	-11.6241
je	-11.6241
▁fade	-11.6242
▁smack	-11.6242
icu	-11.6244
lexing	-11.6244
▁polic	-11.6246
▁disengage	-11.6247
▁joseph	-11.6248
pop	-11.6248
▁forgiv	-11.6249
ular	-11.6249
▁buri	-11.6252
▁wrestle	-11.6252
▁relieve	-11.6252
▁marche	-11.6255
▁probi	-11.6255
▁inspect	-11.6257
▁assimilate	-11.6257
▁greed	-11.6257
itch	-11.6259
▁admir	-11.626
▁inaudibl	-11.626
▁necessar	-11.6261
▁pleasur	-11.6261
▁defl	-11.6261
onanc	-11.6262
water	-11.6263
coming	-11.6263
▁consistent	-11.6264
▁conquer	-11.6264
aiso	-11.6264
▁practical	-11.6265
▁lauren	-11.6266
▁shaki	-11.6267
▁posse	-11.6267
▁velve	-11.6267
▁convention	-11.6268
home	-11.6268
▁ambitio	-11.6268
▁ernest	-11.6269
ology	-11.6269
▁easie	-11.627
ologne	-11.627
▁glen	-11.6272
▁mornin	-11.6272
▁intent	-11.6272
▁horrib	-11.6273
▁masturbat	-11.6273
blooded	-11.6273
▁exhibit	-11.6273
evolution	-11.6273
▁kiddin	-11.6273
▁temporar	-11.6273
▁sanit	-11.6273
ague	-11.6274
▁orient	-11.6274
▁wizard	-11.6274
▁squi	-11.6274
▁therap	-11.6274
▁innovati	-11.6275
▁outrage	-11.6275
▁manifest	-11.6275
▁kearn	-11.6275
▁bureau	-11.6276
▁occur	-11.6276
andahalf	-11.6276
misunderstanding	-11.6276
▁accordion	-11.6276
▁accurate	-11.6276
▁acquisition	-11.6276
▁adamantium	-11.6276
▁ajax	-11.6276
▁alaska	-11.6276
▁aleks	-11.6276
▁altitude	-11.6276
▁anscreaming	-11.6276
▁antisocial	-11.6276
▁applebees	-11.6276
▁arbitra	-11.6276
▁attaboy	-11.6276
▁australia	-11.6276
▁autobiograph	-11.6276
▁autumn	-11.6276
▁axelrod	-11.6276
▁aztec	-11.6276
▁barbecue	-11.6276
▁battalion	-11.6276
▁bazooka	-11.6276
▁benefactor	-11.6276
▁blankenship	-11.6276
▁blunt	-11.6276
▁boulevard	-11.6276
▁breastfeed	-11.6276
▁budapest	-11.6276
▁calendar	-11.6276
▁carriage	-11.6276
▁cepacia	-11.6276
▁chopstick	-11.6276
▁clatters	-11.6276
▁compensate	-11.6276
▁contender	-11.6276
▁convincing	-11.6276
▁cuckoo	-11.6276
▁deceased	-11.6276
▁diarrhea	-11.6276
▁diploma	-11.6276
▁discount	-11.6276
▁dispatch	-11.6276
▁dodgson	-11.6276
▁dégage	-11.6276
▁economy	-11.6276
▁einstein	-11.6276
▁endurance	-11.6276
▁entendu	-11.6276
▁esteemed	-11.6276
▁exhausting	-11.6276
▁exhusband	-11.6276
▁experiencing	-11.6276
▁expired	-11.6276
▁exploring	-11.6276
▁fascinating	-11.6276
▁fellgiebel	-11.6276
▁flank	-11.6276
▁fossil	-11.6276
▁fugitive	-11.6276
▁futile	-11.6276
▁gershom	-11.6276
▁ginoux	-11.6276
▁glorious	-11.6276
▁grandchildren	-11.6276
▁griffith	-11.6276
▁grizzly	-11.6276
▁grotesque	-11.6276
▁guldur	-11.6276
▁haawoo	-11.6276
▁hamburger	-11.6276
▁hehhehheh	-11.6276
▁hellhound	-11.6276
▁hunch	-11.6276
▁ignacio	-11.6276
▁imperfections	-11.6276
▁indestructible	-11.6276
▁industry	-11.6276
▁inherit	-11.6276
▁initial	-11.6276
▁intuition	-11.6276
▁inviting	-11.6276
▁jefferson	-11.6276
▁joshua	-11.6276
▁juiie	-11.6276
▁jukebox	-11.6276
▁jurisdiction	-11.6276
▁kegger	-11.6276
▁kuekuatsheu	-11.6276
▁lauderdale	-11.6276
▁lencre	-11.6276
▁lenihan	-11.6276
▁lennox	-11.6276
▁loneliness	-11.6276
▁luggage	-11.6276
▁maggot	-11.6276
▁malfunction	-11.6276
▁marmara	-11.6276
▁masseuse	-11.6276
▁matisse	-11.6276
▁mccallister	-11.6276
▁mccleod	-11.6276
▁mcgee	-11.6276
▁meadow	-11.6276
▁memorable	-11.6276
▁memphis	-11.6276
▁mercedes	-11.6276
▁mercenaries	-11.6276
▁mercenary	-11.6276
▁mifflin	-11.6276
▁minimum	-11.6276
▁monument	-11.6276
▁mulcahy	-11.6276
▁muskrat	-11.6276
▁neighbourhood	-11.6276
▁nerscylla	-11.6276
▁nugget	-11.6276
▁october	-11.6276
▁omaha	-11.6276
▁orchard	-11.6276
▁orchid	-11.6276
▁overcome	-11.6276
▁overthrow	-11.6276
▁ozzy	-11.6276
▁paramedic	-11.6276
▁pasadena	-11.6276
▁paxton	-11.6276
▁pepperoni	-11.6276
▁perception	-11.6276
▁physician	-11.6276
▁pledge	-11.6276
▁pliers	-11.6276
▁poignées	-11.6276
▁popcorn	-11.6276
▁popuiar	-11.6276
▁poverty	-11.6276
▁precautions	-11.6276
▁prejudice	-11.6276
▁presumably	-11.6276
▁presume	-11.6276
▁pronounce	-11.6276
▁proximity	-11.6276
▁qualities	-11.6276
▁quinlan	-11.6276
▁raijin	-11.6276
▁rapidly	-11.6276
▁regulation	-11.6276
▁regulator	-11.6276
▁rehab	-11.6276
▁religion	-11.6276
▁renaissance	-11.6276
▁resort	-11.6276
▁rhinehart	-11.6276
▁satisfaction	-11.6276
▁satisfy	-11.6276
▁scenario	-11.6276
▁sciatic	-11.6276
▁scrambled	-11.6276
▁scrub	-11.6276
▁shepherd	-11.6276
▁shrikethorn	-11.6276
▁singapore	-11.6276
▁sniffs	-11.6276
▁spandex	-11.6276
▁specimen	-11.6276
▁specs	-11.6276
▁spontaneous	-11.6276
▁suicidal	-11.6276
▁supermarket	-11.6276
▁tethered	-11.6276
▁theatre	-11.6276
▁thrashing	-11.6276
▁tobacco	-11.6276
▁tresckow	-11.6276
▁tshirt	-11.6276
▁turkish	-11.6276
▁typical	-11.6276
▁unacceptable	-11.6276
▁undefeated	-11.6276
▁velcro	-11.6276
▁vessel	-11.6276
▁virtual	-11.6276
▁walmart	-11.6276
▁watermelon	-11.6276
▁weasel	-11.6276
▁wheezing	-11.6276
▁whichever	-11.6276
▁wisdom	-11.6276
▁wookiee	-11.6276
▁wrestling	-11.6276
▁yogurt	-11.6276
▁abuse	-11.6276
▁audible	-11.6276
▁blares	-11.6276
▁carousel	-11.6276
▁category	-11.6276
▁christopher	-11.6276
▁closure	-11.6276
▁darpa	-11.6276
▁defence	-11.6276
▁duffy	-11.6276
▁endroit	-11.6276
▁evita	-11.6276
▁giasses	-11.6276
▁gulf	-11.6276
▁hotmail	-11.6276
▁manipulat	-11.6276
▁morehouse	-11.6276
▁mundi	-11.6276
▁omega	-11.6276
▁poodle	-11.6276
▁rigged	-11.6276
▁sponge	-11.6276
▁strangle	-11.6276
▁supérieure	-11.6276
▁swedish	-11.6276
▁termination	-11.6276
▁viceroy	-11.6276
▁warbling	-11.6276
▁bogey	-11.6276
▁bueno	-11.6276
▁bureaucrat	-11.6276
▁congrats	-11.6276
▁dairy	-11.6276
▁dossier	-11.6276
▁fiction	-11.6276
▁gospel	-11.6276
▁identity	-11.6276
▁levine	-11.6276
▁madison	-11.6276
▁neckbone	-11.6276
▁registr	-11.6276
▁reinforcements	-11.6276
▁teddyfier	-11.6276
▁thumper	-11.6276
▁vanished	-11.6276
▁contempt	-11.6276
▁devine	-11.6276
▁carpenter	-11.6276
▁cupboards	-11.6276
▁donuts	-11.6276
▁falter	-11.6276
▁lysine	-11.6276
▁settling	-11.6276
▁vadim	-11.6276
▁wrb	-11.6276
▁bentley	-11.6276
▁capacity	-11.6276
▁cereal	-11.6276
▁mobiliz	-11.6276
▁obtain	-11.6276
▁reich	-11.6276
▁respirator	-11.6276
▁sausage	-11.6276
▁bacteri	-11.6276
▁chandra	-11.6276
▁gracie	-11.6276
▁nonstop	-11.6276
▁noticing	-11.6276
▁ransom	-11.6276
▁recycl	-11.6276
▁sputter	-11.6276
▁withstand	-11.6276
▁avatar	-11.6276
▁shudder	-11.6276
▁frankenstein	-11.6276
▁fungus	-11.6276
▁rational	-11.6276
▁strut	-11.6276
▁valor	-11.6276
▁oubli	-11.6276
relevant	-11.6276
▁fumes	-11.6276
▁merit	-11.6276
▁imposter	-11.6276
▁grease	-11.6276
▁crater	-11.6276
▁horrifi	-11.6276
▁larson	-11.6276
erreur	-11.6276
poochie	-11.6276
▁departure	-11.6276
▁booger	-11.6276
▁buddha	-11.6276
▁contaminated	-11.6276
▁electromagnetic	-11.6276
▁ostin	-11.6276
▁scumbag	-11.6276
▁stump	-11.6276
▁usuaiiy	-11.6276
▁barrette	-11.6276
▁sérieux	-11.6276
▁tombstone	-11.6276
▁oakland	-11.6276
▁cnn	-11.6276
▁zoologist	-11.6276
▁kitten	-11.6276
▁teacup	-11.6276
▁upfront	-11.6276
▁couteau	-11.6276
▁titties	-11.6276
▁pigeon	-11.6276
▁voic	-11.6276
▁welcoming	-11.6276
▁amusing	-11.6276
▁courtesy	-11.6276
▁muller	-11.6276
▁unrest	-11.6276
▁elbow	-11.6276
▁psychological	-11.6276
▁snoopy	-11.6276
▁humiliating	-11.6276
▁senator	-11.6276
▁clanking	-11.6276
▁psychology	-11.6276
▁absence	-11.6276
▁fading	-11.6276
▁tweak	-11.6276
▁sixtyfive	-11.6276
▁unseen	-11.6276
▁kiddies	-11.6276
▁devrai	-11.6276
▁duckhunting	-11.6276
▁perignon	-11.6276
induc	-11.6276
▁radar	-11.6276
▁lovebirds	-11.6276
▁jarrive	-11.6276
▁bloat	-11.6276
▁titanium	-11.6276
▁apocalypse	-11.6276
▁celui	-11.6276
▁choix	-11.6276
▁drummer	-11.6276
▁rughead	-11.6276
▁upgrade	-11.6276
▁accomplice	-11.6276
▁distinctive	-11.6276
▁gender	-11.6276
▁tuele	-11.6276
▁confusion	-11.6276
▁transition	-11.6276
▁ignition	-11.6276
▁keller	-11.6276
▁convers	-11.6276
▁fasse	-11.6276
▁ppd	-11.6276
▁stride	-11.6276
▁donne	-11.6276
▁fonzie	-11.6276
▁evacuation	-11.6276
▁resume	-11.6276
▁visage	-11.6276
▁argue	-11.6276
▁underground	-11.6276
▁bleu	-11.6276
▁jessica	-11.6276
▁underwater	-11.6276
▁copilot	-11.6276
▁destructive	-11.6276
▁excessive	-11.6276
▁humain	-11.6276
▁tijuana	-11.6276
▁deception	-11.6276
fram	-11.6276
▁organizing	-11.6276
▁election	-11.6276
▁documents	-11.6276
▁inconvenience	-11.6276
▁biology	-11.6276
▁definit	-11.6276
▁maximum	-11.6276
▁belgian	-11.6277
▁bracelets	-11.6277
▁turd	-11.6277
▁vista	-11.6277
▁filmmaker	-11.6277
▁granddaughter	-11.6277
▁hamid	-11.6277
▁straw	-11.6277
▁disturbance	-11.6277
▁gillman	-11.6277
▁referee	-11.6277
▁endorsement	-11.6277
▁appris	-11.6277
▁barbara	-11.6277
▁overnight	-11.6277
▁improvement	-11.6277
▁reneg	-11.6277
▁resolution	-11.6277
▁broccoli	-11.6277
▁lemonade	-11.6277
▁plaza	-11.6277
▁preserv	-11.6277
▁scanning	-11.6277
▁paui	-11.6277
▁zach	-11.6277
▁panties	-11.6277
▁psst	-11.6277
▁yuck	-11.6277
▁assistance	-11.6277
▁bonfire	-11.6277
▁café	-11.6277
▁behold	-11.6277
▁pilate	-11.6277
▁wigging	-11.6277
▁risd	-11.6277
▁buzzline	-11.6277
▁cubic	-11.6277
▁mellow	-11.6277
▁keymaster	-11.6277
▁haku	-11.6277
▁spinning	-11.6277
▁strippers	-11.6277
▁orientation	-11.6277
▁ashore	-11.6277
▁pourrait	-11.6277
▁yyou	-11.6277
▁chinatown	-11.6278
▁gimli	-11.6278
cdonald	-11.6278
▁eternal	-11.6278
▁apprehen	-11.6278
▁subtle	-11.6278
▁terrace	-11.6278
▁maddie	-11.6278
evich	-11.6278
▁trillion	-11.6278
▁rejection	-11.6278
▁alexio	-11.6278
▁kidnappers	-11.6278
▁darla	-11.6278
▁kitty	-11.6278
▁aggie	-11.6278
▁whiz	-11.6278
▁harvest	-11.6278
▁kays	-11.6278
▁mutters	-11.6278
▁testify	-11.6278
▁strap	-11.6278
▁deceive	-11.6278
▁grazie	-11.6278
monos	-11.6278
▁prospect	-11.6278
▁refill	-11.6278
▁popping	-11.6278
▁quote	-11.6278
▁specifically	-11.6278
▁discs	-11.6278
▁crude	-11.6278
▁mentalism	-11.6278
▁phiianthropy	-11.6278
▁strategy	-11.6278
▁laketown	-11.6278
▁thorn	-11.6278
▁mediocre	-11.6278
▁volatile	-11.6278
▁pipeline	-11.6278
▁northern	-11.6278
▁coven	-11.6278
▁heir	-11.6279
▁cherish	-11.6279
▁turbo	-11.6279
▁exhibition	-11.6279
▁trex	-11.6279
ystic	-11.6279
▁gunfire	-11.6279
▁bargeman	-11.6279
▁punishment	-11.6279
▁whitman	-11.6279
▁stamp	-11.6279
▁motive	-11.6279
▁unemployed	-11.6279
▁macho	-11.6279
▁weeble	-11.6279
▁khan	-11.6279
▁overboard	-11.6279
▁tiff	-11.6279
▁derni	-11.6279
▁faii	-11.6279
▁intel	-11.6279
▁bienven	-11.6279
▁extinction	-11.6279
▁petri	-11.6279
ccino	-11.628
▁kilo	-11.628
▁tj	-11.628
▁chanel	-11.628
▁patrol	-11.628
▁kenne	-11.628
▁sororities	-11.628
▁revolutionary	-11.628
▁bodyguard	-11.628
▁glue	-11.628
▁blondie	-11.628
▁starfish	-11.628
▁patent	-11.628
▁bologna	-11.628
▁organism	-11.628
▁siide	-11.628
▁fiim	-11.628
▁voto	-11.628
▁vik	-11.628
▁marsh	-11.6281
▁smite	-11.6281
▁poisonous	-11.6281
dorf	-11.6281
▁finai	-11.6281
▁prosecutor	-11.6281
▁contra	-11.6281
▁jeanette	-11.6281
▁stallion	-11.6281
▁sentimental	-11.6281
▁langley	-11.6281
▁minus	-11.6281
▁nitro	-11.6281
▁caveman	-11.6281
▁courtroom	-11.6281
▁blueberry	-11.6282
▁heist	-11.6282
▁roundhouse	-11.6282
▁construct	-11.6282
▁thatthat	-11.6282
▁dramatically	-11.6282
▁coffin	-11.6282
▁bonnet	-11.6282
illus	-11.6282
▁siege	-11.6282
▁refer	-11.6283
▁pierce	-11.6283
▁whup	-11.6283
chancellor	-11.6283
▁confession	-11.6283
▁plow	-11.6283
▁balcony	-11.6283
▁revel	-11.6283
▁passage	-11.6283
▁ghostwriter	-11.6283
▁educat	-11.6283
▁suz	-11.6283
mnh	-11.6283
▁iuck	-11.6283
▁supervisor	-11.6284
▁innoc	-11.6284
▁flicker	-11.6284
▁mold	-11.6284
▁kink	-11.6284
▁scootin	-11.6284
▁avion	-11.6284
manship	-11.6284
▁sunlight	-11.6284
▁portable	-11.6284
▁eden	-11.6284
▁keyboard	-11.6285
▁neat	-11.6285
▁whatll	-11.6285
▁ballroom	-11.6285
▁laurent	-11.6285
▁korean	-11.6285
▁carrot	-11.6285
▁miguel	-11.6286
ography	-11.6286
▁alignment	-11.6286
▁chemistry	-11.6286
▁intensity	-11.6286
▁seatbelt	-11.6286
▁budget	-11.6286
▁physics	-11.6286
▁injection	-11.6286
▁housekeeper	-11.6286
▁valid	-11.6286
▁madden	-11.6287
▁ethic	-11.6287
▁nutrition	-11.6287
forcing	-11.6287
nique	-11.6288
▁chérie	-11.6288
▁combo	-11.6288
▁organized	-11.6288
▁conci	-11.6288
▁florist	-11.6288
ragged	-11.6288
▁acceptable	-11.6289
érer	-11.6289
▁foodland	-11.6289
▁bandage	-11.6289
yah	-11.6289
▁speechless	-11.629
▁playlist	-11.629
▁bombur	-11.629
▁fathead	-11.629
▁popped	-11.629
▁deput	-11.629
▁sortir	-11.629
▁asian	-11.629
▁sandman	-11.629
▁torn	-11.629
▁accomplished	-11.629
▁departed	-11.629
▁flattered	-11.629
▁explorer	-11.6291
▁nina	-11.6291
▁domino	-11.6291
▁imply	-11.6291
▁precisely	-11.6291
▁sterilize	-11.6291
▁brew	-11.6291
▁breakthrough	-11.6291
▁ewwy	-11.6291
▁raw	-11.6292
▁studied	-11.6292
▁immun	-11.6292
▁myr	-11.6292
▁sash	-11.6292
▁fig	-11.6292
▁spies	-11.6292
▁tapping	-11.6293
▁indicated	-11.6293
▁fitting	-11.6294
▁participate	-11.6294
▁objective	-11.6294
eurys	-11.6295
▁alike	-11.6295
▁tickled	-11.6296
▁aff	-11.6296
▁rave	-11.6296
▁coff	-11.6296
▁frustrating	-11.6297
▁neighing	-11.6297
▁grumble	-11.6297
▁hollering	-11.6297
▁overcharge	-11.6297
▁homing	-11.6297
▁veena	-11.6297
▁trickortreating	-11.6297
▁meowing	-11.6297
▁sync	-11.6298
egar	-11.6298
▁hanson	-11.6298
▁maxson	-11.6299
▁cellar	-11.6299
▁continuing	-11.6299
▁whisk	-11.63
▁publisher	-11.63
▁african	-11.63
▁encrypted	-11.63
▁dominating	-11.6301
▁truthfully	-11.6301
▁wealthy	-11.6302
▁premiere	-11.6302
▁analyze	-11.6303
▁ounce	-11.6303
▁appropriate	-11.6303
▁competitive	-11.6303
▁forged	-11.6303
▁écoute	-11.6303
▁josepha	-11.6304
▁marina	-11.6304
▁bourgeois	-11.6304
▁dried	-11.6305
▁eel	-11.6305
▁panem	-11.6305
▁mell	-11.6306
mmies	-11.6306
▁gina	-11.6306
▁pond	-11.6306
▁caterpillars	-11.6307
▁fathoms	-11.6307
▁hyenas	-11.6307
▁snarls	-11.6307
▁ridin	-11.6307
▁generate	-11.6307
▁faintly	-11.6307
▁medal	-11.6307
▁sho	-11.6308
▁bravery	-11.6308
▁peur	-11.6309
▁booby	-11.6309
▁imprinted	-11.631
▁smacked	-11.631
▁complaining	-11.631
▁surrounding	-11.631
▁hometown	-11.6311
▁heath	-11.6311
▁huffing	-11.6311
▁jinxy	-11.6311
▁ditch	-11.6312
▁fatherland	-11.6313
orry	-11.6314
▁oppos	-11.6315
▁realised	-11.6315
▁fearless	-11.6315
▁munch	-11.6315
pstick	-11.6315
ofthe	-11.6315
▁photography	-11.6316
▁sap	-11.6316
▁collar	-11.6317
▁jesse	-11.6317
▁bushes	-11.6317
▁cameraman	-11.6318
▁nik	-11.6318
ecil	-11.6318
▁crooked	-11.6319
▁recommended	-11.6319
▁bulletin	-11.6321
▁accused	-11.6322
▁increased	-11.6323
▁pharmac	-11.6323
▁auu	-11.6324
▁packers	-11.6325
▁mori	-11.6326
▁madman	-11.6326
▁judd	-11.6326
cs	-11.6327
▁desperately	-11.6327
▁cf	-11.6328
yre	-11.633
▁leaky	-11.633
▁duh	-11.6331
▁sip	-11.6331
▁gamin	-11.6331
▁deeds	-11.6331
▁barre	-11.6331
▁sello	-11.6332
▁coaster	-11.6332
▁blaze	-11.6333
▁awaken	-11.6333
▁pic	-11.6333
▁mil	-11.6333
▁counties	-11.6334
▁iight	-11.6334
ken	-11.6334
▁mettre	-11.6334
▁followup	-11.6334
soothe	-11.6335
▁pup	-11.6335
▁authori	-11.6335
▁tux	-11.6335
▁achieved	-11.6336
▁parisian	-11.6337
▁arme	-11.6337
▁addresses	-11.6337
▁streaming	-11.6338
▁promising	-11.6338
▁possessed	-11.6339
nori	-11.6339
▁jall	-11.634
▁willie	-11.6342
▁wink	-11.6344
▁cape	-11.6348
▁distracted	-11.6348
▁presses	-11.6349
vy	-11.6349
▁shade	-11.635
▁barnes	-11.635
▁mocking	-11.6351
▁disappointing	-11.6352
▁ciao	-11.6352
loo	-11.6352
nching	-11.6354
▁restless	-11.6354
▁wes	-11.6356
▁any	-11.6356
▁tack	-11.6357
▁raging	-11.6359
▁applies	-11.6359
▁heures	-11.636
▁consequences	-11.636
▁fingerprints	-11.636
▁mushrooms	-11.636
▁pharaohs	-11.636
▁poppins	-11.636
▁vocals	-11.636
▁nazis	-11.636
▁wails	-11.636
▁meows	-11.636
▁ferti	-11.6362
▁scraping	-11.6363
▁ruby	-11.6364
▁takin	-11.6364
▁caiiing	-11.6366
▁shattering	-11.6366
▁unto	-11.6366
▁hacked	-11.6368
buster	-11.637
▁nug	-11.6371
▁marie	-11.6371
esday	-11.6372
▁activated	-11.6372
▁iso	-11.6373
▁brut	-11.6375
▁starve	-11.6376
▁helena	-11.6376
▁gua	-11.6376
▁stressed	-11.6377
▁escorted	-11.6377
▁coop	-11.6378
▁gest	-11.6378
▁ioser	-11.6381
▁queers	-11.6381
▁rebuild	-11.6388
▁publicly	-11.6391
▁bront	-11.6393
▁chewing	-11.6394
▁protesting	-11.6395
▁rib	-11.6396
▁responded	-11.6397
▁texted	-11.6399
▁slay	-11.6399
limp	-11.6401
▁bert	-11.6404
fold	-11.641
▁protector	-11.641
▁pitt	-11.6411
▁warmer	-11.6411
▁snorts	-11.6414
▁crepes	-11.6415
▁meatballs	-11.6415
▁olympics	-11.6415
▁curves	-11.6415
▁howls	-11.6415
▁headlines	-11.6415
roll	-11.6415
▁taiked	-11.6417
▁gin	-11.642
▁rewrites	-11.642
▁iiver	-11.642
▁overhear	-11.6421
▁tracker	-11.6421
▁earning	-11.6423
ono	-11.6424
high	-11.6426
▁vine	-11.6427
▁owl	-11.643
▁imprint	-11.6431
▁yale	-11.6432
▁healing	-11.6434
▁bursting	-11.6435
▁ohoh	-11.6437
▁assumed	-11.6442
▁sto	-11.6444
rites	-11.6444
▁voted	-11.6445
▁prest	-11.6445
▁monthly	-11.6446
▁gown	-11.6447
▁tubes	-11.6449
▁weirdo	-11.6453
▁smoothie	-11.6453
viet	-11.6455
▁gathered	-11.6456
▁ew	-11.6457
▁challenged	-11.6461
▁dangerously	-11.6461
▁processed	-11.6465
▁seth	-11.6466
▁arch	-11.6466
▁ribs	-11.6467
▁revs	-11.6469
▁cadets	-11.647
▁coconuts	-11.647
▁decades	-11.647
▁grownups	-11.647
▁elders	-11.647
▁intentions	-11.647
▁rumbles	-11.647
▁manners	-11.6471
bert	-11.6474
▁accepted	-11.6476
▁confirming	-11.6477
▁frankly	-11.6478
▁mikey	-11.6478
▁backyard	-11.648
▁smarter	-11.648
▁friggin	-11.648
opy	-11.6481
▁holder	-11.6482
▁ford	-11.6482
ensity	-11.6484
▁rab	-11.649
▁discussed	-11.6494
aro	-11.6494
▁rushed	-11.6495
▁brownies	-11.6498
▁goose	-11.6499
▁ache	-11.6503
▁sincere	-11.6503
▁drinkin	-11.6504
▁freaked	-11.6508
vant	-11.651
falls	-11.6517
▁chained	-11.6517
▁electronics	-11.6525
▁temples	-11.6525
▁regions	-11.6526
▁assess	-11.6526
▁mango	-11.6526
▁increases	-11.6529
▁crushing	-11.6529
ires	-11.6532
▁gathering	-11.6534
▁hottie	-11.6534
▁passer	-11.6537
▁seule	-11.6538
▁hors	-11.6541
appelle	-11.6544
▁sweating	-11.6546
▁tot	-11.6547
▁dumping	-11.6547
ground	-11.6549
▁tater	-11.6555
▁accessed	-11.6555
▁liz	-11.6556
▁jumpy	-11.6556
▁bossy	-11.6556
▁noted	-11.6563
▁seti	-11.6564
▁completed	-11.6567
▁stings	-11.6576
▁judged	-11.6578
load	-11.6579
▁coins	-11.6581
▁cowards	-11.6581
▁faggots	-11.6581
▁orphans	-11.6581
▁snacks	-11.6581
▁teammates	-11.6581
▁attractions	-11.6582
azar	-11.6582
▁blessings	-11.6582
▁generally	-11.6583
▁rushing	-11.659
erie	-11.6591
pack	-11.6595
▁calmly	-11.6596
eau	-11.6599
▁newman	-11.6613
▁formed	-11.6613
▁safer	-11.6616
▁seconde	-11.6617
▁sander	-11.6619
▁cocks	-11.6633
▁models	-11.6636
▁spears	-11.6637
▁arrows	-11.6637
▁sheets	-11.6637
▁sessions	-11.6637
▁blades	-11.6637
▁politicians	-11.6637
▁victims	-11.6637
▁techniques	-11.6637
▁titans	-11.6637
▁dearly	-11.6637
▁mem	-11.664
▁twe	-11.6641
▁lone	-11.665
taking	-11.6653
▁weekly	-11.6673
▁accessing	-11.6675
fur	-11.668
atomic	-11.6684
notch	-11.6686
▁repeating	-11.6687
▁clones	-11.6693
una	-11.6696
▁needles	-11.6702
com	-11.6705
▁rés	-11.6707
▁arrives	-11.6718
▁porte	-11.672
▁tracked	-11.672
▁fucked	-11.6722
oval	-11.6732
▁pressing	-11.6732
has	-11.6733
▁lightly	-11.674
lums	-11.6742
▁snoo	-11.6743
▁appreciated	-11.6743
nsa	-11.6743
▁strippe	-11.6744
lore	-11.6747
▁warrants	-11.675
why	-11.6758
▁forming	-11.6758
▁enfant	-11.6759
▁wakey	-11.676
▁moist	-11.6764
▁rely	-11.6767
iar	-11.6774
▁cours	-11.6782
shire	-11.679
▁peas	-11.6794
▁warming	-11.6816
tus	-11.6817
omp	-11.6818
▁journal	-11.6825
▁differently	-11.6827
osaurus	-11.6829
▁ban	-11.683
▁blanks	-11.6845
▁aha	-11.6847
▁bangs	-11.6859
ayer	-11.6863
▁helicopters	-11.6864
▁spheres	-11.6864
▁challeng	-11.6865
▁dy	-11.687
▁regards	-11.687
iana	-11.6881
▁reps	-11.6888
▁parlez	-11.6897
▁watcher	-11.6909
agonal	-11.6913
▁borders	-11.6921
▁treasures	-11.6921
▁volunteers	-11.6922
▁eco	-11.6927
▁assassins	-11.693
ggie	-11.6946
▁vac	-11.6958
▁showin	-11.6971
ool	-11.6974
▁stocks	-11.6976
▁chirps	-11.6978
▁texts	-11.6982
achet	-11.6992
▁programme	-11.6993
▁identifi	-11.6995
wed	-11.6998
▁cradle	-11.6998
▁liver	-11.7007
▁infiltrate	-11.7007
▁outsider	-11.7009
▁feared	-11.702
stein	-11.7025
▁arteri	-11.7034
now	-11.7043
▁represents	-11.7049
▁relaxed	-11.7057
arm	-11.7062
sper	-11.7069
cats	-11.7075
▁reschedule	-11.708
pping	-11.7086
▁camper	-11.709
▁lookit	-11.7092
▁contacted	-11.7098
▁manufacture	-11.7098
▁choppe	-11.7101
▁jumping	-11.7105
▁sai	-11.7107
▁sins	-11.7115
anne	-11.7119
ouch	-11.712
▁exhal	-11.7142
▁experiments	-11.7151
▁opinions	-11.7151
▁sources	-11.7151
urge	-11.7168
ght	-11.7184
cé	-11.7189
▁smelled	-11.719
▁grav	-11.7209
▁novels	-11.7209
▁professors	-11.7209
▁jews	-11.7211
▁rust	-11.7235
▁fishing	-11.7242
ank	-11.7242
tched	-11.7243
▁cups	-11.7264
lette	-11.7267
▁snakes	-11.7267
▁bends	-11.7271
▁deadly	-11.7271
ington	-11.7276
dental	-11.7306
▁sca	-11.7313
▁channels	-11.7326
▁weights	-11.7326
▁tattoos	-11.7326
iight	-11.7327
▁nun	-11.7327
▁conf	-11.7379
maker	-11.7379
▁niggers	-11.7385
▁giants	-11.7385
▁movements	-11.7386
self	-11.7389
vette	-11.7396
▁jewels	-11.7439
▁cannons	-11.7444
rement	-11.7446
▁cleaner	-11.7448
antic	-11.7451
▁cre	-11.7469
▁mack	-11.7476
une	-11.7517
iine	-11.7533
▁spi	-11.7539
ux	-11.7545
▁attempts	-11.7562
▁conserv	-11.7609
▁untie	-11.7613
▁retourn	-11.763
native	-11.7673
position	-11.7677
ooh	-11.768
▁cracks	-11.7685
▁imagina	-11.7697
ours	-11.7701
vito	-11.7715
ées	-11.7722
mmage	-11.7727
▁travaill	-11.7731
▁swor	-11.7735
▁congratulate	-11.7739
▁proto	-11.7745
▁moos	-11.7752
▁aurai	-11.7771
iggle	-11.7777
alle	-11.7785
hhhh	-11.7803
nut	-11.7858
▁initiat	-11.7879
teau	-11.7879
▁travail	-11.788
▁paddl	-11.7896
▁liter	-11.7898
▁slo	-11.7902
ata	-11.7911
▁hav	-11.7922
ckin	-11.7923
▁lined	-11.7945
thatch	-11.7955
▁gag	-11.7961
▁skat	-11.7971
cane	-11.8011
▁padd	-11.8032
▁pint	-11.8038
▁ador	-11.8039
mic	-11.8058
▁measur	-11.8063
ix	-11.8087
▁domin	-11.8098
gent	-11.8126
▁hive	-11.8136
rns	-11.814
▁attendan	-11.8144
obbing	-11.8145
▁chr	-11.8153
indy	-11.8155
▁introduc	-11.8155
▁ob	-11.8158
née	-11.8163
▁lind	-11.8261
▁pou	-11.8262
▁translat	-11.8296
oph	-11.8323
▁prof	-11.8358
▁beau	-11.8368
iving	-11.8379
tico	-11.8379
▁dent	-11.8398
▁spl	-11.8408
▁tit	-11.8413
▁traitoro	-11.8424
▁comp	-11.8439
▁patt	-11.844
▁berg	-11.845
▁defian	-11.8461
▁oy	-11.8473
rait	-11.8473
▁ko	-11.8477
▁mare	-11.849
▁abo	-11.851
▁poi	-11.8564
rant	-11.8579
zzi	-11.8581
hey	-11.8584
brow	-11.8594
eca	-11.8622
stress	-11.8624
ture	-11.8631
chu	-11.8658
▁tué	-11.8682
▁swo	-11.8687
ffe	-11.87
erving	-11.8714
identified	-11.8737
lance	-11.8739
▁aura	-11.8787
▁fili	-11.8788
booked	-11.8813
▁diagnos	-11.8815
arri	-11.885
istic	-11.8861
ift	-11.8878
mine	-11.8894
▁syn	-11.8906
▁devot	-11.8913
▁aid	-11.8941
ule	-11.8947
ple	-11.8972
▁shir	-11.8973
cson	-11.9013
yi	-11.9022
olar	-11.9052
urre	-11.9089
▁rape	-11.91
▁isolat	-11.9109
▁fau	-11.912
▁salu	-11.9129
named	-11.9145
nium	-11.9156
▁electr	-11.9184
tray	-11.9198
idé	-11.9201
▁thems	-11.9204
▁pimp	-11.9221
▁chap	-11.9254
making	-11.9262
▁statu	-11.9267
▁seul	-11.927
▁cont	-11.9271
pending	-11.9298
▁uni	-11.9321
▁arche	-11.9321
▁itch	-11.9324
▁trembl	-11.9326
nite	-11.9326
hit	-11.9339
oye	-11.934
view	-11.9342
stage	-11.9343
robe	-11.9344
chen	-11.9344
▁hol	-11.9345
pressed	-11.9355
▁demo	-11.9358
▁howl	-11.9375
▁huff	-11.9378
formation	-11.9384
▁puri	-11.9387
▁bran	-11.9391
▁snatche	-11.9392
▁rig	-11.9396
win	-11.9401
east	-11.9401
aya	-11.9402
▁compar	-11.9405
▁veu	-11.9406
▁require	-11.9407
▁conclusion	-11.941
▁ingredient	-11.941
▁waffle	-11.941
▁cullen	-11.941
▁cocktail	-11.941
▁egyptian	-11.9411
▁patron	-11.9412
▁appetite	-11.9412
▁thigh	-11.9413
cou	-11.9413
▁crepe	-11.9419
▁olympic	-11.9419
▁snort	-11.942
▁bathe	-11.9423
▁meatball	-11.9423
▁prophet	-11.9424
▁lam	-11.9424
▁milestone	-11.9425
▁napkin	-11.9425
▁civilian	-11.9428
▁rug	-11.9428
▁curve	-11.9429
▁scav	-11.9429
▁neighbor	-11.9429
▁gap	-11.943
▁diablo	-11.9432
epid	-11.9435
▁yelp	-11.9435
▁passenger	-11.9435
▁coordinate	-11.9436
▁persian	-11.9436
▁rewrite	-11.9436
▁plum	-11.9438
▁troop	-11.944
▁squat	-11.944
▁fuckin	-11.9443
▁nin	-11.9444
▁headline	-11.945
▁berm	-11.9451
▁volt	-11.9452
▁provid	-11.9458
▁smuggl	-11.9469
▁refus	-11.9485
▁shack	-11.9485
▁rebel	-11.9487
▁cou	-11.949
iré	-11.9494
weed	-11.9495
fib	-11.9499
▁terre	-11.9506
▁retir	-11.9509
heart	-11.9513
dding	-11.9513
vated	-11.9517
ji	-11.9518
wash	-11.9519
▁invest	-11.9521
▁bru	-11.9523
▁profession	-11.9528
▁sti	-11.9529
▁ios	-11.953
▁surround	-11.9531
▁stra	-11.9531
body	-11.9543
▁complain	-11.9543
woman	-11.9544
▁threaten	-11.9547
shore	-11.9548
compatible	-11.9548
worm	-11.9548
beau	-11.9549
register	-11.9549
bird	-11.9549
▁thrust	-11.9549
father	-11.9549
legal	-11.955
▁tore	-11.955
regard	-11.9551
claim	-11.9551
judith	-11.9551
master	-11.9551
routine	-11.9551
planned	-11.9552
knowledge	-11.9552
daughter	-11.9552
wipe	-11.9553
burn	-11.9553
purpose	-11.9553
american	-11.9553
punch	-11.9554
horse	-11.9554
death	-11.9554
maybe	-11.9554
called	-11.9554
seven	-11.9555
nothing	-11.9555
park	-11.9556
form	-11.9557
▁humm	-11.9558
safe	-11.9558
▁replac	-11.9558
frank	-11.9558
▁flap	-11.9558
trip	-11.9558
human	-11.9559
hurt	-11.9559
lift	-11.9559
said	-11.956
committed	-11.9561
▁complet	-11.9562
turn	-11.9562
▁author	-11.9562
▁hoot	-11.9563
▁applaud	-11.9563
▁mourn	-11.9563
finn	-11.9564
job	-11.9564
▁squeak	-11.9564
hour	-11.9565
▁burgl	-11.9565
▁tube	-11.9565
block	-11.9566
core	-11.9566
mole	-11.9567
wire	-11.9568
long	-11.9568
war	-11.9568
vol	-11.9569
▁unpredictab	-11.9569
fell	-11.957
cake	-11.9571
uel	-11.9571
young	-11.9572
▁swell	-11.9573
▁disast	-11.9575
▁encrypt	-11.9575
▁sustain	-11.9576
▁biog	-11.9576
▁reject	-11.9577
▁addict	-11.9579
▁crus	-11.9579
▁concentre	-11.958
▁select	-11.958
▁disgrace	-11.9581
▁exaggerate	-11.9581
tchup	-11.9583
math	-11.9583
▁invade	-11.9583
▁decline	-11.9584
▁rewrit	-11.9584
▁reinforce	-11.9585
▁restore	-11.9586
stay	-11.9586
▁determine	-11.9586
▁trouver	-11.9586
▁approve	-11.9586
faced	-11.9586
washed	-11.9586
▁prosecut	-11.9586
▁pip	-11.9587
okay	-11.9588
shaw	-11.9589
▁bubb	-11.9589
▁eww	-11.959
stand	-11.959
▁should	-11.959
lane	-11.9591
▁asia	-11.9592
▁entr	-11.9592
▁chéri	-11.9592
▁objectiv	-11.9592
▁iose	-11.9594
▁thirst	-11.9594
▁johann	-11.9594
order	-11.9595
▁sympath	-11.9595
▁tempora	-11.9595
▁centur	-11.9595
▁miraculous	-11.9596
▁spook	-11.9597
rilla	-11.9597
bust	-11.9598
▁flick	-11.9598
▁shiv	-11.9598
▁indicate	-11.9598
▁supervis	-11.9598
▁mccart	-11.9599
uriel	-11.9599
▁bustin	-11.9599
▁isolate	-11.9599
eferre	-11.96
scend	-11.96
▁excellen	-11.9601
far	-11.9601
▁ricard	-11.9601
lava	-11.9602
▁sentiment	-11.9602
inlaw	-11.9602
▁extensi	-11.9602
▁twirl	-11.9602
▁drip	-11.9603
▁droppin	-11.9604
▁energ	-11.9604
▁mille	-11.9604
▁officia	-11.9605
▁rubbin	-11.9605
▁isabel	-11.9605
▁shinin	-11.9606
▁givin	-11.9606
▁leavin	-11.9606
▁dancin	-11.9606
nvestor	-11.9606
▁sympa	-11.9606
▁tactic	-11.9606
ruster	-11.9606
▁dispar	-11.9606
▁radi	-11.9606
ntroduce	-11.9606
inch	-11.9607
▁grocer	-11.9607
minded	-11.9607
between	-11.9607
▁baisse	-11.9607
▁homeostas	-11.9607
allows	-11.9607
▁pursu	-11.9608
circ	-11.9608
▁endorse	-11.9608
scient	-11.9608
ergic	-11.9608
▁excess	-11.9609
▁instruct	-11.9609
document	-11.9609
oever	-11.9609
▁stead	-11.9609
▁profit	-11.9609
alvin	-11.9609
▁convert	-11.9609
▁vegeta	-11.9609
▁grove	-11.9609
▁occup	-11.9609
▁pluto	-11.9609
▁unanswer	-11.9609
precedent	-11.9609
▁alleged	-11.9609
▁chiquit	-11.9609
▁congregat	-11.9609
▁hetero	-11.9609
▁hitchhike	-11.9609
▁instill	-11.9609
▁intestin	-11.9609
▁jignor	-11.9609
▁shimmer	-11.9609
conspira	-11.9609
croft	-11.9609
imposteur	-11.9609
inexplicable	-11.9609
modigliani	-11.9609
spectrum	-11.9609
trospective	-11.9609
utilise	-11.9609
équipe	-11.9609
▁ablaze	-11.9609
▁abracadabra	-11.9609
▁abraham	-11.9609
▁abram	-11.9609
▁activities	-11.9609
▁aggravat	-11.9609
▁ahahah	-11.9609
▁albany	-11.9609
▁alfrid	-11.9609
▁allegations	-11.9609
▁allegiance	-11.9609
▁alonzo	-11.9609
▁amanda	-11.9609
▁amateur	-11.9609
▁amusement	-11.9609
▁anthropologi	-11.9609
▁appointed	-11.9609
▁approval	-11.9609
▁approximately	-11.9609
▁arcadia	-11.9609
▁arnold	-11.9609
▁artemis	-11.9609
▁astonish	-11.9609
▁atalanta	-11.9609
▁auditorium	-11.9609
▁azog	-11.9609
▁barbarino	-11.9609
▁befriend	-11.9609
▁behaviour	-11.9609
▁belmont	-11.9609
▁benihana	-11.9609
▁bipolar	-11.9609
▁blatant	-11.9609
▁blossom	-11.9609
▁bordel	-11.9609
▁bubeleh	-11.9609
▁bushwhacke	-11.9609
▁calhoun	-11.9609
▁capoeira	-11.9609
▁casserole	-11.9609
▁catastrophe	-11.9609
▁cautious	-11.9609
▁cavalry	-11.9609
▁centaurs	-11.9609
▁ceramic	-11.9609
▁chardonnay	-11.9609
▁charlatan	-11.9609
▁cholera	-11.9609
▁choonshim	-11.9609
▁cocaptain	-11.9609
▁collided	-11.9609
▁columb	-11.9609
▁combien	-11.9609
▁conquistador	-11.9609
▁conscience	-11.9609
▁contraption	-11.9609
▁coordinator	-11.9609
▁correspond	-11.9609
▁costello	-11.9609
▁credentials	-11.9609
▁cricket	-11.9609
▁decrease	-11.9609
▁defensive	-11.9609
▁definiteiy	-11.9609
▁delusional	-11.9609
▁depleted	-11.9609
▁detention	-11.9609
▁dicaprio	-11.9609
▁dictionary	-11.9609
▁dilophosaurus	-11.9609
▁discharge	-11.9609
▁discipline	-11.9609
▁dishonor	-11.9609
▁disobey	-11.9609
▁disrupt	-11.9609
▁documentary	-11.9609
▁dorothy	-11.9609
▁dynamo	-11.9609
▁détat	-11.9609
▁détendstoi	-11.9609
▁edison	-11.9609
▁empreinte	-11.9609
▁enchantment	-11.9609
▁enchanté	-11.9609
▁enveiop	-11.9609
▁erythromycin	-11.9609
▁excalibur	-11.9609
▁exercising	-11.9609
▁exfoliat	-11.9609
▁exposure	-11.9609
▁facilities	-11.9609
▁faculty	-11.9609
▁fanatic	-11.9609
▁fftfft	-11.9609
▁fibrosis	-11.9609
▁fingernails	-11.9609
▁firecracker	-11.9609
▁flair	-11.9609
▁flamingo	-11.9609
▁formidable	-11.9609
▁fowler	-11.9609
▁freakydeaky	-11.9609
▁furnace	-11.9609
▁garlic	-11.9609
▁gatorade	-11.9609
▁generosity	-11.9609
▁getsemani	-11.9609
▁gibson	-11.9609
▁giorgio	-11.9609
▁glamorous	-11.9609
▁gloria	-11.9609
▁goebbels	-11.9609
▁gossip	-11.9609
▁gourmandes	-11.9609
▁grouchy	-11.9609
▁gstring	-11.9609
▁halliburton	-11.9609
▁hargraves	-11.9609
▁hasidic	-11.9609
▁heavensbee	-11.9609
▁henderson	-11.9609
▁herefords	-11.9609
▁herseif	-11.9609
▁hilliard	-11.9609
▁homicide	-11.9609
▁housewives	-11.9609
▁hulk	-11.9609
▁hurricane	-11.9609
▁hybrid	-11.9609
▁hyper	-11.9609
▁ieave	-11.9609
▁illinois	-11.9609
▁incomplete	-11.9609
▁interrogate	-11.9609
▁involving	-11.9609
▁irreplaceable	-11.9609
▁jabberjay	-11.9609
▁jennifer	-11.9609
▁jeopardiz	-11.9609
▁jubilee	-11.9609
▁jupiter	-11.9609
▁juvenile	-11.9609
▁kappa	-11.9609
▁keitel	-11.9609
▁khyan	-11.9609
▁klaatu	-11.9609
▁klenstein	-11.9609
▁kolbe	-11.9609
▁kowolskis	-11.9609
▁lalalalalalala	-11.9609
▁laziness	-11.9609
▁lemasniel	-11.9609
▁lntelligence	-11.9609
▁locutus	-11.9609
▁ludwig	-11.9609
▁lydia	-11.9609
▁machowacho	-11.9609
▁madagascar	-11.9609
▁malvolio	-11.9609
▁manipedi	-11.9609
▁margaritas	-11.9609
▁marietta	-11.9609
▁masculine	-11.9609
▁mechanism	-11.9609
▁melancholy	-11.9609
▁melissa	-11.9609
▁messieurs	-11.9609
▁mexican	-11.9609
▁micheiie	-11.9609
▁millimeters	-11.9609
▁mischie	-11.9609
▁module	-11.9609
▁moldova	-11.9609
▁morocco	-11.9609
▁motherfucker	-11.9609
▁muffin	-11.9609
▁mutated	-11.9609
▁neglected	-11.9609
▁noodle	-11.9609
▁nurtur	-11.9609
▁oasis	-11.9609
▁octavia	-11.9609
▁onceinalifetime	-11.9609
▁orsino	-11.9609
▁ortega	-11.9609
▁oscars	-11.9609
▁outnumbered	-11.9609
▁overwhelming	-11.9609
▁pajama	-11.9609
▁pakistan	-11.9609
▁paranoia	-11.9609
▁parfait	-11.9609
▁pentagon	-11.9609
▁pewter	-11.9609
▁pheno	-11.9609
▁philosopher	-11.9609
▁piccata	-11.9609
▁picturing	-11.9609
▁platform	-11.9609
▁porsche	-11.9609
▁precedes	-11.9609
▁previous	-11.9609
▁priority	-11.9609
▁prohibit	-11.9609
▁proportion	-11.9609
▁pubiish	-11.9609
▁puncture	-11.9609
▁pyramid	-11.9609
▁raphael	-11.9609
▁rearrange	-11.9609
▁reboot	-11.9609
▁redemption	-11.9609
▁reduction	-11.9609
▁regroup	-11.9609
▁regulate	-11.9609
▁relentless	-11.9609
▁rembourser	-11.9609
▁rephrase	-11.9609
▁replenish	-11.9609
▁rhombus	-11.9609
▁ridicuious	-11.9609
▁rutland	-11.9609
▁saintgermain	-11.9609
▁saliva	-11.9609
▁salvation	-11.9609
▁salvo	-11.9609
▁sanctuary	-11.9609
▁sarkisian	-11.9609
▁sashimi	-11.9609
▁satisfactory	-11.9609
▁saukerl	-11.9609
▁scatting	-11.9609
▁scooby	-11.9609
▁scoop	-11.9609
▁scrabble	-11.9609
▁screwdriver	-11.9609
▁scrutiny	-11.9609
▁scuff	-11.9609
▁seizure	-11.9609
▁selfesteem	-11.9609
▁selkirk	-11.9609
▁sensitivity	-11.9609
▁shuffle	-11.9609
▁simmering	-11.9609
▁sloshing	-11.9609
▁sniveling	-11.9609
▁spectat	-11.9609
▁splendid	-11.9609
▁staircase	-11.9609
▁stitches	-11.9609
▁sturgiswilder	-11.9609
▁sullivan	-11.9609
▁summit	-11.9609
▁sécurité	-11.9609
▁tangerine	-11.9609
▁teddyfié	-11.9609
▁telescope	-11.9609
▁terger	-11.9609
▁thirteen	-11.9609
▁thorough	-11.9609
▁tootsie	-11.9609
▁touchyfeely	-11.9609
▁tourniquet	-11.9609
▁triangle	-11.9609
▁truffle	-11.9609
▁turbulence	-11.9609
▁turgeson	-11.9609
▁twain	-11.9609
▁ultra	-11.9609
▁unafraid	-11.9609
▁unexpected	-11.9609
▁unplug	-11.9609
▁unzip	-11.9609
▁vahlere	-11.9609
▁valenzuela	-11.9609
▁vanquished	-11.9609
▁variations	-11.9609
▁vegetative	-11.9609
▁vendetta	-11.9609
▁ventilat	-11.9609
▁vigilance	-11.9609
▁vintage	-11.9609
▁wannabe	-11.9609
▁whatnot	-11.9609
▁wilbur	-11.9609
▁windmill	-11.9609
▁wsbtv	-11.9609
▁wurmbrand	-11.9609
▁yeehaw	-11.9609
▁youknowwh	-11.9609
▁zhatmire	-11.9609
▁alliance	-11.9609
▁artificial	-11.9609
▁carnivore	-11.9609
▁cascade	-11.9609
▁civic	-11.9609
▁contemporar	-11.9609
▁cylind	-11.9609
▁deficit	-11.9609
▁disembo	-11.9609
▁dolphin	-11.9609
▁godzilla	-11.9609
▁insulator	-11.9609
▁julio	-11.9609
▁luftballo	-11.9609
▁neanderthal	-11.9609
▁omni	-11.9609
▁postpone	-11.9609
▁pygm	-11.9609
▁scorecard	-11.9609
▁smear	-11.9609
▁testicle	-11.9609
▁transparen	-11.9609
▁universal	-11.9609
▁voyez	-11.9609
▁affirm	-11.9609
▁agnate	-11.9609
▁aloud	-11.9609
▁arguing	-11.9609
▁baggage	-11.9609
▁blob	-11.9609
▁blouse	-11.9609
▁camion	-11.9609
▁clarity	-11.9609
▁colorado	-11.9609
▁compiling	-11.9609
▁cyberarts	-11.9609
▁everlasting	-11.9609
▁excusezmoi	-11.9609
▁federation	-11.9609
▁flaw	-11.9609
▁fraction	-11.9609
▁further	-11.9609
▁identical	-11.9609
▁identify	-11.9609
▁invo	-11.9609
▁irina	-11.9609
▁labonz	-11.9609
▁lettuce	-11.9609
▁lheure	-11.9609
▁lobotom	-11.9609
▁modified	-11.9609
▁nelson	-11.9609
▁pappa	-11.9609
▁pitié	-11.9609
▁platter	-11.9609
▁reflex	-11.9609
▁relations	-11.9609
▁rifle	-11.9609
▁rugged	-11.9609
▁sapien	-11.9609
▁suburb	-11.9609
▁terminal	-11.9609
▁uprising	-11.9609
▁walsh	-11.9609
▁zorg	-11.9609
▁adios	-11.9609
▁bandshell	-11.9609
▁belief	-11.9609
▁bmw	-11.9609
▁cohen	-11.9609
▁excites	-11.9609
▁headbanger	-11.9609
▁highlander	-11.9609
▁humvee	-11.9609
▁lchaim	-11.9609
▁legacy	-11.9609
▁moreno	-11.9609
▁nova	-11.9609
▁retarded	-11.9609
▁sieep	-11.9609
▁snare	-11.9609
▁sunglasses	-11.9609
▁vendor	-11.9609
▁wield	-11.9609
qaeda	-11.9609
▁bateman	-11.9609
▁bedpan	-11.9609
▁burp	-11.9609
▁cheesy	-11.9609
▁evaluation	-11.9609
▁expliqu	-11.9609
▁gambi	-11.9609
▁hoffa	-11.9609
▁infidel	-11.9609
▁lobe	-11.9609
▁magnetiz	-11.9609
▁oberon	-11.9609
▁percussi	-11.9609
▁pervert	-11.9609
▁réservation	-11.9609
▁sabotag	-11.9609
▁sundae	-11.9609
oiks	-11.9609
▁alluring	-11.9609
▁ariel	-11.9609
▁cozy	-11.9609
▁hassan	-11.9609
▁influen	-11.9609
▁jenkins	-11.9609
▁jusqu	-11.9609
▁occurred	-11.9609
▁opportunities	-11.9609
▁retain	-11.9609
▁rooftops	-11.9609
▁stabiliz	-11.9609
▁unfolding	-11.9609
▁vanessa	-11.9609
▁wetsuit	-11.9609
▁yolk	-11.9609
▁bithia	-11.9609
▁dazed	-11.9609
▁nbc	-11.9609
▁persisten	-11.9609
▁punge	-11.9609
▁raison	-11.9609
▁redeem	-11.9609
▁shiny	-11.9609
▁sixteen	-11.9609
▁straits	-11.9609
▁condom	-11.9609
hypoth	-11.9609
nsibility	-11.9609
▁buena	-11.9609
▁decapitat	-11.9609
▁hittite	-11.9609
▁insight	-11.9609
▁jamming	-11.9609
▁margin	-11.9609
▁oort	-11.9609
▁playpen	-11.9609
▁varied	-11.9609
▁yeehaah	-11.9609
▁capitai	-11.9609
▁griddle	-11.9609
▁scrambling	-11.9609
▁syringe	-11.9609
▁inciud	-11.9609
▁kingpin	-11.9609
▁panther	-11.9609
▁spouse	-11.9609
astronom	-11.9609
▁répond	-11.9609
▁afflict	-11.9609
▁feces	-11.9609
▁fenton	-11.9609
▁frisky	-11.9609
▁habla	-11.9609
▁mezz	-11.9609
▁angus	-11.9609
▁luncheon	-11.9609
▁pause	-11.9609
▁pjs	-11.9609
▁simulat	-11.9609
▁authorization	-11.9609
▁scholar	-11.9609
▁undergraduate	-11.9609
▁boston	-11.9609
▁goblin	-11.9609
▁impose	-11.9609
▁rpg	-11.9609
▁ticor	-11.9609
▁debbie	-11.9609
▁erupt	-11.9609
▁avocado	-11.9609
▁narrive	-11.9609
▁ribbon	-11.9609
▁decoy	-11.9609
▁feather	-11.9609
▁geneticists	-11.9609
▁prettie	-11.9609
▁statistic	-11.9609
▁pneu	-11.9609
▁adrift	-11.9609
▁pinned	-11.9609
▁valve	-11.9609
▁dépend	-11.9609
▁morgu	-11.9609
▁copperfield	-11.9609
▁horati	-11.9609
▁morphling	-11.9609
▁latter	-11.9609
▁omens	-11.9609
▁schmuck	-11.9609
▁bead	-11.9609
▁eyeballs	-11.9609
▁fantasm	-11.9609
▁ferrari	-11.9609
▁frat	-11.9609
▁highpowered	-11.9609
▁sorcer	-11.9609
▁superior	-11.9609
▁disneyland	-11.9609
▁quicksand	-11.9609
▁recreat	-11.9609
odome	-11.9609
▁oxide	-11.9609
▁dazs	-11.9609
▁kfed	-11.9609
▁spiral	-11.9609
▁flou	-11.9609
▁hallucinat	-11.9609
▁apporte	-11.9609
▁brawl	-11.9609
▁exgirlfriend	-11.9609
▁franciscan	-11.9609
holle	-11.9609
▁flos	-11.9609
▁irene	-11.9609
nvinci	-11.9609
▁innocence	-11.9609
▁vested	-11.9609
▁accelerating	-11.9609
wraith	-11.9609
▁attain	-11.9609
▁beheld	-11.9609
▁ligne	-11.9609
▁scabs	-11.9609
slash	-11.9609
▁yyeah	-11.9609
▁whupping	-11.9609
▁pinewood	-11.9609
▁unstable	-11.9609
▁scram	-11.9609
▁slammed	-11.9609
▁sixtythree	-11.9609
▁tomatoli	-11.9609
▁lifestyles	-11.961
▁pacoima	-11.961
▁probability	-11.961
▁download	-11.961
▁molecule	-11.961
▁tutor	-11.961
▁kennedy	-11.961
▁rican	-11.961
▁stanton	-11.961
thorax	-11.961
▁submission	-11.961
▁taurai	-11.961
▁counterfeit	-11.961
▁overlapping	-11.961
▁purr	-11.961
▁bagels	-11.961
▁scope	-11.961
▁blanc	-11.961
▁frown	-11.961
▁knick	-11.961
▁rival	-11.961
▁hormon	-11.961
▁normandy	-11.961
▁ruse	-11.961
▁alternative	-11.961
▁bamba	-11.961
▁crackles	-11.961
▁ignorance	-11.961
▁unconscious	-11.961
demeanor	-11.961
▁lumber	-11.961
▁separation	-11.961
▁whatwhat	-11.961
▁cavity	-11.961
▁valium	-11.961
▁israel	-11.961
ubbo	-11.961
▁continuous	-11.961
▁satchel	-11.961
▁butler	-11.961
▁volcan	-11.961
▁womb	-11.961
▁meltdown	-11.961
▁slack	-11.961
▁ciose	-11.961
▁lizard	-11.961
▁xray	-11.961
▁harpo	-11.961
▁principle	-11.961
▁elegant	-11.961
▁innovations	-11.961
▁funnel	-11.961
▁involvement	-11.961
▁sissy	-11.961
▁misplaced	-11.961
▁clement	-11.961
iculous	-11.961
▁trench	-11.961
▁dangling	-11.961
▁basketball	-11.961
▁danique	-11.961
▁encas	-11.961
▁administration	-11.961
▁dunning	-11.961
▁cush	-11.961
▁fortytwo	-11.961
▁decorations	-11.961
▁euros	-11.961
▁jammed	-11.961
▁protestors	-11.961
▁chowder	-11.961
▁conform	-11.961
▁michel	-11.961
▁détend	-11.961
▁whopper	-11.961
▁gén	-11.961
▁clark	-11.961
▁descent	-11.961
▁canadian	-11.961
▁exactement	-11.961
▁lookinfor	-11.961
▁swamp	-11.961
▁chaotic	-11.961
▁leftovers	-11.961
▁scour	-11.961
▁wsb	-11.961
▁graz	-11.961
▁revive	-11.961
▁meteorite	-11.961
▁patriotic	-11.961
▁reception	-11.961
▁essay	-11.9611
▁representative	-11.9611
▁underdog	-11.9611
▁diamondback	-11.9611
▁bianc	-11.9611
▁chalet	-11.9611
▁tranquilo	-11.9611
▁amplifi	-11.9611
▁diagnosis	-11.9611
▁lowell	-11.9611
▁whipping	-11.9611
▁brawn	-11.9611
▁bandstand	-11.9611
▁debris	-11.9611
▁oreille	-11.9611
▁celebrities	-11.9611
▁ranks	-11.9611
▁quarr	-11.9611
arlene	-11.9611
▁transference	-11.9611
▁chacha	-11.9611
▁midterm	-11.9611
▁baissez	-11.9611
▁cyn	-11.9611
▁spike	-11.9611
▁styie	-11.9611
▁psychotic	-11.9611
▁vermin	-11.9611
▁ilya	-11.9611
▁stroll	-11.9611
▁shortcake	-11.9611
▁deviation	-11.9611
▁tension	-11.9611
▁enhanc	-11.9611
qualified	-11.9611
▁spinach	-11.9611
▁yöurself	-11.9611
▁filk	-11.9611
▁jojo	-11.9611
▁mutt	-11.9611
▁dilated	-11.9611
▁expand	-11.9611
▁traumatic	-11.9611
▁mingling	-11.9611
▁masterpiece	-11.9611
▁argent	-11.9611
▁lonelie	-11.9611
▁stylist	-11.9611
▁circulation	-11.9611
▁ritz	-11.9611
▁profitable	-11.9611
▁stomp	-11.9611
▁collage	-11.9612
▁furious	-11.9612
▁improve	-11.9612
▁advisor	-11.9612
▁raymaker	-11.9612
▁fauit	-11.9612
▁biink	-11.9612
▁fsb	-11.9612
▁juni	-11.9612
▁brazilian	-11.9612
▁integrity	-11.9612
▁automati	-11.9612
▁devotion	-11.9612
gular	-11.9612
▁hague	-11.9612
aceous	-11.9612
▁elves	-11.9612
▁heathen	-11.9612
▁discrimination	-11.9612
▁titty	-11.9612
▁bash	-11.9612
▁présentation	-11.9612
▁giow	-11.9612
▁seacre	-11.9612
▁clima	-11.9612
▁farmhouse	-11.9612
▁superstar	-11.9612
▁chute	-11.9612
▁blah	-11.9612
bj	-11.9612
▁stirrup	-11.9612
▁visualize	-11.9612
▁grim	-11.9612
▁hooters	-11.9612
▁troopers	-11.9612
▁gutter	-11.9612
▁tumble	-11.9613
zig	-11.9613
ounge	-11.9613
▁undone	-11.9613
▁pods	-11.9613
▁outhouse	-11.9613
▁seoul	-11.9613
▁trend	-11.9613
▁swimmin	-11.9613
▁metres	-11.9613
▁chiff	-11.9613
▁contingency	-11.9613
▁mercury	-11.9613
▁chaperone	-11.9613
▁vertebrae	-11.9613
▁torment	-11.9613
▁patties	-11.9613
▁deets	-11.9613
gallop	-11.9613
▁rubbing	-11.9613
▁rosy	-11.9613
▁investigator	-11.9613
▁masturbation	-11.9613
▁rappelle	-11.9613
▁quittin	-11.9613
▁eastham	-11.9613
▁fuii	-11.9613
▁prepped	-11.9613
▁azt	-11.9613
▁amber	-11.9613
▁attrape	-11.9614
▁pappy	-11.9614
▁ahab	-11.9614
▁straightaway	-11.9614
▁inspirational	-11.9614
▁droit	-11.9614
▁revoir	-11.9614
▁michi	-11.9614
▁reentr	-11.9614
▁tenacious	-11.9614
▁melodies	-11.9614
▁irre	-11.9614
▁battlefield	-11.9614
▁toppl	-11.9614
▁luce	-11.9614
▁aval	-11.9614
▁gradua	-11.9614
▁height	-11.9615
▁dislike	-11.9615
fertilize	-11.9615
▁guv	-11.9615
izzo	-11.9615
rik	-11.9615
▁crippled	-11.9615
▁sparkles	-11.9615
▁tripod	-11.9615
rypto	-11.9615
▁deceivin	-11.9615
▁lurk	-11.9615
▁sixnine	-11.9615
▁flavor	-11.9615
▁tickle	-11.9615
▁organis	-11.9615
▁jeering	-11.9615
▁buffet	-11.9615
▁fatten	-11.9615
▁liking	-11.9615
▁peasant	-11.9615
▁attic	-11.9615
▁curb	-11.9615
▁acceptance	-11.9615
▁obstruction	-11.9615
▁virginia	-11.9616
▁scarce	-11.9616
▁musk	-11.9616
▁polar	-11.9616
▁boobies	-11.9616
▁messaging	-11.9616
▁foolishness	-11.9616
▁molly	-11.9616
heim	-11.9616
▁twig	-11.9616
▁frequently	-11.9616
▁ingen	-11.9617
give	-11.9617
▁allowance	-11.9617
▁intimidated	-11.9617
▁suspended	-11.9617
iai	-11.9617
gans	-11.9617
▁afoot	-11.9617
▁dumpling	-11.9617
izzie	-11.9617
▁wuss	-11.9617
▁chariie	-11.9618
▁coca	-11.9618
▁petra	-11.9618
▁european	-11.9618
▁shakin	-11.9618
▁racecar	-11.9618
▁lastminute	-11.9618
▁combine	-11.9618
▁logic	-11.9618
▁toothp	-11.9618
▁augustus	-11.9618
▁phasers	-11.9618
▁beak	-11.9618
▁barri	-11.9618
▁shovel	-11.9619
▁waii	-11.9619
▁hex	-11.9619
▁ernesto	-11.9619
▁translator	-11.9619
iality	-11.9619
oopy	-11.9619
▁roam	-11.9619
▁cornerback	-11.9619
▁panel	-11.9619
▁lyin	-11.9619
▁confine	-11.9619
relui	-11.9619
▁checkpoint	-11.9619
▁pinch	-11.962
▁nno	-11.962
▁teddyboxe	-11.962
▁largent	-11.962
▁vente	-11.962
▁relive	-11.962
▁doggy	-11.962
▁percentage	-11.962
tera	-11.962
▁conventional	-11.962
▁clog	-11.962
▁vibrating	-11.962
▁violated	-11.962
▁vocalizing	-11.962
▁ideolog	-11.962
▁brun	-11.9621
▁jock	-11.9621
▁gaugin	-11.9621
▁instantly	-11.9621
▁bubbly	-11.9621
▁yahoo	-11.9621
▁chump	-11.9621
kov	-11.9621
▁yearbook	-11.9621
▁retina	-11.9621
▁battie	-11.9622
▁exile	-11.9622
lnglng	-11.9622
▁doghouse	-11.9622
▁mug	-11.9622
▁ladresse	-11.9622
icious	-11.9622
▁dough	-11.9622
▁envie	-11.9622
ovic	-11.9622
▁comply	-11.9623
▁muns	-11.9623
▁vamp	-11.9623
▁pushover	-11.9623
▁slate	-11.9623
▁essaie	-11.9623
▁fuss	-11.9623
▁barbra	-11.9623
▁relate	-11.9623
▁finir	-11.9624
▁liberat	-11.9624
▁techno	-11.9624
▁gland	-11.9624
▁distinguish	-11.9624
▁burden	-11.9624
▁drenched	-11.9624
▁époque	-11.9624
▁parcel	-11.9624
▁boii	-11.9624
▁graders	-11.9624
▁branches	-11.9624
▁ruben	-11.9624
▁flock	-11.9624
▁eliminated	-11.9625
▁feat	-11.9625
▁bruised	-11.9625
▁accidentally	-11.9625
▁milli	-11.9625
▁unlike	-11.9625
fare	-11.9625
▁parson	-11.9625
▁clé	-11.9626
programming	-11.9626
▁consistently	-11.9626
lix	-11.9626
▁labour	-11.9626
▁taille	-11.9626
▁restroom	-11.9626
ilated	-11.9626
▁oxy	-11.9626
▁kickoff	-11.9626
▁tasty	-11.9626
▁sympathy	-11.9626
▁ramp	-11.9627
▁sinner	-11.9627
▁civilized	-11.9627
▁grad	-11.9627
▁concentration	-11.9627
▁peacekeeper	-11.9627
▁fastball	-11.9627
▁poem	-11.9627
▁powerade	-11.9627
▁broom	-11.9627
▁cuddl	-11.9627
▁polo	-11.9627
▁dice	-11.9627
▁conga	-11.9627
▁stripes	-11.9627
▁owens	-11.9627
▁portion	-11.9628
▁dimi	-11.9628
▁verre	-11.9628
▁recon	-11.9628
▁croy	-11.9629
▁carrier	-11.9629
▁bullies	-11.9629
▁quiver	-11.9629
▁caroline	-11.963
ront	-11.963
▁ledge	-11.963
▁schoolboy	-11.963
▁devais	-11.963
▁taxes	-11.963
▁evicted	-11.963
▁dismissed	-11.963
▁restricted	-11.963
▁occasional	-11.9631
▁publicity	-11.9631
▁drew	-11.9631
▁wig	-11.9631
▁permanently	-11.9631
▁certainty	-11.9631
▁chile	-11.9631
blitz	-11.9631
▁bland	-11.9631
▁alma	-11.9631
▁yyy	-11.9632
chel	-11.9632
▁whereas	-11.9632
▁disabled	-11.9633
▁unhol	-11.9633
▁blanksy	-11.9634
▁superce	-11.9634
▁erin	-11.9634
▁realistic	-11.9634
▁stray	-11.9634
▁playboy	-11.9635
▁waxer	-11.9635
▁tomber	-11.9635
▁trill	-11.9635
▁invaded	-11.9635
olic	-11.9635
▁temporary	-11.9635
▁journalist	-11.9635
▁pow	-11.9635
▁sneakers	-11.9636
▁coid	-11.9636
erran	-11.9636
cule	-11.9636
▁producer	-11.9636
▁patty	-11.9637
eigne	-11.9637
▁instant	-11.9637
▁anim	-11.9637
▁bile	-11.9637
▁locate	-11.9637
▁twoyear	-11.9637
▁rencontré	-11.9638
acres	-11.9638
▁syr	-11.9638
▁cré	-11.9639
▁latched	-11.9639
▁layout	-11.9639
▁broth	-11.964
▁buiiding	-11.964
▁heartbreaking	-11.964
▁blindness	-11.964
▁preaching	-11.964
zzled	-11.964
▁respectfully	-11.964
▁estil	-11.964
▁fiance	-11.964
▁rump	-11.964
▁stup	-11.9641
▁roman	-11.9641
▁angi	-11.9642
▁queue	-11.9642
▁headliner	-11.9643
▁newport	-11.9643
▁flipped	-11.9643
▁chino	-11.9643
▁debut	-11.9643
▁dép	-11.9644
▁discriminat	-11.9644
▁prose	-11.9644
▁nightfall	-11.9644
▁sprinkler	-11.9645
▁bowie	-11.9645
▁darr	-11.9645
▁jaw	-11.9645
▁mild	-11.9645
▁hookers	-11.9645
▁conceive	-11.9645
▁respectful	-11.9645
▁taikin	-11.9645
▁maxim	-11.9646
▁compell	-11.9646
usine	-11.9646
▁lipper	-11.9647
▁diva	-11.9647
rades	-11.9647
▁peru	-11.9648
trophy	-11.9648
▁dynamic	-11.9649
▁ignite	-11.9649
▁hopin	-11.9649
▁compression	-11.9649
▁occupied	-11.9649
▁trio	-11.9649
▁bain	-11.965
▁bom	-11.965
▁peers	-11.9651
▁girion	-11.9651
▁suitable	-11.9651
▁standoff	-11.9652
ssak	-11.9652
▁mick	-11.9653
▁shag	-11.9654
▁rome	-11.9654
▁homeboy	-11.9654
▁athletes	-11.9654
▁bumbershoots	-11.9654
▁drapes	-11.9654
▁gadgets	-11.9654
▁steroids	-11.9654
hears	-11.9654
▁prosper	-11.9654
donia	-11.9655
▁env	-11.9655
▁brie	-11.9655
▁razors	-11.9655
▁kia	-11.9656
▁minty	-11.9656
▁about	-11.9657
▁croc	-11.9657
▁livre	-11.9657
▁blogg	-11.9657
▁matin	-11.9657
▁deployed	-11.9658
▁established	-11.9658
▁informed	-11.9658
▁halftime	-11.9658
magnetic	-11.9659
▁anto	-11.9659
▁twister	-11.9659
▁swelling	-11.9659
▁mourning	-11.966
▁agony	-11.966
▁investing	-11.966
▁tripled	-11.9663
▁pager	-11.9663
▁with	-11.9665
▁bein	-11.9665
▁superman	-11.9665
▁conna	-11.9666
▁sway	-11.9666
▁isolated	-11.9667
▁pastry	-11.9667
▁dang	-11.9667
▁voit	-11.9668
▁penny	-11.9668
▁flipping	-11.9668
thesis	-11.9668
grudge	-11.9669
▁tumo	-11.9669
▁curt	-11.967
▁ditched	-11.967
▁directory	-11.9672
▁hugged	-11.9672
▁succeeded	-11.9673
▁sandwiches	-11.9673
▁reckoned	-11.9673
▁magically	-11.9673
▁momentum	-11.9674
hardened	-11.9675
▁sac	-11.9675
▁teen	-11.9675
▁threatening	-11.9676
▁collapsed	-11.9676
▁tabie	-11.9678
▁wool	-11.9678
▁awning	-11.9678
▁coupon	-11.9679
▁dreading	-11.968
▁gurgling	-11.968
▁bolstering	-11.968
▁stunning	-11.968
retreat	-11.968
▁jac	-11.968
▁aspe	-11.9681
▁cookin	-11.9682
▁gaz	-11.9682
▁filte	-11.9682
divided	-11.9683
▁wither	-11.9685
▁slaughtered	-11.9687
▁adapted	-11.9687
▁cloudy	-11.969
▁crusher	-11.9691
▁lawman	-11.9692
▁firmly	-11.9693
rush	-11.9694
▁honorable	-11.9695
▁speeches	-11.9696
▁ripe	-11.9696
▁metall	-11.9697
▁azar	-11.9697
▁handling	-11.9698
▁halter	-11.9699
ssle	-11.9699
▁transformed	-11.97
▁predicted	-11.97
▁displayed	-11.97
▁flyers	-11.9704
▁factor	-11.9706
▁gare	-11.9709
▁luna	-11.9709
▁hen	-11.9709
▁exterminat	-11.971
▁capt	-11.9711
▁replaced	-11.9711
▁freezer	-11.9713
▁weakly	-11.9713
▁doorway	-11.9715
▁pastor	-11.9715
▁reaper	-11.9715
▁vomiting	-11.972
persets	-11.972
▁sweeping	-11.9721
▁lighten	-11.9721
ouvert	-11.9723
▁sensing	-11.9723
▁lud	-11.9729
▁braver	-11.9729
event	-11.973
▁published	-11.973
▁gulps	-11.9732
▁millionaires	-11.9732
▁accomplishments	-11.9732
▁alligators	-11.9732
▁chimneys	-11.9732
▁communists	-11.9732
▁shopper	-11.9732
▁engineered	-11.9732
▁gab	-11.9732
▁saks	-11.9732
▁aaa	-11.9732
▁hugo	-11.9732
▁memoriz	-11.9734
▁forgiven	-11.9735
▁vase	-11.9735
▁academic	-11.9736
▁perv	-11.9737
▁shackle	-11.9737
▁felton	-11.9737
▁ark	-11.9738
▁sup	-11.9739
▁yak	-11.9741
▁bully	-11.9741
▁hick	-11.9746
▁destruct	-11.9751
▁smuggler	-11.9751
▁sellin	-11.9751
▁spine	-11.9752
tically	-11.9752
lagged	-11.9754
▁rebell	-11.9755
lynn	-11.9755
▁athe	-11.9756
▁huber	-11.9757
▁ambushed	-11.9757
▁mule	-11.9758
sident	-11.976
▁spoiled	-11.976
▁dashing	-11.976
▁breeding	-11.9761
▁jumpin	-11.9761
▁compare	-11.9761
▁coal	-11.9761
▁bc	-11.9762
▁showtime	-11.9763
mos	-11.9764
▁cheaper	-11.9766
▁ox	-11.9769
uity	-11.9769
paint	-11.9772
▁quilt	-11.9773
▁simpler	-11.9773
▁taco	-11.9774
▁scarie	-11.9775
▁undermin	-11.9776
▁edg	-11.9776
▁shitty	-11.9777
▁pine	-11.9777
▁bf	-11.9778
▁rioting	-11.978
▁drilling	-11.9781
▁gouda	-11.9781
osis	-11.9782
gence	-11.9785
▁interrupted	-11.9787
▁oversee	-11.9788
▁rating	-11.9789
rep	-11.979
▁kn	-11.9793
▁deducti	-11.9793
hn	-11.9796
▁grump	-11.9796
▁messin	-11.9798
alcoholic	-11.9799
▁bailed	-11.98
ckingham	-11.98
▁publishing	-11.9802
rou	-11.9803
▁funding	-11.9804
▁whisperer	-11.9807
▁shovels	-11.9808
▁chaps	-11.9809
▁thighs	-11.9812
▁rugs	-11.9812
▁cocktails	-11.9812
▁conclusions	-11.9812
▁cullens	-11.9812
▁ingredients	-11.9812
▁patrons	-11.9812
▁waffles	-11.9812
▁gaps	-11.9812
▁volts	-11.9812
▁appetites	-11.9812
▁egyptians	-11.9812
lee	-11.9813
▁anatom	-11.9813
▁cello	-11.9814
▁brushed	-11.9814
▁contained	-11.9815
ores	-11.9816
▁crosses	-11.9816
laz	-11.982
▁status	-11.9821
▁thus	-11.9822
oohooh	-11.9825
essional	-11.983
▁congr	-11.9835
▁burner	-11.9836
▁leaking	-11.9841
▁weeping	-11.9842
▁shocking	-11.9843
▁pooped	-11.9846
▁cod	-11.9846
▁han	-11.985
crib	-11.9852
▁ferm	-11.9854
▁awe	-11.9857
▁anna	-11.9858
▁affected	-11.9858
▁hiv	-11.9859
▁monitoring	-11.9862
▁aux	-11.9863
▁photographer	-11.9863
mber	-11.9864
déj	-11.9866
▁texting	-11.9866
▁dew	-11.9868
▁cater	-11.987
▁molest	-11.9871
▁did	-11.9872
mature	-11.9872
upping	-11.9873
▁screamed	-11.9875
▁yelled	-11.9876
▁dime	-11.9877
graphs	-11.9878
hell	-11.9879
rvis	-11.988
▁puffing	-11.9882
ski	-11.9883
▁grilling	-11.9883
▁reli	-11.9885
▁fades	-11.9886
▁deserted	-11.9886
▁sensors	-11.9891
▁airplanes	-11.9893
▁javelins	-11.9893
▁ensl	-11.9893
▁hamp	-11.9894
▁rustlers	-11.9895
▁smoked	-11.9903
taii	-11.9903
look	-11.9908
▁exams	-11.9909
▁quicker	-11.9912
gol	-11.9913
▁perm	-11.9915
▁screening	-11.9923
▁ideals	-11.9924
▁coolest	-11.9925
▁cling	-11.9926
▁scaring	-11.9928
▁traded	-11.9929
erk	-11.993
▁takeoff	-11.9932
▁shootin	-11.9932
▁tougher	-11.994
▁covert	-11.9941
▁ruining	-11.9945
versi	-11.995
going	-11.9952
▁nacho	-11.9952
▁évi	-11.9954
▁some	-11.9956
▁moy	-11.9957
▁starters	-11.9957
▁conv	-11.996
▁grabbin	-11.9973
lined	-11.9974
▁nerds	-11.9975
▁bargains	-11.9975
▁instruments	-11.9975
▁rainbows	-11.9975
▁fists	-11.9975
▁tab	-11.9976
▁cramps	-11.9976
▁melts	-11.998
racks	-11.9983
clair	-11.9987
dar	-11.9992
▁boarded	-11.9994
▁diner	-11.9996
▁earlie	-11.9997
▁sweaters	-12.0002
▁servers	-12.0006
▁abso	-12.0009
▁crazies	-12.0019
▁independen	-12.002
▁bonne	-12.0022
▁seduc	-12.0023
▁shal	-12.0025
▁accepting	-12.0029
▁gotcha	-12.0029
seives	-12.0032
▁jd	-12.0035
ctu	-12.0035
oodoo	-12.0044
▁spic	-12.0044
booga	-12.0046
▁flashing	-12.0048
▁slum	-12.0053
rian	-12.0054
isette	-12.0056
▁abid	-12.0058
ndered	-12.0072
▁leon	-12.0077
▁conven	-12.0082
▁armes	-12.0084
sement	-12.0089
▁sedati	-12.0091
▁obe	-12.0092
▁standin	-12.0096
▁fier	-12.01
▁termi	-12.0114
inder	-12.0125
▁recovers	-12.0133
▁idle	-12.0137
press	-12.0138
▁feu	-12.0139
▁chubb	-12.0148
loom	-12.0149
▁remo	-12.0157
rank	-12.0165
▁baggin	-12.0168
raf	-12.0182
tempo	-12.0187
▁biker	-12.0194
▁studie	-12.0198
▁surv	-12.0204
▁trespasse	-12.0206
▁advis	-12.0208
▁fumi	-12.0208
▁drinker	-12.0209
awning	-12.0214
▁hé	-12.0225
▁extend	-12.0243
▁commodit	-12.0246
▁dared	-12.0272
amus	-12.0278
▁watchin	-12.0279
ertz	-12.0283
▁designer	-12.029
▁pil	-12.0298
▁angr	-12.0303
▁rancher	-12.0303
▁racer	-12.0326
▁cit	-12.033
▁batch	-12.0347
▁devote	-12.0354
agram	-12.0363
▁batter	-12.0394
▁lag	-12.041
jori	-12.0412
▁verif	-12.0433
▁flav	-12.0434
maiden	-12.0446
▁gring	-12.0449
warm	-12.0458
▁diagnosti	-12.0476
▁amend	-12.0478
omo	-12.048
pile	-12.0489
▁killin	-12.0492
pecker	-12.0494
▁kun	-12.0503
hyun	-12.0518
izer	-12.0526
▁taser	-12.0531
rift	-12.0544
monica	-12.0561
▁despi	-12.0567
▁chem	-12.0577
regardless	-12.0591
▁abi	-12.0612
▁schm	-12.0614
iating	-12.0616
▁investigati	-12.0618
▁pigg	-12.0636
▁od	-12.0649
uzzi	-12.0656
▁pru	-12.0672
▁flipp	-12.0694
▁brag	-12.0712
ject	-12.0724
▁willful	-12.0753
armored	-12.0755
▁sanct	-12.0764
pia	-12.0773
▁sued	-12.0777
▁marti	-12.0787
conductor	-12.0821
gui	-12.0842
kla	-12.0848
▁lump	-12.0856
▁sizzl	-12.0863
▁litigat	-12.0885
did	-12.089
▁br	-12.0896
▁crust	-12.091
▁trai	-12.0917
oline	-12.0949
▁sym	-12.0959
ési	-12.0974
▁merciful	-12.0981
oms	-12.099
év	-12.1009
▁dou	-12.1011
▁lego	-12.1031
▁gull	-12.1068
▁aurie	-12.1091
▁chu	-12.112
▁estimate	-12.1125
nuck	-12.1129
bos	-12.1134
▁navigate	-12.1144
▁stumble	-12.1144
▁deduce	-12.116
▁arse	-12.1164
idden	-12.1165
▁unite	-12.1169
▁rider	-12.1184
▁rép	-12.1185
wan	-12.119
▁jumper	-12.1193
▁har	-12.1203
▁carb	-12.1217
▁vivi	-12.1228
▁scal	-12.1269
esu	-12.127
aise	-12.1272
▁sneeze	-12.1298
▁fret	-12.1308
▁wrinkle	-12.1313
▁travell	-12.1334
berger	-12.135
▁cro	-12.1358
▁phiia	-12.1367
▁vau	-12.137
varia	-12.138
▁gro	-12.1387
ippies	-12.1402
lc	-12.1406
▁meditat	-12.1429
▁fockerize	-12.1435
rier	-12.1461
gration	-12.1503
reme	-12.1507
▁clan	-12.1542
asty	-12.1543
▁poul	-12.1567
rusty	-12.1622
▁describ	-12.1641
nb	-12.1645
▁shov	-12.1684
▁expr	-12.1698
train	-12.172
▁astr	-12.1722
▁fri	-12.1798
oeuvres	-12.18
▁sarcasti	-12.1805
▁manoeuvre	-12.1811
nah	-12.1822
rand	-12.1827
▁wiggl	-12.1829
▁assur	-12.1833
▁neg	-12.1872
▁stan	-12.1876
▁congratulat	-12.1904
oge	-12.1911
▁jav	-12.1923
fff	-12.194
▁marc	-12.1973
prec	-12.1978
oey	-12.1985
code	-12.2011
▁etch	-12.2021
▁eng	-12.2035
gre	-12.2038
nine	-12.2079
▁fet	-12.2081
▁chev	-12.2095
▁distinct	-12.2099
larice	-12.2105
nner	-12.2121
eria	-12.2238
rob	-12.2238
otte	-12.226
▁exceptional	-12.2315
hippie	-12.2317
▁certifi	-12.2326
lace	-12.2333
▁confi	-12.2384
▁medit	-12.2419
niner	-12.243
▁sof	-12.2517
lent	-12.2526
▁cran	-12.2619
netic	-12.2628
▁guid	-12.2628
hro	-12.2641
iene	-12.2659
dici	-12.2665
▁rotat	-12.2666
tron	-12.2672
▁aaaa	-12.2685
▁exhale	-12.2693
zo	-12.27
▁troublemak	-12.2704
ido	-12.2714
▁humbl	-12.2735
▁shre	-12.2847
▁sizzle	-12.2849
▁kil	-12.2857
nstein	-12.2896
fun	-12.2897
aste	-12.2897
tted	-12.2915
thic	-12.2985
chin	-12.3
▁collecti	-12.3
jon	-12.3011
▁consen	-12.3066
ofa	-12.311
pair	-12.3135
cture	-12.315
lem	-12.316
voir	-12.3164
hat	-12.3165
▁sag	-12.3169
rra	-12.3169
rdon	-12.317
fiance	-12.3185
▁cub	-12.3199
ndale	-12.3214
▁surge	-12.3245
erary	-12.3258
▁concentrat	-12.3259
lley	-12.3272
pairmen	-12.3279
haza	-12.3284
boom	-12.3287
fina	-12.3292
▁dray	-12.3335
▁hoho	-12.3348
▁commod	-12.3366
laid	-12.3385
▁retrouv	-12.339
ardi	-12.3391
▁zel	-12.3411
▁journalis	-12.3422
prendre	-12.343
▁fiip	-12.3459
pita	-12.3495
▁offsi	-12.3505
▁continu	-12.3506
▁sparkl	-12.3526
▁trie	-12.3532
▁dominat	-12.3532
présente	-12.3561
pier	-12.3584
▁dood	-12.3613
attered	-12.3617
neur	-12.3627
doubted	-12.3638
▁scrape	-12.3684
▁trespass	-12.3704
wind	-12.3739
hort	-12.3753
uil	-12.377
▁parame	-12.3798
▁joc	-12.3805
▁fol	-12.3807
unda	-12.3817
ident	-12.3851
éro	-12.3884
▁neuro	-12.3885
▁shri	-12.3918
shit	-12.3921
duct	-12.3936
▁koo	-12.3944
▁unfi	-12.3948
ready	-12.395
logy	-12.3988
raine	-12.4002
▁herm	-12.4013
▁scor	-12.4018
drea	-12.4023
olo	-12.4034
uvre	-12.4043
male	-12.4056
▁earl	-12.4058
▁seventy	-12.407
perdu	-12.4073
pelled	-12.4077
▁phii	-12.4079
aaah	-12.4115
▁mul	-12.4154
owered	-12.4164
erber	-12.4168
mis	-12.417
nstone	-12.4204
weler	-12.4233
heard	-12.4235
trop	-12.4237
ady	-12.4244
▁congress	-12.4258
▁compet	-12.4263
laying	-12.4266
▁seam	-12.4269
▁republic	-12.4276
▁cassi	-12.4278
▁pacif	-12.4281
trained	-12.4285
▁compete	-12.4296
▁alcohol	-12.4306
gals	-12.4307
building	-12.4313
▁mario	-12.4336
▁franc	-12.4359
▁uneven	-12.436
utti	-12.4361
▁quad	-12.4377
▁meow	-12.4379
▁creak	-12.4385
▁wail	-12.4396
▁bruise	-12.44
▁vocal	-12.4401
▁alligator	-12.4412
▁chimney	-12.4412
▁gulp	-12.4412
▁accomplishment	-12.4413
▁poppin	-12.4417
▁communist	-12.4417
▁pharaoh	-12.4421
▁mushroom	-12.4421
▁consequence	-12.4421
▁nazi	-12.4422
▁fingerprint	-12.4423
▁millionaire	-12.4424
▁heure	-12.4424
▁seagull	-12.4426
▁glove	-12.4426
▁cigarette	-12.4426
▁applie	-12.4429
▁flea	-12.4433
▁sentinel	-12.4435
▁handwrit	-12.4438
▁rhode	-12.4438
▁investor	-12.4439
stance	-12.444
▁hub	-12.4443
▁vega	-12.4443
▁trickortreat	-12.4444
▁brake	-12.4445
ckos	-12.4446
terminated	-12.4447
▁sak	-12.4454
▁chime	-12.4458
riker	-12.4465
▁digit	-12.4466
▁bean	-12.4467
▁accus	-12.4469
aint	-12.4472
hilar	-12.4473
▁receiv	-12.4478
urne	-12.4479
▁blaz	-12.4487
ration	-12.4493
ease	-12.4494
habit	-12.4497
▁clothe	-12.45
▁indi	-12.45
about	-12.4503
▁socia	-12.4507
▁caf	-12.4511
▁trippin	-12.4511
writers	-12.4515
trust	-12.452
front	-12.4524
▁frie	-12.4528
▁awfu	-12.4529
▁stun	-12.4531
empt	-12.4532
path	-12.4535
minute	-12.454
écoute	-12.4542
▁specializ	-12.4542
dressed	-12.4543
mother	-12.4543
tube	-12.4544
compression	-12.4544
occupied	-12.4544
locate	-12.4544
publishing	-12.4544
▁preach	-12.4544
author	-12.4544
dynamic	-12.4545
▁associ	-12.4545
appropriate	-12.4547
competitive	-12.4547
forged	-12.4547
panem	-12.4547
appreciated	-12.4547
wakey	-12.4547
sensor	-12.4547
covered	-12.4547
instant	-12.4548
▁rav	-12.4548
bourgeois	-12.4548
detected	-12.4549
dried	-12.4549
smith	-12.4549
structure	-12.4549
discovery	-12.455
comm	-12.455
limited	-12.455
conceiv	-12.455
concert	-12.455
announce	-12.455
length	-12.455
cuba	-12.4551
▁shar	-12.4551
bucket	-12.4551
pleasant	-12.4551
fois	-12.4551
pilot	-12.4551
▁sprinkle	-12.4551
flame	-12.4551
dialing	-12.4551
connect	-12.4552
worthy	-12.4552
▁increas	-12.4552
hunting	-12.4552
storm	-12.4552
growth	-12.4552
condition	-12.4552
quoi	-12.4552
beef	-12.4552
crossed	-12.4553
grateful	-12.4553
reason	-12.4553
izzy	-12.4553
venom	-12.4553
spoken	-12.4553
wheel	-12.4553
dead	-12.4553
freak	-12.4553
scale	-12.4553
bury	-12.4553
giri	-12.4553
cleaning	-12.4553
rider	-12.4553
case	-12.4553
generation	-12.4553
decision	-12.4553
famous	-12.4553
bridge	-12.4554
held	-12.4554
ghost	-12.4554
correct	-12.4554
proof	-12.4554
quarter	-12.4554
advance	-12.4554
drinking	-12.4554
thousand	-12.4554
secret	-12.4554
snake	-12.4554
floor	-12.4554
picked	-12.4554
people	-12.4554
great	-12.4554
lucky	-12.4554
shift	-12.4554
important	-12.4554
sweet	-12.4554
white	-12.4554
bottom	-12.4554
party	-12.4554
together	-12.4554
mission	-12.4554
distance	-12.4555
drive	-12.4555
broke	-12.4555
ounce	-12.4555
figure	-12.4555
fingers	-12.4556
naked	-12.4556
justice	-12.4556
graphic	-12.4556
grew	-12.4556
choice	-12.4557
marry	-12.4559
organ	-12.4559
▁heartbreak	-12.4559
common	-12.4559
mbec	-12.4559
slide	-12.456
azzle	-12.456
▁belche	-12.456
▁evolv	-12.456
▁growl	-12.4561
▁figur	-12.4561
▁neigh	-12.4561
▁frustrat	-12.4562
everend	-12.4562
▁buiid	-12.4563
▁slurp	-12.4563
▁holler	-12.4563
bob	-12.4563
true	-12.4564
product	-12.4564
retched	-12.4565
▁suppos	-12.4565
▁annoy	-12.4565
▁exceed	-12.4565
hail	-12.4565
craz	-12.4565
wait	-12.4565
everything	-12.4566
bama	-12.4566
▁murmur	-12.4566
xas	-12.4566
risk	-12.4567
reach	-12.4567
atlng	-12.4568
ummies	-12.457
capable	-12.457
filled	-12.457
▁acquaint	-12.4571
▁dehydrat	-12.4571
bright	-12.4571
▁locat	-12.4572
chair	-12.4572
arro	-12.4572
eff	-12.4573
▁evict	-12.4574
bake	-12.4574
▁restrict	-12.4574
▁latch	-12.4574
▁dismiss	-12.4574
▁accomplish	-12.4575
▁depart	-12.4575
chick	-12.4576
change	-12.4576
▁condemn	-12.4577
treated	-12.4578
gear	-12.4578
lawful	-12.4579
▁successfu	-12.4579
text	-12.458
▁arrange	-12.458
▁offend	-12.458
▁interfere	-12.4581
▁underestimate	-12.4581
bang	-12.4583
letter	-12.4583
▁eliminate	-12.4584
drop	-12.4584
huit	-12.4584
▁secur	-12.4584
esignation	-12.4584
▁chamb	-12.4585
adde	-12.4586
▁amaze	-12.4586
▁involve	-12.4586
ride	-12.4586
▁réalis	-12.4588
produc	-12.4589
▁circl	-12.4589
▁festiv	-12.459
▁iceskat	-12.459
stock	-12.4591
join	-12.4591
▁burk	-12.4593
▁reflect	-12.4593
trusted	-12.4594
▁wond	-12.4594
▁possibilit	-12.4594
▁balanc	-12.4595
angel	-12.4595
olving	-12.4595
▁flatter	-12.4595
▁balcon	-12.4596
▁enfo	-12.4597
▁frequent	-12.4597
▁obstruct	-12.4599
▁merge	-12.4599
▁murd	-12.46
▁stewardess	-12.46
▁rabbi	-12.4601
▁persia	-12.4601
▁origin	-12.4601
▁chlo	-12.4601
made	-12.4601
tyeight	-12.4601
▁wonderfu	-12.4602
▁melodi	-12.4602
▁dwarv	-12.4602
▁hypocri	-12.4602
▁inspiration	-12.4602
izzle	-12.4602
▁troupe	-12.4603
▁tacti	-12.4603
▁turb	-12.4603
▁harpe	-12.4603
employed	-12.4603
ucci	-12.4603
▁presiden	-12.4603
▁revers	-12.4603
ghp	-12.4603
▁potato	-12.4604
▁clint	-12.4604
▁happie	-12.4604
elected	-12.4604
▁brazil	-12.4604
▁contro	-12.4604
▁recepti	-12.4604
lasses	-12.4605
▁counci	-12.4605
▁drivin	-12.4605
leans	-12.4606
▁terrifi	-12.4606
▁preten	-12.4606
homa	-12.4606
▁obligat	-12.4606
▁racin	-12.4606
▁patriot	-12.4606
eautiful	-12.4606
▁allons	-12.4606
nternet	-12.4606
▁celebrit	-12.4606
mmediately	-12.4606
▁obli	-12.4606
▁stoppin	-12.4607
▁engag	-12.4607
ediatric	-12.4607
farb	-12.4607
▁belgi	-12.4607
▁beneficia	-12.4607
▁sebasti	-12.4607
▁accompli	-12.4607
escent	-12.4607
ijuana	-12.4607
nomics	-12.4607
▁delica	-12.4608
▁roach	-12.4608
ordinate	-12.4608
▁differ	-12.4608
ipation	-12.4608
▁appeti	-12.4608
▁triumph	-12.4608
▁eleg	-12.4608
▁ignoran	-12.4608
▁inconvenien	-12.4608
biscuit	-12.4608
▁debug	-12.4608
▁ridicul	-12.4608
▁cigar	-12.4608
▁surveill	-12.4608
▁administ	-12.4608
igato	-12.4609
▁resid	-12.4609
▁congratuiat	-12.4609
▁anesthe	-12.4609
▁perpet	-12.4609
hallucin	-12.4609
unteers	-12.4609
▁apollo	-12.4609
▁douche	-12.4609
harmonic	-12.4609
ancien	-12.4609
▁orchestramarama	-12.4609
▁criticiz	-12.4609
▁degrad	-12.4609
▁décroch	-12.4609
▁hizzetyh	-12.4609
▁hydrochlori	-12.4609
▁incarcerat	-12.4609
▁inherent	-12.4609
▁minquiét	-12.4609
▁ricochet	-12.4609
▁salvage	-12.4609
▁selfconta	-12.4609
▁subconscious	-12.4609
▁subpoena	-12.4609
▁thimble	-12.4609
▁uppity	-12.4609
▁uptight	-12.4609
abundantly	-12.4609
barbital	-12.4609
bearer	-12.4609
controlled	-12.4609
eapapartmentscom	-12.4609
entendre	-12.4609
fabric	-12.4609
fascist	-12.4609
incarnation	-12.4609
jeopardy	-12.4609
juven	-12.4609
luence	-12.4609
ndescribable	-12.4609
ndonesia	-12.4609
npollut	-12.4609
ophile	-12.4609
quisit	-12.4609
rgermeister	-12.4609
wharfiversary	-12.4609
▁abducted	-12.4609
▁accommodat	-12.4609
▁accumulate	-12.4609
▁adieu	-12.4609
▁adjacent	-12.4609
▁advancing	-12.4609
▁aerobics	-12.4609
▁akita	-12.4609
▁alejandro	-12.4609
▁algebra	-12.4609
▁allegory	-12.4609
▁alumni	-12.4609
▁alvarez	-12.4609
▁ambassade	-12.4609
▁androgyn	-12.4609
▁anglais	-12.4609
▁animatronic	-12.4609
▁anlaughing	-12.4609
▁annabeth	-12.4609
▁apceros	-12.4609
▁appendix	-12.4609
▁archaeolog	-12.4609
▁aretha	-12.4609
▁armitage	-12.4609
▁armstrong	-12.4609
▁astronaut	-12.4609
▁athletic	-12.4609
▁atlantis	-12.4609
▁automatically	-12.4609
▁avantgarde	-12.4609
▁backstabb	-12.4609
▁bahamas	-12.4609
▁bakker	-12.4609
▁balboa	-12.4609
▁bankrupt	-12.4609
▁bathtub	-12.4609
▁bedsheet	-12.4609
▁beethoven	-12.4609
▁belittle	-12.4609
▁bethlehem	-12.4609
▁bimbo	-12.4609
▁blimey	-12.4609
▁bloomingdales	-12.4609
▁bordeaux	-12.4609
▁bountifu	-12.4609
▁brassart	-12.4609
▁brennan	-12.4609
▁brilliance	-12.4609
▁buisness	-12.4609
▁bulldozer	-12.4609
▁burbling	-12.4609
▁burrito	-12.4609
▁caiendar	-12.4609
▁camille	-12.4609
▁camouflage	-12.4609
▁candidates	-12.4609
▁cannibal	-12.4609
▁caribbean	-12.4609
▁cartagena	-12.4609
▁catastrophic	-12.4609
▁catnip	-12.4609
▁celsius	-12.4609
▁cepulis	-12.4609
▁chamberlain	-12.4609
▁circumcised	-12.4609
▁civilisation	-12.4609
▁claustrophobi	-12.4609
▁collaborator	-12.4609
▁collision	-12.4609
▁colonnade	-12.4609
▁colonoscopy	-12.4609
▁communiquer	-12.4609
▁comparisons	-12.4609
▁compartment	-12.4609
▁competitor	-12.4609
▁complement	-12.4609
▁condolences	-12.4609
▁conjurer	-12.4609
▁connecticut	-12.4609
▁conscript	-12.4609
▁constellation	-12.4609
▁continent	-12.4609
▁contribution	-12.4609
▁cornbread	-12.4609
▁cornelius	-12.4609
▁countermoves	-12.4609
▁crabapple	-12.4609
▁credibility	-12.4609
▁crikey	-12.4609
▁critique	-12.4609
▁culdesac	-12.4609
▁debrauwn	-12.4609
▁decommissioned	-12.4609
▁defiler	-12.4609
▁deinococcus	-12.4609
▁delinquent	-12.4609
▁demolish	-12.4609
▁dentreprise	-12.4609
▁denzel	-12.4609
▁dingalidas	-12.4609
▁disadvantage	-12.4609
▁dissolve	-12.4609
▁downhill	-12.4609
▁doyouthink	-12.4609
▁dungeon	-12.4609
▁dutiliser	-12.4609
▁eclipse	-12.4609
▁ecommerce	-12.4609
▁ecosystem	-12.4609
▁egregious	-12.4609
▁eiectr	-12.4609
▁elaborate	-12.4609
▁elysium	-12.4609
▁embuscade	-12.4609
▁employment	-12.4609
▁emptiness	-12.4609
▁encyclopedi	-12.4609
▁endorphins	-12.4609
▁enlighten	-12.4609
▁enobaria	-12.4609
▁envision	-12.4609
[...]
