<unk>	0
<s>	0
</s>	0
s	-4.09499
▁im	-4.39406
▁dont	-4.4474
▁know	-4.48389
▁get	-4.69079
▁right	-4.76524
▁go	-4.80797
▁like	-4.81309
▁yeah	-4.83656
▁youre	-4.88054
▁got	-4.88646
▁come	-4.93242
▁na	-5.01073
▁okay	-5.06271
▁thats	-5.08799
▁oh	-5.09076
▁one	-5.15356
▁well	-5.1657
▁gon	-5.26365
▁want	-5.27825
▁good	-5.30049
▁think	-5.34475
▁see	-5.3504
▁hey	-5.36395
▁man	-5.46248
▁back	-5.54407
ing	-5.5554
▁look	-5.58929
▁take	-5.60986
▁us	-5.6402
▁time	-5.6534
▁hes	-5.65711
▁fuck	-5.6972
▁l	-5.70041
▁yes	-5.71029
▁going	-5.71954
▁tell	-5.7321
▁cant	-5.74569
ed	-5.75835
▁need	-5.76312
▁say	-5.77983
▁ill	-5.78315
▁fucking	-5.82014
▁shit	-5.87313
▁really	-5.87315
▁didnt	-5.88115
▁something	-5.88481
▁would	-5.9036
▁whats	-5.93994
▁lets	-5.96101
▁sorry	-5.9656
▁mean	-5.98817
▁could	-5.99011
▁way	-6.00472
▁little	-6.00874
▁let	-6.01835
▁make	-6.02266
▁never	-6.02419
▁please	-6.02815
▁love	-6.061
▁give	-6.09971
▁	-6.12151
▁god	-6.14023
▁people	-6.15724
▁said	-6.16842
▁ive	-6.18328
▁theres	-6.21101
▁thank	-6.22274
▁help	-6.24072
▁two	-6.25355
▁shes	-6.28276
d	-6.2833
▁sure	-6.31618
▁even	-6.33394
▁much	-6.36397
▁thing	-6.38666
▁put	-6.39672
▁stop	-6.40134
▁day	-6.43563
▁uh	-6.43744
▁call	-6.44778
▁anything	-6.46305
▁wait	-6.47908
▁home	-6.48275
▁work	-6.4906
▁talk	-6.4909
y	-6.49184
▁maybe	-6.49684
▁night	-6.50426
▁guys	-6.50616
▁theyre	-6.51735
▁wan	-6.5179
▁hell	-6.51942
▁still	-6.52052
▁nothing	-6.52535
▁life	-6.53435
▁keep	-6.55742
▁find	-6.5865
▁first	-6.58659
▁last	-6.59528
▁guy	-6.59874
▁mr	-6.61664
▁better	-6.62315
▁everything	-6.62434
▁thought	-6.62862
▁great	-6.6326
▁away	-6.63743
▁baby	-6.63754
▁money	-6.64253
▁around	-6.64825
▁stay	-6.6554
▁ta	-6.66382
▁feel	-6.67126
▁ever	-6.68005
▁name	-6.68127
▁kill	-6.68364
▁told	-6.68527
▁new	-6.69084
▁things	-6.71403
▁nice	-6.72197
▁youve	-6.72761
▁always	-6.73155
▁long	-6.7347
▁old	-6.74817
▁every	-6.75302
▁leave	-6.75312
▁listen	-6.76908
▁three	-6.78425
▁years	-6.78657
▁fine	-6.80347
▁dead	-6.80607
▁big	-6.80936
▁car	-6.82049
▁doesnt	-6.82676
▁made	-6.82702
▁sir	-6.83535
▁done	-6.84213
ly	-6.85015
▁id	-6.85501
▁remember	-6.85902
▁hear	-6.85989
▁kind	-6.8648
▁door	-6.86544
e	-6.8665
▁hi	-6.86894
▁real	-6.87678
▁lot	-6.87693
▁boy	-6.87844
▁place	-6.88141
▁huh	-6.88719
▁aint	-6.8895
▁coming	-6.8897
▁mom	-6.90245
▁wont	-6.91052
▁believe	-6.91335
▁youll	-6.91526
▁hello	-6.91586
▁bad	-6.91617
▁house	-6.91765
▁someone	-6.92173
▁dad	-6.934
▁girl	-6.93598
▁move	-6.94197
▁wrong	-6.94903
▁woman	-6.95643
▁happened	-6.95787
▁must	-6.96633
▁thanks	-6.98391
▁enough	-6.98909
▁isnt	-6.98909
▁son	-7.00009
▁music	-7.00141
▁mother	-7.00213
▁talking	-7.01088
▁understand	-7.02069
▁show	-7.0209
▁head	-7.03259
▁wasnt	-7.03615
▁course	-7.04692
er	-7.05774
▁hold	-7.06229
▁getting	-7.06384
▁ask	-7.06934
▁play	-7.07914
▁left	-7.07995
▁friend	-7.08016
▁next	-7.08836
▁else	-7.09394
▁father	-7.09407
▁family	-7.09646
▁care	-7.09927
▁wanted	-7.10153
▁um	-7.1231
▁trying	-7.1232
▁might	-7.12704
▁world	-7.13719
▁came	-7.13765
▁another	-7.14345
▁room	-7.15046
▁open	-7.15456
▁looking	-7.15836
▁best	-7.15997
▁today	-7.19233
▁guess	-7.19545
▁mind	-7.20321
▁saw	-7.20809
▁lm	-7.21318
▁may	-7.22054
▁die	-7.22395
▁shut	-7.22537
▁hope	-7.232
▁damn	-7.24035
▁went	-7.24048
▁killed	-7.24575
▁playing	-7.25152
▁try	-7.25592
▁many	-7.25925
▁kid	-7.26839
▁used	-7.27073
▁phone	-7.27373
▁cause	-7.27799
▁men	-7.2808
▁wouldnt	-7.28453
▁found	-7.28688
▁tonight	-7.28747
▁ready	-7.28855
▁job	-7.28953
▁miss	-7.29081
▁jesus	-7.29785
▁live	-7.2987
▁school	-7.30416
a	-7.3056
▁already	-7.30834
▁hard	-7.30943
▁pretty	-7.31186
▁wife	-7.31894
▁took	-7.32251
▁story	-7.32253
▁whole	-7.32253
▁heard	-7.32548
▁meet	-7.32585
▁together	-7.32966
▁business	-7.33308
in	-7.33716
▁knew	-7.35511
▁face	-7.35899
▁fight	-7.36058
▁bring	-7.3616
▁start	-7.36669
▁turn	-7.37704
▁ass	-7.37784
▁days	-7.37924
▁morning	-7.38126
▁sit	-7.38736
▁kids	-7.39104
▁whos	-7.39219
▁called	-7.39289
▁watch	-7.39676
▁alone	-7.40033
▁gun	-7.40039
▁everybody	-7.40836
▁friends	-7.41009
▁tomorrow	-7.41194
▁use	-7.41274
▁idea	-7.413
▁end	-7.41355
▁actually	-7.41983
▁seen	-7.42418
▁run	-7.42776
▁hand	-7.43417
▁happy	-7.44364
▁problem	-7.44848
▁bitch	-7.45136
▁anyone	-7.45171
▁five	-7.46798
▁blood	-7.479
▁crazy	-7.48052
▁saying	-7.48857
▁police	-7.48874
▁gone	-7.4916
▁probably	-7.49312
▁john	-7.49761
▁cut	-7.49919
▁says	-7.50042
r	-7.50396
▁deal	-7.50757
t	-7.51026
▁ago	-7.51458
▁couldnt	-7.51506
l	-7.51834
n	-7.52204
▁whatever	-7.52317
▁true	-7.52317
▁weve	-7.52319
▁yet	-7.52319
▁havent	-7.52754
▁anyway	-7.54374
▁hands	-7.54464
▁beautiful	-7.5452
▁excuse	-7.5476
▁second	-7.54764
▁supposed	-7.55351
▁matter	-7.55387
▁later	-7.55465
▁person	-7.55681
▁looks	-7.55839
▁bit	-7.55995
▁hurt	-7.56148
▁whoa	-7.56321
▁since	-7.56754
▁easy	-7.57687
▁somebody	-7.58006
▁everyone	-7.58021
▁four	-7.58152
▁mine	-7.58191
▁youd	-7.58618
▁inside	-7.5862
▁lost	-7.58621
▁wants	-7.59243
▁fire	-7.59257
▁hit	-7.59649
▁exactly	-7.60023
▁ah	-7.60828
▁young	-7.60873
▁read	-7.61108
▁wheres	-7.61745
▁shot	-7.61755
▁brother	-7.61809
▁nobody	-7.63363
▁town	-7.63385
▁pay	-7.63862
▁sleep	-7.64853
▁drink	-7.65346
▁worry	-7.65438
▁year	-7.65713
▁soon	-7.65742
▁ok	-7.65847
▁sighs	-7.6587
▁minutes	-7.66152
▁boys	-7.66196
▁fuckin	-7.66241
▁cool	-7.66439
▁stuff	-7.67001
▁eat	-7.67287
▁word	-7.67313
▁close	-7.67408
st	-7.67476
▁gave	-7.67857
▁though	-7.68291
▁point	-7.687
ve	-7.68778
▁game	-7.68852
▁forget	-7.6886
▁daughter	-7.68871
▁daddy	-7.68893
▁eyes	-7.68894
▁girls	-7.69052
▁thinking	-7.69681
▁lts	-7.69757
▁without	-7.69898
▁paul	-7.69952
▁happen	-7.70393
▁goddamn	-7.7041
▁continues	-7.70737
es	-7.71346
▁stupid	-7.71469
▁taking	-7.71491
▁late	-7.71881
▁bed	-7.7221
▁death	-7.73167
▁laughing	-7.73215
▁check	-7.73556
▁body	-7.73603
▁mark	-7.73915
▁part	-7.74026
▁water	-7.74281
▁stand	-7.74416
m	-7.74495
▁shoot	-7.75215
▁walk	-7.75626
▁jack	-7.75767
▁anybody	-7.7689
▁eddie	-7.7689
▁sometimes	-7.76982
▁husband	-7.77597
▁times	-7.7767
▁red	-7.77718
al	-7.7783
▁dr	-7.7796
▁six	-7.78003
▁making	-7.78017
▁chance	-7.78173
▁jimmy	-7.78183
▁light	-7.78534
▁change	-7.78572
▁week	-7.78731
▁working	-7.78814
▁died	-7.78959
▁question	-7.79145
▁couple	-7.79347
o	-7.79573
▁welcome	-7.79715
▁mike	-7.79778
▁black	-7.79889
▁party	-7.80448
▁lord	-7.80516
▁em	-7.80691
▁different	-7.80752
▁almost	-7.80868
▁trust	-7.813
▁minute	-7.81656
▁met	-7.82013
▁honey	-7.82034
▁max	-7.82035
▁chuckles	-7.82113
▁book	-7.82249
▁makes	-7.82398
▁bill	-7.82668
▁far	-7.83042
▁rest	-7.83247
▁anymore	-7.83809
▁break	-7.86708
▁hate	-7.8704
▁voice	-7.8715
▁set	-7.87894
▁side	-7.8846
▁send	-7.88707
▁write	-7.89227
▁promise	-7.89527
▁knows	-7.90048
▁war	-7.90248
▁rock	-7.9026
▁hang	-7.9045
▁least	-7.90605
▁hows	-7.9133
▁white	-7.91734
▁bullshit	-7.9188
▁fun	-7.92782
▁full	-7.92847
▁christ	-7.93123
▁heart	-7.93253
▁trouble	-7.93849
▁high	-7.93977
▁billy	-7.94016
▁goes	-7.94295
▁doctor	-7.94297
▁hmm	-7.9452
▁afraid	-7.95177
▁half	-7.95828
▁also	-7.95849
▁bye	-7.95855
▁hours	-7.9595
▁moment	-7.96349
▁children	-7.9653
▁months	-7.96772
▁alive	-7.97214
▁case	-7.97584
▁mrs	-7.97688
▁sweet	-7.97865
▁sounds	-7.98557
▁behind	-7.98579
▁drive	-7.98948
▁outside	-7.9926
▁buy	-7.99298
▁win	-7.99318
▁speak	-7.99336
▁plan	-7.99356
▁screaming	-7.99361
▁un	-7.99602
▁speaking	-8.00352
▁small	-8.00591
▁front	-8.00673
▁city	-8.0069
▁telling	-8.00791
i	-8.00793
▁ha	-8.00912
▁touch	-8.01336
▁wish	-8.0134
▁started	-8.01975
▁women	-8.02101
▁pick	-8.02115
▁comes	-8.02123
▁free	-8.02162
▁asked	-8.02177
▁clear	-8.02183
▁line	-8.02634
▁number	-8.02722
▁hour	-8.02726
▁arent	-8.03545
▁sister	-8.04193
▁wow	-8.04277
▁drop	-8.04279
k	-8.04362
▁cold	-8.04951
▁child	-8.05749
▁laughs	-8.0662
▁waiting	-8.06842
▁safe	-8.07069
▁important	-8.07137
▁piece	-8.07223
▁funny	-8.07257
▁scared	-8.07322
▁sick	-8.0866
▁needs	-8.08715
▁straight	-8.08768
▁married	-8.09542
▁means	-8.09565
▁tried	-8.0957
▁hot	-8.11082
▁charlie	-8.11096
▁bet	-8.11272
▁sound	-8.11496
▁theyll	-8.11892
▁living	-8.11892
▁dave	-8.11894
▁team	-8.11895
▁perfect	-8.12124
▁indistinct	-8.12568
▁quite	-8.12746
▁peter	-8.13528
▁control	-8.14274
▁lady	-8.14296
▁dude	-8.14356
▁reason	-8.14357
▁johnny	-8.14371
▁s	-8.14374
▁pull	-8.14383
▁dance	-8.14815
▁fast	-8.14844
▁ten	-8.15241
▁gets	-8.15511
▁beat	-8.15536
▁worth	-8.15744
▁hair	-8.15761
▁radio	-8.15918
▁dog	-8.16498
▁save	-8.16565
▁james	-8.16602
▁power	-8.16845
▁grunts	-8.16867
▁cop	-8.17016
▁th	-8.17129
▁either	-8.17575
▁shouldnt	-8.17576
▁lose	-8.17812
▁smell	-8.18092
▁order	-8.18122
▁leaving	-8.19264
ion	-8.1935
▁c	-8.19366
▁clean	-8.19974
▁office	-8.20913
▁werent	-8.2098
▁groans	-8.21028
▁feeling	-8.2116
▁motherfucker	-8.21165
▁state	-8.21394
▁ya	-8.21568
▁dinner	-8.22728
▁fault	-8.22728
▁grunting	-8.22759
▁lll	-8.22895
▁bag	-8.2296
▁serious	-8.23506
▁itll	-8.23613
▁ahead	-8.23614
▁running	-8.23616
▁lucky	-8.23751
▁street	-8.23842
▁answer	-8.24025
▁throw	-8.24113
▁b	-8.24267
▁brought	-8.24505
▁wake	-8.24744
▁dream	-8.24891
▁mmm	-8.25382
▁truth	-8.25401
▁hurry	-8.25408
▁ones	-8.25976
ie	-8.26148
▁mommy	-8.26322
▁mmhmm	-8.26329
▁top	-8.26344
▁eye	-8.27184
▁air	-8.27279
▁along	-8.28162
▁country	-8.28164
▁annie	-8.28169
▁heres	-8.28244
▁mouth	-8.28482
▁sex	-8.28823
▁born	-8.2899
▁calm	-8.29099
▁lives	-8.29501
▁finish	-8.29727
h	-8.30023
▁buddy	-8.30036
▁de	-8.30095
▁lt	-8.30176
▁re	-8.30406
▁choice	-8.30439
▁weeks	-8.30727
▁blow	-8.30905
▁french	-8.30988
▁mama	-8.31289
▁fucked	-8.31294
▁asking	-8.31335
▁la	-8.31804
▁till	-8.31806
▁yall	-8.31965
▁news	-8.32
▁cover	-8.32018
ic	-8.32239
▁road	-8.32395
p	-8.32676
ies	-8.32831
▁careful	-8.32868
▁dear	-8.32912
▁shall	-8.32922
▁ride	-8.33286
▁become	-8.33318
▁seems	-8.3336
▁luck	-8.33797
▁murder	-8.33901
▁parents	-8.34174
▁happens	-8.34498
▁taken	-8.34751
▁coach	-8.34889
▁company	-8.34891
▁kiss	-8.35219
▁sam	-8.35608
▁stick	-8.35793
c	-8.35828
▁yo	-8.35863
▁drunk	-8.35872
▁step	-8.36698
▁alright	-8.36902
▁follow	-8.37229
or	-8.37255
▁sign	-8.37473
▁catch	-8.37493
▁happening	-8.37637
▁quick	-8.37721
▁loved	-8.38816
▁birthday	-8.38953
▁holy	-8.38985
▁fat	-8.3907
▁able	-8.39136
▁seat	-8.39173
▁ben	-8.39375
▁quiet	-8.39883
▁glad	-8.39893
▁phil	-8.39948
▁teddy	-8.39995
▁none	-8.40021
▁finally	-8.4005
▁act	-8.40186
g	-8.40277
▁million	-8.40536
▁calling	-8.40547
▁explain	-8.40631
▁song	-8.40636
▁train	-8.40682
est	-8.40927
▁north	-8.41046
▁henry	-8.41051
▁shell	-8.41283
▁crying	-8.41288
▁changed	-8.41406
▁todd	-8.42106
▁special	-8.42136
▁weird	-8.42935
▁sense	-8.43162
▁dark	-8.4318
▁coffee	-8.43186
▁killer	-8.43191
▁breathing	-8.4341
▁mad	-8.44212
▁grab	-8.44273
▁worse	-8.44273
▁feet	-8.44281
▁eight	-8.44338
▁shed	-8.44362
an	-8.44673
▁fact	-8.44736
▁seeing	-8.44845
▁lie	-8.45304
▁harry	-8.45373
▁yeh	-8.45411
▁band	-8.45835
▁cops	-8.4633
▁kept	-8.46485
▁tired	-8.46506
▁gasps	-8.46615
▁names	-8.46782
▁asshole	-8.47174
▁wed	-8.47388
▁poor	-8.47511
▁in	-8.47582
▁food	-8.4762
▁kidding	-8.47622
▁seem	-8.47824
▁respect	-8.47983
▁hospital	-8.48281
▁month	-8.48327
▁meeting	-8.48346
▁looked	-8.48528
▁honest	-8.48641
▁slow	-8.48645
▁watching	-8.48726
▁seven	-8.48734
▁maam	-8.48745
▁felt	-8.48745
▁fair	-8.4875
▁ladies	-8.48751
▁groaning	-8.48758
▁human	-8.49307
▁secret	-8.49477
▁bastard	-8.49485
▁relax	-8.49561
▁past	-8.49714
▁prison	-8.4979
▁class	-8.49842
▁others	-8.49892
▁hundred	-8.49896
▁boss	-8.49897
▁crowd	-8.49908
▁figure	-8.50438
▁swear	-8.50646
▁round	-8.50663
▁captain	-8.51055
▁g	-8.51097
▁words	-8.51117
▁bar	-8.51434
▁less	-8.51634
▁across	-8.52232
▁amazing	-8.52232
▁anywhere	-8.52232
▁absolutely	-8.52246
▁jr	-8.52287
less	-8.52414
▁art	-8.52469
▁du	-8.52531
▁fall	-8.5267
▁single	-8.53221
▁j	-8.53354
▁killing	-8.53421
▁rather	-8.53423
▁moving	-8.53428
▁needed	-8.53489
▁nine	-8.53603
on	-8.54027
ation	-8.54307
▁they	-8.54412
▁york	-8.54526
▁russell	-8.54627
▁richie	-8.54669
▁hed	-8.54793
▁stu	-8.5496
▁nigga	-8.55504
▁smart	-8.55718
▁glass	-8.55801
▁ring	-8.56661
▁questions	-8.56722
▁boat	-8.56763
▁matt	-8.56828
▁pain	-8.56983
▁quit	-8.56986
▁strong	-8.56994
▁worked	-8.57042
▁king	-8.57071
▁breathe	-8.57377
▁grand	-8.57507
▁bell	-8.57747
▁caught	-8.58331
▁security	-8.58334
ers	-8.58523
▁sell	-8.58909
▁spend	-8.59213
▁t	-8.59299
▁smoke	-8.59306
▁table	-8.59356
▁officer	-8.59389
▁frank	-8.59455
▁rich	-8.59558
▁possible	-8.59597
▁somewhere	-8.59597
▁ooh	-8.59597
▁forever	-8.59597
▁ice	-8.5965
▁p	-8.59855
▁n	-8.60039
▁learn	-8.60168
▁expect	-8.60183
re	-8.60241
▁window	-8.60599
▁broke	-8.60874
▁lisa	-8.6088
▁janet	-8.60892
▁alan	-8.60893
▁wonderful	-8.60929
▁early	-8.6094
▁mum	-8.60954
▁works	-8.61482
▁meant	-8.61644
▁america	-8.61694
▁dick	-8.61897
▁gentlemen	-8.62179
▁uncle	-8.62182
▁terrible	-8.62187
▁roll	-8.6247
▁longer	-8.62742
en	-8.63038
▁fix	-8.63184
▁moved	-8.63189
▁pete	-8.63213
▁type	-8.63243
▁picture	-8.63274
▁middle	-8.63475
▁laugh	-8.63929
▁test	-8.64132
able	-8.64164
▁turned	-8.64583
▁soul	-8.64597
▁ryan	-8.64827
▁definitely	-8.64829
▁earth	-8.64834
▁shouting	-8.64938
▁south	-8.65377
▁enjoy	-8.65463
▁chatter	-8.65803
▁mess	-8.65936
▁gold	-8.66037
f	-8.66052
▁church	-8.66121
▁situation	-8.66178
▁goodbye	-8.66178
▁missing	-8.6631
▁record	-8.66459
▁box	-8.66713
▁teach	-8.67416
▁worried	-8.67548
▁private	-8.67549
▁paid	-8.67571
▁katie	-8.67612
▁lily	-8.67661
▁age	-8.67972
▁share	-8.6809
▁pass	-8.68104
▁known	-8.6844
▁chain	-8.68767
▁ball	-8.68909
▁treat	-8.68927
▁cohen	-8.68937
▁cash	-8.68942
▁kevin	-8.68949
▁sent	-8.68952
▁wall	-8.70201
▁mothers	-8.70207
le	-8.70301
▁personal	-8.70362
▁pants	-8.70402
▁handle	-8.70504
▁seriously	-8.70515
man	-8.70618
▁seconds	-8.70989
▁sort	-8.71221
el	-8.71365
▁club	-8.71666
us	-8.71673
▁simple	-8.71714
▁floor	-8.71772
▁tommy	-8.71775
▁forward	-8.71779
▁giving	-8.71786
▁army	-8.71919
ful	-8.72288
▁return	-8.72502
▁offer	-8.72554
▁missed	-8.73067
▁cell	-8.73082
▁near	-8.73091
▁nigger	-8.73101
▁short	-8.73108
▁talked	-8.73189
▁attention	-8.73223
▁forgot	-8.73223
▁appreciate	-8.73225
▁president	-8.73227
▁alice	-8.73237
▁building	-8.73242
▁wade	-8.73249
▁sitting	-8.73251
▁unless	-8.73265
▁arms	-8.73289
▁american	-8.73326
▁rose	-8.73332
▁takes	-8.7379
▁tape	-8.74402
▁owe	-8.7453
▁stan	-8.74557
▁ground	-8.74564
▁english	-8.74694
▁outta	-8.74697
▁allen	-8.74697
▁writing	-8.74714
▁doin	-8.74721
▁fighting	-8.74723
▁letter	-8.74739
▁busy	-8.74841
▁arm	-8.75148
▁william	-8.75508
▁present	-8.7577
▁mistake	-8.76051
▁strange	-8.76066
▁pleasure	-8.76186
▁darling	-8.76187
▁stopped	-8.76221
▁lay	-8.76231
▁goin	-8.76338
▁wear	-8.77101
▁bus	-8.77464
▁major	-8.77701
▁sweetheart	-8.77701
▁twice	-8.77701
▁upon	-8.77713
▁reach	-8.77726
▁sad	-8.77851
▁mission	-8.77876
▁bank	-8.78452
▁wonder	-8.78479
▁drugs	-8.78885
▁entire	-8.79131
▁mm	-8.79227
▁movie	-8.7923
▁future	-8.7924
▁choose	-8.7924
▁alex	-8.79242
▁tv	-8.79253
ar	-8.7948
▁following	-8.79819
▁walking	-8.80312
▁drinking	-8.80428
▁joe	-8.80694
▁bullet	-8.80812
▁station	-8.80824
▁beth	-8.80859
▁accident	-8.81537
▁land	-8.81852
▁d	-8.81991
▁fool	-8.82019
▁cute	-8.82143
▁taste	-8.82181
▁clothes	-8.82343
▁perhaps	-8.8239
▁hungry	-8.82393
▁apartment	-8.82399
▁babe	-8.82401
▁message	-8.82423
▁completely	-8.82442
▁court	-8.83025
▁report	-8.83228
▁protect	-8.83228
▁burn	-8.83426
▁count	-8.83449
▁st	-8.83633
▁sea	-8.83807
▁deep	-8.83814
▁forgive	-8.83935
▁favor	-8.84001
▁especially	-8.84002
▁language	-8.84002
▁yesterday	-8.84002
▁bought	-8.84004
▁information	-8.84008
▁sake	-8.84019
▁nancy	-8.84021
▁system	-8.84042
▁lying	-8.84046
▁west	-8.84054
▁casey	-8.84359
▁bro	-8.84579
▁holding	-8.8462
▁given	-8.84864
z	-8.85163
▁star	-8.85286
▁fear	-8.8533
▁fly	-8.8534
▁judge	-8.85382
▁imagine	-8.85444
▁general	-8.85529
▁shouldve	-8.85643
▁babies	-8.85643
▁spent	-8.85643
▁christmas	-8.85648
▁hotel	-8.85689
▁corner	-8.85691
▁strike	-8.8571
▁feels	-8.85823
▁van	-8.86323
▁push	-8.86593
▁pack	-8.86595
▁trip	-8.86812
▁cry	-8.86917
▁e	-8.86954
▁ran	-8.87128
▁difference	-8.87309
▁favorite	-8.8731
▁wedding	-8.87315
▁panting	-8.87325
▁neil	-8.87338
▁eh	-8.87338
▁f	-8.87419
u	-8.8762
▁blue	-8.87629
▁interview	-8.88351
▁dreams	-8.88529
▁keys	-8.88741
▁dying	-8.89004
▁proud	-8.89005
▁double	-8.89006
▁wrote	-8.89013
te	-8.89033
▁molly	-8.89037
▁ed	-8.8906
▁neck	-8.89067
▁bigger	-8.89068
▁dollars	-8.89371
▁bite	-8.89767
▁legs	-8.90316
▁warm	-8.90318
▁states	-8.90357
▁kick	-8.90419
▁fell	-8.90639
▁afternoon	-8.90728
▁nowhere	-8.90728
▁summer	-8.90728
▁college	-8.90728
▁boyfriend	-8.9073
▁dirty	-8.9075
▁certainly	-8.90791
▁sweetie	-8.90792
▁david	-8.90863
▁paper	-8.909
▁brothers	-8.91106
▁shoes	-8.91244
▁wouldve	-8.91676
▁standing	-8.91951
▁listening	-8.92207
▁suppose	-8.92294
▁surprise	-8.92456
▁kitchen	-8.92482
▁london	-8.92482
▁detective	-8.92482
▁driving	-8.92483
▁contact	-8.92485
▁low	-8.92519
▁cheering	-8.92574
▁hide	-8.92595
▁island	-8.92608
▁agent	-8.92672
▁balls	-8.92683
▁cheers	-8.92863
▁gas	-8.92902
▁promised	-8.93018
▁map	-8.93227
▁evening	-8.93983
▁realize	-8.94262
▁evidence	-8.94268
▁yep	-8.94271
▁madame	-8.94315
▁stone	-8.94349
▁copy	-8.9459
▁r	-8.95226
▁breath	-8.95464
▁knock	-8.95584
▁peace	-8.95727
▁wild	-8.9599
▁tough	-8.95992
▁lampley	-8.96086
▁calls	-8.96111
▁congratulations	-8.9613
▁united	-8.96237
▁idiot	-8.96323
ll	-8.96326
▁camera	-8.96362
▁key	-8.96428
▁screams	-8.9704
▁pray	-8.97124
▁books	-8.97238
▁rain	-8.97561
▁arrest	-8.97623
▁camp	-8.97785
▁nothin	-8.97912
▁super	-8.97919
▁upstairs	-8.97938
▁uhhuh	-8.9794
▁vincent	-8.97949
▁eggsy	-8.9797
▁charge	-8.98037
ity	-8.9814
▁law	-8.98162
▁heaven	-8.98193
▁sing	-8.98362
▁fit	-8.98488
▁ringing	-8.98513
▁sun	-8.98737
▁couldve	-8.98873
▁jump	-8.98951
▁guard	-8.9938
▁honor	-8.99512
▁carry	-8.9954
▁lead	-8.99655
▁nervous	-8.99704
▁tight	-8.99806
▁instead	-8.99825
▁river	-8.99825
▁throat	-8.99827
▁lars	-8.99856
nt	-9.00093
▁nuts	-9.00139
▁adam	-9.00163
▁horse	-9.00192
ur	-9.00395
▁tree	-9.00925
▁visit	-9.01003
▁using	-9.01029
▁wind	-9.01106
ass	-9.01125
up	-9.01166
▁k	-9.01186
▁a	-9.01258
▁loud	-9.01596
▁paris	-9.01709
▁lock	-9.01728
▁feed	-9.01739
▁heavily	-9.01748
▁knife	-9.01748
▁bunch	-9.01749
▁stuck	-9.01757
▁scottie	-9.01765
▁bob	-9.01927
▁interested	-9.01944
▁records	-9.02018
as	-9.02051
▁service	-9.02114
▁brain	-9.02138
▁store	-9.02232
▁miles	-9.02238
▁rolling	-9.02312
▁chicken	-9.024
▁rules	-9.0266
▁park	-9.02715
▁join	-9.02899
▁except	-9.03081
▁problems	-9.03306
▁escape	-9.03515
▁howd	-9.03562
▁pen	-9.03643
▁ow	-9.03673
▁shh	-9.03685
▁dumb	-9.03696
▁grace	-9.03703
▁beyond	-9.03708
▁video	-9.03708
▁whether	-9.03708
▁leena	-9.03711
▁jail	-9.03711
▁jerry	-9.03714
▁dangerous	-9.03716
▁scene	-9.03716
▁nick	-9.03734
▁position	-9.03738
▁lovely	-9.03799
▁staying	-9.03822
▁list	-9.04017
▁joke	-9.04047
▁operation	-9.04074
▁government	-9.04091
▁action	-9.04157
▁saved	-9.04161
▁drug	-9.04175
▁w	-9.04328
▁finished	-9.04371
▁lve	-9.05032
▁grow	-9.05203
▁agree	-9.05509
▁soft	-9.05584
▁final	-9.05617
▁julia	-9.05657
▁price	-9.05688
▁angry	-9.05708
▁governor	-9.05708
▁neither	-9.05708
▁tricia	-9.05709
▁beverly	-9.05714
▁whoo	-9.05726
▁starting	-9.05739
▁moon	-9.05743
▁simon	-9.05756
▁deserve	-9.05945
▁interesting	-9.0596
▁ghost	-9.06123
▁group	-9.06124
▁cousin	-9.06151
▁field	-9.06183
ne	-9.06332
▁awful	-9.06347
v	-9.06534
▁ex	-9.06583
▁walked	-9.06845
b	-9.07196
▁i	-9.07198
▁leg	-9.0728
▁press	-9.07435
▁bother	-9.07486
▁amen	-9.07533
▁guns	-9.07699
▁lunch	-9.07737
▁brooks	-9.07749
▁somehow	-9.07749
▁lenny	-9.0775
▁worst	-9.07751
▁cunt	-9.07751
▁fake	-9.07752
▁harris	-9.0776
▁smile	-9.07775
▁sally	-9.07799
▁dramatic	-9.078
▁ray	-9.07962
ant	-9.08168
▁girlfriend	-9.08197
▁crime	-9.082
▁weapon	-9.08244
▁lawyer	-9.08245
▁lf	-9.0825
▁reporter	-9.08338
▁v	-9.08427
ous	-9.08473
▁picked	-9.08642
ry	-9.08923
▁al	-9.09146
▁thinks	-9.09247
▁sheriff	-9.09832
▁chicago	-9.09833
▁memory	-9.09833
▁named	-9.09841
▁chow	-9.09841
▁grandma	-9.09844
▁aye	-9.0985
▁jones	-9.0987
▁mary	-9.09905
▁engine	-9.09928
▁joey	-9.10035
▁doubt	-9.10327
▁master	-9.10377
▁bear	-9.10519
▁dress	-9.1055
▁prove	-9.10783
▁piss	-9.11168
▁shooting	-9.113
▁nah	-9.11309
▁normal	-9.11867
▁chief	-9.1196
▁dasong	-9.1196
▁esther	-9.11961
▁whoever	-9.11961
▁papa	-9.11963
▁minnie	-9.11966
▁candyman	-9.11973
▁pool	-9.11975
▁green	-9.11979
▁wet	-9.11982
▁games	-9.12017
▁putting	-9.12035
▁usually	-9.12059
▁per	-9.12277
▁sean	-9.12325
▁hole	-9.12356
▁harder	-9.12485
▁beer	-9.12598
▁cross	-9.13431
▁reading	-9.13692
▁marry	-9.13711
▁space	-9.13908
▁raise	-9.13943
▁within	-9.14134
▁risk	-9.14148
▁sold	-9.14189
▁hoping	-9.14294
▁hook	-9.14303
▁locked	-9.14484
▁knocking	-9.14591
▁learned	-9.14671
▁chair	-9.14719
▁decision	-9.1472
▁monkey	-9.14728
▁clown	-9.14735
▁spirit	-9.14757
▁driver	-9.14942
▁pal	-9.15047
▁aw	-9.15677
▁accept	-9.16015
▁stage	-9.16147
▁witness	-9.16306
▁otherwise	-9.16356
▁whirring	-9.16356
▁midnight	-9.16357
▁gift	-9.16357
▁history	-9.1636
▁folks	-9.16446
▁date	-9.16654
▁whose	-9.16996
▁machine	-9.17013
▁cost	-9.17024
▁loves	-9.17062
▁whore	-9.17092
▁what	-9.17137
▁painting	-9.17247
▁liked	-9.17269
▁plane	-9.17519
▁lived	-9.17597
▁be	-9.17683
▁cat	-9.18215
▁color	-9.18253
▁san	-9.18605
▁apologize	-9.18629
▁written	-9.18629
▁waldo	-9.18629
▁deadpool	-9.18635
▁alarm	-9.18643
▁george	-9.18653
▁liar	-9.1866
▁bigge	-9.18738
▁decided	-9.18824
▁honestly	-9.18844
▁block	-9.19022
▁seemed	-9.19266
▁roger	-9.19299
▁fired	-9.19562
ist	-9.19947
▁mo	-9.20455
to	-9.20468
▁martin	-9.20648
▁admit	-9.20941
▁theo	-9.20945
▁anthony	-9.20955
▁apparently	-9.20955
▁enemy	-9.20955
▁everywhere	-9.20955
▁bathroom	-9.20955
▁extra	-9.20956
▁famous	-9.20958
▁lieutenant	-9.20958
▁innocent	-9.20962
▁weight	-9.20989
▁obviously	-9.21021
▁hail	-9.21085
▁quickly	-9.212
▁pictures	-9.21377
▁wine	-9.21521
ch	-9.21544
▁account	-9.21672
th	-9.2172
▁truck	-9.21989
▁bucks	-9.22084
rs	-9.22427
▁crack	-9.22486
▁mate	-9.22603
▁where	-9.23212
▁shame	-9.23297
▁insane	-9.23336
▁michael	-9.23336
▁taught	-9.23336
▁opportunity	-9.23336
▁support	-9.23339
▁nose	-9.23396
▁broken	-9.2344
▁losing	-9.23529
▁ava	-9.23536
▁showed	-9.23733
▁experience	-9.23921
▁spot	-9.24095
▁prick	-9.2412
▁devil	-9.24152
▁thousand	-9.24187
▁student	-9.24195
▁pa	-9.24548
et	-9.24863
▁rid	-9.25114
▁weapons	-9.25173
▁draw	-9.25179
▁assume	-9.25588
▁decide	-9.2561
▁stole	-9.25721
▁pussy	-9.25775
▁address	-9.25775
▁hasnt	-9.25775
▁denny	-9.25776
▁stories	-9.25776
▁edward	-9.25777
▁jim	-9.25781
▁emergency	-9.25784
▁foot	-9.25795
▁totally	-9.25837
▁lili	-9.25858
▁kat	-9.25868
▁bomb	-9.26247
▁passed	-9.26328
▁wondering	-9.26388
ce	-9.26434
▁lied	-9.26437
▁keeping	-9.2644
▁force	-9.26489
▁expecting	-9.26511
▁professional	-9.26549
▁target	-9.26678
▁belong	-9.26678
ment	-9.27104
▁m	-9.27116
▁pre	-9.27313
out	-9.27427
▁gives	-9.27603
▁rent	-9.27811
▁con	-9.2782
w	-9.27931
▁suspect	-9.27946
▁spoke	-9.28218
▁daughters	-9.28257
▁asleep	-9.28275
▁conrad	-9.28275
▁empty	-9.28275
▁afford	-9.28275
▁rosie	-9.28275
▁evil	-9.28276
▁gotten	-9.28279
▁aah	-9.2828
▁warren	-9.28282
▁troy	-9.28286
▁match	-9.28304
▁gasping	-9.28351
time	-9.28427
▁hiding	-9.28432
▁starts	-9.28498
x	-9.2866
▁besides	-9.2874
▁singing	-9.28797
▁continue	-9.29069
▁suit	-9.29128
▁pop	-9.29201
▁cake	-9.29205
▁relationship	-9.2922
▁artist	-9.29247
▁ship	-9.29277
▁fella	-9.29364
▁doc	-9.29556
▁career	-9.29809
▁ii	-9.2984
▁correct	-9.30722
▁suck	-9.30726
▁fresh	-9.30817
▁heavy	-9.30838
▁cream	-9.30839
▁marriage	-9.30839
▁saturday	-9.30839
▁sergeant	-9.30839
▁flight	-9.30839
▁mickey	-9.3084
▁professor	-9.3084
▁louis	-9.30842
▁sugar	-9.30843
▁thou	-9.30845
▁held	-9.30848
▁pinch	-9.30855
▁smoking	-9.30856
▁involved	-9.30867
▁buzzing	-9.30904
▁gay	-9.30929
▁turns	-9.30966
lng	-9.31111
▁surprised	-9.31116
▁skin	-9.31244
ive	-9.31568
▁bridge	-9.31752
▁bloody	-9.31785
▁shop	-9.31834
▁roof	-9.32526
▁lights	-9.32722
▁eating	-9.3282
▁form	-9.33
▁east	-9.33039
▁ruin	-9.33158
▁public	-9.33432
▁einar	-9.3347
▁impossible	-9.3347
▁malcolm	-9.3347
▁department	-9.3347
▁chinese	-9.33471
▁vada	-9.33471
▁distance	-9.33472
▁noah	-9.33473
▁airport	-9.33476
▁pont	-9.33476
▁barely	-9.33477
▁whyd	-9.33483
▁ought	-9.33492
▁confused	-9.33498
▁gary	-9.33512
▁board	-9.33549
▁letting	-9.33612
▁manage	-9.33735
▁figured	-9.33904
▁writer	-9.33964
▁speaks	-9.34049
▁plans	-9.34072
▁tie	-9.34347
▁note	-9.34431
▁dare	-9.34515
▁tap	-9.34702
ness	-9.35058
it	-9.35213
▁h	-9.35325
▁tea	-9.35422
▁pretend	-9.35434
▁mention	-9.35878
▁notice	-9.35982
▁cars	-9.36046
▁steve	-9.36121
▁over	-9.36152
▁faith	-9.36155
▁tour	-9.36168
▁snow	-9.36171
▁elizabeth	-9.36173
▁excellent	-9.36173
▁often	-9.36173
▁sweat	-9.36173
▁lonely	-9.36173
▁texas	-9.36174
▁pressure	-9.36176
▁latin	-9.3618
▁practice	-9.36183
▁excited	-9.36191
▁miller	-9.36192
▁milk	-9.36207
▁yelling	-9.36253
▁tom	-9.36358
▁sisters	-9.36488
▁screw	-9.36532
ance	-9.36624
▁opening	-9.36872
▁attack	-9.37012
▁closed	-9.37198
▁pulled	-9.37227
▁dis	-9.37245
ate	-9.37326
▁partner	-9.37363
▁flat	-9.37395
▁post	-9.37553
▁hearing	-9.38071
▁fill	-9.38283
▁sleeping	-9.38306
▁roy	-9.38379
▁se	-9.38387
▁waste	-9.38813
▁brave	-9.38898
▁apart	-9.38935
▁omara	-9.38951
▁gunnar	-9.38951
▁village	-9.38951
▁beginning	-9.38951
▁olmo	-9.38951
▁teeth	-9.38952
▁self	-9.38953
▁susanna	-9.38953
▁henrik	-9.38955
▁anna	-9.38957
▁juan	-9.38966
▁movies	-9.38971
▁cheese	-9.38974
▁social	-9.38988
▁sky	-9.39016
▁dean	-9.39024
▁agreed	-9.39216
age	-9.39278
▁numbers	-9.39367
is	-9.39529
▁wearing	-9.39658
▁julie	-9.39944
▁horn	-9.4003
▁craig	-9.40119
▁begin	-9.40221
▁hill	-9.40385
▁file	-9.40648
▁fucker	-9.40732
▁cook	-9.40958
▁paying	-9.41163
▁horses	-9.41281
▁dogs	-9.41437
▁health	-9.41658
▁certain	-9.41693
▁survive	-9.41715
▁among	-9.41758
▁candy	-9.41793
▁usual	-9.41804
▁percent	-9.41804
▁campaign	-9.41808
▁colonel	-9.41808
▁plenty	-9.41808
▁screeching	-9.41808
▁suicide	-9.41808
▁hadnt	-9.41808
▁meat	-9.41808
▁daiton	-9.41809
▁lucas	-9.4181
▁pregnant	-9.4181
▁thatll	-9.41811
▁michelle	-9.41813
▁stanley	-9.41817
▁according	-9.41847
▁storm	-9.41847
▁opens	-9.41852
▁guilty	-9.41898
▁nurse	-9.41953
▁softly	-9.41961
▁letters	-9.42043
▁played	-9.42096
▁greatest	-9.42181
▁burned	-9.42363
▁someones	-9.42623
▁chattering	-9.42628
um	-9.42642
▁wire	-9.42869
ty	-9.42915
▁bottle	-9.43133
▁pocket	-9.43155
id	-9.43218
▁places	-9.43318
▁lots	-9.43425
▁fellas	-9.43621
▁freak	-9.43816
▁search	-9.44003
▁command	-9.44244
▁orders	-9.44278
▁base	-9.44549
▁split	-9.44748
▁downstairs	-9.44749
▁genius	-9.44749
▁sobbing	-9.44749
▁fortune	-9.44749
▁ridiculous	-9.44749
▁fruit	-9.44749
▁grew	-9.4475
▁local	-9.4475
▁stephen	-9.44751
▁mmmhmm	-9.44752
▁plus	-9.44754
▁disgusting	-9.44756
▁connection	-9.44756
▁princess	-9.44762
▁turning	-9.44766
▁beeping	-9.44791
▁ugh	-9.44793
▁nature	-9.44846
▁kate	-9.44899
▁worlds	-9.45059
▁realized	-9.45105
▁buck	-9.45556
▁everythings	-9.45715
▁scream	-9.45753
▁acting	-9.45849
▁vote	-9.45886
▁hurts	-9.45889
▁matters	-9.46019
▁shirt	-9.46132
▁level	-9.46145
▁woods	-9.46205
▁helped	-9.46338
▁lies	-9.47073
▁interest	-9.47094
▁ended	-9.47137
▁fish	-9.4718
▁watched	-9.47186
▁steal	-9.47385
▁ends	-9.47489
▁success	-9.47539
one	-9.47542
▁release	-9.47582
▁rough	-9.47664
▁heat	-9.47673
▁loose	-9.47716
▁boom	-9.47731
▁fathers	-9.47742
ern	-9.47759
▁gym	-9.47779
▁became	-9.47779
▁foreign	-9.4778
▁jenny	-9.4778
▁advice	-9.4778
▁pennywise	-9.4778
▁incident	-9.47785
▁barbara	-9.47785
▁began	-9.4779
▁understood	-9.4779
▁third	-9.47791
▁lena	-9.47794
▁winner	-9.47795
▁intense	-9.47802
▁bringing	-9.4785
▁male	-9.47921
▁praying	-9.48415
▁ln	-9.48506
▁knees	-9.48594
▁moms	-9.48969
▁cos	-9.48985
ia	-9.49018
▁jobs	-9.49025
▁older	-9.49119
▁dig	-9.49178
▁magazine	-9.49264
▁issue	-9.49298
▁hall	-9.49315
▁soldier	-9.49328
ro	-9.49578
▁students	-9.49783
▁consider	-9.5018
▁build	-9.50506
▁study	-9.50553
▁allow	-9.50591
▁everybodys	-9.50662
▁magic	-9.50853
▁chest	-9.50872
▁gang	-9.50874
▁footsteps	-9.50904
▁opinion	-9.50904
▁wailing	-9.50904
▁whimpering	-9.50904
▁crook	-9.50906
▁elevator	-9.50907
▁exhales	-9.50907
▁easier	-9.50907
▁freedom	-9.50907
▁military	-9.50909
▁fancy	-9.50909
▁horrible	-9.50909
▁daisy	-9.50909
▁nope	-9.50909
▁crain	-9.50912
▁brian	-9.50914
▁battle	-9.50915
▁exchange	-9.50916
▁yearold	-9.50926
▁danger	-9.50929
▁sub	-9.5095
▁awake	-9.50953
▁huge	-9.50987
▁code	-9.50991
▁coat	-9.50995
▁lane	-9.51102
▁keeps	-9.5114
▁lake	-9.51153
▁ate	-9.51194
▁hero	-9.51208
▁theyd	-9.51405
▁mikey	-9.51745
▁out	-9.51765
▁followed	-9.51878
▁murdered	-9.51907
▁ear	-9.52098
▁serve	-9.5224
▁german	-9.52382
▁computer	-9.52509
▁finger	-9.5255
▁due	-9.52634
▁breaking	-9.52888
lo	-9.52908
▁wood	-9.5305
ta	-9.5322
▁player	-9.53539
ton	-9.53609
▁di	-9.5365
▁jan	-9.53736
▁blind	-9.53781
▁destroy	-9.53814
▁complete	-9.53883
▁bust	-9.53923
▁introduce	-9.53949
▁prefer	-9.54125
▁amelia	-9.5413
▁bianca	-9.5413
▁dillinger	-9.5413
▁monsieur	-9.5413
▁thompson	-9.5413
▁example	-9.5413
▁cancer	-9.54131
▁leila	-9.54131
▁literally	-9.54136
▁duke	-9.54142
▁size	-9.54151
▁valentine	-9.5418
▁suddenly	-9.54206
▁director	-9.54245
▁ld	-9.54359
▁banging	-9.54434
▁slowly	-9.54438
▁allowed	-9.54454
▁helping	-9.54481
▁studying	-9.54528
▁shots	-9.54604
▁nights	-9.54817
▁up	-9.55016
▁bastards	-9.55295
▁gates	-9.55527
▁ward	-9.55639
▁weekend	-9.55793
▁criminal	-9.55849
▁client	-9.55857
▁gunshot	-9.55873
▁el	-9.56086
▁rule	-9.56211
▁card	-9.56464
▁en	-9.5648
▁cock	-9.56518
ally	-9.56562
▁natural	-9.56644
▁wa	-9.56895
▁add	-9.57002
▁ideas	-9.57133
▁lift	-9.57139
▁hat	-9.57199
▁garden	-9.57214
▁blame	-9.57274
▁deliver	-9.57291
▁difficult	-9.57298
▁drag	-9.57372
ter	-9.57382
▁program	-9.57409
▁alastair	-9.57463
▁although	-9.57463
▁built	-9.57463
▁byebye	-9.57463
▁callahan	-9.57463
▁motta	-9.57463
▁regret	-9.57463
▁responsibility	-9.57463
▁scoffs	-9.57463
▁thunder	-9.57463
▁viktor	-9.57463
▁bishop	-9.57464
▁gerda	-9.57464
▁vision	-9.57464
▁recognize	-9.57464
▁ruth	-9.57464
▁alexandra	-9.57465
▁upset	-9.57465
▁suspense	-9.57477
▁duty	-9.57486
▁donna	-9.57486
▁pair	-9.57487
▁silver	-9.57522
▁coughing	-9.57562
▁signal	-9.57602
▁ohio	-9.57691
▁bleeding	-9.5774
▁goldie	-9.57784
▁tied	-9.57846
▁dressed	-9.57975
▁details	-9.58201
▁dry	-9.58302
▁plays	-9.58314
▁pills	-9.58417
▁signed	-9.58482
▁hardly	-9.58499
▁covered	-9.58557
men	-9.58646
▁travel	-9.58892
▁text	-9.58913
▁fingers	-9.59125
▁angel	-9.59132
▁pro	-9.5914
▁noise	-9.5922
▁ma	-9.59261
▁bottom	-9.59269
▁condition	-9.59271
▁conversation	-9.59279
▁model	-9.59334
▁fan	-9.59392
led	-9.59398
ian	-9.59445
▁teacher	-9.5953
▁ad	-9.59671
▁heads	-9.59727
▁brains	-9.60237
▁process	-9.6051
ri	-9.60635
un	-9.60658
▁do	-9.60692
▁da	-9.6074
il	-9.60841
▁large	-9.60852
▁mmhm	-9.60871
▁bodies	-9.60912
▁duffy	-9.60912
▁purpose	-9.60912
▁research	-9.60912
▁stomach	-9.60912
▁thursday	-9.60912
▁subject	-9.60912
▁ugly	-9.60912
▁buried	-9.60912
▁complicated	-9.60912
▁neighborhood	-9.60912
▁slept	-9.60914
▁investigation	-9.60914
▁piano	-9.60914
▁brown	-9.60915
▁earlier	-9.60915
▁willingham	-9.60915
▁wherever	-9.60916
▁clock	-9.60922
▁thee	-9.60932
▁market	-9.6098
▁jerk	-9.60983
▁hans	-9.61056
▁pieces	-9.61093
▁warning	-9.61099
▁scare	-9.61135
▁gettin	-9.61166
▁faster	-9.6129
▁yells	-9.61336
la	-9.61407
▁tilly	-9.61501
▁closer	-9.61533
▁cup	-9.61639
▁officers	-9.61761
ma	-9.62042
ng	-9.6205
▁wen	-9.62237
▁carl	-9.624
▁mans	-9.62439
▁voices	-9.6267
▁soldiers	-9.62697
▁champion	-9.62799
▁richard	-9.62801
▁doll	-9.62811
▁diamond	-9.62827
▁area	-9.62827
▁russian	-9.62895
▁victim	-9.62896
by	-9.629
▁ne	-9.62909
ul	-9.62936
▁checked	-9.62947
▁traffic	-9.63055
▁u	-9.64204
▁main	-9.64327
▁bright	-9.64369
▁brilliant	-9.64483
▁sienna	-9.64483
▁dancing	-9.64483
▁insurance	-9.64484
▁belt	-9.64485
▁romantic	-9.64485
▁firing	-9.64485
▁fought	-9.64485
▁washington	-9.64485
▁several	-9.64487
▁saving	-9.64487
▁corso	-9.64489
▁comfortable	-9.64492
▁gene	-9.64494
▁bobby	-9.64496
▁border	-9.64497
▁dropped	-9.64501
▁aii	-9.64514
▁china	-9.64523
▁immediately	-9.64524
▁preacher	-9.64527
▁arrived	-9.64557
▁scary	-9.64563
▁carter	-9.64616
▁mail	-9.64617
▁ruf	-9.64916
▁clicks	-9.64982
▁o	-9.65278
▁twenty	-9.65383
▁rings	-9.65442
▁everyones	-9.65634
▁tall	-9.65775
▁su	-9.66143
ling	-9.66195
ho	-9.662
▁ears	-9.66228
▁wound	-9.66251
▁tells	-9.66509
▁comment	-9.66568
▁demon	-9.66577
▁official	-9.66577
▁contract	-9.6658
▁bone	-9.66603
▁lesson	-9.66624
▁bird	-9.6664
▁gate	-9.66665
▁cares	-9.66728
▁planet	-9.66877
▁siren	-9.66897
▁shows	-9.66916
▁cab	-9.67004
▁fa	-9.6709
▁ls	-9.6714
▁bags	-9.67271
▁path	-9.67374
▁paint	-9.67426
▁believed	-9.67431
▁feelings	-9.67533
▁tick	-9.67551
▁football	-9.67613
▁weak	-9.67845
▁focus	-9.6787
▁fail	-9.67881
▁unit	-9.68052
▁obvious	-9.68082
▁willing	-9.68088
▁freeze	-9.68134
▁mimi	-9.68162
▁defend	-9.68163
▁harriet	-9.68187
▁revenge	-9.68187
▁theater	-9.68187
▁kelly	-9.68187
▁chuckling	-9.68188
▁speech	-9.68188
off	-9.68188
▁sheba	-9.68188
▁arvin	-9.68188
▁friday	-9.68188
▁justice	-9.68188
▁jax	-9.68189
▁june	-9.6819
▁swim	-9.68191
▁danny	-9.68192
▁breakfast	-9.68192
▁sunday	-9.68192
▁iike	-9.68195
▁handsome	-9.68199
▁no	-9.68199
▁period	-9.68201
▁chill	-9.68201
▁zeke	-9.68206
▁center	-9.68217
▁safety	-9.68226
▁style	-9.68245
▁pm	-9.68319
▁auntie	-9.68366
▁suffering	-9.68501
▁failed	-9.68501
▁crap	-9.68578
▁stops	-9.68668
▁younger	-9.68875
at	-9.68905
▁pot	-9.68967
▁title	-9.68992
▁armed	-9.69001
▁mi	-9.69201
▁trained	-9.69304
▁sec	-9.69347
▁sports	-9.69536
▁cigarettes	-9.69555
▁tickets	-9.6974
na	-9.69929
▁shower	-9.7
▁create	-9.70149
▁bull	-9.70168
▁race	-9.70356
▁source	-9.70376
▁article	-9.70387
▁patient	-9.70435
▁ticket	-9.70456
▁swing	-9.70469
▁hanging	-9.70476
▁nation	-9.70735
▁egg	-9.70735
▁stayed	-9.70775
▁an	-9.71116
▁medica	-9.71505
▁dump	-9.716
▁closes	-9.71771
▁mountain	-9.71826
▁prepare	-9.71843
▁aware	-9.72031
▁beauty	-9.72033
▁defense	-9.72033
▁lincoln	-9.72033
▁macbeth	-9.72033
▁permission	-9.72033
▁responsible	-9.72033
▁threw	-9.72033
▁umbrella	-9.72033
▁courage	-9.72034
▁whenever	-9.72034
▁toilet	-9.72035
▁basically	-9.72037
▁warrant	-9.72038
▁penny	-9.72041
▁familiar	-9.72041
▁legend	-9.72042
▁mummy	-9.72043
▁jessie	-9.72045
▁view	-9.72048
▁heh	-9.72051
▁jamal	-9.72054
▁tessa	-9.72074
▁jay	-9.7208
▁gil	-9.7209
▁powerful	-9.72111
▁row	-9.72139
▁sword	-9.72147
▁cable	-9.72163
de	-9.72355
▁brings	-9.72364
▁whispers	-9.72382
▁sexy	-9.72672
▁thy	-9.72748
▁lately	-9.7283
▁burning	-9.72962
▁hits	-9.73159
ent	-9.73443
▁birds	-9.7371
▁track	-9.73718
▁victims	-9.73774
▁character	-9.73916
▁ho	-9.7396
▁legal	-9.74061
▁sat	-9.74156
▁exist	-9.74164
▁daniel	-9.74294
▁bum	-9.743
▁clue	-9.7433
▁sidney	-9.7433
▁film	-9.74374
▁vehicle	-9.74415
▁alien	-9.74429
▁leader	-9.74507
▁prisoner	-9.74717
▁dealer	-9.75199
▁pie	-9.7543
▁punch	-9.75693
▁flag	-9.75764
▁trade	-9.75789
▁tugg	-9.75931
▁arthur	-9.76033
▁escobar	-9.76033
▁jeff	-9.76033
▁lawrence	-9.76033
▁science	-9.76033
▁strength	-9.76033
▁current	-9.76033
▁audience	-9.76033
▁chanting	-9.76033
▁mckenzie	-9.76034
▁woke	-9.76034
▁staff	-9.76036
▁appointment	-9.76036
▁beach	-9.76036
▁linda	-9.76037
▁plate	-9.76037
▁jessica	-9.76039
▁property	-9.76039
▁common	-9.76041
▁desk	-9.76041
▁malena	-9.76042
▁naked	-9.76045
▁randy	-9.76046
▁possibly	-9.76048
▁simply	-9.76053
▁taxi	-9.76054
▁jackson	-9.76074
▁thatd	-9.76085
▁golden	-9.76087
▁national	-9.76093
▁coke	-9.76117
erstr	-9.76124
▁butt	-9.76211
▁manager	-9.76248
ard	-9.76266
▁created	-9.76269
▁metal	-9.76331
▁nearly	-9.76334
▁coughs	-9.76526
▁dads	-9.76583
▁clearly	-9.76643
▁sooner	-9.76743
▁finding	-9.76896
ish	-9.76916
▁expected	-9.77033
▁kinda	-9.77259
▁iii	-9.77345
▁suggest	-9.77746
▁showing	-9.7783
▁bang	-9.77841
▁doors	-9.78267
▁credit	-9.78458
▁trick	-9.78528
▁score	-9.78541
▁animal	-9.78608
▁me	-9.78781
▁hug	-9.78858
▁desire	-9.78909
▁checking	-9.78961
▁page	-9.7898
▁wash	-9.79463
▁bless	-9.79576
▁sin	-9.79603
ka	-9.79651
▁total	-9.79728
▁pitch	-9.79752
▁papers	-9.79775
▁gods	-9.79844
▁chris	-9.79957
▁helen	-9.79988
▁meaning	-9.80009
▁aunt	-9.80029
▁reports	-9.80069
▁si	-9.80088
▁ending	-9.80115
▁zero	-9.8012
▁somethin	-9.80176
▁dolores	-9.802
▁including	-9.802
▁jealous	-9.802
▁jungle	-9.802
▁kayden	-9.802
▁leaf	-9.802
▁maureen	-9.802
▁davis	-9.802
▁terrific	-9.802
▁mostly	-9.802
▁society	-9.802
▁illegal	-9.802
▁drake	-9.802
▁telephone	-9.802
▁joking	-9.802
▁route	-9.80201
▁boring	-9.80202
▁birth	-9.80203
▁league	-9.80205
▁fbi	-9.80211
▁gentleman	-9.80212
▁bedroom	-9.80213
▁recently	-9.8023
▁incredible	-9.80231
▁aim	-9.8024
▁comin	-9.80252
▁polly	-9.80259
▁federa	-9.80267
▁grown	-9.80306
▁val	-9.80373
▁under	-9.80373
▁approaching	-9.80373
▁deeply	-9.80482
▁lower	-9.80533
▁ra	-9.80555
▁raised	-9.80587
▁troops	-9.80646
▁kim	-9.80647
▁sexual	-9.80744
▁clears	-9.80845
▁hire	-9.8095
▁growing	-9.81017
▁edge	-9.81116
▁remains	-9.81268
▁selling	-9.81494
▁spending	-9.81497
▁somebodys	-9.81515
▁falling	-9.81578
▁rounds	-9.81651
▁talkin	-9.81901
ra	-9.81901
ang	-9.82155
▁co	-9.82266
▁sta	-9.82338
▁victor	-9.8238
ier	-9.82482
▁direction	-9.82869
▁blade	-9.82869
▁guest	-9.82937
▁sight	-9.82949
▁cigarette	-9.8296
▁dies	-9.83219
head	-9.83242
▁husbands	-9.8338
▁dan	-9.83415
▁sons	-9.83533
am	-9.83668
▁crash	-9.8381
▁direct	-9.84263
▁squeeze	-9.84324
dy	-9.84326
▁invite	-9.84356
▁lookin	-9.84403
▁original	-9.84435
▁cia	-9.84436
▁sharp	-9.84451
▁switch	-9.8449
▁ashamed	-9.84548
▁athena	-9.84548
▁attorney	-9.84548
▁avner	-9.84548
▁brooklyn	-9.84548
▁claire	-9.84548
▁eagle	-9.84548
▁flesh	-9.84548
▁grateful	-9.84548
▁italian	-9.84548
▁medicine	-9.84548
▁mulligan	-9.84548
▁necessary	-9.84548
▁university	-9.84548
▁larry	-9.84548
▁lorena	-9.84548
▁mood	-9.84548
▁quinn	-9.84548
▁chopper	-9.84549
▁expensive	-9.84549
▁motel	-9.8455
▁truly	-9.84552
▁yuri	-9.84553
▁contest	-9.84553
▁begging	-9.84556
▁bike	-9.84562
▁available	-9.84564
▁basement	-9.84569
▁com	-9.8457
▁shape	-9.8457
▁negative	-9.84574
▁owner	-9.84578
▁unfortunately	-9.84593
▁data	-9.84594
▁protection	-9.84623
▁dayday	-9.84631
▁embarrassed	-9.84639
▁winter	-9.84639
▁convinced	-9.84646
▁lack	-9.84653
▁harm	-9.84685
▁carmen	-9.84691
▁victory	-9.84703
▁provided	-9.84724
▁shake	-9.8479
▁noticed	-9.84859
▁drinks	-9.8487
▁personally	-9.84962
▁tent	-9.84967
▁singer	-9.85015
▁dom	-9.85091
▁headed	-9.85311
▁settle	-9.8534
▁members	-9.85373
ts	-9.85409
co	-9.85492
▁rap	-9.85588
▁lover	-9.85598
▁jab	-9.85725
▁training	-9.86173
▁animals	-9.86238
▁trees	-9.86457
▁williams	-9.86581
▁cards	-9.8673
▁songs	-9.86739
ated	-9.87027
▁remind	-9.87042
▁lee	-9.87055
▁shout	-9.87099
▁notes	-9.87207
▁request	-9.87345
▁priest	-9.87347
▁regular	-9.87386
▁helicopter	-9.87413
▁monster	-9.87431
▁jacket	-9.87432
▁mirror	-9.87444
▁value	-9.87461
▁odd	-9.8747
son	-9.87845
land	-9.88187
▁discuss	-9.88322
▁hurting	-9.88365
▁suffer	-9.88417
▁hunt	-9.88617
▁climb	-9.88675
▁bail	-9.8874
ine	-9.88746
▁shock	-9.88783
▁tail	-9.88924
▁physical	-9.88976
▁desperate	-9.88985
▁sudden	-9.88986
▁europe	-9.89071
▁slip	-9.89085
▁california	-9.89093
▁equipment	-9.89093
▁explosiveskull	-9.89093
▁female	-9.89093
▁keeler	-9.89093
▁sunshine	-9.89093
▁therapy	-9.89093
▁unusual	-9.89093
▁vegas	-9.89093
▁violence	-9.89093
▁blaring	-9.89093
▁josh	-9.89093
▁dreyman	-9.89093
▁monica	-9.89094
▁spanish	-9.89094
▁wilson	-9.89094
▁shift	-9.89094
▁reputation	-9.89094
▁closing	-9.89095
▁maggie	-9.89095
▁weii	-9.89095
▁password	-9.89096
▁baseball	-9.89099
▁fence	-9.891
▁dope	-9.891
▁square	-9.89103
▁mister	-9.89105
▁sarah	-9.89109
▁lucy	-9.89109
▁aiden	-9.89109
▁thirty	-9.89109
▁theory	-9.89116
▁yul	-9.89117
▁minister	-9.89119
▁buzzer	-9.8912
▁stuttering	-9.89123
▁rare	-9.89124
▁hugh	-9.89124
▁jesse	-9.89134
▁host	-9.89141
▁nathan	-9.89144
▁itd	-9.89163
▁former	-9.89244
▁jon	-9.89258
▁mar	-9.89267
▁invited	-9.89294
▁prepared	-9.89327
▁concerned	-9.89338
▁useless	-9.89338
▁plant	-9.89355
▁beeps	-9.89357
▁americans	-9.89428
▁based	-9.89435
▁depends	-9.89439
se	-9.89501
▁screwed	-9.89622
▁boyle	-9.89645
▁appears	-9.90036
▁backup	-9.90069
▁gr	-9.90097
os	-9.90408
ted	-9.90731
▁rocks	-9.91035
▁touched	-9.91157
▁tear	-9.91343
tic	-9.91519
▁ca	-9.91574
king	-9.91597
ee	-9.9172
▁pig	-9.91881
▁tongue	-9.92147
▁thousands	-9.92153
▁pr	-9.92174
▁coward	-9.9218
▁dozen	-9.92196
▁connor	-9.92226
▁shoulder	-9.92229
ii	-9.92282
▁yard	-9.92328
▁kills	-9.92363
▁witch	-9.92481
▁lin	-9.92698
titles	-9.92824
▁spread	-9.9285
▁bath	-9.92997
▁los	-9.93014
▁so	-9.93182
house	-9.93241
▁nail	-9.93241
▁liz	-9.93375
▁bev	-9.93382
▁bleed	-9.93408
▁repeat	-9.93425
ge	-9.9352
▁disappear	-9.9353
▁poison	-9.93532
▁bowl	-9.93622
▁celebrate	-9.93647
▁guilt	-9.93703
▁daddys	-9.93722
▁hung	-9.93738
▁emotional	-9.93744
▁exact	-9.93749
▁adrian	-9.93783
▁pump	-9.93853
▁avoid	-9.93855
▁behavior	-9.93855
▁caleb	-9.93855
▁hammer	-9.93855
▁junior	-9.93855
▁koslow	-9.93855
▁miguel	-9.93855
▁ocean	-9.93855
▁offense	-9.93855
▁stood	-9.93855
▁surrender	-9.93855
▁vodka	-9.93855
▁yellow	-9.93855
▁silly	-9.93855
▁trunk	-9.93855
▁macleod	-9.93855
▁modern	-9.93855
▁lenora	-9.93855
▁heydrich	-9.93855
▁rawlings	-9.93855
▁brush	-9.93856
▁however	-9.93856
▁robinson	-9.93856
▁clever	-9.93856
▁someday	-9.93856
▁tits	-9.9386
▁planned	-9.93863
▁punk	-9.93865
▁journalist	-9.93866
▁bible	-9.93874
▁proof	-9.93875
hrer	-9.93875
▁stokely	-9.93879
▁community	-9.93881
▁morty	-9.93891
▁corpse	-9.93924
▁yale	-9.93948
▁hood	-9.93956
▁stolen	-9.93967
▁dust	-9.94064
▁spy	-9.94068
▁reality	-9.94126
▁stairs	-9.94132
▁hired	-9.94139
▁disappeared	-9.9417
▁farm	-9.9418
▁stronger	-9.94196
▁fl	-9.94415
▁bitches	-9.94452
▁carefully	-9.9446
▁tense	-9.94544
▁fate	-9.94606
▁badge	-9.94612
▁riding	-9.9463
▁lips	-9.94686
▁kicked	-9.94742
▁tryin	-9.94756
▁staring	-9.95003
▁rat	-9.95192
▁loss	-9.95435
and	-9.96245
▁germans	-9.96274
ig	-9.96562
▁li	-9.96586
ey	-9.96669
no	-9.96842
▁artists	-9.96908
▁slide	-9.97126
▁stars	-9.97128
▁meal	-9.97225
▁nightmare	-9.97246
▁sport	-9.9728
▁masters	-9.9755
▁rip	-9.97556
ad	-9.9789
▁cheat	-9.98137
▁greg	-9.98208
▁enter	-9.98213
▁speed	-9.98296
▁stock	-9.98374
▁rush	-9.98411
▁execution	-9.98423
▁talent	-9.9853
town	-9.98574
▁trace	-9.9865
▁remove	-9.9867
▁proper	-9.98765
▁champ	-9.98825
▁bullets	-9.98836
▁loyal	-9.98847
▁insist	-9.98848
▁alfredo	-9.98855
▁bangkok	-9.98855
▁education	-9.98855
▁england	-9.98855
▁extreme	-9.98855
▁guitar	-9.98855
▁material	-9.98855
▁nefarious	-9.98855
▁pizza	-9.98855
▁toast	-9.98855
▁tuesday	-9.98855
▁knowledge	-9.98855
▁desert	-9.98855
▁british	-9.98855
▁trigger	-9.98855
urban	-9.98856
▁candice	-9.98856
▁bravo	-9.98857
▁morris	-9.98857
▁winning	-9.98858
▁charles	-9.98859
▁cherry	-9.98862
▁pathetic	-9.98863
▁terry	-9.98864
▁carlos	-9.98867
▁kingsman	-9.9887
▁inform	-9.9887
▁arabic	-9.98872
▁nina	-9.98872
▁rude	-9.98877
▁fifty	-9.98886
▁march	-9.989
▁stretch	-9.98902
▁changing	-9.98905
▁refuse	-9.98919
▁hm	-9.98925
▁angeles	-9.98928
▁markum	-9.98935
▁cage	-9.98937
▁whispering	-9.98966
▁laid	-9.98968
▁spoken	-9.98976
▁timing	-9.98985
▁opened	-9.99011
▁weed	-9.99023
▁statement	-9.99041
▁glasses	-9.99062
▁healthy	-9.99127
ious	-9.99134
▁pure	-9.99159
▁counter	-9.99197
▁shitty	-9.99339
▁attacked	-9.99438
▁putman	-9.99473
▁load	-9.99545
▁shota	-9.99581
ay	-9.99607
▁lines	-9.99755
▁leaves	-9.99841
▁carrying	-9.99904
▁neighbors	-9.99977
▁flying	-10.0007
▁pounds	-10.0023
▁moments	-10.003
▁recording	-10.0031
li	-10.0044
bi	-10.0069
▁anti	-10.008
▁blowing	-10.0093
end	-10.0093
▁hated	-10.0099
▁phones	-10.0104
▁hop	-10.0191
ary	-10.0211
▁razor	-10.0236
lin	-10.024
▁funeral	-10.0241
▁expert	-10.0245
▁rope	-10.0247
▁pet	-10.0252
▁shoe	-10.0257
▁ali	-10.0277
▁lawyers	-10.0283
▁bat	-10.0288
▁murderer	-10.0291
▁loser	-10.0298
▁motherfuckers	-10.0299
▁runs	-10.0311
▁ms	-10.0313
▁parts	-10.0318
▁ob	-10.0334
▁flash	-10.0367
▁fighter	-10.0374
▁borrow	-10.0378
▁pleased	-10.0379
▁wast	-10.038
▁gross	-10.0398
▁product	-10.0409
▁weather	-10.0411
▁wide	-10.0411
▁del	-10.0411
▁ambulance	-10.0412
▁charlotte	-10.0412
▁kofi	-10.0412
▁mannix	-10.0412
▁politics	-10.0412
▁purvis	-10.0412
▁response	-10.0412
▁reverend	-10.0412
▁shrink	-10.0412
▁unbelievable	-10.0412
▁wilcox	-10.0412
▁fitzgerald	-10.0412
▁lauren	-10.0412
▁marcus	-10.0412
▁parole	-10.0412
▁garbage	-10.0412
▁cheap	-10.0412
▁bingo	-10.0412
▁jake	-10.0412
▁glory	-10.0412
▁guide	-10.0412
▁spell	-10.0412
▁vacation	-10.0412
▁chocolate	-10.0412
▁downtown	-10.0412
▁gear	-10.0412
▁paddy	-10.0412
▁couch	-10.0412
▁gray	-10.0413
▁shopping	-10.0413
▁maid	-10.0413
▁sophie	-10.0413
▁buzzes	-10.0414
▁secretary	-10.0414
▁squad	-10.0414
▁trial	-10.0415
▁specific	-10.0415
▁wallet	-10.0416
▁setting	-10.0416
▁leah	-10.0416
▁conor	-10.0417
▁crawl	-10.0417
▁cutting	-10.0418
▁motherfucking	-10.0422
▁op	-10.0423
▁clay	-10.0423
▁fourth	-10.0423
▁bush	-10.0424
▁abandoned	-10.0431
▁mia	-10.0435
▁ch	-10.0443
▁tip	-10.0444
▁union	-10.0445
▁faces	-10.0447
▁smarter	-10.045
▁forced	-10.0453
▁po	-10.0462
▁considered	-10.0466
▁ruined	-10.0476
ley	-10.0483
▁indistinctly	-10.0485
▁arrested	-10.0503
▁knocked	-10.0505
ha	-10.0571
▁bound	-10.0574
▁falls	-10.0582
▁doctors	-10.0588
▁ordered	-10.0615
▁assholes	-10.0623
▁bay	-10.0641
▁heading	-10.0645
▁dreaming	-10.0645
▁sirens	-10.0646
▁log	-10.0655
▁ro	-10.0657
▁cleaning	-10.0658
▁receive	-10.0766
▁flow	-10.0791
▁stink	-10.0792
▁olympic	-10.0796
▁exit	-10.0799
▁uniform	-10.0802
▁photos	-10.0803
▁friendship	-10.0804
▁chances	-10.0805
▁boot	-10.0806
▁roar	-10.0806
▁pill	-10.0809
▁parent	-10.081
▁actor	-10.0816
▁answers	-10.0818
▁stranger	-10.0827
▁sh	-10.0832
▁sand	-10.0833
▁slap	-10.0852
▁bo	-10.087
▁cameras	-10.0885
ting	-10.0896
▁min	-10.0898
ow	-10.0905
▁hon	-10.0916
ot	-10.0926
▁pour	-10.0932
▁shine	-10.0934
ke	-10.0941
cy	-10.0945
▁concentrate	-10.0945
▁secure	-10.0947
▁guarantee	-10.0947
▁points	-10.0948
▁andre	-10.0959
▁prince	-10.0965
▁gentle	-10.0965
▁smith	-10.0965
▁virgin	-10.0966
▁popular	-10.0967
▁onto	-10.0967
▁briggs	-10.0967
▁circumstances	-10.0967
▁easily	-10.0967
▁elvis	-10.0967
▁exciting	-10.0967
▁franco	-10.0967
▁judgment	-10.0967
▁paradise	-10.0967
▁ritual	-10.0967
▁schultz	-10.0967
▁serial	-10.0967
▁wednesday	-10.0967
▁wesiey	-10.0967
▁attempt	-10.0967
▁bureau	-10.0967
▁firm	-10.0967
▁forgotten	-10.0967
▁eventually	-10.0967
▁kinky	-10.0967
▁martha	-10.0967
▁josef	-10.0968
▁agency	-10.0968
▁segar	-10.0968
▁planning	-10.0968
▁dennis	-10.0968
▁bulgarian	-10.0968
▁disaster	-10.0968
▁padre	-10.0968
▁jury	-10.0968
▁chess	-10.0968
▁energy	-10.0969
▁policy	-10.0969
▁rumbling	-10.0969
▁potter	-10.0969
▁sauce	-10.0969
▁walter	-10.0969
▁yup	-10.0969
▁trash	-10.0969
▁socialist	-10.0969
▁murphy	-10.097
▁zone	-10.097
▁bury	-10.0971
▁connie	-10.0971
▁hitler	-10.0972
▁fort	-10.0973
▁hitting	-10.0974
▁threatened	-10.0977
▁tony	-10.0978
▁rub	-10.0984
▁sandy	-10.0984
▁gina	-10.0987
▁letham	-10.0989
▁pink	-10.0991
▁commander	-10.0998
▁growls	-10.1
▁peel	-10.1006
▁tapes	-10.1015
▁survived	-10.1019
▁sl	-10.1031
▁stealing	-10.104
▁higher	-10.1043
▁event	-10.1048
▁closet	-10.1054
▁joined	-10.1059
▁towards	-10.1065
▁tires	-10.1065
▁ways	-10.1067
▁aid	-10.108
▁when	-10.1081
ny	-10.1095
▁pushing	-10.1101
▁les	-10.1112
▁niggas	-10.1128
▁pee	-10.1132
▁losers	-10.115
▁bars	-10.1158
▁tears	-10.1163
▁as	-10.1188
▁sp	-10.1205
▁media	-10.121
ator	-10.1219
▁gunshots	-10.1242
bu	-10.1276
res	-10.1278
▁col	-10.1288
▁killers	-10.1289
▁sucks	-10.1321
▁app	-10.1327
▁forces	-10.1337
▁ohh	-10.1342
▁sa	-10.1349
▁pound	-10.1356
▁concern	-10.136
ding	-10.136
▁wha	-10.1378
▁creature	-10.1384
▁album	-10.1387
▁location	-10.1387
▁election	-10.1389
▁affair	-10.1389
▁project	-10.1391
▁citizen	-10.1392
▁wave	-10.1397
▁knee	-10.1398
▁wheel	-10.1401
▁streets	-10.1401
ize	-10.1403
▁hooker	-10.1404
▁steven	-10.1404
▁access	-10.1409
▁tool	-10.1411
▁ski	-10.1423
▁quote	-10.1427
▁adams	-10.145
▁powers	-10.1476
serving	-10.1486
▁dealing	-10.1494
go	-10.1499
▁grave	-10.1516
down	-10.1519
▁fed	-10.1521
▁clang	-10.1523
▁damned	-10.1525
ware	-10.1527
ship	-10.1534
▁explode	-10.1536
▁measure	-10.1542
▁unlike	-10.1545
▁doug	-10.1548
▁africa	-10.155
▁virus	-10.155
▁fi	-10.1554
▁vietnam	-10.1556
▁awesome	-10.1556
▁balkan	-10.1556
▁celeste	-10.1556
▁central	-10.1556
▁coincidence	-10.1556
▁cottage	-10.1556
▁dallas	-10.1556
▁detroit	-10.1556
▁families	-10.1556
▁fantastic	-10.1556
▁luigi	-10.1556
▁mikael	-10.1556
▁militia	-10.1556
▁munich	-10.1556
▁ocp	-10.1556
▁reckon	-10.1556
▁renato	-10.1556
▁restaurant	-10.1556
▁retreat	-10.1556
▁robocop	-10.1556
▁safranek	-10.1556
▁senior	-10.1556
▁stabbed	-10.1556
▁whitney	-10.1556
▁houston	-10.1556
▁indeed	-10.1556
▁online	-10.1556
▁silent	-10.1556
▁tragic	-10.1556
▁coconut	-10.1556
▁peggy	-10.1556
▁swimming	-10.1556
▁dublin	-10.1556
▁ferris	-10.1556
▁nonsense	-10.1556
▁dunnage	-10.1556
▁monday	-10.1556
▁blew	-10.1556
▁boston	-10.1556
▁inhales	-10.1556
▁fridge	-10.1556
▁carolina	-10.1556
▁cowboy	-10.1556
▁nuke	-10.1556
▁jewish	-10.1556
▁waitress	-10.1556
▁angie	-10.1556
▁lousy	-10.1556
▁particular	-10.1556
▁albert	-10.1556
▁blanket	-10.1556
▁jib	-10.1556
▁adler	-10.1556
▁bount	-10.1556
▁virginia	-10.1556
▁amount	-10.1556
▁homicide	-10.1556
▁slice	-10.1556
▁loyalty	-10.1557
▁thane	-10.1557
▁santa	-10.1558
▁speedman	-10.1558
▁possession	-10.1558
▁collection	-10.1558
▁carried	-10.1558
▁knowing	-10.1559
▁alley	-10.156
▁supply	-10.156
▁fellow	-10.1562
▁standard	-10.1562
▁campus	-10.1563
▁teii	-10.1563
▁kenny	-10.1565
▁fallen	-10.1565
▁cain	-10.1566
▁connected	-10.1566
▁frankie	-10.1568
▁hath	-10.1569
▁sighing	-10.1569
▁vera	-10.1569
over	-10.1572
▁julian	-10.1573
▁naturally	-10.1575
▁off	-10.1576
▁granted	-10.1578
▁fights	-10.1583
▁oneill	-10.1583
▁presents	-10.1584
▁joint	-10.1587
▁loaded	-10.1592
▁clanging	-10.1595
▁blessed	-10.1601
▁cheating	-10.1602
▁hunting	-10.1607
▁destroyed	-10.1614
▁meantime	-10.1617
▁eve	-10.162
▁walls	-10.1621
▁flowers	-10.1622
▁makeup	-10.1635
▁perfectly	-10.1639
▁bored	-10.1647
▁gloves	-10.1649
▁highly	-10.1655
▁hostages	-10.1659
▁cast	-10.1668
▁goodness	-10.1671
▁wins	-10.1679
▁challenge	-10.1681
▁counting	-10.1701
▁fucks	-10.1707
▁terms	-10.1709
▁offering	-10.1719
▁oil	-10.1726
▁lo	-10.1736
▁beg	-10.1751
▁whod	-10.1776
▁hearts	-10.179
▁workin	-10.18
do	-10.1814
▁buyer	-10.1816
▁ai	-10.1817
da	-10.1819
ily	-10.1833
▁teachers	-10.1847
▁pulling	-10.1848
way	-10.1857
▁announce	-10.1872
▁pockets	-10.1888
▁bri	-10.1895
▁buying	-10.1897
▁thin	-10.1898
▁murders	-10.1912
▁shuts	-10.1922
▁suits	-10.193
line	-10.1933
bo	-10.1952
ical	-10.1957
▁joy	-10.1968
pe	-10.1971
▁cow	-10.1977
▁remain	-10.198
▁ab	-10.1984
▁creep	-10.1994
▁rise	-10.2008
▁drivers	-10.2008
▁debt	-10.2011
▁indian	-10.2012
▁assistant	-10.2012
▁elliott	-10.2015
▁effect	-10.2018
▁nazi	-10.2018
▁term	-10.202
▁classic	-10.202
▁mile	-10.2033
ner	-10.2051
▁marks	-10.2058
▁tai	-10.2083
▁speaker	-10.2097
▁stones	-10.21
▁fe	-10.2104
atricia	-10.2115
▁cal	-10.2122
▁dudes	-10.2127
▁collect	-10.213
▁appeal	-10.2136
▁regard	-10.2136
▁award	-10.2142
▁range	-10.2145
▁commission	-10.2146
▁lou	-10.215
les	-10.2154
back	-10.2156
▁schedule	-10.216
▁moves	-10.2165
▁tess	-10.2178
▁author	-10.2178
what	-10.2179
im	-10.2179
▁amber	-10.2181
▁arguing	-10.2181
▁becoming	-10.2181
▁blizzard	-10.2181
▁candidate	-10.2181
▁dawn	-10.2181
▁elena	-10.2181
▁explosion	-10.2181
▁filthy	-10.2181
▁grief	-10.2181
▁marquis	-10.2181
▁oclock	-10.2181
▁ornithologist	-10.2181
▁principal	-10.2181
▁privacy	-10.2181
▁sarge	-10.2181
▁september	-10.2181
▁trent	-10.2181
▁valuable	-10.2181
▁violent	-10.2181
▁tattoo	-10.2181
▁someplace	-10.2181
▁surgeon	-10.2181
▁muffled	-10.2181
▁sniffles	-10.2181
▁freezing	-10.2181
▁random	-10.2181
▁tiger	-10.2181
▁vicky	-10.2181
▁wray	-10.2181
▁impressive	-10.2181
▁charity	-10.2181
▁mask	-10.2181
▁garage	-10.2181
▁joan	-10.2181
▁stacy	-10.2181
▁paranoid	-10.2181
▁pettyman	-10.2181
▁stewart	-10.2181
▁wipe	-10.2181
▁brief	-10.2181
▁chasing	-10.2182
▁plain	-10.2182
▁skinny	-10.2182
▁selena	-10.2182
▁fox	-10.2182
▁string	-10.2182
▁aside	-10.2182
▁gail	-10.2182
▁crush	-10.2182
▁robbery	-10.2182
▁lean	-10.2182
▁waist	-10.2183
▁bald	-10.2183
▁ignore	-10.2183
▁broad	-10.2184
▁package	-10.2184
▁role	-10.2184
▁laughter	-10.2184
▁destiny	-10.2184
▁nasty	-10.2184
▁slut	-10.2185
▁brendan	-10.2186
▁zee	-10.2186
▁factory	-10.2187
▁non	-10.2188
▁gunner	-10.219
▁hopefully	-10.2191
▁usa	-10.2191
▁brady	-10.2192
▁pity	-10.2194
▁heroin	-10.2194
▁coast	-10.2195
▁executed	-10.2195
▁embarrassing	-10.2197
▁ruby	-10.2198
▁hank	-10.2201
▁pam	-10.2202
▁sid	-10.2202
▁tran	-10.2204
▁designed	-10.2206
▁bully	-10.2206
▁confirmed	-10.2207
▁ticky	-10.2207
▁bout	-10.221
▁prize	-10.2223
▁rate	-10.2241
▁escaped	-10.2244
▁mu	-10.2252
▁mayor	-10.2257
▁considering	-10.226
▁pu	-10.2271
▁pissed	-10.2277
▁pile	-10.2299
▁rebels	-10.2323
▁laughed	-10.2334
▁fixed	-10.2336
hand	-10.2342
▁he	-10.2346
▁kings	-10.2349
ham	-10.2385
▁iron	-10.2393
▁represent	-10.2398
▁ted	-10.2398
▁secrets	-10.2414
▁spit	-10.243
▁fart	-10.2437
ster	-10.2438
▁gig	-10.2445
▁ga	-10.2446
be	-10.2449
▁patients	-10.245
▁badly	-10.2479
▁fans	-10.2482
▁minor	-10.2492
▁signs	-10.2509
▁cha	-10.2525
▁strip	-10.2535
▁steps	-10.2536
▁picking	-10.2537
ide	-10.2578
▁pops	-10.2588
▁targets	-10.2599
▁unh	-10.261
▁pi	-10.2631
ina	-10.2643
▁changes	-10.2648
ba	-10.2672
▁reward	-10.2674
▁steak	-10.2679
▁queen	-10.2681
▁saddam	-10.2684
▁slave	-10.2686
▁pin	-10.2694
ek	-10.2698
und	-10.2717
j	-10.2723
▁surely	-10.273
▁attend	-10.2743
▁resist	-10.2767
ko	-10.2774
▁port	-10.2794
▁thoughts	-10.2799
que	-10.2799
ball	-10.2803
▁interrupt	-10.2805
▁swallow	-10.2812
▁intend	-10.2813
▁deco	-10.2827
▁sentence	-10.2828
▁swor	-10.2831
▁suspicious	-10.2836
▁glen	-10.2842
▁chose	-10.2842
▁casablanca	-10.2847
▁champagne	-10.2847
▁chirping	-10.2847
▁doorbell	-10.2847
▁enemies	-10.2847
▁florida	-10.2847
▁gabriel	-10.2847
▁genuine	-10.2847
▁hurst	-10.2847
▁industry	-10.2847
▁jarrett	-10.2847
▁jennifer	-10.2847
▁lancelot	-10.2847
▁license	-10.2847
▁mystery	-10.2847
▁philatelist	-10.2847
▁pistol	-10.2847
▁precious	-10.2847
▁television	-10.2847
▁underground	-10.2847
▁bernie	-10.2847
▁myrtle	-10.2847
▁renate	-10.2847
▁rescue	-10.2847
▁facility	-10.2847
▁kendricks	-10.2847
▁natalie	-10.2847
▁saint	-10.2847
▁vickie	-10.2847
▁harford	-10.2847
▁display	-10.2847
▁merlin	-10.2847
▁trail	-10.2848
▁spud	-10.2848
▁curious	-10.2848
▁accent	-10.2848
▁heather	-10.2848
▁delicious	-10.2848
▁notebook	-10.2848
▁georgia	-10.2848
▁slim	-10.2848
▁urgent	-10.2848
▁salad	-10.2848
▁honking	-10.2848
▁motion	-10.2848
▁poppa	-10.2848
▁acid	-10.2848
▁scout	-10.2848
▁foster	-10.2848
▁headache	-10.2848
▁fever	-10.2848
▁mouse	-10.2848
▁hence	-10.2848
▁gertrude	-10.2849
▁waited	-10.2849
▁studio	-10.2849
▁confession	-10.2849
▁stake	-10.2849
▁brianna	-10.2849
▁andrew	-10.2849
▁barney	-10.2849
▁mercy	-10.2849
▁sack	-10.2849
▁announcement	-10.2849
▁loving	-10.2849
▁silence	-10.2849
▁drill	-10.285
▁depressed	-10.285
▁psycho	-10.285
▁decent	-10.285
▁tina	-10.285
▁bale	-10.285
▁technically	-10.2851
▁abra	-10.2852
▁rice	-10.2852
▁heil	-10.2853
▁whatre	-10.2853
▁silhouettes	-10.2854
▁quality	-10.2854
▁provide	-10.2854
▁archer	-10.2854
▁tank	-10.2855
▁kiddo	-10.2856
▁forest	-10.2856
▁committed	-10.2856
▁bride	-10.2857
▁growling	-10.2859
▁retarded	-10.2859
▁johnson	-10.286
▁homework	-10.2861
▁sobs	-10.2863
▁choking	-10.2864
▁stable	-10.2864
▁brakes	-10.2864
▁shy	-10.2867
▁joker	-10.2867
▁copies	-10.2868
▁clicking	-10.2871
▁eaten	-10.2872
▁received	-10.2874
▁afterwards	-10.2876
▁warned	-10.2877
▁dating	-10.2878
▁moral	-10.2891
▁fashion	-10.2893
▁entirely	-10.2896
▁emotions	-10.2898
▁successful	-10.2901
▁experienced	-10.2904
▁latest	-10.2912
▁gotcha	-10.2915
▁mentioned	-10.2929
▁ac	-10.2943
▁skills	-10.2943
▁lion	-10.2944
▁pretending	-10.2946
▁crossed	-10.2948
▁sc	-10.2949
▁cr	-10.2961
ors	-10.2968
▁ron	-10.2971
▁leading	-10.2989
▁returned	-10.2999
▁slaves	-10.3011
tter	-10.3019
▁bl	-10.3024
▁messing	-10.3047
▁photo	-10.305
ah	-10.3063
▁nightmares	-10.3068
▁ida	-10.308
▁tale	-10.3085
▁or	-10.3114
bl	-10.3114
▁remembered	-10.3115
▁pio	-10.3121
▁all	-10.3146
▁robert	-10.3166
▁herr	-10.3179
▁scar	-10.3179
▁gin	-10.318
cent	-10.3194
▁ti	-10.3223
▁cuts	-10.3228
▁touching	-10.323
▁spare	-10.324
jo	-10.3244
▁partners	-10.325
▁pointed	-10.3277
ck	-10.3293
▁belongs	-10.3295
he	-10.3302
▁mei	-10.3316
▁accounts	-10.332
▁cap	-10.3331
ler	-10.3335
ol	-10.3348
▁photograph	-10.335
▁z	-10.3356
▁cheer	-10.3368
▁detail	-10.337
▁sacrifice	-10.3371
▁exercise	-10.3385
▁corporation	-10.3387
▁mis	-10.3388
▁manning	-10.3388
▁associate	-10.3393
▁grandpa	-10.3394
▁bunker	-10.3395
▁medal	-10.3397
▁newspaper	-10.3398
▁evan	-10.3399
▁neighbor	-10.3402
▁rebel	-10.3402
▁dollar	-10.3412
▁sayin	-10.3419
▁leads	-10.3436
▁guards	-10.3438
▁charges	-10.3447
▁laws	-10.3447
▁warn	-10.3455
ella	-10.3483
▁fore	-10.3497
▁myth	-10.3501
ph	-10.3515
▁defeat	-10.352
▁comfort	-10.3521
just	-10.3529
▁despi	-10.3531
▁leak	-10.3533
▁perform	-10.3533
ial	-10.3534
ping	-10.3538
▁describe	-10.3542
▁separate	-10.3544
▁brand	-10.3544
▁sch	-10.355
▁messages	-10.3551
▁dia	-10.3552
▁actual	-10.3553
▁iraq	-10.3553
▁mental	-10.3554
▁brenda	-10.3556
▁russia	-10.3556
▁dispatch	-10.3556
▁kev	-10.3557
▁israel	-10.3557
▁require	-10.3558
▁vic	-10.3559
▁sara	-10.356
▁assassin	-10.356
▁compliment	-10.3561
▁transfer	-10.3561
▁towel	-10.3561
▁alleluia	-10.3562
▁anniversary	-10.3562
▁cemetery	-10.3562
▁damien	-10.3562
▁delegates	-10.3562
▁eleven	-10.3562
▁envelope	-10.3562
▁escort	-10.3562
▁feather	-10.3562
▁gorgeous	-10.3562
▁hartigan	-10.3562
▁identity	-10.3562
▁jazz	-10.3562
▁jeez	-10.3562
▁jefferson	-10.3562
▁jordan	-10.3562
▁kehoe	-10.3562
▁kekambas	-10.3562
▁lazlo	-10.3562
▁murmansk	-10.3562
▁ooooh	-10.3562
▁perrkins	-10.3562
▁political	-10.3562
▁purple	-10.3562
▁routine	-10.3562
▁salameh	-10.3562
▁veronika	-10.3562
▁yelping	-10.3562
▁waverly	-10.3562
▁neighbourhood	-10.3562
▁thomas	-10.3562
▁cheek	-10.3562
▁pickett	-10.3562
▁cocaine	-10.3562
▁willard	-10.3562
▁burke	-10.3562
▁hauser	-10.3562
▁dammit	-10.3562
▁petroglyphs	-10.3562
▁influence	-10.3562
ville	-10.3562
gro	-10.3562
▁practical	-10.3562
▁crew	-10.3562
▁nephew	-10.3562
▁juice	-10.3562
▁dentist	-10.3562
▁owns	-10.3562
▁orange	-10.3562
▁rotten	-10.3562
▁sensitive	-10.3562
▁booze	-10.3562
▁anger	-10.3562
▁curse	-10.3562
▁foul	-10.3562
▁typewriter	-10.3563
▁olivia	-10.3563
▁infection	-10.3563
▁powder	-10.3563
▁editor	-10.3563
▁clive	-10.3563
▁derry	-10.3563
▁giant	-10.3563
▁grass	-10.3564
▁crackling	-10.3564
▁labor	-10.3564
▁century	-10.3564
▁agreement	-10.3565
▁danceny	-10.3566
▁advantage	-10.3566
▁blonde	-10.357
▁nash	-10.3571
▁sew	-10.3571
▁gosh	-10.3572
jam	-10.3572
▁grip	-10.3573
▁registered	-10.3577
▁pullman	-10.3577
▁marie	-10.3578
▁witnesses	-10.3578
▁wicked	-10.3579
▁kai	-10.3582
▁rick	-10.3588
▁passes	-10.3588
▁satan	-10.3593
▁lab	-10.3594
▁earned	-10.3594
▁earn	-10.3607
ible	-10.3614
▁math	-10.3616
▁down	-10.3616
▁dings	-10.3621
▁swan	-10.3621
▁cells	-10.3621
ap	-10.3627
▁focused	-10.3627
▁jt	-10.363
▁raped	-10.3632
▁painter	-10.3633
▁din	-10.3647
▁catholics	-10.3653
▁clouds	-10.3653
▁yous	-10.3655
▁wayne	-10.3658
▁freaking	-10.366
▁cooking	-10.3663
▁chips	-10.3664
▁familys	-10.3666
▁tri	-10.3674
▁arab	-10.3707
▁visiting	-10.3712
▁shove	-10.3715
▁hip	-10.3716
▁windows	-10.3726
▁sting	-10.3731
ped	-10.3732
ac	-10.3734
▁chop	-10.3741
▁effects	-10.375
▁bells	-10.3752
op	-10.3752
▁passing	-10.3772
ized	-10.3817
▁ka	-10.383
ca	-10.3841
▁bra	-10.3841
▁friendly	-10.3853
yeh	-10.3896
▁anne	-10.3912
▁clients	-10.3922
▁issues	-10.3947
▁trusted	-10.3972
▁eliminate	-10.3973
▁files	-10.3981
▁x	-10.3994
ose	-10.3994
▁led	-10.4019
▁likely	-10.403
▁bake	-10.4045
ci	-10.4046
ating	-10.4052
ip	-10.4053
ism	-10.4063
che	-10.4088
▁reds	-10.4088
▁hei	-10.4122
▁appear	-10.4138
ons	-10.4141
▁hu	-10.4146
▁chick	-10.4154
▁gangster	-10.4156
▁worrying	-10.4156
▁pattern	-10.4156
▁threat	-10.4157
▁cousins	-10.4157
▁circle	-10.416
ft	-10.4161
▁wrist	-10.4162
ept	-10.4162
▁label	-10.4165
▁inmate	-10.4166
▁andrea	-10.4168
▁customer	-10.4177
the	-10.4179
▁services	-10.4182
▁toy	-10.4182
ger	-10.4188
▁prayer	-10.4205
▁med	-10.4216
▁bow	-10.4241
▁heal	-10.426
▁karl	-10.4264
▁scratch	-10.428
▁admire	-10.428
▁design	-10.4287
po	-10.4288
▁complain	-10.4289
▁confirm	-10.4297
ev	-10.4298
▁sail	-10.4301
▁vi	-10.4307
▁link	-10.4308
▁counts	-10.4311
▁conduct	-10.4315
▁cure	-10.4317
▁thick	-10.4317
▁advise	-10.4317
▁custom	-10.432
▁weigh	-10.4323
▁stew	-10.4328
▁painful	-10.4329
▁cla	-10.433
▁susan	-10.4331
▁awkward	-10.4331
▁background	-10.4331
▁barbecue	-10.4331
▁belief	-10.4331
▁bollix	-10.4331
▁channel	-10.4331
▁complex	-10.4331
▁conflict	-10.4331
▁cornwallis	-10.4331
▁delilah	-10.4331
▁dungatar	-10.4331
▁holiday	-10.4331
▁liquor	-10.4331
▁lobby	-10.4331
▁miserable	-10.4331
▁nypd	-10.4331
▁promotion	-10.4331
▁respond	-10.4331
▁robbed	-10.4331
▁telfer	-10.4331
▁tooth	-10.4331
▁twelve	-10.4331
▁underwear	-10.4331
▁vicomte	-10.4331
▁average	-10.4331
▁crisis	-10.4331
▁liquid	-10.4331
▁pervert	-10.4331
▁warrior	-10.4331
▁ellis	-10.4331
▁speer	-10.4331
▁drove	-10.4331
▁jaysis	-10.4331
▁attitude	-10.4331
▁kyle	-10.4331
▁concept	-10.4331
▁hanlon	-10.4331
▁pancakes	-10.4331
▁individual	-10.4331
▁kidnapped	-10.4331
▁octopus	-10.4331
▁independent	-10.4331
▁celebrating	-10.4331
▁lipstick	-10.4331
▁solomon	-10.4331
▁circus	-10.4331
▁francisco	-10.4331
▁miami	-10.4331
▁network	-10.4331
▁solid	-10.4331
▁constant	-10.4331
▁similar	-10.4331
▁ritter	-10.4331
▁jason	-10.4331
▁activity	-10.4331
▁authorities	-10.4331
▁giovanni	-10.4331
▁anytime	-10.4331
▁series	-10.4331
▁laundry	-10.4331
▁therell	-10.4332
▁yis	-10.4332
▁ease	-10.4332
▁valley	-10.4332
▁wagon	-10.4332
▁happiness	-10.4332
▁margaret	-10.4332
▁alpa	-10.4332
▁racis	-10.4332
▁passport	-10.4332
▁plug	-10.4332
▁vanger	-10.4332
▁sammy	-10.4332
▁email	-10.4333
▁reaction	-10.4333
▁gladys	-10.4333
▁cort	-10.4333
▁capable	-10.4333
▁wore	-10.4333
▁inches	-10.4333
▁gert	-10.4333
▁psychiatrist	-10.4333
▁spring	-10.4334
▁priority	-10.4334
▁hart	-10.4335
▁stillwater	-10.4335
work	-10.4335
▁booth	-10.4335
▁cycle	-10.4336
▁missile	-10.4336
▁senator	-10.4336
▁cue	-10.4336
▁float	-10.4337
▁management	-10.4337
▁fries	-10.4337
▁infected	-10.4337
▁treatment	-10.4337
▁darkness	-10.4337
▁stream	-10.4338
▁warden	-10.4338
▁african	-10.4338
▁ouch	-10.4339
▁balloon	-10.4339
▁wise	-10.434
▁andy	-10.434
▁task	-10.434
▁fade	-10.4344
▁sal	-10.4349
▁hangman	-10.4352
▁passion	-10.4352
▁booty	-10.4353
▁discovered	-10.4354
▁houses	-10.4357
▁charming	-10.4358
▁burnt	-10.4359
▁va	-10.4363
▁tax	-10.4364
▁goodnight	-10.4367
▁panic	-10.4371
▁lap	-10.4371
▁mid	-10.4376
▁served	-10.4379
▁herod	-10.438
▁shocked	-10.4386
▁suffered	-10.4386
▁shatters	-10.439
▁results	-10.439
▁suggesting	-10.4406
▁deserved	-10.4409
ble	-10.4418
▁moss	-10.4419
▁civilians	-10.4429
▁jews	-10.4429
▁smaller	-10.4431
▁wasted	-10.4434
▁equal	-10.4445
▁sw	-10.4447
▁rape	-10.4456
pa	-10.4462
▁ton	-10.4466
▁souls	-10.4471
four	-10.4476
▁primar	-10.4478
mo	-10.4481
fully	-10.4488
▁guts	-10.449
▁chicks	-10.4496
▁asses	-10.4496
▁camping	-10.4499
▁offered	-10.4508
▁playin	-10.4511
▁packing	-10.4521
cu	-10.4527
▁landing	-10.453
▁lit	-10.4533
▁beating	-10.4537
▁extract	-10.4537
▁projects	-10.4548
▁feds	-10.4549
gu	-10.4577
▁polls	-10.4579
pen	-10.4588
▁kissed	-10.4588
▁nails	-10.46
▁dreamed	-10.4616
oo	-10.4625
▁cleaned	-10.4631
▁mc	-10.4638
▁pages	-10.4641
▁kissing	-10.4648
▁choke	-10.4652
▁waitin	-10.4662
all	-10.4673
▁gut	-10.468
▁wounds	-10.4682
▁bones	-10.4684
cha	-10.4685
sa	-10.4687
▁cocks	-10.4715
uck	-10.472
▁shooter	-10.4721
cile	-10.4724
▁rot	-10.4725
▁cub	-10.4726
▁pend	-10.4727
der	-10.4735
▁bend	-10.4755
▁nap	-10.4783
▁pe	-10.4786
▁players	-10.4795
▁mol	-10.4812
vo	-10.4814
cking	-10.4834
cat	-10.4835
▁blows	-10.4845
me	-10.4853
▁merci	-10.486
▁te	-10.4862
▁deck	-10.4864
▁wrap	-10.4886
▁questioning	-10.4889
ver	-10.4889
▁blocks	-10.4897
▁isabel	-10.4909
▁machines	-10.4909
▁spirits	-10.4921
▁br	-10.493
▁claim	-10.4966
▁bond	-10.4967
▁mat	-10.4973
▁damage	-10.4976
▁procedure	-10.4988
▁rifle	-10.4988
▁candle	-10.4992
gh	-10.4993
▁pipe	-10.4993
▁adult	-10.4995
▁viking	-10.4996
▁root	-10.4996
▁vampire	-10.4997
▁grenade	-10.4998
▁grandmother	-10.4999
▁button	-10.5002
▁season	-10.5003
▁una	-10.5005
▁beside	-10.5007
▁member	-10.5012
▁commit	-10.5014
▁winds	-10.5016
▁civil	-10.5023
▁fits	-10.503
▁flip	-10.5061
ja	-10.5072
▁er	-10.5074
ms	-10.508
ook	-10.5082
▁lan	-10.5083
▁gather	-10.5092
▁intern	-10.5094
per	-10.5094
▁spin	-10.5105
ou	-10.5109
▁dial	-10.511
▁proceed	-10.5121
▁applaud	-10.5123
▁ellen	-10.5128
▁review	-10.5128
▁succeed	-10.5129
▁abandon	-10.5133
▁stress	-10.5135
▁grant	-10.514
▁deny	-10.5141
▁torture	-10.5143
▁advance	-10.5144
▁drama	-10.5144
▁sneak	-10.5145
▁convince	-10.5145
▁tune	-10.5146
▁madam	-10.5147
com	-10.5149
▁kuwait	-10.5151
▁slight	-10.5153
▁absolute	-10.5154
boy	-10.5154
ude	-10.5154
▁olive	-10.5158
ittie	-10.5159
▁basic	-10.5164
▁fifth	-10.5164
▁trauma	-10.5164
▁klaus	-10.5164
▁progress	-10.5164
▁symbol	-10.5164
▁absurd	-10.5164
▁austin	-10.5164
▁bartender	-10.5164
▁blomkvist	-10.5164
▁bread	-10.5164
▁cease	-10.5164
▁clamoring	-10.5164
▁connolly	-10.5164
▁device	-10.5164
▁district	-10.5164
▁eskimo	-10.5164
▁ghetto	-10.5164
▁haircut	-10.5164
▁impact	-10.5164
▁jorgen	-10.5164
▁katherine	-10.5164
▁kijung	-10.5164
▁klimek	-10.5164
▁lorraine	-10.5164
▁marybeth	-10.5164
▁matthew	-10.5164
▁michigan	-10.5164
▁ottavio	-10.5164
▁patience	-10.5164
▁pencil	-10.5164
▁raccoon	-10.5164
▁rykov	-10.5164
▁session	-10.5164
▁skull	-10.5164
▁surgery	-10.5164
▁uncomfortable	-10.5164
▁vasquez	-10.5164
▁vogelmann	-10.5164
▁widow	-10.5164
▁activities	-10.5164
▁cabrini	-10.5164
▁entry	-10.5164
▁mccoy	-10.5164
▁oscar	-10.5164
▁denzel	-10.5164
▁sausage	-10.5164
▁memories	-10.5164
▁trumpet	-10.5164
▁kidnapper	-10.5164
▁mysterious	-10.5164
▁opposite	-10.5164
▁pilot	-10.5164
▁scotch	-10.5164
▁international	-10.5164
▁museum	-10.5164
▁referee	-10.5164
▁clinic	-10.5164
▁condom	-10.5164
▁therapist	-10.5164
▁choir	-10.5164
▁domino	-10.5164
▁rabbitte	-10.5165
▁existence	-10.5165
▁mossad	-10.5165
▁bethany	-10.5165
▁pimp	-10.5165
▁performance	-10.5165
▁balance	-10.5165
▁profile	-10.5165
▁tunnel	-10.5165
▁russo	-10.5165
▁reservation	-10.5166
▁shave	-10.5166
▁denied	-10.5166
▁soup	-10.5166
▁frame	-10.5167
▁spott	-10.5167
▁housekeeper	-10.5167
▁tiny	-10.5168
▁exhausted	-10.5168
▁damon	-10.5169
▁grandson	-10.5169
▁halfway	-10.5169
▁poet	-10.5171
▁monk	-10.5171
▁tries	-10.5171
▁chat	-10.5171
▁brad	-10.5172
▁tur	-10.5172
▁bleedin	-10.5173
▁sync	-10.5174
▁indiana	-10.5174
▁include	-10.5174
▁convicted	-10.5174
▁accused	-10.5174
▁steam	-10.5175
▁crown	-10.5177
▁carol	-10.5177
▁arranged	-10.5179
▁vice	-10.5179
▁apple	-10.5179
▁unc	-10.5179
▁stepped	-10.5181
▁crank	-10.5181
▁engaged	-10.5182
▁not	-10.5183
▁mustang	-10.5183
▁damaged	-10.5184
▁emma	-10.5184
▁stripper	-10.5184
ford	-10.5185
▁rod	-10.5185
▁bollocks	-10.5186
▁stutters	-10.5186
▁iet	-10.5187
▁forty	-10.5188
▁betrayed	-10.5191
em	-10.5194
▁highest	-10.5195
▁whys	-10.5199
▁clatters	-10.52
▁classes	-10.5202
▁normally	-10.5209
▁mistakes	-10.5209
▁tone	-10.5209
▁settled	-10.521
▁chin	-10.5221
▁pouring	-10.5224
▁zoo	-10.5225
▁reminded	-10.5226
▁coz	-10.5238
▁painted	-10.5243
ai	-10.5243
▁lungs	-10.5243
▁steel	-10.5245
▁site	-10.5248
▁meters	-10.526
▁filled	-10.5264
▁lads	-10.5274
day	-10.5275
▁belly	-10.5276
▁fishing	-10.5276
▁recorder	-10.5285
▁grades	-10.529
▁sales	-10.529
▁lu	-10.5304
▁jumped	-10.5312
▁uhh	-10.5314
om	-10.5333
▁reported	-10.5337
▁ba	-10.5337
▁parking	-10.5339
▁landed	-10.534
▁meds	-10.5341
▁yen	-10.5341
▁feeding	-10.5342
ect	-10.5342
▁customers	-10.5346
▁sucker	-10.5363
▁tend	-10.5368
▁za	-10.5372
▁bi	-10.5399
ze	-10.5412
▁untie	-10.5413
▁stinks	-10.5416
▁enjoying	-10.5419
▁strangers	-10.5423
▁nicer	-10.5424
▁pub	-10.5437
tch	-10.5439
io	-10.5467
▁shouts	-10.5475
▁fighters	-10.548
ities	-10.5486
▁guests	-10.5488
▁ar	-10.5502
▁eggs	-10.5514
▁vehicles	-10.5518
▁aliens	-10.5518
▁tracks	-10.552
▁eli	-10.5527
▁nations	-10.5533
▁prisoners	-10.5533
▁slo	-10.5539
▁mix	-10.5544
▁throwing	-10.5552
▁prime	-10.5556
▁den	-10.5558
rate	-10.5559
▁models	-10.5576
▁angels	-10.5576
▁boo	-10.5582
▁breaks	-10.5589
▁criminals	-10.559
▁mari	-10.5592
▁dat	-10.5616
▁codes	-10.5617
▁hopes	-10.5617
red	-10.5642
tro	-10.5659
av	-10.5662
▁pale	-10.5682
oc	-10.5684
ick	-10.5715
▁jer	-10.573
ti	-10.5733
▁bombs	-10.5739
con	-10.5759
▁somethings	-10.5767
ving	-10.5767
for	-10.5771
omin	-10.5774
▁jimmys	-10.5787
bar	-10.5804
▁dates	-10.5804
▁sue	-10.5806
ud	-10.5809
ties	-10.5818
▁ver	-10.582
▁ve	-10.5829
▁walks	-10.5842
ni	-10.5843
▁hid	-10.5852
▁mass	-10.586
▁reporters	-10.5867
owned	-10.5884
▁jokes	-10.5885
▁actions	-10.5887
▁fee	-10.5887
▁arrive	-10.5888
▁ri	-10.589
▁checks	-10.589
▁tire	-10.5896
▁commercial	-10.5897
▁garrett	-10.5897
▁smack	-10.5898
▁sunset	-10.5905
▁arrangement	-10.5905
▁maniac	-10.5905
▁flea	-10.5907
▁degree	-10.5911
▁toward	-10.5913
▁hostage	-10.5914
▁fu	-10.5916
▁sometime	-10.5917
we	-10.5922
▁occasion	-10.5926
ory	-10.5926
▁invent	-10.5928
lon	-10.5945
▁lip	-10.5959
▁manner	-10.5966
▁fo	-10.598
▁approach	-10.5995
ters	-10.5996
▁skip	-10.6
tion	-10.6009
oh	-10.6024
ov	-10.6036
▁wreck	-10.6037
▁limit	-10.6037
▁monitor	-10.6038
▁cancel	-10.6038
ring	-10.6041
board	-10.6042
▁georg	-10.6045
right	-10.6048
class	-10.605
▁replace	-10.6052
▁capture	-10.6054
door	-10.6061
▁savage	-10.6061
▁permanent	-10.6062
side	-10.6062
▁immediate	-10.6062
▁numb	-10.6063
▁scott	-10.6067
▁sandwich	-10.6068
▁nut	-10.607
▁alcohol	-10.607
▁transport	-10.6071
▁lovin	-10.6071
▁toe	-10.6072
▁hawk	-10.6073
▁adventure	-10.6073
▁amigo	-10.6073
▁approximately	-10.6073
▁bachelor	-10.6073
▁bargain	-10.6073
▁behave	-10.6073
▁blackmail	-10.6073
▁cameroon	-10.6073
▁cawdor	-10.6073
▁dahye	-10.6073
▁daylight	-10.6073
▁domergue	-10.6073
▁experiment	-10.6073
▁google	-10.6073
▁gratitude	-10.6073
▁hudson	-10.6073
▁jassie	-10.6073
▁kaspbrak	-10.6073
▁kiwoo	-10.6073
▁library	-10.6073
▁lisbeth	-10.6073
▁lurasetti	-10.6073
▁macduff	-10.6073
▁memorial	-10.6073
▁messenger	-10.6073
▁mexican	-10.6073
▁miracle	-10.6073
▁morgue	-10.6073
▁moscow	-10.6073
▁mutant	-10.6073
▁nightingale	-10.6073
▁norway	-10.6073
▁palancio	-10.6073
▁permit	-10.6073
▁prague	-10.6073
▁purse	-10.6073
▁ramirez	-10.6073
▁ricca	-10.6073
▁scordia	-10.6073
▁screeches	-10.6073
▁smooth	-10.6073
▁snake	-10.6073
▁stroke	-10.6073
▁sydney	-10.6073
▁territory	-10.6073
▁testimony	-10.6073
▁tissue	-10.6073
▁ultimate	-10.6073
▁unhappy	-10.6073
▁wegener	-10.6073
▁wiesler	-10.6073
▁yelps	-10.6073
▁jersey	-10.6073
▁superior	-10.6073
▁colleague	-10.6073
▁confidence	-10.6073
▁surface	-10.6073
▁worship	-10.6073
▁kidnapping	-10.6073
▁convertible	-10.6073
▁leisureland	-10.6073
▁polite	-10.6073
▁spinning	-10.6073
▁gallery	-10.6073
▁juggernaut	-10.6073
▁stasi	-10.6073
▁absence	-10.6073
▁begbie	-10.6073
▁content	-10.6073
▁committee	-10.6073
▁melvin	-10.6073
▁remote	-10.6073
▁pratt	-10.6073
▁rubber	-10.6073
▁oswaldo	-10.6073
▁samuel	-10.6073
▁lunatic	-10.6073
▁thailand	-10.6073
▁convenient	-10.6074
▁gilbert	-10.6074
▁outfit	-10.6074
▁rack	-10.6074
▁intelligence	-10.6074
▁blah	-10.6074
▁tourvel	-10.6074
▁jaw	-10.6074
▁youth	-10.6074
▁france	-10.6074
▁arse	-10.6074
▁smiling	-10.6074
▁clark	-10.6074
▁cooperate	-10.6074
▁objective	-10.6074
▁sandra	-10.6074
▁bruce	-10.6074
▁horseshit	-10.6074
▁begun	-10.6074
▁mick	-10.6074
▁lyle	-10.6074
▁argh	-10.6074
▁ballistic	-10.6074
▁brace	-10.6074
▁carpenter	-10.6074
▁pawn	-10.6075
▁volume	-10.6075
▁alpha	-10.6075
▁fax	-10.6075
▁population	-10.6075
▁cliff	-10.6075
▁starving	-10.6075
cient	-10.6075
▁development	-10.6075
▁authority	-10.6075
vious	-10.6075
▁iove	-10.6076
▁torn	-10.6076
▁jayne	-10.6076
▁continental	-10.6076
▁scale	-10.6077
▁piace	-10.6077
▁motive	-10.6077
▁nearby	-10.6078
▁construction	-10.6078
ex	-10.6078
▁european	-10.6078
▁tragedy	-10.6078
▁annoying	-10.6079
▁whatll	-10.6079
▁taxes	-10.6079
▁express	-10.608
▁trap	-10.6081
▁sharing	-10.6081
▁limbo	-10.6082
▁mob	-10.6083
▁fur	-10.6083
▁backpack	-10.6083
▁iraqi	-10.6084
▁vow	-10.6085
▁dragon	-10.6085
▁rocket	-10.6088
▁heroes	-10.6088
▁gage	-10.6089
▁georgie	-10.6091
▁jam	-10.6091
▁bash	-10.6092
▁stopping	-10.6093
▁thus	-10.6094
▁properly	-10.6094
▁ew	-10.6094
▁threatening	-10.6094
▁puke	-10.6097
▁ban	-10.6097
▁vl	-10.6099
▁sum	-10.61
ell	-10.61
▁banks	-10.6102
▁culture	-10.6102
▁sacrificed	-10.6103
▁carries	-10.6105
▁invented	-10.6106
▁to	-10.6111
▁mixed	-10.6111
▁lindo	-10.6116
▁louder	-10.6117
▁delivery	-10.6117
▁needle	-10.6118
▁cooper	-10.6118
▁crab	-10.6119
▁germany	-10.6119
nn	-10.6125
▁shitting	-10.613
▁payment	-10.6132
▁roaring	-10.6137
▁safer	-10.6147
▁entering	-10.6147
iiing	-10.6147
▁pays	-10.6151
▁drawer	-10.6152
▁niggers	-10.6153
▁wounded	-10.6156
▁wings	-10.6162
▁county	-10.6165
▁clubs	-10.6167
▁tracking	-10.6167
▁reeves	-10.6176
▁relatives	-10.6176
rich	-10.6177
▁freaked	-10.6177
▁traveling	-10.6182
▁messy	-10.6183
▁pat	-10.6207
▁colored	-10.6207
▁accepted	-10.621
▁hooked	-10.6212
▁lighter	-10.6224
▁movement	-10.6232
▁degrees	-10.6239
▁bees	-10.6244
▁fetch	-10.6245
▁crossing	-10.6246
▁bothering	-10.6256
▁types	-10.6258
▁worthy	-10.6259
▁schools	-10.6264
▁shite	-10.6265
▁petes	-10.6269
zo	-10.6281
▁prayers	-10.6282
▁fires	-10.6284
▁messed	-10.63
▁tar	-10.6304
▁nazis	-10.6318
▁cl	-10.6339
▁ag	-10.6342
▁boxing	-10.6352
▁hai	-10.6373
▁my	-10.638
▁her	-10.6383
▁yards	-10.6397
rd	-10.6416
▁imma	-10.6416
▁mil	-10.6426
▁worker	-10.6447
▁sticking	-10.6451
▁demons	-10.6493
▁funk	-10.6496
▁russians	-10.651
use	-10.6527
▁millions	-10.6547
▁hates	-10.655
za	-10.6557
▁rec	-10.6567
▁seats	-10.657
▁deadly	-10.6577
▁le	-10.6577
▁bug	-10.66
▁bottles	-10.6607
▁begins	-10.6623
▁bills	-10.6641
▁caused	-10.6648
▁fri	-10.6651
▁bru	-10.6668
▁mamas	-10.6687
▁professionals	-10.6705
▁q	-10.6711
▁pledge	-10.6712
ably	-10.6718
wrapped	-10.6721
hi	-10.6774
gging	-10.6791
▁holes	-10.6805
ual	-10.6811
tra	-10.6831
▁deserves	-10.6852
▁stands	-10.6859
▁thrill	-10.6864
▁demand	-10.6869
▁rem	-10.6874
▁mal	-10.6875
▁grunt	-10.6878
▁woo	-10.6883
▁gi	-10.6883
iest	-10.6885
▁brick	-10.6899
▁chi	-10.6899
▁principle	-10.6901
▁junkie	-10.6901
▁nerve	-10.6904
▁method	-10.6905
▁benefit	-10.6906
▁spider	-10.6906
▁nun	-10.6908
▁comrade	-10.6908
▁option	-10.6909
▁israeli	-10.6911
▁bean	-10.6916
mar	-10.6929
br	-10.6936
▁disgrace	-10.6942
▁bee	-10.6955
▁glove	-10.6958
ions	-10.6969
▁prep	-10.6975
▁dancer	-10.6979
▁contain	-10.6983
▁noon	-10.6985
▁tu	-10.6988
▁ol	-10.6993
▁bun	-10.6995
▁drown	-10.6998
▁effort	-10.6999
▁can	-10.7025
▁inter	-10.703
▁squeak	-10.7035
▁betray	-10.7038
field	-10.7047
▁systems	-10.7048
▁burns	-10.7048
▁engage	-10.7052
▁divorce	-10.7053
well	-10.7054
self	-10.7057
di	-10.7058
▁grad	-10.7059
▁kenn	-10.706
▁unfortunate	-10.7062
▁object	-10.7065
▁fools	-10.7066
▁drawing	-10.7069
▁affect	-10.7071
▁amsterdam	-10.7073
▁audrey	-10.7073
▁banquo	-10.7073
▁beulah	-10.7073
▁burbank	-10.7073
▁cavalry	-10.7073
▁celebrity	-10.7073
▁cheeco	-10.7073
▁combination	-10.7073
▁concrete	-10.7073
▁custody	-10.7073
▁czech	-10.7073
▁darius	-10.7073
▁debate	-10.7073
▁declare	-10.7073
▁division	-10.7073
▁electronic	-10.7073
▁entitled	-10.7073
▁fischer	-10.7073
▁furlong	-10.7073
▁furniture	-10.7073
▁haberdashery	-10.7073
▁hammond	-10.7073
▁headmaster	-10.7073
▁inhabit	-10.7073
▁jamshidi	-10.7073
▁journey	-10.7073
▁karbala	-10.7073
▁keith	-10.7073
▁kindergarten	-10.7073
▁lnspector	-10.7073
▁majesty	-10.7073
▁marigold	-10.7073
▁naughty	-10.7073
▁pardon	-10.7073
▁penalty	-10.7073
▁philanthropist	-10.7073
▁pierpont	-10.7073
▁pretzel	-10.7073
▁pulse	-10.7073
▁puzzle	-10.7073
▁rehab	-10.7073
▁relieved	-10.7073
▁scholarship	-10.7073
▁shakespeare	-10.7073
▁sieland	-10.7073
▁suspended	-10.7073
▁vanessa	-10.7073
▁veronica	-10.7073
▁weasel	-10.7073
▁wilkes	-10.7073
▁winyerp	-10.7073
▁wrestling	-10.7073
▁debbie	-10.7073
▁disease	-10.7073
▁fortunate	-10.7073
▁whatsoever	-10.7073
▁zadie	-10.7073
▁clerk	-10.7073
▁entrance	-10.7073
▁harvard	-10.7073
▁instrument	-10.7073
▁literature	-10.7073
▁blast	-10.7073
▁japanese	-10.7073
▁kirk	-10.7073
▁prevent	-10.7073
▁uhuh	-10.7073
▁grabbed	-10.7073
▁imitate	-10.7073
▁moaning	-10.7073
▁klick	-10.7073
▁alert	-10.7073
▁combat	-10.7073
▁heavyweight	-10.7073
▁humming	-10.7073
▁hidden	-10.7073
▁derek	-10.7073
▁cocktail	-10.7073
▁shelter	-10.7073
▁misery	-10.7074
▁grandfather	-10.7074
▁flew	-10.7074
▁freddy	-10.7074
▁improve	-10.7074
▁backwards	-10.7074
▁leap	-10.7074
▁valerie	-10.7074
▁pension	-10.7074
▁hostile	-10.7074
▁some	-10.7074
▁failure	-10.7074
▁medium	-10.7074
▁signature	-10.7074
▁torchia	-10.7074
▁inspector	-10.7074
▁machete	-10.7074
▁madison	-10.7074
▁peder	-10.7074
▁chapter	-10.7074
▁fiction	-10.7074
▁blink	-10.7074
▁jammed	-10.7074
▁creative	-10.7074
▁ditch	-10.7074
▁embassy	-10.7074
▁xmen	-10.7074
▁species	-10.7074
▁electricity	-10.7074
▁ridgeman	-10.7074
▁tension	-10.7074
▁championship	-10.7074
▁doom	-10.7075
▁creek	-10.7075
▁mode	-10.7075
▁temple	-10.7075
▁circuit	-10.7075
▁internet	-10.7075
▁contribution	-10.7075
▁specifically	-10.7075
▁effective	-10.7075
▁karen	-10.7075
▁lazy	-10.7075
▁generous	-10.7075
▁selfish	-10.7075
▁fork	-10.7075
▁earl	-10.7076
antler	-10.7076
▁beings	-10.7076
▁fink	-10.7076
▁edition	-10.7077
▁skirt	-10.7077
▁climate	-10.7077
▁cannon	-10.7077
▁critical	-10.7077
omber	-10.7077
▁quitting	-10.7077
▁dante	-10.7077
▁roommate	-10.7078
▁gain	-10.7078
▁retired	-10.7078
▁goddam	-10.7079
▁knockout	-10.7079
▁haha	-10.7079
▁temporar	-10.708
▁castle	-10.708
▁section	-10.708
▁peterson	-10.7081
▁detected	-10.7082
▁takin	-10.7082
▁madness	-10.7082
▁quid	-10.7083
▁teenager	-10.7083
▁halt	-10.7083
▁rumor	-10.7083
through	-10.7083
▁chosen	-10.7084
▁specialist	-10.7084
▁christian	-10.7084
▁suggestion	-10.7084
▁haunted	-10.7085
▁shaking	-10.7085
▁hump	-10.7085
ky	-10.7086
▁obsessed	-10.7086
▁adore	-10.7087
▁angelo	-10.7088
▁dragged	-10.7089
▁nearest	-10.709
▁praise	-10.7091
▁amongst	-10.7091
▁whistle	-10.7091
▁shithole	-10.7092
goc	-10.7093
▁developing	-10.7096
▁barber	-10.7097
▁bridger	-10.7097
▁recommended	-10.7099
▁barking	-10.71
▁described	-10.7102
erry	-10.7103
▁disturbing	-10.7105
▁chester	-10.7107
▁restore	-10.711
▁drowned	-10.7111
▁dogg	-10.7113
▁willie	-10.7113
▁insects	-10.7117
▁republicans	-10.7117
▁policeman	-10.7118
▁useful	-10.7119
▁impression	-10.7124
▁catches	-10.7126
▁skipp	-10.7127
▁bucky	-10.7128
▁nod	-10.7129
▁mountains	-10.713
▁lick	-10.713
▁shi	-10.7131
▁scientists	-10.7135
▁released	-10.7141
▁poisoned	-10.7143
▁pounding	-10.7144
▁religio	-10.7148
▁introduced	-10.7152
▁pelts	-10.7152
▁shaki	-10.7161
▁driven	-10.7161
▁pad	-10.7164
▁internal	-10.7164
▁frankly	-10.7165
▁breasts	-10.717
▁consequences	-10.717
▁muscles	-10.717
▁commitments	-10.717
▁mandy	-10.7181
▁busted	-10.7181
▁addict	-10.7185
▁christa	-10.7187
tin	-10.7195
▁barb	-10.7202
▁sucked	-10.7204
▁generations	-10.7205
▁eatin	-10.7206
▁ki	-10.7207
▁chains	-10.7213
▁searching	-10.7215
▁lance	-10.7215
▁fold	-10.7219
▁filling	-10.7223
▁refugees	-10.7224
bj	-10.7224
▁documents	-10.7227
▁ages	-10.7229
▁cruel	-10.7243
▁honored	-10.7253
▁hack	-10.7254
▁fra	-10.7265
▁dressing	-10.7271
iy	-10.7273
▁seasons	-10.7275
▁claims	-10.7277
▁tub	-10.7279
▁trainer	-10.7281
▁dicks	-10.7283
ut	-10.7285
▁pole	-10.7286
▁joining	-10.7287
▁mere	-10.7292
▁wondered	-10.7295
▁jumping	-10.7295
▁multipl	-10.7299
▁jane	-10.7301
▁who	-10.7304
▁prom	-10.7307
▁shin	-10.7309
▁journal	-10.731
▁evans	-10.731
▁newspapers	-10.731
▁thinkin	-10.7313
▁royal	-10.732
▁tables	-10.7325
▁enjoyed	-10.7326
▁saddams	-10.7329
▁cases	-10.7329
▁pins	-10.7331
▁kit	-10.7334
▁protecting	-10.7334
▁indians	-10.7346
ub	-10.7346
▁citizens	-10.7363
▁boats	-10.7364
▁deed	-10.7372
▁mac	-10.7372
▁document	-10.7374
▁speakers	-10.7378
▁testing	-10.7389
▁rats	-10.7407
▁gim	-10.7412
ile	-10.7413
ence	-10.7413
▁shoulders	-10.7435
▁feelin	-10.7437
pp	-10.7442
ants	-10.7452
▁reminds	-10.7453
▁tag	-10.7459
▁rob	-10.7461
ess	-10.7466
ven	-10.7468
▁lifes	-10.747
nie	-10.7471
▁dime	-10.7475
zek	-10.7481
eg	-10.7482
▁catching	-10.7488
▁til	-10.751
▁sis	-10.7518
iii	-10.753
▁comments	-10.7542
drew	-10.7542
▁hells	-10.7544
▁answering	-10.7546
ife	-10.7587
▁computers	-10.7613
iss	-10.7635
▁accidental	-10.7653
▁wanting	-10.7681
▁bu	-10.7703
▁attacks	-10.7704
ec	-10.7707
▁becomes	-10.7718
tan	-10.7725
▁courts	-10.7735
▁relationships	-10.7757
ron	-10.7763
▁hob	-10.7778
▁hoped	-10.7791
au	-10.781
▁bud	-10.783
▁colors	-10.7839
▁pan	-10.7844
▁chap	-10.7855
▁y	-10.7857
▁pals	-10.7858
tr	-10.7864
▁pointing	-10.7906
▁engines	-10.7907
▁ace	-10.7908
stan	-10.7913
ette	-10.792
▁charm	-10.7923
▁whip	-10.7927
port	-10.7928
▁print	-10.7938
▁fields	-10.7938
▁nicks	-10.7959
▁shadow	-10.7962
▁deaths	-10.7966
▁click	-10.7989
▁tellin	-10.8007
▁diet	-10.8007
▁elbow	-10.8012
▁investment	-10.8013
▁angle	-10.8015
▁moron	-10.8018
▁survivor	-10.802
▁terrorist	-10.8022
▁ap	-10.8022
▁refugee	-10.8024
▁snap	-10.8025
▁skill	-10.8027
▁chuckle	-10.8028
▁intention	-10.8028
▁finds	-10.8034
▁visitor	-10.8034
▁how	-10.8036
▁farmer	-10.8036
▁sale	-10.8037
▁hunter	-10.8037
▁toss	-10.8038
▁rank	-10.8043
▁mud	-10.8044
▁grade	-10.8057
cer	-10.8058
▁pauls	-10.8064
our	-10.8066
▁wu	-10.8074
▁rang	-10.8078
beat	-10.8082
▁ak	-10.8091
six	-10.8105
night	-10.8108
▁spray	-10.8108
▁eds	-10.8113
▁discover	-10.8136
▁maintain	-10.8139
▁strikes	-10.8142
▁az	-10.8146
▁exclaim	-10.8147
▁invest	-10.8147
▁manifest	-10.8148
▁sink	-10.8149
▁assault	-10.8149
book	-10.8154
▁dock	-10.8157
▁apply	-10.8161
▁batt	-10.8162
▁arrange	-10.8164
lar	-10.8166
playing	-10.8166
▁corn	-10.817
▁eternal	-10.8172
▁restrain	-10.8176
nine	-10.8181
▁republic	-10.8182
▁abuse	-10.8182
▁dee	-10.8183
▁entertain	-10.8183
▁conscious	-10.8183
▁favour	-10.8184
▁interfere	-10.8184
▁explor	-10.8184
▁wolf	-10.8184
▁afghanistan	-10.8184
▁applause	-10.8184
▁argument	-10.8184
▁bastide	-10.8184
▁beirut	-10.8184
▁believing	-10.8184
▁bogart	-10.8184
▁cafeteria	-10.8184
▁chamber	-10.8184
▁cheeseburger	-10.8184
▁collapse	-10.8184
▁colossus	-10.8184
▁confusion	-10.8184
▁convoy	-10.8184
▁couid	-10.8184
▁council	-10.8184
▁definition	-10.8184
▁dmitri	-10.8184
▁donovan	-10.8184
▁encounter	-10.8184
▁estonian	-10.8184
▁explanation	-10.8184
▁faggot	-10.8184
▁festival	-10.8184
▁forfeit	-10.8184
▁frozen	-10.8184
▁galahad	-10.8184
▁gerardo	-10.8184
▁giggles	-10.8184
▁giorgio	-10.8184
▁harridene	-10.8184
▁helium	-10.8184
▁howayeh	-10.8184
▁humvee	-10.8184
▁iliad	-10.8184
▁increase	-10.8184
▁inviting	-10.8184
▁isaac	-10.8184
▁krueger	-10.8184
▁landscape	-10.8184
▁lesbian	-10.8184
▁lindsay	-10.8184
▁nuclear	-10.8184
▁occupy	-10.8184
▁offlimits	-10.8184
▁rainbow	-10.8184
▁reject	-10.8184
▁rhythm	-10.8184
▁satellite	-10.8184
▁sauna	-10.8184
▁shotgun	-10.8184
▁shrimp	-10.8184
▁slewitt	-10.8184
▁sorrow	-10.8184
▁spoil	-10.8184
▁strangle	-10.8184
▁struggling	-10.8184
▁terrified	-10.8184
▁treasure	-10.8184
▁trevor	-10.8184
▁trophy	-10.8184
▁underneath	-10.8184
▁universe	-10.8184
▁wallpaper	-10.8184
▁wheelchair	-10.8184
▁whimpers	-10.8184
▁wouid	-10.8184
▁zodiac	-10.8184
▁buddies	-10.8184
▁contempt	-10.8184
▁dyke	-10.8184
▁jerska	-10.8184
▁presence	-10.8184
▁roast	-10.8184
▁sperm	-10.8184
▁rattling	-10.8184
▁gordon	-10.8184
▁humiliating	-10.8184
▁nipple	-10.8184
▁plastic	-10.8184
▁financial	-10.8184
▁drain	-10.8184
▁studied	-10.8184
▁hollywood	-10.8184
▁blair	-10.8184
▁elysium	-10.8184
▁refrigerator	-10.8184
▁vietnamese	-10.8184
▁ethn	-10.8185
▁curda	-10.8185
▁edvard	-10.8185
▁gown	-10.8185
▁scumbag	-10.8185
▁retirement	-10.8185
▁polish	-10.8185
▁boris	-10.8185
▁denver	-10.8185
▁recall	-10.8185
▁avenue	-10.8185
▁trapped	-10.8185
▁honour	-10.8185
▁drank	-10.8185
▁transferred	-10.8185
▁aight	-10.8185
▁finland	-10.8185
▁hiya	-10.8185
▁tenderness	-10.8185
▁womb	-10.8185
▁cardiff	-10.8185
▁beast	-10.8185
▁parade	-10.8185
▁fargas	-10.8185
▁collar	-10.8185
▁rival	-10.8185
▁vicious	-10.8185
▁morocco	-10.8185
▁valium	-10.8185
▁marshal	-10.8185
▁medication	-10.8185
▁slipped	-10.8185
▁dang	-10.8185
alogue	-10.8185
▁pride	-10.8185
▁arrogant	-10.8185
▁upside	-10.8185
▁wingman	-10.8185
▁massage	-10.8185
▁borderline	-10.8186
▁bribe	-10.8186
▁deaf	-10.8186
▁poland	-10.8186
▁burst	-10.8186
▁status	-10.8186
▁punishment	-10.8186
▁version	-10.8186
▁april	-10.8186
▁krill	-10.8186
▁historic	-10.8186
▁knives	-10.8186
▁genetic	-10.8186
▁harper	-10.8186
▁joyce	-10.8186
▁iook	-10.8186
▁recipe	-10.8186
▁habit	-10.8186
▁centre	-10.8186
▁woof	-10.8187
▁replacement	-10.8187
▁deputy	-10.8187
▁weakness	-10.8187
▁chip	-10.8187
▁ensure	-10.8187
▁novel	-10.8188
▁jamie	-10.8188
▁liberty	-10.8188
▁activated	-10.8188
▁cellphone	-10.8188
▁wives	-10.8189
▁smithers	-10.8189
▁ladder	-10.8189
▁determine	-10.8189
▁betrayal	-10.8189
▁yum	-10.8189
▁estate	-10.8189
▁produce	-10.819
▁surrounded	-10.819
▁pecker	-10.819
▁forth	-10.819
▁blank	-10.8191
▁sandwiches	-10.8191
▁maddy	-10.8191
▁facebook	-10.8191
▁stab	-10.8191
▁supper	-10.8192
▁abilities	-10.8192
▁dragan	-10.8192
▁demonic	-10.8192
▁dumbass	-10.8192
▁marty	-10.8194
▁roxy	-10.8195
▁shipment	-10.8195
▁personality	-10.8195
▁diary	-10.8195
▁cries	-10.8195
▁forgetting	-10.8196
▁discussion	-10.8196
▁creating	-10.8197
▁cellar	-10.8197
▁disappointed	-10.8198
▁wealthy	-10.8198
▁cody	-10.8198
▁burglar	-10.8199
▁leda	-10.8199
▁slightly	-10.8199
fucking	-10.82
▁gum	-10.82
▁democratic	-10.8201
▁chino	-10.8202
▁unto	-10.8202
▁cabin	-10.8203
▁dc	-10.8204
▁vest	-10.8204
▁attracted	-10.8205
▁spite	-10.8206
▁ata	-10.8207
▁captured	-10.8209
▁richter	-10.8209
▁brandy	-10.8209
▁hein	-10.8211
▁bobo	-10.8211
▁rig	-10.8212
▁desperately	-10.8213
▁referr	-10.8216
▁demo	-10.8221
▁native	-10.8222
▁exploded	-10.8223
▁elses	-10.8224
▁goodlooking	-10.8225
▁carson	-10.8226
▁forgiven	-10.8226
▁claus	-10.8226
▁teaches	-10.8228
▁tricky	-10.8229
▁noble	-10.8229
▁squeaking	-10.8229
▁stash	-10.8229
▁despise	-10.8233
▁engravings	-10.8234
▁instructions	-10.8234
▁cursed	-10.8234
▁aerobics	-10.8235
▁flames	-10.8238
▁billie	-10.8238
▁gathering	-10.8239
▁removed	-10.8239
▁fry	-10.8239
▁hor	-10.824
▁parties	-10.8241
▁kisses	-10.8245
▁performing	-10.8248
▁deeper	-10.825
▁blown	-10.8256
▁patch	-10.8256
▁homer	-10.8258
och	-10.8259
▁discussed	-10.8267
sky	-10.8272
▁stocking	-10.8277
▁cuffs	-10.828
▁bowling	-10.8282
▁discussing	-10.8286
▁assumed	-10.8289
▁crashing	-10.8292
▁marv	-10.8302
▁quietly	-10.831
ability	-10.8311
▁fin	-10.8311
ak	-10.8318
▁walkin	-10.8321
▁imagined	-10.8326
▁net	-10.8328
▁structure	-10.8329
▁matty	-10.8337
▁dealt	-10.8345
▁terrorists	-10.8352
▁cher	-10.8353
▁visitors	-10.8354
ug	-10.837
▁comrades	-10.8372
▁options	-10.8372
▁iran	-10.8382
▁easter	-10.8383
▁prayed	-10.8391
ied	-10.8395
ummy	-10.8403
▁ni	-10.8403
illa	-10.8407
▁interviewed	-10.8409
▁peaceful	-10.8418
▁yu	-10.842
▁buckle	-10.8425
hin	-10.8425
▁drives	-10.8436
den	-10.8452
▁tis	-10.8456
▁tools	-10.8472
▁whitey	-10.8475
▁supposedly	-10.848
▁heii	-10.849
heck	-10.8491
▁stevens	-10.8511
▁concerns	-10.8512
my	-10.8513
▁whoop	-10.852
▁actors	-10.8536
▁it	-10.8543
▁image	-10.8544
▁persons	-10.8549
▁reduce	-10.8568
▁events	-10.8585
ative	-10.8595
▁pea	-10.8604
▁understands	-10.8606
▁values	-10.8611
▁scrap	-10.8615
▁answered	-10.8616
mon	-10.8633
▁stays	-10.8637
▁react	-10.8642
▁bangs	-10.8654
ash	-10.8655
▁handy	-10.8657
you	-10.8673
ren	-10.8674
▁nos	-10.8695
more	-10.8702
▁lessons	-10.8715
nder	-10.8727
▁pl	-10.8735
▁sets	-10.8746
▁gu	-10.8747
▁conversations	-10.8752
▁instant	-10.8761
▁kindly	-10.8779
▁greater	-10.8783
▁dip	-10.879
▁hats	-10.8792
▁bubbl	-10.8793
ically	-10.8809
▁gal	-10.8814
▁listened	-10.8814
berg	-10.8821
▁dre	-10.8834
▁uses	-10.8843
▁disc	-10.8853
▁hills	-10.887
seif	-10.8883
▁needles	-10.8889
▁flats	-10.8893
net	-10.8902
ong	-10.8907
vin	-10.8912
ote	-10.8921
▁ram	-10.8929
▁uv	-10.8937
▁thud	-10.8974
with	-10.8978
▁devils	-10.8996
if	-10.8996
pot	-10.9013
grade	-10.9036
ple	-10.9037
▁mcc	-10.9054
itz	-10.9055
▁paintings	-10.9058
gs	-10.9064
ever	-10.907
ame	-10.9072
▁es	-10.9075
▁clowns	-10.9078
tal	-10.909
ade	-10.9093
▁seek	-10.9108
▁mem	-10.9119
▁roman	-10.9137
▁bothers	-10.9142
▁dirt	-10.9158
▁comp	-10.9159
ach	-10.9173
mes	-10.9179
▁governments	-10.9181
▁locks	-10.9205
▁mel	-10.9207
istic	-10.9213
▁fianc	-10.9237
▁cough	-10.9238
▁yell	-10.9238
▁graduate	-10.9242
▁cro	-10.9252
▁nov	-10.9258
▁snack	-10.9262
ries	-10.9263
▁idiots	-10.9264
▁fuckers	-10.9265
▁marine	-10.9265
▁explosive	-10.9267
▁quarter	-10.927
▁tower	-10.927
▁sock	-10.9272
▁generation	-10.9272
▁catholic	-10.9273
▁cloud	-10.9273
▁civilian	-10.9273
▁jew	-10.9274
▁eu	-10.9277
▁reasons	-10.9304
▁agents	-10.9305
▁environment	-10.9329
lines	-10.9341
▁allie	-10.9344
▁disturb	-10.935
▁surviv	-10.935
▁mini	-10.9351
▁confess	-10.9356
▁platt	-10.9375
▁golf	-10.9376
havin	-10.9382
▁chase	-10.9383
▁echo	-10.9387
▁fears	-10.9392
▁swell	-10.9395
born	-10.9395
▁recommend	-10.94
▁twist	-10.9402
▁corrupt	-10.9403
▁wick	-10.9409
mouth	-10.9411
like	-10.9413
myth	-10.9413
▁spill	-10.9415
loved	-10.9416
▁propose	-10.9416
▁gag	-10.9417
▁doub	-10.9417
▁wealth	-10.9418
▁assure	-10.9419
▁execute	-10.9419
▁fer	-10.9421
test	-10.9421
▁achieve	-10.9422
▁disorder	-10.9422
▁strict	-10.9423
▁glob	-10.9423
name	-10.9426
bs	-10.9427
▁dam	-10.9427
dell	-10.9428
▁establish	-10.9429
▁lecture	-10.9431
▁asia	-10.9431
car	-10.9431
▁makin	-10.9433
▁peop	-10.9433
▁electric	-10.9433
▁porn	-10.9433
▁marsh	-10.9434
▁capital	-10.9434
▁ponch	-10.9434
▁vocal	-10.9434
▁basket	-10.9434
mmerung	-10.9434
rnsen	-10.9434
▁anita	-10.9434
▁anonymous	-10.9434
▁appropriate	-10.9434
▁bathtub	-10.9434
▁cabbage	-10.9434
▁canada	-10.9434
▁capacity	-10.9434
▁centuries	-10.9434
▁christamaria	-10.9434
▁cleveland	-10.9434
▁clutch	-10.9434
▁cocksucker	-10.9434
▁compensation	-10.9434
▁cusimano	-10.9434
▁deuce	-10.9434
▁dignity	-10.9434
▁dopinder	-10.9434
▁eejit	-10.9434
▁essential	-10.9434
▁exposed	-10.9434
▁fabulous	-10.9434
▁false	-10.9434
▁fleming	-10.9434
▁foxcatcher	-10.9434
▁freddie	-10.9434
▁fumitsu	-10.9434
▁goldenbeard	-10.9434
▁hilarious	-10.9434
▁horror	-10.9434
▁independence	-10.9434
▁inglewood	-10.9434
▁invasion	-10.9434
▁lucille	-10.9434
▁november	-10.9434
▁nowadays	-10.9434
▁oklahoma	-10.9434
▁peenalop	-10.9434
▁probation	-10.9434
▁promiscuous	-10.9434
▁pussies	-10.9434
▁ralph	-10.9434
▁relief	-10.9434
▁rocknroll	-10.9434
▁salvatore	-10.9434
▁scenario	-10.9434
▁sleeve	-10.9434
▁snarling	-10.9434
▁sofia	-10.9434
▁spiegel	-10.9434
▁technology	-10.9434
▁theodore	-10.9434
▁therefore	-10.9434
▁thread	-10.9434
▁transaction	-10.9434
▁twat	-10.9434
▁unicorn	-10.9434
▁unique	-10.9434
▁vague	-10.9434
▁vault	-10.9434
▁vejle	-10.9434
▁violation	-10.9434
▁warnekros	-10.9434
▁wilkins	-10.9434
▁wisdom	-10.9434
▁wolves	-10.9434
▁coffin	-10.9434
▁evacuate	-10.9434
▁floyd	-10.9434
▁imagining	-10.9434
▁jeffrey	-10.9434
▁preparing	-10.9434
▁renew	-10.9434
▁senor	-10.9434
▁sixteen	-10.9434
▁thief	-10.9434
▁uncertain	-10.9434
▁guerrilla	-10.9434
▁prophet	-10.9434
▁libby	-10.9434
▁amanda	-10.9434
▁imelda	-10.9434
▁worries	-10.9434
▁consent	-10.9434
▁personnel	-10.9434
▁slams	-10.9434
▁temperature	-10.9434
▁venture	-10.9434
▁silk	-10.9434
▁competition	-10.9434
▁amazon	-10.9434
▁levy	-10.9434
▁grens	-10.9434
▁baroness	-10.9434
▁honks	-10.9434
▁gdr	-10.9434
▁hiphop	-10.9434
▁ramdon	-10.9434
▁veins	-10.9434
▁whiskey	-10.9434
▁irina	-10.9434
▁whew	-10.9434
▁patrick	-10.9435
▁annabeth	-10.9435
▁puppy	-10.9435
▁turkey	-10.9435
▁occurred	-10.9435
▁mailbox	-10.9435
▁integrity	-10.9435
▁jody	-10.9435
▁maxandra	-10.9435
▁auto	-10.9435
▁bulletproof	-10.9435
▁expectations	-10.9435
▁quarterback	-10.9435
▁breeze	-10.9435
▁forgery	-10.9435
▁sandborn	-10.9435
▁tivo	-10.9435
▁clint	-10.9435
▁georgina	-10.9435
▁waik	-10.9435
▁documentary	-10.9435
▁economic	-10.9435
▁chopped	-10.9435
▁motor	-10.9435
▁inhaler	-10.9435
▁poem	-10.9435
▁olson	-10.9435
▁torch	-10.9435
▁roach	-10.9435
▁disposal	-10.9435
▁proposal	-10.9435
▁magnifi	-10.9435
▁ripped	-10.9435
▁salary	-10.9435
▁nini	-10.9435
▁palace	-10.9435
▁carlyle	-10.9435
▁overnight	-10.9435
▁instructor	-10.9435
▁entertainment	-10.9435
▁marino	-10.9435
▁pony	-10.9435
▁juri	-10.9435
▁unstable	-10.9435
▁kitty	-10.9436
▁sympathy	-10.9436
▁farrat	-10.9436
▁worn	-10.9436
▁nickname	-10.9436
▁howard	-10.9436
▁unfair	-10.9436
▁leon	-10.9436
▁chaos	-10.9436
▁aspirin	-10.9436
▁knight	-10.9436
▁iv	-10.9436
▁lime	-10.9436
▁resistance	-10.9436
▁chica	-10.9436
▁necessarily	-10.9436
▁xforce	-10.9436
▁aboard	-10.9436
▁psychologist	-10.9436
▁delete	-10.9436
▁howre	-10.9437
▁assignment	-10.9437
▁firearm	-10.9437
▁paperwork	-10.9437
▁stitches	-10.9437
▁distraction	-10.9437
▁attractive	-10.9437
▁bold	-10.9437
▁slate	-10.9437
▁xman	-10.9437
▁wig	-10.9437
▁engagement	-10.9437
▁isabelle	-10.9438
▁precisely	-10.9438
▁peaches	-10.9438
ncent	-10.9438
▁wheez	-10.9438
▁percentage	-10.9438
▁diane	-10.9438
▁nineball	-10.9438
▁marina	-10.9438
▁abortion	-10.9438
▁turay	-10.9439
▁survival	-10.9439
▁guardian	-10.9439
▁mentor	-10.9439
▁foolish	-10.9439
▁identified	-10.9439
▁concert	-10.9439
▁dishes	-10.9439
▁flake	-10.944
▁slippery	-10.944
▁shinin	-10.944
▁solo	-10.944
▁robbing	-10.944
▁dickhead	-10.944
▁penis	-10.9441
▁justify	-10.9441
▁hallway	-10.9442
▁thirsty	-10.9442
▁religion	-10.9442
▁philosophy	-10.9442
▁asian	-10.9442
▁certifi	-10.9442
▁temper	-10.9442
▁betting	-10.9443
▁cameron	-10.9444
▁cellul	-10.9444
▁gaby	-10.9444
▁ronnie	-10.9445
▁defendant	-10.9445
▁tore	-10.9445
▁alf	-10.9446
▁skies	-10.9446
▁frey	-10.9446
▁pow	-10.9447
▁narcotics	-10.9447
▁flies	-10.9448
ace	-10.9448
▁clattering	-10.9448
▁greedy	-10.9448
▁sore	-10.9448
▁mg	-10.9449
▁humanity	-10.945
▁endure	-10.945
▁coal	-10.945
▁diggy	-10.945
▁corporat	-10.9451
▁bullion	-10.9451
▁stained	-10.9454
▁graduated	-10.9455
▁speedo	-10.9458
▁rental	-10.9458
▁renton	-10.9461
▁angela	-10.9461
▁matches	-10.9462
▁setup	-10.9462
▁dive	-10.9462
▁ability	-10.9463
▁sealed	-10.9465
▁dresses	-10.9467
▁freeman	-10.9467
▁twisted	-10.9467
▁spilled	-10.9467
▁rage	-10.9468
▁passengers	-10.9469
▁wool	-10.9469
▁highway	-10.947
▁assist	-10.9471
▁testify	-10.9471
▁tossed	-10.9472
▁ink	-10.9475
▁hacked	-10.9475
▁required	-10.9477
▁palm	-10.9481
▁guaranteed	-10.9481
▁nest	-10.9484
▁gathered	-10.9485
▁mistaken	-10.9486
▁gasp	-10.9488
▁costa	-10.9489
▁healed	-10.9489
▁hass	-10.949
▁employees	-10.9491
▁withers	-10.9491
▁relations	-10.9491
▁wears	-10.9491
▁ying	-10.9493
▁dish	-10.9506
erie	-10.9509
▁scaring	-10.951
▁badass	-10.9511
▁photographer	-10.9511
atlantic	-10.9515
eyed	-10.952
▁webb	-10.9522
▁wired	-10.9525
▁mining	-10.953
▁wishes	-10.9531
made	-10.9532
ew	-10.9532
▁gardener	-10.9533
▁crashed	-10.9533
▁costumes	-10.9536
▁sniffs	-10.9536
▁fuckhead	-10.9543
color	-10.9548
▁il	-10.9561
▁pits	-10.9562
▁lifted	-10.9564
▁deer	-10.9567
▁asks	-10.9578
▁tease	-10.9579
▁loans	-10.9581
▁burgers	-10.9581
▁sorts	-10.9582
▁stoned	-10.9582
old	-10.9583
▁cooked	-10.9586
▁processing	-10.9588
▁thuds	-10.9602
ery	-10.9602
▁parker	-10.9602
▁quarters	-10.9603
▁ay	-10.9611
▁warner	-10.9612
ological	-10.9612
▁helpful	-10.9626
▁survivors	-10.9626
inned	-10.9637
▁digg	-10.9639
▁footballer	-10.9642
▁sucking	-10.9644
▁nuns	-10.9649
▁handled	-10.9649
ows	-10.966
▁visited	-10.9662
▁ju	-10.9662
▁fleas	-10.9671
▁arrives	-10.9671
▁sim	-10.9673
▁ye	-10.969
▁exception	-10.9693
▁engineer	-10.9696
▁inmates	-10.9716
▁arabs	-10.9727
▁sur	-10.9728
▁crow	-10.9735
▁just	-10.9736
reason	-10.9737
udding	-10.9745
▁brun	-10.9746
▁recorded	-10.9755
▁by	-10.976
tte	-10.9762
▁friggin	-10.9766
rumme	-10.9768
▁fooling	-10.9773
bb	-10.978
▁elliotts	-10.9785
▁cows	-10.9787
▁bump	-10.9811
▁uniforms	-10.983
▁boots	-10.9831
▁stare	-10.9837
▁ropes	-10.9853
▁workers	-10.9855
▁learning	-10.9858
apping	-10.9866
ddle	-10.987
▁kar	-10.9871
▁singles	-10.9874
▁est	-10.9874
▁anyways	-10.988
▁rep	-10.9892
gen	-10.9904
▁odds	-10.9922
▁mirrors	-10.9922
iff	-10.9939
▁intens	-10.9943
▁smelled	-10.996
▁sins	-10.9962
ments	-10.9972
▁we	-10.9974
▁exists	-10.9992
▁bands	-11.0001
▁articles	-11.0014
hill	-11.0023
▁sides	-11.0041
card	-11.0045
ite	-11.005
▁ze	-11.0052
▁dealers	-11.0058
decker	-11.0071
▁hike	-11.0075
qui	-11.0077
▁las	-11.0078
▁understanding	-11.0079
▁bottoms	-11.0084
▁hen	-11.0099
▁acts	-11.0115
▁mortal	-11.0119
▁der	-11.012
▁fr	-11.0133
▁magazines	-11.0153
▁tan	-11.0182
▁roberts	-11.0188
pay	-11.02
▁sticks	-11.0201
ium	-11.0221
▁horns	-11.0224
▁minds	-11.0227
▁lad	-11.0244
table	-11.0251
room	-11.0271
▁lords	-11.0285
▁whol	-11.0288
▁cod	-11.0289
nish	-11.0299
fle	-11.0317
▁couples	-11.0331
▁cri	-11.0333
▁vol	-11.0342
▁ja	-11.0342
bit	-11.0361
lay	-11.0432
▁whores	-11.0434
▁costs	-11.0437
▁oi	-11.0438
▁environmental	-11.0442
▁and	-11.045
▁monkeys	-11.0458
ust	-11.0481
▁beers	-11.0497
cal	-11.0527
▁tube	-11.053
ola	-11.0531
▁soc	-11.0549
▁groups	-11.0553
▁ghosts	-11.0553
▁pac	-11.0558
▁bou	-11.0567
▁blues	-11.0574
▁handed	-11.0577
izing	-11.0611
vie	-11.0644
▁gar	-11.0661
▁wars	-11.0663
▁spark	-11.0679
▁weaver	-11.0686
▁jean	-11.0688
▁scoop	-11.0688
▁informant	-11.0689
▁rattle	-11.0691
▁johns	-11.0695
▁fag	-11.0697
▁burger	-11.0699
▁reeve	-11.07
▁relative	-11.0701
▁loan	-11.0703
▁troop	-11.0704
ition	-11.0705
▁cookie	-11.0708
▁jet	-11.072
▁surprises	-11.0722
▁you	-11.0723
▁johnnys	-11.0725
▁that	-11.0727
met	-11.0729
▁flower	-11.0736
▁davids	-11.0744
▁for	-11.0755
▁launch	-11.0767
▁ther	-11.0778
ata	-11.0778
ure	-11.078
▁publish	-11.0784
▁embarrass	-11.0792
load	-11.0795
looking	-11.0798
▁buzz	-11.0811
nk	-11.0813
▁expand	-11.0818
▁mourn	-11.082
vel	-11.082
▁boil	-11.0822
style	-11.0823
▁possess	-11.0823
▁draft	-11.0826
▁screen	-11.0831
▁spank	-11.0832
ward	-11.0834
point	-11.0834
onic	-11.0834
▁severe	-11.0835
piece	-11.084
▁disguise	-11.0842
▁struggle	-11.0842
two	-11.0843
▁register	-11.0844
hour	-11.0846
▁supp	-11.0846
▁greed	-11.0847
▁slash	-11.0848
▁flam	-11.085
▁incredibl	-11.0852
▁ronni	-11.0852
▁terribl	-11.0853
▁protest	-11.0853
▁vincen	-11.0854
▁august	-11.0854
▁rum	-11.0855
▁australia	-11.0856
▁tradition	-11.0857
▁plum	-11.0858
▁potato	-11.0858
ock	-11.0858
▁abort	-11.0858
▁recent	-11.0859
ifies	-11.0859
▁hustle	-11.086
▁racin	-11.0861
▁urge	-11.0862
▁opera	-11.0862
▁iris	-11.0862
▁excess	-11.0862
▁academy	-11.0863
▁acknowledge	-11.0863
▁anxious	-11.0863
▁appetite	-11.0863
▁argue	-11.0863
▁arriving	-11.0863
▁arrow	-11.0863
▁autopsy	-11.0863
▁behalf	-11.0863
▁behaviour	-11.0863
▁beneath	-11.0863
▁billionaire	-11.0863
▁blake	-11.0863
▁bologna	-11.0863
▁buddah	-11.0863
▁cadei	-11.0863
▁cassette	-11.0863
▁claiborne	-11.0863
▁communist	-11.0863
▁compartment	-11.0863
▁condolences	-11.0863
▁conference	-11.0863
▁creaking	-11.0863
▁curtain	-11.0863
▁denise	-11.0863
▁dessert	-11.0863
▁diminish	-11.0863
▁disagree	-11.0863
▁duffel	-11.0863
▁edinburgh	-11.0863
▁elephant	-11.0863
▁exhibit	-11.0863
▁external	-11.0863
▁exwife	-11.0863
▁fergus	-11.0863
▁fifteen	-11.0863
▁fingernails	-11.0863
▁fracture	-11.0863
▁gbaby	-11.0863
▁giddy	-11.0863
▁giggling	-11.0863
▁gloria	-11.0863
▁happier	-11.0863
▁harbor	-11.0863
▁harvest	-11.0863
▁ignorant	-11.0863
▁infinite	-11.0863
▁infiniti	-11.0863
▁inhuman	-11.0863
▁intellect	-11.0863
▁intimate	-11.0863
▁intoxicat	-11.0863
▁janiro	-11.0863
▁jarius	-11.0863
▁katrina	-11.0863
▁kaysen	-11.0863
▁konrad	-11.0863
▁kruger	-11.0863
▁leviticus	-11.0863
▁lmelda	-11.0863
▁massacre	-11.0863
▁merchandise	-11.0863
▁mexico	-11.0863
▁milich	-11.0863
▁moselle	-11.0863
▁narrow	-11.0863
▁october	-11.0863
▁offensive	-11.0863
▁parsons	-11.0863
▁peyton	-11.0863
▁pitiful	-11.0863
▁pleasant	-11.0863
▁portnoy	-11.0863
▁practicing	-11.0863
▁preserve	-11.0863
▁resolve	-11.0863
▁salvy	-11.0863
▁scotland	-11.0863
▁shampoo	-11.0863
▁sniper	-11.0863
▁snoring	-11.0863
▁stammering	-11.0863
▁stammers	-11.0863
▁subpoena	-11.0863
▁substance	-11.0863
▁swedish	-11.0863
▁temptation	-11.0863
▁tournament	-11.0863
▁unexpected	-11.0863
▁verdict	-11.0863
▁vomit	-11.0863
▁withdraw	-11.0863
▁yield	-11.0863
▁zwaiter	-11.0863
▁colony	-11.0863
▁cramp	-11.0863
▁dubstep	-11.0863
▁lexus	-11.0863
▁resort	-11.0863
▁sherman	-11.0863
▁shield	-11.0863
▁theft	-11.0863
▁wilderness	-11.0863
▁entity	-11.0863
▁hesitate	-11.0863
▁radar	-11.0863
▁solitary	-11.0863
▁stomp	-11.0863
▁thisll	-11.0863
▁wesley	-11.0863
▁amuse	-11.0863
▁emerson	-11.0863
▁hollow	-11.0863
▁semester	-11.0863
▁sketch	-11.0863
▁berman	-11.0863
▁eighteen	-11.0863
▁mandarin	-11.0863
▁sinners	-11.0863
▁hysterical	-11.0863
▁volanges	-11.0863
▁analysis	-11.0863
▁atheist	-11.0863
▁crystal	-11.0863
▁spectacular	-11.0863
▁bitten	-11.0863
▁burden	-11.0863
▁fascinating	-11.0863
▁anyhow	-11.0863
▁berger	-11.0863
▁duncan	-11.0863
▁reaiiy	-11.0863
▁prettie	-11.0863
▁camino	-11.0863
▁stevie	-11.0863
▁fireworks	-11.0863
▁generator	-11.0863
▁hawkins	-11.0863
▁brew	-11.0863
▁housing	-11.0863
▁jeannine	-11.0863
▁confront	-11.0863
▁denmark	-11.0863
▁felson	-11.0863
▁contrary	-11.0863
▁motherfuckin	-11.0863
▁babysitter	-11.0863
▁faint	-11.0863
▁irma	-11.0863
▁humble	-11.0863
▁domestic	-11.0863
▁middleweight	-11.0863
▁porch	-11.0863
▁carpet	-11.0863
▁waltz	-11.0863
▁sniffling	-11.0863
▁micro	-11.0863
▁operating	-11.0863
▁andand	-11.0863
▁sweden	-11.0863
▁behold	-11.0863
▁mutters	-11.0863
▁institution	-11.0863
▁reflex	-11.0863
▁mickah	-11.0864
▁yummy	-11.0864
▁northeast	-11.0864
uit	-11.0864
▁bunny	-11.0864
▁executive	-11.0864
▁kaap	-11.0864
▁sole	-11.0864
▁leonard	-11.0864
▁cobb	-11.0864
▁classified	-11.0864
▁assign	-11.0864
▁evac	-11.0864
▁syrup	-11.0864
▁oven	-11.0864
▁petty	-11.0864
▁embrace	-11.0864
▁ladonna	-11.0864
▁thinner	-11.0864
▁antique	-11.0864
▁grub	-11.0864
▁gaze	-11.0864
▁cabinet	-11.0864
▁panties	-11.0864
▁relate	-11.0864
▁vase	-11.0864
▁flock	-11.0864
▁adjust	-11.0864
▁intel	-11.0864
▁humor	-11.0864
▁psychotic	-11.0865
▁blackpool	-11.0865
▁alvin	-11.0865
▁jules	-11.0865
▁socialism	-11.0865
▁popper	-11.0865
▁keen	-11.0865
▁panda	-11.0865
▁wallace	-11.0865
▁viva	-11.0865
▁chinatown	-11.0865
▁gulf	-11.0865
▁moose	-11.0865
▁seventeen	-11.0865
▁vulnerable	-11.0865
▁ladislav	-11.0865
▁font	-11.0865
▁torment	-11.0865
▁obedient	-11.0865
▁counselor	-11.0865
▁classroom	-11.0865
▁sober	-11.0865
▁racing	-11.0865
▁hector	-11.0865
▁mmmmmm	-11.0865
▁sentimental	-11.0865
▁distorted	-11.0866
▁epic	-11.0866
▁irish	-11.0866
▁empire	-11.0866
▁fame	-11.0866
▁nero	-11.0866
▁lockdown	-11.0866
▁coup	-11.0866
▁shade	-11.0866
▁teasing	-11.0866
▁beam	-11.0867
▁sunny	-11.0867
▁alike	-11.0867
▁raw	-11.0867
▁satisfied	-11.0867
▁conviction	-11.0867
▁pouncer	-11.0867
▁fitting	-11.0867
▁aj	-11.0867
▁static	-11.0867
▁restroom	-11.0867
▁invention	-11.0868
raising	-11.0868
▁vandy	-11.0868
▁crude	-11.0868
▁fuel	-11.0869
▁gazza	-11.0869
▁flavor	-11.0869
▁struck	-11.0869
▁craft	-11.0869
▁steady	-11.0869
▁becky	-11.0869
▁download	-11.0869
▁stroll	-11.0869
▁flush	-11.087
▁anus	-11.087
ora	-11.087
▁judy	-11.087
▁inclined	-11.0871
▁dun	-11.0871
▁applied	-11.0871
▁tonic	-11.0871
▁worm	-11.0871
▁stamp	-11.0871
▁stall	-11.0872
▁comic	-11.0872
▁script	-11.0873
▁cafe	-11.0873
▁lila	-11.0873
▁puff	-11.0873
▁ridge	-11.0874
▁tim	-11.0874
▁conquer	-11.0874
▁leo	-11.0875
▁condemned	-11.0876
▁hush	-11.0876
▁fuckface	-11.0877
▁tb	-11.0877
▁authorized	-11.0878
▁shore	-11.0878
▁erase	-11.0879
▁stunt	-11.088
▁tech	-11.088
▁loop	-11.0881
▁sacred	-11.0881
▁destined	-11.0881
▁assuming	-11.0881
▁grid	-11.0881
▁jared	-11.0881
▁johnno	-11.0881
▁smashed	-11.0882
▁punches	-11.0882
▁haul	-11.0883
ki	-11.0884
▁facing	-11.0884
▁reina	-11.0885
▁shattered	-11.0886
▁virtue	-11.0887
▁chased	-11.0887
▁bitter	-11.0889
▁coin	-11.089
▁recovered	-11.0891
▁developed	-11.0891
▁sniffing	-11.0891
quin	-11.0892
▁att	-11.0892
▁compared	-11.0892
▁drunken	-11.0892
▁pint	-11.0892
▁divorced	-11.0892
▁punished	-11.0893
▁of	-11.0893
▁sang	-11.0893
▁achieved	-11.0894
▁heir	-11.0895
▁mankind	-11.0895
▁wrestler	-11.0895
▁bind	-11.0896
▁wills	-11.0897
▁splashing	-11.0897
▁butter	-11.0898
▁beaten	-11.0898
▁hobie	-11.0899
▁iive	-11.0901
▁confessed	-11.0901
▁drawn	-11.0902
▁lapd	-11.0902
▁directly	-11.0902
▁shanks	-11.0903
▁musician	-11.0903
▁unable	-11.0905
rawn	-11.0906
▁swa	-11.0908
▁toll	-11.0908
▁boomer	-11.0909
▁echoing	-11.091
was	-11.0911
▁scheduled	-11.0911
▁exclaiming	-11.0916
▁separated	-11.0918
▁frau	-11.0918
▁boxes	-11.0921
▁stressed	-11.0922
five	-11.0922
▁kindness	-11.0927
▁bitcoins	-11.0929
▁handful	-11.093
▁rustl	-11.0931
▁leaked	-11.0932
▁mach	-11.0934
▁applauding	-11.0935
▁mos	-11.0939
▁businessman	-11.0939
▁barn	-11.094
▁cloth	-11.094
ill	-11.0942
oir	-11.0944
fi	-11.095
▁earrings	-11.0955
▁cents	-11.0955
▁lifetime	-11.0957
position	-11.0961
▁remaining	-11.0961
▁pond	-11.0961
▁blamed	-11.0963
▁oid	-11.0963
▁cheated	-11.0963
▁skiing	-11.0967
fill	-11.0969
▁drums	-11.0975
spy	-11.0977
▁ankles	-11.0981
▁ribs	-11.0981
▁psychiatri	-11.0985
▁continued	-11.0986
▁existed	-11.0989
▁pacific	-11.099
▁io	-11.0992
▁tate	-11.0995
▁liberia	-11.1003
▁gagg	-11.101
▁washing	-11.101
▁clips	-11.1011
▁blessing	-11.1011
ged	-11.1024
▁weary	-11.1026
▁charged	-11.1029
yard	-11.1033
▁jets	-11.1034
▁duck	-11.1037
▁pel	-11.1046
▁oldest	-11.1051
▁flatter	-11.1058
▁explosives	-11.106
▁towers	-11.106
▁hast	-11.1062
▁drinkin	-11.1065
▁suspected	-11.1065
▁hoo	-11.1067
her	-11.1075
▁whim	-11.1075
▁cracked	-11.1076
▁weirdo	-11.1078
▁blocked	-11.1083
▁snaps	-11.1085
▁intentions	-11.1086
mont	-11.1093
▁importantly	-11.1096
▁safely	-11.1096
▁attendan	-11.11
zy	-11.1103
▁beans	-11.1109
▁benefits	-11.1112
▁spiders	-11.1112
▁demands	-11.1113
▁israelis	-11.1114
▁smoked	-11.1117
▁goose	-11.1123
▁parked	-11.1124
▁cracking	-11.1125
▁helpless	-11.114
ino	-11.1144
etes	-11.1145
▁yay	-11.115
▁tests	-11.1154
tz	-11.1158
▁grandmothers	-11.1165
▁vampires	-11.1166
mir	-11.1166
▁grenades	-11.1166
▁buttons	-11.1167
▁pipes	-11.1167
▁pushed	-11.117
ais	-11.117
nut	-11.1172
▁colt	-11.1175
▁causes	-11.1184
▁rolls	-11.1185
▁ke	-11.1191
▁quot	-11.1196
▁raining	-11.1201
▁closely	-11.1209
▁bunkers	-11.1218
▁marita	-11.1219
ways	-11.1222
lan	-11.1222
▁syria	-11.1223
▁cam	-11.1229
▁queens	-11.1245
▁anal	-11.125
▁sells	-11.1252
▁reporting	-11.1253
cold	-11.1263
▁spits	-11.1268
nner	-11.1285
▁waves	-11.1298
▁affairs	-11.1298
▁returning	-11.1298
tors	-11.1303
▁respected	-11.1313
▁wad	-11.1324
▁coma	-11.1327
▁trib	-11.1339
▁experts	-11.1352
mic	-11.1373
▁pigs	-11.1387
▁reed	-11.1399
▁mars	-11.1405
▁dozens	-11.1405
▁connors	-11.1405
rb	-11.1415
▁len	-11.1417
▁je	-11.1421
▁monsters	-11.1432
get	-11.1451
▁ci	-11.1457
▁bam	-11.1458
▁humans	-11.1462
▁pun	-11.1478
▁tricks	-11.1484
oid	-11.1485
▁scores	-11.1486
▁suggests	-11.149
▁films	-11.1513
▁characters	-11.1515
▁clip	-11.1522
▁shellie	-11.1522
ull	-11.1529
▁hopeless	-11.1531
▁bounce	-11.154
▁sources	-11.154
▁bulls	-11.154
▁callin	-11.1544
▁cleared	-11.1583
▁clan	-11.159
▁flu	-11.1592
▁arch	-11.1594
▁areas	-11.1594
▁diamonds	-11.1594
kin	-11.1595
▁distan	-11.1596
nia	-11.1602
▁mor	-11.1606
▁conditions	-11.1624
▁shells	-11.1625
▁coping	-11.1631
of	-11.1633
▁das	-11.1645
ark	-11.1645
▁trains	-11.1646
▁patt	-11.1674
ran	-11.1675
ito	-11.1677
▁hanged	-11.1678
▁unf	-11.1683
▁ph	-11.1689
▁dye	-11.1712
▁reg	-11.1712
stro	-11.1726
▁levels	-11.173
▁shirts	-11.173
hu	-11.1733
ouse	-11.1755
dian	-11.1779
▁prop	-11.1784
▁har	-11.1796
leton	-11.1801
bert	-11.1812
▁chok	-11.1817
▁swap	-11.1829
▁loo	-11.1846
▁covers	-11.1856
▁liver	-11.1857
▁mikes	-11.1875
▁she	-11.1889
▁ships	-11.1894
▁cakes	-11.1895
eight	-11.1918
hole	-11.1918
gina	-11.1924
rum	-11.1929
qu	-11.193
oster	-11.1941
▁chickens	-11.1944
▁rooms	-11.1947
▁mouths	-11.1948
▁poll	-11.1963
cular	-11.1967
▁mates	-11.1977
▁mace	-11.198
arian	-11.1986
▁suns	-11.1997
ris	-11.1997
▁cats	-11.2018
▁authentic	-11.2019
▁investigate	-11.2043
blo	-11.205
▁decisions	-11.2062
▁chairs	-11.2062
▁shoots	-11.2065
▁mug	-11.2073
▁believes	-11.209
ston	-11.2096
▁waters	-11.2096
▁faci	-11.2101
▁bears	-11.2107
wing	-11.2121
▁prior	-11.213
ack	-11.2132
▁revolution	-11.2137
▁cooler	-11.214
▁crimes	-11.2144
▁loses	-11.2153
ugger	-11.2156
lier	-11.2161
▁operations	-11.2201
tto	-11.2206
liance	-11.2239
ture	-11.2258
▁dea	-11.2261
rick	-11.2269
▁lei	-11.2275
list	-11.228
▁liber	-11.2281
▁bore	-11.2282
▁heavens	-11.2285
headed	-11.2287
▁tor	-11.2288
▁summon	-11.2299
▁pit	-11.2301
cap	-11.2307
▁rag	-11.2309
▁sigh	-11.2322
▁height	-11.233
▁whisper	-11.2331
▁length	-11.2344
▁coroner	-11.2344
▁tshirt	-11.2344
▁expense	-11.2352
▁critic	-11.2353
stone	-11.2356
▁pirate	-11.2358
▁exam	-11.2359
▁soda	-11.2361
▁sheet	-11.2361
▁token	-11.2362
nne	-11.2364
▁organ	-11.2365
▁muscle	-11.2366
▁consequence	-11.2366
▁breast	-11.2366
▁wh	-11.2366
▁commitment	-11.2368
▁clo	-11.2371
▁bon	-11.2372
▁cu	-11.2385
dog	-11.2388
▁melt	-11.2392
▁lung	-11.24
▁here	-11.2401
▁asset	-11.2402
▁region	-11.2403
fit	-11.241
▁stir	-11.2413
ista	-11.2414
key	-11.2424
▁connect	-11.2451
▁develop	-11.2454
▁threaten	-11.2463
▁rug	-11.2466
ural	-11.2474
▁drift	-11.2476
▁whistl	-11.2478
▁recover	-11.2483
▁mount	-11.2485
▁splash	-11.2489
▁caus	-11.249
▁impress	-11.2491
▁wrestle	-11.2492
▁attract	-11.2493
▁snitch	-11.2493
▁transform	-11.2493
▁ge	-11.2494
▁punish	-11.2495
▁retard	-11.2498
mighty	-11.2504
▁gee	-11.2505
girl	-11.2506
track	-11.2507
▁shack	-11.2507
▁hy	-11.2507
▁electrocute	-11.2507
coat	-11.2508
fall	-11.251
▁grin	-11.251
▁confuse	-11.2511
▁sakes	-11.2512
▁brutal	-11.2514
mark	-11.2515
▁rox	-11.2519
▁technical	-11.2519
store	-11.2521
▁rapid	-11.2521
▁smuggle	-11.2523
▁korea	-11.2524
▁whi	-11.2525
▁maze	-11.2525
▁bonus	-11.2525
▁caf	-11.2525
▁oni	-11.2526
▁resent	-11.2526
▁examine	-11.2526
▁addition	-11.2526
▁reflect	-11.2526
▁distribut	-11.2526
▁peach	-11.2526
▁radi	-11.2527
▁michel	-11.2527
▁chalk	-11.2527
▁salt	-11.2527
udge	-11.2528
▁terror	-11.2528
▁solve	-11.2529
▁douche	-11.2529
▁competitive	-11.253
▁airborne	-11.253
▁alchir	-11.253
▁ammo	-11.253
▁ammunition	-11.253
▁anmei	-11.253
▁apologies	-11.253
▁approval	-11.253
▁arizona	-11.253
▁arrival	-11.253
▁atmosphere	-11.253
▁auction	-11.253
▁azuka	-11.253
▁baloney	-11.253
▁bloke	-11.253
▁bulwark	-11.253
▁caesar	-11.253
▁cherokee	-11.253
▁chrissake	-11.253
▁colonies	-11.253
▁confusing	-11.253
▁conscience	-11.253
▁convincing	-11.253
▁corporal	-11.253
▁cotton	-11.253
▁coxman	-11.253
▁currency	-11.253
▁czechoslovakia	-11.253
▁darryl	-11.253
▁december	-11.253
▁defensive	-11.253
▁devoted	-11.253
▁disconnected	-11.253
▁divine	-11.253
▁dunnybum	-11.253
▁dwight	-11.253
▁economy	-11.253
▁elsbeth	-11.253
▁encourage	-11.253
▁enterprise	-11.253
▁equation	-11.253
▁equipped	-11.253
▁eugene	-11.253
▁exhusband	-11.253
▁fabric	-11.253
▁gambling	-11.253
▁grease	-11.253
▁grocery	-11.253
▁hebrew	-11.253
▁hedestad	-11.253
▁helmet	-11.253
▁hempf	-11.253
▁henderson	-11.253
▁hodgson	-11.253
▁homosexual	-11.253
▁horizon	-11.253
▁hussein	-11.253
▁ignorance	-11.253
▁indulge	-11.253
▁instagram	-11.253
▁intercourse	-11.253
▁intimacy	-11.253
▁invincible	-11.253
▁ireland	-11.253
▁jellybeans	-11.253
▁jewelry	-11.253
▁knockemstiff	-11.253
▁lazarus	-11.253
▁litalia	-11.253
▁lycans	-11.253
▁maximum	-11.253
▁microphone	-11.253
▁mwow	-11.253
▁necklace	-11.253
▁ordinary	-11.253
▁oregon	-11.253
▁outspan	-11.253
▁perfume	-11.253
▁phoenix	-11.253
▁physics	-11.253
▁potential	-11.253
▁purchase	-11.253
▁quarrel	-11.253
▁raisins	-11.253
▁resolution	-11.253
▁rethink	-11.253
▁revolver	-11.253
▁rewrite	-11.253
▁ribbon	-11.253
▁rubbish	-11.253
▁salander	-11.253
▁satisfaction	-11.253
▁scientific	-11.253
▁shokopiwah	-11.253
▁sierra	-11.253
▁snort	-11.253
▁snuff	-11.253
▁squawking	-11.253
▁squirt	-11.253
▁strawberr	-11.253
▁substitute	-11.253
▁superhero	-11.253
▁swollen	-11.253
▁tavington	-11.253
▁thieves	-11.253
▁tranquilizer	-11.253
▁triumph	-11.253
▁unknown	-11.253
▁unpredictable	-11.253
▁vaseliev	-11.253
▁vienna	-11.253
▁vilena	-11.253
▁vocabulary	-11.253
▁zeppelin	-11.253
▁asshoie	-11.253
▁berlin	-11.253
▁casino	-11.253
▁categor	-11.253
▁downsizing	-11.253
▁eager	-11.253
▁elroy	-11.253
▁errand	-11.253
▁fourteen	-11.253
▁phrase	-11.253
▁plead	-11.253
▁radlo	-11.253
▁reich	-11.253
▁squid	-11.253
▁violate	-11.253
▁visual	-11.253
▁voil	-11.253
▁celine	-11.253
▁francesco	-11.253
▁items	-11.253
▁oui	-11.253
▁phase	-11.253
▁resign	-11.253
▁werewolves	-11.253
▁gomez	-11.253
▁butterflies	-11.253
▁jelly	-11.253
▁lennon	-11.253
▁doyle	-11.253
▁gossip	-11.253
▁mendoza	-11.253
▁murray	-11.253
▁wretch	-11.253
▁limitations	-11.253
▁shalt	-11.253
▁antonio	-11.253
▁fond	-11.253
▁oxford	-11.253
▁redcoats	-11.253
▁nelly	-11.253
▁autograph	-11.253
▁surveillance	-11.253
▁issy	-11.253
▁trudy	-11.253
▁flank	-11.253
▁theme	-11.253
▁imagination	-11.253
▁opponent	-11.253
▁bonfire	-11.253
▁solution	-11.253
▁cinderella	-11.253
▁laboratory	-11.253
▁pepper	-11.253
▁mobray	-11.253
▁blush	-11.253
▁harold	-11.253
▁tvirus	-11.253
▁sloppy	-11.253
▁tutor	-11.253
▁upfront	-11.253
▁grubitz	-11.253
▁rookie	-11.253
▁alderman	-11.253
▁revving	-11.253
▁rigged	-11.253
▁academic	-11.253
▁camilla	-11.253
▁lethal	-11.253
▁bronson	-11.253
▁mercenaries	-11.253
▁moans	-11.253
▁confidential	-11.253
▁yodel	-11.253
▁mechanic	-11.253
▁parrot	-11.253
▁shush	-11.253
▁arnold	-11.253
▁dizzy	-11.253
▁tyler	-11.253
▁battery	-11.253
▁connover	-11.253
▁illusion	-11.253
▁vagina	-11.253
▁grouch	-11.253
▁bogey	-11.253
▁beeze	-11.253
▁occur	-11.253
▁snapped	-11.253
▁jenna	-11.253
▁ethan	-11.253
▁elegant	-11.253
▁depth	-11.253
▁sunrise	-11.253
▁gracious	-11.253
▁lightning	-11.253
▁injuries	-11.253
▁nolan	-11.253
▁riot	-11.253
▁meade	-11.253
▁receptionist	-11.253
▁spook	-11.2531
▁kingdom	-11.2531
▁curb	-11.2531
▁druggie	-11.2531
▁immortal	-11.2531
▁heap	-11.2531
▁serb	-11.2531
▁sidewalk	-11.2531
▁dalc	-11.2531
▁barlow	-11.2531
▁arson	-11.2531
▁laura	-11.2531
▁excellence	-11.2531
▁inevitable	-11.2531
▁tipped	-11.2531
▁supreme	-11.2531
▁assistance	-11.2531
▁whack	-11.2531
▁bugged	-11.2531
▁trop	-11.2531
▁toby	-11.2531
▁dripping	-11.2531
▁branches	-11.2531
▁walleye	-11.2531
▁pillow	-11.2531
▁faculty	-11.2531
▁possibility	-11.2531
▁strategy	-11.2531
▁consultation	-11.2531
▁depression	-11.2531
▁livin	-11.2531
▁observation	-11.2531
▁leadership	-11.2531
▁faxx	-11.2531
▁studies	-11.2532
▁evie	-11.2532
▁massive	-11.2532
▁tilden	-11.2532
▁swag	-11.2532
▁appearance	-11.2532
▁rash	-11.2532
▁popping	-11.2532
▁childhood	-11.2532
▁amy	-11.2532
▁brotherinlaw	-11.2532
▁seattle	-11.2532
▁drummer	-11.2532
▁popped	-11.2532
▁fascist	-11.2532
▁promoted	-11.2532
▁viral	-11.2532
▁assessment	-11.2532
▁stakeout	-11.2532
▁creation	-11.2532
▁faking	-11.2532
▁partnership	-11.2532
▁cement	-11.2532
▁rolex	-11.2532
▁soil	-11.2532
▁undone	-11.2532
▁servant	-11.2532
▁jill	-11.2533
▁meanwhile	-11.2533
▁beef	-11.2533
▁automatic	-11.2533
▁colour	-11.2533
▁silo	-11.2533
▁sieg	-11.2533
▁drugged	-11.2533
▁spaceship	-11.2533
▁stove	-11.2533
▁diab	-11.2533
▁curve	-11.2534
▁highlander	-11.2534
▁virginity	-11.2534
▁curl	-11.2534
▁porno	-11.2534
▁rusty	-11.2534
▁jingle	-11.2534
▁countdown	-11.2534
▁detector	-11.2534
▁raid	-11.2535
▁brent	-11.2535
▁bowers	-11.2535
▁lyin	-11.2535
▁mice	-11.2535
▁korean	-11.2536
▁heartbeat	-11.2536
▁potatoes	-11.2536
▁bucket	-11.2536
▁gunfire	-11.2536
▁update	-11.2536
▁bruno	-11.2536
▁mistress	-11.2537
▁peep	-11.2537
▁dropping	-11.2537
▁malay	-11.2537
▁rational	-11.2537
▁debo	-11.2538
▁sittin	-11.2538
▁canal	-11.2538
▁thai	-11.2538
▁funds	-11.2538
▁trainee	-11.2538
▁gaines	-11.2539
▁frightened	-11.2539
▁sector	-11.2539
▁organic	-11.2539
▁daily	-11.2539
▁knocklng	-11.2539
▁production	-11.2539
▁core	-11.254
hearted	-11.254
▁iot	-11.254
▁muchassi	-11.254
▁upper	-11.254
most	-11.254
duct	-11.254
▁freeway	-11.254
▁forgiveness	-11.2541
▁chime	-11.2541
▁haley	-11.2542
▁indicated	-11.2543
▁severely	-11.2543
▁selected	-11.2544
▁immigration	-11.2545
▁shovel	-11.2545
▁brat	-11.2545
▁comply	-11.2545
▁divided	-11.2546
▁inner	-11.2546
▁instantly	-11.2547
▁wanker	-11.2547
▁runner	-11.2547
▁marshmallows	-11.2547
▁fleet	-11.2547
▁salty	-11.2548
▁macey	-11.2548
▁stirring	-11.2548
▁hotter	-11.2549
▁agony	-11.2549
▁smartass	-11.255
▁perp	-11.2551
▁apprehended	-11.2551
▁volunteered	-11.2551
▁preach	-11.2552
▁diner	-11.2553
▁inch	-11.2553
▁mild	-11.2553
▁organized	-11.2554
▁geezer	-11.2555
▁employer	-11.2555
▁tender	-11.2555
▁smashing	-11.2556
▁active	-11.2556
▁rode	-11.2556
▁fuckedup	-11.2556
▁bass	-11.2557
▁slaughtered	-11.2557
▁attached	-11.2557
▁kuwaiti	-11.2557
▁mentally	-11.2558
▁calculat	-11.2559
ana	-11.2559
▁collector	-11.256
▁stocker	-11.2562
▁parttime	-11.2563
▁pickup	-11.2564
▁your	-11.2564
▁sixth	-11.2564
▁tying	-11.2564
▁fury	-11.2564
▁uhoh	-11.2565
oma	-11.2566
▁flattered	-11.2568
▁mattie	-11.257
▁replaced	-11.2572
▁reasonable	-11.2572
▁advanced	-11.2572
▁gabe	-11.2573
▁polling	-11.2574
▁basis	-11.2575
▁hut	-11.2576
▁creepy	-11.2576
▁luna	-11.2576
▁sharply	-11.2577
stick	-11.2577
▁forensics	-11.2577
▁kilometers	-11.2577
▁yankees	-11.2577
▁worthless	-11.2578
▁chewie	-11.2578
▁screening	-11.2578
▁advised	-11.2579
▁stinky	-11.2582
etta	-11.2585
▁lust	-11.2586
▁mainly	-11.2587
▁thrilled	-11.2588
▁bid	-11.259
mate	-11.259
▁measured	-11.2591
▁strangest	-11.2592
▁singin	-11.2593
any	-11.2593
▁spraying	-11.2593
▁secured	-11.2595
▁fred	-11.2595
▁spic	-11.2596
▁reload	-11.2596
▁et	-11.2598
▁sod	-11.2599
▁nance	-11.2601
▁mae	-11.2601
▁impressed	-11.2601
▁cured	-11.2603
▁diagnos	-11.2603
▁mill	-11.2603
▁linked	-11.2606
▁simpler	-11.2607
▁appeared	-11.2607
▁breed	-11.2608
rap	-11.2608
▁resources	-11.2608
▁shillings	-11.2608
▁profits	-11.2608
▁fatal	-11.261
▁bree	-11.2612
▁detailed	-11.2613
py	-11.2617
▁tha	-11.2619
▁kil	-11.262
▁rollin	-11.262
▁helena	-11.262
▁complaining	-11.2623
▁dar	-11.2624
▁boobs	-11.2625
▁horny	-11.2634
▁benz	-11.2636
▁handcuffs	-11.2639
▁butchers	-11.2639
▁heels	-11.264
▁annis	-11.264
▁twins	-11.2641
amo	-11.2644
▁marvel	-11.2645
▁sor	-11.2647
▁talented	-11.2649
▁entered	-11.2649
▁workout	-11.2649
▁prey	-11.2651
▁voted	-11.2652
▁generally	-11.2657
ration	-11.2657
▁bent	-11.2658
▁regional	-11.266
iness	-11.2666
▁athletes	-11.2671
▁tourists	-11.2671
▁communications	-11.2671
▁shortly	-11.2673
▁washed	-11.2674
▁expir	-11.268
▁kis	-11.268
▁manny	-11.2683
▁tearing	-11.2689
▁tra	-11.2693
▁sheets	-11.2702
▁seal	-11.2706
▁sander	-11.2707
▁beard	-11.271
▁added	-11.271
▁pine	-11.2719
▁ness	-11.2721
▁clic	-11.2723
geon	-11.2724
ker	-11.2725
▁ash	-11.2726
▁ticking	-11.273
▁there	-11.2731
▁deadline	-11.274
ugh	-11.2747
▁rely	-11.2748
▁cookies	-11.2751
▁chatt	-11.2754
▁factor	-11.2761
▁ole	-11.2763
▁socks	-11.2765
▁hating	-11.2767
▁thor	-11.2773
▁don	-11.2779
▁mumbl	-11.2782
▁martini	-11.2783
▁welt	-11.2787
▁bons	-11.2795
▁morons	-11.2797
▁farmers	-11.2805
▁hunters	-11.2805
▁bats	-11.2812
plied	-11.2815
▁moneys	-11.2817
▁bothered	-11.2825
▁methods	-11.2827
▁cd	-11.2828
▁renting	-11.2828
▁nerves	-11.2828
▁deeds	-11.2829
ubl	-11.2831
▁pressed	-11.2835
▁nicked	-11.2838
▁thrills	-11.284
▁wing	-11.2847
aff	-11.2852
▁fightin	-11.2855
▁dancers	-11.2856
▁maniacs	-11.286
▁sunsets	-11.286
▁arrangements	-11.286
▁participate	-11.2861
▁manners	-11.2861
▁eater	-11.2863
▁fasten	-11.2871
▁congratulate	-11.2871
mat	-11.2874
▁caller	-11.2882
cover	-11.2888
▁layer	-11.2891
▁roots	-11.2892
▁vikings	-11.2892
▁adults	-11.2892
▁ramon	-11.2893
▁damages	-11.2893
▁packed	-11.2897
▁hairy	-11.2898
▁bark	-11.2914
▁axe	-11.2919
▁toys	-11.2923
▁wrists	-11.2924
▁labels	-11.2924
▁inn	-11.2928
▁pans	-11.2931
han	-11.2938
▁toi	-11.2943
▁americas	-11.2952
▁associates	-11.2955
▁medals	-11.2956
▁grandpas	-11.2956
▁photographs	-11.2958
▁hay	-11.2962
▁hive	-11.2963
▁interviewing	-11.2973
tty	-11.2981
▁steaks	-11.2988
cher	-11.299
▁che	-11.2996
lyn	-11.2998
har	-11.3
▁whil	-11.3004
ail	-11.3009
▁assistants	-11.302
▁classics	-11.302
ister	-11.3028
▁ku	-11.3037
eth	-11.305
▁elections	-11.3052
▁albums	-11.3052
▁wheels	-11.3058
hoo	-11.3061
▁gall	-11.3064
▁relaxed	-11.3064
▁naive	-11.3065
tec	-11.3074
▁tips	-11.3096
mine	-11.3105
▁seize	-11.3116
wa	-11.3119
▁abu	-11.313
▁qu	-11.3133
▁seated	-11.3133
▁cleaner	-11.3135
ox	-11.3137
▁lively	-11.3141
▁meals	-11.3148
esy	-11.3153
▁murderers	-11.3157
tom	-11.3164
shit	-11.3166
pin	-11.317
▁conn	-11.317
▁cowards	-11.3181
▁spitt	-11.3184
▁swearing	-11.3186
▁formal	-11.3207
▁helicopters	-11.3213
▁ann	-11.3217
▁baker	-11.3225
▁sup	-11.3244
▁sights	-11.3245
▁blades	-11.3246
▁respects	-11.3247
▁nob	-11.3259
nows	-11.3259
▁demonstrate	-11.3261
▁hospitals	-11.3268
▁deals	-11.3274
▁desires	-11.3276
▁wherea	-11.3289
▁meetings	-11.3303
chi	-11.3306
▁misunderstand	-11.3336
▁au	-11.3338
oly	-11.3339
▁mer	-11.3341
▁races	-11.3343
aster	-11.3349
▁stripp	-11.3353
▁bio	-11.3365
▁doe	-11.3367
fire	-11.3372
ology	-11.3384
▁gla	-11.3391
ement	-11.3404
▁dolls	-11.3408
▁cuba	-11.3432
▁cuff	-11.3434
▁texts	-11.3444
ome	-11.3449
▁pros	-11.3457
▁gri	-11.3464
▁observ	-11.3469
▁lovers	-11.347
▁tol	-11.3496
▁cho	-11.351
ob	-11.3544
▁deposit	-11.3545
▁suffocat	-11.3549
rez	-11.3552
sook	-11.3555
▁moll	-11.3557
don	-11.3565
cop	-11.3573
oons	-11.3581
ica	-11.3585
▁wo	-11.3604
▁mighty	-11.3612
▁questioned	-11.3627
▁compete	-11.3639
▁nicely	-11.3645
▁pose	-11.3674
▁screws	-11.368
▁ste	-11.3683
▁marked	-11.3687
▁blacks	-11.371
▁rev	-11.3722
▁bot	-11.3723
▁rides	-11.3731
▁vet	-11.3732
▁trippin	-11.3733
▁shops	-11.3739
▁bridges	-11.374
lessly	-11.3759
▁observe	-11.3759
▁programme	-11.3775
pire	-11.3787
▁ding	-11.3789
ung	-11.3793
shed	-11.3806
gie	-11.3818
sight	-11.3827
▁pricks	-11.384
▁experiences	-11.3843
how	-11.3845
▁mon	-11.3851
▁spots	-11.3858
▁any	-11.3876
▁stat	-11.3876
itt	-11.3882
▁depend	-11.3882
tive	-11.3891
▁fre	-11.3906
▁rogers	-11.3907
▁granddad	-11.3907
let	-11.3913
▁def	-11.3917
▁para	-11.3934
▁mattered	-11.3937
▁arti	-11.3948
ike	-11.3956
▁wakes	-11.3963
uff	-11.3965
▁hooks	-11.397
▁ly	-11.399
▁psych	-11.402
▁doubts	-11.4033
▁syr	-11.4055
ened	-11.4058
ule	-11.406
▁rays	-11.4064
▁stepp	-11.407
▁girlfriends	-11.4077
▁ax	-11.4086
cro	-11.4086
▁ham	-11.4093
ther	-11.4102
top	-11.4111
▁pai	-11.4131
shaw	-11.4136
ury	-11.4137
▁slug	-11.4149
▁maker	-11.4163
▁pol	-11.4171
kay	-11.4172
mal	-11.4179
▁stores	-11.418
▁zip	-11.4186
▁ign	-11.4203
▁dil	-11.4216
▁mag	-11.4229
▁camps	-11.4242
▁remark	-11.4243
▁feeds	-11.4247
▁sings	-11.4267
▁knocks	-11.4285
ecker	-11.429
▁ty	-11.4291
rome	-11.4294
▁breaths	-11.4302
▁transmit	-11.4302
etic	-11.4307
bble	-11.432
▁brag	-11.432
spect	-11.4321
▁sniff	-11.4321
▁shatter	-11.4336
hiba	-11.434
▁ahah	-11.4344
▁decade	-11.4344
▁privilege	-11.4344
▁imbecile	-11.4344
▁biscuit	-11.4344
▁granny	-11.4344
▁flaw	-11.4346
▁bruise	-11.4346
▁stoke	-11.4348
iction	-11.4349
▁diaper	-11.4355
▁sample	-11.4356
▁invitation	-11.4357
▁charade	-11.4357
▁dj	-11.4358
▁communication	-11.4361
▁ankle	-11.4362
▁emotion	-11.4363
▁athlete	-11.4363
▁palo	-11.4364
▁estimate	-11.4366
▁rib	-11.4366
▁costume	-11.4367
▁kilo	-11.4367
▁result	-11.4367
▁tourist	-11.4369
▁pelt	-11.4374
▁audi	-11.4375
▁designer	-11.4378
▁tuck	-11.438
pse	-11.4397
▁dent	-11.44
▁peg	-11.44
▁drum	-11.4402
▁founded	-11.4403
▁web	-11.4403
▁mau	-11.4405
▁pinky	-11.4408
▁yah	-11.4414
rell	-11.4418
egged	-11.4421
▁disco	-11.4423
▁interviews	-11.4429
▁metaphor	-11.4432
▁cruis	-11.4434
umbling	-11.444
▁ei	-11.4442
ifying	-11.4458
fuck	-11.4461
▁billion	-11.4461
▁dim	-11.4462
▁menac	-11.4464
bird	-11.4469
▁willi	-11.4473
▁arc	-11.4475
▁suite	-11.448
▁corners	-11.4484
▁hoot	-11.4486
▁introduc	-11.4487
▁sweep	-11.4488
▁chew	-11.4488
wood	-11.4489
▁dwell	-11.4491
person	-11.4493
▁reveal	-11.4493
▁ambush	-11.4495
▁vanish	-11.4495
▁lame	-11.4496
boat	-11.4496
burn	-11.4497
kind	-11.4497
▁attach	-11.4497
▁offend	-11.4498
▁slaughter	-11.4499
fight	-11.45
wise	-11.4505
sync	-11.4505
horse	-11.4506
storm	-11.4506
green	-11.4508
emma	-11.4508
▁intent	-11.4508
▁teenage	-11.451
▁organize	-11.451
foot	-11.451
▁exile	-11.451
take	-11.451
▁locate	-11.4511
▁chunk	-11.4512
▁coul	-11.4516
▁thorough	-11.4516
▁regis	-11.4517
that	-11.4518
▁felon	-11.4518
▁borde	-11.4522
▁peck	-11.4523
▁limb	-11.4523
▁gamble	-11.4523
▁pounce	-11.4524
▁convention	-11.4525
▁continent	-11.4525
▁simp	-11.4526
minded	-11.4527
▁hawaii	-11.4527
▁runnin	-11.4527
▁henri	-11.4527
▁posse	-11.4528
▁catalog	-11.4528
ival	-11.4528
▁reception	-11.4528
▁intelligen	-11.4529
▁orphan	-11.4529
▁hunch	-11.4529
▁casual	-11.4529
▁mornin	-11.4529
▁forbid	-11.4529
▁chung	-11.4529
▁cecil	-11.4529
einstein	-11.453
responsibilities	-11.453
▁adequate	-11.453
▁administer	-11.453
▁aggressive	-11.453
▁allegiance	-11.453
▁almanac	-11.453
▁amateur	-11.453
▁anchovies	-11.453
▁anderson	-11.453
▁anthropo	-11.453
▁apologizing	-11.453
▁ashtray	-11.453
▁asthma	-11.453
▁atlanta	-11.453
▁bahamas	-11.453
▁balabushka	-11.453
▁bassett	-11.453
▁beethoven	-11.453
▁behaving	-11.453
▁berlinghieri	-11.453
▁biometric	-11.453
▁bizarre	-11.453
▁blackjack	-11.453
▁blossom	-11.453
▁bohemia	-11.453
▁brunckhorst	-11.453
▁cackling	-11.453
▁caviar	-11.453
▁ceiling	-11.453
▁celebration	-11.453
▁ceremony	-11.453
▁chevalier	-11.453
▁choosing	-11.453
▁cicero	-11.453
▁cockroach	-11.453
▁consensual	-11.453
▁database	-11.453
▁deceased	-11.453
▁decency	-11.453
▁decorated	-11.453
▁disrespect	-11.453
▁dunsinane	-11.453
▁dwana	-11.453
▁eccentric	-11.453
▁eileen	-11.453
▁emerging	-11.453
▁ephraim	-11.453
▁erection	-11.453
▁expiain	-11.453
▁fantasy	-11.453
▁february	-11.453
▁fedayeen	-11.453
▁fentanyl	-11.453
▁flashlight	-11.453
▁fountain	-11.453
▁gasoline	-11.453
▁gestapo	-11.453
▁gluten	-11.453
▁goddammit	-11.453
▁gospel	-11.453
▁hamshari	-11.453
▁handkerchief	-11.453
▁happily	-11.453
▁hoax	-11.453
▁hotchkiss	-11.453
▁hvap	-11.453
▁hybrid	-11.453
▁hyehwa	-11.453
▁ieave	-11.453
▁inappropriate	-11.453
▁increasing	-11.453
▁inquiry	-11.453
▁insatiable	-11.453
▁institute	-11.453
▁kentucky	-11.453
▁kraven	-11.453
▁laferty	-11.453
▁lazenby	-11.453
▁leroy	-11.453
▁lndlstlnct	-11.453
▁mademoiselle	-11.453
▁marbro	-11.453
▁masculine	-11.453
▁memphis	-11.453
▁millennium	-11.453
▁mississippi	-11.453
▁montgomery	-11.453
▁navidad	-11.453
▁nineteen	-11.453
▁nitrous	-11.453
▁nixon	-11.453
▁nominated	-11.453
▁oath	-11.453
▁occupation	-11.453
▁odyssey	-11.453
▁orvis	-11.453
▁ounce	-11.453
▁outstanding	-11.453
▁parlor	-11.453
▁payroll	-11.453
▁peacock	-11.453
▁penitentiary	-11.453
▁pennsylvania	-11.453
▁perimeter	-11.453
▁petrek	-11.453
▁philadelphia	-11.453
▁picasso	-11.453
▁profound	-11.453
▁psychiatry	-11.453
▁psychopath	-11.453
▁quinton	-11.453
▁rachel	-11.453
▁renegade	-11.453
▁reprogram	-11.453
▁resurrect	-11.453
▁reunion	-11.453
▁roosevelt	-11.453
▁rottweiler	-11.453
▁securities	-11.453
▁selfdefense	-11.453
▁selfesteem	-11.453
▁shanghai	-11.453
▁snarls	-11.453
▁sociopath	-11.453
▁solemn	-11.453
▁southpaw	-11.453
▁statistics	-11.453
▁statue	-11.453
▁stereo	-11.453
▁submarine	-11.453
▁suicidal	-11.453
▁supermarket	-11.453
▁supervisor	-11.453
▁supplies	-11.453
▁suspicion	-11.453
▁syllable	-11.453
▁syndicate	-11.453
▁technique	-11.453
▁tennessee	-11.453
▁tequila	-11.453
▁thunderclap	-11.453
▁tremendous	-11.453
▁tutu	-11.453
▁typical	-11.453
▁unacceptable	-11.453
▁undefeated	-11.453
▁unemployed	-11.453
▁uptight	-11.453
▁vacuum	-11.453
▁wheat	-11.453
▁youtube	-11.453
▁yukio	-11.453
▁zealand	-11.453
▁zombie	-11.453
▁adapt	-11.453
▁anchor	-11.453
▁canvas	-11.453
▁certificate	-11.453
▁conceal	-11.453
▁crunching	-11.453
▁debby	-11.453
▁devine	-11.453
▁extinguish	-11.453
▁farewell	-11.453
▁harvey	-11.453
▁ignoring	-11.453
▁initial	-11.453
▁instance	-11.453
▁jolly	-11.453
▁masturbat	-11.453
▁nevertheless	-11.453
▁ninth	-11.453
▁ornament	-11.453
▁retain	-11.453
▁satisfy	-11.453
▁sermon	-11.453
▁swerve	-11.453
▁tammy	-11.453
▁twitter	-11.453
▁vessel	-11.453
▁departure	-11.453
▁flirt	-11.453
▁kitsey	-11.453
▁orgasm	-11.453
▁stunning	-11.453
▁dedicat	-11.453
▁depressing	-11.453
▁italy	-11.453
▁purr	-11.453
▁sustained	-11.453
▁sofa	-11.453
ssociati	-11.453
▁barrel	-11.453
▁extension	-11.453
▁lease	-11.453
▁plague	-11.453
▁revolt	-11.453
▁sasha	-11.453
▁thumbs	-11.453
▁cartridge	-11.453
▁jingling	-11.453
▁mercedes	-11.453
positive	-11.453
▁staircase	-11.453
parallel	-11.453
▁correspondence	-11.453
▁gulp	-11.453
▁kauai	-11.453
▁justified	-11.453
▁opportunities	-11.453
▁aisle	-11.453
▁kennedy	-11.453
▁joseph	-11.453
▁melanie	-11.453
▁subscribe	-11.453
▁confident	-11.453
▁ascendant	-11.453
▁actress	-11.453
▁chemistry	-11.453
▁curran	-11.453
▁repair	-11.453
▁pippa	-11.453
▁sayaka	-11.453
▁supernatural	-11.453
▁awhile	-11.453
▁neurotic	-11.453
▁refund	-11.453
▁scorche	-11.453
▁turtle	-11.453
bourne	-11.453
▁yoga	-11.453
▁nakia	-11.453
▁refusing	-11.453
▁holler	-11.453
▁scramble	-11.453
▁shrine	-11.453
▁thirtythree	-11.453
▁banana	-11.453
▁pedophile	-11.453
▁stockholm	-11.453
▁mackey	-11.453
▁memoir	-11.453
▁peanut	-11.453
jeriko	-11.453
▁cheesecake	-11.453
▁cloak	-11.453
adows	-11.453
▁chateau	-11.453
▁greek	-11.453
▁favourite	-11.453
▁nogood	-11.453
▁administration	-11.453
▁rampage	-11.453
▁shboom	-11.453
▁garza	-11.453
▁democrats	-11.453
▁immun	-11.453
▁operative	-11.453
▁ponchai	-11.453
▁stump	-11.453
▁forgiving	-11.453
▁addison	-11.453
▁superpower	-11.453
▁determination	-11.453
▁gender	-11.453
▁amos	-11.453
▁ofthe	-11.453
▁seoul	-11.453
▁magnum	-11.453
▁dietrich	-11.453
▁eternity	-11.453
▁holitzer	-11.453
▁riddle	-11.453
▁slack	-11.453
▁indig	-11.453
▁define	-11.453
▁donald	-11.453
▁enforcement	-11.453
▁fanatic	-11.453
▁monroe	-11.453
▁predictable	-11.453
▁poof	-11.453
iquett	-11.453
▁feast	-11.453
▁labour	-11.453
▁pumpkin	-11.453
▁tango	-11.453
▁rambo	-11.453
▁importance	-11.453
▁clanking	-11.453
▁gps	-11.453
▁extinction	-11.453
▁invisible	-11.453
▁suitcase	-11.453
▁endorsement	-11.453
▁excitement	-11.453
▁homie	-11.453
▁overcome	-11.453
▁orphanage	-11.453
▁prosecutor	-11.453
▁interrogation	-11.4531
▁evaluation	-11.4531
atomic	-11.4531
▁unhook	-11.4531
▁liability	-11.4531
▁flour	-11.4531
▁ratio	-11.4531
▁membership	-11.4531
▁proposition	-11.4531
▁testified	-11.4531
▁nanny	-11.4531
▁navy	-11.4531
▁vibe	-11.4531
▁karma	-11.4531
▁lndian	-11.4531
▁lucian	-11.4531
▁diagnosis	-11.4531
▁hoppy	-11.4531
▁fluid	-11.4531
▁nelson	-11.4531
▁visa	-11.4531
▁slope	-11.4531
▁coven	-11.4531
▁textbook	-11.4531
▁postcard	-11.4531
▁lasagne	-11.4531
▁scribble	-11.4531
▁barbour	-11.4531
▁agenda	-11.4531
▁quiz	-11.4531
▁retches	-11.4531
▁vista	-11.4531
▁soap	-11.4531
▁brothel	-11.4531
▁tomatoes	-11.4531
▁consciousness	-11.4531
▁enrich	-11.4531
▁lowkey	-11.4531
▁ripping	-11.4531
▁mugger	-11.4531
▁reese	-11.4532
▁sabra	-11.4532
▁sosa	-11.4532
▁hatred	-11.4532
▁keycard	-11.4532
▁kung	-11.4532
▁utter	-11.4532
▁ambition	-11.4532
▁grey	-11.4532
▁abby	-11.4532
▁stain	-11.4532
▁donation	-11.4532
▁roii	-11.4532
▁courtroom	-11.4532
▁jock	-11.4532
▁cereal	-11.4532
▁initiated	-11.4532
▁countries	-11.4532
▁obey	-11.4532
▁classmate	-11.4532
▁stiff	-11.4532
▁elway	-11.4532
▁hazard	-11.4532
▁scandal	-11.4532
▁caii	-11.4532
▁liking	-11.4532
▁plot	-11.4532
▁unlock	-11.4532
▁subway	-11.4533
▁baum	-11.4533
▁acquaint	-11.4533
▁bastian	-11.4533
▁lewis	-11.4533
▁occupied	-11.4533
▁frost	-11.4533
▁poetry	-11.4533
▁rome	-11.4533
▁tyrant	-11.4533
▁bait	-11.4533
▁chalkies	-11.4533
▁strain	-11.4533
▁entre	-11.4533
▁amp	-11.4533
▁recommendation	-11.4533
▁villain	-11.4533
▁merry	-11.4533
▁straightened	-11.4533
▁sax	-11.4533
▁communicate	-11.4534
▁peddle	-11.4534
▁polar	-11.4534
▁squat	-11.4534
▁kiii	-11.4534
▁floorboard	-11.4534
▁poke	-11.4534
▁deception	-11.4534
▁neat	-11.4534
▁disappointment	-11.4534
▁swam	-11.4534
▁lieut	-11.4534
▁bullshittin	-11.4534
▁software	-11.4534
▁cec	-11.4534
▁turf	-11.4534
term	-11.4534
▁twentyone	-11.4535
▁craving	-11.4535
▁shuttle	-11.4535
▁boof	-11.4535
▁headphones	-11.4535
▁dita	-11.4535
▁monastery	-11.4535
▁isley	-11.4535
▁maryland	-11.4536
▁revolutionary	-11.4536
▁chemical	-11.4536
▁spoon	-11.4536
▁ashes	-11.4536
acque	-11.4536
▁deliberately	-11.4536
▁certainty	-11.4536
▁semen	-11.4536
▁checkpoint	-11.4537
▁sexuality	-11.4537
▁holly	-11.4537
▁ringside	-11.4537
▁slashes	-11.4537
▁hittin	-11.4538
▁aki	-11.4538
▁crest	-11.4538
▁qualified	-11.4538
▁shirl	-11.4539
▁vanisher	-11.4539
▁dread	-11.4539
▁bravery	-11.454
▁moist	-11.454
▁legit	-11.454
▁prepped	-11.454
▁bach	-11.454
▁dna	-11.454
▁rufus	-11.4541
▁publicity	-11.4541
▁scattered	-11.4541
▁tsing	-11.4542
▁negotiate	-11.4542
▁approaches	-11.4542
▁consumer	-11.4542
▁legitimate	-11.4542
called	-11.4542
▁hose	-11.4542
▁negotiat	-11.4542
▁biography	-11.4542
▁affection	-11.4543
▁scent	-11.4543
▁weaponry	-11.4543
▁ahem	-11.4544
▁exhausting	-11.4544
▁hillman	-11.4544
▁sleepwalking	-11.4544
▁lawson	-11.4544
▁charly	-11.4544
▁minus	-11.4544
▁accusing	-11.4544
▁passage	-11.4544
▁onion	-11.4544
▁consideration	-11.4544
▁alas	-11.4544
▁bua	-11.4545
▁breakdown	-11.4545
▁overl	-11.4545
▁glow	-11.4546
▁armored	-11.4546
▁peeking	-11.4547
▁formation	-11.4547
▁lnhale	-11.4548
▁wrinkle	-11.4548
▁valid	-11.4548
▁investigating	-11.4549
▁vain	-11.4549
▁employed	-11.4549
▁marion	-11.4549
▁strictly	-11.4549
▁duce	-11.4549
▁reply	-11.4549
▁consult	-11.4549
▁welty	-11.4549
▁descend	-11.455
▁warhead	-11.455
▁brawl	-11.4551
▁educated	-11.4551
▁cole	-11.4551
▁lawman	-11.4551
▁superman	-11.4551
▁tighten	-11.4552
▁after	-11.4552
▁trustee	-11.4552
▁lifestyle	-11.4553
▁devastating	-11.4553
▁deadbeat	-11.4553
▁recruiting	-11.4553
▁leone	-11.4554
▁hardball	-11.4554
▁priceless	-11.4554
▁dull	-11.4554
▁wider	-11.4555
▁reserve	-11.4556
▁permanently	-11.4557
▁sickness	-11.4557
▁sewer	-11.4558
▁parkway	-11.4558
▁porter	-11.4559
▁fearless	-11.4559
▁struggled	-11.456
▁adopt	-11.4561
▁diego	-11.4561
▁hound	-11.4561
▁highness	-11.4562
▁fussing	-11.4562
▁adriana	-11.4563
lka	-11.4563
▁fulltime	-11.4564
▁offended	-11.4564
▁vanished	-11.4564
▁faithful	-11.4564
▁tailor	-11.4566
▁plumber	-11.4566
▁cape	-11.4568
actic	-11.4568
▁cull	-11.4569
▁handling	-11.4569
▁toke	-11.457
▁transformed	-11.4571
▁tickle	-11.4571
▁sweeping	-11.4572
▁dwelling	-11.4572
▁tand	-11.4572
▁melted	-11.4572
▁jen	-11.4573
▁prostitute	-11.4575
▁dinging	-11.4575
▁proposed	-11.4576
▁cargo	-11.4577
▁rear	-11.4579
▁stingy	-11.4579
▁published	-11.4579
els	-11.4583
ently	-11.4585
▁goals	-11.4585
▁physically	-11.4585
▁oer	-11.4587
▁disturbed	-11.4587
▁charts	-11.4588
▁originally	-11.4588
▁clothing	-11.4589
▁eyebrows	-11.4589
▁fingerprints	-11.4589
▁insults	-11.4589
▁expressions	-11.4589
▁howl	-11.4593
▁mort	-11.4593
▁lamb	-11.4594
▁dash	-11.4595
▁bein	-11.4596
▁sentenced	-11.4596
▁fastest	-11.4598
▁gap	-11.4598
▁willingly	-11.4598
▁cur	-11.4599
▁lawn	-11.4602
▁pier	-11.4604
▁scraping	-11.4604
▁rake	-11.4605
▁maine	-11.4607
▁whooping	-11.4609
▁limited	-11.4609
▁approached	-11.4609
▁verse	-11.461
▁pod	-11.4612
▁roughly	-11.4614
handed	-11.4616
ante	-11.4617
▁cryin	-11.4618
hre	-11.4618
dess	-11.4618
▁traced	-11.462
▁celebrated	-11.4624
▁bets	-11.4625
▁ancestors	-11.4627
▁delusions	-11.4627
▁instincts	-11.4627
▁complet	-11.4628
uffalo	-11.4629
ttle	-11.463
athens	-11.463
dam	-11.4632
▁fuckall	-11.4632
▁professionally	-11.4634
▁denying	-11.4637
▁difficulty	-11.4638
ye	-11.4639
rupt	-11.464
▁intended	-11.464
▁stre	-11.4642
▁tougher	-11.4643
▁owen	-11.4644
▁posters	-11.4645
▁cling	-11.4646
▁warmer	-11.465
▁freaky	-11.4654
▁commissioner	-11.4655
▁jin	-11.4656
▁shotsy	-11.4657
imp	-11.4657
▁dot	-11.4657
nched	-11.4659
▁pace	-11.4659
▁taik	-11.4661
▁interrupting	-11.4665
▁sensors	-11.4666
▁patriots	-11.4666
▁thugs	-11.4668
▁borrowed	-11.467
uveni	-11.4678
▁hardon	-11.4678
▁mus	-11.4683
▁maman	-11.4684
▁hardest	-11.4685
▁cultur	-11.4685
▁mock	-11.4687
▁yoon	-11.4687
▁lol	-11.469
▁gomes	-11.4691
▁foo	-11.4691
▁estimates	-11.4705
▁stokes	-11.4705
▁invitations	-11.4705
▁charades	-11.4705
▁lend	-11.4709
▁meter	-11.4724
▁grounds	-11.4725
▁jumpy	-11.4726
eye	-11.4729
▁spine	-11.4729
▁climbing	-11.4731
▁quicker	-11.4734
▁melts	-11.4742
▁critics	-11.4744
▁pirates	-11.4744
▁tokens	-11.4744
▁exams	-11.4744
▁drivein	-11.4747
iana	-11.475
▁texted	-11.475
▁pitching	-11.475
gi	-11.4751
mis	-11.4753
cia	-11.4753
▁thoughtful	-11.4754
▁dragg	-11.4764
▁buildings	-11.4771
▁kn	-11.4772
▁gladly	-11.478
upo	-11.4782
▁rattles	-11.4784
▁dice	-11.4784
▁fags	-11.4785
▁noted	-11.4791
pher	-11.4799
tor	-11.4801
▁qui	-11.481
▁judged	-11.4812
▁exceptions	-11.4813
▁borne	-11.4814
ber	-11.4815
▁ape	-11.4816
▁colder	-11.4817
▁yearn	-11.4818
▁snacks	-11.4823
▁marines	-11.4823
▁graduates	-11.4823
▁dunne	-11.4831
▁payin	-11.4836
▁oldies	-11.4837
▁inherit	-11.4837
▁orderly	-11.4839
▁watches	-11.4844
▁hum	-11.4855
oney	-11.4857
▁ranks	-11.4862
▁elbows	-11.4862
▁investments	-11.4863
▁vers	-11.4863
▁prints	-11.4864
kie	-11.4868
▁screwing	-11.4869
▁fiance	-11.487
▁runt	-11.4878
▁occasional	-11.4881
avi	-11.4886
▁belle	-11.489
▁takeout	-11.4893
▁cared	-11.4894
▁lookout	-11.49
▁principles	-11.4902
▁founder	-11.4902
▁drawings	-11.4903
▁bombing	-11.4907
bri	-11.491
his	-11.4914
▁musical	-11.4934
tum	-11.4945
▁toes	-11.495
▁cutter	-11.495
▁sleeper	-11.4955
agra	-11.4959
▁mines	-11.4962
▁fees	-11.4963
▁pd	-11.4966
ab	-11.497
▁oral	-11.4971
▁candles	-11.4981
ghs	-11.4983
▁differently	-11.4985
iber	-11.4985
▁expel	-11.4988
▁protected	-11.5004
quit	-11.5017
▁threats	-11.5021
▁andreas	-11.5027
rie	-11.5029
▁abe	-11.5031
bre	-11.5036
▁sacrifices	-11.5064
▁sho	-11.5064
augh	-11.5067
▁latch	-11.5068
▁chipp	-11.5068
▁masse	-11.5071
▁askin	-11.5074
odi	-11.5082
▁whippe	-11.5098
▁represents	-11.5099
▁dismantle	-11.5106
ere	-11.5115
▁rolled	-11.5116
▁believer	-11.5117
▁trou	-11.5135
▁goat	-11.5137
▁debts	-11.5141
lings	-11.5142
▁bits	-11.5148
sson	-11.518
▁creatures	-11.5182
▁whas	-11.5189
▁sorting	-11.5191
ingham	-11.5196
▁des	-11.5204
lets	-11.5206
ice	-11.5211
▁flows	-11.5218
▁exits	-11.5222
▁olympics	-11.5222
▁friendships	-11.5222
▁skel	-11.5228
form	-11.5236
merciful	-11.5258
▁funerals	-11.5262
tel	-11.5277
▁mart	-11.5279
▁vibrat	-11.5282
umb	-11.5303
orado	-11.5306
▁suis	-11.5314
hhh	-11.5316
▁tongues	-11.5343
▁carb	-11.5357
▁regulars	-11.5384
▁figures	-11.5389
▁programm	-11.5394
itation	-11.5415
hat	-11.5418
▁directions	-11.5426
▁wal	-11.5428
rous	-11.544
▁explaining	-11.544
▁flap	-11.5445
▁traffick	-11.5446
▁promises	-11.5446
▁signing	-11.545
▁forg	-11.5485
▁clues	-11.5507
▁sidneys	-11.5507
rit	-11.5516
aria	-11.5525
▁leaders	-11.5538
▁slum	-11.5546
▁creates	-11.5553
▁facts	-11.5571
▁officials	-11.5585
▁contracts	-11.5588
▁planets	-11.5593
eddle	-11.5598
▁excused	-11.5609
can	-11.5614
▁richards	-11.5631
▁champions	-11.5632
▁gl	-11.5645
▁travels	-11.5664
▁noises	-11.5674
omb	-11.568
▁ups	-11.5714
▁weekends	-11.5714
▁perpetua	-11.572
mann	-11.5724
liam	-11.5733
att	-11.5743
▁serves	-11.5757
▁sounding	-11.576
▁hal	-11.5777
▁appoint	-11.5779
▁sto	-11.5786
▁halls	-11.5796
ggie	-11.5798
▁digs	-11.58
▁roads	-11.5813
ibb	-11.5822
ppy	-11.5826
▁votes	-11.5841
▁kan	-11.5857
▁trucks	-11.586
bad	-11.5861
▁wires	-11.5882
▁choices	-11.5894
▁carly	-11.5901
▁craigs	-11.5923
▁reader	-11.5928
nce	-11.5937
ouch	-11.5943
▁waiter	-11.5946
▁tolerate	-11.5947
ggle	-11.595
chin	-11.5985
▁phoned	-11.599
▁calv	-11.5993
iis	-11.6023
ami	-11.6045
ole	-11.6047
vol	-11.6054
▁shoo	-11.6055
shop	-11.6057
ray	-11.6061
vil	-11.6077
▁wil	-11.608
▁stuffed	-11.6105
▁mes	-11.611
pass	-11.613
▁oppos	-11.6136
gre	-11.6144
▁sanct	-11.6146
ane	-11.6147
▁dai	-11.6172
▁pos	-11.6179
▁via	-11.6193
▁ties	-11.6195
▁provid	-11.62
▁deli	-11.6215
▁trusting	-11.6224
▁ripe	-11.6243
cuse	-11.6277
bag	-11.6287
▁thi	-11.63
imon	-11.6331
aid	-11.6355
▁stud	-11.6367
vous	-11.6388
▁que	-11.6401
pelled	-11.6436
▁robot	-11.6455
rica	-11.6493
maker	-11.6523
▁herring	-11.6532
▁ideal	-11.6551
▁tux	-11.6577
come	-11.6581
▁norma	-11.6581
▁purg	-11.6587
▁cart	-11.6611
▁medi	-11.662
▁thug	-11.6628
▁lugg	-11.6635
tis	-11.6647
ele	-11.6653
rant	-11.6654
not	-11.6662
▁cra	-11.6663
nal	-11.667
pence	-11.6678
ninety	-11.6695
▁cran	-11.6696
wo	-11.671
▁obsess	-11.6715
ppin	-11.6729
▁allergi	-11.6738
▁hips	-11.6745
▁shel	-11.6746
making	-11.6757
ament	-11.6782
▁evolution	-11.6783
drop	-11.679
▁realizes	-11.6792
▁ir	-11.6794
tial	-11.6802
▁basin	-11.6823
▁islands	-11.683
▁groan	-11.6835
▁beep	-11.6843
▁cigar	-11.6844
▁organization	-11.6844
▁receipt	-11.6844
▁infant	-11.6844
▁douglas	-11.6844
▁kidney	-11.6844
▁implant	-11.6845
▁portrait	-11.6848
▁bodyguard	-11.6849
▁anni	-11.685
▁contr	-11.6851
▁protocol	-11.6852
▁peasant	-11.6854
▁shark	-11.6855
▁patriot	-11.6857
▁sensor	-11.6857
▁butcher	-11.686
▁handcuff	-11.686
▁twin	-11.6862
member	-11.6863
▁earring	-11.6865
▁gab	-11.6866
▁scientist	-11.6866
▁lam	-11.6871
▁stair	-11.6872
▁spa	-11.6873
liable	-11.688
alo	-11.6883
▁toni	-11.6885
▁fist	-11.6889
pression	-11.6896
tex	-11.6897
▁herb	-11.6898
▁sheep	-11.69
bie	-11.6908
faced	-11.6912
▁conv	-11.6914
▁growl	-11.6915
▁necks	-11.692
▁geek	-11.6923
▁delight	-11.6931
▁heel	-11.6933
▁sow	-11.6935
▁arg	-11.6938
▁writ	-11.6945
▁disappoint	-11.6946
▁seduce	-11.6955
▁smash	-11.6956
▁refer	-11.6958
▁cent	-11.696
▁cracker	-11.6965
▁nurs	-11.6967
▁spec	-11.6969
seas	-11.6974
ocation	-11.6974
water	-11.698
▁destin	-11.6982
▁identify	-11.6985
worth	-11.6987
▁compar	-11.6988
▁corps	-11.699
▁convict	-11.699
ckle	-11.6991
▁jo	-11.6991
▁accord	-11.6991
away	-11.6995
▁apprehend	-11.6996
▁volunteer	-11.6996
▁blond	-11.6997
▁fuss	-11.6997
▁sacr	-11.6997
place	-11.6997
▁haunt	-11.6998
▁peer	-11.6998
▁semi	-11.6998
▁involv	-11.6999
ought	-11.7
wide	-11.7001
word	-11.7001
solved	-11.7002
guard	-11.7003
q	-11.7003
after	-11.7004
faithful	-11.7004
▁flee	-11.7005
▁dissolve	-11.7005
▁underestimate	-11.7005
plane	-11.7005
lock	-11.7005
litter	-11.7005
stream	-11.7006
organ	-11.7006
johnny	-11.7006
minute	-11.7006
daughter	-11.7006
audi	-11.7006
cheese	-11.7006
giving	-11.7006
▁supervise	-11.7007
week	-11.7007
based	-11.7008
▁approve	-11.7008
case	-11.7008
▁indicate	-11.7009
▁excite	-11.701
▁yea	-11.701
▁jess	-11.701
player	-11.7013
▁hotels	-11.7013
moral	-11.7013
oftheart	-11.7014
▁philosoph	-11.7014
▁traged	-11.7014
▁communit	-11.7014
ammed	-11.7014
▁qualit	-11.7016
▁salut	-11.7016
▁biograph	-11.7017
▁surprising	-11.7018
▁cree	-11.7018
▁slid	-11.7018
▁suspens	-11.7019
keeper	-11.7019
tail	-11.702
boom	-11.702
mones	-11.7021
▁snob	-11.7021
▁innocen	-11.7022
talking	-11.7022
▁slag	-11.7022
▁compare	-11.7022
▁nigeria	-11.7022
▁sten	-11.7023
▁india	-11.7023
hood	-11.7024
▁suga	-11.7024
▁sensation	-11.7024
▁function	-11.7024
▁stitch	-11.7024
▁sentiment	-11.7025
itude	-11.7025
▁construct	-11.7027
compatible	-11.7027
▁decisi	-11.7027
▁destructi	-11.7027
▁beggin	-11.7027
▁automat	-11.7027
▁rabbit	-11.7028
▁distinct	-11.7028
▁kiddin	-11.7028
▁recogni	-11.7029
▁endorse	-11.7029
▁consist	-11.7029
▁francis	-11.7029
wich	-11.7029
▁parr	-11.7029
▁rebec	-11.7029
▁toxic	-11.7029
▁presum	-11.7029
▁untouch	-11.703
aphrodi	-11.703
uckingbelievable	-11.703
▁accelerat	-11.703
▁accomplish	-11.703
▁affleck	-11.703
▁africanamerican	-11.703
▁airspace	-11.703
▁antarctica	-11.703
▁aquifer	-11.703
▁attaboy	-11.703
▁attila	-11.703
▁authorization	-11.703
▁balcon	-11.703
▁beaucoup	-11.703
▁beijing	-11.703
▁bernardino	-11.703
▁bieber	-11.703
▁blindfold	-11.703
▁bmachine	-11.703
▁brandnew	-11.703
▁breach	-11.703
▁briegel	-11.703
▁burrito	-11.703
▁caffeine	-11.703
▁cahoots	-11.703
▁calendar	-11.703
▁cassio	-11.703
▁cathedral	-11.703
▁celebrities	-11.703
▁charcoal	-11.703
▁chippendale	-11.703
▁clumsy	-11.703
▁collateral	-11.703
▁colonial	-11.703
▁communion	-11.703
▁compound	-11.703
▁conspiracy	-11.703
▁contender	-11.703
▁crawford	-11.703
▁crease	-11.703
▁crucify	-11.703
▁curvy	-11.703
▁dawg	-11.703
▁declaration	-11.703
▁degenerate	-11.703
▁desoto	-11.703
▁diabolical	-11.703
▁dishonor	-11.703
▁disregard	-11.703
▁divinity	-11.703
▁dwarf	-11.703
▁eclipse	-11.703
▁eiizabeth	-11.703
▁eject	-11.703
▁electra	-11.703
▁elsewhere	-11.703
▁elvira	-11.703
▁erskine	-11.703
▁esteem	-11.703
▁examination	-11.703
▁exboyfriend	-11.703
▁exploding	-11.703
▁extortion	-11.703
▁eyewitness	-11.703
▁facetoface	-11.703
▁fierce	-11.703
▁figuring	-11.703
▁frode	-11.703
▁fugitive	-11.703
▁gardner	-11.703
▁gazelle	-11.703
▁gesture	-11.703
▁goldfinch	-11.703
▁grenning	-11.703
▁guinea	-11.703
▁guzman	-11.703
▁haggis	-11.703
▁hallelujah	-11.703
▁heterosexual	-11.703
▁highlight	-11.703
▁hobbies	-11.703
▁hoodlums	-11.703
▁identification	-11.703
▁identities	-11.703
▁incarcerated	-11.703
▁indication	-11.703
▁intercept	-11.703
▁interstate	-11.703
▁jacobs	-11.703
▁jacoby	-11.703
▁jennings	-11.703
▁jumbo	-11.703
▁jurisdiction	-11.703
▁kessler	-11.703
▁kgb	-11.703
▁knickers	-11.703
▁knuckle	-11.703
▁leather	-11.703
▁leotard	-11.703
▁ljoha	-11.703
▁lntercom	-11.703
▁luxury	-11.703
▁mammoth	-11.703
▁manhattan	-11.703
▁mcbride	-11.703
▁mcgills	-11.703
▁mcswiney	-11.703
▁melanch	-11.703
▁minimum	-11.703
▁minneapolis	-11.703
▁misfortune	-11.703
▁mitchell	-11.703
▁modified	-11.703
▁monahan	-11.703
▁moonlight	-11.703
▁mooresville	-11.703
▁morphine	-11.703
▁motivat	-11.703
▁mwah	-11.703
▁namgoong	-11.703
▁nascimento	-11.703
▁necessity	-11.703
▁nomak	-11.703
▁noodle	-11.703
▁numerous	-11.703
▁omaha	-11.703
▁oshea	-11.703
▁osiris	-11.703
▁overwhelmed	-11.703
▁palmgren	-11.703
▁patrol	-11.703
▁peculiar	-11.703
▁peppermint	-11.703
▁perceptive	-11.703
▁perspective	-11.703
▁picnic	-11.703
▁pieceofshit	-11.703
▁platform	-11.703
▁playground	-11.703
▁pleasance	-11.703
▁pornography	-11.703
▁portsmith	-11.703
▁precinct	-11.703
▁precision	-11.703
▁premium	-11.703
▁preparation	-11.703
▁prescott	-11.703
▁prescription	-11.703
▁prodigy	-11.703
▁provoke	-11.703
▁quaaludes	-11.703
▁qualification	-11.703
▁quarantine	-11.703
▁quatre	-11.703
▁quirke	-11.703
▁railroad	-11.703
▁rattigan	-11.703
▁reboot	-11.703
▁rebuil	-11.703
▁recollection	-11.703
▁redneck	-11.703
▁regulations	-11.703
▁releasing	-11.703
▁rematch	-11.703
▁robitaille	-11.703
▁rosalinda	-11.703
▁sabbath	-11.703
▁sandahl	-11.703
▁sapphire	-11.703
▁seizure	-11.703
▁seldom	-11.703
▁selfconscious	-11.703
▁selfpity	-11.703
▁senile	-11.703
▁shudder	-11.703
▁significance	-11.703
▁significant	-11.703
▁silkworms	-11.703
▁skateboard	-11.703
▁skeptic	-11.703
▁smear	-11.703
▁snoop	-11.703
▁sponge	-11.703
▁squelching	-11.703
▁stagecoach	-11.703
▁stearns	-11.703
▁sunglasses	-11.703
▁sunlight	-11.703
▁synth	-11.703
▁thornton	-11.703
▁tiighman	-11.703
▁tobacco	-11.703
▁tourniquet	-11.703
▁trophies	-11.703
▁tweezers	-11.703
▁twig	-11.703
▁tyanyu	-11.703
▁unleash	-11.703
▁untraceable	-11.703
▁variations	-11.703
▁veggies	-11.703
▁venice	-11.703
▁violinist	-11.703
▁vittu	-11.703
▁vojtech	-11.703
▁volcano	-11.703
▁website	-11.703
▁welfare	-11.703
▁wellenbeck	-11.703
▁wizard	-11.703
▁wrevock	-11.703
▁xanax	-11.703
▁yekke	-11.703
▁youssef	-11.703
▁accurate	-11.703
▁adorable	-11.703
▁astonish	-11.703
▁baggage	-11.703
▁barbarians	-11.703
▁blares	-11.703
▁caution	-11.703
▁charging	-11.703
▁commend	-11.703
▁crazed	-11.703
▁deploy	-11.703
▁dylan	-11.703
▁elected	-11.703
▁emilie	-11.703
▁envy	-11.703
▁error	-11.703
▁expertise	-11.703
▁extensive	-11.703
▁frustrat	-11.703
▁geneva	-11.703
▁hyena	-11.703
▁indict	-11.703
▁inject	-11.703
▁inspiration	-11.703
▁interior	-11.703
▁intimidat	-11.703
▁judging	-11.703
▁kitten	-11.703
▁legacy	-11.703
▁leslie	-11.703
▁mancini	-11.703
▁methane	-11.703
▁murmur	-11.703
▁napoleon	-11.703
▁niece	-11.703
▁obtain	-11.703
▁precaution	-11.703
▁refresh	-11.703
▁regift	-11.703
▁residents	-11.703
▁richmond	-11.703
▁rosemary	-11.703
▁sieep	-11.703
▁spiral	-11.703
▁submit	-11.703
▁tumor	-11.703
▁tweak	-11.703
▁ufg	-11.703
▁vermin	-11.703
▁whereabouts	-11.703
▁yikes	-11.703
▁batteries	-11.703
▁cadet	-11.703
▁cassie	-11.703
▁conspir	-11.703
▁contradict	-11.703
▁filter	-11.703
▁forcing	-11.703
▁headquarters	-11.703
▁herald	-11.703
▁janitor	-11.703
▁okeze	-11.703
▁omelet	-11.703
▁strand	-11.703
▁stuart	-11.703
▁aaron	-11.703
▁unreal	-11.703
▁wrench	-11.703
▁continual	-11.703
▁donuts	-11.703
▁grain	-11.703
▁handgun	-11.703
▁sascha	-11.703
▁tramp	-11.703
▁welsh	-11.703
▁aryan	-11.703
▁await	-11.703
▁fortress	-11.703
▁reinhard	-11.703
▁tactics	-11.703
▁tibbs	-11.703
▁ulla	-11.703
▁margaritaville	-11.703
▁noticing	-11.703
▁snore	-11.703
▁vegetable	-11.703
▁angus	-11.703
▁cathy	-11.703
▁circulation	-11.703
▁hamburg	-11.703
▁kurt	-11.703
▁laila	-11.703
▁maurice	-11.703
▁freeloader	-11.703
▁seasick	-11.703
mita	-11.703
▁chronic	-11.703
▁overhear	-11.703
▁presley	-11.703
▁ransom	-11.703
▁residence	-11.703
▁forrest	-11.703
▁harsh	-11.703
dignified	-11.703
▁caruso	-11.703
▁sacrament	-11.703
▁taiwan	-11.703
▁titties	-11.703
▁nicholai	-11.703
▁obliged	-11.703
▁trend	-11.703
▁greer	-11.703
▁twinkie	-11.703
▁involvement	-11.703
▁lipps	-11.703
▁dinosaur	-11.703
▁twothirds	-11.703
▁alternative	-11.703
▁burwell	-11.703
▁gunthers	-11.703
▁lcf	-11.703
▁maintenance	-11.703
▁lottery	-11.703
▁premed	-11.703
▁chariot	-11.703
▁plaza	-11.703
▁feminine	-11.703
▁awakening	-11.703
▁bicycle	-11.703
▁cheesy	-11.703
▁illinois	-11.703
▁witchcraft	-11.703
▁dagger	-11.703
▁mutual	-11.703
▁operator	-11.703
▁psychological	-11.703
▁swift	-11.703
▁mmmmm	-11.703
▁ceo	-11.703
▁truce	-11.703
▁blurr	-11.703
▁piggyback	-11.703
▁recognition	-11.703
▁coletti	-11.703
▁gentiemen	-11.703
▁radical	-11.703
▁railway	-11.703
▁auden	-11.703
▁traitors	-11.703
▁apology	-11.703
▁gloom	-11.703
▁analyz	-11.703
▁distress	-11.703
▁fleance	-11.703
▁heyhey	-11.703
▁misplace	-11.703
▁meditation	-11.703
▁mutation	-11.703
▁pollock	-11.703
▁brewery	-11.703
▁diplomacy	-11.703
▁rouge	-11.703
▁tagged	-11.703
▁resemble	-11.703
▁laptop	-11.703
▁plunge	-11.703
argas	-11.703
▁arsehole	-11.703
▁ashford	-11.703
▁crucifix	-11.703
▁sequence	-11.703
▁calculations	-11.703
▁garfield	-11.703
▁obligation	-11.703
▁elementary	-11.703
▁erasing	-11.703
▁pippin	-11.703
▁urine	-11.703
▁narrat	-11.703
▁recite	-11.703
▁compass	-11.703
▁speedboat	-11.703
▁trifle	-11.703
▁dickens	-11.703
▁blueprint	-11.703
▁knots	-11.703
▁downhill	-11.703
▁element	-11.703
▁gordy	-11.703
▁lemon	-11.703
▁margie	-11.703
▁vital	-11.703
▁bulge	-11.703
▁civilization	-11.703
▁salmon	-11.703
▁skee	-11.703
▁basketball	-11.703
▁kimber	-11.703
▁alaska	-11.703
▁industries	-11.703
▁dominat	-11.703
▁springfield	-11.703
titis	-11.703
▁saddle	-11.7031
▁constitution	-11.7031
▁inaudible	-11.7031
▁peepee	-11.7031
▁scud	-11.7031
▁trashmouth	-11.7031
▁cockburn	-11.7031
cherished	-11.7031
▁inbound	-11.7031
▁orni	-11.7031
▁vivian	-11.7031
▁whlstl	-11.7031
▁bulldog	-11.7031
▁snatchers	-11.7031
▁lenka	-11.7031
▁chump	-11.7031
chacha	-11.7031
▁stool	-11.7031
▁enlist	-11.7031
▁chili	-11.7031
▁doodoo	-11.7031
▁slick	-11.7031
▁glance	-11.7031
▁interaction	-11.7031
▁dusk	-11.7031
▁diversion	-11.7031
▁afar	-11.7031
▁oof	-11.7031
▁profitable	-11.7031
▁revive	-11.7031
▁yyou	-11.7031
▁uris	-11.7031
▁glue	-11.7031
▁buffoon	-11.7031
▁japan	-11.7031
▁consultant	-11.7031
▁undressed	-11.7031
▁buii	-11.7031
▁bundy	-11.7031
▁hijackers	-11.7031
▁jockey	-11.7031
▁flick	-11.7031
▁pluck	-11.7031
▁wiping	-11.7031
▁horton	-11.7031
▁hallowe	-11.7031
▁practise	-11.7032
▁unbearable	-11.7032
▁powell	-11.7032
▁shelf	-11.7032
▁exclusive	-11.7032
▁preference	-11.7032
▁tuna	-11.7032
▁bankrupt	-11.7032
▁poop	-11.7032
▁void	-11.7032
▁rising	-11.7032
▁milton	-11.7032
▁oldfashioned	-11.7032
▁battlefield	-11.7032
▁cruelty	-11.7032
▁dodge	-11.7032
▁forehead	-11.7032
▁kingsley	-11.7032
▁destruction	-11.7032
▁romance	-11.7032
▁piay	-11.7032
▁predator	-11.7032
▁shoplift	-11.7032
▁complaints	-11.7032
▁foil	-11.7032
▁income	-11.7032
▁cuz	-11.7032
▁ownership	-11.7032
▁heiter	-11.7032
▁improvement	-11.7032
▁scum	-11.7032
▁reverse	-11.7032
entina	-11.7032
▁airplane	-11.7032
oohooh	-11.7032
▁snowboard	-11.7032
▁minist	-11.7033
▁hawaiian	-11.7033
▁abstract	-11.7033
litzer	-11.7033
▁hash	-11.7033
▁probe	-11.7033
▁tasty	-11.7033
▁reform	-11.7033
▁edit	-11.7033
▁dumpster	-11.7033
▁radiation	-11.7033
▁terminal	-11.7033
▁overall	-11.7033
▁fisk	-11.7033
▁pause	-11.7033
▁audition	-11.7033
▁chafe	-11.7033
▁occ	-11.7033
▁spun	-11.7033
▁swill	-11.7033
▁ratted	-11.7033
▁wages	-11.7033
▁viet	-11.7034
▁pupil	-11.7034
▁musket	-11.7034
▁franchise	-11.7034
▁headlights	-11.7034
▁racial	-11.7034
▁remarkable	-11.7034
▁soviet	-11.7034
▁shriek	-11.7034
▁rubbed	-11.7034
raffi	-11.7034
▁headhunt	-11.7034
▁gush	-11.7034
▁fife	-11.7034
▁thigh	-11.7034
▁stability	-11.7034
▁fudge	-11.7034
cussion	-11.7034
▁cuppy	-11.7034
▁fanny	-11.7034
▁transmitter	-11.7034
▁begged	-11.7034
▁fog	-11.7034
▁greenville	-11.7034
▁mj	-11.7034
▁groom	-11.7034
▁nino	-11.7034
▁mustache	-11.7034
▁employment	-11.7035
▁congress	-11.7035
▁organism	-11.7035
▁splitting	-11.7035
▁raymond	-11.7035
▁stack	-11.7035
▁beansie	-11.7035
▁griev	-11.7035
▁disgusted	-11.7035
actical	-11.7035
▁primal	-11.7035
▁gunned	-11.7035
▁romeo	-11.7036
▁headliner	-11.7036
▁dinar	-11.7036
▁saloon	-11.7036
▁diana	-11.7036
▁vibrates	-11.7036
▁resentment	-11.7036
imous	-11.7036
▁stashies	-11.7036
▁runaway	-11.7036
▁limitless	-11.7036
▁gurgling	-11.7036
▁overreacting	-11.7036
▁dulles	-11.7037
▁spain	-11.7037
▁bookstore	-11.7037
▁bowen	-11.7037
▁fundraiser	-11.7037
▁elder	-11.7037
▁motherinlaw	-11.7037
▁halfhour	-11.7037
tesse	-11.7037
▁erich	-11.7037
▁whisky	-11.7037
▁cmon	-11.7037
▁presidential	-11.7038
zard	-11.7038
▁ego	-11.7038
▁mumbles	-11.7038
▁impose	-11.7038
▁poker	-11.7038
▁worldwide	-11.7039
▁trig	-11.7039
▁acquired	-11.7039
▁grownup	-11.7039
▁mule	-11.7039
▁salon	-11.7039
▁household	-11.704
▁reai	-11.704
▁musl	-11.704
▁boop	-11.704
▁imply	-11.704
▁seminar	-11.704
▁ama	-11.704
▁disney	-11.704
▁winston	-11.704
▁tash	-11.7041
▁clap	-11.7041
▁sandro	-11.7041
▁confirmation	-11.7042
▁surprisingly	-11.7042
▁logan	-11.7042
▁nu	-11.7042
▁blackwell	-11.7042
▁edna	-11.7042
▁louie	-11.7042
▁vine	-11.7043
▁oz	-11.7043
▁plantation	-11.7043
▁mature	-11.7043
▁bile	-11.7043
▁panel	-11.7043
▁smuggler	-11.7044
▁wee	-11.7044
▁harmless	-11.7044
▁babyboom	-11.7044
▁fitness	-11.7044
▁goldilocks	-11.7045
▁dismissed	-11.7045
▁snatched	-11.7045
▁consumed	-11.7045
▁starved	-11.7045
▁bedside	-11.7045
▁pronounced	-11.7045
▁squeal	-11.7046
ispu	-11.7046
▁patter	-11.7046
▁kw	-11.7046
arth	-11.7047
▁sanity	-11.7047
▁assassinated	-11.7047
▁dole	-11.7047
▁slasher	-11.7047
bone	-11.7048
▁embar	-11.7048
▁clinking	-11.7048
▁thumping	-11.7048
▁rapidly	-11.7048
▁brighton	-11.7048
▁carriage	-11.7049
▁delicate	-11.7049
skell	-11.7049
▁johnnie	-11.7049
▁injured	-11.7049
▁conf	-11.7049
▁willy	-11.7049
▁objection	-11.7049
▁bac	-11.7049
▁meg	-11.7049
▁cors	-11.705
▁eise	-11.705
▁jar	-11.705
▁freetown	-11.705
▁dispatches	-11.7051
▁approved	-11.7051
▁neurological	-11.7051
▁enroll	-11.7051
▁cleansing	-11.7052
▁cave	-11.7052
▁ranch	-11.7052
▁sparr	-11.7052
▁dougal	-11.7052
nuck	-11.7052
▁specialty	-11.7053
▁perry	-11.7053
▁lynch	-11.7053
▁trina	-11.7053
▁delayed	-11.7055
▁neglected	-11.7055
▁fatty	-11.7055
▁acceptable	-11.7055
▁disorderly	-11.7055
▁arist	-11.7055
▁armand	-11.7055
▁glenn	-11.7056
▁globe	-11.7056
▁abso	-11.7056
▁partial	-11.7056
▁recovery	-11.7056
gw	-11.7057
▁kidder	-11.7058
▁mcdonalds	-11.7058
▁apo	-11.7058
▁wander	-11.7058
▁selfie	-11.7059
▁ciao	-11.706
ano	-11.706
▁roid	-11.706
▁greeting	-11.706
▁counseling	-11.706
▁steering	-11.7061
▁overdose	-11.7061
▁whistler	-11.7062
▁ambi	-11.7063
▁reconcil	-11.7063
▁dew	-11.7063
▁firstborn	-11.7063
▁layin	-11.7064
▁wandered	-11.7064
▁valve	-11.7065
▁extend	-11.7065
▁idti	-11.7066
surgent	-11.7066
skins	-11.7066
▁heighten	-11.7067
▁urinate	-11.7067
▁hana	-11.7068
▁kite	-11.7068
▁hiring	-11.7069
▁hobo	-11.7069
▁disguised	-11.7069
▁kor	-11.7069
▁middleman	-11.707
▁corny	-11.7071
▁discovery	-11.7071
▁swipe	-11.7071
▁vali	-11.7072
▁translat	-11.7073
▁magical	-11.7073
▁puttin	-11.7073
▁sixty	-11.7074
▁bog	-11.7074
▁ambushed	-11.7075
▁coordinate	-11.7075
▁bangin	-11.7075
▁cleanup	-11.7076
▁ratsy	-11.7076
▁poach	-11.7077
▁mothership	-11.7078
▁informer	-11.708
▁realise	-11.7081
▁abused	-11.7082
▁mansion	-11.7083
▁sneaky	-11.7085
▁nickel	-11.7086
▁bedtime	-11.7086
▁reel	-11.7086
▁depending	-11.7087
▁drip	-11.7087
elope	-11.7089
▁sarcastic	-11.7089
▁reminder	-11.709
changes	-11.709
▁accuse	-11.7092
yo	-11.7093
▁screamin	-11.7093
▁grosse	-11.7094
▁bonnie	-11.7094
▁severed	-11.7094
▁dug	-11.7094
▁spanked	-11.7094
▁strik	-11.7096
▁quinc	-11.7096
▁drifting	-11.7097
▁connecting	-11.7097
informed	-11.7098
▁possessed	-11.7099
▁tortured	-11.71
▁turd	-11.71
▁emotionally	-11.7101
▁tugger	-11.7105
▁solved	-11.7105
sided	-11.7106
▁chords	-11.7108
▁laxatives	-11.7108
▁seatbelts	-11.7108
▁grind	-11.7108
bey	-11.7108
▁boiling	-11.7109
▁mourning	-11.7109
▁broo	-11.7112
▁publisher	-11.7113
▁lace	-11.7113
▁assaulted	-11.7115
▁printed	-11.7116
▁charmed	-11.7116
▁eta	-11.7117
▁proven	-11.7118
ik	-11.7118
▁sprayed	-11.7119
phew	-11.7121
▁vel	-11.7122
▁meine	-11.7122
▁confessing	-11.7122
▁momma	-11.7122
▁schu	-11.7126
▁dogies	-11.7126
▁questionable	-11.7128
▁casa	-11.7128
▁delightful	-11.713
▁buster	-11.713
pensive	-11.7131
shot	-11.7133
▁canceled	-11.7135
▁monitored	-11.7135
▁printing	-11.7136
▁curs	-11.7137
▁boa	-11.7138
▁merciless	-11.714
▁pent	-11.7143
▁pest	-11.7143
▁succeeded	-11.7145
▁shining	-11.7145
▁churches	-11.7145
▁claimed	-11.7146
▁bonded	-11.7146
enstein	-11.7149
▁unan	-11.715
▁drowning	-11.715
▁bia	-11.7152
▁cruise	-11.7153
▁spil	-11.7155
▁eggy	-11.7155
▁christie	-11.7155
▁metaphorical	-11.7157
▁philo	-11.7157
▁cords	-11.7158
▁ford	-11.7158
▁lyrics	-11.7159
▁palestinians	-11.7159
▁resumes	-11.7159
▁sincere	-11.7159
▁cong	-11.7159
▁whirs	-11.7159
▁lures	-11.7159
▁sprinkles	-11.716
▁whales	-11.7161
▁correctly	-11.7162
enin	-11.7163
▁coy	-11.7164
▁groove	-11.7164
▁manual	-11.7164
▁sewed	-11.7164
▁bookies	-11.7166
▁pope	-11.7169
uther	-11.717
▁passin	-11.7171
▁proceeding	-11.7171
▁kin	-11.7173
▁swallowed	-11.7175
▁resisted	-11.7175
▁mmmm	-11.7176
▁testin	-11.7176
▁hopeful	-11.718
▁woody	-11.7181
there	-11.7182
▁healing	-11.7184
▁fishy	-11.7189
▁scratching	-11.7189
bitch	-11.7191
▁sane	-11.7193
▁ahh	-11.7193
▁uti	-11.7194
▁bowie	-11.7195
▁comforting	-11.7196
▁cour	-11.7197
▁weaken	-11.7206
▁loudly	-11.7207
uc	-11.7207
▁trader	-11.7208
▁geeks	-11.7209
▁foundation	-11.721
▁sharks	-11.721
▁protocols	-11.721
▁nervously	-11.721
▁peasants	-11.721
▁hint	-11.7214
ocus	-11.7215
▁starters	-11.7215
▁mend	-11.7216
▁char	-11.7216
▁unity	-11.7216
▁wildly	-11.7217
▁graves	-11.7217
▁nighttime	-11.7219
lor	-11.7221
▁uno	-11.7222
eech	-11.7225
star	-11.7225
▁casting	-11.7228
▁dense	-11.723
uld	-11.7231
▁itch	-11.7235
done	-11.7236
ench	-11.7236
▁crackers	-11.7237
▁farting	-11.7238
▁fla	-11.724
▁chupa	-11.7246
▁cynic	-11.7251
▁sadly	-11.7254
▁od	-11.7255
▁kilos	-11.7261
▁djs	-11.7261
▁samples	-11.7262
erik	-11.7262
dling	-11.7264
▁suggested	-11.7269
▁banged	-11.727
▁designers	-11.727
ush	-11.7271
▁billions	-11.7275
▁executioner	-11.7275
▁reb	-11.7275
▁punched	-11.7276
▁tracked	-11.728
▁fling	-11.7281
▁repeating	-11.7283
▁spreading	-11.7285
▁barbie	-11.7288
▁cds	-11.7295
kets	-11.7295
▁noone	-11.7295
▁tailing	-11.7298
▁irr	-11.7299
pare	-11.7305
▁seals	-11.7307
tock	-11.7308
▁organs	-11.7311
▁expenses	-11.7313
▁assets	-11.7313
▁heights	-11.7314
▁hee	-11.7315
▁sodas	-11.7316
▁tosser	-11.7317
▁blinded	-11.7337
▁cube	-11.7338
▁hangin	-11.734
▁dumping	-11.7345
▁takeoff	-11.7346
▁holed	-11.7348
air	-11.735
▁shitti	-11.7356
▁scoops	-11.7361
▁weavers	-11.7365
▁jeans	-11.7365
▁sizzl	-11.7366
▁informants	-11.7367
▁commanded	-11.7367
▁searched	-11.7369
chchchch	-11.7374
▁import	-11.7375
▁flagg	-11.7376
▁moleste	-11.7382
▁hiss	-11.7382
▁posted	-11.7392
▁flipp	-11.7393
▁crip	-11.7393
▁hitter	-11.7396
▁pretended	-11.7398
rehouse	-11.74
aries	-11.74
gar	-11.7414
▁headline	-11.7414
▁clearer	-11.7414
▁smokey	-11.7416
▁tasted	-11.7419
▁allies	-11.7425
▁peas	-11.7441
ese	-11.7451
▁kama	-11.7455
▁cope	-11.7462
▁rein	-11.7464
▁hurtin	-11.7467
▁angles	-11.747
▁unload	-11.7472
▁shadows	-11.7472
▁charms	-11.7473
▁images	-11.7479
▁tak	-11.7494
▁misses	-11.7494
▁committ	-11.7499
▁sticky	-11.7519
▁bricks	-11.7522
▁junkies	-11.7524
▁walker	-11.7533
▁jameson	-11.7537
▁guarded	-11.7561
▁bab	-11.7567
▁smacks	-11.757
▁dep	-11.7575
▁garretts	-11.7575
▁commercials	-11.7575
▁petro	-11.7582
stop	-11.7583
pper	-11.7584
▁boob	-11.7587
▁marrying	-11.76
▁pissing	-11.7614
▁redhead	-11.7626
▁rifles	-11.7628
▁procedures	-11.7628
slapped	-11.7629
▁bonds	-11.7629
ester	-11.763
▁gus	-11.7639
▁feared	-11.7643
lt	-11.7645
▁lightly	-11.7645
▁circles	-11.7681
▁patterns	-11.7681
▁gangsters	-11.7681
now	-11.7685
▁beatings	-11.7686
▁guarding	-11.7687
mation	-11.7689
▁bin	-11.7689
▁eric	-11.7697
nda	-11.7701
▁presented	-11.7705
▁aaaaa	-11.7717
sburg	-11.7732
▁mannings	-11.7735
▁exercises	-11.7735
▁corporations	-11.7735
emb	-11.7739
bc	-11.7742
▁accessor	-11.7745
▁warming	-11.7754
▁scars	-11.7754
▁sm	-11.7768
▁turner	-11.7772
▁provides	-11.7781
▁rewards	-11.7782
▁whiz	-11.7782
▁edg	-11.7785
▁manipulat	-11.7799
▁danced	-11.78
atic	-11.7803
▁imim	-11.7823
▁hav	-11.7825
sia	-11.7826
▁carve	-11.7829
▁creeps	-11.7834
▁stripe	-11.7841
▁rises	-11.7842
diving	-11.7843
ennis	-11.7851
▁gav	-11.7859
assi	-11.7873
▁postpone	-11.7886
▁boxer	-11.7887
mika	-11.7887
▁cy	-11.7892
▁locations	-11.7896
jil	-11.7901
▁lions	-11.7903
bill	-11.7903
▁hookers	-11.7927
▁aura	-11.7929
ials	-11.7942
▁tyr	-11.7949
▁receives	-11.7955
▁razors	-11.8004
▁sha	-11.8015
▁sites	-11.8056
▁decod	-11.8058
▁slides	-11.8064
put	-11.81
sers	-11.8109
ification	-11.8129
ign	-11.814
aunt	-11.8156
lam	-11.8162
▁requests	-11.8168
▁priests	-11.8168
▁jackets	-11.8168
▁linger	-11.8184
tem	-11.8208
▁sued	-11.8239
▁but	-11.824
▁swi	-11.8244
▁credits	-11.8276
▁ip	-11.829
delta	-11.8315
▁sol	-11.8332
▁daniels	-11.8334
▁announc	-11.835
amon	-11.8356
▁spar	-11.8363
▁sats	-11.8373
▁cuffe	-11.838
▁swings	-11.8389
utz	-11.839
alice	-11.8406
▁eliminat	-11.8413
eh	-11.8428
▁victoria	-11.8435
mme	-11.8436
▁cli	-11.8444
tag	-11.8456
altering	-11.8463
var	-11.8468
▁suffocate	-11.8478
low	-11.8478
▁banker	-11.8525
ado	-11.8561
▁rams	-11.8569
▁rica	-11.8577
etter	-11.8587
arm	-11.8602
▁bounc	-11.8611
van	-11.8621
roid	-11.8642
hit	-11.8692
rification	-11.8726
▁repr	-11.8735
▁flo	-11.8741
▁perfection	-11.8758
rian	-11.8761
fir	-11.879
documented	-11.8796
rise	-11.8799
hold	-11.8804
your	-11.8837
▁evolv	-11.8874
▁messin	-11.8901
▁abusi	-11.8903
aption	-11.8916
rby	-11.8966
unda	-11.8966
bod	-11.8973
▁diploma	-11.898
mish	-11.8984
pute	-11.8998
▁mcg	-11.9028
chu	-11.9032
▁var	-11.9045
iar	-11.9059
▁juli	-11.906
▁hock	-11.9065
aging	-11.9065
duced	-11.9091
loading	-11.9097
▁prov	-11.9114
▁wrapp	-11.9123
gur	-11.9132
oza	-11.9166
▁vibra	-11.9185
▁pursu	-11.9231
▁rou	-11.9232
▁ahhh	-11.9242
uv	-11.9255
ison	-11.9294
formed	-11.9313
gate	-11.9347
▁unti	-11.9368
ional	-11.939
▁impro	-11.9396
▁cult	-11.9406
cifer	-11.9408
▁sip	-11.943
▁poly	-11.9434
enou	-11.9446
▁delo	-11.9454
▁hol	-11.9456
ador	-11.9464
taneous	-11.9465
cess	-11.95
▁tro	-11.9508
aby	-11.9519
▁shei	-11.952
rage	-11.9522
usi	-11.9522
▁qua	-11.9549
▁settl	-11.9557
▁reno	-11.9559
▁magn	-11.956
rai	-11.9587
▁conne	-11.9594
scal	-11.9628
gut	-11.9646
▁outof	-11.9652
▁creat	-11.9674
▁bonn	-11.97
fetched	-11.9703
▁bung	-11.9704
cocking	-11.9718
ility	-11.9718
▁fel	-11.9724
▁multipli	-11.9738
▁tia	-11.9747
tar	-11.9759
▁anticipate	-11.9778
▁gen	-11.9784
vern	-11.9785
▁did	-11.9803
▁af	-11.9816
▁epi	-11.982
▁antid	-11.9832
▁wel	-11.9836
▁por	-11.9839
▁steppin	-11.9846
dick	-11.9856
ption	-11.9872
ually	-11.9897
▁carp	-11.99
halo	-11.9906
▁shov	-11.9912
▁chchch	-11.9914
dom	-11.9922
agi	-11.9943
▁shak	-11.9973
oga	-11.9996
▁homo	-12.0037
▁ger	-12.0042
▁chau	-12.0043
iggy	-12.005
▁spi	-12.0054
graph	-12.0064
▁babysit	-12.0069
gious	-12.0101
▁sprinkle	-12.0124
lux	-12.0145
▁roma	-12.0149
armed	-12.0158
quet	-12.0161
▁clatter	-12.0162
▁immigra	-12.0163
▁multi	-12.0171
▁notif	-12.0174
▁scan	-12.0176
▁politician	-12.0178
▁transsexual	-12.0178
▁pearl	-12.0179
▁groov	-12.0179
▁painkiller	-12.0179
▁strap	-12.0181
▁lyric	-12.0186
▁palestinian	-12.0186
▁resume	-12.0186
▁keg	-12.0189
▁emerge	-12.019
▁ancestor	-12.0191
▁instinct	-12.0191
▁delusion	-12.0192
▁whale	-12.0192
▁profit	-12.0193
▁resource	-12.0194
▁shilling	-12.0194
▁cord	-12.0195
▁bitcoin	-12.0196
▁relation	-12.0197
▁wither	-12.0197
▁aerobic	-12.0199
▁engraving	-12.0199
▁insect	-12.02
▁instruction	-12.02
▁whir	-12.0201
▁afterward	-12.0203
▁employee	-12.0204
▁folk	-12.0206
oes	-12.0206
▁republican	-12.0208
▁orienta	-12.0211
ified	-12.0212
▁conclude	-12.0222
etti	-12.0222
▁barry	-12.0224
▁dal	-12.0225
▁dame	-12.0225
▁chang	-12.0226
▁why	-12.0231
mford	-12.0232
▁flame	-12.0233
missions	-12.0234
▁liv	-12.024
▁squa	-12.0241
▁eavesdrop	-12.0244
▁grove	-12.025
eeking	-12.0268
▁bushwhack	-12.027
ounding	-12.0272
▁employ	-12.0273
aken	-12.0275
▁whee	-12.0277
▁soak	-12.0284
▁imagina	-12.0286
hm	-12.0286
face	-12.0288
▁jeopard	-12.0291
▁decid	-12.0292
▁vent	-12.0295
angle	-12.0296
culate	-12.0299
pack	-12.03
ini	-12.0303
▁rende	-12.0303
school	-12.0306
▁democra	-12.0306
wall	-12.0306
erina	-12.0306
▁trave	-12.0307
▁silve	-12.0308
▁geez	-12.0312
▁counsel	-12.0314
▁weep	-12.0315
▁plumb	-12.0315
▁execut	-12.0316
▁lure	-12.0316
foo	-12.0316
▁reopen	-12.0318
phones	-12.0318
▁phon	-12.0319
▁separat	-12.0319
▁detect	-12.0319
▁distract	-12.032
ington	-12.032
▁greet	-12.032
▁recruit	-12.0321
▁devastat	-12.0322
▁infect	-12.0325
▁motherfuck	-12.0327
▁neglect	-12.0328
break	-12.0329
▁sever	-12.0329
▁condemn	-12.033
▁grill	-12.0331
flow	-12.0331
▁exten	-12.0333
ridge	-12.0334
mother	-12.0334
bolt	-12.0336
carriage	-12.0337
delicate	-12.0337
educated	-12.0337
abra	-12.0338
screen	-12.0338
authorized	-12.0338
script	-12.0338
▁gener	-12.0338
abilities	-12.0338
blank	-12.0338
▁discipline	-12.0338
cycle	-12.0339
guin	-12.0339
temporar	-12.0339
section	-12.0339
donna	-12.0339
dollar	-12.0339
advantage	-12.0339
comfort	-12.0339
connor	-12.0339
statement	-12.0339
fifty	-12.0339
negative	-12.0339
direct	-12.0339
wire	-12.0339
freak	-12.0339
girlfriend	-12.034
wrote	-12.034
finished	-12.034
fair	-12.034
believe	-12.034
normal	-12.034
free	-12.034
wild	-12.034
temper	-12.034
▁delay	-12.034
kill	-12.034
watch	-12.034
▁inspire	-12.0341
telling	-12.0342
▁pronounce	-12.0342
whoo	-12.0342
▁retire	-12.0342
getting	-12.0342
stands	-12.0342
hmm	-12.0342
▁divide	-12.0343
year	-12.0343
▁poster	-12.0343
▁assemble	-12.0344
▁jeopardize	-12.0344
level	-12.0345
▁steer	-12.0346
owner	-12.0347
▁assassinate	-12.0347
▁beck	-12.0347
▁thirst	-12.0347
▁refuge	-12.0347
step	-12.0348
▁murph	-12.0348
▁stead	-12.0348
box	-12.0348
flower	-12.0348
▁graci	-12.0349
▁slipper	-12.035
nitti	-12.035
▁vigorous	-12.0351
▁deliberate	-12.0351
▁precise	-12.0352
moon	-12.0353
▁sauc	-12.0354
ficial	-12.0355
▁coo	-12.0355
left	-12.0356
▁crock	-12.0356
went	-12.0356
▁heavie	-12.0356
▁regist	-12.0357
yeah	-12.0357
▁logical	-12.0357
▁origin	-12.0358
▁junk	-12.0358
▁orde	-12.0359
▁subtract	-12.0359
▁selen	-12.036
▁profession	-12.036
rnam	-12.036
▁villa	-12.036
▁wipin	-12.036
▁commo	-12.036
▁hijack	-12.0361
▁exploit	-12.0361
▁everythin	-12.0361
▁drivin	-12.0361
▁leavin	-12.0361
▁elevat	-12.0361
tolerance	-12.0361
oodoo	-12.0361
▁smilin	-12.0361
▁regime	-12.0361
▁terri	-12.0361
▁fiore	-12.0362
venue	-12.0362
▁whls	-12.0362
▁snug	-12.0362
▁enforce	-12.0362
▁differ	-12.0362
▁kidnap	-12.0362
▁egypt	-12.0362
xandra	-12.0362
▁era	-12.0362
▁savi	-12.0362
▁theatr	-12.0362
▁excla	-12.0362
▁restrict	-12.0363
guire	-12.0363
▁melod	-12.0363
▁convert	-12.0363
▁chuck	-12.0363
melani	-12.0363
relevant	-12.0363
salem	-12.0363
▁neighbour	-12.0363
▁nonono	-12.0363
▁obedien	-12.0363
tempting	-12.0363
▁synd	-12.0363
brough	-12.0363
▁corvin	-12.0363
▁ecsta	-12.0363
▁expend	-12.0363
admissible	-12.0363
cenlo	-12.0363
mptu	-12.0363
rdenas	-12.0363
rkovic	-12.0363
▁abroad	-12.0363
▁abundantly	-12.0363
▁accelerant	-12.0363
▁accomplice	-12.0363
▁accumulat	-12.0363
▁achilles	-12.0363
▁adwan	-12.0363
▁affirmative	-12.0363
▁albino	-12.0363
▁aleppo	-12.0363
▁ambivalence	-12.0363
▁analog	-12.0363
▁anselme	-12.0363
▁anselmo	-12.0363
▁apologise	-12.0363
▁apparel	-12.0363
▁apparition	-12.0363
▁application	-12.0363
▁apricot	-12.0363
▁armadyne	-12.0363
▁armstrong	-12.0363
▁artifact	-12.0363
▁assailant	-12.0363
▁asylum	-12.0363
▁athletic	-12.0363
▁awoke	-12.0363
▁babbling	-12.0363
▁barkeep	-12.0363
▁barmaid	-12.0363
▁barricade	-12.0363
▁beaumont	-12.0363
▁beiieve	-12.0363
▁biochemistry	-12.0363
▁birger	-12.0363
▁blackhawk	-12.0363
▁blasphem	-12.0363
▁blazing	-12.0363
▁bogatz	-12.0363
▁bottie	-12.0363
▁brava	-12.0363
▁brazil	-12.0363
▁brecht	-12.0363
▁brochure	-12.0363
▁cadillac	-12.0363
▁cambridge	-12.0363
▁castelcuto	-12.0363
▁castiron	-12.0363
▁catastrophe	-12.0363
▁catastrophic	-12.0363
▁cctv	-12.0363
▁centinela	-12.0363
▁centipede	-12.0363
▁cerdan	-12.0363
▁cheyenne	-12.0363
▁cicada	-12.0363
▁cilantro	-12.0363
▁claudette	-12.0363
▁claymoore	-12.0363
▁climax	-12.0363
▁cluster	-12.0363
▁colada	-12.0363
▁combustion	-12.0363
▁companies	-12.0363
▁companionship	-12.0363
▁comprende	-12.0363
▁concentration	-12.0363
▁confederate	-12.0363
▁consolation	-12.0363
▁continuing	-12.0363
▁copenhagen	-12.0363
▁cordelia	-12.0363
▁corpus	-12.0363
▁couscous	-12.0363
▁creaks	-12.0363
▁cuddly	-12.0363
▁cumberland	-12.0363
▁curfew	-12.0363
▁cushion	-12.0363
▁cyborg	-12.0363
▁dauthuille	-12.0363
▁deadlights	-12.0363
▁delacourt	-12.0363
▁delinquent	-12.0363
▁despair	-12.0363
▁detached	-12.0363
▁detox	-12.0363
▁devere	-12.0363
▁devotion	-12.0363
▁dillard	-12.0363
▁discredit	-12.0363
▁discrepanc	-12.0363
▁discretion	-12.0363
▁disintegrate	-12.0363
▁dissident	-12.0363
▁dolphin	-12.0363
▁doorknob	-12.0363
▁dossier	-12.0363
▁dynamic	-12.0363
▁eduard	-12.0363
▁eisteddfod	-12.0363
▁embezzle	-12.0363
▁emoji	-12.0363
▁enormous	-12.0363
▁episode	-12.0363
▁escaping	-12.0363
▁ethics	-12.0363
▁evacuation	-12.0363
▁evaporat	-12.0363
▁exfil	-12.0363
▁exotic	-12.0363
▁exposure	-12.0363
▁exquisite	-12.0363
▁extraordinary	-12.0363
▁falcon	-12.0363
▁fandango	-12.0363
▁fencing	-12.0363
▁flammable	-12.0363
▁florek	-12.0363
▁folklore	-12.0363
▁fonnesbechs	-12.0363
▁fortyseven	-12.0363
▁fragile	-12.0363
▁frankfurt	-12.0363
▁frederick	-12.0363
▁frogs	-12.0363
▁fulani	-12.0363
▁futile	-12.0363
▁gallagher	-12.0363
▁garlic	-12.0363
▁generosity	-12.0363
▁gilcrest	-12.0363
▁gilligan	-12.0363
▁giulio	-12.0363
▁glorious	-12.0363
▁graduation	-12.0363
▁gravediggers	-12.0363
▁gravy	-12.0363
▁grazie	-12.0363
▁greasy	-12.0363
▁grizzly	-12.0363
▁guinness	-12.0363
▁gulag	-12.0363
▁gurdy	-12.0363
▁hamilton	-12.0363
▁handicap	-12.0363
▁hiccup	-12.0363
▁hillbilly	-12.0363
▁hillsboro	-12.0363
▁horribly	-12.0363
▁housekeeping	-12.0363
▁hutchinson	-12.0363
▁hypothetical	-12.0363
▁impeccable	-12.0363
▁impulse	-12.0363
▁incapable	-12.0363
▁incision	-12.0363
▁incompetence	-12.0363
▁initiation	-12.0363
▁intact	-12.0363
▁iphone	-12.0363
▁irresponsible	-12.0363
▁isolate	-12.0363
▁isolation	-12.0363
▁jacuzzi	-12.0363
▁jukebox	-12.0363
▁kangaroo	-12.0363
▁kastagir	-12.0363
▁kintus	-12.0363
▁kodug	-12.0363
▁krystal	-12.0363
▁kurgan	-12.0363
▁lenient	-12.0363
▁limousine	-12.0363
▁lloyd	-12.0363
▁lonesome	-12.0363
▁macaw	-12.0363
▁mahjong	-12.0363
▁malfunction	-12.0363
▁marauders	-12.0363
▁matilda	-12.0363
▁mcdonnell	-12.0363
▁mcroberts	-12.0363
▁mcwilley	-12.0363
▁metaphysical	-12.0363
▁microwave	-12.0363
▁misjudged	-12.0363
▁montague	-12.0363
▁moravec	-12.0363
▁motorcycles	-12.0363
▁mozart	-12.0363
▁muriel	-12.0363
▁neutral	-12.0363
▁nifty	-12.0363
▁nightgown	-12.0363
▁nonetheless	-12.0363
▁norwegian	-12.0363
▁numerals	-12.0363
▁olivier	-12.0363
▁ongoing	-12.0363
▁onsite	-12.0363
▁outrageous	-12.0363
▁override	-12.0363
▁overwhelming	-12.0363
▁parachute	-12.0363
▁parachutists	-12.0363
▁parcel	-12.0363
▁parliament	-12.0363
▁patriarch	-12.0363
▁persuasive	-12.0363
▁pharmac	-12.0363
▁pinehurst	-12.0363
▁pivot	-12.0363
▁plastique	-12.0363
▁platinum	-12.0363
▁popcorn	-12.0363
▁portugal	-12.0363
▁portuguese	-12.0363
▁powaqa	-12.0363
▁premiere	-12.0363
▁probiem	-12.0363
▁proclaim	-12.0363
▁profane	-12.0363
▁promoter	-12.0363
▁prototype	-12.0363
▁provincial	-12.0363
▁psychotherapy	-12.0363
▁pumpernickel	-12.0363
▁puppet	-12.0363
▁rasmussen	-12.0363
▁reclinin	-12.0363
▁reduction	-12.0363
▁reestablish	-12.0363
▁regrettably	-12.0363
▁relentless	-12.0363
▁relocate	-12.0363
▁reluctant	-12.0363
▁reschedule	-12.0363
▁resemblance	-12.0363
▁resuscitat	-12.0363
▁retiring	-12.0363
▁reunite	-12.0363
▁revelation	-12.0363
▁ricochet	-12.0363
▁saliva	-12.0363
▁salvage	-12.0363
▁sandusky	-12.0363
▁sauerkraut	-12.0363
▁schoolteacher	-12.0363
▁scoundrel	-12.0363
▁scully	-12.0363
▁shortcuts	-12.0363
▁sleaz	-12.0363
▁snicker	-12.0363
▁specimen	-12.0363
▁stadium	-12.0363
▁stalker	-12.0363
▁steriliz	-12.0363
▁stubborn	-12.0363
▁suavemente	-12.0363
▁subconscious	-12.0363
▁suburbs	-12.0363
▁sugarbear	-12.0363
▁suriorule	-12.0363
▁teagardin	-12.0363
▁testicles	-12.0363
▁tinker	-12.0363
▁titanic	-12.0363
▁tminus	-12.0363
▁torpedo	-12.0363
▁torturing	-12.0363
▁transplant	-12.0363
▁tupelo	-12.0363
▁unanswered	-12.0363
▁uncommon	-12.0363
▁unconscious	-12.0363
▁ungrateful	-12.0363
▁uninvited	-12.0363
▁universal	-12.0363
▁unlicensed	-12.0363
▁unlimited	-12.0363
▁unnecessary	-12.0363
▁unpleasant	-12.0363
▁unprecedented	-12.0363
▁unsafe	-12.0363
▁unspeakabl	-12.0363
▁untrue	-12.0363
▁uppercut	-12.0363
▁vengeance	-12.0363
▁vinyl	-12.0363
▁violating	-12.0363
▁vitamin	-12.0363
▁vulgar	-12.0363
▁vulture	-12.0363
▁wardrobe	-12.0363
▁warfare	-12.0363
▁whichever	-12.0363
▁wifi	-12.0363
▁winstead	-12.0363
▁wisconsin	-12.0363
▁witkin	-12.0363
▁yamatoya	-12.0363
▁ziegler	-12.0363
▁bayonet	-12.0363
▁blowjob	-12.0363
▁blunder	-12.0363
▁blunt	-12.0363
▁graft	-12.0363
▁install	-12.0363
▁parasite	-12.0363
▁quarry	-12.0363
▁reassure	-12.0363
▁rolf	-12.0363
▁schnuff	-12.0363
▁scorn	-12.0363
▁singular	-12.0363
▁sovereign	-12.0363
▁symmetr	-12.0363
▁wannabe	-12.0363
▁analyst	-12.0363
▁apostle	-12.0363
▁blaze	-12.0363
▁cambodia	-12.0363
▁ccb	-12.0363
▁clamp	-12.0363
▁debut	-12.0363
▁discreet	-12.0363
▁essence	-12.0363
▁fascinated	-12.0363
▁flood	-12.0363
▁hulk	-12.0363
▁inflat	-12.0363
▁kersh	-12.0363
▁missouri	-12.0363
▁nuala	-12.0363
▁provision	-12.0363
▁purity	-12.0363
▁reckless	-12.0363
▁serpent	-12.0363
▁skag	-12.0363
▁snotty	-12.0363
▁stimul	-12.0363
▁submissi	-12.0363
▁vantage	-12.0363
▁verona	-12.0363
girdle	-12.0363
▁aroused	-12.0363
▁beemer	-12.0363
▁comprehensi	-12.0363
▁disclose	-12.0363
▁dresden	-12.0363
▁harald	-12.0363
▁intuiti	-12.0363
▁seyton	-12.0363
▁sonofa	-12.0363
▁stabbing	-12.0363
▁storsch	-12.0363
▁transatlantic	-12.0363
▁cardinal	-12.0363
▁conjur	-12.0363
▁crayon	-12.0363
▁crosby	-12.0363
▁dudley	-12.0363
▁herrera	-12.0363
▁imperial	-12.0363
▁kono	-12.0363
▁mayhem	-12.0363
▁swimsuit	-12.0363
▁taylor	-12.0363
▁toledo	-12.0363
▁trek	-12.0363
▁upwards	-12.0363
▁brogues	-12.0363
▁bulb	-12.0363
▁dnc	-12.0363
▁grasp	-12.0363
▁incoming	-12.0363
▁mitts	-12.0363
▁optimistic	-12.0363
▁rosina	-12.0363
▁santee	-12.0363
▁sculpture	-12.0363
▁whacamole	-12.0363
▁dwy	-12.0363
▁gottfried	-12.0363
▁spades	-12.0363
▁speculation	-12.0363
▁daywalker	-12.0363
▁pioneer	-12.0363
▁statistical	-12.0363
▁alexander	-12.0363
▁domingre	-12.0363
▁dvd	-12.0363
▁telegraph	-12.0363
▁archeology	-12.0363
▁banned	-12.0363
▁capsule	-12.0363
▁controversial	-12.0363
▁historian	-12.0363
▁irrelevant	-12.0363
▁trench	-12.0363
fraction	-12.0363
hereabout	-12.0363
▁cunningham	-12.0363
▁mandatory	-12.0363
▁millionaire	-12.0363
▁immense	-12.0363
▁scones	-12.0363
▁seventyfive	-12.0363
▁whatsapp	-12.0363
▁bodin	-12.0363
▁claws	-12.0363
▁solicit	-12.0363
▁stubbs	-12.0363
commerce	-12.0363
▁hitchhik	-12.0363
▁articulate	-12.0363
▁frequen	-12.0363
▁impostor	-12.0363
▁reinforcements	-12.0363
▁tayback	-12.0363
▁clanks	-12.0363
▁hardworking	-12.0363
▁kameron	-12.0363
▁transmission	-12.0363
▁troubie	-12.0363
▁whining	-12.0363
▁aggression	-12.0363
▁infer	-12.0363
▁libel	-12.0363
▁gorilla	-12.0363
▁hydrogen	-12.0363
▁meteor	-12.0363
▁revert	-12.0363
▁pip	-12.0363
▁tiptoe	-12.0363
▁intrude	-12.0363
▁wails	-12.0363
▁smores	-12.0363
▁clarence	-12.0363
▁hereafter	-12.0363
▁leonida	-12.0363
▁meditating	-12.0363
▁nanette	-12.0363
stricken	-12.0363
▁commie	-12.0363
▁arraignment	-12.0363
▁bloom	-12.0363
▁sanitize	-12.0363
▁coppers	-12.0363
▁psychology	-12.0363
▁imprisoned	-12.0363
▁proctologist	-12.0363
▁swimmer	-12.0363
▁firecracker	-12.0363
▁knack	-12.0363
▁recreat	-12.0363
▁bronze	-12.0363
▁desolat	-12.0363
▁lemonade	-12.0363
▁workstation	-12.0363
▁mooing	-12.0363
▁imprisonment	-12.0363
▁incompetent	-12.0363
▁rafferty	-12.0363
▁cruci	-12.0363
▁feature	-12.0363
▁reference	-12.0363
▁versace	-12.0363
▁greymouth	-12.0363
▁shaving	-12.0363
▁quickening	-12.0363
▁welder	-12.0363
▁persist	-12.0363
quoi	-12.0363
▁interference	-12.0363
▁splend	-12.0363
▁derail	-12.0363
▁theatrical	-12.0363
▁phoe	-12.0363
▁snapshot	-12.0363
▁cuddle	-12.0363
gamma	-12.0363
▁admonition	-12.0363
▁conservative	-12.0363
▁cupcake	-12.0363
▁descendants	-12.0363
▁scoot	-12.0363
▁bezel	-12.0363
▁bandages	-12.0363
▁holster	-12.0363
▁syl	-12.0363
▁virtually	-12.0363
▁feign	-12.0363
▁casualties	-12.0363
arriers	-12.0363
▁elsie	-12.0363
▁twentythree	-12.0363
▁holley	-12.0363
▁panera	-12.0363
▁bracelet	-12.0363
▁stingray	-12.0363
▁tusca	-12.0364
▁freud	-12.0364
▁typing	-12.0364
▁biology	-12.0364
▁tiara	-12.0364
▁hect	-12.0364
▁upperclass	-12.0364
▁disruptive	-12.0364
▁gymnast	-12.0364
▁holland	-12.0364
▁boozing	-12.0364
▁detonation	-12.0364
▁nabbed	-12.0364
▁hunchback	-12.0364
▁shady	-12.0364
▁cheque	-12.0364
▁napkin	-12.0364
▁wexler	-12.0364
▁conclusion	-12.0364
▁slab	-12.0364
▁looney	-12.0364
▁uglie	-12.0364
▁allege	-12.0364
▁madonna	-12.0364
▁underwater	-12.0364
▁ado	-12.0364
▁coursing	-12.0364
▁harj	-12.0364
▁verbal	-12.0364
▁vassar	-12.0364
▁cocksucking	-12.0364
▁subtle	-12.0364
▁fifthgrade	-12.0364
▁patron	-12.0364
▁rumba	-12.0364
rogue	-12.0364
▁exemption	-12.0364
▁meltdown	-12.0364
▁custommade	-12.0364
▁leftovers	-12.0364
▁earliest	-12.0364
▁blitz	-12.0364
▁pursuit	-12.0364
▁arctic	-12.0364
▁tow	-12.0364
▁webster	-12.0364
▁optimal	-12.0364
▁yeats	-12.0364
▁youngsters	-12.0364
▁knob	-12.0364
▁intercom	-12.0364
▁rabble	-12.0364
sensiti	-12.0364
▁expansive	-12.0364
▁balm	-12.0364
▁colace	-12.0364
▁dialect	-12.0364
▁samir	-12.0364
▁boomboom	-12.0364
▁gretta	-12.0364
▁undermine	-12.0364
▁kevlar	-12.0364
▁overlook	-12.0364
▁arena	-12.0364
▁byline	-12.0364
▁mumps	-12.0364
▁mystic	-12.0364
▁muttering	-12.0364
▁opium	-12.0364
▁vigor	-12.0364
▁ringworm	-12.0364
▁budget	-12.0364
leak	-12.0364
▁mandate	-12.0364
▁manipulative	-12.0364
orenzo	-12.0364
▁bliss	-12.0364
▁phenomenal	-12.0364
imistic	-12.0364
▁trinity	-12.0364
▁frantic	-12.0364
▁inconvenient	-12.0364
ucci	-12.0364
▁cutthroat	-12.0364
▁superficial	-12.0364
▁hugging	-12.0364
▁leper	-12.0364
▁cecilia	-12.0364
▁crazier	-12.0364
▁midday	-12.0364
▁whwhat	-12.0364
▁matchmaker	-12.0364
▁garland	-12.0364
nomination	-12.0365
▁pulp	-12.0365
▁offence	-12.0365
▁fortnight	-12.0365
▁alhh	-12.0365
▁boundaries	-12.0365
▁hippo	-12.0365
▁tendencies	-12.0365
▁degrad	-12.0365
▁collaboration	-12.0365
▁rooftop	-12.0365
▁movin	-12.0365
▁fastforward	-12.0365
retching	-12.0365
umpy	-12.0365
▁chud	-12.0365
▁castill	-12.0365
▁trait	-12.0365
posa	-12.0365
▁chestnut	-12.0365
▁exploitation	-12.0365
▁furious	-12.0365
▁interpretation	-12.0365
▁outward	-12.0365
▁piggy	-12.0365
itarian	-12.0365
▁valour	-12.0365
▁properties	-12.0365
▁jiggy	-12.0365
▁smokin	-12.0365
▁abide	-12.0365
▁liberties	-12.0365
▁veteran	-12.0365
▁leith	-12.0365
▁inspect	-12.0365
▁intolerance	-12.0365
▁habitat	-12.0366
▁detonator	-12.0366
▁cere	-12.0366
▁molecul	-12.0366
▁bullied	-12.0366
▁uncool	-12.0366
▁sidekick	-12.0366
▁scour	-12.0366
▁thyself	-12.0366
▁congressman	-12.0366
▁boycott	-12.0366
▁heartache	-12.0366
▁lodge	-12.0366
▁nasser	-12.0366
▁pervers	-12.0366
▁beheaded	-12.0366
▁ernie	-12.0366
▁hygiene	-12.0366
▁retrieve	-12.0366
▁broadway	-12.0366
▁excessive	-12.0366
▁basque	-12.0366
▁roddy	-12.0366
▁oak	-12.0366
▁ascot	-12.0366
▁rehearsal	-12.0366
▁salvat	-12.0366
▁paddle	-12.0366
▁slipping	-12.0366
▁ginger	-12.0366
▁forum	-12.0366
▁obli	-12.0366
▁buddh	-12.0366
▁cupboard	-12.0366
▁preferably	-12.0366
shakin	-12.0366
▁tidy	-12.0366
▁fiend	-12.0366
▁limo	-12.0366
▁paycheck	-12.0366
▁mijo	-12.0366
▁capitalist	-12.0366
▁witt	-12.0367
▁applies	-12.0367
▁tanis	-12.0367
▁specta	-12.0367
▁reign	-12.0367
▁fangs	-12.0367
▁cooch	-12.0367
▁drool	-12.0367
▁rosa	-12.0367
▁interpret	-12.0367
licious	-12.0367
▁nels	-12.0367
▁devout	-12.0367
▁dingus	-12.0367
ickets	-12.0367
▁nutty	-12.0367
▁retail	-12.0367
▁unarmed	-12.0367
▁addictive	-12.0367
▁chef	-12.0367
▁taunt	-12.0367
nroe	-12.0367
▁compassion	-12.0367
▁genov	-12.0367
▁roam	-12.0367
▁ingredient	-12.0368
▁racket	-12.0368
▁swine	-12.0368
▁hamlet	-12.0368
▁sicil	-12.0368
▁damas	-12.0368
▁weepin	-12.0368
▁swamp	-12.0368
▁discharged	-12.0368
▁delusional	-12.0368
▁translates	-12.0368
▁plow	-12.0368
▁bacon	-12.0368
▁erra	-12.0368
▁quant	-12.0368
▁dodo	-12.0368
▁hippie	-12.0368
elimina	-12.0369
▁meatball	-12.0369
▁bolo	-12.0369
▁tapped	-12.0369
▁obsession	-12.0369
hypno	-12.0369
▁equivalent	-12.0369
▁muzzle	-12.0369
▁probable	-12.0369
▁wyoming	-12.0369
▁churchill	-12.0369
▁tusk	-12.0369
rank	-12.0369
▁jonah	-12.0369
▁everett	-12.0369
▁cinder	-12.0369
▁keyboard	-12.0369
▁tasting	-12.0369
ropoli	-12.0369
uze	-12.0369
▁casing	-12.0369
▁glo	-12.0369
▁wring	-12.0369
▁fagan	-12.037
▁mixup	-12.037
▁whalen	-12.037
▁papi	-12.037
▁bloodpack	-12.037
▁slit	-12.037
▁pudding	-12.037
▁reflection	-12.037
▁crud	-12.037
▁strum	-12.037
▁refin	-12.037
▁starboard	-12.037
nenfeld	-12.037
▁dictator	-12.037
▁copyboy	-12.037
▁hardestworkin	-12.037
variabl	-12.037
▁charter	-12.037
▁mobile	-12.037
west	-12.037
▁combine	-12.037
▁overru	-12.037
▁mush	-12.037
▁nega	-12.037
▁artery	-12.0371
▁hopelessness	-12.0371
▁operated	-12.0371
▁outnumbered	-12.0371
▁sophisticated	-12.0371
▁bask	-12.0371
▁disappearance	-12.0371
▁fireplace	-12.0371
▁blackbird	-12.0372
▁salesman	-12.0372
▁prediction	-12.0372
▁yonder	-12.0372
▁risers	-12.0372
▁moran	-12.0372
beas	-12.0372
▁curti	-12.0372
▁magician	-12.0372
fari	-12.0372
▁elite	-12.0372
teau	-12.0372
▁rejoicing	-12.0373
▁trespassing	-12.0373
aux	-12.0373
▁departing	-12.0373
▁anxiety	-12.0373
▁nora	-12.0373
▁popularity	-12.0373
▁vend	-12.0373
▁sprawl	-12.0373
▁rail	-12.0373
▁cheerful	-12.0373
▁coordinating	-12.0373
▁vicar	-12.0374
▁arcad	-12.0374
▁eva	-12.0374
▁upro	-12.0374
▁additional	-12.0374
▁bruh	-12.0374
orris	-12.0374
▁finance	-12.0374
▁sneakers	-12.0374
▁valet	-12.0374
▁retro	-12.0374
▁brung	-12.0375
▁gambler	-12.0375
▁assum	-12.0375
▁tapping	-12.0375
▁graceland	-12.0375
▁reside	-12.0375
▁pox	-12.0375
▁rover	-12.0375
▁shant	-12.0376
▁gracie	-12.0376
▁bols	-12.0376
▁spur	-12.0376
▁calf	-12.0376
▁peak	-12.0376
▁distribution	-12.0376
barro	-12.0376
ranz	-12.0376
▁impos	-12.0376
▁logic	-12.0377
▁oldschool	-12.0377
▁mazel	-12.0377
ulous	-12.0377
▁weatherman	-12.0377
▁grossman	-12.0377
▁examiner	-12.0377
▁flushes	-12.0378
▁hardtop	-12.0378
▁slay	-12.0378
▁marksman	-12.0378
▁wallow	-12.0378
▁unwell	-12.0378
▁cities	-12.0378
▁algo	-12.0378
zier	-12.0378
▁coco	-12.0379
▁toil	-12.0379
▁footage	-12.0379
▁heip	-12.0379
▁establishment	-12.0379
▁pla	-12.0379
umber	-12.0379
▁awareness	-12.0379
▁gently	-12.038
▁loaf	-12.038
▁rubbing	-12.038
▁australian	-12.038
▁sparkle	-12.038
▁franklin	-12.038
ubu	-12.038
▁jig	-12.0381
▁knit	-12.0381
▁spri	-12.0381
▁jabbing	-12.0381
▁alcoholic	-12.0381
▁projector	-12.0381
▁abc	-12.0381
▁dried	-12.0381
▁truthfully	-12.0382
▁hola	-12.0382
▁nip	-12.0382
▁rally	-12.0383
▁cardio	-12.0383
▁swagger	-12.0383
▁candi	-12.0383
ologists	-12.0383
▁bryan	-12.0384
▁screwup	-12.0384
▁perv	-12.0384
▁quest	-12.0385
laine	-12.0385
▁maiden	-12.0385
▁stern	-12.0385
▁oliver	-12.0385
▁opie	-12.0385
▁fancie	-12.0385
▁ross	-12.0385
▁matchup	-12.0386
▁hooch	-12.0386
▁bangers	-12.0387
▁immortality	-12.0387
▁sham	-12.0387
▁machinery	-12.0387
uttering	-12.0387
▁tex	-12.0387
▁gigi	-12.0387
eken	-12.0388
▁sour	-12.0388
▁shagg	-12.0388
▁undo	-12.0388
▁altered	-12.0388
▁pubes	-12.0388
▁kyo	-12.0389
▁robin	-12.0389
▁hustler	-12.0389
▁meaningless	-12.039
lary	-12.039
▁luke	-12.039
▁commenc	-12.039
▁biggie	-12.039
▁soaring	-12.039
▁bluffing	-12.039
▁frightening	-12.039
▁highland	-12.039
▁insulting	-12.039
▁griggs	-12.0391
▁puncture	-12.0391
▁inspired	-12.0391
▁snowman	-12.0391
▁bolt	-12.0392
▁layout	-12.0392
▁philippe	-12.0393
▁hatch	-12.0393
▁dag	-12.0393
▁manpower	-12.0393
▁digest	-12.0394
▁jeopardized	-12.0394
▁supervised	-12.0394
▁shameful	-12.0395
▁chunky	-12.0395
▁hidin	-12.0395
▁solely	-12.0395
▁protective	-12.0396
▁warmup	-12.0396
▁dior	-12.0397
▁stry	-12.0397
▁midst	-12.0397
▁deliveries	-12.0397
▁realistic	-12.0398
▁produc	-12.0398
▁nono	-12.0398
damaging	-12.0399
▁sig	-12.0399
▁doubtful	-12.0399
fish	-12.0399
▁grilled	-12.0399
▁distracted	-12.0399
▁assembled	-12.04
▁soaked	-12.04
▁giveaway	-12.04
▁frontier	-12.0401
▁gent	-12.0401
tball	-12.0402
▁exiled	-12.0403
▁fitz	-12.0404
▁termin	-12.0404
▁admiring	-12.0405
orro	-12.0405
▁croquettes	-12.0405
▁merchants	-12.0405
▁muppets	-12.0405
▁pajamas	-12.0405
▁shackle	-12.0405
▁cameraman	-12.0405
▁eternally	-12.0405
▁piper	-12.0405
stopp	-12.0405
izer	-12.0406
▁chatty	-12.0406
▁dire	-12.0406
▁controlled	-12.0406
▁reopening	-12.0408
▁soaking	-12.0408
▁july	-12.0409
▁litter	-12.0409
▁salem	-12.0409
▁meow	-12.041
▁ken	-12.041
▁losses	-12.041
▁weeping	-12.0411
▁electrocuted	-12.0412
▁bench	-12.0412
▁lutz	-12.0412
▁esp	-12.0412
▁robe	-12.0412
▁workroom	-12.0413
▁mall	-12.0413
inch	-12.0414
▁hospitality	-12.0414
▁savagely	-12.0415
▁hardware	-12.0415
▁vig	-12.0416
▁switches	-12.0418
▁yesses	-12.0418
▁invad	-12.0419
▁neve	-12.0419
▁cultivate	-12.0419
▁fatass	-12.0421
▁hunk	-12.0422
▁arman	-12.0422
▁sage	-12.0423
addy	-12.0423
▁shitbird	-12.0423
▁alar	-12.0424
▁located	-12.0425
▁sprinkler	-12.0425
▁identifying	-12.0426
▁disappointing	-12.0426
▁revealed	-12.0428
ngto	-12.0429
▁unw	-12.043
▁gunfighter	-12.043
▁assured	-12.043
▁lice	-12.0431
onia	-12.0432
▁shutting	-12.0432
▁render	-12.0432
▁freezer	-12.0433
disclosure	-12.0434
▁sung	-12.0434
▁suspiciously	-12.0435
▁foy	-12.0439
▁painfully	-12.0439
▁blackout	-12.044
▁bravest	-12.0442
▁outsiders	-12.0442
rres	-12.0442
▁compel	-12.0443
▁snitched	-12.0443
▁doorway	-12.0444
▁hunger	-12.0445
▁unlikely	-12.0445
▁howling	-12.0445
ope	-12.0447
▁bowler	-12.0447
▁baron	-12.0449
▁smartest	-12.045
▁senseless	-12.045
▁dickies	-12.0452
▁chicky	-12.0453
▁halfass	-12.0453
▁imitating	-12.0453
▁loosen	-12.0454
▁brid	-12.0454
▁drafted	-12.0458
▁launched	-12.0458
▁freakin	-12.0459
▁mounting	-12.0462
▁boner	-12.0463
▁summoning	-12.0463
▁trin	-12.0463
▁raging	-12.0464
▁tuned	-12.0465
▁irony	-12.0469
▁weaker	-12.0469
▁sass	-12.047
▁pisses	-12.047
▁corrupted	-12.0472
▁hiking	-12.0473
▁dearest	-12.0473
▁ara	-12.0473
▁brighter	-12.0473
▁absc	-12.0473
▁fantasiz	-12.0474
▁generate	-12.0474
▁starve	-12.0475
▁accountant	-12.0476
▁slamme	-12.0476
▁confines	-12.0477
▁scissors	-12.0477
▁daughterinlaws	-12.0477
▁robbers	-12.0477
▁negotiations	-12.0477
▁rud	-12.0478
▁ridin	-12.0479
▁restraints	-12.0479
▁expanding	-12.048
etz	-12.048
▁bali	-12.048
▁carriers	-12.0481
▁dryer	-12.0481
▁chaser	-12.0482
▁backyard	-12.0483
▁posh	-12.0484
▁thro	-12.0485
▁hackers	-12.0486
▁manifested	-12.0487
▁invested	-12.0487
atory	-12.0487
▁mayate	-12.0487
▁outer	-12.0488
▁owl	-12.0491
▁clothesline	-12.0492
▁elde	-12.0493
▁landline	-12.0493
▁folded	-12.0493
▁judgement	-12.0494
▁lani	-12.0494
ucking	-12.0495
▁observed	-12.0495
▁tenor	-12.0496
pool	-12.0496
▁dui	-12.0496
▁swelling	-12.0497
▁veter	-12.0498
arggh	-12.0499
▁rhodes	-12.0499
fsb	-12.0504
▁demanded	-12.0505
▁cooker	-12.0509
▁wag	-12.0509
asm	-12.0509
▁conform	-12.0512
▁maintaining	-12.0516
▁applying	-12.0516
▁wrecked	-12.0516
▁launcher	-12.0517
▁concentrated	-12.0519
hop	-12.052
▁bundle	-12.0521
▁sinking	-12.0521
▁shadowing	-12.0524
▁ciay	-12.0524
▁emergenc	-12.0527
▁scarie	-12.0527
figure	-12.0527
▁docking	-12.0529
▁reviewed	-12.0531
▁tubing	-12.0532
pering	-12.0532
bility	-12.0534
▁skipping	-12.0534
▁lana	-12.0534
▁dialed	-12.0536
▁flyin	-12.0537
▁golfer	-12.054
▁platter	-12.054
▁pitt	-12.0541
astic	-12.0546
▁sheeps	-12.0546
▁bron	-12.0548
▁announced	-12.0549
inlaw	-12.055
▁concludes	-12.0551
▁gano	-12.0551
▁pearls	-12.0551
▁barrys	-12.0551
▁painkillers	-12.0551
▁politicians	-12.0551
▁transsexuals	-12.0551
▁straps	-12.0551
▁kegs	-12.0552
▁dresser	-12.0552
ida	-12.0555
▁redeem	-12.0557
endangerment	-12.0559
▁squeezed	-12.0564
▁immigrat	-12.0564
nquish	-12.0565
▁locker	-12.0569
owning	-12.057
▁dames	-12.057
martial	-12.0571
▁blackie	-12.0572
▁admir	-12.0573
▁dialing	-12.0574
▁stirr	-12.058
dad	-12.0583
▁donate	-12.0586
link	-12.0586
▁sailing	-12.0587
▁awarded	-12.0589
▁collected	-12.059
rdog	-12.0591
raz	-12.0593
▁greatness	-12.0595
▁liberate	-12.0595
ados	-12.0596
▁goof	-12.0597
nese	-12.0598
children	-12.0601
▁han	-12.0601
▁defeating	-12.0606
bags	-12.0623
pur	-12.0624
▁resisting	-12.0625
▁portraits	-12.0627
▁fists	-12.0627
▁infants	-12.0627
▁douglass	-12.0627
▁organizations	-12.0627
▁receipts	-12.0627
arin	-12.0627
▁cigars	-12.0627
▁bodyguards	-12.0627
▁implants	-12.0627
nza	-12.0629
▁kidneys	-12.0635
▁albania	-12.0636
▁pasta	-12.0636
▁damnation	-12.0638
▁appealing	-12.0643
▁regarding	-12.0643
▁peers	-12.0644
▁ale	-12.0646
sitting	-12.0648
▁xra	-12.0649
▁dots	-12.0652
▁ruled	-12.0652
righteous	-12.0654
▁dreamt	-12.0654
▁shithead	-12.0669
▁pant	-12.0671
▁muck	-12.0671
▁bailed	-12.0677
obedi	-12.0679
▁scann	-12.0682
▁touches	-12.0688
▁batch	-12.0695
▁yorker	-12.0696
▁flashing	-12.0698
▁concu	-12.0699
▁diapers	-12.0702
▁bruises	-12.0702
▁flaws	-12.0702
▁biscuits	-12.0702
▁decades	-12.0702
▁grannys	-12.0702
▁imbeciles	-12.0702
▁privileges	-12.0702
▁pinkys	-12.0703
▁sling	-12.0703
▁chimi	-12.0704
▁vaca	-12.0705
▁totaled	-12.0709
▁lil	-12.071
aching	-12.0711
hopping	-12.0712
▁rushing	-12.0716
▁speeding	-12.0717
▁karla	-12.0719
▁poorer	-12.0721
▁circums	-12.0724
▁cont	-12.0724
▁howdy	-12.0727
▁weirder	-12.0738
determin	-12.0742
▁remov	-12.0743
▁lah	-12.0751
▁staged	-12.0765
▁jap	-12.077
▁congregat	-12.0771
▁spaced	-12.0772
neys	-12.0776
▁tshirts	-12.0779
▁coroners	-12.0779
▁summons	-12.078
▁gia	-12.0784
ragged	-12.0784
▁jud	-12.0784
▁lengths	-12.0785
▁rider	-12.0801
▁bever	-12.0802
▁amend	-12.0803
▁tele	-12.0803
▁bare	-12.0804
▁unwin	-12.0805
▁rockin	-12.0807
▁paste	-12.0814
ethe	-12.0821
chez	-12.0822
yman	-12.083
▁breakin	-12.0833
▁pane	-12.0841
▁spreader	-12.0841
▁humane	-12.0856
▁hustl	-12.0856
▁coed	-12.0859
▁hydro	-12.0861
torium	-12.087
▁disgraceful	-12.0872
holm	-12.0875
▁gregor	-12.0878
▁notch	-12.0883
▁shootin	-12.0891
▁busta	-12.0891
▁standin	-12.0896
▁sparkl	-12.0898
non	-12.0899
▁happenin	-12.0917
amorous	-12.0927
justin	-12.0937
du	-12.0954
▁psychic	-12.0969
▁grim	-12.0971
▁beneficiar	-12.0987
play	-12.1011
▁ignit	-12.1013
▁samo	-12.1017
▁fac	-12.1026
▁stra	-12.1043
borate	-12.1046
cam	-12.105
▁smi	-12.1052
ebb	-12.1066
nnies	-12.1075
okie	-12.1079
ondo	-12.1082
▁vac	-12.1084
disposition	-12.1093
▁bathe	-12.1116
▁stor	-12.112
vial	-12.1122
▁soci	-12.1125
flop	-12.1137
▁bringin	-12.1147
iety	-12.115
▁boog	-12.1165
▁scr	-12.1179
▁ave	-12.1188
tle	-12.1192
ambie	-12.1196
hen	-12.1206
ignora	-12.1221
otics	-12.1223
alization	-12.124
loo	-12.1256
rice	-12.1262
▁priorit	-12.1275
pit	-12.1287
▁captiv	-12.129
eah	-12.1294
▁chinch	-12.13
▁jona	-12.1301
oul	-12.1302
▁bur	-12.1328
▁haze	-12.1351
▁complic	-12.1354
stable	-12.1362
mashed	-12.1366
tches	-12.1374
▁zipp	-12.1375
▁iit	-12.138
▁tearful	-12.1422
▁improvi	-12.1427
licity	-12.1446
lette	-12.145
▁dressmak	-12.1461
▁investigat	-12.1471
ameter	-12.1479
▁replicat	-12.152
▁sco	-12.1558
▁epip	-12.156
romania	-12.156
daddy	-12.1575
▁tee	-12.1579
▁putz	-12.1607
evi	-12.1616
▁pursue	-12.1636
rug	-12.1666
▁buda	-12.169
anda	-12.1694
▁kl	-12.1744
rine	-12.176
fat	-12.177
appella	-12.1774
cier	-12.1797
▁gallo	-12.1799
clusion	-12.1817
▁advi	-12.1829
▁armor	-12.186
dios	-12.1897
isse	-12.1912
▁quai	-12.1959
good	-12.1962
teres	-12.1981
ubi	-12.2003
siders	-12.204
uns	-12.2049
▁triple	-12.2101
ige	-12.2102
▁evolve	-12.2109
▁traumatize	-12.2112
▁spl	-12.2115
cast	-12.2145
bul	-12.2156
witz	-12.2167
zane	-12.2178
logist	-12.2188
twothree	-12.2198
nberg	-12.2204
▁liga	-12.2208
▁descen	-12.2218
▁select	-12.2219
▁simulat	-12.223
due	-12.2249
ctor	-12.2313
rena	-12.2336
▁chai	-12.2367
iate	-12.2476
▁www	-12.2497
▁perpetu	-12.2525
▁prim	-12.2558
cant	-12.2603
▁comb	-12.2629
▁reco	-12.2632
▁compromise	-12.2669
ologi	-12.2691
▁mixe	-12.2714
▁minorit	-12.2718
rican	-12.2757
ads	-12.2774
three	-12.2794
▁gutt	-12.2813
▁dista	-12.2828
▁biochemi	-12.2834
alltime	-12.2854
▁varn	-12.2856
icence	-12.2891
▁alter	-12.2903
lump	-12.2913
misunderstanding	-12.2923
▁mur	-12.293
melon	-12.2933
▁reli	-12.294
▁fli	-12.2968
▁agita	-12.2984
▁bubb	-12.3007
▁southside	-12.3036
▁simul	-12.3049
▁cru	-12.305
▁capt	-12.3053
▁forge	-12.3062
▁inv	-12.3081
▁scrape	-12.3104
cage	-12.3115
▁demonstrat	-12.3121
rath	-12.3125
▁dodd	-12.3133
▁drea	-12.3149
mire	-12.3154
active	-12.3154
memor	-12.3174
▁kuz	-12.3211
▁stri	-12.3216
ight	-12.3222
ambi	-12.3234
rose	-12.3249
▁sem	-12.3274
▁ironic	-12.3321
▁clari	-12.3329
▁mai	-12.3367
▁lig	-12.3396
vast	-12.3406
inary	-12.3424
▁dau	-12.3425
▁mala	-12.3453
▁prostitut	-12.3472
olding	-12.3492
acht	-12.3498
isch	-12.3515
inari	-12.3523
▁clar	-12.3539
dini	-12.3601
hoohoo	-12.3658
tagoni	-12.3697
eau	-12.3727
randa	-12.3773
▁comme	-12.3789
▁lingeri	-12.3795
▁shar	-12.3795
uous	-12.3802
▁manipulate	-12.3803
▁exhaust	-12.3832
onde	-12.3843
traction	-12.3873
▁twentyf	-12.388
east	-12.3882
burg	-12.3895
isten	-12.3904
▁aaaa	-12.3954
▁journalis	-12.4006
▁myr	-12.4021
▁baffl	-12.4024
▁ref	-12.4075
indi	-12.4109
til	-12.4112
ographer	-12.4136
▁rea	-12.4197
▁nno	-12.4203
▁heroic	-12.4226
nky	-12.4241
phobic	-12.425
▁justi	-12.4279
roz	-12.4292
wley	-12.4322
ncy	-12.4324
older	-12.4345
ranian	-12.4356
ivity	-12.4363
ggy	-12.4375
▁ru	-12.4378
▁beneficia	-12.4428
▁perc	-12.4446
eddy	-12.4459
quality	-12.4462
dental	-12.4479
izzi	-12.4484
▁amoro	-12.4504
ugged	-12.4538
▁dab	-12.4539
▁implie	-12.4564
▁hustlin	-12.4576
▁prima	-12.4579
rule	-12.4602
▁memo	-12.4622
home	-12.4654
tripping	-12.4673
▁draggin	-12.4673
▁rul	-12.4676
unde	-12.4677
rub	-12.4703
▁nep	-12.4704
horn	-12.4731
look	-12.4737
win	-12.477
ool	-12.4819
▁stee	-12.4852
love	-12.4863
▁smok	-12.4886
scope	-12.4887
▁digit	-12.4895
▁cyn	-12.4903
upac	-12.4905
ncies	-12.4917
teful	-12.4918
▁capp	-12.4933
▁alban	-12.4933
▁eligib	-12.4934
▁rosemon	-12.4951
burner	-12.4953
▁pec	-12.4956
law	-12.4958
oval	-12.5005
acted	-12.5033
▁divers	-12.5036
bber	-12.505
▁endanger	-12.505
▁brit	-12.5053
scene	-12.5054
perative	-12.5061
tically	-12.5062
luck	-12.5065
notno	-12.5075
kel	-12.5077
▁rust	-12.5079
lagged	-12.5085
▁buff	-12.5086
▁unde	-12.5088
▁specializ	-12.5096
moving	-12.5104
▁diagno	-12.5104
▁accus	-12.5105
▁fideli	-12.511
▁burg	-12.5113
illian	-12.5122
deemed	-12.5123
hard	-12.5124
pressed	-12.5137
ulation	-12.5138
▁neuro	-12.514
stated	-12.5144
▁insult	-12.5147
wish	-12.5152
▁dribbl	-12.5154
turned	-12.5156
▁robber	-12.5162
▁ohhh	-12.5171
▁scissor	-12.5179
▁outrun	-12.518
▁confine	-12.5182
▁fantasi	-12.5184
▁stutter	-12.5186
▁carrier	-12.5187
▁requir	-12.5187
▁laxative	-12.5188
▁seatbelt	-12.5188
▁chord	-12.5189
▁daughterinlaw	-12.5189
▁negotiation	-12.519
▁eyebrow	-12.5192
▁fingerprint	-12.5193
▁forensic	-12.5195
▁yankee	-12.5195
▁kilometer	-12.5195
▁shank	-12.5198
zero	-12.5198
▁passenger	-12.5199
▁translati	-12.5201
▁bollock	-12.5202
▁brake	-12.5208
▁congratulation	-12.5209
▁restraint	-12.5219
▁expression	-12.5219
▁carrie	-12.522
pukes	-12.5222
▁levit	-12.5226
itating	-12.5226
▁sarcas	-12.5228
ioca	-12.524
▁hacker	-12.5245
▁barri	-12.526
▁virtu	-12.5261
anges	-12.5262
▁bundl	-12.5263
▁valentin	-12.5265
power	-12.5276
▁cooi	-12.5276
▁gunfight	-12.5277
inning	-12.5278
▁insur	-12.528
▁suff	-12.528
▁nur	-12.5282
cake	-12.5283
▁reserv	-12.5284
▁frighten	-12.5285
tech	-12.529
ching	-12.5291
▁consum	-12.5292
held	-12.5292
▁achiev	-12.5293
puncher	-12.5294
▁refu	-12.5295
▁consul	-12.5296
▁urina	-12.5299
▁cul	-12.5302
▁overdo	-12.5303
▁receiv	-12.5305
egg	-12.5308
▁exaggerat	-12.531
lord	-12.5312
▁dispos	-12.5312
▁anesthesi	-12.5312
ikov	-12.5314
▁tract	-12.5314
▁propos	-12.5317
▁sacrific	-12.5317
▁locat	-12.5319
▁bluff	-12.532
friend	-12.532
▁thump	-12.5321
▁mig	-12.5323
▁blam	-12.5323
▁stinkin	-12.5323
▁annoy	-12.5324
▁injur	-12.5326
▁snatch	-12.5326
▁colum	-12.5326
egitimate	-12.5326
▁clink	-12.5327
▁promis	-12.5327
▁sleepwalk	-12.5328
grams	-12.5328
▁dismiss	-12.5328
▁conque	-12.533
▁scatter	-12.533
walk	-12.5331
▁surround	-12.5331
▁dani	-12.5331
woman	-12.5331
aggering	-12.5331
▁luc	-12.5331
▁inclin	-12.5333
whippin	-12.5333
plicate	-12.5334
▁recon	-12.5335
will	-12.5335
father	-12.5335
loaf	-12.5336
observed	-12.5336
rubbing	-12.5336
dressed	-12.5336
hunt	-12.5336
print	-12.5336
worm	-12.5336
shore	-12.5337
qualified	-12.5338
craft	-12.5338
forward	-12.5338
proof	-12.5338
writer	-12.5338
divided	-12.5338
mistress	-12.5338
flavor	-12.5338
gazza	-12.5338
wheels	-12.5338
front	-12.5338
struck	-12.5338
flies	-12.5338
flake	-12.5339
identified	-12.5339
concert	-12.5339
structure	-12.5339
▁humiliate	-12.5339
▁persuade	-12.5339
▁prejudice	-12.5339
junkie	-12.5339
cursed	-12.5339
climate	-12.5339
skirt	-12.5339
choke	-12.5339
organized	-12.5339
cannon	-12.5339
construction	-12.5339
piace	-12.5339
circle	-12.5339
stress	-12.5339
management	-12.5339
prison	-12.5339
wives	-12.5339
icky	-12.5339
johnson	-12.5339
ladder	-12.5339
belly	-12.5339
mmhmm	-12.5339
third	-12.5339
debt	-12.5339
national	-12.5339
spring	-12.5339
thirty	-12.5339
available	-12.534
picking	-12.534
period	-12.534
possibly	-12.534
practice	-12.534
understood	-12.534
knock	-12.534
shooter	-12.534
court	-12.534
social	-12.534
affect	-12.534
christmas	-12.534
dealing	-12.534
death	-12.534
hundred	-12.534
juan	-12.534
funny	-12.534
deep	-12.534
married	-12.534
motive	-12.534
people	-12.534
yearold	-12.534
programme	-12.534
imbo	-12.534
deliver	-12.534
corrupti	-12.534
century	-12.534
when	-12.5341
crack	-12.5341
south	-12.5341
focused	-12.5341
bound	-12.5341
weight	-12.5342
▁acquire	-12.5342
letting	-12.5342
view	-12.5342
pitch	-12.5342
henry	-12.5342
▁educate	-12.5342
brand	-12.5343
glow	-12.5343
lenced	-12.5343
▁fuzz	-12.5344
▁astrolog	-12.5344
▁paralyze	-12.5344
large	-12.5344
▁variet	-12.5344
▁depresse	-12.5345
robbing	-12.5345
acting	-12.5345
organic	-12.5345
▁soar	-12.5345
chester	-12.5345
cool	-12.5345
chang	-12.5346
wick	-12.5346
▁whisk	-12.5346
▁predict	-12.5346
crosse	-12.5347
apple	-12.5347
▁polic	-12.5347
haul	-12.5347
▁should	-12.5347
▁monaster	-12.5347
▁wond	-12.5347
gression	-12.5347
▁grenad	-12.5347
fix	-12.5347
etched	-12.5348
▁energ	-12.5348
▁communicat	-12.5348
▁authorize	-12.5348
puff	-12.5348
drive	-12.5348
▁shag	-12.5349
▁advertis	-12.5349
opened	-12.5349
jet	-12.5349
▁angri	-12.5349
tune	-12.535
today	-12.535
ittl	-12.535
exchange	-12.535
type	-12.535
▁financ	-12.5351
▁consistent	-12.5351
image	-12.5351
▁dictat	-12.5351
liver	-12.5351
▁flog	-12.5351
▁exaggerate	-12.5353
paid	-12.5353
▁apprecia	-12.5353
▁instruct	-12.5354
▁contribut	-12.5354
▁recip	-12.5354
▁activate	-12.5354
▁disast	-12.5354
▁deput	-12.5355
▁mute	-12.5355
▁comput	-12.5355
heel	-12.5355
imated	-12.5355
killer	-12.5356
▁carpent	-12.5356
▁horri	-12.5356
personal	-12.5356
▁litera	-12.5356
▁russ	-12.5356
wayne	-12.5356
▁profess	-12.5356
wind	-12.5357
▁isle	-12.5357
▁organis	-12.5357
▁devou	-12.5357
▁arrogan	-12.5357
▁bulgaria	-12.5357
diary	-12.5357
▁pregnan	-12.5357
check	-12.5357
▁virgi	-12.5358
▁tomato	-12.5358
▁hurr	-12.5358
▁branch	-12.5358
▁rehears	-12.5358
▁exhal	-12.5358
vald	-12.5358
▁merc	-12.5359
▁morocc	-12.5359
start	-12.5359
▁literal	-12.5359
scale	-12.536
lucky	-12.536
▁collaborat	-12.536
▁interact	-12.536
▁evaluat	-12.536
forest	-12.536
▁economi	-12.536
advert	-12.536
rsten	-12.536
raised	-12.536
▁easie	-12.5361
residential	-12.5361
▁mutt	-12.5361
▁chasin	-12.5361
▁definite	-12.5361
lades	-12.5361
esthetic	-12.5361
▁opportun	-12.5361
nounced	-12.5361
▁disrupt	-12.5361
▁tendenc	-12.5361
▁tilde	-12.5362
▁integr	-12.5362
▁convent	-12.5362
ecutive	-12.5362
mmit	-12.5362
▁ambitio	-12.5362
ckenzie	-12.5362
depress	-12.5362
▁correspond	-12.5362
▁influen	-12.5362
▁whwh	-12.5362
▁curio	-12.5362
emption	-12.5362
▁crucifi	-12.5362
nsense	-12.5362
▁leisure	-12.5362
▁darlin	-12.5362
marie	-12.5362
recracker	-12.5362
banger	-12.5362
▁confide	-12.5362
▁reproduc	-12.5363
solute	-12.5363
▁terre	-12.5363
▁exemp	-12.5363
▁neglig	-12.5363
▁nichol	-12.5363
▁architect	-12.5363
joyed	-12.5363
▁reinforce	-12.5363
▁vladi	-12.5363
sustain	-12.5363
uuuuu	-12.5363
▁cheepcheepcheep	-12.5363
▁engender	-12.5363
▁gruesome	-12.5363
▁manufacture	-12.5363
▁margin	-12.5363
▁misogyn	-12.5363
▁unsheath	-12.5363
again	-12.5363
amphetamine	-12.5363
andahalf	-12.5363
avodsk	-12.5363
coeur	-12.5363
dorfe	-12.5363
enlighten	-12.5363
finnan	-12.5363
imentary	-12.5363
intelligible	-12.5363
loweruppermiddle	-12.5363
nhausen	-12.5363
nourishment	-12.5363
▁abbott	-12.5363
▁abducted	-12.5363
▁abduction	-12.5363
▁abreast	-12.5363
▁accompan	-12.5363
▁acknowledgment	-12.5363
▁admonish	-12.5363
▁aerosmith	-12.5363
▁afeard	-12.5363
▁afghan	-12.5363
▁agamemnon	-12.5363
▁aggressor	-12.5363
▁agrarian	-12.5363
▁airconditioning	-12.5363
▁allamerican	-12.5363
▁alzheimers	-12.5363
▁ambassador	-12.5363
▁ambivalent	-12.5363
▁anatomy	-12.5363
▁annehelene	-12.5363
▁anointe	-12.5363
▁antipsychotic	-12.5363
▁appetizer	-12.5363
▁apprentice	-12.5363
▁appropriation	-12.5363
▁asparagus	-12.5363
▁asphyxiat	-12.5363
▁association	-12.5363
▁asswipe	-12.5363
▁astute	-12.5363
▁augment	-12.5363
▁avocado	-12.5363
▁bacteria	-12.5363
▁baklava	-12.5363
▁balalaika	-12.5363
▁baltimore	-12.5363
▁baptis	-12.5363
▁bartending	-12.5363
▁bazooka	-12.5363
▁beaulieu	-12.5363
▁beerguzzling	-12.5363
▁belgium	-12.5363
▁berkeley	-12.5363
▁bestseller	-12.5363
▁beyonce	-12.5363
▁bloodstain	-12.5363
▁bluebell	-12.5363
▁bluray	-12.5363
▁bordon	-12.5363
▁bottega	-12.5363
[...]
