<unk>	0
<s>	0
</s>	0
s	-2.96709
e	-3.93555
t	-4.05898
ing	-4.10268
d	-4.3231
y	-4.38905
ed	-4.40048
n	-4.44979
p	-4.608
o	-4.65298
a	-4.69285
l	-4.71866
r	-4.7236
er	-4.77355
▁	-4.78915
i	-4.81085
c	-4.84612
▁im	-4.93225
m	-4.94686
u	-5.02227
b	-5.0491
in	-5.06719
ar	-5.09939
▁dont	-5.10092
▁go	-5.11476
▁know	-5.11872
g	-5.15025
or	-5.16093
▁b	-5.17114
▁p	-5.26707
al	-5.2825
▁s	-5.28481
▁get	-5.32727
le	-5.33206
f	-5.42403
▁right	-5.45213
▁come	-5.46816
on	-5.47089
▁t	-5.47516
▁l	-5.48297
h	-5.5166
it	-5.52835
▁like	-5.53246
k	-5.54074
ly	-5.54382
▁youre	-5.54902
en	-5.55965
at	-5.57105
v	-5.58214
▁f	-5.58486
▁c	-5.59008
▁oh	-5.59954
▁na	-5.60119
▁one	-5.61488
▁got	-5.62329
ch	-5.63712
▁yeah	-5.63962
w	-5.64825
▁re	-5.66705
▁a	-5.67972
▁well	-5.68466
▁see	-5.72816
▁thats	-5.76656
▁us	-5.78825
ri	-5.80634
an	-5.82672
▁okay	-5.83782
re	-5.84875
▁de	-5.85428
es	-5.85522
▁good	-5.86104
ur	-5.86985
▁man	-5.87064
il	-5.88577
▁want	-5.88816
▁gon	-5.91824
st	-5.95298
▁look	-5.96145
▁think	-5.97153
ent	-5.97991
▁back	-5.98101
th	-6.01107
▁take	-6.01645
▁st	-6.03423
ce	-6.03717
ll	-6.05557
ve	-6.06888
▁yes	-6.0847
▁time	-6.09215
▁ch	-6.09296
▁co	-6.09423
▁w	-6.11706
▁say	-6.1315
▁hey	-6.14919
▁e	-6.15501
ion	-6.15695
ic	-6.16126
▁hes	-6.1689
ra	-6.16898
▁going	-6.17499
▁need	-6.20147
▁g	-6.21683
ow	-6.23341
▁ma	-6.24225
am	-6.25347
ie	-6.25926
▁ro	-6.26042
▁cant	-6.26072
▁sh	-6.26738
▁ill	-6.27353
▁thank	-6.2737
▁tell	-6.27424
ate	-6.28042
el	-6.29852
ter	-6.30331
▁in	-6.32737
▁k	-6.33183
un	-6.33228
ne	-6.36346
ro	-6.37962
la	-6.38307
▁o	-6.389
▁make	-6.40748
ol	-6.41121
▁m	-6.41247
est	-6.41582
te	-6.42449
z	-6.43015
▁way	-6.43199
▁would	-6.44307
ation	-6.44316
▁let	-6.44509
x	-6.44775
▁mean	-6.45974
▁be	-6.46255
▁j	-6.48064
▁could	-6.48358
ver	-6.48391
▁love	-6.49166
▁sir	-6.49632
et	-6.49743
▁please	-6.50514
▁sorry	-6.52807
▁th	-6.53008
us	-6.53295
▁ta	-6.53353
im	-6.5348
▁never	-6.55463
▁lets	-6.56195
sh	-6.56273
▁pa	-6.58345
▁ra	-6.5847
▁un	-6.58675
▁really	-6.58871
▁wait	-6.58947
▁something	-6.58995
▁con	-6.59986
as	-6.60077
ad	-6.60693
▁se	-6.61819
▁give	-6.62791
▁work	-6.62883
▁fa	-6.63539
▁sp	-6.64103
ul	-6.6429
▁h	-6.64394
ell	-6.64779
ck	-6.64929
▁two	-6.65368
end	-6.65533
▁ha	-6.66163
▁whats	-6.66334
▁theres	-6.66561
▁su	-6.6683
ke	-6.6726
▁mr	-6.67275
▁god	-6.6786
▁do	-6.68692
▁bo	-6.6929
▁d	-6.70104
▁po	-6.70154
▁r	-6.70222
▁ex	-6.70623
▁little	-6.70753
age	-6.71165
▁he	-6.71526
▁didnt	-6.71639
▁ca	-6.71753
▁uh	-6.72553
▁ho	-6.72888
me	-6.74534
▁kill	-6.7458
▁day	-6.74604
um	-6.75022
▁tr	-6.7541
vi	-6.76148
▁people	-6.76324
▁car	-6.76737
ers	-6.76985
▁so	-6.77007
▁hi	-6.77586
ant	-6.77787
▁ive	-6.78816
ick	-6.79498
▁stop	-6.7951
▁wh	-6.79534
ry	-6.79606
▁help	-6.79861
ot	-6.80545
▁sc	-6.81641
ig	-6.81705
ight	-6.8193
▁thing	-6.82212
▁mi	-6.8267
▁fl	-6.82704
▁v	-6.82771
ut	-6.83533
▁new	-6.84229
▁dr	-6.84364
ard	-6.85149
▁keep	-6.85285
▁call	-6.85753
▁even	-6.86135
▁lo	-6.86833
▁ba	-6.87798
and	-6.88197
is	-6.88772
ist	-6.9172
▁da	-6.91916
▁la	-6.91974
▁theyre	-6.93709
if	-6.94198
▁name	-6.9445
ive	-6.9456
▁said	-6.94619
▁pro	-6.94663
▁shes	-6.95812
▁great	-6.96163
▁home	-6.96334
oo	-6.9867
▁much	-6.99471
▁pre	-7.0006
de	-7.00475
ag	-7.00795
▁find	-7.00856
om	-7.00991
▁mo	-7.0193
▁mar	-7.01934
▁li	-7.02078
▁put	-7.02361
▁life	-7.02719
▁ne	-7.02914
▁night	-7.03164
▁to	-7.05035
id	-7.05245
▁sure	-7.05743
▁al	-7.05785
ma	-7.06187
▁talk	-7.06202
ies	-7.06899
▁still	-7.06967
op	-7.06999
▁first	-7.07318
li	-7.07659
ment	-7.08458
▁feel	-7.0898
▁friend	-7.10079
▁n	-7.10478
▁must	-7.10654
▁hand	-7.10827
▁nothing	-7.10831
ge	-7.1104
ty	-7.11148
▁stay	-7.12384
▁boy	-7.1241
▁di	-7.12572
▁long	-7.13359
qu	-7.14132
▁show	-7.14565
▁gr	-7.15201
▁me	-7.15585
▁anything	-7.16637
▁no	-7.17023
▁away	-7.17571
▁cl	-7.17723
▁for	-7.17764
▁last	-7.18332
▁maybe	-7.18673
▁ever	-7.18694
▁hell	-7.18712
ug	-7.19281
▁ask	-7.19584
▁world	-7.20707
▁leave	-7.20917
▁ja	-7.21562
▁vi	-7.21588
▁dis	-7.21601
▁ad	-7.2173
▁wan	-7.22131
▁around	-7.22601
▁girl	-7.22806
▁thought	-7.22823
ap	-7.23748
ho	-7.23778
▁fight	-7.24867
▁coming	-7.25218
▁war	-7.25523
▁place	-7.25605
▁every	-7.25998
▁son	-7.26114
ian	-7.26133
▁guys	-7.26309
▁du	-7.2642
able	-7.26655
▁listen	-7.26924
▁move	-7.27047
▁miss	-7.27271
j	-7.27399
ance	-7.27494
▁real	-7.27527
▁big	-7.27625
▁three	-7.28272
▁guy	-7.28504
▁live	-7.28686
▁start	-7.28742
ine	-7.28885
nce	-7.29037
ru	-7.29526
▁always	-7.29836
▁hear	-7.29976
▁years	-7.30153
▁sw	-7.30701
▁part	-7.30885
▁hold	-7.31003
▁an	-7.32039
▁nice	-7.32614
▁gu	-7.33101
ia	-7.3327
man	-7.33684
▁i	-7.34332
▁happen	-7.34421
▁ass	-7.34481
▁may	-7.34795
▁em	-7.34964
▁told	-7.3524
▁dad	-7.3535
▁everything	-7.35454
▁youve	-7.35933
ide	-7.3618
ta	-7.36284
▁wont	-7.36442
▁things	-7.36475
▁fi	-7.36524
▁watch	-7.3667
ill	-7.36833
▁kid	-7.37435
ity	-7.37545
ound	-7.37785
▁baby	-7.379
▁turn	-7.37909
▁care	-7.38265
▁win	-7.38337
ble	-7.39022
▁sa	-7.39022
▁better	-7.39138
▁done	-7.40148
▁fine	-7.40307
ful	-7.40658
▁youll	-7.41146
▁id	-7.41164
air	-7.41755
▁plan	-7.4202
▁remember	-7.42168
less	-7.42339
▁minute	-7.42944
▁bad	-7.44181
▁old	-7.44578
▁head	-7.44959
▁ok	-7.45828
ha	-7.45862
▁believe	-7.46374
▁doesnt	-7.46912
▁le	-7.47083
▁die	-7.47444
▁gra	-7.47738
▁made	-7.47867
▁woman	-7.48001
▁hello	-7.48201
▁hu	-7.49281
▁men	-7.49351
▁understand	-7.50205
ise	-7.50344
ire	-7.50361
▁left	-7.50774
uck	-7.51204
▁lot	-7.51428
▁open	-7.51627
▁wa	-7.51631
▁end	-7.51745
ord	-7.52424
ph	-7.52965
▁close	-7.53052
ang	-7.53108
▁kind	-7.5335
co	-7.53504
▁house	-7.53909
ger	-7.5448
▁dead	-7.54928
▁ready	-7.55014
▁wi	-7.55039
▁run	-7.55172
port	-7.55669
▁bring	-7.55815
▁rock	-7.55852
▁col	-7.56123
▁father	-7.56252
▁en	-7.5633
▁bra	-7.56348
▁came	-7.56358
▁sam	-7.56529
ish	-7.56809
▁enough	-7.56835
▁try	-7.5689
▁another	-7.57134
▁door	-7.57344
▁speak	-7.57434
▁meet	-7.58347
▁room	-7.58408
▁comp	-7.58737
▁shit	-7.59312
ous	-7.59469
ction	-7.59598
▁ru	-7.60769
ake	-7.6086
▁might	-7.61157
▁mom	-7.61859
▁today	-7.63618
▁wrong	-7.63937
▁mon	-7.64354
▁bit	-7.64386
▁lm	-7.64653
▁getting	-7.64864
▁ga	-7.65081
▁we	-7.65165
▁second	-7.65876
▁someone	-7.66203
ical	-7.66662
▁eye	-7.67571
▁isnt	-7.67855
▁talking	-7.68271
▁far	-7.68453
▁break	-7.69193
▁fire	-7.69253
▁app	-7.69619
▁late	-7.69645
▁ju	-7.69653
ber	-7.69741
▁sit	-7.69959
▁arm	-7.7001
▁ring	-7.70239
▁money	-7.70241
tic	-7.70409
▁playing	-7.7048
▁um	-7.70483
▁wanted	-7.70492
▁mother	-7.70557
ack	-7.71155
▁mu	-7.71176
ath	-7.71358
ness	-7.71551
▁play	-7.72026
▁hard	-7.7265
▁excuse	-7.72973
▁mind	-7.73044
▁hit	-7.73246
▁best	-7.73277
▁music	-7.74055
▁heart	-7.74473
ught	-7.74682
▁face	-7.7523
▁change	-7.7553
▁weve	-7.76108
▁bri	-7.76232
▁week	-7.76548
▁inter	-7.76721
ize	-7.76771
▁pay	-7.78272
ure	-7.78295
one	-7.78319
▁walk	-7.78757
▁hope	-7.78925
▁check	-7.79126
▁cause	-7.79143
▁laugh	-7.79403
▁trying	-7.79422
▁next	-7.79492
▁huh	-7.7967
▁looking	-7.80159
▁aint	-7.80326
▁tonight	-7.80621
▁air	-7.80827
▁else	-7.81001
▁cra	-7.81184
▁stand	-7.81232
▁everybody	-7.81373
▁course	-7.81756
▁john	-7.82908
▁job	-7.82932
▁happened	-7.83023
▁whos	-7.83068
▁found	-7.83097
▁hon	-7.83668
▁four	-7.83711
▁damn	-7.83713
▁gun	-7.83767
▁high	-7.85265
▁whoa	-7.85286
▁bar	-7.8545
▁sl	-7.85656
▁eat	-7.86543
▁seen	-7.86751
▁together	-7.87257
time	-7.87494
▁chuckles	-7.87662
▁sign	-7.8768
▁save	-7.88324
▁frank	-7.88476
▁yet	-7.88531
▁cut	-7.894
▁they	-7.89485
▁matter	-7.90147
▁power	-7.90169
▁family	-7.90961
▁without	-7.91381
▁where	-7.91984
▁happy	-7.92227
▁school	-7.92653
▁morning	-7.92653
▁phone	-7.92658
▁whole	-7.92679
▁clear	-7.93135
▁pass	-7.93318
▁problem	-7.9351
▁saw	-7.94238
▁alone	-7.94515
▁five	-7.9501
▁story	-7.95741
▁up	-7.95883
▁person	-7.96157
▁per	-7.96667
▁read	-7.96672
▁hour	-7.96686
▁word	-7.97408
▁called	-7.97748
▁ah	-7.97858
▁set	-7.97891
▁side	-7.98052
▁tomorrow	-7.99719
▁ab	-8.00441
▁knew	-8.00642
dge	-8.00725
▁safe	-8.02126
▁am	-8.02859
▁beautiful	-8.02975
▁ago	-8.03085
▁lost	-8.03175
▁idea	-8.03227
▁everyone	-8.03574
▁shot	-8.03745
▁rest	-8.03857
▁promise	-8.03927
▁free	-8.04093
▁city	-8.04238
▁fun	-8.04604
▁actually	-8.05368
▁already	-8.05368
▁shut	-8.05615
lock	-8.0599
▁blood	-8.06831
▁breath	-8.06834
▁bob	-8.07011
out	-8.0727
ious	-8.07274
▁question	-8.07324
▁guess	-8.07368
▁number	-8.07819
▁took	-8.07835
▁sleep	-8.07861
▁went	-8.08162
▁wasnt	-8.08318
▁pretty	-8.08822
▁sound	-8.08885
▁luck	-8.09599
▁death	-8.09797
▁sighs	-8.09824
▁young	-8.09825
▁anyone	-8.09825
▁laughing	-8.10054
▁leg	-8.10147
▁light	-8.10831
▁worry	-8.10847
▁hurt	-8.10891
▁pull	-8.109
▁brother	-8.11355
head	-8.11531
▁moment	-8.11531
▁continue	-8.12388
way	-8.12513
▁pick	-8.12802
▁ann	-8.13189
▁str	-8.13307
▁welcome	-8.13432
▁land	-8.13901
▁inside	-8.13981
▁wouldnt	-8.14066
▁wonder	-8.14488
▁fall	-8.14652
▁heard	-8.14866
▁met	-8.14917
▁nobody	-8.1502
▁line	-8.15198
▁easy	-8.15572
▁half	-8.15582
▁hang	-8.15836
com	-8.16359
▁president	-8.16633
▁youd	-8.16646
▁wish	-8.16809
▁comm	-8.17202
▁year	-8.17507
▁lead	-8.17517
▁tommy	-8.17723
▁havent	-8.17727
▁since	-8.17764
▁ya	-8.18116
▁bye	-8.18178
▁water	-8.18196
act	-8.18294
▁six	-8.18849
▁lady	-8.1891
▁deep	-8.19151
▁alive	-8.19722
▁office	-8.1994
▁dream	-8.19956
▁point	-8.19995
▁case	-8.20026
▁paul	-8.20078
▁lose	-8.20296
▁beg	-8.20488
▁answer	-8.20501
▁black	-8.21079
▁sweet	-8.21084
▁follow	-8.21634
lng	-8.2187
▁scream	-8.23361
▁voice	-8.2394
▁exactly	-8.24524
ture	-8.24931
▁stuff	-8.25112
▁doctor	-8.25113
▁trust	-8.25139
▁chance	-8.25144
▁teach	-8.263
▁true	-8.26377
eep	-8.26749
▁count	-8.26861
▁game	-8.27254
▁soon	-8.27755
▁mine	-8.28069
▁act	-8.28102
▁america	-8.28107
▁whatever	-8.28718
▁wife	-8.28752
▁couldnt	-8.28835
▁company	-8.29338
▁quick	-8.2943
▁supposed	-8.29666
▁somebody	-8.29947
▁drive	-8.31107
▁order	-8.31225
▁control	-8.31823
▁throw	-8.31836
▁shall	-8.31878
spect	-8.31917
▁out	-8.31954
▁crazy	-8.32458
▁shoot	-8.32486
▁lord	-8.32975
▁afraid	-8.33092
▁book	-8.33762
▁forget	-8.34387
▁taking	-8.3442
▁gentlemen	-8.35028
▁horse	-8.35042
▁miles	-8.3517
▁full	-8.35216
▁bill	-8.35626
▁ship	-8.35689
▁human	-8.35855
▁frodo	-8.37002
▁touch	-8.37677
▁wear	-8.37699
▁step	-8.38048
▁trouble	-8.38339
▁almost	-8.38339
off	-8.38357
▁wow	-8.38876
▁engine	-8.39016
▁honey	-8.39071
▁drink	-8.39707
▁probably	-8.4038
▁ride	-8.41022
▁behind	-8.4107
▁murder	-8.4107
▁white	-8.4112
▁till	-8.41649
▁hate	-8.41797
▁sister	-8.41809
▁country	-8.41904
▁bull	-8.42942
▁daughter	-8.4317
▁command	-8.43301
▁dark	-8.4391
▁grand	-8.44285
▁gave	-8.44502
▁business	-8.44591
▁important	-8.44593
▁husband	-8.4531
▁blow	-8.45357
▁earl	-8.45875
▁german	-8.46042
▁train	-8.46097
▁quiet	-8.4621
▁secret	-8.46765
▁super	-8.46826
aff	-8.47221
▁radio	-8.47501
▁broke	-8.47509
▁class	-8.47545
▁heres	-8.47631
▁serious	-8.48251
▁reason	-8.48254
▁master	-8.49121
▁earth	-8.50514
▁roger	-8.51076
▁learn	-8.51289
▁direct	-8.51304
▁peter	-8.51394
▁space	-8.52046
▁slow	-8.5249
▁captain	-8.52805
▁couple	-8.52805
▁burn	-8.52903
▁leaving	-8.53586
▁women	-8.5359
▁trans	-8.53689
▁yo	-8.54194
▁protect	-8.54414
▁strong	-8.55179
▁truth	-8.55184
▁under	-8.55277
▁fact	-8.55679
▁buy	-8.56204
▁though	-8.5671
▁finish	-8.56782
▁harold	-8.57587
▁front	-8.57588
▁goodbye	-8.57589
▁outside	-8.57592
▁making	-8.57653
▁tony	-8.57773
▁buddy	-8.58406
▁body	-8.5852
▁destroy	-8.59233
▁perfect	-8.59233
▁bird	-8.59235
▁quite	-8.59443
▁also	-8.59484
▁drop	-8.59808
▁anymore	-8.60066
▁clean	-8.60121
▁qui	-8.6038
▁professor	-8.60906
▁future	-8.60911
▁join	-8.60958
▁angel	-8.6096
▁different	-8.61754
▁least	-8.61775
down	-8.61797
▁running	-8.61811
▁joe	-8.62008
▁grunts	-8.62609
▁return	-8.62609
▁glass	-8.62615
▁claire	-8.62619
▁daddy	-8.62669
▁feet	-8.62681
▁cooper	-8.63482
▁living	-8.63503
▁child	-8.63512
▁york	-8.64345
▁record	-8.6435
▁foot	-8.64397
▁tried	-8.64515
you	-8.64775
▁expect	-8.65217
▁children	-8.65224
▁system	-8.66102
▁anyway	-8.66104
▁ski	-8.66185
▁brought	-8.66997
▁chatter	-8.67006
▁mmm	-8.67044
▁final	-8.6709
▁anybody	-8.67896
▁special	-8.67896
▁small	-8.67904
▁figure	-8.67904
▁married	-8.67916
▁agent	-8.67939
▁park	-8.6801
▁indistinct	-8.68805
▁general	-8.68805
▁jesus	-8.68811
▁write	-8.68898
▁arent	-8.68931
mission	-8.69368
▁grunting	-8.69723
▁straight	-8.69728
gue	-8.69736
▁along	-8.69736
▁creat	-8.70006
▁english	-8.70648
▁food	-8.70677
ship	-8.70813
▁qua	-8.70836
▁major	-8.71588
▁ladies	-8.71595
▁dress	-8.71723
▁knock	-8.72526
▁piece	-8.72544
▁key	-8.72863
▁hurry	-8.73485
▁strange	-8.73549
▁attack	-8.74441
▁police	-8.74443
▁machine	-8.74444
▁stupid	-8.75411
▁peace	-8.75412
▁thousand	-8.76392
▁fool	-8.76456
▁kiss	-8.76477
▁mistake	-8.77383
▁itll	-8.78456
▁yell	-8.78474
▁either	-8.79392
▁worth	-8.79413
▁tree	-8.80291
▁christmas	-8.80412
▁relax	-8.80418
▁khan	-8.80435
▁hmm	-8.80455
▁certain	-8.81443
▁ticket	-8.81449
▁catch	-8.81528
▁paper	-8.81615
▁soldier	-8.82485
▁street	-8.82503
board	-8.82588
▁bomb	-8.83676
▁french	-8.84602
▁agree	-8.84619
▁moving	-8.8464
▁reach	-8.84682
▁others	-8.85681
▁become	-8.85689
▁funny	-8.8571
▁choice	-8.86765
▁dinner	-8.86765
▁forgot	-8.86767
▁blue	-8.86768
▁gasps	-8.86775
▁entire	-8.86776
▁history	-8.87862
▁south	-8.87885
▁push	-8.87924
▁butt	-8.88214
▁jump	-8.8901
▁shouldnt	-8.90097
▁hotel	-8.90144
tract	-8.90248
▁across	-8.91233
▁defend	-8.91246
▁rich	-8.91335
▁message	-8.92385
▁bruce	-8.93554
▁smart	-8.93555
▁enemy	-8.94723
▁million	-8.94728
▁panting	-8.94805
▁charlie	-8.95913
▁crowd	-8.95913
▁weapon	-8.95914
▁mouth	-8.95929
▁target	-8.97118
▁parents	-8.97122
▁prince	-8.97127
▁allow	-8.97143
▁extra	-8.97539
▁groans	-8.98338
▁town	-8.98444
▁somewhere	-9.00821
▁surprise	-9.00821
▁belong	-9.00822
▁student	-9.00822
▁forgive	-9.00825
▁draw	-9.02125
▁michael	-9.03369
▁travel	-9.0337
▁picture	-9.03372
▁bank	-9.03468
▁audience	-9.04668
▁middle	-9.04669
▁murph	-9.04672
▁sherman	-9.04678
▁cruella	-9.05984
▁hamilton	-9.05984
▁amazing	-9.05984
▁forward	-9.05986
▁offer	-9.06
▁gandalf	-9.07317
▁alright	-9.07325
▁screw	-9.0868
▁forever	-9.08689
▁magic	-9.08777
▁explain	-9.10038
▁perhaps	-9.10038
▁mmhm	-9.10039
▁prison	-9.10042
▁green	-9.10112
▁anderton	-9.11427
▁lawyer	-9.11428
▁russian	-9.11428
▁hospital	-9.12836
▁buzz	-9.12836
▁goddamn	-9.12836
▁zak	-9.12836
▁river	-9.12897
▁slave	-9.1291
▁absolutely	-9.14264
▁dangerous	-9.14264
▁dragon	-9.14269
▁decide	-9.14289
▁enjoy	-9.15713
▁hundred	-9.15713
▁hungry	-9.15714
▁smile	-9.1572
▁georgia	-9.17184
▁imagine	-9.17196
▁opera	-9.18247
▁coffee	-9.18677
▁chicken	-9.18687
▁notice	-9.18828
▁mountain	-9.20192
▁worried	-9.20192
▁position	-9.20192
▁anywhere	-9.2173
▁totally	-9.21731
▁freak	-9.21731
▁contact	-9.21737
▁elect	-9.22102
▁security	-9.23293
▁champion	-9.23293
▁terrible	-9.23293
▁escape	-9.23293
▁survive	-9.23293
▁simple	-9.23293
▁idiot	-9.24887
▁smoke	-9.26493
▁amelia	-9.26494
▁archie	-9.26494
▁college	-9.26496
▁account	-9.28132
▁attention	-9.28132
▁congratulations	-9.28132
▁george	-9.28132
▁program	-9.28132
▁service	-9.28132
▁choose	-9.28135
▁nurse	-9.28137
q	-9.28938
▁balboa	-9.29799
▁group	-9.298
▁third	-9.298
▁paddy	-9.29803
▁pleasure	-9.31494
▁victor	-9.31495
