<unk>	0
<s>	0
</s>	0
s	-3.40557
▁im	-4.52146
▁know	-4.64068
▁dont	-4.66712
▁get	-4.82828
▁go	-4.92232
▁oh	-4.9687
ing	-4.97134
▁right	-4.99021
▁like	-5.03898
▁youre	-5.07239
▁got	-5.09999
▁come	-5.12051
▁yeah	-5.12998
ed	-5.1383
▁well	-5.20644
▁thats	-5.24518
▁one	-5.27153
▁na	-5.27839
▁okay	-5.38884
d	-5.44058
▁think	-5.4556
▁good	-5.48118
▁see	-5.51421
▁want	-5.54703
▁gon	-5.5614
▁hey	-5.58551
▁man	-5.62409
▁look	-5.63447
▁	-5.66543
▁back	-5.66847
▁us	-5.67645
▁yes	-5.71351
▁time	-5.73158
▁ill	-5.74293
▁hes	-5.74664
▁going	-5.77473
▁take	-5.77538
y	-5.81135
▁cant	-5.81489
▁would	-5.81797
▁need	-5.83312
e	-5.86511
▁tell	-5.93207
▁say	-5.95483
▁l	-5.9713
▁could	-5.97831
▁something	-6.01816
▁really	-6.01883
▁thank	-6.03141
er	-6.0421
▁way	-6.04436
▁sorry	-6.05251
▁never	-6.05251
n	-6.05474
▁make	-6.08082
▁love	-6.09023
▁god	-6.1024
▁let	-6.10903
▁little	-6.12058
▁didnt	-6.12942
ly	-6.14223
▁lets	-6.14243
▁whats	-6.14763
t	-6.17371
▁please	-6.20969
i	-6.21159
▁theres	-6.23663
▁mean	-6.23757
▁mr	-6.29168
▁ive	-6.31116
▁give	-6.31482
▁said	-6.34002
▁thing	-6.35188
▁two	-6.35951
in	-6.37591
▁help	-6.37778
▁find	-6.39207
▁sir	-6.39538
▁wait	-6.41613
▁stop	-6.43931
▁life	-6.44237
▁people	-6.44699
▁shes	-6.44861
▁first	-6.45465
▁great	-6.46809
▁sure	-6.4774
▁much	-6.478
▁call	-6.49604
▁still	-6.49865
r	-6.50368
▁day	-6.51095
▁maybe	-6.53305
▁even	-6.54365
▁night	-6.54982
▁home	-6.55505
a	-6.57564
▁theyre	-6.58597
▁new	-6.59174
▁put	-6.60178
▁guys	-6.60525
▁hi	-6.61572
▁hell	-6.6167
▁last	-6.62537
▁uh	-6.64146
▁work	-6.65082
▁nothing	-6.65106
es	-6.65546
▁ta	-6.65874
▁thought	-6.67793
▁keep	-6.68705
▁anything	-6.69895
o	-6.706
▁shit	-6.73476
▁must	-6.74095
en	-6.7464
▁car	-6.7477
▁name	-6.7567
▁better	-6.76179
▁ever	-6.76335
▁talk	-6.80313
l	-6.80407
▁leave	-6.81098
▁always	-6.8198
▁everything	-6.8287
▁id	-6.82896
▁away	-6.83559
▁nice	-6.84734
▁long	-6.85125
p	-6.85491
▁guy	-6.8631
▁every	-6.86822
▁old	-6.86971
▁years	-6.87146
▁baby	-6.8721
▁de	-6.87267
▁ok	-6.88163
▁stay	-6.88322
▁made	-6.89651
▁dad	-6.91587
▁hello	-6.9167
▁things	-6.91787
▁three	-6.918
▁believe	-6.92541
▁wan	-6.92911
▁told	-6.93472
▁around	-6.93717
▁dead	-6.94225
▁move	-6.9529
▁miss	-6.95408
▁girl	-6.95839
▁wont	-6.95986
▁world	-6.96195
▁youve	-6.96239
k	-6.96283
al	-6.97083
▁place	-6.97271
▁coming	-6.98597
▁kind	-6.99212
▁fine	-6.99311
▁feel	-7.00052
▁kill	-7.00917
▁may	-7.01128
▁youll	-7.01483
▁hear	-7.01568
▁doesnt	-7.02838
▁wrong	-7.04211
▁woman	-7.04217
▁remember	-7.0474
▁done	-7.05333
u	-7.0561
▁thanks	-7.05811
▁boy	-7.05837
▁left	-7.06168
▁someone	-7.06449
▁listen	-7.06631
c	-7.0784
▁big	-7.08662
▁understand	-7.08738
or	-7.093
g	-7.1069
▁care	-7.11024
▁lot	-7.11032
▁house	-7.11402
b	-7.12235
▁might	-7.12274
▁die	-7.12426
▁door	-7.12728
▁mom	-7.12862
▁hold	-7.13449
▁isnt	-7.13784
▁show	-7.1411
▁wanted	-7.14187
▁son	-7.14546
▁course	-7.14708
▁next	-7.16249
m	-7.17425
▁another	-7.19419
▁real	-7.19541
▁getting	-7.19642
re	-7.20586
▁today	-7.21043
▁end	-7.21665
▁talking	-7.21753
▁bad	-7.21869
▁open	-7.22307
▁money	-7.22363
h	-7.22478
▁best	-7.22734
▁ready	-7.24561
▁morning	-7.2471
ve	-7.24741
▁try	-7.24916
on	-7.25349
▁happened	-7.25384
▁enough	-7.25391
▁found	-7.26077
▁trying	-7.27475
▁run	-7.27519
▁ask	-7.27596
▁live	-7.2764
▁play	-7.27703
▁looking	-7.28186
▁meet	-7.28189
▁actually	-7.28883
▁head	-7.28943
▁friend	-7.29188
▁mind	-7.2962
ic	-7.30616
▁job	-7.30678
▁jay	-7.3075
▁ik	-7.31432
▁else	-7.31752
▁s	-7.32685
▁came	-7.3322
▁um	-7.33733
▁turn	-7.33955
▁huh	-7.3396
▁start	-7.34552
▁family	-7.347
an	-7.35258
▁guess	-7.36978
▁hard	-7.37337
▁je	-7.38235
▁room	-7.38555
▁idea	-7.38568
▁hope	-7.38723
▁excuse	-7.38915
ers	-7.39257
▁watch	-7.39628
▁bring	-7.398
▁knew	-7.40098
▁saw	-7.40113
▁wasnt	-7.40892
▁damn	-7.41292
▁five	-7.41733
▁mother	-7.42186
▁minutes	-7.42375
▁whole	-7.42901
▁dr	-7.43262
▁aint	-7.43326
▁men	-7.43481
▁face	-7.44166
▁many	-7.44304
▁father	-7.44739
▁re	-7.4491
▁tonight	-7.45802
▁lost	-7.45813
▁school	-7.46232
▁called	-7.46902
▁ah	-7.46957
▁together	-7.47919
▁took	-7.47921
▁whoa	-7.47934
▁seen	-7.48313
▁late	-7.48583
w	-7.4864
▁already	-7.48779
▁weve	-7.49212
▁second	-7.50851
▁use	-7.50881
▁hand	-7.51455
▁met	-7.51582
▁whos	-7.51926
▁heard	-7.52144
▁c	-7.52246
▁daisy	-7.52297
▁fire	-7.53214
▁phone	-7.53648
▁used	-7.53713
▁bit	-7.53725
▁part	-7.53874
▁un	-7.54095
▁check	-7.54192
▁beautiful	-7.54559
▁happy	-7.54559
▁friends	-7.54592
▁kids	-7.54941
▁four	-7.54995
▁music	-7.55019
▁honey	-7.55021
▁cause	-7.55041
▁heart	-7.55711
▁lm	-7.55872
ar	-7.5594
▁everybody	-7.55941
▁without	-7.55942
▁wouldnt	-7.56013
ion	-7.5614
▁shut	-7.56393
▁ago	-7.56906
f	-7.56935
▁kid	-7.57431
▁alone	-7.57821
▁tomorrow	-7.58289
le	-7.59323
▁year	-7.59403
▁matter	-7.59496
▁van	-7.5983
▁minute	-7.59887
▁dear	-7.60313
▁yet	-7.61198
▁light	-7.61973
▁war	-7.62472
▁hit	-7.62684
▁saying	-7.62811
ation	-7.63113
▁chuckles	-7.63336
▁power	-7.63968
▁captain	-7.64161
▁gone	-7.64489
▁went	-7.64675
▁side	-7.64716
▁john	-7.65649
▁inside	-7.65686
▁pretty	-7.6671
▁true	-7.66711
▁since	-7.66715
ch	-7.6695
▁break	-7.67061
▁welcome	-7.67231
el	-7.67413
est	-7.67588
▁point	-7.67664
▁air	-7.67778
▁read	-7.68371
▁close	-7.68399
▁pay	-7.68697
▁anyone	-7.68799
▁whatever	-7.68799
▁stand	-7.69162
▁problem	-7.69319
▁sit	-7.69702
▁eyes	-7.70034
▁far	-7.70141
▁shall	-7.70938
▁couldnt	-7.71007
▁set	-7.71186
▁days	-7.71274
▁playing	-7.71448
▁everyone	-7.71513
▁game	-7.71535
▁en	-7.71915
▁stuff	-7.7257
ie	-7.72893
▁child	-7.73136
▁crazy	-7.73671
▁mine	-7.73762
▁probably	-7.7422
▁trust	-7.7422
▁in	-7.74267
▁hurt	-7.74779
▁worry	-7.75341
▁ass	-7.75371
▁wife	-7.75905
▁eat	-7.76947
th	-7.7697
▁somebody	-7.7707
▁walk	-7.77119
▁change	-7.77852
▁youd	-7.78206
▁een	-7.78273
▁st	-7.78826
▁deal	-7.789
▁word	-7.79104
▁working	-7.7916
▁chance	-7.79371
▁thinking	-7.79405
▁supposed	-7.79485
▁happen	-7.79588
▁doctor	-7.79708
▁wheres	-7.80099
▁hands	-7.80103
▁dog	-7.80532
▁rest	-7.80584
▁city	-7.80589
▁killed	-7.80638
▁ship	-7.81021
it	-7.8109
la	-7.81296
▁water	-7.8165
▁looks	-7.81692
▁hot	-7.8195
z	-7.81998
▁sleep	-7.82251
▁death	-7.82352
▁speak	-7.82719
▁children	-7.82956
▁blood	-7.83561
▁shot	-7.83564
▁wow	-7.83572
▁exactly	-7.83588
▁week	-7.84025
te	-7.84274
▁clear	-7.8447
▁fight	-7.8451
▁wish	-7.8716
▁fun	-7.87168
▁white	-7.87303
st	-7.87401
ur	-7.87647
▁drive	-7.87667
▁cut	-7.87805
▁havent	-7.87932
▁drink	-7.88524
▁number	-7.88585
▁moment	-7.88642
▁young	-7.88982
▁em	-7.89124
▁sweet	-7.89172
▁easy	-7.89218
▁half	-7.89219
▁forget	-7.89228
▁gave	-7.89248
us	-7.89267
▁sighs	-7.90167
▁police	-7.90486
▁mrs	-7.907
▁a	-7.90753
▁save	-7.90777
v	-7.9105
▁afraid	-7.91179
▁story	-7.91184
▁question	-7.91262
▁later	-7.91434
▁anyway	-7.91841
▁yo	-7.91883
▁says	-7.92217
▁i	-7.92431
▁line	-7.92662
▁promise	-7.92744
▁nobody	-7.93348
▁laughing	-7.93464
▁hate	-7.93569
▁business	-7.93819
▁black	-7.93834
▁trouble	-7.93854
▁plan	-7.94074
able	-7.94278
ive	-7.94722
▁means	-7.94888
▁lose	-7.94946
▁ha	-7.95235
▁cool	-7.95238
▁girls	-7.95626
▁died	-7.95712
▁living	-7.95909
▁reason	-7.95909
▁lady	-7.95954
▁earth	-7.96615
▁taking	-7.96656
▁full	-7.97327
▁high	-7.98199
▁safe	-7.98544
▁six	-7.98737
▁mij	-7.98815
▁brother	-7.99813
▁order	-7.99954
▁hmm	-8.00162
▁quite	-8.00235
▁bed	-8.0033
▁b	-8.0066
▁husband	-8.00875
▁lord	-8.00879
▁human	-8.01315
man	-8.0149
▁almost	-8.01605
▁town	-8.01606
ment	-8.01608
▁funny	-8.01616
is	-8.01807
ro	-8.01909
▁pick	-8.02399
▁bye	-8.03082
▁jesus	-8.03083
▁free	-8.03092
▁hang	-8.03153
▁truth	-8.03827
li	-8.04494
▁alive	-8.04605
▁land	-8.04858
▁anymore	-8.05337
▁hours	-8.05789
▁perfect	-8.05879
ity	-8.06568
▁wants	-8.06614
at	-8.07311
▁book	-8.07598
▁behind	-8.07644
▁throw	-8.07654
▁catch	-8.07688
▁sometimes	-8.07919
▁dat	-8.08314
▁person	-8.08324
▁p	-8.08479
▁d	-8.08504
ies	-8.08582
ri	-8.08597
▁ride	-8.08721
▁secret	-8.09192
▁different	-8.09213
ous	-8.09228
▁answer	-8.09315
▁boys	-8.09509
▁though	-8.0977
▁frank	-8.09774
ter	-8.09948
▁president	-8.10012
▁gun	-8.10103
▁send	-8.1021
▁follow	-8.10251
▁f	-8.10695
▁k	-8.1096
▁outside	-8.11585
▁grunts	-8.11614
▁boat	-8.1163
▁protect	-8.11744
il	-8.11853
▁la	-8.12339
▁red	-8.12414
▁chris	-8.1249
ge	-8.13028
▁least	-8.13248
▁arent	-8.13254
▁drop	-8.13269
▁clean	-8.13375
▁train	-8.13621
▁makes	-8.13755
▁soon	-8.13988
▁win	-8.14057
▁church	-8.14072
▁married	-8.14072
▁attack	-8.14317
▁maam	-8.14914
less	-8.1539
▁dream	-8.15473
▁russian	-8.15969
▁jack	-8.16709
▁het	-8.16716
▁wear	-8.16754
▁dance	-8.17091
▁ten	-8.17107
▁control	-8.17441
▁case	-8.17459
▁mike	-8.17459
▁date	-8.17525
▁party	-8.18021
▁bitch	-8.18255
to	-8.18291
▁running	-8.18318
▁ahead	-8.18318
▁step	-8.18654
▁anybody	-8.1918
▁also	-8.19226
po	-8.19402
ol	-8.19599
▁mo	-8.19737
▁asked	-8.19756
▁v	-8.19761
se	-8.20019
▁daughter	-8.20057
▁w	-8.20062
▁making	-8.20068
▁laughs	-8.20938
▁speaking	-8.21053
▁bella	-8.2116
▁touch	-8.21237
▁bet	-8.21272
▁waiting	-8.21506
▁sick	-8.21843
▁mama	-8.21898
▁ho	-8.2204
▁hour	-8.22237
ce	-8.22273
▁an	-8.22485
▁th	-8.22628
▁feeling	-8.22673
▁team	-8.22784
▁fall	-8.22857
▁parents	-8.22934
ist	-8.22971
up	-8.23348
▁sound	-8.23466
un	-8.23546
na	-8.23628
▁island	-8.23645
▁feet	-8.23677
▁h	-8.24157
▁e	-8.24489
▁important	-8.24562
▁zach	-8.24585
▁buy	-8.24839
▁either	-8.25488
▁niet	-8.25488
▁star	-8.25767
▁beat	-8.25778
▁cat	-8.26046
▁shoot	-8.26047
ll	-8.26194
▁dark	-8.26401
▁months	-8.26448
▁started	-8.26946
▁ow	-8.26982
▁ball	-8.27103
▁heres	-8.27138
▁indistinct	-8.27366
▁stupid	-8.27366
▁million	-8.27373
▁con	-8.2751
▁pull	-8.27993
▁fair	-8.28028
▁blue	-8.28321
▁past	-8.28472
▁times	-8.28583
▁voice	-8.28942
▁perhaps	-8.2928
▁david	-8.2928
▁ladies	-8.29285
▁front	-8.29315
▁gasps	-8.29531
▁pain	-8.29768
▁sun	-8.29815
▁eye	-8.2994
▁office	-8.30013
ant	-8.30083
▁dan	-8.30236
▁henry	-8.30251
▁road	-8.30251
▁leaving	-8.30254
ts	-8.30306
lo	-8.30366
▁song	-8.30517
▁co	-8.3052
▁able	-8.30791
▁fly	-8.30874
▁serious	-8.31014
ma	-8.3112
▁sign	-8.31204
▁finally	-8.31354
▁happens	-8.31698
▁mad	-8.31777
▁lives	-8.31958
▁fast	-8.3201
▁news	-8.32079
▁breathe	-8.32101
▁body	-8.32229
▁top	-8.32318
▁lead	-8.32434
▁figure	-8.32786
x	-8.32842
▁choice	-8.33221
▁couple	-8.33221
▁women	-8.33223
▁till	-8.33237
▁fear	-8.3324
▁honor	-8.33241
▁message	-8.33249
▁careful	-8.33296
▁cold	-8.33304
▁return	-8.33646
um	-8.33872
▁spanish	-8.34233
de	-8.34499
▁finish	-8.34666
▁bilbo	-8.35252
▁future	-8.35252
▁wake	-8.35252
▁hair	-8.35274
▁goes	-8.35392
▁mary	-8.3541
▁officer	-8.35502
▁kiss	-8.35581
▁street	-8.3616
▁english	-8.36283
▁possible	-8.36283
▁smart	-8.36285
▁seven	-8.363
▁king	-8.36332
▁luck	-8.37031
▁be	-8.37041
ta	-8.37102
▁gentlemen	-8.37327
▁tried	-8.37503
▁none	-8.37527
▁seem	-8.37935
ra	-8.37955
▁brought	-8.38377
▁ooh	-8.38377
▁tv	-8.38393
▁country	-8.38393
▁seems	-8.38505
ig	-8.38533
▁building	-8.38624
▁lucky	-8.38678
▁blow	-8.38757
▁ya	-8.38785
▁hows	-8.38821
▁telling	-8.38903
▁sounds	-8.38953
▁handle	-8.39112
▁bar	-8.39182
▁fact	-8.39366
▁cell	-8.3944
▁food	-8.39441
▁goodbye	-8.39442
▁bernie	-8.39449
▁loved	-8.39453
▁lie	-8.39483
▁scared	-8.39726
▁mess	-8.39946
▁words	-8.39988
▁strong	-8.40226
▁te	-8.40299
ate	-8.40495
▁goddamn	-8.40516
▁hurry	-8.40516
▁rock	-8.40524
▁security	-8.40526
▁sister	-8.40527
▁upon	-8.40546
▁groans	-8.40791
▁cover	-8.41027
▁special	-8.41104
ling	-8.41508
▁loud	-8.41575
▁grunting	-8.41603
▁space	-8.41608
▁wild	-8.42007
▁planet	-8.42061
▁g	-8.42099
ness	-8.42159
et	-8.42411
▁weird	-8.42702
▁general	-8.42702
▁dinner	-8.42704
▁holy	-8.43039
ful	-8.43365
▁test	-8.43668
▁count	-8.43695
▁asking	-8.43778
▁hospital	-8.43813
▁respect	-8.43813
▁history	-8.43814
▁kidding	-8.4382
▁floor	-8.43827
▁radio	-8.43828
▁soul	-8.43832
▁pass	-8.44179
ent	-8.44588
▁write	-8.44641
▁entire	-8.44717
▁shell	-8.44931
▁charles	-8.44937
▁gandalf	-8.44937
▁company	-8.44937
▁grace	-8.44952
▁theyll	-8.44963
▁ja	-8.4499
▁needs	-8.45012
▁green	-8.45434
▁screams	-8.45636
▁er	-8.45658
▁meant	-8.45675
▁rey	-8.45746
▁small	-8.45827
rs	-8.45897
▁sense	-8.46096
▁single	-8.46151
▁law	-8.46158
as	-8.46286
▁master	-8.46321
▁continues	-8.46423
▁they	-8.46746
▁class	-8.4692
▁christ	-8.47094
▁ge	-8.47255
ten	-8.47394
id	-8.47555
▁wind	-8.48149
▁favor	-8.48385
▁moving	-8.48389
▁james	-8.48431
▁near	-8.48446
▁sent	-8.48571
▁susan	-8.49563
▁ground	-8.49598
▁ver	-8.49677
ke	-8.49752
▁bag	-8.49785
ia	-8.49832
▁slow	-8.50548
▁jane	-8.50557
▁meeting	-8.50706
▁york	-8.50753
▁sort	-8.50755
▁born	-8.50819
▁ben	-8.51321
▁dis	-8.51583
ary	-8.51669
▁u	-8.51812
▁relax	-8.51957
▁shouldnt	-8.51958
▁cady	-8.51962
▁calm	-8.51974
▁explain	-8.52013
▁happening	-8.52158
▁suit	-8.52241
▁n	-8.52275
▁zo	-8.52336
▁state	-8.52557
▁gift	-8.52587
▁wed	-8.52745
▁wat	-8.52853
▁plane	-8.53015
▁hero	-8.53104
▁learn	-8.53111
▁somewhere	-8.53177
▁op	-8.53401
ting	-8.53483
ton	-8.53526
▁breathing	-8.5365
▁broke	-8.53955
im	-8.54021
▁worth	-8.54081
co	-8.54303
ian	-8.54402
▁accident	-8.54411
▁launch	-8.54411
▁professor	-8.54411
▁finn	-8.54412
▁taken	-8.54416
▁richard	-8.54423
▁itll	-8.54426
▁absolutely	-8.54434
▁foot	-8.5446
age	-8.54479
▁west	-8.54482
▁daddy	-8.54487
▁sing	-8.54878
▁sea	-8.54901
▁trip	-8.54926
ance	-8.55159
▁given	-8.55326
▁amazing	-8.55661
▁caleb	-8.55661
▁werent	-8.55661
▁table	-8.55751
▁become	-8.56259
▁park	-8.56311
vi	-8.56545
▁across	-8.56927
▁anywhere	-8.56927
▁buddy	-8.56929
▁window	-8.56943
▁dude	-8.56948
▁voor	-8.56952
▁felt	-8.56988
▁evening	-8.57039
▁station	-8.57044
▁force	-8.571
▁o	-8.57355
▁fool	-8.57507
▁picture	-8.57523
▁dress	-8.57634
▁short	-8.58207
▁service	-8.58209
▁spend	-8.58216
▁wonderful	-8.5823
▁om	-8.58245
▁piece	-8.5825
be	-8.58269
son	-8.58273
▁unless	-8.58292
▁less	-8.58807
▁queen	-8.58848
▁deep	-8.59302
▁da	-8.59429
em	-8.5947
▁along	-8.59508
▁fault	-8.59508
▁zijn	-8.59526
▁known	-8.59617
▁screaming	-8.59679
▁calling	-8.59848
▁so	-8.59985
▁seat	-8.60176
▁college	-8.60824
▁travel	-8.60824
▁stephen	-8.60824
▁imagine	-8.60826
▁smell	-8.60826
▁information	-8.60834
ard	-8.60836
▁aye	-8.60905
▁wonder	-8.61441
▁vi	-8.61723
▁nu	-8.61898
▁questions	-8.61998
▁club	-8.62157
▁coffee	-8.62157
▁machine	-8.62157
▁glad	-8.62165
▁longer	-8.62202
▁push	-8.62204
▁crowd	-8.62218
out	-8.62813
sh	-8.62887
▁system	-8.62968
▁missing	-8.63119
▁watching	-8.63164
▁grab	-8.63418
▁peace	-8.63486
▁mouth	-8.63508
▁swear	-8.63508
▁middle	-8.63508
▁produce	-8.63514
▁girlfriend	-8.63516
▁rather	-8.63519
▁weekend	-8.63534
mo	-8.63557
▁offer	-8.63636
▁missed	-8.63898
▁do	-8.63946
op	-8.64018
▁act	-8.64357
▁mistake	-8.64401
▁ran	-8.64408
▁bank	-8.64435
▁key	-8.64641
ty	-8.64771
▁hed	-8.6482
▁george	-8.64878
▁hundred	-8.64878
▁mgan	-8.64878
▁michael	-8.64878
▁others	-8.64878
▁roll	-8.64878
▁forever	-8.6488
om	-8.6488
▁giving	-8.64882
he	-8.64918
▁burn	-8.64969
▁lts	-8.64971
▁worked	-8.64981
▁sad	-8.65174
▁comes	-8.65321
▁destroy	-8.65678
▁strange	-8.65919
▁command	-8.65938
▁truck	-8.66267
▁battle	-8.66271
▁tom	-8.66294
▁weeks	-8.66607
one	-8.66612
▁age	-8.66618
▁pre	-8.66669
ine	-8.66727
▁pro	-8.67262
▁al	-8.67407
▁present	-8.67676
▁alright	-8.67678
▁danny	-8.6769
▁brain	-8.67768
▁code	-8.679
am	-8.68097
▁over	-8.68506
▁ii	-8.68703
▁thousand	-8.69104
▁birthday	-8.69106
▁seriously	-8.69422
▁fix	-8.69963
▁kick	-8.69974
▁pa	-8.70076
▁hij	-8.7012
▁terrible	-8.70553
▁worried	-8.70553
▁crash	-8.70553
▁eight	-8.7061
▁stick	-8.70634
▁el	-8.71026
▁mm	-8.713
per	-8.71318
▁killing	-8.71377
tion	-8.71479
▁po	-8.71517
▁join	-8.71794
▁dying	-8.7203
▁sky	-8.72075
ca	-8.72283
▁list	-8.72373
▁gas	-8.72629
mi	-8.72682
▁miles	-8.7279
ad	-8.72843
▁owe	-8.73007
ng	-8.73319
▁greville	-8.73516
▁round	-8.73516
▁straight	-8.73516
▁tower	-8.73517
▁block	-8.73521
▁evil	-8.73528
▁thou	-8.73561
▁horse	-8.74076
▁poe	-8.74263
gen	-8.74332
▁r	-8.74363
ck	-8.7444
▁plant	-8.74591
▁saved	-8.74594
▁weapon	-8.7483
▁ex	-8.74879
▁mi	-8.74925
j	-8.75007
▁emergency	-8.75031
▁hazel	-8.75031
▁christmas	-8.75033
▁position	-8.75036
▁panting	-8.7504
ry	-8.75175
▁crewe	-8.75965
▁sex	-8.75972
▁whoo	-8.75986
▁record	-8.76406
▁bomb	-8.76621
▁lo	-8.7667
▁cr	-8.76785
▁hide	-8.76817
▁hat	-8.76934
no	-8.77032
▁accept	-8.77078
▁crew	-8.77179
▁joe	-8.77218
oo	-8.7728
▁ones	-8.77409
▁turned	-8.77433
go	-8.77639
▁surprise	-8.77694
▁he	-8.77738
▁robert	-8.77847
▁ga	-8.77866
▁leg	-8.77971
▁press	-8.78096
▁pleasure	-8.78132
▁worse	-8.78143
▁brian	-8.78156
▁yall	-8.78172
▁unit	-8.78287
▁standing	-8.78611
▁hole	-8.78712
ne	-8.78894
▁del	-8.7929
▁america	-8.79484
▁quick	-8.79533
▁month	-8.7971
▁language	-8.7972
▁suggest	-8.7972
▁rachel	-8.79725
▁flight	-8.79735
▁nine	-8.79744
▁lovely	-8.79757
▁holly	-8.79803
▁thee	-8.79807
▁moon	-8.79848
▁on	-8.79871
▁ad	-8.79933
▁mayor	-8.80226
▁reach	-8.80537
▁laugh	-8.80624
▁jump	-8.80625
▁ch	-8.81217
▁simple	-8.81333
▁lunch	-8.81333
▁spirit	-8.81357
▁aah	-8.81357
▁jason	-8.81363
▁totally	-8.81414
tic	-8.8149
▁cheering	-8.81559
▁speaks	-8.81739
▁murder	-8.81768
▁feed	-8.81785
▁lll	-8.81795
▁mission	-8.81847
▁ma	-8.81888
▁looked	-8.81907
▁mark	-8.81912
▁lay	-8.81936
ha	-8.82221
▁singing	-8.82275
▁nick	-8.82696
▁heb	-8.82835
▁maid	-8.82871
▁except	-8.8289
▁personal	-8.82964
pe	-8.82968
▁definitely	-8.82972
▁forgive	-8.82972
▁junior	-8.82972
▁target	-8.82972
▁wedding	-8.82976
▁marry	-8.82984
▁beach	-8.82994
▁les	-8.83044
me	-8.83073
▁field	-8.83081
▁early	-8.83106
▁begin	-8.8313
▁american	-8.83281
▁expect	-8.83338
▁ba	-8.83955
▁sell	-8.83988
ass	-8.84179
▁quiet	-8.8442
▁appreciate	-8.84639
▁contact	-8.84639
▁sydney	-8.84639
▁tough	-8.84639
▁gerry	-8.84639
▁chuckling	-8.8464
▁gemma	-8.84646
▁area	-8.84649
▁gasping	-8.84729
▁movie	-8.84733
▁robot	-8.84761
▁alien	-8.84769
▁hotel	-8.84771
▁joke	-8.84837
and	-8.8577
▁du	-8.85861
way	-8.85895
▁bill	-8.85932
▁fell	-8.8629
▁impossible	-8.86334
▁yesterday	-8.86334
▁agent	-8.86356
▁thorin	-8.86388
▁interesting	-8.86724
ted	-8.87058
▁works	-8.87099
▁super	-8.87122
ow	-8.87283
▁le	-8.87678
▁final	-8.87842
▁needed	-8.8785
ff	-8.88045
▁bullshit	-8.88058
▁shield	-8.88058
▁choose	-8.88058
ot	-8.88076
▁paid	-8.88083
▁anna	-8.8811
▁yep	-8.88122
by	-8.88551
▁peter	-8.88607
▁report	-8.89284
▁driving	-8.89812
▁fantasy	-8.89812
▁french	-8.89812
▁kappa	-8.89812
▁chief	-8.89812
▁darling	-8.89812
▁search	-8.89812
▁difference	-8.89812
▁drunk	-8.89813
▁river	-8.89818
▁clothes	-8.89831
▁duke	-8.89834
▁level	-8.89879
▁board	-8.9001
▁m	-8.90063
▁guard	-8.90102
▁jo	-8.9022
▁ring	-8.90236
▁shoes	-8.90741
▁breath	-8.91125
▁art	-8.9134
▁prince	-8.91511
▁engine	-8.91525
▁shh	-8.91586
▁attention	-8.91598
▁caught	-8.91598
▁public	-8.91598
▁strike	-8.91598
▁throat	-8.91598
▁cindy	-8.91598
▁favorite	-8.91598
▁court	-8.91598
▁bathroom	-8.91601
▁mask	-8.91601
▁summer	-8.91604
▁pack	-8.91617
▁button	-8.91652
▁poor	-8.91699
▁tony	-8.91701
▁boss	-8.91702
▁stopped	-8.9172
▁east	-8.9175
▁hilly	-8.91777
▁paper	-8.91971
▁enjoy	-8.92093
▁fit	-8.92099
▁chattering	-8.92272
▁base	-8.9284
▁bo	-8.92869
dy	-8.933
▁italian	-8.93416
▁neither	-8.93416
▁william	-8.93416
▁edward	-8.93419
▁spent	-8.93434
▁christian	-8.93448
▁maar	-8.93472
ir	-8.93595
▁amy	-8.93677
▁signal	-8.93685
▁warm	-8.9371
▁seconds	-8.93881
▁cop	-8.93995
▁pe	-8.94246
▁chatter	-8.94573
os	-8.94602
ish	-8.9484
▁per	-8.95144
▁forgot	-8.95246
▁aibileen	-8.95268
▁bastard	-8.95268
▁smile	-8.95271
▁prins	-8.95272
▁asshole	-8.95282
▁obviously	-8.95347
ious	-8.95353
▁copy	-8.95569
▁ice	-8.95711
▁knock	-8.95854
we	-8.95872
▁thy	-8.95886
▁rule	-8.95933
▁wine	-8.95942
▁freak	-8.96454
▁lt	-8.96505
▁wearing	-8.96797
▁prove	-8.96813
▁pop	-8.96819
▁changed	-8.96894
▁rich	-8.97133
▁south	-8.97154
▁faith	-8.97155
▁forward	-8.97155
▁thomas	-8.97155
▁daniel	-8.97159
▁football	-8.97165
▁watson	-8.97188
da	-8.97286
▁double	-8.97405
▁low	-8.97527
▁spot	-8.97648
▁keys	-8.97671
ster	-8.97683
▁folks	-8.97703
▁wall	-8.97978
▁realize	-8.98673
▁cons	-8.98994
ect	-8.98996
▁heavily	-8.99078
▁langdon	-8.99078
▁majesty	-8.99078
▁uncle	-8.99079
▁focus	-8.99081
▁heaven	-8.99094
▁mmm	-8.99099
▁guardian	-8.99099
▁anne	-8.99119
▁tess	-8.99276
▁waste	-8.99321
▁se	-8.99391
men	-8.99425
▁reading	-8.99691
▁tape	-8.99973
▁grow	-9.00072
▁wondering	-9.00092
▁si	-9.00144
▁moved	-9.00458
▁color	-9.00539
▁bus	-9.00798
tor	-9.00846
▁glass	-9.00907
▁visit	-9.00958
der	-9.00974
▁grand	-9.01018
▁clark	-9.01039
▁video	-9.01039
▁remind	-9.01039
▁horn	-9.01041
▁military	-9.01041
▁extra	-9.01045
▁satine	-9.0105
▁outta	-9.01054
▁within	-9.01073
▁marie	-9.01103
▁rain	-9.01178
▁north	-9.01224
▁woody	-9.0123
▁bond	-9.0125
▁charge	-9.01277
▁ze	-9.01293
▁z	-9.01363
ag	-9.01433
▁lived	-9.01497
king	-9.01687
▁pray	-9.01767
▁fan	-9.01883
▁tea	-9.02129
▁finished	-9.02178
cy	-9.02537
▁guards	-9.02697
▁pal	-9.02776
▁tight	-9.02795
pping	-9.02813
▁certain	-9.0282
▁complete	-9.02847
▁gate	-9.02876
▁gra	-9.02904
▁box	-9.03032
▁mirror	-9.03039
▁research	-9.03039
▁science	-9.03039
▁detective	-9.03046
▁group	-9.03047
▁kept	-9.03048
▁stuck	-9.03051
▁apartment	-9.03058
▁jail	-9.03096
▁decided	-9.03361
▁walking	-9.03451
▁teacher	-9.03571
▁deserve	-9.03861
▁remain	-9.03883
▁rose	-9.0396
▁sand	-9.03963
▁ti	-9.04459
▁rules	-9.04524
▁sh	-9.04595
▁normal	-9.04855
▁magic	-9.05006
▁universe	-9.05079
▁vatican	-9.05079
▁congratulations	-9.0508
▁dick	-9.05118
▁chicken	-9.05144
▁carry	-9.05247
▁am	-9.05358
▁broken	-9.05512
ee	-9.05691
▁form	-9.05934
▁soldier	-9.05977
▁tree	-9.05979
nt	-9.06446
▁fish	-9.06482
▁di	-9.06509
▁suppose	-9.06731
for	-9.06921
▁surf	-9.0716
▁council	-9.07163
▁saturday	-9.07163
▁clay	-9.07164
▁beginning	-9.07165
▁private	-9.07165
▁linda	-9.07169
▁fill	-9.07171
▁proud	-9.07179
▁dangerous	-9.07186
▁operation	-9.07188
▁carl	-9.07283
bo	-9.07484
ea	-9.07621
▁seeing	-9.07644
lin	-9.07829
▁talked	-9.08548
▁arm	-9.08623
let	-9.08666
▁lock	-9.08667
▁consider	-9.08696
▁cops	-9.08791
▁farm	-9.08877
▁feels	-9.0889
▁training	-9.08941
▁bought	-9.0929
▁situation	-9.09291
▁government	-9.09295
▁alice	-9.09298
▁risk	-9.09351
▁fleet	-9.09352
▁ed	-9.09367
▁whispering	-9.09422
▁cap	-9.09422
▁skin	-9.09442
▁shouting	-9.09453
ther	-9.09524
▁it	-9.09668
▁no	-9.0968
▁me	-9.0975
▁animals	-9.09856
bi	-9.09953
▁cross	-9.10158
end	-9.10167
▁mountain	-9.10349
▁fate	-9.1037
▁li	-9.10961
▁agree	-9.10999
▁ar	-9.11146
land	-9.1118
▁stole	-9.11228
ba	-9.11445
▁boyfriend	-9.11464
▁seymour	-9.11464
▁uhhuh	-9.11464
▁enemy	-9.11464
▁salt	-9.11471
▁katie	-9.11473
▁diane	-9.11477
com	-9.11485
▁store	-9.11497
▁medical	-9.11515
▁nose	-9.11518
▁milo	-9.11559
▁named	-9.11628
▁heat	-9.11638
▁corner	-9.1166
▁completely	-9.11702
▁sp	-9.11722
▁cost	-9.11808
▁tired	-9.11904
▁cu	-9.12096
▁aw	-9.12147
pa	-9.12157
▁va	-9.1217
▁bro	-9.12212
▁lights	-9.12662
▁tire	-9.13341
▁mar	-9.13492
▁track	-9.13673
▁beyond	-9.13686
▁charlie	-9.13686
▁sweetheart	-9.13686
▁twenty	-9.13686
▁holmes	-9.13687
▁hasnt	-9.13688
▁trade	-9.13691
▁minny	-9.13692
▁cash	-9.137
▁partner	-9.13739
▁mention	-9.13776
▁center	-9.13823
▁howd	-9.1387
▁doin	-9.13956
▁taste	-9.13978
▁to	-9.13997
▁crying	-9.14373
▁sub	-9.14415
▁x	-9.14484
▁ka	-9.14747
▁doc	-9.14794
ber	-9.1496
▁doors	-9.1502
act	-9.15077
▁ne	-9.15124
▁suck	-9.1514
▁lied	-9.15208
time	-9.15315
▁bell	-9.15332
▁j	-9.15338
▁allow	-9.15397
ble	-9.15487
▁wouldve	-9.15711
ac	-9.15713
▁soft	-9.15754
do	-9.15869
▁cry	-9.15873
▁paul	-9.15928
▁rob	-9.15954
▁bruce	-9.15959
▁elizabeth	-9.15959
▁decision	-9.15959
▁third	-9.15959
▁blind	-9.1596
▁wherever	-9.15961
▁crime	-9.15965
▁hungry	-9.15966
▁jim	-9.15982
▁match	-9.15993
▁mmhmm	-9.16024
red	-9.16126
▁pet	-9.16159
▁player	-9.16213
▁yi	-9.16276
▁army	-9.1628
▁eating	-9.1646
▁locked	-9.16592
▁crap	-9.166
▁greatest	-9.16664
▁gold	-9.16803
▁sta	-9.16835
▁teach	-9.17051
▁rid	-9.17127
▁wave	-9.17329
▁spider	-9.17336
▁bird	-9.17417
▁leader	-9.17809
▁serve	-9.17853
ga	-9.17898
▁angel	-9.17995
▁plate	-9.18285
▁afternoon	-9.18285
▁audrey	-9.18285
▁brenda	-9.18285
▁difficult	-9.18285
▁especially	-9.18285
▁dumb	-9.18285
▁stories	-9.18285
▁freedom	-9.18285
▁tommy	-9.18289
▁lf	-9.18295
▁worst	-9.18298
▁bother	-9.18299
▁sake	-9.183
▁vader	-9.183
▁wide	-9.18311
▁exist	-9.18318
▁immediately	-9.18328
▁path	-9.18393
▁cup	-9.18435
▁action	-9.1848
▁gary	-9.18517
▁toy	-9.18589
▁dit	-9.18599
▁busy	-9.18649
▁nature	-9.18671
▁interested	-9.18739
▁mu	-9.18952
▁tie	-9.19045
▁learned	-9.19412
ug	-9.19481
▁san	-9.19502
ph	-9.1951
ul	-9.19606
ated	-9.19701
▁fat	-9.19885
▁crack	-9.20048
▁sam	-9.20146
▁closed	-9.20233
▁butt	-9.2027
▁rings	-9.20284
▁share	-9.2035
▁built	-9.20666
▁doubt	-9.20666
▁dracula	-9.20666
▁excellent	-9.20666
▁excited	-9.20666
▁heavy	-9.20666
▁instead	-9.20666
▁major	-9.20666
▁skeeter	-9.20666
▁location	-9.20666
▁account	-9.20667
ah	-9.20667
▁lisa	-9.20673
▁shouldve	-9.20677
▁josh	-9.20694
▁secure	-9.20697
▁whatd	-9.20743
▁incredible	-9.20751
ally	-9.20762
▁heh	-9.20767
▁due	-9.20929
▁sleeping	-9.21021
▁ra	-9.21067
▁post	-9.21132
▁amen	-9.21343
ci	-9.21359
led	-9.216
▁systems	-9.21629
▁driver	-9.21882
▁cute	-9.21909
▁gosh	-9.22193
▁whose	-9.22229
▁promised	-9.22238
▁seek	-9.22642
▁koning	-9.22929
the	-9.22996
ier	-9.23092
▁access	-9.23105
▁christopher	-9.23105
▁everywhere	-9.23105
▁nervous	-9.23105
▁admit	-9.23105
▁angry	-9.23105
▁pardon	-9.23105
▁gollum	-9.23105
▁swing	-9.23108
▁note	-9.23114
▁lift	-9.2317
▁mass	-9.23289
art	-9.23302
▁paris	-9.23368
▁spy	-9.23447
▁dean	-9.23645
▁growing	-9.23983
▁sacrifice	-9.24196
▁prison	-9.24612
▁idiot	-9.24815
▁belong	-9.24825
▁camera	-9.24997
▁mac	-9.25007
▁honest	-9.25416
▁weak	-9.25581
▁evidence	-9.25605
▁helsing	-9.25605
▁rafo	-9.25605
▁twice	-9.25605
▁sharon	-9.25621
▁pressure	-9.25622
▁purpose	-9.25628
▁aunt	-9.25643
▁losing	-9.25645
▁jacket	-9.25671
▁sitting	-9.25704
▁shake	-9.25935
over	-9.2596
▁size	-9.25962
ped	-9.25968
ina	-9.26105
▁commander	-9.26209
▁holding	-9.26307
ure	-9.2655
▁als	-9.26571
▁dogs	-9.26597
▁brothers	-9.26811
wa	-9.2684
just	-9.26951
▁bear	-9.27127
ud	-9.2727
ru	-9.27286
▁map	-9.27463
▁animal	-9.2749
▁ender	-9.27512
▁trick	-9.27529
ship	-9.27746
▁quit	-9.28036
▁pr	-9.28101
▁ancient	-9.28169
▁possibly	-9.28169
▁practice	-9.28169
▁smoke	-9.28169
▁suspect	-9.28169
▁switch	-9.28169
▁bridge	-9.28169
▁colonel	-9.28169
▁kingdom	-9.28169
▁indeed	-9.2817
▁monster	-9.28174
▁ronan	-9.28185
▁alex	-9.28185
▁conversation	-9.28189
▁nina	-9.2819
▁film	-9.28194
▁shame	-9.28197
▁grail	-9.28207
▁shaw	-9.28215
▁safety	-9.28237
▁groaning	-9.28309
▁snap	-9.2836
ner	-9.28405
▁weapons	-9.28513
▁dare	-9.2859
▁bra	-9.2868
▁bat	-9.28783
▁harm	-9.28868
▁stu	-9.28927
▁card	-9.29113
▁continue	-9.29132
▁figured	-9.29304
▁stars	-9.29306
▁mor	-9.29392
▁up	-9.29485
▁arms	-9.29556
▁cha	-9.29567
ap	-9.29577
▁besides	-9.29629
▁using	-9.29659
▁treat	-9.29864
ence	-9.29889
▁ear	-9.29935
▁event	-9.2995
▁plans	-9.30081
row	-9.30089
▁screw	-9.30205
▁missile	-9.3022
▁stone	-9.30426
▁following	-9.30447
her	-9.30497
▁can	-9.30522
▁matt	-9.3059
▁correct	-9.30701
▁mmhm	-9.30725
▁doug	-9.30742
▁discuss	-9.30747
▁numbers	-9.3079
▁awesome	-9.308
▁ghost	-9.308
▁license	-9.308
▁orchestra	-9.308
▁regret	-9.308
▁support	-9.308
▁taught	-9.308
▁pretend	-9.30801
▁noise	-9.30801
▁rome	-9.30801
▁bobby	-9.30808
▁rush	-9.3081
▁department	-9.30813
▁common	-9.30845
▁band	-9.30858
▁neck	-9.30891
▁under	-9.30894
▁saving	-9.30977
▁legs	-9.30991
▁liked	-9.3108
▁willing	-9.31121
tr	-9.31132
ham	-9.31244
▁roberta	-9.31249
▁large	-9.3135
▁whispers	-9.31576
▁usual	-9.31596
ger	-9.31624
ny	-9.31656
ible	-9.31686
▁pig	-9.32097
▁passed	-9.322
ions	-9.32212
unt	-9.32339
gg	-9.32681
▁wil	-9.32707
▁steal	-9.32751
tra	-9.32765
▁cook	-9.32856
▁lies	-9.32924
▁dreams	-9.32939
▁appear	-9.3295
▁decide	-9.33072
ack	-9.33178
▁pen	-9.33197
▁spoke	-9.33266
▁barr	-9.33292
▁robots	-9.3332
▁at	-9.3338
▁effect	-9.33466
▁birth	-9.33498
▁computer	-9.33503
▁dillon	-9.33503
▁innocent	-9.33503
▁pocket	-9.33503
▁satellite	-9.33503
▁stormtrooper	-9.33503
▁upstairs	-9.33503
▁zamunda	-9.33503
▁judge	-9.33503
▁wrote	-9.33503
▁jerry	-9.33503
▁roof	-9.33503
▁sarge	-9.33503
▁ugh	-9.33504
▁repeat	-9.33504
▁speed	-9.33506
▁romantic	-9.33507
▁upset	-9.33509
▁apparently	-9.33518
▁biggest	-9.33519
▁contract	-9.33525
▁shop	-9.33528
▁hook	-9.33532
▁guest	-9.33543
▁type	-9.33582
▁lying	-9.33622
▁powerful	-9.33623
▁honestly	-9.3374
▁circle	-9.33818
▁fighting	-9.33837
▁sight	-9.33874
▁books	-9.33904
▁warning	-9.3393
▁phil	-9.3397
▁bike	-9.3399
▁lou	-9.34078
▁fucking	-9.34187
▁comp	-9.34213
▁shed	-9.34298
▁plus	-9.34425
▁breaking	-9.34425
▁ty	-9.34472
▁listening	-9.34704
▁para	-9.34986
▁mate	-9.35539
▁fuck	-9.35583
▁create	-9.35844
ley	-9.3586
▁starting	-9.3587
▁survive	-9.35899
▁pu	-9.36018
▁goin	-9.36149
▁dia	-9.36269
▁danger	-9.36278
▁breakfast	-9.36281
▁chinese	-9.36281
▁kitchen	-9.36281
▁nuclear	-9.36281
▁plenty	-9.36281
▁strength	-9.36281
▁teeth	-9.36281
▁susie	-9.36284
▁waar	-9.36284
▁macho	-9.36289
▁awful	-9.36309
▁price	-9.36309
ook	-9.36324
▁letter	-9.36597
▁putting	-9.36612
▁quickly	-9.36667
ver	-9.36831
▁tr	-9.36834
▁stranger	-9.36992
▁port	-9.37016
▁gu	-9.37105
▁pope	-9.37209
▁ringing	-9.37393
▁balls	-9.37478
fa	-9.37894
▁egg	-9.37905
line	-9.37958
▁t	-9.3808
▁picked	-9.38535
▁fail	-9.38566
ey	-9.38642
▁file	-9.38719
▁and	-9.38795
▁raise	-9.38818
ick	-9.38822
▁games	-9.3884
▁staying	-9.38901
▁program	-9.39048
▁sara	-9.39083
▁sold	-9.39129
▁storm	-9.39136
▁cheese	-9.39138
▁insurance	-9.39138
▁memory	-9.39138
▁project	-9.39138
▁ridiculous	-9.39138
▁subject	-9.39138
▁denise	-9.39138
▁symbol	-9.39138
▁truly	-9.39138
▁scratch	-9.39139
▁local	-9.39139
▁ryan	-9.39139
▁address	-9.39141
▁grandfather	-9.39141
ex	-9.39145
▁helen	-9.39151
▁elevator	-9.39152
kin	-9.39155
▁pin	-9.39203
vo	-9.3929
▁maria	-9.3945
▁certainly	-9.39453
▁grown	-9.39486
ging	-9.39541
▁row	-9.39553
▁panic	-9.3956
▁beg	-9.39581
ab	-9.39726
▁hall	-9.39752
▁bl	-9.39797
▁diamonds	-9.40076
▁theyd	-9.40241
▁draw	-9.40253
▁page	-9.40349
▁starts	-9.40377
den	-9.40604
io	-9.40625
▁ren	-9.4072
fi	-9.40739
▁rat	-9.40753
▁horses	-9.4098
▁plays	-9.40988
▁shower	-9.4112
▁fe	-9.41123
▁bust	-9.41299
▁bite	-9.41352
▁build	-9.41386
▁disappear	-9.41473
▁bones	-9.41493
▁gl	-9.41503
▁escape	-9.41637
▁wheel	-9.41648
▁experience	-9.41658
▁sin	-9.41764
▁bull	-9.41769
▁steve	-9.4184
▁brand	-9.42035
▁beauty	-9.42079
▁bottle	-9.42079
▁bottom	-9.42079
▁dwarf	-9.42079
▁galaxy	-9.42079
▁monitor	-9.42079
▁restaurant	-9.42079
▁silver	-9.42079
▁kitai	-9.42079
▁anderson	-9.42079
▁fresh	-9.42079
▁paddle	-9.4208
▁dump	-9.42081
▁however	-9.42081
▁pilot	-9.42082
▁pants	-9.42108
ial	-9.42121
▁christine	-9.42126
▁hiding	-9.42129
▁rise	-9.42162
▁suddenly	-9.422
▁coat	-9.42221
▁male	-9.42368
▁hath	-9.42413
▁prom	-9.42543
▁out	-9.42603
▁sexy	-9.42661
▁wh	-9.42766
ock	-9.42943
▁ab	-9.43051
▁paint	-9.43086
ture	-9.43102
▁ends	-9.43252
▁fr	-9.43252
▁af	-9.43592
▁ju	-9.43784
▁interest	-9.43871
▁cars	-9.43913
▁ri	-9.43915
ism	-9.44575
▁piss	-9.44614
▁notice	-9.4467
▁newt	-9.44698
▁health	-9.44821
▁hill	-9.44849
▁cardinal	-9.4488
▁orb	-9.45069
▁orc	-9.45085
▁laws	-9.45089
▁adaline	-9.4511
▁chirping	-9.4511
▁disease	-9.4511
▁doubtfire	-9.4511
▁exciting	-9.4511
▁insane	-9.4511
▁london	-9.4511
▁source	-9.4511
▁traffic	-9.4511
▁whether	-9.4511
▁sugar	-9.4511
▁view	-9.4511
▁credit	-9.4511
▁cancer	-9.45111
▁silly	-9.45111
▁audience	-9.45112
▁campbell	-9.45113
▁nurse	-9.45113
▁trapped	-9.45116
▁larry	-9.4512
▁bright	-9.45121
▁spock	-9.45122
▁loose	-9.45124
▁often	-9.45125
▁held	-9.45125
mon	-9.45145
▁scene	-9.45171
▁pink	-9.45213
▁whered	-9.45214
▁manager	-9.45239
▁carver	-9.45243
▁alle	-9.45271
▁indian	-9.454
▁softly	-9.45403
▁stage	-9.45455
▁iron	-9.45663
▁fa	-9.45736
▁gus	-9.46219
▁sat	-9.46281
▁kan	-9.46644
▁sha	-9.46699
▁beer	-9.46715
▁kinda	-9.46765
que	-9.46924
▁fingers	-9.47058
▁whi	-9.47157
▁takes	-9.47392
▁couldve	-9.47484
▁calls	-9.47692
ren	-9.47865
▁deliver	-9.47923
▁russia	-9.48
▁inter	-9.48002
▁ought	-9.48089
▁patient	-9.48112
▁student	-9.48134
▁threat	-9.48233
▁asleep	-9.48235
▁brilliant	-9.48235
▁exhales	-9.48235
▁foreign	-9.48235
▁fought	-9.48235
▁patrick	-9.48235
▁piragua	-9.48235
▁pregnant	-9.48235
▁square	-9.48235
▁thunder	-9.48235
▁vehicle	-9.48235
▁clock	-9.48235
▁distance	-9.48235
▁literally	-9.48235
▁jimmy	-9.48235
▁martin	-9.48235
▁cousin	-9.48235
▁score	-9.48235
▁monday	-9.48237
▁sammy	-9.48239
▁thatll	-9.48241
▁tyler	-9.48244
▁roarke	-9.48246
▁bunch	-9.48249
▁nope	-9.48258
▁meat	-9.48275
▁chili	-9.48335
▁brave	-9.48337
▁sonny	-9.48341
▁wet	-9.48366
▁hut	-9.48416
tract	-9.48418
▁bigger	-9.48425
▁invited	-9.48437
▁lesson	-9.48461
▁drinking	-9.4848
▁pipe	-9.48482
▁all	-9.48646
▁beeping	-9.48683
▁lab	-9.48704
▁created	-9.4873
▁hoe	-9.48805
▁wood	-9.48953
bu	-9.49029
▁nation	-9.49214
▁killer	-9.49249
▁hier	-9.4926
▁murdered	-9.49381
▁closer	-9.49478
▁destroyed	-9.49584
▁rot	-9.49602
▁hum	-9.49631
tu	-9.49651
▁dot	-9.49822
▁tu	-9.49865
ken	-9.5002
amp	-9.50067
▁seemed	-9.5008
▁pulled	-9.50203
▁bucks	-9.50224
▁cheers	-9.50346
istic	-9.50403
▁trained	-9.5055
ize	-9.50601
ue	-9.50709
▁arrest	-9.50864
▁ohh	-9.50872
▁ob	-9.50893
va	-9.51183
▁hanging	-9.51246
▁mc	-9.51265
ler	-9.51276
▁chair	-9.51449
▁anspeak	-9.5146
▁bertleman	-9.5146
▁fantastic	-9.5146
▁holiday	-9.5146
▁respond	-9.5146
▁shirt	-9.5146
▁simply	-9.5146
▁somehow	-9.5146
▁zidler	-9.5146
▁bounce	-9.5146
▁trash	-9.5146
▁cruel	-9.51461
▁signior	-9.51461
▁damage	-9.51461
▁jerk	-9.51464
▁spell	-9.51472
▁baseball	-9.51473
▁knight	-9.51479
▁oak	-9.51479
▁abby	-9.51485
▁jody	-9.51488
▁claudio	-9.515
▁market	-9.51507
▁babe	-9.51507
▁problems	-9.51516
▁labor	-9.51551
▁grave	-9.51577
▁zoon	-9.51668
▁sa	-9.51673
▁sweetie	-9.51691
▁confirmed	-9.51762
▁original	-9.51783
▁ray	-9.51864
▁approaching	-9.51979
▁worlds	-9.52022
▁chill	-9.52257
▁rent	-9.52274
down	-9.52372
▁voices	-9.52614
▁waters	-9.5275
▁prisoner	-9.52761
▁queens	-9.53116
▁spin	-9.53144
▁returned	-9.5338
▁tear	-9.53402
ties	-9.53554
▁headed	-9.53562
▁chase	-9.53571
▁tro	-9.53638
▁states	-9.53663
▁beeps	-9.53665
▁ac	-9.53733
ko	-9.53923
▁grant	-9.54225
▁enter	-9.54278
▁ruin	-9.543
▁ted	-9.54341
▁showed	-9.54419
▁ke	-9.54433
ell	-9.54439
▁gods	-9.54548
▁apart	-9.5477
▁rod	-9.54784
▁bourne	-9.54794
▁opportunity	-9.54794
▁response	-9.54794
▁dudley	-9.54794
▁england	-9.54794
▁cheap	-9.54794
▁italy	-9.54795
▁alert	-9.54795
▁augustus	-9.54796
▁awake	-9.54797
▁precious	-9.54798
▁blackwood	-9.54802
▁tiger	-9.5481
▁professional	-9.54812
▁schedule	-9.54812
▁dropped	-9.54836
▁announcer	-9.54842
▁pair	-9.54843
▁older	-9.54861
▁dna	-9.54911
ja	-9.55016
▁shine	-9.55021
▁hoping	-9.55062
▁national	-9.55073
▁spare	-9.55133
▁sue	-9.5514
▁rip	-9.55151
▁bb	-9.55172
▁uit	-9.55199
▁agreed	-9.55473
▁tail	-9.55477
ating	-9.55515
▁painting	-9.55662
▁dom	-9.55775
▁families	-9.5601
tle	-9.56021
▁dollars	-9.56127
▁birds	-9.56163
▁bath	-9.56292
▁nuts	-9.56484
ax	-9.56509
off	-9.56639
▁her	-9.56856
▁flying	-9.57239
rie	-9.5738
▁bringing	-9.57387
▁ap	-9.57458
▁papers	-9.57552
▁prepare	-9.57803
board	-9.57838
▁flow	-9.5797
▁pie	-9.57992
▁chew	-9.58155
▁according	-9.58242
▁asgard	-9.58242
▁friday	-9.58242
▁horrible	-9.58242
▁interview	-9.58242
▁moscow	-9.58242
▁particular	-9.58242
▁relationship	-9.58242
▁claim	-9.58242
▁clue	-9.58242
▁defend	-9.58242
▁earlier	-9.58242
▁thief	-9.58242
▁vacation	-9.58242
▁grew	-9.58242
▁creak	-9.58242
▁snow	-9.58242
▁kelly	-9.58243
▁shift	-9.58246
▁assistant	-9.58248
▁wipe	-9.58251
▁famous	-9.58274
▁written	-9.58278
ps	-9.58281
▁naked	-9.5829
▁max	-9.58308
▁winter	-9.58374
▁condition	-9.58455
▁inc	-9.58761
▁screeching	-9.58799
ized	-9.58894
▁failed	-9.58961
▁vote	-9.58963
▁faster	-9.5912
ach	-9.59137
▁allowed	-9.59149
▁rap	-9.59366
▁hu	-9.59415
ak	-9.59438
▁aan	-9.5949
▁wee	-9.59733
ball	-9.59805
▁ld	-9.59841
rand	-9.60172
▁nee	-9.60227
▁greene	-9.60232
▁played	-9.60568
▁feelings	-9.60597
▁ca	-9.60697
▁artist	-9.60933
▁su	-9.61061
hi	-9.61152
▁concern	-9.61221
▁cleaning	-9.61244
▁require	-9.61368
qui	-9.61526
▁official	-9.6159
di	-9.61611
▁fired	-9.61679
▁among	-9.61764
▁quarter	-9.61807
▁female	-9.61813
▁intelligence	-9.61813
▁ocean	-9.61813
▁sobbing	-9.61813
▁speech	-9.61813
▁custom	-9.61813
▁empty	-9.61813
▁lanning	-9.61814
▁poison	-9.61814
▁vanessa	-9.61814
▁threw	-9.61814
▁unusual	-9.61814
▁brown	-9.61814
▁heights	-9.61814
▁jonathan	-9.61816
▁lawyer	-9.61819
▁virgin	-9.61826
▁penny	-9.61827
▁property	-9.61831
▁allison	-9.61835
▁quill	-9.61835
▁blame	-9.61838
▁marshall	-9.61844
▁race	-9.61863
▁ms	-9.61868
▁walked	-9.61883
▁director	-9.61884
▁camp	-9.61884
▁weight	-9.61886
▁johnny	-9.61886
▁nathan	-9.61888
▁spit	-9.6189
▁tor	-9.61893
▁demon	-9.61942
▁writing	-9.61956
▁eric	-9.62057
▁blast	-9.62092
▁loss	-9.62096
▁ranger	-9.62111
▁woods	-9.62175
▁por	-9.62234
▁pot	-9.62518
▁app	-9.62524
▁fred	-9.62537
▁chest	-9.62541
▁bent	-9.62625
▁sport	-9.62672
▁pee	-9.62827
▁highly	-9.62944
ight	-9.63036
▁alli	-9.63278
▁fixed	-9.63298
ang	-9.63438
▁cure	-9.63461
▁orders	-9.63475
▁dressed	-9.63491
▁watched	-9.63569
▁barn	-9.63649
▁pictures	-9.63773
▁jam	-9.63808
ze	-9.63837
▁fl	-9.64029
▁blowing	-9.64224
▁believed	-9.64607
▁hunt	-9.64661
ide	-9.64721
og	-9.64976
▁image	-9.6507
ily	-9.65133
▁assume	-9.6524
back	-9.6524
▁aliens	-9.65279
▁range	-9.65382
▁chick	-9.65431
ill	-9.65465
▁swim	-9.65516
▁advice	-9.65517
▁although	-9.65517
▁became	-9.65517
▁heeft	-9.65517
▁lieutenant	-9.65517
▁otherwise	-9.65517
▁penguin	-9.65517
▁soviet	-9.65517
▁sword	-9.65517
▁tongue	-9.65517
▁vittoria	-9.65517
▁babies	-9.65517
▁toilet	-9.65517
▁alarm	-9.65517
▁lomax	-9.65517
▁berlin	-9.65517
▁term	-9.65522
▁jij	-9.65528
▁balin	-9.65544
▁duck	-9.65553
▁fellow	-9.65554
▁coach	-9.6556
▁china	-9.65562
▁wise	-9.65564
▁tour	-9.6558
▁freeze	-9.65587
▁rocket	-9.65596
les	-9.65651
▁loan	-9.65678
▁blade	-9.65732
▁sale	-9.65737
▁hired	-9.65772
▁flat	-9.6578
▁cage	-9.66003
▁bullet	-9.66016
▁wayne	-9.66119
▁letters	-9.66169
ker	-9.66221
▁slip	-9.66254
▁saun	-9.66269
▁tall	-9.66315
ont	-9.66429
▁cooking	-9.66489
▁surprised	-9.66575
▁tw	-9.66616
▁flowers	-9.66948
head	-9.66973
▁goodness	-9.66992
▁opens	-9.67163
▁mer	-9.67183
▁dig	-9.67216
▁checking	-9.67496
▁covered	-9.6758
▁hardly	-9.67684
▁soldiers	-9.67692
▁names	-9.68142
light	-9.6816
lor	-9.68185
ij	-9.6821
▁creatures	-9.6831
▁mile	-9.68436
▁masters	-9.68704
▁min	-9.68827
▁moet	-9.68828
▁viv	-9.68842
▁sending	-9.68871
zz	-9.68939
ft	-9.68996
▁jealous	-9.69056
▁scott	-9.69095
▁somebodys	-9.6919
▁parts	-9.69265
▁apologize	-9.69363
▁attempt	-9.69363
▁benjamin	-9.69363
▁chirps	-9.69363
▁complicated	-9.69363
▁criminal	-9.69363
▁kobayashi	-9.69363
▁oxygen	-9.69363
▁arthur	-9.69363
▁device	-9.69363
▁firm	-9.69363
▁marriage	-9.69363
▁social	-9.69363
▁benedick	-9.69363
▁client	-9.69363
▁split	-9.69363
▁wicked	-9.69363
▁hadnt	-9.69363
▁usnavi	-9.69363
▁desert	-9.69364
▁hidden	-9.69364
▁devil	-9.69364
▁desire	-9.69366
▁recognize	-9.69366
▁basically	-9.69368
▁celia	-9.69371
▁groot	-9.69371
▁hogs	-9.69375
▁internet	-9.69376
▁beast	-9.69377
▁responsible	-9.6938
▁energy	-9.69405
▁cur	-9.69442
▁decent	-9.69461
▁tip	-9.69465
▁fla	-9.69479
▁proper	-9.69498
▁kate	-9.69546
▁dirty	-9.69571
▁tomb	-9.69584
▁ruby	-9.69603
▁baron	-9.69637
▁que	-9.6965
▁fourth	-9.69722
▁off	-9.69815
▁clears	-9.69864
▁chas	-9.69865
▁shows	-9.69876
ple	-9.69896
▁ticket	-9.7003
▁entirely	-9.70129
▁main	-9.7025
▁ian	-9.70268
▁prefer	-9.7027
uw	-9.70416
▁grade	-9.70453
▁filled	-9.7047
▁cameras	-9.7056
▁bi	-9.70752
▁introduce	-9.70778
▁ev	-9.71239
▁acting	-9.71412
▁keeping	-9.71469
ably	-9.71512
▁hearing	-9.71594
▁pan	-9.71824
▁walls	-9.72153
ov	-9.72265
▁dry	-9.72368
▁ko	-9.7256
▁sean	-9.72611
▁bless	-9.72836
▁refuse	-9.7293
▁curse	-9.72953
▁spoon	-9.73003
▁corn	-9.73012
well	-9.73031
▁natural	-9.73175
▁exact	-9.73176
fe	-9.73195
▁who	-9.73281
▁hydra	-9.73352
▁scan	-9.73359
▁abuela	-9.73363
▁confess	-9.73363
▁downstairs	-9.73363
▁gilcrest	-9.73363
▁guldan	-9.73363
▁mercedes	-9.73363
▁suicide	-9.73363
▁village	-9.73363
▁avoid	-9.73363
▁interrupt	-9.73363
▁jacob	-9.73363
▁practical	-9.73363
▁weather	-9.73363
▁minho	-9.73363
▁slide	-9.73363
▁opinion	-9.73363
▁piano	-9.73363
▁swan	-9.73364
▁funeral	-9.73365
▁lonely	-9.73365
▁spring	-9.73365
▁monkey	-9.73365
▁barely	-9.73367
▁mood	-9.73369
▁yellow	-9.73369
▁route	-9.73369
▁insist	-9.7337
▁spread	-9.73372
▁talent	-9.73376
▁honking	-9.73376
▁harry	-9.73377
▁merry	-9.73382
▁adler	-9.73384
▁mommy	-9.73386
▁bride	-9.7339
▁fake	-9.7339
▁grandma	-9.73415
▁drill	-9.73429
▁bail	-9.73435
▁cave	-9.73447
▁proof	-9.73476
▁students	-9.73503
▁bon	-9.73533
▁involved	-9.7356
▁princess	-9.73612
▁shape	-9.73626
▁eve	-9.73751
▁hem	-9.7376
▁drown	-9.73855
▁prepared	-9.73877
▁hol	-9.73981
▁concerned	-9.74032
▁manner	-9.74059
▁pirate	-9.74146
▁model	-9.74206
▁gotham	-9.74357
▁lion	-9.74408
▁vo	-9.7474
▁ships	-9.74741
▁mistakes	-9.7479
▁stayed	-9.75237
▁scar	-9.75352
▁gal	-9.75376
ever	-9.75612
ify	-9.75726
▁tri	-9.7576
▁ln	-9.75859
▁wings	-9.75873
▁attacked	-9.76289
▁boo	-9.76385
▁illuminati	-9.76386
port	-9.76387
▁spots	-9.76426
▁par	-9.76436
▁rep	-9.76474
▁mothers	-9.76649
ative	-9.76674
▁gi	-9.76785
▁reports	-9.769
▁request	-9.76917
▁crush	-9.76927
▁gentle	-9.77234
uit	-9.77373
▁comfort	-9.77494
▁amsterdam	-9.7753
▁applause	-9.7753
▁arizona	-9.7753
▁catholic	-9.7753
▁celebrate	-9.7753
▁challenge	-9.7753
▁cliff	-9.7753
▁desperate	-9.7753
▁disturb	-9.7753
▁empire	-9.7753
▁enemies	-9.7753
▁equipment	-9.7753
▁extreme	-9.7753
▁miranda	-9.7753
▁revenge	-9.7753
▁surveillance	-9.7753
▁whenever	-9.7753
▁afford	-9.7753
▁greek	-9.7753
▁marisa	-9.7753
▁cream	-9.7753
▁federal	-9.7753
▁warrior	-9.7753
▁mostly	-9.7753
▁nightmare	-9.7753
▁intend	-9.77531
▁giggling	-9.77531
▁ugly	-9.77532
▁whoever	-9.77536
▁eventually	-9.77539
▁surgery	-9.77543
▁loving	-9.77545
▁shock	-9.77548
▁michelle	-9.77553
▁cake	-9.77556
▁legend	-9.77562
▁hawaiian	-9.77564
▁yearold	-9.7757
▁nasty	-9.77596
▁helped	-9.77597
▁basement	-9.77609
▁coughing	-9.77639
▁bert	-9.77659
▁mister	-9.77674
▁gri	-9.77698
▁zero	-9.77701
▁rough	-9.77737
▁meal	-9.77759
▁huge	-9.77775
▁chain	-9.77814
▁bone	-9.77836
▁spoken	-9.779
▁stolen	-9.77991
▁bug	-9.77999
▁val	-9.78184
▁scare	-9.78273
▁raised	-9.78345
▁wie	-9.78392
▁bla	-9.78428
▁sla	-9.78468
▁stronger	-9.78481
▁bu	-9.78572
▁showing	-9.78594
▁joint	-9.78613
▁sooner	-9.78769
len	-9.78791
▁bri	-9.78919
▁boot	-9.78926
you	-9.7894
▁hon	-9.79028
▁clearly	-9.79044
▁eh	-9.79284
▁fel	-9.79323
low	-9.79332
▁expecting	-9.79339
of	-9.79634
▁gar	-9.7972
▁ross	-9.79818
▁data	-9.79901
▁keeps	-9.79973
oon	-9.80036
ney	-9.80153
ung	-9.80283
▁turner	-9.80293
▁cab	-9.80687
▁followed	-9.80709
▁opened	-9.80765
▁nobodys	-9.80772
▁falling	-9.80851
▁screech	-9.81177
▁approach	-9.81179
mber	-9.81208
▁wash	-9.81271
▁study	-9.8134
▁dec	-9.81357
▁direct	-9.81391
jo	-9.81451
house	-9.81525
▁gives	-9.81565
▁twist	-9.81607
▁total	-9.81707
▁begins	-9.81716
▁mae	-9.81755
▁somethin	-9.81798
dog	-9.81825
▁sail	-9.81834
▁available	-9.81878
▁beatrice	-9.81878
▁broadcast	-9.81878
▁channel	-9.81878
▁destiny	-9.81878
▁gabriel	-9.81878
▁guarantee	-9.81878
▁ignore	-9.81878
▁including	-9.81878
▁maintain	-9.81878
▁mandarin	-9.81878
▁memories	-9.81878
▁miracle	-9.81878
▁result	-9.81878
▁sergeant	-9.81878
▁sophie	-9.81878
▁tunnel	-9.81878
▁understood	-9.81878
▁bofur	-9.81878
▁calvin	-9.81878
▁choking	-9.81878
▁policy	-9.81878
▁separate	-9.81878
▁washington	-9.81878
▁byebye	-9.81878
▁theory	-9.81878
▁pound	-9.81878
▁bandera	-9.81878
▁erik	-9.81879
▁mitchell	-9.8188
▁dancing	-9.8188
▁bunny	-9.81882
▁pepper	-9.81882
▁permission	-9.81883
▁belt	-9.81883
▁civilian	-9.81888
▁flash	-9.81897
▁sunday	-9.819
▁familiar	-9.81902
▁photograph	-9.81903
▁qui	-9.81903
▁aware	-9.81907
▁comfortable	-9.81916
▁treasure	-9.81921
▁witch	-9.81923
▁season	-9.81955
▁chewie	-9.81989
▁nog	-9.82
▁tiny	-9.82003
▁vision	-9.82004
▁guns	-9.82057
▁castle	-9.82087
▁directly	-9.82099
▁kyl	-9.82137
▁yelling	-9.82187
ium	-9.82455
▁butter	-9.82478
▁noticed	-9.82517
▁personally	-9.8253
▁vol	-9.82551
▁letting	-9.82735
▁issue	-9.83055
▁creature	-9.83085
▁of	-9.83127
pro	-9.83419
als	-9.83445
▁freaking	-9.83533
even	-9.83657
▁spiders	-9.83695
▁sch	-9.83701
▁sucks	-9.8376
▁doctors	-9.83762
nder	-9.83923
▁rogers	-9.83945
▁here	-9.83947
▁rate	-9.83977
▁sec	-9.84114
▁lu	-9.84341
▁parking	-9.84376
▁warn	-9.84518
▁ira	-9.84742
▁trans	-9.84786
▁wit	-9.84862
room	-9.84878
ile	-9.85146
▁borrow	-9.8582
▁waited	-9.85825
iss	-9.85911
▁hm	-9.86017
▁inf	-9.86077
ual	-9.86346
▁transport	-9.86378
▁invest	-9.86387
▁attend	-9.86397
▁neighbor	-9.8642
▁baggins	-9.86423
▁british	-9.86423
▁champagne	-9.86423
▁courage	-9.86423
▁downtown	-9.86423
▁easier	-9.86423
▁elliot	-9.86423
▁experiment	-9.86423
▁katherine	-9.86423
▁kimble	-9.86423
▁negative	-9.86423
▁nowhere	-9.86423
▁potential	-9.86423
▁represent	-9.86423
▁sequence	-9.86423
▁sheriff	-9.86423
▁beneath	-9.86423
▁carlisle	-9.86423
▁closing	-9.86423
▁current	-9.86423
▁julia	-9.86423
▁niece	-9.86423
▁fortune	-9.86423
▁jerome	-9.86423
▁joffer	-9.86423
▁caroline	-9.86424
▁plain	-9.86424
▁sweat	-9.86424
▁appointment	-9.86424
▁blink	-9.86425
▁midnight	-9.86426
▁neighborhood	-9.86426
▁tracy	-9.86426
▁ellis	-9.86427
▁woodward	-9.86428
▁guide	-9.86437
▁luke	-9.86446
▁staff	-9.86448
▁howard	-9.86449
▁france	-9.86451
onto	-9.86454
▁thud	-9.86469
▁santa	-9.86471
▁growling	-9.86478
▁unfortunately	-9.8648
▁desk	-9.86486
▁homework	-9.86495
▁technically	-9.865
▁edge	-9.86502
▁toe	-9.86537
▁heel	-9.86552
▁rusty	-9.86557
▁aim	-9.86565
▁priory	-9.86585
▁joan	-9.86593
▁asset	-9.86616
▁glen	-9.86636
pped	-9.86774
▁opening	-9.86796
▁nest	-9.86857
▁discovered	-9.86883
▁records	-9.86917
▁gain	-9.8695
▁designed	-9.86993
▁geen	-9.87083
▁files	-9.87191
▁add	-9.87703
▁yard	-9.87811
▁powers	-9.87854
▁dragon	-9.87868
▁wiggin	-9.87892
▁paying	-9.8794
▁cos	-9.87962
ose	-9.87988
▁knocking	-9.88167
▁ay	-9.88215
za	-9.88343
tti	-9.88418
▁burned	-9.8843
▁sen	-9.88542
▁mut	-9.88578
▁lots	-9.88591
▁nah	-9.89053
lar	-9.89118
▁fathers	-9.89167
▁rec	-9.89191
▁settle	-9.89288
▁counting	-9.89382
ities	-9.89446
ient	-9.89791
▁cheat	-9.89851
uff	-9.90071
▁pur	-9.90145
▁tickets	-9.9038
je	-9.90439
igu	-9.90464
▁qua	-9.90572
▁design	-9.90591
▁limit	-9.90592
cha	-9.90612
▁release	-9.90732
▁ski	-9.90821
▁milt	-9.90825
pen	-9.90894
▁fur	-9.91099
▁retire	-9.91151
▁comm	-9.91153
▁akeem	-9.91185
▁alabanza	-9.91185
▁cypher	-9.91185
▁empress	-9.91185
▁league	-9.91185
▁necessary	-9.91185
▁surrender	-9.91185
▁temperature	-9.91185
▁texas	-9.91185
▁therefore	-9.91185
▁trigger	-9.91185
▁unbelievable	-9.91185
▁border	-9.91185
▁pathetic	-9.91185
▁supper	-9.91185
▁teresa	-9.91185
▁wolf	-9.91185
▁balance	-9.91185
▁buried	-9.91185
▁maisie	-9.91185
▁corps	-9.91185
▁jenny	-9.91185
▁sniff	-9.91185
▁atari	-9.91185
▁bodies	-9.91185
▁false	-9.91185
▁modern	-9.91185
▁youth	-9.91185
▁rumor	-9.91186
▁evelyn	-9.91186
▁personnel	-9.91186
▁deaf	-9.91187
▁olive	-9.91188
▁habit	-9.91189
▁role	-9.91191
▁europe	-9.91191
▁application	-9.91191
▁quarterback	-9.91194
▁fruit	-9.91195
▁valley	-9.91195
▁theme	-9.91196
▁percent	-9.91198
▁sample	-9.91199
▁curious	-9.91201
▁governor	-9.91211
▁document	-9.91212
▁hillard	-9.91215
▁handsome	-9.91225
▁sauce	-9.91231
▁diana	-9.91231
▁wallet	-9.91243
▁stock	-9.9126
▁milk	-9.91264
▁maze	-9.91269
▁pool	-9.91273
▁betty	-9.91289
▁began	-9.91296
▁zone	-9.91297
▁darkness	-9.91303
▁colt	-9.9135
▁cabin	-9.91355
▁skull	-9.91371
▁rare	-9.91373
▁direction	-9.91384
▁print	-9.91397
▁my	-9.91403
▁bean	-9.91471
lijk	-9.91473
▁fury	-9.91488
▁orcs	-9.91524
▁eden	-9.91561
▁deck	-9.91625
▁sitar	-9.91664
▁stark	-9.91685
▁dock	-9.91688
▁dez	-9.91739
▁ci	-9.91813
▁exp	-9.91962
▁pi	-9.91971
▁hills	-9.91988
▁deeply	-9.92013
▁blessing	-9.92035
▁billy	-9.92053
▁cia	-9.92105
▁beep	-9.92168
▁points	-9.92179
▁cheer	-9.92183
▁clan	-9.92296
yo	-9.92325
▁woo	-9.92438
▁riding	-9.92672
▁legal	-9.92718
bacc	-9.92757
▁writer	-9.92778
▁drugs	-9.9295
▁sm	-9.93253
▁meaning	-9.93482
mat	-9.93576
▁burning	-9.93692
bar	-9.93759
▁med	-9.94372
cent	-9.94485
▁har	-9.94597
▁suffer	-9.94857
▁chang	-9.94895
▁coast	-9.95299
▁thr	-9.95328
▁hip	-9.95362
▁bang	-9.95579
▁betray	-9.95586
▁suite	-9.95834
ache	-9.95915
▁obvious	-9.95968
ually	-9.96049
▁pale	-9.96108
▁object	-9.96148
▁success	-9.96162
▁revolution	-9.96163
▁sisters	-9.96171
▁cares	-9.96176
▁recommend	-9.96185
▁citizen	-9.96185
▁climb	-9.96185
▁counsel	-9.96185
▁demetrius	-9.96185
▁fifty	-9.96185
▁florida	-9.96185
▁freya	-9.96185
▁genius	-9.96185
▁hermia	-9.96185
▁increase	-9.96185
▁megget	-9.96185
▁nicole	-9.96185
▁occasion	-9.96185
▁pledge	-9.96185
▁protocol	-9.96185
▁pyramus	-9.96185
▁scientific	-9.96185
▁scoffs	-9.96185
▁sweep	-9.96185
▁dwalin	-9.96185
▁honour	-9.96185
▁silence	-9.96185
▁collins	-9.96185
▁complain	-9.96185
▁mortal	-9.96186
▁fireworks	-9.96186
▁dork	-9.96186
▁text	-9.96186
▁sista	-9.96188
▁worship	-9.9619
▁conference	-9.9619
▁lungs	-9.96196
▁navy	-9.96197
▁planning	-9.96197
▁employee	-9.96198
▁protest	-9.96199
▁disaster	-9.96199
▁replace	-9.96202
▁nova	-9.96204
▁cullen	-9.96204
▁ridley	-9.96205
▁tank	-9.96207
▁species	-9.96208
▁laura	-9.96212
▁saint	-9.96213
▁foul	-9.96214
▁coward	-9.96217
▁cuba	-9.9622
▁gather	-9.96223
▁rub	-9.96232
▁rita	-9.96239
▁comin	-9.96248
▁taxi	-9.96275
▁lena	-9.96278
▁jedi	-9.96296
▁sarah	-9.96318
▁slu	-9.96343
▁flag	-9.96355
▁standard	-9.96367
▁arrived	-9.96447
▁powerless	-9.96488
▁dust	-9.96553
▁glasses	-9.96558
▁host	-9.96575
▁buzzing	-9.96641
▁badge	-9.96664
▁healthy	-9.96692
▁lin	-9.96694
▁kane	-9.96701
▁wel	-9.96764
▁beth	-9.96818
▁ook	-9.96826
▁wheeler	-9.9693
tch	-9.97053
▁ruined	-9.97092
▁arch	-9.97149
▁za	-9.97165
day	-9.97268
▁trap	-9.97301
ress	-9.97343
▁scream	-9.9749
▁county	-9.9758
▁crossed	-9.97593
▁checked	-9.97647
▁fra	-9.97669
▁heads	-9.97712
▁lar	-9.97723
▁nor	-9.97825
▁knees	-9.9788
▁fighter	-9.97917
▁finger	-9.98125
▁murderer	-9.98129
▁buck	-9.98136
▁shoulder	-9.98141
▁humans	-9.98156
▁gene	-9.98326
▁chi	-9.98524
▁closet	-9.98603
▁strip	-9.9862
▁gig	-9.98652
▁rev	-9.98702
▁messed	-9.99028
▁lake	-9.99127
▁talkin	-10.0023
all	-10.0042
ical	-10.0047
▁turning	-10.0066
lant	-10.0104
field	-10.011
▁heading	-10.0118
▁non	-10.0122
▁sudden	-10.0123
like	-10.0124
▁tradition	-10.0135
side	-10.0144
▁electric	-10.0144
▁amount	-10.0145
▁attorney	-10.0145
▁benefit	-10.0145
▁biosyn	-10.0145
▁chemical	-10.0145
▁complex	-10.0145
▁confused	-10.0145
▁exegol	-10.0145
▁fashion	-10.0145
▁fifth	-10.0145
▁footsteps	-10.0145
▁gloves	-10.0145
▁gorgeous	-10.0145
▁incident	-10.0145
▁lucinda	-10.0145
▁medivh	-10.0145
▁mexico	-10.0145
▁ninetysix	-10.0145
▁oclock	-10.0145
▁physical	-10.0145
▁sneak	-10.0145
▁twelve	-10.0145
▁agency	-10.0145
▁process	-10.0145
▁stanley	-10.0145
▁wreck	-10.0145
▁material	-10.0145
▁wound	-10.0145
▁kathy	-10.0145
▁random	-10.0145
▁regard	-10.0145
▁gwen	-10.0145
▁boldwood	-10.0145
▁proceed	-10.0145
▁demand	-10.0145
▁dropping	-10.0145
▁surface	-10.0145
▁stink	-10.0146
▁medicine	-10.0146
▁sharp	-10.0148
▁giant	-10.0148
▁pitch	-10.0148
▁bedroom	-10.0149
▁brake	-10.0149
▁rescue	-10.015
▁droid	-10.015
▁tur	-10.0152
▁penis	-10.0153
▁richter	-10.0154
▁self	-10.0154
▁gang	-10.0154
▁moul	-10.0155
▁highway	-10.0156
▁liar	-10.0158
▁statement	-10.016
▁math	-10.016
▁apple	-10.0163
▁cock	-10.0164
tched	-10.0165
▁jackson	-10.0165
▁visitor	-10.0169
▁reid	-10.0173
▁shin	-10.0175
▁not	-10.0177
▁link	-10.0179
▁thor	-10.018
▁thatd	-10.0181
▁naar	-10.0189
▁hatch	-10.0197
q	-10.0201
▁doen	-10.0202
▁lack	-10.0206
▁streets	-10.0209
▁hung	-10.0214
▁carson	-10.0216
▁cole	-10.0221
▁gray	-10.0224
▁joy	-10.0237
▁odd	-10.0244
▁gay	-10.0249
▁pissed	-10.025
▁missiles	-10.0276
▁signs	-10.0297
▁punish	-10.03
▁usr	-10.0305
ified	-10.0306
▁pod	-10.0309
▁fairy	-10.0317
▁den	-10.0323
▁hast	-10.033
▁hy	-10.0331
▁forced	-10.0332
tie	-10.0337
▁gem	-10.0348
▁vampires	-10.036
▁waves	-10.0368
nen	-10.0375
▁bre	-10.0398
▁loser	-10.0423
▁anti	-10.0442
▁cal	-10.0444
▁forces	-10.0445
▁matters	-10.0467
blo	-10.048
mmy	-10.0487
▁prayer	-10.0493
ware	-10.0495
▁net	-10.0497
▁tale	-10.0513
ath	-10.0528
cul	-10.0558
▁beating	-10.0561
▁lines	-10.0595
rum	-10.06
▁ru	-10.0615
▁unh	-10.0629
▁organ	-10.063
aged	-10.0643
▁stress	-10.0644
ire	-10.0645
oc	-10.0646
▁mag	-10.0648
▁provide	-10.0656
▁divorce	-10.0656
ition	-10.066
▁movies	-10.0668
▁dirt	-10.067
▁closes	-10.0679
▁witness	-10.0688
▁bump	-10.0689
bell	-10.0697
▁constant	-10.0699
▁surge	-10.0699
▁affair	-10.07
▁archibald	-10.07
▁behavior	-10.07
▁camerlengo	-10.07
▁charlotte	-10.07
▁chicago	-10.07
▁claire	-10.07
▁coincidence	-10.07
▁defense	-10.07
▁disgusting	-10.07
▁dwarves	-10.07
▁explosive	-10.07
▁happiness	-10.07
▁helicopter	-10.07
▁lemarc	-10.07
▁margaret	-10.07
▁nemerov	-10.07
▁penkovsky	-10.07
▁rebecca	-10.07
▁responsibility	-10.07
▁rouge	-10.07
▁royal	-10.07
▁sandwich	-10.07
▁someday	-10.07
▁subtitles	-10.07
▁telephone	-10.07
▁tornado	-10.07
▁unknown	-10.07
▁whirring	-10.07
▁andrew	-10.07
▁century	-10.07
▁crisis	-10.07
▁cruise	-10.07
▁leigh	-10.07
▁smooth	-10.07
▁adult	-10.07
▁buckingham	-10.07
▁clever	-10.07
▁deputy	-10.07
▁pearl	-10.07
▁screen	-10.07
▁vault	-10.07
▁walter	-10.07
▁escort	-10.07
▁prevent	-10.07
▁terug	-10.07
▁trail	-10.07
▁punk	-10.07
▁violate	-10.07
▁root	-10.07
▁defeat	-10.07
▁loki	-10.07
▁stood	-10.07
▁pump	-10.07
▁shore	-10.0701
▁stairs	-10.0701
▁primar	-10.0701
▁stewart	-10.0701
▁sacred	-10.0701
▁committed	-10.0701
▁summon	-10.0701
▁generation	-10.0701
▁winning	-10.0702
▁progress	-10.0702
▁pride	-10.0702
▁impressive	-10.0702
▁bravo	-10.0702
▁failure	-10.0702
▁communication	-10.0703
▁bread	-10.0704
▁genetic	-10.0704
▁zac	-10.0705
▁gentleman	-10.0705
▁duty	-10.0707
▁forgotten	-10.0707
▁rail	-10.0708
▁cody	-10.0709
▁beam	-10.071
▁recently	-10.071
▁guilty	-10.071
▁doll	-10.0711
▁warden	-10.0711
▁march	-10.0712
▁zori	-10.0719
val	-10.0719
▁patients	-10.0723
▁bound	-10.0725
▁rem	-10.0725
▁relat	-10.0729
▁dave	-10.0732
▁billion	-10.0735
▁protection	-10.0738
▁career	-10.0739
▁highest	-10.074
▁scary	-10.0742
▁pity	-10.0745
▁laid	-10.0749
▁passion	-10.0753
▁pill	-10.0754
▁pm	-10.0757
▁deny	-10.0757
▁fry	-10.0766
▁spa	-10.0767
▁coughs	-10.077
▁lower	-10.0773
▁bid	-10.0778
▁escaped	-10.0786
ese	-10.0804
▁arrested	-10.0805
▁beard	-10.0809
phy	-10.0812
▁counter	-10.0825
polit	-10.0827
▁degrees	-10.0829
▁lee	-10.0846
▁tricks	-10.0846
▁wing	-10.0856
▁wha	-10.0864
▁perfectly	-10.0867
▁gee	-10.087
▁belongs	-10.0879
▁ton	-10.0882
▁ate	-10.0892
▁fo	-10.0894
▁fellas	-10.0896
▁hug	-10.09
▁chop	-10.0919
▁seal	-10.0945
▁cloud	-10.0951
▁member	-10.0951
▁toward	-10.0951
stone	-10.0954
▁beside	-10.0959
gul	-10.0965
hole	-10.0971
▁tend	-10.0981
▁mountains	-10.0997
▁pleased	-10.1018
▁mil	-10.1027
ological	-10.1046
▁harder	-10.1064
▁au	-10.1072
▁col	-10.1087
▁pulling	-10.113
▁jacks	-10.1147
▁bugs	-10.1153
▁helping	-10.1161
▁there	-10.1164
▁ye	-10.1168
▁russians	-10.1174
▁discover	-10.1199
▁roar	-10.1214
▁slap	-10.1228
▁load	-10.1235
▁wr	-10.1244
▁conditions	-10.1252
▁becom	-10.1254
ura	-10.1268
face	-10.1277
▁cast	-10.1281
▁product	-10.1283
▁collect	-10.1283
▁ambulance	-10.1289
▁arrival	-10.1289
▁benedict	-10.1289
▁burglar	-10.1289
▁cavendish	-10.1289
▁centuries	-10.1289
▁chekov	-10.1289
▁compliment	-10.1289
▁custody	-10.1289
▁divine	-10.1289
▁easily	-10.1289
▁effort	-10.1289
▁evacuation	-10.1289
▁explosion	-10.1289
▁garbage	-10.1289
▁grateful	-10.1289
▁harvard	-10.1289
▁lavelle	-10.1289
▁lysander	-10.1289
▁magazine	-10.1289
▁mmmhmm	-10.1289
▁museum	-10.1289
▁rehearsal	-10.1289
▁rufus	-10.1289
▁slaughter	-10.1289
▁struggle	-10.1289
▁gardner	-10.1289
▁harold	-10.1289
▁method	-10.1289
▁mystery	-10.1289
▁pulse	-10.1289
▁snake	-10.1289
▁trunk	-10.1289
▁predict	-10.1289
▁silent	-10.1289
▁punch	-10.1289
▁element	-10.1289
▁competition	-10.1289
▁kurt	-10.1289
▁graduate	-10.1289
▁wacht	-10.1289
▁frigg	-10.1289
▁steel	-10.1289
▁advise	-10.1289
▁gunshot	-10.1289
▁pimp	-10.1289
▁honks	-10.1289
▁repair	-10.1289
▁trace	-10.1289
▁butch	-10.1289
▁positive	-10.1289
▁carrier	-10.129
▁zeggen	-10.129
▁string	-10.129
▁prime	-10.129
▁pillow	-10.129
▁barrio	-10.1291
▁comb	-10.1291
▁rope	-10.1291
▁contest	-10.1291
▁irr	-10.1291
▁garage	-10.1291
▁value	-10.1292
▁online	-10.1292
▁flame	-10.1292
▁ease	-10.1292
▁survival	-10.1292
▁forest	-10.1293
▁joking	-10.1293
▁anger	-10.1296
▁smith	-10.1299
▁stake	-10.1299
▁calor	-10.1299
▁ox	-10.13
▁cmon	-10.13
▁jones	-10.1301
▁lane	-10.1303
▁connection	-10.1306
▁lester	-10.1307
▁sally	-10.1309
cla	-10.1312
▁setting	-10.1313
▁sock	-10.1313
▁forty	-10.1315
▁drag	-10.1316
▁hail	-10.1316
▁squealing	-10.1317
▁thus	-10.1317
▁alan	-10.1317
▁toss	-10.1318
▁cent	-10.132
▁tick	-10.132
▁jackie	-10.1321
▁wander	-10.1323
cho	-10.1324
▁apply	-10.1326
▁cow	-10.1328
▁dish	-10.1329
▁toast	-10.1332
▁cardinals	-10.1334
▁core	-10.1336
▁divorced	-10.1336
▁ros	-10.1341
▁diner	-10.1342
▁steven	-10.1343
▁remembered	-10.1346
▁grid	-10.1351
▁bowl	-10.1352
▁dial	-10.1359
▁lover	-10.1359
▁hebt	-10.1366
▁banging	-10.1373
▁musketeers	-10.1383
▁tag	-10.1384
▁survived	-10.1405
▁thin	-10.1414
▁screwed	-10.1425
ette	-10.1431
tage	-10.1433
▁pat	-10.1455
▁considered	-10.1458
▁mid	-10.1463
ado	-10.1468
▁metal	-10.1482
▁pad	-10.1485
▁dinosaurs	-10.1487
▁yells	-10.1491
▁cards	-10.1494
▁scale	-10.1499
▁gr	-10.1505
▁younger	-10.1518
▁tracks	-10.1572
▁scientists	-10.1574
▁shoe	-10.1582
▁click	-10.1584
▁will	-10.1594
▁fools	-10.1622
▁tim	-10.163
▁com	-10.1637
oid	-10.1638
▁becomes	-10.1656
▁beta	-10.167
▁testing	-10.1675
while	-10.1678
app	-10.1678
▁touched	-10.1698
▁protected	-10.1739
▁issues	-10.1745
▁chip	-10.1792
▁wo	-10.1847
▁bark	-10.185
▁confirm	-10.1855
▁wast	-10.1856
▁sink	-10.1862
▁marks	-10.187
▁bow	-10.1877
▁jokes	-10.1878
born	-10.188
▁german	-10.1882
▁glob	-10.1884
box	-10.1886
lle	-10.1892
▁actual	-10.1895
▁americans	-10.1901
▁answers	-10.1907
▁inform	-10.1912
▁specific	-10.1913
▁tub	-10.1914
▁favour	-10.1914
▁california	-10.1914
▁ceremony	-10.1914
▁insult	-10.1914
▁isaac	-10.1914
▁journey	-10.1914
▁leonato	-10.1914
▁malekith	-10.1914
▁newspaper	-10.1914
▁nonsense	-10.1914
▁steady	-10.1914
▁supply	-10.1914
▁swallow	-10.1914
▁terrific	-10.1914
▁toulouse	-10.1914
▁traitor	-10.1914
▁encounter	-10.1914
▁entertain	-10.1914
▁illegal	-10.1914
▁lesbian	-10.1914
▁period	-10.1914
▁several	-10.1914
▁krall	-10.1914
▁salmon	-10.1914
▁houten	-10.1914
▁anchor	-10.1914
espite	-10.1914
▁email	-10.1914
▁taylor	-10.1914
▁equal	-10.1914
▁roommate	-10.1914
▁presence	-10.1914
▁shopping	-10.1914
▁virus	-10.1914
▁cowboy	-10.1914
▁authorities	-10.1914
▁whyd	-10.1914
▁davis	-10.1914
▁example	-10.1914
▁verris	-10.1914
▁boring	-10.1915
▁dozen	-10.1915
▁destruction	-10.1915
▁nonny	-10.1915
▁kitty	-10.1915
▁recover	-10.1915
▁garden	-10.1915
▁torture	-10.1915
▁chamber	-10.1915
▁unto	-10.1915
▁dentist	-10.1915
▁spill	-10.1916
▁cabot	-10.1916
▁section	-10.1916
▁moeder	-10.1916
▁existence	-10.1916
▁fed	-10.1916
▁community	-10.1917
▁intention	-10.1917
▁aidan	-10.1918
▁fache	-10.1918
▁rapid	-10.1918
▁rumbling	-10.192
▁iyou	-10.192
▁mental	-10.192
▁unlike	-10.192
▁aboard	-10.192
▁package	-10.1921
▁owner	-10.1921
▁batman	-10.1922
▁mix	-10.1924
▁bible	-10.1924
▁ag	-10.1925
▁louisa	-10.1926
▁ballet	-10.1929
▁dull	-10.1929
▁papa	-10.1932
▁boom	-10.1932
▁chosen	-10.1933
▁tuck	-10.1935
▁portal	-10.1936
▁recall	-10.1937
▁authorized	-10.1938
▁gear	-10.1943
▁ability	-10.1943
five	-10.1944
▁impressed	-10.1947
▁emotional	-10.1951
▁received	-10.1955
▁tone	-10.1955
▁chanting	-10.1958
▁abandoned	-10.1958
▁useless	-10.1958
▁lifetime	-10.196
▁scotty	-10.1965
▁units	-10.1965
▁developed	-10.1966
▁nss	-10.1974
▁edie	-10.1974
▁loaded	-10.1978
▁sighing	-10.1978
▁breed	-10.1984
▁treaty	-10.1988
▁limited	-10.1993
▁jew	-10.2002
▁ahh	-10.2018
▁reli	-10.2031
▁bay	-10.2032
▁hostages	-10.2037
▁lily	-10.2041
▁shave	-10.2043
▁manage	-10.2047
▁treated	-10.206
▁worm	-10.2088
▁frankly	-10.2095
uch	-10.2102
▁jet	-10.2114
▁tracking	-10.2117
▁armed	-10.2118
▁farmer	-10.2132
eemed	-10.2141
▁depends	-10.215
▁victims	-10.215
ime	-10.217
▁lad	-10.2174
▁chim	-10.2206
▁gifted	-10.2232
▁aro	-10.2247
night	-10.2251
cker	-10.2269
▁clouds	-10.2286
▁trees	-10.2289
▁goal	-10.2292
▁stepp	-10.2317
▁charges	-10.2344
▁moe	-10.2352
▁kn	-10.2355
ast	-10.2369
▁dragons	-10.2378
▁gro	-10.2402
▁goat	-10.2419
tre	-10.2434
▁engines	-10.2457
▁pol	-10.2472
rous	-10.2488
▁answering	-10.2498
▁connect	-10.2501
▁cancel	-10.2519
eld	-10.2527
ito	-10.2527
test	-10.2535
▁receive	-10.2536
▁invite	-10.2537
▁fort	-10.2545
mark	-10.257
▁adventure	-10.258
▁chadwick	-10.258
▁chechnya	-10.258
▁colleague	-10.258
▁dolittle	-10.258
▁durotan	-10.258
▁elrond	-10.258
▁embassy	-10.258
▁emmett	-10.258
▁environment	-10.258
▁expensive	-10.258
▁helmet	-10.258
▁inspiration	-10.258
▁ipkiss	-10.258
▁knife	-10.258
▁koninklijk	-10.258
▁pleasant	-10.258
▁regular	-10.258
▁sensitive	-10.258
▁sheila	-10.258
▁someplace	-10.258
▁succeed	-10.258
▁thieves	-10.258
▁thirty	-10.258
▁uncomfortable	-10.258
▁vessel	-10.258
▁xandar	-10.258
▁yorktown	-10.258
▁zombie	-10.258
▁caesar	-10.258
▁hobbit	-10.258
▁patrol	-10.258
▁pattern	-10.258
▁shadow	-10.258
▁spencer	-10.258
▁cancan	-10.258
▁central	-10.258
▁companion	-10.258
▁eminence	-10.258
▁reaction	-10.258
▁brief	-10.258
▁coordinates	-10.258
▁extend	-10.258
▁dawn	-10.258
▁annie	-10.258
▁spark	-10.258
▁pursue	-10.258
▁bachelorette	-10.258
▁lothar	-10.258
▁television	-10.258
▁robbed	-10.258
▁expert	-10.258
▁fork	-10.258
▁insight	-10.2581
▁division	-10.2581
▁q	-10.2581
▁priest	-10.2581
▁scanner	-10.2582
▁engagement	-10.2582
▁terrorist	-10.2583
▁mercy	-10.2583
▁employ	-10.2583
▁visual	-10.2583
▁atmosphere	-10.2583
▁fox	-10.2583
some	-10.2584
▁stopping	-10.2584
▁auto	-10.2584
▁jewel	-10.2584
▁crook	-10.2584
▁fancy	-10.2585
▁reward	-10.2585
▁comment	-10.2587
▁precisely	-10.2587
▁media	-10.2589
▁critical	-10.259
berry	-10.2597
▁style	-10.2602
▁vow	-10.2603
▁hack	-10.2603
▁engaged	-10.2607
away	-10.2612
▁decade	-10.2616
▁advanced	-10.2616
▁intern	-10.262
▁officially	-10.2623
berg	-10.2629
▁sni	-10.2633
▁metro	-10.2633
▁cargo	-10.2635
▁earned	-10.2641
▁skid	-10.2643
▁spooner	-10.2643
▁earn	-10.2645
▁meer	-10.2658
▁sealed	-10.2658
tz	-10.2661
▁betrayed	-10.2662
▁willy	-10.2671
▁ir	-10.2678
▁union	-10.2691
▁sith	-10.2694
▁jean	-10.2696
▁finest	-10.2705
▁appears	-10.2716
eep	-10.2728
▁onz	-10.273
▁ears	-10.2734
▁proved	-10.2743
▁worthy	-10.2751
▁now	-10.2752
▁stones	-10.2752
▁stealing	-10.2762
▁undo	-10.2781
▁idiots	-10.2799
▁crossing	-10.2808
▁sigh	-10.2808
▁paci	-10.2814
▁expected	-10.2831
▁shouts	-10.2835
▁reached	-10.2838
▁classic	-10.2842
▁backup	-10.286
▁dive	-10.2865
▁kicked	-10.2866
▁wrap	-10.2886
▁eggs	-10.2887
▁formal	-10.2897
▁lookin	-10.2899
▁tryin	-10.2931
uce	-10.2934
▁scientist	-10.2957
▁roger	-10.2959
▁towards	-10.298
ohoh	-10.2987
▁remains	-10.2991
▁fee	-10.2994
ita	-10.2997
▁deserves	-10.2999
ept	-10.3002
▁signed	-10.3003
▁ken	-10.3013
owns	-10.3016
▁dedicate	-10.3037
▁the	-10.3068
▁yards	-10.3079
ada	-10.3079
▁mam	-10.3112
▁din	-10.3126
▁models	-10.3153
ational	-10.3158
▁ordered	-10.3161
▁dreaming	-10.3168
ella	-10.3169
iest	-10.3196
▁bullets	-10.3203
▁grad	-10.3206
▁crawl	-10.3223
▁contain	-10.323
▁develop	-10.3231
▁convince	-10.325
rough	-10.3256
plane	-10.3259
ology	-10.3259
▁assure	-10.3263
▁fore	-10.3276
book	-10.3279
▁express	-10.3287
▁kom	-10.3291
▁depart	-10.3291
▁louis	-10.3292
▁perform	-10.3294
▁resist	-10.3294
▁forbid	-10.3295
▁publish	-10.3295
▁widow	-10.3295
▁bishop	-10.3295
▁brucie	-10.3295
▁candidate	-10.3295
▁caretaker	-10.3295
▁comanche	-10.3295
▁conclave	-10.3295
▁deploy	-10.3295
▁exercise	-10.3295
▁fantasies	-10.3295
▁fuego	-10.3295
▁grandmother	-10.3295
▁instinct	-10.3295
▁instructions	-10.3295
▁jessica	-10.3295
▁judgment	-10.3295
▁luggage	-10.3295
▁mississippi	-10.3295
▁muscle	-10.3295
▁natalie	-10.3295
▁outlaw	-10.3295
▁proposal	-10.3295
▁review	-10.3295
▁rhyme	-10.3295
▁snails	-10.3295
▁society	-10.3295
▁solution	-10.3295
▁spectacular	-10.3295
▁terribly	-10.3295
▁weaver	-10.3295
▁whimpers	-10.3295
▁whistles	-10.3295
▁wynne	-10.3295
▁aloha	-10.3295
▁crystal	-10.3295
▁december	-10.3295
▁jersey	-10.3295
▁teenager	-10.3295
▁chapel	-10.3295
▁average	-10.3295
▁unique	-10.3295
▁sulu	-10.3295
▁cannon	-10.3295
▁kgb	-10.3295
▁frightened	-10.3295
▁fuel	-10.3295
▁plot	-10.3295
▁tooth	-10.3295
▁palmer	-10.3295
▁incoming	-10.3295
▁convert	-10.3295
▁treadstone	-10.3295
▁wellesley	-10.3295
▁drove	-10.3295
▁everdene	-10.3295
▁web	-10.3295
▁series	-10.3295
▁jasper	-10.3295
▁mobley	-10.3295
▁delay	-10.3295
▁underground	-10.3295
▁latin	-10.3295
▁dood	-10.3295
▁golf	-10.3296
▁growls	-10.3296
▁digging	-10.3296
▁foster	-10.3296
▁performance	-10.3297
▁stuart	-10.3298
▁bury	-10.3298
▁rude	-10.3298
▁estate	-10.3298
▁memorial	-10.3299
▁rabbit	-10.3299
▁severe	-10.3299
▁chart	-10.33
▁touchdown	-10.3301
▁wire	-10.3301
▁collection	-10.3301
▁mobile	-10.3302
▁witter	-10.3302
▁begun	-10.3303
▁airport	-10.3303
▁campus	-10.3303
▁loop	-10.3303
▁stealth	-10.3306
▁task	-10.3307
▁swell	-10.3309
▁discussion	-10.331
▁minor	-10.3311
▁painful	-10.3312
▁captured	-10.3313
▁stare	-10.3317
▁delight	-10.3318
▁zie	-10.3322
▁victory	-10.3323
▁hood	-10.3329
▁cellar	-10.3332
hand	-10.3332
▁bleeding	-10.3335
▁actor	-10.3345
▁haar	-10.3351
▁provided	-10.3353
▁factor	-10.3357
▁spec	-10.3376
▁teen	-10.3379
▁suffered	-10.3383
▁jou	-10.3384
▁required	-10.3386
▁tempt	-10.3412
wind	-10.3418
▁bitches	-10.3418
▁janet	-10.3427
▁jon	-10.3431
▁nicky	-10.3433
▁served	-10.3436
▁mutants	-10.3437
▁mud	-10.344
bra	-10.3454
▁latest	-10.3459
▁skills	-10.3463
▁makeup	-10.3492
▁gel	-10.3505
▁transfer	-10.3521
▁teaching	-10.3523
bur	-10.3531
cra	-10.3532
▁knocked	-10.3532
oud	-10.3542
▁mall	-10.3549
▁argue	-10.3553
▁pure	-10.3573
▁surely	-10.3602
▁options	-10.362
▁pushed	-10.3629
▁dancer	-10.3654
▁lai	-10.3665
▁clicks	-10.3687
▁pushing	-10.3693
▁photos	-10.3703
▁members	-10.3725
▁detail	-10.373
▁learning	-10.3732
▁option	-10.3735
ame	-10.3737
▁bob	-10.3746
▁how	-10.3763
▁mon	-10.3771
▁shoulders	-10.3782
▁shooter	-10.3798
▁badly	-10.3807
▁colo	-10.3827
▁lit	-10.3841
▁fil	-10.3842
▁od	-10.3852
▁mit	-10.3856
▁if	-10.3861
▁shooting	-10.3872
atic	-10.3909
▁pirates	-10.3912
▁victor	-10.3917
▁odds	-10.3965
▁buzz	-10.3994
ability	-10.3996
▁offend	-10.4005
▁dating	-10.4006
▁evacuate	-10.4018
▁remove	-10.4019
hood	-10.4022
▁picking	-10.4029
▁incredibl	-10.4035
flu	-10.4036
life	-10.404
▁chose	-10.4043
itable	-10.4048
▁possess	-10.4051
▁dell	-10.4053
▁affect	-10.4056
▁hawaii	-10.4057
door	-10.4062
▁dorm	-10.4063
▁atlantic	-10.4064
▁breeze	-10.4064
▁circus	-10.4064
▁clucking	-10.4064
▁collapse	-10.4064
▁dorothy	-10.4064
▁dungeon	-10.4064
▁fugitive	-10.4064
▁generaal	-10.4064
▁invasion	-10.4064
▁invisible	-10.4064
▁joseph	-10.4064
▁journal	-10.4064
▁kemosa	-10.4064
▁megasaki	-10.4064
▁muffled	-10.4064
▁nebula	-10.4064
▁palpatine	-10.4064
▁physics	-10.4064
▁pizza	-10.4064
▁plastic	-10.4064
▁privilege	-10.4064
▁procedure	-10.4064
▁pyramid	-10.4064
▁recruit	-10.4064
▁residence	-10.4064
▁sleeve	-10.4064
▁sparrow	-10.4064
▁splash	-10.4064
▁squeak	-10.4064
▁technology	-10.4064
▁temporary	-10.4064
▁university	-10.4064
▁valentine	-10.4064
▁velkan	-10.4064
▁ventura	-10.4064
▁violent	-10.4064
▁beacon	-10.4064
▁bonzo	-10.4064
▁descend	-10.4064
▁explode	-10.4064
▁override	-10.4064
▁pamela	-10.4064
▁slept	-10.4064
▁smoking	-10.4064
▁traynor	-10.4064
▁uniform	-10.4064
▁approve	-10.4064
▁cheek	-10.4064
▁chieftain	-10.4064
▁identity	-10.4064
▁robbie	-10.4064
▁sensors	-10.4064
▁towel	-10.4064
▁oleg	-10.4064
▁outfit	-10.4064
▁profion	-10.4064
▁admire	-10.4064
▁assassin	-10.4064
▁courtesan	-10.4064
▁instant	-10.4064
▁jarvis	-10.4064
▁kidnapping	-10.4064
▁tattoo	-10.4064
▁malfunction	-10.4064
▁ursa	-10.4064
▁flew	-10.4064
▁lamia	-10.4064
▁hebben	-10.4064
▁basic	-10.4064
▁connie	-10.4064
▁privacy	-10.4064
▁superior	-10.4064
▁kijk	-10.4064
▁kili	-10.4064
▁status	-10.4064
▁cigarette	-10.4064
▁stretch	-10.4064
▁jeez	-10.4064
▁nerve	-10.4064
▁elite	-10.4064
▁hank	-10.4064
▁drew	-10.4064
▁altar	-10.4064
▁international	-10.4064
▁fold	-10.4064
▁generous	-10.4064
iemand	-10.4065
▁francisco	-10.4065
▁yahoo	-10.4065
▁dewey	-10.4065
▁bernard	-10.4065
▁version	-10.4065
▁elves	-10.4065
▁rodney	-10.4065
▁sobs	-10.4065
maker	-10.4066
▁display	-10.4066
▁drank	-10.4066
▁ofthe	-10.4066
▁flush	-10.4066
▁describe	-10.4066
▁authority	-10.4066
▁lucy	-10.4066
▁throne	-10.4067
▁title	-10.4067
▁prick	-10.4067
▁creative	-10.4068
▁babu	-10.4068
▁quest	-10.4068
▁noble	-10.4068
▁fright	-10.4068
zelf	-10.4069
▁grandpa	-10.4069
▁realms	-10.407
▁benny	-10.4071
▁myth	-10.4071
▁crop	-10.4073
▁forth	-10.4073
▁leia	-10.4074
▁petra	-10.4076
▁candle	-10.4077
▁capable	-10.4078
▁owned	-10.4079
▁oil	-10.4083
▁formation	-10.4083
▁clattering	-10.4084
▁secretary	-10.4085
▁background	-10.4088
▁clearance	-10.409
▁cutting	-10.4091
▁gim	-10.4095
▁vari	-10.4095
▁hitting	-10.4099
▁tech	-10.4099
▁bij	-10.4101
▁magical	-10.4102
▁tele	-10.4103
▁bout	-10.4105
▁bumpy	-10.4107
▁haha	-10.4109
▁lean	-10.411
▁embarrassed	-10.4115
▁poem	-10.4115
▁payment	-10.4116
air	-10.412
▁embarrassing	-10.4124
▁inspire	-10.4126
▁jealousy	-10.4127
▁outer	-10.413
win	-10.4131
▁connected	-10.4134
▁bush	-10.4137
burg	-10.4139
▁restore	-10.4153
▁bud	-10.4156
▁borrowed	-10.4168
broad	-10.4169
▁belly	-10.4172
▁movement	-10.4173
▁crushed	-10.4178
▁june	-10.4182
▁reacher	-10.4186
▁halt	-10.4186
▁studying	-10.4194
▁hunting	-10.4219
▁jd	-10.4221
▁dealing	-10.423
▁fund	-10.4238
▁penni	-10.4248
lden	-10.4248
▁sexual	-10.425
▁tracker	-10.4254
▁inhales	-10.4268
▁dew	-10.4285
▁bearing	-10.4288
▁lap	-10.4291
▁ng	-10.432
mbo	-10.4328
▁enjoyed	-10.4332
log	-10.4362
▁madam	-10.4362
▁moral	-10.4396
ripped	-10.4412
▁details	-10.4416
▁jumping	-10.4419
▁reporter	-10.444
ward	-10.4447
▁lately	-10.4487
▁chil	-10.4512
▁log	-10.4513
star	-10.4513
▁caf	-10.4517
tial	-10.4519
gress	-10.4531
▁vampire	-10.456
▁dollar	-10.4571
▁kissing	-10.463
itter	-10.4661
ima	-10.4663
▁buying	-10.4698
▁est	-10.4708
▁terror	-10.4719
aster	-10.4737
▁ali	-10.4784
▁reveal	-10.4836
▁abandon	-10.4837
chie	-10.4851
▁solve	-10.4852
▁advance	-10.4853
▁arrive	-10.4853
oul	-10.4855
bound	-10.4856
print	-10.4861
point	-10.4864
put	-10.4865
▁prior	-10.4867
▁creep	-10.4868
foot	-10.4872
▁examine	-10.4872
encia	-10.4872
▁stab	-10.4886
made	-10.4887
form	-10.4888
nounce	-10.4894
▁logic	-10.4895
▁blank	-10.4895
▁civil	-10.4895
▁education	-10.4897
▁metaphor	-10.4897
▁accomplish	-10.4897
▁aibee	-10.4897
▁anniversary	-10.4897
▁ascend	-10.4897
▁cadillac	-10.4897
▁campaign	-10.4897
▁carnaval	-10.4897
▁celebration	-10.4897
▁character	-10.4897
▁craft	-10.4897
▁envelope	-10.4897
▁extension	-10.4897
▁extraordinary	-10.4897
▁facility	-10.4897
▁falcon	-10.4897
▁fifteen	-10.4897
▁financial	-10.4897
▁glorious	-10.4897
▁justice	-10.4897
▁kovaks	-10.4897
▁leefolt	-10.4897
▁library	-10.4897
▁magnificent	-10.4897
▁miserable	-10.4897
▁natasha	-10.4897
▁orlov	-10.4897
▁outstanding	-10.4897
▁patience	-10.4897
▁popcorn	-10.4897
▁popular	-10.4897
▁possibility	-10.4897
▁reject	-10.4897
▁renesmee	-10.4897
▁republic	-10.4897
▁resumes	-10.4897
▁retrieve	-10.4897
▁saruman	-10.4897
▁satisfied	-10.4897
▁scroll	-10.4897
▁stomach	-10.4897
▁swore	-10.4897
▁sworn	-10.4897
▁ultimate	-10.4897
▁violence	-10.4897
▁vodka	-10.4897
▁vrouw	-10.4897
▁wayfinder	-10.4897
▁wisdom	-10.4897
▁alpha	-10.4897
▁column	-10.4897
▁intense	-10.4897
▁kirk	-10.4897
▁lawrence	-10.4897
▁peanut	-10.4897
▁rattling	-10.4897
▁rosalie	-10.4897
▁shelter	-10.4897
▁swiss	-10.4897
▁thanos	-10.4897
▁turkey	-10.4897
▁bargain	-10.4897
▁emperor	-10.4897
▁federation	-10.4897
▁thumb	-10.4897
▁anytime	-10.4897
▁await	-10.4897
▁cheque	-10.4897
▁leather	-10.4897
▁miami	-10.4897
▁aether	-10.4897
▁clapping	-10.4897
▁claus	-10.4897
▁flesh	-10.4897
▁deceive	-10.4897
▁horde	-10.4897
▁radar	-10.4897
▁firing	-10.4897
▁vibrat	-10.4897
▁blew	-10.4897
▁archives	-10.4897
▁greas	-10.4897
▁hustle	-10.4897
▁modest	-10.4897
▁goblin	-10.4897
▁salv	-10.4897
▁uhuh	-10.4897
▁vital	-10.4897
▁attitude	-10.4897
▁goddess	-10.4898
▁magnet	-10.4898
▁tennis	-10.4898
▁network	-10.4898
▁rhoda	-10.4898
▁mankind	-10.4898
▁maniac	-10.4898
▁bolt	-10.4898
▁accurate	-10.4898
▁orange	-10.4898
▁carried	-10.4898
▁yup	-10.4898
▁legacy	-10.4898
▁debt	-10.4898
▁twins	-10.4898
▁poetry	-10.4899
▁riddle	-10.4899
▁flava	-10.4899
▁gettin	-10.49
▁measure	-10.49
▁pause	-10.49
stream	-10.49
▁couch	-10.4901
▁successful	-10.4901
▁entry	-10.4901
▁wrist	-10.4901
▁bowman	-10.4902
▁exchange	-10.4902
▁compass	-10.4902
▁whatre	-10.4903
▁aside	-10.4904
▁purse	-10.4904
▁frickin	-10.4905
▁bikers	-10.4906
▁treatment	-10.4908
▁headache	-10.491
▁bedtime	-10.4911
▁dash	-10.4911
▁dori	-10.4911
▁peaceful	-10.4912
▁phase	-10.4912
▁laser	-10.4913
▁stamper	-10.4913
▁motion	-10.4913
▁mail	-10.4913
▁whore	-10.4914
▁laughter	-10.4914
▁fianc	-10.4914
▁sailor	-10.4914
▁dinky	-10.4917
▁compar	-10.4918
▁ciao	-10.492
▁vanish	-10.4922
▁komt	-10.4922
▁trial	-10.4924
lbert	-10.4926
▁waitress	-10.4927
▁creepy	-10.4928
▁queenie	-10.4928
▁disco	-10.4929
▁observe	-10.493
▁zeg	-10.4932
▁gaan	-10.4934
▁mal	-10.4935
▁infected	-10.4937
▁drum	-10.4941
▁heal	-10.4943
▁policeman	-10.4943
▁leven	-10.4948
▁convinced	-10.495
▁angela	-10.4951
▁gally	-10.4952
▁mustnt	-10.4953
ville	-10.4956
▁boxes	-10.4959
▁whooping	-10.4961
▁bitter	-10.4963
▁parties	-10.4964
equ	-10.4973
▁vig	-10.4973
new	-10.4976
▁meg	-10.4977
▁meek	-10.4978
▁crawling	-10.4982
ically	-10.4989
▁maya	-10.4991
▁prize	-10.4991
▁down	-10.4994
▁refused	-10.4995
bul	-10.4997
▁former	-10.5
▁tram	-10.5005
▁fallen	-10.5014
▁engineer	-10.5016
▁patch	-10.5023
▁stud	-10.5029
▁granted	-10.5054
▁sau	-10.5055
▁slowly	-10.5062
▁prop	-10.5069
▁pete	-10.509
▁louder	-10.5098
▁cau	-10.5106
▁drawing	-10.5111
▁bigg	-10.5119
▁lips	-10.5144
stick	-10.5148
▁bend	-10.5153
▁translate	-10.516
▁mages	-10.5197
▁fishing	-10.5198
▁sum	-10.52
▁higher	-10.5201
▁mei	-10.5249
▁ori	-10.5266
▁selling	-10.5275
▁hop	-10.5276
▁lamb	-10.5289
▁photo	-10.5304
▁site	-10.5346
mine	-10.539
▁shout	-10.5404
lop	-10.5421
how	-10.5421
heid	-10.5426
bag	-10.5443
▁drug	-10.546
▁victim	-10.5468
▁depend	-10.5468
cular	-10.5471
▁familie	-10.5472
▁sometime	-10.5476
▁chuckle	-10.5479
▁pit	-10.5479
▁sounded	-10.5481
igor	-10.5504
right	-10.5522
▁nut	-10.5522
▁dreamed	-10.5526
▁flower	-10.5536
▁operat	-10.5558
▁bou	-10.557
▁flip	-10.5597
▁jur	-10.56
ulate	-10.5616
▁mop	-10.5644
▁embarrass	-10.5675
▁amerika	-10.5697
▁hun	-10.5714
▁skip	-10.5719
▁assum	-10.5744
▁rug	-10.5765
skull	-10.577
level	-10.5771
work	-10.5775
play	-10.5779
master	-10.5794
▁detect	-10.5804
▁bastaard	-10.5806
▁dispatch	-10.5806
▁horizon	-10.5806
▁patriot	-10.5806
▁absurd	-10.5806
▁altijd	-10.5806
▁artifact	-10.5806
▁azeroth	-10.5806
▁baltimore	-10.5806
▁bedankt	-10.5806
▁belief	-10.5806
▁brooklyn	-10.5806
▁chenkov	-10.5806
▁chocolate	-10.5806
▁clamoring	-10.5806
▁concert	-10.5806
▁conclusion	-10.5806
▁consequence	-10.5806
▁dartagnan	-10.5806
▁determined	-10.5806
▁disciples	-10.5806
▁election	-10.5806
▁essay	-10.5806
▁essential	-10.5806
▁exclusive	-10.5806
▁explanation	-10.5806
▁figaro	-10.5806
▁frequency	-10.5806
▁giggles	-10.5806
▁gracias	-10.5806
▁headquarters	-10.5806
▁imagination	-10.5806
▁include	-10.5806
▁invalid	-10.5806
▁kennelly	-10.5806
▁maddox	-10.5806
▁matveyev	-10.5806
▁oswald	-10.5806
▁plaza	-10.5806
▁pogue	-10.5806
▁remarkable	-10.5806
▁rochefort	-10.5806
▁sciama	-10.5806
▁sebastian	-10.5806
▁seizure	-10.5806
▁shrieks	-10.5806
▁squish	-10.5806
▁survey	-10.5806
▁transmission	-10.5806
▁tuscany	-10.5806
▁vagina	-10.5806
▁venice	-10.5806
▁vortex	-10.5806
▁wailing	-10.5806
▁wednesday	-10.5806
▁whimpering	-10.5806
▁wizard	-10.5806
▁alcohol	-10.5806
▁eyebrow	-10.5806
▁frodo	-10.5806
▁identify	-10.5806
▁valuable	-10.5806
▁amaze	-10.5806
▁dochter	-10.5806
▁domestic	-10.5806
▁flood	-10.5806
▁initial	-10.5806
▁kendra	-10.5806
▁shatter	-10.5806
▁worries	-10.5806
household	-10.5806
▁deacon	-10.5806
▁remote	-10.5806
▁dagger	-10.5806
▁senior	-10.5806
▁article	-10.5806
▁liddy	-10.5806
▁yelp	-10.5806
▁ashes	-10.5806
▁gently	-10.5806
▁sheet	-10.5806
▁snack	-10.5806
▁consumed	-10.5806
▁philip	-10.5806
▁clown	-10.5806
▁dragged	-10.5806
▁pussy	-10.5806
▁salad	-10.5806
▁gloin	-10.5806
▁locust	-10.5806
▁zip	-10.5806
▁inherit	-10.5806
▁lenny	-10.5806
▁solid	-10.5806
▁swimming	-10.5806
▁error	-10.5806
▁clone	-10.5806
▁stray	-10.5806
▁facing	-10.5806
▁carpet	-10.5807
▁oops	-10.5807
▁kidnapped	-10.5807
▁slams	-10.5807
▁update	-10.5807
▁winston	-10.5807
▁biology	-10.5807
▁bald	-10.5807
▁addition	-10.5807
▁crypt	-10.5807
▁apology	-10.5807
▁prostitute	-10.5807
▁eternal	-10.5807
▁elsie	-10.5807
▁bleep	-10.5807
▁declare	-10.5808
▁iets	-10.5808
▁loyalty	-10.5808
▁fetch	-10.5808
▁fraud	-10.5808
▁selfish	-10.5809
▁faint	-10.5809
▁juice	-10.5809
▁constantine	-10.5809
▁lightning	-10.5809
▁morrow	-10.581
▁crank	-10.581
▁inspector	-10.581
▁medication	-10.581
▁marina	-10.581
▁development	-10.5811
izer	-10.5811
▁simon	-10.5811
▁tribe	-10.5811
▁management	-10.5811
▁temple	-10.5813
▁objective	-10.5813
▁tonto	-10.5813
▁groom	-10.5814
▁sentence	-10.5814
▁shark	-10.5814
▁production	-10.5815
▁brush	-10.5815
▁affection	-10.5816
▁thick	-10.5816
▁foolish	-10.5816
▁elder	-10.5817
▁fence	-10.5817
▁taxes	-10.5818
▁inches	-10.5818
▁effective	-10.5819
▁equi	-10.582
▁bloodline	-10.582
▁franklin	-10.5821
▁label	-10.5821
▁gross	-10.5822
▁murmuring	-10.5824
▁thisby	-10.5824
▁curve	-10.5824
▁surrounded	-10.5827
▁anton	-10.5829
▁sickness	-10.5831
▁thirsty	-10.5831
▁gravity	-10.5834
▁programme	-10.5837
▁endure	-10.5837
▁formic	-10.5839
▁flor	-10.584
▁psych	-10.5841
▁daylight	-10.5844
▁armor	-10.5846
▁humanity	-10.5849
▁strongest	-10.585
▁thrilled	-10.585
▁feature	-10.585
▁realise	-10.5851
▁exception	-10.5853
▁discovery	-10.5855
▁accused	-10.5855
▁cutter	-10.5856
▁superst	-10.5856
▁naturally	-10.5859
▁grass	-10.586
▁removed	-10.586
▁ditch	-10.586
▁triple	-10.5861
▁goodnight	-10.5869
▁this	-10.5872
▁kit	-10.5873
▁mild	-10.5878
▁killian	-10.5879
▁resources	-10.589
▁mist	-10.5892
cated	-10.5892
▁mur	-10.5892
▁pile	-10.5893
too	-10.5893
▁followers	-10.5894
▁sewer	-10.5895
tical	-10.5907
▁normally	-10.5911
▁dc	-10.5913
boy	-10.5924
▁cheated	-10.5927
▁closest	-10.5931
▁itch	-10.5932
alai	-10.5955
▁experienced	-10.596
▁wage	-10.5973
▁assumed	-10.5982
▁moron	-10.5998
ades	-10.5999
tempo	-10.6001
▁disappeared	-10.6002
▁entering	-10.6012
▁safer	-10.6017
▁yea	-10.6018
▁sustain	-10.602
▁wishes	-10.6025
▁shared	-10.6039
cut	-10.6045
▁realized	-10.6051
▁select	-10.6058
▁rd	-10.6094
▁minu	-10.6097
▁plu	-10.6098
stan	-10.6099
▁colored	-10.6104
tory	-10.6135
▁with	-10.614
▁enjoying	-10.619
▁combat	-10.6203
▁whoop	-10.6207
▁tied	-10.6271
▁supervis	-10.6287
▁cand	-10.6298
▁yell	-10.6337
▁temp	-10.636
▁knee	-10.6377
▁ere	-10.6404
▁dai	-10.6457
▁walker	-10.6463
▁diamond	-10.6473
▁virtu	-10.6484
ula	-10.6485
▁cosm	-10.6525
▁dinosaur	-10.6526
▁wor	-10.6533
esa	-10.6553
▁bun	-10.6559
▁fella	-10.657
dingen	-10.6584
▁hal	-10.6617
ility	-10.6618
▁indicate	-10.6631
wart	-10.6653
▁vice	-10.6668
▁charm	-10.6733
▁sew	-10.6742
▁chant	-10.6758
▁hahaha	-10.677
four	-10.6771
armed	-10.6771
▁gravit	-10.6776
▁lip	-10.6778
front	-10.6778
▁lame	-10.6791
▁claudi	-10.6793
sky	-10.6796
▁nothin	-10.6798
▁roman	-10.6801
▁establish	-10.6803
▁loyal	-10.6805
▁basket	-10.6805
▁exam	-10.6806
▁refer	-10.6806
▁cerebr	-10.6806
▁administration	-10.6806
▁appropriate	-10.6806
▁arriving	-10.6806
▁ashamed	-10.6806
▁assault	-10.6806
▁awkward	-10.6806
▁bizarre	-10.6806
▁bohemian	-10.6806
▁brutal	-10.6806
▁canaima	-10.6806
▁circumstance	-10.6806
▁clutch	-10.6806
▁continent	-10.6806
▁convict	-10.6806
▁corporation	-10.6806
▁dammit	-10.6806
▁damodar	-10.6806
▁debbie	-10.6806
▁district	-10.6806
▁enterprise	-10.6806
▁entrance	-10.6806
▁eternity	-10.6806
▁eugenia	-10.6806
▁exclaim	-10.6806
▁fulfill	-10.6806
▁galadriel	-10.6806
▁gamora	-10.6806
▁gianni	-10.6806
▁giselle	-10.6806
▁hallelujah	-10.6806
▁hammer	-10.6806
▁immortal	-10.6806
▁impulse	-10.6806
▁independent	-10.6806
▁injury	-10.6806
▁izmer	-10.6806
▁jullie	-10.6806
▁jungle	-10.6806
▁kennedy	-10.6806
▁magdalene	-10.6806
▁maharajah	-10.6806
▁manhattan	-10.6806
▁maximum	-10.6806
▁naughty	-10.6806
▁pentagon	-10.6806
▁permanent	-10.6806
▁possibilities	-10.6806
▁radagast	-10.6806
▁raphael	-10.6806
▁register	-10.6806
▁respira	-10.6806
▁routine	-10.6806
▁roxanne	-10.6806
▁sanctuary	-10.6806
▁scepter	-10.6806
▁starfleet	-10.6806
▁stereo	-10.6806
▁strauss	-10.6806
▁swarm	-10.6806
▁switzerland	-10.6806
▁terrence	-10.6806
▁terrified	-10.6806
▁therapy	-10.6806
▁tissue	-10.6806
▁tuesday	-10.6806
▁unconscious	-10.6806
▁unexpected	-10.6806
▁videotape	-10.6806
▁volturi	-10.6806
▁volunteer	-10.6806
▁wolves	-10.6806
▁yankee	-10.6806
▁yondu	-10.6806
▁chapter	-10.6806
▁combination	-10.6806
▁delicious	-10.6806
▁distraction	-10.6806
▁distress	-10.6806
▁guitar	-10.6806
▁hazard	-10.6806
▁jennifer	-10.6806
▁lewis	-10.6806
▁parasite	-10.6806
▁robbery	-10.6806
▁scraping	-10.6806
▁whistling	-10.6806
▁attached	-10.6806
▁behave	-10.6806
▁committee	-10.6806
▁conklin	-10.6806
▁eagle	-10.6806
▁elbow	-10.6806
▁junson	-10.6806
▁milady	-10.6806
▁montana	-10.6806
▁promotion	-10.6806
▁religion	-10.6806
▁xander	-10.6806
▁expense	-10.6806
▁feather	-10.6806
▁jennings	-10.6806
▁struck	-10.6806
▁branch	-10.6806
▁echoing	-10.6806
▁consult	-10.6806
▁garona	-10.6806
▁jolene	-10.6806
▁palace	-10.6806
▁utter	-10.6806
▁volume	-10.6806
▁eigen	-10.6806
▁moira	-10.6806
▁smiling	-10.6806
▁vomit	-10.6806
▁political	-10.6806
▁glory	-10.6806
▁hopefully	-10.6806
▁negotiate	-10.6806
▁survivors	-10.6806
▁gringo	-10.6806
▁gym	-10.6806
▁mouse	-10.6806
▁presume	-10.6806
▁irene	-10.6806
▁starving	-10.6807
▁tackle	-10.6807
▁vangor	-10.6807
▁southern	-10.6807
▁flank	-10.6807
▁boston	-10.6807
▁ntl	-10.6807
▁float	-10.6807
▁darn	-10.6807
▁harris	-10.6807
▁acres	-10.6807
▁echt	-10.6807
▁dormov	-10.6807
tribute	-10.6807
▁stein	-10.6807
▁investigation	-10.6807
▁hostile	-10.6808
▁leeuw	-10.6808
▁vincent	-10.6808
▁turtle	-10.6808
▁paperwork	-10.6808
▁assistance	-10.6808
▁fluid	-10.6808
▁argument	-10.6808
▁yield	-10.6808
▁sheep	-10.6808
▁commitment	-10.6808
▁abort	-10.6808
▁polish	-10.6808
▁scotch	-10.6808
▁slim	-10.6809
▁ladder	-10.6809
▁arrangement	-10.6809
▁blunt	-10.6809
▁dutch	-10.681
▁begging	-10.681
▁oath	-10.681
▁fib	-10.681
▁classified	-10.681
▁studies	-10.681
▁infection	-10.6811
▁spice	-10.6811
▁shaking	-10.6812
▁alza	-10.6812
▁leak	-10.6812
▁electricity	-10.6813
▁damon	-10.6813
▁scum	-10.6813
▁relative	-10.6813
▁tactic	-10.6813
▁retirement	-10.6814
▁appearance	-10.6814
▁bored	-10.6814
▁investment	-10.6814
▁psychic	-10.6814
▁breach	-10.6815
▁troll	-10.6815
▁flatter	-10.6815
▁urge	-10.6816
▁sav	-10.6817
▁fortunately	-10.6817
▁rust	-10.6817
▁soda	-10.6818
▁transportation	-10.6818
▁marta	-10.6818
▁expression	-10.6818
▁tool	-10.6819
▁audi	-10.6819
▁troth	-10.682
▁toll	-10.682
oogie	-10.682
▁karen	-10.6821
▁cities	-10.6821
▁robertson	-10.6821
▁orbit	-10.6821
▁twee	-10.6822
▁scent	-10.6822
▁fbi	-10.6823
▁aaah	-10.6823
▁lazy	-10.6825
▁coverage	-10.6826
▁coco	-10.6828
▁slave	-10.6829
▁cries	-10.6829
▁growth	-10.6829
istine	-10.6832
▁brandon	-10.6833
▁squawking	-10.6833
▁pour	-10.6835
▁aid	-10.6835
▁friendship	-10.6835
▁vast	-10.6835
▁mmmm	-10.6841
▁crown	-10.6843
▁jeff	-10.6843
▁litera	-10.6846
▁sack	-10.6848
▁globe	-10.6854
▁ron	-10.6855
▁oughta	-10.6855
▁yale	-10.6858
▁mum	-10.6858
▁bitten	-10.6858
▁delete	-10.6859
▁angeles	-10.6872
▁lever	-10.6878
▁exposed	-10.688
ogen	-10.688
▁revealed	-10.6881
▁koningin	-10.6883
▁maiden	-10.6884
▁contained	-10.6894
▁iim	-10.6899
▁canceled	-10.69
▁released	-10.6905
▁shitty	-10.6907
▁guin	-10.6907
rgie	-10.6914
▁bully	-10.6916
▁stressed	-10.692
▁myr	-10.6926
▁cursed	-10.6929
▁heroes	-10.6932
▁kay	-10.6946
▁clip	-10.6947
▁shhh	-10.695
▁washed	-10.6951
▁suffering	-10.6957
▁cel	-10.6958
▁cheating	-10.6965
▁shy	-10.6968
▁tina	-10.697
two	-10.7003
▁pickle	-10.7006
▁broker	-10.7011
tif	-10.702
▁singer	-10.7027
▁smaller	-10.7036
▁charged	-10.7047
gree	-10.7056
▁cracked	-10.7076
▁cot	-10.7087
zal	-10.7099
▁opu	-10.7121
▁pose	-10.7137
run	-10.714
▁kent	-10.7143
wag	-10.7149
▁mage	-10.7175
▁bake	-10.7188
▁tot	-10.7221
▁ally	-10.7248
atch	-10.7343
▁dw	-10.7349
rudy	-10.7353
aka	-10.743
▁scr	-10.7463
▁rear	-10.7492
▁whisper	-10.7513
▁chu	-10.7534
▁manual	-10.7557
▁folk	-10.7586
▁ave	-10.759
▁viki	-10.7602
try	-10.761
▁mole	-10.7642
▁author	-10.7767
▁origin	-10.7803
▁operate	-10.7817
itation	-10.7822
squeeze	-10.7825
▁quant	-10.783
rated	-10.7833
ground	-10.7845
▁impress	-10.7849
▁emotion	-10.785
avin	-10.7855
▁adopt	-10.7856
▁accus	-10.7857
▁engage	-10.7869
▁propose	-10.7872
▁crow	-10.7876
▁shove	-10.7881
castle	-10.7881
bird	-10.7882
yeah	-10.7883
power	-10.7883
style	-10.7884
father	-10.7886
▁thirst	-10.7886
▁immediate	-10.7896
▁absolute	-10.7896
tail	-10.7907
▁invent	-10.7908
ift	-10.7909
elijke	-10.7913
▁quo	-10.7914
negotia	-10.7917
ordinate	-10.7917
▁koushik	-10.7917
▁cannibal	-10.7917
▁scatter	-10.7917
▁suspens	-10.7917
▁administer	-10.7917
▁allergic	-10.7917
▁anarchy	-10.7917
▁annoying	-10.7917
▁apologies	-10.7917
▁applauding	-10.7917
▁associate	-10.7917
▁athlete	-10.7917
▁aurelia	-10.7917
▁behold	-10.7917
▁beowulf	-10.7917
▁beresford	-10.7917
▁bicycle	-10.7917
▁butler	-10.7917
▁caliban	-10.7917
▁capsule	-10.7917
▁commercial	-10.7917
▁commission	-10.7917
▁commodore	-10.7917
▁conscience	-10.7917
▁crunch	-10.7917
▁curfew	-10.7917
▁depressed	-10.7917
▁dessert	-10.7917
▁destination	-10.7917
▁disguise	-10.7917
▁drained	-10.7917
▁einstein	-10.7917
▁fascinating	-10.7917
▁frankenstein	-10.7917
▁generator	-10.7917
▁grenade	-10.7917
▁hurricane	-10.7917
▁individual	-10.7917
▁injured	-10.7917
▁institution	-10.7917
▁instructor	-10.7917
▁integrity	-10.7917
▁intelligent	-10.7917
▁krelborn	-10.7917
▁lloyd	-10.7917
▁mademoiselle	-10.7917
▁maintenance	-10.7917
▁mexican	-10.7917
▁mumbling	-10.7917
▁neski	-10.7917
▁phenomenon	-10.7917
▁praise	-10.7917
▁profile	-10.7917
▁reclaim	-10.7917
▁reputation	-10.7917
▁servant	-10.7917
▁siempre	-10.7917
▁sloane	-10.7917
▁snarling	-10.7917
▁sobiech	-10.7917
▁sophisticated	-10.7917
▁specimen	-10.7917
▁stubborn	-10.7917
▁tequila	-10.7917
▁territory	-10.7917
▁thursday	-10.7917
▁torpedo	-10.7917
▁trouwen	-10.7917
▁vanquished	-10.7917
▁vegetable	-10.7917
▁yorgi	-10.7917
▁assembly	-10.7917
▁batroc	-10.7917
▁budget	-10.7917
▁burden	-10.7917
▁connors	-10.7917
▁erebor	-10.7917
▁graduation	-10.7917
▁grazie	-10.7917
▁langley	-10.7917
▁lydia	-10.7917
▁nixon	-10.7917
▁pacific	-10.7917
▁pistol	-10.7917
▁powder	-10.7917
▁shreck	-10.7917
▁toxic	-10.7917
▁vietnam	-10.7917
▁amanda	-10.7917
▁choir	-10.7917
▁equation	-10.7917
▁lecture	-10.7917
▁paddling	-10.7917
▁planchet	-10.7917
▁defect	-10.7917
▁raji	-10.7917
▁unlock	-10.7917
▁athos	-10.7917
▁holiness	-10.7917
▁kevin	-10.7917
▁selina	-10.7917
▁spray	-10.7917
▁storage	-10.7917
▁edgar	-10.7917
▁grief	-10.7917
▁marvin	-10.7917
▁pursuit	-10.7917
▁relieve	-10.7917
▁slightly	-10.7917
▁chemo	-10.7917
▁coffin	-10.7917
▁distant	-10.7917
▁elected	-10.7917
▁novel	-10.7917
▁windigo	-10.7917
▁ferry	-10.7917
▁friar	-10.7917
▁senshi	-10.7917
▁pagan	-10.7917
▁melon	-10.7917
▁statue	-10.7917
▁favourite	-10.7917
▁frik	-10.7917
▁canyon	-10.7917
▁metallic	-10.7917
▁spear	-10.7917
▁fourteen	-10.7917
▁gemini	-10.7917
▁define	-10.7917
▁knowledge	-10.7917
▁lassie	-10.7917
▁madrid	-10.7918
▁angle	-10.7918
▁polite	-10.7918
▁threatened	-10.7918
▁region	-10.7918
▁donor	-10.7918
▁leslie	-10.7918
▁merely	-10.7918
▁salon	-10.7918
▁tragic	-10.7918
▁snore	-10.7918
▁scholarship	-10.7918
▁greg	-10.7918
▁industrial	-10.7918
▁burger	-10.7918
▁orions	-10.7918
▁weg	-10.7918
▁uhoh	-10.7918
▁veel	-10.7918
▁fortress	-10.7918
▁vinci	-10.7918
▁ensure	-10.7919
▁nooit	-10.7919
▁lobby	-10.7919
▁urgent	-10.7919
▁wives	-10.7919
▁robotics	-10.7919
▁navigation	-10.7919
▁whens	-10.7919
▁purple	-10.7919
▁feast	-10.7919
▁pension	-10.7919
▁organism	-10.7919
▁festival	-10.7919
▁slander	-10.7919
▁specifically	-10.7919
▁ribbon	-10.7919
▁grey	-10.792
▁shaft	-10.792
▁doe	-10.792
▁flex	-10.792
▁bonny	-10.792
▁resistance	-10.7921
▁serum	-10.7921
▁recip	-10.7921
▁pipeline	-10.7921
▁howling	-10.7921
▁obey	-10.7921
▁significant	-10.7921
▁hydrant	-10.7922
▁costume	-10.7922
▁halley	-10.7923
▁impression	-10.7923
▁containment	-10.7923
▁eerst	-10.7924
▁crab	-10.7924
▁drift	-10.7924
▁function	-10.7924
▁rook	-10.7924
▁subway	-10.7925
▁steep	-10.7926
▁mutter	-10.7926
▁pony	-10.7926
▁nazi	-10.7927
▁nooo	-10.7928
▁weakness	-10.7928
▁popped	-10.7928
▁welch	-10.7928
▁qualified	-10.7928
▁slot	-10.7928
▁alike	-10.7929
▁brax	-10.7929
▁raid	-10.7929
▁crackling	-10.7929
▁esc	-10.7929
▁artoo	-10.7929
▁glow	-10.793
▁woodman	-10.793
▁hence	-10.7931
▁doom	-10.7933
▁award	-10.7933
▁offense	-10.7933
▁humble	-10.7934
▁hula	-10.7936
▁agreement	-10.7936
▁recon	-10.7936
▁internal	-10.7936
▁pinch	-10.7937
trap	-10.7938
▁mayday	-10.7939
▁compromised	-10.7942
▁paulie	-10.7942
▁zit	-10.7942
▁toch	-10.7942
▁blah	-10.7942
▁alter	-10.7942
▁beings	-10.7942
▁dismissed	-10.7943
▁sela	-10.7943
▁chimes	-10.7943
▁stall	-10.7944
▁halfway	-10.7945
terior	-10.7945
▁odin	-10.7946
▁mira	-10.7946
▁dishes	-10.7946
▁hawking	-10.7948
▁fili	-10.7949
▁active	-10.7949
▁exhausted	-10.795
▁humor	-10.795
▁heir	-10.7952
▁tune	-10.7954
▁disable	-10.7955
▁miller	-10.7959
▁outsiders	-10.796
▁deadline	-10.7961
▁laat	-10.7966
▁daar	-10.7966
▁johnson	-10.7969
▁tense	-10.797
▁protective	-10.7971
▁ahem	-10.7972
▁businessman	-10.7979
▁solved	-10.7979
▁useful	-10.798
▁yelled	-10.7989
▁assured	-10.7991
▁temper	-10.7998
▁charming	-10.7999
▁dent	-10.8007
▁moest	-10.8008
▁offended	-10.8008
▁hint	-10.801
▁squeez	-10.801
▁span	-10.8011
▁engineering	-10.8016
▁deze	-10.8023
▁bass	-10.8024
▁mee	-10.8024
▁meantime	-10.8028
▁inch	-10.8031
▁ruth	-10.8032
▁delivery	-10.8034
▁rag	-10.8038
erial	-10.8038
▁gale	-10.8039
▁reality	-10.804
▁tax	-10.8044
▁sinking	-10.8057
▁locker	-10.8058
▁thoughtful	-10.8059
▁roaring	-10.806
▁settled	-10.806
▁tighter	-10.8063
▁hunter	-10.8067
▁shar	-10.8067
gram	-10.8068
teau	-10.807
▁passes	-10.8071
▁quietly	-10.8078
▁gotcha	-10.8083
▁lend	-10.8088
▁requested	-10.8089
▁iii	-10.8093
▁pole	-10.8107
▁helpful	-10.8108
▁cable	-10.812
▁coaster	-10.8132
▁wilt	-10.814
base	-10.8152
▁scu	-10.8168
▁cam	-10.8168
▁iv	-10.8186
▁medic	-10.8186
eight	-10.8212
clea	-10.8223
▁hom	-10.823
zen	-10.8232
thou	-10.8243
▁denk	-10.8258
read	-10.8269
▁nono	-10.8271
▁nic	-10.8273
▁perk	-10.8281
▁pam	-10.8287
▁banker	-10.8304
▁continu	-10.8307
▁drawer	-10.837
▁yah	-10.8406
eva	-10.8468
raw	-10.851
hot	-10.8512
▁overhea	-10.8604
▁shu	-10.8613
▁goede	-10.8624
▁lanc	-10.8659
heim	-10.8678
▁wigg	-10.8759
ologist	-10.8764
▁groan	-10.8778
▁mona	-10.8789
▁where	-10.8792
▁that	-10.8799
▁suburb	-10.883
▁inhale	-10.8837
othe	-10.8858
▁gasp	-10.8875
▁bum	-10.888
▁whip	-10.8903
tender	-10.8953
▁bio	-10.8986
neck	-10.9096
▁bleed	-10.9099
▁infect	-10.9105
▁thrill	-10.9108
▁observ	-10.9117
school	-10.9132
three	-10.9132
▁flee	-10.9136
▁technical	-10.9145
▁cloth	-10.9153
▁dink	-10.9156
▁marshal	-10.9156
▁inject	-10.9156
▁bern	-10.9157
▁stamp	-10.9162
beat	-10.9162
▁arrange	-10.9165
▁involve	-10.9166
▁euro	-10.9167
▁recent	-10.9167
▁corporate	-10.9167
▁encourag	-10.9167
▁intercept	-10.9167
▁transplant	-10.9167
▁unleash	-10.9167
convenience	-10.9167
▁activity	-10.9167
▁admiral	-10.9167
▁arquillian	-10.9167
▁assignment	-10.9167
▁aurelio	-10.9167
▁banana	-10.9167
▁buffalo	-10.9167
▁cobblepot	-10.9167
▁condemn	-10.9167
▁conspiracy	-10.9167
▁corrupt	-10.9167
▁cricket	-10.9167
▁cripple	-10.9167
▁crucial	-10.9167
▁dominican	-10.9167
▁doreena	-10.9167
▁elegant	-10.9167
▁enforcement	-10.9167
▁fabulous	-10.9167
▁faculty	-10.9167
▁fridge	-10.9167
▁frustrat	-10.9167
▁goedemorgen	-10.9167
▁knauer	-10.9167
▁liberty	-10.9167
▁lindsey	-10.9167
▁melissa	-10.9167
▁metcalf	-10.9167
▁monsieur	-10.9167
▁napalm	-10.9167
▁nypd	-10.9167
▁obsession	-10.9167
▁orphan	-10.9167
▁paprika	-10.9167
▁patricia	-10.9167
▁peculiar	-10.9167
▁phelan	-10.9167
▁picnic	-10.9167
▁politics	-10.9167
▁probability	-10.9167
▁ramsay	-10.9167
▁salute	-10.9167
▁scorn	-10.9167
▁shampoo	-10.9167
▁silvano	-10.9167
▁similar	-10.9167
▁sprinkle	-10.9167
▁stammering	-10.9167
▁suspend	-10.9167
▁symptoms	-10.9167
▁thorough	-10.9167
▁trembling	-10.9167
▁undercover	-10.9167
▁underneath	-10.9167
▁underwear	-10.9167
▁venezia	-10.9167
▁werewolf	-10.9167
▁alfred	-10.9167
▁athens	-10.9167
▁barbara	-10.9167
▁capitol	-10.9167
▁cheeseburger	-10.9167
▁concentrate	-10.9167
▁curtain	-10.9167
▁decreas	-10.9167
▁dixon	-10.9167
▁eyelash	-10.9167
▁gunfire	-10.9167
▁handshake	-10.9167
▁harvest	-10.9167
▁lampley	-10.9167
▁northeast	-10.9167
▁passenger	-10.9167
▁penalty	-10.9167
▁puzzle	-10.9167
▁quality	-10.9167
▁scrambl	-10.9167
▁signature	-10.9167
▁streak	-10.9167
▁vegas	-10.9167
▁violation	-10.9167
▁blithe	-10.9167
▁felix	-10.9167
▁investigate	-10.9167
▁midget	-10.9167
▁singular	-10.9167
▁southwest	-10.9167
▁worldwide	-10.9167
▁airborne	-10.9167
▁album	-10.9167
▁creating	-10.9167
▁darcy	-10.9167
▁exotic	-10.9167
▁izzi	-10.9167
▁luister	-10.9167
▁mechanical	-10.9167
▁aisle	-10.9167
▁pierce	-10.9167
▁starlord	-10.9167
▁trager	-10.9167
▁yule	-10.9167
▁battery	-10.9167
▁cairo	-10.9167
▁farewell	-10.9167
▁guild	-10.9167
▁honeymoon	-10.9167
▁spike	-10.9167
▁submit	-10.9167
▁editor	-10.9167
▁harvey	-10.9167
▁terminal	-10.9167
▁violin	-10.9167
wealth	-10.9167
▁cadet	-10.9167
▁reckon	-10.9167
▁rhodes	-10.9167
▁achter	-10.9167
▁scout	-10.9167
▁tomato	-10.9167
▁bulb	-10.9167
▁granddad	-10.9167
▁leroy	-10.9167
▁daycare	-10.9167
▁transmitt	-10.9167
▁warrant	-10.9167
▁skirt	-10.9167
▁waking	-10.9167
▁chef	-10.9167
▁bueno	-10.9167
▁steam	-10.9167
▁jammed	-10.9168
▁slice	-10.9168
▁humming	-10.9168
▁influenc	-10.9168
▁troops	-10.9168
▁cartoon	-10.9168
▁norris	-10.9168
▁inmate	-10.9168
▁terra	-10.9168
▁threatening	-10.9168
▁intel	-10.9168
▁ochi	-10.9168
▁particle	-10.9168
galactic	-10.9168
▁grabbed	-10.9168
▁blaring	-10.9168
▁impact	-10.9168
▁nattie	-10.9168
▁rackham	-10.9168
▁templar	-10.9168
▁profit	-10.9168
▁fond	-10.9168
▁boobs	-10.9168
▁basketball	-10.9168
▁ribs	-10.9168
▁aero	-10.9169
▁collar	-10.9169
▁nickname	-10.9169
▁verander	-10.9169
▁truce	-10.9169
▁numer	-10.9169
▁colony	-10.9169
▁backwards	-10.9169
parallel	-10.9169
▁dragging	-10.9169
▁audition	-10.917
▁cord	-10.917
▁turley	-10.917
▁resent	-10.917
▁vince	-10.917
▁sniffles	-10.917
▁radiation	-10.917
▁rubber	-10.917
▁prank	-10.917
▁planned	-10.917
▁moans	-10.9171
▁initiative	-10.9171
▁edition	-10.9171
▁sniper	-10.9171
▁reverse	-10.9171
▁papi	-10.9171
immune	-10.9172
▁reference	-10.9172
▁stripper	-10.9172
▁quote	-10.9172
▁furry	-10.9172
▁actress	-10.9172
▁through	-10.9172
▁emerge	-10.9173
▁restrain	-10.9173
▁solar	-10.9173
▁jonas	-10.9173
▁hissing	-10.9173
▁bucket	-10.9173
▁lousy	-10.9174
▁cabinet	-10.9174
▁noah	-10.9174
▁andand	-10.9175
▁childhood	-10.9175
▁grote	-10.9175
▁whack	-10.9176
▁toby	-10.9176
▁dressler	-10.9176
▁sunlight	-10.9176
▁klaa	-10.9176
▁acid	-10.9177
▁dodo	-10.9178
▁invention	-10.9178
▁megan	-10.9178
▁frozen	-10.9179
▁marty	-10.9179
▁mitch	-10.918
▁stroke	-10.918
▁heck	-10.918
▁rice	-10.918
▁frost	-10.918
▁potatoes	-10.918
▁gps	-10.9183
▁twistle	-10.9183
▁logical	-10.9183
▁psycho	-10.9184
▁mooi	-10.9184
▁located	-10.9185
▁erase	-10.9185
▁winner	-10.9185
▁oom	-10.9186
▁dice	-10.9186
▁latte	-10.9188
▁disappointed	-10.9189
▁possession	-10.9189
▁tide	-10.919
▁wholl	-10.919
▁passage	-10.9192
▁ego	-10.9192
▁barrel	-10.9194
▁boil	-10.9194
▁dj	-10.9195
▁hoot	-10.9195
▁rach	-10.9195
force	-10.9196
▁ahab	-10.9196
▁nails	-10.9197
▁identified	-10.92
▁worthless	-10.9201
▁worn	-10.9201
▁witnesses	-10.9202
▁clacking	-10.9202
▁stir	-10.9202
▁exit	-10.9205
▁dough	-10.9205
▁multiple	-10.9206
▁skies	-10.9207
▁medal	-10.9208
▁spain	-10.9209
▁marine	-10.9213
▁hind	-10.9214
▁fist	-10.9215
▁proposed	-10.922
▁sole	-10.922
▁examiner	-10.9221
▁fatal	-10.9223
▁sharply	-10.9224
bby	-10.9226
▁bora	-10.9226
▁yen	-10.923
▁takin	-10.923
▁assist	-10.9231
▁germany	-10.9233
▁adopted	-10.9238
▁dove	-10.9239
▁deano	-10.924
▁nori	-10.9241
▁twister	-10.9243
▁evacuated	-10.9244
▁jaw	-10.9247
▁vest	-10.9248
tec	-10.9248
▁weet	-10.9249
▁cycle	-10.9257
▁rex	-10.9257
▁shoo	-10.9261
▁keer	-10.9264
▁stable	-10.927
▁momma	-10.9283
▁santi	-10.9285
enige	-10.929
▁kneel	-10.929
▁tender	-10.9293
acy	-10.9293
hill	-10.9293
▁jar	-10.9298
▁plumb	-10.9305
▁moor	-10.9314
▁tang	-10.9324
▁vet	-10.935
▁what	-10.9359
▁kar	-10.9366
▁bam	-10.9368
▁cinc	-10.937
▁epic	-10.9371
▁flu	-10.9403
▁lil	-10.9418
onden	-10.9426
▁more	-10.9439
▁seize	-10.9445
▁flipp	-10.9469
▁mont	-10.9496
▁illuminat	-10.9534
iterate	-10.9555
▁beck	-10.9619
▁molecul	-10.9676
▁anticipate	-10.9676
▁communicate	-10.9683
▁mill	-10.9686
▁tin	-10.9715
▁leo	-10.9757
▁vin	-10.9784
▁harp	-10.9823
▁ew	-10.9832
vision	-10.9834
▁poke	-10.9855
▁unsu	-10.9881
oggy	-10.9885
▁neat	-10.996
kra	-11.0046
▁introduc	-11.006
▁opera	-11.0124
rank	-11.0135
itating	-11.0235
▁skill	-11.0269
▁degree	-11.0273
▁parent	-11.0275
azy	-11.0334
rom	-11.0466
▁rais	-11.0505
▁dispos	-11.0505
▁psycholog	-11.0507
▁neuro	-11.0509
▁expos	-11.0512
osaurus	-11.0513
▁squeal	-11.0525
name	-11.0536
aint	-11.0551
wood	-11.0554
what	-11.0554
▁should	-11.0557
activate	-11.0558
identified	-11.0558
course	-11.056
minute	-11.056
piece	-11.056
grade	-11.0561
cause	-11.0561
blood	-11.0561
free	-11.0561
proof	-11.0562
bomb	-11.0566
year	-11.0567
▁weigh	-11.0569
▁sync	-11.057
▁forge	-11.0574
▁refu	-11.0574
▁potato	-11.0581
▁leonard	-11.0582
▁expose	-11.0583
saw	-11.059
▁initiat	-11.0592
▁titan	-11.0593
▁francis	-11.0594
▁occur	-11.0595
litary	-11.0595
▁bodyguard	-11.0595
▁ambassad	-11.0596
▁squad	-11.0596
▁academic	-11.0596
▁advantage	-11.0596
▁advisor	-11.0596
▁afrika	-11.0596
▁aldrich	-11.0596
▁algorithm	-11.0596
▁amazon	-11.0596
▁ancestor	-11.0596
▁annihilat	-11.0596
▁antidote	-11.0596
▁antimatter	-11.0596
▁approval	-11.0596
▁assessment	-11.0596
▁asteroid	-11.0596
▁attractive	-11.0596
▁barbossa	-11.0596
▁beseech	-11.0596
▁bextrum	-11.0596
▁colombia	-11.0596
▁confidential	-11.0596
▁contrary	-11.0596
▁curiosity	-11.0596
▁deceased	-11.0596
▁definitive	-11.0596
▁discipline	-11.0596
▁disgrace	-11.0596
▁disrupt	-11.0596
▁elaborate	-11.0596
▁elsewhere	-11.0596
▁exterminat	-11.0596
▁fabric	-11.0596
▁ganush	-11.0596
▁hologram	-11.0596
▁horror	-11.0596
▁ignition	-11.0596
▁inflict	-11.0596
▁interpret	-11.0596
▁investigator	-11.0596
▁israel	-11.0596
▁janitor	-11.0596
▁january	-11.0596
▁khadgar	-11.0596
▁kilometers	-11.0596
▁krijg	-11.0596
▁kunnen	-11.0596
▁lestrade	-11.0596
▁mahalik	-11.0596
▁mathematician	-11.0596
▁matsui	-11.0596
▁melanie	-11.0596
▁minimum	-11.0596
▁motivat	-11.0596
▁motorcycle	-11.0596
▁napoleon	-11.0596
▁necessarily	-11.0596
▁nigga	-11.0596
▁nightcrawler	-11.0596
▁obsessed	-11.0596
▁ordinary	-11.0596
▁parliament	-11.0596
▁password	-11.0596
▁paycheck	-11.0596
▁perfume	-11.0596
▁perimeter	-11.0596
▁phrase	-11.0596
▁prachtig	-11.0596
▁principle	-11.0596
▁radius	-11.0596
▁railroad	-11.0596
▁reelection	-11.0596
▁reflect	-11.0596
▁rendezvous	-11.0596
▁resolve	-11.0596
▁rodrigue	-11.0596
▁rooster	-11.0596
▁scavenge	-11.0596
▁scenario	-11.0596
▁soccer	-11.0596
▁stockbroker	-11.0596
▁struggling	-11.0596
▁stunning	-11.0596
▁sunglasses	-11.0596
▁supplie	-11.0596
▁switowski	-11.0596
▁threshold	-11.0596
▁tortuga	-11.0596
▁triumph	-11.0596
▁tshirt	-11.0596
▁tugboat	-11.0596
▁typewriter	-11.0596
▁uptown	-11.0596
▁wheezing	-11.0596
▁xavier	-11.0596
▁yelena	-11.0596
▁aggressive	-11.0596
▁artific	-11.0596
▁deliberate	-11.0596
▁enormous	-11.0596
▁evolve	-11.0596
▁fierce	-11.0596
▁gurkin	-11.0596
▁hamburg	-11.0596
▁lemonade	-11.0596
▁mysterious	-11.0596
▁preserve	-11.0596
▁resident	-11.0596
▁ritual	-11.0596
▁skywalker	-11.0596
▁snoring	-11.0596
▁theories	-11.0596
▁zulu	-11.0596
restricted	-11.0596
▁alexander	-11.0596
▁alicia	-11.0596
▁becca	-11.0596
▁calnet	-11.0596
▁culture	-11.0596
▁delicate	-11.0596
▁disorder	-11.0596
▁electronic	-11.0596
▁filthy	-11.0596
▁gerald	-11.0596
▁hiphop	-11.0596
▁infinity	-11.0596
▁liefde	-11.0596
▁lunatic	-11.0596
▁peggy	-11.0596
▁prefect	-11.0596
▁sattler	-11.0596
▁slamm	-11.0596
▁strict	-11.0596
▁tyrant	-11.0596
▁roast	-11.0596
▁chorus	-11.0596
▁czech	-11.0596
▁defence	-11.0596
▁dignity	-11.0596
▁frakel	-11.0596
▁harbor	-11.0596
▁identical	-11.0596
▁itsits	-11.0596
▁alfon	-11.0596
▁bounty	-11.0596
▁charity	-11.0596
▁dainard	-11.0596
▁expertise	-11.0596
▁venom	-11.0596
▁divide	-11.0596
▁smash	-11.0596
▁unstable	-11.0596
▁wagon	-11.0596
▁bernini	-11.0596
▁spoil	-11.0596
▁nodig	-11.0596
▁praten	-11.0596
▁preacher	-11.0596
▁revving	-11.0596
▁aaron	-11.0596
▁bmw	-11.0596
▁canister	-11.0596
▁heathen	-11.0596
▁minister	-11.0596
▁sentiment	-11.0596
▁pervert	-11.0596
▁sermon	-11.0596
▁zich	-11.0596
▁bacon	-11.0596
▁veins	-11.0596
▁jimeno	-11.0596
▁neveu	-11.0596
▁dacht	-11.0596
▁narrat	-11.0596
▁japan	-11.0596
▁mourn	-11.0596
▁appeal	-11.0596
▁keala	-11.0596
▁terry	-11.0596
▁crib	-11.0596
▁signora	-11.0596
▁imperial	-11.0596
▁outrage	-11.0596
▁repay	-11.0596
olving	-11.0596
▁adios	-11.0596
▁napkin	-11.0596
▁beef	-11.0596
▁jilt	-11.0596
▁devastating	-11.0596
▁yyou	-11.0596
jamas	-11.0596
▁denied	-11.0596
▁typing	-11.0596
▁countries	-11.0596
▁kree	-11.0596
▁racing	-11.0596
▁salesman	-11.0596
▁convergence	-11.0596
▁lottery	-11.0596
▁putnam	-11.0596
▁signore	-11.0596
▁premises	-11.0596
▁reef	-11.0596
▁freezing	-11.0597
▁cocktail	-11.0597
▁carbon	-11.0597
▁casualties	-11.0597
▁junk	-11.0597
▁asap	-11.0597
▁blond	-11.0597
▁moaning	-11.0597
▁database	-11.0597
▁nanny	-11.0597
▁mistress	-11.0597
▁championship	-11.0597
▁regime	-11.0597
▁thump	-11.0597
▁fowl	-11.0597
assemble	-11.0597
▁upgrade	-11.0597
▁melt	-11.0597
▁vinden	-11.0597
▁liquid	-11.0597
▁outrun	-11.0597
▁forehead	-11.0597
▁cort	-11.0597
▁bold	-11.0597
▁studio	-11.0597
▁hollywood	-11.0598
▁steward	-11.0598
▁confusion	-11.0598
▁inquir	-11.0598
▁bind	-11.0598
▁bingo	-11.0598
▁simulation	-11.0598
▁flashlight	-11.0598
▁analysis	-11.0598
▁accent	-11.0598
▁illusion	-11.0598
▁debate	-11.0598
▁executive	-11.0599
▁smack	-11.0599
▁vetra	-11.0599
▁lct	-11.0599
▁savage	-11.0599
▁upside	-11.0599
▁announcement	-11.0599
▁frog	-11.0599
▁bleat	-11.0599
▁migs	-11.0599
▁confide	-11.06
▁knot	-11.06
▁jewelry	-11.06
▁involvement	-11.06
▁medium	-11.06
▁causing	-11.06
▁romance	-11.06
toxin	-11.0601
▁preferred	-11.0601
▁woke	-11.0601
▁raptor	-11.0602
▁triang	-11.0602
▁promote	-11.0602
▁moonlight	-11.0602
▁extract	-11.0602
▁frame	-11.0603
▁revolutionary	-11.0603
▁onboard	-11.0603
▁reduce	-11.0603
▁therell	-11.0603
▁naples	-11.0604
▁skinny	-11.0604
▁riot	-11.0604
▁blackhand	-11.0604
tachment	-11.0604
▁passport	-11.0604
acci	-11.0605
▁attendant	-11.0605
relief	-11.0605
▁leap	-11.0605
▁marcy	-11.0605
▁virginia	-11.0605
▁wherere	-11.0605
▁liking	-11.0606
▁rico	-11.0606
▁structure	-11.0606
▁rodent	-11.0606
▁geez	-11.0607
▁mmmmm	-11.0608
▁dorian	-11.0608
▁starboard	-11.0608
▁bubble	-11.0609
▁abuse	-11.0609
▁grill	-11.0609
▁african	-11.0609
▁leonardo	-11.0609
▁poking	-11.061
▁shelley	-11.061
▁dios	-11.061
▁linus	-11.0611
▁flies	-11.0611
▁torment	-11.0611
▁cube	-11.0612
▁kiri	-11.0613
▁chairman	-11.0613
▁tallis	-11.0613
▁korean	-11.0613
▁rick	-11.0614
▁harmless	-11.0614
kerry	-11.0615
▁adore	-11.0615
▁onder	-11.0616
▁nearby	-11.0616
▁payback	-11.0616
▁centre	-11.0616
▁amongst	-11.0617
▁controlled	-11.0617
▁premi	-11.0618
▁whoosh	-11.062
▁dame	-11.0621
▁armies	-11.0621
▁meeka	-11.0622
▁traditional	-11.0625
▁hoop	-11.0626
▁komen	-11.0627
ullen	-11.0628
▁coke	-11.063
▁willen	-11.063
▁hub	-11.0631
state	-11.0631
▁soil	-11.0633
▁marion	-11.0634
▁mansion	-11.0638
▁blackout	-11.064
▁runner	-11.064
▁shovel	-11.0647
▁ranch	-11.0651
▁toon	-11.0651
▁sanders	-11.0653
▁correction	-11.0654
▁spre	-11.0655
daan	-11.0659
▁zola	-11.066
▁noon	-11.0661
▁rega	-11.0663
▁linger	-11.0666
▁giu	-11.0667
assic	-11.0668
▁shutting	-11.0669
▁dub	-11.0675
▁sip	-11.0675
▁hotter	-11.068
▁tijd	-11.0684
▁sang	-11.0696
▁dug	-11.0696
donna	-11.0707
▁hump	-11.0762
▁ava	-11.0766
▁uncha	-11.077
ibut	-11.0783
this	-11.0798
andere	-11.0815
▁victoria	-11.0822
▁compete	-11.0833
▁cooperat	-11.09
gling	-11.0941
▁bugg	-11.0986
▁allo	-11.1023
▁strap	-11.1082
improvement	-11.1088
▁shaki	-11.1098
▁activate	-11.1105
▁sank	-11.1111
▁sac	-11.1126
▁riva	-11.1132
▁govern	-11.1142
▁dedicat	-11.1153
▁trie	-11.1157
▁pil	-11.1243
about	-11.1284
bora	-11.1327
gun	-11.1502
helf	-11.1506
▁rotte	-11.1571
▁announce	-11.1678
▁scal	-11.1678
acceptable	-11.1687
▁pep	-11.1696
▁translat	-11.1758
▁medi	-11.181
▁diplomati	-11.1858
▁hostage	-11.1931
▁mutant	-11.1932
mery	-11.1935
▁phi	-11.1977
home	-11.199
ography	-11.2106
▁writ	-11.2116
rock	-11.2118
▁surviv	-11.2152
called	-11.2165
place	-11.2221
▁micro	-11.2225
▁capture	-11.2225
nathan	-11.2225
american	-11.2227
girl	-11.2227
scope	-11.2227
walk	-11.2228
scene	-11.2228
▁guilt	-11.2232
▁unfortunate	-11.2241
▁bubb	-11.2248
▁convers	-11.2249
▁elevat	-11.2254
▁runnin	-11.2257
▁extinct	-11.2257
▁ravage	-11.226
▁raven	-11.226
▁priv	-11.226
▁stew	-11.226
stitute	-11.2261
▁drama	-11.2261
▁champion	-11.2262
job	-11.2262
▁casual	-11.2262
▁bachelor	-11.2262
▁virg	-11.2262
annah	-11.2262
▁registr	-11.2263
▁authentic	-11.2263
▁disrespect	-11.2263
▁electro	-11.2263
▁puddle	-11.2263
discretion	-11.2263
neutral	-11.2263
terranean	-11.2263
▁abducted	-11.2263
▁abilities	-11.2263
▁academy	-11.2263
▁accelerat	-11.2263
▁accustomed	-11.2263
▁achieve	-11.2263
▁acquaintance	-11.2263
▁acquired	-11.2263
▁afflict	-11.2263
▁afterward	-11.2263
▁aleera	-11.2263
▁apocalypse	-11.2263
▁approximately	-11.2263
▁arrogant	-11.2263
▁athenian	-11.2263
▁barbecue	-11.2263
▁bordeaux	-11.2263
▁bureau	-11.2263
▁cavalry	-11.2263
▁celebrating	-11.2263
▁cemetery	-11.2263
▁conduct	-11.2263
▁conflict	-11.2263
▁contaminat	-11.2263
▁convenient	-11.2263
▁covenant	-11.2263
▁decommission	-11.2263
▁delacourt	-11.2263
▁depression	-11.2263
▁deterrent	-11.2263
▁donnie	-11.2263
▁electromagnet	-11.2263
▁elephant	-11.2263
▁enchanted	-11.2263
▁episode	-11.2263
▁eradicat	-11.2263
▁eugene	-11.2263
▁excitement	-11.2263
▁exhaling	-11.2263
▁fraternity	-11.2263
▁frequencies	-11.2263
▁fuzz	-11.2263
▁galileo	-11.2263
▁genoeg	-11.2263
▁grandparents	-11.2263
▁grozny	-11.2263
▁happily	-11.2263
▁housekeeper	-11.2263
▁inaudible	-11.2263
▁increasing	-11.2263
▁injuries	-11.2263
▁ipswich	-11.2263
▁isolation	-11.2263
▁jupiter	-11.2263
▁karazhan	-11.2263
▁kijimi	-11.2263
▁koestler	-11.2263
▁leukemia	-11.2263
▁lnjun	-11.2263
▁lsabel	-11.2263
▁mactaggert	-11.2263
▁marishka	-11.2263
▁mathematical	-11.2263
▁mathematics	-11.2263
▁mcdowell	-11.2263
▁mignon	-11.2263
▁millenni	-11.2263
▁misunderstand	-11.2263
▁mortuary	-11.2263
▁mushnik	-11.2263
▁oblivion	-11.2263
▁october	-11.2263
▁opponent	-11.2263
▁pennsylvania	-11.2263
▁peppermint	-11.2263
▁persuade	-11.2263
▁phelpmitter	-11.2263
▁physician	-11.2263
▁predator	-11.2263
▁preparation	-11.2263
▁principal	-11.2263
▁prospect	-11.2263
▁puppet	-11.2263
▁qualms	-11.2263
▁refrigerator	-11.2263
▁rehearse	-11.2263
▁salamander	-11.2263
▁scranton	-11.2263
▁semester	-11.2263
▁serving	-11.2263
▁snorting	-11.2263
▁snoutfever	-11.2263
▁sorority	-11.2263
▁sovereign	-11.2263
▁squirrel	-11.2263
▁strateg	-11.2263
▁sympathy	-11.2263
▁technician	-11.2263
▁technique	-11.2263
▁thanksgiving	-11.2263
▁therapist	-11.2263
▁transylvania	-11.2263
▁tremendous	-11.2263
▁trespass	-11.2263
▁twinkle	-11.2263
▁uncovered	-11.2263
▁undeniable	-11.2263
▁underestimate	-11.2263
▁unprecedented	-11.2263
▁uphol	-11.2263
▁vegetarian	-11.2263
▁venezuela	-11.2263
▁villain	-11.2263
▁vulcan	-11.2263
▁vulnerable	-11.2263
▁waving	-11.2263
▁website	-11.2263
▁welfare	-11.2263
▁atherton	-11.2263
▁batteries	-11.2263
▁broadway	-11.2263
▁cackling	-11.2263
▁chalice	-11.2263
▁companies	-11.2263
▁cyrus	-11.2263
▁greedy	-11.2263
▁incantation	-11.2263
▁louisiana	-11.2263
▁nigra	-11.2263
▁ounce	-11.2263
▁penthouse	-11.2263
▁phoe	-11.2263
▁postcard	-11.2263
▁resign	-11.2263
▁sketch	-11.2263
▁southeast	-11.2263
▁suitcase	-11.2263
▁sunshine	-11.2263
▁swift	-11.2263
▁tennessee	-11.2263
▁wails	-11.2263
▁whoohoo	-11.2263
▁yuri	-11.2263
▁beaver	-11.2263
▁blijf	-11.2263
▁civic	-11.2263
▁croque	-11.2263
▁douche	-11.2263
▁earrings	-11.2263
▁handcuff	-11.2263
▁merchant	-11.2263
▁nigel	-11.2263
▁obtain	-11.2263
▁previous	-11.2263
▁radical	-11.2263
▁senator	-11.2263
▁shiva	-11.2263
▁slightest	-11.2263
▁sponge	-11.2263
▁venture	-11.2263
▁youyou	-11.2263
▁buddies	-11.2263
▁capacity	-11.2263
▁enlighten	-11.2263
▁gutter	-11.2263
▁historical	-11.2263
▁marcus	-11.2263
▁stroll	-11.2263
▁bleach	-11.2263
▁breasts	-11.2263
▁cherish	-11.2263
▁copeland	-11.2263
▁excess	-11.2263
▁overdue	-11.2263
▁pretence	-11.2263
▁punct	-11.2263
▁armour	-11.2263
▁cease	-11.2263
▁dunno	-11.2263
▁nobel	-11.2263
▁plead	-11.2263
▁probation	-11.2263
▁rifle	-11.2263
▁womb	-11.2263
▁brogan	-11.2263
▁dawg	-11.2263
▁hamster	-11.2263
▁monica	-11.2263
▁stomp	-11.2263
▁vladi	-11.2263
▁xray	-11.2263
▁conceale	-11.2263
▁dolce	-11.2263
▁capital	-11.2263
▁janson	-11.2263
▁swam	-11.2263
▁venus	-11.2263
▁barbie	-11.2263
▁gospel	-11.2263
▁clerk	-11.2263
▁madison	-11.2263
▁mechanics	-11.2263
▁burst	-11.2263
▁flunk	-11.2263
script	-11.2263
▁ragged	-11.2263
▁jaylah	-11.2263
▁crave	-11.2263
▁yacht	-11.2263
▁autograph	-11.2263
▁ellie	-11.2263
▁motel	-11.2263
▁typical	-11.2263
▁ankle	-11.2263
▁creation	-11.2263
▁backseat	-11.2263
▁studied	-11.2263
▁depth	-11.2263
▁thrust	-11.2263
▁jolly	-11.2263
▁retro	-11.2263
▁panicked	-11.2263
▁investigating	-11.2263
▁genome	-11.2263
▁huntsman	-11.2263
▁insuff	-11.2263
▁bodyguarddog	-11.2263
▁decree	-11.2263
▁sculpture	-11.2263
▁lump	-11.2263
▁babysitter	-11.2263
▁ransom	-11.2263
swipe	-11.2263
▁interven	-11.2264
▁pinned	-11.2264
▁stumbl	-11.2264
▁decorate	-11.2264
▁jacksonville	-11.2264
▁fingerprint	-11.2264
▁meteor	-11.2264
concept	-11.2264
▁jannah	-11.2264
▁reproduce	-11.2264
▁oye	-11.2264
▁defy	-11.2264
▁thudding	-11.2264
destined	-11.2264
▁tread	-11.2264
▁doughnut	-11.2264
▁freight	-11.2264
▁ifyou	-11.2264
▁klein	-11.2264
▁lockwood	-11.2264
▁sunset	-11.2264
▁construction	-11.2264
▁disappointment	-11.2264
▁cryptex	-11.2264
▁transition	-11.2264
▁pond	-11.2265
▁dennis	-11.2265
▁stormwind	-11.2265
▁kinderen	-11.2265
▁makin	-11.2265
▁psychotic	-11.2265
▁alignment	-11.2265
▁suspicious	-11.2265
▁believing	-11.2265
▁avenue	-11.2265
▁formula	-11.2265
▁waylon	-11.2265
▁recogni	-11.2265
▁unnatural	-11.2265
ulsion	-11.2265
▁ravenna	-11.2266
▁ravagers	-11.2266
▁hugging	-11.2266
▁enhanc	-11.2266
▁transferred	-11.2266
▁concourse	-11.2266
▁devr	-11.2266
▁buckley	-11.2266
▁polland	-11.2266
▁gogh	-11.2266
▁mummy	-11.2266
▁ginger	-11.2266
▁erupt	-11.2266
▁shush	-11.2266
▁shortcut	-11.2266
▁hobby	-11.2266
▁parley	-11.2267
▁skipped	-11.2267
▁execution	-11.2267
▁addict	-11.2267
▁haircut	-11.2267
▁orient	-11.2267
▁blanket	-11.2268
▁devot	-11.2268
▁zoek	-11.2268
▁extinction	-11.2268
▁expand	-11.2268
▁hyper	-11.2269
▁establishment	-11.2269
▁subtle	-11.2269
▁token	-11.2269
▁extraction	-11.2269
▁filter	-11.227
▁heartbeat	-11.227
▁harsh	-11.2271
▁stalk	-11.2271
▁blake	-11.2272
▁hyde	-11.2272
▁judy	-11.2272
▁hallway	-11.2272
▁scarf	-11.2272
▁voting	-11.2272
▁senate	-11.2272
▁tasting	-11.2272
▁inbound	-11.2273
▁irv	-11.2273
▁commit	-11.2273
▁geze	-11.2274
▁hiring	-11.2274
▁renee	-11.2274
▁leah	-11.2275
▁upper	-11.2275
▁native	-11.2275
▁burt	-11.2275
▁chaos	-11.2276
▁willis	-11.2276
▁perish	-11.2277
▁rising	-11.2277
▁injection	-11.2277
▁banne	-11.2277
▁meaningless	-11.2278
▁midst	-11.2278
▁cattle	-11.2278
▁logan	-11.2278
▁luv	-11.2279
▁limo	-11.2279
▁dwell	-11.2279
▁spotted	-11.2279
▁rash	-11.2279
▁mount	-11.2279
▁amuse	-11.228
▁parade	-11.2281
▁operator	-11.2282
▁canna	-11.2282
▁dope	-11.2283
▁dune	-11.2284
▁grove	-11.2284
▁gebr	-11.2285
▁panel	-11.2286
▁rack	-11.2286
▁monk	-11.2287
▁billings	-11.2289
diac	-11.229
▁probe	-11.2291
▁delta	-11.2292
▁mick	-11.2293
rics	-11.2293
▁haul	-11.2294
▁lust	-11.2295
▁solo	-11.2296
▁fog	-11.2296
▁ahhh	-11.2297
▁pace	-11.23
ocus	-11.2304
legge	-11.2314
▁brah	-11.2318
hhh	-11.232
ooit	-11.2327
▁hadd	-11.2346
▁shrink	-11.2348
▁fade	-11.2348
▁trauma	-11.2371
zero	-11.2386
▁brew	-11.2394
ugged	-11.2412
▁iwh	-11.2447
sett	-11.2486
abbing	-11.2503
lange	-11.2514
muri	-11.2652
mews	-11.266
▁diploma	-11.2684
▁capabilit	-11.2715
▁mock	-11.2734
rmal	-11.2806
grunt	-11.282
▁virtual	-11.2844
fall	-11.2867
capita	-11.2909
timate	-11.2914
▁plug	-11.2965
▁atta	-11.298
▁biz	-11.2982
ronic	-11.3003
geef	-11.3105
▁specialize	-11.3132
ynn	-11.3371
▁argu	-11.3523
▁congr	-11.3569
ification	-11.3667
who	-11.3768
▁biologica	-11.3875
▁musketeer	-11.3925
▁epi	-11.3947
owned	-11.3965
▁india	-11.4057
▁mob	-11.4066
woman	-11.4095
ijden	-11.4145
dieu	-11.4174
▁exhaust	-11.4201
▁compromise	-11.4217
clip	-11.4226
authorized	-11.4226
broken	-11.4227
thisby	-11.4228
smith	-11.4228
phase	-11.423
self	-11.4233
▁offens	-11.4235
▁korea	-11.4238
▁scot	-11.4239
▁zij	-11.424
▁fortunate	-11.4242
six	-11.4243
▁precise	-11.4244
poppin	-11.4249
▁profession	-11.4251
produc	-11.4251
▁execut	-11.4253
▁inspect	-11.4254
▁leavin	-11.4258
▁scandal	-11.426
titude	-11.426
▁kidnap	-11.426
▁industr	-11.4262
▁cigar	-11.4262
▁dodg	-11.4262
▁jenni	-11.4263
▁accommodat	-11.4263
▁induct	-11.4263
▁interfere	-11.4263
▁resurrect	-11.4263
cryption	-11.4263
mcdunnough	-11.4263
responsibilities	-11.4263
▁ambigram	-11.4263
▁argentinean	-11.4263
▁armstrong	-11.4263
▁artillery	-11.4263
▁ascertain	-11.4263
▁assigned	-11.4263
▁assumption	-11.4263
▁astronom	-11.4263
▁australia	-11.4263
▁bathsheba	-11.4263
▁biscuits	-11.4263
▁buongiorno	-11.4263
▁calendar	-11.4263
▁cassiopeia	-11.4263
▁cheerleader	-11.4263
▁chemistry	-11.4263
▁cherlinski	-11.4263
▁clumsy	-11.4263
▁compressor	-11.4263
▁conclude	-11.4263
▁constellation	-11.4263
▁creator	-11.4263
▁defensive	-11.4263
▁definition	-11.4263
▁demonstration	-11.4263
▁devonshire	-11.4263
▁diagnosis	-11.4263
▁diagnostic	-11.4263
▁dialogue	-11.4263
▁distorted	-11.4263
▁doggychop	-11.4263
▁dunmeyer	-11.4263
▁earthquake	-11.4263
▁eaux	-11.4263
▁eject	-11.4263
▁embrace	-11.4263
▁emerald	-11.4263
▁erfgenaam	-11.4263
▁eulogy	-11.4263
▁exhibit	-11.4263
▁exhusband	-11.4263
▁exploding	-11.4263
▁exwife	-11.4263
▁finnegan	-11.4263
▁fitzhugh	-11.4263
▁frenzy	-11.4263
▁frostwolves	-11.4263
▁furzeez	-11.4263
▁galaxies	-11.4263
▁gefeliciteerd	-11.4263
▁ghetto	-11.4263
▁gierasch	-11.4263
▁grandchildren	-11.4263
▁granddaughter	-11.4263
▁greenwich	-11.4263
▁groceries	-11.4263
▁grudge	-11.4263
▁hayseed	-11.4263
▁homicide	-11.4263
▁humiliate	-11.4263
▁imbecile	-11.4263
▁impeccable	-11.4263
▁inappropriate	-11.4263
▁incorrect	-11.4263
▁inscription	-11.4263
▁intimidat	-11.4263
▁intruder	-11.4263
▁invincible	-11.4263
▁invitation	-11.4263
▁khrushchev	-11.4263
▁koninkrijk	-11.4263
▁kremlin	-11.4263
▁laboratory	-11.4263
▁laundry	-11.4263
▁lehnsherr	-11.4263
▁leprechaun	-11.4263
▁liaison	-11.4263
▁lidewij	-11.4263
▁luxury	-11.4263
▁machtig	-11.4263
▁majesteit	-11.4263
▁malcolm	-11.4263
▁mclntyre	-11.4263
▁mercenar	-11.4263
▁microphone	-11.4263
▁mystique	-11.4263
▁necromancer	-11.4263
▁nieuw	-11.4263
▁nigger	-11.4263
▁nikto	-11.4263
▁oakenshield	-11.4263
▁oracle	-11.4263
▁osteo	-11.4263
▁overflow	-11.4263
▁pakistan	-11.4263
▁paradise	-11.4263
▁paralysis	-11.4263
▁participat	-11.4263
▁pedestrian	-11.4263
▁peterquince	-11.4263
▁phenomena	-11.4263
▁physicist	-11.4263
▁plague	-11.4263
▁platform	-11.4263
▁plutonium	-11.4263
▁precaution	-11.4263
▁premature	-11.4263
▁quadrant	-11.4263
▁quarrel	-11.4263
▁radiant	-11.4263
▁ravish	-11.4263
▁reception	-11.4263
▁recharge	-11.4263
▁redirect	-11.4263
▁releasing	-11.4263
▁religious	-11.4263
▁reynolds	-11.4263
▁richelieu	-11.4263
▁rumour	-11.4263
▁sarcophagus	-11.4263
▁satisfy	-11.4263
▁schmuck	-11.4263
▁september	-11.4263
▁shankland	-11.4263
▁sherlock	-11.4263
▁shrieking	-11.4263
▁shylock	-11.4263
▁skarratt	-11.4263
▁sneeze	-11.4263
▁somewhat	-11.4263
▁souvenir	-11.4263
▁stanford	-11.4263
▁stuttering	-11.4263
▁sufficient	-11.4263
▁supermarket	-11.4263
▁surprising	-11.4263
▁swedish	-11.4263
▁syndrome	-11.4263
▁tiffany	-11.4263
▁tortoise	-11.4263
▁toulour	-11.4263
▁unnecessary	-11.4263
▁unpredictable	-11.4263
▁urinating	-11.4263
▁vacuum	-11.4263
▁veracruz	-11.4263
▁waffles	-11.4263
▁wheelchair	-11.4263
▁amateur	-11.4263
▁aramis	-11.4263
▁astonish	-11.4263
▁auction	-11.4263
▁bifur	-11.4263
▁bouquet	-11.4263
▁bypass	-11.4263
▁civilization	-11.4263
▁climate	-11.4263
▁cocaine	-11.4263
▁compartment	-11.4263
▁conjur	-11.4263
▁conrade	-11.4263
▁debris	-11.4263
▁dynam	-11.4263
▁encoder	-11.4263
▁enrique	-11.4263
▁exaggerat	-11.4263
▁forecast	-11.4263
▁fumble	-11.4263
▁gucci	-11.4263
▁huwelijk	-11.4263
▁indulg	-11.4263
▁infirm	-11.4263
▁jurisdiction	-11.4263
▁kikk	-11.4263
▁lahiri	-11.4263
▁nanites	-11.4263
▁necklace	-11.4263
▁outpost	-11.4263
▁penetrat	-11.4263
▁porthos	-11.4263
▁prevail	-11.4263
▁proportion	-11.4263
▁reboot	-11.4263
▁retaliat	-11.4263
▁revoir	-11.4263
▁rumlow	-11.4263
▁silicon	-11.4263
▁substance	-11.4263
▁sumdall	-11.4263
▁sylv	-11.4263
▁unhappy	-11.4263
▁uplink	-11.4263
▁upload	-11.4263
▁vandaag	-11.4263
▁charging	-11.4263
▁conceive	-11.4263
▁creek	-11.4263
▁elector	-11.4263
▁koji	-11.4263
▁oasis	-11.4263
▁ronnie	-11.4263
▁rumble	-11.4263
▁scoop	-11.4263
▁sequel	-11.4263
▁spontane	-11.4263
▁tupac	-11.4263
▁unfair	-11.4263
▁wereld	-11.4263
▁chittering	-11.4263
▁endeavo	-11.4263
▁espn	-11.4263
▁honeycutt	-11.4263
▁judging	-11.4263
▁opposit	-11.4263
▁smaug	-11.4263
▁violet	-11.4263
▁imminent	-11.4263
▁manipulat	-11.4263
▁negro	-11.4263
▁reserve	-11.4263
▁spenser	-11.4263
▁tulip	-11.4263
▁adorable	-11.4263
▁baggage	-11.4263
▁bootstrap	-11.4263
▁essence	-11.4263
▁nelec	-11.4263
▁oblige	-11.4263
▁parrot	-11.4263
▁phillip	-11.4263
▁semmi	-11.4263
▁termination	-11.4263
▁vicious	-11.4263
▁bronco	-11.4263
▁chastity	-11.4263
▁cherry	-11.4263
▁compelling	-11.4263
▁inventory	-11.4263
▁lalala	-11.4263
▁preferiti	-11.4263
▁savior	-11.4263
▁theater	-11.4263
▁wimp	-11.4263
▁allergies	-11.4263
▁bonnie	-11.4263
▁bronx	-11.4263
▁carriage	-11.4263
▁misschien	-11.4263
▁nominat	-11.4263
▁scraps	-11.4263
▁draft	-11.4263
beloved	-11.4263
▁banish	-11.4263
▁thuis	-11.4263
▁venge	-11.4263
▁beijing	-11.4263
▁kroon	-11.4263
▁martha	-11.4263
▁wheat	-11.4263
▁lundy	-11.4263
▁seventeen	-11.4263
▁applied	-11.4263
▁leash	-11.4263
▁tumor	-11.4263
ographic	-11.4263
▁bulgari	-11.4263
▁gulf	-11.4263
▁insert	-11.4263
▁maggot	-11.4263
▁propriet	-11.4263
▁woude	-11.4263
▁vicky	-11.4263
▁guidelines	-11.4263
▁steak	-11.4263
▁whew	-11.4263
▁trilling	-11.4263
▁tanya	-11.4263
▁income	-11.4263
▁kira	-11.4263
▁waist	-11.4263
▁condom	-11.4263
▁scam	-11.4263
▁ufo	-11.4263
▁content	-11.4263
▁promising	-11.4263
▁geleden	-11.4263
▁lease	-11.4263
▁session	-11.4263
▁swat	-11.4263
▁snug	-11.4263
ymph	-11.4263
▁eddie	-11.4263
▁yawn	-11.4263
▁raige	-11.4263
▁oui	-11.4263
▁vermin	-11.4263
▁strive	-11.4263
▁sasha	-11.4263
▁trek	-11.4263
forsake	-11.4263
▁escalat	-11.4263
▁programming	-11.4263
▁reece	-11.4263
▁dvd	-11.4263
▁funnel	-11.4263
▁settlements	-11.4263
▁reproducti	-11.4263
▁weeping	-11.4263
▁alec	-11.4263
▁gesture	-11.4263
▁exgirlfriend	-11.4263
▁replica	-11.4263
▁snot	-11.4263
▁saturn	-11.4263
▁narrow	-11.4263
▁outbreak	-11.4263
▁cathy	-11.4263
▁clap	-11.4263
▁decay	-11.4263
elvet	-11.4263
▁invad	-11.4263
▁eastern	-11.4263
metric	-11.4263
▁decoy	-11.4263
▁interference	-11.4263
▁slick	-11.4263
▁alternat	-11.4263
▁gibbons	-11.4263
▁titanium	-11.4263
▁prosper	-11.4263
▁educate	-11.4264
▁lvan	-11.4264
nix	-11.4264
berries	-11.4264
▁tripod	-11.4264
▁biologist	-11.4264
▁egyptian	-11.4264
▁commandeer	-11.4264
▁kwam	-11.4264
▁tray	-11.4264
▁whwhat	-11.4264
fraction	-11.4264
▁tinker	-11.4264
proxim	-11.4264
▁pantry	-11.4264
▁nancy	-11.4264
▁bunker	-11.4264
▁romanoff	-11.4264
▁manuel	-11.4264
▁kidnapper	-11.4264
▁occurred	-11.4264
▁altitude	-11.4265
▁lethal	-11.4265
▁dramatic	-11.4265
▁esme	-11.4265
▁jelly	-11.4265
▁theft	-11.4265
▁expectations	-11.4265
▁dodgson	-11.4265
▁asian	-11.4265
▁phd	-11.4265
▁marvelous	-11.4265
▁defile	-11.4265
▁stitch	-11.4265
▁conscious	-11.4265
▁energies	-11.4265
▁hathaway	-11.4265
▁shipping	-11.4266
▁trophy	-11.4266
▁zaak	-11.4266
▁tuition	-11.4266
▁ceo	-11.4266
▁titania	-11.4266
▁antique	-11.4266
▁prada	-11.4266
▁scandalous	-11.4266
▁geneva	-11.4266
▁denser	-11.4266
▁axe	-11.4266
▁gorman	-11.4266
▁booze	-11.4266
▁panhead	-11.4266
▁avenge	-11.4266
▁alternative	-11.4266
▁patsy	-11.4267
scious	-11.4267
▁irish	-11.4267
▁jewish	-11.4268
▁offline	-11.4268
▁rational	-11.4268
▁hiya	-11.4268
▁bailey	-11.4269
▁merci	-11.4269
muffin	-11.4269
▁glue	-11.4269
▁sancti	-11.4269
▁flick	-11.4269
▁sector	-11.4269
▁mainland	-11.4269
▁rattle	-11.4269
▁riley	-11.427
▁ouch	-11.427
▁slapped	-11.427
northwest	-11.4272
▁slack	-11.4272
▁tinder	-11.4272
▁bidet	-11.4272
▁peak	-11.4272
▁ruling	-11.4272
▁pike	-11.4273
inlaw	-11.4274
ereen	-11.4274
fusion	-11.4274
▁wade	-11.4276
strial	-11.4277
▁hanse	-11.4278
niner	-11.4278
▁soap	-11.4278
▁sober	-11.4281
▁hisse	-11.4282
stabiliz	-11.4283
▁fame	-11.4284
▁loft	-11.4284
▁dominat	-11.4289
▁preci	-11.4293
rdes	-11.4297
▁detonat	-11.4302
half	-11.4314
▁apri	-11.4318
▁chuck	-11.4325
▁jingl	-11.4329
▁entit	-11.4335
leheart	-11.4336
ummer	-11.4337
oblast	-11.4367
range	-11.4405
told	-11.443
iberia	-11.444
▁grind	-11.4491
▁organize	-11.4535
▁notifi	-11.4548
mcc	-11.456
▁contend	-11.4614
▁indicat	-11.4641
▁quake	-11.4671
aaah	-11.4776
urban	-11.4851
managing	-11.486
knit	-11.49
▁settl	-11.4945
borg	-11.4973
graph	-11.5028
ucat	-11.506
fianc	-11.5173
wyn	-11.5277
▁elvis	-11.528
ference	-11.5344
count	-11.5457
shire	-11.5461
whipped	-11.5511
▁wrappe	-11.5602
▁modif	-11.5608
▁improve	-11.5912
good	-11.594
omsti	-11.6036
worms	-11.6052
uden	-11.6098
sustainable	-11.6151
▁prohibit	-11.6179
chester	-11.6293
▁cough	-11.6354
lasses	-11.6435
▁cycl	-11.6575
▁shrin	-11.6648
▁multipl	-11.6684
▁clack	-11.6689
▁hawk	-11.669
▁squawk	-11.669
▁clatter	-11.6691
▁dismiss	-11.6701
▁surround	-11.6702
trained	-11.6719
▁critic	-11.6722
nuts	-11.6723
turn	-11.6724
break	-11.6726
prince	-11.6727
complete	-11.6727
floor	-11.6727
model	-11.6727
first	-11.6727
thinking	-11.6728
party	-11.6728
child	-11.6728
cold	-11.6732
▁numb	-11.6733
▁craz	-11.6737
▁africa	-11.6738
▁froze	-11.6738
▁heave	-11.6739
atomic	-11.6742
employment	-11.6745
▁intent	-11.6747
▁posit	-11.6753
▁givin	-11.6755
▁movin	-11.6755
▁lovin	-11.6755
measur	-11.6756
ternal	-11.6757
▁radiat	-11.6758
▁energ	-11.6758
▁analys	-11.6759
▁align	-11.6759
▁marvel	-11.676
▁accur	-11.676
▁liqu	-11.676
zonder	-11.6761
▁sculpt	-11.6761
▁scholar	-11.6762
▁converg	-11.6762
▁barbershop	-11.6763
▁aggravat	-11.6763
▁obsessive	-11.6763
▁persuasi	-11.6763
▁refresh	-11.6763
▁theatre	-11.6763
▁verrassing	-11.6763
acquainted	-11.6763
ezvous	-11.6763
franchise	-11.6763
saturationcrisis	-11.6763
▁accompany	-11.6763
▁aircraft	-11.6763
▁alejandro	-11.6763
▁allegiance	-11.6763
▁allergy	-11.6763
▁ambition	-11.6763
▁anesthetic	-11.6763
▁anomalies	-11.6763
▁anomaly	-11.6763
▁anxiety	-11.6763
▁apologise	-11.6763
▁apologizing	-11.6763
▁aqua	-11.6763
▁aringarosa	-11.6763
▁association	-11.6763
▁astronaut	-11.6763
▁begrijp	-11.6763
▁bennett	-11.6763
▁berklee	-11.6763
▁blijven	-11.6763
▁bridetobe	-11.6763
▁bruiloft	-11.6763
▁budapest	-11.6763
▁burroughs	-11.6763
▁cafeteria	-11.6763
▁calculated	-11.6763
▁cambridge	-11.6763
▁camouflage	-11.6763
▁caribbean	-11.6763
▁casablanca	-11.6763
▁challenging	-11.6763
▁chipmunks	-11.6763
▁chortling	-11.6763
▁cinnamon	-11.6763
▁circuit	-11.6763
▁circum	-11.6763
▁clarissa	-11.6763
▁consumption	-11.6763
▁convincing	-11.6763
▁corridor	-11.6763
▁crawfish	-11.6763
▁crumple	-11.6763
▁cultural	-11.6763
▁declaration	-11.6763
▁delegate	-11.6763
▁democrat	-11.6763
▁dertig	-11.6763
▁deshawn	-11.6763
▁detroit	-11.6763
▁devastate	-11.6763
▁dictate	-11.6763
▁discharge	-11.6763
▁disobedien	-11.6763
▁donald	-11.6763
▁dondervogel	-11.6763
▁doppler	-11.6763
▁dreadful	-11.6763
▁eliminate	-11.6763
▁emptiness	-11.6763
▁espresso	-11.6763
▁exodus	-11.6763
▁ezekiel	-11.6763
▁faggot	-11.6763
▁february	-11.6763
▁feminine	-11.6763
▁fingernails	-11.6763
▁fingertip	-11.6763
▁flavaflav	-11.6763
▁flemming	-11.6763
▁forensic	-11.6763
▁freckles	-11.6763
▁frostwolf	-11.6763
▁fundamental	-11.6763
▁gadget	-11.6763
▁gambling	-11.6763
▁gattaca	-11.6763
▁gehoord	-11.6763
▁genuine	-11.6763
▁georgia	-11.6763
▁gezicht	-11.6763
▁gezien	-11.6763
▁gorilla	-11.6763
▁gridlock	-11.6763
▁grushkov	-11.6763
▁guidance	-11.6763
▁hancock	-11.6763
▁happier	-11.6763
▁hendrix	-11.6763
▁housekeeping	-11.6763
▁humiliation	-11.6763
▁hypothetical	-11.6763
▁ignorant	-11.6763
▁injustice	-11.6763
▁insanity	-11.6763
▁inspiring	-11.6763
▁instructed	-11.6763
▁intellect	-11.6763
▁intersection	-11.6763
▁iphitos	-11.6763
▁ironbark	-11.6763
▁jeremy	-11.6763
▁juggling	-11.6763
▁kalashov	-11.6763
▁kaufman	-11.6763
▁kensington	-11.6763
▁lassiter	-11.6763
▁loneliness	-11.6763
▁manifest	-11.6763
▁mischief	-11.6763
▁mislead	-11.6763
▁moneypenny	-11.6763
▁moriarty	-11.6763
▁obituary	-11.6763
▁obstacle	-11.6763
▁offspring	-11.6763
▁oklahoma	-11.6763
▁oldfashioned	-11.6763
▁olympi	-11.6763
▁opportunities	-11.6763
▁ordinance	-11.6763
▁orleans	-11.6763
▁pancakes	-11.6763
▁parachute	-11.6763
▁pasquale	-11.6763
▁patterson	-11.6763
▁perspective	-11.6763
▁pezzulo	-11.6763
▁philadelphia	-11.6763
▁prague	-11.6763
▁primitive	-11.6763
▁profound	-11.6763
▁proposition	-11.6763
▁puppysnap	-11.6763
▁qualities	-11.6763
▁reconsider	-11.6763
▁rehearsing	-11.6763
▁retarded	-11.6763
▁reuben	-11.6763
▁rivington	-11.6763
▁rogue	-11.6763
▁roosevelt	-11.6763
▁rosario	-11.6763
▁saintsulpice	-11.6763
▁sassmouthing	-11.6763
▁savrille	-11.6763
▁schumann	-11.6763
▁scissors	-11.6763
▁scoffing	-11.6763
▁serpent	-11.6763
▁shakespeare	-11.6763
▁shaneequa	-11.6763
▁shepherd	-11.6763
▁snuck	-11.6763
▁sonofabitch	-11.6763
▁sought	-11.6763
▁splendid	-11.6763
▁sponsor	-11.6763
▁straining	-11.6763
▁strumming	-11.6763
▁suicidal	-11.6763
▁supreme	-11.6763
▁suspicion	-11.6763
▁terrifying	-11.6763
▁thatthat	-11.6763
▁theoretically	-11.6763
▁tiptoeing	-11.6763
▁trajector	-11.6763
▁transducing	-11.6763
▁trevor	-11.6763
▁ubilla	-11.6763
▁ungrateful	-11.6763
▁unmistakable	-11.6763
▁unorthodox	-11.6763
▁unworthy	-11.6763
▁vertrekt	-11.6763
▁vildan	-11.6763
▁villalobos	-11.6763
▁waldorf	-11.6763
▁werewolves	-11.6763
▁wilkensen	-11.6763
▁yuck	-11.6763
▁yummy	-11.6763
▁zurich	-11.6763
splatter	-11.6763
▁alaska	-11.6763
▁apprehend	-11.6763
▁astound	-11.6763
▁azog	-11.6763
▁barricad	-11.6763
▁bathtub	-11.6763
▁brazil	-11.6763
▁brochure	-11.6763
▁camilla	-11.6763
▁cashmere	-11.6763
▁casino	-11.6763
▁cologne	-11.6763
▁compound	-11.6763
▁cunning	-11.6763
▁despise	-11.6763
▁disagree	-11.6763
▁distinguish	-11.6763
▁download	-11.6763
▁infestation	-11.6763
▁infinities	-11.6763
▁interject	-11.6763
▁jewellery	-11.6763
▁knitting	-11.6763
▁malibu	-11.6763
▁mcqueen	-11.6763
▁nexdoria	-11.6763
▁policies	-11.6763
▁population	-11.6763
▁provoke	-11.6763
▁qualify	-11.6763
▁recalibrat	-11.6763
▁retreat	-11.6763
▁smuggl	-11.6763
▁sympathi	-11.6763
▁unpainted	-11.6763
▁verkoop	-11.6763
▁vriend	-11.6763
▁withhold	-11.6763
▁wrestling	-11.6763
▁allemaal	-11.6763
▁apparel	-11.6763
▁brigade	-11.6763
▁crossbow	-11.6763
▁doilies	-11.6763
▁econom	-11.6763
▁enslave	-11.6763
▁gamble	-11.6763
▁gloria	-11.6763
▁heilig	-11.6763
▁hyperventilat	-11.6763
▁interrogat	-11.6763
▁jefferson	-11.6763
▁laptop	-11.6763
▁laxative	-11.6763
▁marilyn	-11.6763
▁mcgivern	-11.6763
▁modification	-11.6763
▁niks	-11.6763
▁payload	-11.6763
▁rebellion	-11.6763
▁regulate	-11.6763
▁saturation	-11.6763
▁scrub	-11.6763
▁snoop	-11.6763
▁sulph	-11.6763
▁summit	-11.6763
▁utility	-11.6763
▁valerious	-11.6763
▁gebeur	-11.6763
▁hysterical	-11.6763
▁invoke	-11.6763
▁perceive	-11.6763
▁swept	-11.6763
▁cuddle	-11.6763
▁expelled	-11.6763
▁gallery	-11.6763
▁granny	-11.6763
▁mcgoo	-11.6763
▁multi	-11.6763
▁niko	-11.6763
▁paralyze	-11.6763
▁purchase	-11.6763
▁racist	-11.6763
▁ralph	-11.6763
▁rupert	-11.6763
▁snoke	-11.6763
▁spectro	-11.6763
▁spooky	-11.6763
▁stadium	-11.6763
▁supertrain	-11.6763
▁abode	-11.6763
▁alumnae	-11.6763
▁baggia	-11.6763
▁brothel	-11.6763
▁doomsday	-11.6763
▁egeus	-11.6763
▁fiction	-11.6763
▁glitch	-11.6763
▁lydie	-11.6763
▁pencil	-11.6763
▁simeon	-11.6763
▁skimm	-11.6763
▁vacant	-11.6763
▁variety	-11.6763
▁burial	-11.6763
▁fiesta	-11.6763
▁insured	-11.6763
▁mccoy	-11.6763
▁solemn	-11.6763
▁acute	-11.6763
▁bidara	-11.6763
▁disdain	-11.6763
▁donating	-11.6763
▁grotesque	-11.6763
▁interpol	-11.6763
▁isabel	-11.6763
▁milano	-11.6763
▁beltzer	-11.6763
▁caddy	-11.6763
▁comfy	-11.6763
▁elaine	-11.6763
▁neural	-11.6763
▁spanky	-11.6763
▁unpack	-11.6763
▁alumn	-11.6763
▁bleak	-11.6763
▁hudson	-11.6763
▁overcome	-11.6763
▁praat	-11.6763
▁warlock	-11.6763
▁zorgen	-11.6763
▁blouse	-11.6763
▁dispute	-11.6763
▁morgan	-11.6763
▁oyster	-11.6763
▁reenact	-11.6763
▁slurp	-11.6763
▁fenway	-11.6763
▁laddie	-11.6763
▁muller	-11.6763
▁pryde	-11.6763
▁sierra	-11.6763
▁threepio	-11.6763
▁warehouse	-11.6763
▁hydro	-11.6763
▁patron	-11.6763
▁edison	-11.6763
▁facial	-11.6763
▁crashlanded	-11.6763
▁refugee	-11.6763
prehensi	-11.6763
▁leuk	-11.6763
▁nfl	-11.6763
▁arteries	-11.6763
▁keller	-11.6763
▁permit	-11.6763
▁plateau	-11.6763
▁noisy	-11.6763
▁wepa	-11.6763
adequate	-11.6763
▁gezin	-11.6763
▁swap	-11.6763
▁stabbed	-11.6763
▁whatsoever	-11.6763
▁oldtimer	-11.6763
▁seduce	-11.6763
▁skate	-11.6763
▁juicy	-11.6763
▁neighbourhood	-11.6763
▁salary	-11.6763
▁huddl	-11.6763
▁ponies	-11.6763
▁repuls	-11.6763
▁confine	-11.6763
calculation	-11.6763
▁aerosmith	-11.6763
▁llane	-11.6763
▁automobile	-11.6763
▁checkmate	-11.6763
▁smear	-11.6763
▁cavern	-11.6763
▁concre	-11.6763
▁barracks	-11.6763
▁duct	-11.6763
▁estimate	-11.6763
▁rodeo	-11.6763
▁exceed	-11.6763
▁francesca	-11.6763
▁axis	-11.6763
▁crater	-11.6763
▁urine	-11.6763
▁luncheon	-11.6763
▁pennyways	-11.6763
▁savannah	-11.6763
▁reign	-11.6763
▁ahmm	-11.6763
▁amusing	-11.6763
▁cramps	-11.6763
▁emerson	-11.6763
▁backpack	-11.6763
▁saddle	-11.6763
helm	-11.6763
▁belied	-11.6763
▁gascon	-11.6763
▁columb	-11.6763
▁isob	-11.6763
▁kelt	-11.6763
▁vocal	-11.6763
▁haole	-11.6763
▁harmoniz	-11.6763
▁signori	-11.6763
▁visible	-11.6763
compatible	-11.6763
▁mingle	-11.6763
▁alek	-11.6763
▁swimmer	-11.6763
▁handicap	-11.6763
▁kansas	-11.6763
▁bundle	-11.6763
▁items	-11.6763
▁funki	-11.6764
▁snag	-11.6764
appointed	-11.6764
▁teabing	-11.6764
▁precede	-11.6764
▁cpr	-11.6764
▁santos	-11.6764
▁retina	-11.6764
▁veil	-11.6764
▁whirl	-11.6764
▁intuiti	-11.6764
▁sheer	-11.6764
▁tinkl	-11.6764
▁mineral	-11.6764
▁oppose	-11.6764
▁implie	-11.6765
length	-11.6765
▁sterk	-11.6765
▁silas	-11.6765
magine	-11.6765
▁greet	-11.6765
▁icu	-11.6766
▁cucko	-11.6767
▁depose	-11.6767
ddler	-11.6767
venue	-11.6767
▁annual	-11.6768
ntangle	-11.6768
▁brul	-11.6769
▁phar	-11.677
▁google	-11.6771
▁culp	-11.6772
▁rump	-11.6773
inclined	-11.6776
shrew	-11.6776
ucina	-11.6778
tilton	-11.6782
nquish	-11.6784
▁lauren	-11.6784
▁felici	-11.6785
▁humbl	-11.6789
aagt	-11.6792
▁mannelijk	-11.6804
high	-11.6875
▁licenc	-11.6904
ennis	-11.6914
pressuriz	-11.7053
▁authoriz	-11.7062
▁prosecut	-11.7079
▁rho	-11.7231
▁redeem	-11.7312
ndell	-11.7343
▁ramb	-11.7417
▁magnif	-11.7641
▁vond	-11.7893
eductive	-11.8133
▁communicat	-11.8688
▁intimat	-11.8823
elective	-11.9114
▁evolution	-11.9338
ukki	-11.9628
circled	-11.9653
▁resource	-11.9754
spies	-11.9796
traumati	-11.9866
fitted	-11.9895
▁involv	-11.9903
▁featur	-11.9916
close	-11.9984
spasm	-12.0012
▁murmur	-12.0024
▁disappoint	-12.0031
aaaa	-12.0047
▁locate	-12.005
natural	-12.0054
frost	-12.0059
stroke	-12.0059
qualified	-12.0059
mobile	-12.0059
brush	-12.0059
rumbling	-12.006
rescue	-12.006
yearold	-12.006
written	-12.006
purpose	-12.006
secure	-12.006
security	-12.0061
teacher	-12.0061
believe	-12.0061
chuckles	-12.0061
people	-12.0061
famous	-12.0068
▁nigh	-12.0069
▁presiden	-12.007
▁apparent	-12.0074
scribe	-12.0087
▁destructi	-12.0088
▁navigat	-12.0091
plications	-12.0091
▁fortuna	-12.0092
▁differ	-12.0093
▁simulat	-12.0093
▁egypt	-12.0094
▁congratulat	-12.0095
ointment	-12.0095
▁refra	-12.0095
▁neighbour	-12.0096
ulgar	-12.0096
▁potassium	-12.0096
woweewowee	-12.0096
▁equator	-12.0096
▁occupation	-12.0096
▁scribbl	-12.0096
conceivabl	-12.0096
okaya	-12.0096
snorharen	-12.0096
suppress	-12.0096
trustworthy	-12.0096
▁abbott	-12.0096
▁abronath	-12.0096
▁abrupt	-12.0096
▁acknowledg	-12.0096
▁activities	-12.0096
▁admiration	-12.0096
▁admission	-12.0096
▁advertise	-12.0096
▁afghanistan	-12.0096
▁afterlife	-12.0096
▁alsjeblieft	-12.0096
▁antibiotic	-12.0096
▁appartment	-12.0096
▁aristocrat	-12.0096
▁arzamas	-12.0096
▁ashore	-12.0096
▁aspect	-12.0096
▁athletic	-12.0096
▁atrocities	-12.0096
▁backbuilding	-12.0096
▁bacteria	-12.0096
▁baghdad	-12.0096
▁bagpipes	-12.0096
▁balcony	-12.0096
▁banquet	-12.0096
▁beechwood	-12.0096
▁beloof	-12.0096
▁betekent	-12.0096
▁bezoek	-12.0096
▁boulevard	-12.0096
▁bpositive	-12.0096
▁breastfeed	-12.0096
▁bruises	-12.0096
▁buzzkill	-12.0096
▁cappuccino	-12.0096
▁casket	-12.0096
▁caspian	-12.0096
▁catatonic	-12.0096
▁category	-12.0096
▁celebrit	-12.0096
▁chauffeur	-12.0096
▁chellini	-12.0096
▁chelsea	-12.0096
▁cherpitski	-12.0096
▁chunky	-12.0096
▁cleveland	-12.0096
▁collision	-12.0096
▁comprehend	-12.0096
▁confiscated	-12.0096
▁consolidat	-12.0096
▁conspicuous	-12.0096
▁conspiring	-12.0096
▁constituen	-12.0096
▁consummat	-12.0096
▁contemplat	-12.0096
▁contempt	-12.0096
▁corvette	-12.0096
▁cosmonaut	-12.0096
▁crawdad	-12.0096
▁credential	-12.0096
▁cynicism	-12.0096
▁dandruff	-12.0096
▁decorator	-12.0096
▁defcon	-12.0096
▁defibrillator	-12.0096
▁delacorte	-12.0096
▁demeanor	-12.0096
▁desperation	-12.0096
▁despicable	-12.0096
▁diagnosed	-12.0096
▁diarrhoea	-12.0096
▁dimension	-12.0096
▁diminish	-12.0096
▁diptet	-12.0096
▁discontinue	-12.0096
▁discriminat	-12.0096
▁distinct	-12.0096
▁distorting	-12.0096
▁dolphins	-12.0096
▁dongdongdong	-12.0096
▁dwergi	-12.0096
▁dylan	-12.0096
▁editorhiroshi	-12.0096
▁empathy	-12.0096
▁enchanting	-12.0096
▁enteprise	-12.0096
▁enthusiasm	-12.0096
▁enthusiastic	-12.0096
▁euphegenia	-12.0096
▁evaluation	-12.0096
▁excellenc	-12.0096
▁exponentially	-12.0096
▁extinguish	-12.0096
▁extremis	-12.0096
▁facilities	-12.0096
▁fascinated	-12.0096
▁ferrari	-12.0096
▁figurine	-12.0096
▁firecracker	-12.0096
▁forgave	-12.0096
▁fountain	-12.0096
▁gedroomd	-12.0096
▁geweldig	-12.0096
▁glimlach	-12.0096
▁graffiti	-12.0096
▁grocery	-12.0096
▁gullible	-12.0096
▁gypsy	-12.0096
▁hashanah	-12.0096
▁heimdall	-12.0096
▁hemorrhag	-12.0096
▁henceforth	-12.0096
▁hernandez	-12.0096
▁hightower	-12.0096
▁histories	-12.0096
▁hitchhik	-12.0096
▁horrifyin	-12.0096
▁hybrid	-12.0096
▁hygiene	-12.0096
▁hypnotize	-12.0096
