<unk>	0
<s>	0
</s>	0
s	-3.0222
t	-4.1287
e	-4.15553
ing	-4.21861
d	-4.31576
y	-4.3507
n	-4.38844
ed	-4.54121
▁	-4.61688
a	-4.66069
i	-4.74172
er	-4.78501
r	-4.81249
o	-4.85734
g	-4.8917
p	-4.91657
u	-4.92815
▁im	-4.96172
m	-5.02162
c	-5.04071
▁dont	-5.06294
in	-5.06646
b	-5.08007
▁go	-5.1312
le	-5.13764
▁know	-5.14336
▁s	-5.15179
l	-5.19056
▁get	-5.24791
or	-5.28753
▁oh	-5.31522
v	-5.37806
al	-5.38623
▁right	-5.39693
▁come	-5.40556
▁like	-5.43928
▁b	-5.44753
f	-5.45272
w	-5.46986
k	-5.49074
▁well	-5.50855
▁got	-5.50999
ly	-5.52493
▁youre	-5.55222
h	-5.56718
▁na	-5.59743
▁re	-5.60475
ar	-5.62196
▁yeah	-5.65548
▁one	-5.65813
re	-5.66937
▁thats	-5.68137
ll	-5.69833
it	-5.70056
▁see	-5.71143
▁l	-5.71541
▁look	-5.73535
en	-5.74612
▁good	-5.76684
ck	-5.76915
▁think	-5.78907
▁de	-5.83039
▁want	-5.85321
st	-5.85865
ri	-5.89028
▁us	-5.95597
ter	-5.95624
th	-5.96421
▁okay	-5.97725
ch	-5.97996
▁gon	-5.98641
es	-5.98944
▁yes	-5.99841
on	-5.99969
▁c	-6.01815
▁hey	-6.02858
▁back	-6.03309
ra	-6.03937
▁pa	-6.04595
▁time	-6.04997
il	-6.06114
▁in	-6.0699
at	-6.07496
an	-6.08032
▁w	-6.08347
ve	-6.08451
▁ill	-6.08586
ce	-6.09304
▁say	-6.09367
▁a	-6.09452
ur	-6.09482
▁man	-6.09785
▁bo	-6.11452
▁take	-6.11792
▁co	-6.12012
ke	-6.14887
li	-6.15756
▁st	-6.16022
▁ma	-6.16527
▁o	-6.16704
▁be	-6.17477
ie	-6.1861
el	-6.18817
ent	-6.19722
▁going	-6.2009
▁cant	-6.22119
▁p	-6.22683
▁hes	-6.22759
te	-6.25063
ne	-6.25902
▁k	-6.29631
ic	-6.30713
▁e	-6.31257
▁love	-6.33788
sh	-6.34786
▁tell	-6.34933
▁g	-6.35551
▁ta	-6.35869
▁make	-6.36523
▁would	-6.3824
ro	-6.38383
▁ro	-6.38474
▁need	-6.38636
se	-6.38767
▁way	-6.39506
▁tr	-6.39529
▁mean	-6.40356
▁could	-6.40907
▁little	-6.41548
ver	-6.41634
▁mr	-6.41982
▁to	-6.42476
▁ca	-6.42969
x	-6.43424
▁ho	-6.4477
▁really	-6.45098
▁let	-6.45103
▁never	-6.46729
▁lets	-6.48012
▁th	-6.4873
oo	-6.48841
▁thank	-6.49327
▁me	-6.49724
ion	-6.50156
▁po	-6.51337
▁something	-6.53261
▁ra	-6.53548
et	-6.55338
▁ha	-6.55817
ard	-6.56114
▁sp	-6.56256
lo	-6.56432
la	-6.56564
z	-6.56624
▁wait	-6.56629
▁whats	-6.56964
▁he	-6.5702
ow	-6.57836
de	-6.58667
▁ba	-6.58922
▁give	-6.59081
▁work	-6.59651
▁hi	-6.60621
▁didnt	-6.60935
▁please	-6.61022
▁f	-6.61134
ation	-6.61151
mp	-6.6144
▁ive	-6.61895
▁fa	-6.62636
▁day	-6.62679
▁wh	-6.63799
is	-6.64042
▁sorry	-6.64137
un	-6.64968
▁la	-6.65261
▁su	-6.65276
us	-6.65276
▁un	-6.67642
▁call	-6.68421
▁con	-6.68731
▁theres	-6.68801
ge	-6.69089
ell	-6.69496
▁da	-6.6973
▁mi	-6.6975
▁help	-6.70083
ate	-6.70464
▁te	-6.71776
ir	-6.72312
▁lo	-6.73249
tion	-6.73816
▁fl	-6.73986
est	-6.7418
am	-6.74243
ry	-6.74562
▁car	-6.74642
▁sir	-6.74884
age	-6.75096
▁two	-6.75754
▁di	-6.76731
ma	-6.77487
ff	-6.78208
▁fi	-6.78254
nt	-6.78273
ul	-6.7865
ol	-6.79156
▁sh	-6.80273
▁boy	-6.8056
▁stop	-6.81353
▁no	-6.819
me	-6.82077
▁sure	-6.82732
ad	-6.83329
▁even	-6.83644
▁ri	-6.84066
▁mar	-6.84686
▁great	-6.84767
▁said	-6.85039
ant	-6.85322
end	-6.85403
▁uh	-6.86296
▁people	-6.8655
as	-6.87047
ive	-6.87324
▁fe	-6.87564
▁thing	-6.87637
and	-6.88251
▁mo	-6.89044
ty	-6.89622
▁new	-6.8992
id	-6.90565
▁m	-6.91118
▁jo	-6.91337
▁theyre	-6.91338
▁much	-6.9179
▁dr	-6.91904
▁al	-6.92318
▁night	-6.92755
▁sa	-6.93375
▁so	-6.93759
om	-6.93979
▁cr	-6.93986
per	-6.94284
▁ti	-6.94615
ers	-6.94845
ight	-6.95506
▁home	-6.9589
▁do	-6.96844
▁feel	-6.97519
ot	-6.97521
ick	-6.97695
co	-6.97877
▁find	-6.97965
▁miss	-6.98005
mb	-6.98214
ment	-6.98633
▁pe	-6.99094
▁keep	-6.99391
▁must	-6.99901
▁wa	-7.00297
▁du	-7.00507
ies	-7.00824
▁put	-7.01101
ut	-7.01659
▁sc	-7.02113
▁first	-7.02156
▁life	-7.02253
j	-7.03492
▁big	-7.03648
▁ex	-7.04146
▁ch	-7.0445
na	-7.04596
▁guys	-7.04707
▁away	-7.06443
▁id	-7.06771
▁talk	-7.07428
▁name	-7.07728
▁god	-7.07753
▁le	-7.07755
▁ar	-7.07769
▁je	-7.0778
▁maybe	-7.08345
▁ever	-7.0874
▁pi	-7.08926
ting	-7.09108
▁long	-7.09189
▁anything	-7.09335
▁nothing	-7.09341
▁pro	-7.0951
▁friend	-7.09815
▁play	-7.10032
▁shes	-7.10145
▁girl	-7.10395
im	-7.11053
▁vi	-7.11335
▁li	-7.11338
pe	-7.11543
▁old	-7.11729
▁better	-7.11863
▁ju	-7.11883
▁ru	-7.12269
up	-7.12321
ta	-7.12331
ist	-7.13323
▁cl	-7.13462
ugh	-7.13732
▁ja	-7.13933
▁i	-7.14314
▁thought	-7.14661
▁hand	-7.14665
▁fr	-7.15544
um	-7.15762
nk	-7.16383
▁still	-7.17501
▁kill	-7.18283
man	-7.18837
▁cha	-7.18946
▁se	-7.19031
▁around	-7.19403
▁ne	-7.20026
▁stay	-7.20339
▁nice	-7.2049
▁everything	-7.20917
▁place	-7.21077
mo	-7.21111
▁always	-7.21238
ho	-7.2173
ci	-7.22756
▁ask	-7.22782
▁dad	-7.2363
▁for	-7.24138
ip	-7.24299
▁show	-7.24499
dy	-7.25311
▁wont	-7.25762
▁sho	-7.25895
▁start	-7.27605
able	-7.27648
▁listen	-7.28083
▁youll	-7.286
ph	-7.29007
▁son	-7.29188
da	-7.29209
▁dis	-7.29288
▁youve	-7.29414
▁hu	-7.29861
▁kind	-7.30092
▁pu	-7.30394
▁move	-7.30498
▁an	-7.30613
▁hear	-7.30955
der	-7.30977
▁house	-7.31249
▁last	-7.3126
▁things	-7.31262
▁lot	-7.31392
▁believe	-7.32676
▁live	-7.33084
▁leave	-7.3377
▁hello	-7.34027
▁mon	-7.34051
▁hold	-7.34277
▁real	-7.34364
▁mom	-7.3473
▁world	-7.3487
if	-7.34999
to	-7.35063
▁gra	-7.35074
▁told	-7.35145
▁minute	-7.35488
▁fine	-7.36171
▁em	-7.36185
▁made	-7.3628
ure	-7.36488
▁mother	-7.36804
▁bad	-7.36904
ia	-7.37104
▁father	-7.37246
▁ad	-7.37437
ling	-7.37471
ance	-7.37558
▁coming	-7.37726
ca	-7.38462
▁sha	-7.38677
▁va	-7.39201
▁turn	-7.39482
▁hell	-7.39583
ted	-7.39716
▁every	-7.39813
ine	-7.40047
▁three	-7.40854
ian	-7.41089
▁run	-7.41107
▁isnt	-7.41178
▁may	-7.41362
ity	-7.41687
mi	-7.42414
ru	-7.42638
▁doesnt	-7.42821
ence	-7.43373
▁sw	-7.43593
▁z	-7.4393
▁head	-7.44318
▁ah	-7.44714
▁huh	-7.45017
op	-7.45122
tch	-7.4524
▁wan	-7.45249
▁win	-7.45539
▁en	-7.45571
tic	-7.45596
ny	-7.46952
▁fo	-7.47129
▁course	-7.47607
▁plan	-7.49222
▁gu	-7.49246
▁remember	-7.49513
▁ga	-7.50327
ach	-7.51152
▁qu	-7.51237
▁might	-7.51285
▁money	-7.51706
▁years	-7.51713
▁guy	-7.51795
▁baby	-7.51843
less	-7.52159
▁done	-7.52219
▁watch	-7.52814
▁bit	-7.54137
▁ready	-7.54359
▁understand	-7.55088
▁thanks	-7.55111
▁left	-7.55481
ha	-7.55903
ger	-7.56007
▁enough	-7.56074
▁try	-7.56133
▁bra	-7.56255
▁care	-7.56321
▁pre	-7.56729
▁we	-7.56872
▁came	-7.57038
▁bar	-7.57065
▁war	-7.57722
ig	-7.57926
▁mu	-7.57936
▁wrong	-7.58933
ish	-7.59248
▁happen	-7.59661
▁mind	-7.5978
son	-7.60008
▁meet	-7.60065
▁che	-7.60093
▁best	-7.6044
ous	-7.61258
▁whoa	-7.61416
▁morning	-7.61958
▁next	-7.62366
▁ni	-7.63392
▁today	-7.63508
▁men	-7.63948
▁talking	-7.63953
▁weve	-7.64191
ful	-7.64388
bo	-7.64865
▁comm	-7.65017
▁app	-7.65721
▁sit	-7.66493
▁open	-7.66609
▁ya	-7.66932
ize	-7.67029
▁ass	-7.67055
▁door	-7.67365
▁par	-7.67703
▁another	-7.67866
▁chi	-7.67973
▁tu	-7.68729
ak	-7.68971
▁dead	-7.7021
▁ac	-7.70479
▁fuck	-7.7068
▁aint	-7.7097
▁room	-7.71018
▁eat	-7.71101
▁use	-7.71706
▁guess	-7.72179
ton	-7.72224
pa	-7.72567
▁eye	-7.72814
▁hard	-7.72896
▁happened	-7.72943
▁au	-7.73232
▁idea	-7.73525
ness	-7.73554
▁kid	-7.74267
▁part	-7.74331
he	-7.74789
▁gi	-7.74866
▁wanted	-7.74875
▁getting	-7.75407
▁close	-7.75557
▁else	-7.76379
▁ok	-7.76472
▁bring	-7.76673
▁com	-7.76869
▁hope	-7.76984
▁second	-7.77299
mon	-7.77299
ious	-7.78672
▁high	-7.78928
▁end	-7.79249
▁wouldnt	-7.79466
▁excuse	-7.79586
▁shit	-7.79611
▁together	-7.79682
▁job	-7.79722
port	-7.80496
▁word	-7.80593
▁har	-7.80774
▁whos	-7.80845
▁matter	-7.80871
▁everybody	-7.81434
▁pretty	-7.81535
▁kids	-7.81798
ide	-7.81951
▁wil	-7.81957
ise	-7.82207
▁someone	-7.82223
▁school	-7.8252
▁stand	-7.82611
▁far	-7.8306
▁tonight	-7.83123
ang	-7.84017
▁found	-7.84118
▁set	-7.84397
▁family	-7.84932
▁dog	-7.8494
▁game	-7.84942
▁fire	-7.85094
▁sea	-7.85108
▁without	-7.8544
▁walk	-7.85664
▁woman	-7.86473
▁fight	-7.86819
▁cre	-7.86943
▁music	-7.87022
▁week	-7.87202
▁gre	-7.87211
▁trying	-7.87529
▁cut	-7.87815
▁wasnt	-7.88046
ical	-7.88073
▁luck	-7.88154
▁speak	-7.88242
▁laugh	-7.88305
▁jack	-7.88591
▁whole	-7.8879
▁free	-7.88916
▁change	-7.89115
▁fun	-7.89224
▁john	-7.8952
▁sta	-7.89827
▁heard	-7.90332
ba	-7.9077
▁face	-7.91808
▁vo	-7.91916
one	-7.92427
▁stu	-7.92608
▁tomorrow	-7.92643
ary	-7.92728
que	-7.92928
▁dream	-7.92978
▁honey	-7.93206
▁cause	-7.9346
▁seen	-7.93475
▁four	-7.93791
▁yet	-7.94029
▁chance	-7.94135
▁ab	-7.94142
▁king	-7.94267
▁many	-7.94351
▁water	-7.94507
▁grand	-7.94789
▁die	-7.95516
▁worry	-7.95545
▁saw	-7.9567
▁pick	-7.9618
▁happy	-7.96221
▁late	-7.96229
old	-7.96329
ship	-7.97012
▁knew	-7.97026
▁dan	-7.9721
▁wish	-7.97375
▁air	-7.97539
▁everyone	-7.98372
▁havent	-7.98413
ated	-7.98455
▁brother	-7.99225
▁heart	-7.99229
▁act	-7.99458
▁scream	-7.99461
▁break	-7.99698
▁sound	-8.00078
▁young	-8.00169
▁beautiful	-8.00762
▁light	-8.00777
▁pl	-8.01805
▁per	-8.01841
▁playing	-8.02522
▁hit	-8.03316
▁since	-8.03325
▁dance	-8.03749
▁problem	-8.03785
▁hour	-8.0405
▁dear	-8.04074
▁check	-8.04172
▁ow	-8.04201
▁sleep	-8.04402
▁alone	-8.04544
▁actually	-8.04648
▁easy	-8.0466
▁book	-8.04679
▁hot	-8.04979
▁went	-8.05042
▁youd	-8.05276
▁grow	-8.06034
▁stuff	-8.06537
▁true	-8.06721
▁took	-8.06793
▁read	-8.06796
▁shut	-8.0703
▁bur	-8.07328
▁lost	-8.0742
▁cat	-8.07854
▁fucking	-8.08012
▁five	-8.08164
▁pass	-8.08337
▁hurt	-8.08469
▁town	-8.09107
zz	-8.09269
▁cor	-8.09884
▁save	-8.10886
▁mine	-8.1121
▁nobody	-8.1157
▁person	-8.11782
▁children	-8.11973
▁star	-8.1223
▁aw	-8.12417
▁year	-8.12438
▁laughing	-8.12779
▁shall	-8.12835
▁um	-8.12999
▁somebody	-8.1304
▁soon	-8.13065
▁power	-8.13345
▁question	-8.13446
▁george	-8.14396
▁ball	-8.14673
range	-8.1487
▁arm	-8.15162
▁clear	-8.15253
▁pull	-8.15353
▁already	-8.15356
▁business	-8.15357
▁number	-8.15357
▁afraid	-8.16048
▁gro	-8.1618
app	-8.16243
▁forget	-8.16334
▁office	-8.16466
▁drink	-8.17036
▁bus	-8.17249
▁line	-8.17562
▁bye	-8.17609
▁side	-8.17883
▁fast	-8.18056
▁promise	-8.18582
▁wife	-8.18588
▁chuckles	-8.18863
▁perfect	-8.19149
▁tw	-8.19213
▁couldnt	-8.19236
▁wheres	-8.20026
▁damn	-8.20193
▁squ	-8.20709
▁crazy	-8.20882
▁sweet	-8.21766
▁bla	-8.2177
▁quick	-8.22103
▁wow	-8.22392
▁trouble	-8.22794
ible	-8.22966
▁follow	-8.23241
ator	-8.2336
▁later	-8.2339
▁anyone	-8.23541
ound	-8.23685
▁welcome	-8.23838
▁learn	-8.23857
▁six	-8.23871
▁cool	-8.23904
▁point	-8.23929
▁ear	-8.24049
ign	-8.24197
▁phone	-8.24747
▁safe	-8.2532
▁probably	-8.25503
▁hang	-8.25713
▁ago	-8.25728
▁party	-8.2575
▁sign	-8.25853
▁hurry	-8.25964
▁team	-8.26237
▁gun	-8.28081
▁rock	-8.28243
▁supposed	-8.28312
▁bill	-8.28521
▁exp	-8.28694
▁anyway	-8.2876
▁land	-8.28814
▁hate	-8.2901
▁lose	-8.29032
▁step	-8.2927
▁nu	-8.30489
▁continue	-8.3099
way	-8.31397
▁inside	-8.31496
▁touch	-8.31649
▁half	-8.31654
▁hmm	-8.31962
▁beat	-8.32289
▁exactly	-8.32615
▁full	-8.33544
▁whatever	-8.33769
▁order	-8.33957
▁story	-8.34005
▁out	-8.34175
▁human	-8.34824
▁arent	-8.35246
▁gar	-8.36021
▁wonder	-8.36408
press	-8.36821
▁train	-8.37186
▁drive	-8.37223
spect	-8.37385
▁doctor	-8.37481
▁sighs	-8.37482
▁horse	-8.37844
▁cur	-8.38293
▁city	-8.38361
▁count	-8.38671
▁att	-8.39343
▁lady	-8.39573
▁taking	-8.39789
▁yo	-8.40696
▁drop	-8.40914
▁quite	-8.41001
▁moment	-8.41146
▁shoot	-8.41222
▁along	-8.41347
▁ooh	-8.41937
▁ring	-8.42085
▁secret	-8.42416
▁though	-8.42851
▁throw	-8.43702
▁funny	-8.44003
▁hair	-8.44011
▁stupid	-8.44058
▁wear	-8.44368
▁blow	-8.44452
▁ahead	-8.44614
▁important	-8.44794
▁heres	-8.45295
▁child	-8.45373
▁goodbye	-8.45538
▁grunts	-8.45722
▁prince	-8.45722
▁butt	-8.46283
▁special	-8.46472
▁serious	-8.46673
▁lead	-8.46716
▁food	-8.46891
▁daddy	-8.47154
▁finish	-8.47233
▁gave	-8.47314
▁making	-8.47482
▁kiss	-8.47494
▁gentlemen	-8.47798
▁different	-8.47989
▁write	-8.4839
▁fact	-8.48871
▁report	-8.49306
▁anybody	-8.49335
▁coach	-8.49377
▁behind	-8.49723
▁america	-8.49917
▁death	-8.49966
▁trust	-8.50548
▁almost	-8.51094
qui	-8.51313
q	-8.51461
▁catch	-8.51614
▁fair	-8.52314
▁teach	-8.52635
▁black	-8.52925
▁reason	-8.533
▁white	-8.54163
▁blood	-8.54297
▁least	-8.5432
▁bird	-8.54335
▁ladies	-8.54716
▁country	-8.54857
▁glad	-8.5555
▁daughter	-8.55732
▁wonderful	-8.5579
▁answer	-8.56145
▁expect	-8.56769
▁sister	-8.56819
▁lord	-8.56964
▁clean	-8.57011
▁figure	-8.57402
▁super	-8.57745
▁anymore	-8.57816
▁buy	-8.5782
▁smell	-8.5828
▁gasps	-8.58456
▁front	-8.58474
▁class	-8.5849
time	-8.58586
▁earth	-8.58622
gue	-8.58654
▁theyll	-8.59303
▁also	-8.59305
▁control	-8.59947
▁mmm	-8.59973
▁christ	-8.6038
▁blue	-8.60381
▁build	-8.60595
▁parents	-8.60623
▁piece	-8.60835
▁certain	-8.61029
▁breath	-8.61029
▁police	-8.61469
▁careful	-8.6227
▁dinner	-8.63453
▁brought	-8.64347
▁dress	-8.64441
▁uncle	-8.64601
▁sometimes	-8.64798
▁married	-8.64818
▁gold	-8.64992
▁animal	-8.65026
▁itll	-8.65114
▁running	-8.65542
▁president	-8.65706
▁surprise	-8.65935
▁couple	-8.65941
▁magic	-8.66776
▁tried	-8.66974
▁broke	-8.67563
▁general	-8.68013
▁key	-8.68384
▁million	-8.68955
▁frank	-8.69671
▁voice	-8.69913
▁sort	-8.70122
▁outside	-8.7158
▁women	-8.71581
▁quiet	-8.72571
▁truth	-8.72572
▁bull	-8.7301
▁street	-8.73539
▁slow	-8.73832
▁captain	-8.74273
▁chatter	-8.74298
▁scared	-8.74546
▁either	-8.74771
▁small	-8.74788
▁cheering	-8.75061
▁straight	-8.75778
▁begin	-8.75841
▁knock	-8.76281
▁moving	-8.77602
▁jim	-8.77818
▁leaving	-8.7833
▁short	-8.78355
▁dark	-8.78879
▁picture	-8.79109
▁egg	-8.79182
▁deep	-8.79323
▁living	-8.79933
▁hows	-8.80111
▁master	-8.80394
▁seven	-8.80718
▁trans	-8.8135
▁strong	-8.81484
▁perhaps	-8.81751
▁worth	-8.82849
▁attack	-8.83103
▁shouldnt	-8.8419
▁enjoy	-8.85293
▁complete	-8.8585
▁weird	-8.86137
▁crowd	-8.86143
▁smurf	-8.86409
▁return	-8.86973
▁protect	-8.87255
▁grunting	-8.88106
▁christmas	-8.88401
▁somewhere	-8.89254
▁henry	-8.89559
▁destroy	-8.89833
▁husband	-8.89833
▁kidding	-8.89896
▁present	-8.90165
▁space	-8.90737
▁goddamn	-8.9159
▁buddy	-8.9159
▁charge	-8.91628
▁finally	-8.91886
▁jesus	-8.92234
▁sense	-8.92554
▁ground	-8.93386
▁murder	-8.93986
▁phil	-8.94012
▁engine	-8.94592
▁become	-8.94896
▁forgot	-8.95204
▁machine	-8.9551
▁charlie	-8.96123
▁radio	-8.96433
▁direct	-8.96748
▁absolutely	-8.97054
▁mistake	-8.97367
▁fault	-8.98331
▁entire	-8.98628
▁darling	-8.98633
▁rather	-8.98653
▁proud	-8.98692
▁groans	-8.98971
▁york	-8.99271
▁north	-8.99602
▁theyve	-8.99903
▁window	-9.00233
▁suppose	-9.00495
▁future	-9.00871
▁smart	-9.00879
▁company	-9.01195
▁mouth	-9.01214
▁decide	-9.01226
▁record	-9.02177
▁amazing	-9.03165
▁others	-9.03838
▁allow	-9.04187
▁offer	-9.04522
▁explain	-9.05517
▁lunch	-9.05865
▁circ	-9.05875
▁round	-9.06584
▁south	-9.06904
▁honest	-9.07605
▁alright	-9.08625
▁queen	-9.08654
▁terrible	-9.08969
▁computer	-9.08969
▁choice	-9.09322
▁movie	-9.09359
▁prison	-9.09678
▁chicken	-9.09682
▁witch	-9.09704
▁cross	-9.10415
▁dangerous	-9.10742
▁agree	-9.10755
▁imagine	-9.11461
▁forever	-9.12204
▁travel	-9.12914
▁indistinct	-9.13278
▁louis	-9.13431
▁service	-9.13646
▁system	-9.13646
▁except	-9.14388
▁island	-9.14758
▁coffee	-9.14758
▁hungry	-9.15131
▁evil	-9.15151
▁freak	-9.15889
▁apart	-9.174
▁attention	-9.174
▁accident	-9.18167
▁anywhere	-9.18167
▁hundred	-9.18167
▁pleasure	-9.18553
▁thousand	-9.18554
▁glass	-9.1856
▁normal	-9.19721
