<unk>	0
<s>	0
</s>	0
s	-2.96488
e	-3.81197
t	-4.13178
ing	-4.16589
d	-4.18939
a	-4.38994
n	-4.43577
y	-4.43593
ed	-4.48391
er	-4.60986
m	-4.77153
p	-4.84806
o	-4.84966
i	-4.89278
g	-4.98247
h	-4.98772
▁s	-5.00298
▁im	-5.00436
in	-5.03327
c	-5.09419
▁go	-5.10218
▁dont	-5.10392
r	-5.13544
▁know	-5.17751
u	-5.22426
▁get	-5.23078
or	-5.23508
l	-5.24514
k	-5.27262
f	-5.3064
b	-5.32517
al	-5.36569
▁oh	-5.37889
w	-5.37934
le	-5.39175
ar	-5.40166
▁come	-5.4102
▁right	-5.42178
▁p	-5.48475
en	-5.4962
an	-5.50092
▁l	-5.52239
v	-5.52684
▁well	-5.52744
▁like	-5.53135
▁got	-5.5372
on	-5.55362
ll	-5.55695
it	-5.56623
ly	-5.57076
▁youre	-5.60532
▁f	-5.60662
▁	-5.63543
▁see	-5.64003
▁one	-5.6648
ch	-5.69703
▁thats	-5.70365
▁na	-5.70671
▁yeah	-5.72048
at	-5.76471
▁think	-5.76781
▁look	-5.7763
▁good	-5.78188
▁g	-5.78371
▁t	-5.79343
re	-5.80759
▁us	-5.82601
es	-5.83753
▁re	-5.87328
ck	-5.87691
▁want	-5.89262
il	-5.89281
▁de	-5.9253
▁st	-5.93516
▁w	-5.96391
st	-5.97127
ter	-5.99765
▁yes	-6.00334
▁hey	-6.0075
▁gon	-6.0524
▁ill	-6.05399
▁ch	-6.07105
▁c	-6.07295
ent	-6.07396
▁back	-6.08035
▁okay	-6.1028
▁bo	-6.10355
ur	-6.10712
▁time	-6.11334
▁in	-6.12315
▁take	-6.13473
ie	-6.14392
ic	-6.15023
▁say	-6.16814
ra	-6.17116
ri	-6.17347
is	-6.18996
▁a	-6.19712
el	-6.19893
▁going	-6.21341
▁man	-6.21656
▁pa	-6.21836
th	-6.23036
ir	-6.23154
▁cant	-6.23607
▁sh	-6.24026
ve	-6.24941
▁co	-6.25524
▁hes	-6.25542
▁mr	-6.2731
▁m	-6.2784
▁o	-6.28096
ce	-6.2877
▁ma	-6.29396
▁be	-6.31987
▁r	-6.33452
et	-6.33485
▁would	-6.35908
z	-6.37271
ol	-6.37681
▁tell	-6.37838
▁ha	-6.38305
▁way	-6.38903
▁make	-6.39332
▁b	-6.41413
▁love	-6.42201
▁never	-6.42399
▁thank	-6.42765
▁let	-6.42997
▁k	-6.43127
▁bu	-6.43471
▁e	-6.44262
▁mean	-6.44269
▁lets	-6.44636
▁little	-6.44809
▁could	-6.45539
▁sp	-6.46319
▁tr	-6.4667
ro	-6.46798
▁need	-6.46937
ow	-6.47224
id	-6.47409
▁really	-6.47812
la	-6.48556
ad	-6.48919
ver	-6.49116
▁th	-6.50714
as	-6.50838
x	-6.51655
▁ro	-6.51776
▁ive	-6.5199
▁la	-6.52676
▁sir	-6.53435
ate	-6.54153
am	-6.54155
us	-6.54168
▁wait	-6.54801
ion	-6.54899
▁ho	-6.55395
▁po	-6.55427
un	-6.55944
▁br	-6.5645
▁con	-6.57379
ation	-6.57959
im	-6.58041
▁whats	-6.58223
▁ba	-6.58409
▁something	-6.58955
▁to	-6.59897
▁give	-6.60283
▁di	-6.61504
ge	-6.62238
▁day	-6.64631
▁help	-6.64798
ot	-6.64903
▁sorry	-6.64911
▁work	-6.6514
▁didnt	-6.65591
▁v	-6.65728
▁ta	-6.6597
li	-6.66229
te	-6.66304
ig	-6.665
▁car	-6.66743
▁call	-6.67729
▁da	-6.67772
ne	-6.68214
▁me	-6.68351
est	-6.69816
ugh	-6.71118
▁theres	-6.71241
ers	-6.72359
▁hi	-6.72444
▁please	-6.73438
▁n	-6.73491
▁d	-6.75073
▁two	-6.75573
lo	-6.76138
▁uh	-6.77487
▁wh	-6.77514
ul	-6.77609
▁he	-6.77639
▁ex	-6.79513
▁boy	-6.79736
per	-6.80014
▁sure	-6.80297
ive	-6.8036
▁stop	-6.80368
um	-6.81213
age	-6.81661
▁su	-6.83388
▁night	-6.85498
▁pro	-6.87189
▁thing	-6.87343
▁theyre	-6.87343
▁must	-6.87427
ight	-6.87802
▁new	-6.88237
ant	-6.88615
▁lo	-6.88875
ment	-6.88997
▁great	-6.89516
▁even	-6.89517
▁j	-6.89752
▁dr	-6.90668
▁mar	-6.90819
▁gr	-6.90846
▁an	-6.90848
ard	-6.90869
▁much	-6.90892
ry	-6.92306
▁no	-6.9247
op	-6.92583
de	-6.9262
qu	-6.92707
▁find	-6.93249
▁people	-6.93505
ect	-6.94538
ies	-6.94783
ip	-6.94832
▁said	-6.94834
▁home	-6.95282
▁sc	-6.95402
▁kid	-6.95619
om	-6.95634
▁al	-6.96076
▁un	-6.96122
▁ca	-6.96314
▁keep	-6.96576
ill	-6.96661
ty	-6.96992
▁ra	-6.97042
if	-6.97648
▁away	-6.97729
▁cr	-6.97979
▁first	-6.9815
▁fl	-6.98461
▁ar	-6.9989
▁big	-7.0047
▁old	-7.00738
▁life	-7.00895
man	-7.0157
▁friend	-7.01692
▁girl	-7.03517
▁fe	-7.04148
▁play	-7.04493
▁guys	-7.04551
▁id	-7.04672
▁put	-7.047
tion	-7.05312
pp	-7.0556
▁ever	-7.06897
ist	-7.07608
▁name	-7.07979
ine	-7.0822
mp	-7.08376
▁long	-7.09385
ac	-7.0952
▁hand	-7.09759
▁miss	-7.09819
▁gu	-7.10388
▁thought	-7.10449
ish	-7.1069
▁feel	-7.11613
▁fr	-7.1242
▁mi	-7.13196
▁h	-7.14119
ake	-7.1412
▁for	-7.15334
▁wont	-7.15782
▁shes	-7.1698
▁talk	-7.17277
▁te	-7.17284
▁better	-7.17487
▁anything	-7.17669
▁still	-7.18219
▁nothing	-7.18641
j	-7.18682
▁god	-7.18698
▁house	-7.19819
▁move	-7.2028
▁dad	-7.20289
▁youve	-7.20798
▁hu	-7.21177
▁always	-7.21397
▁bl	-7.21566
ting	-7.21903
▁maybe	-7.22006
▁pre	-7.22073
▁so	-7.22075
▁youll	-7.22199
▁stay	-7.22251
▁le	-7.23211
▁last	-7.2453
▁com	-7.25106
▁coming	-7.25573
▁vi	-7.25597
▁told	-7.25707
oo	-7.25806
▁son	-7.2581
▁se	-7.25917
▁ne	-7.25927
▁place	-7.26102
ian	-7.26172
▁hear	-7.26176
▁mo	-7.26286
▁do	-7.27156
▁kill	-7.27387
▁ask	-7.27446
▁care	-7.27605
▁hold	-7.28021
▁show	-7.28248
▁ja	-7.292
▁every	-7.29623
ut	-7.3023
▁hello	-7.30399
▁start	-7.30724
▁mom	-7.30874
▁may	-7.31614
▁ri	-7.31705
▁li	-7.31946
▁real	-7.3226
▁everything	-7.32368
▁nice	-7.32613
▁kind	-7.33061
ity	-7.33161
▁live	-7.33224
▁isnt	-7.33487
▁things	-7.33498
▁around	-7.33713
ag	-7.33765
▁mu	-7.33874
ful	-7.3388
▁em	-7.34231
ub	-7.35713
able	-7.35786
▁pe	-7.35921
mo	-7.36276
▁ah	-7.36307
▁run	-7.36441
ous	-7.37253
▁minute	-7.37865
▁je	-7.38534
▁leave	-7.39291
▁head	-7.39362
▁cl	-7.39502
▁listen	-7.39532
▁made	-7.39819
▁plan	-7.39829
ome	-7.39926
ood	-7.40112
co	-7.40173
▁believe	-7.40248
▁fine	-7.40657
▁ju	-7.41072
▁doesnt	-7.41462
▁dis	-7.42021
▁ready	-7.42121
▁i	-7.42795
ru	-7.42851
▁thanks	-7.43
und	-7.43103
▁world	-7.43435
▁watch	-7.43444
▁war	-7.43625
▁father	-7.43688
ble	-7.43846
ling	-7.43892
rr	-7.44046
▁hell	-7.44138
▁bad	-7.44216
▁might	-7.44281
ny	-7.45621
▁ad	-7.46005
▁lot	-7.46028
▁money	-7.46233
▁left	-7.46481
▁course	-7.46727
ash	-7.47039
ary	-7.4723
▁z	-7.47293
▁room	-7.47505
▁turn	-7.47519
▁en	-7.48442
▁mother	-7.48548
▁wrong	-7.4907
▁three	-7.4909
ance	-7.49547
▁understand	-7.49864
▁meet	-7.50677
▁huh	-7.50738
▁years	-7.51037
▁remember	-7.51201
▁came	-7.51216
▁col	-7.51398
ally	-7.51819
▁whoa	-7.52576
▁du	-7.53539
nce	-7.54143
▁weve	-7.54157
▁ok	-7.54608
▁fire	-7.56198
▁wan	-7.56549
▁win	-7.56558
▁sa	-7.56628
▁enough	-7.57593
▁sn	-7.57791
ab	-7.57803
ia	-7.57885
▁we	-7.58111
▁guy	-7.58315
▁men	-7.58545
▁today	-7.59149
▁bit	-7.59316
▁qu	-7.60012
▁bar	-7.60269
ize	-7.60527
▁mind	-7.61163
▁done	-7.62056
less	-7.62187
▁school	-7.62292
▁try	-7.62554
up	-7.6258
▁wa	-7.63424
▁next	-7.6381
▁happen	-7.63856
▁scream	-7.64421
▁dead	-7.65379
▁app	-7.65439
▁fi	-7.66391
▁another	-7.66594
▁hard	-7.67466
▁happened	-7.68126
▁excuse	-7.68176
▁else	-7.68615
▁talking	-7.69174
▁wanted	-7.69501
ock	-7.69519
▁pu	-7.69705
▁el	-7.71009
▁together	-7.71089
▁eat	-7.71158
▁close	-7.71783
▁music	-7.72446
▁eye	-7.72687
▁someone	-7.72745
▁wouldnt	-7.72815
▁high	-7.7316
▁best	-7.7323
▁family	-7.73414
▁baby	-7.73771
▁hope	-7.73932
▁they	-7.74528
ame	-7.74559
▁second	-7.74768
▁tonight	-7.74775
▁open	-7.74787
tic	-7.74808
▁cre	-7.74832
ture	-7.74997
▁guess	-7.7515
ber	-7.75483
▁book	-7.75964
▁matter	-7.76509
▁sit	-7.76581
▁morning	-7.76834
▁ya	-7.7697
gu	-7.77032
one	-7.77144
▁chuckles	-7.77532
▁idea	-7.77695
▁part	-7.78394
our	-7.78655
▁aw	-7.78923
▁end	-7.79068
▁door	-7.79135
▁far	-7.79457
▁cat	-7.79602
▁getting	-7.79892
▁sea	-7.80117
▁found	-7.80378
▁whos	-7.80486
▁ye	-7.80967
▁wish	-7.81623
▁check	-7.82226
▁bring	-7.82546
▁pretty	-7.82932
ath	-7.83585
▁story	-7.8372
day	-7.83752
▁playing	-7.84126
mon	-7.84185
▁ass	-7.86643
▁light	-7.87015
▁everybody	-7.8708
▁worry	-7.87084
▁stand	-7.87513
▁everyone	-7.88348
▁sound	-7.88374
▁brother	-7.89026
▁heard	-7.89406
time	-7.89621
▁fight	-7.89643
▁ac	-7.89778
▁week	-7.89831
bo	-7.90118
▁tomorrow	-7.90211
ator	-7.90332
▁george	-7.9061
▁wasnt	-7.91011
▁lost	-7.91178
▁set	-7.91211
▁pick	-7.91447
▁many	-7.9181
ated	-7.91906
▁fast	-7.92067
▁break	-7.92222
▁game	-7.92247
▁king	-7.92275
▁star	-7.92356
▁ow	-7.92463
▁laughing	-7.92634
▁havent	-7.93039
▁change	-7.93452
▁whole	-7.93468
▁cut	-7.93624
▁fun	-7.93779
▁water	-7.9386
▁dog	-7.93938
▁dance	-7.9427
▁happy	-7.94274
▁hit	-7.94362
▁luck	-7.94701
▁trying	-7.94869
▁dream	-7.9553
▁face	-7.95589
▁mon	-7.96187
▁without	-7.96361
▁knew	-7.96364
▁four	-7.96412
ness	-7.97543
▁sha	-7.97584
ious	-7.97888
▁saw	-7.98086
ike	-7.9812
▁walk	-7.9852
▁problem	-7.98932
ook	-7.99208
▁five	-7.99581
▁late	-7.99917
▁alone	-7.99964
▁grand	-8.00262
▁yet	-8.00334
▁mine	-8.00399
act	-8.00445
▁speak	-8.00682
▁shut	-8.00714
▁read	-8.01384
▁save	-8.0176
▁act	-8.0186
▁pan	-8.02764
▁easy	-8.02926
▁rob	-8.03128
▁since	-8.03403
▁word	-8.03429
▁true	-8.03453
▁hour	-8.04008
▁children	-8.04282
▁ray	-8.04554
▁ab	-8.04705
▁pull	-8.04854
▁bill	-8.05036
▁question	-8.05198
out	-8.05201
▁job	-8.05209
ward	-8.05315
▁town	-8.057
▁free	-8.05784
▁chip	-8.05967
▁continue	-8.06125
▁youd	-8.06134
▁wheres	-8.06159
▁damn	-8.0617
▁anyone	-8.06594
where	-8.06986
▁bee	-8.07028
▁rest	-8.0719
▁actually	-8.07533
▁hurry	-8.07537
▁honey	-8.07543
▁dear	-8.07612
ical	-8.0772
▁trouble	-8.08007
▁went	-8.08101
▁au	-8.08155
▁cause	-8.09006
▁heart	-8.09411
▁later	-8.09495
▁aint	-8.09511
▁comp	-8.09837
▁grow	-8.09925
▁number	-8.09926
▁shall	-8.09947
▁soon	-8.10006
▁sweet	-8.10412
▁cra	-8.10415
▁took	-8.10774
▁business	-8.10899
▁john	-8.10899
▁of	-8.11057
▁doctor	-8.11389
▁young	-8.11882
▁beg	-8.12375
▁beautiful	-8.12377
▁sleep	-8.12379
▁up	-8.12542
▁year	-8.1279
▁forget	-8.12884
▁already	-8.13877
▁wife	-8.13899
▁air	-8.14241
▁afraid	-8.14382
▁clear	-8.14419
▁wow	-8.1478
▁line	-8.14991
▁grunts	-8.154
▁um	-8.15872
▁person	-8.15923
▁hurt	-8.1595
lic	-8.16557
▁quick	-8.16952
▁woman	-8.16956
▁bye	-8.17102
▁stuff	-8.17205
ition	-8.17685
▁leg	-8.18615
▁bed	-8.18849
▁arm	-8.18917
▁chance	-8.19009
▁couldnt	-8.19147
▁phone	-8.19584
▁mmm	-8.19631
▁anyway	-8.20114
▁cur	-8.20615
▁rec	-8.20768
▁side	-8.20825
▁party	-8.20839
▁pass	-8.21651
▁can	-8.22064
▁funny	-8.22383
▁promise	-8.22832
▁touch	-8.2284
▁drink	-8.22843
▁ago	-8.22933
▁wonder	-8.23873
▁somebody	-8.23938
▁hang	-8.24557
▁power	-8.24564
uff	-8.2458
▁lady	-8.24622
▁gentlemen	-8.25624
▁write	-8.26431
▁ear	-8.26562
▁drop	-8.26732
▁follow	-8.26763
▁crazy	-8.26766
▁supposed	-8.27066
▁cool	-8.27511
▁tu	-8.27563
▁rock	-8.27573
▁rich	-8.27699
▁stupid	-8.27917
▁hmm	-8.28522
▁parents	-8.29084
ship	-8.29396
▁learn	-8.29688
▁fall	-8.2985
▁six	-8.30292
▁city	-8.30339
▁hate	-8.30789
▁sighs	-8.30859
▁point	-8.30943
▁arent	-8.31165
▁gasps	-8.31457
▁horse	-8.3207
▁sign	-8.32101
▁joe	-8.3216
▁count	-8.32627
▁computer	-8.32668
▁half	-8.32691
▁land	-8.32876
▁behind	-8.33275
▁christ	-8.33285
▁beat	-8.33287
▁step	-8.33752
▁duck	-8.33918
▁howard	-8.34081
▁cla	-8.34129
▁secret	-8.34505
▁cheering	-8.34508
▁safe	-8.34583
▁whatever	-8.35127
▁frank	-8.35134
▁lose	-8.35171
▁exactly	-8.35752
▁moment	-8.36134
▁million	-8.36383
▁child	-8.36416
▁sister	-8.37069
▁out	-8.37557
▁perfect	-8.3765
▁almost	-8.37651
▁send	-8.37897
▁blow	-8.38184
▁finish	-8.38302
▁throw	-8.38302
▁shoot	-8.3832
way	-8.38645
▁dude	-8.38716
▁fact	-8.38869
▁inside	-8.38938
▁important	-8.39586
▁drive	-8.39729
▁nobody	-8.40239
▁taking	-8.40287
▁making	-8.40305
▁wear	-8.40838
▁answer	-8.40899
▁ahead	-8.40908
▁welcome	-8.41559
▁ooh	-8.41611
▁butt	-8.42068
▁aah	-8.42301
▁heres	-8.42338
▁order	-8.42901
▁yo	-8.43186
▁death	-8.43481
▁catch	-8.43588
▁full	-8.4374
▁earth	-8.45198
▁quite	-8.4565
▁puss	-8.45678
▁goodbye	-8.46324
▁crowd	-8.46333
you	-8.46617
▁least	-8.47046
▁police	-8.47732
▁itll	-8.47769
▁team	-8.48386
▁report	-8.48439
▁gave	-8.49187
▁wonderful	-8.49234
▁train	-8.49242
▁anybody	-8.49868
▁anymore	-8.49868
▁probably	-8.49868
▁small	-8.49871
▁interest	-8.49873
▁ladies	-8.50609
▁trust	-8.5063
▁country	-8.50721
▁though	-8.51253
▁different	-8.51323
▁glad	-8.51373
▁special	-8.52058
▁daughter	-8.52061
▁expect	-8.52063
▁green	-8.52127
▁officer	-8.52483
▁camp	-8.53253
▁along	-8.53559
▁class	-8.53921
▁under	-8.54401
▁key	-8.54504
▁brought	-8.55055
▁broke	-8.55063
▁build	-8.55091
▁prince	-8.55821
▁quiet	-8.55834
▁ski	-8.55834
▁blood	-8.56055
▁sort	-8.56155
▁serious	-8.56601
▁certain	-8.57363
▁couple	-8.57365
▁general	-8.57368
▁breath	-8.57372
▁grunting	-8.58932
▁white	-8.58998
▁daddy	-8.59004
▁piece	-8.59736
▁front	-8.59753
▁woo	-8.60079
▁picture	-8.61333
▁smell	-8.61336
▁evil	-8.61342
▁yi	-8.62052
▁captain	-8.62144
▁strange	-8.62145
▁whoo	-8.62859
▁figure	-8.62967
▁gene	-8.63102
▁lord	-8.63198
▁hows	-8.6402
▁super	-8.64525
▁dinner	-8.64626
▁reason	-8.64638
▁control	-8.65465
▁bird	-8.65494
▁fool	-8.65505
▁coach	-8.65515
▁greg	-8.65586
▁tried	-8.65613
▁join	-8.66344
▁monster	-8.66353
▁henry	-8.67177
▁either	-8.68029
▁black	-8.6805
▁egg	-8.68074
▁also	-8.68255
▁america	-8.68898
▁outside	-8.689
▁animal	-8.68902
▁blue	-8.6896
▁brain	-8.6898
▁dress	-8.6903
▁perhaps	-8.69775
▁witch	-8.69796
▁teach	-8.69799
▁uncle	-8.72471
▁rather	-8.72471
▁worth	-8.72472
▁growling	-8.72585
▁jellicle	-8.73363
▁surprise	-8.73363
▁foot	-8.73418
▁enjoy	-8.7428
▁president	-8.74281
▁groans	-8.74282
▁darling	-8.74286
▁seven	-8.75236
▁deep	-8.7587
▁window	-8.76149
▁miles	-8.76287
▁shouldnt	-8.77084
▁forgot	-8.77089
▁dark	-8.77127
▁kiss	-8.77215
▁sick	-8.77223
▁magic	-8.77227
down	-8.77651
▁married	-8.78053
▁lunch	-8.79011
▁living	-8.79027
▁fair	-8.80031
▁short	-8.80167
▁suppose	-8.80431
▁leaving	-8.8095
▁finally	-8.80961
▁street	-8.80963
▁scared	-8.80985
▁hotel	-8.81982
▁bank	-8.82019
▁gadget	-8.8294
▁engine	-8.82942
▁kurt	-8.82978
▁clean	-8.8301
▁wizard	-8.8395
▁buddy	-8.83953
▁truth	-8.83969
▁david	-8.84976
▁office	-8.85407
▁christmas	-8.86004
▁stick	-8.86074
▁strong	-8.87043
▁return	-8.87044
▁movie	-8.87064
▁karen	-8.87066
▁aunt	-8.87115
▁running	-8.87125
▁charge	-8.88116
▁horn	-8.88217
▁straight	-8.89164
▁mama	-8.89904
▁entire	-8.90235
▁except	-8.90235
▁knock	-8.90241
▁offer	-8.90248
▁champ	-8.90273
▁attack	-8.91321
▁voice	-8.91322
▁harry	-8.91341
▁potter	-8.91379
▁martin	-8.92542
▁field	-8.93546
▁months	-8.93562
▁weird	-8.94668
▁space	-8.94717
▁hunt	-8.95076
▁ground	-8.95797
▁direct	-8.95804
▁women	-8.95814
▁coffee	-8.96941
▁kermit	-8.96941
▁moving	-8.96976
▁frog	-8.97005
▁calm	-8.97046
▁jeremy	-8.98104
▁rowley	-8.98104
▁somewhere	-8.98105
▁record	-8.98123
▁allow	-8.98124
▁forever	-8.98125
▁sense	-8.98196
▁pleasure	-8.9928
▁thousand	-8.9928
▁destroy	-8.9928
▁shouting	-8.99288
▁soft	-8.99344
▁become	-9.00476
▁relax	-9.00476
▁chief	-9.00493
▁rule	-9.01013
▁command	-9.02904
▁trick	-9.02951
▁alex	-9.04167
▁imagine	-9.05387
▁company	-9.05395
▁peach	-9.05409
▁kick	-9.05424
▁husband	-9.06645
▁brenda	-9.06647
▁friday	-9.0665
▁protect	-9.0666
▁joke	-9.06661
▁dorothy	-9.07927
▁island	-9.07927
▁middle	-9.07928
▁travel	-9.07931
▁cheese	-9.07931
▁others	-9.07933
▁agree	-9.0794
▁favorite	-9.09226
▁indistinct	-9.09226
▁summer	-9.09227
▁york	-9.09233
▁explain	-9.10542
▁hungry	-9.10542
▁terrible	-9.10542
▁prepare	-9.10551
▁scott	-9.10562
▁mouse	-9.10895
▁doug	-9.10934
▁birthday	-9.11875
▁rescue	-9.11876
▁fault	-9.11876
▁radio	-9.11876
▁choice	-9.11876
▁security	-9.13227
▁chicken	-9.13227
▁across	-9.13228
▁major	-9.13233
▁worse	-9.1324
▁goddamn	-9.14597
▁heaven	-9.14597
▁mistake	-9.146
▁absolutely	-9.15985
▁dollars	-9.17394
▁wilma	-9.17394
▁granny	-9.17397
▁complete	-9.17398
▁smart	-9.17406
▁notice	-9.17543
▁service	-9.18822
▁apart	-9.18823
▁mountain	-9.20271
q	-10.5063
