<unk>	0
<s>	0
</s>	0
s	-3.30321
▁im	-4.55272
▁dont	-4.61559
▁know	-4.7279
▁get	-4.81276
▁go	-4.85199
▁oh	-4.88417
▁right	-4.95683
▁come	-4.96343
▁like	-5.01241
▁well	-5.04895
▁got	-5.0632
▁youre	-5.11901
ing	-5.12297
ed	-5.17754
▁yeah	-5.20637
▁one	-5.21238
▁thats	-5.23214
▁na	-5.3239
▁good	-5.3441
▁see	-5.4114
▁think	-5.44291
▁want	-5.48031
▁okay	-5.52518
d	-5.54739
▁yes	-5.56638
▁look	-5.5666
▁hey	-5.57804
▁gon	-5.61384
▁back	-5.62506
▁ill	-5.66042
▁time	-5.66968
▁us	-5.68907
y	-5.712
▁take	-5.72931
▁going	-5.73391
▁man	-5.76117
▁hes	-5.76666
er	-5.77769
▁cant	-5.78135
▁	-5.85532
▁say	-5.89288
▁way	-5.94506
▁would	-5.96726
▁little	-5.99392
▁really	-6.00021
▁tell	-6.00876
▁could	-6.01162
e	-6.02417
▁lets	-6.03113
▁never	-6.03178
▁need	-6.04402
▁thank	-6.05966
▁make	-6.06579
t	-6.08476
▁something	-6.0941
▁love	-6.09757
▁let	-6.10316
▁l	-6.10387
▁whats	-6.13967
▁ive	-6.16119
▁mean	-6.16384
▁didnt	-6.16841
▁mr	-6.1731
▁please	-6.19229
▁sorry	-6.21175
▁give	-6.23021
r	-6.24544
▁theres	-6.24666
in	-6.24744
▁wait	-6.29962
▁two	-6.31238
a	-6.32584
▁sir	-6.33887
▁help	-6.34023
ly	-6.3863
▁thing	-6.39241
▁sure	-6.40042
▁said	-6.4087
▁day	-6.42991
▁people	-6.43755
▁stop	-6.46111
▁theyre	-6.47008
▁much	-6.47654
▁great	-6.48168
▁uh	-6.517
▁night	-6.51823
n	-6.52238
▁home	-6.5328
▁work	-6.53405
▁find	-6.5434
▁even	-6.56046
▁god	-6.56055
g	-6.56665
▁first	-6.58208
▁life	-6.5972
▁guys	-6.60073
▁keep	-6.60738
o	-6.61931
▁must	-6.62441
▁put	-6.62475
▁ta	-6.62943
▁anything	-6.6328
▁away	-6.63814
▁maybe	-6.63953
▁shes	-6.64219
▁ever	-6.64803
▁call	-6.65816
▁nothing	-6.66046
▁new	-6.66622
p	-6.69343
▁thought	-6.69483
▁boy	-6.70722
▁still	-6.71283
▁hi	-6.71372
▁better	-6.71442
▁old	-6.72902
▁around	-6.72917
▁big	-6.73852
▁nice	-6.74638
▁place	-6.75597
b	-6.76166
▁id	-6.77383
i	-6.77866
▁long	-6.78361
▁talk	-6.78943
▁wont	-6.8025
▁always	-6.80584
l	-6.80804
es	-6.81663
▁everything	-6.82132
▁name	-6.82676
▁dad	-6.83283
▁last	-6.83492
▁youve	-6.85202
▁youll	-6.85378
▁things	-6.85739
al	-6.8612
▁feel	-6.87185
▁stay	-6.87941
▁leave	-6.88044
▁house	-6.8861
▁miss	-6.89894
▁listen	-6.90069
▁de	-6.90705
▁hello	-6.90805
▁lot	-6.90856
▁every	-6.91009
▁believe	-6.91197
▁world	-6.91345
c	-6.91635
▁told	-6.92163
▁coming	-6.92727
▁made	-6.94184
▁three	-6.94302
▁show	-6.9451
▁hear	-6.95389
▁fine	-6.95408
▁hell	-6.95577
▁bad	-6.95735
▁hold	-6.97479
▁isnt	-6.9821
▁kind	-6.98618
▁father	-6.98893
▁play	-6.9914
▁car	-6.99756
▁girl	-6.99967
▁move	-7.00557
▁doesnt	-7.007
▁may	-7.0104
▁huh	-7.01679
▁mom	-7.02695
▁years	-7.03699
▁wan	-7.03832
le	-7.03986
▁run	-7.05065
▁remember	-7.05231
▁money	-7.05449
▁course	-7.05519
ie	-7.05823
▁done	-7.06782
▁enough	-7.07685
▁understand	-7.08639
▁guy	-7.08792
▁thanks	-7.08931
ar	-7.09519
▁mother	-7.09573
▁left	-7.10128
w	-7.10299
▁ha	-7.10596
▁baby	-7.11631
▁ready	-7.12193
▁best	-7.12426
▁care	-7.13714
▁real	-7.13836
▁try	-7.14284
▁might	-7.14393
▁mind	-7.15705
m	-7.15886
▁wrong	-7.16223
en	-7.16316
▁today	-7.16783
or	-7.16863
▁morning	-7.17833
▁weve	-7.19462
▁whoa	-7.19705
▁next	-7.20201
▁son	-7.20643
▁talking	-7.21283
▁watch	-7.21784
▁another	-7.23741
▁wanted	-7.25761
▁guess	-7.25998
▁ah	-7.26342
▁live	-7.27187
▁room	-7.27344
▁kill	-7.28191
▁aint	-7.28489
▁came	-7.2911
▁head	-7.29442
▁else	-7.29489
▁happened	-7.2962
▁friend	-7.29757
h	-7.29828
▁getting	-7.30162
▁ask	-7.3052
▁dead	-7.30521
▁idea	-7.30691
▁excuse	-7.30852
▁turn	-7.31227
ic	-7.31366
▁shit	-7.32462
▁men	-7.32961
▁hope	-7.33135
v	-7.34147
▁em	-7.34252
▁kids	-7.34537
▁job	-7.34906
▁ok	-7.34978
▁school	-7.35093
u	-7.35668
▁wouldnt	-7.35941
re	-7.3608
▁together	-7.36149
▁start	-7.36604
▁seen	-7.36637
▁pretty	-7.37125
▁matter	-7.37661
▁door	-7.3843
▁bring	-7.38514
▁tonight	-7.38708
▁family	-7.39306
▁everybody	-7.39409
▁minute	-7.39471
▁someone	-7.39507
▁meet	-7.40344
it	-7.4089
ers	-7.40947
▁found	-7.41029
▁trying	-7.41406
▁looking	-7.41552
▁whole	-7.42466
on	-7.42936
▁woman	-7.43295
▁without	-7.44133
▁music	-7.44537
▁many	-7.45174
▁heard	-7.45302
▁un	-7.45443
▁use	-7.4549
▁wasnt	-7.46045
▁chance	-7.46164
▁saw	-7.4672
▁hand	-7.46762
▁open	-7.47236
▁hard	-7.47519
ri	-7.47654
▁fuck	-7.48287
▁face	-7.48568
k	-7.4922
▁cause	-7.49539
▁yet	-7.498
▁worry	-7.50429
▁happy	-7.51443
▁kid	-7.51557
▁whos	-7.51661
▁end	-7.52241
▁everyone	-7.52261
▁eat	-7.52268
ion	-7.52573
▁re	-7.52686
▁tomorrow	-7.52695
▁water	-7.52745
▁knew	-7.5327
▁playing	-7.54065
▁friends	-7.54207
▁went	-7.54333
▁second	-7.54951
▁honey	-7.55021
▁gone	-7.55715
▁fire	-7.55726
▁bit	-7.55901
▁havent	-7.56076
▁beautiful	-7.5667
▁game	-7.57112
man	-7.57255
▁dear	-7.57792
▁alone	-7.57998
▁easy	-7.58597
▁five	-7.58891
th	-7.59098
▁four	-7.59555
li	-7.59901
z	-7.59905
▁true	-7.60234
▁wish	-7.60949
▁die	-7.61095
▁lost	-7.61341
▁la	-7.61659
▁days	-7.61715
f	-7.61844
▁king	-7.6185
▁youd	-7.61939
▁sit	-7.62462
▁used	-7.62658
▁hit	-7.62839
▁jack	-7.62906
▁took	-7.6295
▁part	-7.62991
▁close	-7.63282
▁actually	-7.63341
▁mrs	-7.63591
▁young	-7.63786
▁fucking	-7.6391
▁laughing	-7.64451
▁break	-7.64528
▁shut	-7.64616
▁stand	-7.64705
▁stuff	-7.64743
▁boys	-7.64776
▁heart	-7.65045
▁set	-7.65456
ra	-7.65486
▁since	-7.65722
▁dog	-7.66333
el	-7.66374
ter	-7.66418
▁john	-7.66928
▁um	-7.67073
ch	-7.67338
▁far	-7.67381
▁fun	-7.67902
▁somebody	-7.68292
▁town	-7.68322
▁shall	-7.6884
▁mine	-7.68841
▁dance	-7.69801
▁business	-7.69913
▁a	-7.70002
▁afraid	-7.70049
▁george	-7.70733
▁late	-7.7113
▁ya	-7.71529
▁already	-7.7156
▁forget	-7.71821
▁couldnt	-7.7209
▁eyes	-7.72142
▁children	-7.72255
▁fight	-7.72406
st	-7.72468
is	-7.72664
la	-7.72685
▁wife	-7.72814
▁pay	-7.73169
ur	-7.73406
▁je	-7.73509
▁read	-7.73763
▁problem	-7.73835
▁word	-7.73835
▁damn	-7.73955
ation	-7.74344
est	-7.74478
▁check	-7.74487
▁change	-7.74695
il	-7.75515
▁chuckles	-7.75863
▁year	-7.75929
▁called	-7.76054
ne	-7.76174
▁hurt	-7.76377
an	-7.7684
▁wheres	-7.77151
▁brother	-7.77576
▁anyone	-7.77696
ll	-7.77894
▁deal	-7.77948
▁wow	-7.78006
▁sleep	-7.78132
▁light	-7.78253
▁crazy	-7.78445
▁hurry	-7.78732
▁later	-7.78851
▁side	-7.7896
▁s	-7.79168
▁probably	-7.79478
▁cut	-7.79525
▁trouble	-7.79778
▁walk	-7.80466
▁in	-7.8055
▁welcome	-7.80684
▁supposed	-7.81629
ment	-7.81713
▁high	-7.81843
able	-7.81866
▁red	-7.81923
▁point	-7.8193
▁anyway	-7.82211
▁cool	-7.8226
▁lm	-7.8226
▁war	-7.82314
▁pick	-7.82897
▁party	-7.83238
▁soon	-7.83334
▁team	-7.83646
▁win	-7.83665
us	-7.83678
▁drink	-7.8379
▁number	-7.84379
▁phone	-7.84572
▁st	-7.84621
▁ago	-7.84681
▁inside	-7.85031
▁looks	-7.85082
▁nobody	-7.85187
▁happen	-7.8558
▁free	-7.85646
ro	-7.86272
▁hate	-7.86381
▁hmm	-7.86666
▁says	-7.8696
▁line	-7.87048
▁exactly	-7.87284
▁minutes	-7.87324
▁saying	-7.87364
▁k	-7.87453
▁thinking	-7.87716
et	-7.88251
▁story	-7.88407
▁cat	-7.88439
▁arent	-7.88906
▁working	-7.89394
▁moment	-7.89644
▁bye	-7.89724
▁ho	-7.90036
at	-7.90346
▁whatever	-7.90892
▁rest	-7.91152
▁hot	-7.91193
▁hands	-7.91445
▁plan	-7.91663
▁lady	-7.91821
▁dr	-7.92182
▁b	-7.92862
▁sighs	-7.93099
▁city	-7.93132
lo	-7.93897
ies	-7.94121
▁full	-7.94333
▁ooh	-7.94487
▁ball	-7.94549
▁book	-7.9466
te	-7.94794
▁half	-7.94818
▁along	-7.94838
ling	-7.94972
▁quite	-7.95299
▁perfect	-7.95362
▁taking	-7.95401
▁sweet	-7.95797
ve	-7.96546
▁clear	-7.96877
▁funny	-7.96966
▁six	-7.97257
▁met	-7.97383
▁special	-7.98206
▁dream	-7.98268
▁th	-7.98306
ma	-7.98333
▁girls	-7.98736
▁stupid	-7.98749
▁safe	-7.98775
▁gave	-7.99131
▁joe	-7.99303
▁though	-7.99419
na	-7.99676
▁speak	-8.00343
▁daddy	-8.00445
ul	-8.00655
▁different	-8.00953
▁heres	-8.00965
▁save	-8.00972
▁hang	-8.00984
▁grunts	-8.01104
▁anybody	-8.01139
▁important	-8.01325
▁pull	-8.01471
▁ahead	-8.01538
▁killed	-8.01566
▁food	-8.01702
ity	-8.0172
▁lose	-8.01934
▁waiting	-8.02211
▁c	-8.02345
▁hair	-8.02519
▁catch	-8.02519
▁makes	-8.02544
▁bed	-8.02937
▁power	-8.02967
▁gentlemen	-8.03019
▁child	-8.03584
▁coach	-8.03597
▁laughs	-8.03754
▁trust	-8.03975
▁w	-8.04617
sh	-8.04645
ce	-8.0476
▁step	-8.04921
▁goes	-8.05037
▁question	-8.05361
▁goodbye	-8.05513
▁send	-8.0552
▁doctor	-8.05561
▁least	-8.05707
▁ladies	-8.06106
ist	-8.0654
▁behind	-8.06882
▁ben	-8.07101
▁country	-8.07101
▁almost	-8.07277
▁week	-8.07383
▁ass	-8.07403
▁glad	-8.07481
▁air	-8.07952
▁making	-8.08088
▁rock	-8.08729
to	-8.08926
▁reason	-8.09073
▁shot	-8.09139
▁follow	-8.09321
▁death	-8.09477
▁till	-8.09734
ate	-8.10104
▁ow	-8.10249
ry	-8.10324
x	-8.10474
▁theyll	-8.10493
▁anymore	-8.10698
▁answer	-8.10903
▁fly	-8.11032
▁front	-8.11314
▁wonderful	-8.11787
ta	-8.12113
▁white	-8.12149
▁drive	-8.12196
▁fast	-8.12439
▁screaming	-8.12488
co	-8.12632
▁lord	-8.13047
▁luck	-8.13078
▁body	-8.1405
▁promise	-8.14063
▁top	-8.14073
▁land	-8.1423
▁blue	-8.14242
▁sound	-8.14422
▁gun	-8.14514
▁gasps	-8.14671
▁beat	-8.1485
▁control	-8.15099
▁f	-8.1517
ine	-8.15247
▁black	-8.15311
▁bet	-8.1547
▁parents	-8.15685
▁lucky	-8.15859
▁couple	-8.16175
▁sign	-8.17034
▁po	-8.17056
▁sea	-8.17112
▁o	-8.17626
▁earth	-8.18146
▁dinner	-8.18353
se	-8.18427
▁president	-8.18574
▁asked	-8.18607
▁general	-8.18796
▁star	-8.19069
▁brought	-8.19242
▁sometimes	-8.19288
▁kiss	-8.19369
▁person	-8.1937
▁police	-8.19464
▁means	-8.20036
▁touch	-8.20082
▁also	-8.20142
▁throw	-8.20979
▁ride	-8.2127
▁bob	-8.21443
▁sick	-8.21537
ive	-8.21661
▁write	-8.21723
▁itll	-8.2173
▁married	-8.21953
▁al	-8.2198
▁fact	-8.22128
▁shoot	-8.22133
▁secret	-8.22166
ent	-8.2262
▁human	-8.22682
▁ship	-8.22897
▁song	-8.23096
▁captain	-8.23571
▁running	-8.23611
ia	-8.23649
▁case	-8.23836
▁hours	-8.23923
▁sun	-8.24048
▁wonder	-8.24073
▁daughter	-8.24129
▁tu	-8.24192
▁mama	-8.24235
▁buy	-8.2426
▁learn	-8.24278
ness	-8.24283
▁e	-8.24394
▁wants	-8.24518
▁mary	-8.24527
▁truth	-8.24746
▁yo	-8.25047
▁uncle	-8.25232
▁p	-8.25258
▁quick	-8.25293
▁feeling	-8.25758
▁di	-8.25933
▁so	-8.26313
id	-8.26607
▁g	-8.26774
ol	-8.26792
▁en	-8.26909
▁sort	-8.27127
ty	-8.27151
▁ten	-8.27216
ton	-8.27295
▁women	-8.27366
▁co	-8.27372
▁continues	-8.27545
▁small	-8.27608
▁feet	-8.27888
▁tried	-8.28008
ge	-8.2803
▁voice	-8.28583
▁road	-8.28839
▁million	-8.2884
▁report	-8.2956
▁either	-8.29815
▁fish	-8.30051
▁outside	-8.30067
▁started	-8.30277
▁alive	-8.30346
up	-8.30451
▁stick	-8.30601
▁order	-8.3085
▁cheering	-8.30947
▁horse	-8.31047
ff	-8.31233
▁news	-8.31326
▁hour	-8.31527
▁clean	-8.32078
less	-8.32321
ting	-8.3257
▁train	-8.32688
ant	-8.32822
▁bitch	-8.33005
▁sister	-8.33035
▁moving	-8.33368
▁field	-8.33437
▁telling	-8.33535
▁scared	-8.3366
▁careful	-8.33767
▁smell	-8.33816
▁poor	-8.33951
ut	-8.34366
▁quiet	-8.34742
▁leaving	-8.35428
ho	-8.3572
▁m	-8.35906
▁living	-8.35977
▁sounds	-8.36001
▁wed	-8.36331
▁n	-8.36372
▁ma	-8.36527
ver	-8.36578
▁class	-8.36854
ful	-8.37033
oo	-8.37039
▁i	-8.37207
▁du	-8.37783
▁times	-8.38012
▁drop	-8.38078
▁law	-8.38234
▁perhaps	-8.38346
mo	-8.38367
▁sent	-8.38426
▁street	-8.38472
▁serious	-8.38718
son	-8.38736
▁hows	-8.38893
▁wake	-8.38989
ir	-8.39295
▁master	-8.39469
▁piece	-8.39638
▁lovely	-8.3975
▁crowd	-8.39803
▁le	-8.39882
▁blood	-8.39925
▁count	-8.40246
▁short	-8.40528
j	-8.40599
rs	-8.40603
▁straight	-8.40727
▁green	-8.40824
do	-8.40841
▁pass	-8.40937
▁seems	-8.41025
▁eye	-8.41035
ous	-8.41103
▁seven	-8.41113
▁shouldnt	-8.4136
▁sing	-8.41387
ti	-8.41519
me	-8.41636
▁finally	-8.41727
▁d	-8.41843
▁fair	-8.41939
▁able	-8.42232
▁van	-8.42333
▁roll	-8.42479
▁dude	-8.42561
▁lives	-8.42903
▁fall	-8.43005
▁push	-8.43063
ck	-8.43187
ian	-8.43242
da	-8.43279
un	-8.43375
▁somewhere	-8.43611
▁cold	-8.4362
▁henry	-8.43904
be	-8.44073
▁ch	-8.44161
ance	-8.44399
▁weird	-8.44755
▁maam	-8.44776
▁buddy	-8.4505
▁mo	-8.45258
nk	-8.45324
▁husband	-8.45332
▁super	-8.454
de	-8.45587
▁dis	-8.456
go	-8.4574
▁seem	-8.45766
▁bill	-8.45863
▁ray	-8.45919
▁office	-8.45986
▁grunting	-8.46291
▁act	-8.4636
ac	-8.4638
per	-8.46479
▁grow	-8.46612
▁frank	-8.46651
ai	-8.4679
▁past	-8.4705
as	-8.47178
▁li	-8.47189
ga	-8.47305
▁per	-8.47357
▁si	-8.47423
▁sp	-8.47532
▁sense	-8.47676
▁finish	-8.48006
ca	-8.48062
ah	-8.48174
▁goddamn	-8.48269
▁richard	-8.48283
▁do	-8.48496
▁bo	-8.485
▁kidding	-8.48583
▁ground	-8.48867
▁singing	-8.4892
▁mad	-8.48938
▁boss	-8.49004
▁bear	-8.49134
▁mu	-8.49158
▁words	-8.49408
▁machine	-8.49469
▁dress	-8.49555
▁christmas	-8.49772
im	-8.50326
▁fault	-8.50378
▁jesus	-8.50381
▁slow	-8.50532
▁wear	-8.50971
nt	-8.51035
▁died	-8.51128
▁lts	-8.5119
▁fool	-8.51295
▁lead	-8.5151
▁become	-8.51603
▁fear	-8.51626
▁con	-8.51664
▁speaking	-8.51675
▁magic	-8.51676
va	-8.51757
▁pop	-8.52061
▁months	-8.5213
▁york	-8.52231
▁shell	-8.52323
▁over	-8.52345
▁pro	-8.5254
▁no	-8.52721
age	-8.52743
▁blow	-8.52824
▁ro	-8.5283
▁groans	-8.52844
▁strong	-8.52844
▁dark	-8.52918
▁wind	-8.53019
▁happening	-8.53075
▁amazing	-8.53469
▁whoo	-8.53519
▁peter	-8.53548
▁te	-8.53652
▁bell	-8.537
▁aah	-8.53835
▁boat	-8.53878
ow	-8.53884
▁charlie	-8.54099
▁theyve	-8.54416
▁pa	-8.54435
▁vi	-8.5454
ard	-8.54664
ba	-8.54674
▁present	-8.5469
▁handle	-8.55092
ha	-8.55122
▁da	-8.55517
▁join	-8.5558
▁eight	-8.55755
▁figure	-8.55945
▁radio	-8.56
▁absolutely	-8.56033
ci	-8.56172
▁ra	-8.56195
▁suppose	-8.5627
▁happens	-8.56726
▁return	-8.57066
▁none	-8.57173
▁deep	-8.57183
▁company	-8.5731
▁rather	-8.57322
▁mouth	-8.57335
tion	-8.5739
▁mmm	-8.57478
▁imagine	-8.57637
▁terrible	-8.57638
▁record	-8.57641
am	-8.5778
um	-8.57846
ey	-8.57852
▁darling	-8.57992
▁ba	-8.58055
▁mistake	-8.58295
▁cr	-8.58306
▁foot	-8.58359
▁officer	-8.58474
▁taken	-8.58595
▁honor	-8.58644
▁fat	-8.59273
▁future	-8.59287
▁proud	-8.59294
les	-8.593
▁window	-8.59641
▁cover	-8.598
▁others	-8.59955
▁surprise	-8.60234
▁enjoy	-8.60365
▁laugh	-8.6037
▁weeks	-8.60444
ts	-8.60554
▁camp	-8.60665
▁test	-8.60878
▁bomb	-8.60955
▁attack	-8.61078
▁mess	-8.61234
tic	-8.61487
▁evening	-8.61536
▁calm	-8.61794
▁charge	-8.61957
▁age	-8.61966
▁worth	-8.62011
▁smart	-8.62328
▁key	-8.62609
▁se	-8.62634
▁gold	-8.62635
▁protect	-8.62961
▁chicken	-8.63051
▁lunch	-8.63056
▁park	-8.63098
▁bang	-8.63422
▁band	-8.63515
▁v	-8.63596
▁jump	-8.63596
▁low	-8.63661
ted	-8.63757
▁prince	-8.63924
min	-8.63992
▁ga	-8.64038
▁date	-8.64106
▁needs	-8.64115
▁kick	-8.64225
op	-8.64343
▁tired	-8.64462
no	-8.64464
▁strange	-8.64735
▁computer	-8.64758
▁brain	-8.64918
he	-8.6494
▁expect	-8.65002
▁harry	-8.65111
▁dangerous	-8.65124
▁marry	-8.65141
ping	-8.65201
▁fix	-8.65283
▁box	-8.65451
▁anywhere	-8.65464
▁bar	-8.65666
▁grand	-8.65754
▁christ	-8.65938
po	-8.6596
▁explain	-8.66174
▁tough	-8.66534
▁hungry	-8.66548
▁soul	-8.66581
▁an	-8.66671
▁wild	-8.66721
▁miles	-8.66785
▁choice	-8.6689
▁forever	-8.66894
▁alright	-8.66894
▁mar	-8.67008
ot	-8.67044
▁ring	-8.67229
▁round	-8.67257
▁art	-8.67351
▁ice	-8.67357
out	-8.6741
▁paul	-8.68015
▁begin	-8.68432
▁hed	-8.68702
▁meant	-8.6899
▁building	-8.69116
▁near	-8.69315
ish	-8.69317
▁busy	-8.69333
▁coffee	-8.69435
▁bag	-8.69491
▁bird	-8.6958
▁wh	-8.69584
bo	-8.69585
▁suit	-8.69723
▁horn	-8.70199
▁turned	-8.70208
if	-8.70211
▁evil	-8.70308
▁trick	-8.70574
▁loved	-8.706
▁t	-8.70744
▁lie	-8.70746
▁teach	-8.70812
▁hundred	-8.7092
▁middle	-8.71294
▁island	-8.71295
▁born	-8.71358
▁duck	-8.71419
▁river	-8.71689
time	-8.71732
▁hide	-8.71825
em	-8.71941
▁pre	-8.71943
▁tom	-8.71972
▁system	-8.72048
▁picture	-8.7217
▁entire	-8.72256
▁tree	-8.72378
▁jim	-8.72509
▁meeting	-8.72769
▁pain	-8.72807
▁j	-8.72978
▁asking	-8.72998
ure	-8.73133
ee	-8.73162
▁known	-8.73185
▁queen	-8.73279
▁table	-8.73298
▁el	-8.73337
▁longer	-8.73448
▁changed	-8.73466
▁looked	-8.73503
▁simple	-8.73571
▁felt	-8.73572
▁outta	-8.73598
▁worked	-8.73675
▁early	-8.73689
▁army	-8.73853
▁service	-8.73956
▁wa	-8.73956
▁worse	-8.73956
▁forgive	-8.73956
ary	-8.7405
▁certainly	-8.74084
di	-8.74163
ated	-8.74204
▁pleasure	-8.74342
▁tight	-8.7435
▁cute	-8.74489
▁sad	-8.74522
▁relax	-8.7473
▁hotel	-8.74838
▁fit	-8.74997
▁less	-8.75135
om	-8.75276
▁sa	-8.75343
▁sell	-8.75371
▁summer	-8.75512
▁visit	-8.75513
▁unless	-8.75602
ke	-8.7573
▁goin	-8.75756
▁fred	-8.76001
▁calling	-8.76083
▁forgot	-8.76283
▁english	-8.76295
▁pray	-8.76299
▁cry	-8.76321
▁space	-8.76324
▁trip	-8.76454
▁heh	-8.76539
▁grab	-8.76698
▁mmhmm	-8.7671
▁knock	-8.76711
▁pig	-8.76745
▁z	-8.77087
▁attention	-8.77087
▁possible	-8.77087
▁saved	-8.77126
▁dan	-8.77327
▁quit	-8.77415
▁va	-8.77517
▁hat	-8.77647
▁ca	-8.77677
▁shh	-8.77817
▁caught	-8.77889
ki	-8.78032
▁moon	-8.7851
▁state	-8.78688
▁north	-8.7869
▁favorite	-8.78703
▁message	-8.78714
▁shouting	-8.78828
▁ran	-8.78891
que	-8.78954
▁u	-8.78965
▁french	-8.79095
▁wedding	-8.791
ni	-8.79374
▁share	-8.79791
▁werent	-8.7991
▁screams	-8.79956
▁destroy	-8.80164
▁mark	-8.80273
▁papa	-8.80337
▁joke	-8.80385
▁given	-8.80624
▁birthday	-8.80734
▁wash	-8.80789
by	-8.80884
▁fell	-8.81102
▁floor	-8.81145
pe	-8.81287
▁holy	-8.81566
▁upon	-8.81589
▁bank	-8.81725
▁giving	-8.81984
▁lock	-8.81993
▁stuck	-8.82405
mp	-8.82419
▁tea	-8.82537
▁princess	-8.82558
▁lay	-8.82774
▁accident	-8.82806
▁forward	-8.82817
▁faster	-8.83032
▁spend	-8.83071
▁afternoon	-8.83237
▁spot	-8.83243
▁questions	-8.83589
▁nine	-8.83804
▁cook	-8.83864
▁pi	-8.83886
▁animals	-8.83923
▁cross	-8.83985
▁american	-8.84016
▁swear	-8.84086
▁dreams	-8.84174
▁hole	-8.84413
▁reach	-8.84418
▁mm	-8.84468
▁flying	-8.84477
▁carry	-8.84534
▁plane	-8.84551
▁dave	-8.84687
▁rich	-8.84864
▁rose	-8.84918
and	-8.85214
▁quickly	-8.85251
▁pas	-8.85323
▁race	-8.85432
▁taste	-8.85542
▁engine	-8.8565
▁to	-8.85737
▁fi	-8.85741
ill	-8.8591
▁respect	-8.86251
▁carl	-8.8631
▁ver	-8.8654
led	-8.86574
▁football	-8.86689
▁agent	-8.86715
▁r	-8.86956
▁except	-8.87064
▁brave	-8.87216
▁missed	-8.8723
▁shake	-8.87279
▁aunt	-8.8741
▁hu	-8.87417
ad	-8.87417
▁out	-8.87516
▁nose	-8.87662
▁board	-8.87757
▁dig	-8.87819
▁yesterday	-8.88
▁fl	-8.88073
▁lucy	-8.8808
▁broken	-8.88149
▁gift	-8.8845
▁h	-8.88536
▁names	-8.88802
▁history	-8.88891
▁idiot	-8.88892
▁lo	-8.89028
line	-8.89274
▁scott	-8.89339
▁south	-8.89339
▁david	-8.89341
▁cop	-8.89362
▁wall	-8.89404
ator	-8.89423
▁travel	-8.89639
▁offer	-8.89742
ating	-8.8982
ii	-8.89927
▁boo	-8.9005
▁shadow	-8.90242
▁hero	-8.90286
▁leg	-8.903
▁murder	-8.90452
io	-8.90554
▁across	-8.90696
▁hasnt	-8.90701
▁tv	-8.9078
▁single	-8.90881
▁arm	-8.90944
▁beer	-8.91269
ley	-8.91313
▁broke	-8.91493
▁third	-8.91612
land	-8.91656
▁fr	-8.91688
▁sex	-8.91777
▁chip	-8.91833
mon	-8.91997
▁clothes	-8.92092
▁seat	-8.92162
ps	-8.92203
▁pal	-8.92337
▁ja	-8.92473
▁thousand	-8.9258
▁cla	-8.92623
▁ex	-8.92629
▁nick	-8.92653
▁stone	-8.9269
ag	-8.92804
▁hall	-8.92813
wa	-8.92965
▁michael	-8.93001
▁jamie	-8.93058
ec	-8.93208
▁ii	-8.93231
▁standing	-8.93291
way	-8.93302
▁form	-8.93361
▁pe	-8.93369
ster	-8.93392
▁uhhuh	-8.9347
▁spell	-8.93479
▁sky	-8.93689
▁que	-8.9378
▁bus	-8.93851
▁college	-8.93937
▁worried	-8.93937
▁dollars	-8.93972
▁sake	-8.93987
che	-8.94002
ru	-8.94065
▁gene	-8.94295
▁truck	-8.94416
▁club	-8.94417
▁me	-8.94425
▁butt	-8.94446
▁action	-8.94543
▁ju	-8.94571
▁wearing	-8.94859
▁chief	-8.94883
▁ne	-8.9513
▁ve	-8.95264
▁appreciate	-8.95359
▁kitchen	-8.95359
▁rid	-8.95476
▁lt	-8.95518
▁warm	-8.95595
▁works	-8.95657
▁eh	-8.95695
▁ri	-8.95772
▁sh	-8.95779
▁definitely	-8.95838
▁howard	-8.95851
▁bunch	-8.95865
▁sitting	-8.95945
▁animal	-8.96021
▁normal	-8.96189
▁dare	-8.96218
▁finished	-8.96271
▁pen	-8.96307
▁mommy	-8.96353
fi	-8.96641
you	-8.96655
▁bother	-8.96696
▁ar	-8.9679
▁area	-8.96812
▁mike	-8.96813
▁beach	-8.96836
▁realize	-8.96967
▁egg	-8.97021
dy	-8.97148
ner	-8.97153
▁cow	-8.97164
▁promised	-8.97209
▁hill	-8.9722
▁map	-8.97278
▁grandma	-8.9746
▁fo	-8.97612
ick	-8.97649
nce	-8.97655
ny	-8.97678
ip	-8.97695
▁spirit	-8.97771
▁congratulations	-8.97775
▁watching	-8.97816
os	-8.97855
▁letter	-8.97857
▁cal	-8.97978
pa	-8.97979
▁witch	-8.9817
▁mission	-8.98268
▁track	-8.9827
▁ad	-8.98503
▁monster	-8.98552
▁yep	-8.98837
pp	-8.98999
ten	-8.99114
▁security	-8.99253
▁group	-8.99261
▁gal	-8.99301
men	-8.99403
▁instead	-8.9975
tor	-8.99858
we	-8.99892
▁vo	-8.99905
▁rain	-8.99944
▁ab	-8.99978
▁america	-9.00042
▁charles	-9.0025
▁doubt	-9.0025
▁smile	-9.00257
▁interesting	-9.00594
▁suck	-9.00644
▁kept	-9.00753
▁pet	-9.0092
▁owe	-9.0095
▁impossible	-9.01258
▁ybi	-9.01264
one	-9.01704
▁fa	-9.01723
▁price	-9.01772
▁paid	-9.01808
▁billy	-9.01839
▁certain	-9.02106
▁breakfast	-9.02276
▁double	-9.02276
▁practice	-9.02276
▁court	-9.02276
▁totally	-9.02367
▁james	-9.0237
▁am	-9.02528
▁woods	-9.02602
▁aw	-9.02764
▁all	-9.03039
▁missing	-9.03194
ph	-9.032
▁heaven	-9.03264
▁store	-9.03332
▁bi	-9.03455
▁yall	-9.03462
▁besides	-9.03505
▁mon	-9.03534
▁doin	-9.03566
▁sta	-9.03705
▁brothers	-9.03734
▁bro	-9.0382
▁situation	-9.03822
▁colonel	-9.03828
▁remind	-9.03934
▁lll	-9.04128
▁moved	-9.04198
red	-9.04342
▁major	-9.04343
▁throat	-9.04343
▁speed	-9.04346
▁airport	-9.04354
▁comp	-9.04362
ach	-9.04363
▁paper	-9.04364
▁position	-9.04386
▁decided	-9.04571
▁station	-9.04616
▁books	-9.04631
▁bat	-9.04642
▁peace	-9.0468
▁ed	-9.04887
king	-9.04915
▁card	-9.04944
▁dale	-9.05033
▁pat	-9.05051
▁cap	-9.0509
▁needed	-9.05203
▁build	-9.05323
▁dorothy	-9.05393
uc	-9.05429
▁rule	-9.05437
▁dogs	-9.05544
unt	-9.0555
head	-9.05654
▁san	-9.05818
▁shoes	-9.05874
▁pardon	-9.05922
▁mountain	-9.05965
▁completely	-9.06068
▁talked	-9.06082
▁er	-9.06221
mi	-9.06231
▁joel	-9.06282
▁glass	-9.06341
▁experience	-9.06454
▁neither	-9.06454
▁whistle	-9.06454
▁ernie	-9.06454
▁giant	-9.06474
▁bri	-9.06533
▁gosh	-9.06608
▁fe	-9.0689
▁public	-9.06988
▁drunk	-9.06989
▁contact	-9.07003
▁stopped	-9.07154
▁cell	-9.07164
mm	-9.0724
▁camera	-9.07273
▁teacher	-9.07467
ze	-9.07517
▁program	-9.07529
ite	-9.07546
▁fellow	-9.07552
▁folks	-9.07592
▁west	-9.07708
ped	-9.07891
▁lawyer	-9.08071
▁sword	-9.08075
▁block	-9.0809
▁continue	-9.08207
▁mate	-9.08225
▁cats	-9.08275
ize	-9.08279
▁learned	-9.0829
▁ought	-9.08436
▁brown	-9.08506
lin	-9.08513
▁prove	-9.08549
ig	-9.08593
▁breath	-9.08598
▁excellent	-9.0861
▁cheese	-9.08611
▁color	-9.08611
▁treat	-9.08708
▁movie	-9.08763
▁month	-9.08838
ng	-9.0913
▁truly	-9.09198
▁personal	-9.09209
▁smurf	-9.0933
ving	-9.09417
▁force	-9.09482
▁nervous	-9.09706
▁battle	-9.09706
▁andrew	-9.09734
▁horses	-9.09738
▁risk	-9.09903
▁sam	-9.1
▁final	-9.10157
▁dumb	-9.10272
▁sight	-9.10294
▁fighting	-9.10413
▁be	-9.10433
▁belong	-9.1048
▁qu	-9.10536
▁eggs	-9.10562
▁cia	-9.10656
▁honest	-9.10664
▁awesome	-9.10814
▁wrote	-9.10814
▁bright	-9.10824
gen	-9.10841
▁guard	-9.11102
▁chattering	-9.11219
▁extra	-9.11378
▁eating	-9.11537
▁escape	-9.11541
▁lived	-9.11589
▁cream	-9.11935
▁smoke	-9.11935
▁crack	-9.11947
▁bobby	-9.11973
▁feed	-9.12076
▁locked	-9.12136
▁list	-9.122
▁ti	-9.1234
hi	-9.12345
bu	-9.12435
▁church	-9.12486
▁consider	-9.12499
▁cake	-9.12545
▁seeing	-9.1255
▁mor	-9.12562
▁arms	-9.12581
▁dick	-9.12597
fe	-9.12617
▁doug	-9.12784
▁tony	-9.12808
▁named	-9.12995
▁rules	-9.13047
▁london	-9.13068
▁professor	-9.13068
▁beast	-9.13093
▁louise	-9.1313
▁indistinct	-9.1347
▁he	-9.13563
▁dancing	-9.13658
▁everywhere	-9.13663
▁partner	-9.13702
com	-9.13709
▁growling	-9.13709
▁sn	-9.13723
▁sc	-9.13766
▁mud	-9.14029
ler	-9.14053
▁match	-9.14134
▁fresh	-9.14181
▁hospital	-9.14214
▁panting	-9.14238
▁greatest	-9.14265
▁max	-9.14279
▁dat	-9.14417
▁sha	-9.14471
ens	-9.14616
▁twice	-9.14792
▁legs	-9.14849
▁shine	-9.14907
▁corner	-9.15039
▁crying	-9.15095
▁where	-9.15216
▁can	-9.15319
▁post	-9.15326
▁upset	-9.15374
▁garden	-9.15378
▁or	-9.15413
▁cash	-9.15424
▁dirty	-9.15523
▁seconds	-9.15691
▁monkey	-9.15963
▁information	-9.15973
▁large	-9.15976
▁burn	-9.1598
▁rat	-9.16374
kin	-9.16413
▁account	-9.16546
▁bottom	-9.16546
▁difference	-9.16546
▁strike	-9.16546
▁tail	-9.16585
▁forest	-9.16625
▁starting	-9.1668
▁agree	-9.16705
▁cup	-9.16736
▁sw	-9.16994
▁draw	-9.17008
▁ka	-9.1708
▁score	-9.17156
▁gu	-9.17178
▁code	-9.17344
▁ohh	-9.17374
tra	-9.17455
▁loud	-9.17461
▁ahh	-9.1747
▁favor	-9.17716
▁app	-9.17718
▁steal	-9.1773
▁private	-9.17733
▁tall	-9.17739
▁silly	-9.17741
▁jail	-9.1791
▁upstairs	-9.18332
▁crime	-9.18333
▁deserve	-9.18934
▁dying	-9.18941
▁main	-9.18942
▁pack	-9.19017
▁whose	-9.19022
▁danger	-9.19052
▁command	-9.19084
▁pie	-9.19383
▁worst	-9.19541
▁nowhere	-9.19545
▁judge	-9.19546
▁ge	-9.19605
ier	-9.19657
▁note	-9.19702
der	-9.19753
▁interested	-9.19936
▁ridiculous	-9.2015
▁scene	-9.20151
▁beauty	-9.20155
▁buzz	-9.20161
ass	-9.20251
▁figured	-9.20279
▁center	-9.20296
▁player	-9.2043
the	-9.20498
▁complete	-9.20595
▁especially	-9.20764
▁devil	-9.20764
ise	-9.20765
▁girlfriend	-9.20781
▁cops	-9.20906
▁mention	-9.20935
▁prison	-9.21013
▁cost	-9.21044
▁press	-9.21135
▁seriously	-9.2115
ger	-9.21221
▁planet	-9.21327
▁kingdom	-9.21381
▁search	-9.21399
our	-9.21402
ming	-9.2142
▁russian	-9.21452
▁bigger	-9.21506
▁fill	-9.21611
▁killing	-9.2179
ina	-9.21888
▁walking	-9.2197
▁pan	-9.2198
▁blind	-9.22003
▁phil	-9.22015
▁roger	-9.22025
▁grace	-9.22026
▁cest	-9.22195
▁awful	-9.22485
▁non	-9.22582
▁rabbit	-9.22627
▁chitty	-9.22627
▁accept	-9.22685
▁obviously	-9.22693
end	-9.22792
▁howd	-9.22922
▁united	-9.22937
▁freak	-9.22948
ious	-9.22983
▁yard	-9.23261
▁goodness	-9.23289
▁neck	-9.23301
▁bridge	-9.23318
▁tour	-9.23338
▁harm	-9.23354
▁stage	-9.23373
▁played	-9.23515
her	-9.23595
▁bu	-9.23695
cy	-9.23718
▁gas	-9.23799
ka	-9.23869
▁language	-9.23889
▁sheriff	-9.23889
▁support	-9.2389
▁kitty	-9.23901
▁spring	-9.23911
▁spent	-9.23947
▁birds	-9.23987
▁puss	-9.24263
▁breathe	-9.24503
▁excited	-9.24526
▁teddy	-9.24543
▁bite	-9.24555
▁gi	-9.24591
▁lying	-9.24602
▁states	-9.24676
▁rev	-9.24798
ome	-9.24946
▁ik	-9.25001
▁hook	-9.25008
▁soft	-9.25018
ism	-9.25064
▁restaurant	-9.25167
▁nope	-9.252
mer	-9.25408
▁farm	-9.25764
▁savage	-9.25812
▁kelly	-9.25815
▁pants	-9.25845
▁mister	-9.25978
▁wondering	-9.26167
▁nothin	-9.26322
▁banks	-9.26328
▁tie	-9.26345
ial	-9.26353
▁heavy	-9.26462
▁village	-9.26462
▁walter	-9.26462
▁indeed	-9.26463
▁incredible	-9.26522
▁huge	-9.26878
▁madam	-9.26913
▁shed	-9.27056
▁william	-9.27115
▁flight	-9.2714
▁gate	-9.27362
▁yelling	-9.27424
▁ze	-9.27607
▁built	-9.27773
▁robot	-9.27785
▁josh	-9.27801
▁bath	-9.27901
▁bra	-9.27978
▁file	-9.28026
▁angel	-9.28167
ay	-9.28258
▁hung	-9.28431
▁shouldve	-9.28435
▁sweetheart	-9.28435
▁thunder	-9.28435
▁groaning	-9.28435
▁remain	-9.28436
▁nature	-9.28437
▁bought	-9.28494
▁mi	-9.28686
▁wizard	-9.29106
▁noise	-9.29125
tch	-9.29192
▁bike	-9.29337
qui	-9.29523
▁leader	-9.29546
▁yi	-9.29743
▁champion	-9.29786
▁skin	-9.2999
▁couldve	-9.30021
▁listening	-9.3028
ug	-9.30307
▁government	-9.30449
▁plenty	-9.30449
▁friday	-9.30451
▁swim	-9.30462
▁taught	-9.30496
▁royal	-9.30525
▁meat	-9.30624
▁killer	-9.30748
▁qui	-9.30994
▁collect	-9.31074
▁majesty	-9.31129
off	-9.3121
▁wheel	-9.31274
▁size	-9.31293
▁allow	-9.31295
ring	-9.31303
down	-9.31334
▁les	-9.314
rn	-9.31401
▁lion	-9.31469
▁sla	-9.3148
▁beg	-9.31561
▁picked	-9.31573
tu	-9.3169
ord	-9.31756
▁paint	-9.31788
▁kurt	-9.31814
▁raise	-9.32134
▁teeth	-9.32504
▁alarm	-9.32513
▁ni	-9.32576
▁lift	-9.32615
▁barking	-9.32794
▁sch	-9.32818
▁condition	-9.33198
▁chef	-9.33236
▁castle	-9.33264
▁paris	-9.33345
▁lake	-9.33357
▁milk	-9.33374
ign	-9.33383
▁fan	-9.33435
▁base	-9.33544
▁bl	-9.33582
▁ducks	-9.33731
▁difficult	-9.33897
▁admit	-9.33897
▁driving	-9.33897
▁within	-9.33897
▁theyd	-9.33899
▁blame	-9.33921
▁heads	-9.34023
▁stars	-9.34046
▁losing	-9.34193
▁closer	-9.34279
▁quarter	-9.34593
▁department	-9.34607
▁robert	-9.34613
▁adam	-9.3463
▁pool	-9.34685
ade	-9.3483
▁loose	-9.34896
bi	-9.34978
▁wet	-9.34987
▁allowed	-9.35189
▁somehow	-9.35311
▁choose	-9.35311
▁address	-9.35318
▁thatll	-9.35319
▁season	-9.35396
▁crash	-9.35423
▁gotten	-9.35529
▁tr	-9.35735
▁cos	-9.35746
▁julie	-9.3591
ball	-9.35954
▁comrade	-9.36025
▁conversation	-9.36025
▁marriage	-9.36025
▁au	-9.36249
vis	-9.36712
▁bullshit	-9.36744
▁whatd	-9.36746
▁immediately	-9.36786
ide	-9.36856
▁spy	-9.36865
ally	-9.3688
▁shop	-9.36917
▁enter	-9.37011
▁cha	-9.37037
▁east	-9.37157
▁path	-9.37239
ven	-9.37245
▁pl	-9.37321
▁operation	-9.37475
▁stink	-9.37476
▁sold	-9.37497
▁bon	-9.37576
▁ce	-9.37801
▁waste	-9.37808
▁heat	-9.37866
day	-9.37884
▁liked	-9.37914
▁fellas	-9.3795
▁problems	-9.38016
▁wine	-9.38167
▁chair	-9.38176
▁nuts	-9.38177
▁correct	-9.38199
▁fantastic	-9.38199
▁georgie	-9.38199
▁angry	-9.38199
▁ugly	-9.382
▁holding	-9.3824
▁tor	-9.38326
▁type	-9.3835
▁we	-9.38387
nd	-9.38508
▁settle	-9.38544
ron	-9.38765
▁cur	-9.38901
▁beyond	-9.38934
▁weather	-9.38934
▁bottle	-9.38935
▁pete	-9.3894
▁ant	-9.38942
▁often	-9.38946
▁beginning	-9.38951
▁christian	-9.3898
▁surprised	-9.39057
▁fired	-9.39179
▁games	-9.3923
▁organ	-9.3933
▁orders	-9.39379
▁suggest	-9.3962
▁hadnt	-9.39676
▁prefer	-9.39683
den	-9.39707
▁fu	-9.39958
ations	-9.40003
▁plant	-9.40328
▁discuss	-9.40367
od	-9.40408
▁decision	-9.40421
▁emergency	-9.40421
▁purpose	-9.40421
▁rescue	-9.40421
▁arthur	-9.40421
▁washington	-9.40422
▁cousin	-9.40422
▁higher	-9.40438
▁par	-9.40673
▁training	-9.40679
▁putting	-9.40834
board	-9.40878
▁prepare	-9.4103
car	-9.41132
▁speech	-9.41173
▁empty	-9.41173
▁sassy	-9.41174
▁ease	-9.41177
▁focus	-9.41177
▁yellow	-9.41185
▁il	-9.41214
▁lesson	-9.41436
▁mil	-9.41673
▁ringing	-9.41679
▁kim	-9.41874
▁level	-9.41959
▁plus	-9.41977
▁port	-9.41999
▁usually	-9.42031
back	-9.42267
▁martin	-9.42405
▁flowers	-9.42446
▁apart	-9.42654
za	-9.42665
▁staying	-9.42668
▁sergeant	-9.42694
▁writing	-9.42694
▁bathroom	-9.427
▁hubie	-9.42702
▁bread	-9.42706
▁comment	-9.42717
▁snow	-9.42721
▁mighty	-9.42872
▁arrest	-9.42912
con	-9.42954
▁hardly	-9.43123
▁ye	-9.43169
▁lights	-9.43189
▁butter	-9.43236
▁due	-9.43306
▁rec	-9.4338
▁pretend	-9.4347
▁dry	-9.4351
▁scare	-9.43676
▁arrived	-9.43718
▁frog	-9.4383
▁keys	-9.43966
▁tro	-9.44056
side	-9.44095
▁add	-9.44157
▁strength	-9.44239
▁whether	-9.44239
▁sharp	-9.44242
▁witness	-9.44254
▁asshole	-9.44257
▁flip	-9.44272
▁hiding	-9.44274
▁pin	-9.44288
▁lf	-9.443
▁hanging	-9.44411
aw	-9.44464
ound	-9.44611
▁serve	-9.44638
▁feels	-9.44641
▁plans	-9.44696
ship	-9.44742
▁dressed	-9.44922
▁faith	-9.44936
▁miracle	-9.4502
▁repeat	-9.45021
▁candy	-9.45039
▁dump	-9.45084
▁et	-9.45131
▁climb	-9.45202
▁ghost	-9.45281
▁sub	-9.45318
ble	-9.45362
iy	-9.4547
house	-9.45553
ium	-9.45565
▁film	-9.45808
▁project	-9.45811
▁grandpa	-9.45837
▁chi	-9.45871
sta	-9.45888
▁babe	-9.45907
▁hut	-9.46023
▁tim	-9.46082
▁sweetie	-9.46198
▁flower	-9.46314
▁kinda	-9.46371
▁twenty	-9.46597
▁defense	-9.46601
▁knight	-9.46601
▁motherfucker	-9.46601
▁sugar	-9.46601
▁patient	-9.46607
▁crap	-9.46612
▁rush	-9.46636
ak	-9.46649
▁exist	-9.46656
▁stranger	-9.46661
▁weight	-9.46728
▁destroyed	-9.46905
▁x	-9.46929
▁bull	-9.4696
▁ear	-9.46986
lu	-9.47075
▁jay	-9.47182
▁trees	-9.47219
▁steve	-9.47252
hu	-9.47259
▁wolf	-9.47352
▁wood	-9.47393
▁england	-9.47401
▁memory	-9.47411
▁tommy	-9.47411
▁sunday	-9.4743
▁fbi	-9.47434
▁mayor	-9.47509
val	-9.4755
▁aye	-9.47641
▁of	-9.47669
▁ding	-9.47691
ized	-9.47751
▁page	-9.47757
▁guest	-9.47818
▁kay	-9.47892
▁su	-9.47892
▁showed	-9.48047
▁deliver	-9.48114
▁sin	-9.48159
▁alex	-9.48208
▁self	-9.48244
▁shame	-9.48252
▁france	-9.48272
▁laughter	-9.48322
▁eric	-9.48539
▁curse	-9.4856
▁ru	-9.48597
ress	-9.48697
field	-9.48731
gh	-9.48763
q	-9.48948
ight	-9.48975
lle	-9.49005
▁nightmare	-9.49021
▁dawn	-9.49021
▁switch	-9.49025
▁toast	-9.49026
▁mouse	-9.49046
▁bullet	-9.4906
▁weekend	-9.49063
▁term	-9.49064
▁vote	-9.49079
▁german	-9.49107
▁drum	-9.49116
▁national	-9.49122
▁spit	-9.49204
▁gee	-9.49205
ning	-9.49214
▁crown	-9.4927
▁pitch	-9.49281
▁grade	-9.4931
▁joy	-9.49313
▁lots	-9.4938
▁notice	-9.49449
▁ruin	-9.49468
▁ton	-9.4959
▁chatter	-9.49708
▁became	-9.4984
▁genius	-9.4984
▁jeremy	-9.4984
▁stories	-9.4984
▁lonely	-9.49841
▁tongue	-9.49845
▁snap	-9.49864
▁judy	-9.49864
▁ugh	-9.49959
▁involved	-9.49995
▁tip	-9.50017
rate	-9.50096
▁gl	-9.50185
▁sal	-9.50224
▁carol	-9.50291
ub	-9.50341
▁nail	-9.50348
▁freedom	-9.50667
▁view	-9.50667
▁luther	-9.50674
▁pressure	-9.50689
▁apartment	-9.5071
▁passed	-9.50746
▁boom	-9.50761
▁den	-9.50817
▁button	-9.5086
gi	-9.5087
tan	-9.51026
▁op	-9.51188
ake	-9.51208
ft	-9.51353
▁bowl	-9.51358
▁loser	-9.51378
▁famous	-9.515
▁steady	-9.515
▁enemy	-9.515
▁crew	-9.51501
▁linda	-9.51501
▁chuckling	-9.51516
▁gather	-9.51517
▁sleeping	-9.51538
ea	-9.51639
▁reading	-9.51691
▁pour	-9.51709
▁lu	-9.51753
▁ticket	-9.52053
ev	-9.52101
▁bee	-9.52163
ez	-9.52224
fl	-9.52225
▁mis	-9.52319
▁saturday	-9.5234
▁science	-9.5234
▁spanish	-9.5234
▁alvin	-9.52341
▁director	-9.5239
▁lad	-9.52476
▁lve	-9.52554
▁gary	-9.52759
▁survive	-9.52793
▁baker	-9.52809
▁woo	-9.53138
▁swing	-9.53192
▁trade	-9.53207
▁gra	-9.53296
low	-9.53389
▁up	-9.53396
▁sat	-9.53466
ab	-9.53485
▁gasping	-9.53492
▁hunt	-9.53495
ude	-9.535
ob	-9.53823
▁bless	-9.5386
▁rings	-9.53958
▁han	-9.54014
▁asleep	-9.54042
▁courage	-9.54042
▁pocket	-9.54042
▁papers	-9.54059
▁heck	-9.54084
▁cock	-9.54126
▁pink	-9.54151
▁freeze	-9.54161
▁pee	-9.5419
oh	-9.54228
▁commander	-9.54664
jo	-9.54685
▁male	-9.54687
▁marshal	-9.54689
▁stu	-9.54702
▁jellicle	-9.54904
▁byebye	-9.54905
▁cloud	-9.5491
▁boyfriend	-9.54937
▁helping	-9.54975
▁falling	-9.55003
▁bloody	-9.55084
▁disappear	-9.55204
▁invited	-9.55236
▁bucks	-9.55284
▁for	-9.55327
▁opening	-9.55342
ible	-9.55367
▁breaking	-9.55457
▁sand	-9.55489
▁interest	-9.55518
▁using	-9.55533
▁bastard	-9.55582
▁finger	-9.55608
▁cons	-9.5571
▁brilliant	-9.55774
▁sophie	-9.55774
▁written	-9.55774
▁tower	-9.55775
▁desert	-9.55777
▁older	-9.55787
▁roof	-9.55792
▁breathing	-9.5586
▁het	-9.5605
▁nah	-9.56061
ok	-9.56075
▁ate	-9.56137
▁rope	-9.56317
▁humans	-9.56514
▁tri	-9.56532
▁comin	-9.56575
nder	-9.56634
▁taylor	-9.56651
▁sail	-9.56679
▁jason	-9.56698
▁closed	-9.56725
▁winner	-9.5673
▁suddenly	-9.56764
▁manage	-9.56913
▁wouldve	-9.57032
▁nearly	-9.57059
▁under	-9.57084
▁rap	-9.57209
▁plays	-9.57269
▁following	-9.57503
gle	-9.57511
▁apologize	-9.57536
▁brenda	-9.57536
▁ellie	-9.57549
▁cooper	-9.57551
▁square	-9.5757
▁dropped	-9.57576
▁whispering	-9.57622
▁scream	-9.57732
▁grant	-9.57839
▁barn	-9.57866
▁een	-9.57938
▁ac	-9.58026
▁decide	-9.58039
▁toy	-9.58095
▁inc	-9.58164
ther	-9.58255
book	-9.58284
▁pizza	-9.58429
▁ocean	-9.58429
▁simply	-9.58429
▁local	-9.58429
▁split	-9.5843
▁target	-9.58431
▁rep	-9.58442
▁sara	-9.58474
▁storm	-9.58481
▁market	-9.58519
rk	-9.58584
▁beeping	-9.58615
▁lee	-9.58712
▁wings	-9.58731
▁bud	-9.58788
▁rise	-9.59154
▁pok	-9.59283
▁evidence	-9.5933
▁thomas	-9.5933
▁jerry	-9.5933
▁susan	-9.59332
▁quack	-9.59341
▁wilma	-9.59356
▁peach	-9.59398
▁powerful	-9.59441
▁plate	-9.59477
▁everythings	-9.59715
▁turning	-9.59728
▁fail	-9.59734
ov	-9.59748
▁load	-9.59833
▁shooting	-9.59892
▁est	-9.59901
▁stole	-9.60091
▁rent	-9.60169
▁mc	-9.60187
▁journey	-9.60239
▁sneak	-9.60239
▁growls	-9.60252
▁tank	-9.6069
▁introduce	-9.60762
▁ears	-9.60864
▁expecting	-9.60878
▁blows	-9.60911
ker	-9.60933
▁sale	-9.6095
▁che	-9.6102
ud	-9.61117
▁defend	-9.61132
▁criminal	-9.61156
▁terrific	-9.61156
▁uniform	-9.61156
▁property	-9.6118
▁johnny	-9.61249
▁greg	-9.61256
ute	-9.6126
▁min	-9.61283
▁mail	-9.61307
▁marshall	-9.61386
ang	-9.61553
▁ian	-9.61862
▁advice	-9.62082
▁clever	-9.62082
▁threw	-9.62083
▁foreign	-9.62086
▁shark	-9.62094
tro	-9.621
▁reporter	-9.62141
▁zone	-9.62167
ell	-9.62229
▁calls	-9.62291
▁starts	-9.62339
▁honestly	-9.62367
▁scar	-9.62418
▁jean	-9.62499
ack	-9.6254
▁jane	-9.62599
▁pictures	-9.62712
▁exclaims	-9.62745
▁perfectly	-9.62986
▁nurse	-9.62987
▁weak	-9.63008
▁someday	-9.63017
▁committee	-9.63017
▁opinion	-9.63017
▁regret	-9.63017
▁valley	-9.63017
▁tiger	-9.63036
▁launch	-9.63041
ui	-9.63056
▁student	-9.63101
ative	-9.63225
▁willing	-9.63381
▁guns	-9.63792
ita	-9.63917
▁perform	-9.63939
▁seemed	-9.63947
▁exciting	-9.6396
▁female	-9.6396
▁biggest	-9.63962
▁nerve	-9.63964
▁unbelievable	-9.63975
▁onto	-9.63988
▁handsome	-9.64018
▁wire	-9.6402
▁clock	-9.64028
▁acting	-9.64032
▁cu	-9.64054
▁duty	-9.64054
▁uhoh	-9.6413
▁chain	-9.64224
▁hum	-9.64235
▁thee	-9.64297
▁ph	-9.64409
▁bond	-9.64501
▁metal	-9.64533
ong	-9.64589
ical	-9.64619
▁fathers	-9.64727
▁somethin	-9.64772
ries	-9.64851
▁juni	-9.64865
▁elephant	-9.64913
▁harold	-9.64913
▁eagle	-9.64913
▁spread	-9.64921
▁common	-9.64956
▁weapon	-9.65076
▁tiny	-9.6514
▁bust	-9.65145
ko	-9.65229
▁screw	-9.65303
▁cooking	-9.65312
can	-9.65455
▁bow	-9.65461
▁lies	-9.65536
▁health	-9.65575
▁fin	-9.65608
▁feelings	-9.65613
▁thy	-9.6572
▁total	-9.65746
use	-9.65778
fully	-9.65812
▁nu	-9.65853
▁audience	-9.65874
▁whoever	-9.65874
▁lewis	-9.65874
▁afford	-9.65877
▁granny	-9.65878
▁snake	-9.65887
▁ke	-9.6596
ned	-9.66064
▁off	-9.66243
▁wave	-9.66284
bil	-9.66444
ump	-9.66481
▁dads	-9.6652
▁the	-9.66677
▁contract	-9.66845
▁recognize	-9.66845
▁vacation	-9.66845
▁trash	-9.66845
▁merry	-9.66846
▁subject	-9.66847
▁kiki	-9.66858
▁shock	-9.66881
▁keeping	-9.66927
▁soup	-9.66946
▁according	-9.66966
▁circle	-9.66966
▁moo	-9.67002
▁member	-9.67121
▁shape	-9.67311
▁gar	-9.67424
▁juli	-9.67449
▁copy	-9.6759
▁natural	-9.67654
ook	-9.67745
▁knife	-9.67825
▁penguin	-9.67825
▁sacrifice	-9.67825
▁issue	-9.67826
▁karen	-9.67826
▁lucas	-9.6784
▁flat	-9.6786
▁potter	-9.67867
▁claim	-9.6787
▁rough	-9.67877
▁iron	-9.67905
▁safety	-9.67969
▁doors	-9.6801
of	-9.68085
▁creature	-9.68103
▁pound	-9.6814
▁blast	-9.68176
▁boots	-9.68334
ney	-9.68451
▁she	-9.68467
▁hoping	-9.6852
▁dom	-9.68555
▁pipe	-9.686
▁harder	-9.68668
▁indian	-9.68715
▁energy	-9.68816
▁shower	-9.68837
▁saving	-9.68845
ep	-9.68856
▁dragon	-9.68882
▁began	-9.68887
hoo	-9.68895
▁tickets	-9.69176
▁study	-9.69227
▁release	-9.69421
▁don	-9.69526
▁weapons	-9.69644
▁fran	-9.69734
▁ty	-9.69738
fa	-9.69808
▁distance	-9.69816
▁poison	-9.69816
▁priest	-9.69836
▁comfortable	-9.69842
▁iike	-9.6985
▁jerk	-9.69868
▁fairy	-9.70001
▁bout	-9.70002
▁wel	-9.70129
▁soldier	-9.70192
▁hop	-9.70223
▁noticed	-9.70296
▁bees	-9.70402
▁model	-9.70514
▁dive	-9.70526
▁oil	-9.70768
▁clumsy	-9.70826
▁justice	-9.70826
▁video	-9.70826
▁punch	-9.7084
▁fancy	-9.7084
▁talent	-9.70846
over	-9.71
▁simon	-9.71059
▁lately	-9.71065
▁sisters	-9.71122
▁mile	-9.71132
▁ind	-9.71194
▁corn	-9.71199
▁doll	-9.71339
▁fella	-9.71362
▁pr	-9.71404
▁invite	-9.71455
▁prepared	-9.71509
umb	-9.71538
▁dust	-9.71558
▁driver	-9.71741
▁march	-9.7179
▁photo	-9.71844
▁possibly	-9.71846
▁servant	-9.71846
▁request	-9.71846
▁style	-9.7191
▁helped	-9.71982
▁hug	-9.71986
▁indistinctly	-9.72151
▁alan	-9.72226
row	-9.72246
▁surely	-9.72436
▁hoo	-9.72496
▁turns	-9.72519
▁amen	-9.72553
▁bug	-9.72587
▁mass	-9.72621
▁drinking	-9.72698
▁object	-9.72795
▁applause	-9.72877
▁challenge	-9.72877
▁official	-9.72877
▁positive	-9.72877
▁shoulder	-9.72877
▁schedule	-9.72877
▁client	-9.72881
▁awake	-9.72896
gging	-9.72898
▁announcer	-9.72984
▁print	-9.73047
▁bur	-9.7305
ties	-9.73102
▁oz	-9.73117
ons	-9.7327
▁hen	-9.73315
▁suffer	-9.73315
▁concern	-9.73349
rai	-9.73362
▁charming	-9.73387
▁rip	-9.7353
tre	-9.7362
▁proper	-9.73911
▁chocolate	-9.73919
▁midnight	-9.73919
▁piano	-9.73919
▁credit	-9.7392
▁victor	-9.73949
▁bride	-9.73965
▁gross	-9.74014
▁lab	-9.74028
old	-9.7404
▁fingers	-9.74141
▁whale	-9.74383
▁clears	-9.74393
▁bone	-9.74407
gan	-9.74442
lock	-9.74576
▁row	-9.74646
▁zo	-9.74821
▁ln	-9.7484
ire	-9.74941
▁grandfather	-9.74971
▁stomach	-9.74971
▁scratch	-9.74971
▁british	-9.74971
▁firm	-9.74972
▁dennis	-9.74972
▁require	-9.74972
ham	-9.74981
▁stock	-9.75011
▁direction	-9.75015
du	-9.75016
▁loan	-9.75072
▁betty	-9.75103
▁para	-9.75104
▁guilty	-9.75117
chi	-9.7515
▁quest	-9.75159
▁spin	-9.75215
▁success	-9.75226
▁inter	-9.75272
▁mothers	-9.75363
▁talkin	-9.75455
▁coat	-9.75469
▁event	-9.75487
▁warning	-9.75577
▁lookin	-9.75912
▁ram	-9.75917
▁clo	-9.75957
▁delicious	-9.76035
▁kermit	-9.76035
▁pregnant	-9.76035
▁source	-9.76035
▁jealous	-9.76035
▁attend	-9.76038
▁writer	-9.7604
▁demand	-9.76042
▁saint	-9.76052
▁exhales	-9.76054
▁coward	-9.761
▁highness	-9.76221
cat	-9.76254
▁grave	-9.76297
▁on	-9.76548
▁jo	-9.76682
▁pla	-9.76706
▁walked	-9.76834
zi	-9.76903
▁africa	-9.76961
▁wha	-9.77018
ken	-9.77072
▁sooner	-9.77105
▁interrupt	-9.7711
▁hannah	-9.7711
▁horrible	-9.77113
▁coast	-9.77114
▁cl	-9.77119
▁olive	-9.77141
▁wipe	-9.77157
▁planning	-9.77165
▁pure	-9.77169
▁nasty	-9.77207
▁wise	-9.77236
▁fur	-9.77489
▁dar	-9.77543
▁crow	-9.77641
▁knocking	-9.77665
well	-9.77741
▁ghosts	-9.77834
▁movies	-9.77891
▁wide	-9.77991
ock	-9.78111
▁louis	-9.78126
▁trans	-9.7819
▁neighbor	-9.78194
▁adventure	-9.78197
▁appointment	-9.78197
▁innocent	-9.78197
▁insane	-9.78197
▁crush	-9.78198
▁suspect	-9.78201
▁brand	-9.78217
▁pulled	-9.78236
▁prize	-9.78286
▁cheer	-9.78494
▁liar	-9.78514
not	-9.78589
▁tear	-9.78652
▁mill	-9.78716
▁lines	-9.7889
▁cor	-9.79099
▁chase	-9.79135
▁spoke	-9.79147
▁mario	-9.79188
▁gettin	-9.79225
▁advance	-9.79296
▁downstairs	-9.79296
▁experiment	-9.79296
▁interview	-9.79296
▁separate	-9.79296
▁current	-9.79296
▁result	-9.79296
▁kevin	-9.79296
▁staff	-9.79352
▁delight	-9.79361
ette	-9.79462
ik	-9.79468
▁oi	-9.79585
ran	-9.79677
▁leo	-9.79712
▁sweat	-9.79799
for	-9.80042
brer	-9.80187
▁yells	-9.80292
▁flu	-9.8034
▁europe	-9.80365
▁divorce	-9.80407
▁holiday	-9.80407
▁otherwise	-9.80407
▁telephone	-9.80407
▁borrow	-9.80407
▁claire	-9.80422
▁bringing	-9.80429
▁danny	-9.80445
▁lips	-9.80495
▁whoohoo	-9.80496
gy	-9.80554
▁nemo	-9.80564
▁carmen	-9.80616
▁held	-9.80649
▁hearing	-9.80698
▁pieces	-9.80838
ya	-9.80958
▁rub	-9.81032
▁followed	-9.81313
▁matt	-9.81328
▁math	-9.81432
▁sho	-9.81504
▁regular	-9.81531
▁community	-9.81531
▁easier	-9.81531
▁gadget	-9.81531
▁grandmother	-9.81531
▁however	-9.81531
▁necessary	-9.81531
▁nonsense	-9.81531
▁research	-9.81531
▁whistling	-9.81531
▁jones	-9.81543
▁damage	-9.81545
▁wherever	-9.81576
▁doc	-9.81577
▁guts	-9.8159
▁helen	-9.816
▁grew	-9.81601
▁bel	-9.81616
▁jan	-9.81622
▁chap	-9.81631
▁yay	-9.81675
▁cab	-9.81719
▁zoo	-9.82025
▁guards	-9.82177
▁heading	-9.82192
▁smurfs	-9.82295
ile	-9.82296
ja	-9.8242
▁sometime	-9.82428
▁at	-9.82431
▁tape	-9.82438
▁mal	-9.82445
▁alien	-9.82462
▁sy	-9.82464
away	-9.82571
▁felix	-9.82667
▁rumbling	-9.82667
▁airplane	-9.82667
▁warrior	-9.82668
▁scoffs	-9.82668
▁nancy	-9.82669
▁trail	-9.8267
▁cheap	-9.82671
▁neighborhood	-9.82671
▁herd	-9.82674
▁morgan	-9.82683
▁desk	-9.82705
▁boring	-9.8271
▁sm	-9.82769
▁fucked	-9.82856
▁cheat	-9.82963
▁softly	-9.8297
▁jai	-9.83077
▁es	-9.83097
▁jam	-9.83193
▁soldiers	-9.83402
▁fuckin	-9.83431
▁wing	-9.83467
▁pounds	-9.8349
▁hy	-9.8357
▁appear	-9.83573
▁tar	-9.83574
▁aha	-9.83574
▁pot	-9.83678
▁process	-9.83817
▁silver	-9.83817
▁pilot	-9.83817
▁babies	-9.83817
▁baseball	-9.83831
▁mercy	-9.83909
▁unit	-9.83922
mu	-9.83982
▁smells	-9.84022
▁salt	-9.84143
▁mel	-9.84174
▁tale	-9.8433
▁warn	-9.84362
▁slowly	-9.84464
pro	-9.84506
▁expected	-9.84524
▁ted	-9.84581
▁sink	-9.84711
tte	-9.84778
▁fry	-9.84822
ix	-9.84851
▁spa	-9.84889
▁clearly	-9.84924
hh	-9.84924
▁military	-9.8498
▁samurai	-9.8498
▁texas	-9.8498
▁universe	-9.8498
▁bryce	-9.8498
▁several	-9.8498
▁twist	-9.8498
▁steam	-9.8498
▁relationship	-9.84982
▁intend	-9.85003
▁vince	-9.85026
▁edge	-9.85053
▁barely	-9.85065
▁disgusting	-9.85089
▁professional	-9.85116
▁tuck	-9.85128
▁aii	-9.85256
▁signal	-9.85545
▁siren	-9.85616
▁cars	-9.85737
▁tre	-9.85741
▁bones	-9.85768
▁nation	-9.85771
▁manny	-9.85774
▁flow	-9.85876
room	-9.85898
▁ends	-9.85948
py	-9.86002
▁nobodys	-9.86114
▁assistant	-9.86156
▁equipment	-9.86156
▁flood	-9.86156
▁shirt	-9.86157
▁pigeon	-9.86158
▁legend	-9.86166
▁tooth	-9.86296
cent	-9.86321
▁tub	-9.86403
▁sur	-9.86441
▁jacket	-9.86518
▁winter	-9.86528
lie	-9.86605
▁chatters	-9.86711
▁grown	-9.86733
▁chu	-9.86735
▁approach	-9.86745
boy	-9.86952
sky	-9.87202
▁realized	-9.87234
▁filled	-9.87245
▁slip	-9.87294
▁express	-9.87304
▁alexander	-9.87347
▁period	-9.87347
▁smith	-9.87347
▁complain	-9.87347
▁eddie	-9.87348
▁fruit	-9.87349
▁spark	-9.87354
▁bunny	-9.87359
▁section	-9.87359
▁rosie	-9.87362
▁junk	-9.874
ou	-9.87405
▁zero	-9.87419
▁duke	-9.87422
▁flag	-9.87444
▁meal	-9.87624
▁itd	-9.87632
▁and	-9.87764
▁wil	-9.87784
▁fourth	-9.87842
▁skip	-9.87853
hand	-9.87969
▁del	-9.88004
▁belt	-9.8801
▁sports	-9.88129
ities	-9.8832
▁social	-9.88354
gue	-9.88495
▁among	-9.88513
▁chicago	-9.88551
▁familiar	-9.88551
▁lincoln	-9.88551
▁fortune	-9.88551
▁bravo	-9.88551
▁toilet	-9.88552
▁photograph	-9.88554
▁honking	-9.88564
▁hawk	-9.88566
ue	-9.88579
just	-9.88586
▁lisa	-9.88588
▁gang	-9.88615
▁ap	-9.88618
▁thou	-9.88627
▁string	-9.88632
▁willie	-9.88637
▁secretary	-9.88638
▁julia	-9.88667
▁und	-9.88746
▁lover	-9.88806
▁hatch	-9.89006
▁ob	-9.89111
▁charm	-9.89199
▁legal	-9.89218
▁gim	-9.89252
▁bun	-9.8929
▁ruined	-9.89395
▁ag	-9.89677
▁letting	-9.89682
▁balls	-9.89701
▁scr	-9.89724
▁gay	-9.89763
▁disturb	-9.89771
▁access	-9.89771
▁garbage	-9.89771
▁precious	-9.89771
▁greek	-9.89775
▁jimmy	-9.89787
ified	-9.89804
▁forgotten	-9.8981
▁gentleman	-9.89814
▁niet	-9.89843
▁fox	-9.89866
bble	-9.89882
▁ann	-9.89915
▁mice	-9.89966
▁fake	-9.90096
▁odd	-9.90101
press	-9.90125
▁created	-9.9014
▁ham	-9.9014
ung	-9.90401
▁spare	-9.90417
▁amy	-9.90432
▁americans	-9.90529
▁rocky	-9.90574
▁tied	-9.90604
wood	-9.90709
▁mood	-9.90724
▁log	-9.90865
▁blowing	-9.90905
▁apparently	-9.91005
▁elizabeth	-9.91005
▁mmmhmm	-9.91005
▁represent	-9.91005
▁japanese	-9.91006
▁shift	-9.91012
▁dramatic	-9.91014
▁insist	-9.91015
▁whip	-9.91037
▁aware	-9.91037
▁burning	-9.91043
▁motor	-9.91059
▁ki	-9.91075
▁toto	-9.9116
▁ash	-9.91273
▁hank	-9.91484
▁beans	-9.91543
▁panic	-9.91587
▁bump	-9.91623
▁pip	-9.91629
▁hearts	-9.91687
▁meow	-9.91704
▁fixed	-9.91761
▁failed	-9.91785
▁creatures	-9.91902
ose	-9.91966
▁anti	-9.9198
▁bush	-9.91993
▁painting	-9.92179
▁champagne	-9.92255
▁rhythm	-9.92255
▁buried	-9.92257
▁bruce	-9.9227
▁hurts	-9.92287
▁davis	-9.92289
▁chick	-9.9229
▁fate	-9.92313
▁vision	-9.92352
▁stan	-9.9249
▁golden	-9.92543
▁powers	-9.9258
▁riding	-9.92581
▁paying	-9.92591
▁character	-9.92634
▁victory	-9.92654
▁cast	-9.9266
▁chill	-9.92707
▁opens	-9.92717
▁raised	-9.92972
▁yell	-9.93112
▁brains	-9.93402
▁attempt	-9.93521
▁lieutenant	-9.93521
▁occasion	-9.93521
▁ordinary	-9.93521
▁alert	-9.9353
▁burger	-9.93537
▁garage	-9.93547
▁philip	-9.9355
bbing	-9.9355
▁bedroom	-9.93557
▁growing	-9.93578
▁basement	-9.93595
▁gus	-9.93597
▁players	-9.93617
ich	-9.93651
▁numbers	-9.93712
▁ruth	-9.93771
▁tires	-9.93834
▁uhh	-9.93974
▁scary	-9.94012
▁design	-9.9424
▁dirt	-9.94475
▁mid	-9.94524
▁pu	-9.94575
▁ref	-9.94702
▁celebrate	-9.94803
▁fabulous	-9.94803
▁filthy	-9.94803
▁silence	-9.94803
▁emily	-9.94808
▁clue	-9.94813
▁halloween	-9.94816
▁smurfette	-9.94816
▁spike	-9.94817
▁humming	-9.94818
▁naked	-9.94842
▁thumb	-9.94847
▁touchdown	-9.94855
▁loving	-9.94867
▁usual	-9.94874
han	-9.95048
▁anna	-9.95129
▁rare	-9.95132
▁gum	-9.95248
▁apple	-9.9528
▁hon	-9.95334
ead	-9.95411
▁bum	-9.9553
▁dre	-9.95616
▁mix	-9.95617
▁agreed	-9.95661
▁create	-9.95711
▁hunting	-9.95714
▁nicky	-9.95729
town	-9.95811
ois	-9.96022
▁trap	-9.96095
▁ancient	-9.96102
▁opportunity	-9.96102
▁victim	-9.96102
▁ronnie	-9.96102
▁stretch	-9.96102
▁wilbur	-9.96102
▁outfit	-9.96102
▁regard	-9.96102
▁mostly	-9.96102
▁palace	-9.96102
▁defeat	-9.96104
▁text	-9.96104
▁limit	-9.96105
▁japan	-9.96109
▁trapped	-9.96114
▁option	-9.96132
▁pump	-9.96144
▁screen	-9.96161
▁robin	-9.96255
▁grass	-9.9631
▁plain	-9.96429
▁discovered	-9.96517
▁troops	-9.96546
▁wee	-9.96889
cra	-9.96943
bber	-9.9705
▁arrested	-9.97073
▁direct	-9.97114
▁career	-9.97223
ward	-9.97224
▁sudden	-9.97248
▁singer	-9.97267
▁dean	-9.97391
▁although	-9.97418
▁effort	-9.97418
▁monsieur	-9.97418
▁responsible	-9.97418
▁sunshine	-9.97418
▁permission	-9.97429
▁supper	-9.97432
▁faint	-9.97435
▁notes	-9.97449
hole	-9.97455
▁andy	-9.97466
▁dancer	-9.97467
▁santa	-9.97497
▁owner	-9.97509
▁katie	-9.97521
▁heel	-9.97529
▁patch	-9.97603
▁rust	-9.97702
▁barb	-9.97801
▁sally	-9.97803
au	-9.97917
▁slave	-9.9798
▁tears	-9.97993
▁stayed	-9.97997
▁vee	-9.98015
▁ol	-9.98207
▁laid	-9.9821
▁belongs	-9.98228
▁deny	-9.9823
▁members	-9.98373
▁sexy	-9.98377
▁gre	-9.98398
my	-9.98531
je	-9.98557
pen	-9.98673
▁birth	-9.98743
▁citizen	-9.98751
▁guarantee	-9.98751
▁insurance	-9.98751
▁jacques	-9.98751
▁physical	-9.98751
▁tunnel	-9.98751
▁example	-9.98751
▁harper	-9.98752
▁betray	-9.98752
▁value	-9.98752
▁cowhand	-9.98765
▁rowley	-9.98769
▁fence	-9.98783
▁rude	-9.98827
▁squad	-9.9886
▁towards	-9.98962
▁stolen	-9.98971
▁annie	-9.98995
▁opened	-9.99039
▁coughing	-9.991
▁cookie	-9.9918
▁engineer	-9.99236
▁arch	-9.99237
▁lou	-9.99272
▁sandy	-9.99301
▁cale	-9.99302
▁mustnt	-9.99354
▁vol	-9.99401
pped	-9.99444
▁jem	-9.99555
▁aim	-9.99638
▁tune	-9.9966
▁wit	-9.99726
▁mustve	-9.99755
▁hiro	-9.99783
▁students	-9.9998
▁coo	-9.99983
int	-10.0001
▁burned	-10.0007
▁italian	-10.001
▁library	-10.001
▁dolphin	-10.001
▁cruel	-10.001
▁flintstone	-10.001
▁feather	-10.0014
▁assume	-10.0016
▁jake	-10.0018
▁shaw	-10.0032
▁chess	-10.0033
work	-10.0036
▁rum	-10.0037
▁aron	-10.0038
▁manager	-10.0048
▁pigs	-10.0055
▁cheers	-10.007
▁cro	-10.0072
light	-10.0073
mate	-10.0073
▁settled	-10.0083
▁net	-10.0099
▁eaten	-10.0104
▁farmer	-10.0109
▁led	-10.0115
▁exact	-10.013
▁piss	-10.0134
▁falls	-10.014
▁finding	-10.0142
▁develop	-10.0143
▁diamond	-10.0147
▁agency	-10.0147
▁gunshot	-10.0147
▁lied	-10.0148
▁turkey	-10.0148
▁slipper	-10.015
▁noon	-10.0152
▁planned	-10.0153
ama	-10.0163
▁cave	-10.0168
▁fund	-10.0169
▁china	-10.0172
▁seek	-10.0172
nic	-10.0176
▁eva	-10.0178
▁fade	-10.0183
▁comm	-10.0184
▁ron	-10.0187
▁personally	-10.0196
▁sport	-10.0201
▁lads	-10.0217
▁letters	-10.0226
▁mum	-10.0252
▁creep	-10.0253
▁dc	-10.0258
▁songs	-10.0263
▁connect	-10.0281
▁cole	-10.0281
ford	-10.0284
▁desperate	-10.0286
▁matthew	-10.0286
▁whenever	-10.0286
▁license	-10.0286
▁mirror	-10.0286
▁austin	-10.0286
▁recipe	-10.0286
▁changing	-10.0286
▁vegas	-10.0286
▁therell	-10.0289
▁popper	-10.0296
▁heal	-10.0308
▁cage	-10.0313
▁artist	-10.0314
▁carried	-10.0325
▁frightened	-10.033
▁medical	-10.0335
▁touched	-10.036
▁guests	-10.0365
▁whispers	-10.037
ddy	-10.0376
but	-10.0385
▁covered	-10.0385
▁doctors	-10.0393
bre	-10.0407
▁doo	-10.041
▁russia	-10.0414
▁sandwich	-10.0415
▁reed	-10.0417
▁lower	-10.0422
▁avoid	-10.0427
▁california	-10.0427
▁intelligence	-10.0427
▁trumpet	-10.0427
▁patrick	-10.0427
▁slide	-10.0427
▁pearl	-10.0427
▁aaah	-10.0427
▁costume	-10.0427
▁desire	-10.0428
▁bailey	-10.0428
▁ellis	-10.0429
▁root	-10.0435
▁aboard	-10.0435
▁carrie	-10.0436
▁kit	-10.0437
izing	-10.0438
▁chosen	-10.0438
▁flies	-10.044
▁glasses	-10.0459
▁bert	-10.0462
▁nest	-10.0471
▁depend	-10.0487
▁ape	-10.0496
▁yup	-10.0499
cha	-10.0507
▁ken	-10.0521
▁loss	-10.0523
▁chat	-10.0527
▁receive	-10.0531
▁une	-10.0537
▁picking	-10.0551
▁shel	-10.0565
▁flash	-10.0569
▁delilah	-10.057
▁jungle	-10.057
▁literally	-10.057
▁scientist	-10.057
▁violet	-10.057
▁century	-10.057
▁grateful	-10.057
▁stairs	-10.057
▁daniel	-10.057
▁golf	-10.0571
▁libby	-10.0571
▁curious	-10.0572
▁web	-10.0576
▁winning	-10.0578
▁marty	-10.0581
▁darkness	-10.0582
▁highly	-10.0586
▁walls	-10.0593
▁melon	-10.0593
bar	-10.0594
▁bears	-10.0599
▁seal	-10.061
▁monsters	-10.0634
▁germans	-10.0642
▁approaching	-10.0643
▁nut	-10.0644
▁concerned	-10.0649
▁deck	-10.066
▁ir	-10.0672
▁pur	-10.0695
▁particular	-10.0698
▁sk	-10.0708
ville	-10.0711
▁rob	-10.0713
▁behave	-10.0715
▁equal	-10.0715
▁investigation	-10.0715
▁soccer	-10.0715
▁swallow	-10.0715
▁traffic	-10.0715
▁ashamed	-10.0715
▁donkey	-10.0715
▁bodies	-10.0715
▁chisum	-10.0715
▁cancel	-10.0716
▁grinch	-10.0718
▁guide	-10.0718
▁skill	-10.072
bie	-10.0722
▁sniff	-10.0725
▁decent	-10.0727
▁sending	-10.0727
▁heavens	-10.073
▁tina	-10.0731
▁assure	-10.0741
▁original	-10.0751
▁ordered	-10.0753
▁degrees	-10.0756
▁chest	-10.0764
▁pity	-10.0772
▁latest	-10.0772
▁hired	-10.078
▁bea	-10.0785
▁union	-10.079
fish	-10.0792
▁streets	-10.0793
▁hip	-10.0802
▁disappeared	-10.0811
▁kate	-10.0811
▁sim	-10.0848
▁gro	-10.0858
▁clicks	-10.0859
▁publish	-10.0862
▁complicated	-10.0862
▁magazine	-10.0862
▁paddington	-10.0862
▁senior	-10.0862
▁someplace	-10.0862
▁vehicle	-10.0862
▁wreck	-10.0862
▁disease	-10.0862
▁wicked	-10.0862
▁adult	-10.0862
▁crawl	-10.0862
▁funeral	-10.0862
▁retire	-10.0862
▁concert	-10.0862
▁watson	-10.0864
▁glory	-10.0865
▁extremely	-10.0866
▁gentle	-10.0872
▁pair	-10.0873
▁sarah	-10.0873
cks	-10.0874
▁friendship	-10.0875
▁mei	-10.0876
▁chanting	-10.0884
▁boil	-10.0885
▁poet	-10.0887
▁tax	-10.0891
▁witches	-10.0898
fo	-10.0902
▁embarrassing	-10.0905
▁richie	-10.0916
what	-10.0922
▁younger	-10.0925
pr	-10.0938
▁deeply	-10.094
▁pussy	-10.094
▁depends	-10.0948
▁carefully	-10.0973
▁landing	-10.0986
▁pleased	-10.0995
▁revolution	-10.1009
▁assignment	-10.1011
▁council	-10.1011
▁newspaper	-10.1011
▁toronto	-10.1011
▁unusual	-10.1011
▁whimpering	-10.1011
▁offense	-10.1011
▁simmons	-10.1011
▁gerry	-10.1011
▁winnie	-10.1011
▁steel	-10.1012
▁solve	-10.1012
▁sauce	-10.1012
▁circus	-10.1013
▁inspector	-10.1014
▁romeo	-10.102
zo	-10.1024
▁chop	-10.1024
▁ranch	-10.1031
▁af	-10.1031
▁parker	-10.1038
▁mall	-10.1055
▁meaning	-10.1061
port	-10.1071
▁down	-10.1075
▁drug	-10.108
▁concentrate	-10.1087
▁bugs	-10.1097
▁daughters	-10.1102
▁blessed	-10.1111
▁refuse	-10.1124
▁coin	-10.1127
▁giggles	-10.113
ame	-10.1137
▁earn	-10.1153
▁comfort	-10.1159
▁australia	-10.1163
▁destiny	-10.1163
▁society	-10.1163
▁species	-10.1163
▁treasure	-10.1163
▁peanut	-10.1163
▁ralph	-10.1163
▁recently	-10.1163
▁rooster	-10.1163
▁central	-10.1163
▁torture	-10.1163
▁thrill	-10.1163
▁flew	-10.1163
▁title	-10.1163
▁nando	-10.1163
▁ci	-10.1163
▁fetch	-10.1165
▁kung	-10.1168
▁lemon	-10.1171
ient	-10.1176
▁shouts	-10.1177
▁terry	-10.1183
▁paw	-10.1183
▁demon	-10.1197
▁forty	-10.1198
▁heroes	-10.1203
▁received	-10.1204
▁squeaking	-10.1215
▁lang	-10.1215
▁data	-10.1225
▁stalin	-10.1234
▁lack	-10.1234
▁buck	-10.1241
▁za	-10.1246
tit	-10.1246
▁learning	-10.1248
▁signed	-10.1255
foot	-10.1256
▁oui	-10.1267
▁enjoying	-10.1282
▁magical	-10.1291
▁beating	-10.1294
▁thousands	-10.1302
▁mmhm	-10.1309
▁clarence	-10.1316
▁device	-10.1316
▁elevator	-10.1316
▁meimei	-10.1316
▁slept	-10.1316
▁university	-10.1316
▁whirring	-10.1316
▁mystery	-10.1316
▁alliance	-10.1316
▁fifty	-10.1316
▁expert	-10.1316
▁smash	-10.1316
▁spoil	-10.1316
▁miami	-10.1316
▁juice	-10.1317
▁recover	-10.1318
▁albert	-10.1318
▁rudy	-10.1319
▁danni	-10.1322
▁marina	-10.1325
▁motion	-10.1327
▁bark	-10.1328
▁roy	-10.1328
▁brat	-10.1331
ek	-10.1337
top	-10.1351
stein	-10.1355
▁dish	-10.1382
▁tin	-10.1391
▁miller	-10.1392
▁med	-10.1396
▁lick	-10.1409
▁float	-10.1412
▁throwing	-10.1417
▁my	-10.1421
▁forces	-10.143
place	-10.1438
▁brad	-10.1444
▁friendly	-10.1452
▁bend	-10.1456
▁actual	-10.1458
box	-10.1467
▁affair	-10.1473
▁division	-10.1473
▁mysterious	-10.1473
▁responsibility	-10.1473
▁league	-10.1473
▁nicole	-10.1473
▁insult	-10.1473
▁jazz	-10.1473
▁cotton	-10.1473
▁ramona	-10.1473
▁turtle	-10.1473
▁ivan	-10.1473
▁whore	-10.1473
▁banana	-10.1473
▁earlier	-10.1473
▁todd	-10.1473
▁romantic	-10.1474
▁mumble	-10.1474
▁moondog	-10.1474
▁swimming	-10.1475
▁weii	-10.1476
▁sobbing	-10.1476
▁penny	-10.1477
▁anger	-10.1478
▁brace	-10.148
▁protection	-10.1498
▁rocket	-10.1504
▁officers	-10.1505
▁hack	-10.1536
▁customer	-10.1542
▁designed	-10.1543
▁shi	-10.157
▁alma	-10.1583
law	-10.1592
▁mac	-10.1593
▁spider	-10.1626
▁jet	-10.1626
▁baymax	-10.1631
▁giggling	-10.1631
▁lloyd	-10.1631
▁napoleon	-10.1631
▁smooth	-10.1631
▁senator	-10.1631
▁merlin	-10.1631
▁cigarette	-10.1632
▁marvelous	-10.1632
▁ouch	-10.1634
▁remus	-10.1636
▁abby	-10.1636
▁zack	-10.1637
▁shoe	-10.1637
▁fever	-10.1639
▁bound	-10.1639
▁seats	-10.1642
▁brick	-10.1643
▁grover	-10.1645
▁batman	-10.1647
▁mick	-10.1648
▁vice	-10.1657
▁lev	-10.166
▁cards	-10.1665
▁passing	-10.1667
▁believed	-10.168
▁fleet	-10.1684
ana	-10.1684
▁prisoners	-10.1685
ella	-10.169
▁image	-10.1702
▁sum	-10.1702
▁bars	-10.1703
▁entr	-10.1731
ique	-10.1733
▁obvious	-10.1776
▁attitude	-10.1793
▁immortal	-10.1793
▁including	-10.1793
▁oclock	-10.1793
▁orgazmo	-10.1793
▁sheiiey	-10.1793
▁squirrel	-10.1793
▁surrender	-10.1793
▁terribly	-10.1793
▁theodore	-10.1793
▁amount	-10.1793
▁paradise	-10.1793
▁shrek	-10.1793
▁pathetic	-10.1793
▁material	-10.1793
▁brief	-10.1793
▁muscle	-10.1793
▁contest	-10.1793
▁lenny	-10.1793
▁flesh	-10.1793
▁andre	-10.1794
▁mask	-10.1794
▁sexual	-10.1794
▁admiral	-10.1796
▁habit	-10.18
▁wig	-10.1802
▁tap	-10.181
▁glo	-10.1816
▁useless	-10.1832
▁goat	-10.1833
▁tend	-10.1841
▁emotional	-10.1846
▁reached	-10.1846
▁moi	-10.187
▁inn	-10.1886
▁gain	-10.1887
▁los	-10.1888
▁messed	-10.1903
▁mat	-10.1911
▁bla	-10.1934
▁mountains	-10.1943
▁bay	-10.1945
itt	-10.1949
▁inform	-10.195
▁effect	-10.1954
▁ban	-10.1955
▁resist	-10.1956
▁advantage	-10.1957
▁chanticleer	-10.1957
▁expensive	-10.1957
▁families	-10.1957
▁happiness	-10.1957
▁thirty	-10.1957
▁progress	-10.1957
▁studio	-10.1957
▁sentence	-10.1957
▁theater	-10.1957
▁invest	-10.1957
▁blew	-10.1957
▁factory	-10.1957
▁basically	-10.1957
▁contain	-10.1958
▁executive	-10.1958
▁scrap	-10.1958
▁drawing	-10.1959
▁monday	-10.1959
▁navy	-10.1959
▁lyle	-10.196
▁glove	-10.196
▁zip	-10.1962
▁package	-10.1962
fer	-10.1965
▁monty	-10.1965
▁duran	-10.1965
▁uhuh	-10.1972
▁cent	-10.1978
▁marc	-10.1982
▁claw	-10.1991
▁pulling	-10.1992
▁bastards	-10.1993
▁aliens	-10.1996
▁dash	-10.1998
▁prisoner	-10.2001
▁ali	-10.2006
▁maar	-10.2009
▁cleaning	-10.2018
▁birdie	-10.2052
zy	-10.2052
uh	-10.2053
▁attacked	-10.2069
▁slaves	-10.2084
ically	-10.2096
▁will	-10.211
▁bags	-10.2117
▁ended	-10.212
▁buzzing	-10.212
▁gen	-10.2121
eck	-10.2122
▁wrap	-10.2122
▁orange	-10.2123
▁available	-10.2123
▁governor	-10.2123
▁whimpers	-10.2123
▁federal	-10.2123
▁popular	-10.2123
▁admire	-10.2123
▁thief	-10.2123
▁sodom	-10.2123
▁border	-10.2123
▁hidden	-10.2123
▁memories	-10.2124
▁wagon	-10.2125
▁flame	-10.2126
▁drag	-10.2126
▁height	-10.2127
▁mount	-10.213
▁fort	-10.2131
▁confused	-10.2132
▁speaker	-10.2134
▁poem	-10.2136
▁link	-10.2139
▁knees	-10.2141
▁cabin	-10.2149
▁clicking	-10.215
▁steven	-10.2155
▁screeching	-10.2168
▁awfully	-10.2171
ably	-10.2178
▁beef	-10.2178
▁tryin	-10.2196
▁drugs	-10.2197
▁palm	-10.2208
▁selling	-10.2214
▁crashing	-10.2266
▁toward	-10.2268
▁makeup	-10.2283
▁twin	-10.2286
▁champ	-10.2291
▁tur	-10.2292
▁stronger	-10.2292
▁charlotte	-10.2293
▁explosion	-10.2293
▁gorgeous	-10.2293
▁tuesday	-10.2293
▁dozen	-10.2293
▁clown	-10.2293
▁skull	-10.2293
▁proceed	-10.2293
▁stood	-10.2293
▁mitchell	-10.2293
▁whyd	-10.2293
▁modern	-10.2294
▁cheek	-10.2294
▁rotten	-10.2294
▁fought	-10.2294
▁percent	-10.2296
▁pirate	-10.2296
▁plot	-10.2297
▁firing	-10.2297
▁native	-10.2298
▁unfortunately	-10.2301
▁bored	-10.2301
▁zach	-10.2304
▁suis	-10.2304
▁chew	-10.2309
▁spoken	-10.2316
▁counting	-10.2324
▁trained	-10.2332
▁stable	-10.234
fire	-10.2355
▁bury	-10.2356
▁warner	-10.237
▁eli	-10.237
▁thin	-10.2396
▁loaded	-10.24
▁arrive	-10.2411
▁wound	-10.2415
▁nik	-10.2437
mark	-10.244
▁attract	-10.2462
▁cinderella	-10.2465
▁conduct	-10.2465
▁headquarters	-10.2465
▁imagination	-10.2465
▁katherine	-10.2465
▁muffled	-10.2465
▁negative	-10.2465
▁twelve	-10.2465
▁valuable	-10.2465
▁tradition	-10.2465
▁ignore	-10.2465
▁novel	-10.2465
▁annabel	-10.2466
▁kidnapped	-10.2466
▁pepper	-10.2467
▁francisco	-10.2468
▁punk	-10.2468
▁mamma	-10.2468
▁poetry	-10.2469
▁theme	-10.247
▁prior	-10.2471
▁barney	-10.2472
▁heavily	-10.2474
▁leak	-10.2474
▁rangers	-10.2475
▁aside	-10.2476
hhh	-10.2482
▁lamb	-10.2483
gon	-10.2484
▁exclaiming	-10.2485
▁exit	-10.2488
▁trial	-10.2488
▁gear	-10.249
▁solo	-10.2491
▁moaning	-10.2493
▁hail	-10.25
▁hitting	-10.2501
▁it	-10.2509
▁murderer	-10.2515
▁rats	-10.2526
▁knee	-10.2528
▁sniffing	-10.2537
▁taxi	-10.2544
maker	-10.2568
eight	-10.2573
▁shout	-10.2574
▁kicked	-10.2575
five	-10.2576
▁squeak	-10.258
two	-10.2588
▁haha	-10.261
cap	-10.2619
face	-10.2633
▁easily	-10.2641
▁constant	-10.2641
▁ernest	-10.2641
▁craig	-10.2641
▁quoi	-10.2641
▁solid	-10.2641
▁roaring	-10.2641
▁delay	-10.2643
▁championship	-10.2643
▁lousy	-10.2643
▁failure	-10.2644
▁holly	-10.2644
▁chapter	-10.2648
▁dollar	-10.2648
lam	-10.2653
▁fearless	-10.2655
▁june	-10.2656
▁neil	-10.2657
▁african	-10.2665
▁hated	-10.2668
keep	-10.2674
▁setting	-10.2676
▁checking	-10.2678
▁darn	-10.2684
▁sec	-10.2689
▁forth	-10.269
▁here	-10.2691
ites	-10.2698
▁mag	-10.2703
▁artie	-10.2711
▁toe	-10.2749
▁badly	-10.2753
▁fighter	-10.276
▁discover	-10.2765
▁chipmunks	-10.2787
▁hm	-10.2801
▁livin	-10.2805
rop	-10.281
ware	-10.2812
▁wishes	-10.2813
▁checked	-10.2817
▁circumstances	-10.2819
▁document	-10.2819
▁eventually	-10.2819
▁explode	-10.2819
▁pleasant	-10.2819
▁transform	-10.2819
▁understood	-10.2819
▁impressive	-10.2819
▁stoker	-10.2819
▁chinese	-10.2819
▁derek	-10.2819
▁emmet	-10.2819
▁candle	-10.282
▁surface	-10.282
▁transport	-10.282
▁woke	-10.282
▁accent	-10.282
▁festival	-10.2821
▁idgie	-10.2821
▁slim	-10.2821
▁authority	-10.2821
▁route	-10.2824
▁practically	-10.2824
▁toby	-10.2826
▁mental	-10.2826
▁temple	-10.2828
▁foolish	-10.2829
▁fuel	-10.2834
▁yearold	-10.2836
▁vin	-10.284
▁sue	-10.2841
wee	-10.2846
▁units	-10.2857
▁headed	-10.2862
▁rem	-10.2864
▁traveling	-10.2879
▁carrying	-10.2893
▁fishing	-10.2895
▁gotcha	-10.2903
▁hel	-10.2913
bit	-10.2931
▁based	-10.2932
▁drown	-10.294
▁former	-10.2942
▁frighten	-10.295
▁fans	-10.2956
▁shove	-10.2957
▁om	-10.2964
▁tick	-10.2969
looking	-10.2972
▁gasp	-10.2977
▁chuck	-10.2981
▁whee	-10.2986
▁chose	-10.2989
▁coll	-10.2991
▁employ	-10.2999
▁exchange	-10.3001
▁wednesday	-10.3001
▁whiskey	-10.3001
▁wouid	-10.3001
▁bounce	-10.3001
▁amanda	-10.3001
▁april	-10.3001
▁balance	-10.3001
▁echo	-10.3001
▁false	-10.3001
▁invisible	-10.3001
▁await	-10.3001
▁considered	-10.3001
▁boston	-10.3002
▁otis	-10.3002
▁propose	-10.3002
▁quarterback	-10.3003
▁diana	-10.3004
▁spaceship	-10.3005
▁joan	-10.3005
▁chart	-10.3006
▁unique	-10.3008
▁jeez	-10.3011
▁michelle	-10.3012
lng	-10.3018
ox	-10.3024
▁bleeding	-10.3026
▁tech	-10.3028
hood	-10.3035
▁johnson	-10.3036
▁appears	-10.3036
▁murdered	-10.3047
▁fallen	-10.3052
stone	-10.3057
▁rate	-10.307
▁delivery	-10.3077
▁badge	-10.3077
▁stopping	-10.3086
▁unh	-10.3092
▁inch	-10.3096
▁pit	-10.3096
▁freaky	-10.3099
▁kissed	-10.3102
▁product	-10.3119
lly	-10.3121
hen	-10.313
iest	-10.3131
▁staring	-10.3134
▁provide	-10.3147
girl	-10.3155
▁closet	-10.3165
▁abe	-10.3166
itch	-10.3174
▁punish	-10.3182
▁basket	-10.3185
▁cart	-10.3186
▁artemis	-10.3186
▁exercise	-10.3186
▁hamilton	-10.3186
▁potential	-10.3186
▁splendid	-10.3186
▁distract	-10.3186
▁illegal	-10.3186
▁couid	-10.3186
▁article	-10.3186
▁cancer	-10.3186
▁wore	-10.3186
▁cleo	-10.3187
▁stealing	-10.3188
▁medicine	-10.3188
▁cowboy	-10.3188
▁strip	-10.3188
▁resistance	-10.3189
▁prick	-10.3191
▁foster	-10.3192
▁connection	-10.3194
▁shore	-10.3197
▁engaged	-10.32
▁treatment	-10.32
ual	-10.3207
▁mock	-10.3207
▁mole	-10.321
▁thas	-10.3216
▁lap	-10.3216
▁wander	-10.3221
▁jackson	-10.3224
▁raining	-10.3225
▁actor	-10.3239
▁gut	-10.3249
ught	-10.326
▁mixed	-10.3268
▁hood	-10.3299
▁landed	-10.3316
▁rear	-10.3324
▁pole	-10.3333
▁waves	-10.3337
istic	-10.3339
▁remove	-10.3348
▁announce	-10.3351
▁searching	-10.3369
▁attorney	-10.3375
▁breast	-10.3375
▁conference	-10.3375
▁confidence	-10.3375
▁dwayne	-10.3375
▁footsteps	-10.3375
▁orphan	-10.3375
▁museum	-10.3375
▁location	-10.3375
▁polite	-10.3375
▁succeed	-10.3375
▁improve	-10.3375
▁doyle	-10.3375
▁operator	-10.3376
▁bruno	-10.3376
▁trace	-10.3377
▁mickey	-10.3377
▁secure	-10.3378
▁closing	-10.3379
▁noble	-10.338
▁plum	-10.3382
▁proof	-10.3391
▁homework	-10.3395
▁ren	-10.3395
▁psycho	-10.3405
▁runner	-10.3412
▁debt	-10.3412
▁hei	-10.3418
▁baron	-10.3424
▁arr	-10.3424
▁offered	-10.3425
▁ski	-10.3435
▁hem	-10.3438
▁barker	-10.3444
▁madame	-10.3449
▁juliet	-10.3451
▁entirely	-10.3461
▁sniffs	-10.3475
▁role	-10.3476
▁counter	-10.348
▁screwed	-10.3488
▁scan	-10.3503
▁ei	-10.351
▁tol	-10.351
like	-10.3513
▁chin	-10.3526
▁frost	-10.3534
▁rod	-10.3538
▁poll	-10.3541
▁norm	-10.3559
▁loyal	-10.3565
▁international	-10.3567
▁measure	-10.3567
▁nuclear	-10.3567
▁enchant	-10.3567
▁stadium	-10.3567
▁beatrice	-10.3567
▁allison	-10.3567
▁koki	-10.3567
▁formula	-10.3568
▁rayburn	-10.3568
ology	-10.3568
▁goldberg	-10.3569
▁molly	-10.357
▁riley	-10.3573
▁sheet	-10.3575
▁tool	-10.3579
▁labor	-10.3582
▁missile	-10.3589
▁fletcher	-10.3591
▁voor	-10.3598
▁ahhh	-10.3603
▁billion	-10.3604
▁browne	-10.3604
▁county	-10.3608
▁maid	-10.3614
▁herring	-10.362
▁dreaming	-10.363
▁chan	-10.363
▁bien	-10.3635
▁mist	-10.3638
cept	-10.3668
unch	-10.3672
▁details	-10.3675
▁teaching	-10.3687
▁parking	-10.3715
▁davey	-10.3719
load	-10.3746
▁toot	-10.3748
ister	-10.3757
▁tan	-10.3759
▁disco	-10.3761
▁audition	-10.3763
▁competition	-10.3763
▁crusoe	-10.3763
▁describe	-10.3763
▁harbor	-10.3763
▁helicopter	-10.3763
▁melissa	-10.3763
▁policy	-10.3763
▁recommend	-10.3763
▁shrieking	-10.3763
▁tattoo	-10.3763
▁temperature	-10.3763
▁therefore	-10.3763
▁trigger	-10.3763
▁dummy	-10.3763
▁miserable	-10.3763
▁couch	-10.3763
▁peyton	-10.3763
▁angus	-10.3763
▁impression	-10.3763
▁scholarship	-10.3763
▁forbidden	-10.3764
▁fowl	-10.3764
▁heb	-10.3765
▁joking	-10.3766
▁moses	-10.3767
▁attach	-10.3769
▁luc	-10.3769
▁sup	-10.377
▁colin	-10.3773
▁peterson	-10.3779
▁gin	-10.3781
▁surf	-10.3791
▁tent	-10.3793
▁lean	-10.3796
▁haru	-10.3799
▁vow	-10.3809
▁calvin	-10.3814
▁deb	-10.3816
▁ox	-10.3823
▁vampires	-10.3858
▁lars	-10.3864
▁sincere	-10.3866
▁cape	-10.3908
▁tapes	-10.3934
print	-10.394
▁grunt	-10.3941
▁wat	-10.3944
▁leading	-10.3954
▁exam	-10.3954
▁behavior	-10.3963
▁escort	-10.3963
▁thursday	-10.3963
▁ulysses	-10.3963
▁unhappy	-10.3963
▁compliment	-10.3963
▁fashion	-10.3963
▁hebrew	-10.3963
▁hockey	-10.3963
▁include	-10.3963
▁observe	-10.3963
▁theatre	-10.3963
▁approve	-10.3963
▁towel	-10.3963
▁capital	-10.3963
▁caesar	-10.3963
▁kathy	-10.3963
▁alpha	-10.3963
▁florida	-10.3963
▁gym	-10.3964
▁email	-10.3964
▁stra	-10.3964
▁argue	-10.3966
▁addict	-10.3966
▁brush	-10.3966
▁attractive	-10.3966
▁wilson	-10.3968
▁reverse	-10.3968
▁precisely	-10.397
▁fold	-10.397
berg	-10.3972
berry	-10.3973
▁whooping	-10.3975
▁worm	-10.3976
▁drew	-10.3976
▁giri	-10.3985
udge	-10.3986
▁lamp	-10.3989
wind	-10.3994
▁melt	-10.3997
▁ahem	-10.4002
fu	-10.4004
tti	-10.4019
▁beard	-10.4032
▁pm	-10.4033
▁healthy	-10.4033
arm	-10.4035
cle	-10.4043
▁bench	-10.4043
▁lend	-10.4046
lon	-10.4047
▁dock	-10.4056
▁dial	-10.4061
▁von	-10.4073
▁buying	-10.4079
▁forced	-10.4108
▁workers	-10.4111
▁odds	-10.4114
▁fart	-10.4126
▁mmmm	-10.4135
▁lifting	-10.414
▁diet	-10.4159
▁lit	-10.4163
▁moral	-10.4167
ification	-10.4167
▁confident	-10.4167
▁beneath	-10.4167
▁fifteen	-10.4167
▁gargamel	-10.4167
▁murphy	-10.4167
▁rehearsal	-10.4167
▁traitor	-10.4167
▁volunteer	-10.4167
▁beloved	-10.4167
▁enemies	-10.4167
▁revenge	-10.4167
▁select	-10.4167
▁travis	-10.4167
▁emperor	-10.4167
▁silent	-10.4167
▁conrad	-10.4167
▁naughty	-10.4168
▁wasting	-10.4168
▁maintain	-10.4168
▁yankee	-10.4168
▁flap	-10.4169
▁hammer	-10.4169
▁virginia	-10.4169
▁pride	-10.4171
▁blanket	-10.4171
point	-10.4175
▁tomatoes	-10.4176
▁anne	-10.4177
▁sunny	-10.4179
uv	-10.418
▁commit	-10.4181
▁wolfman	-10.4181
▁award	-10.4183
▁capable	-10.4183
▁wallet	-10.4185
your	-10.419
▁daylight	-10.4192
▁gaia	-10.4193
▁jill	-10.4195
▁sack	-10.42
▁hugo	-10.4206
▁broom	-10.4209
▁sew	-10.422
▁condo	-10.4224
▁parent	-10.4224
▁rot	-10.423
▁toes	-10.4239
▁ew	-10.4242
▁knocked	-10.4258
▁embarrass	-10.4258
▁classes	-10.4261
▁sean	-10.4263
▁kin	-10.4271
▁pills	-10.4274
▁jumped	-10.43
▁apes	-10.431
▁shy	-10.4313
▁returned	-10.4323
▁bid	-10.4331
▁eu	-10.4339
▁psych	-10.4343
phone	-10.4352
▁mentioned	-10.436
▁dit	-10.4371
▁transfer	-10.4375
▁delorean	-10.4376
▁individual	-10.4376
▁joseph	-10.4376
▁magnificent	-10.4376
▁reputation	-10.4376
▁spongebob	-10.4376
▁sylvia	-10.4376
▁tragedy	-10.4376
▁underneath	-10.4376
▁brandnew	-10.4376
▁chamber	-10.4376
▁gloria	-10.4376
▁guitar	-10.4376
▁relative	-10.4376
▁review	-10.4376
▁superhero	-10.4376
▁instant	-10.4376
▁feast	-10.4376
▁generation	-10.4376
▁instructions	-10.4376
▁impressed	-10.4377
▁minister	-10.4378
▁ginger	-10.4379
▁counselor	-10.4381
▁chasing	-10.4382
▁logan	-10.4386
▁fucker	-10.4388
▁carlos	-10.4389
▁diner	-10.4389
▁dropping	-10.439
▁nina	-10.4395
▁hire	-10.4396
▁thatd	-10.4398
▁dang	-10.4401
▁bail	-10.4407
▁tone	-10.441
▁spain	-10.4411
▁frosty	-10.4412
▁passion	-10.4415
▁cents	-10.4428
▁embarrassed	-10.4434
▁sucker	-10.4434
▁slap	-10.4448
▁fore	-10.4449
▁aan	-10.4453
▁brakes	-10.4468
▁organize	-10.4476
▁host	-10.4483
▁meh	-10.4489
▁coughs	-10.4503
▁comme	-10.4506
▁slam	-10.4536
▁messing	-10.454
▁testing	-10.4542
▁yu	-10.4554
▁russ	-10.4563
▁francis	-10.4586
▁curt	-10.4586
▁crocodile	-10.4588
▁extraordinary	-10.4588
▁georgia	-10.4588
▁invitation	-10.4588
▁suicide	-10.4588
▁syracuse	-10.4588
▁territory	-10.4588
▁thieves	-10.4588
▁violence	-10.4588
▁education	-10.4588
▁quality	-10.4588
▁becoming	-10.4588
▁honeymoon	-10.4588
▁hooray	-10.4588
▁cannon	-10.4589
▁repair	-10.4589
▁throne	-10.4589
▁marnie	-10.4589
▁whew	-10.4589
▁fiona	-10.4589
▁urgent	-10.459
▁trunk	-10.4591
▁hahaha	-10.4591
▁hunter	-10.4591
tend	-10.4593
▁arrow	-10.4594
▁shopping	-10.4594
▁raven	-10.4594
▁thud	-10.4597
▁guardian	-10.4597
▁zeta	-10.4599
▁rice	-10.4603
▁neat	-10.4608
▁stunt	-10.461
▁dam	-10.4623
▁cutting	-10.4625
▁naturally	-10.4626
▁lib	-10.4637
▁squealing	-10.4645
▁crossed	-10.4661
cut	-10.4677
▁magn	-10.4678
▁cure	-10.4697
▁wasted	-10.4705
right	-10.4706
▁nomi	-10.4707
▁suffering	-10.4714
▁shoo	-10.4714
▁movement	-10.4718
▁busted	-10.4727
▁warned	-10.4734
▁confirm	-10.4742
▁pea	-10.4743
▁shave	-10.4747
▁electric	-10.4756
▁joined	-10.4757
▁goose	-10.4761
▁dame	-10.4765
ability	-10.4778
▁finest	-10.4779
▁prime	-10.4792
▁threat	-10.4795
▁blank	-10.4805
▁instruct	-10.4806
▁commercial	-10.4806
▁communist	-10.4806
▁frozen	-10.4806
▁increase	-10.4806
▁jewels	-10.4806
▁kansas	-10.4806
▁procedure	-10.4806
▁respond	-10.4806
▁technique	-10.4806
▁powder	-10.4806
▁gordon	-10.4806
▁jersey	-10.4806
▁disaster	-10.4806
▁edmond	-10.4806
▁smiling	-10.4806
▁snail	-10.4806
▁channel	-10.4806
▁branch	-10.4806
▁plastic	-10.4806
▁paddle	-10.4806
▁taffy	-10.4806
▁hollywood	-10.4806
▁oops	-10.4807
▁curtain	-10.4807
▁snack	-10.4809
▁enzo	-10.481
▁selfish	-10.4811
▁notre	-10.4811
▁performance	-10.4811
▁beings	-10.4814
▁task	-10.4816
▁maddy	-10.482
▁thick	-10.4822
▁sailor	-10.4825
▁poop	-10.4827
▁stake	-10.4828
▁alley	-10.4828
▁abra	-10.4828
▁marine	-10.4829
▁stall	-10.4832
▁compare	-10.4834
▁dreamed	-10.4838
▁standard	-10.484
▁cellar	-10.484
▁fully	-10.4856
boo	-10.4872
▁vari	-10.4874
▁ku	-10.4906
▁managed	-10.4906
▁backup	-10.4911
▁served	-10.4917
▁pond	-10.4918
▁louder	-10.4924
▁lawn	-10.4929
▁unc	-10.4935
▁conc	-10.4955
▁fay	-10.4961
▁pad	-10.4967
▁herr	-10.4969
▁aid	-10.497
▁successful	-10.4974
▁threaten	-10.4982
jack	-10.4986
born	-10.501
▁slight	-10.502
▁kidnap	-10.5025
▁aircraft	-10.5028
▁deputy	-10.5028
▁fahmarr	-10.5028
▁gorilla	-10.5028
▁intelligent	-10.5028
▁mexico	-10.5028
▁muppet	-10.5028
▁patricia	-10.5028
▁presence	-10.5028
▁upbeat	-10.5028
▁average	-10.5028
▁poppins	-10.5028
▁underdog	-10.5028
▁farewell	-10.5028
▁monitor	-10.5028
▁shield	-10.5028
▁anytime	-10.5028
▁steak	-10.5028
▁conquer	-10.5028
▁youth	-10.5028
▁knowledge	-10.5028
▁recall	-10.5028
▁bureau	-10.5029
▁apology	-10.5029
▁mummy	-10.5029
▁ellen	-10.5029
▁blaring	-10.503
▁doorbell	-10.5032
▁alice	-10.5033
▁mutt	-10.5038
▁cliff	-10.5041
▁coke	-10.5043
▁medal	-10.5044
▁geez	-10.5045
▁exhausted	-10.5045
▁blade	-10.5052
▁arranged	-10.5052
▁ay	-10.5057
▁locker	-10.5064
▁sonny	-10.5064
▁properly	-10.5065
▁beeps	-10.5066
▁fond	-10.5076
▁tru	-10.5076
▁useful	-10.5078
▁armed	-10.5084
▁parties	-10.51
▁oughta	-10.5103
▁hah	-10.5105
▁lifetime	-10.5111
▁rein	-10.5112
▁subtitles	-10.5119
kov	-10.5122
▁spending	-10.5124
▁bella	-10.5131
▁jr	-10.5154
▁maria	-10.5172
▁kat	-10.5172
▁touching	-10.5182
▁escaped	-10.5187
▁cora	-10.5187
▁tang	-10.5188
▁ford	-10.5189
▁squeal	-10.5195
▁screech	-10.5195
burg	-10.52
▁dot	-10.5213
get	-10.5215
▁til	-10.5225
worth	-10.5226
▁toi	-10.5233
▁range	-10.5239
▁instrument	-10.5245
▁possess	-10.525
▁detect	-10.5253
▁barr	-10.5255
▁accomplish	-10.5255
▁bernard	-10.5255
▁communication	-10.5255
▁establish	-10.5255
▁explanation	-10.5255
▁invasion	-10.5255
▁murmuring	-10.5255
▁reaiiy	-10.5255
▁villain	-10.5255
▁campaign	-10.5255
▁complex	-10.5255
▁sacred	-10.5255
▁snarling	-10.5255
▁wealth	-10.5255
▁graduate	-10.5255
▁cindy	-10.5255
▁theory	-10.5255
▁superior	-10.5255
▁snoring	-10.5256
▁illusion	-10.5256
▁scale	-10.5256
▁dodge	-10.5258
▁adjust	-10.5258
▁arrangement	-10.5258
▁entrance	-10.5258
▁obey	-10.5259
▁mitch	-10.5261
▁emma	-10.5265
▁reward	-10.5265
▁stress	-10.5267
▁bot	-10.5276
▁surrounded	-10.528
▁cough	-10.529
▁fianc	-10.529
▁disappointed	-10.5294
▁jeff	-10.5296
▁dating	-10.5296
▁iet	-10.5296
▁atta	-10.5297
▁dor	-10.5302
▁musician	-10.5304
▁belly	-10.5306
▁ella	-10.5325
▁drove	-10.5325
▁easter	-10.534
▁reno	-10.5357
pan	-10.5379
▁rag	-10.5382
▁lili	-10.5384
tain	-10.54
actic	-10.54
ugh	-10.541
▁arab	-10.5421
who	-10.544
▁walker	-10.5454
▁hose	-10.5455
▁deadly	-10.5456
▁lance	-10.5463
▁encourage	-10.5488
▁alcohol	-10.5488
▁capsule	-10.5488
▁ceremony	-10.5488
▁squeeze	-10.5488
▁ultimate	-10.5488
▁carriage	-10.5488
▁generous	-10.5488
▁praise	-10.5488
▁patrol	-10.5488
▁cattle	-10.5488
▁roast	-10.5488
▁basic	-10.5489
▁construction	-10.549
▁detective	-10.5491
▁piggy	-10.5492
four	-10.5492
▁luke	-10.5492
▁puff	-10.5492
▁nun	-10.5493
▁barrel	-10.5493
▁grin	-10.5495
▁estate	-10.5496
▁stream	-10.5497
▁dining	-10.5497
▁jewell	-10.5498
▁maiden	-10.5504
▁flor	-10.5506
▁collection	-10.5507
▁toll	-10.5511
▁mona	-10.5517
▁rolling	-10.5522
▁invented	-10.5524
▁sox	-10.5524
▁crystal	-10.5535
▁zu	-10.5537
▁iii	-10.5538
▁fried	-10.5542
spect	-10.5545
▁pissed	-10.5586
▁auntie	-10.5594
▁meowing	-10.5602
cus	-10.5603
▁detail	-10.5604
▁cable	-10.5614
▁triple	-10.5636
▁delivered	-10.5655
▁bare	-10.566
eau	-10.5684
▁guilt	-10.5693
▁lui	-10.5708
▁michel	-10.5712
▁runnin	-10.5713
▁rd	-10.5717
▁eve	-10.5723
▁pile	-10.5724
▁cigar	-10.5725
▁anthony	-10.5726
▁burglar	-10.5726
▁happily	-10.5726
▁incident	-10.5726
▁mushroom	-10.5726
▁pancake	-10.5726
▁political	-10.5726
▁randall	-10.5726
▁adorable	-10.5726
▁retreat	-10.5726
▁glenn	-10.5726
▁floop	-10.5726
▁raymond	-10.5726
▁swamp	-10.5726
▁purple	-10.5726
▁element	-10.5726
▁lambert	-10.5726
▁daisy	-10.5726
▁utter	-10.5726
▁wailing	-10.5726
▁crane	-10.5726
▁boris	-10.5728
▁bubble	-10.5728
▁pumpkin	-10.5728
▁hostage	-10.5728
▁turbo	-10.5729
▁irish	-10.5729
▁vanya	-10.5731
▁possession	-10.5732
▁owns	-10.5732
▁marcus	-10.5734
▁freddy	-10.5735
▁jj	-10.5737
▁worthless	-10.5744
▁minor	-10.5746
▁drill	-10.5747
▁highway	-10.5747
▁dj	-10.5747
▁madness	-10.5748
▁freshman	-10.5748
▁angeles	-10.577
▁abandoned	-10.5774
▁bothering	-10.5786
▁gem	-10.5796
ello	-10.5818
read	-10.5827
▁dood	-10.5835
where	-10.5836
▁tempt	-10.5847
▁prom	-10.5855
tric	-10.5856
▁pest	-10.5868
▁pill	-10.5886
▁rode	-10.5887
▁purse	-10.5896
▁jumping	-10.5905
▁timing	-10.5916
▁heroic	-10.5932
bird	-10.5942
▁there	-10.5953
▁packed	-10.5956
▁confess	-10.5964
▁achieve	-10.597
▁benefit	-10.597
▁creaking	-10.597
▁dauntless	-10.597
▁disgrace	-10.597
▁intention	-10.597
▁nephew	-10.597
▁pembroke	-10.597
▁principal	-10.597
▁wrestle	-10.597
▁companion	-10.597
▁district	-10.597
▁helmet	-10.597
▁lydia	-10.597
▁routine	-10.597
▁beverly	-10.597
▁fifth	-10.597
▁whatll	-10.597
▁reveal	-10.597
▁balloon	-10.597
▁debora	-10.5971
▁pillow	-10.5972
▁ladder	-10.5973
▁boddy	-10.5974
▁stargirl	-10.5974
▁electricity	-10.5974
▁iook	-10.5976
▁frame	-10.5976
▁bucket	-10.5976
▁bacon	-10.5976
▁jiji	-10.5977
▁shelter	-10.5978
▁rogo	-10.5987
▁foul	-10.5988
▁rome	-10.5991
▁annoying	-10.5993
▁skate	-10.5994
▁jesse	-10.5996
▁howling	-10.6004
▁laser	-10.6006
▁civil	-10.6007
tail	-10.601
▁creepy	-10.6029
bel	-10.6029
▁sore	-10.6045
▁offering	-10.6054
oooo	-10.606
▁tib	-10.6061
▁germany	-10.6071
▁pru	-10.6079
▁merci	-10.6081
▁cub	-10.6088
▁hiya	-10.6098
▁vampire	-10.61
▁ai	-10.6125
▁emotion	-10.6137
▁mee	-10.6146
▁flee	-10.615
amb	-10.6152
▁rank	-10.6157
more	-10.6173
▁oldest	-10.6184
▁painful	-10.6185
▁weigh	-10.6187
▁cher	-10.6188
mission	-10.619
power	-10.6194
fall	-10.6203
▁india	-10.6209
▁worthy	-10.6214
▁boot	-10.6218
▁activity	-10.622
▁awkward	-10.622
▁daphne	-10.622
▁dinosaur	-10.622
▁disguise	-10.622
▁eleanor	-10.622
▁excitement	-10.622
▁galaxy	-10.622
▁moscow	-10.622
▁privilege	-10.622
▁squawks	-10.622
▁underground	-10.622
▁wrestling	-10.622
▁aurora	-10.622
▁bishop	-10.622
▁exhibit	-10.622
▁worries	-10.622
▁houston	-10.622
▁script	-10.622
▁clamoring	-10.622
▁draft	-10.622
▁elbow	-10.622
▁shatter	-10.622
▁stiff	-10.622
▁ceiling	-10.622
▁prevent	-10.622
▁avery	-10.622
▁decade	-10.622
▁hustle	-10.622
▁deaf	-10.622
▁adopt	-10.622
▁underwater	-10.6221
zzle	-10.6221
▁sheep	-10.6222
▁display	-10.6222
▁drift	-10.6222
▁edward	-10.6222
▁erik	-10.6223
▁robinson	-10.6225
▁severe	-10.6225
▁greet	-10.6226
▁bryant	-10.6226
▁shani	-10.6227
▁solution	-10.6227
▁snip	-10.6227
▁manners	-10.6228
▁lazy	-10.6228
ologist	-10.6231
▁markos	-10.6231
▁thirsty	-10.6232
▁tot	-10.6234
▁lightning	-10.6235
▁rumor	-10.6235
▁treated	-10.6235
▁memo	-10.6237
▁junior	-10.6241
▁genetic	-10.6243
▁statement	-10.6246
▁stack	-10.6246
▁mansion	-10.6246
▁sanders	-10.6248
▁site	-10.6254
▁fairies	-10.6256
▁hij	-10.6257
▁monk	-10.6264
▁indiana	-10.627
▁terr	-10.6277
▁faction	-10.6283
▁highest	-10.6293
▁refer	-10.6297
▁normally	-10.6312
▁lame	-10.6319
▁released	-10.632
bone	-10.6322
▁sock	-10.6328
▁ji	-10.6354
▁brake	-10.637
▁studying	-10.6374
▁chuckle	-10.6393
▁fri	-10.6401
▁mic	-10.6402
▁climbing	-10.6416
▁bean	-10.6416
ku	-10.6425
play	-10.6429
▁tense	-10.6445
▁incredibl	-10.6452
▁involve	-10.6455
▁comb	-10.646
▁pri	-10.6466
▁ambulance	-10.6476
▁anxious	-10.6476
▁behalf	-10.6476
▁behold	-10.6476
▁declare	-10.6476
▁enormous	-10.6476
▁furniture	-10.6476
▁knuck	-10.6476
▁possibility	-10.6476
▁reception	-10.6476
▁sensitive	-10.6476
▁technology	-10.6476
▁telegram	-10.6476
▁wadsworth	-10.6476
▁necklace	-10.6476
▁stroke	-10.6476
▁brooklyn	-10.6476
▁gardner	-10.6476
▁beatrix	-10.6476
▁teenage	-10.6476
▁pattern	-10.6476
▁charity	-10.6476
▁reckon	-10.6476
▁drank	-10.6476
▁region	-10.6476
▁expose	-10.6477
▁invade	-10.6477
▁authorities	-10.6477
▁drain	-10.6477
▁grip	-10.6477
▁accus	-10.6477
▁morris	-10.6477
▁steer	-10.6479
▁backwards	-10.6479
▁slipped	-10.6479
▁convention	-10.648
▁online	-10.648
▁hissing	-10.648
▁attic	-10.6481
▁hyah	-10.6481
▁whod	-10.6483
▁halt	-10.6484
▁clang	-10.6485
▁donna	-10.6485
▁magnet	-10.6485
▁panda	-10.6486
▁expression	-10.6488
▁swell	-10.6492
▁rick	-10.6498
▁layne	-10.6503
▁glow	-10.6504
▁oak	-10.6505
▁ou	-10.651
▁spies	-10.6511
▁sais	-10.6514
▁charged	-10.6516
▁removed	-10.653
▁itch	-10.6537
▁threatened	-10.6543
▁payment	-10.6552
▁err	-10.6564
▁floating	-10.6577
▁chris	-10.6605
▁bin	-10.6606
▁sweater	-10.662
▁beside	-10.664
▁victoria	-10.6648
▁tomb	-10.6653
▁poster	-10.6654
vous	-10.6658
ugged	-10.6671
▁auto	-10.6685
▁cord	-10.6705
▁replace	-10.6705
graph	-10.671
know	-10.6711
walk	-10.6716
▁gel	-10.6716
▁opera	-10.6728
▁favour	-10.6738
▁abigail	-10.6739
▁associate	-10.6739
▁atlanta	-10.6739
▁fascinating	-10.6739
▁fischoeder	-10.6739
▁laundry	-10.6739
▁margaret	-10.6739
▁meanwhile	-10.6739
▁montgomery	-10.6739
▁roosevelt	-10.6739
▁struggle	-10.6739
▁television	-10.6739
▁cackling	-10.6739
▁predict	-10.6739
▁ritchie	-10.6739
▁craft	-10.6739
▁jenny	-10.674
▁peasant	-10.674
▁stahr	-10.674
▁method	-10.674
▁oath	-10.674
▁sweep	-10.674
▁havin	-10.674
▁tackle	-10.674
▁downtown	-10.674
▁slop	-10.6741
▁wives	-10.6741
▁honour	-10.6742
▁advise	-10.6742
▁romance	-10.6743
▁strut	-10.6743
▁owls	-10.6745
▁chaos	-10.6746
▁upper	-10.6746
▁actress	-10.6747
▁scout	-10.6747
▁pimp	-10.6749
▁franklin	-10.675
▁merely	-10.6752
▁relieved	-10.6753
▁motherfuckin	-10.6756
▁viva	-10.676
▁babysit	-10.6763
▁soda	-10.6764
▁elm	-10.6767
▁pace	-10.6772
▁captured	-10.6773
▁convinced	-10.6774
▁temper	-10.6775
▁armor	-10.6788
▁moron	-10.6795
▁tries	-10.6796
▁weed	-10.6807
▁confirmed	-10.681
▁rosen	-10.6836
▁peaceful	-10.6839
▁jou	-10.6847
▁reality	-10.6856
▁bunk	-10.6887
exp	-10.6909
▁quietly	-10.6917
▁raf	-10.6917
▁thrown	-10.6917
▁troop	-10.6925
▁prim	-10.6934
▁mode	-10.6947
class	-10.6983
▁tomato	-10.6998
▁freaking	-10.6999
▁affect	-10.7004
▁author	-10.7005
▁virgin	-10.7007
▁permit	-10.7008
▁coconut	-10.701
▁dwarf	-10.701
▁facility	-10.701
▁mckenna	-10.701
▁response	-10.701
▁stubborn	-10.701
▁sullivan	-10.701
▁tentacular	-10.701
▁wickens	-10.701
▁wisdom	-10.701
▁peopie	-10.701
▁permanent	-10.701
▁unknown	-10.701
▁worship	-10.701
▁reverend	-10.701
▁darius	-10.701
▁evelyn	-10.701
▁choir	-10.701
▁remote	-10.701
▁niece	-10.701
▁clyde	-10.701
▁distant	-10.701
▁interfere	-10.701
▁creation	-10.701
▁larry	-10.701
▁maniac	-10.701
▁abraham	-10.701
▁iove	-10.7011
▁lockhart	-10.7011
▁referee	-10.7012
▁shining	-10.7012
▁burden	-10.7012
▁upside	-10.7012
▁begging	-10.7013
▁reject	-10.7013
▁brook	-10.7014
▁hyper	-10.7015
▁tsar	-10.7016
▁digging	-10.7017
▁broad	-10.7018
▁unlike	-10.7018
▁flush	-10.7019
▁spiderman	-10.7019
▁pork	-10.7019
▁gently	-10.7022
▁bible	-10.7026
▁tits	-10.7027
▁chairman	-10.7029
▁brian	-10.7032
▁commissioner	-10.7038
▁myth	-10.7038
▁ability	-10.7046
▁potion	-10.7047
▁stir	-10.7051
▁stray	-10.7056
▁forgetting	-10.7061
▁voss	-10.7084
▁rebel	-10.7092
▁peel	-10.7137
▁dope	-10.7156
tory	-10.7164
▁bru	-10.7171
▁cleaner	-10.7175
post	-10.7185
▁prop	-10.7194
▁chug	-10.7202
▁blessing	-10.7205
▁cul	-10.7218
▁joint	-10.722
▁weep	-10.7232
▁medic	-10.7239
▁entering	-10.7241
▁carter	-10.7254
▁accepted	-10.7263
▁absolute	-10.7271
▁mornin	-10.7274
▁darlin	-10.7277
▁entertain	-10.7284
▁fright	-10.7286
▁apologies	-10.7288
▁aviation	-10.7288
▁background	-10.7288
▁balboa	-10.7288
▁dungeon	-10.7288
▁environment	-10.7288
▁fortunate	-10.7288
▁holmes	-10.7288
▁jonathan	-10.7288
▁prophecy	-10.7288
▁satisfied	-10.7288
▁scientific	-10.7288
▁stammers	-10.7288
▁stifler	-10.7288
▁submarine	-10.7288
▁tokyo	-10.7288
▁underwear	-10.7288
▁vegetable	-10.7288
▁patience	-10.7288
▁shrink	-10.7288
▁allnut	-10.7288
▁chirping	-10.7288
▁instance	-10.7288
▁rainbow	-10.7288
▁ritual	-10.7288
▁smoking	-10.7288
▁leonard	-10.7288
▁voyage	-10.7288
▁herbert	-10.7288
▁monroe	-10.7288
▁martha	-10.7288
▁visual	-10.7288
▁slice	-10.7288
▁fuzz	-10.7288
▁largo	-10.7288
▁racing	-10.7288
▁organization	-10.7288
▁backyard	-10.7289
▁sunset	-10.7289
▁humble	-10.729
▁employee	-10.7291
▁moonlight	-10.7291
▁cherry	-10.7291
▁heather	-10.7292
▁combat	-10.7292
▁childhood	-10.7293
▁grownup	-10.7294
▁punishment	-10.7294
▁puck	-10.7295
▁horri	-10.7296
▁groom	-10.7297
▁clip	-10.7299
▁spotted	-10.7301
▁patton	-10.7302
suit	-10.7305
▁cam	-10.732
▁nickel	-10.7321
▁particularly	-10.7321
▁mechanical	-10.7322
▁yea	-10.7323
▁coma	-10.7328
▁sixty	-10.733
▁recon	-10.7332
▁exc	-10.7333
▁pawn	-10.7334
▁mais	-10.7343
▁provided	-10.7347
▁ballet	-10.7351
▁yah	-10.7353
▁ace	-10.7355
▁herb	-10.7357
▁peru	-10.7383
▁bio	-10.7388
▁kindness	-10.7401
▁rh	-10.7401
▁realise	-10.7403
▁introduced	-10.7409
▁hint	-10.7411
▁bass	-10.7427
▁cheating	-10.7442
▁custom	-10.7447
▁parle	-10.7452
▁gag	-10.7458
▁asses	-10.7461
▁degree	-10.7492
▁fee	-10.7507
▁wally	-10.7515
▁abandon	-10.7516
▁joker	-10.7534
▁bough	-10.7553
▁appropriate	-10.7573
▁arguing	-10.7573
▁arrival	-10.7573
▁descend	-10.7573
▁disagree	-10.7573
▁emerald	-10.7573
▁injured	-10.7573
▁instinct	-10.7573
▁northbrook	-10.7573
▁orchestra	-10.7573
▁pronounce	-10.7573
▁squawking	-10.7573
▁supplies	-10.7573
▁suspicious	-10.7573
▁symbol	-10.7573
▁convict	-10.7573
▁eternal	-10.7573
▁initial	-10.7573
▁oxygen	-10.7573
▁sneeze	-10.7573
▁ingrid	-10.7573
▁vodka	-10.7573
▁jacob	-10.7573
▁montana	-10.7573
▁donald	-10.7573
▁keller	-10.7573
▁amaze	-10.7573
▁cruise	-10.7573
▁lovelace	-10.7573
▁tragic	-10.7573
▁pacific	-10.7573
▁wheat	-10.7573
▁piglet	-10.7574
▁western	-10.7574
▁mortal	-10.7574
▁radar	-10.7574
▁mystic	-10.7574
▁puzzle	-10.7574
▁russell	-10.7574
▁basketball	-10.7575
▁phase	-10.7575
▁mutant	-10.7575
water	-10.7575
▁deuce	-10.7576
▁item	-10.7576
▁borg	-10.7576
▁announcement	-10.7579
▁crook	-10.758
▁technically	-10.758
▁riddle	-10.758
▁tribe	-10.7581
homme	-10.7586
▁jimbo	-10.7586
▁copper	-10.7588
bert	-10.7592
▁jury	-10.7592
▁benny	-10.7593
▁grandson	-10.7594
▁ditch	-10.7597
▁examine	-10.7601
▁battery	-10.7604
▁campus	-10.7609
▁taik	-10.7613
▁straining	-10.762
▁fuss	-10.7628
▁kom	-10.7631
▁wage	-10.7633
▁tickle	-10.7642
▁bess	-10.7651
▁corpse	-10.7673
▁hike	-10.7677
▁earned	-10.7685
▁gray	-10.7688
▁ringo	-10.7692
▁cloth	-10.7695
▁lana	-10.77
▁when	-10.7701
▁mini	-10.771
▁marian	-10.7723
▁wak	-10.7744
▁corps	-10.777
▁scum	-10.7798
▁tire	-10.7804
bridge	-10.7838
free	-10.7839
▁produce	-10.784
▁immediate	-10.785
▁movin	-10.7853
▁bind	-10.7858
▁execut	-10.7859
▁counsel	-10.786
▁journal	-10.7864
destruct	-10.7867
▁academy	-10.7867
▁believing	-10.7867
▁bennett	-10.7867
▁buffalo	-10.7867
▁clattering	-10.7867
▁conclusion	-10.7867
▁obstacle	-10.7867
▁recruit	-10.7867
▁therapy	-10.7867
▁volcano	-10.7867
▁beezus	-10.7867
▁belief	-10.7867
▁bernie	-10.7867
▁griff	-10.7867
▁nigger	-10.7867
▁relief	-10.7867
▁destruction	-10.7867
▁trevor	-10.7867
▁sensation	-10.7867
▁madison	-10.7867
▁violin	-10.7867
▁donnie	-10.7867
▁gregory	-10.7867
▁serving	-10.7867
▁historic	-10.7867
▁wiii	-10.7867
▁slur	-10.7868
▁consult	-10.7868
▁crank	-10.7868
▁cramp	-10.7868
▁doomed	-10.7868
▁muttering	-10.7868
▁beria	-10.7868
▁assembl	-10.7868
▁depth	-10.7868
▁sponge	-10.7868
▁soap	-10.7868
▁strateg	-10.7868
▁profit	-10.7868
▁grid	-10.7868
▁granger	-10.7868
▁budget	-10.7868
▁bedders	-10.7868
▁opposite	-10.7868
▁cried	-10.7869
▁bald	-10.7869
▁leap	-10.7869
▁woodward	-10.7869
▁rubber	-10.7869
▁quote	-10.7869
▁divide	-10.787
▁kidnapping	-10.787
▁greetings	-10.787
▁psst	-10.787
▁clark	-10.7873
▁argh	-10.7873
▁skinny	-10.7873
▁series	-10.7874
▁stalk	-10.7875
▁delta	-10.7875
▁bombay	-10.7876
▁critical	-10.7877
▁finch	-10.7882
▁squat	-10.7884
▁discussion	-10.7889
▁onion	-10.7895
▁flora	-10.7897
▁dna	-10.7906
▁hush	-10.7911
▁pickup	-10.7916
▁pep	-10.792
▁restore	-10.7935
▁strap	-10.7935
▁grey	-10.7943
▁lump	-10.7943
▁rex	-10.7947
▁sixth	-10.7949
▁warne	-10.7952
▁gig	-10.7969
▁caul	-10.799
▁passes	-10.8003
▁survived	-10.8007
▁blown	-10.8012
▁mir	-10.8017
▁howdy	-10.8027
▁intr	-10.8029
▁frankly	-10.8044
plan	-10.8057
▁core	-10.808
▁ike	-10.8101
▁convince	-10.8131
▁fletch	-10.8133
▁avenue	-10.817
▁biscuit	-10.817
▁celebration	-10.817
▁cyril	-10.817
▁dedicated	-10.817
▁kincaid	-10.817
▁lerigot	-10.817
▁metaphor	-10.817
▁mississippi	-10.817
▁pocahontas	-10.817
▁satellite	-10.817
▁threadgoode	-10.817
▁whitaker	-10.817
▁amelia	-10.817
▁assistance	-10.817
▁passenger	-10.817
▁picnic	-10.817
▁register	-10.817
▁existence	-10.817
▁penalty	-10.817
▁splash	-10.817
▁jemima	-10.817
▁puppet	-10.817
▁hawaii	-10.817
▁sloan	-10.817
▁thisll	-10.817
▁shotgun	-10.817
▁liquid	-10.817
▁hilili	-10.8171
▁protest	-10.8171
▁comic	-10.8171
▁spoon	-10.8171
▁statue	-10.8171
▁status	-10.8171
▁rifle	-10.8171
▁carpet	-10.8171
▁freezing	-10.8171
▁terrified	-10.8171
▁carrot	-10.8171
▁saddle	-10.8172
▁abort	-10.8174
▁journalist	-10.8174
▁choke	-10.8174
▁bingo	-10.8175
▁elsie	-10.8175
▁invention	-10.8175
▁subway	-10.8176
▁appearance	-10.8176
▁angle	-10.8177
▁jelly	-10.8179
▁reaction	-10.8179
▁cities	-10.818
▁parade	-10.8181
▁dutch	-10.8181
▁slum	-10.8181
▁centre	-10.8183
▁temp	-10.8188
ological	-10.819
▁buckle	-10.819
▁blah	-10.8193
▁suggestion	-10.8193
▁passage	-10.8193
▁kane	-10.8194
▁feei	-10.8195
eux	-10.8195
▁freeway	-10.8196
▁burst	-10.8198
▁skies	-10.8198
▁drip	-10.8199
▁zoc	-10.82
▁directly	-10.821
▁humanity	-10.8215
▁cries	-10.8219
▁julian	-10.8222
▁beak	-10.8228
▁manual	-10.8234
▁menu	-10.8238
▁barry	-10.8242
cular	-10.8243
▁refused	-10.8251
▁hopeless	-10.8254
▁rage	-10.8267
▁wounded	-10.8273
▁limo	-10.8284
▁beam	-10.8316
▁plug	-10.8338
▁nog	-10.8338
▁tout	-10.8356
▁peek	-10.8393
▁pup	-10.8424
▁iive	-10.8439
▁capture	-10.8443
▁blond	-10.8448
guard	-10.8454
▁critic	-10.8472
▁batter	-10.8475
ization	-10.8483
▁thorough	-10.8483
misunderstanding	-10.8483
▁circuit	-10.8483
▁dracula	-10.8483
▁enterprise	-10.8483
▁haldeman	-10.8483
▁librarian	-10.8483
▁residence	-10.8483
▁sequence	-10.8483
▁titanic	-10.8483
▁vacuum	-10.8483
▁whinnying	-10.8483
▁dessert	-10.8483
▁glorious	-10.8483
▁install	-10.8483
▁investigate	-10.8483
▁length	-10.8483
▁rhyme	-10.8483
▁sausage	-10.8483
▁suitcase	-10.8483
▁sydney	-10.8483
▁valiant	-10.8483
▁resort	-10.8483
▁colour	-10.8483
▁grub	-10.8483
▁rachel	-10.8483
▁barbara	-10.8483
▁gamble	-10.8483
▁daffy	-10.8483
▁garlic	-10.8483
▁critter	-10.8483
▁aaron	-10.8483
▁spray	-10.8483
▁goodnight	-10.8483
▁puppy	-10.8483
qualified	-10.8483
▁resign	-10.8484
▁breed	-10.8484
▁buttermaker	-10.8484
▁widow	-10.8485
▁interrogation	-10.8485
▁rumble	-10.8485
▁smack	-10.8485
▁twitch	-10.8485
▁wrapped	-10.8485
▁patou	-10.8486
▁sparta	-10.8487
▁passionate	-10.8488
▁joanna	-10.8489
▁salad	-10.8489
▁blend	-10.8489
▁norman	-10.8489
▁shaking	-10.849
▁confession	-10.849
▁development	-10.8492
▁acid	-10.8493
▁barley	-10.8495
▁collar	-10.8498
▁rising	-10.8498
▁doggy	-10.8499
▁starving	-10.85
▁determined	-10.8502
▁ninety	-10.8503
▁humor	-10.8509
▁minion	-10.851
▁raid	-10.851
▁peck	-10.8514
▁penis	-10.8522
▁lori	-10.8525
▁vast	-10.8527
▁dice	-10.8527
▁replaced	-10.853
▁roman	-10.8531
▁fries	-10.8535
▁scu	-10.8549
▁mop	-10.8555
▁kable	-10.8568
▁mash	-10.8572
▁muta	-10.8573
▁dime	-10.8575
▁drowning	-10.8589
▁boxes	-10.8592
▁martini	-10.8604
▁bitter	-10.8614
▁asp	-10.8616
▁beep	-10.8639
▁fame	-10.8669
▁bake	-10.869
▁robe	-10.8699
▁fist	-10.8722
friend	-10.8755
fuck	-10.8761
▁folk	-10.8765
▁pub	-10.8782
gram	-10.8786
▁dim	-10.8805
▁absurd	-10.8805
▁argument	-10.8805
▁certificate	-10.8805
▁chemical	-10.8805
▁corrupt	-10.8805
▁heavyweight	-10.8805
▁kapitein	-10.8805
▁pakistan	-10.8805
▁sauvage	-10.8805
▁soviet	-10.8805
▁auction	-10.8805
▁congress	-10.8805
▁davenport	-10.8805
▁practicing	-10.8805
▁shoeshine	-10.8805
▁slaughter	-10.8805
▁surgery	-10.8805
▁dixon	-10.8805
▁nelson	-10.8805
▁odette	-10.8805
▁preserve	-10.8805
▁shaolin	-10.8805
▁studied	-10.8805
▁function	-10.8806
▁berlin	-10.8806
▁utah	-10.8806
▁personnel	-10.8806
▁otto	-10.8806
▁appeal	-10.8806
▁bloom	-10.8806
▁ankle	-10.8806
▁headache	-10.8806
▁radical	-10.8806
▁define	-10.8806
▁mmmmmm	-10.8808
▁tum	-10.8808
▁thornton	-10.8808
▁committed	-10.8809
▁ripley	-10.881
▁terror	-10.8812
▁production	-10.8815
▁glue	-10.8816
▁owned	-10.8818
▁commandant	-10.8819
▁straw	-10.8819
▁beamen	-10.882
▁amongst	-10.882
▁jeep	-10.8822
▁roam	-10.8827
▁inspired	-10.8828
▁coup	-10.8829
▁colony	-10.8831
▁applauding	-10.8846
▁faithful	-10.8847
▁shade	-10.8859
▁classic	-10.8864
▁bandit	-10.8864
▁beau	-10.8873
▁fastest	-10.8876
▁alter	-10.8877
▁thus	-10.8883
▁tempo	-10.8907
▁toss	-10.891
▁wid	-10.8927
▁ooo	-10.8964
▁loosen	-10.9003
ida	-10.9011
vid	-10.9033
ebra	-10.9062
▁formal	-10.9077
▁disappoint	-10.9077
world	-10.911
piece	-10.9114
▁wiz	-10.9137
▁alphonse	-10.9139
▁barbecue	-10.9139
▁blunden	-10.9139
▁callaghan	-10.9139
▁celebrating	-10.9139
▁cristina	-10.9139
▁discipline	-10.9139
▁fantasy	-10.9139
▁feature	-10.9139
▁fulfill	-10.9139
▁geoffrey	-10.9139
▁grief	-10.9139
▁horror	-10.9139
▁hubbell	-10.9139
▁judgment	-10.9139
▁knives	-10.9139
▁leonidas	-10.9139
▁luggage	-10.9139
▁lunatic	-10.9139
▁mcdeere	-10.9139
▁minnesota	-10.9139
▁religion	-10.9139
▁scarecrow	-10.9139
▁temporary	-10.9139
▁tiktok	-10.9139
▁typical	-10.9139
▁vegetarian	-10.9139
▁cricket	-10.9139
▁delicate	-10.9139
▁huddle	-10.9139
▁iittie	-10.9139
▁tournament	-10.9139
▁varsity	-10.9139
▁wretch	-10.9139
▁afterwards	-10.9139
▁combination	-10.9139
▁liberty	-10.9139
▁robbery	-10.9139
▁empire	-10.9139
▁hoffman	-10.9139
▁shouid	-10.9139
▁butterfly	-10.9139
▁toula	-10.9139
▁coffin	-10.9139
▁senate	-10.9139
▁hazel	-10.9139
▁aziz	-10.9139
▁worn	-10.9139
▁indicate	-10.9139
▁pierre	-10.9139
▁sample	-10.9139
▁vomit	-10.9139
▁diane	-10.9139
▁electronic	-10.9139
▁nokes	-10.9139
▁mankind	-10.914
▁denied	-10.914
▁rattle	-10.914
▁acres	-10.914
▁intercept	-10.914
▁influence	-10.914
▁strand	-10.914
▁playoffs	-10.914
▁swarm	-10.9141
▁nou	-10.9141
▁whatre	-10.9141
▁wholl	-10.9141
▁civilian	-10.9142
▁crunch	-10.9142
bell	-10.9143
▁nuys	-10.9143
▁informant	-10.9144
▁slipping	-10.9144
▁claude	-10.9144
▁media	-10.9145
▁drama	-10.9146
▁disney	-10.9147
▁glide	-10.915
▁begun	-10.915
▁slot	-10.9155
▁gaze	-10.9155
▁personality	-10.916
▁diary	-10.9162
▁halfway	-10.9165
▁allies	-10.9165
▁sandwiches	-10.9168
▁ashes	-10.9172
seven	-10.9183
▁iot	-10.9184
▁cera	-10.9186
▁presentation	-10.9186
▁portal	-10.9186
▁booth	-10.9187
▁bash	-10.9196
hour	-10.9202
▁stine	-10.9205
▁kiddo	-10.9208
▁matches	-10.921
▁remy	-10.9218
▁marie	-10.9223
▁drawn	-10.9225
▁anal	-10.9229
▁loudly	-10.9237
▁marion	-10.9238
▁maw	-10.9255
stand	-10.9279
▁oni	-10.9285
▁cue	-10.932
▁sang	-10.932
▁vest	-10.9348
▁circ	-10.9358
▁earl	-10.9405
▁cove	-10.9406
position	-10.9445
▁grove	-10.9469
▁electro	-10.9483
▁promot	-10.9484
▁aculos	-10.9484
▁almighty	-10.9484
▁association	-10.9484
▁athletic	-10.9484
▁automatic	-10.9484
▁azrael	-10.9484
▁bernstein	-10.9484
▁centipede	-10.9484
▁centuries	-10.9484
▁destination	-10.9484
▁episode	-10.9484
▁essential	-10.9484
▁evacuate	-10.9484
▁financial	-10.9484
▁harvest	-10.9484
▁liquor	-10.9484
▁railroad	-10.9484
▁shrieks	-10.9484
▁supreme	-10.9484
▁unexpected	-10.9484
▁zijn	-10.9484
▁chubby	-10.9484
▁happier	-10.9484
▁inhales	-10.9484
▁rugby	-10.9484
▁struck	-10.9484
▁dubois	-10.9484
▁trophy	-10.9484
▁insect	-10.9484
▁jenning	-10.9484
▁sorrow	-10.9484
▁anchor	-10.9484
▁bargain	-10.9484
▁thrust	-10.9484
▁polish	-10.9484
▁fulton	-10.9484
▁dawg	-10.9484
▁retard	-10.9484
▁ogre	-10.9484
▁phillip	-10.9484
▁ducal	-10.9484
▁incoming	-10.9484
▁makin	-10.9484
▁upgrade	-10.9484
▁llke	-10.9484
▁clubber	-10.9484
▁vital	-10.9485
▁slappy	-10.9485
▁network	-10.9485
▁hisses	-10.9485
▁republican	-10.9485
▁hunch	-10.9486
▁heavi	-10.9487
▁grim	-10.9487
▁compete	-10.9487
▁hesitate	-10.9488
▁leadership	-10.9488
▁commitment	-10.9491
▁jomo	-10.9491
▁flea	-10.9493
▁stamp	-10.9494
▁after	-10.9495
▁strictly	-10.9496
▁oven	-10.9498
▁diving	-10.9501
▁flatter	-10.9501
▁dork	-10.9502
▁riff	-10.9502
▁abuse	-10.9504
▁stepped	-10.9506
▁pinch	-10.9506
▁eastern	-10.9507
▁rico	-10.951
▁slightly	-10.9511
▁feck	-10.9512
▁salon	-10.9515
▁wack	-10.9518
▁blonde	-10.9522
▁gran	-10.9523
▁therm	-10.9525
hart	-10.9537
▁ranger	-10.955
▁bait	-10.9551
▁endless	-10.9563
▁endure	-10.9577
▁raw	-10.958
▁straighten	-10.9585
▁tender	-10.959
▁cube	-10.9599
▁mere	-10.9615
▁cass	-10.9626
▁gram	-10.9658
▁annu	-10.9665
▁dorm	-10.9702
▁zoot	-10.971
pitched	-10.9749
▁slate	-10.9756
▁fait	-10.9791
▁arrange	-10.9799
▁unfortunate	-10.9824
▁occur	-10.9839
▁neighbour	-10.984
▁activate	-10.9841
▁ambassador	-10.9841
▁anniversary	-10.9841
▁atlantic	-10.9841
▁concussion	-10.9841
▁confusion	-10.9841
▁cyrus	-10.9841
▁eisenheim	-10.9841
▁embrace	-10.9841
▁excellency	-10.9841
▁forfeit	-10.9841
▁institution	-10.9841
▁macavity	-10.9841
▁malfunction	-10.9841
▁narrator	-10.9841
▁neighing	-10.9841
▁october	-10.9841
▁popcorn	-10.9841
▁prawn	-10.9841
▁rehearse	-10.9841
▁reservation	-10.9841
▁reynolds	-10.9841
▁semester	-10.9841
▁stammering	-10.9841
▁tissue	-10.9841
▁tremendous	-10.9841
▁trespass	-10.9841
▁arnold	-10.9841
▁carnival	-10.9841
▁gravity	-10.9841
▁rubbish	-10.9841
▁violent	-10.9841
▁falcon	-10.9841
▁reserve	-10.9841
▁vicious	-10.9841
▁addition	-10.9841
▁negro	-10.9841
▁rattling	-10.9841
▁reavis	-10.9841
▁supply	-10.9841
▁volume	-10.9841
▁guinea	-10.9841
▁fierce	-10.9841
▁skirt	-10.9841
▁robbed	-10.9841
▁connie	-10.9841
▁autograph	-10.9841
▁content	-10.9841
▁reilly	-10.9841
▁warrant	-10.9841
▁daily	-10.9841
▁pursuit	-10.9841
▁scramble	-10.9842
▁grocer	-10.9842
▁flashlight	-10.9842
▁fortress	-10.9842
identified	-10.9843
▁iowa	-10.9843
▁kirk	-10.9843
▁orbit	-10.9843
▁latin	-10.9843
▁cheep	-10.9844
▁spiritual	-10.9844
▁carnie	-10.9844
▁thorn	-10.9844
▁infection	-10.9844
▁yuck	-10.9844
▁terrorist	-10.9844
▁shortcut	-10.9845
▁bugger	-10.9845
▁bruise	-10.9845
▁tyler	-10.9845
▁hypo	-10.9846
▁fanny	-10.9848
▁delightful	-10.9849
▁marble	-10.9849
▁cabinet	-10.9849
▁sofa	-10.985
▁weakness	-10.9851
▁error	-10.9852
▁confirmation	-10.9852
▁blanc	-10.9852
▁amuse	-10.9853
▁nearby	-10.9856
▁hooch	-10.9858
▁dyou	-10.9859
▁warden	-10.9862
▁rookie	-10.9864
▁sonja	-10.9865
stick	-10.9865
▁inches	-10.9866
▁twa	-10.9867
▁adore	-10.9867
▁magician	-10.9867
▁shane	-10.9868
▁satan	-10.9868
▁dishes	-10.987
▁caleb	-10.9873
▁hitler	-10.9875
▁gator	-10.9876
▁label	-10.9876
▁vais	-10.9887
▁that	-10.989
▁vent	-10.9893
▁yank	-10.9897
▁littlefoot	-10.9901
▁soil	-10.9908
▁operate	-10.9916
▁angelo	-10.9923
▁ramp	-10.9937
▁multipl	-10.9942
▁shovel	-10.9943
boat	-10.9988
▁prepar	-11.0031
▁exception	-11.0088
dding	-11.011
master	-11.0117
▁invent	-11.014
doodle	-11.0152
▁click	-11.0163
mouth	-11.0182
▁strain	-11.0189
▁ravi	-11.0192
talk	-11.0195
▁specific	-11.021
▁athlete	-11.0211
▁battalion	-11.0211
▁breeze	-11.0211
▁cemetery	-11.0211
▁custody	-11.0211
▁demonstration	-11.0211
▁earthquake	-11.0211
▁explosiveskull	-11.0211
▁luxury	-11.0211
▁mammoth	-11.0211
▁meredith	-11.0211
▁opponent	-11.0211
▁politics	-11.0211
▁reelect	-11.0211
▁schultz	-11.0211
▁somewhat	-11.0211
▁specimen	-11.0211
▁survivor	-11.0211
▁suspend	-11.0211
▁thompson	-11.0211
▁waltz	-11.0211
▁arriving	-11.0211
▁collapse	-11.0211
▁initiate	-11.0211
▁kennedy	-11.0211
▁lawrence	-11.0211
▁lonnie	-11.0211
▁stereo	-11.0211
▁kelso	-11.0211
▁cortez	-11.0211
▁deloris	-11.0211
▁dismiss	-11.0211
▁squirl	-11.0211
▁blackmail	-11.0211
▁bremen	-11.0211
▁creek	-11.0211
▁eleven	-11.0211
▁madiba	-11.0211
▁spooky	-11.0211
▁guppy	-11.0211
▁transmit	-11.0211
▁random	-11.0211
▁bonnet	-11.0211
▁dreadful	-11.0211
▁ashore	-11.0211
▁cease	-11.0211
▁casual	-11.0211
▁gwen	-11.0211
ennial	-11.0211
▁mvp	-11.0211
▁osborn	-11.0211
▁sherman	-11.0211
▁envy	-11.0211
▁programmed	-11.0211
▁steiner	-11.0212
▁ransom	-11.0212
▁pedro	-11.0212
▁jolly	-11.0212
▁scheme	-11.0213
▁bidding	-11.0213
▁tanner	-11.0214
▁bertier	-11.0214
▁deux	-11.0214
▁pitt	-11.0215
▁nows	-11.0216
▁locate	-11.0216
▁goalie	-11.0216
▁karate	-11.0216
▁shaft	-11.0216
▁chopper	-11.0217
▁nerd	-11.0217
▁salmon	-11.0217
▁sharing	-11.0218
▁stacy	-11.0219
▁crab	-11.022
▁litter	-11.0221
▁potatoes	-11.0222
▁doris	-11.0222
▁unload	-11.0222
▁germ	-11.0223
▁ruff	-11.0223
▁moan	-11.0223
▁alike	-11.0224
▁billina	-11.0225
▁bold	-11.0225
▁danby	-11.0226
▁rowan	-11.0227
▁parry	-11.0227
▁loop	-11.0228
▁detain	-11.0231
▁roommate	-11.0231
▁ridge	-11.0232
▁quitting	-11.0236
▁agreement	-11.0237
▁beck	-11.024
▁bigfoot	-11.0241
▁wax	-11.0241
▁porn	-11.0246
▁niki	-11.0252
▁nora	-11.0272
▁gent	-11.0273
▁aww	-11.0273
action	-11.0282
▁electrical	-11.0291
▁fuse	-11.0293
▁arse	-11.0381
▁profession	-11.055
▁commission	-11.0555
school	-11.0567
james	-11.0567
▁oppos	-11.0575
▁jij	-11.0588
▁brew	-11.0594
▁forbid	-11.0595
▁allergic	-11.0596
▁coincidence	-11.0596
▁compromise	-11.0596
▁conscience	-11.0596
▁contribut	-11.0596
▁despite	-11.0596
▁dialogue	-11.0596
▁embassy	-11.0596
▁emoji	-11.0596
▁extinct	-11.0596
▁floyd	-11.0596
▁genuine	-11.0596
▁gibberish	-11.0596
▁maleficent	-11.0596
▁marmalade	-11.0596
▁memphis	-11.0596
▁philosophy	-11.0596
▁proposal	-11.0596
▁reference	-11.0596
▁souvenir	-11.0596
▁stanwyk	-11.0596
▁surprising	-11.0596
▁typewriter	-11.0596
▁ursula	-11.0596
▁yvette	-11.0596
▁appetite	-11.0596
▁kragle	-11.0596
▁signature	-11.0596
▁unfair	-11.0596
▁audible	-11.0596
▁domestic	-11.0596
▁impact	-11.0596
▁infant	-11.0596
▁melody	-11.0596
▁profile	-11.0596
▁crisis	-11.0596
▁averman	-11.0596
▁ireland	-11.0596
▁jewish	-11.0596
▁mobile	-11.0596
▁chorus	-11.0596
▁distress	-11.0596
▁amigo	-11.0596
▁canada	-11.0596
▁noodle	-11.0596
▁prophet	-11.0596
▁resume	-11.0596
▁identity	-11.0596
▁internet	-11.0596
▁relation	-11.0596
▁buddies	-11.0596
▁muffin	-11.0596
▁choking	-11.0596
▁cynic	-11.0596
▁taeko	-11.0596
▁blart	-11.0596
▁justin	-11.0596
▁ryan	-11.0596
▁eighteen	-11.0596
▁misery	-11.0596
▁greedy	-11.0596
▁excess	-11.0596
▁download	-11.0597
▁wharf	-11.0597
rinkle	-11.0597
▁restrain	-11.0597
▁plague	-11.0598
▁proposition	-11.0598
▁beware	-11.0598
▁woohoo	-11.0599
▁cloak	-11.0599
▁polar	-11.0599
▁shiny	-11.06
▁concept	-11.06
▁urge	-11.06
▁ashley	-11.06
▁ericka	-11.0601
▁hippo	-11.0601
▁thread	-11.0601
▁entertainment	-11.0601
▁grady	-11.0602
▁axe	-11.0603
▁ripped	-11.0604
▁fern	-11.0604
▁puke	-11.0605
▁finance	-11.0605
▁stepford	-11.0605
▁potts	-11.0605
▁churchill	-11.0606
▁franck	-11.0606
▁massive	-11.0606
▁padre	-11.0608
▁european	-11.0611
▁whack	-11.0611
▁spill	-11.0616
▁patty	-11.0616
▁pony	-11.062
▁bootleg	-11.0623
▁reign	-11.0627
▁bedtime	-11.0631
▁explorer	-11.0631
▁caf	-11.0632
▁calf	-11.0636
▁trom	-11.0645
▁boone	-11.065
▁active	-11.0652
▁socialist	-11.066
▁mij	-11.066
▁oooh	-11.0694
▁zeke	-11.0698
high	-11.0756
long	-11.077
▁bligh	-11.0771
▁concentrat	-11.0794
▁patti	-11.0796
▁kip	-11.0797
▁kneel	-11.081
▁cuba	-11.0823
▁clam	-11.0925
▁torpedo	-11.0984
▁convent	-11.099
▁affirmative	-11.0996
▁ambition	-11.0996
▁ambush	-11.0996
▁ancestor	-11.0996
▁approval	-11.0996
▁august	-11.0996
▁bicycle	-11.0996
▁calculation	-11.0996
▁edmund	-11.0996
▁essence	-11.0996
▁garrett	-11.0996
▁gracious	-11.0996
▁kumail	-11.0996
▁lorenzo	-11.0996
▁masterbuilder	-11.0996
▁november	-11.0996
▁oldfashioned	-11.0996
▁perimeter	-11.0996
▁portobello	-11.0996
▁retrieve	-11.0996
▁spectacular	-11.0996
▁survival	-11.0996
▁trauma	-11.0996
▁whinnies	-11.0996
▁expense	-11.0996
▁florence	-11.0996
▁heggs	-11.0996
▁intruder	-11.0996
▁racket	-11.0996
▁similar	-11.0996
▁splinter	-11.0996
▁alfred	-11.0996
▁culture	-11.0996
▁dagger	-11.0996
▁detention	-11.0996
▁intense	-11.0996
▁pamela	-11.0996
▁glinda	-11.0996
▁zelda	-11.0996
▁jonah	-11.0996
▁bookshop	-11.0996
▁buffy	-11.0996
▁isolate	-11.0996
▁assassin	-11.0996
▁sixteen	-11.0996
▁knob	-11.0996
▁sheldon	-11.0996
▁janice	-11.0996
▁predator	-11.0996
▁snicker	-11.0996
▁slut	-11.0996
▁depressed	-11.0996
▁wrist	-11.0996
▁mandela	-11.0996
▁motel	-11.0996
▁petrie	-11.0996
▁rudolph	-11.0996
▁gulp	-11.0996
▁nanny	-11.0996
▁convert	-11.0996
▁harsh	-11.0996
▁facing	-11.0996
▁mustache	-11.0997
▁salesman	-11.0997
▁clink	-11.0997
▁tennis	-11.0997
▁occurred	-11.0997
burn	-11.0998
▁campbell	-11.0998
▁commence	-11.0998
▁summon	-11.0999
▁kitten	-11.1
▁tinkles	-11.1001
▁megan	-11.1001
▁promotion	-11.1002
▁isle	-11.1003
▁drej	-11.1003
▁harrison	-11.1003
▁vincent	-11.1004
▁remark	-11.1005
▁lupo	-11.1005
▁furry	-11.1008
▁mold	-11.1008
▁portia	-11.101
▁conway	-11.1014
▁instrumental	-11.1015
▁grail	-11.1017
▁zak	-11.1019
▁hideous	-11.1021
▁combine	-11.1022
▁woof	-11.1024
▁christine	-11.1031
▁producer	-11.1034
▁voil	-11.1034
▁paco	-11.1035
▁hef	-11.1037
▁alba	-11.1037
▁chod	-11.1038
range	-11.1109
▁classical	-11.1137
▁scram	-11.1177
▁vine	-11.1203
▁merc	-11.1254
▁origin	-11.1307
▁mechanic	-11.136
▁colon	-11.1381
charge	-11.1384
brain	-11.1392
▁potato	-11.14
▁rook	-11.1404
▁aqua	-11.1412
▁distinct	-11.1412
▁activities	-11.1412
▁altogether	-11.1412
▁arizona	-11.1412
▁assault	-11.1412
▁cottage	-11.1412
▁diploma	-11.1412
▁dukhovich	-11.1412
▁election	-11.1412
▁emelius	-11.1412
▁excalibur	-11.1412
▁flavor	-11.1412
▁frankenstein	-11.1412
▁gadgetmobile	-11.1412
▁granddaughter	-11.1412
▁henderson	-11.1412
▁hilarious	-11.1412
▁identify	-11.1412
▁industry	-11.1412
▁ingredient	-11.1412
▁maximum	-11.1412
▁merchant	-11.1412
▁motorcycle	-11.1412
▁olympic	-11.1412
▁phoenix	-11.1412
▁principle	-11.1412
▁privacy	-11.1412
▁receipt	-11.1412
▁september	-11.1412
▁skeleton	-11.1412
▁thirteen	-11.1412
▁xerxes	-11.1412
▁bachelor	-11.1412
▁buffet	-11.1412
▁cocaine	-11.1412
▁hector	-11.1412
▁amateur	-11.1412
▁dallas	-11.1412
▁dietrich	-11.1412
▁fridge	-11.1412
▁mumbling	-11.1412
▁phrase	-11.1412
▁butler	-11.1412
▁nixon	-11.1412
▁pabio	-11.1412
▁sunrise	-11.1412
▁diaper	-11.1412
▁session	-11.1413
▁motto	-11.1413
▁related	-11.1413
▁indoor	-11.1413
▁tweed	-11.1413
▁dragged	-11.1413
▁neuter	-11.1413
▁arena	-11.1413
▁react	-11.1413
▁tavern	-11.1413
▁jessie	-11.1413
▁yelp	-11.1413
▁stiles	-11.1413
▁virus	-11.1413
▁clinic	-11.1413
▁hostile	-11.1414
▁valentine	-11.1414
▁solar	-11.1414
▁pedal	-11.1414
▁ollie	-11.1414
ject	-11.1415
▁bolt	-11.1415
▁extend	-11.1415
▁graham	-11.1415
▁reflection	-11.1417
▁pinned	-11.1417
▁remarkable	-11.1417
▁repay	-11.1417
▁mature	-11.1418
▁rubble	-11.1418
▁ofthe	-11.1419
▁shiver	-11.1419
▁portland	-11.142
▁execution	-11.142
▁nipp	-11.1421
▁salary	-11.1421
▁fiend	-11.1423
▁hooting	-11.1424
▁loft	-11.1425
▁rally	-11.1427
▁modest	-11.1429
▁objection	-11.1435
▁jock	-11.1436
avec	-11.1437
▁moore	-11.1442
▁deposit	-11.1446
▁blog	-11.1459
▁raph	-11.1463
▁cheerful	-11.1477
▁heip	-11.1495
▁hugh	-11.1518
▁damp	-11.1561
▁trim	-11.1593
hair	-11.1657
year	-11.1754
▁crysta	-11.177
▁howl	-11.179
▁bleed	-11.179
▁explore	-11.1808
space	-11.182
proof	-11.182
ittle	-11.183
▁dancin	-11.1833
▁architect	-11.1847
▁acknowledge	-11.1847
▁anyhow	-11.1847
▁astronaut	-11.1847
▁cassandra	-11.1847
▁catholic	-11.1847
▁clarissa	-11.1847
▁congratulate	-11.1847
▁description	-11.1847
▁despair	-11.1847
▁disrupt	-11.1847
▁dolittle	-11.1847
▁eclipse	-11.1847
▁eternity	-11.1847
▁explosive	-11.1847
▁inaudible	-11.1847
▁inspiration	-11.1847
▁khrushchev	-11.1847
▁mexican	-11.1847
▁minimum	-11.1847
▁neglect	-11.1847
▁orbison	-11.1847
▁pajamas	-11.1847
▁peculiar	-11.1847
▁phantom	-11.1847
▁protocol	-11.1847
▁pygar	-11.1847
▁resolve	-11.1847
▁scrumptious	-11.1847
▁sleeve	-11.1847
▁testimony	-11.1847
▁uncomfortable	-11.1847
▁unicorn	-11.1847
▁wolves	-11.1847
▁borras	-11.1847
▁broadcast	-11.1847
▁defence	-11.1847
▁diversion	-11.1847
▁elliot	-11.1847
▁gregorio	-11.1847
▁inherit	-11.1847
▁sceptre	-11.1847
▁squish	-11.1847
▁population	-11.1847
▁airborne	-11.1847
▁heartbeat	-11.1847
▁household	-11.1847
▁lobster	-11.1847
▁pluck	-11.1847
▁fraud	-11.1847
▁hollow	-11.1847
▁pistol	-11.1847
▁vessel	-11.1847
▁album	-11.1847
▁rameses	-11.1847
▁inspect	-11.1847
▁hydro	-11.1847
aaaaa	-11.1847
▁yield	-11.1847
▁essay	-11.1847
▁eager	-11.1847
▁swore	-11.1847
▁epic	-11.1847
▁wlli	-11.1847
▁canoe	-11.1847
▁stove	-11.1847
▁shinn	-11.1848
▁spear	-11.1848
▁tolerate	-11.1848
▁leaf	-11.1848
▁donnagon	-11.1848
▁acquaintance	-11.1848
▁blink	-11.1848
▁aisle	-11.1849
▁departure	-11.1849
▁violation	-11.1849
▁drool	-11.1849
▁imitate	-11.1849
▁brewster	-11.1849
▁mistress	-11.1849
▁version	-11.1849
▁broadway	-11.1849
▁philsie	-11.185
▁ahoy	-11.185
▁collier	-11.185
▁refresh	-11.185
▁righteous	-11.185
▁cherish	-11.185
▁sector	-11.185
▁salute	-11.1851
▁banner	-11.1851
▁lightyear	-11.1851
▁inject	-11.1852
▁flint	-11.1852
▁batteries	-11.1853
▁loyalty	-11.1853
▁allez	-11.1854
▁passport	-11.1854
▁rival	-11.1855
▁tidy	-11.1859
▁objective	-11.1859
▁graff	-11.186
▁whys	-11.1862
▁twink	-11.1865
▁hoover	-11.1875
▁turk	-11.1876
▁tide	-11.1877
▁bonus	-11.1879
▁swan	-11.189
rift	-11.1891
wept	-11.1895
▁dino	-11.1904
▁gill	-11.1919
▁chipmunk	-11.1926
▁jade	-11.1927
auld	-11.1932
▁pont	-11.1932
▁trish	-11.1956
▁chant	-11.1969
▁forge	-11.2012
▁rosa	-11.2083
self	-11.2152
▁seize	-11.225
worm	-11.2273
▁colleague	-11.2302
▁communicate	-11.2302
▁corporate	-11.2302
▁corridor	-11.2302
▁dictate	-11.2302
▁disrespect	-11.2302
▁encounter	-11.2302
▁furnace	-11.2302
▁hallelujah	-11.2302
▁hendricks	-11.2302
▁hynkel	-11.2302
▁independent	-11.2302
▁injury	-11.2302
▁jailbreak	-11.2302
▁jewelry	-11.2302
▁marshmallow	-11.2302
▁mccartney	-11.2302
▁nowadays	-11.2302
▁obliged	-11.2302
▁perfume	-11.2302
▁prescott	-11.2302
▁scotland	-11.2302
▁sentimental	-11.2302
▁temporarily	-11.2302
▁tunstall	-11.2302
▁vocalizing	-11.2302
▁casino	-11.2302
▁mullins	-11.2302
▁railway	-11.2302
▁resident	-11.2302
hearted	-11.2302
▁desmond	-11.2302
▁quarry	-11.2302
▁snorts	-11.2302
▁wolfgang	-11.2302
▁divine	-11.2302
▁leather	-11.2302
▁frederick	-11.2302
▁klaus	-11.2302
▁sicily	-11.2302
▁eliminate	-11.2302
▁possum	-11.2302
▁preacher	-11.2302
▁rhino	-11.2302
▁snatch	-11.2302
▁acorn	-11.2302
▁prank	-11.2302
▁swift	-11.2302
▁legacy	-11.2302
▁parrot	-11.2302
▁presume	-11.2302
▁waffle	-11.2302
▁wryn	-11.2302
▁clerk	-11.2302
▁sherry	-11.2302
▁silk	-11.2302
▁merde	-11.2302
▁estimate	-11.2302
▁dragging	-11.2302
▁porch	-11.2302
▁broomstick	-11.2302
▁tammy	-11.2302
▁narrow	-11.2302
▁italy	-11.2302
▁fireworks	-11.2302
▁yacht	-11.2302
▁sasha	-11.2303
▁specifically	-11.2303
▁kibble	-11.2304
▁update	-11.2304
▁gillian	-11.2304
▁favourite	-11.2305
▁piease	-11.2305
▁hefty	-11.2305
▁kitka	-11.2305
▁croak	-11.2305
▁orangemen	-11.2305
▁satisfaction	-11.2305
▁furious	-11.2306
▁kenny	-11.2306
▁disappointment	-11.2307
▁haircut	-11.2309
▁limb	-11.231
▁pansy	-11.2311
▁raising	-11.2312
▁inventor	-11.2312
▁tsk	-11.2314
▁grasp	-11.2314
▁defendant	-11.2314
▁torpedoes	-11.2316
▁nursery	-11.2317
▁booze	-11.232
▁soak	-11.2324
▁casa	-11.2325
through	-11.2346
with	-11.2401
▁giggle	-11.2404
▁gno	-11.2407
▁logical	-11.2412
▁exceptional	-11.2515
▁oof	-11.2548
grave	-11.2576
▁squa	-11.269
▁applaud	-11.2717
contin	-11.2717
▁accord	-11.2718
▁craz	-11.2748
▁numb	-11.2752
body	-11.2757
▁strict	-11.2761
▁leavin	-11.2764
▁harris	-11.2769
▁reinforce	-11.2778
responsibilities	-11.2778
▁alternative	-11.2778
▁apprentice	-11.2778
▁bamboo	-11.2778
▁beautifui	-11.2778
▁cheerleader	-11.2778
▁cinnamon	-11.2778
▁cleveland	-11.2778
▁convenient	-11.2778
▁credentials	-11.2778
▁daxiat	-11.2778
▁deuteronomy	-11.2778
▁durberville	-11.2778
▁dynamite	-11.2778
▁fanfare	-11.2778
▁georgy	-11.2778
▁grizzly	-11.2778
▁harvey	-11.2778
▁inhabit	-11.2778
▁kakamucho	-11.2778
▁klopek	-11.2778
▁lecture	-11.2778
▁lorraine	-11.2778
▁obsessed	-11.2778
▁sabotage	-11.2778
▁surveillance	-11.2778
▁triangle	-11.2778
▁underestimate	-11.2778
alalala	-11.2778
▁chimney	-11.2778
▁granada	-11.2778
▁puddle	-11.2778
▁throughout	-11.2778
▁yummy	-11.2778
▁akima	-11.2778
▁bathtub	-11.2778
▁bluff	-11.2778
▁chandler	-11.2778
▁conscious	-11.2778
▁nickname	-11.2778
▁dammit	-11.2778
▁purchase	-11.2778
▁rupert	-11.2778
▁scotch	-11.2778
▁craven	-11.2778
▁lobby	-11.2778
▁lounge	-11.2778
▁sensor	-11.2778
▁editor	-11.2778
▁valek	-11.2778
▁slick	-11.2778
▁fourteen	-11.2778
▁intellectual	-11.2778
▁dentist	-11.2778
▁zurg	-11.2778
▁loaf	-11.2778
▁scoop	-11.2778
▁beetle	-11.2778
▁stool	-11.2778
▁amusing	-11.2778
▁wimp	-11.2778
▁seattle	-11.2778
▁jammed	-11.2778
▁assuming	-11.2778
▁regent	-11.2778
▁serum	-11.2778
▁application	-11.2778
▁internal	-11.2778
▁heap	-11.2778
▁napkin	-11.2778
▁southern	-11.2778
▁meteor	-11.2778
▁eerie	-11.2779
▁northern	-11.2779
▁exclusive	-11.2779
▁bradford	-11.2779
▁oohooh	-11.278
▁hmph	-11.2781
▁engagement	-11.2782
▁bradley	-11.2782
▁blaze	-11.2783
▁blob	-11.2783
▁sharon	-11.2785
▁affection	-11.2788
▁blake	-11.2788
▁accidentally	-11.2788
▁wilkinson	-11.2789
▁duties	-11.2789
▁stallion	-11.279
▁vibra	-11.2791
▁christina	-11.2793
▁lauren	-11.2793
▁toad	-11.2795
▁riot	-11.2797
▁peak	-11.28
▁reap	-11.2808
▁debate	-11.2882
minded	-11.3156
cliff	-11.3249
▁precise	-11.3261
▁wilkins	-11.3266
▁kiddin	-11.3268
▁depart	-11.3272
▁aggressive	-11.3278
▁apollo	-11.3278
▁barbarella	-11.3278
▁bonjour	-11.3278
▁caractacus	-11.3278
▁carpathia	-11.3278
▁conflict	-11.3278
▁cuckoo	-11.3278
▁democracy	-11.3278
▁exterminator	-11.3278
▁fidgit	-11.3278
▁gratitude	-11.3278
▁homosexual	-11.3278
▁ignorant	-11.3278
▁institute	-11.3278
▁johana	-11.3278
▁lazarus	-11.3278
▁outrageous	-11.3278
▁rapunzel	-11.3278
▁rockefeller	-11.3278
▁satisfy	-11.3278
▁shakespeare	-11.3278
▁solemn	-11.3278
▁structure	-11.3278
▁syndicate	-11.3278
▁szalinski	-11.3278
▁tadashi	-11.3278
▁throttle	-11.3278
▁tranquil	-11.3278
▁umbrella	-11.3278
▁unconscious	-11.3278
▁unpleasant	-11.3278
▁vengeance	-11.3278
▁wardrobe	-11.3278
▁whatsoever	-11.3278
▁wrench	-11.3278
▁abduct	-11.3278
▁bartender	-11.3278
▁cadence	-11.3278
▁continent	-11.3278
▁contrary	-11.3278
▁outstanding	-11.3278
▁previous	-11.3278
▁puberty	-11.3278
▁shrimp	-11.3278
▁lancelot	-11.3278
▁ominous	-11.3278
▁cahill	-11.3278
▁ninja	-11.3278
▁rosalyn	-11.3278
▁breach	-11.3278
▁duchess	-11.3278
▁sketch	-11.3278
▁bronco	-11.3278
▁storage	-11.3278
▁worid	-11.3278
▁edison	-11.3278
▁razor	-11.3278
▁lagoon	-11.3278
▁martian	-11.3278
▁neiman	-11.3278
▁overcome	-11.3278
▁trading	-11.3278
▁vibrations	-11.3278
▁grouch	-11.3278
▁whatcha	-11.3278
▁clapping	-11.3278
▁ethel	-11.3278
▁motive	-11.3278
▁phony	-11.3278
▁marvin	-11.3278
▁drax	-11.3278
▁watergate	-11.3278
▁rabies	-11.3278
▁krei	-11.3278
▁pierce	-11.3278
▁zorin	-11.3278
▁begged	-11.3279
▁relay	-11.3279
▁bulb	-11.3279
▁grabbed	-11.3279
▁flare	-11.3279
▁barsinister	-11.3279
▁anais	-11.3279
▁authorized	-11.3279
▁triumphant	-11.328
lijk	-11.328
▁piedge	-11.3281
▁hawkins	-11.3281
▁veux	-11.3281
▁transferred	-11.3281
▁venture	-11.3281
▁catherin	-11.3281
▁adela	-11.3282
▁spinning	-11.3282
▁paperwork	-11.3282
▁whipped	-11.3283
▁shelby	-11.3284
▁revolutionary	-11.3284
izzy	-11.3284
▁garland	-11.3285
▁replacement	-11.3286
▁effective	-11.3287
▁betcha	-11.3289
▁grape	-11.329
▁reduce	-11.329
▁countries	-11.3291
▁erase	-11.3293
▁pause	-11.3294
storm	-11.3294
▁brute	-11.33
ootchi	-11.3305
▁leerie	-11.3335
▁exclaim	-11.3368
▁democratic	-11.3388
▁slug	-11.3459
ritz	-11.3511
▁surround	-11.3747
arily	-11.3757
▁engage	-11.3761
▁extreme	-11.3787
▁heave	-11.3789
▁vulgar	-11.3804
▁authentic	-11.3804
▁automated	-11.3804
▁bypass	-11.3804
▁column	-11.3804
▁conspiracy	-11.3804
▁crikey	-11.3804
▁dazzling	-11.3804
▁defect	-11.3804
▁devereaux	-11.3804
▁distorted	-11.3804
▁dwarves	-11.3804
▁economy	-11.3804
▁elegant	-11.3804
▁engelberg	-11.3804
▁exploding	-11.3804
▁extension	-11.3804
▁gambling	-11.3804
▁havisham	-11.3804
▁intact	-11.3804
▁intimidate	-11.3804
▁jehovah	-11.3804
▁juvenile	-11.3804
▁kocoum	-11.3804
▁kornpett	-11.3804
▁lonesome	-11.3804
▁macdonald	-11.3804
▁maligore	-11.3804
▁necessarily	-11.3804
▁nicholas	-11.3804
▁occupation	-11.3804
▁offensive	-11.3804
▁pegasus	-11.3804
▁poseidon	-11.3804
▁primitive	-11.3804
▁qyack	-11.3804
▁scolex	-11.3804
▁stepmother	-11.3804
▁transmooker	-11.3804
▁tshirt	-11.3804
▁vaughan	-11.3804
▁welfare	-11.3804
▁werewolf	-11.3804
▁wheelchair	-11.3804
▁woodcock	-11.3804
▁absence	-11.3804
▁biodome	-11.3804
▁caddie	-11.3804
▁compassion	-11.3804
▁identification	-11.3804
▁liszt	-11.3804
▁memorial	-11.3804
▁ornament	-11.3804
▁rommel	-11.3804
▁surgeon	-11.3804
▁wikus	-11.3804
▁connors	-11.3804
▁leopard	-11.3804
▁password	-11.3804
▁proctor	-11.3804
▁yawns	-11.3804
▁graveyard	-11.3804
▁rascal	-11.3804
▁revoir	-11.3804
▁fluffy	-11.3804
▁griev	-11.3804
▁uneasy	-11.3804
▁suburb	-11.3804
▁cristal	-11.3804
▁anderson	-11.3804
▁cluck	-11.3804
▁creating	-11.3804
▁shush	-11.3804
▁stroll	-11.3804
▁bookstore	-11.3804
▁importance	-11.3804
▁langdon	-11.3804
▁whiz	-11.3804
▁nerak	-11.3804
▁gravy	-11.3804
▁phew	-11.3804
▁bloke	-11.3804
▁lunna	-11.3804
▁panicked	-11.3804
▁cartoon	-11.3805
▁courtesy	-11.3805
▁neighbourhood	-11.3805
▁pudding	-11.3805
▁scoot	-11.3806
▁gulls	-11.3806
▁cocktail	-11.3806
▁gummy	-11.3806
▁medlock	-11.3806
▁prudy	-11.3807
▁barrier	-11.3808
▁mutation	-11.3808
▁permitted	-11.3808
▁lungs	-11.3808
▁felon	-11.3808
▁vogon	-11.3808
▁prospect	-11.3809
▁outlaw	-11.3809
▁lease	-11.381
▁milord	-11.3811
▁seville	-11.3811
▁cheerio	-11.3811
▁extract	-11.3812
▁speck	-11.3812
▁legendary	-11.3812
▁dilly	-11.3813
▁beaver	-11.3813
▁tasty	-11.3818
▁viola	-11.3825
▁imperi	-11.4062
cule	-11.4072
oggy	-11.4097
▁inspire	-11.432
yearold	-11.4331
▁reflect	-11.4354
occupied	-11.436
▁arrietty	-11.436
▁aylwood	-11.436
▁blindfold	-11.436
▁bolsheviks	-11.436
▁brittany	-11.436
▁cautious	-11.436
▁cavalry	-11.436
▁defensive	-11.436
▁delinquent	-11.436
▁dispatch	-11.436
▁distinguished	-11.436
▁eglantine	-11.436
▁entitled	-11.436
▁evolve	-11.436
▁faggot	-11.436
▁farquaad	-11.436
▁gracias	-11.436
▁grasshopper	-11.436
▁hyperspeed	-11.436
▁imaginary	-11.436
▁investigating	-11.436
▁inviting	-11.436
▁judging	-11.436
▁kangaroo	-11.436
▁mistoffelees	-11.436
▁notify	-11.436
▁olivia	-11.436
▁orleans	-11.436
▁peacock	-11.436
▁perspective	-11.436
▁pharaoh	-11.436
▁politician	-11.436
▁polynesia	-11.436
▁rejoice	-11.436
▁shipoopi	-11.436
▁sonofabitch	-11.436
▁sophisticated	-11.436
▁squidward	-11.436
▁stargazer	-11.436
▁svetlana	-11.436
▁unnecessary	-11.436
▁virtue	-11.436
▁wasabi	-11.436
▁zipadeedoda	-11.436
▁advisor	-11.436
▁enlighten	-11.436
▁grenade	-11.436
▁guidance	-11.436
▁jeanluc	-11.436
▁messenger	-11.436
▁sponsor	-11.436
▁winthrop	-11.436
▁withdraw	-11.436
▁lizard	-11.436
▁overnight	-11.436
▁southjet	-11.436
▁whatwhat	-11.436
▁fenix	-11.436
▁overseas	-11.436
▁sequel	-11.436
▁creative	-11.436
▁refund	-11.436
▁consequences	-11.436
▁snyder	-11.436
▁pulse	-11.436
▁antoine	-11.436
▁bennell	-11.436
▁butcher	-11.436
▁hysterical	-11.436
▁sustain	-11.436
▁protein	-11.436
▁dyke	-11.436
▁lassard	-11.436
▁dairy	-11.436
▁chipettes	-11.436
▁illustr	-11.436
▁vault	-11.436
▁larue	-11.436
▁freddie	-11.436
▁grill	-11.436
▁holler	-11.436
▁chimes	-11.4361
▁stomp	-11.4361
▁allamerican	-11.4361
▁mourn	-11.4361
▁neutr	-11.4361
▁translate	-11.4361
▁warren	-11.4361
▁midget	-11.4361
▁baroness	-11.4361
▁douglas	-11.4361
▁dashwood	-11.4362
▁tanya	-11.4362
▁jockey	-11.4363
▁dizzy	-11.4363
▁basis	-11.4363
▁bumble	-11.4363
▁winston	-11.4363
▁timmy	-11.4363
▁welker	-11.4364
▁squash	-11.4364
▁wedded	-11.4365
▁loski	-11.4366
▁gown	-11.4369
▁befo	-11.4371
▁consume	-11.4377
▁delete	-11.4381
style	-11.4396
▁colt	-11.4396
shoot	-11.4457
ographic	-11.4488
▁asia	-11.4559
▁visa	-11.4604
▁whwh	-11.4766
active	-11.492
grade	-11.492
▁practical	-11.4931
▁admira	-11.4937
▁infect	-11.4943
▁construct	-11.4943
▁definit	-11.4948
▁abnegation	-11.4948
▁alabama	-11.4948
▁altitude	-11.4948
▁aquitaine	-11.4948
▁babbling	-11.4948
▁behaviour	-11.4948
▁brundish	-11.4948
▁chimpanzee	-11.4948
▁cornelius	-11.4948
▁curiosity	-11.4948
▁december	-11.4948
▁evident	-11.4948
▁expedition	-11.4948
▁famiiy	-11.4948
▁ferguson	-11.4948
▁fragile	-11.4948
▁grandchildren	-11.4948
▁gypsy	-11.4948
▁horizon	-11.4948
▁hurricane	-11.4948
▁industrial	-11.4948
▁interzone	-11.4948
▁manticore	-11.4948
▁mcsween	-11.4948
▁microphone	-11.4948
▁mortgage	-11.4948
▁negotiate	-11.4948
▁regulation	-11.4948
▁reynardo	-11.4948
▁serpent	-11.4948
▁shepherd	-11.4948
▁undercover	-11.4948
▁unleash	-11.4948
▁whereabouts	-11.4948
▁zipadeeay	-11.4948
▁alaska	-11.4948
▁caxton	-11.4948
▁commotion	-11.4948
▁concrete	-11.4948
▁constitution	-11.4948
▁enforcement	-11.4948
▁fievel	-11.4948
▁germaine	-11.4948
▁hamburger	-11.4948
▁rodrick	-11.4948
▁samantha	-11.4948
▁sensible	-11.4948
▁supervisor	-11.4948
▁teresa	-11.4948
▁vitamin	-11.4948
▁winifred	-11.4948
▁delusion	-11.4948
▁godmother	-11.4948
▁gondorff	-11.4948
▁kramer	-11.4948
▁stunning	-11.4948
▁tomainia	-11.4948
▁yoohoo	-11.4948
▁groove	-11.4948
▁hartman	-11.4948
▁operative	-11.4948
▁clutch	-11.4948
▁hobart	-11.4948
▁trousers	-11.4948
▁exotic	-11.4948
▁facial	-11.4948
▁parrish	-11.4948
▁jullie	-11.4948
▁tyrant	-11.4948
▁bambi	-11.4948
▁bedrock	-11.4948
▁irwin	-11.4948
▁lettuce	-11.4948
▁audio	-11.4948
▁fiction	-11.4948
▁dignity	-11.4948
▁bamba	-11.4948
▁testify	-11.4948
▁tracy	-11.4948
▁vanessa	-11.4948
▁olaf	-11.4948
▁odile	-11.4948
▁bleep	-11.4948
▁sworn	-11.4948
▁parlor	-11.4948
▁subtle	-11.4948
▁pervert	-11.4948
▁celia	-11.4948
▁laurie	-11.4948
▁mutual	-11.4948
▁brutal	-11.4948
▁howre	-11.4948
▁juicy	-11.4948
▁ninth	-11.4948
▁frown	-11.4948
▁gerti	-11.4948
▁infern	-11.4948
▁mimic	-11.4948
▁lodge	-11.4949
▁thorin	-11.4949
▁exceed	-11.4949
▁scalp	-11.4949
▁howie	-11.4949
▁overreact	-11.4949
▁luckily	-11.4949
▁vandal	-11.4949
▁blares	-11.4949
▁imitating	-11.4949
▁grit	-11.4949
▁shuttle	-11.4949
▁debbie	-11.4949
▁cosmic	-11.495
▁luigi	-11.495
▁twentyfive	-11.4951
▁normandy	-11.4951
▁creed	-11.4952
▁valve	-11.4952
▁weave	-11.4957
▁avai	-11.4973
stutter	-11.4999
▁whisper	-11.5136
civilized	-11.5471
▁annoy	-11.5513
▁disgust	-11.5513
▁determine	-11.5533
screen	-11.5544
▁lovin	-11.5559
▁sittin	-11.5562
cgregor	-11.5573
hydrate	-11.5573
▁accurate	-11.5573
▁actuaiiy	-11.5573
▁anticipate	-11.5573
▁arnhem	-11.5573
▁atahuallpa	-11.5573
▁atmosphere	-11.5573
▁balcony	-11.5573
▁bammbamm	-11.5573
▁baudelaire	-11.5573
▁beindorf	-11.5573
▁boggis	-11.5573
▁bulldozer	-11.5573
▁calculate	-11.5573
▁clemson	-11.5573
▁competitive	-11.5573
▁condemn	-11.5573
▁confront	-11.5573
▁confusing	-11.5573
▁declaration	-11.5573
▁disobey	-11.5573
▁doughnut	-11.5573
▁economic	-11.5573
▁envelope	-11.5573
▁equipped	-11.5573
▁eyewitness	-11.5573
▁figuring	-11.5573
▁fountain	-11.5573
▁fourfendered	-11.5573
▁frawley	-11.5573
▁frequent	-11.5573
▁geronimo	-11.5573
▁giddyup	-11.5573
▁graduation	-11.5573
▁hallucination	-11.5573
▁hitchhike	-11.5573
▁humiliate	-11.5573
▁infinite	-11.5573
▁invincible	-11.5573
▁lonnegan	-11.5573
▁magrathea	-11.5573
▁malenkov	-11.5573
▁manhattan	-11.5573
▁napaloni	-11.5573
▁paranoid	-11.5573
▁pentagon	-11.5573
▁philadelphia	-11.5573
▁prototype	-11.5573
▁resembl	-11.5573
▁ribbon	-11.5573
▁ruettiger	-11.5573
▁schnitzel	-11.5573
▁shudder	-11.5573
▁squirt	-11.5573
▁stanislav	-11.5573
▁stubbins	-11.5573
▁terrifying	-11.5573
▁yabbadabbadoo	-11.5573
▁zombie	-11.5573
▁attila	-11.5573
▁awhile	-11.5573
▁burrito	-11.5573
▁nuisance	-11.5573
▁weasel	-11.5573
▁capitol	-11.5573
▁heeft	-11.5573
▁korso	-11.5573
▁shogun	-11.5573
▁coronation	-11.5573
▁darrell	-11.5573
▁eminence	-11.5573
▁gasoline	-11.5573
▁schooi	-11.5573
▁sheryl	-11.5573
▁brazil	-11.5573
▁detroit	-11.5573
▁glitter	-11.5573
▁iggy	-11.5573
▁sefton	-11.5573
▁sherlock	-11.5573
▁stimul	-11.5573
▁guldo	-11.5573
▁vienna	-11.5573
▁hobby	-11.5573
▁manchester	-11.5573
▁nevertheless	-11.5573
▁oiiver	-11.5573
▁quark	-11.5573
▁seventeen	-11.5573
avoir	-11.5573
▁sengh	-11.5573
▁martial	-11.5573
▁obligat	-11.5573
▁pencil	-11.5573
▁femme	-11.5573
▁colson	-11.5573
▁disorder	-11.5573
▁premier	-11.5573
▁tahiti	-11.5573
▁warehouse	-11.5573
▁selva	-11.5573
▁maggie	-11.5573
▁tramp	-11.5573
▁postpone	-11.5573
▁deceit	-11.5573
▁confine	-11.5573
oscope	-11.5573
▁kaiser	-11.5573
▁canyon	-11.5573
▁krab	-11.5573
▁nassau	-11.5573
▁elevate	-11.5573
▁forsake	-11.5573
▁civilization	-11.5574
▁spawn	-11.5574
▁stumble	-11.5574
anthrop	-11.5574
▁laura	-11.5574
▁thudding	-11.5574
▁kgys	-11.5574
▁tummy	-11.5574
▁perkis	-11.5574
▁parasite	-11.5574
▁obtain	-11.5575
▁gossip	-11.5575
▁whining	-11.5575
▁jingle	-11.5576
▁provo	-11.5577
▁dried	-11.5578
▁parole	-11.5578
▁bleat	-11.5579
▁yyou	-11.5584
▁goldilo	-11.5585
▁merge	-11.561
dorf	-11.5809
▁thirst	-11.6206
three	-11.622
▁technical	-11.6223
▁raisin	-11.6226
▁satisfact	-11.6234
▁exhal	-11.6234
▁twit	-11.6235
▁triumph	-11.6237
▁ammunition	-11.624
▁arrogant	-11.624
▁artificial	-11.624
▁artillery	-11.624
▁blossom	-11.624
▁bourbon	-11.624
▁canadian	-11.624
▁charlene	-11.624
▁cockroach	-11.624
▁compartment	-11.624
▁deputies	-11.624
▁disposal	-11.624
▁doberman	-11.624
▁egypt	-11.624
▁exaggerate	-11.624
▁exposure	-11.624
▁fabric	-11.624
▁facilities	-11.624
▁faulkner	-11.624
▁gremlin	-11.624
▁grendel	-11.624
▁harvard	-11.624
▁investigator	-11.624
▁ivory	-11.624
▁kimberly	-11.624
▁krauts	-11.624
▁lollipop	-11.624
▁mackerel	-11.624
▁mewtwo	-11.624
▁mischief	-11.624
▁neruda	-11.624
▁notorious	-11.624
▁opportunities	-11.624
▁osterlich	-11.624
▁possibilities	-11.624
▁precaution	-11.624
▁quadrant	-11.624
▁raccoon	-11.624
▁sculpt	-11.624
▁spaghetti	-11.624
▁spretzle	-11.624
▁struggling	-11.624
▁substituti	-11.624
▁sukarno	-11.624
▁suspension	-11.624
▁telepath	-11.624
▁tiffany	-11.624
▁unnatural	-11.624
▁wallpaper	-11.624
▁waponi	-11.624
▁whisrles	-11.624
▁xavier	-11.624
▁zaphod	-11.624
▁beaumont	-11.624
▁cabbage	-11.624
▁capacity	-11.624
▁curfew	-11.624
▁destined	-11.624
▁icarus	-11.624
▁integra	-11.624
▁jenkins	-11.624
▁meadow	-11.624
▁overthrow	-11.624
▁reconsider	-11.624
▁severine	-11.624
▁calendar	-11.624
▁choosing	-11.624
▁hungarian	-11.624
▁laboratory	-11.624
▁lynch	-11.624
▁pitiful	-11.624
▁prettier	-11.624
▁reflex	-11.624
▁smythe	-11.624
▁truffle	-11.624
▁vasily	-11.624
▁depression	-11.624
▁kirby	-11.624
▁kovac	-11.624
▁salvation	-11.624
▁stabilize	-11.624
▁hebben	-11.624
▁hotshot	-11.624
▁lipstick	-11.624
▁alphabet	-11.624
▁goblins	-11.624
▁reckless	-11.624
▁bikini	-11.624
▁valerie	-11.624
▁hiphop	-11.624
▁dokter	-11.624
▁rhode	-11.624
▁hazard	-11.624
▁kaycee	-11.624
▁sidekick	-11.624
▁strangle	-11.624
▁fingerprints	-11.624
▁fumble	-11.624
▁ufc	-11.624
▁adrian	-11.624
▁bounty	-11.624
▁holland	-11.624
▁bleach	-11.624
▁gulf	-11.624
▁quentin	-11.624
▁bulk	-11.624
▁rooney	-11.624
▁unstable	-11.624
▁cocoa	-11.624
▁saloon	-11.624
▁chancellor	-11.624
▁conceal	-11.624
▁korea	-11.624
▁piace	-11.624
▁chivalr	-11.624
▁sushi	-11.624
▁panzer	-11.624
▁psychological	-11.624
▁adios	-11.624
▁iast	-11.6241
▁carbon	-11.6241
▁coyle	-11.6241
▁seasick	-11.6241
▁aspirin	-11.6241
▁succ	-11.6241
▁mineral	-11.6241
▁grease	-11.6244
▁menace	-11.6256
▁cockadoo	-11.6291
sinister	-11.6564
▁vivi	-11.6716
plication	-11.6828
▁exhaust	-11.6897
▁confuse	-11.6915
stream	-11.6925
john	-11.6926
breath	-11.6926
course	-11.6934
▁asthma	-11.6954
▁bankrupt	-11.6954
▁bizarre	-11.6954
▁irregular	-11.6954
▁porridge	-11.6954
▁acquired	-11.6954
▁administration	-11.6954
▁anonymous	-11.6954
▁barricade	-11.6954
▁brennan	-11.6954
▁byzanium	-11.6954
▁cactus	-11.6954
▁challenging	-11.6954
▁cologne	-11.6954
▁commodore	-11.6954
▁connolly	-11.6954
▁contempt	-11.6954
▁contradict	-11.6954
▁corporation	-11.6954
▁coyote	-11.6954
▁cripple	-11.6954
▁daccord	-11.6954
▁dorothea	-11.6954
▁doublecross	-11.6954
▁durbeyfield	-11.6954
▁easiest	-11.6954
▁educated	-11.6954
▁eisenhower	-11.6954
▁exploring	-11.6954
▁exquisite	-11.6954
▁gamart	-11.6954
▁ghetto	-11.6954
▁handcuff	-11.6954
▁handkerchief	-11.6954
▁imbecile	-11.6954
▁inappropriate	-11.6954
▁injuries	-11.6954
▁intimate	-11.6954
▁introducing	-11.6954
▁introduction	-11.6954
▁jamaica	-11.6954
▁krijg	-11.6954
▁krishna	-11.6954
▁lindsey	-11.6954
▁loretta	-11.6954
▁maintenance	-11.6954
▁microchip	-11.6954
▁morpheus	-11.6954
▁overlapping	-11.6954
▁persuade	-11.6954
▁phoebe	-11.6954
▁phyllis	-11.6954
▁pilgrim	-11.6954
▁psychiatrist	-11.6954
▁qaeda	-11.6954
▁receiving	-11.6954
▁reggie	-11.6954
▁rendezvous	-11.6954
▁rhonda	-11.6954
▁selfdefense	-11.6954
▁sharptooth	-11.6954
▁socalled	-11.6954
▁supernatural	-11.6954
▁suspense	-11.6954
▁suspicion	-11.6954
▁tambourine	-11.6954
▁thunderclap	-11.6954
▁trajectory	-11.6954
▁treacherous	-11.6954
▁unauthorized	-11.6954
▁wondrous	-11.6954
▁wyldstyle	-11.6954
▁zubaydah	-11.6954
▁abroad	-11.6954
▁beverage	-11.6954
▁cholena	-11.6954
▁everlasting	-11.6954
▁herald	-11.6954
▁kibner	-11.6954
▁propeller	-11.6954
▁thanksgiving	-11.6954
▁capulet	-11.6954
▁cunning	-11.6954
▁despise	-11.6954
▁elgyn	-11.6954
▁machete	-11.6954
▁motivat	-11.6954
▁puckett	-11.6954
▁refuge	-11.6954
▁saigon	-11.6954
▁bokke	-11.6954
▁caprice	-11.6954
▁einstein	-11.6954
▁interpol	-11.6954
▁lesbian	-11.6954
▁portrait	-11.6954
▁connais	-11.6954
▁southwest	-11.6954
▁cereal	-11.6954
▁petition	-11.6954
▁musket	-11.6954
▁submit	-11.6954
▁deceive	-11.6954
▁ncaa	-11.6954
▁blouse	-11.6954
▁swedish	-11.6954
▁bracelet	-11.6954
▁cantonese	-11.6954
▁darren	-11.6954
▁scandal	-11.6954
▁vagina	-11.6954
▁pronto	-11.6954
▁sarge	-11.6954
▁workshop	-11.6954
▁regain	-11.6954
▁cayman	-11.6954
▁bueno	-11.6954
▁trench	-11.6954
▁jackpot	-11.6954
▁omelet	-11.6954
▁noisy	-11.6954
▁yoast	-11.6954
▁duane	-11.6954
▁hottest	-11.6955
▁dardis	-11.6955
▁crust	-11.6955
▁depot	-11.6955
▁flirt	-11.6955
▁vlad	-11.6955
▁teammates	-11.6955
▁rapids	-11.6955
▁pact	-11.6955
▁serene	-11.6955
▁crisp	-11.6955
▁elders	-11.6955
▁global	-11.6956
▁kelp	-11.6956
▁reef	-11.6956
▁candie	-11.6957
dolph	-11.6959
▁sleigh	-11.696
▁krist	-11.6961
▁inflat	-11.6966
▁narnia	-11.6978
ngbang	-11.6988
▁hurl	-11.7034
▁gibb	-11.7064
enthusiastically	-11.7233
▁multi	-11.7505
ontext	-11.7667
▁relieve	-11.7684
american	-11.7693
▁undoubted	-11.7723
▁extensive	-11.7723
▁virtual	-11.7723
efficient	-11.7723
surrection	-11.7723
▁accomplice	-11.7723
▁alligator	-11.7723
▁apologise	-11.7723
▁aquarium	-11.7723
▁autumn	-11.7723
▁boudreaux	-11.7723
▁cavanaugh	-11.7723
▁celebrity	-11.7723
▁clarinet	-11.7723
▁colwyn	-11.7723
▁crucial	-11.7723
▁dahlberg	-11.7723
▁decency	-11.7723
▁delegate	-11.7723
▁dictator	-11.7723
▁disconnect	-11.7723
▁eccentric	-11.7723
▁engraving	-11.7723
▁exterminate	-11.7723
▁fronkonsteen	-11.7723
▁frustrated	-11.7723
▁guvnor	-11.7723
▁hardborough	-11.7723
▁inconvenience	-11.7723
▁infinity	-11.7723
▁jabadu	-11.7723
▁ketchup	-11.7723
▁literature	-11.7723
▁lizzie	-11.7723
▁loneliness	-11.7723
▁manufacture	-11.7723
▁matthias	-11.7723
▁metropolitan	-11.7723
▁mongrel	-11.7723
▁montague	-11.7723
▁muslim	-11.7723
▁nataiie	-11.7723
▁oscorp	-11.7723
▁platform	-11.7723
▁pneumonia	-11.7723
▁pourquoi	-11.7723
▁pyramid	-11.7723
▁quarrel	-11.7723
▁recognise	-11.7723
▁refrigerator	-11.7723
▁religious	-11.7723
▁roussel	-11.7723
▁sanctuary	-11.7723
▁significant	-11.7723
▁stefan	-11.7723
▁symptoms	-11.7723
▁teschen	-11.7723
▁twerp	-11.7723
▁whichever	-11.7723
▁windshield	-11.7723
▁accommodat	-11.7723
▁confound	-11.7723
▁demonstrate	-11.7723
▁fischer	-11.7723
▁frenzy	-11.7723
▁interpret	-11.7723
▁jeanloup	-11.7723
▁jizz	-11.7723
▁miguel	-11.7723
▁monterey	-11.7723
▁stryker	-11.7723
▁substance	-11.7723
▁yippee	-11.7723
▁absorb	-11.7723
▁besoin	-11.7723
▁escaping	-11.7723
▁radius	-11.7723
▁seatbelt	-11.7723
▁beckett	-11.7723
▁comanche	-11.7723
▁snuck	-11.7723
oeuvre	-11.7723
▁gesture	-11.7723
▁lailailailai	-11.7723
▁louisiana	-11.7723
▁streak	-11.7723
▁evict	-11.7723
▁jefferson	-11.7723
▁orchid	-11.7723
▁titties	-11.7723
▁transition	-11.7723
▁zealand	-11.7723
▁caution	-11.7723
▁jongen	-11.7723
▁samuel	-11.7723
greatgreat	-11.7723
▁cycle	-11.7723
▁landscape	-11.7723
▁ashira	-11.7723
▁barnyard	-11.7723
▁graphic	-11.7723
▁maestro	-11.7723
▁jeffrey	-11.7723
▁reunion	-11.7723
▁unpack	-11.7723
▁aloft	-11.7723
▁nashville	-11.7723
▁wrath	-11.7723
▁youyou	-11.7723
▁lcarus	-11.7723
▁promising	-11.7723
▁savor	-11.7723
▁valens	-11.7723
▁ntsb	-11.7723
▁palermo	-11.7723
▁reboot	-11.7723
▁terrain	-11.7723
▁urdu	-11.7723
▁lndian	-11.7723
▁minnie	-11.7723
▁aiways	-11.7723
▁ultra	-11.7723
▁corral	-11.7723
▁reopen	-11.7723
▁wallace	-11.7723
▁dunne	-11.7723
▁beggar	-11.7723
▁boogie	-11.7723
▁mnu	-11.7724
▁moreno	-11.7724
▁flaming	-11.7724
▁pledge	-11.7724
▁rouge	-11.7724
▁enforc	-11.7724
▁applied	-11.7724
▁pursue	-11.7724
▁backstage	-11.7724
▁gallop	-11.7724
▁goddess	-11.7724
▁knit	-11.7724
▁rehab	-11.7725
▁jigg	-11.7726
▁terminate	-11.7728
▁sync	-11.7729
▁conserv	-11.7732
▁karl	-11.774
▁sanct	-11.7746
annie	-11.8001
▁enthusiastic	-11.8239
▁democrat	-11.8373
▁neuro	-11.8505
fresh	-11.8525
dollar	-11.8527
control	-11.8528
normal	-11.8528
▁interrogat	-11.8551
▁caviar	-11.8557
▁collaborat	-11.8557
▁deploy	-11.8557
▁enslave	-11.8557
▁mechanism	-11.8557
osaurus	-11.8557
▁adequate	-11.8557
▁allegations	-11.8557
▁analysis	-11.8557
▁apprehend	-11.8557
▁astonish	-11.8557
▁baltimore	-11.8557
▁bayonets	-11.8557
▁benedict	-11.8557
▁bermuda	-11.8557
▁blacksmith	-11.8557
▁breadfruit	-11.8557
▁cafeteria	-11.8557
▁charging	-11.8557
▁concierge	-11.8557
▁conform	-11.8557
▁corcoran	-11.8557
▁creaks	-11.8557
▁decorations	-11.8557
▁dedication	-11.8557
▁determination	-11.8557
▁dimension	-11.8557
▁diondra	-11.8557
▁discourage	-11.8557
▁dylan	-11.8557
▁dynamic	-11.8557
▁eduardo	-11.8557
▁equation	-11.8557
▁exploit	-11.8557
▁glynnis	-11.8557
▁grimsdyke	-11.8557
▁griselda	-11.8557
▁gurgling	-11.8557
▁hawthorne	-11.8557
▁irrational	-11.8557
▁irresponsible	-11.8557
▁isolation	-11.8557
▁jazamapajama	-11.8557
▁jeopardy	-11.8557
▁justify	-11.8557
▁kelmot	-11.8557
▁magruder	-11.8557
▁maurice	-11.8557
▁maximilian	-11.8557
▁mcafee	-11.8557
▁merchandise	-11.8557
▁mermaid	-11.8557
▁merrick	-11.8557
▁michigan	-11.8557
▁microwave	-11.8557
▁miraculous	-11.8557
▁molotov	-11.8557
▁mosquito	-11.8557
▁murray	-11.8557
▁navigate	-11.8557
▁neanderthal	-11.8557
▁nightclub	-11.8557
▁pikachu	-11.8557
▁pineapple	-11.8557
▁premises	-11.8557
▁prettiest	-11.8557
▁racehorse	-11.8557
▁rebuild	-11.8557
▁rehearsing	-11.8557
▁relentless	-11.8557
▁reprogram	-11.8557
▁rescuing	-11.8557
▁ricardo	-11.8557
▁sarsaparilla	-11.8557
▁savior	-11.8557
▁schuyler	-11.8557
▁scuttlebutt	-11.8557
▁separation	-11.8557
▁shuffle	-11.8557
▁somber	-11.8557
▁speculat	-11.8557
▁staircase	-11.8557
▁suzanne	-11.8557
▁sympathy	-11.8557
▁teenchy	-11.8557
▁towanda	-11.8557
▁twirl	-11.8557
▁underpants	-11.8557
▁vancouver	-11.8557
▁vietnam	-11.8557
▁vulnerable	-11.8557
▁walkietalkie	-11.8557
▁wrightwood	-11.8557
▁abilities	-11.8557
▁belgium	-11.8557
▁braxton	-11.8557
▁cheetah	-11.8557
▁conservatory	-11.8557
▁cupcake	-11.8557
▁diablo	-11.8557
▁fruitcake	-11.8557
▁happiest	-11.8557
▁ieave	-11.8557
▁indonesia	-11.8557
▁isaac	-11.8557
▁landolfa	-11.8557
▁orchard	-11.8557
▁portugal	-11.8557
▁profound	-11.8557
▁shaikh	-11.8557
▁shrunk	-11.8557
▁southeast	-11.8557
▁stardust	-11.8557
▁telegraph	-11.8557
▁vargas	-11.8557
▁zordon	-11.8557
▁analyze	-11.8557
▁cushion	-11.8557
▁imagining	-11.8557
▁quimby	-11.8557
▁scatting	-11.8557
▁skunk	-11.8557
▁companies	-11.8557
▁gerald	-11.8557
▁poverty	-11.8557
▁trask	-11.8557
▁anoint	-11.8557
▁maureen	-11.8557
▁seminar	-11.8557
▁vendor	-11.8557
▁vintage	-11.8557
▁banished	-11.8557
▁dublin	-11.8557
▁jamison	-11.8557
▁rueland	-11.8557
▁squire	-11.8557
▁toxic	-11.8557
▁cinema	-11.8557
▁conceive	-11.8557
▁dawson	-11.8557
▁restrict	-11.8557
▁spectre	-11.8557
▁expire	-11.8557
▁manwhore	-11.8557
▁flounder	-11.8557
▁millionaire	-11.8557
▁mwah	-11.8557
▁melvin	-11.8557
▁damato	-11.8557
▁mafia	-11.8557
▁tricia	-11.8557
▁woah	-11.8557
▁creator	-11.8557
▁sancho	-11.8557
▁osono	-11.8557
▁maax	-11.8557
▁fraser	-11.8557
▁endanger	-11.8557
▁mulch	-11.8557
▁tweet	-11.8557
▁steep	-11.8557
▁unseen	-11.8557
▁flex	-11.8557
▁reform	-11.8557
▁maroon	-11.8557
▁circulat	-11.8558
▁retrac	-11.8559
▁fraid	-11.8559
▁hostilit	-11.8559
