<unk>	0
<s>	0
</s>	0
s	-3.47041
▁im	-4.41726
▁know	-4.55527
▁dont	-4.59477
▁get	-4.75182
▁right	-4.8423
▁go	-4.86174
▁oh	-4.9487
▁got	-4.95321
▁yeah	-4.95354
▁like	-4.95567
▁come	-4.97634
▁youre	-5.02474
▁na	-5.06617
ing	-5.07836
▁okay	-5.09701
▁	-5.09938
▁thats	-5.18838
▁one	-5.24325
ed	-5.2626
▁l	-5.30999
▁well	-5.32338
▁gon	-5.33018
▁see	-5.38972
▁want	-5.39242
▁good	-5.41016
▁think	-5.41655
▁hey	-5.46205
d	-5.48842
▁look	-5.53786
▁back	-5.5934
▁man	-5.61822
▁going	-5.67189
▁time	-5.70865
▁take	-5.71979
▁yes	-5.72149
▁us	-5.74612
▁cant	-5.77714
▁need	-5.79823
▁say	-5.81988
▁hes	-5.84234
▁ill	-5.84809
▁love	-5.88419
▁tell	-5.90155
▁way	-5.90447
y	-5.92346
▁really	-5.93231
e	-5.94038
▁would	-5.9464
▁thank	-6.00313
▁lets	-6.00478
▁could	-6.01976
▁sorry	-6.02762
▁little	-6.03461
▁let	-6.04991
▁make	-6.05929
▁please	-6.08182
▁god	-6.09095
▁something	-6.09242
▁mean	-6.10977
er	-6.12515
▁never	-6.13692
▁whats	-6.1436
▁ive	-6.21256
▁theres	-6.22764
▁didnt	-6.23361
a	-6.2742
▁give	-6.28257
▁thing	-6.3297
▁people	-6.33659
▁wait	-6.35656
▁two	-6.36697
▁stop	-6.36957
▁help	-6.37221
t	-6.37957
▁said	-6.38951
▁ta	-6.40859
▁day	-6.41221
▁life	-6.43025
▁great	-6.43528
▁theyre	-6.44846
in	-6.46311
▁guys	-6.4902
ly	-6.49455
▁call	-6.49507
r	-6.50158
▁hi	-6.50396
▁sure	-6.50464
▁find	-6.508
▁mr	-6.51675
▁work	-6.52374
▁shes	-6.52735
▁first	-6.53051
▁much	-6.54217
▁nothing	-6.56234
▁even	-6.57014
▁night	-6.57425
▁put	-6.59509
▁uh	-6.60576
▁still	-6.62001
▁keep	-6.62797
▁baby	-6.6345
▁hell	-6.63536
n	-6.64714
▁talk	-6.66259
▁home	-6.6676
▁new	-6.67224
▁anything	-6.67551
▁maybe	-6.67748
p	-6.71065
▁ever	-6.71964
▁away	-6.72242
▁better	-6.7303
▁dad	-6.73354
▁nice	-6.74039
▁wan	-6.74263
▁big	-6.74359
▁sir	-6.75482
▁around	-6.76503
▁long	-6.77139
▁feel	-6.77391
▁hear	-6.78517
▁thought	-6.79101
▁stay	-6.7983
▁last	-6.80149
▁guy	-6.80342
▁years	-6.8108
▁always	-6.81846
▁aint	-6.82067
▁de	-6.82799
▁place	-6.82973
g	-6.8315
i	-6.83708
▁done	-6.8386
▁fine	-6.85436
▁told	-6.85651
▁lm	-6.85781
▁every	-6.86173
▁coming	-6.86399
▁everything	-6.8687
▁mom	-6.87193
▁show	-6.88166
o	-6.88704
▁world	-6.89373
▁leave	-6.9008
▁believe	-6.93303
▁move	-6.93369
▁boy	-6.93728
▁lot	-6.9481
▁hold	-6.9587
u	-6.95997
▁hello	-6.9637
▁three	-6.97253
▁youve	-6.97274
▁things	-6.9787
▁name	-6.97926
es	-6.97989
b	-6.98366
▁jack	-6.99216
▁remember	-6.99313
▁must	-6.99581
▁made	-6.99637
▁kind	-7.00973
▁listen	-7.01618
▁ok	-7.02003
▁son	-7.02054
▁car	-7.02395
▁thanks	-7.03017
▁shit	-7.03332
al	-7.03341
▁house	-7.03356
▁ready	-7.03976
▁bad	-7.04799
▁id	-7.05493
▁old	-7.0588
▁left	-7.06352
l	-7.06537
▁doesnt	-7.06633
▁care	-7.0666
▁real	-7.07054
▁wont	-7.07198
▁girl	-7.07896
▁wrong	-7.08622
f	-7.08899
▁money	-7.0949
▁talking	-7.09577
▁live	-7.09817
▁another	-7.10651
▁try	-7.12891
▁kill	-7.13185
▁today	-7.13322
▁youll	-7.14877
m	-7.14993
▁tonight	-7.1545
▁getting	-7.15829
▁door	-7.1594
▁je	-7.16269
▁understand	-7.18575
▁woman	-7.19535
▁trying	-7.19871
▁best	-7.19876
▁huh	-7.20494
▁wanted	-7.20742
▁un	-7.20871
▁might	-7.22121
▁play	-7.23103
▁actually	-7.23446
▁isnt	-7.24109
▁next	-7.24444
▁father	-7.24489
▁dead	-7.24773
▁men	-7.24932
▁cause	-7.25385
ll	-7.25502
c	-7.26072
▁die	-7.26935
▁job	-7.28227
▁enough	-7.28563
▁um	-7.28742
▁meet	-7.29352
▁friend	-7.29618
▁else	-7.29619
▁someone	-7.29871
▁phone	-7.30243
▁guess	-7.30329
▁everybody	-7.30596
▁looking	-7.30741
▁mind	-7.31066
or	-7.32196
▁whole	-7.32864
▁run	-7.3362
▁seen	-7.33752
▁bring	-7.34496
▁turn	-7.34702
▁start	-7.34741
ve	-7.34827
▁excuse	-7.35074
▁playing	-7.36146
▁ask	-7.36588
▁whos	-7.36955
▁morning	-7.36962
▁head	-7.37131
▁may	-7.37264
▁course	-7.37343
le	-7.37659
▁heart	-7.37957
▁wasnt	-7.3811
▁watch	-7.38481
▁together	-7.38496
▁la	-7.3921
▁music	-7.39666
▁fight	-7.39782
▁yöu	-7.39795
▁fun	-7.3991
▁came	-7.4073
▁found	-7.41253
▁idea	-7.41731
on	-7.42454
▁miss	-7.42739
▁tu	-7.42866
ie	-7.43511
▁second	-7.43916
▁family	-7.44064
▁damn	-7.44069
▁fire	-7.44076
re	-7.44408
▁many	-7.44478
▁end	-7.44608
▁happened	-7.45192
▁happy	-7.45299
▁s	-7.45917
▁hand	-7.46102
▁pretty	-7.46549
▁open	-7.46613
▁hard	-7.46643
▁hope	-7.46696
▁saw	-7.46982
▁everyone	-7.4826
▁without	-7.48668
▁school	-7.48693
▁laughing	-7.49314
▁use	-7.49917
▁dr	-7.50192
▁room	-7.50532
▁used	-7.5074
▁f	-7.50779
▁heard	-7.52129
▁five	-7.53567
▁weve	-7.54396
w	-7.54799
▁kid	-7.55249
▁le	-7.55624
st	-7.55715
▁knew	-7.55767
▁went	-7.55775
▁mother	-7.56005
▁part	-7.56832
▁sighs	-7.57221
▁cool	-7.5763
▁em	-7.57766
▁th	-7.57784
▁ben	-7.57873
▁took	-7.58095
▁face	-7.584
k	-7.58403
▁honey	-7.5904
▁deal	-7.59228
▁matter	-7.59417
▁tomorrow	-7.59513
▁yet	-7.5952
▁saying	-7.60271
▁lost	-7.60482
▁lts	-7.60612
▁beautiful	-7.60956
▁crazy	-7.60965
▁whoa	-7.6147
▁called	-7.61559
▁pay	-7.61882
▁ah	-7.61994
▁friends	-7.62197
▁eyes	-7.62398
▁game	-7.63369
▁party	-7.63694
é	-7.6514
▁bit	-7.65196
▁re	-7.65199
▁working	-7.65286
▁hot	-7.65339
▁gone	-7.65388
▁alone	-7.65416
▁kids	-7.65719
▁break	-7.65802
▁check	-7.66301
▁inside	-7.66434
▁since	-7.66434
▁eat	-7.66801
▁problem	-7.6703
▁shut	-7.67413
▁walk	-7.67428
▁somebody	-7.67458
ers	-7.67877
ion	-7.68806
it	-7.6892
▁true	-7.69023
▁days	-7.69285
▁bye	-7.69548
▁ass	-7.6958
▁brother	-7.69706
▁stand	-7.69977
▁stuff	-7.70081
▁supposed	-7.70121
▁minutes	-7.70335
▁wouldnt	-7.70754
▁worry	-7.71044
▁already	-7.71143
▁hit	-7.71418
▁mama	-7.71684
▁hurt	-7.71961
▁you	-7.72306
▁nobody	-7.72478
▁boys	-7.72878
▁pas	-7.73659
▁close	-7.73861
h	-7.73905
▁ya	-7.73977
▁minute	-7.74158
▁year	-7.74171
▁sleep	-7.74342
▁six	-7.74393
▁grunts	-7.74632
▁easy	-7.74968
▁cest	-7.75034
▁safe	-7.75504
▁chuckles	-7.76403
en	-7.76492
▁in	-7.76533
▁business	-7.76654
▁havent	-7.76654
▁point	-7.76691
▁anyone	-7.77222
▁number	-7.77643
us	-7.77724
▁trust	-7.77794
▁looks	-7.77801
▁set	-7.78067
▁ago	-7.78314
▁welcome	-7.78368
man	-7.78977
▁whatever	-7.79527
▁gave	-7.80112
▁water	-7.80131
▁side	-7.8078
▁couldnt	-7.80851
▁laughs	-7.80993
▁killed	-7.81124
▁clear	-7.81172
▁different	-7.81292
▁wife	-7.81294
▁moment	-7.81365
z	-7.81537
▁met	-7.81824
▁daddy	-7.81891
▁sit	-7.82265
▁wow	-7.82496
v	-7.8262
▁thinking	-7.82703
▁though	-7.82948
▁a	-7.83027
▁making	-7.83115
est	-7.8312
▁blood	-7.83695
▁b	-7.84174
is	-7.84174
▁far	-7.84653
▁four	-7.84934
th	-7.85564
ar	-7.85959
▁war	-7.8597
▁c	-7.8605
▁wish	-7.86061
▁read	-7.86067
▁probably	-7.86156
▁question	-7.86248
▁chance	-7.8679
▁cut	-7.87026
▁hands	-7.87073
▁dance	-7.87122
▁later	-7.87589
▁speaking	-7.87882
▁team	-7.88053
▁light	-7.88322
ri	-7.88454
▁forget	-7.8868
▁says	-7.89023
▁soon	-7.89781
▁ricky	-7.90064
▁change	-7.90545
ic	-7.90632
el	-7.90638
▁m	-7.91309
▁word	-7.9153
▁mine	-7.92086
te	-7.92163
▁rest	-7.92739
▁high	-7.92769
▁line	-7.9311
▁bob	-7.93121
▁promise	-7.94187
▁makes	-7.94482
▁late	-7.94591
▁george	-7.94603
▁screaming	-7.94709
an	-7.94761
▁free	-7.95299
▁drink	-7.95353
▁hate	-7.96118
▁win	-7.96118
▁goes	-7.96148
▁g	-7.96264
▁person	-7.96538
▁full	-7.96581
▁happen	-7.96655
▁ladies	-7.96658
▁president	-7.96658
▁voice	-7.96664
▁book	-7.96828
ch	-7.97009
▁special	-7.97352
▁ha	-7.97381
▁wheres	-7.97585
▁almost	-7.98051
▁death	-7.98063
▁heres	-7.98262
▁girls	-7.98463
▁en	-7.98502
▁hang	-7.98868
ro	-7.98993
▁continues	-7.99108
▁perfect	-7.99261
▁exactly	-7.99486
▁power	-8.00015
▁r	-8.00081
▁hours	-8.00152
▁gasps	-8.01276
ation	-8.01563
▁it	-8.01642
▁pick	-8.01945
▁save	-8.02025
▁king	-8.02117
▁means	-8.02612
▁lose	-8.02791
▁drive	-8.0287
▁anyway	-8.03088
▁wants	-8.03724
▁story	-8.03836
▁sign	-8.04008
▁sometimes	-8.04216
▁city	-8.04604
▁human	-8.05306
▁child	-8.0532
▁afraid	-8.05327
▁half	-8.05385
▁waiting	-8.05673
la	-8.06105
▁shot	-8.06134
ce	-8.06374
▁touch	-8.06451
▁red	-8.06615
ting	-8.06632
▁front	-8.06852
▁jesus	-8.06852
▁eye	-8.06889
▁taking	-8.06899
▁top	-8.06928
▁answer	-8.06975
▁bitch	-8.07571
▁reason	-8.07617
▁buddy	-8.07618
▁week	-8.07661
ies	-8.08765
▁follow	-8.08804
able	-8.08807
▁anymore	-8.09174
▁truth	-8.09174
▁song	-8.09504
▁que	-8.09505
me	-8.09833
▁lt	-8.09896
▁behind	-8.09961
▁died	-8.10291
▁anybody	-8.10755
▁hubie	-8.10755
▁ahead	-8.10768
▁bed	-8.10788
▁air	-8.10811
▁plan	-8.10817
▁grunting	-8.10819
▁fall	-8.1112
▁lll	-8.11134
▁sweet	-8.11494
▁alive	-8.11583
▁doctor	-8.11744
▁fast	-8.12144
il	-8.12745
▁sound	-8.12871
▁food	-8.13166
▁young	-8.13809
▁body	-8.13993
▁blue	-8.13995
▁speak	-8.14203
▁scared	-8.1422
▁sister	-8.14266
▁news	-8.14621
▁hmm	-8.14832
▁throw	-8.14899
▁shoot	-8.15038
▁started	-8.15145
ra	-8.15358
▁amazing	-8.15654
▁also	-8.15656
▁running	-8.15676
ist	-8.16021
▁h	-8.16445
▁white	-8.16504
▁moving	-8.16514
▁asked	-8.16798
▁singing	-8.16972
▁bar	-8.16975
▁ball	-8.17218
▁max	-8.17333
▁stupid	-8.17342
▁feet	-8.17365
▁tried	-8.17451
▁p	-8.17713
at	-8.17775
▁living	-8.1827
▁st	-8.18462
▁least	-8.19087
▁beat	-8.19308
▁dog	-8.19396
▁co	-8.19598
▁brought	-8.19928
▁trouble	-8.19928
▁married	-8.19928
▁arent	-8.19935
▁ooh	-8.20805
▁telling	-8.20812
▁street	-8.20895
▁ow	-8.211
▁sounds	-8.21448
▁john	-8.21675
▁black	-8.21691
▁gentlemen	-8.21692
▁hair	-8.21748
▁dear	-8.2184
▁daughter	-8.22233
▁teddy	-8.22583
▁dream	-8.22642
▁figure	-8.23066
ty	-8.23083
▁secret	-8.23155
▁maam	-8.23489
▁french	-8.23492
▁important	-8.23503
▁date	-8.23613
na	-8.24075
▁gun	-8.24242
▁case	-8.24397
▁eight	-8.2446
▁order	-8.24493
up	-8.24601
ant	-8.24618
▁hurry	-8.25311
▁along	-8.25313
▁dude	-8.25321
▁luck	-8.26107
▁happening	-8.26134
▁control	-8.26223
▁police	-8.26236
▁lord	-8.26413
▁yo	-8.26766
▁greg	-8.27166
▁dinner	-8.27174
▁earth	-8.28123
▁kidding	-8.28126
▁zoey	-8.28138
▁funny	-8.28148
▁sick	-8.28155
▁kiss	-8.28768
▁office	-8.28894
▁pull	-8.28901
▁outside	-8.29069
▁hows	-8.2907
▁carl	-8.29543
▁seems	-8.29806
ne	-8.3001
▁couple	-8.30042
nt	-8.30338
▁send	-8.30477
▁mo	-8.30657
▁serious	-8.30847
▁children	-8.31005
▁rose	-8.31019
et	-8.31235
▁shake	-8.3199
▁o	-8.32039
▁calm	-8.3213
▁buy	-8.32412
▁feeling	-8.32766
▁women	-8.3297
ii	-8.33026
▁park	-8.33032
▁lives	-8.33326
to	-8.33844
▁an	-8.33855
▁pop	-8.33857
▁grace	-8.3397
▁honor	-8.33977
▁glad	-8.33982
▁finish	-8.3446
li	-8.34831
▁husband	-8.3498
▁round	-8.34984
▁drop	-8.34996
▁army	-8.35194
▁past	-8.35508
▁learn	-8.35891
▁seven	-8.35976
▁either	-8.36
▁times	-8.36018
▁tree	-8.36043
▁step	-8.36048
▁hour	-8.36108
ment	-8.36257
ity	-8.36849
▁they	-8.36929
▁cell	-8.37102
▁va	-8.37146
▁et	-8.37202
▁con	-8.37386
▁wear	-8.37449
▁cover	-8.37539
▁slow	-8.37939
▁captain	-8.38073
▁weird	-8.38073
▁wake	-8.38088
▁leaving	-8.38093
▁i	-8.38103
▁till	-8.38111
▁kate	-8.3812
▁theyll	-8.38146
▁finally	-8.38153
ent	-8.3835
▁rock	-8.39076
▁t	-8.39085
▁general	-8.39126
▁ground	-8.39207
▁rain	-8.39221
▁aii	-8.39281
▁quite	-8.3929
ur	-8.39377
▁handle	-8.39632
▁law	-8.39657
▁record	-8.39734
▁fat	-8.40003
▁york	-8.40184
▁colonel	-8.40193
▁cold	-8.40196
▁queen	-8.4025
▁cheering	-8.40378
▁horse	-8.41279
▁fear	-8.41281
▁fact	-8.41747
▁ce	-8.42083
ance	-8.42097
▁write	-8.42123
▁small	-8.42129
▁ride	-8.42222
▁si	-8.4229
▁security	-8.42351
▁goodbye	-8.42352
▁country	-8.42372
▁mar	-8.42541
▁join	-8.42896
▁asking	-8.43042
ate	-8.43379
▁become	-8.4345
▁kevin	-8.4345
▁wedding	-8.43453
▁sense	-8.43459
▁crowd	-8.4348
▁class	-8.4356
ter	-8.43604
ca	-8.44415
▁careful	-8.44489
▁proud	-8.44562
▁lady	-8.44565
▁stick	-8.44573
▁absolutely	-8.44581
▁sing	-8.44783
▁parents	-8.44791
▁seem	-8.44809
▁smell	-8.44872
▁pa	-8.45005
▁cute	-8.45211
ful	-8.45279
▁pass	-8.45365
▁gilbert	-8.45685
▁pour	-8.45716
▁fish	-8.45797
▁town	-8.45822
▁seat	-8.46071
▁wonder	-8.46116
▁ring	-8.46428
▁charlie	-8.46821
▁julia	-8.46823
▁push	-8.46833
ng	-8.46834
sh	-8.47086
▁words	-8.47522
id	-8.47775
▁count	-8.4792
▁straight	-8.47926
▁arnie	-8.47971
▁bank	-8.47986
ry	-8.48011
▁louise	-8.4802
▁roy	-8.48024
▁contact	-8.48046
▁wonderful	-8.48052
▁shouting	-8.48099
▁ne	-8.48623
▁watching	-8.48666
▁mmm	-8.49103
▁gold	-8.49112
▁forever	-8.49134
▁somewhere	-8.49134
age	-8.49337
▁card	-8.49349
▁il	-8.49916
▁grab	-8.5031
▁future	-8.5031
▁choice	-8.50311
ir	-8.50383
▁american	-8.50408
▁nine	-8.50411
▁yall	-8.50465
▁sent	-8.50588
ive	-8.50686
less	-8.51182
▁brian	-8.51483
▁hercules	-8.51501
um	-8.517
▁qui	-8.51978
▁mouth	-8.52102
▁screams	-8.52434
▁months	-8.52509
▁box	-8.5265
▁laugh	-8.52683
▁near	-8.52691
▁panting	-8.52713
rs	-8.5288
▁act	-8.53417
▁w	-8.53521
▁paint	-8.53598
▁dis	-8.53639
▁questions	-8.53751
▁weeks	-8.53836
▁perhaps	-8.53925
▁worth	-8.53925
▁birthday	-8.53926
▁bobby	-8.53942
▁shall	-8.53956
▁catch	-8.53995
▁mad	-8.54102
▁ten	-8.54145
▁turned	-8.54394
▁known	-8.54514
▁non	-8.54912
ai	-8.5502
▁charge	-8.55159
▁evil	-8.5516
▁road	-8.5516
▁green	-8.55163
▁iike	-8.55173
▁sort	-8.55203
▁ray	-8.55346
▁les	-8.55598
▁magic	-8.55773
▁land	-8.55847
▁sh	-8.55953
▁arm	-8.56386
▁hospital	-8.56409
▁island	-8.5641
▁zeus	-8.56417
▁ho	-8.56703
▁report	-8.56762
▁able	-8.57451
▁strong	-8.57454
▁relax	-8.57675
▁boat	-8.57691
▁tv	-8.57725
▁ship	-8.57845
▁bet	-8.57849
▁needs	-8.58128
▁protect	-8.58376
▁explain	-8.58419
▁bell	-8.58466
▁system	-8.58468
co	-8.58503
▁wall	-8.58799
▁felt	-8.58959
▁doin	-8.59092
▁jai	-8.59418
▁wed	-8.59516
ness	-8.59564
▁troy	-8.60337
▁court	-8.6036
▁mu	-8.60378
▁lucky	-8.60632
▁building	-8.60644
▁ringing	-8.60976
▁attack	-8.61044
▁hundred	-8.61137
▁picture	-8.61158
▁meeting	-8.61246
ma	-8.61282
▁art	-8.61324
▁possible	-8.61572
▁tough	-8.61575
▁asshole	-8.61579
▁worked	-8.61749
▁e	-8.62528
out	-8.62596
▁lie	-8.62727
▁anywhere	-8.62905
▁kaulder	-8.62905
▁toronto	-8.62905
▁track	-8.62909
▁stuck	-8.62916
▁yep	-8.62918
▁totally	-8.62967
▁vee	-8.62969
▁copy	-8.63008
▁born	-8.63042
▁mission	-8.63102
▁kick	-8.63105
▁age	-8.6312
am	-8.63158
im	-8.63293
▁d	-8.63584
▁key	-8.64013
▁sex	-8.64041
▁crawl	-8.64257
▁shouldnt	-8.64257
▁shell	-8.64258
▁bernie	-8.64269
vous	-8.64277
▁service	-8.64286
▁mark	-8.64349
▁se	-8.6442
▁seriously	-8.6447
ia	-8.64591
ti	-8.64859
ge	-8.65116
▁comes	-8.65445
ling	-8.65445
▁imagine	-8.65627
▁clean	-8.65841
▁hole	-8.65904
▁tired	-8.65909
ke	-8.66125
ta	-8.66352
▁jump	-8.66482
▁linda	-8.67024
▁faith	-8.67034
▁paris	-8.67039
▁trick	-8.67108
ous	-8.67283
▁groans	-8.67393
▁happens	-8.67539
▁mess	-8.67733
▁pain	-8.67763
▁list	-8.67856
▁fit	-8.67862
▁lock	-8.6789
▁k	-8.68044
▁million	-8.68179
▁al	-8.68222
▁deep	-8.68276
▁quick	-8.6829
▁forgot	-8.68413
▁goddamn	-8.68424
▁tina	-8.68431
▁sophie	-8.68433
▁agent	-8.68456
▁longer	-8.68474
do	-8.68617
▁ice	-8.68681
▁knock	-8.68684
▁meant	-8.69022
▁burn	-8.69212
▁super	-8.69238
▁fair	-8.6931
▁lead	-8.69365
▁calling	-8.69681
▁sun	-8.6974
▁company	-8.69852
▁rachel	-8.69852
▁radio	-8.69852
▁forward	-8.69854
▁ginger	-8.69855
▁dancing	-8.69858
▁state	-8.69987
ine	-8.70009
tre	-8.70548
▁short	-8.71141
▁du	-8.71183
▁chuck	-8.71216
▁te	-8.71223
▁bruce	-8.71302
▁college	-8.71302
▁definitely	-8.71302
▁foreman	-8.71302
▁floor	-8.71312
▁gay	-8.71327
▁tour	-8.71361
x	-8.71363
▁beeping	-8.714
▁joe	-8.71669
▁star	-8.72241
▁return	-8.72248
▁cr	-8.72627
▁pack	-8.72772
▁history	-8.72772
▁katniss	-8.72772
▁werent	-8.72772
▁dark	-8.72777
▁au	-8.72811
▁boss	-8.72839
▁lve	-8.73271
mo	-8.73474
que	-8.73671
▁taken	-8.73839
▁none	-8.73901
▁fly	-8.74188
▁restaurant	-8.74265
▁sheiiey	-8.74266
▁paul	-8.74282
▁piece	-8.74287
▁melon	-8.74296
▁unless	-8.74361
▁field	-8.74455
▁do	-8.74567
▁less	-8.74579
▁missing	-8.75079
▁saved	-8.75123
▁sell	-8.75222
▁mistake	-8.75628
▁america	-8.75653
▁frank	-8.75776
▁charles	-8.7578
▁gift	-8.7578
▁middle	-8.7578
▁worse	-8.7578
▁truck	-8.75804
▁offer	-8.75882
de	-8.76736
▁cross	-8.76784
▁command	-8.7691
▁across	-8.77318
▁attention	-8.77318
▁weii	-8.77318
▁situation	-8.77318
▁summer	-8.77319
▁message	-8.77341
▁alarm	-8.77342
▁bigger	-8.77371
▁gene	-8.77431
▁low	-8.7744
▁sam	-8.77657
▁fix	-8.77722
▁miles	-8.78154
▁gods	-8.78348
▁reach	-8.78397
ts	-8.78622
▁computer	-8.78881
▁jules	-8.78884
▁russian	-8.7891
▁shh	-8.78936
▁moon	-8.79025
▁enjoy	-8.79295
▁sea	-8.79345
▁est	-8.79483
ted	-8.79561
▁bon	-8.79644
▁grow	-8.79667
no	-8.79712
▁so	-8.79778
▁une	-8.7979
▁painting	-8.79815
as	-8.79919
▁breathe	-8.80046
▁pen	-8.8006
▁loved	-8.80063
▁share	-8.80069
▁cat	-8.80218
▁entire	-8.80309
▁pro	-8.80451
▁machine	-8.80468
▁respect	-8.80468
▁simple	-8.80468
▁lucas	-8.80468
▁moses	-8.80473
▁dangerous	-8.80475
▁ja	-8.80524
▁dying	-8.80558
▁table	-8.80616
▁code	-8.80714
▁officer	-8.80843
▁ton	-8.8112
▁vi	-8.81127
▁teach	-8.81187
▁gr	-8.81293
▁bud	-8.81379
▁chris	-8.81574
▁rings	-8.816
▁pre	-8.81741
ut	-8.81784
pe	-8.81881
▁awesome	-8.82081
▁caught	-8.82081
▁monsieur	-8.82081
▁austin	-8.82081
▁completely	-8.82181
▁taste	-8.82368
▁aw	-8.82525
▁v	-8.82581
▁works	-8.82692
▁sa	-8.82728
be	-8.82963
▁roll	-8.82976
▁changed	-8.83202
▁bastard	-8.8372
▁movie	-8.83721
▁others	-8.83721
▁smart	-8.83728
▁lisa	-8.83737
▁mmhmm	-8.83754
▁poor	-8.83798
▁early	-8.83809
▁horn	-8.83874
▁hide	-8.83904
▁month	-8.8403
▁letter	-8.84086
▁crying	-8.84161
▁christ	-8.84186
ck	-8.84563
ian	-8.84681
▁po	-8.84761
▁wind	-8.84805
end	-8.84807
▁blow	-8.84913
▁engine	-8.84937
▁survive	-8.8496
ow	-8.85031
▁ii	-8.85042
▁suit	-8.85132
▁fell	-8.85216
▁broke	-8.85277
▁brain	-8.85336
▁bill	-8.85386
▁washington	-8.85387
▁football	-8.85392
▁giving	-8.85394
▁spent	-8.854
▁suis	-8.85407
▁space	-8.85423
▁games	-8.85515
▁beer	-8.85658
▁thousand	-8.85712
▁camera	-8.85807
ag	-8.86227
▁surprise	-8.86663
▁jj	-8.86934
▁lee	-8.86952
▁heavy	-8.87082
▁jimmy	-8.87082
▁paige	-8.87082
▁swear	-8.87082
▁bomb	-8.87082
▁clothes	-8.87093
▁jake	-8.87108
▁sitting	-8.8719
▁brave	-8.87215
▁bella	-8.87426
ga	-8.8746
▁breathing	-8.87566
▁looked	-8.87612
▁moi	-8.87908
▁steal	-8.88172
▁crap	-8.88267
▁whoo	-8.88405
▁bro	-8.88739
▁visit	-8.88741
▁given	-8.88778
▁group	-8.88806
▁north	-8.88806
▁sebastian	-8.88807
▁quoi	-8.88809
▁window	-8.88821
▁terrible	-8.88827
▁race	-8.8885
▁remind	-8.88884
▁foot	-8.88893
▁walking	-8.89158
▁appreciate	-8.89187
ci	-8.89232
mp	-8.8945
▁pray	-8.89731
ny	-8.90102
▁rick	-8.90319
▁ex	-8.90367
tch	-8.90478
io	-8.90535
▁uhhuh	-8.9056
▁blind	-8.90561
▁whatd	-8.90561
▁driving	-8.90565
▁joke	-8.90578
▁sky	-8.90582
▁groaning	-8.90657
▁per	-8.90677
▁corner	-8.90724
▁sad	-8.9082
▁soul	-8.91059
▁train	-8.9119
▁seconds	-8.91205
▁present	-8.91209
he	-8.91278
▁lay	-8.91534
ade	-8.91626
▁ones	-8.91887
▁honest	-8.9192
▁test	-8.91945
op	-8.91981
▁glass	-8.92283
▁fault	-8.92346
▁square	-8.92346
▁nervous	-8.92346
▁ronny	-8.92351
▁mike	-8.92362
▁tech	-8.9239
▁lying	-8.9245
▁single	-8.92478
▁feels	-8.92492
▁begin	-8.92618
▁yelling	-8.92642
▁standing	-8.92654
▁peace	-8.92765
▁needed	-8.93139
▁seeing	-8.93347
▁dress	-8.93545
▁lovely	-8.93728
vi	-8.93791
▁tr	-8.93793
om	-8.93978
▁j	-8.94138
▁accident	-8.94164
▁heaven	-8.94164
▁jasmine	-8.94164
▁strike	-8.94164
▁tommy	-8.94165
▁instead	-8.94166
▁alright	-8.94167
▁rather	-8.9417
▁upon	-8.94191
▁master	-8.94191
▁patch	-8.94207
▁nu	-8.9427
▁mm	-8.94289
▁ellis	-8.94393
▁papa	-8.94411
▁decided	-8.94472
oo	-8.94613
▁tom	-8.94641
▁form	-8.94865
▁n	-8.94955
▁fighting	-8.95301
▁spend	-8.95382
▁marshal	-8.95601
▁dare	-8.95651
▁sur	-8.95881
▁robot	-8.95907
▁uncle	-8.96
▁account	-8.96016
▁position	-8.96018
▁walter	-8.96022
▁tight	-8.96022
▁judge	-8.96023
▁missed	-8.96554
▁orders	-8.96617
▁yöur	-8.96713
▁mon	-8.96716
▁mountain	-8.96722
ped	-8.96974
and	-8.97167
▁starting	-8.97293
▁pal	-8.97335
▁destroy	-8.9738
▁ra	-8.9786
▁apart	-8.97879
▁target	-8.97903
▁girlfriend	-8.97903
▁worried	-8.97903
▁grandpa	-8.97903
▁hungry	-8.97909
▁band	-8.98027
ill	-8.98072
▁busy	-8.98093
▁hug	-8.98132
▁cost	-8.98339
▁listening	-8.98505
▁fi	-8.98558
▁paper	-8.98674
▁plus	-8.98739
▁plane	-8.98811
▁dollars	-8.98962
▁lang	-8.98997
▁gosh	-8.99249
▁raise	-8.99409
go	-8.99633
▁quiet	-8.99709
tra	-8.99724
▁lin	-8.99769
▁fool	-8.99815
▁hat	-8.99826
▁female	-8.99826
▁halloween	-8.99826
▁chief	-8.99826
▁smile	-8.99826
▁lawyer	-8.99828
hrer	-8.99829
▁favorite	-8.99832
▁hitler	-8.99856
▁devil	-8.99858
▁incredible	-8.99881
▁male	-8.9994
▁owe	-8.9996
▁jail	-8.99991
cu	-9.00081
▁expect	-9.00626
▁folks	-9.00658
che	-9.00889
tic	-9.00915
▁mi	-9.00926
▁cook	-9.00968
os	-9.00971
▁wearing	-9.00993
ure	-9.00999
ez	-9.01029
▁moved	-9.01146
▁chatter	-9.01165
our	-9.01238
▁agree	-9.0134
▁final	-9.01635
▁rich	-9.01647
▁except	-9.01716
▁grand	-9.01768
▁audience	-9.01787
▁spanish	-9.01787
▁yesterday	-9.01787
▁bathroom	-9.0179
▁donna	-9.01793
▁peeta	-9.01798
▁monster	-9.01828
▁enter	-9.01854
▁button	-9.01887
ul	-9.01938
▁freaky	-9.01971
▁suck	-9.02433
▁wa	-9.02456
lo	-9.0255
ton	-9.02567
son	-9.02654
▁trip	-9.02725
▁da	-9.02738
▁victor	-9.03497
▁goin	-9.03589
▁beyond	-9.03787
▁bruno	-9.03787
▁congratulations	-9.03788
▁vincent	-9.03788
▁hasnt	-9.03789
▁sweetheart	-9.03791
▁flight	-9.03811
ho	-9.03817
▁fuck	-9.03825
▁east	-9.03865
▁personal	-9.03866
▁prove	-9.0406
▁rent	-9.04239
▁leg	-9.04265
▁gas	-9.04344
▁books	-9.04553
▁adam	-9.04787
▁learned	-9.04816
▁no	-9.04835
▁cl	-9.05212
ey	-9.05482
▁scott	-9.05544
▁feed	-9.05743
▁major	-9.05828
▁lunch	-9.05828
▁terry	-9.05828
▁remain	-9.0583
▁richard	-9.05834
▁chicken	-9.05856
time	-9.05883
▁jo	-9.05965
▁hotel	-9.05981
▁heh	-9.06064
▁continue	-9.06255
▁press	-9.06328
▁greatest	-9.06391
▁closer	-9.06395
▁atom	-9.06552
▁holding	-9.06765
▁lived	-9.06832
▁ro	-9.06875
▁huge	-9.07021
▁bird	-9.07025
iy	-9.07056
▁bag	-9.07145
▁killer	-9.07249
▁build	-9.07289
▁he	-9.07357
ac	-9.07466
▁force	-9.07507
▁ch	-9.07554
▁realize	-9.07554
▁falco	-9.0778
ish	-9.07795
▁witch	-9.07818
▁fresh	-9.07869
▁nick	-9.07892
▁bullshit	-9.07911
▁coffee	-9.07911
▁double	-9.07911
▁kitchen	-9.07911
▁private	-9.07911
▁eddie	-9.07911
▁doyle	-9.07911
▁nature	-9.07912
▁type	-9.07914
▁bunch	-9.07927
▁neck	-9.07941
▁fired	-9.07941
▁weekend	-9.07946
▁skin	-9.07978
▁spot	-9.08157
▁siren	-9.0837
kin	-9.08427
▁quit	-9.0875
▁guard	-9.09102
▁partner	-9.09114
▁out	-9.09365
▁marry	-9.09444
the	-9.09492
▁hanging	-9.09779
▁certain	-9.09885
▁favor	-9.10032
▁boyfriend	-9.10039
▁drunk	-9.10039
▁goldmember	-9.10039
▁beach	-9.10039
▁memory	-9.10041
▁rosie	-9.10042
▁kept	-9.10043
▁cosette	-9.10044
▁distance	-9.10047
▁block	-9.10061
▁clock	-9.10063
▁artist	-9.10086
▁main	-9.10164
▁dans	-9.10472
▁driver	-9.1078
▁bot	-9.10784
▁locked	-9.10835
▁warm	-9.11162
▁names	-9.11184
▁ann	-9.1129
ee	-9.11485
ber	-9.11638
▁ab	-9.11649
▁treat	-9.11661
▁howd	-9.11931
▁indistinct	-9.12059
▁draw	-9.12078
▁breath	-9.12172
ay	-9.12178
▁afternoon	-9.12213
▁launch	-9.12213
▁rudy	-9.12213
▁river	-9.12213
▁reaiiy	-9.12217
▁paid	-9.12254
▁brianna	-9.12262
▁pu	-9.12343
▁chon	-9.12347
▁holy	-9.12476
ial	-9.12547
▁over	-9.12618
▁wine	-9.12655
▁lake	-9.12703
▁powers	-9.12727
ary	-9.12995
ect	-9.1329
▁evening	-9.13553
▁weapon	-9.13595
▁talked	-9.13866
▁wash	-9.13929
▁carry	-9.13978
▁bless	-9.13983
▁beckett	-9.14435
▁stella	-9.14435
▁lambert	-9.14435
▁deserve	-9.14435
▁roger	-9.14435
▁lonely	-9.14436
▁south	-9.14452
▁chuckling	-9.14463
▁cake	-9.14474
▁third	-9.14484
▁cream	-9.14498
▁gate	-9.14508
▁united	-9.14766
▁putting	-9.14867
di	-9.14995
▁heat	-9.15108
pp	-9.15202
nd	-9.15239
▁dads	-9.15743
▁where	-9.16066
▁serve	-9.16293
▁strange	-9.16323
one	-9.16613
▁cia	-9.16679
▁english	-9.16708
▁government	-9.16708
▁izzy	-9.16708
▁amara	-9.16708
▁film	-9.16708
▁operation	-9.16709
▁andy	-9.16712
▁roof	-9.16714
▁brown	-9.16715
▁level	-9.16727
▁store	-9.16733
▁cash	-9.16747
▁roz	-9.1678
▁west	-9.16783
▁sake	-9.16784
▁size	-9.16786
▁action	-9.16837
▁killing	-9.16855
▁peter	-9.16899
tion	-9.17008
▁whispers	-9.17332
▁shoes	-9.17475
▁beeps	-9.17478
▁ran	-9.17727
▁finished	-9.17899
▁fill	-9.18063
▁named	-9.18134
▁turning	-9.18234
▁arrest	-9.18526
▁di	-9.18588
▁butt	-9.18657
ism	-9.1874
▁fe	-9.18818
▁wood	-9.18822
▁cry	-9.18912
▁punch	-9.18924
▁chocolate	-9.19033
▁lloyd	-9.19033
▁thunder	-9.19033
▁add	-9.19033
▁risk	-9.19034
▁idiot	-9.19034
▁impossible	-9.19036
▁information	-9.19039
▁extra	-9.19044
▁snow	-9.1907
▁laughter	-9.19075
▁bo	-9.19084
▁broken	-9.19212
▁stopped	-9.19262
▁quickly	-9.19288
▁warning	-9.1942
▁pi	-9.19424
▁sexy	-9.19499
▁pe	-9.19568
▁file	-9.1971
▁pam	-9.19819
▁gu	-9.19864
ha	-9.20011
bi	-9.20053
▁crime	-9.20698
▁picked	-9.20721
▁burger	-9.20732
▁study	-9.20832
▁reading	-9.2141
▁felix	-9.21414
▁sacrifice	-9.21414
▁violet	-9.21414
▁cheese	-9.21414
▁club	-9.21414
▁throat	-9.21414
▁diane	-9.21414
▁access	-9.21415
▁larry	-9.21415
▁center	-9.21416
▁bottle	-9.21417
▁darling	-9.21424
▁harry	-9.21424
▁legend	-9.21429
▁theo	-9.21437
▁correct	-9.21437
▁color	-9.21442
▁oui	-9.21448
▁liesel	-9.21452
▁all	-9.21621
▁station	-9.2163
off	-9.21643
▁bear	-9.21695
ff	-9.21773
da	-9.22175
▁van	-9.22306
ally	-9.22561
▁photo	-9.22635
▁bone	-9.22759
▁li	-9.23144
▁lights	-9.23178
les	-9.23241
land	-9.23323
▁hed	-9.23414
▁bridge	-9.23674
▁be	-9.2381
▁public	-9.23853
▁candy	-9.23854
▁julie	-9.23895
▁pool	-9.23906
▁chill	-9.23977
▁wild	-9.24101
▁gasping	-9.24116
▁board	-9.24144
▁pig	-9.24315
▁eating	-9.24392
▁seal	-9.24543
▁complete	-9.24758
lng	-9.24834
▁figured	-9.25001
▁fr	-9.25122
▁tall	-9.25142
▁dan	-9.25343
▁cale	-9.25408
ten	-9.25417
▁brothers	-9.25599
head	-9.25702
▁des	-9.25921
▁goal	-9.26028
king	-9.26276
▁built	-9.26353
▁conversation	-9.26353
▁suspect	-9.26353
▁scoffs	-9.26353
▁emily	-9.26354
▁dig	-9.26356
▁harper	-9.26359
▁twice	-9.2636
▁andrew	-9.26365
▁pressure	-9.26369
▁exhales	-9.26373
▁thatll	-9.2638
▁purpose	-9.26393
▁stage	-9.26415
▁james	-9.26422
▁forgive	-9.26525
▁indistinctly	-9.2653
ah	-9.26728
▁mini	-9.2678
let	-9.2685
▁video	-9.26876
▁com	-9.27068
au	-9.27131
▁cooking	-9.27166
tor	-9.27476
▁tire	-9.2754
ni	-9.27644
▁lu	-9.27681
▁promised	-9.27927
▁helped	-9.28046
ka	-9.28076
▁pla	-9.28264
▁normal	-9.28758
▁loose	-9.28781
▁hero	-9.28796
od	-9.28894
▁apologize	-9.28917
▁wrote	-9.28917
▁shirt	-9.28917
▁tower	-9.28918
▁area	-9.28919
▁lies	-9.28927
▁june	-9.28928
▁admit	-9.28937
▁spiderman	-9.2894
▁pleasure	-9.28941
▁excited	-9.28966
▁match	-9.28971
ence	-9.28997
▁obviously	-9.29003
line	-9.29101
▁jean	-9.29217
▁using	-9.29247
▁teacher	-9.29334
▁interesting	-9.29499
▁el	-9.29571
▁due	-9.29598
▁faster	-9.29622
▁numbers	-9.29633
▁cal	-9.29889
ord	-9.2994
▁bi	-9.30415
▁prison	-9.30664
▁screw	-9.31021
▁barn	-9.31035
▁plans	-9.3105
▁rule	-9.31408
▁advance	-9.31549
▁fischoeder	-9.31549
▁taught	-9.31549
▁upstairs	-9.31549
▁beauty	-9.31549
▁regret	-9.31549
▁coach	-9.31549
▁steve	-9.3155
▁support	-9.3155
▁online	-9.31555
▁swim	-9.31561
▁bullet	-9.31572
▁outta	-9.31573
▁wi	-9.31574
▁dick	-9.31586
▁fbi	-9.31612
▁mais	-9.31616
▁annie	-9.3163
▁hal	-9.31658
ick	-9.32222
▁nuts	-9.32362
▁chattering	-9.32398
▁bucks	-9.32602
▁par	-9.32623
▁takes	-9.32865
ex	-9.33379
▁toi	-9.33507
▁crack	-9.33591
▁travel	-9.33614
▁liked	-9.33658
ner	-9.33755
ble	-9.33818
▁ma	-9.33825
by	-9.3385
▁cops	-9.33992
▁program	-9.34198
▁emergency	-9.34251
▁especially	-9.34251
▁sobbing	-9.34251
▁spread	-9.34251
▁bought	-9.34252
▁repeat	-9.34252
homme	-9.34254
▁mmmhmm	-9.34256
▁dolan	-9.34258
▁beast	-9.34259
▁chili	-9.34264
▁babe	-9.34265
▁sold	-9.34281
way	-9.34293
▁there	-9.34294
▁view	-9.34332
▁tessa	-9.34369
▁doubt	-9.34385
▁nose	-9.34395
▁grade	-9.34403
▁gil	-9.34424
▁cow	-9.34453
ize	-9.34543
▁rules	-9.34671
▁destroyed	-9.35008
▁rip	-9.35037
▁besides	-9.35081
▁reporter	-9.35083
▁ld	-9.35247
▁prom	-9.35299
▁bus	-9.35372
▁arms	-9.35464
lie	-9.35469
▁kissed	-9.35758
led	-9.35842
▁interest	-9.35906
▁sl	-9.36162
act	-9.36279
▁map	-9.3647
▁fathers	-9.36611
▁soldier	-9.36778
▁soft	-9.36875
▁settle	-9.37024
▁meat	-9.37024
▁borrow	-9.37029
▁glenn	-9.37029
▁ridiculous	-9.37029
▁taylor	-9.37029
▁vegas	-9.37029
▁whirring	-9.37029
▁daesu	-9.37029
▁daryn	-9.3703
▁upset	-9.3703
▁accept	-9.3703
▁cheap	-9.3703
▁excellent	-9.37041
▁iook	-9.37047
▁shop	-9.37064
▁freeze	-9.37079
▁sub	-9.37148
▁path	-9.37165
▁certainly	-9.37231
▁scary	-9.3725
em	-9.37297
▁bleeding	-9.37322
▁loud	-9.37613
▁pr	-9.3764
▁writer	-9.37665
fi	-9.3779
con	-9.37966
fe	-9.38062
ons	-9.38377
ized	-9.38531
▁bite	-9.38574
▁played	-9.38612
▁freak	-9.38981
▁ar	-9.39122
▁decide	-9.39519
▁deliver	-9.39613
▁plays	-9.39743
▁mount	-9.39859
▁jacob	-9.39886
▁blaring	-9.39886
▁enemy	-9.39886
▁sugar	-9.39887
▁within	-9.39887
▁truly	-9.39887
▁chinese	-9.39887
▁medical	-9.39889
▁saving	-9.399
▁tear	-9.39909
▁losing	-9.3991
▁jason	-9.39913
▁data	-9.39913
▁starts	-9.39915
▁fake	-9.39933
▁grant	-9.39935
▁exit	-9.39963
▁self	-9.40024
▁bien	-9.40029
▁bull	-9.4003
▁flor	-9.40166
back	-9.40522
ated	-9.40584
▁sp	-9.40592
▁gotten	-9.40753
▁san	-9.41003
▁helping	-9.41012
cha	-9.41103
tt	-9.41493
▁murder	-9.41665
▁couldve	-9.41827
▁kinda	-9.41953
▁wouldve	-9.41976
ée	-9.42117
▁consider	-9.42297
▁experience	-9.42391
▁staying	-9.42465
▁walker	-9.42544
▁duck	-9.42592
▁ca	-9.42687
▁angel	-9.42764
fully	-9.42794
▁swa	-9.42817
▁caesar	-9.42828
▁district	-9.42828
▁everywhere	-9.42828
▁practice	-9.42828
▁rebecca	-9.42828
▁ritchie	-9.42828
▁spencer	-9.42828
▁address	-9.42828
▁shouldve	-9.42828
▁circle	-9.42828
▁storm	-9.42828
▁cousin	-9.42828
▁nurse	-9.42828
▁christmas	-9.42829
▁nerve	-9.42829
▁ought	-9.4283
▁innocent	-9.42831
▁location	-9.42832
▁cooper	-9.42832
▁cowboy	-9.42833
▁beginning	-9.42838
▁noise	-9.42839
▁bake	-9.4285
▁shame	-9.42854
▁bike	-9.42858
▁eric	-9.42861
▁tank	-9.42886
▁market	-9.4289
▁battle	-9.42891
▁am	-9.42904
▁sight	-9.42908
▁carol	-9.4291
▁weather	-9.4293
▁switch	-9.42946
▁sais	-9.42976
▁sweetie	-9.4305
▁soldiers	-9.43102
▁states	-9.43214
▁butter	-9.43218
▁tape	-9.43528
▁pictures	-9.43768
▁leader	-9.43851
▁stars	-9.44291
▁lied	-9.44439
▁wondering	-9.4448
▁introduce	-9.44851
▁sisters	-9.44878
j	-9.44908
▁pat	-9.44923
ating	-9.45057
▁tes	-9.4506
der	-9.45082
ue	-9.45135
▁focus	-9.45316
▁hook	-9.45352
▁allow	-9.45362
▁post	-9.45425
▁spare	-9.45456
▁es	-9.45547
par	-9.45559
▁farm	-9.45699
▁somethin	-9.45752
▁sn	-9.45821
▁zeta	-9.45826
▁turns	-9.45836
▁breakfast	-9.45858
▁london	-9.45858
▁marriage	-9.45858
▁maureen	-9.45858
▁nowhere	-9.45858
▁speech	-9.45858
▁stauffenberg	-9.45858
▁strength	-9.45858
▁jorge	-9.45858
▁angry	-9.45858
▁teeth	-9.45858
▁toast	-9.45858
▁scene	-9.45858
▁credit	-9.45858
▁babies	-9.45858
▁japanese	-9.45859
▁price	-9.45871
ass	-9.45881
▁apartment	-9.45897
▁loves	-9.4596
▁involved	-9.45963
▁bono	-9.46081
▁stone	-9.46122
▁electric	-9.46147
ait	-9.46199
▁bra	-9.46245
▁hoping	-9.46336
▁mud	-9.4654
ver	-9.4663
▁keys	-9.46649
▁sand	-9.46655
▁ends	-9.46685
uff	-9.46714
▁app	-9.46804
rie	-9.46872
▁who	-9.46878
▁weapons	-9.4702
▁cart	-9.47179
und	-9.47319
▁barb	-9.4757
▁balls	-9.4766
▁everythings	-9.47976
▁yells	-9.48392
▁awful	-9.48486
ain	-9.48547
▁lo	-9.48566
oc	-9.48608
▁chick	-9.48962
▁difference	-9.48983
▁fantastic	-9.48983
▁genius	-9.48983
▁leonidas	-9.48983
▁perseus	-9.48983
▁relationship	-9.48983
▁rumbling	-9.48983
▁split	-9.48983
▁couid	-9.48983
▁england	-9.48983
▁empty	-9.48983
▁sweat	-9.48983
▁gym	-9.48984
▁mommy	-9.48986
▁iron	-9.48986
▁aids	-9.48994
▁chanting	-9.48994
▁helen	-9.48997
▁ruth	-9.49
▁growling	-9.4902
▁rise	-9.49022
▁dropped	-9.49025
▁writing	-9.49036
▁ghost	-9.49044
▁patient	-9.49078
▁held	-9.49081
▁cars	-9.49151
▁whispering	-9.49158
▁page	-9.49164
▁cory	-9.49236
▁scare	-9.49309
▁opens	-9.49351
▁yard	-9.4946
per	-9.49491
▁aim	-9.49556
▁rub	-9.49626
▁lab	-9.49728
▁pee	-9.49951
▁dreams	-9.50104
▁ni	-9.50182
▁metal	-9.50188
min	-9.5034
▁birds	-9.50486
▁eggs	-9.50865
▁rob	-9.51065
ler	-9.51083
▁signed	-9.51225
▁fingers	-9.51278
▁comme	-9.51386
▁ba	-9.51391
▁crash	-9.51483
▁ali	-9.51577
▁issue	-9.51779
▁piss	-9.51829
▁drinking	-9.51919
ations	-9.52044
▁nothin	-9.52103
▁gettin	-9.52136
▁camp	-9.52203
▁spirit	-9.52209
▁military	-9.52209
▁miracle	-9.52209
▁nigel	-9.52209
▁ugh	-9.52209
▁gwen	-9.52209
▁viola	-9.52209
▁focker	-9.52209
▁dumb	-9.52209
▁robert	-9.5221
▁carnie	-9.52214
▁rough	-9.5222
▁fait	-9.52226
▁comfortable	-9.52227
▁heavily	-9.52229
▁common	-9.52232
▁lift	-9.52261
▁milo	-9.52265
▁decision	-9.52363
▁chain	-9.52375
ise	-9.52386
▁animal	-9.52419
▁sc	-9.52427
▁deck	-9.52472
▁note	-9.52613
▁swing	-9.52731
▁feelings	-9.52741
▁surprised	-9.53018
▁shower	-9.53116
▁headed	-9.5339
▁keeping	-9.53554
▁shed	-9.53567
▁for	-9.53736
pri	-9.53841
▁acting	-9.53908
▁wipe	-9.53919
rai	-9.53925
lin	-9.54147
▁hunt	-9.54539
▁rat	-9.54632
▁talkin	-9.54883
▁bother	-9.54904
press	-9.54911
▁disappear	-9.54987
▁waste	-9.55115
▁wheel	-9.55239
▁total	-9.55417
▁chose	-9.55429
▁cha	-9.55461
▁object	-9.55494
▁trans	-9.55532
▁quarter	-9.55534
▁advice	-9.55542
▁asleep	-9.55542
▁celebrate	-9.55542
▁foxxy	-9.55542
▁pizza	-9.55542
▁research	-9.55542
▁whoever	-9.55542
▁anchor	-9.55542
▁schedule	-9.55542
▁stories	-9.55542
▁impressive	-9.55542
▁wailing	-9.55542
▁dramatic	-9.55545
▁local	-9.55546
▁zone	-9.55552
▁isabelle	-9.55558
▁planning	-9.55568
▁chair	-9.5557
▁hiding	-9.55597
▁china	-9.55612
▁angels	-9.55616
▁fence	-9.55616
▁dna	-9.5562
▁marty	-9.55628
▁iet	-9.5565
▁sec	-9.55683
▁safety	-9.5571
▁rid	-9.55814
▁noticed	-9.55835
▁student	-9.55869
▁billy	-9.5609
▁lower	-9.56138
use	-9.56147
▁mary	-9.56462
▁sale	-9.56466
▁beg	-9.56548
ving	-9.56658
▁cla	-9.56741
▁flying	-9.56976
▁rep	-9.57216
▁rev	-9.57403
ake	-9.57443
▁iive	-9.57724
uck	-9.57837
over	-9.57926
▁rum	-9.58367
▁records	-9.58423
▁drones	-9.58436
▁escape	-9.58561
▁cheers	-9.58563
▁dirt	-9.58721
▁animals	-9.58766
▁cheer	-9.5879
▁martin	-9.58875
▁stole	-9.58886
▁cop	-9.58916
▁ambrosia	-9.5899
▁apparently	-9.5899
▁chloe	-9.5899
▁eisenheim	-9.5899
▁exciting	-9.5899
▁kaiju	-9.5899
▁mercy	-9.5899
▁neither	-9.5899
▁travis	-9.5899
▁whimpering	-9.5899
▁sarah	-9.5899
▁nightmare	-9.5899
▁gabe	-9.58991
▁grew	-9.58991
▁grave	-9.58991
▁bernard	-9.58993
▁zack	-9.58995
▁tongue	-9.58998
▁assistant	-9.59
▁inspector	-9.59003
▁assume	-9.59009
▁secure	-9.5901
▁pants	-9.5901
▁logan	-9.59013
▁champion	-9.59051
▁boom	-9.59136
▁unit	-9.59154
▁jackson	-9.5918
▁under	-9.59196
▁vision	-9.59223
▁load	-9.59284
▁phil	-9.59353
▁deb	-9.59371
▁row	-9.59448
▁cur	-9.5965
▁wave	-9.5976
▁sat	-9.59869
▁mid	-9.59952
▁spin	-9.59962
▁joy	-9.60037
▁bath	-9.60094
▁su	-9.6014
▁hut	-9.60155
▁to	-9.60171
▁bow	-9.60341
▁gal	-9.60445
mer	-9.60702
▁spit	-9.60796
▁cap	-9.6086
▁lover	-9.6092
▁sha	-9.61008
▁scar	-9.61031
▁heading	-9.61216
▁tan	-9.61405
▁bu	-9.61406
▁following	-9.61837
▁problems	-9.61949
▁cab	-9.62279
com	-9.62329
▁paintings	-9.62356
▁daniel	-9.62497
▁became	-9.62562
▁explosive	-9.62562
▁friday	-9.62562
▁insane	-9.62562
▁plenty	-9.62562
▁possibly	-9.62562
▁pregnant	-9.62562
▁gather	-9.62562
▁jersey	-9.62562
▁witness	-9.62562
▁thief	-9.62562
▁crew	-9.62562
▁drown	-9.62563
▁funeral	-9.62564
▁large	-9.62564
▁bottom	-9.62565
▁often	-9.62566
▁unbelievable	-9.62567
▁score	-9.6257
▁sword	-9.6257
▁rush	-9.62573
▁percent	-9.62573
▁lungs	-9.62575
▁bright	-9.62578
▁hank	-9.6258
▁danny	-9.62582
▁flow	-9.62589
▁kim	-9.62611
▁dragon	-9.62614
▁castle	-9.6262
▁liar	-9.62621
▁immediately	-9.62633
▁comment	-9.62636
▁tout	-9.62644
▁eh	-9.62695
▁roaring	-9.62739
▁laid	-9.62815
▁grown	-9.62827
▁intern	-9.62919
▁hunter	-9.62979
ib	-9.63055
▁para	-9.63058
▁jaeger	-9.63091
bu	-9.63227
▁drone	-9.63231
▁interested	-9.63245
▁dean	-9.63264
▁showed	-9.63312
▁breaking	-9.63387
▁planet	-9.63419
▁vice	-9.63466
tes	-9.63703
uppper	-9.63848
ite	-9.63975
▁ver	-9.64145
▁ln	-9.64457
▁pulled	-9.64572
▁bringing	-9.65043
moi	-9.65105
▁closed	-9.65343
▁blog	-9.6542
▁ears	-9.65431
▁smoke	-9.65485
▁pin	-9.65643
▁echo	-9.65645
sta	-9.65646
ette	-9.65682
▁fail	-9.65716
▁design	-9.65768
▁boo	-9.65808
▁mention	-9.65848
▁streets	-9.65882
▁students	-9.65909
▁discuss	-9.66218
▁twenty	-9.66262
▁skank	-9.66265
▁applause	-9.66265
▁automated	-9.66265
▁defense	-9.66265
▁difficult	-9.66265
▁dubois	-9.66265
▁finnick	-9.66265
▁frazier	-9.66265
▁olivia	-9.66265
▁sergeant	-9.66265
▁shield	-9.66265
▁footsteps	-9.66265
▁mirror	-9.66265
▁worst	-9.66265
▁crush	-9.66266
▁monkey	-9.66266
▁senior	-9.66266
▁pearl	-9.66266
▁generation	-9.66266
▁shoulder	-9.66266
▁jewel	-9.6627
▁alert	-9.6627
▁qu	-9.66272
▁disease	-9.66281
▁packard	-9.66282
▁vo	-9.66296
▁season	-9.66307
avec	-9.66328
▁professional	-9.66334
▁whip	-9.6635
▁motor	-9.66352
▁yell	-9.66358
▁manager	-9.66381
▁speed	-9.66398
▁doc	-9.66404
▁comin	-9.66427
▁payment	-9.66453
ties	-9.66515
▁richie	-9.66527
▁dirty	-9.66557
hu	-9.66566
▁honestly	-9.66591
▁amen	-9.66644
▁weight	-9.66788
▁vote	-9.66797
▁pissed	-9.66874
▁stranger	-9.66901
▁tip	-9.66948
▁crashing	-9.66996
▁faire	-9.66997
▁bout	-9.67047
for	-9.67252
▁fl	-9.67276
▁ke	-9.67488
▁training	-9.67599
▁sw	-9.67696
ves	-9.6771
than	-9.67749
▁legs	-9.68216
▁chas	-9.68325
ard	-9.68412
▁lil	-9.68454
▁march	-9.68487
▁pea	-9.68522
▁bowl	-9.68805
▁lots	-9.68893
men	-9.69285
ook	-9.69635
▁direct	-9.69655
▁voi	-9.69757
ais	-9.69878
▁lovin	-9.70003
▁champ	-9.70063
▁ape	-9.70084
▁danger	-9.70095
▁central	-9.70112
▁dylan	-9.70112
▁iittie	-9.70112
▁muffled	-9.70112
▁nigger	-9.70112
▁pilgrim	-9.70112
▁thornton	-9.70112
▁ugly	-9.70112
▁wouid	-9.70112
▁affair	-9.70112
▁church	-9.70112
▁clamoring	-9.70112
▁whistle	-9.70112
▁pardon	-9.70112
▁hadnt	-9.70112
▁steel	-9.70113
▁volunteer	-9.70113
▁creature	-9.70114
▁jerk	-9.70117
▁attend	-9.70117
▁sunday	-9.70123
▁sauce	-9.70128
▁basement	-9.70131
▁nope	-9.7014
▁humans	-9.70165
▁lori	-9.70165
▁exist	-9.70169
▁onto	-9.70169
▁gentle	-9.70172
▁announcer	-9.70177
▁chest	-9.7019
▁suddenly	-9.70236
ang	-9.70248
▁image	-9.70281
▁cage	-9.7029
▁whooping	-9.70298
▁cast	-9.70312
▁style	-9.70321
▁runs	-9.70333
▁dc	-9.70348
▁national	-9.70368
▁jam	-9.70368
▁grid	-9.70374
▁scream	-9.70392
▁jr	-9.70445
▁mole	-9.70448
▁coat	-9.70502
▁created	-9.70561
▁signal	-9.70586
▁ear	-9.70768
▁client	-9.70933
▁checking	-9.7099
▁guest	-9.71035
▁detail	-9.71037
ther	-9.71097
▁wire	-9.71102
ster	-9.71226
▁burgers	-9.71233
▁ref	-9.71501
▁ana	-9.71559
▁lion	-9.71639
ier	-9.71725
▁wh	-9.7186
lf	-9.71908
▁z	-9.71924
▁dogs	-9.72034
▁mothers	-9.72039
▁harder	-9.72188
▁ate	-9.72537
▁closes	-9.72573
▁dry	-9.72642
▁showing	-9.72652
▁vie	-9.72764
tro	-9.72827
▁fellas	-9.73001
▁warn	-9.7315
▁doctors	-9.73168
▁heads	-9.73192
▁tie	-9.73343
▁von	-9.73436
house	-9.73476
▁search	-9.73476
▁pound	-9.73492
▁hall	-9.73517
▁confirm	-9.73532
▁ruin	-9.73667
▁hop	-9.73688
▁fan	-9.73767
loo	-9.73976
▁dun	-9.74029
ash	-9.74089
▁amount	-9.74112
▁burlington	-9.74112
▁cherevin	-9.74112
▁criminal	-9.74112
▁familiar	-9.74112
▁opportunity	-9.74112
▁saturday	-9.74112
▁subject	-9.74112
▁valkyrie	-9.74112
▁whether	-9.74112
▁written	-9.74112
▁xerxes	-9.74112
▁according	-9.74112
▁bravo	-9.74112
▁threat	-9.74112
▁byebye	-9.74112
▁freedom	-9.74112
▁borg	-9.74112
▁ryan	-9.74113
▁herr	-9.74114
▁desert	-9.74115
▁studio	-9.74116
▁miller	-9.74116
▁knox	-9.74117
▁elevator	-9.74118
▁department	-9.74121
▁airport	-9.74128
▁grover	-9.7413
▁trade	-9.74142
▁beam	-9.74143
▁handsome	-9.7415
hi	-9.74151
▁gain	-9.7416
▁package	-9.74171
▁panic	-9.74174
▁feei	-9.74209
▁pieces	-9.74266
▁dé	-9.74277
▁softly	-9.74336
▁honking	-9.74515
▁carter	-9.74821
▁perfectly	-9.75004
▁studying	-9.75189
▁paying	-9.75261
▁ka	-9.75484
▁systems	-9.75674
ement	-9.75691
▁cai	-9.75988
▁seemed	-9.76082
▁passed	-9.76161
▁boxing	-9.76245
▁nobodys	-9.76283
▁shouts	-9.76295
qua	-9.76303
▁bal	-9.7639
▁tim	-9.76408
▁ordered	-9.76467
▁lines	-9.76569
jo	-9.76661
hy	-9.76726
▁sin	-9.7701
▁pot	-9.77179
▁parle	-9.77195
▁throwing	-9.77241
dden	-9.77276
▁falling	-9.77352
▁wrap	-9.77733
▁challenge	-9.77923
▁vas	-9.78103
▁ap	-9.78159
▁prince	-9.78182
▁trap	-9.78268
▁civil	-9.78277
▁british	-9.78278
▁choose	-9.78278
▁complicated	-9.78278
▁current	-9.78278
▁garbage	-9.78278
▁knife	-9.78278
▁medicine	-9.78278
▁nargle	-9.78278
▁otherwise	-9.78278
▁peanut	-9.78278
▁shift	-9.78278
▁soccer	-9.78278
▁somehow	-9.78278
▁understood	-9.78278
▁valentine	-9.78278
▁vehicle	-9.78278
▁cotton	-9.78278
▁thirty	-9.78278
▁article	-9.78278
▁berlin	-9.78278
▁threw	-9.78279
▁skylar	-9.78279
▁blame	-9.78279
▁justice	-9.7828
▁iove	-9.7828
▁fruit	-9.7828
▁insurance	-9.78282
▁drift	-9.78282
▁stood	-9.78283
▁famous	-9.78285
▁recognize	-9.78287
▁augie	-9.78293
▁giant	-9.78309
▁naked	-9.78316
▁aah	-9.78353
▁wet	-9.78366
▁jude	-9.78393
▁tri	-9.78455
▁witches	-9.78488
▁bush	-9.78516
▁arrived	-9.78623
▁kisses	-9.78741
▁vais	-9.7875
▁mas	-9.78797
▁fur	-9.78894
ink	-9.78906
▁lack	-9.78934
▁fart	-9.7896
▁bust	-9.79007
▁allowed	-9.79012
▁mayor	-9.79024
room	-9.79079
▁inter	-9.79179
ions	-9.79195
▁hef	-9.79228
▁arrested	-9.79238
▁commander	-9.79414
▁belong	-9.79439
▁finger	-9.79516
▁fate	-9.79559
▁dressed	-9.79576
▁plant	-9.79632
▁goodness	-9.79802
▁hu	-9.79823
▁gl	-9.79877
▁fella	-9.79981
oi	-9.80192
▁bun	-9.80194
of	-9.8068
▁tro	-9.8089
▁dar	-9.81347
▁up	-9.81413
ical	-9.8142
▁fo	-9.81457
▁older	-9.81678
▁mate	-9.81849
down	-9.81963
▁lou	-9.81976
▁taik	-9.82002
▁connect	-9.82031
ball	-9.82065
▁damage	-9.82194
▁patients	-9.82496
▁drug	-9.82514
▁debora	-9.82581
▁appear	-9.82603
▁afford	-9.82626
▁brilliant	-9.82626
▁capitol	-9.82626
▁champagne	-9.82626
▁degree	-9.82626
▁journey	-9.82626
▁judgment	-9.82626
▁negative	-9.82626
▁pocket	-9.82626
▁revolution	-9.82626
▁whenever	-9.82626
skull	-9.82626
▁condition	-9.82626
▁stomach	-9.82626
▁henry	-9.82626
▁noisy	-9.82626
▁attempt	-9.82628
▁affect	-9.82628
▁screen	-9.82628
▁barely	-9.82629
▁thud	-9.8263
▁meal	-9.82631
▁basically	-9.82631
▁route	-9.82637
▁protest	-9.82639
▁wherever	-9.82641
▁massage	-9.82642
▁shock	-9.82644
▁prefer	-9.82644
▁aware	-9.82646
▁vika	-9.82653
▁alex	-9.82654
▁refuse	-9.82654
▁rosa	-9.82656
▁began	-9.82673
▁duke	-9.82682
▁unfortunately	-9.82705
▁section	-9.82712
▁toilet	-9.82719
▁usually	-9.82768
▁abe	-9.82774
▁rare	-9.82785
ify	-9.82813
▁term	-9.82997
▁measure	-9.83022
▁dit	-9.83095
▁cho	-9.83213
▁shape	-9.83348
ney	-9.83491
▁cookie	-9.83596
▁dina	-9.83639
ley	-9.83819
▁bond	-9.83836
▁yöure	-9.8394
▁phones	-9.83961
▁rate	-9.84002
▁er	-9.84086
oon	-9.84134
▁jen	-9.84134
▁sooner	-9.84153
▁watched	-9.8419
▁hardly	-9.84278
▁kicked	-9.84376
▁parts	-9.84407
ning	-9.8446
▁loser	-9.84486
▁on	-9.84639
▁bur	-9.84689
▁painter	-9.84707
▁kicking	-9.84725
▁prayer	-9.84759
▁bl	-9.84869
cent	-9.85028
lic	-9.85102
lock	-9.85277
▁speaks	-9.85662
▁believed	-9.85758
▁leo	-9.85826
▁rap	-9.85875
▁smells	-9.85888
▁hum	-9.86048
ome	-9.86117
ze	-9.86144
▁hill	-9.86209
▁event	-9.86343
den	-9.86377
▁rooms	-9.86381
work	-9.86442
ship	-9.8648
clear	-9.86504
▁temp	-9.86511
▁bug	-9.86705
▁cup	-9.86843
▁create	-9.86986
▁sharp	-9.87012
▁obvious	-9.87018
▁ocean	-9.8702
ack	-9.87081
iff	-9.87084
▁birth	-9.87167
▁proper	-9.87168
ung	-9.87171
▁byrnes	-9.87171
▁adult	-9.87172
▁confused	-9.87172
▁contract	-9.87172
▁divorce	-9.87172
▁eagle	-9.87172
▁eventually	-9.87172
▁evidence	-9.87172
▁fridge	-9.87172
▁gipsy	-9.87172
▁ignore	-9.87172
▁lincoln	-9.87172
▁potential	-9.87172
▁revenge	-9.87172
▁romantic	-9.87172
▁tattoo	-9.87172
▁david	-9.87172
▁monique	-9.87172
▁process	-9.87172
▁cannon	-9.87172
▁jealous	-9.87172
▁robbie	-9.87172
▁fancy	-9.87172
▁merci	-9.87172
▁physical	-9.87172
▁marvin	-9.87172
▁solid	-9.87172
▁flesh	-9.87172
▁theme	-9.87173
▁cotys	-9.87176
▁slept	-9.87176
▁veux	-9.87188
▁cathy	-9.87189
▁allez	-9.87195
▁grill	-9.87207
▁mental	-9.87209
▁snap	-9.87212
▁hans	-9.87214
▁theory	-9.87215
▁secretary	-9.87229
▁forest	-9.8723
▁duty	-9.87261
▁trial	-9.87303
low	-9.87313
▁powerful	-9.87313
▁garden	-9.87347
▁jeez	-9.87356
▁sch	-9.87374
pper	-9.87426
▁spring	-9.87511
▁lui	-9.87513
▁jacket	-9.87613
▁print	-9.87698
▁mis	-9.87739
▁sleeping	-9.8777
▁approaching	-9.87778
▁represent	-9.87902
▁mel	-9.87948
▁nah	-9.87981
▁tony	-9.87981
▁las	-9.8805
▁lately	-9.88246
▁ended	-9.88435
▁dive	-9.88725
▁giri	-9.88832
▁plate	-9.88858
▁secrets	-9.88866
ank	-9.88912
amp	-9.88961
ph	-9.89312
▁opening	-9.89451
▁doors	-9.89487
ory	-9.89491
▁boobs	-9.89493
▁adams	-9.89561
▁whi	-9.89681
▁keeps	-9.8979
wn	-9.89823
▁mountains	-9.9016
▁changes	-9.90189
▁lit	-9.90331
▁moves	-9.90729
▁mac	-9.91188
▁suggest	-9.9123
field	-9.91294
▁approach	-9.91301
boy	-9.91313
▁base	-9.91489
▁notice	-9.91518
▁suppose	-9.91519
▁boot	-9.91633
▁german	-9.91681
▁usual	-9.91784
▁sudden	-9.91787
▁mmhm	-9.91856
▁organ	-9.91887
▁spider	-9.91892
▁virgin	-9.91907
▁weak	-9.91914
▁channel	-9.91933
▁diamond	-9.91933
▁emmett	-9.91933
▁families	-9.91933
▁frozen	-9.91933
▁johanna	-9.91933
▁peopie	-9.91933
▁permission	-9.91933
▁reserve	-9.91933
▁sneak	-9.91933
▁someday	-9.91933
▁stairs	-9.91933
▁heartbeat	-9.91934
▁remote	-9.91934
▁thumb	-9.91934
▁aaron	-9.91934
▁hastings	-9.91934
▁piano	-9.91934
▁delta	-9.91934
▁flame	-9.91934
▁interview	-9.91934
▁indeed	-9.91934
▁spell	-9.91934
▁biodome	-9.91935
▁susan	-9.91935
▁glory	-9.9194
▁coast	-9.9194
▁resist	-9.91943
▁calvin	-9.91944
▁cétait	-9.91944
▁player	-9.91944
▁deux	-9.91949
▁trash	-9.91949
▁talent	-9.9195
▁clue	-9.91955
▁brand	-9.91968
▁crown	-9.91975
▁deborah	-9.91983
▁adventure	-9.91985
▁iot	-9.9201
ection	-9.92043
▁humanity	-9.92089
▁engaged	-9.92109
▁protection	-9.92112
▁golden	-9.9212
▁disgusting	-9.92135
▁pure	-9.92142
▁tone	-9.92177
▁clicking	-9.92205
▁invited	-9.92254
▁tears	-9.92272
▁clears	-9.92299
▁buzzing	-9.92445
▁deeply	-9.92469
late	-9.92486
▁former	-9.92527
▁fu	-9.9259
▁victory	-9.9259
▁brad	-9.92594
▁ceo	-9.92701
▁stronger	-9.92784
▁troops	-9.92799
▁murdered	-9.92808
▁riding	-9.92845
▁screwed	-9.92907
▁agreed	-9.92982
▁sal	-9.93027
▁chi	-9.93031
▁realized	-9.93068
▁everybodys	-9.93167
▁expected	-9.93254
ium	-9.93318
▁link	-9.93435
▁prisoner	-9.93607
ians	-9.93626
▁closet	-9.93654
▁equal	-9.93734
▁toward	-9.93783
▁messed	-9.93788
▁sport	-9.93836
▁growing	-9.93889
▁arr	-9.93943
▁backup	-9.94003
▁bigge	-9.94051
▁hip	-9.94344
ease	-9.94414
ock	-9.94744
▁passing	-9.94887
▁engineer	-9.94888
▁dec	-9.94902
▁sending	-9.95154
ire	-9.95178
▁pulling	-9.95199
▁kissing	-9.95202
gie	-9.95224
▁shooting	-9.95706
you	-9.95778
▁guests	-9.95826
light	-9.95928
▁thousands	-9.96028
▁success	-9.96051
▁career	-9.96087
▁tit	-9.96205
ible	-9.96222
▁har	-9.96228
town	-9.96322
▁ami	-9.96328
pin	-9.96337
▁dump	-9.96445
▁iii	-9.96571
▁exact	-9.96794
▁yards	-9.96796
▁collect	-9.96892
▁text	-9.96929
▁transfer	-9.96933
▁bread	-9.96933
▁california	-9.96933
▁chicago	-9.96933
▁downstairs	-9.96933
▁katherine	-9.96933
▁michael	-9.96933
▁mystery	-9.96933
▁necessary	-9.96933
▁project	-9.96933
▁rabbit	-9.96933
▁servant	-9.96933
▁torture	-9.96933
▁bounce	-9.96934
▁separate	-9.96934
▁marius	-9.96934
▁simply	-9.96934
▁firm	-9.96934
▁martel	-9.96934
▁osborn	-9.96934
▁buried	-9.96935
▁belt	-9.96935
▁rico	-9.96935
▁flash	-9.96936
▁sydney	-9.96938
▁racing	-9.96938
▁lyons	-9.96939
▁bored	-9.96939
▁compliment	-9.96939
▁silver	-9.96939
▁insist	-9.96942
▁saint	-9.96943
▁snake	-9.96945
▁cliff	-9.96947
▁gunshot	-9.96948
▁tiny	-9.96949
▁slip	-9.96951
▁performance	-9.96952
▁leak	-9.96953
▁zero	-9.96955
▁horsemen	-9.96964
▁santa	-9.96966
▁heck	-9.96967
▁stink	-9.96969
▁connie	-9.96975
▁owner	-9.96992
▁aunt	-9.97023
▁pair	-9.97028
▁booth	-9.97033
▁ranger	-9.97047
▁evan	-9.97048
▁guilty	-9.97052
▁cock	-9.97059
▁estel	-9.9706
▁mash	-9.97077
▁peut	-9.97079
▁not	-9.97094
▁soup	-9.97104
▁creaking	-9.97179
▁exp	-9.97182
yard	-9.97198
▁hired	-9.97234
▁dust	-9.97244
▁changing	-9.9725
▁mot	-9.97264
▁toy	-9.9732
▁fifty	-9.97338
▁spy	-9.97408
▁willing	-9.97427
▁movement	-9.97441
▁prepared	-9.97493
▁customer	-9.97494
▁wide	-9.97506
ities	-9.97646
▁down	-9.97678
ative	-9.97749
▁jew	-9.97777
▁tet	-9.97855
▁fac	-9.97861
ide	-9.97906
ki	-9.98001
eur	-9.98098
▁filled	-9.98102
▁clearly	-9.98282
▁can	-9.98297
ja	-9.98335
▁clicks	-9.98351
▁nation	-9.98378
▁reg	-9.98613
▁higher	-9.98649
▁reached	-9.98669
▁fixed	-9.98684
▁regard	-9.98692
ok	-9.98799
▁curse	-9.98875
▁daughters	-9.99009
▁shadow	-9.99033
▁odd	-9.99036
▁egg	-9.99072
▁winner	-9.9908
▁br	-9.99222
▁cleaning	-9.993
▁den	-9.99329
▁hurts	-9.99424
all	-9.99604
▁tor	-9.9967
▁sucks	-9.99672
▁papers	-10.001
▁lean	-10.0017
▁sports	-10.0019
▁buying	-10.0026
▁followed	-10.0044
▁pan	-10.0105
board	-10.015
▁climb	-10.0155
▁brief	-10.0155
▁pretend	-10.0156
weight	-10.0161
▁request	-10.0165
box	-10.0166
▁pie	-10.0167
▁mix	-10.017
▁codes	-10.0175
▁gi	-10.0191
▁steps	-10.0204
▁spoke	-10.0207
▁brace	-10.0209
▁develop	-10.0217
▁buffalo	-10.022
▁concentrate	-10.022
▁dallas	-10.022
▁enemies	-10.022
▁faulkner	-10.022
▁kraken	-10.022
▁loomis	-10.022
▁original	-10.022
▁perimeter	-10.022
▁positive	-10.022
▁recover	-10.022
▁respond	-10.022
▁science	-10.022
▁scratch	-10.022
▁surrender	-10.022
▁trauma	-10.022
▁universe	-10.022
▁visual	-10.022
▁cloud	-10.022
▁communication	-10.022
▁environment	-10.022
▁kiah	-10.022
▁language	-10.022
▁memories	-10.022
▁assassin	-10.022
▁contain	-10.022
▁punk	-10.022
▁bodies	-10.022
▁social	-10.022
▁blew	-10.022
▁email	-10.022
▁pym	-10.022
▁lemon	-10.022
▁earlier	-10.022
▁daccord	-10.022
▁todd	-10.022
▁dropping	-10.022
▁kenton	-10.022
▁outfit	-10.022
▁slide	-10.0221
▁rude	-10.0221
▁monday	-10.0221
▁kong	-10.0222
▁natural	-10.0222
▁easier	-10.0223
▁avis	-10.0223
▁crackling	-10.0223
▁shane	-10.0224
▁fuel	-10.0224
▁slice	-10.0224
▁minister	-10.0224
▁wiii	-10.0225
▁wharf	-10.0225
▁mail	-10.0225
▁darkness	-10.0227
▁soir	-10.0228
▁coup	-10.0229
▁freshman	-10.0231
▁direction	-10.0232
▁neur	-10.0233
▁salem	-10.0233
▁desk	-10.0235
▁madame	-10.0238
▁heal	-10.0239
▁tub	-10.0239
▁becky	-10.024
▁stolen	-10.024
▁corn	-10.0246
▁forty	-10.0247
▁billion	-10.0248
▁tess	-10.0252
▁setting	-10.0252
rri	-10.0254
▁brains	-10.0264
▁hm	-10.0268
▁wheeler	-10.0268
▁amy	-10.027
can	-10.0311
▁off	-10.0332
▁murderer	-10.0335
▁bat	-10.0342
▁zoo	-10.036
▁someones	-10.0376
▁matt	-10.0389
▁expecting	-10.0396
▁guns	-10.0404
evi	-10.0414
▁doll	-10.0421
▁moms	-10.0432
▁mes	-10.0434
tive	-10.0444
▁stayed	-10.0446
ern	-10.0447
▁knocking	-10.0462
▁tickets	-10.0474
▁log	-10.0475
▁lessons	-10.0478
▁dollar	-10.048
▁chuckle	-10.049
▁legal	-10.0503
gy	-10.0536
what	-10.0557
▁learning	-10.0558
▁towards	-10.0563
▁giris	-10.0581
▁mag	-10.0582
▁touched	-10.0599
looking	-10.0603
▁wires	-10.0653
▁mat	-10.0657
▁cameras	-10.0676
▁units	-10.0703
print	-10.0716
▁release	-10.0732
▁port	-10.0734
pped	-10.0736
▁slam	-10.0742
▁prepare	-10.0743
▁junk	-10.075
▁prim	-10.0757
ou	-10.0761
▁official	-10.0761
▁harm	-10.0763
▁sandwich	-10.0764
▁ron	-10.0768
▁comfort	-10.0772
cho	-10.0773
▁stub	-10.0774
▁example	-10.0775
▁experiment	-10.0775
▁fashion	-10.0775
▁foreign	-10.0775
▁haymitch	-10.0775
▁inspire	-10.0775
▁izzi	-10.0775
▁jumanji	-10.0775
▁lieutenant	-10.0775
▁literally	-10.0775
▁particular	-10.0775
▁professor	-10.0775
▁satellite	-10.0775
▁smooth	-10.0775
▁tornado	-10.0775
▁trigger	-10.0775
▁valjean	-10.0775
▁dozen	-10.0775
▁league	-10.0775
▁pablo	-10.0775
▁sheriff	-10.0775
▁defend	-10.0775
▁mcara	-10.0775
▁heip	-10.0775
▁muscle	-10.0775
▁proceed	-10.0775
▁everdeen	-10.0775
▁expert	-10.0775
▁salad	-10.0775
▁shopping	-10.0775
▁tanya	-10.0775
▁expensive	-10.0775
▁gross	-10.0775
▁impact	-10.0776
▁faut	-10.0776
▁illegal	-10.0776
▁phase	-10.0776
▁rien	-10.0776
▁boring	-10.0776
▁wilson	-10.0776
▁joanne	-10.0776
▁hades	-10.0776
▁novel	-10.0776
▁mansfield	-10.0777
▁edge	-10.0777
▁cafe	-10.0777
▁pbs	-10.0777
▁flag	-10.0777
▁franklin	-10.0778
▁claim	-10.0778
▁cents	-10.0779
▁several	-10.0779
▁bail	-10.0779
▁flat	-10.0779
▁aboard	-10.078
▁motel	-10.078
▁roommate	-10.078
▁energy	-10.078
▁lightning	-10.0781
▁gentleman	-10.0781
▁mistakes	-10.0784
▁milk	-10.0784
▁marine	-10.0785
▁alien	-10.0786
▁propose	-10.0787
▁silly	-10.079
▁dois	-10.0792
▁shine	-10.0794
▁chosen	-10.0797
▁ants	-10.08
▁screeching	-10.081
▁concerned	-10.0816
▁knowledge	-10.0827
▁apes	-10.0844
▁nein	-10.0855
▁hostages	-10.0859
ncy	-10.0859
more	-10.0861
▁searching	-10.0865
▁echoing	-10.0872
▁fro	-10.0877
val	-10.0881
day	-10.0882
▁cor	-10.0883
▁spartans	-10.0896
▁raised	-10.0901
▁pit	-10.0904
▁ahh	-10.0906
▁roars	-10.0915
▁matters	-10.0921
▁younger	-10.0931
▁corpse	-10.094
sse	-10.0951
▁mc	-10.0971
▁returned	-10.0982
▁stealing	-10.0987
▁x	-10.1013
▁staring	-10.1022
▁gasp	-10.1026
▁partners	-10.1035
▁guards	-10.1036
▁lips	-10.1039
▁pilot	-10.1044
▁shark	-10.1045
▁core	-10.1045
▁ropes	-10.1045
▁magician	-10.1051
▁sometime	-10.1054
▁spa	-10.106
▁shout	-10.1067
side	-10.107
▁flowers	-10.1072
▁tryin	-10.1073
▁mile	-10.1089
▁ti	-10.11
car	-10.1108
▁recording	-10.1117
ren	-10.1142
▁ils	-10.1143
nic	-10.1166
ition	-10.1183
▁beating	-10.12
izing	-10.1226
▁mass	-10.1238
▁shou	-10.1245
▁players	-10.1246
sters	-10.1248
▁facts	-10.1248
old	-10.1248
nc	-10.1259
maker	-10.1285
▁initiate	-10.1289
▁buzz	-10.1289
▁rem	-10.1293
sol	-10.1295
▁bleed	-10.1302
▁woo	-10.1303
born	-10.1304
▁eu	-10.1305
▁bend	-10.1317
▁ju	-10.1327
but	-10.1327
▁ob	-10.1331
▁emotional	-10.1355
▁effect	-10.1362
▁perform	-10.1362
▁character	-10.1363
▁advantage	-10.1363
▁anniversary	-10.1363
▁available	-10.1363
▁barricade	-10.1363
▁beneath	-10.1363
▁brush	-10.1363
▁europe	-10.1363
▁fernando	-10.1363
▁giggling	-10.1363
▁girard	-10.1363
▁global	-10.1363
▁guarantee	-10.1363
▁guitar	-10.1363
▁include	-10.1363
▁license	-10.1363
▁magazine	-10.1363
▁midnight	-10.1363
▁museum	-10.1363
▁oxygen	-10.1363
▁precious	-10.1363
▁require	-10.1363
▁rhesus	-10.1363
▁signature	-10.1363
▁surgery	-10.1363
▁survivor	-10.1363
▁thomas	-10.1363
▁wreck	-10.1363
▁ashamed	-10.1363
▁dignity	-10.1363
▁fromm	-10.1363
▁international	-10.1363
▁javert	-10.1363
▁jazz	-10.1363
▁peyton	-10.1363
▁texas	-10.1363
▁opinion	-10.1363
▁shatter	-10.1363
▁tracy	-10.1363
▁vault	-10.1363
▁steady	-10.1363
▁palace	-10.1363
▁philip	-10.1363
▁drove	-10.1364
▁davis	-10.1364
▁moaning	-10.1364
▁breast	-10.1364
▁regular	-10.1364
▁maddy	-10.1364
▁photograph	-10.1364
▁village	-10.1364
▁surface	-10.1364
▁growls	-10.1364
▁limit	-10.1365
▁aye	-10.1365
▁influence	-10.1365
▁committed	-10.1365
▁horrible	-10.1365
▁flush	-10.1365
▁woke	-10.1365
▁dawn	-10.1365
▁fever	-10.1365
▁childhood	-10.1366
▁desire	-10.1366
▁abby	-10.1366
▁pump	-10.1366
▁foolish	-10.1367
▁reaction	-10.1367
▁internet	-10.1368
▁recently	-10.1369
▁capable	-10.1369
▁france	-10.1369
▁treatment	-10.137
hand	-10.1371
▁heather	-10.1371
▁frame	-10.1373
▁midas	-10.1373
▁chari	-10.1373
▁grandfather	-10.1374
▁teii	-10.1374
▁taxi	-10.1376
▁mansion	-10.1377
▁princess	-10.1377
▁spoken	-10.1378
▁maria	-10.1379
▁scan	-10.1379
▁officially	-10.138
▁homework	-10.1381
▁checked	-10.1381
▁decent	-10.1382
▁loving	-10.1382
▁healthy	-10.1383
▁mister	-10.1383
▁dave	-10.1384
▁plug	-10.1384
▁retired	-10.1391
▁drum	-10.1392
▁prime	-10.1393
▁loss	-10.1393
▁yearold	-10.1397
▁poop	-10.1397
▁mood	-10.1399
▁bury	-10.1403
▁debt	-10.1404
▁ai	-10.1407
▁managed	-10.1407
▁discovered	-10.1412
▁eaten	-10.1416
▁genetic	-10.1419
▁cole	-10.1421
ious	-10.1421
▁fighter	-10.1439
▁ruined	-10.1443
▁pitch	-10.1456
gging	-10.1457
▁disappeared	-10.1459
▁pete	-10.146
cation	-10.1464
bil	-10.1475
▁served	-10.1476
ice	-10.1477
▁treasure	-10.1482
well	-10.1486
cle	-10.1487
▁freaking	-10.1498
▁manage	-10.1499
pers	-10.1511
▁treated	-10.1511
call	-10.1536
▁reai	-10.1542
▁farmer	-10.1585
▁publish	-10.1586
▁dinosaurs	-10.159
▁blowing	-10.1595
▁goat	-10.1604
itched	-10.1621
ana	-10.1621
ax	-10.163
▁burning	-10.1635
▁painted	-10.1636
▁counter	-10.1657
▁bags	-10.166
▁photos	-10.1668
▁demand	-10.167
▁med	-10.167
▁member	-10.1671
▁ven	-10.1693
▁bee	-10.1696
▁flower	-10.1711
▁dreamed	-10.1723
▁shadows	-10.173
een	-10.1736
▁langs	-10.174
hoo	-10.1769
▁era	-10.1789
▁boob	-10.1791
▁pos	-10.1836
▁falls	-10.1853
▁chip	-10.1863
té	-10.1874
▁ripp	-10.1882
▁blows	-10.1886
▁suffer	-10.1923
▁ag	-10.1924
▁tend	-10.1929
▁honk	-10.193
▁wound	-10.1934
▁sink	-10.1943
tri	-10.1943
▁invite	-10.1946
▁dial	-10.1953
▁louis	-10.1968
▁surely	-10.197
▁hung	-10.1971
▁movin	-10.1978
▁activat	-10.1984
▁loyal	-10.1986
▁blank	-10.1987
▁jur	-10.1988
▁aurora	-10.1988
▁behavior	-10.1988
▁citizen	-10.1988
▁evergreen	-10.1988
▁fifteen	-10.1988
▁gottlieb	-10.1988
▁hallelujah	-10.1988
▁hemingway	-10.1988
▁intercept	-10.1988
▁junior	-10.1988
▁library	-10.1988
▁oiiver	-10.1988
▁olbricht	-10.1988
▁rhodes	-10.1988
▁sensitive	-10.1988
▁shelter	-10.1988
▁sponsor	-10.1988
▁theater	-10.1988
▁underwear	-10.1988
▁whimpers	-10.1988
▁authority	-10.1988
▁becoming	-10.1988
▁construction	-10.1988
▁dennit	-10.1988
▁relative	-10.1988
▁stretch	-10.1988
▁token	-10.1988
▁source	-10.1988
▁thrace	-10.1988
▁warehouse	-10.1988
▁error	-10.1988
▁headache	-10.1988
▁tribute	-10.1988
▁truman	-10.1988
▁merde	-10.1988
▁border	-10.1989
▁bosley	-10.1989
▁kingdom	-10.1989
▁ferry	-10.1989
▁jerry	-10.1989
▁costume	-10.1989
▁thorin	-10.1989
▁opposite	-10.1989
▁uhoh	-10.1989
▁whyd	-10.1989
▁slave	-10.1989
▁avoid	-10.1989
▁leap	-10.1989
▁wolf	-10.1989
▁root	-10.1989
▁darrow	-10.1989
▁denham	-10.1989
▁downtown	-10.1989
▁bravestone	-10.1989
▁dwarves	-10.1989
▁option	-10.199
▁chapter	-10.199
▁breach	-10.199
▁extract	-10.199
▁commun	-10.199
▁syd	-10.199
▁prick	-10.1991
▁editor	-10.1991
▁development	-10.1991
▁joking	-10.1992
▁flip	-10.1992
▁gear	-10.1992
▁stopping	-10.1992
▁practically	-10.1993
▁stock	-10.1993
▁grandson	-10.1993
▁extremely	-10.1995
▁mask	-10.1997
▁naughton	-10.1999
▁johnson	-10.1999
▁alter	-10.2
▁ellen	-10.2
▁delight	-10.2
▁carlos	-10.2
▁cries	-10.2004
▁highness	-10.2007
▁string	-10.2008
▁winter	-10.201
▁mido	-10.2014
▁caii	-10.2014
▁cheated	-10.2018
▁cheating	-10.2024
▁fallen	-10.2024
▁sally	-10.2032
▁most	-10.2039
▁quietly	-10.2041
▁simon	-10.2042
▁bio	-10.2044
▁reality	-10.2044
▁eli	-10.2045
▁host	-10.2046
▁delivery	-10.205
▁vu	-10.2061
▁nancy	-10.2061
▁oid	-10.2062
▁ease	-10.2069
▁chad	-10.207
vel	-10.2074
▁scotty	-10.2074
▁bitches	-10.2077
▁slowly	-10.2085
▁av	-10.209
▁will	-10.2102
▁considered	-10.2104
▁forced	-10.212
▁smaller	-10.2121
▁rand	-10.2124
▁fred	-10.2128
ham	-10.2135
▁bobbi	-10.2136
▁traveling	-10.214
tru	-10.2145
▁sen	-10.2155
▁fort	-10.2172
▁marrying	-10.2182
▁tail	-10.2198
▁laws	-10.2212
▁walls	-10.224
▁frickin	-10.2244
▁attacked	-10.2251
▁enjoying	-10.2251
▁discover	-10.2264
▁boner	-10.2271
▁friendly	-10.2276
▁hates	-10.2277
▁lookin	-10.2331
▁ticket	-10.2342
bre	-10.2343
▁rope	-10.2344
test	-10.2361
▁boxer	-10.2362
▁lesson	-10.2376
▁that	-10.2394
mate	-10.243
▁belongs	-10.2467
▁singer	-10.2471
▁tricks	-10.248
▁op	-10.248
burg	-10.2513
▁dim	-10.2518
▁speaker	-10.2518
▁penn	-10.2521
q	-10.254
▁describe	-10.2542
▁answers	-10.2542
▁finding	-10.2543
▁thinkin	-10.2552
log	-10.2558
▁picking	-10.2562
▁charm	-10.2591
▁thin	-10.2597
▁defeat	-10.2601
▁sim	-10.2607
▁hack	-10.261
▁hearing	-10.2611
▁solve	-10.2611
▁twist	-10.2641
▁russia	-10.2642
▁emotion	-10.2645
▁oni	-10.2646
▁occasion	-10.2654
graduate	-10.2655
▁avenue	-10.2655
▁becca	-10.2655
▁beloved	-10.2655
▁council	-10.2655
▁equipment	-10.2655
▁gauguin	-10.2655
▁harvard	-10.2655
▁helmet	-10.2655
▁including	-10.2655
▁juniper	-10.2655
▁mexico	-10.2655
▁minnesota	-10.2655
▁murphy	-10.2655
▁odonnell	-10.2655
▁rathbone	-10.2655
▁response	-10.2655
▁skeleton	-10.2655
▁terrific	-10.2655
▁thursday	-10.2655
▁traffic	-10.2655
▁traitor	-10.2655
▁tunnel	-10.2655
▁twelve	-10.2655
▁uncomfortable	-10.2655
▁upbeat	-10.2655
▁violence	-10.2655
▁capture	-10.2655
▁duchess	-10.2655
▁femme	-10.2655
▁lobster	-10.2655
▁mobile	-10.2655
▁struck	-10.2655
▁towel	-10.2655
▁uniform	-10.2655
▁vodka	-10.2655
▁smash	-10.2655
▁staff	-10.2655
▁throne	-10.2655
▁warrior	-10.2655
▁dodge	-10.2655
▁spear	-10.2655
▁repair	-10.2655
▁rescue	-10.2655
▁homosexual	-10.2655
▁telephone	-10.2655
▁candle	-10.2655
▁meteor	-10.2655
▁trace	-10.2655
▁hayes	-10.2655
▁element	-10.2655
▁juice	-10.2656
▁doris	-10.2656
▁transport	-10.2656
▁multipl	-10.2656
▁kenny	-10.2656
▁muttering	-10.2656
▁popular	-10.2656
▁impressed	-10.2656
▁random	-10.2657
▁howard	-10.2657
▁courage	-10.2657
▁piease	-10.2657
▁quarterback	-10.2657
▁sector	-10.2657
▁awake	-10.2658
▁decorat	-10.2658
▁chaos	-10.2659
▁pipe	-10.2659
▁property	-10.2659
▁titan	-10.266
▁winning	-10.2661
▁thirsty	-10.2662
▁murmuring	-10.2662
▁uhuh	-10.2663
▁standard	-10.2664
▁discussion	-10.2664
▁jelly	-10.2664
▁connection	-10.2665
▁friendship	-10.2666
▁allen	-10.2668
▁whore	-10.2669
▁labor	-10.267
▁howling	-10.2671
▁motion	-10.2671
▁sack	-10.2673
▁iris	-10.2674
▁drill	-10.2675
▁dire	-10.2675
▁carver	-10.2676
▁coughing	-10.2676
▁benny	-10.2677
▁lilli	-10.2677
▁oil	-10.2677
rac	-10.2681
▁passion	-10.2684
▁ph	-10.2686
▁sixty	-10.2689
▁century	-10.2692
▁germany	-10.2694
▁tap	-10.2699
▁sans	-10.2699
▁pet	-10.27
▁lair	-10.2702
uda	-10.2703
▁sang	-10.2704
▁ré	-10.2704
itz	-10.2706
▁sandy	-10.2716
▁mum	-10.2717
▁rage	-10.2717
▁personally	-10.2719
ky	-10.2724
▁badge	-10.2728
▁quell	-10.273
▁hamptons	-10.2734
▁tune	-10.2736
▁pretending	-10.2737
▁porter	-10.2747
▁mentioned	-10.2753
▁watchers	-10.2754
▁coughs	-10.2757
illa	-10.2757
gue	-10.276
▁yup	-10.2768
▁millions	-10.2775
▁hunting	-10.2786
▁tied	-10.2794
▁belly	-10.2804
▁wing	-10.2809
eux	-10.2812
▁ash	-10.2813
▁blessed	-10.282
▁connais	-10.2831
▁shared	-10.2841
▁ohh	-10.2849
▁carrying	-10.2854
▁nate	-10.2859
▁woods	-10.2883
▁hundreds	-10.2884
aire	-10.2889
▁cure	-10.2906
▁burned	-10.2913
▁rolling	-10.2932
▁selling	-10.2949
▁mal	-10.2954
▁painful	-10.2962
▁chips	-10.2999
▁speakers	-10.3026
lly	-10.3035
▁mouths	-10.3038
▁counting	-10.304
▁folk	-10.3058
▁thy	-10.3064
▁odds	-10.3075
▁peu	-10.3082
▁chase	-10.3087
▁royal	-10.3094
quality	-10.3103
ei	-10.3114
itter	-10.3115
▁til	-10.3119
ime	-10.312
▁plates	-10.3124
▁din	-10.3138
▁corps	-10.316
▁mimi	-10.3169
▁souls	-10.3177
▁tick	-10.3184
pr	-10.3208
▁yu	-10.3221
▁touching	-10.3245
▁vois	-10.3248
▁bills	-10.325
▁rot	-10.326
▁arrive	-10.3268
▁wal	-10.3288
▁interrupt	-10.3304
ox	-10.3305
▁classic	-10.3308
high	-10.3308
class	-10.3309
▁hated	-10.331
though	-10.3311
▁concern	-10.3316
▁inc	-10.3317
▁phi	-10.3325
▁remove	-10.3326
▁officers	-10.3331
just	-10.3334
▁gen	-10.335
▁beck	-10.335
now	-10.3351
▁ghosts	-10.3355
▁bark	-10.3357
▁understanding	-10.3358
▁scrap	-10.3365
load	-10.3365
▁amelia	-10.3369
▁andante	-10.3369
▁antonio	-10.3369
▁attitude	-10.3369
▁babbling	-10.3369
▁bernström	-10.3369
▁cougar	-10.3369
▁cristina	-10.3369
▁dwarf	-10.3369
▁désolé	-10.3369
▁fabulous	-10.3369
▁helicopter	-10.3369
▁jinx	-10.3369
▁jordan	-10.3369
▁nonsense	-10.3369
▁november	-10.3369
▁obannon	-10.3369
▁orange	-10.3369
▁philadelphia	-10.3369
▁procedure	-10.3369
▁ramses	-10.3369
▁recipe	-10.3369
▁reign	-10.3369
▁residence	-10.3369
▁santoro	-10.3369
▁sequence	-10.3369
▁species	-10.3369
▁squeez	-10.3369
▁subtitles	-10.3369
▁sunshine	-10.3369
▁sweep	-10.3369
▁tambourine	-10.3369
▁territory	-10.3369
▁teschen	-10.3369
▁trunk	-10.3369
▁valens	-10.3369
▁alpha	-10.3369
▁detroit	-10.3369
▁emperor	-10.3369
▁empire	-10.3369
▁fifth	-10.3369
▁fought	-10.3369
▁hammer	-10.3369
▁miami	-10.3369
▁romance	-10.3369
▁weep	-10.3369
▁nolan	-10.3369
▁period	-10.3369
▁aiways	-10.3369
▁geneva	-10.3369
▁scav	-10.3369
▁threatened	-10.3369
▁goodnight	-10.3369
▁stiii	-10.3369
▁hostile	-10.3369
▁martha	-10.3369
▁oath	-10.3369
▁worn	-10.3369
▁convict	-10.3369
▁explor	-10.337
▁civilization	-10.337
▁hollywood	-10.337
▁lottery	-10.337
▁greet	-10.337
▁freezing	-10.337
▁content	-10.337
▁narrat	-10.337
▁anger	-10.337
▁shining	-10.337
▁twentyfive	-10.337
▁abort	-10.337
▁baseball	-10.337
▁orc	-10.337
▁silence	-10.337
▁spray	-10.337
▁plague	-10.337
▁championship	-10.3371
▁commence	-10.3371
▁moral	-10.3371
▁garage	-10.3372
▁cramp	-10.3372
▁vacation	-10.3372
▁shaking	-10.3372
▁blanket	-10.3372
▁lamb	-10.3372
▁foul	-10.3372
▁coward	-10.3374
▁reward	-10.3374
▁pender	-10.3374
▁bedroom	-10.3375
▁cities	-10.3375
▁electricity	-10.3375
ong	-10.3375
▁inaudible	-10.3376
▁award	-10.3376
▁flies	-10.3376
▁gang	-10.3376
▁wise	-10.3376
▁federa	-10.3377
▁keri	-10.3377
▁footage	-10.3378
▁loan	-10.3379
▁agreement	-10.3379
▁zetas	-10.3379
▁produce	-10.338
▁humor	-10.338
five	-10.3381
▁lsnt	-10.3381
▁elle	-10.3382
▁planned	-10.3382
▁statement	-10.3382
▁complaint	-10.3383
▁vow	-10.3386
▁personne	-10.3388
▁nasty	-10.3389
▁squirly	-10.3391
oid	-10.3391
▁tous	-10.3392
▁hump	-10.3392
▁daylight	-10.3394
▁limo	-10.3394
▁humming	-10.3395
▁jamie	-10.3395
▁assure	-10.3397
▁straighten	-10.3398
▁visitor	-10.3398
▁iz	-10.34
▁abandoned	-10.3403
▁voir	-10.3404
▁beth	-10.3408
▁director	-10.3409
▁jab	-10.3414
row	-10.3421
▁commit	-10.3422
▁onion	-10.3423
▁jap	-10.3424
▁parties	-10.3426
▁ranch	-10.3429
▁gar	-10.3429
▁hood	-10.343
▁bang	-10.3439
port	-10.3439
▁barking	-10.3443
▁bri	-10.3452
▁quil	-10.3456
▁jet	-10.3464
▁sil	-10.3466
▁armor	-10.3488
▁pier	-10.3501
▁petit	-10.3517
▁camel	-10.3537
▁jackie	-10.3543
▁whoops	-10.3547
▁twins	-10.3551
▁survived	-10.356
▁caused	-10.3585
▁gig	-10.3599
cher	-10.3614
▁enjoyed	-10.3622
▁skills	-10.3625
▁mall	-10.363
cat	-10.3632
▁maid	-10.3638
▁knocked	-10.365
▁fellows	-10.3674
▁knees	-10.3674
▁rig	-10.3675
pro	-10.3692
van	-10.3703
erge	-10.3712
▁booker	-10.3718
▁greater	-10.3722
za	-10.3729
beau	-10.3744
▁site	-10.3751
▁covered	-10.3755
▁grunt	-10.3766
▁ou	-10.379
▁mags	-10.3792
hen	-10.3794
erto	-10.3799
▁joining	-10.3807
▁knee	-10.381
▁buck	-10.3812
▁fellow	-10.3826
era	-10.3857
▁conv	-10.3873
ight	-10.3888
▁regarde	-10.3888
oli	-10.3916
▁feelin	-10.3936
▁sou	-10.3956
▁fans	-10.396
▁details	-10.396
gon	-10.3965
sma	-10.3975
▁comb	-10.399
bar	-10.4017
▁jaegers	-10.4023
▁squeal	-10.4073
wood	-10.4076
ground	-10.4077
ima	-10.4084
like	-10.4086
▁cancel	-10.4088
mble	-10.4088
▁convince	-10.4096
▁hor	-10.4111
▁ru	-10.4114
▁immediate	-10.4123
▁madam	-10.4124
▁sparta	-10.4125
▁vin	-10.4131
▁product	-10.4135
▁punish	-10.4136
circ	-10.4137
▁favour	-10.4138
▁achieve	-10.4139
▁ambush	-10.4139
▁cambridge	-10.4139
▁complex	-10.4139
▁creek	-10.4139
▁custody	-10.4139
▁desperate	-10.4139
▁dwight	-10.4139
▁episode	-10.4139
▁eponine	-10.4139
▁exclaim	-10.4139
▁gambling	-10.4139
▁grateful	-10.4139
▁however	-10.4139
▁increase	-10.4139
▁intelligence	-10.4139
▁oscorp	-10.4139
▁phoenix	-10.4139
▁powder	-10.4139
▁responsibility	-10.4139
▁robinson	-10.4139
▁routine	-10.4139
▁shrieks	-10.4139
▁smiling	-10.4139
▁solution	-10.4139
▁stammers	-10.4139
▁swallow	-10.4139
▁talladega	-10.4139
▁technology	-10.4139
▁thumping	-10.4139
▁turkey	-10.4139
▁vandergeld	-10.4139
▁wealth	-10.4139
▁william	-10.4139
▁basket	-10.4139
▁behave	-10.4139
▁benefit	-10.4139
▁effort	-10.4139
▁insult	-10.4139
▁jungle	-10.4139
▁maintain	-10.4139
▁paradise	-10.4139
▁arthur	-10.4139
▁midget	-10.4139
▁poison	-10.4139
▁volume	-10.4139
▁anytime	-10.4139
▁arius	-10.4139
▁lucy	-10.4139
▁faint	-10.4139
▁sammy	-10.4139
▁vital	-10.4139
▁freddy	-10.4139
▁acid	-10.4139
▁chew	-10.4139
▁prevent	-10.4139
▁illusion	-10.4139
▁marcus	-10.4139
▁riot	-10.4139
▁broad	-10.4139
▁firing	-10.4139
▁flashlight	-10.4139
▁darren	-10.4139
▁pork	-10.4139
▁cookbook	-10.414
▁division	-10.414
▁employee	-10.414
▁review	-10.414
▁among	-10.414
▁denise	-10.414
▁accent	-10.414
▁wagon	-10.414
▁replace	-10.414
▁terrorist	-10.414
▁spoon	-10.414
▁sawyer	-10.414
stream	-10.4141
▁moonlight	-10.4141
▁prize	-10.4141
▁bunny	-10.4141
▁commitment	-10.4141
▁yeh	-10.4141
▁fanny	-10.4142
▁salut	-10.4142
▁yellow	-10.4142
▁japan	-10.4142
▁charity	-10.4142
▁factory	-10.4143
▁sentence	-10.4145
▁hush	-10.4145
▁alley	-10.4146
▁sue	-10.4147
▁sail	-10.4147
▁bible	-10.4148
▁disaster	-10.4148
▁perry	-10.4149
▁cassie	-10.415
term	-10.4151
▁yoga	-10.4151
▁responsible	-10.4151
▁creepy	-10.4153
▁drag	-10.4156
▁judith	-10.4157
▁title	-10.4157
▁rocket	-10.4158
▁obsessed	-10.4158
▁thee	-10.416
▁wel	-10.4161
▁sexual	-10.4167
▁haunted	-10.4171
▁gim	-10.4173
▁bass	-10.4174
▁min	-10.4174
ability	-10.4175
▁betrayed	-10.4175
▁wander	-10.4176
▁loudly	-10.4183
▁shushing	-10.4188
▁plain	-10.4188
▁falcon	-10.4188
▁hitting	-10.4191
▁shrinking	-10.4193
▁laser	-10.4194
▁blown	-10.4201
▁passengers	-10.4204
▁yelps	-10.4204
▁coll	-10.4206
▁banging	-10.4208
▁math	-10.4211
wasting	-10.4223
berg	-10.4232
▁briefing	-10.4234
▁escaped	-10.4237
▁wasted	-10.4241
▁warned	-10.4246
▁parler	-10.4248
▁designed	-10.4253
▁arch	-10.4256
▁pounding	-10.4265
▁unti	-10.4267
▁worrying	-10.4287
▁highp	-10.429
▁results	-10.4309
▁pile	-10.4315
lim	-10.4332
▁sau	-10.4333
▁opened	-10.4343
astic	-10.4359
▁filling	-10.4361
▁crimes	-10.4382
▁hire	-10.4408
▁poe	-10.441
▁spending	-10.4418
▁crossed	-10.4419
▁depends	-10.4427
quent	-10.443
▁comm	-10.4438
aux	-10.4461
▁fixing	-10.4472
▁noon	-10.4489
▁liv	-10.4494
▁wings	-10.4526
▁auto	-10.4527
▁dancer	-10.4539
▁yay	-10.4543
▁skip	-10.456
▁tea	-10.4572
▁pilots	-10.4576
▁magicians	-10.458
▁halt	-10.4581
abie	-10.4593
▁fund	-10.4621
▁missile	-10.4652
▁dinosaur	-10.4655
nia	-10.4659
▁sounded	-10.4673
▁boots	-10.4676
▁coo	-10.4678
ark	-10.4679
form	-10.4683
cra	-10.4698
▁luis	-10.4707
▁hills	-10.4708
▁warp	-10.4708
▁nail	-10.4713
▁lame	-10.4714
▁ze	-10.4721
▁anti	-10.4747
▁hon	-10.4769
▁clients	-10.4794
hole	-10.4813
▁eva	-10.4823
▁vers	-10.4838
ept	-10.4857
▁custom	-10.4878
pot	-10.4904
▁receive	-10.4913
▁mort	-10.4913
serving	-10.4915
▁moo	-10.4922
fall	-10.4925
▁rats	-10.4931
▁decisions	-10.4931
▁cour	-10.4936
▁iv	-10.494
ko	-10.4942
▁health	-10.4951
eight	-10.4954
▁unfortunate	-10.4956
▁javi	-10.4957
▁absolute	-10.4957
▁range	-10.496
hood	-10.4966
mhmm	-10.4967
▁basic	-10.4971
▁assimilat	-10.4972
▁associat	-10.4972
▁conflict	-10.4972
▁confront	-10.4972
▁fantasy	-10.4972
▁recommend	-10.4972
▁activity	-10.4972
▁assignment	-10.4972
▁bohme	-10.4972
▁burglar	-10.4972
▁competition	-10.4972
▁conference	-10.4972
▁confidence	-10.4972
▁coordinates	-10.4972
▁disagree	-10.4972
▁donkey	-10.4972
▁driscoll	-10.4972
▁education	-10.4972
▁embassy	-10.4972
▁enterprise	-10.4972
▁entrance	-10.4972
▁escort	-10.4972
▁eternity	-10.4972
▁extinct	-10.4972
▁fitzgerald	-10.4972
▁fortune	-10.4972
▁furniture	-10.4972
▁grandmother	-10.4972
▁greek	-10.4972
▁hashimoto	-10.4972
▁holiday	-10.4972
▁inhales	-10.4972
▁kababik	-10.4972
▁landolfa	-10.4972
▁lsabel	-10.4972
▁malcolm	-10.4972
▁manhattan	-10.4972
▁manuscript	-10.4972
▁mcginty	-10.4972
▁nataiie	-10.4972
▁patience	-10.4972
▁political	-10.4972
▁politics	-10.4972
▁profile	-10.4972
▁prostitute	-10.4972
▁steak	-10.4972
▁stryker	-10.4972
▁submarine	-10.4972
▁suicide	-10.4972
▁temperature	-10.4972
▁tooth	-10.4972
▁tressler	-10.4972
▁university	-10.4972
▁violent	-10.4972
▁whistling	-10.4972
conscious	-10.4972
▁adorable	-10.4972
▁corwin	-10.4972
▁curtain	-10.4972
▁dessert	-10.4972
▁gretel	-10.4972
▁oclock	-10.4972
▁relief	-10.4972
▁sniffing	-10.4972
▁spoil	-10.4972
▁bethany	-10.4972
▁clown	-10.4972
▁material	-10.4972
▁monitor	-10.4972
▁value	-10.4972
▁begun	-10.4972
▁chirp	-10.4972
▁memoirs	-10.4972
▁unique	-10.4972
▁warrant	-10.4972
▁incoming	-10.4972
▁tiger	-10.4972
▁yacht	-10.4972
▁snoring	-10.4972
▁plastic	-10.4972
▁swimming	-10.4972
▁autograph	-10.4972
▁famiiy	-10.4972
▁lazy	-10.4972
▁define	-10.4972
▁chef	-10.4972
▁edward	-10.4972
▁fireworks	-10.4972
▁delay	-10.4972
▁clinic	-10.4972
▁rising	-10.4972
▁vermont	-10.4972
▁jones	-10.4973
▁bonnie	-10.4973
▁grind	-10.4973
▁spark	-10.4973
▁web	-10.4973
▁bradley	-10.4973
▁display	-10.4973
▁sobs	-10.4974
▁cattle	-10.4974
▁shove	-10.4974
while	-10.4974
▁maniacal	-10.4974
▁bacon	-10.4974
▁cabinet	-10.4974
hawk	-10.4975
▁passionate	-10.4975
▁agency	-10.4975
▁trapped	-10.4975
▁proof	-10.4975
▁contest	-10.4975
▁guide	-10.4976
▁starving	-10.4976
▁iife	-10.4977
▁balance	-10.4977
▁nico	-10.4977
▁effie	-10.4979
▁version	-10.4979
▁confirmation	-10.4979
▁minor	-10.498
▁sunny	-10.4981
▁clone	-10.4983
▁highway	-10.4984
▁homo	-10.4985
▁puff	-10.4985
▁dope	-10.4986
▁tuck	-10.4986
▁bum	-10.4986
▁fais	-10.4987
▁heel	-10.4988
▁haul	-10.4988
▁stress	-10.4989
▁thick	-10.499
▁burst	-10.4991
▁betty	-10.4991
▁earn	-10.4995
▁alan	-10.4995
▁dock	-10.4996
▁distan	-10.4997
ward	-10.5
▁nous	-10.5001
▁gum	-10.5001
▁hunger	-10.5002
▁surrounded	-10.5003
▁model	-10.5003
▁directly	-10.5007
▁cabin	-10.5008
▁hooting	-10.5009
▁dish	-10.5013
▁received	-10.5015
▁thrilled	-10.5017
▁useful	-10.5017
▁pink	-10.5018
▁convinced	-10.5019
▁actor	-10.5021
▁apple	-10.5021
▁batt	-10.5021
▁syn	-10.5025
▁task	-10.5028
▁mmmm	-10.5031
▁mortal	-10.5035
▁rear	-10.504
▁q	-10.5043
▁boxes	-10.5048
▁depend	-10.5049
▁ticking	-10.5049
▁beef	-10.5051
▁charming	-10.5054
▁aller	-10.5059
▁fuse	-10.5068
▁ge	-10.5073
▁ditch	-10.5076
▁cable	-10.5077
▁mil	-10.5084
▁medi	-10.5095
▁failed	-10.5097
▁thrown	-10.511
ada	-10.5114
▁suite	-10.5118
▁warner	-10.512
▁carefully	-10.5122
▁successful	-10.5123
▁sucker	-10.5125
▁invest	-10.5125
▁kit	-10.5126
▁scientists	-10.513
▁coin	-10.5131
▁spr	-10.5138
run	-10.5139
▁asses	-10.5148
▁lick	-10.5154
▁net	-10.5155
▁of	-10.5176
▁shy	-10.5178
▁tale	-10.5185
▁conduct	-10.5186
▁locker	-10.5188
▁stare	-10.5189
▁vol	-10.5221
▁sup	-10.5225
▁donne	-10.5231
▁continu	-10.5232
▁trained	-10.5236
▁missiles	-10.5303
▁jumped	-10.5312
▁teaching	-10.5324
▁protected	-10.534
▁messing	-10.5379
meter	-10.5383
ott	-10.5396
▁sto	-10.5397
▁lip	-10.5405
▁members	-10.5419
▁demands	-10.542
▁singers	-10.5433
▁sharks	-10.545
▁react	-10.5494
▁winners	-10.5509
▁trib	-10.5523
▁don	-10.5531
▁prob	-10.5536
▁unh	-10.554
▁chop	-10.5557
put	-10.5558
▁beep	-10.5559
▁skill	-10.5562
▁pm	-10.5565
▁shoe	-10.557
▁itch	-10.5602
han	-10.5642
▁aha	-10.565
▁att	-10.5672
▁reno	-10.5714
▁menu	-10.5728
iong	-10.5741
▁embarrass	-10.5761
▁tomb	-10.5766
vais	-10.5808
▁mode	-10.5809
▁gee	-10.5811
▁shrink	-10.5817
contact	-10.582
foot	-10.582
point	-10.582
phone	-10.5821
shot	-10.5824
vision	-10.5825
two	-10.5825
▁recruit	-10.5835
▁squirl	-10.5854
▁incredibl	-10.5855
stone	-10.586
▁jim	-10.5865
▁actual	-10.5866
▁possess	-10.5867
▁attract	-10.5869
ware	-10.5875
▁confess	-10.5876
▁bern	-10.588
▁soph	-10.5881
▁neighbor	-10.5881
destruct	-10.5881
▁adopt	-10.5881
▁chamber	-10.5881
▁deposit	-10.5881
▁hydro	-10.5881
efficient	-10.5881
▁actuaiiy	-10.5881
▁africa	-10.5881
▁attorney	-10.5881
▁august	-10.5881
▁believing	-10.5881
▁besoin	-10.5881
▁bleep	-10.5881
▁breeze	-10.5881
▁brittany	-10.5881
▁broadcast	-10.5881
▁colleague	-10.5881
▁corporation	-10.5881
▁coyote	-10.5881
▁distinct	-10.5881
▁divine	-10.5881
▁dizzy	-10.5881
▁financial	-10.5881
▁foxtrot	-10.5881
▁gavroche	-10.5881
▁graduation	-10.5881
▁hebrew	-10.5881
▁infected	-10.5881
▁moscow	-10.5881
▁nickname	-10.5881
▁offense	-10.5881
▁ordinary	-10.5881
▁portrait	-10.5881
▁pourquoi	-10.5881
▁practicing	-10.5881
▁preacher	-10.5881
▁pretzel	-10.5881
▁prudence	-10.5881
▁puzzle	-10.5881
▁quelquun	-10.5881
▁savage	-10.5881
▁sentinels	-10.5881
▁skirt	-10.5881
▁someplace	-10.5881
▁stammering	-10.5881
▁strict	-10.5881
▁thanksgiving	-10.5881
▁tissue	-10.5881
▁tractor	-10.5881
▁victim	-10.5881
▁viktor	-10.5881
▁woojin	-10.5881
▁yknow	-10.5881
▁dedicate	-10.5881
▁jurgen	-10.5881
▁liwen	-10.5881
▁oggie	-10.5881
▁pattern	-10.5881
▁pillow	-10.5881
▁rattling	-10.5881
▁spooky	-10.5881
▁tuesday	-10.5881
▁typing	-10.5881
▁adjust	-10.5881
▁analyst	-10.5881
▁fantine	-10.5881
▁gamble	-10.5881
▁hartman	-10.5881
▁storage	-10.5881
▁supply	-10.5881
▁dawg	-10.5881
▁latrell	-10.5881
▁plot	-10.5881
▁grief	-10.5881
▁historic	-10.5881
▁mutant	-10.5881
▁tool	-10.5881
▁closing	-10.5881
▁fierce	-10.5881
▁skies	-10.5881
▁glove	-10.5881
▁arena	-10.5881
▁pussy	-10.5881
▁sheet	-10.5881
▁haif	-10.5881
▁myth	-10.5881
▁particle	-10.5881
▁sample	-10.5881
▁programmed	-10.5881
▁facility	-10.5881
▁oops	-10.5881
▁imitate	-10.5882
▁sunset	-10.5882
▁imagination	-10.5882
▁demon	-10.5882
▁deaf	-10.5882
▁expense	-10.5882
▁sanford	-10.5882
▁transform	-10.5882
▁software	-10.5882
▁creative	-10.5882
▁arrangement	-10.5882
▁expose	-10.5882
▁economic	-10.5882
▁breed	-10.5882
▁alors	-10.5883
▁assets	-10.5883
▁whatre	-10.5883
▁offline	-10.5883
▁detective	-10.5883
▁urgent	-10.5883
▁raptor	-10.5883
▁resident	-10.5883
▁choking	-10.5883
▁partnership	-10.5883
▁replacement	-10.5884
▁static	-10.5884
▁bride	-10.5884
▁effective	-10.5884
▁scale	-10.5885
▁rubber	-10.5885
▁counselor	-10.5885
▁ouch	-10.5886
▁supper	-10.5886
▁geez	-10.5887
corporate	-10.5887
▁strip	-10.5887
▁dix	-10.5888
▁gray	-10.5888
away	-10.5888
▁forgotten	-10.5888
▁cochrane	-10.589
▁region	-10.589
▁anniversaire	-10.589
▁concert	-10.5891
▁bam	-10.5892
▁halfway	-10.5893
▁fox	-10.5893
▁when	-10.5895
▁objection	-10.5895
▁allies	-10.5895
▁ashes	-10.5896
▁parce	-10.5896
▁pleasant	-10.5896
▁axe	-10.5897
▁dash	-10.5897
▁dings	-10.5898
▁lever	-10.5898
▁rag	-10.5899
tle	-10.5899
▁forth	-10.5899
▁wallet	-10.5901
▁fargo	-10.5901
▁chow	-10.5902
▁compromised	-10.5904
▁hola	-10.5906
terior	-10.5908
▁naturally	-10.5909
▁spain	-10.5911
▁clam	-10.5912
▁badass	-10.5913
▁carried	-10.5917
▁stark	-10.5918
▁hail	-10.5923
▁bump	-10.5924
▁role	-10.5926
▁gent	-10.5927
▁bitter	-10.5931
▁craft	-10.5933
▁assist	-10.5934
▁cutting	-10.5934
▁mist	-10.5937
▁glasses	-10.5937
▁inch	-10.5938
appelle	-10.5938
▁chat	-10.594
▁rice	-10.594
▁justin	-10.5947
▁defeated	-10.5956
ient	-10.596
▁mistaken	-10.5963
▁classes	-10.5973
▁entirely	-10.5976
▁bay	-10.5977
▁lac	-10.5978
▁pris	-10.5978
▁psycho	-10.5979
▁dumped	-10.5982
▁mona	-10.5988
▁climbing	-10.5996
▁connected	-10.5998
▁issued	-10.6007
▁taiking	-10.6021
▁wishes	-10.6044
inner	-10.6055
▁bol	-10.6061
▁palm	-10.6063
▁doug	-10.6064
▁bothering	-10.6065
▁fairy	-10.6067
▁sum	-10.6073
▁combat	-10.6099
▁ku	-10.6108
▁yah	-10.6108
▁highly	-10.611
▁fee	-10.6166
▁zombies	-10.6182
▁feeding	-10.6185
▁quan	-10.6234
▁salt	-10.6244
▁cleaned	-10.6258
▁explained	-10.6288
toi	-10.6294
▁ger	-10.6364
▁flo	-10.638
▁chan	-10.6396
▁plu	-10.644
▁badly	-10.6443
▁scr	-10.6445
▁chu	-10.6476
▁needle	-10.6506
spite	-10.6551
▁zombie	-10.6559
▁beside	-10.6571
▁ren	-10.658
je	-10.6582
ology	-10.66
▁here	-10.6601
bag	-10.6621
▁reader	-10.6622
▁chang	-10.6638
▁cul	-10.6642
▁sting	-10.6688
▁dom	-10.6723
pul	-10.6759
▁psych	-10.6774
▁dip	-10.6781
ese	-10.6795
ford	-10.681
place	-10.6815
▁screech	-10.6817
▁shush	-10.6819
school	-10.682
▁disappoint	-10.6824
▁thrill	-10.6827
sign	-10.6828
▁frighten	-10.6829
pass	-10.6831
ugged	-10.6841
▁frau	-10.6842
▁zoe	-10.6855
▁trail	-10.6859
four	-10.6866
▁distract	-10.687
▁runnin	-10.6871
fish	-10.6872
avoir	-10.6873
▁weakness	-10.6875
▁express	-10.6878
itating	-10.6878
▁depart	-10.6879
▁employ	-10.688
▁specific	-10.688
▁micro	-10.6881
▁legitim	-10.6881
▁sympa	-10.6881
▁adriana	-10.6881
▁ancient	-10.6881
▁anxious	-10.6881
▁appétit	-10.6881
▁beiieve	-10.6881
▁celebrating	-10.6881
▁clattering	-10.6881
▁coiiins	-10.6881
▁collapse	-10.6881
▁confusing	-10.6881
▁cornwall	-10.6881
▁destiny	-10.6881
▁diablo	-10.6881
▁evolve	-10.6881
▁explanation	-10.6881
▁faggot	-10.6881
▁georgie	-10.6881
▁hammond	-10.6881
▁happier	-10.6881
▁happiness	-10.6881
▁hermann	-10.6881
▁insecure	-10.6881
▁invisible	-10.6881
▁journal	-10.6881
▁knight	-10.6881
▁liberty	-10.6881
▁lndistinct	-10.6881
▁lucille	-10.6881
▁malibu	-10.6881
▁myseif	-10.6881
▁mysterious	-10.6881
▁negotiator	-10.6881
▁nephew	-10.6881
▁newspaper	-10.6881
▁orphan	-10.6881
▁privacy	-10.6881
▁progress	-10.6881
▁protocol	-10.6881
▁purple	-10.6881
▁recognition	-10.6881
▁rhythmically	-10.6881
▁scientific	-10.6881
▁shmuel	-10.6881
▁shotgun	-10.6881
▁sphere	-10.6881
▁suspicious	-10.6881
▁tammy	-10.6881
▁technique	-10.6881
▁yellowjacket	-10.6881
▁advise	-10.6881
▁atlas	-10.6881
▁beacon	-10.6881
▁bruise	-10.6881
▁confident	-10.6881
▁disguise	-10.6881
▁encourage	-10.6881
▁exotic	-10.6881
▁lawsuit	-10.6881
▁melody	-10.6881
▁mwah	-10.6881
▁pathetic	-10.6881
▁phillip	-10.6881
▁pulse	-10.6881
▁voyage	-10.6881
▁cheek	-10.6881
▁cycle	-10.6881
▁demonstrat	-10.6881
▁instance	-10.6881
▁april	-10.6881
▁destruction	-10.6881
▁function	-10.6881
▁nipple	-10.6881
▁clever	-10.6881
▁shortcut	-10.6881
▁stenz	-10.6881
▁apollonia	-10.6881
▁vickie	-10.6881
▁wrist	-10.6881
▁aussi	-10.6881
▁steam	-10.6881
▁tyler	-10.6881
▁utter	-10.6881
▁flunk	-10.6881
▁method	-10.6881
easley	-10.6881
▁buddies	-10.6881
▁flew	-10.6881
▁merry	-10.6881
▁cobb	-10.6881
▁located	-10.6881
▁crois	-10.6881
▁robbed	-10.6881
▁television	-10.6881
▁ceiling	-10.6881
▁stew	-10.6881
▁morris	-10.6881
▁barrel	-10.6881
▁distort	-10.6881
▁neighborhood	-10.6881
▁tactic	-10.6881
▁electronic	-10.6881
▁iast	-10.6882
▁montana	-10.6882
▁cameron	-10.6882
▁medication	-10.6882
▁exchange	-10.6882
▁reject	-10.6882
▁apology	-10.6882
▁gomez	-10.6882
▁operator	-10.6882
▁colour	-10.6882
▁fried	-10.6882
▁pension	-10.6882
ologist	-10.6882
▁contamination	-10.6882
▁blink	-10.6882
▁boogie	-10.6882
▁hankins	-10.6883
▁francisco	-10.6883
▁pooter	-10.6883
▁translate	-10.6883
▁reverse	-10.6883
▁accuse	-10.6883
▁zeke	-10.6883
▁existence	-10.6884
▁unknown	-10.6884
▁claire	-10.6884
▁diving	-10.6884
▁intention	-10.6884
▁creation	-10.6884
▁failure	-10.6885
▁tango	-10.6885
▁investigation	-10.6885
▁ellic	-10.6886
▁fetch	-10.6887
▁touchdown	-10.6889
▁aside	-10.6889
▁rode	-10.689
▁stake	-10.689
▁cease	-10.689
▁tide	-10.689
▁sailor	-10.689
▁chime	-10.689
▁distraction	-10.6892
▁crumble	-10.6894
▁slightly	-10.6894
▁debra	-10.6895
▁campus	-10.6897
▁nora	-10.6897
▁highline	-10.6897
▁madness	-10.6898
▁standby	-10.69
▁soil	-10.6901
ooah	-10.6901
▁swede	-10.6902
▁controlling	-10.6903
▁wade	-10.6903
▁trailer	-10.6904
▁sock	-10.6908
▁javier	-10.6909
▁conn	-10.6909
new	-10.691
▁kara	-10.691
▁burt	-10.6911
▁sighing	-10.6913
▁toss	-10.6914
▁bound	-10.6916
▁carley	-10.6918
▁heroes	-10.6924
▁fraud	-10.6925
▁rue	-10.6933
▁just	-10.6933
▁apply	-10.6934
▁useless	-10.6935
▁fam	-10.6941
▁active	-10.6941
▁dresses	-10.6943
▁normally	-10.6946
▁gale	-10.695
▁fourth	-10.695
▁embarrassing	-10.6954
▁quest	-10.6965
▁tax	-10.6984
▁statue	-10.6985
▁mixed	-10.6988
▁pancakes	-10.7004
vez	-10.7007
▁deny	-10.7007
ough	-10.7018
▁greatness	-10.702
▁nut	-10.7023
▁spared	-10.7031
▁planted	-10.7033
▁piedges	-10.7039
▁timing	-10.7046
▁cord	-10.7047
▁helpful	-10.705
▁ban	-10.7053
▁tent	-10.7059
▁rend	-10.7064
▁focused	-10.7069
▁hooked	-10.7069
▁mont	-10.7095
▁bid	-10.7095
dern	-10.7099
▁washed	-10.7139
▁parl	-10.7153
▁wo	-10.7176
▁sling	-10.7183
iiy	-10.7212
▁flu	-10.7222
▁detect	-10.7254
▁cher	-10.7276
▁semi	-10.7276
▁laying	-10.7277
▁toe	-10.7325
▁reported	-10.7338
▁viv	-10.7423
puis	-10.7426
ouche	-10.7437
udge	-10.7496
shaw	-10.7499
keeper	-10.756
▁hugg	-10.7562
▁asia	-10.7614
▁whisper	-10.7616
▁click	-10.7617
▁groan	-10.7618
finn	-10.7622
▁jud	-10.7623
▁ji	-10.7637
crat	-10.7695
ght	-10.7717
▁dome	-10.7734
▁ideal	-10.7738
▁lai	-10.7754
vé	-10.7759
▁sor	-10.7785
▁wha	-10.7809
▁dy	-10.7868
▁spott	-10.7868
▁cheat	-10.7875
▁flee	-10.7913
▁caus	-10.7928
craft	-10.7928
century	-10.7929
grid	-10.7931
yeah	-10.7932
year	-10.7935
▁betray	-10.7939
▁abandon	-10.7939
style	-10.7939
right	-10.7944
book	-10.7945
▁engage	-10.7947
ptic	-10.7949
tail	-10.7951
face	-10.7955
▁guilt	-10.7965
▁technical	-10.7976
through	-10.7988
ological	-10.7992
▁rhythm	-10.7992
aaaah	-10.7992
écoute	-10.7992
▁accomplish	-10.7992
▁aleksandr	-10.7992
▁anderson	-10.7992
▁annabelle	-10.7992
▁applaud	-10.7992
▁atlantic	-10.7992
▁bilbo	-10.7992
▁bolivar	-10.7992
▁chemical	-10.7992
▁chimney	-10.7992
▁colombia	-10.7992
▁crunch	-10.7992
▁destination	-10.7992
▁disconnect	-10.7992
▁enjolras	-10.7992
▁eunice	-10.7992
▁evacuate	-10.7992
▁executive	-10.7992
▁fiddle	-10.7992
▁fountain	-10.7992
▁francs	-10.7992
▁gandalf	-10.7992
▁gorgeous	-10.7992
▁gracias	-10.7992
▁granny	-10.7992
▁guatemala	-10.7992
▁headquarters	-10.7992
▁hennessy	-10.7992
▁himmler	-10.7992
▁huddle	-10.7992
▁incident	-10.7992
▁injured	-10.7992
▁injuries	-10.7992
▁institution	-10.7992
▁intense	-10.7992
▁joseph	-10.7992
▁lemkov	-10.7992
▁magnificent	-10.7992
▁merritt	-10.7992
▁naughty	-10.7992
▁ozzie	-10.7992
▁picasso	-10.7992
▁pistol	-10.7992
▁politician	-10.7992
▁rhinehart	-10.7992
▁romul	-10.7992
▁rycart	-10.7992
▁satisfied	-10.7992
▁seventyfive	-10.7992
▁slaughter	-10.7992
▁squirrel	-10.7992
▁struggle	-10.7992
▁teresa	-10.7992
▁therapist	-10.7992
▁ultimate	-10.7992
▁underneath	-10.7992
▁unusual	-10.7992
▁uppercut	-10.7992
▁vicious	-10.7992
▁walcott	-10.7992
▁xavier	-10.7992
▁yourseif	-10.7992
▁youtube	-10.7992
▁casual	-10.7992
▁caution	-10.7992
▁cruise	-10.7992
▁handshake	-10.7992
▁laundry	-10.7992
▁semester	-10.7992
▁shrike	-10.7992
▁vomit	-10.7992
▁belial	-10.7992
▁combination	-10.7992
▁florida	-10.7992
▁italian	-10.7992
▁pouce	-10.7992
▁reckon	-10.7992
▁honeymoon	-10.7992
▁committee	-10.7992
▁fourteen	-10.7992
▁straw	-10.7992
▁beany	-10.7992
▁kurt	-10.7992
▁ollie	-10.7992
▁blast	-10.7992
▁clapping	-10.7992
▁squad	-10.7992
▁ankle	-10.7992
▁false	-10.7992
▁ladder	-10.7992
▁argos	-10.7992
▁chiming	-10.7992
▁scouts	-10.7992
▁boston	-10.7992
▁intel	-10.7992
▁presence	-10.7992
▁prior	-10.7992
▁reveal	-10.7992
▁fbl	-10.7992
▁preston	-10.7992
▁basil	-10.7993
▁uber	-10.7993
saurus	-10.7993
▁piayboy	-10.7993
▁digital	-10.7993
▁kilo	-10.7993
▁beans	-10.7993
▁reef	-10.7993
▁snort	-10.7993
▁bernice	-10.7993
▁shore	-10.7993
▁whiskey	-10.7993
▁collins	-10.7993
▁network	-10.7993
▁hahaha	-10.7993
▁dragged	-10.7993
▁songwriter	-10.7993
▁favourite	-10.7993
▁steer	-10.7993
▁jane	-10.7993
▁soak	-10.7993
▁louisette	-10.7993
▁excitement	-10.7994
▁flood	-10.7994
▁greed	-10.7994
polis	-10.7994
▁herd	-10.7994
▁trouv	-10.7994
▁rotten	-10.7994
▁sidewalk	-10.7994
▁reset	-10.7994
▁rogue	-10.7994
▁snack	-10.7994
▁addition	-10.7994
▁pumpkin	-10.7994
▁seduc	-10.7995
▁fluid	-10.7995
▁engagement	-10.7995
▁admire	-10.7995
▁device	-10.7995
▁attractive	-10.7995
▁powell	-10.7995
▁minos	-10.7995
▁offend	-10.7995
▁vrai	-10.7995
▁mummy	-10.7995
▁slipped	-10.7995
▁investment	-10.7995
▁blend	-10.7996
▁blade	-10.7996
▁holly	-10.7996
▁critical	-10.7996
▁nascar	-10.7996
▁urg	-10.7996
▁herb	-10.7997
▁lockdown	-10.7997
▁preparation	-10.7997
▁mechanical	-10.7997
▁selfish	-10.7997
▁reap	-10.7998
▁raising	-10.7998
▁grass	-10.7999
▁teammate	-10.7999
▁brutal	-10.7999
▁lesions	-10.8
▁chum	-10.8001
▁saber	-10.8001
▁choke	-10.8001
bot	-10.8002
▁constantly	-10.8003
▁electro	-10.8003
▁victoria	-10.8003
▁grandma	-10.8004
▁lighthouse	-10.8004
▁collection	-10.8004
▁weaknesses	-10.8004
▁rib	-10.8005
▁burton	-10.8006
▁filthy	-10.8007
▁wick	-10.8008
▁technically	-10.8008
rated	-10.8008
▁fries	-10.801
▁zoom	-10.801
▁estate	-10.8011
▁rack	-10.8011
▁tiles	-10.8013
▁sensor	-10.8013
▁avenger	-10.8013
▁pont	-10.8014
▁thruster	-10.8015
▁passage	-10.8016
▁inez	-10.8019
▁tucker	-10.8023
▁entre	-10.8024
▁bait	-10.8026
▁deadline	-10.8027
▁straining	-10.8027
▁benson	-10.8029
▁christian	-10.803
▁martini	-10.8031
▁porto	-10.8032
▁approved	-10.8032
▁sharply	-10.8033
▁intended	-10.8034
▁exception	-10.8034
▁headline	-10.8036
▁lens	-10.8037
▁operate	-10.8037
▁demi	-10.804
▁andre	-10.8043
▁carrie	-10.8046
▁jury	-10.8048
▁disturbing	-10.805
▁ciass	-10.805
mont	-10.8051
ified	-10.8053
▁frightened	-10.8054
▁embarrassed	-10.806
▁starve	-10.806
▁removed	-10.8062
▁earned	-10.8066
▁tease	-10.8071
▁newton	-10.8071
▁shutting	-10.8073
▁float	-10.8078
▁youth	-10.808
▁mooing	-10.8082
▁released	-10.8083
▁ability	-10.8086
▁lifetime	-10.809
▁fleet	-10.8095
▁rollin	-10.8099
▁nest	-10.81
▁pity	-10.8101
▁colon	-10.8107
▁meters	-10.8107
▁mayan	-10.8107
▁hike	-10.813
▁busted	-10.815
▁confirmed	-10.8151
▁suggesting	-10.8152
▁temper	-10.8152
▁suresh	-10.8161
▁experienced	-10.8166
▁tada	-10.8167
▁union	-10.8169
▁honesty	-10.8177
▁retr	-10.818
▁fry	-10.8187
▁lj	-10.8192
▁simm	-10.8204
▁ont	-10.8223
▁tricky	-10.8228
▁messy	-10.823
▁announce	-10.8238
▁ani	-10.8246
▁twi	-10.8249
rump	-10.8251
▁exam	-10.8251
▁sadie	-10.8271
▁cracking	-10.8276
nata	-10.8282
▁pod	-10.8296
▁vive	-10.8307
eval	-10.8311
▁mimic	-10.832
ledge	-10.8328
▁epi	-10.8343
venir	-10.8344
▁troi	-10.8351
rice	-10.8374
▁atta	-10.8419
▁dam	-10.8445
▁mei	-10.8458
▁robe	-10.8476
▁tir	-10.8484
▁gia	-10.8496
▁wil	-10.8498
▁shav	-10.8501
▁tot	-10.8515
▁wav	-10.8521
▁bou	-10.8522
rine	-10.853
with	-10.8537
fit	-10.8585
▁laisse	-10.8598
ubi	-10.8776
▁formal	-10.8794
hold	-10.881
dict	-10.884
tar	-10.8866
▁roar	-10.8885
▁monte	-10.8937
▁twin	-10.8938
▁mir	-10.904
▁stat	-10.9068
▁tradition	-10.9122
▁ko	-10.9164
▁disturb	-10.9177
▁creak	-10.9179
bird	-10.918
yearold	-10.918
piece	-10.9181
watch	-10.9181
mouth	-10.9182
grade	-10.9182
▁andr	-10.9183
girl	-10.9186
▁opera	-10.9187
▁haunt	-10.9189
self	-10.9192
play	-10.9196
▁truc	-10.9198
vol	-10.9205
▁strap	-10.9207
▁stud	-10.9212
▁weigh	-10.9215
▁craz	-10.9216
▁teenage	-10.9217
▁complain	-10.9217
▁retire	-10.9226
▁whoop	-10.9227
▁chin	-10.923
▁exhal	-10.9233
▁establish	-10.924
▁deploy	-10.924
▁francis	-10.924
▁contro	-10.9242
▁sustain	-10.9242
▁eyewitness	-10.9242
▁feature	-10.9242
▁interpret	-10.9242
▁rhinoceros	-10.9242
compatible	-10.9242
▁airplane	-10.9242
▁alphabet	-10.9242
▁apologies	-10.9242
▁appointment	-10.9242
▁arkenstone	-10.9242
▁assigned	-10.9242
▁astronomy	-10.9242
▁bachelor	-10.9242
▁benjamin	-10.9242
▁bourguignon	-10.9242
▁butterflies	-10.9242
▁cackling	-10.9242
▁cafeteria	-10.9242
▁ceremony	-10.9242
▁communicate	-10.9242
▁concept	-10.9242
▁dakota	-10.9242
▁description	-10.9242
▁desmond	-10.9242
▁detonator	-10.9242
▁dialogue	-10.9242
▁disrespect	-10.9242
▁donovan	-10.9242
▁egypt	-10.9242
▁enormous	-10.9242
▁etienne	-10.9242
▁exercise	-10.9242
▁explode	-10.9242
▁exploit	-10.9242
▁explosion	-10.9242
▁extraordinary	-10.9242
▁finnerty	-10.9242
▁fragile	-10.9242
▁gurgl	-10.9242
▁gutterboy	-10.9242
▁happily	-10.9242
▁housemother	-10.9242
▁hysterical	-10.9242
▁illyria	-10.9242
▁industries	-10.9242
▁injury	-10.9242
▁instinct	-10.9242
▁instrument	-10.9242
▁invented	-10.9242
▁johanson	-10.9242
▁joohwan	-10.9242
▁lyrics	-10.9242
▁mainframe	-10.9242
▁matthew	-10.9242
▁megan	-10.9242
▁mickey	-10.9242
▁millennium	-10.9242
▁mumbling	-10.9242
▁observation	-10.9242
▁offensive	-10.9242
▁ohohoh	-10.9242
▁ominous	-10.9242
▁oxford	-10.9242
▁pennsylvania	-10.9242
▁phrase	-10.9242
▁possibility	-10.9242
▁prophecy	-10.9242
▁prosecut	-10.9242
▁pursuit	-10.9242
▁receipt	-10.9242
▁religious	-10.9242
▁sacred	-10.9242
▁saumensch	-10.9242
▁scotland	-10.9242
▁seagull	-10.9242
▁shannon	-10.9242
▁sleeve	-10.9242
▁snickers	-10.9242
▁society	-10.9242
▁stunn	-10.9242
▁surveillance	-10.9242
▁terrifying	-10.9242
▁thermos	-10.9242
▁tokyo	-10.9242
▁tydeus	-10.9242
▁unhappy	-10.9242
▁vacuum	-10.9242
▁venezuela	-10.9242
▁vengeance	-10.9242
▁weicome	-10.9242
▁wrestle	-10.9242
▁athena	-10.9242
▁benedict	-10.9242
▁beverly	-10.9242
▁copeland	-10.9242
▁gaylord	-10.9242
▁grenade	-10.9242
▁landlord	-10.9242
▁lynch	-10.9242
▁marquez	-10.9242
▁password	-10.9242
▁penthouse	-10.9242
▁permanent	-10.9242
▁polite	-10.9242
▁robbery	-10.9242
▁schooi	-10.9242
▁allonsy	-10.9242
▁handcuff	-10.9242
▁marlene	-10.9242
▁miserable	-10.9242
▁suspense	-10.9242
▁valerie	-10.9242
▁vienna	-10.9242
▁wolve	-10.9242
▁busbee	-10.9242
▁canaan	-10.9242
▁clinking	-10.9242
▁dread	-10.9242
▁medusa	-10.9242
▁sworn	-10.9242
▁valley	-10.9242
▁bargain	-10.9242
▁chorus	-10.9242
▁conceal	-10.9242
▁cuba	-10.9242
▁harmony	-10.9242
▁intact	-10.9242
▁phony	-10.9242
▁giggle	-10.9242
▁audio	-10.9242
▁extend	-10.9242
▁infant	-10.9242
▁piace	-10.9242
▁pubie	-10.9242
▁virus	-10.9242
▁dentist	-10.9242
▁norman	-10.9242
▁branch	-10.9242
▁orient	-10.9242
▁worf	-10.9242
▁kili	-10.9242
▁appeal	-10.9242
▁backpack	-10.9242
▁oven	-10.9242
▁centre	-10.9242
▁daily	-10.9242
▁misery	-10.9242
oeuf	-10.9242
▁organization	-10.9242
▁durin	-10.9242
▁earring	-10.9243
▁hummingbird	-10.9243
▁investors	-10.9243
▁yeux	-10.9243
▁priest	-10.9243
▁sorrow	-10.9243
▁underworld	-10.9243
▁coughlin	-10.9243
▁tackle	-10.9243
▁antman	-10.9243
▁cocktail	-10.9243
▁banana	-10.9243
▁inject	-10.9243
▁zip	-10.9243
▁individual	-10.9243
▁waitress	-10.9243
▁korea	-10.9243
▁milestone	-10.9243
▁ambitio	-10.9243
▁culture	-10.9243
▁upload	-10.9243
▁dessus	-10.9243
▁cried	-10.9243
▁tomato	-10.9243
▁convert	-10.9244
▁angle	-10.9244
▁immortality	-10.9244
▁curious	-10.9244
▁bingo	-10.9244
▁backwards	-10.9244
▁berries	-10.9244
▁spice	-10.9244
▁moron	-10.9244
▁foster	-10.9244
▁bouge	-10.9245
▁vraiment	-10.9245
▁announcement	-10.9245
▁whoohoo	-10.9245
▁venom	-10.9245
▁hallway	-10.9245
▁persian	-10.9245
▁mere	-10.9245
▁eastern	-10.9246
▁seattle	-10.9246
▁inform	-10.9246
▁silent	-10.9247
▁wrapped	-10.9247
▁aisle	-10.9247
▁massive	-10.9247
▁boneys	-10.9247
▁feast	-10.9248
▁arrival	-10.9248
▁feedback	-10.9248
▁arrow	-10.9248
▁crook	-10.9248
instant	-10.9248
worm	-10.9248
▁yorktown	-10.9248
▁owns	-10.9249
▁noah	-10.9249
▁blur	-10.9249
▁slut	-10.9249
▁slight	-10.9249
▁extension	-10.925
▁gps	-10.925
▁scrapper	-10.925
▁upper	-10.9251
▁parlor	-10.9251
▁gregory	-10.9251
▁expression	-10.9252
▁dj	-10.9252
▁forgiveness	-10.9253
▁beings	-10.9253
▁mccarter	-10.9253
▁groom	-10.9254
ably	-10.9254
▁settlement	-10.9254
▁payday	-10.9255
▁fold	-10.9255
▁kno	-10.9255
▁gossie	-10.9256
▁parade	-10.9256
▁attraction	-10.9256
▁fois	-10.9256
▁hypnotized	-10.9257
▁vache	-10.9258
▁livin	-10.9258
▁sniper	-10.9258
▁personality	-10.9259
▁charter	-10.9259
▁dishes	-10.9259
assic	-10.9259
▁alice	-10.926
▁whale	-10.9261
▁fitness	-10.9261
▁haha	-10.9262
▁laven	-10.9262
vated	-10.9264
▁rally	-10.9266
▁keen	-10.9266
▁seul	-10.9266
▁fulltime	-10.9266
▁ye	-10.9267
▁shu	-10.9267
▁nickel	-10.9267
▁teenager	-10.9267
▁solo	-10.9269
▁coverage	-10.927
▁jive	-10.927
▁slap	-10.9271
▁haut	-10.9272
▁iose	-10.9272
▁dating	-10.9275
▁july	-10.9276
▁growth	-10.9276
▁heir	-10.9278
▁fog	-10.9279
▁smoking	-10.928
▁vite	-10.928
▁eve	-10.9284
▁dale	-10.9287
▁nearest	-10.929
▁attached	-10.929
▁fini	-10.9292
▁shutter	-10.9303
▁poke	-10.9308
▁disappointed	-10.9312
▁winch	-10.9313
▁endless	-10.9313
▁loosen	-10.9314
▁homeland	-10.9317
ulation	-10.9319
▁ace	-10.9323
▁shao	-10.9326
▁tori	-10.9327
▁solved	-10.9328
▁canceled	-10.9334
▁perfection	-10.9334
▁nailed	-10.9337
▁jp	-10.9337
▁nun	-10.9342
▁bench	-10.9347
▁twisted	-10.9349
▁squealing	-10.9353
▁wounded	-10.9356
▁interrupting	-10.9362
▁mell	-10.9362
▁hacker	-10.9366
▁ducky	-10.9369
▁damaged	-10.9375
▁requested	-10.9379
▁suffering	-10.938
▁dialing	-10.938
▁sore	-10.938
▁sinking	-10.9382
▁cones	-10.9383
▁shortly	-10.9391
ipping	-10.9392
▁sean	-10.9393
▁buster	-10.9396
▁homeless	-10.9398
▁veu	-10.94
▁based	-10.9401
▁howdy	-10.9415
▁coma	-10.9415
olar	-10.9433
joe	-10.9436
▁tickle	-10.9475
▁bak	-10.9517
tial	-10.9526
▁chap	-10.9538
▁marshall	-10.9543
▁digg	-10.9564
▁handler	-10.958
▁bate	-10.9591
armed	-10.9595
gara	-10.9599
uh	-10.9604
ility	-10.9655
tex	-10.9679
▁seize	-10.9715
▁declare	-10.9786
▁sever	-10.982
▁hel	-10.982
ular	-10.9821
▁geo	-10.9877
▁acc	-10.9913
▁erase	-10.9915
▁magical	-10.993
▁beh	-10.9931
▁stab	-10.9967
▁ken	-10.9977
idney	-11.0017
▁severe	-11.0046
▁shoo	-11.0048
duct	-11.0075
▁kat	-11.0098
▁tripp	-11.0124
about	-11.0125
tard	-11.0131
▁provide	-11.0151
nnie	-11.0263
▁result	-11.0351
▁whup	-11.0372
▁parent	-11.0375
▁spartan	-11.0379
▁ici	-11.0415
east	-11.0473
isle	-11.0527
▁cooi	-11.0531
metry	-11.0553
▁prepar	-11.0593
▁appel	-11.0601
▁disgust	-11.0607
▁hoot	-11.0609
great	-11.061
three	-11.0611
heart	-11.0615
▁intend	-11.0616
▁surround	-11.0617
▁involv	-11.0619
▁attach	-11.062
▁crow	-11.0641
▁creep	-11.0643
▁extreme	-11.0655
▁sittin	-11.0661
▁cloth	-11.0662
▁kiddin	-11.0662
▁isabel	-11.0663
▁counsel	-11.0664
▁investigati	-11.0664
▁dol	-11.0665
▁audit	-11.0666
▁makin	-11.0666
▁brut	-11.0667
▁aggressive	-11.0671
▁alligator	-11.0671
▁amphiaraus	-11.0671
▁analysis	-11.0671
▁anarchy	-11.0671
▁annoying	-11.0671
▁anonymous	-11.0671
▁antwine	-11.0671
▁apologise	-11.0671
▁application	-11.0671
▁argument	-11.0671
▁athens	-11.0671
▁atmosphere	-11.0671
▁awkward	-11.0671
▁baxter	-11.0671
▁beaucoup	-11.0671
▁boulot	-11.0671
▁brannen	-11.0671
▁britney	-11.0671
▁brooklyn	-11.0671
▁bubble	-11.0671
▁casino	-11.0671
▁celebration	-11.0671
▁circuit	-11.0671
▁commercial	-11.0671
▁commotion	-11.0671
▁compound	-11.0671
▁confusion	-11.0671
▁consistent	-11.0671
▁constitution	-11.0671
▁cufflink	-11.0671
▁devastat	-11.0671
▁easily	-11.0671
▁elizabeth	-11.0671
▁embrace	-11.0671
▁exclusive	-11.0671
▁fortunate	-11.0671
▁gabriel	-11.0671
▁ghetto	-11.0671
▁gibberish	-11.0671
▁graphic	-11.0671
▁gravity	-11.0671
▁hawaii	-11.0671
▁hubermann	-11.0671
▁hydra	-11.0671
▁incompeten	-11.0671
▁instructions	-11.0671
▁invasion	-11.0671
▁investigate	-11.0671
▁invitation	-11.0671
▁kidnapping	-11.0671
▁kotler	-11.0671
▁lamarque	-11.0671
▁malfunction	-11.0671
▁meilleur	-11.0671
▁memorial	-11.0671
▁mississippi	-11.0671
▁outstanding	-11.0671
▁pacifi	-11.0671
▁petrified	-11.0671
▁province	-11.0671
▁purchase	-11.0671
▁radiation	-11.0671
▁refrigerator	-11.0671
▁rustling	-11.0671
▁selected	-11.0671
▁shrieking	-11.0671
▁similar	-11.0671
▁splash	-11.0671
▁squawking	-11.0671
▁stereo	-11.0671
▁succeed	-11.0671
▁survival	-11.0671
▁surviving	-11.0671
▁switchblade	-11.0671
▁tiffany	-11.0671
▁toxic	-11.0671
▁undercover	-11.0671
▁valuable	-11.0671
▁vegetables	-11.0671
▁vietnam	-11.0671
▁vitamin	-11.0671
▁watermelon	-11.0671
▁wizard	-11.0671
▁allergic	-11.0671
▁average	-11.0671
▁examination	-11.0671
▁fluffy	-11.0671
▁infection	-11.0671
▁jadore	-11.0671
▁kiran	-11.0671
▁kuchi	-11.0671
▁mourir	-11.0671
▁patriot	-11.0671
▁policy	-11.0671
▁pookie	-11.0671
▁promotion	-11.0671
▁rouge	-11.0671
▁savior	-11.0671
▁spidey	-11.0671
▁suitcase	-11.0671
▁summon	-11.0671
▁supplie	-11.0671
▁surgeon	-11.0671
▁travail	-11.0671
▁velvet	-11.0671
▁voicemail	-11.0671
▁voiture	-11.0671
▁waltz	-11.0671
▁withdraw	-11.0671
▁adapt	-11.0671
▁bureau	-11.0671
▁diagnos	-11.0671
▁dobler	-11.0671
▁evelyn	-11.0671
▁google	-11.0671
▁hollow	-11.0671
▁mashido	-11.0671
▁monarch	-11.0671
▁rainbow	-11.0671
▁riddick	-11.0671
▁snitch	-11.0671
▁southwest	-11.0671
▁trouper	-11.0671
▁venture	-11.0671
▁album	-11.0671
▁radical	-11.0671
▁excess	-11.0671
▁kroll	-11.0671
▁tyres	-11.0671
▁cocoon	-11.0671
▁kayla	-11.0671
▁leather	-11.0671
▁lecture	-11.0671
▁vocal	-11.0671
▁widow	-11.0671
▁circus	-11.0671
▁clasky	-11.0671
▁cruel	-11.0671
▁gaze	-11.0671
▁gelé	-11.0671
▁smuggl	-11.0671
▁stacy	-11.0671
▁conquer	-11.0671
▁domestic	-11.0671
▁mundi	-11.0671
▁présent	-11.0671
▁butterfly	-11.0671
▁haircut	-11.0671
▁natalie	-11.0671
▁ringtone	-11.0671
▁été	-11.0671
▁lagoon	-11.0671
▁divide	-11.0671
▁doomed	-11.0671
▁gaby	-11.0671
▁karl	-11.0671
▁sushi	-11.0671
▁angei	-11.0671
▁clanks	-11.0671
▁debbie	-11.0671
between	-11.0671
▁session	-11.0671
▁battery	-11.0671
▁purse	-11.0671
▁habit	-11.0671
▁yummy	-11.0671
▁improve	-11.0671
▁derek	-11.0671
▁narrow	-11.0671
▁scumbag	-11.0671
▁theories	-11.0671
▁berry	-11.0671
▁carolina	-11.0671
▁rustle	-11.0671
▁entry	-11.0671
▁transferred	-11.0671
▁brakes	-11.0671
plicate	-11.0671
▁iost	-11.0671
▁sensation	-11.0671
▁kiddies	-11.0671
▁info	-11.0671
▁leaf	-11.0671
▁terra	-11.0671
▁physi	-11.0671
▁grabbed	-11.0671
▁gollum	-11.0672
▁chores	-11.0672
▁series	-11.0672
▁praise	-11.0672
▁yank	-11.0672
halos	-11.0672
▁moorer	-11.0672
▁roast	-11.0672
▁fellowship	-11.0672
▁mankind	-11.0672
▁slipping	-11.0672
▁aggie	-11.0672
▁mec	-11.0672
▁addict	-11.0672
▁owned	-11.0672
▁imperial	-11.0672
▁playoffs	-11.0672
▁stadium	-11.0672
▁defy	-11.0672
▁logical	-11.0672
▁liiiy	-11.0672
▁moans	-11.0673
▁weed	-11.0673
▁dummy	-11.0673
▁vivian	-11.0673
▁hisses	-11.0673
▁honour	-11.0673
▁vanilla	-11.0673
▁idol	-11.0673
▁copyright	-11.0673
▁latin	-11.0673
▁formula	-11.0674
▁pride	-11.0674
▁hesitate	-11.0674
▁deployment	-11.0674
▁viens	-11.0674
▁jamais	-11.0674
▁drama	-11.0674
▁chopper	-11.0674
▁nerd	-11.0674
▁pepper	-11.0674
▁bleat	-11.0674
▁obey	-11.0674
▁sparr	-11.0674
▁bailey	-11.0674
▁denial	-11.0674
▁jewish	-11.0675
▁stressful	-11.0675
▁sonya	-11.0675
▁bolster	-11.0675
▁humble	-11.0675
▁audition	-11.0676
▁questce	-11.0676
▁bucket	-11.0676
▁dragging	-11.0676
azar	-11.0676
▁delightful	-11.0676
▁dwell	-11.0676
▁ethic	-11.0676
▁maze	-11.0676
▁melted	-11.0676
▁wives	-11.0677
▁crank	-11.0677
▁harmless	-11.0677
▁brick	-11.0677
▁saddle	-11.0677
▁avant	-11.0677
▁proposal	-11.0677
▁noble	-11.0678
▁loyalty	-11.0678
▁piay	-11.0678
▁whipped	-11.0678
▁elder	-11.0678
▁maxwell	-11.0678
▁diary	-11.0678
▁grain	-11.0679
▁height	-11.0679
▁confession	-11.0679
▁appearance	-11.0679
▁juan	-11.068
▁stack	-11.068
▁production	-11.068
▁stiff	-11.068
▁jenna	-11.0681
▁ratings	-11.0681
▁alberta	-11.0682
▁groove	-11.0682
▁soda	-11.0682
▁silk	-11.0682
▁luke	-11.0683
▁grownup	-11.0683
▁nearby	-11.0683
▁organic	-11.0684
▁wiry	-11.0684
▁exhausted	-11.0684
▁monde	-11.0685
▁stain	-11.0685
door	-11.0685
▁debate	-11.0685
▁spitting	-11.0686
▁dutch	-11.0686
▁frustrating	-11.0686
▁suggestion	-11.0686
▁copies	-11.0687
▁ego	-11.0688
▁inches	-11.069
▁comprend	-11.0691
grams	-11.0691
▁whiie	-11.0692
▁boil	-11.0692
▁stepped	-11.0692
▁possession	-11.0693
tom	-11.0693
▁raid	-11.0694
▁notion	-11.0694
▁crop	-11.0695
▁manual	-11.0695
▁claw	-11.0695
quand	-11.0696
▁joan	-11.0696
rational	-11.0696
▁squeaking	-11.0697
▁quitting	-11.0697
▁buff	-11.0698
▁maxson	-11.0698
▁buzzes	-11.0699
▁danielle	-11.0699
▁guardian	-11.0699
▁receiver	-11.07
▁ahem	-11.0701
▁hera	-11.0701
▁truce	-11.0703
▁iate	-11.0704
▁overse	-11.0705
▁hoid	-11.0706
▁taunting	-11.0707
▁quant	-11.0709
▁media	-11.071
▁galen	-11.0711
▁mustard	-11.0711
ummy	-11.0713
▁emotionally	-11.0715
▁bracer	-11.0717
▁oliver	-11.072
teau	-11.0722
▁crashes	-11.0722
mmies	-11.073
▁ww	-11.073
▁seventh	-11.0732
▁endure	-11.0738
apar	-11.0738
▁bess	-11.0741
▁hotter	-11.0742
▁ew	-11.0742
▁punches	-11.0742
▁surf	-11.0745
▁recruiter	-11.0746
domina	-11.0748
▁topic	-11.0752
▁tele	-11.0755
▁cass	-11.0756
▁yea	-11.0759
▁roboto	-11.0763
▁drawn	-11.0766
▁commissioner	-11.077
▁condo	-11.0772
▁volt	-11.0773
▁structure	-11.0782
▁bridget	-11.0783
▁publisher	-11.0785
▁dug	-11.0793
▁lane	-11.0795
▁poo	-11.0804
▁rewrite	-11.0811
stful	-11.084
▁devi	-11.0845
▁curl	-11.0885
urne	-11.0912
apo	-11.0913
▁statu	-11.0944
▁this	-11.0978
▁liz	-11.1022
▁identifi	-11.1099
how	-11.1202
▁provid	-11.1219
▁deduc	-11.1275
rious	-11.1299
active	-11.13
ulia	-11.1375
▁superb	-11.14
▁mint	-11.1418
▁clap	-11.1432
rapping	-11.1447
▁dag	-11.1574
licit	-11.1626
cular	-11.1654
▁fric	-11.1707
atomic	-11.1728
enez	-11.1796
havin	-11.1806
pense	-11.1811
grat	-11.1817
rock	-11.1859
▁heath	-11.1887
mart	-11.2016
▁scientist	-11.2016
▁troop	-11.2031
ystic	-11.2043
state	-11.2072
turn	-11.2077
oye	-11.2087
▁magnet	-11.2203
sexual	-11.2274
quil	-11.2275
natural	-11.2275
weather	-11.2275
thats	-11.2276
fighting	-11.2276
power	-11.2276
free	-11.2277
burn	-11.2278
▁olive	-11.228
▁clip	-11.2283
making	-11.229
▁approve	-11.2294
▁compromise	-11.2294
speed	-11.2301
▁earl	-11.2303
▁profession	-11.2304
▁chart	-11.2318
▁constant	-11.2321
▁india	-11.2324
▁extensi	-11.2327
▁inspect	-11.2331
était	-11.2334
▁terror	-11.2334
▁entertain	-11.2335
▁discre	-11.2336
▁sheii	-11.2336
▁congratulat	-11.2337
▁forbid	-11.2337
▁squi	-11.2337
▁eff	-11.2337
▁accompany	-11.2337
▁fulfill	-11.2337
▁mmmmmm	-11.2337
▁neigh	-11.2337
▁overwhelm	-11.2337
▁trespass	-11.2337
ijuana	-11.2337
intellectual	-11.2337
neutral	-11.2337
nstagram	-11.2337
ourgeois	-11.2337
responsibilities	-11.2337
▁accordion	-11.2337
▁acknowledge	-11.2337
▁advisor	-11.2337
▁afghanistan	-11.2337
▁ambassador	-11.2337
▁appetite	-11.2337
▁bonjour	-11.2337
▁borovsky	-11.2337
▁bouncing	-11.2337
▁bourbon	-11.2337
▁cassandra	-11.2337
▁caterpillar	-11.2337
▁centaurs	-11.2337
▁centerfoid	-11.2337
▁cepacia	-11.2337
▁certificate	-11.2337
▁cheerleader	-11.2337
▁cigarette	-11.2337
▁coconut	-11.2337
▁conclusion	-11.2337
▁concrete	-11.2337
▁congress	-11.2337
▁consequence	-11.2337
▁cuisine	-11.2337
▁deactivate	-11.2337
▁dehydrat	-11.2337
▁delicious	-11.2337
▁determined	-11.2337
▁diploma	-11.2337
▁diversion	-11.2337
▁educated	-11.2337
▁eleven	-11.2337
▁encrypt	-11.2337
▁envelope	-11.2337
▁erebor	-11.2337
▁essential	-11.2337
▁execution	-11.2337
▁exhibit	-11.2337
▁exwife	-11.2337
▁fascinat	-11.2337
▁feather	-11.2337
▁february	-11.2337
▁fiancé	-11.2337
▁gefilte	-11.2337
▁glaeser	-11.2337
▁glorious	-11.2337
▁grandkids	-11.2337
▁gratitude	-11.2337
▁grigio	-11.2337
▁groceries	-11.2337
▁handkerchief	-11.2337
▁inconvenien	-11.2337
▁ingredient	-11.2337
▁institute	-11.2337
▁integr	-11.2337
▁intelligent	-11.2337
▁interpol	-11.2337
▁intimate	-11.2337
▁jeremy	-11.2337
▁jukebox	-11.2337
▁karaoke	-11.2337
▁kidnapped	-11.2337
▁lambassadeur	-11.2337
▁liquid	-11.2337
▁maintenance	-11.2337
▁majesty	-11.2337
▁mannequin	-11.2337
▁manufactur	-11.2337
▁maurice	-11.2337
▁mendelson	-11.2337
▁mercenar	-11.2337
▁merrick	-11.2337
▁messenger	-11.2337
▁metaphor	-11.2337
▁michigan	-11.2337
▁mildred	-11.2337
▁mosquito	-11.2337
▁motorcycle	-11.2337
▁observe	-11.2337
▁oldfashioned	-11.2337
▁olympic	-11.2337
▁olympus	-11.2337
▁oracle	-11.2337
▁orbit	-11.2337
▁orchestra	-11.2337
▁outbreak	-11.2337
▁outnumber	-11.2337
▁overnight	-11.2337
▁perfume	-11.2337
▁pirates	-11.2337
▁precautions	-11.2337
▁precursors	-11.2337
▁pronounce	-11.2337
▁rebuil	-11.2337
▁reconsider	-11.2337
▁reservation	-11.2337
▁roaches	-11.2337
▁roosevelt	-11.2337
▁schmidt	-11.2337
▁shakespeare	-11.2337
▁shanghai	-11.2337
▁singapore	-11.2337
▁smaug	-11.2337
▁snarling	-11.2337
▁snickering	-11.2337
▁sniffling	-11.2337
▁snoopy	-11.2337
▁stawicki	-11.2337
▁stephanie	-11.2337
▁stewardess	-11.2337
▁stimulate	-11.2337
▁struggling	-11.2337
▁stuart	-11.2337
▁suntribune	-11.2337
▁swift	-11.2337
▁tauriel	-11.2337
▁totaiiy	-11.2337
▁transplant	-11.2337
▁tremendous	-11.2337
▁triumphant	-11.2337
▁tshirt	-11.2337
▁tyrann	-11.2337
▁ufo	-11.2337
▁unfair	-11.2337
▁veteran	-11.2337
▁wheelchair	-11.2337
▁whichever	-11.2337
▁wyantwheeler	-11.2337
▁xibalba	-11.2337
▁zelda	-11.2337
registered	-11.2337
▁afterwards	-11.2337
▁auction	-11.2337
▁authorized	-11.2337
▁behalf	-11.2337
▁bennett	-11.2337
▁bikini	-11.2337
▁blares	-11.2337
▁blaze	-11.2337
▁blueberry	-11.2337
▁draft	-11.2337
▁elbow	-11.2337
▁enlighten	-11.2337
▁franz	-11.2337
▁hobby	-11.2337
▁houston	-11.2337
▁indicate	-11.2337
▁irrelevant	-11.2337
▁josef	-11.2337
▁mandarin	-11.2337
▁ministry	-11.2337
▁miriam	-11.2337
▁neckbone	-11.2337
▁nigga	-11.2337
▁refresh	-11.2337
▁reputation	-11.2337
▁rubbish	-11.2337
▁saign	-11.2337
▁sidekick	-11.2337
▁symbol	-11.2337
▁worship	-11.2337
▁batteries	-11.2337
▁brazil	-11.2337
▁crisis	-11.2337
▁forehead	-11.2337
▁harbor	-11.2337
▁homeostas	-11.2337
▁mamma	-11.2337
▁picard	-11.2337
▁postcard	-11.2337
▁scotch	-11.2337
▁senator	-11.2337
▁trading	-11.2337
▁unleash	-11.2337
▁wrath	-11.2337
▁café	-11.2337
▁eliminate	-11.2337
▁farewell	-11.2337
▁fortress	-11.2337
▁heiio	-11.2337
▁horror	-11.2337
▁juicy	-11.2337
▁koba	-11.2337
▁lesbian	-11.2337
▁pencil	-11.2337
▁premier	-11.2337
▁raynell	-11.2337
▁relieve	-11.2337
▁waffle	-11.2337
▁whittle	-11.2337
▁beetee	-11.2337
▁clucking	-11.2337
▁dencre	-11.2337
▁flattered	-11.2337
▁granger	-11.2337
▁grape	-11.2337
▁identity	-11.2337
▁permit	-11.2337
▁seventeen	-11.2337
▁tolan	-11.2337
equinox	-11.2337
▁hiphop	-11.2337
▁nineteen	-11.2337
▁wendy	-11.2337
▁buddha	-11.2337
▁generous	-11.2337
▁polish	-11.2337
▁smack	-11.2337
▁strand	-11.2337
▁couch	-11.2337
▁defence	-11.2337
▁imagina	-11.2337
▁protein	-11.2337
▁stirr	-11.2337
▁vicky	-11.2337
▁after	-11.2337
▁bulb	-11.2337
▁coffin	-11.2337
qualified	-11.2338
▁eager	-11.2338
▁howre	-11.2338
▁judging	-11.2338
▁vagina	-11.2338
▁testicle	-11.2338
▁canyon	-11.2338
▁graz	-11.2338
▁sabres	-11.2338
▁fisherman	-11.2338
▁scrambl	-11.2338
▁panicked	-11.2338
▁ernest	-11.2338
▁cancer	-11.2338
▁flirt	-11.2338
▁ostin	-11.2338
▁skipping	-11.2338
▁embee	-11.2338
▁adore	-11.2338
▁heap	-11.2338
▁possum	-11.2338
▁bugger	-11.2338
▁unison	-11.2338
▁arab	-11.2338
▁dorm	-11.2338
▁density	-11.2338
▁flare	-11.2338
▁envy	-11.2338
▁impression	-11.2338
▁scholarship	-11.2338
▁referr	-11.2338
▁waik	-11.2338
▁bulk	-11.2338
▁eject	-11.2338
▁fuji	-11.2338
▁bosco	-11.2338
compression	-11.2338
▁levier	-11.2338
▁iran	-11.2338
▁tennis	-11.2338
▁bliss	-11.2338
▁innovati	-11.2338
miguel	-11.2338
▁yyou	-11.2338
▁parole	-11.2338
▁rodin	-11.2338
▁twirl	-11.2338
▁denied	-11.2338
▁raven	-11.2338
ucius	-11.2338
▁sharing	-11.2338
▁bcd	-11.2338
▁conserv	-11.2338
▁frapp	-11.2338
▁canada	-11.2339
▁babysitter	-11.2339
▁innoc	-11.2339
▁porch	-11.2339
▁sororit	-11.2339
▁jingle	-11.2339
▁derni	-11.2339
▁donald	-11.2339
▁specifically	-11.2339
▁eternal	-11.2339
▁hippo	-11.2339
▁upside	-11.2339
▁subtle	-11.2339
▁isolat	-11.234
▁kitten	-11.234
▁karen	-11.234
▁hypocrite	-11.234
▁predict	-11.234
▁automati	-11.234
document	-11.234
▁elvis	-11.234
▁republican	-11.234
▁entertainment	-11.234
▁goose	-11.234
▁commod	-11.234
▁remarkable	-11.234
▁trembl	-11.234
▁occasionally	-11.234
▁gogh	-11.234
▁elementary	-11.2341
▁veal	-11.2341
▁bluff	-11.2341
▁scanner	-11.2341
▁prank	-11.2341
▁tropic	-11.2341
author	-11.2341
▁retirement	-11.2341
▁khan	-11.2341
▁inbound	-11.2341
hour	-11.2341
▁shipping	-11.2341
▁blah	-11.2341
▁villa	-11.2342
▁salary	-11.2342
▁exactiy	-11.2342
▁donate	-11.2342
▁whack	-11.2342
▁arise	-11.2343
osette	-11.2343
▁quot	-11.2343
▁starboard	-11.2343
▁tubab	-11.2343
▁recent	-11.2343
▁starlight	-11.2344
▁repay	-11.2344
▁keyboard	-11.2344
▁assembl	-11.2344
▁fright	-11.2345
▁cheerio	-11.2345
▁breakthrough	-11.2345
▁liking	-11.2345
▁spill	-11.2346
▁belongings	-11.2346
▁lauren	-11.2346
▁facebook	-11.2346
alvin	-11.2346
▁mainland	-11.2347
▁gruff	-11.2347
▁loop	-11.2347
▁precisely	-11.2348
▁homeiess	-11.2348
▁scam	-11.2348
▁wore	-11.2348
▁reese	-11.2349
▁scottish	-11.2349
▁phonebook	-11.2349
▁jewelry	-11.2349
▁dougie	-11.2349
▁kink	-11.2349
▁scum	-11.2349
▁eise	-11.235
▁kenne	-11.235
lette	-11.235
▁disappearance	-11.235
▁stash	-11.2351
▁circula	-11.2351
trude	-11.2351
▁panel	-11.2351
▁activation	-11.2351
▁indian	-11.2352
▁flav	-11.2352
▁donor	-11.2352
▁savoir	-11.2352
▁shiver	-11.2352
▁shack	-11.2353
▁pierce	-11.2354
▁ether	-11.2354
▁scoo	-11.2355
▁probl	-11.2355
▁jock	-11.2356
▁regional	-11.2356
▁nuke	-11.2357
▁fax	-11.2357
▁iater	-11.2357
▁huit	-11.2358
▁kneel	-11.2359
▁hence	-11.236
▁margo	-11.236
▁wax	-11.236
▁personnel	-11.236
▁chump	-11.2361
▁deput	-11.2361
▁foodland	-11.2361
▁item	-11.2362
▁genre	-11.2363
▁monet	-11.2364
▁baskin	-11.2365
▁janet	-11.2365
▁jesse	-11.2366
▁rail	-11.2369
▁pré	-11.237
▁marco	-11.2371
▁warmth	-11.2372
▁sandwiches	-11.2373
▁heroic	-11.2377
▁serai	-11.2379
▁creo	-11.2379
▁anthe	-11.238
▁cret	-11.2382
▁gem	-11.2383
▁tutor	-11.2383
▁mentor	-11.2393
▁slug	-11.2395
▁bonus	-11.2395
▁unclear	-11.2408
maniac	-11.2413
▁junkie	-11.2416
lexing	-11.242
ador	-11.242
prends	-11.2429
▁ivan	-11.2432
▁geek	-11.2443
▁rewrit	-11.2444
▁pole	-11.2466
should	-11.247
▁astr	-11.2473
▁challeng	-11.249
▁traditional	-11.2503
▁initiat	-11.2564
hair	-11.2574
▁medal	-11.2575
wipe	-11.2591
prompt	-11.2636
fram	-11.2645
▁aspe	-11.2685
▁humm	-11.2739
step	-11.2746
▁cult	-11.2803
cette	-11.2907
tendu	-11.2915
▁macho	-11.2944
▁introduc	-11.2954
▁laisser	-11.2985
▁edit	-11.3054
kha	-11.3055
cinq	-11.3092
tempo	-11.311
▁avai	-11.3232
lake	-11.3272
▁poet	-11.3293
talk	-11.3385
ecks	-11.3452
▁declar	-11.3494
lico	-11.3511
bab	-11.359
▁reins	-11.3691
▁peaceful	-11.3855
ji	-11.386
melting	-11.3867
▁sigh	-11.3929
▁cough	-11.3962
uvre	-11.3991
▁piedge	-11.4014
▁hostage	-11.4028
agging	-11.4049
etically	-11.4156
▁creat	-11.4169
ternal	-11.4171
uttering	-11.4191
▁commission	-11.4195
▁plea	-11.4201
▁structur	-11.4216
▁irre	-11.4219
minded	-11.4242
▁decid	-11.4262
▁garde	-11.4265
cream	-11.4268
bound	-11.4269
woman	-11.427
▁underwa	-11.4271
guard	-11.4272
▁strain	-11.4272
reader	-11.4274
world	-11.4276
minute	-11.4276
found	-11.4276
string	-11.4281
▁propos	-11.4284
▁obsess	-11.4284
▁excite	-11.4293
▁avenge	-11.4298
▁filth	-11.431
▁numb	-11.4311
▁terribl	-11.4311
enchman	-11.4317
▁practical	-11.4322
▁raisin	-11.4326
▁mechanic	-11.4328
▁wilkins	-11.4331
▁compass	-11.4335
▁immortal	-11.4335
▁compli	-11.4335
▁remark	-11.4335
ization	-11.4337
▁russell	-11.4337
▁arrange	-11.4337
▁occur	-11.4337
▁reinforce	-11.4337
▁equi	-11.4337
construct	-11.4337
▁sculpt	-11.4337
▁sophisticat	-11.4337
▁intimidat	-11.4337
alignment	-11.4337
blooded	-11.4337
competitive	-11.4337
misunderstanding	-11.4337
pocalypse	-11.4337
▁abraham	-11.4337
▁absorb	-11.4337
▁accurate	-11.4337
▁acquire	-11.4337
▁activities	-11.4337
▁adamantium	-11.4337
▁administration	-11.4337
▁advertising	-11.4337
▁almighty	-11.4337
▁antibiotics	-11.4337
▁anxiety	-11.4337
▁applebees	-11.4337
▁arizona	-11.4337
▁atlanta	-11.4337
▁autolycus	-11.4337
▁bartender	-11.4337
▁bladder	-11.4337
▁blonde	-11.4337
▁bohemia	-11.4337
▁cammie	-11.4337
▁charging	-11.4337
▁cheesy	-11.4337
▁collapsing	-11.4337
▁companies	-11.4337
▁conclude	-11.4337
▁condemned	-11.4337
▁contender	-11.4337
▁copilot	-11.4337
▁crawford	-11.4337
▁cuckoo	-11.4337
▁database	-11.4337
▁democracy	-11.4337
▁deutscher	-11.4337
▁diabetic	-11.4337
▁dorothy	-11.4337
▁duckhunting	-11.4337
▁dummkopf	-11.4337
▁earthquake	-11.4337
▁eduard	-11.4337
▁elephant	-11.4337
▁encounter	-11.4337
▁eusebios	-11.4337
▁evolution	-11.4337
▁execute	-11.4337
▁exhusband	-11.4337
▁fanfare	-11.4337
▁fellgiebel	-11.4337
▁fugitive	-11.4337
▁fundraiser	-11.4337
▁ginoux	-11.4337
▁girifriend	-11.4337
▁godforsaken	-11.4337
▁gottschalk	-11.4337
▁greasy	-11.4337
▁gulliver	-11.4337
▁hamburger	-11.4337
▁hehhehheh	-11.4337
▁hispanic	-11.4337
▁hmmmmm	-11.4337
▁humiliating	-11.4337
▁iadies	-11.4337
▁ignacio	-11.4337
▁independence	-11.4337
▁interference	-11.4337
▁interrogation	-11.4337
▁iraq	-11.4337
▁janitor	-11.4337
▁knives	-11.4337
▁kommandant	-11.4337
▁ladresse	-11.4337
▁landscape	-11.4337
▁lenihan	-11.4337
▁liquor	-11.4337
▁literature	-11.4337
▁luggage	-11.4337
▁lunatic	-11.4337
▁luxury	-11.4337
▁mahimahi	-11.4337
▁maintenant	-11.4337
▁manifest	-11.4337
▁marvelous	-11.4337
▁masturbat	-11.4337
▁matisse	-11.4337
▁mechanism	-11.4337
▁mediocre	-11.4337
▁merchant	-11.4337
▁mockingjay	-11.4337
▁motivation	-11.4337
▁napoleon	-11.4337
▁negotiate	-11.4337
▁neighbour	-11.4337
▁nitrous	-11.4337
▁nowadays	-11.4337
▁négatif	-11.4337
▁oakland	-11.4337
▁obstacle	-11.4337
▁obstruct	-11.4337
▁october	-11.4337
▁opponent	-11.4337
▁orlando	-11.4337
▁pakistan	-11.4337
▁perspective	-11.4337
▁pingpong	-11.4337
▁plutarch	-11.4337
▁poseidon	-11.4337
▁potatoes	-11.4337
▁prejudice	-11.4337
▁presumably	-11.4337
▁primitive	-11.4337
▁principal	-11.4337
▁prophet	-11.4337
▁pyjamas	-11.4337
▁regimen	-11.4337
▁regulator	-11.4337
▁religion	-11.4337
▁resurrection	-11.4337
▁rhino	-11.4337
▁ritual	-11.4337
▁satisfaction	-11.4337
▁script	-11.4337
▁seatbelt	-11.4337
▁silhouette	-11.4337
▁specimen	-11.4337
▁strangle	-11.4337
▁sufficient	-11.4337
▁suicidal	-11.4337
▁supérieure	-11.4337
▁switzerland	-11.4337
▁sylvia	-11.4337
▁technologies	-11.4337
▁therapy	-11.4337
▁thermal	-11.4337
▁thread	-11.4337
▁thunderclap	-11.4337
▁transmission	-11.4337
▁trickortreat	-11.4337
▁tumbleweed	-11.4337
▁underestimate	-11.4337
▁unnecessary	-11.4337
▁versailles	-11.4337
▁vibration	-11.4337
▁vicinity	-11.4337
▁volatile	-11.4337
▁vonnegut	-11.4337
▁vulnerable	-11.4337
▁wednesday	-11.4337
▁whatsoever	-11.4337
▁whittaker	-11.4337
▁windshield	-11.4337
▁yield	-11.4337
▁zoologist	-11.4337
▁accusation	-11.4337
▁appointed	-11.4337
▁aztec	-11.4337
▁belief	-11.4337
▁canvas	-11.4337
▁dammit	-11.4337
▁descend	-11.4337
▁flicker	-11.4337
▁globe	-11.4337
▁greece	-11.4337
▁identify	-11.4337
▁jericho	-11.4337
▁junebug	-11.4337
▁kosher	-11.4337
▁maclean	-11.4337
▁ninja	-11.4337
▁nonstop	-11.4337
▁ostrich	-11.4337
▁paxton	-11.4337
▁pithom	-11.4337
▁pudding	-11.4337
▁rhyme	-11.4337
▁salvation	-11.4337
▁stallion	-11.4337
▁teacup	-11.4337
▁thorough	-11.4337
▁undercard	-11.4337
▁vessel	-11.4337
▁virtual	-11.4337
▁adios	-11.4337
▁ahhaha	-11.4337
▁amateur	-11.4337
▁aspic	-11.4337
▁caveman	-11.4337
▁celui	-11.4337
▁definit	-11.4337
▁ewwy	-11.4337
▁gunfire	-11.4337
▁henley	-11.4337
▁imagining	-11.4337
▁invade	-11.4337
▁javelin	-11.4337
▁knack	-11.4337
▁koushik	-11.4337
▁merger	-11.4337
▁stroke	-11.4337
▁toujours	-11.4337
▁triads	-11.4337
▁yeeee	-11.4337
▁ahooh	-11.4337
▁dautre	-11.4337
▁fiction	-11.4337
▁legacy	-11.4337
▁osbo	-11.4337
▁outcome	-11.4337
▁raylene	-11.4337
▁recepti	-11.4337
▁reliable	-11.4337
▁restrict	-11.4337
▁ricard	-11.4337
▁salmon	-11.4337
▁sheep	-11.4337
▁capital	-11.4337
▁centuri	-11.4337
▁clutch	-11.4337
▁cullen	-11.4337
▁devot	-11.4337
▁sponge	-11.4337
▁sprinkle	-11.4337
▁wiggl	-11.4337
▁devrai	-11.4337
▁dilio	-11.4337
▁détend	-11.4337
▁juiie	-11.4337
▁maddox	-11.4337
▁monument	-11.4337
▁nouvelle	-11.4337
▁outrage	-11.4337
▁kopi	-11.4337
▁whereabouts	-11.4337
▁amaze	-11.4337
▁bogey	-11.4337
▁choosing	-11.4337
▁dillon	-11.4337
▁expired	-11.4337
▁filter	-11.4337
▁muhammad	-11.4337
▁tofu	-11.4337
▁vanished	-11.4337
▁viceroy	-11.4337
▁worid	-11.4337
▁aaah	-11.4337
▁cruisin	-11.4337
▁penetrate	-11.4337
▁toppings	-11.4337
▁eliot	-11.4337
▁munch	-11.4337
▁antony	-11.4338
▁bentley	-11.4338
▁whew	-11.4338
▁retrouv	-11.4338
▁bueno	-11.4338
▁hamid	-11.4338
▁keller	-11.4338
▁zach	-11.4338
étais	-11.4338
▁cyber	-11.4338
▁lewis	-11.4338
▁raison	-11.4338
▁realistic	-11.4338
▁shaft	-11.4338
▁studied	-11.4338
▁wyant	-11.4338
▁flaw	-11.4338
▁horace	-11.4338
▁overhear	-11.4338
▁scandal	-11.4338
▁fonz	-11.4338
▁hittite	-11.4338
▁hardworking	-11.4338
▁rigged	-11.4338
▁whooshing	-11.4338
▁noticing	-11.4338
▁reduce	-11.4338
▁diaper	-11.4338
▁oubli	-11.4338
▁exceed	-11.4338
▁radar	-11.4338
▁patrol	-11.4338
▁theatr	-11.4338
▁finance	-11.4338
▁andand	-11.4338
▁bloom	-11.4338
▁cmon	-11.4338
▁platts	-11.4338
▁harvest	-11.4338
▁congratuiations	-11.4338
▁crane	-11.4338
▁brew	-11.4338
▁ahmet	-11.4338
▁grip	-11.4338
▁urine	-11.4338
▁nedry	-11.4338
▁backbone	-11.4338
▁blueprints	-11.4338
▁unreal	-11.4338
▁marcy	-11.4338
▁valor	-11.4338
▁crappy	-11.4338
▁ghostwriter	-11.4338
▁slot	-11.4338
▁christina	-11.4338
▁pinned	-11.4338
▁carbon	-11.4338
▁depth	-11.4338
▁crisp	-11.4338
▁microphone	-11.4338
▁faii	-11.4338
utilise	-11.4338
▁chrys	-11.4338
▁townsend	-11.4338
▁risd	-11.4338
▁provo	-11.4338
▁cruci	-11.4338
▁mistress	-11.4338
▁clerk	-11.4338
▁thresh	-11.4338
▁kearney	-11.4338
▁strippers	-11.4339
▁bamba	-11.4339
▁carrot	-11.4339
▁independent	-11.4339
▁influen	-11.4339
▁restored	-11.4339
▁lethal	-11.4339
▁fumble	-11.4339
erreur	-11.4339
▁discrimination	-11.4339
▁stepping	-11.4339
▁biological	-11.4339
▁bummer	-11.4339
▁melodi	-11.434
▁perdu	-11.434
▁banner	-11.434
▁mako	-11.434
▁beware	-11.434
▁behold	-11.434
▁shaky	-11.434
▁poetry	-11.434
▁tension	-11.434
▁meaningless	-11.434
▁finai	-11.4341
▁gender	-11.4341
▁underwater	-11.4341
▁bodyguard	-11.4341
▁pipeline	-11.4341
bilities	-11.4341
▁booze	-11.4341
▁memo	-11.4341
▁whining	-11.4341
▁stubby	-11.4341
gencies	-11.4341
▁dynamic	-11.4342
▁establishment	-11.4342
▁discs	-11.4342
▁mieux	-11.4342
▁quun	-11.4342
▁classified	-11.4342
▁paui	-11.4342
▁meatball	-11.4342
▁degas	-11.4342
▁compassion	-11.4343
▁western	-11.4343
▁arrivé	-11.4343
▁holyfield	-11.4343
▁disappointment	-11.4343
▁kays	-11.4343
nvinci	-11.4343
▁texture	-11.4343
▁rebel	-11.4343
▁operating	-11.4344
▁expand	-11.4344
ember	-11.4344
▁decline	-11.4344
▁wilkinson	-11.4344
▁decade	-11.4345
▁punishment	-11.4345
▁passport	-11.4345
▁subway	-11.4345
▁kume	-11.4345
▁pavel	-11.4345
▁slick	-11.4345
sident	-11.4345
▁ralf	-11.4345
▁whisk	-11.4346
▁harness	-11.4346
▁owens	-11.4346
▁barbay	-11.4346
▁raving	-11.4346
▁delfi	-11.4347
locate	-11.4348
▁arles	-11.4348
▁jeering	-11.4348
▁iight	-11.4348
▁flap	-11.4348
▁courtroom	-11.4348
dolf	-11.4348
▁siide	-11.4348
▁ruies	-11.4348
acious	-11.4349
▁skinner	-11.4349
▁fond	-11.4349
▁vista	-11.4349
▁virginity	-11.4349
rift	-11.4349
▁manners	-11.435
▁bribe	-11.4351
▁rerun	-11.4351
▁ridge	-11.4351
▁peck	-11.4351
▁voto	-11.4352
▁hiring	-11.4352
▁pimp	-11.4353
▁plow	-11.4353
▁tense	-11.4353
▁penalt	-11.4354
▁perish	-11.4354
▁sober	-11.4354
▁grey	-11.4357
▁pony	-11.4357
▁vibe	-11.436
michel	-11.4361
▁alike	-11.4363
produc	-11.437
▁puke	-11.4371
therinlaw	-11.4374
hhhh	-11.4379
▁sizzl	-11.4419
▁shaki	-11.4432
▁arriv	-11.4462
reach	-11.448
▁generate	-11.4492
conceiv	-11.4521
▁minni	-11.4532
nual	-11.4643
mature	-11.4687
onald	-11.47
▁berm	-11.47
▁hottie	-11.4725
▁smok	-11.4746
▁overlook	-11.4788
ville	-11.4849
tangle	-11.4972
bach	-11.4982
▁reaiize	-11.4992
▁baisse	-11.5365
▁skippe	-11.5472
▁heavi	-11.5537
ccord	-11.5634
viva	-11.5686
fun	-11.5742
tempted	-11.5745
hart	-11.5964
pile	-11.6092
▁elli	-11.6095
versi	-11.6148
egar	-11.6198
otape	-11.6269
varia	-11.6394
▁pancake	-11.6514
▁hampton	-11.652
tynine	-11.6622
▁unloa	-11.6623
▁forgiv	-11.6625
winding	-11.6682
pente	-11.6726
izzle	-11.6733
magneti	-11.6765
known	-11.6769
▁taunt	-11.6772
legal	-11.6774
based	-11.6774
▁howl	-11.6774
judith	-11.6774
dollar	-11.6775
walk	-11.6775
service	-11.6776
third	-11.6776
water	-11.6776
ification	-11.6778
▁drip	-11.6784
▁snipe	-11.6805
glass	-11.6809
▁admi	-11.681
▁thirst	-11.681
▁cochran	-11.681
leigh	-11.6811
▁pleasur	-11.6811
▁probabi	-11.6813
▁shiv	-11.6814
▁mccart	-11.6815
▁precise	-11.6821
▁easie	-11.6822
▁leavin	-11.6827
▁mornin	-11.6827
▁dancin	-11.6827
▁critic	-11.6828
mmuniti	-11.683
▁horrib	-11.6831
▁republic	-11.6834
▁multi	-11.6834
addle	-11.6836
▁oppos	-11.6837
▁muhamm	-11.6837
relevant	-11.6837
▁adjourn	-11.6837
▁hallucinat	-11.6837
▁iearn	-11.6837
▁suspend	-11.6837
andahalf	-11.6837
époque	-11.6837
▁ablaze	-11.6837
▁absurd	-11.6837
▁accomplice	-11.6837
▁accumulat	-11.6837
▁admission	-11.6837
▁afflovest	-11.6837
▁ajax	-11.6837
▁alaska	-11.6837
▁allegedly	-11.6837
▁alsharif	-11.6837
▁altitude	-11.6837
▁amazon	-11.6837
▁anticipate	-11.6837
▁arguing	-11.6837
▁attrape	-11.6837
▁australia	-11.6837
▁autobiograph	-11.6837
▁avocado	-11.6837
▁axelrod	-11.6837
▁bandshell	-11.6837
▁barracks	-11.6837
▁benefactor	-11.6837
▁blankenship	-11.6837
▁blondie	-11.6837
▁brassart	-11.6837
▁briefcase	-11.6837
▁broccoli	-11.6837
▁bumbershoot	-11.6837
▁camille	-11.6837
▁carnival	-11.6837
▁ceramic	-11.6837
▁chardonnay	-11.6837
▁chimichanga	-11.6837
▁ciub	-11.6837
▁civic	-11.6837
▁cleopatra	-11.6837
▁closure	-11.6837
▁cockroach	-11.6837
▁connpod	-11.6837
▁conquistador	-11.6837
▁convincing	-11.6837
▁corporal	-11.6837
▁corrupt	-11.6837
▁cunning	-11.6837
▁curiosity	-11.6837
▁definiteiy	-11.6837
▁degenerate	-11.6837
▁disengage	-11.6837
▁dispatch	-11.6837
▁disposal	-11.6837
▁disrupt	-11.6837
▁enslave	-11.6837
▁everlasting	-11.6837
▁exaggerate	-11.6837
▁experiencing	-11.6837
▁felicia	-11.6837
▁fingernails	-11.6837
▁flapjack	-11.6837
▁frisky	-11.6837
▁gadget	-11.6837
▁gershom	-11.6837
▁gobbling	-11.6837
▁gourmandes	-11.6837
▁grandchildren	-11.6837
▁guldur	-11.6837
▁hatherton	-11.6837
▁heartbreak	-11.6837
▁hedgehog	-11.6837
▁holmes	-11.6837
▁hologram	-11.6837
▁hybrid	-11.6837
▁ignition	-11.6837
▁ignoring	-11.6837
▁imperfections	-11.6837
▁implant	-11.6837
▁indestructible	-11.6837
▁industry	-11.6837
▁inherit	-11.6837
▁intuition	-11.6837
▁jessica	-11.6837
▁jinhai	-11.6837
▁joshua	-11.6837
▁jumbo	-11.6837
▁kegger	-11.6837
▁keymaster	-11.6837
▁kuekuatsheu	-11.6837
▁laptop	-11.6837
▁lauderdale	-11.6837
▁lennox	-11.6837
▁lettuce	-11.6837
▁locutus	-11.6837
▁loneliness	-11.6837
▁madagascar	-11.6837
▁mademoiselle	-11.6837
▁maharaja	-11.6837
▁marietta	-11.6837
▁mccallister	-11.6837
▁mccleod	-11.6837
▁megapark	-11.6837
▁memphis	-11.6837
▁mercedes	-11.6837
▁messieurs	-11.6837
▁meticulous	-11.6837
▁mexican	-11.6837
▁microwave	-11.6837
▁miraculous	-11.6837
▁module	-11.6837
▁morocco	-11.6837
▁morphine	-11.6837
▁motherfucker	-11.6837
▁nerscylla	-11.6837
▁northwestern	-11.6837
▁nugget	-11.6837
▁oakenshield	-11.6837
▁odoyle	-11.6837
▁odyssey	-11.6837
▁onscreen	-11.6837
▁orchard	-11.6837
▁overcharge	-11.6837
▁overthrow	-11.6837
▁ozzy	-11.6837
▁pacoima	-11.6837
▁penguin	-11.6837
▁phiianthrop	-11.6837
▁picturing	-11.6837
▁pigfeet	-11.6837
▁poignées	-11.6837
▁popcorn	-11.6837
▁popuiar	-11.6837
▁previous	-11.6837
▁profitable	-11.6837
▁prospect	-11.6837
▁proximity	-11.6837
▁pubiish	-11.6837
▁quinlan	-11.6837
▁raijin	-11.6837
▁receptionist	-11.6837
▁reschedule	-11.6837
▁resolution	-11.6837
▁respirator	-11.6837
▁rifle	-11.6837
▁riker	-11.6837
▁rughead	-11.6837
▁sanctuar	-11.6837
▁satisfy	-11.6837
▁sciatic	-11.6837
▁selkirk	-11.6837
▁sensitivity	-11.6837
▁sentimental	-11.6837
▁shepherd	-11.6837
▁shrikethorn	-11.6837
▁sniffles	-11.6837
▁solemn	-11.6837
▁spaghetti	-11.6837
▁spandex	-11.6837
▁speciai	-11.6837
▁spectacle	-11.6837
▁strateg	-11.6837
▁subroutine	-11.6837
▁sullivan	-11.6837
▁supermarket	-11.6837
▁syrup	-11.6837
▁technician	-11.6837
▁theft	-11.6837
▁tobacco	-11.6837
▁tresckow	-11.6837
▁turbo	-11.6837
▁turkish	-11.6837
▁tweak	-11.6837
▁typical	-11.6837
▁unacceptable	-11.6837
▁undefeated	-11.6837
▁unemployed	-11.6837
▁usuaiiy	-11.6837
▁valenzuela	-11.6837
▁vegetati	-11.6837
▁velcro	-11.6837
▁veterinarian	-11.6837
▁vigilant	-11.6837
▁weeble	-11.6837
▁werewolf	-11.6837
▁wisdom	-11.6837
▁worries	-11.6837
▁xanax	-11.6837
▁babysitting	-11.6837
▁battalion	-11.6837
▁blackberry	-11.6837
▁calendar	-11.6837
▁contempt	-11.6837
▁cuddl	-11.6837
▁destined	-11.6837
▁diminish	-11.6837
▁dossier	-11.6837
▁genuine	-11.6837
▁gloria	-11.6837
▁hilarious	-11.6837
▁hitchhike	-11.6837
▁identical	-11.6837
▁ieave	-11.6837
▁ignoran	-11.6837
▁indecisi	-11.6837
▁jarrive	-11.6837
▁keitel	-11.6837
▁lolaus	-11.6837
▁mutual	-11.6837
▁necklace	-11.6837
▁obligat	-11.6837
▁pewter	-11.6837
▁prohibit	-11.6837
▁rebellion	-11.6837
▁sattler	-11.6837
▁saukerl	-11.6837
▁separation	-11.6837
▁tread	-11.6837
▁twain	-11.6837
▁vantastic	-11.6837
▁weasel	-11.6837
▁wilbur	-11.6837
▁balcony	-11.6837
▁blush	-11.6837
▁bordel	-11.6837
▁breastfeed	-11.6837
▁capacitor	-11.6837
▁ciose	-11.6837
▁delicate	-11.6837
▁dreamwalker	-11.6837
▁gesture	-11.6837
▁knick	-11.6837
▁lencre	-11.6837
▁maggot	-11.6837
▁oprah	-11.6837
▁orchid	-11.6837
▁plumb	-11.6837
▁rapidly	-11.6837
▁reckless	-11.6837
▁reflex	-11.6837
▁rookie	-11.6837
▁sneeze	-11.6837
▁tragic	-11.6837
▁crude	-11.6837
▁baggage	-11.6837
▁bicyc	-11.6837
▁cinema	-11.6837
▁hotmail	-11.6837
▁impose	-11.6837
▁ligne	-11.6837
▁lydia	-11.6837
▁overcome	-11.6837
▁scrub	-11.6837
▁termination	-11.6837
▁trillion	-11.6837
▁trousers	-11.6837
▁butler	-11.6837
▁colorado	-11.6837
▁endurance	-11.6837
▁godzilla	-11.6837
▁holland	-11.6837
▁initial	-11.6837
▁razor	-11.6837
▁scootin	-11.6837
▁alliance	-11.6837
▁barrette	-11.6837
▁collided	-11.6837
▁dagger	-11.6837
▁encore	-11.6837
▁hulk	-11.6837
▁juiia	-11.6837
▁noodle	-11.6837
▁recule	-11.6837
▁giasses	-11.6837
▁pliers	-11.6837
▁prodig	-11.6837
▁rehab	-11.6837
▁tethered	-11.6837
▁thumper	-11.6837
mperial	-11.6837
▁capacity	-11.6837
▁carousel	-11.6837
▁spiritual	-11.6837
▁website	-11.6837
▁carriage	-11.6837
▁durian	-11.6837
▁gillman	-11.6837
▁hustle	-11.6837
▁warbling	-11.6837
▁avatar	-11.6838
▁cupboards	-11.6838
▁nauseous	-11.6838
▁negro	-11.6838
▁somme	-11.6838
▁terminal	-11.6838
▁enfant	-11.6838
▁deceivin	-11.6838
▁rattles	-11.6838
▁reinforcements	-11.6838
▁bithia	-11.6838
▁duffy	-11.6838
▁endroit	-11.6838
▁gracie	-11.6838
▁horrid	-11.6838
▁madeleine	-11.6838
▁smear	-11.6838
▁vanessa	-11.6838
▁deceive	-11.6838
▁habla	-11.6838
▁horrifi	-11.6838
▁invo	-11.6838
▁recreat	-11.6838
▁stanton	-11.6838
▁stroll	-11.6838
▁stump	-11.6838
▁yankees	-11.6838
▁apron	-11.6838
▁levine	-11.6838
▁cereal	-11.6838
▁donuts	-11.6838
▁strut	-11.6838
▁clanging	-11.6838
▁maddow	-11.6838
▁settling	-11.6838
manipulat	-11.6838
▁unstable	-11.6838
▁snatche	-11.6838
▁confine	-11.6838
▁infra	-11.6838
▁cinna	-11.6838
▁cube	-11.6838
▁index	-11.6838
▁messaging	-11.6838
▁pervert	-11.6838
▁stokes	-11.6838
▁vadim	-11.6838
▁dork	-11.6838
▁jenkins	-11.6838
▁churn	-11.6838
▁sausage	-11.6838
▁compris	-11.6838
▁buena	-11.6838
▁spectacu	-11.6838
▁superstar	-11.6838
▁amusing	-11.6838
▁kearn	-11.6838
▁relive	-11.6838
▁essaie	-11.6838
▁peaches	-11.6838
▁angri	-11.6838
▁azt	-11.6838
poochie	-11.6838
▁playlist	-11.6838
▁draco	-11.6838
▁réalis	-11.6838
▁memoriz	-11.6838
▁chrissake	-11.6838
▁forcing	-11.6838
▁homepage	-11.6838
▁dvd	-11.6838
▁mourn	-11.6838
▁mutation	-11.6838
ankenstein	-11.6838
▁prettie	-11.6838
▁serum	-11.6838
▁ransom	-11.6838
▁granddaughter	-11.6838
▁heures	-11.6838
▁forges	-11.6838
▁scholar	-11.6838
▁delete	-11.6838
precipi	-11.6838
▁psychology	-11.6838
▁russellfield	-11.6838
▁merit	-11.6838
▁bidding	-11.6838
▁cnn	-11.6838
▁chalk	-11.6838
oohooh	-11.6838
▁decoy	-11.6838
▁aurier	-11.6838
▁countries	-11.6838
▁forbidden	-11.6838
▁bamberg	-11.6838
▁brawl	-11.6838
▁drew	-11.6839
▁purr	-11.6839
monos	-11.6839
▁bleu	-11.6839
▁fondue	-11.6839
▁fiirt	-11.6839
▁lizard	-11.6839
▁resume	-11.6839
▁livrer	-11.6839
▁biscuits	-11.6839
▁bloat	-11.6839
▁chaplin	-11.6839
▁plaintive	-11.6839
▁belch	-11.6839
▁bagels	-11.6839
▁tandy	-11.6839
▁discretion	-11.6839
▁flipping	-11.6839
▁endora	-11.6839
▁belgi	-11.6839
▁unplug	-11.6839
trophy	-11.6839
relui	-11.6839
▁hatred	-11.6839
▁lovebirds	-11.6839
▁whipping	-11.684
▁titanium	-11.684
▁riddle	-11.684
▁persua	-11.684
▁gap	-11.684
▁barging	-11.684
▁popping	-11.684
▁insur	-11.684
▁prosper	-11.684
érer	-11.684
▁organizing	-11.684
audible	-11.684
▁cyn	-11.684
▁liberat	-11.6841
▁maddie	-11.6841
▁drummer	-11.6841
▁skate	-11.6841
▁reneg	-11.6842
▁righteous	-11.6842
▁regain	-11.6842
▁apprehen	-11.6843
▁thatthat	-11.6843
saver	-11.6843
▁carnal	-11.6845
▁reentr	-11.6847
ujour	-11.6849
▁thadde	-11.6852
▁limb	-11.6859
mnh	-11.6861
event	-11.6861
ragged	-11.6862
▁reveren	-11.6868
dorf	-11.6873
méri	-11.6877
▁griev	-11.688
adium	-11.6881
▁festiv	-11.6891
▁myr	-11.6892
▁unhol	-11.6906
odome	-11.6907
ovic	-11.6908
rusty	-11.6909
▁meditat	-11.6922
preciat	-11.6927
regard	-11.693
▁arteri	-11.6936
ippies	-11.6949
stress	-11.6983
lynn	-11.6989
lammed	-11.7022
ifer	-11.7024
▁terre	-11.7038
change	-11.704
▁preserv	-11.7055
▁importan	-11.7187
▁lndia	-11.7239
erries	-11.7319
avoc	-11.758
▁armad	-11.7623
upping	-11.7794
▁harmoni	-11.8134
ecil	-11.8201
aissez	-11.8238
logging	-11.8264
eaving	-11.8275
discovery	-11.8361
gui	-11.8537
▁complet	-11.8614
▁energ	-11.8655
detected	-11.8876
monica	-11.8983
identified	-11.9179
▁treasur	-11.9432
nvestor	-11.9495
writing	-11.9535
riggin	-11.9682
▁electr	-11.9741
▁passenger	-11.9852
▁yelp	-11.9852
▁colo	-11.9956
▁retir	-12.0034
ography	-12.0043
keeping	-12.0068
▁thrust	-12.0094
view	-12.0104
▁squeak	-12.0105
writer	-12.0105
structure	-12.0105
fleet	-12.0107
sensor	-12.0107
pleasant	-12.0107
responsible	-12.0108
planned	-12.0108
dressed	-12.0109
thousand	-12.0109
purpose	-12.0109
pool	-12.0109
boom	-12.011
important	-12.011
seven	-12.011
death	-12.011
space	-12.011
horse	-12.0111
learn	-12.0111
ughton	-12.0114
lift	-12.0116
▁crumb	-12.0124
▁hypnotize	-12.0127
▁adventur	-12.0129
▁disast	-12.013
▁groov	-12.0143
▁albert	-12.0143
▁inaudibl	-12.0144
porated	-12.0147
▁excellen	-12.0154
eferre	-12.0155
▁intent	-12.0158
▁drivin	-12.016
▁givin	-12.016
▁officia	-12.0162
▁dynami	-12.0163
prehensi	-12.0164
▁contaminat	-12.0166
▁econom	-12.0166
graphs	-12.0166
▁elevat	-12.0167
ntroduce	-12.0168
biscuit	-12.0169
egory	-12.017
stract	-12.017
optimist	-12.0171
▁adrenaline	-12.0171
▁conspir	-12.0171
▁cylind	-12.0171
▁hyperventilat	-12.0171
▁nurtur	-12.0171
affirm	-12.0171
chemistry	-12.0171
embrouiller	-12.0171
fertilize	-12.0171
january	-12.0171
modigliani	-12.0171
significant	-12.0171
trospective	-12.0171
▁abracadabra	-12.0171
▁acrisius	-12.0171
▁advancing	-12.0171
▁afflict	-12.0171
▁africanamerican	-12.0171
▁aggravat	-12.0171
▁aidemoi	-12.0171
▁aleks	-12.0171
▁alfrid	-12.0171
▁algebra	-12.0171
▁amsterdam	-12.0171
▁amusement	-12.0171
▁anscreaming	-12.0171
▁antisocial	-12.0171
▁apceros	-12.0171
▁appetizers	-12.0171
▁approval	-12.0171
▁arcadia	-12.0171
▁architect	-12.0171
▁aretha	-12.0171
▁arrogance	-12.0171
▁articulate	-12.0171
▁artificial	-12.0171
▁ascend	-12.0171
▁assault	-12.0171
▁asteroid	-12.0171
▁atalanta	-12.0171
▁auditorium	-12.0171
▁authorization	-12.0171
▁azog	-12.0171
▁barbecue	-12.0171
▁bedsheet	-12.0171
▁befriend	-12.0171
▁benihana	-12.0171
▁bimbo	-12.0171
▁bipolar	-12.0171
▁bloomingdales	-12.0171
▁boulevard	-12.0171
▁bricktops	-12.0171
▁budapest	-12.0171
▁buiiding	-12.0171
▁calculated	-12.0171
▁canadian	-12.0171
▁capoeira	-12.0171
▁carnivore	-12.0171
▁cascade	-12.0171
▁catastrophe	-12.0171
▁catastrophic	-12.0171
▁catholic	-12.0171
▁cautious	-12.0171
▁cavalry	-12.0171
▁celebrities	-12.0171
▁celebrity	-12.0171
▁cesarios	-12.0171
▁chapstick	-12.0171
▁charlatan	-12.0171
▁chipmunk	-12.0171
▁chiquit	-12.0171
▁chopstick	-12.0171
▁christopher	-12.0171
▁clatters	-12.0171
▁cliché	-12.0171
▁coincidence	-12.0171
▁columb	-12.0171
▁communicating	-12.0171
▁companion	-12.0171
▁compensate	-12.0171
▁competitor	-12.0171
▁compiling	-12.0171
▁condescending	-12.0171
▁condolences	-12.0171
▁conscience	-12.0171
▁contemporar	-12.0171
▁contingency	-12.0171
▁contraption	-12.0171
▁convenient	-12.0171
▁conventional	-12.0171
▁cornelius	-12.0171
▁correspond	-12.0171
▁cripple	-12.0171
▁currency	-12.0171
▁custodia	-12.0171
▁cyberarts	-12.0171
▁debutante	-12.0171
▁decapitat	-12.0171
▁decommissioned	-12.0171
▁defensive	-12.0171
▁deficit	-12.0171
▁deiicious	-12.0171
▁diarrhea	-12.0171
▁dictionary	-12.0171
▁discount	-12.0171
▁dismissed	-12.0171
▁disobey	-12.0171
▁dodgson	-12.0171
▁dynamo	-12.0171
▁einstein	-12.0171
▁elkhorn	-12.0171
▁emptiness	-12.0171
▁enchantment	-12.0171
▁endorphins	-12.0171
▁envoy	-12.0171
▁erythromycin	-12.0171
▁eurystheus	-12.0171
▁evaluation	-12.0171
▁exclalm	-12.0171
▁exfoliat	-12.0171
▁exposure	-12.0171
▁exterminat	-12.0171
▁facilities	-12.0171
▁faculty	-12.0171
▁ferrari	-12.0171
▁ferret	-12.0171
▁fibrosis	-12.0171
▁firecracker	-12.0171
▁flamingo	-12.0171
▁fraternities	-12.0171
▁fraternity	-12.0171
▁freakydeaky	-12.0171
▁gatorade	-12.0171
▁geiszler	-12.0171
▁getsemani	-12.0171
▁glamorous	-12.0171
▁grizzly	-12.0171
▁grotesque	-12.0171
▁grouchy	-12.0171
▁halfnaked	-12.0171
▁halliburton	-12.0171
▁hannafin	-12.0171
▁hargraves	-12.0171
▁hasbeen	-12.0171
▁headbanger	-12.0171
▁heinrich	-12.0171
▁hellhounds	-12.0171
▁hemisphere	-12.0171
▁henderson	-12.0171
▁herseif	-12.0171
▁hideandgoseek	-12.0171
▁hideandseek	-12.0171
▁homicide	-12.0171
▁horatius	-12.0171
▁hurricane	-12.0171
▁illuminate	-12.0171
▁impregnable	-12.0171
▁incarcerat	-12.0171
▁inciud	-12.0171
▁increasing	-12.0171
▁inquisitor	-12.0171
▁intensifies	-12.0171
▁intervention	-12.0171
▁intriguing	-12.0171
▁investigator	-12.0171
▁jabberjay	-12.0171
▁jefferson	-12.0171
▁jeopardiz	-12.0171
▁jignore	-12.0171
▁jubilee	-12.0171
▁jurisdiction	-12.0171
▁juvenile	-12.0171
▁kindergarten	-12.0171
▁kryptonite	-12.0171
▁lalalalalalala	-12.0171
▁lobotom	-12.0171
▁lockpicks	-12.0171
▁loyola	-12.0171
▁lucifer	-12.0171
▁lullaby	-12.0171
▁malvolio	-12.0171
▁manoeuvre	-12.0171
▁margaret	-12.0171
▁margaritas	-12.0171
▁marshmallow	-12.0171
▁mayonnaise	-12.0171
▁meadow	-12.0171
▁melancholy	-12.0171
▁melissa	-12.0171
▁merchandis	-12.0171
▁micheiie	-12.0171
▁mifflin	-12.0171
▁millimeters	-12.0171
▁moldova	-12.0171
▁mongols	-12.0171
▁morphling	-12.0171
▁muskrat	-12.0171
▁narcissis	-12.0171
▁negotiation	-12.0171
▁occupied	-12.0171
▁orsino	-12.0171
▁ortega	-12.0171
▁ottoman	-12.0171
▁paramedic	-12.0171
▁participate	-12.0171
▁perception	-12.0171
▁pharaoh	-12.0171
▁philosopher	-12.0171
▁piccata	-12.0171
▁pivot	-12.0171
▁precedes	-12.0171
▁premises	-12.0171
▁presume	-12.0171
▁principle	-12.0171
ö	-13.5171
