<unk>	0
<s>	0
</s>	0
s	-4.27333
▁im	-4.5139
▁dont	-4.55081
▁know	-4.68547
▁oh	-4.78569
▁get	-4.79636
▁go	-4.83225
▁right	-4.89465
▁like	-4.90002
▁come	-4.90591
▁well	-4.94984
▁got	-5.0295
▁youre	-5.08961
▁one	-5.14153
▁yeah	-5.14623
▁thats	-5.1575
▁good	-5.18255
▁see	-5.3103
▁think	-5.35265
▁hey	-5.3737
▁want	-5.42805
▁na	-5.43412
▁back	-5.49349
▁okay	-5.51422
▁look	-5.51826
ing	-5.54202
▁time	-5.56337
▁yes	-5.56614
▁us	-5.61536
▁going	-5.63945
▁gon	-5.65933
▁ill	-5.6709
▁would	-5.67541
▁take	-5.71518
▁cant	-5.72058
▁hes	-5.74244
▁l	-5.74581
▁little	-5.82618
▁way	-5.83894
▁say	-5.85478
ed	-5.85498
▁never	-5.87604
▁really	-5.88773
▁man	-5.88942
▁could	-5.88975
▁mr	-5.89016
▁tell	-5.94166
▁thank	-5.96361
▁need	-5.97009
▁lets	-5.98765
▁something	-6.00958
▁make	-6.01627
▁love	-6.07332
▁ive	-6.09001
▁let	-6.09377
▁whats	-6.10031
▁	-6.10487
▁theres	-6.1066
▁sorry	-6.12029
▁didnt	-6.13343
▁mean	-6.14002
▁please	-6.14383
▁thing	-6.21762
▁wait	-6.22611
▁help	-6.25925
▁two	-6.2743
▁day	-6.28443
▁give	-6.28734
▁great	-6.31334
▁much	-6.3236
▁home	-6.34555
▁uh	-6.35311
▁said	-6.37432
▁sure	-6.38989
d	-6.39692
▁ever	-6.40077
▁guys	-6.40944
▁better	-6.43246
▁sir	-6.43317
▁stop	-6.43716
▁must	-6.44366
▁people	-6.44568
▁find	-6.44817
y	-6.45445
▁away	-6.45896
▁theyre	-6.46726
▁even	-6.47309
▁new	-6.47392
▁shes	-6.49293
▁put	-6.51389
▁music	-6.52188
▁first	-6.52424
▁life	-6.52781
▁thought	-6.54587
▁keep	-6.56754
▁nothing	-6.56795
ly	-6.56886
▁always	-6.56973
▁maybe	-6.57534
▁things	-6.58691
▁night	-6.60826
▁anything	-6.62323
▁still	-6.63309
▁feel	-6.64378
▁long	-6.65427
▁guy	-6.65608
▁huh	-6.66328
▁big	-6.66543
▁place	-6.69227
▁youve	-6.69652
▁work	-6.70695
▁youll	-6.73089
▁old	-6.73883
▁leave	-6.73989
▁boy	-6.74416
▁course	-6.75298
▁believe	-6.75685
▁wont	-6.75971
▁dad	-6.7616
▁call	-6.76451
▁bad	-6.7698
▁best	-6.77334
▁hello	-6.77353
▁whoa	-6.77563
▁nice	-6.79677
▁done	-6.79872
▁stay	-6.80193
▁id	-6.80314
▁world	-6.80446
▁try	-6.80863
▁coming	-6.81764
▁around	-6.82005
▁may	-6.82885
▁miss	-6.82996
▁talk	-6.84133
▁everything	-6.84817
▁made	-6.85428
▁kind	-6.86203
▁house	-6.86599
▁hear	-6.86813
▁gasps	-6.86891
▁name	-6.86917
▁isnt	-6.87146
▁ah	-6.87255
▁god	-6.88547
▁last	-6.89668
▁hi	-6.8973
▁might	-6.90312
▁told	-6.91257
▁grunts	-6.91847
▁thanks	-6.92857
▁enough	-6.93375
▁baby	-6.93428
▁dog	-6.94229
▁mom	-6.94766
▁playing	-6.94829
▁every	-6.94988
▁remember	-6.95252
▁doesnt	-6.95266
▁ta	-6.95413
er	-6.9559
▁hold	-6.95634
▁mother	-6.9587
▁play	-6.96685
▁lot	-6.96954
▁ready	-6.98383
▁years	-6.98466
▁girl	-6.98678
▁show	-6.99243
▁left	-6.99439
e	-7.01682
▁wrong	-7.01747
▁morning	-7.01748
▁laughing	-7.0183
▁listen	-7.03119
▁found	-7.03813
▁fine	-7.04694
▁happy	-7.05306
▁three	-7.07442
▁getting	-7.07646
▁knew	-7.0836
▁together	-7.08366
▁another	-7.08678
▁hell	-7.09266
▁understand	-7.09811
▁move	-7.11304
▁aint	-7.1282
▁run	-7.13453
▁next	-7.13471
▁ask	-7.13806
▁excuse	-7.14071
▁money	-7.14128
▁king	-7.14628
▁school	-7.14813
▁chuckles	-7.15154
▁ok	-7.15405
▁talking	-7.16658
▁real	-7.16703
▁family	-7.17138
▁mind	-7.17525
▁came	-7.18142
▁today	-7.18163
▁weve	-7.18851
▁whole	-7.19198
▁cause	-7.19593
▁wan	-7.1999
▁meet	-7.21619
▁happened	-7.21825
▁friend	-7.22322
▁true	-7.22366
▁someone	-7.22724
▁wouldnt	-7.23105
▁dear	-7.23244
▁else	-7.23447
▁captain	-7.24171
▁whos	-7.24287
▁car	-7.24448
▁guess	-7.24906
▁tomorrow	-7.25068
▁care	-7.25211
▁hope	-7.26365
▁idea	-7.26581
▁trying	-7.26619
▁seen	-7.26642
▁father	-7.27303
▁friends	-7.27399
▁laughs	-7.27499
▁um	-7.27532
▁la	-7.27592
▁lost	-7.28263
▁everyone	-7.28649
▁hard	-7.28888
▁wanted	-7.28923
▁live	-7.29125
▁kids	-7.29804
▁red	-7.29889
▁son	-7.3003
▁looking	-7.3017
▁head	-7.30906
▁kill	-7.3118
▁watch	-7.31354
▁fight	-7.31869
▁many	-7.32789
▁bring	-7.32803
▁mrs	-7.32932
▁eat	-7.33212
▁fun	-7.33525
▁heard	-7.33586
▁everybody	-7.33591
▁dead	-7.34525
▁pretty	-7.34931
▁wasnt	-7.35336
▁yet	-7.35339
▁end	-7.35426
▁heart	-7.35588
▁without	-7.35745
▁alone	-7.35748
▁worry	-7.35752
▁alice	-7.36157
▁youd	-7.36576
▁lm	-7.36637
▁hand	-7.37366
▁turn	-7.37661
▁jack	-7.38567
▁job	-7.38592
▁sighs	-7.3912
▁tonight	-7.3992
▁minute	-7.40303
▁woman	-7.40349
▁start	-7.42343
▁far	-7.42539
▁kid	-7.4293
▁screaming	-7.43457
▁looks	-7.4349
▁gone	-7.4437
▁says	-7.45035
▁honey	-7.45652
▁peter	-7.45653
▁sit	-7.4597
▁days	-7.46293
▁door	-7.46575
▁open	-7.46807
▁bit	-7.47315
▁beautiful	-7.48212
▁christmas	-7.48361
▁saw	-7.4837
▁room	-7.48432
▁matter	-7.48902
▁face	-7.48908
▁havent	-7.49303
▁actually	-7.49782
▁quite	-7.49796
▁wish	-7.49947
▁ha	-7.50831
al	-7.51033
▁already	-7.51193
▁ooh	-7.51671
▁welcome	-7.51672
▁part	-7.52103
▁em	-7.53036
▁afraid	-7.53121
▁problem	-7.53248
▁men	-7.5337
▁went	-7.541
▁use	-7.54702
▁five	-7.5472
▁inside	-7.55586
▁boys	-7.56083
▁used	-7.57228
▁since	-7.58098
▁saying	-7.58234
▁late	-7.58449
▁easy	-7.59139
▁stuff	-7.59475
▁soon	-7.59564
▁wow	-7.60183
▁die	-7.60454
▁year	-7.60463
▁game	-7.60949
▁forget	-7.61202
▁mine	-7.61575
▁hmm	-7.6176
▁later	-7.62872
▁fire	-7.63195
▁book	-7.64763
▁close	-7.65233
▁win	-7.65241
▁food	-7.65546
▁grunting	-7.6558
▁anyone	-7.65845
▁second	-7.66721
▁enzo	-7.67211
▁exactly	-7.67218
▁couldnt	-7.67234
▁hands	-7.67317
▁called	-7.6962
▁water	-7.6986
▁lady	-7.70069
▁boss	-7.70627
▁four	-7.70629
▁change	-7.70857
▁happen	-7.70918
▁wheres	-7.71
▁shall	-7.71207
▁children	-7.71208
▁young	-7.71695
▁hit	-7.71837
▁check	-7.72376
▁point	-7.72902
▁side	-7.73369
▁cool	-7.73472
▁sleep	-7.74008
▁power	-7.74016
▁perhaps	-7.74166
▁arent	-7.74167
▁dream	-7.74324
▁team	-7.74714
▁full	-7.75688
▁stand	-7.76067
▁pay	-7.76227
▁high	-7.76571
▁crazy	-7.766
▁brother	-7.77113
▁cat	-7.77141
▁somebody	-7.77215
▁break	-7.77529
▁moment	-7.77721
▁voice	-7.77754
es	-7.78253
▁supposed	-7.78561
▁anyway	-7.78992
▁chance	-7.79642
▁making	-7.7973
▁read	-7.79821
▁wants	-7.80351
▁trouble	-7.807
▁al	-7.81339
▁luck	-7.81496
▁though	-7.81632
▁wife	-7.81658
▁town	-7.81725
▁eyes	-7.81922
▁perfect	-7.82155
▁denny	-7.82297
▁hurt	-7.82509
▁speaking	-7.82663
▁follow	-7.8277
▁miyagi	-7.8282
▁hurry	-7.8295
▁probably	-7.83607
▁marley	-7.83607
▁wonderful	-7.83646
▁business	-7.84255
▁save	-7.84774
▁fast	-7.8479
▁means	-7.84872
▁nobody	-7.8493
▁continues	-7.85178
t	-7.8532
▁working	-7.8548
▁waiting	-7.86238
▁dinner	-7.8626
▁took	-7.86283
a	-7.86327
▁air	-7.86966
▁girls	-7.87447
▁light	-7.87641
▁speak	-7.87876
▁john	-7.88336
▁elephant	-7.88369
▁groans	-7.88399
▁forever	-7.89732
▁ago	-7.89772
▁sound	-7.90082
▁thinking	-7.90436
▁papa	-7.90439
est	-7.90568
▁radio	-7.90582
▁makes	-7.90665
▁bet	-7.90701
▁sweet	-7.91046
▁ahead	-7.91147
▁goes	-7.91402
▁safe	-7.91659
▁free	-7.917
▁mmm	-7.91847
▁lose	-7.91848
▁finally	-7.91909
▁different	-7.92578
▁almost	-7.92581
▁hot	-7.92654
▁secret	-7.92687
▁cut	-7.92886
▁rest	-7.92995
n	-7.93092
▁important	-7.93146
▁an	-7.93159
▁gentlemen	-7.93304
▁buddy	-7.93307
▁johnny	-7.93337
▁step	-7.93801
ve	-7.93926
▁bye	-7.94035
▁control	-7.94122
▁un	-7.94223
▁george	-7.94768
▁taking	-7.9478
▁times	-7.94949
▁deal	-7.95731
▁crowd	-7.96
▁ow	-7.96133
▁bob	-7.96417
▁hate	-7.96626
▁hang	-7.96629
r	-7.96695
▁trust	-7.96716
▁drink	-7.96773
▁number	-7.97172
▁small	-7.97669
▁hair	-7.9774
▁funny	-7.97769
▁lts	-7.97773
▁war	-7.98308
▁fly	-7.98985
▁line	-7.99192
▁growls	-7.99345
▁catch	-7.99485
▁sister	-7.99509
▁seems	-7.99524
▁anybody	-8.00073
▁whatever	-8.00073
▁evening	-8.00303
▁dance	-8.00625
▁feet	-8.00856
▁lll	-8.01019
▁set	-8.01021
▁lord	-8.01055
▁met	-8.01242
▁half	-8.01723
▁ball	-8.01885
▁plan	-8.02318
▁anymore	-8.02435
▁behind	-8.02435
▁damn	-8.0244
▁tried	-8.02459
▁week	-8.02534
▁learn	-8.02552
▁kidding	-8.03236
▁along	-8.03236
▁pull	-8.03253
▁promise	-8.03287
▁phone	-8.03555
▁walk	-8.03779
▁special	-8.04035
▁james	-8.04046
▁ladies	-8.04046
▁cheering	-8.04142
▁pick	-8.04261
▁word	-8.04338
▁train	-8.04424
▁harry	-8.04858
▁buck	-8.04948
▁person	-8.05049
▁party	-8.05385
▁sounds	-8.05587
▁running	-8.05678
▁least	-8.05681
▁heres	-8.05792
▁knows	-8.06164
▁needs	-8.06382
▁shut	-8.06499
▁living	-8.06502
▁story	-8.06507
▁gave	-8.06512
o	-8.06535
▁parents	-8.07408
▁sea	-8.07552
▁screams	-8.07762
▁asked	-8.08055
▁married	-8.08179
▁till	-8.0818
▁panting	-8.08183
▁anna	-8.08224
▁brought	-8.09022
▁itll	-8.09026
▁minutes	-8.09115
▁clear	-8.09245
▁daddy	-8.09369
▁smell	-8.09782
▁mama	-8.09838
▁french	-8.09876
▁country	-8.09887
▁six	-8.09964
▁top	-8.10051
▁bed	-8.10421
▁also	-8.10741
▁sing	-8.10894
▁ship	-8.11267
▁gets	-8.11663
▁news	-8.12318
▁city	-8.12498
▁feeling	-8.12833
▁queen	-8.12891
▁started	-8.13058
▁g	-8.13274
▁daniel	-8.13352
▁professor	-8.1337
▁coach	-8.13823
▁question	-8.13952
▁outside	-8.14252
▁goodbye	-8.14264
▁theyll	-8.14265
▁touch	-8.14417
▁de	-8.14685
▁tree	-8.14735
▁blood	-8.15173
▁singing	-8.1557
▁death	-8.15591
▁island	-8.15632
▁stupid	-8.16073
▁private	-8.16074
▁sign	-8.16602
▁dogs	-8.16917
▁mad	-8.1696
▁send	-8.17515
▁killed	-8.17658
▁glad	-8.17915
▁wake	-8.182
▁eye	-8.18449
▁song	-8.19429
▁lucy	-8.19794
▁shouldnt	-8.19794
▁sent	-8.19795
▁scared	-8.19998
▁bird	-8.20201
▁taken	-8.20235
▁sick	-8.20651
▁fall	-8.20919
▁reason	-8.21296
▁slow	-8.21465
▁dr	-8.22553
▁ya	-8.22602
▁alive	-8.22703
▁able	-8.22849
▁telling	-8.23557
▁darling	-8.23656
▁white	-8.23665
▁hours	-8.23708
▁hat	-8.23948
▁terrible	-8.24669
▁birthday	-8.25272
▁jacob	-8.25289
▁fear	-8.25313
▁princess	-8.2566
▁eh	-8.25671
▁shot	-8.26286
▁fair	-8.26314
▁comes	-8.26527
▁amazing	-8.26662
▁sometimes	-8.26887
▁husband	-8.27339
▁danielsan	-8.2768
▁loved	-8.28174
▁buy	-8.28321
▁seem	-8.28489
▁jump	-8.28591
▁leaving	-8.28711
▁lucky	-8.28969
▁beat	-8.29058
in	-8.29075
▁died	-8.29118
▁return	-8.30162
▁bill	-8.303
▁fact	-8.30451
▁doctor	-8.3051
▁horse	-8.30512
▁bear	-8.30597
▁deep	-8.30628
▁suppose	-8.30638
▁future	-8.30806
▁case	-8.30818
▁ride	-8.31852
▁truth	-8.31869
▁front	-8.31874
▁poor	-8.31878
▁wonder	-8.31903
▁cute	-8.32496
▁magic	-8.32824
▁careful	-8.32838
▁wind	-8.33076
▁drive	-8.3378
▁either	-8.34031
▁lebron	-8.34031
▁couple	-8.34034
▁yall	-8.34051
▁jamie	-8.34099
▁wed	-8.34195
▁happening	-8.34763
▁quiet	-8.34864
▁past	-8.34983
▁uncle	-8.35124
▁rather	-8.35131
▁moving	-8.35131
▁tommy	-8.35132
▁blue	-8.35141
▁groaning	-8.35159
▁ice	-8.35217
▁prince	-8.35929
▁ten	-8.35991
▁witch	-8.36201
▁child	-8.36241
▁ones	-8.3685
▁table	-8.37087
▁aunt	-8.37356
▁bond	-8.37403
▁sun	-8.37551
ion	-8.38175
▁dude	-8.38259
▁weird	-8.38321
ers	-8.38376
▁order	-8.38704
▁fish	-8.39053
▁throw	-8.39185
on	-8.39242
▁serious	-8.39511
▁general	-8.39651
▁harold	-8.39651
▁simba	-8.39651
▁become	-8.39651
▁shrek	-8.39651
▁record	-8.39904
st	-8.40086
▁lives	-8.40203
▁imagine	-8.40641
▁cold	-8.40734
▁strange	-8.40765
▁dawn	-8.40815
▁earth	-8.40819
▁absolutely	-8.40827
▁yells	-8.41126
▁known	-8.41167
ting	-8.41298
▁land	-8.41303
▁except	-8.41966
▁somewhere	-8.4199
▁maam	-8.41991
▁elsa	-8.41994
▁rock	-8.42055
▁yelling	-8.42082
▁quick	-8.42918
▁office	-8.43133
▁felt	-8.43181
▁boat	-8.44242
▁fault	-8.44387
▁bella	-8.44428
ies	-8.44725
▁whoo	-8.44866
▁shell	-8.45253
▁mary	-8.45448
▁p	-8.45472
▁picture	-8.45486
▁english	-8.45586
▁dramatic	-8.45606
▁cj	-8.4561
▁born	-8.45621
i	-8.45717
▁c	-8.46019
▁sort	-8.46405
▁sad	-8.46632
▁drop	-8.46661
▁daughter	-8.46726
▁anywhere	-8.46839
▁impossible	-8.46839
▁dark	-8.47103
▁longer	-8.47414
▁eve	-8.47453
▁calling	-8.47732
▁dom	-8.47746
▁others	-8.4809
▁alright	-8.48093
▁hows	-8.48203
▁certainly	-8.48215
▁yi	-8.48567
▁cross	-8.48594
▁short	-8.48763
▁months	-8.48834
▁plays	-8.49087
▁strong	-8.49096
▁street	-8.49279
▁hour	-8.49298
▁seven	-8.49338
▁throat	-8.49357
▁shouting	-8.49403
▁join	-8.4978
▁knock	-8.49964
f	-8.50139
▁s	-8.50427
▁worth	-8.50468
▁beast	-8.50587
▁space	-8.50637
▁malcolm	-8.50637
▁sky	-8.50646
▁hed	-8.50708
▁saved	-8.50968
▁gasping	-8.51008
▁count	-8.51011
▁happens	-8.51014
▁clean	-8.51098
▁york	-8.5118
▁enjoy	-8.51241
▁ring	-8.51675
▁surprise	-8.51702
▁excellent	-8.51936
▁maisie	-8.51936
▁hungry	-8.51941
▁shh	-8.51943
▁folks	-8.51946
▁tired	-8.51949
▁growling	-8.51962
▁destroy	-8.52229
▁road	-8.52262
▁pack	-8.52392
▁pass	-8.52547
▁stick	-8.52691
▁present	-8.52761
▁weeks	-8.52821
▁report	-8.5305
▁proud	-8.53094
▁club	-8.53133
▁forgive	-8.53189
▁straight	-8.53216
▁north	-8.53252
▁summer	-8.53256
▁unless	-8.5327
ish	-8.53332
▁th	-8.53419
▁kiss	-8.53834
▁expect	-8.53903
l	-8.53919
▁wear	-8.54507
▁riley	-8.54564
▁max	-8.54579
▁attention	-8.54585
▁less	-8.54975
▁laugh	-8.55243
▁a	-8.55267
en	-8.55418
▁gasp	-8.55576
▁ground	-8.55619
▁pleasure	-8.55937
▁company	-8.55937
▁calm	-8.55941
▁skipper	-8.55942
▁piece	-8.55968
▁e	-8.55994
▁missed	-8.56171
▁lovely	-8.56247
▁protect	-8.56266
▁meant	-8.56384
▁bell	-8.56597
▁warm	-8.56624
or	-8.57054
▁re	-8.57108
▁figure	-8.57138
▁wild	-8.57172
▁martha	-8.57277
▁jesus	-8.57306
▁london	-8.57306
▁possible	-8.57306
▁lead	-8.58176
▁ho	-8.58271
▁pain	-8.58361
▁guard	-8.58529
▁certain	-8.58561
▁favorite	-8.5861
▁police	-8.58678
▁wolf	-8.58686
▁middle	-8.58696
▁mountain	-8.58742
▁wall	-8.58807
able	-8.58964
▁gun	-8.59125
▁answer	-8.59437
▁travel	-8.59591
by	-8.59851
▁class	-8.60026
▁lt	-8.60044
▁fiona	-8.60104
▁mitchell	-8.60104
▁worse	-8.60104
▁chuckling	-8.60106
▁meeting	-8.60231
▁looked	-8.60553
▁goodness	-8.60555
▁hero	-8.60765
▁teach	-8.60968
▁normal	-8.6139
▁forgot	-8.61532
▁majesty	-8.61532
▁morgan	-8.61532
▁definitely	-8.61534
▁kevin	-8.61535
▁date	-8.61642
▁joy	-8.61656
▁shoot	-8.61752
▁crying	-8.6184
▁greatest	-8.61904
▁kick	-8.62299
▁marry	-8.62577
▁needed	-8.62625
▁near	-8.62825
▁hassan	-8.62982
▁werent	-8.62982
▁eep	-8.62985
▁carol	-8.63019
▁wizard	-8.63033
▁z	-8.63078
▁push	-8.6375
▁fix	-8.63776
▁b	-8.6389
▁ba	-8.64084
▁breathe	-8.64116
▁blow	-8.64146
▁list	-8.64246
▁indistinct	-8.64315
▁foot	-8.64415
▁afternoon	-8.64452
▁broken	-8.64493
▁mistake	-8.64526
▁madame	-8.64534
▁monster	-8.64585
▁sense	-8.64742
▁miles	-8.64787
▁tim	-8.64799
h	-8.64894
▁questions	-8.65186
▁zo	-8.65343
▁words	-8.65412
▁mouth	-8.65612
ll	-8.65803
▁fat	-8.6584
▁in	-8.6588
▁body	-8.65945
▁across	-8.65945
▁history	-8.65947
▁clothes	-8.65958
▁el	-8.66003
ic	-8.66019
▁window	-8.66064
▁village	-8.66701
▁cover	-8.66774
▁rain	-8.66961
▁suit	-8.6728
▁soft	-8.67298
▁broke	-8.67426
▁puppy	-8.6746
▁eddie	-8.67461
▁tv	-8.67468
▁taste	-8.67478
▁hide	-8.67497
▁karate	-8.67502
▁choice	-8.67598
▁seriously	-8.67645
us	-8.67853
▁t	-8.68168
▁star	-8.6831
▁mm	-8.68621
▁lots	-8.68655
▁tough	-8.68888
▁bag	-8.68906
▁fighting	-8.68978
▁chocolate	-8.68998
▁uhhuh	-8.68998
▁none	-8.6901
▁butt	-8.69013
▁totally	-8.69043
▁nose	-8.69145
na	-8.69257
▁chattering	-8.69275
▁dreams	-8.69334
▁f	-8.69345
▁relax	-8.70144
▁aah	-8.70251
▁act	-8.70308
▁peace	-8.70417
▁smart	-8.70465
ry	-8.70536
▁evil	-8.70561
▁dangerous	-8.70569
▁decided	-8.70632
▁super	-8.70722
▁soul	-8.70732
▁human	-8.70779
▁given	-8.70974
▁names	-8.70999
▁aw	-8.716
▁extra	-8.72148
▁women	-8.72151
▁tense	-8.72217
▁busy	-8.72268
▁rick	-8.72291
▁lie	-8.72308
▁finished	-8.72366
▁clears	-8.73059
▁roll	-8.7318
▁turned	-8.73245
▁explain	-8.73455
▁thunder	-8.73757
▁south	-8.7376
▁circle	-8.73761
▁giving	-8.73761
▁helen	-8.73762
▁tiny	-8.7382
▁key	-8.74087
▁worked	-8.74288
▁eight	-8.75177
▁victor	-8.75237
▁madam	-8.75315
▁silver	-8.754
▁beauty	-8.75401
▁kept	-8.75401
▁selina	-8.75401
▁kingdom	-8.75404
▁breakfast	-8.75404
▁upon	-8.75413
▁aye	-8.75425
▁gold	-8.75473
▁learned	-8.75993
▁offer	-8.76578
▁entire	-8.76925
▁gru	-8.76937
▁attack	-8.77063
▁master	-8.77075
▁molly	-8.77078
▁david	-8.7726
▁roars	-8.77331
▁flight	-8.77366
▁asking	-8.77375
▁paper	-8.7741
▁le	-8.77547
▁race	-8.77895
▁reach	-8.78052
▁handle	-8.78074
▁write	-8.78629
▁prove	-8.78683
▁spongebob	-8.78762
▁quickly	-8.78962
▁seat	-8.79056
▁rule	-8.79268
▁trees	-8.79593
▁helping	-8.80217
▁co	-8.8027
▁grow	-8.80377
▁quit	-8.80377
▁san	-8.80404
▁dorothy	-8.80486
▁wrote	-8.80488
▁wedding	-8.80489
▁cheese	-8.80494
▁danger	-8.80514
▁dave	-8.80521
▁fool	-8.80554
▁grab	-8.80632
▁bull	-8.80642
▁odie	-8.8082
▁spot	-8.80825
▁floor	-8.80836
▁steal	-8.81847
▁ran	-8.81897
ness	-8.81931
▁dumb	-8.82074
▁box	-8.82093
▁watching	-8.82232
▁teeth	-8.82247
▁major	-8.82522
▁works	-8.82565
▁million	-8.82645
▁movie	-8.82668
▁tom	-8.82684
▁awful	-8.82757
▁changed	-8.82761
▁feels	-8.83269
▁rules	-8.8363
▁mark	-8.83721
▁match	-8.83984
▁simple	-8.83997
▁caught	-8.84026
▁plankton	-8.84027
▁pants	-8.84032
▁golden	-8.84047
▁scary	-8.84155
▁fairy	-8.84302
▁wearing	-8.84551
▁wondering	-8.84684
▁cry	-8.85464
▁tea	-8.85475
▁honor	-8.85542
▁loud	-8.85662
▁realize	-8.85694
▁lunch	-8.85792
▁fell	-8.85802
▁tight	-8.85825
▁michael	-8.85844
▁church	-8.85851
▁stuck	-8.85852
▁castle	-8.85853
▁bugs	-8.86088
▁share	-8.86292
▁letters	-8.86862
▁legs	-8.86963
▁standing	-8.87025
▁liked	-8.87293
▁black	-8.87347
▁julia	-8.87659
▁babies	-8.87696
▁indeed	-8.87696
▁spent	-8.87697
▁ross	-8.87698
▁annie	-8.87703
▁respect	-8.87739
▁early	-8.87769
▁usually	-8.87774
▁belong	-8.87903
▁appreciate	-8.87938
▁faster	-8.8796
▁low	-8.88032
▁lay	-8.881
▁brown	-8.88156
▁eagle	-8.88187
▁soldier	-8.88223
▁field	-8.88227
▁age	-8.88626
▁mess	-8.88738
▁reading	-8.88849
▁visit	-8.8885
le	-8.89307
▁pal	-8.89326
▁minionese	-8.89583
▁fortune	-8.89583
▁dancing	-8.89583
▁paddington	-8.89583
▁olaf	-8.89584
▁mommy	-8.89605
▁j	-8.90028
▁wood	-8.90325
▁woods	-8.90857
▁goin	-8.91006
man	-8.9114
▁round	-8.91175
▁ugly	-8.91506
▁coffee	-8.91506
▁horrible	-8.91507
▁hut	-8.91507
▁everywhere	-8.91509
▁ugh	-8.9152
▁powerful	-8.91529
▁besides	-8.91678
▁interesting	-8.91704
ment	-8.91781
▁takes	-8.91837
▁gosh	-8.91849
▁rich	-8.91898
▁charlie	-8.92
up	-8.92001
▁teacher	-8.92231
▁pan	-8.92334
▁penguins	-8.9256
m	-8.92743
▁bare	-8.92817
▁snow	-8.93004
▁carry	-8.93153
▁stars	-8.93217
▁seconds	-8.9323
▁paris	-8.93464
▁underpants	-8.93467
▁biggest	-8.93467
▁angry	-8.93467
▁france	-8.9347
▁forest	-8.93486
▁shit	-8.93507
▁board	-8.9356
g	-8.93593
▁barking	-8.93594
▁m	-8.93621
▁final	-8.93828
▁yep	-8.9383
▁pop	-8.93914
▁begin	-8.9409
▁ticket	-8.94112
▁trip	-8.94383
▁sell	-8.94565
▁moon	-8.94743
▁u	-8.94795
▁park	-8.9509
▁law	-8.951
▁shake	-8.9526
▁fresh	-8.95458
▁jill	-8.95464
▁saturday	-8.95467
▁wonka	-8.95467
▁instead	-8.95467
▁pardon	-8.95467
▁theyve	-8.95469
▁spend	-8.95513
▁sitting	-8.95566
▁army	-8.95571
▁seeing	-8.96066
▁planet	-8.96119
▁flower	-8.96179
▁krab	-8.96364
▁empty	-8.97508
▁hundred	-8.97508
▁marriage	-8.97508
▁worst	-8.97508
▁bunch	-8.97508
▁incredible	-8.97509
▁charley	-8.97513
▁tony	-8.97543
▁completely	-8.97613
▁hiding	-8.97625
▁interested	-8.9766
▁doubt	-8.97852
▁lucas	-8.97859
▁fit	-8.98161
▁river	-8.98212
▁charge	-8.98223
▁brain	-8.98242
▁plane	-8.98384
▁over	-8.98706
▁dress	-8.98838
▁finish	-8.98879
▁beg	-8.99014
▁d	-8.9904
c	-8.99176
▁bar	-8.99382
▁smile	-8.99401
▁raise	-8.99424
▁nervous	-8.99449
▁lights	-8.99482
▁bright	-8.99529
▁where	-8.99529
▁congratulations	-8.99591
▁garfield	-8.99592
▁yellow	-8.99592
▁enemy	-8.99593
▁wicked	-8.99593
▁memory	-8.99593
▁hasnt	-8.99596
▁sunday	-8.99596
▁famous	-8.99604
▁jones	-8.99619
▁softly	-8.99785
▁owe	-8.99804
▁giggles	-8.99893
▁bus	-8.99998
▁dollars	-9.00152
▁tail	-9.00156
▁hole	-9.0041
▁lived	-9.00527
▁chicken	-9.01219
▁chuck	-9.01284
▁treat	-9.01468
▁stole	-9.01683
▁brave	-9.01709
▁neither	-9.01719
▁thatll	-9.01719
▁worried	-9.01719
▁byebye	-9.01719
▁whatd	-9.01719
▁sweetheart	-9.0172
▁henry	-9.0172
▁dalton	-9.01721
▁plenty	-9.01721
▁merry	-9.01721
▁bigger	-9.01727
▁hotel	-9.0176
▁uhoh	-9.01762
▁joan	-9.01794
▁scoffs	-9.01822
▁corner	-9.01838
▁powers	-9.02211
▁kristoff	-9.02306
▁machine	-9.02364
▁america	-9.02437
▁stone	-9.02441
▁w	-9.0247
▁bomb	-9.02489
▁monkey	-9.02533
ty	-9.02561
▁dare	-9.02584
out	-9.03001
▁hunt	-9.03041
▁missing	-9.03048
▁chatter	-9.03504
▁escape	-9.03721
▁prepare	-9.03723
▁awesome	-9.0388
▁greg	-9.03882
▁green	-9.03895
▁charming	-9.04023
▁keeping	-9.04105
▁sam	-9.04442
▁leg	-9.04532
▁bottom	-9.04539
▁hospital	-9.04674
▁size	-9.04693
▁cake	-9.04696
▁joke	-9.04696
▁cousin	-9.04708
▁thousand	-9.04736
▁state	-9.04761
▁heads	-9.04795
▁arms	-9.04855
▁birds	-9.0512
▁punch	-9.05617
▁scar	-9.05704
▁build	-9.05722
▁pretend	-9.05731
▁allow	-9.05827
▁starting	-9.059
▁notice	-9.05946
▁personal	-9.06113
▁exhales	-9.06115
▁language	-9.06115
▁third	-9.06115
▁mallory	-9.06115
▁laughter	-9.06124
▁whimpers	-9.06132
▁yelps	-9.06591
ation	-9.06927
▁granny	-9.06989
▁american	-9.07041
▁month	-9.07057
▁holding	-9.07068
▁out	-9.07227
▁rid	-9.07347
▁speed	-9.0771
▁k	-9.07731
k	-9.08079
▁blows	-9.08177
▁potter	-9.08182
▁monsieur	-9.08387
▁giggling	-9.08388
▁bunny	-9.08388
▁patrick	-9.08388
▁candy	-9.08388
▁football	-9.08394
▁paid	-9.08397
▁gentleman	-9.08397
▁shop	-9.08404
▁lock	-9.08452
▁bong	-9.0846
▁lying	-9.08478
▁whose	-9.08484
▁nine	-9.08582
▁christ	-9.08662
▁allowed	-9.0868
▁flo	-9.08681
▁driver	-9.08868
▁listening	-9.09132
▁accident	-9.09267
▁service	-9.09287
▁message	-9.09343
▁fellow	-9.09343
▁snake	-9.0998
▁problems	-9.101
▁force	-9.10304
▁halloween	-9.10713
▁situation	-9.10713
▁nope	-9.10714
▁dobby	-9.10714
▁countess	-9.10715
▁outta	-9.10716
▁forward	-9.10717
▁band	-9.10724
▁tower	-9.1074
▁mercy	-9.10745
▁starts	-9.10822
ity	-9.10871
▁holy	-9.1096
ive	-9.11118
▁belle	-9.11122
▁test	-9.11418
▁donkey	-9.11507
▁bridge	-9.11514
▁everythings	-9.1159
▁falling	-9.11675
▁sight	-9.11732
▁oz	-9.1178
▁pig	-9.11793
▁walking	-9.1186
▁building	-9.1213
▁named	-9.12308
▁sisters	-9.12444
▁blind	-9.12803
▁strength	-9.13029
▁eating	-9.13043
▁con	-9.13074
▁nothin	-9.1308
▁chief	-9.13094
▁mahira	-9.13094
▁arrived	-9.13137
▁fill	-9.13138
▁single	-9.13149
▁losing	-9.13186
▁ass	-9.13225
▁mission	-9.13331
▁breathing	-9.13455
p	-9.13655
▁station	-9.13788
▁remind	-9.13852
▁picked	-9.13941
▁president	-9.14104
▁winter	-9.14155
▁letter	-9.14305
▁ought	-9.1549
▁jim	-9.15526
▁hook	-9.15527
▁admit	-9.15528
▁casablanca	-9.15533
▁college	-9.15533
▁larusso	-9.15533
▁possibly	-9.15533
▁chamber	-9.15533
▁england	-9.15533
▁beginning	-9.15535
▁kitchen	-9.15535
▁mmhmm	-9.15535
▁isabella	-9.15536
▁heck	-9.15538
▁beyond	-9.15539
▁arendelle	-9.1554
▁verne	-9.15552
▁doin	-9.15552
▁color	-9.15719
▁engine	-9.16011
▁gift	-9.16331
▁waste	-9.16351
▁mike	-9.16358
▁heaven	-9.16495
▁using	-9.16521
▁sake	-9.16522
▁price	-9.16586
▁giant	-9.16626
▁position	-9.16671
▁h	-9.16922
▁smash	-9.17289
▁lion	-9.17341
▁unit	-9.17344
▁agree	-9.17396
▁launch	-9.17592
▁ruin	-9.17749
▁toast	-9.17911
▁apart	-9.18021
▁especially	-9.18033
▁bought	-9.18033
▁however	-9.18033
▁california	-9.18036
▁cream	-9.18049
▁held	-9.18049
▁cave	-9.18065
▁timon	-9.18074
▁west	-9.18097
▁bank	-9.18114
▁dirty	-9.1816
▁hall	-9.18312
el	-9.1845
▁ted	-9.1865
▁ringing	-9.18795
▁thinks	-9.18959
▁note	-9.18989
▁prefer	-9.19004
▁computer	-9.1915
▁winner	-9.19152
▁battle	-9.19176
▁fathers	-9.19402
▁feelings	-9.19419
▁tune	-9.19481
▁press	-9.20244
▁ellen	-9.20597
▁ramsey	-9.20597
▁rayleen	-9.20597
▁dublin	-9.20597
▁driving	-9.20598
▁suzu	-9.20598
▁grandma	-9.20598
▁delicious	-9.20599
▁jeanne	-9.20599
▁security	-9.20599
▁scarlet	-9.206
▁common	-9.20602
▁wet	-9.20603
▁royal	-9.20622
▁button	-9.20667
▁ate	-9.20683
▁scare	-9.20854
▁beeping	-9.20903
▁bones	-9.20916
▁van	-9.21146
▁scream	-9.21183
▁yay	-9.21202
▁breath	-9.21299
▁fingers	-9.21408
▁nuts	-9.21574
▁noise	-9.21783
▁animal	-9.21875
▁flying	-9.21928
ie	-9.22017
re	-9.22102
▁east	-9.22119
less	-9.22163
▁flowers	-9.22337
▁consider	-9.22496
▁repeat	-9.22857
▁honest	-9.2292
th	-9.22974
▁shame	-9.23205
▁restaurant	-9.23229
▁formula	-9.23229
▁larry	-9.23229
▁basketball	-9.2323
▁taught	-9.23231
▁emma	-9.23239
▁huge	-9.23265
▁shape	-9.23531
▁ben	-9.23692
▁shoes	-9.23763
▁loves	-9.24209
▁thistlewaite	-9.24339
▁jungle	-9.24358
▁deserve	-9.24378
▁view	-9.24455
▁partner	-9.24526
▁spirit	-9.24545
▁map	-9.24576
▁egg	-9.24578
▁officer	-9.24607
▁moved	-9.24642
▁swear	-9.25414
▁st	-9.2549
▁secrets	-9.25527
▁europe	-9.25611
▁complete	-9.25615
▁public	-9.2574
▁double	-9.25874
▁pieces	-9.25897
▁beaufort	-9.25931
▁built	-9.25931
▁decision	-9.25931
▁dennis	-9.25931
▁hadnt	-9.25931
▁marguerite	-9.25931
▁soccer	-9.25932
▁mansur	-9.25934
▁beach	-9.25935
▁gloria	-9.25935
▁milo	-9.25938
▁daley	-9.25946
▁meat	-9.25949
▁exclaiming	-9.2597
▁zero	-9.25973
▁grug	-9.25991
▁nearly	-9.26196
▁figured	-9.26276
▁clearly	-9.26383
▁orders	-9.26403
▁ii	-9.26477
rs	-9.26584
ka	-9.26636
▁nah	-9.26724
ous	-9.26775
▁n	-9.26806
▁crow	-9.26931
▁track	-9.27015
▁bite	-9.27038
▁rose	-9.27279
▁idiot	-9.27288
▁si	-9.27341
▁nature	-9.27372
▁art	-9.27782
▁sue	-9.28219
▁enter	-9.28308
▁dig	-9.28656
▁settle	-9.28656
▁loose	-9.28681
▁marmalade	-9.28709
▁mufasa	-9.28709
▁pumbaa	-9.28709
▁became	-9.28709
▁upset	-9.2871
▁hindi	-9.28712
▁practice	-9.28713
▁rise	-9.28718
▁writing	-9.28721
▁factory	-9.28724
▁saving	-9.28728
▁gross	-9.28728
▁toto	-9.2873
▁handsome	-9.28744
▁bonsai	-9.28748
▁promised	-9.29303
▁cook	-9.29316
▁contact	-9.29711
▁crown	-9.29755
▁books	-9.29961
ia	-9.29999
▁difference	-9.30062
▁path	-9.30064
▁bow	-9.30092
▁spell	-9.30112
▁eggs	-9.30122
▁rope	-9.3017
▁birdie	-9.30199
▁fella	-9.30265
▁sleeping	-9.30563
▁horn	-9.30845
▁doors	-9.31355
▁blame	-9.31367
▁rescue	-9.31419
▁doc	-9.31431
▁excited	-9.31437
▁up	-9.31476
▁archer	-9.31477
▁bringing	-9.3152
▁heavy	-9.31566
▁heavily	-9.31566
▁laszlo	-9.31566
▁society	-9.31566
▁wax	-9.31567
▁rico	-9.31567
▁duke	-9.31569
▁rj	-9.31569
▁patty	-9.3157
▁clock	-9.3157
▁diary	-9.31573
▁prime	-9.31579
▁choose	-9.31581
▁sally	-9.31613
▁trick	-9.3167
▁mumbles	-9.31745
▁brothers	-9.32036
▁turns	-9.32117
▁shine	-9.32532
an	-9.32866
▁court	-9.32991
▁character	-9.33058
▁ogre	-9.33088
▁creature	-9.3314
▁simpl	-9.33389
▁staying	-9.335
▁bless	-9.33824
and	-9.33869
▁keys	-9.33987
▁accept	-9.34187
▁mention	-9.34233
▁plus	-9.34282
▁phil	-9.34326
▁difficult	-9.34328
▁scott	-9.34334
▁survive	-9.34335
▁due	-9.34436
▁card	-9.34461
▁leonard	-9.3447
▁foreign	-9.34479
▁area	-9.34508
▁julius	-9.34508
▁sven	-9.34508
▁hermione	-9.34508
▁oclock	-9.34508
▁information	-9.34511
▁girlfriend	-9.34512
▁robin	-9.34515
▁comfortable	-9.34517
▁immediately	-9.34531
▁engaged	-9.34535
▁boom	-9.34564
▁stopped	-9.34585
▁bobby	-9.3459
▁howd	-9.34608
▁exclaims	-9.34652
▁concerned	-9.34668
▁stevens	-9.34694
▁closer	-9.3471
▁hyenas	-9.34733
▁haha	-9.34749
▁chewing	-9.34812
▁shed	-9.34828
▁surprised	-9.34895
▁destroyed	-9.35158
▁reed	-9.35193
▁harder	-9.35246
▁burn	-9.35341
▁feed	-9.35647
▁store	-9.35854
▁journey	-9.35949
▁adventure	-9.36079
▁warning	-9.36104
▁hagrid	-9.36106
▁rocket	-9.36106
▁dragon	-9.36134
▁guest	-9.36184
▁del	-9.36352
▁tickets	-9.36546
▁climb	-9.36827
▁add	-9.37005
▁neck	-9.37034
▁dash	-9.3713
▁appear	-9.3724
▁dust	-9.37265
▁devil	-9.37271
▁release	-9.37358
▁corn	-9.37505
▁military	-9.37538
▁purpose	-9.37538
▁terrific	-9.37538
▁female	-9.37538
▁wherever	-9.37544
▁squad	-9.37546
▁zone	-9.37558
▁butter	-9.37596
▁weight	-9.37601
▁tie	-9.37621
▁sandy	-9.37682
▁ray	-9.37703
▁arm	-9.37997
▁talked	-9.3804
▁dry	-9.38067
▁passed	-9.3821
▁bing	-9.38359
▁seemed	-9.38397
▁gas	-9.3841
▁expecting	-9.38447
▁pa	-9.38494
▁sail	-9.38504
to	-9.38868
▁cheer	-9.39007
▁training	-9.3903
▁storm	-9.39076
▁animals	-9.39127
▁freeze	-9.39234
▁beer	-9.39278
▁gods	-9.39341
▁leader	-9.39451
▁hoo	-9.39646
▁camp	-9.40078
▁discuss	-9.40337
▁farm	-9.40376
▁trash	-9.40483
▁rough	-9.40501
▁dirt	-9.40505
▁joe	-9.40526
▁wee	-9.40537
▁do	-9.40633
▁courage	-9.40652
▁sugar	-9.40655
▁genius	-9.40663
▁lawrence	-9.40663
▁stomach	-9.40663
▁toilet	-9.40663
▁pepper	-9.40664
▁bailey	-9.40664
▁teddy	-9.40668
▁sobbing	-9.40677
▁airport	-9.40678
▁theyd	-9.40682
▁friendship	-9.40694
▁sadness	-9.40701
▁sold	-9.40715
▁jimmy	-9.40718
▁yah	-9.40724
▁suddenly	-9.40728
▁silly	-9.40784
▁hoping	-9.40864
▁sweetie	-9.40919
▁guards	-9.40936
▁fort	-9.40999
▁magical	-9.41026
▁lies	-9.4103
▁deeply	-9.41087
▁fades	-9.41116
▁expected	-9.41345
▁barks	-9.41354
▁students	-9.41558
▁large	-9.41624
▁draw	-9.41794
▁per	-9.42016
eat	-9.42347
▁cup	-9.42411
▁truck	-9.42469
▁goat	-9.42502
▁troop	-9.42509
▁gate	-9.42543
▁brains	-9.42745
▁krabs	-9.42772
ng	-9.42811
▁r	-9.42969
time	-9.43022
▁suggest	-9.43087
▁dads	-9.43325
▁gather	-9.4348
▁chip	-9.43515
▁glass	-9.43856
▁attitude	-9.43889
▁forgotten	-9.43889
▁principal	-9.43889
▁rapunzel	-9.43889
▁ridiculous	-9.43889
▁stuart	-9.43889
▁whether	-9.43889
▁yesterday	-9.43889
▁zazu	-9.43889
▁colony	-9.43889
▁ethan	-9.43889
▁edmund	-9.43889
▁bluster	-9.4389
▁wilson	-9.4389
▁stories	-9.43891
▁trent	-9.43892
▁hm	-9.43895
▁fantastic	-9.43896
▁frozen	-9.43898
▁cash	-9.43903
▁johnson	-9.43913
▁obviously	-9.43928
▁doo	-9.43948
▁manny	-9.43971
▁played	-9.43978
▁gum	-9.44026
▁shrieks	-9.44052
land	-9.44102
▁prepared	-9.44142
▁pete	-9.4419
▁rocks	-9.4433
▁stayed	-9.4458
▁bananas	-9.44633
▁growing	-9.44636
▁code	-9.44679
▁vo	-9.44693
um	-9.44694
▁ears	-9.4488
▁closed	-9.44923
▁risk	-9.45195
▁alarm	-9.45266
▁sh	-9.45288
▁older	-9.45301
▁beep	-9.45458
▁jon	-9.45614
▁edward	-9.4563
▁sword	-9.45792
▁system	-9.45806
▁hip	-9.45841
▁pilot	-9.45868
▁there	-9.46213
▁lines	-9.46485
▁cats	-9.4653
▁arrest	-9.46933
▁se	-9.4697
▁grand	-9.47044
▁split	-9.47201
▁colonel	-9.47222
▁exciting	-9.47222
▁happiness	-9.47222
▁joseph	-9.47222
▁mercedes	-9.47222
▁often	-9.47222
▁willoughby	-9.47222
▁marianne	-9.47222
▁ernie	-9.47222
▁justice	-9.47222
▁froggy	-9.47222
▁clever	-9.47223
▁shouldve	-9.47224
▁desk	-9.47224
▁robert	-9.47225
▁kong	-9.47228
▁usual	-9.47232
▁da	-9.47235
▁gotten	-9.47238
▁energy	-9.47257
▁sensei	-9.47271
▁keeps	-9.47279
▁knuckles	-9.47291
▁willy	-9.47297
▁male	-9.47308
▁pictures	-9.47557
▁hunters	-9.47655
▁gus	-9.47927
▁couldve	-9.48533
ant	-9.48736
▁cards	-9.48792
▁exist	-9.48912
▁heat	-9.49037
▁games	-9.49064
▁opinion	-9.49075
▁strike	-9.49086
▁angeline	-9.49154
▁skin	-9.4922
▁plans	-9.4958
▁correct	-9.50155
do	-9.5019
we	-9.50313
▁pie	-9.50389
▁grant	-9.50469
▁proper	-9.50546
▁milk	-9.50658
▁hakuna	-9.5067
▁mancub	-9.5067
▁science	-9.5067
▁thief	-9.5067
▁anthony	-9.5067
▁atlantis	-9.5067
▁margaret	-9.5067
▁pride	-9.50671
▁rumbling	-9.50671
▁tongue	-9.50671
▁cruel	-9.50672
▁matata	-9.50672
▁whoohoo	-9.50673
▁hammy	-9.50673
▁nowhere	-9.50676
▁fake	-9.50677
▁fancy	-9.50681
▁type	-9.50683
▁snoring	-9.50691
▁whispering	-9.50706
▁coat	-9.50729
▁stolen	-9.50731
▁row	-9.5074
▁ew	-9.50741
▁mood	-9.50746
▁hellno	-9.50752
▁rings	-9.50788
▁raised	-9.5096
▁beard	-9.51321
▁pet	-9.51486
▁bro	-9.51566
▁fishing	-9.51878
▁bother	-9.52016
▁form	-9.52034
no	-9.52098
▁tuck	-9.52154
▁block	-9.52376
▁steve	-9.5261
▁likes	-9.52762
▁level	-9.5277
▁film	-9.52821
▁agent	-9.5285
▁mighty	-9.52851
▁er	-9.52859
▁sand	-9.52908
▁paying	-9.52942
▁bucks	-9.52951
▁reporter	-9.52979
ful	-9.53056
▁nut	-9.53149
▁o	-9.53185
▁stage	-9.53194
▁wise	-9.53301
▁ron	-9.53377
▁bath	-9.53428
▁rent	-9.53514
▁mothers	-9.53531
▁smoke	-9.53886
▁louis	-9.54009
▁command	-9.54017
▁turning	-9.54028
▁speaks	-9.54049
▁jealous	-9.54076
▁permanent	-9.54081
▁sharp	-9.5412
▁barrie	-9.5415
▁dis	-9.54171
▁group	-9.54234
▁dumbledore	-9.54242
▁ferdinand	-9.54242
▁violet	-9.54242
▁hidden	-9.54242
▁judy	-9.54242
▁brit	-9.54242
▁twenty	-9.54245
▁grandpa	-9.54246
▁grandfather	-9.54247
▁twice	-9.54247
▁washington	-9.54248
▁weekend	-9.5425
▁showed	-9.54251
▁lionel	-9.54256
▁mister	-9.54286
▁sniffing	-9.54313
▁hurts	-9.54426
▁failed	-9.54428
▁noticed	-9.54528
▁nala	-9.5466
▁filled	-9.54684
▁ld	-9.54803
▁places	-9.55035
▁career	-9.55178
▁ma	-9.55667
▁va	-9.55966
▁main	-9.56241
age	-9.56298
▁who	-9.56303
▁smells	-9.56324
▁continue	-9.56421
▁season	-9.5645
▁belt	-9.56459
▁tiger	-9.56526
▁account	-9.56529
▁chef	-9.56531
▁member	-9.56559
▁richard	-9.56566
▁rabbit	-9.56579
▁cost	-9.56607
▁page	-9.56886
▁calls	-9.5716
ah	-9.5737
▁matters	-9.57413
▁yo	-9.57573
▁lift	-9.57653
▁chase	-9.57749
▁spare	-9.57763
▁en	-9.5784
▁gentle	-9.57927
▁mowgli	-9.57945
▁ossory	-9.57945
▁phoenix	-9.57945
▁someday	-9.57945
▁somehow	-9.57945
▁upstairs	-9.57945
▁nacho	-9.57945
▁weather	-9.57946
▁romantic	-9.57946
▁templeton	-9.57946
▁poopypants	-9.57946
▁awake	-9.57947
▁elise	-9.5795
▁happily	-9.5795
▁particular	-9.57951
▁duty	-9.57954
▁whimpering	-9.57954
▁support	-9.57955
▁nasty	-9.57958
▁apparently	-9.57959
▁emergency	-9.57961
▁began	-9.57963
▁guilty	-9.57979
▁fred	-9.57999
▁trumpets	-9.58025
▁hai	-9.58033
w	-9.58034
la	-9.58111
▁roaring	-9.58119
▁newland	-9.58126
▁honestly	-9.58146
▁commander	-9.58179
▁stairs	-9.58179
▁squeals	-9.5818
▁helped	-9.58244
▁pounds	-9.58284
▁locked	-9.58416
▁vi	-9.58444
ar	-9.58471
▁higher	-9.58526
▁lips	-9.58598
▁perfectly	-9.58767
▁acting	-9.58899
▁ends	-9.58934
▁knocking	-9.59111
se	-9.59312
os	-9.59362
▁pleased	-9.59451
▁interest	-9.59523
▁shower	-9.59932
▁tunes	-9.59954
▁load	-9.59968
▁score	-9.6014
▁serve	-9.60181
▁crew	-9.60198
▁decide	-9.60212
▁roger	-9.60275
led	-9.60309
▁favor	-9.60312
▁astronaut	-9.60314
▁bastard	-9.60314
▁paul	-9.60343
▁camera	-9.60383
▁patient	-9.60632
▁pray	-9.60715
▁cares	-9.60744
▁log	-9.60861
te	-9.60959
▁papers	-9.61018
▁faces	-9.61235
▁opening	-9.61262
▁chew	-9.61289
▁recognize	-9.61608
▁walls	-9.61646
▁crap	-9.61649
▁blast	-9.61692
▁collect	-9.61768
▁rowley	-9.61771
▁krupp	-9.61792
▁memories	-9.61792
▁precious	-9.61792
▁thomas	-9.61792
▁tournament	-9.61792
▁cowboy	-9.61792
▁spock	-9.61793
▁grateful	-9.61794
▁francisco	-9.61794
▁engagement	-9.61794
▁twinkle	-9.61794
▁within	-9.61794
▁jenny	-9.61796
▁primero	-9.61796
▁planning	-9.61798
▁aboard	-9.618
▁coughing	-9.618
▁destiny	-9.6182
▁auntie	-9.61825
▁hans	-9.61835
▁national	-9.61839
▁chanting	-9.6185
▁safety	-9.61857
▁willing	-9.61863
▁owner	-9.61879
▁whispers	-9.61928
▁gotcha	-9.61941
▁oil	-9.61974
▁tickle	-9.61982
▁signal	-9.62029
▁ls	-9.62031
ce	-9.62231
▁knowing	-9.62453
▁kicked	-9.62568
▁trade	-9.62627
▁fate	-9.6274
▁points	-9.62796
▁di	-9.63236
▁rat	-9.6359
the	-9.63986
▁stays	-9.64095
▁program	-9.64173
▁opened	-9.64273
▁breaking	-9.64308
▁lesson	-9.64432
▁believed	-9.648
▁tricks	-9.64971
▁march	-9.65031
▁it	-9.65075
▁announce	-9.65406
▁weak	-9.65449
▁focus	-9.65489
▁crush	-9.65518
▁singer	-9.6558
▁introduce	-9.65617
▁natural	-9.65644
▁fur	-9.65649
▁prison	-9.65696
▁adorable	-9.65792
▁familiar	-9.65792
▁hudson	-9.65792
▁knowledge	-9.65792
▁kowalski	-9.65792
▁written	-9.65792
▁advice	-9.65792
▁brilliant	-9.65792
▁desert	-9.65792
▁roof	-9.65792
▁government	-9.65792
▁bathroom	-9.65793
▁threw	-9.65793
▁easier	-9.65794
▁bread	-9.65818
▁anson	-9.65826
▁hatter	-9.65828
▁liar	-9.65845
▁lab	-9.65875
▁useless	-9.65876
▁barrier	-9.65907
▁preacher	-9.65909
▁tablet	-9.65937
▁pit	-9.65965
▁beasts	-9.65979
▁pity	-9.65999
▁agreed	-9.66068
ist	-9.66148
▁taxi	-9.66162
▁worker	-9.66188
▁silence	-9.66231
▁jackets	-9.6627
▁moves	-9.6632
▁gives	-9.66341
▁billy	-9.66414
▁kinda	-9.66451
▁rub	-9.66521
▁letting	-9.66604
▁so	-9.66762
is	-9.66831
▁signed	-9.67072
▁cheers	-9.67591
▁fellas	-9.67754
▁crack	-9.68023
▁judge	-9.68194
▁talent	-9.68263
▁states	-9.68322
▁champion	-9.68366
▁deck	-9.68385
▁no	-9.68452
▁apartment	-9.68501
▁dolphin	-9.68546
▁ed	-9.68564
▁russian	-9.68587
▁action	-9.68589
▁wave	-9.68622
▁kings	-9.68637
▁to	-9.68722
▁soldiers	-9.68774
▁headed	-9.68896
▁ms	-9.68991
▁search	-9.69258
▁moms	-9.69301
▁wash	-9.69319
▁paint	-9.69523
▁panic	-9.69574
▁monsters	-9.6958
▁stops	-9.69585
▁poison	-9.69653
hop	-9.6968
▁mush	-9.69772
▁schedule	-9.69779
▁bud	-9.69786
▁plant	-9.69794
▁base	-9.69828
▁express	-9.69941
▁chair	-9.69951
▁aisha	-9.69958
▁asleep	-9.69958
▁douglas	-9.69958
▁innocent	-9.69958
▁kansas	-9.69958
▁otherwise	-9.69958
▁piano	-9.69958
▁stammering	-9.69958
▁weasley	-9.69958
▁telephone	-9.69958
▁dutch	-9.69959
▁humming	-9.69959
▁stood	-9.69959
▁thatch	-9.6996
▁address	-9.6996
▁unknown	-9.69961
▁dashwood	-9.69961
▁julie	-9.69965
▁brandon	-9.69966
▁soup	-9.69973
▁credit	-9.69974
▁madeleine	-9.69974
▁heading	-9.69987
▁jared	-9.6999
▁regret	-9.69998
▁spring	-9.69998
▁proof	-9.70038
▁charles	-9.70049
▁lola	-9.70058
▁discovered	-9.70063
▁approaching	-9.70068
▁tall	-9.70129
▁eaten	-9.70161
▁lower	-9.70174
▁bum	-9.70192
▁minions	-9.70282
▁apologize	-9.70411
▁ruined	-9.70444
▁burning	-9.70516
▁fired	-9.71316
▁ne	-9.71396
u	-9.71562
▁lookin	-9.71576
ary	-9.71909
▁remain	-9.72143
▁hanging	-9.72215
▁stink	-9.72487
▁jerk	-9.72664
▁shin	-9.72699
▁german	-9.72777
▁kitten	-9.72787
▁mum	-9.72866
▁crystal	-9.72884
▁fan	-9.72904
▁sailor	-9.72911
▁tin	-9.72926
▁odd	-9.72939
▁finger	-9.72951
▁sub	-9.73008
▁crash	-9.73626
▁humans	-9.73674
▁cab	-9.73688
▁ear	-9.73847
▁interrupt	-9.73867
▁opens	-9.73932
▁chest	-9.74017
▁lake	-9.74072
▁assure	-9.74119
▁answers	-9.74121
▁separate	-9.74141
▁regular	-9.7415
▁nothings	-9.74194
▁heave	-9.74268
▁cannonball	-9.74281
▁georgi	-9.74286
▁player	-9.7429
▁francis	-9.74304
▁cackling	-9.74306
▁lieutenant	-9.74306
▁mukhtar	-9.74306
▁ominous	-9.74306
▁treasure	-9.74306
▁suspens	-9.74306
▁fortunate	-9.74306
▁rudy	-9.74307
▁revenge	-9.74307
▁palace	-9.74308
▁style	-9.74308
▁buddies	-9.74309
▁narnia	-9.7431
▁jj	-9.74311
▁foul	-9.74314
▁oome	-9.74317
▁halt	-9.74332
▁rare	-9.74357
▁steady	-9.74367
▁screeching	-9.74368
▁glasses	-9.74374
▁nest	-9.74419
▁heroes	-9.74447
ern	-9.74459
▁gim	-9.74466
▁ian	-9.74476
▁sniffs	-9.74588
▁nervously	-9.74606
▁claws	-9.74763
▁hill	-9.74782
▁switch	-9.74872
▁slowly	-9.74961
▁hug	-9.7498
▁riding	-9.75081
im	-9.75167
▁mere	-9.75292
▁kw	-9.75419
▁lately	-9.75543
▁weapons	-9.7563
▁experience	-9.75665
▁tu	-9.75679
▁everybodys	-9.75748
b	-9.75894
▁pilots	-9.76126
one	-9.76152
ance	-9.76706
▁ideas	-9.76811
▁wheel	-9.76854
▁request	-9.76956
▁following	-9.7702
▁intend	-9.77027
▁tear	-9.77067
▁crime	-9.77254
▁photo	-9.77267
▁effort	-9.7736
▁manage	-9.77366
▁coward	-9.77384
▁lordship	-9.77392
▁asteroid	-9.77398
▁angel	-9.7745
▁squirrel	-9.77462
▁weapon	-9.77484
▁garden	-9.77497
▁balls	-9.77504
▁villain	-9.77555
▁tour	-9.77606
eful	-9.77679
▁success	-9.77717
▁movies	-9.77742
▁pro	-9.77885
ism	-9.78091
▁fetch	-9.78339
▁hatch	-9.78509
▁bee	-9.7859
▁receive	-9.7868
▁mountains	-9.78696
▁coast	-9.78759
▁terribl	-9.78761
▁drunk	-9.78827
▁weasel	-9.78849
▁aslan	-9.78852
▁butler	-9.78852
▁dalgleish	-9.78852
▁ferrars	-9.78852
▁garbage	-9.78852
▁goddamn	-9.78852
▁imagination	-9.78852
▁slytherin	-9.78852
▁headquarters	-9.78852
▁autobot	-9.78852
▁ramses	-9.78852
▁dojo	-9.78852
▁planned	-9.78852
▁ease	-9.78853
▁bottle	-9.78853
▁assistant	-9.78854
▁whoever	-9.78854
▁mmmhmm	-9.78854
▁exit	-9.78854
▁ox	-9.78855
▁blew	-9.78855
▁kitty	-9.78856
▁alert	-9.78858
▁aware	-9.78858
▁electric	-9.78858
▁pacino	-9.78858
▁jeremy	-9.78861
▁truly	-9.78862
▁birth	-9.78867
▁pole	-9.78885
▁dean	-9.78903
▁involved	-9.78906
▁sato	-9.78909
▁nearby	-9.78911
▁chirping	-9.78935
▁bound	-9.78962
▁created	-9.78968
▁delighted	-9.7898
▁setting	-9.7898
▁bike	-9.79
ton	-9.79131
▁streets	-9.79139
▁stronger	-9.792
▁oops	-9.79271
▁strains	-9.79336
▁boots	-9.79393
▁towards	-9.79399
▁offered	-9.79653
▁bello	-9.79765
▁twins	-9.79907
▁whistles	-9.80045
▁returned	-9.8013
▁hearts	-9.80161
▁wha	-9.80165
▁songs	-9.8086
▁guests	-9.80954
▁creatures	-9.81019
▁assume	-9.81182
▁hoped	-9.81229
il	-9.81252
▁suck	-9.81336
▁worlds	-9.81456
▁shows	-9.81837
▁post	-9.81939
▁bars	-9.81982
▁tenneray	-9.82016
▁tunnel	-9.82017
▁upb	-9.82077
▁combination	-9.82092
▁column	-9.8216
▁shirt	-9.82226
▁student	-9.82254
▁belongs	-9.82273
▁closes	-9.82288
▁tr	-9.82487
▁seats	-9.8263
▁bang	-9.82881
sh	-9.8292
▁ali	-9.83028
▁weep	-9.83214
ter	-9.83243
▁twist	-9.83334
▁sacrifice	-9.83393
▁desperate	-9.83448
▁total	-9.83482
▁wing	-9.83514
▁frank	-9.83532
▁tradition	-9.83548
▁among	-9.83589
▁somethin	-9.83599
▁percent	-9.83607
▁audrey	-9.83613
▁afford	-9.83613
▁matrix	-9.83613
▁fought	-9.83614
▁motes	-9.83614
▁audience	-9.83614
▁milady	-9.83614
▁heir	-9.83614
▁plastic	-9.83614
▁diane	-9.83615
▁meow	-9.83616
▁estate	-9.83617
▁nixon	-9.83617
▁bitch	-9.83617
▁blah	-9.83617
▁grantham	-9.83618
▁loving	-9.8362
▁miniboss	-9.8362
▁understood	-9.8362
▁aside	-9.83621
▁grace	-9.83621
▁pressure	-9.83623
▁medical	-9.83623
▁barber	-9.83624
▁rosie	-9.83625
▁vincent	-9.83626
▁watergate	-9.83628
▁property	-9.8363
▁hannah	-9.8363
▁solid	-9.83631
▁according	-9.83636
▁balance	-9.83636
▁haul	-9.83637
▁vocalizing	-9.83643
▁mail	-9.83646
▁frightened	-9.83649
▁pink	-9.83656
▁killing	-9.83666
▁settled	-9.83918
▁bay	-9.84243
▁rocky	-9.84276
▁closet	-9.84285
▁cooking	-9.84297
▁gee	-9.84442
▁reached	-9.84445
▁hunting	-9.84526
▁knees	-9.84731
▁golf	-9.84814
▁doctors	-9.84989
▁tears	-9.85104
▁throwing	-9.85306
▁finding	-9.85461
z	-9.85468
▁pot	-9.85625
▁tells	-9.85845
▁pulling	-9.86041
▁gang	-9.86217
▁freak	-9.86274
▁yell	-9.8652
▁salt	-9.86826
ans	-9.8703
▁fo	-9.87044
▁goal	-9.87077
▁demand	-9.87094
▁defense	-9.8714
▁nightmare	-9.87159
▁paw	-9.87179
▁standard	-9.87181
▁conversation	-9.87191
▁source	-9.87193
▁target	-9.87197
▁criminal	-9.87213
▁dollar	-9.87265
▁fa	-9.87274
▁tale	-9.87432
▁bulls	-9.87484
just	-9.87885
▁leaves	-9.88113
you	-9.88235
▁harm	-9.88263
▁bron	-9.88354
though	-9.88375
▁damage	-9.88433
▁cell	-9.88537
▁enz	-9.88593
▁fashion	-9.88593
▁journal	-9.88606
▁advantage	-9.88613
▁cassidy	-9.88613
▁conrad	-9.88613
▁mulgarath	-9.88613
▁okinawa	-9.88613
▁olenska	-9.88613
▁sergeant	-9.88613
▁turtle	-9.88613
▁video	-9.88613
▁worries	-9.88613
▁conference	-9.88614
▁magnificent	-9.88614
▁pleasant	-9.88614
▁responsible	-9.88614
▁knife	-9.88614
▁koskov	-9.88614
▁rude	-9.88614
▁meteorite	-9.88614
▁neighborhood	-9.88614
▁sarah	-9.88614
▁davies	-9.88614
▁earlier	-9.88614
▁midnight	-9.88614
▁department	-9.88616
▁patrol	-9.88616
▁eugene	-9.88616
▁freedom	-9.88619
▁plain	-9.88623
▁glenn	-9.88624
▁mostly	-9.88625
▁opportunity	-9.88626
▁staff	-9.88626
▁scottie	-9.8863
▁shant	-9.88631
▁clay	-9.88632
▁pair	-9.88632
▁cast	-9.88635
▁stock	-9.88636
▁reverse	-9.88639
▁boyfriend	-9.88642
▁screen	-9.88645
▁trumpeting	-9.88645
▁bala	-9.8865
▁lonely	-9.88661
▁pure	-9.88668
▁mansion	-9.88703
▁presents	-9.8875
▁invited	-9.88782
▁received	-9.88805
▁remembered	-9.88871
▁customers	-9.88943
▁personally	-9.88958
▁metal	-9.8899
▁munchkins	-9.89076
▁indistinctly	-9.89108
▁realized	-9.89167
▁dressed	-9.89343
▁voices	-9.89411
▁lied	-9.8951
▁covered	-9.89615
▁selling	-9.89634
▁rider	-9.89738
▁divorce	-9.9002
▁port	-9.90033
▁horses	-9.90041
▁teaching	-9.90044
et	-9.90063
▁villains	-9.90147
▁angels	-9.90148
▁passing	-9.9017
▁counting	-9.9019
▁touched	-9.90271
▁iron	-9.90303
▁trap	-9.9054
▁friendly	-9.90723
▁falls	-9.90746
▁followed	-9.90895
▁mans	-9.90988
▁lou	-9.91192
▁deserves	-9.91233
▁positions	-9.91445
▁juice	-9.91571
▁li	-9.91747
▁cub	-9.91763
▁monkeys	-9.91881
ey	-9.91968
▁concern	-9.91989
▁badge	-9.92106
▁woo	-9.92126
▁grunt	-9.92165
▁ocean	-9.92355
▁minister	-9.92358
▁universe	-9.92397
▁maid	-9.92422
▁pocket	-9.92482
▁sale	-9.92484
▁cow	-9.92491
▁condition	-9.92498
▁whistle	-9.92508
▁yard	-9.92632
▁pre	-9.92746
▁prize	-9.92767
▁ways	-9.9281
▁led	-9.92887
▁chop	-9.93027
▁shoo	-9.93283
▁self	-9.93459
▁copy	-9.93507
▁poop	-9.93544
▁cancel	-9.93548
▁crate	-9.93559
▁heal	-9.93583
▁du	-9.93635
▁fi	-9.93798
▁event	-9.93816
▁legal	-9.93848
▁hanna	-9.93858
▁lala	-9.93866
▁basket	-9.93875
▁interview	-9.93876
▁aladar	-9.93877
▁arthur	-9.93877
▁expensive	-9.93877
▁ferrari	-9.93877
▁heffley	-9.93877
▁laurel	-9.93877
▁mystery	-9.93877
▁rufus	-9.93877
▁ugga	-9.93877
▁whenever	-9.93877
▁mysterious	-9.93877
▁silent	-9.93877
▁necessities	-9.93877
▁otto	-9.93878
▁joking	-9.93879
▁chasing	-9.93879
▁saint	-9.9388
▁television	-9.9388
▁smee	-9.9388
▁decent	-9.93881
▁guapo	-9.93881
▁zeta	-9.93882
▁governor	-9.93882
▁impressive	-9.93882
▁defend	-9.93883
▁noble	-9.93884
▁grew	-9.93884
▁square	-9.93884
▁peaches	-9.93885
▁artist	-9.93889
▁stroke	-9.93892
▁dropped	-9.93895
▁gently	-9.93895
▁wasting	-9.93896
▁distance	-9.93897
▁massey	-9.939
▁darlington	-9.93908
▁bride	-9.93913
▁snowman	-9.93915
▁nobodys	-9.93925
▁arranged	-9.93936
▁darkness	-9.93942
▁racing	-9.93947
▁kai	-9.93958
▁ex	-9.93973
▁disgusting	-9.93974
▁julian	-9.93985
▁runs	-9.94064
▁bears	-9.94074
▁benn	-9.94177
▁buzzing	-9.94233
▁entirely	-9.94336
▁flat	-9.94355
▁mentioned	-9.94403
▁greetings	-9.9444
▁cops	-9.94681
▁brakes	-9.94741
▁wine	-9.94802
▁ira	-9.94849
son	-9.94894
▁swim	-9.94974
ble	-9.95317
▁pushing	-9.95352
▁wings	-9.95408
▁useful	-9.95456
▁germans	-9.95575
▁trained	-9.9583
▁rabbits	-9.95911
▁beating	-9.9597
▁aha	-9.96149
ch	-9.96172
▁teller	-9.96242
ized	-9.96371
▁islands	-9.96533
▁checked	-9.96551
▁lack	-9.96602
ee	-9.96624
▁concentrate	-9.96754
▁lions	-9.96873
▁dam	-9.96902
▁hopes	-9.96991
▁pigs	-9.97067
▁fail	-9.97179
way	-9.97269
▁somethings	-9.97346
▁tape	-9.97688
▁pe	-9.97763
▁potion	-9.9786
▁operation	-9.97917
▁flame	-9.9792
▁scarecrow	-9.97951
▁tank	-9.97965
▁adult	-9.97985
▁miracle	-9.97995
▁string	-9.98016
▁professional	-9.9803
▁col	-9.9803
▁shoulder	-9.98049
▁loser	-9.98359
lf	-9.98547
▁mi	-9.98682
▁disappear	-9.98699
▁bags	-9.98721
▁ka	-9.98733
▁attend	-9.98911
▁claim	-9.99144
▁earn	-9.99198
▁hills	-9.99239
▁propose	-9.99248
▁invite	-9.99264
▁fighter	-9.99279
▁positive	-9.99292
▁speech	-9.99379
▁sandwich	-9.99383
▁spoke	-9.99396
▁applause	-9.99432
▁ashamed	-9.99432
▁capsule	-9.99432
▁celebrate	-9.99432
▁challenge	-9.99432
▁families	-9.99432
▁hockey	-9.99432
▁paradise	-9.99432
▁quarrel	-9.99432
▁someplace	-9.99432
▁stammers	-9.99432
▁strasser	-9.99432
▁subtitle	-9.99432
▁thunk	-9.99432
▁vehicle	-9.99432
▁reverend	-9.99432
▁brenda	-9.99433
▁pumpkin	-9.99433
▁example	-9.99433
▁renault	-9.99433
▁squidward	-9.99433
▁patties	-9.99433
▁permission	-9.99433
▁vacation	-9.99434
▁remote	-9.99434
▁basically	-9.99435
▁closing	-9.99435
▁onto	-9.99436
▁regard	-9.99436
▁authority	-9.99437
▁burger	-9.99437
▁unhappy	-9.99437
▁section	-9.99439
▁welsh	-9.9944
▁insect	-9.9944
▁dexter	-9.9944
▁khan	-9.9944
▁valley	-9.99442
▁ginny	-9.99444
▁literally	-9.99445
▁stretch	-9.99455
▁winning	-9.99467
▁pool	-9.99477
▁piper	-9.99485
▁changing	-9.99489
▁disappointed	-9.99491
▁hire	-9.99493
▁laid	-9.99514
▁bat	-9.99532
▁fallen	-9.99547
▁lick	-9.99551
▁core	-9.99563
▁former	-9.99584
▁mo	-9.99596
▁abe	-9.99617
▁germany	-9.99643
▁rip	-9.99664
pa	-9.99681
▁the	-9.99702
▁ahh	-9.99786
▁sp	-9.99838
▁tires	-9.9987
▁victory	-9.99993
▁politics	-10.0003
▁passengers	-10.0003
▁bubbles	-10.0011
▁shouts	-10.0019
▁speaker	-10.0036
▁younger	-10.0037
▁sooner	-10.0049
▁imitate	-10.0054
▁fixed	-10.0056
▁parking	-10.0057
▁lads	-10.0067
▁grade	-10.007
me	-10.009
▁enjoying	-10.0119
▁mel	-10.0121
▁model	-10.0137
▁pulled	-10.0151
▁buying	-10.0165
▁showing	-10.0167
▁fart	-10.0197
ped	-10.0209
▁reminds	-10.0269
▁sin	-10.0271
▁jokes	-10.0301
▁nights	-10.0324
▁cap	-10.033
looking	-10.0336
▁india	-10.0342
▁ani	-10.0345
▁click	-10.035
▁teachers	-10.036
▁pen	-10.036
▁finds	-10.0369
▁watched	-10.0373
▁meal	-10.0377
▁shark	-10.0379
▁pizza	-10.038
▁knee	-10.0386
▁chap	-10.0392
▁banana	-10.0395
▁sometime	-10.0397
▁mile	-10.0403
▁down	-10.0411
▁bump	-10.0414
▁minds	-10.0456
▁butts	-10.0457
▁murder	-10.0467
▁seek	-10.047
▁chill	-10.0474
ts	-10.0485
▁opera	-10.0486
▁spread	-10.0491
▁buzz	-10.0493
▁faith	-10.0499
▁twin	-10.05
▁counter	-10.0508
▁cape	-10.0515
▁bust	-10.0523
▁tip	-10.0531
cient	-10.0531
▁carlotta	-10.0531
▁lydia	-10.0531
▁mirror	-10.0531
▁monterey	-10.0531
▁muffled	-10.0531
▁smedt	-10.0531
▁strangways	-10.0531
▁susan	-10.0531
▁technology	-10.0531
▁brandnew	-10.0531
▁splendid	-10.0531
▁surface	-10.0531
▁unusual	-10.0531
▁weaver	-10.0531
▁jeez	-10.0531
▁license	-10.0531
▁cooing	-10.0531
▁bravo	-10.0532
▁enemies	-10.0532
▁muttering	-10.0532
▁opposite	-10.0532
▁melvin	-10.0532
▁secure	-10.0532
▁vision	-10.0532
▁modern	-10.0532
▁motion	-10.0532
▁gorgeous	-10.0532
▁monday	-10.0532
▁competition	-10.0532
▁edge	-10.0532
▁glory	-10.0532
▁inhales	-10.0532
▁youth	-10.0532
▁dying	-10.0532
▁invention	-10.0532
▁disaster	-10.0533
▁staci	-10.0533
▁classified	-10.0533
▁boogie	-10.0533
▁clamoring	-10.0533
▁contract	-10.0533
▁bloom	-10.0533
▁wales	-10.0533
▁chapman	-10.0534
▁morty	-10.0534
▁snack	-10.0534
▁liz	-10.0535
▁selfish	-10.0535
▁pony	-10.0536
▁evans	-10.0536
▁filthy	-10.0537
▁inner	-10.0537
▁crab	-10.0539
▁dial	-10.0543
▁circumstances	-10.0544
▁oliver	-10.0548
▁hint	-10.0551
▁embarrassing	-10.0552
▁bruises	-10.0553
▁ham	-10.0561
▁disappeared	-10.0562
▁forced	-10.0577
▁escaped	-10.0579
▁daughters	-10.0588
▁searching	-10.059
▁wishes	-10.059
▁anne	-10.0602
▁smaller	-10.0608
▁waited	-10.0627
▁pirates	-10.0646
▁stealing	-10.0669
▁highly	-10.0673
▁engineer	-10.0682
▁v	-10.0684
▁wonders	-10.0695
▁events	-10.0707
▁mat	-10.0713
▁orl	-10.0718
▁russians	-10.0731
▁grave	-10.0735
▁brings	-10.0741
▁walked	-10.0751
▁ant	-10.0764
▁clip	-10.0764
bra	-10.0771
▁beeps	-10.0783
▁boo	-10.0784
▁sons	-10.0803
nt	-10.0823
ily	-10.084
our	-10.0852
▁bark	-10.0857
▁heavens	-10.0869
▁fellows	-10.0894
▁cars	-10.0919
▁hop	-10.0925
▁pee	-10.0925
▁woohoo	-10.095
der	-10.0957
▁flash	-10.0986
▁honour	-10.0995
▁issue	-10.0995
▁blanket	-10.0997
▁task	-10.0998
▁mud	-10.1001
▁riddle	-10.1004
▁newspaper	-10.1005
▁duck	-10.1008
▁attempt	-10.1008
▁clue	-10.1008
▁pigeon	-10.1011
▁scene	-10.1013
▁nerve	-10.1014
▁priest	-10.1015
▁quarter	-10.1016
▁fools	-10.1017
▁yelp	-10.1021
▁prisoner	-10.1026
▁babe	-10.1061
beat	-10.1065
ian	-10.1073
▁rush	-10.1079
▁creep	-10.1099
▁surely	-10.1101
ra	-10.111
▁darn	-10.1126
▁screw	-10.1127
▁spin	-10.113
▁triumphant	-10.1139
▁official	-10.1143
▁actual	-10.1144
ors	-10.1146
▁wide	-10.1153
as	-10.1154
▁nurse	-10.1156
▁resist	-10.1156
▁comin	-10.1156
▁debbie	-10.1156
▁enterprise	-10.1156
▁explosiveskull	-10.1156
▁grimlock	-10.1156
▁necessary	-10.1156
▁nevins	-10.1156
▁nonsense	-10.1156
▁popcorn	-10.1156
▁therefore	-10.1156
▁unicron	-10.1156
▁wolves	-10.1156
▁drove	-10.1156
▁serum	-10.1156
▁veruca	-10.1156
▁whyd	-10.1156
▁title	-10.1156
▁corporal	-10.1156
▁maintain	-10.1156
▁committee	-10.1157
▁jazz	-10.1157
▁digging	-10.1157
▁influence	-10.1157
▁friday	-10.1157
▁cherry	-10.1157
▁steam	-10.1157
▁throne	-10.1157
▁uplift	-10.1157
▁edith	-10.1157
▁charity	-10.1157
▁poopsie	-10.1157
▁powder	-10.1157
▁ozzie	-10.1157
▁simon	-10.1157
▁honeycutt	-10.1157
▁ouch	-10.1157
▁supper	-10.1157
▁suitcase	-10.1157
▁knight	-10.1157
▁shuttle	-10.1157
▁jail	-10.1157
▁flashlight	-10.1157
▁couch	-10.1157
▁confidence	-10.1157
▁terry	-10.1158
▁false	-10.1158
▁maxwell	-10.1158
▁popular	-10.1158
▁lightning	-10.1158
▁wig	-10.1158
▁faye	-10.1158
▁kron	-10.1158
▁complicated	-10.1158
▁shore	-10.1158
▁artie	-10.1159
▁chosen	-10.1159
▁pushkin	-10.116
▁soda	-10.116
▁precisely	-10.1161
▁spoken	-10.1161
▁anger	-10.1161
▁trapped	-10.1161
▁bedtime	-10.1163
▁wire	-10.1163
▁extremely	-10.1163
▁recipe	-10.1164
▁historic	-10.1164
▁classic	-10.1164
▁boring	-10.1164
▁manager	-10.1166
▁recently	-10.1166
▁fourth	-10.1167
▁squealing	-10.1168
▁stonea	-10.1168
▁squeaks	-10.117
▁beans	-10.1171
▁pod	-10.1171
▁grown	-10.1173
▁louise	-10.1173
▁gary	-10.1174
▁coal	-10.1178
▁degrees	-10.1179
▁warned	-10.118
▁wholl	-10.1186
▁drag	-10.1186
▁thoughts	-10.1187
▁rhythmic	-10.1191
▁orphans	-10.1206
▁arrested	-10.1212
▁burned	-10.1219
old	-10.1221
▁visitors	-10.1226
▁par	-10.1241
▁pitch	-10.1245
ted	-10.1245
▁der	-10.1246
▁honored	-10.1259
▁manners	-10.126
oooo	-10.1261
▁flag	-10.1263
▁pretending	-10.1272
▁sa	-10.1283
▁cookies	-10.1292
▁laughed	-10.1296
▁sha	-10.1306
▁staring	-10.1325
▁waters	-10.1372
▁rats	-10.1379
▁you	-10.138
▁pr	-10.1401
▁bon	-10.1422
▁reasons	-10.1423
▁gates	-10.1435
▁trace	-10.1453
▁penguin	-10.1458
▁picking	-10.1477
▁herd	-10.1479
▁learning	-10.1484
▁les	-10.1484
▁ohh	-10.1504
▁dealing	-10.1507
ize	-10.155
▁hurting	-10.1557
▁loca	-10.1584
▁comfort	-10.1589
▁charm	-10.1607
▁fog	-10.164
king	-10.1642
▁guide	-10.1644
▁signature	-10.1663
▁sweep	-10.1664
▁sauce	-10.1664
▁fence	-10.1667
▁includ	-10.167
▁subject	-10.1671
▁orange	-10.1672
▁mall	-10.1672
▁praise	-10.1674
▁magazine	-10.1675
▁oven	-10.1675
▁bedroom	-10.1676
▁numbers	-10.1676
▁height	-10.1681
▁robot	-10.1681
▁direction	-10.1684
▁plate	-10.1684
▁cookie	-10.1688
▁seal	-10.169
▁shoe	-10.1691
▁leo	-10.1702
▁nail	-10.1707
▁lad	-10.1717
▁rooms	-10.1736
▁scratch	-10.174
▁tag	-10.177
▁rot	-10.1777
▁accus	-10.1778
ini	-10.1778
▁respond	-10.1779
▁study	-10.1786
dy	-10.1791
▁reward	-10.1791
▁witness	-10.1793
away	-10.1795
▁social	-10.1807
▁firm	-10.1807
▁sudden	-10.1809
▁exact	-10.1809
▁betty	-10.1818
▁volcano	-10.1818
▁transit	-10.182
▁enchant	-10.1823
▁behavior	-10.1823
▁bonjour	-10.1823
▁champagne	-10.1823
▁commercial	-10.1823
▁explosion	-10.1823
▁extraordinary	-10.1823
▁gorilla	-10.1823
▁grissom	-10.1823
▁kadam	-10.1823
▁komay	-10.1823
▁montmirail	-10.1823
▁ordinary	-10.1823
▁proposal	-10.1823
▁relationship	-10.1823
▁technical	-10.1823
▁tumnus	-10.1823
▁underneath	-10.1823
▁merino	-10.1823
▁polite	-10.1823
▁unique	-10.1823
▁reputation	-10.1823
▁playtone	-10.1823
▁patience	-10.1823
▁argue	-10.1823
▁collar	-10.1823
▁ilsa	-10.1823
▁blackbeard	-10.1823
▁dauphin	-10.1823
▁invisible	-10.1823
▁failure	-10.1823
▁vicious	-10.1823
▁equipment	-10.1823
▁behold	-10.1823
▁superstar	-10.1823
▁medicine	-10.1823
▁item	-10.1824
▁brick	-10.1824
▁pinch	-10.1824
▁static	-10.1824
▁massive	-10.1824
▁legend	-10.1824
▁permit	-10.1824
▁junior	-10.1824
▁slept	-10.1824
▁theater	-10.1824
▁distant	-10.1824
▁barnes	-10.1824
▁augustus	-10.1824
▁habit	-10.1824
▁performance	-10.1825
▁oneders	-10.1825
▁quality	-10.1825
▁taff	-10.1825
▁market	-10.1825
▁route	-10.1825
▁print	-10.1826
▁valuable	-10.1826
▁tuna	-10.1827
▁dish	-10.1827
▁fluffy	-10.1827
▁practically	-10.1828
▁splutters	-10.1829
▁slippers	-10.1829
▁beam	-10.1829
▁gray	-10.183
▁murmuring	-10.183
▁dining	-10.1832
▁echoing	-10.1833
▁shrieking	-10.1833
▁howling	-10.1834
▁billion	-10.1836
▁healthy	-10.1838
▁navy	-10.1838
▁wandering	-10.1842
over	-10.1843
▁mixed	-10.1844
▁dumped	-10.1846
▁decepticons	-10.1847
▁gonga	-10.1849
▁value	-10.1858
▁turnin	-10.1863
▁skills	-10.1867
▁iii	-10.1875
▁helpless	-10.1875
▁loudly	-10.1877
▁finest	-10.1881
▁prayer	-10.1882
▁peaceful	-10.1887
▁dearest	-10.1896
▁bothering	-10.1901
▁me	-10.1901
▁terms	-10.1905
▁blinded	-10.1907
house	-10.1907
▁drawing	-10.1909
▁shown	-10.1915
▁toys	-10.1925
▁messed	-10.193
▁moments	-10.1936
▁testing	-10.194
▁pile	-10.1942
▁records	-10.1943
▁attacked	-10.1943
▁ge	-10.1953
▁houses	-10.1962
▁stare	-10.1962
▁rolling	-10.1994
▁ordered	-10.1999
▁winds	-10.2
▁traveling	-10.2021
▁cole	-10.2033
▁musical	-10.2045
▁landing	-10.206
▁steps	-10.2116
▁ch	-10.2142
▁dunk	-10.2164
▁cheat	-10.219
▁thick	-10.2209
x	-10.2213
▁hid	-10.2237
▁messages	-10.2238
▁bowl	-10.2243
▁bake	-10.2254
▁thousands	-10.2258
some	-10.2261
▁lap	-10.2282
▁macho	-10.2285
▁dreaming	-10.229
▁laws	-10.2307
▁suffer	-10.2311
▁bo	-10.2313
▁sport	-10.2335
▁flavor	-10.2351
▁trail	-10.2365
▁measure	-10.2366
▁invitation	-10.2378
▁outfit	-10.2378
▁cheek	-10.2379
▁experiment	-10.2379
ring	-10.2385
▁corp	-10.2387
▁peanut	-10.2395
▁pirate	-10.24
back	-10.2407
▁file	-10.2436
▁jos	-10.2448
▁chi	-10.2453
▁betterman	-10.2459
head	-10.2459
▁tastes	-10.2459
▁senses	-10.248
▁glow	-10.2485
▁avoid	-10.2492
▁rhythm	-10.2497
▁deny	-10.25
▁content	-10.2501
▁recall	-10.2504
▁insist	-10.2507
▁curious	-10.2507
▁wreck	-10.2507
▁illegal	-10.2521
▁health	-10.2522
▁oi	-10.2523
▁create	-10.2524
▁boil	-10.2525
▁unlike	-10.2526
▁dang	-10.2531
▁vince	-10.2536
▁available	-10.2537
▁chinese	-10.2537
▁covington	-10.2537
▁downstairs	-10.2537
▁easily	-10.2537
▁garrad	-10.2537
▁guitar	-10.2537
▁ignacio	-10.2537
▁jamboree	-10.2537
▁lincoln	-10.2537
▁lucille	-10.2537
▁luggage	-10.2537
▁megatron	-10.2537
▁offense	-10.2537
▁orleans	-10.2537
▁period	-10.2537
▁piranha	-10.2537
▁privacy	-10.2537
▁proceed	-10.2537
▁project	-10.2537
▁tranquil	-10.2537
▁tuesday	-10.2537
▁ugarte	-10.2537
▁whistling	-10.2537
▁curtain	-10.2537
▁elizabeth	-10.2537
▁francs	-10.2537
▁jaunt	-10.2537
▁roast	-10.2537
▁merrick	-10.2537
▁meatloaf	-10.2537
▁proposition	-10.2537
▁lucius	-10.2537
▁cruise	-10.2537
▁malik	-10.2537
▁material	-10.2537
▁italian	-10.2537
▁booboo	-10.2537
▁dylan	-10.2538
▁kelly	-10.2538
▁tribe	-10.2538
▁truce	-10.2538
▁eleven	-10.2538
▁waking	-10.2538
▁expedition	-10.2538
▁insane	-10.2538
▁chaos	-10.2538
▁border	-10.2538
▁kidnapped	-10.2538
▁begun	-10.2538
▁luka	-10.2538
▁garage	-10.2538
▁grip	-10.2538
▁lemon	-10.2538
▁angus	-10.2538
▁satisfied	-10.2538
▁traffic	-10.2538
▁armour	-10.2538
▁current	-10.2538
▁miserable	-10.2539
▁teamwork	-10.2539
▁identity	-10.2539
▁grownup	-10.2539
▁impression	-10.2539
▁several	-10.2539
▁santa	-10.2539
▁godmother	-10.2539
▁surgery	-10.254
▁jean	-10.254
▁housekeeper	-10.254
▁gear	-10.2541
▁carried	-10.2541
▁scent	-10.2542
id	-10.2542
▁dating	-10.2543
▁narrat	-10.2543
▁kup	-10.2543
▁cage	-10.2543
▁foolish	-10.2546
▁kneel	-10.2547
▁unfortunately	-10.2549
▁rileys	-10.2549
▁fairies	-10.2554
▁annoying	-10.2554
▁jackie	-10.2555
▁puss	-10.2559
▁spy	-10.2563
▁footsteps	-10.2563
▁process	-10.2567
▁served	-10.2571
▁fore	-10.2572
▁safer	-10.2577
▁midge	-10.2585
▁mikey	-10.2586
▁humor	-10.2587
▁crushed	-10.2591
▁tied	-10.26
▁mar	-10.261
▁accepted	-10.261
▁marching	-10.2611
mount	-10.2612
▁talkin	-10.2614
▁considered	-10.2619
▁indian	-10.2622
▁lo	-10.2635
▁imagined	-10.2648
▁announc	-10.2656
▁breaks	-10.2662
▁menu	-10.2671
▁spending	-10.2685
▁carrying	-10.2689
▁mustve	-10.2705
ward	-10.272
▁conditions	-10.273
▁leading	-10.2753
▁hits	-10.2772
▁talks	-10.2774
▁changes	-10.2779
▁waves	-10.2783
▁richards	-10.2815
▁carl	-10.2826
▁exists	-10.2837
▁moons	-10.2848
it	-10.2848
▁for	-10.285
▁dive	-10.2858
▁wrap	-10.2864
ship	-10.2886
osa	-10.2917
▁spirits	-10.2921
▁host	-10.294
▁dan	-10.2955
▁au	-10.2958
▁thin	-10.2976
rt	-10.3041
▁trains	-10.3042
▁squeeze	-10.3046
▁inter	-10.306
▁ke	-10.3069
▁x	-10.3075
▁ni	-10.3101
▁kin	-10.3102
▁award	-10.3127
▁parts	-10.313
▁doll	-10.3141
▁drinks	-10.3144
▁museum	-10.3147
ley	-10.3147
off	-10.3151
▁instrument	-10.3154
▁visa	-10.3155
▁league	-10.3155
▁guinea	-10.3158
▁andrew	-10.3158
▁desire	-10.3159
▁sat	-10.3161
▁shadow	-10.3161
▁pipe	-10.3163
like	-10.3169
▁luca	-10.3171
▁lip	-10.3172
▁marie	-10.3177
▁toe	-10.3196
▁dancer	-10.3197
▁shock	-10.3232
▁likely	-10.3243
go	-10.3256
▁warn	-10.3263
▁succeed	-10.3273
▁spit	-10.3273
▁distract	-10.3274
▁hung	-10.3275
▁borrow	-10.3275
field	-10.3279
▁direct	-10.3279
free	-10.3283
around	-10.3283
▁wipe	-10.3284
▁bik	-10.3285
▁awkward	-10.3288
▁refuse	-10.3289
▁gain	-10.3291
▁physical	-10.3292
▁fift	-10.3292
▁ending	-10.3292
▁sex	-10.3294
▁transform	-10.3295
men	-10.3302
▁sec	-10.3303
▁cove	-10.3303
▁martin	-10.3303
▁reject	-10.3304
▁junk	-10.3305
▁slip	-10.3306
▁wiz	-10.3306
▁basic	-10.3307
▁mamma	-10.3307
▁agnes	-10.3307
▁average	-10.3307
▁buchanan	-10.3307
▁burden	-10.3307
▁campaign	-10.3307
▁dwayne	-10.3307
▁emperor	-10.3307
▁escort	-10.3307
▁eventually	-10.3307
▁flesh	-10.3307
▁furniture	-10.3307
▁hilarious	-10.3307
▁ireland	-10.3307
▁judgment	-10.3307
▁kamiyah	-10.3307
▁kgb	-10.3307
▁mademoiselle	-10.3307
▁malfoy	-10.3307
▁responsibility	-10.3307
▁rizzio	-10.3307
▁superweapon	-10.3307
▁sybbie	-10.3307
▁sybok	-10.3307
▁trunk	-10.3307
▁ultra	-10.3307
▁vilna	-10.3307
▁whitaker	-10.3307
▁wrestling	-10.3307
▁foyt	-10.3307
▁lewis	-10.3307
▁waitress	-10.3307
▁anytime	-10.3307
▁fruit	-10.3307
▁cancer	-10.3307
▁ethel	-10.3307
▁series	-10.3307
▁application	-10.3307
▁fascinating	-10.3307
▁whitney	-10.3307
▁becoming	-10.3307
▁sunset	-10.3307
▁library	-10.3307
▁education	-10.3307
▁worship	-10.3307
▁glorious	-10.3307
▁pathetic	-10.3307
▁clarity	-10.3307
▁dimas	-10.3307
▁purse	-10.3307
▁renner	-10.3307
▁rehearsal	-10.3307
▁wrist	-10.3307
▁woke	-10.3307
▁limo	-10.3307
▁romance	-10.3307
▁hahaha	-10.3307
▁naked	-10.3307
▁bacon	-10.3307
▁mask	-10.3307
▁fuel	-10.3307
▁mimic	-10.3307
▁danny	-10.3307
▁merci	-10.3307
▁kenton	-10.3307
▁cries	-10.3308
▁grogan	-10.3308
▁hustle	-10.3308
ham	-10.3308
▁happier	-10.3308
▁center	-10.3308
▁china	-10.3308
▁penny	-10.3308
▁attractive	-10.3308
▁comic	-10.3308
▁starship	-10.3308
▁swish	-10.3309
▁barton	-10.3309
▁dull	-10.331
▁beef	-10.331
▁margo	-10.331
▁vera	-10.331
▁personality	-10.3311
▁touchdown	-10.3311
▁stab	-10.3312
▁forth	-10.3312
▁porky	-10.3313
▁marine	-10.3313
▁ferd	-10.3313
▁chen	-10.3313
▁secretary	-10.3314
▁bowers	-10.3314
▁classical	-10.3315
▁bout	-10.3315
▁ahem	-10.3315
▁stopping	-10.3316
▁archie	-10.3316
▁stepped	-10.3317
▁bitter	-10.3317
▁be	-10.3318
▁creaking	-10.3318
▁honking	-10.3319
▁fry	-10.3319
▁doomed	-10.332
▁wailing	-10.3321
▁non	-10.3323
▁informed	-10.3323
▁sexy	-10.3323
▁carrots	-10.3324
▁shivering	-10.3324
▁unable	-10.3328
▁bah	-10.3328
▁whooping	-10.3329
▁impressed	-10.3329
▁slide	-10.3331
▁gettin	-10.3332
▁patch	-10.3332
▁juan	-10.3333
▁kisses	-10.3334
▁conduct	-10.3335
▁drowned	-10.3335
▁floating	-10.3337
through	-10.3341
▁yar	-10.3342
▁chased	-10.3344
▁burie	-10.3346
▁whines	-10.3346
▁tada	-10.3346
▁joey	-10.3348
▁fond	-10.3349
▁suffering	-10.3351
▁smarter	-10.3356
▁bend	-10.3359
▁ar	-10.3363
ated	-10.3366
▁loaded	-10.3367
▁freaking	-10.3371
▁distort	-10.3382
▁bid	-10.3387
▁normally	-10.3387
▁tis	-10.3389
▁shortly	-10.3398
▁rely	-10.3399
▁feelin	-10.3406
▁belly	-10.3407
▁quietly	-10.3412
▁yithe	-10.3422
▁ditch	-10.3429
▁weirdo	-10.3434
▁strangers	-10.3443
▁issues	-10.3482
ling	-10.3503
▁understanding	-10.3517
▁bea	-10.3522
▁wondered	-10.3527
▁jumped	-10.3535
▁advise	-10.3539
▁sucks	-10.3541
▁remove	-10.3541
ro	-10.3544
▁squirrels	-10.355
▁ra	-10.3555
am	-10.3575
olly	-10.3579
▁mach	-10.3587
ow	-10.3595
▁gar	-10.3595
▁jacobs	-10.3598
▁members	-10.3607
▁lamb	-10.361
▁jumping	-10.3621
▁para	-10.365
▁hon	-10.3653
▁troops	-10.3653
▁bi	-10.366
▁wanting	-10.3677
ne	-10.3715
▁drinking	-10.3741
my	-10.3753
▁ships	-10.3765
▁subs	-10.3768
▁diet	-10.3775
▁tests	-10.3782
▁hearing	-10.3786
▁mac	-10.379
▁parr	-10.3794
▁looka	-10.3812
▁if	-10.3851
▁rivers	-10.3852
sp	-10.3857
j	-10.3875
▁realise	-10.3887
▁jet	-10.389
▁passion	-10.3892
▁ended	-10.3893
ong	-10.3895
▁he	-10.3906
ual	-10.3924
▁ye	-10.3925
▁suspect	-10.3933
▁depend	-10.3933
▁brow	-10.3941
▁millions	-10.3944
sa	-10.3951
ke	-10.3956
▁plot	-10.396
▁skull	-10.3963
▁curse	-10.3963
▁stake	-10.3964
▁chain	-10.3965
▁roar	-10.3965
▁produce	-10.3971
▁gu	-10.3976
▁carriage	-10.398
▁prophet	-10.398
▁yii	-10.3981
▁balloon	-10.3982
▁costume	-10.3988
▁warrior	-10.3988
▁savage	-10.3988
▁smack	-10.3988
▁drum	-10.3989
▁placed	-10.3993
▁cigarette	-10.3994
▁clown	-10.3994
▁william	-10.3997
▁client	-10.3998
▁expert	-10.3998
oli	-10.4
▁cloud	-10.4001
▁brake	-10.4003
▁manner	-10.4008
▁hates	-10.401
ha	-10.4014
▁flow	-10.4023
ose	-10.4029
▁stranger	-10.4029
▁snap	-10.4034
▁bets	-10.4037
▁bucket	-10.4037
ery	-10.4038
▁them	-10.4047
▁suits	-10.4052
▁fe	-10.4061
▁drown	-10.4063
▁wrestle	-10.407
▁mistakes	-10.4075
▁gran	-10.4083
▁perform	-10.4095
▁roam	-10.4103
▁contain	-10.4106
▁abandon	-10.4109
▁dump	-10.4109
▁disturb	-10.4109
found	-10.4114
ver	-10.4117
▁seize	-10.412
▁cure	-10.4125
▁threat	-10.4127
▁mist	-10.4128
▁activate	-10.4131
▁shove	-10.4134
▁swing	-10.4136
▁object	-10.4136
▁tax	-10.4137
▁progress	-10.4139
▁favour	-10.4139
▁distinguish	-10.414
▁shift	-10.414
▁behalf	-10.414
▁ceremony	-10.414
▁discipline	-10.414
▁eduardo	-10.414
▁fantasy	-10.414
▁ffynnon	-10.414
▁figaro	-10.414
▁jessica	-10.414
▁kowalskl	-10.414
▁nefario	-10.414
▁nuclear	-10.414
▁practicing	-10.414
▁prophecy	-10.414
▁rainbow	-10.414
▁reckon	-10.414
▁superior	-10.414
▁thursday	-10.414
▁underwear	-10.414
▁facing	-10.414
▁whatll	-10.414
ygen	-10.414
▁hurrah	-10.414
▁smiling	-10.414
▁struck	-10.414
▁beloved	-10.414
▁farewell	-10.414
▁jelly	-10.414
▁summon	-10.414
▁jumpathon	-10.414
▁shrimp	-10.414
▁mushroom	-10.414
▁grandmother	-10.414
▁hazel	-10.414
▁flew	-10.414
▁socrates	-10.414
▁cassie	-10.414
▁downtown	-10.414
▁kara	-10.414
▁choke	-10.414
▁magnus	-10.414
▁moneypenny	-10.414
▁mumbling	-10.414
▁swimming	-10.414
▁shopping	-10.4141
▁childhood	-10.4141
▁critic	-10.4141
▁dimension	-10.4141
▁elite	-10.4141
▁steele	-10.4141
▁sunshine	-10.4141
▁torn	-10.4141
▁cheap	-10.4141
▁detective	-10.4142
▁greek	-10.4142
▁sack	-10.4142
▁jabberwocky	-10.4142
▁dummy	-10.4142
▁trim	-10.4142
▁carpet	-10.4142
▁effective	-10.4142
▁flies	-10.4143
▁sensitive	-10.4143
▁lamp	-10.4143
▁confused	-10.4144
▁captured	-10.4144
▁convention	-10.4144
▁spoon	-10.4144
▁trial	-10.4144
▁quote	-10.4144
▁thirsty	-10.4145
▁smoking	-10.4145
▁snickering	-10.4145
▁halfway	-10.4145
▁lava	-10.4146
▁poochy	-10.4146
▁surrounded	-10.4146
▁brandy	-10.4147
▁coughs	-10.4147
▁croaks	-10.4147
▁uhuh	-10.4147
▁homework	-10.4147
▁connected	-10.4147
▁trilling	-10.4147
▁bates	-10.4149
▁moaning	-10.4149
▁pm	-10.415
▁tina	-10.4151
▁director	-10.4151
▁squawking	-10.4152
▁cello	-10.4154
▁hail	-10.4155
▁moral	-10.4155
▁carson	-10.4156
▁lame	-10.4156
▁fifty	-10.4159
▁webs	-10.4159
▁invented	-10.4159
▁tingle	-10.416
▁provide	-10.4161
▁original	-10.4162
▁highness	-10.4162
▁mustnt	-10.4165
▁tinker	-10.4166
▁ding	-10.4166
▁straining	-10.4167
▁delivered	-10.4167
▁reality	-10.4169
▁sighing	-10.417
▁driven	-10.417
▁shiny	-10.4172
▁hitting	-10.4173
▁tent	-10.4173
▁killer	-10.4174
▁properly	-10.4176
▁movement	-10.4177
▁based	-10.4181
▁affairs	-10.4183
▁spiders	-10.4183
▁surprises	-10.4183
▁sid	-10.4184
▁dock	-10.4185
▁anti	-10.4186
▁yawns	-10.4195
▁aid	-10.4214
▁dodge	-10.4216
▁neverland	-10.4218
▁whoops	-10.422
▁guts	-10.422
▁rate	-10.4237
how	-10.4241
▁diamonds	-10.4244
▁hal	-10.4246
▁painful	-10.4249
que	-10.4251
▁farmer	-10.4252
▁boats	-10.4254
▁carefully	-10.4264
▁loss	-10.4267
▁include	-10.4275
▁sum	-10.4278
▁dings	-10.4278
▁clouds	-10.4281
▁depends	-10.4282
▁ab	-10.4287
▁hu	-10.4296
▁val	-10.4314
▁stands	-10.4316
▁jed	-10.4331
▁kissed	-10.4333
▁pockets	-10.4368
▁sleepy	-10.4379
▁blowing	-10.4383
▁raf	-10.4391
▁shirts	-10.4401
▁fully	-10.4402
▁joining	-10.4418
▁stinks	-10.4419
▁husbands	-10.4435
line	-10.444
▁sw	-10.4452
oh	-10.4455
▁trusted	-10.4484
▁sending	-10.4525
▁ln	-10.4553
▁concentrat	-10.4562
▁signs	-10.4568
▁slam	-10.4578
▁roses	-10.4582
▁villager	-10.4584
▁turner	-10.4587
▁gifts	-10.4634
▁kindly	-10.4655
▁buildings	-10.4658
di	-10.4683
▁dies	-10.4688
▁cop	-10.4725
▁charges	-10.4734
lin	-10.4752
▁pops	-10.4758
▁app	-10.4776
ata	-10.4781
fully	-10.4805
▁jam	-10.4836
▁wil	-10.4842
▁scout	-10.4853
▁es	-10.4858
▁exercise	-10.487
▁guarantee	-10.487
ig	-10.4875
▁cliff	-10.4876
▁explode	-10.4876
▁arrive	-10.4884
▁yukie	-10.4888
▁kamal	-10.489
▁studio	-10.4892
▁thumb	-10.4894
ere	-10.4895
▁volunteer	-10.4897
▁traitor	-10.4901
▁resume	-10.4903
▁division	-10.4905
▁effect	-10.4905
▁result	-10.4907
▁lawyer	-10.4908
▁aaah	-10.4909
▁frog	-10.4909
▁payment	-10.491
▁ape	-10.491
▁design	-10.491
▁apple	-10.4913
ier	-10.4914
▁giggle	-10.4914
▁mate	-10.4915
▁demon	-10.4935
▁here	-10.4937
ium	-10.4941
▁toy	-10.4949
▁deliver	-10.4951
doo	-10.4959
▁sports	-10.4974
v	-10.499
▁elephants	-10.5006
▁develop	-10.5007
▁sneak	-10.5008
▁brush	-10.501
▁aim	-10.5012
board	-10.5019
▁guns	-10.5025
▁blessing	-10.5029
▁declare	-10.5031
▁worrying	-10.5032
▁unfortunate	-10.5035
▁slight	-10.5035
▁recent	-10.5035
▁mental	-10.5037
▁oak	-10.5038
▁geez	-10.5038
▁fade	-10.504
berg	-10.5044
▁complain	-10.5044
▁chose	-10.5046
▁mornin	-10.5048
▁whee	-10.5049
▁represent	-10.5049
▁devon	-10.5049
▁advance	-10.5049
▁revolution	-10.5049
▁abraham	-10.5049
▁amsterdam	-10.5049
▁beneath	-10.5049
▁benedict	-10.5049
▁brundon	-10.5049
▁catherine	-10.5049
▁comrade	-10.5049
▁elinor	-10.5049
▁exhausted	-10.5049
▁explanation	-10.5049
▁florida	-10.5049
▁gryffindor	-10.5049
▁hogwarts	-10.5049
▁holiday	-10.5049
▁international	-10.5049
▁paxton	-10.5049
▁personnel	-10.5049
▁pregnant	-10.5049
▁puppies	-10.5049
▁receipt	-10.5049
▁shinobu	-10.5049
▁tragedy	-10.5049
▁valiente	-10.5049
▁vulcan	-10.5049
▁wednesday	-10.5049
▁whatre	-10.5049
▁chubby	-10.5049
▁deaf	-10.5049
▁hyah	-10.5049
▁monarch	-10.5049
▁sequence	-10.5049
▁wilderness	-10.5049
▁wisdom	-10.5049
▁blubbering	-10.5049
▁insectopia	-10.5049
▁mammals	-10.5049
▁charlotte	-10.5049
▁rodrick	-10.5049
▁chorus	-10.5049
▁swamp	-10.5049
▁snorts	-10.5049
▁lecture	-10.5049
▁gavin	-10.5049
▁shelby	-10.5049
▁referee	-10.5049
▁jeepers	-10.5049
▁flint	-10.5049
▁occupation	-10.5049
▁turbo	-10.5049
▁authorities	-10.5049
▁lupe	-10.5049
▁monitor	-10.5049
▁urgent	-10.5049
▁assistance	-10.5049
▁attic	-10.5049
▁suicide	-10.505
▁unbelievable	-10.505
▁spanish	-10.505
▁divine	-10.505
▁hooray	-10.505
▁garw	-10.505
▁depth	-10.505
▁humble	-10.505
▁fanny	-10.505
▁ponies	-10.505
▁bayard	-10.505
▁yup	-10.505
▁minor	-10.505
▁daisy	-10.505
▁intelligence	-10.505
▁accidentally	-10.505
▁supply	-10.505
▁constant	-10.505
▁sentimental	-10.505
▁circus	-10.5051
▁radar	-10.5051
▁dropping	-10.5051
▁elster	-10.5051
rpal	-10.5051
▁drill	-10.5051
▁hostage	-10.5051
▁myrna	-10.5051
▁assignment	-10.5051
▁caf	-10.5051
▁mouse	-10.5051
▁bench	-10.5051
▁jolly	-10.5051
▁parade	-10.5051
▁potty	-10.5051
▁moron	-10.5051
▁wagon	-10.5052
▁gagging	-10.5054
▁package	-10.5054
▁squeaking	-10.5055
▁evidence	-10.5055
▁discussion	-10.5056
▁darry	-10.5056
▁highway	-10.5057
▁cutter	-10.5057
▁retired	-10.5058
wind	-10.5058
▁tray	-10.5059
▁inevitable	-10.5059
▁of	-10.506
▁thus	-10.5063
▁hunk	-10.5063
▁heh	-10.5063
▁apply	-10.5064
▁marks	-10.5065
▁bored	-10.5067
▁hare	-10.5069
▁officially	-10.5071
▁straighten	-10.5072
▁lane	-10.5072
▁frankly	-10.5077
▁designed	-10.5079
▁classes	-10.508
▁abandoned	-10.5081
▁disturbed	-10.5081
▁geek	-10.5083
▁luydens	-10.5083
▁cupcakes	-10.5083
▁samples	-10.5083
▁kida	-10.5084
▁goodnight	-10.5086
▁breakin	-10.5087
▁mount	-10.5087
▁ruby	-10.5088
▁separated	-10.5088
▁introduced	-10.509
▁managed	-10.5093
▁squawks	-10.5097
▁busted	-10.5098
▁niggers	-10.5098
▁touches	-10.5098
▁stinker	-10.5106
▁kindness	-10.5108
▁aliens	-10.511
▁temper	-10.5118
▁banging	-10.5129
▁torture	-10.5143
▁goodlooking	-10.5144
▁ton	-10.515
▁feathers	-10.5164
▁mid	-10.5167
ank	-10.5188
▁frogs	-10.5191
▁considering	-10.5196
ised	-10.5214
ay	-10.5215
▁local	-10.5215
jous	-10.522
▁che	-10.5234
▁safely	-10.5244
▁cleaned	-10.5267
▁knocked	-10.527
▁meaning	-10.5271
▁shoulders	-10.5287
ga	-10.5295
▁po	-10.5307
tic	-10.5324
▁warmer	-10.5334
ury	-10.5344
▁bees	-10.5344
▁snakes	-10.5351
▁fans	-10.5359
▁eats	-10.5368
▁talents	-10.537
what	-10.5374
▁wy	-10.5384
vida	-10.5386
▁fights	-10.5403
▁ree	-10.5416
▁kills	-10.5424
▁ir	-10.5466
ally	-10.5467
▁sal	-10.5511
▁horns	-10.552
▁dreamed	-10.5524
▁natures	-10.5536
▁tracks	-10.5537
▁birdies	-10.5545
▁queens	-10.5578
▁marc	-10.5579
▁zoo	-10.5633
▁americans	-10.5649
▁scars	-10.5657
▁bug	-10.5662
▁greater	-10.5709
▁checking	-10.5722
▁under	-10.573
▁eagles	-10.5777
well	-10.5797
▁ami	-10.5797
ville	-10.5804
ities	-10.583
▁grows	-10.5836
da	-10.584
down	-10.5842
▁swallow	-10.5845
ines	-10.5849
▁babys	-10.5851
▁leak	-10.5855
ta	-10.5859
▁august	-10.5863
▁shout	-10.5872
▁orchestra	-10.5882
▁recover	-10.5884
▁goon	-10.5889
▁barnacle	-10.5889
▁neigh	-10.5889
▁technique	-10.5889
▁valentine	-10.5889
▁lit	-10.589
nda	-10.5894
▁explosive	-10.5897
▁device	-10.5901
▁troll	-10.5901
▁rumble	-10.5901
▁orbit	-10.5902
▁shield	-10.5903
ps	-10.5907
▁net	-10.591
▁nazi	-10.5917
▁mon	-10.5932
▁sucker	-10.5935
▁auto	-10.5962
▁jen	-10.5964
▁chick	-10.5979
▁delight	-10.5988
▁herb	-10.5992
▁faint	-10.5996
▁leap	-10.6007
▁crawl	-10.6008
▁commission	-10.6012
▁obey	-10.6012
▁conceal	-10.6016
▁defeat	-10.6016
▁unload	-10.6019
▁sting	-10.602
▁mock	-10.602
▁hawaii	-10.6022
▁origin	-10.6026
▁execute	-10.603
▁ur	-10.6031
▁ignore	-10.6033
hand	-10.6036
▁rattl	-10.6037
▁admire	-10.6037
▁smith	-10.6043
▁sink	-10.6045
▁impress	-10.6047
▁individual	-10.6048
▁octopus	-10.6049
▁absolem	-10.6049
▁adele	-10.6049
▁anneclaire	-10.6049
▁bagheera	-10.6049
▁baxter	-10.6049
▁breeze	-10.6049
▁demonstration	-10.6049
▁eliot	-10.6049
▁fortress	-10.6049
▁gleam	-10.6049
▁graduate	-10.6049
▁laundry	-10.6049
▁lockhart	-10.6049
▁mexico	-10.6049
▁monique	-10.6049
▁napoleon	-10.6049
▁pattern	-10.6049
▁pittsburgh	-10.6049
▁potential	-10.6049
▁procedure	-10.6049
▁proffitt	-10.6049
▁promotion	-10.6049
▁raspberry	-10.6049
▁reich	-10.6049
▁relief	-10.6049
▁rourke	-10.6049
▁senior	-10.6049
▁shepard	-10.6049
▁squarepants	-10.6049
▁stella	-10.6049
▁texas	-10.6049
▁tremendous	-10.6049
▁twelve	-10.6049
▁underground	-10.6049
▁wardrobe	-10.6049
▁widow	-10.6049
▁presence	-10.6049
▁repay	-10.6049
▁arriving	-10.6049
▁thatd	-10.6049
▁arrival	-10.6049
▁slurps	-10.6049
▁strict	-10.6049
▁worid	-10.6049
▁genuine	-10.6049
▁persuade	-10.6049
▁phase	-10.6049
▁delicate	-10.6049
▁kennedy	-10.6049
▁sylv	-10.6049
▁whitmore	-10.6049
▁apology	-10.6049
▁aragog	-10.6049
▁culture	-10.6049
▁blaring	-10.6049
▁looney	-10.6049
▁babbling	-10.6049
▁fading	-10.6049
▁hollywood	-10.6049
▁spike	-10.6049
▁helmet	-10.6049
▁display	-10.6049
▁community	-10.6049
▁psst	-10.6049
▁denver	-10.6049
▁survival	-10.6049
▁incoming	-10.6049
▁excitement	-10.6049
▁bullet	-10.6049
▁soap	-10.6049
▁rubber	-10.605
▁courtney	-10.605
▁rotten	-10.605
▁oink	-10.605
▁carpenter	-10.605
▁haircut	-10.605
▁figures	-10.605
▁aircraft	-10.605
▁tomato	-10.605
▁paperwork	-10.605
▁thug	-10.605
▁backwards	-10.605
▁sniffles	-10.605
▁wore	-10.605
▁flynn	-10.605
▁policy	-10.605
▁hotrod	-10.605
▁crims	-10.605
▁contest	-10.605
▁exchange	-10.605
▁committed	-10.605
▁privilege	-10.6051
▁ultimate	-10.6051
▁yeehaw	-10.6051
▁stream	-10.6051
▁steak	-10.6051
▁jab	-10.6051
▁flipping	-10.6051
▁serving	-10.6051
▁echoes	-10.6051
▁fever	-10.6051
▁marvin	-10.6051
▁grabbed	-10.6051
▁fuse	-10.6051
▁ciao	-10.6052
▁strategy	-10.6052
▁philosophy	-10.6052
▁yuck	-10.6052
▁barrel	-10.6052
▁zini	-10.6052
▁jackjack	-10.6052
▁yada	-10.6052
▁basement	-10.6052
▁alike	-10.6052
▁gala	-10.6053
▁western	-10.6053
▁jinx	-10.6053
▁owns	-10.6053
▁vet	-10.6053
▁wallet	-10.6054
▁jibe	-10.6054
▁craft	-10.6054
▁linda	-10.6054
owee	-10.6054
▁woof	-10.6054
▁noon	-10.6055
▁collection	-10.6057
▁erin	-10.6057
dore	-10.6057
▁required	-10.6058
▁hopefully	-10.6058
▁rage	-10.6058
▁bingo	-10.6061
▁lean	-10.6061
▁debt	-10.6061
▁era	-10.6062
▁fears	-10.6062
▁warner	-10.6063
▁replaced	-10.6063
▁vice	-10.6064
▁bury	-10.6064
▁grounds	-10.6065
▁madness	-10.6067
▁sore	-10.6068
▁kiddo	-10.6069
▁pat	-10.6072
▁grass	-10.6072
▁refused	-10.6072
▁attracted	-10.6073
▁lend	-10.6074
▁creepy	-10.6076
▁mistaken	-10.6076
▁wears	-10.6078
▁showtime	-10.608
ate	-10.6083
▁putter	-10.6085
▁oompaloompas	-10.6087
▁sticks	-10.6097
ard	-10.6098
▁excitedly	-10.6102
▁tricky	-10.6109
▁archery	-10.611
▁survived	-10.6113
▁citizens	-10.6116
▁requested	-10.6117
▁clicking	-10.6121
▁poisoned	-10.6123
▁plum	-10.6129
▁nd	-10.6133
test	-10.6139
▁stutters	-10.6146
▁los	-10.6147
▁tools	-10.6148
ai	-10.6157
▁arrangements	-10.6162
▁cooked	-10.6169
▁gal	-10.6174
▁neighbors	-10.6177
▁joint	-10.6179
▁tend	-10.618
▁float	-10.6187
▁erie	-10.6198
oy	-10.6201
▁nap	-10.6202
▁ay	-10.6202
▁lawyers	-10.6207
▁image	-10.6219
em	-10.6224
▁scaring	-10.6242
▁toes	-10.6255
▁pushed	-10.6263
▁answered	-10.6272
▁mayor	-10.6276
▁visiting	-10.6278
▁den	-10.6288
▁packed	-10.6288
ine	-10.629
▁enjoyed	-10.6291
▁sau	-10.6293
▁joined	-10.6295
▁ants	-10.6298
▁lovers	-10.6298
▁clicks	-10.6299
▁chickens	-10.6299
▁mally	-10.6306
▁successful	-10.631
▁landed	-10.6317
▁lover	-10.6327
ung	-10.6328
▁cows	-10.6329
▁criminals	-10.6344
▁paws	-10.6344
▁protecting	-10.6366
▁oo	-10.6376
▁sticking	-10.6378
▁hugs	-10.6381
▁or	-10.6403
at	-10.6423
ates	-10.6442
▁sire	-10.6446
▁costs	-10.6451
▁agents	-10.6467
nce	-10.6496
▁nick	-10.6507
▁chips	-10.6507
▁wins	-10.6508
▁thinkin	-10.6544
▁workers	-10.6546
▁organ	-10.6558
▁wit	-10.657
▁ca	-10.6577
▁idiots	-10.6591
▁assum	-10.6598
▁dip	-10.6628
▁notes	-10.6641
▁engines	-10.6657
▁mix	-10.6675
itched	-10.6677
▁sn	-10.6699
ho	-10.6706
▁grannys	-10.6716
ray	-10.6734
ade	-10.6738
▁badly	-10.6744
▁now	-10.6757
▁yacht	-10.6766
▁bush	-10.6777
of	-10.6778
▁pointing	-10.6793
▁reg	-10.6794
▁begins	-10.6811
▁helpful	-10.6813
▁grah	-10.6821
▁hor	-10.6825
▁holds	-10.6827
▁planes	-10.6844
▁occasion	-10.6877
port	-10.688
▁sweat	-10.688
▁rob	-10.6887
▁cock	-10.6904
▁comb	-10.6916
▁lee	-10.6942
▁jo	-10.6946
▁cos	-10.6955
▁photograph	-10.6957
ac	-10.6959
▁sigh	-10.6965
▁miniature	-10.6983
▁salad	-10.6983
▁sentence	-10.6986
▁limit	-10.6987
▁commitment	-10.7001
▁comment	-10.7008
▁all	-10.7009
▁remark	-10.7009
▁meteor	-10.7012
▁nation	-10.7013
▁motor	-10.7014
▁ladder	-10.7016
▁neighbor	-10.7019
▁feather	-10.702
▁diamond	-10.7021
▁complaint	-10.7021
▁term	-10.7022
▁bubble	-10.7023
▁stable	-10.7023
▁toward	-10.7024
▁mass	-10.7029
nny	-10.7033
▁jacket	-10.704
▁manual	-10.7042
▁bone	-10.7055
▁radios	-10.7065
▁hunter	-10.7077
▁highp	-10.7079
bell	-10.7083
kill	-10.7084
▁embarrass	-10.7087
▁ble	-10.709
▁schools	-10.7092
▁shush	-10.7109
▁shoots	-10.7114
▁slay	-10.7114
▁herr	-10.7118
▁discover	-10.7119
▁toss	-10.7119
▁lifes	-10.7121
met	-10.7125
break	-10.7125
▁palm	-10.7128
wood	-10.7129
▁frost	-10.7136
▁stew	-10.7136
▁approve	-10.7138
four	-10.714
▁convince	-10.7143
▁merc	-10.7143
▁univers	-10.7144
▁disguise	-10.7144
▁dreadful	-10.7144
▁stead	-10.7146
▁absolute	-10.7146
▁obvious	-10.7146
▁garde	-10.7147
▁transport	-10.715
▁brook	-10.7151
▁prob	-10.7154
▁potato	-10.7156
▁algorithm	-10.716
▁acquaintance	-10.716
▁alvarez	-10.716
▁ambulance	-10.716
▁anderson	-10.716
▁anniversary	-10.716
▁anxious	-10.716
▁appointment	-10.716
▁arguing	-10.716
▁attorney	-10.716
▁blimey	-10.716
▁cafeteria	-10.716
▁christopher	-10.716
▁cotton	-10.716
▁cotwell	-10.716
▁council	-10.716
▁crisis	-10.716
▁culdesac	-10.716
▁curiosity	-10.716
▁cybertron	-10.716
▁declan	-10.716
▁dempsey	-10.716
▁despair	-10.716
▁despicable	-10.716
▁dessert	-10.716
▁diagusta	-10.716
▁dunno	-10.716
▁ellie	-10.716
▁enormous	-10.716
▁extend	-10.716
▁felix	-10.716
▁ferguson	-10.716
▁galvatron	-10.716
▁grandparents	-10.716
▁gratitude	-10.716
▁gulch	-10.716
▁jeanpierre	-10.716
▁jersey	-10.716
▁judith	-10.716
▁juvenile	-10.716
▁kananga	-10.716
▁karl	-10.716
▁kozlova	-10.716
▁mcgonagall	-10.716
▁mississippi	-10.716
▁mozart	-10.716
▁octopi	-10.716
▁orlando	-10.716
▁oyster	-10.716
▁pendelton	-10.716
▁routine	-10.716
▁rubbish	-10.716
▁sebastian	-10.716
▁slingshot	-10.716
▁surrender	-10.716
▁suspicious	-10.716
▁titus	-10.716
▁voldemort	-10.716
▁wendy	-10.716
▁whiskey	-10.716
▁yoohoo	-10.716
▁blimp	-10.716
▁cottage	-10.716
▁dynamite	-10.716
▁beware	-10.716
▁jennings	-10.716
▁lashly	-10.716
▁unfair	-10.716
▁plague	-10.716
▁butterflies	-10.716
▁century	-10.716
▁pagogo	-10.716
▁pajamas	-10.716
▁teeam	-10.716
▁instance	-10.716
▁antarctic	-10.716
▁confident	-10.716
▁jewellery	-10.716
▁pacific	-10.716
▁sheep	-10.716
▁conclusion	-10.716
▁microphone	-10.716
▁wives	-10.716
▁berlin	-10.716
▁bozo	-10.716
▁entrance	-10.716
▁chores	-10.716
▁boost	-10.716
▁elementary	-10.716
▁ponyboy	-10.716
▁diversion	-10.716
▁faun	-10.716
▁rood	-10.716
▁coronation	-10.716
▁punk	-10.716
▁fixerupper	-10.7161
▁festival	-10.7161
▁gallant	-10.7161
▁broadway	-10.7161
▁lovin	-10.7161
▁duties	-10.7161
▁whew	-10.7161
▁orphanage	-10.7161
▁vega	-10.7161
▁fisherman	-10.7161
▁twp	-10.7161
▁destination	-10.7161
▁lilies	-10.7161
▁lousy	-10.7161
▁zebra	-10.7161
▁cocoa	-10.7161
▁psycho	-10.7161
▁reception	-10.7161
▁spitz	-10.7161
▁scavenger	-10.7161
▁hobby	-10.7161
▁porch	-10.7161
▁bronx	-10.7161
▁slipped	-10.7161
▁automatic	-10.7161
▁lisa	-10.7161
▁daffy	-10.7161
▁liberty	-10.7161
▁gunshot	-10.7161
▁cue	-10.7161
▁agency	-10.7162
▁replacement	-10.7162
▁interfere	-10.7162
▁centre	-10.7162
▁stomp	-10.7162
▁fabulous	-10.7162
▁necessarily	-10.7162
▁empress	-10.7162
▁jerry	-10.7162
▁loan	-10.7162
▁expectations	-10.7162
▁fudge	-10.7162
▁drew	-10.7162
▁boop	-10.7162
▁freezing	-10.7162
▁loneliness	-10.7162
▁torch	-10.7162
▁jaw	-10.7162
▁garry	-10.7163
▁stray	-10.7163
▁chess	-10.7163
iki	-10.7163
▁gigantor	-10.7163
▁terrifying	-10.7163
▁bait	-10.7163
▁tweety	-10.7163
▁puddle	-10.7163
▁allowance	-10.7163
▁solo	-10.7164
▁distraction	-10.7164
▁siren	-10.7164
▁weakness	-10.7165
▁magician	-10.7165
▁lazy	-10.7165
▁argh	-10.7165
▁hitler	-10.7165
▁coos	-10.7165
▁injured	-10.7166
▁starving	-10.7166
▁stow	-10.7166
▁tropic	-10.7166
▁rumi	-10.7167
▁gordo	-10.7167
▁alley	-10.7167
▁amazed	-10.7167
▁treatment	-10.7168
▁diego	-10.7168
▁sharing	-10.7168
▁hoof	-10.7169
▁revealed	-10.7169
▁cork	-10.7169
▁awaits	-10.717
▁sidekicks	-10.717
▁begging	-10.717
▁grump	-10.7171
▁threatening	-10.7172
▁fearless	-10.7172
▁roy	-10.7172
▁honorable	-10.7173
▁oogie	-10.7175
istic	-10.7175
▁parish	-10.7175
▁kite	-10.7175
▁selected	-10.7176
▁burnt	-10.7177
▁suitable	-10.7177
▁convinced	-10.7178
▁stayne	-10.718
▁directly	-10.7182
▁beaten	-10.7182
▁taz	-10.7184
▁bunk	-10.7184
▁thee	-10.7186
▁gulps	-10.7186
▁vast	-10.7186
▁carnotaurs	-10.7186
▁unveiled	-10.7187
▁dresses	-10.7187
▁bold	-10.7187
▁measured	-10.7189
▁cents	-10.7191
▁activated	-10.7191
▁walter	-10.7194
▁laser	-10.7195
▁cutting	-10.7197
▁thrown	-10.72
▁louie	-10.7203
▁boot	-10.7205
▁inn	-10.7206
▁hired	-10.7208
▁witches	-10.721
▁sneaking	-10.7211
▁nailed	-10.7212
▁daylight	-10.7214
eyed	-10.7214
▁lifetime	-10.7216
▁uno	-10.7217
▁goblins	-10.7219
▁socks	-10.7219
▁pi	-10.722
ul	-10.722
▁cheating	-10.7228
▁studying	-10.7231
▁dane	-10.7231
▁antiques	-10.7237
▁dope	-10.7238
▁lobster	-10.7244
▁washed	-10.7248
▁shorter	-10.7251
▁roots	-10.7253
▁bothered	-10.7259
▁granted	-10.7261
▁dep	-10.7262
▁lily	-10.7264
▁hood	-10.7268
▁crashing	-10.727
▁armed	-10.7281
▁nun	-10.7284
▁gathering	-10.7309
▁understands	-10.7311
use	-10.7312
▁mayo	-10.7312
▁jane	-10.7313
▁mis	-10.7314
▁chances	-10.7315
▁feeding	-10.732
▁nazis	-10.7321
gie	-10.7326
▁treated	-10.7326
▁suckers	-10.7327
▁entering	-10.7333
▁apples	-10.7338
▁pin	-10.7345
asu	-10.7345
lyn	-10.7353
▁experts	-10.7355
▁lands	-10.7368
wah	-10.737
▁vic	-10.7374
▁q	-10.7388
▁smelly	-10.739
▁directions	-10.7406
▁fra	-10.7407
▁behave	-10.7411
ol	-10.7411
▁magnetic	-10.7413
▁messing	-10.7418
▁boos	-10.7421
▁grounded	-10.7422
▁priests	-10.7423
vi	-10.7429
ence	-10.7433
▁fame	-10.744
▁crossed	-10.7442
ler	-10.7454
▁buckle	-10.7466
▁stopa	-10.7466
▁yards	-10.7475
▁severe	-10.7476
▁clo	-10.748
▁ward	-10.7482
▁sides	-10.7489
ur	-10.7492
▁freaks	-10.7495
▁pots	-10.7495
▁marrying	-10.7496
▁fund	-10.7496
ns	-10.7524
▁gardens	-10.7526
▁wheels	-10.7529
▁cl	-10.7538
▁remains	-10.7546
▁beats	-10.7547
▁crossing	-10.7547
co	-10.7554
▁dolphins	-10.7561
▁recording	-10.7582
▁decides	-10.7597
▁glob	-10.7652
latin	-10.7668
▁kidnap	-10.7678
ming	-10.769
▁mines	-10.7691
this	-10.7693
▁eeri	-10.7699
▁mu	-10.7704
▁ri	-10.7718
red	-10.773
▁ropes	-10.7753
rab	-10.7754
▁arts	-10.7767
▁sis	-10.7782
▁partners	-10.7788
▁officers	-10.7799
▁catching	-10.78
tore	-10.7801
▁units	-10.7823
▁range	-10.7839
▁giants	-10.7841
▁winters	-10.7859
▁beds	-10.7868
oo	-10.787
ny	-10.7879
▁sights	-10.7892
▁fu	-10.7894
▁qui	-10.7902
▁cousins	-10.793
▁mal	-10.7935
▁lass	-10.7947
ci	-10.7965
▁tails	-10.7973
mo	-10.8012
▁moo	-10.8019
ties	-10.804
▁browns	-10.8072
▁ki	-10.808
▁sets	-10.8084
ying	-10.8122
▁bros	-10.8137
▁melt	-10.8167
▁flights	-10.8182
ability	-10.8201
▁ad	-10.8212
▁swell	-10.8214
▁rolls	-10.8224
▁medium	-10.8227
mer	-10.8227
ball	-10.8231
▁ingredient	-10.8233
▁profit	-10.8233
▁matador	-10.8234
▁article	-10.8234
▁pillow	-10.8234
▁elevator	-10.8234
▁strain	-10.8234
▁dozen	-10.8234
▁sol	-10.8234
▁sensor	-10.8235
▁chan	-10.824
▁dino	-10.824
▁adviser	-10.8243
▁champ	-10.8248
▁brace	-10.825
▁uniform	-10.825
▁sled	-10.8251
ncy	-10.8252
▁acts	-10.8257
▁principle	-10.8258
▁limb	-10.8258
▁heist	-10.8259
▁cannon	-10.8264
▁klingon	-10.8264
▁seagull	-10.8264
▁ghost	-10.8265
▁spear	-10.8266
▁mingott	-10.8266
▁candle	-10.8268
▁arrangement	-10.827
▁ko	-10.827
▁baa	-10.8272
▁passenger	-10.8273
▁worm	-10.8273
▁politic	-10.8273
▁rank	-10.8273
▁towns	-10.8274
▁sash	-10.8279
▁actor	-10.8281
▁visitor	-10.8286
anshe	-10.829
▁choices	-10.8291
▁greeting	-10.8292
▁owl	-10.8292
▁slap	-10.8295
wise	-10.8297
▁tick	-10.8304
▁windows	-10.8309
▁appeal	-10.8322
▁ja	-10.8323
▁preach	-10.8324
ster	-10.8341
▁invent	-10.8352
▁arch	-10.8354
▁unlock	-10.836
▁affect	-10.8361
side	-10.8362
▁bargain	-10.8364
▁retreat	-10.8364
▁dates	-10.8365
▁confess	-10.8371
▁pour	-10.8373
▁tink	-10.8375
▁insult	-10.8376
▁attract	-10.8377
▁stress	-10.8377
▁accomplish	-10.8378
▁tralala	-10.8379
▁unveil	-10.8381
proof	-10.8386
point	-10.8386
▁flood	-10.8386
box	-10.8386
mouth	-10.8386
▁swor	-10.8387
▁acknowledge	-10.8388
▁disgrace	-10.8388
▁replace	-10.8391
▁generous	-10.8392
▁extreme	-10.8396
▁explore	-10.8396
▁solve	-10.8396
▁custom	-10.8397
▁cosm	-10.8398
▁buff	-10.8398
▁reserve	-10.8404
▁cha	-10.8404
▁froze	-10.8406
▁spark	-10.8407
oul	-10.8407
▁stiff	-10.8408
▁reflect	-10.8408
▁stall	-10.841
▁fuzz	-10.841
▁amateur	-10.841
▁auction	-10.841
▁cuddly	-10.841
▁deposit	-10.841
▁extinct	-10.841
▁activities	-10.841
▁airplane	-10.841
▁amulet	-10.841
▁apologies	-10.841
▁arrogant	-10.841
▁background	-10.841
▁bandersnatch	-10.841
▁blossom	-10.841
▁bullseye	-10.841
▁carnahan	-10.841
▁cuisine	-10.841
▁document	-10.841
▁dregmorr	-10.841
▁empire	-10.841
▁esteem	-10.841
▁felipe	-10.841
▁fifteen	-10.841
▁frannie	-10.841
▁fraud	-10.841
▁fregley	-10.841
▁gracious	-10.841
▁harvey	-10.841
▁humberfloob	-10.841
▁kahmunrah	-10.841
▁kreese	-10.841
▁leash	-10.841
▁lefferts	-10.841
▁lisbon	-10.841
▁lollipop	-10.841
▁maureen	-10.841
▁medieval	-10.841
▁mexican	-10.841
▁minnesota	-10.841
▁mistress	-10.841
▁oldfashioned	-10.841
▁pencil	-10.841
▁philadelphia	-10.841
▁platform	-10.841
▁purchase	-10.841
▁recognise	-10.841
▁reptile	-10.841
▁reynolds	-10.841
▁scientific	-10.841
▁skeleton	-10.841
▁sniper	-10.841
▁specimen	-10.841
▁struggle	-10.841
▁swift	-10.841
▁sylvester	-10.841
▁telegram	-10.841
▁telegraph	-10.841
▁thanksgiving	-10.841
▁twilight	-10.841
▁anyhow	-10.841
▁continent	-10.841
▁forbidden	-10.841
▁handicap	-10.841
▁recommend	-10.841
▁boston	-10.841
▁channel	-10.841
▁whinnies	-10.841
▁ankle	-10.841
▁federation	-10.841
▁harmony	-10.841
▁mandible	-10.841
▁murray	-10.841
▁negative	-10.841
▁claire	-10.841
▁molesley	-10.841
▁solution	-10.841
▁prosper	-10.841
▁initiating	-10.841
▁raising	-10.841
▁accent	-10.841
▁compete	-10.841
▁houston	-10.841
▁register	-10.841
▁orlov	-10.841
▁pursuit	-10.841
▁avenue	-10.841
▁administration	-10.841
▁whwhat	-10.841
▁funeral	-10.841
▁octa	-10.841
▁yeager	-10.841
▁undone	-10.841
▁whys	-10.841
▁sprout	-10.841
▁cardiff	-10.8411
▁crean	-10.8411
▁gogol	-10.8411
▁poem	-10.8411
▁shortcut	-10.8411
▁violence	-10.8411
▁miami	-10.8411
▁entertainment	-10.8411
▁gallery	-10.8411
▁marvelous	-10.8411
▁moonbase	-10.8411
▁outrageous	-10.8411
▁envy	-10.8411
▁smooth	-10.8411
▁boca	-10.8411
▁crabbe	-10.8411
▁curry	-10.8411
▁baloo	-10.8411
▁intense	-10.8411
iest	-10.8411
▁cozy	-10.8411
▁disappointment	-10.8411
▁acid	-10.8411
▁bullshit	-10.8411
▁yum	-10.8411
▁evacuate	-10.8411
▁academy	-10.8411
▁skinny	-10.8411
▁oates	-10.8411
▁carolina	-10.8411
▁championship	-10.8411
▁axel	-10.8411
▁elsewhere	-10.8411
▁galaxy	-10.8411
▁bubby	-10.8411
▁creation	-10.8411
▁downton	-10.8411
vious	-10.8412
▁oui	-10.8412
▁freddy	-10.8412
▁supervillain	-10.8412
▁gym	-10.8412
▁glum	-10.8412
▁aggressive	-10.8412
▁dignity	-10.8412
▁circuit	-10.8412
▁capital	-10.8412
▁pratt	-10.8412
▁sensible	-10.8412
▁mechanic	-10.8412
▁broad	-10.8412
▁toad	-10.8413
▁employer	-10.8413
▁starboard	-10.8413
▁alter	-10.8413
▁hush	-10.8413
▁mature	-10.8413
▁merrily	-10.8413
▁brine	-10.8413
▁woh	-10.8413
▁kwan	-10.8413
▁travelling	-10.8413
▁specific	-10.8413
▁rustling	-10.8414
▁naughty	-10.8414
▁minus	-10.8414
▁author	-10.8414
▁shaking	-10.8414
▁barbecue	-10.8414
while	-10.8414
▁piggy	-10.8414
▁studi	-10.8415
▁hamish	-10.8415
▁knot	-10.8415
▁text	-10.8415
▁scan	-10.8415
▁location	-10.8415
▁contrary	-10.8415
▁potatoes	-10.8416
▁sour	-10.8416
▁goyle	-10.8416
▁dismissed	-10.8416
▁pem	-10.8417
▁nina	-10.8417
▁grey	-10.8417
▁treves	-10.8417
▁rising	-10.8417
▁related	-10.8418
▁mild	-10.8419
▁applauding	-10.8419
▁ram	-10.8419
▁wolfie	-10.842
▁scarf	-10.842
▁seventh	-10.8421
▁july	-10.8421
▁awesomeness	-10.8422
erald	-10.8423
▁capable	-10.8423
▁gah	-10.8424
▁angeles	-10.8424
▁fried	-10.8424
▁ahoy	-10.8425
▁bravest	-10.8426
▁forgiveness	-10.8426
▁cia	-10.8427
▁rebuild	-10.8427
▁dally	-10.8428
▁bass	-10.843
▁surfer	-10.843
▁scale	-10.843
▁slightly	-10.8431
▁snickers	-10.8431
▁coin	-10.8431
▁tender	-10.8433
▁rosa	-10.8435
▁reasonable	-10.8438
▁businessman	-10.8439
▁consequences	-10.8439
▁provided	-10.844
▁rusty	-10.8441
▁dal	-10.8443
com	-10.8444
▁splashing	-10.8446
▁clattering	-10.8446
▁ticking	-10.8452
▁tragic	-10.8452
▁freaky	-10.8455
▁eva	-10.8455
▁obstacles	-10.8458
▁naturally	-10.8459
▁elements	-10.8459
▁distracted	-10.846
but	-10.8462
▁crawling	-10.8463
▁divert	-10.8463
▁suffered	-10.8465
▁presto	-10.8465
▁locker	-10.8467
▁forgetting	-10.8468
owned	-10.8468
▁prey	-10.847
▁sweater	-10.8475
▁shy	-10.8477
▁murdered	-10.8477
▁agee	-10.8479
▁dime	-10.8482
▁rd	-10.8488
▁tone	-10.8488
▁sucked	-10.8494
▁electronic	-10.8495
▁anthe	-10.8496
▁servants	-10.8497
▁cheerleaders	-10.8497
▁myth	-10.8502
▁searched	-10.8505
▁talented	-10.8506
▁chester	-10.8508
▁destroyer	-10.8511
▁this	-10.8512
jon	-10.8514
▁rescued	-10.8515
▁keeper	-10.8517
▁writer	-10.852
▁lance	-10.8521
ever	-10.8523
ative	-10.8527
▁interrupting	-10.8535
▁options	-10.8536
▁cube	-10.8537
▁teams	-10.8537
▁holdin	-10.8537
▁sailed	-10.8539
▁socs	-10.854
▁appeared	-10.8541
▁cracking	-10.8544
▁hardest	-10.8548
▁crowned	-10.8551
ious	-10.8551
▁chuckle	-10.8554
▁worms	-10.8555
door	-10.8556
▁painting	-10.8562
▁ze	-10.8562
▁troubles	-10.8567
▁tasted	-10.8567
▁farting	-10.8573
▁signor	-10.8575
▁limits	-10.8577
be	-10.8581
▁county	-10.8583
▁climbing	-10.8591
▁sirens	-10.8592
▁tha	-10.8593
ge	-10.8597
▁jacks	-10.8599
▁reads	-10.8603
▁inc	-10.8604
▁jobs	-10.8611
▁results	-10.8613
▁effects	-10.8615
▁williams	-10.8633
▁clients	-10.8633
▁cooler	-10.8633
▁y	-10.8635
▁hears	-10.8636
▁did	-10.8639
chi	-10.8645
▁rolled	-10.8659
▁peanuts	-10.8672
ens	-10.8675
▁naive	-10.8675
▁bettermans	-10.8678
▁plates	-10.8691
▁heights	-10.8691
thats	-10.8698
▁dudes	-10.87
▁ga	-10.8703
▁babes	-10.8709
▁quarters	-10.8711
▁nerves	-10.8711
xh	-10.8715
▁chaps	-10.8729
▁penal	-10.8745
▁losers	-10.8773
▁traps	-10.8777
▁timing	-10.8787
▁targets	-10.8789
▁sources	-10.8789
▁conversations	-10.879
▁nana	-10.8807
lic	-10.8809
▁wa	-10.881
▁facts	-10.883
▁kissing	-10.8832
▁bills	-10.8835
▁inform	-10.8842
▁formal	-10.8846
▁odds	-10.8849
▁crystals	-10.8849
▁sailors	-10.8851
▁rig	-10.8856
ri	-10.8883
▁yyou	-10.8884
▁hay	-10.8894
▁serves	-10.8909
▁dada	-10.8915
ations	-10.8916
▁birthdays	-10.8927
▁accounts	-10.8928
▁chefs	-10.8928
▁tigers	-10.8928
▁films	-10.8948
▁fianc	-10.895
wife	-10.8951
▁poo	-10.8951
▁bur	-10.8962
ded	-10.8979
utterly	-10.8985
▁systems	-10.8988
▁easter	-10.8993
▁trucks	-10.9008
▁chat	-10.9011
▁signing	-10.9024
▁touching	-10.904
▁dragons	-10.9049
▁adventures	-10.9051
▁leaders	-10.9054
▁lu	-10.9069
▁ogres	-10.9069
tric	-10.9083
▁cho	-10.9083
ass	-10.9089
▁wal	-10.9094
▁wand	-10.9108
▁dundund	-10.9141
▁battles	-10.9171
more	-10.9171
▁hated	-10.9174
ca	-10.9201
▁stations	-10.9215
▁sings	-10.9221
ba	-10.9222
▁daddys	-10.9256
ome	-10.9263
▁wished	-10.9289
▁pad	-10.9292
mate	-10.9307
▁fran	-10.9308
▁americas	-10.9314
▁holes	-10.9342
▁doubts	-10.9357
▁ku	-10.9366
▁walks	-10.9387
▁commit	-10.941
ber	-10.9426
▁snaps	-10.9436
right	-10.9437
▁lords	-10.9449
▁soc	-10.9453
▁ages	-10.9455
▁una	-10.9456
▁fields	-10.9458
▁te	-10.9471
▁hum	-10.9479
▁ci	-10.9492
▁wander	-10.9505
▁ap	-10.951
ghorn	-10.9514
▁magnet	-10.9531
▁spots	-10.9541
li	-10.9542
▁how	-10.9544
▁imitat	-10.9566
▁puff	-10.9576
▁attacks	-10.9586
gged	-10.9588
▁ac	-10.9591
▁por	-10.9595
rk	-10.9606
rg	-10.9607
ating	-10.9607
ola	-10.9615
▁incident	-10.9626
▁ti	-10.9632
▁controls	-10.9633
▁pav	-10.9633
▁organis	-10.9638
▁ricks	-10.9646
▁equal	-10.9661
▁weigh	-10.9661
▁cabbage	-10.9662
▁vessel	-10.9662
▁scandal	-10.9662
▁cuts	-10.9662
▁beaver	-10.9663
▁diaper	-10.9663
▁violation	-10.9663
▁groan	-10.9665
▁cabin	-10.9671
▁pound	-10.9671
▁thrust	-10.9672
▁suggestion	-10.9673
inny	-10.9678
▁product	-10.9678
▁fundamental	-10.9679
▁mandrake	-10.9679
▁straw	-10.9679
▁biting	-10.968
▁tri	-10.9682
▁cutie	-10.9683
▁starve	-10.9684
▁cartoon	-10.9686
▁brat	-10.9687
▁ban	-10.9687
▁reindeer	-10.969
▁affection	-10.9693
▁chum	-10.9694
▁ideal	-10.9694
▁sneeze	-10.9694
▁gruber	-10.9696
▁medal	-10.9696
▁option	-10.9696
▁einstein	-10.9697
▁tool	-10.9699
▁missile	-10.9699
▁purr	-10.97
▁munchkin	-10.9702
▁oop	-10.9703
▁beside	-10.9704
end	-10.9707
▁parent	-10.9707
▁gut	-10.971
▁stutter	-10.9712
▁rains	-10.9716
▁skip	-10.9724
▁oan	-10.9725
▁cal	-10.9726
night	-10.9754
jimmy	-10.9765
fire	-10.9767
▁dow	-10.9781
▁min	-10.9785
▁hah	-10.979
▁rum	-10.979
▁approach	-10.9793
▁bail	-10.9795
▁splash	-10.9797
▁clatter	-10.9798
load	-10.9808
▁spoil	-10.9808
▁wound	-10.9808
▁dragg	-10.9812
bound	-10.9812
villain	-10.9813
▁betray	-10.9814
▁gi	-10.9814
school	-10.9814
year	-10.9816
▁theo	-10.9816
▁herman	-10.9817
five	-10.9818
ible	-10.9819
▁adore	-10.982
▁describe	-10.9821
▁instant	-10.9821
▁scram	-10.9822
▁unexpected	-10.9822
▁pays	-10.9822
▁energ	-10.9823
▁trans	-10.9829
▁ag	-10.9831
▁crank	-10.9833
▁superhero	-10.9834
▁voyage	-10.9834
▁australia	-10.9834
▁pow	-10.9835
▁complex	-10.9836
▁construct	-10.9836
▁booya	-10.9837
▁loyal	-10.9837
▁brutal	-10.9838
▁movin	-10.9838
▁tooth	-10.9838
▁drama	-10.9838
▁brief	-10.9839
▁alpha	-10.9839
▁descend	-10.9839
responsibilities	-10.9839
▁aaron	-10.9839
▁akela	-10.9839
▁amundsen	-10.9839
▁aspirin	-10.9839
▁bachelor	-10.9839
▁banzai	-10.9839
▁basilisk	-10.9839
▁beetroot	-10.9839
▁beuler	-10.9839
▁canyon	-10.9839
▁casserole	-10.9839
▁cathedral	-10.9839
▁celebrating	-10.9839
▁chancho	-10.9839
▁cleveland	-10.9839
▁coincidence	-10.9839
▁compartment	-10.9839
▁conscience	-10.9839
▁couriers	-10.9839
▁crikey	-10.9839
▁cynthia	-10.9839
▁disagree	-10.9839
▁disengage	-10.9839
▁eema	-10.9839
▁encounter	-10.9839
▁epic	-10.9839
▁february	-10.9839
▁frisbee	-10.9839
▁funbucket	-10.9839
▁glacier	-10.9839
▁gloop	-10.9839
▁guelston	-10.9839
▁hanukkah	-10.9839
▁helicopter	-10.9839
▁hyatt	-10.9839
▁instinct	-10.9839
▁japanese	-10.9839
▁ketchup	-10.9839
▁kumiko	-10.9839
▁leslie	-10.9839
▁limousine	-10.9839
▁marnie	-10.9839
▁motel	-10.9839
▁neutral	-10.9839
▁olivia	-10.9839
▁optimus	-10.9839
▁perrault	-10.9839
▁portrait	-10.9839
▁preparing	-10.9839
▁rabid	-10.9839
▁research	-10.9839
▁reseda	-10.9839
▁review	-10.9839
▁salaz	-10.9839
▁sarabi	-10.9839
▁satellite	-10.9839
▁senator	-10.9839
▁serververse	-10.9839
▁shepherd	-10.9839
▁struggling	-10.9839
▁supermarket	-10.9839
▁supplies	-10.9839
▁supposing	-10.9839
▁surveillance	-10.9839
▁sussex	-10.9839
▁syndrome	-10.9839
▁unleash	-10.9839
▁victim	-10.9839
▁virtue	-10.9839
▁wretch	-10.9839
▁buffalo	-10.9839
▁chimes	-10.9839
▁mound	-10.9839
▁myrtle	-10.9839
▁persad	-10.9839
▁similar	-10.9839
▁slick	-10.9839
▁stubborn	-10.9839
▁typical	-10.9839
▁wealth	-10.9839
▁cease	-10.9839
▁clumsy	-10.9839
▁fundrais	-10.9839
▁inspiration	-10.9839
▁purple	-10.9839
▁insert	-10.9839
▁concert	-10.9839
▁omelet	-10.9839
▁refund	-10.9839
▁terrified	-10.9839
▁employee	-10.9839
▁therapist	-10.9839
▁thrill	-10.9839
▁saloon	-10.9839
▁whining	-10.9839
▁addition	-10.9839
▁chicago	-10.9839
▁goddess	-10.9839
▁atlas	-10.9839
▁snatch	-10.9839
▁assault	-10.9839
▁charities	-10.9839
▁expelled	-10.9839
▁salmon	-10.9839
▁cloak	-10.9839
▁insurance	-10.9839
ctwi	-10.9839
▁bicycle	-10.9839
▁steep	-10.9839
▁heather	-10.9839
▁barrow	-10.9839
▁blondie	-10.9839
▁internet	-10.9839
▁entrust	-10.9839
▁ivan	-10.9839
▁bleeding	-10.9839
▁hostile	-10.9839
▁giris	-10.9839
▁travis	-10.9839
▁octopussy	-10.9839
▁yummy	-10.9839
▁tinkling	-10.9839
▁specifically	-10.9839
▁dudley	-10.9839
▁hissing	-10.9839
▁fireflies	-10.9839
▁rebel	-10.9839
▁emotional	-10.9839
▁woah	-10.9839
▁piggies	-10.9839
▁hammer	-10.9839
▁confront	-10.9839
▁michelin	-10.9839
▁dandy	-10.984
▁envelope	-10.984
▁pierre	-10.984
▁classroom	-10.984
ada	-10.984
▁patron	-10.984
▁radiation	-10.984
▁sloth	-10.984
▁thou	-10.984
▁ripped	-10.984
▁cooperate	-10.984
▁opto	-10.984
▁raw	-10.984
▁dizzy	-10.984
▁temporary	-10.984
▁sulu	-10.984
▁gulf	-10.984
▁jock	-10.984
▁rail	-10.984
▁possession	-10.9841
▁flour	-10.9841
▁pub	-10.9841
▁cancelled	-10.9841
▁flip	-10.9841
▁convert	-10.9841
▁soil	-10.9841
▁overboard	-10.9841
▁elvis	-10.9841
▁labor	-10.9841
▁koss	-10.9841
▁lenny	-10.9841
▁granddaughter	-10.9841
▁june	-10.9841
▁occurred	-10.9841
▁reduce	-10.9841
▁flushes	-10.9841
▁glitch	-10.9842
▁bible	-10.9842
▁assist	-10.9842
▁appearance	-10.9842
▁countdown	-10.9842
▁bald	-10.9842
▁leads	-10.9842
▁data	-10.9842
▁modest	-10.9843
▁rug	-10.9843
▁skies	-10.9843
▁robbery	-10.9843
▁clinking	-10.9843
▁version	-10.9843
▁crou	-10.9843
▁andie	-10.9843
▁entry	-10.9843
▁booth	-10.9844
▁puny	-10.9844
▁chairman	-10.9844
▁juicy	-10.9844
▁gig	-10.9844
intensifie	-10.9845
▁whore	-10.9845
▁fashionable	-10.9845
▁heartache	-10.9845
▁appropriate	-10.9845
▁stern	-10.9845
▁rive	-10.9845
▁llama	-10.9846
▁owens	-10.9846
▁banished	-10.9847
▁tow	-10.9847
▁fang	-10.9848
▁vile	-10.9848
▁growth	-10.9848
▁holly	-10.9848
▁inch	-10.9848
▁payback	-10.9848
▁incredibly	-10.9849
▁gregg	-10.9849
▁dishes	-10.985
▁hooting	-10.985
▁triple	-10.9851
▁entertained	-10.9851
▁humiliated	-10.9851
▁qualifications	-10.9851
▁afterwards	-10.9851
▁instructions	-10.9851
▁lanterns	-10.9851
▁pretzels	-10.9851
▁emotions	-10.9851
▁gags	-10.9851
▁whooshing	-10.9851
▁worthless	-10.9851
lton	-10.9852
▁transporter	-10.9852
quire	-10.9852
▁shovel	-10.9852
▁bigenders	-10.9853
▁sofie	-10.9853
▁fleet	-10.9854
▁frightening	-10.9855
▁cranky	-10.9856
▁litter	-10.9856
▁seventy	-10.9856
▁nonono	-10.9856
▁englishman	-10.9857
▁bin	-10.9858
▁hunger	-10.9858
▁drain	-10.9858
▁solved	-10.9859
▁whoaoh	-10.986
▁medu	-10.986
▁sous	-10.9861
▁denied	-10.9861
▁clucking	-10.9861
▁backstage	-10.9863
▁hiro	-10.9863
▁robbed	-10.9865
▁backyard	-10.9866
▁mc	-10.9868
▁crunching	-10.9868
▁greed	-10.9869
▁ability	-10.9869
▁wounded	-10.9869
▁betrayed	-10.9869
▁spoiled	-10.9869
▁natives	-10.9873
▁coordinates	-10.9873
▁accomplished	-10.9874
▁optic	-10.9874
▁after	-10.9874
▁batter	-10.9877
▁stayton	-10.9878
▁bells	-10.9878
▁endless	-10.9879
▁positively	-10.9879
▁boxes	-10.988
▁newsman	-10.9881
▁yiit	-10.9882
▁pounding	-10.9882
▁ol	-10.9883
▁swallowed	-10.9884
▁mocking	-10.9884
▁dye	-10.9884
▁atch	-10.9886
▁dent	-10.9888
▁nip	-10.9889
▁union	-10.9891
▁suspected	-10.9893
▁passes	-10.9895
▁arrows	-10.9895
▁pyramids	-10.9895
▁awarded	-10.9898
▁stinky	-10.9898
town	-10.9898
▁shocked	-10.99
▁leaking	-10.9901
▁sinking	-10.9901
▁wrecked	-10.9902
▁sharply	-10.9902
▁posters	-10.9903
▁nanny	-10.9905
▁nod	-10.9905
▁scheduled	-10.991
▁parties	-10.9913
▁globe	-10.9914
▁whoop	-10.9915
▁snarls	-10.9917
▁crocodiles	-10.9917
▁intentions	-10.9917
▁fin	-10.9921
▁earned	-10.9923
▁louder	-10.9924
▁faithful	-10.9924
▁lump	-10.9927
▁scotty	-10.9927
▁released	-10.9929
▁mic	-10.993
▁murderer	-10.9931
▁waiter	-10.9936
▁honesty	-10.9937
▁dup	-10.9939
▁relatives	-10.994
▁requires	-10.994
▁completed	-10.994
▁pond	-10.9942
▁lone	-10.9943
▁focused	-10.9954
▁cond	-10.9957
▁pills	-10.9962
▁muscles	-10.9962
▁jews	-10.9962
▁greasers	-10.9965
▁selfdestruct	-10.9966
▁stain	-10.9966
headed	-10.9969
▁rag	-10.997
▁hedge	-10.997
▁weeping	-10.9972
▁lid	-10.9974
▁suggested	-10.9983
▁playin	-10.9983
▁einsteins	-10.9985
rate	-10.9987
▁discussed	-10.9989
eth	-10.999
▁climbed	-10.9992
▁sew	-10.9994
▁blessed	-10.9997
▁maria	-10.9997
▁tap	-11.0004
▁candles	-11.0005
▁mingotts	-11.0007
▁hee	-11.0008
passionate	-11.0023
za	-11.0026
▁watches	-11.0028
▁funds	-11.0031
▁complaints	-11.0031
▁brad	-11.0042
▁worthy	-11.0042
mber	-11.0044
▁thy	-11.0045
▁sailing	-11.0046
▁shelly	-11.0054
▁hunted	-11.0054
▁flu	-11.0056
▁lighter	-11.0063
ura	-11.0069
▁divisions	-11.0075
▁anyways	-11.008
tec	-11.008
▁apes	-11.008
▁visited	-11.0087
▁pea	-11.0096
▁tease	-11.0098
▁fooled	-11.0108
ock	-11.0113
ably	-11.0115
▁spits	-11.0117
grade	-11.0118
ld	-11.0124
▁pipes	-11.013
▁mars	-11.0143
▁files	-11.0143
▁aahh	-11.0155
▁ifyou	-11.016
ppy	-11.0168
▁nails	-11.0168
▁snowing	-11.0168
gold	-11.0168
▁punish	-11.0169
▁sobs	-11.0174
▁mob	-11.0186
ford	-11.0187
▁groom	-11.0188
▁ducks	-11.019
▁backup	-11.0191
▁scenes	-11.0192
▁hairy	-11.0193
▁def	-11.0205
rous	-11.0216
▁strap	-11.022
▁conve	-11.0223
▁miracles	-11.0235
▁welland	-11.0237
▁sleeps	-11.0247
▁relaxing	-11.0254
so	-11.0254
▁freed	-11.0256
▁badges	-11.0261
▁br	-11.0294
▁cared	-11.0315
smen	-11.0317
pie	-11.0321
nba	-11.0321
ut	-11.0327
▁ast	-11.0344
▁questioned	-11.037
▁mend	-11.0371
▁captiv	-11.0372
▁actions	-11.0375
▁smelled	-11.0393
▁lessons	-11.04
▁tan	-11.0413
▁pear	-11.043
here	-11.0445
▁blocks	-11.047
ello	-11.0527
▁pose	-11.0527
▁sails	-11.0567
tical	-11.0577
▁devils	-11.0577
zero	-11.0579
▁hagrids	-11.0586
▁ooo	-11.0607
ther	-11.0621
▁robb	-11.0632
▁ro	-11.0634
ical	-11.0639
▁maps	-11.0679
▁mop	-11.0679
gh	-11.0696
hel	-11.0705
▁breaths	-11.0712
bus	-11.074
ink	-11.0744
▁grease	-11.0772
▁am	-11.0774
▁presidents	-11.0777
▁ace	-11.0782
▁hump	-11.0804
▁horror	-11.0809
▁cor	-11.0814
les	-11.0824
▁services	-11.0825
▁ste	-11.0834
▁fl	-11.085
▁nicely	-11.0863
▁hospitals	-11.0873
▁cakes	-11.088
▁bombs	-11.0881
ged	-11.0938
▁fits	-11.0942
▁partys	-11.0948
▁can	-11.0959
stone	-11.0992
ik	-11.1011
▁owes	-11.1036
▁sl	-11.1053
ify	-11.1076
▁ver	-11.1086
air	-11.1089
cence	-11.1098
▁rust	-11.1124
cee	-11.1138
▁divide	-11.1166
tter	-11.1167
▁odies	-11.1169
▁floors	-11.1171
pier	-11.1176
cha	-11.121
▁races	-11.1213
▁ren	-11.1223
▁vermin	-11.125
▁sens	-11.1271
▁whip	-11.1288
ping	-11.13
hole	-11.1304
▁amuse	-11.1307
▁souls	-11.1314
shed	-11.1315
▁root	-11.1317
all	-11.1325
▁turkey	-11.1329
▁soviet	-11.1329
▁rodent	-11.1329
day	-11.1329
▁amigo	-11.133
▁sixty	-11.133
▁wiggle	-11.1332
▁doom	-11.1332
▁announcement	-11.1336
▁parrot	-11.1346
▁increase	-11.1346
▁shelter	-11.1346
▁tire	-11.1353
tom	-11.1354
▁prank	-11.1354
▁landmark	-11.1355
▁cricket	-11.1357
▁jew	-11.136
▁ninja	-11.136
▁termite	-11.136
tail	-11.136
▁muscle	-11.1362
▁scully	-11.1362
▁booster	-11.1363
▁pill	-11.1366
▁orphan	-11.1367
ache	-11.1368
▁heroic	-11.137
▁hyena	-11.137
▁minion	-11.1374
▁greaser	-11.1375
▁gunfight	-11.138
▁beh	-11.1396
▁mouths	-11.1398
youre	-11.14
▁je	-11.1408
▁dim	-11.1409
▁jer	-11.1412
▁pu	-11.1423
ire	-11.143
▁cra	-11.1438
▁annoy	-11.1438
▁tralalaa	-11.1439
▁wizards	-11.1442
▁walt	-11.1448
▁whiz	-11.1452
▁counsel	-11.1455
▁mourn	-11.1455
▁rescu	-11.1457
▁fuss	-11.1459
▁shrink	-11.1459
▁quack	-11.1459
▁fla	-11.1463
▁blink	-11.1464
▁possess	-11.1467
▁amen	-11.1467
▁obtain	-11.1468
rusty	-11.147
▁install	-11.1475
cat	-11.1477
know	-11.1477
knock	-11.1482
people	-11.1482
job	-11.1482
life	-11.1483
▁os	-11.1484
face	-11.1485
▁sod	-11.1486
▁retire	-11.1486
▁profession	-11.1487
don	-11.1488
▁flatter	-11.1488
▁filth	-11.1489
▁bink	-11.149
▁guilt	-11.1491
▁immediate	-11.1491
▁stamp	-11.1493
▁vote	-11.1494
ron	-11.1497
▁bore	-11.1497
▁shave	-11.1497
▁brew	-11.1499
▁hack	-11.15
▁marv	-11.1502
▁mmmmmm	-11.1503
▁memo	-11.1505
▁shiver	-11.1505
▁compassion	-11.1505
▁todd	-11.1505
▁thirty	-11.1505
▁regina	-11.1505
▁lilliput	-11.1505
hurst	-11.1505
▁absurd	-11.1505
▁ahtohallan	-11.1505
▁almighty	-11.1505
▁ambassador	-11.1505
▁atmosphere	-11.1505
▁behaviour	-11.1505
▁bryce	-11.1505
▁caribbean	-11.1505
▁caution	-11.1505
▁centuries	-11.1505
▁ceremonies	-11.1505
▁confusion	-11.1505
▁corrado	-11.1505
▁currency	-11.1505
▁custody	-11.1505
▁destruction	-11.1505
▁dungeon	-11.1505
▁dunkaccino	-11.1505
▁elastigirl	-11.1505
▁exquisite	-11.1505
▁eyelashes	-11.1505
▁fomard	-11.1505
▁fountain	-11.1505
▁futterwacken	-11.1505
▁gestapo	-11.1505
▁glasdale	-11.1505
▁glitter	-11.1505
▁goofball	-11.1505
▁gunilla	-11.1505
▁gunpowder	-11.1505
▁hallelujah	-11.1505
▁heinous	-11.1505
▁henchmen	-11.1505
▁hickory	-11.1505
▁hysterical	-11.1505
▁innovation	-11.1505
▁intriguing	-11.1505
▁isolation	-11.1505
▁kamishin	-11.1505
▁lemuel	-11.1505
▁mackerel	-11.1505
▁manhattan	-11.1505
▁marquis	-11.1505
▁mcallister	-11.1505
▁mccord	-11.1505
▁messenger	-11.1505
▁michigan	-11.1505
▁montreal	-11.1505
▁moscow	-11.1505
▁moxie	-11.1505
▁nicholas	-11.1505
▁nuhuh	-11.1505
▁overdue	-11.1505
▁parlor	-11.1505
▁pedestrian	-11.1505
▁pellet	-11.1505
▁pennsylvania	-11.1505
▁perimeter	-11.1505
▁pevensie	-11.1505
▁phrase	-11.1505
▁pleureur	-11.1505
▁presscott	-11.1505
▁primitive	-11.1505
▁refrigerator	-11.1505
▁revoir	-11.1505
▁scrimshaw	-11.1505
▁scusa	-11.1505
▁shakespeare	-11.1505
▁smithsonian	-11.1505
▁spaghetti	-11.1505
▁spectacular	-11.1505
▁stavros	-11.1505
▁sunrise	-11.1505
▁survey	-11.1505
▁suspend	-11.1505
▁sympathy	-11.1505
▁treason	-11.1505
▁unacceptable	-11.1505
▁unbearable	-11.1505
▁uncomfortable	-11.1505
▁unicorn	-11.1505
▁vectorscope	-11.1505
▁verdict	-11.1505
▁violent	-11.1505
▁virgil	-11.1505
▁vulgar	-11.1505
▁walden	-11.1505
▁africa	-11.1505
▁analysis	-11.1505
▁bouquet	-11.1505
▁corset	-11.1505
▁crisp	-11.1505
▁infant	-11.1505
▁judging	-11.1505
▁lilliputians	-11.1505
▁porthos	-11.1505
▁rabies	-11.1505
▁shampoo	-11.1505
▁silk	-11.1505
▁tennis	-11.1505
▁territory	-11.1505
▁unlucky	-11.1505
▁wiggly	-11.1505
▁worn	-11.1505
▁blizzard	-11.1505
▁escaping	-11.1505
▁lamlam	-11.1505
▁lucinda	-11.1505
▁menace	-11.1505
▁visual	-11.1505
▁ashore	-11.1505
▁manifest	-11.1505
▁reentry	-11.1505
▁stunning	-11.1505
▁courtesy	-11.1505
▁skitch	-11.1505
▁congress	-11.1505
▁mole	-11.1505
▁picnic	-11.1505
▁harbour	-11.1505
▁nelson	-11.1505
▁profile	-11.1505
▁puppet	-11.1505
▁cynic	-11.1505
▁meemaw	-11.1505
▁sought	-11.1505
▁transmission	-11.1505
▁amnesia	-11.1505
▁trophy	-11.1505
▁lunatic	-11.1506
▁blaine	-11.1506
▁underworld	-11.1506
▁jingle	-11.1506
▁mirage	-11.1506
▁arrey	-11.1506
▁gambling	-11.1506
▁wizzie	-11.1506
▁dallas	-11.1506
▁feature	-11.1506
▁burial	-11.1506
▁promote	-11.1506
▁ignition	-11.1506
▁separation	-11.1506
▁subtle	-11.1506
▁kirk	-11.1506
▁mermaid	-11.1506
▁kidnapping	-11.1506
▁concept	-11.1506
▁franco	-11.1506
▁alternative	-11.1506
▁allright	-11.1506
▁nibs	-11.1506
▁relations	-11.1506
▁solita	-11.1506
▁traiala	-11.1506
▁bruton	-11.1506
▁recess	-11.1506
▁altogether	-11.1506
▁adam	-11.1506
▁blueberry	-11.1506
▁pupil	-11.1506
▁thread	-11.1506
▁stroll	-11.1506
▁drummer	-11.1506
▁forbid	-11.1506
▁dumpster	-11.1506
wling	-11.1506
▁tidy	-11.1506
▁spacecraft	-11.1506
▁dwan	-11.1506
▁whereabouts	-11.1506
▁obligation	-11.1506
▁cabinet	-11.1506
▁basis	-11.1506
▁hesitate	-11.1506
▁manero	-11.1506
▁beads	-11.1506
▁pati	-11.1506
▁random	-11.1506
▁disqualified	-11.1506
▁yonder	-11.1506
▁dentist	-11.1506
▁ginger	-11.1506
▁update	-11.1506
▁clang	-11.1506
▁veeko	-11.1506
▁alaska	-11.1506
▁devotion	-11.1507
▁whim	-11.1507
▁existence	-11.1507
▁donald	-11.1507
▁vital	-11.1507
▁puck	-11.1507
▁despise	-11.1507
▁bummer	-11.1507
▁mummy	-11.1507
▁bonnet	-11.1507
▁poke	-11.1507
▁westside	-11.1507
▁firstclass	-11.1507
▁shane	-11.1507
▁justin	-11.1507
▁gibberish	-11.1507
▁teammates	-11.1507
▁ramp	-11.1507
▁deleted	-11.1507
▁adjust	-11.1507
▁tummy	-11.1507
▁snout	-11.1507
▁meaningful	-11.1507
▁tramp	-11.1507
▁percy	-11.1508
▁spiritual	-11.1508
▁newark	-11.1508
▁arise	-11.1508
▁theory	-11.1508
▁popping	-11.1508
▁civilization	-11.1508
▁muffin	-11.1508
▁roadblock	-11.1508
▁dwell	-11.1508
▁propriet	-11.1508
▁saddle	-11.1508
▁temperature	-11.1508
▁translate	-11.1508
▁presume	-11.1508
▁petrified	-11.1508
▁venture	-11.1508
▁construction	-11.1508
scope	-11.1508
▁fabric	-11.1508
▁amber	-11.1508
▁tractor	-11.1508
▁anhe	-11.1508
▁nora	-11.1508
▁sisterinlaw	-11.1508
▁production	-11.1508
▁oooh	-11.1509
▁gertie	-11.1509
▁buh	-11.1509
▁examine	-11.1509
▁stallion	-11.1509
▁confession	-11.1509
▁mason	-11.1509
▁feast	-11.1509
▁christian	-11.1509
▁passport	-11.1509
▁peak	-11.1509
▁brandt	-11.1509
▁swan	-11.1509
▁irish	-11.1509
▁coma	-11.1509
▁brotherinlaw	-11.1509
▁branches	-11.1509
nez	-11.1509
▁sunny	-11.1509
▁waterfall	-11.151
▁stunt	-11.151
▁oof	-11.151
▁revving	-11.151
▁whirring	-11.151
▁figuring	-11.151
▁appease	-11.151
▁cheerful	-11.151
▁tide	-11.151
▁celebrity	-11.151
▁logan	-11.151
▁objection	-11.151
▁yearbook	-11.1511
▁digit	-11.1511
▁pail	-11.1511
▁elder	-11.1511
▁snappy	-11.1511
▁operator	-11.1511
▁ranch	-11.1511
▁blu	-11.1511
▁honourable	-11.1511
▁halen	-11.1511
▁agony	-11.1512
▁deliberately	-11.1512
▁surprisingly	-11.1512
▁maiden	-11.1512
▁puke	-11.1512
▁belief	-11.1513
▁wetter	-11.1513
▁shushes	-11.1513
▁edna	-11.1513
▁grasp	-11.1513
▁spies	-11.1513
▁prop	-11.1513
▁urge	-11.1514
▁dedicated	-11.1514
▁sober	-11.1514
▁confirmed	-11.1514
▁hind	-11.1514
▁species	-11.1514
▁charter	-11.1514
▁math	-11.1514
▁coverage	-11.1515
▁roman	-11.1515
▁expression	-11.1516
▁flank	-11.1516
▁relieved	-11.1517
▁mayday	-11.1517
▁hideous	-11.1518
qualified	-11.1518
▁correction	-11.1518
▁phew	-11.1518
▁considerable	-11.1519
▁crooked	-11.1519
▁offended	-11.1519
▁yito	-11.152
▁blade	-11.152
▁cele	-11.152
▁heels	-11.1521
▁meetings	-11.1521
▁crescen	-11.1522
▁curly	-11.1522
▁fist	-11.1522
▁stampede	-11.1523
▁operating	-11.1523
▁statement	-11.1524
▁skipping	-11.1524
▁blonde	-11.1524
▁resigned	-11.1525
▁toot	-11.1525
▁battery	-11.1525
▁eliminated	-11.1526
▁listened	-11.1526
▁rod	-11.1526
▁snape	-11.1527
▁gaze	-11.1527
▁described	-11.1527
ew	-11.1527
▁goalie	-11.1529
▁automat	-11.1531
▁chad	-11.1531
▁vanished	-11.1531
▁spilled	-11.1531
▁loosen	-11.1531
▁larger	-11.1531
▁squirm	-11.1531
▁cuteness	-11.1532
▁restless	-11.1532
▁barry	-11.1534
▁spine	-11.1534
▁compared	-11.1534
▁alan	-11.1535
▁gay	-11.1536
▁protection	-11.1537
▁pickup	-11.1538
▁hawks	-11.1539
▁teen	-11.1539
▁christmastime	-11.154
▁gap	-11.154
▁physically	-11.154
▁sales	-11.1541
▁inventor	-11.1541
▁unlikely	-11.1543
▁jr	-11.1543
▁dragged	-11.1543
▁cursed	-11.1544
▁crowna	-11.1544
▁lowest	-11.1544
▁lair	-11.1545
▁ancestors	-11.1546
▁neighbours	-11.1546
▁admired	-11.1546
▁halflings	-11.1548
▁rooting	-11.1549
▁removed	-11.155
▁messes	-11.1552
▁photographed	-11.1554
▁lawn	-11.1554
▁blown	-11.1554
▁strengthen	-11.1554
▁esp	-11.1556
▁caroline	-11.1557
▁mongolia	-11.1559
▁lighten	-11.1559
▁status	-11.1562
witz	-11.157
▁limited	-11.157
▁fasten	-11.1571
▁melting	-11.1571
whens	-11.1572
▁funding	-11.1572
▁palmer	-11.1572
▁burps	-11.1572
▁scientists	-11.1573
▁vegetables	-11.1573
▁vultures	-11.1573
▁delightful	-11.1573
▁ohio	-11.1574
bur	-11.1575
▁jewels	-11.1577
▁generat	-11.1579
▁insisted	-11.1581
▁judged	-11.1584
▁wade	-11.1585
▁realm	-11.1586
▁watchdog	-11.1587
suit	-11.1587
▁charmed	-11.1588
▁jealousy	-11.1591
▁screwed	-11.1592
▁flowing	-11.1594
▁drowning	-11.1596
▁gloves	-11.1597
▁spices	-11.1599
▁scored	-11.16
▁gaining	-11.1601
▁label	-11.1603
ise	-11.1604
▁imma	-11.1604
▁forty	-11.1606
▁simpler	-11.1608
▁pale	-11.1608
▁sporting	-11.1611
bble	-11.1613
▁drawers	-11.1614
▁bowling	-11.1614
▁fastest	-11.1615
amari	-11.1617
book	-11.1619
▁reports	-11.162
▁twisted	-11.162
▁gadgets	-11.1626
▁companions	-11.1626
▁compliments	-11.1627
▁encourage	-11.1627
▁details	-11.1627
▁charts	-11.1627
▁intended	-11.1628
▁thuds	-11.163
▁deserved	-11.1631
izing	-11.1634
▁lin	-11.1647
▁treaty	-11.1651
▁busting	-11.1653
▁termites	-11.1653
▁peed	-11.166
▁shakey	-11.1661
hiti	-11.1663
▁wink	-11.1671
artac	-11.1671
▁comeay	-11.1672
▁medals	-11.168
▁sacr	-11.1683
atic	-11.1684
▁ru	-11.1694
ki	-11.1702
▁sprinkle	-11.1704
▁spears	-11.1707
▁ghosts	-11.1707
▁klingons	-11.1707
▁seagulls	-11.1707
▁greatness	-11.1708
▁actors	-11.1713
▁screamed	-11.172
▁dame	-11.1721
ette	-11.1724
turn	-11.1737
▁occasions	-11.1741
llo	-11.1746
▁bl	-11.1749
▁makeup	-11.1754
▁las	-11.1757
▁shields	-11.1762
▁she	-11.1771
ont	-11.1787
▁resumes	-11.1789
▁scouts	-11.179
ial	-11.1792
last	-11.1795
▁slams	-11.1797
ent	-11.1798
▁smashing	-11.1814
▁buckets	-11.1815
elk	-11.1816
▁clowns	-11.1816
▁cigarettes	-11.1816
▁chains	-11.1817
ap	-11.1826
▁prom	-11.1827
▁nin	-11.1834
▁shadows	-11.1844
▁speeding	-11.1846
ttering	-11.1852
▁rehearse	-11.1853
▁goons	-11.1858
▁timeout	-11.1859
▁treating	-11.1867
▁robots	-11.1899
▁combat	-11.19
▁charms	-11.1901
pping	-11.1916
▁ascen	-11.1921
ure	-11.1921
▁site	-11.1922
▁pigeons	-11.1929
ind	-11.1931
▁prisoners	-11.1938
made	-11.1949
▁bumps	-11.1954
▁fre	-11.1956
▁tables	-11.196
▁adults	-11.1982
▁operations	-11.1982
▁determine	-11.1992
▁recorded	-11.1995
▁earl	-11.2013
zed	-11.2018
iege	-11.2023
▁nightmares	-11.2037
▁standards	-11.2039
▁kicking	-11.2048
▁columns	-11.2065
▁feared	-11.2071
▁we	-11.2071
hot	-11.2083
▁tours	-11.2093
▁asteroids	-11.2093
▁endure	-11.2096
▁cleaning	-11.2112
▁jerks	-11.2122
▁mums	-11.2125
▁flea	-11.2127
▁plants	-11.2151
▁regrets	-11.2154
ile	-11.2154
▁pauls	-11.2206
▁cameras	-11.2206
dos	-11.2209
tory	-11.2209
▁recite	-11.2211
▁shots	-11.2223
va	-11.2229
his	-11.2251
nder	-11.2259
▁pets	-11.2272
▁mag	-11.2276
▁greas	-11.2286
can	-11.2287
▁skins	-11.2292
lon	-11.2304
▁pala	-11.2309
▁cr	-11.2348
vy	-11.2365
▁stan	-11.2374
▁pon	-11.2374
▁freezes	-11.2376
▁beers	-11.2389
▁invest	-11.2392
▁rockets	-11.2405
▁embrace	-11.2429
▁characters	-11.2434
ney	-11.2451
▁assassin	-11.2462
stand	-11.2478
▁glue	-11.2482
▁believes	-11.2487
▁itch	-11.251
▁deaths	-11.2517
▁views	-11.2518
▁gr	-11.2525
rance	-11.2531
▁noises	-11.255
▁tomorrows	-11.2551
ib	-11.2551
▁cart	-11.2562
▁computers	-11.2579
▁winners	-11.2579
▁prices	-11.2608
▁ook	-11.2613
itty	-11.2629
vo	-11.2659
▁forces	-11.2686
▁accidents	-11.2693
▁ou	-11.27
▁str	-11.2706
▁maker	-11.2716
▁elm	-11.2718
fied	-11.2719
qu	-11.2755
▁sizes	-11.2755
▁deni	-11.2771
▁dab	-11.2777
▁blo	-11.2785
▁stones	-11.2785
▁mes	-11.2786
▁pest	-11.2808
ghan	-11.2829
ture	-11.2841
itious	-11.2849
▁persons	-11.2851
▁capo	-11.2854
bs	-11.2866
▁planets	-11.2876
▁picks	-11.2881
▁bounc	-11.2889
bleh	-11.2905
▁glo	-11.2912
▁at	-11.2912
vin	-11.2916
▁promises	-11.2916
▁op	-11.2926
azoo	-11.294
▁walker	-11.2959
▁chee	-11.2968
▁roads	-11.2971
ill	-11.298
tal	-11.299
date	-11.3
▁shares	-11.3021
apa	-11.3028
neur	-11.3032
▁tw	-11.3054
▁trie	-11.3073
▁supers	-11.3077
▁needing	-11.3085
▁yiyou	-11.3085
▁thud	-11.3105
▁tra	-11.3109
per	-11.3127
▁guessed	-11.313
▁wars	-11.3136
▁barr	-11.3138
pper	-11.3148
▁bobs	-11.3155
iness	-11.3165
▁lalala	-11.3176
▁scrap	-11.3194
▁sniff	-11.3216
▁comme	-11.3218
ign	-11.3218
lop	-11.325
dog	-11.3265
hoo	-11.327
aka	-11.3275
▁flap	-11.3281
▁claw	-11.3282
▁terror	-11.3286
▁av	-11.3287
ach	-11.3294
mark	-11.3302
fall	-11.3304
▁lever	-11.3305
▁compliment	-11.3308
▁chart	-11.3313
▁civil	-11.3316
gun	-11.3321
ym	-11.3326
net	-11.3326
▁noses	-11.3328
▁squeal	-11.3329
▁dinosaur	-11.3329
▁gossip	-11.3329
▁motorcycle	-11.3329
▁tarla	-11.3329
▁broomstick	-11.3329
▁wimp	-11.333
▁angle	-11.3333
pan	-11.3337
▁household	-11.3339
▁grill	-11.3344
▁require	-11.3345
▁autograph	-11.3346
▁babysitter	-11.3346
▁role	-11.3348
zing	-11.3349
▁favourite	-11.3351
▁verno	-11.3351
▁opponent	-11.3353
▁sheet	-11.3357
▁mudblood	-11.3357
▁arc	-11.3358
▁sensation	-11.3359
▁companion	-11.3359
▁growl	-11.336
▁gadget	-11.336
▁relative	-11.3362
▁cheerleader	-11.3363
▁detail	-11.3364
▁citizen	-11.3365
prints	-11.3368
▁antique	-11.3368
▁yawn	-11.3369
▁zip	-11.337
▁stair	-11.3371
▁robe	-11.3371
▁skill	-11.3373
▁pup	-11.3373
▁servant	-11.3373
▁alien	-11.3375
▁bolt	-11.3377
▁sledge	-11.3381
▁customer	-11.3385
gy	-11.3387
▁steven	-11.3395
▁mumble	-11.3398
▁musician	-11.3399
▁hats	-11.3399
▁transfer	-11.3403
▁rear	-11.3408
▁fright	-11.3415
▁refresh	-11.3416
▁liver	-11.3417
offs	-11.342
▁senor	-11.3422
anus	-11.3425
zz	-11.343
▁disgust	-11.3434
▁cardi	-11.344
▁crunch	-11.3446
ell	-11.3447
▁explor	-11.3448
ct	-11.3451
ically	-11.3453
▁guid	-11.3455
▁blend	-11.3455
ice	-11.3456
lly	-11.3457
work	-11.3462
inlaw	-11.3462
ats	-11.3464
most	-11.3466
▁chirp	-11.3466
▁kicks	-11.3466
pot	-11.3467
▁wail	-11.3467
cock	-11.3468
▁soak	-11.3469
▁triumph	-11.3471
▁surf	-11.3473
▁pluck	-11.3473
▁select	-11.3474
jack	-11.3475
who	-11.3476
▁plug	-11.3476
flavored	-11.3477
foot	-11.3477
clap	-11.3477
▁aft	-11.3478
▁breed	-11.3479
boat	-11.348
hood	-11.348
▁spill	-11.348
born	-11.348
scale	-11.348
▁brand	-11.348
for	-11.3481
word	-11.3481
secret	-11.3482
comb	-11.3482
three	-11.3482
mp	-11.3482
food	-11.3482
▁multi	-11.3483
▁bb	-11.3483
second	-11.3484
letting	-11.3484
friendly	-11.3486
ft	-11.3487
▁humiliate	-11.3487
▁burglar	-11.3488
▁arrange	-11.3488
▁wip	-11.3488
▁destin	-11.3488
▁observe	-11.3488
▁incredib	-11.3489
▁exclusive	-11.3489
▁engage	-11.3489
▁electro	-11.349
▁restore	-11.349
▁precise	-11.3491
▁practical	-11.3491
pick	-11.3491
▁vanish	-11.3493
▁don	-11.3493
▁scrub	-11.3494
agna	-11.3495
▁exception	-11.3496
▁jib	-11.3497
▁pooch	-11.3498
▁actress	-11.35
called	-11.3501
▁branch	-11.3501
minded	-11.3501
▁religio	-11.3501
▁happie	-11.3502
▁defect	-11.3503
▁melanchol	-11.3504
▁mmhm	-11.3505
▁confide	-11.3505
olence	-11.3505
▁squid	-11.3505
▁blank	-11.3505
▁cigar	-11.3505
▁affirm	-11.3505
▁november	-11.3505
stoppable	-11.3505
▁acquainted	-11.3505
▁akhiya	-11.3505
▁alexander	-11.3505
▁amelia	-11.3505
▁apologise	-11.3505
▁arachnneka	-11.3505
▁arrogance	-11.3505
▁autumn	-11.3505
▁baudricourt	-11.3505
▁baylene	-11.3505
▁believing	-11.3505
▁bernadette	-11.3505
▁bizarre	-11.3505
▁cardamom	-11.3505
▁ceiling	-11.3505
▁celebration	-11.3505
▁chalk	-11.3505
▁challenging	-11.3505
▁charging	-11.3505
▁choochoo	-11.3505
▁colleen	-11.3505
▁comprehend	-11.3505
▁concoct	-11.3505
▁conflict	-11.3505
▁congratulate	-11.3505
▁contagious	-11.3505
▁cuckoo	-11.3505
▁cunning	-11.3505
▁dalrymple	-11.3505
▁datsun	-11.3505
▁diabolical	-11.3505
▁duarto	-11.3505
▁dulcinea	-11.3505
▁easley	-11.3505
▁elegant	-11.3505
▁entitled	-11.3505
▁fanfare	-11.3505
▁faucet	-11.3505
▁fawkes	-11.3505
▁feminine	-11.3505
▁formuler	-11.3505
▁frozone	-11.3505
▁garrison	-11.3505
▁glance	-11.3505
▁graduation	-11.3505
▁grief	-11.3505
▁grildrig	-11.3505
▁groin	-11.3505
▁harcourt	-11.3505
▁honeymoon	-11.3505
▁humiliating	-11.3505
▁hyperventilat	-11.3505
▁imaginary	-11.3505
▁invasion	-11.3505
▁irregular	-11.3505
▁irritat	-11.3505
▁jedediah	-11.3505
▁jefferson	-11.3505
▁jordan	-11.3505
▁kathleen	-11.3505
▁kingsleigh	-11.3505
▁korman	-11.3505
▁lacrosse	-11.3505
▁leiter	-11.3505
▁lesbian	-11.3505
▁librarian	-11.3505
▁lillian	-11.3505
▁lullaby	-11.3505
▁lutz	-11.3505
▁lyrics	-11.3505
▁manhaul	-11.3505
▁mattress	-11.3505
▁mcginty	-11.3505
▁merchandise	-11.3505
▁miniaturization	-11.3505
▁mumbai	-11.3505
▁nermal	-11.3505
▁northuldra	-11.3505
▁offensive	-11.3505
▁parseltongue	-11.3505
▁phillips	-11.3505
▁pinocchio	-11.3505
▁pistol	-11.3505
▁pixum	-11.3505
▁predator	-11.3505
▁prevail	-11.3505
▁provisions	-11.3505
▁reconsider	-11.3505
▁resourceful	-11.3505
▁ritz	-11.3505
▁ruffians	-11.3505
▁rupees	-11.3505
▁rupert	-11.3505
▁sabbath	-11.3505
▁satchel	-11.3505
▁satisfaction	-11.3505
▁selfesteem	-11.3505
▁seymour	-11.3505
▁sleigh	-11.3505
▁sodapop	-11.3505
▁somewhat	-11.3505
▁spiderwick	-11.3505
▁squish	-11.3505
▁stockbroker	-11.3505
▁stoked	-11.3505
▁stranded	-11.3505
▁superduper	-11.3505
▁taylor	-11.3505
▁teresa	-11.3505
▁theatre	-11.3505
▁thirteen	-11.3505
▁thunderstorms	-11.3505
▁ticklish	-11.3505
▁ticktock	-11.3505
▁timothy	-11.3505
▁translator	-11.3505
▁underbutler	-11.3505
▁unpleasant	-11.3505
▁unprecedented	-11.3505
▁valiant	-11.3505
▁vanilla	-11.3505
▁vicksburgs	-11.3505
▁wwwait	-11.3505
▁xosha	-11.3505
▁yippee	-11.3505
▁yourejokin	-11.3505
▁yvonne	-11.3505
▁adapt	-11.3505
▁blares	-11.3505
▁canoe	-11.3505
▁certified	-11.3505
▁chancellor	-11.3505
▁clutch	-11.3505
▁exploit	-11.3505
▁grandchildren	-11.3505
▁horizon	-11.3505
▁hutchins	-11.3505
▁igoe	-11.3505
▁impostor	-11.3505
▁info	-11.3505
▁miyaji	-11.3505
▁muzzle	-11.3505
▁pastuzo	-11.3505
▁prefect	-11.3505
▁prevent	-11.3505
▁scattered	-11.3505
▁symbol	-11.3505
▁tangier	-11.3505
▁tiffany	-11.3505
▁whatsoever	-11.3505
▁arena	-11.3505
▁barbatus	-11.3505
▁industry	-11.3505
▁kyle	-11.3505
▁matrimon	-11.3505
▁mccarthy	-11.3505
▁monstrous	-11.3505
▁snoop	-11.3505
▁strangle	-11.3505
▁archives	-11.3505
▁attagirl	-11.3505
▁babbles	-11.3505
▁bundle	-11.3505
▁imperial	-11.3505
▁mutiny	-11.3505
▁streak	-11.3505
▁gilbert	-11.3505
▁harness	-11.3505
▁abstract	-11.3505
▁gagarin	-11.3505
▁muggleborn	-11.3505
▁scholarship	-11.3505
▁selene	-11.3505
▁sorrow	-11.3505
▁strawberry	-11.3505
▁shannon	-11.3505
▁caviar	-11.3505
▁exotic	-11.3505
▁grazie	-11.3505
▁retting	-11.3505
▁shackleton	-11.3505
▁measuring	-11.3505
▁mccoy	-11.3505
▁slope	-11.3505
▁gabby	-11.3506
▁ignorant	-11.3506
▁nobel	-11.3506
▁crude	-11.3506
▁demonstrate	-11.3506
▁discount	-11.3506
▁berger	-11.3506
▁diagon	-11.3506
▁intercept	-11.3506
▁fierce	-11.3506
▁runeard	-11.3506
▁spyglass	-11.3506
▁briefcase	-11.3506
▁matienne	-11.3506
▁tralalaaa	-11.3506
▁choir	-11.3506
▁tucson	-11.3506
▁forfeit	-11.3506
▁lipstick	-11.3506
▁boomsies	-11.3506
▁petrox	-11.3506
▁ruth	-11.3506
▁notify	-11.3506
▁goofy	-11.3506
▁lund	-11.3506
▁sector	-11.3506
▁floyd	-11.3506
▁granger	-11.3506
▁network	-11.3506
ncarna	-11.3506
▁brodad	-11.3506
▁defence	-11.3506
▁warrant	-11.3506
▁egyptian	-11.3506
▁uhuhuh	-11.3506
▁flawless	-11.3506
▁tempos	-11.3506
▁pedal	-11.3506
▁chestnut	-11.3506
▁indicate	-11.3506
▁civilian	-11.3506
▁climate	-11.3506
▁hahahaha	-11.3506
▁association	-11.3506
▁pinata	-11.3506
▁despi	-11.3506
▁yung	-11.3506
▁interference	-11.3506
▁zeke	-11.3506
▁cavalry	-11.3506
▁poetry	-11.3506
▁inconvenience	-11.3506
▁institution	-11.3506
▁importance	-11.3506
▁tram	-11.3506
▁eternity	-11.3506
▁pulse	-11.3506
▁des	-11.3506
▁braz	-11.3506
▁bonehead	-11.3506
▁xray	-11.3506
▁automatically	-11.3506
▁canbury	-11.3506
▁fiber	-11.3506
▁conviction	-11.3506
▁seattle	-11.3506
▁wheat	-11.3506
▁conroy	-11.3506
▁inaudible	-11.3506
▁dustpan	-11.3506
▁resignation	-11.3506
▁sleepyhead	-11.3506
▁jason	-11.3506
▁allergic	-11.3506
▁joshie	-11.3506
▁jewelry	-11.3506
▁aokay	-11.3506
▁description	-11.3506
▁slave	-11.3507
▁balm	-11.3507
▁spray	-11.3507
▁poking	-11.3507
▁tofu	-11.3507
▁communicate	-11.3507
▁structure	-11.3507
▁supreme	-11.3507
▁kari	-11.3507
▁ryder	-11.3507
▁sleeve	-11.3507
▁binder	-11.3507
▁cement	-11.3507
▁buffet	-11.3507
▁salary	-11.3507
▁suri	-11.3507
▁squat	-11.3507
▁ripping	-11.3507
▁colum	-11.3507
▁testify	-11.3507
▁profound	-11.3507
▁semi	-11.3507
▁reflexes	-11.3507
baum	-11.3507
▁lounge	-11.3507
▁firing	-11.3507
▁hiyah	-11.3507
▁election	-11.3507
▁loyalty	-11.3507
▁crackling	-11.3507
▁organisation	-11.3507
▁bryan	-11.3507
▁earring	-11.3507
▁rations	-11.3507
▁mince	-11.3508
▁mutters	-11.3508
▁blasphemy	-11.3508
▁liftoff	-11.3508
▁legendary	-11.3508
▁polar	-11.3508
▁moore	-11.3508
▁frustrated	-11.3508
▁doro	-11.3508
terior	-11.3508
▁scanner	-11.3508
▁selection	-11.3508
▁tension	-11.3508
▁anchor	-11.3508
▁panties	-11.3508
▁crop	-11.3508
▁twostroke	-11.3508
▁leadership	-11.3508
llyho	-11.3508
▁mortal	-11.3508
▁babysit	-11.3508
▁fourteen	-11.3508
▁molt	-11.3508
▁tactic	-11.3508
▁surgeon	-11.3509
▁depot	-11.3509
▁caramel	-11.3509
▁intelligent	-11.3509
▁yowch	-11.3509
▁jennifer	-11.3509
▁leaf	-11.3509
▁script	-11.3509
▁timber	-11.3509
▁occupied	-11.3509
▁hound	-11.3509
▁meaningless	-11.3509
▁attaboy	-11.3509
▁participate	-11.3509
▁stung	-11.3509
▁hence	-11.3509
▁reside	-11.3509
▁percentage	-11.3509
▁gateway	-11.3509
▁bever	-11.3509
▁bop	-11.3509
▁motto	-11.3509
▁stirred	-11.3509
▁kingston	-11.3509
▁budget	-11.3509
▁reflection	-11.3509
▁chris	-11.3509
▁chinaman	-11.351
▁brig	-11.351
▁apex	-11.351
▁measurement	-11.351
▁ashes	-11.351
▁university	-11.351
▁spain	-11.351
▁jillian	-11.351
▁woop	-11.351
▁toro	-11.351
▁reliable	-11.351
arius	-11.351
oise	-11.351
▁ensure	-11.351
▁yancy	-11.351
▁yea	-11.351
▁tripped	-11.3511
▁valor	-11.3511
▁deploy	-11.3511
▁toppling	-11.3511
▁trembling	-11.3511
▁reign	-11.3511
▁kata	-11.3511
▁gladys	-11.3511
▁cuban	-11.3511
▁timmy	-11.3511
▁dice	-11.3511
▁alongside	-11.3511
▁mercenary	-11.3511
▁injury	-11.3511
▁chunky	-11.3511
▁pew	-11.3511
▁nursery	-11.3512
▁protest	-11.3512
▁obliged	-11.3512
▁spotted	-11.3512
▁bonus	-11.3512
▁phony	-11.3512
▁jackpot	-11.3512
▁teasing	-11.3512
▁grandson	-11.3512
▁maga	-11.3512
▁inches	-11.3513
▁allen	-11.3513
▁scarce	-11.3513
▁wright	-11.3513
▁dissect	-11.3513
▁swede	-11.3513
▁icy	-11.3513
▁sincerely	-11.3514
▁headache	-11.3515
▁cutler	-11.3515
▁superb	-11.3515
▁duh	-11.3515
▁donation	-11.3515
▁priceless	-11.3515
▁compromise	-11.3516
▁deeds	-11.3516
▁takin	-11.3516
▁flop	-11.3516
▁follered	-11.3516
▁doggy	-11.3516
▁yorku	-11.3516
▁jackass	-11.3517
▁fulfill	-11.3517
▁hoist	-11.3517
▁gibber	-11.3517
▁ahhh	-11.3517
▁amongst	-11.3517
▁brute	-11.3518
▁pokee	-11.3518
▁bog	-11.3518
▁sheer	-11.3518
▁agreement	-11.3518
▁passage	-11.3518
ometer	-11.3519
▁josh	-11.3519
▁monk	-11.3519
▁skate	-11.3519
▁excellency	-11.3519
▁cannonballers	-11.3519
▁producer	-11.3519
▁maca	-11.352
▁mini	-11.352
▁snug	-11.352
▁satisfying	-11.352
▁hup	-11.352
▁perish	-11.352
▁clapping	-11.352
▁twobit	-11.3521
▁joyous	-11.3521
▁terrier	-11.3522
▁clearance	-11.3522
▁booby	-11.3522
▁pip	-11.3522
▁idiotic	-11.3522
▁swore	-11.3522
▁attached	-11.3523
▁scoot	-11.3523
rom	-11.3523
▁wonderland	-11.3524
▁requirements	-11.3524
▁mannequins	-11.3524
▁pharaohs	-11.3524
▁physics	-11.3524
▁croods	-11.3524
▁sandwiches	-11.3524
▁brooke	-11.3525
▁pawn	-11.3525
▁lust	-11.3525
▁penetrate	-11.3525
▁feat	-11.3525
roni	-11.3525
▁snores	-11.3526
▁improved	-11.3527
▁blod	-11.3528
▁controlled	-11.3528
▁redhead	-11.3528
▁zyg	-11.3528
▁wilde	-11.3529
▁devoted	-11.3529
▁clanking	-11.353
▁bleating	-11.353
▁legion	-11.353
▁pine	-11.353
▁muck	-11.353
▁cann	-11.3531
▁cosmo	-11.3532
▁eighth	-11.3532
▁claus	-11.3533
▁compare	-11.3533
▁andy	-11.3533
▁outsiders	-11.3534
▁fitting	-11.3534
▁hitch	-11.3535
▁quitting	-11.3536
▁frisk	-11.3536
▁federa	-11.3536
ck	-11.3537
▁discovery	-11.3538
▁detected	-11.3539
▁departing	-11.3539
▁flushing	-11.3539
▁spank	-11.3539
▁yale	-11.354
▁reserved	-11.354
duct	-11.354
▁tomb	-11.354
▁goodwill	-11.354
▁scow	-11.3541
▁melon	-11.3543
▁fisherm	-11.3543
▁installed	-11.3544
▁mustard	-11.3544
▁possessed	-11.3544
▁voted	-11.3544
▁fixin	-11.3544
▁oughta	-11.3544
▁peep	-11.3545
▁jackson	-11.3546
▁delivery	-11.3546
ran	-11.3546
▁spa	-11.3547
▁gorge	-11.3548
think	-11.3548
▁ignored	-11.3548
▁asses	-11.3551
▁will	-11.3552
▁intruders	-11.3556
▁roosters	-11.3556
▁exhibits	-11.3556
▁fireworks	-11.3556
▁ribs	-11.3556
▁pace	-11.3557
▁copies	-11.3559
▁blinking	-11.3559
▁betsy	-11.3559
▁ruler	-11.3559
▁exceptional	-11.356
▁leftovers	-11.3562
mock	-11.3563
was	-11.3563
▁ringo	-11.3565
▁embarrassed	-11.3565
▁matches	-11.3566
▁que	-11.357
▁hopeless	-11.3571
▁pork	-11.3572
▁flooding	-11.3577
▁rein	-11.3577
▁pouring	-11.3577
▁proposed	-11.3578
▁insulting	-11.3578
▁fer	-11.3579
▁domini	-11.358
ev	-11.3582
ub	-11.3583
▁chained	-11.3586
▁gents	-11.3587
▁explorer	-11.3588
▁wiped	-11.3588
▁lungs	-11.3589
▁expenses	-11.3589
▁sponsors	-11.3589
▁deepest	-11.3592
illes	-11.3592
▁crosses	-11.3592
▁eyeballs	-11.3592
▁borrowed	-11.3592
astic	-11.3594
▁slo	-11.3596
▁buns	-11.3596
▁leaping	-11.3596
▁cheated	-11.3603
▁regal	-11.361
▁gobble	-11.3612
▁mer	-11.3613
▁darned	-11.3613
▁recognized	-11.3615
operative	-11.3621
▁vents	-11.3622
▁sputters	-11.3622
▁noodles	-11.3623
▁rumors	-11.3623
▁claimed	-11.3627
▁yelled	-11.3644
▁freaked	-11.3644
coat	-11.3646
▁idle	-11.3649
▁creeping	-11.3655
▁mee	-11.3655
▁mudbloods	-11.3656
▁sensations	-11.3656
▁booing	-11.3659
▁spreading	-11.3664
▁remained	-11.3665
▁dreamt	-11.3668
▁meantime	-11.367
weed	-11.3672
▁speedy	-11.3676
▁painted	-11.3677
▁sticker	-11.3682
▁gale	-11.3683
▁pooping	-11.3683
▁missus	-11.3685
▁wrestler	-11.3686
ics	-11.3689
▁ninjas	-11.3689
▁crickets	-11.3689
▁lifted	-11.3691
▁anthat	-11.37
balls	-11.3701
▁wag	-11.3702
▁goo	-11.3704
sical	-11.3705
▁messy	-11.3712
▁yorks	-11.3716
▁badger	-11.3722
▁reindeers	-11.3723
▁affections	-11.3723
▁weighs	-11.3724
▁remaining	-11.3725
▁sneezes	-11.3726
▁missiles	-11.3727
cap	-11.3729
▁cans	-11.3731
▁washing	-11.3732
▁cane	-11.3736
▁import	-11.374
▁slower	-11.3744
▁ricky	-11.3749
▁thruster	-11.3751
▁praying	-11.3753
▁cocks	-11.3753
▁coins	-11.3755
▁mode	-11.3756
▁laker	-11.3756
ute	-11.3757
▁cannons	-11.3757
▁commenc	-11.3757
▁swells	-11.3758
▁logical	-11.376
▁lag	-11.3763
▁protector	-11.3763
▁comedy	-11.3769
ina	-11.3772
▁blocking	-11.3774
ory	-11.378
▁gifted	-11.3786
una	-11.3788
▁ladders	-11.3791
▁meteors	-11.3791
▁motors	-11.3791
eau	-11.3791
▁risking	-11.3794
▁reminded	-11.3795
▁pier	-11.3799
matic	-11.3805
▁i	-11.3813
▁shorty	-11.3814
tobe	-11.382
▁dashing	-11.3821
▁devices	-11.3825
▁trolls	-11.3825
br	-11.383
▁drops	-11.3831
ons	-11.3837
▁rumbles	-11.384
▁tons	-11.3853
▁traitors	-11.3859
▁blessings	-11.3859
▁arrives	-11.386
▁maniac	-11.3861
▁marys	-11.3861
▁oka	-11.3863
ru	-11.3863
▁wart	-11.3867
oline	-11.3868
andand	-11.3876
▁shells	-11.388
rietta	-11.388
▁belonged	-11.388
▁agreeing	-11.389
▁flows	-11.3893
▁mates	-11.3895
inco	-11.3895
▁marked	-11.3896
▁jets	-11.3899
lio	-11.3905
▁hen	-11.3913
▁not	-11.3924
▁desires	-11.3927
▁andrews	-11.3928
▁guineas	-11.3928
▁dolls	-11.3929
▁off	-11.393
▁wakey	-11.3931
▁cable	-11.3938
▁ob	-11.3942
▁meditat	-11.3947
skin	-11.3949
▁oot	-11.3951
iva	-11.3957
las	-11.3958
▁dancers	-11.396
uh	-11.3969
▁finishing	-11.397
▁dressing	-11.397
▁slapp	-11.3971
▁cheats	-11.3972
oons	-11.3981
ya	-11.3985
▁values	-11.3988
▁fed	-11.3995
▁bounce	-11.3995
▁ovens	-11.3996
▁bedrooms	-11.3996
▁magazines	-11.3996
▁kn	-11.3997
▁rightful	-11.4002
▁ola	-11.4008
▁guarded	-11.4016
top	-11.4018
▁retrieve	-11.4025
▁underestimate	-11.4025
▁attempts	-11.4031
▁clues	-11.4031
▁mono	-11.4042
▁danced	-11.4045
▁gra	-11.4051
▁pol	-11.4061
▁lle	-11.4069
▁isl	-11.4076
nose	-11.4078
▁reaching	-11.4081
▁jur	-11.4085
▁offering	-11.4088
▁professionals	-11.41
▁scarecrows	-11.4101
▁tanks	-11.4101
why	-11.4108
rb	-11.4108
▁farts	-11.4108
onald	-11.4112
▁sill	-11.4118
▁digest	-11.4127
▁jellie	-11.4131
▁prizes	-11.4133
▁unh	-11.4138
▁maids	-11.4139
mice	-11.4141
▁sob	-11.4141
ife	-11.4155
▁sc	-11.4165
▁wo	-11.417
▁defenses	-11.4171
▁fixing	-11.4173
▁sayin	-11.4177
▁tales	-11.4189
▁answering	-11.4201
if	-11.4228
▁hom	-11.4236
▁lordships	-11.4241
▁efforts	-11.4241
▁cowards	-11.4241
▁photos	-11.4242
▁mai	-11.4254
▁packing	-11.4254
ization	-11.4268
▁zipp	-11.4272
▁returns	-11.4286
▁bronc	-11.4287
lo	-11.4308
▁apartments	-11.4312
act	-11.4319
tale	-11.4328
▁kilo	-11.4341
ato	-11.4342
mpton	-11.4349
▁tro	-11.4359
▁cran	-11.4367
get	-11.4379
▁bastards	-11.4383
▁astronauts	-11.4383
▁favors	-11.4383
bi	-11.4386
▁scores	-11.4386
▁wh	-11.4391
che	-11.4392
oka	-11.4394
▁as	-11.4405
mbus	-11.4406
▁tor	-11.441
scar	-11.4414
▁pages	-11.4415
▁numero	-11.4422
ma	-11.4428
▁mor	-11.4429
▁chch	-11.445
sure	-11.4457
▁crowded	-11.4472
▁handy	-11.4483
val	-11.4491
▁slug	-11.4495
ning	-11.4514
bitten	-11.4516
▁swords	-11.4527
▁annu	-11.4531
▁anyones	-11.4547
▁snag	-11.4562
kline	-11.4565
shot	-11.4572
ified	-11.458
▁relocat	-11.4581
ork	-11.4587
cal	-11.4589
gue	-11.4617
uddy	-11.463
ane	-11.4632
yard	-11.4637
▁stores	-11.4642
▁scr	-11.4644
▁burns	-11.4652
ravel	-11.4655
nto	-11.4659
de	-11.4666
▁dick	-11.4695
ide	-11.4696
▁reli	-11.4697
izer	-11.4701
▁wakes	-11.4701
▁spells	-11.4707
▁kei	-11.4714
ino	-11.4732
▁gri	-11.4752
▁and	-11.4769
▁bam	-11.4786
▁ber	-11.48
ison	-11.4802
ks	-11.4812
tte	-11.4827
▁rel	-11.4828
ti	-11.4848
let	-11.4856
low	-11.4874
▁floo	-11.4893
ology	-11.4896
ept	-11.4929
▁preserve	-11.4933
nik	-11.4941
iala	-11.4955
itting	-11.4957
▁donate	-11.4962
▁sounding	-11.4964
▁wrinkle	-11.4995
▁locks	-11.5018
tti	-11.5027
stop	-11.5042
▁fives	-11.5067
▁rem	-11.5098
calla	-11.5101
ddy	-11.5112
tto	-11.5119
ask	-11.5123
sman	-11.5141
ite	-11.515
▁anin	-11.516
snt	-11.5173
rah	-11.5182
ye	-11.5188
rin	-11.5249
ain	-11.5261
▁il	-11.5263
▁dine	-11.5266
▁excel	-11.5279
oid	-11.5281
nal	-11.5297
▁charlies	-11.5312
▁qua	-11.5319
eggie	-11.5346
▁meg	-11.5379
▁pals	-11.538
▁vers	-11.5413
ou	-11.5429
via	-11.5439
▁dem	-11.544
tch	-11.5461
▁riches	-11.5461
▁tres	-11.5462
ug	-11.5487
mai	-11.5492
▁sch	-11.5501
▁sho	-11.5515
▁hairs	-11.5527
oni	-11.553
rie	-11.5533
un	-11.5533
uke	-11.5545
▁ju	-11.5571
ani	-11.5575
udding	-11.5597
hold	-11.5601
▁bu	-11.5606
loss	-11.5609
▁virgin	-11.5615
▁handles	-11.5622
▁adi	-11.5627
race	-11.5635
▁offers	-11.5641
ngled	-11.5642
▁dar	-11.5646
▁cod	-11.5668
iana	-11.567
▁thi	-11.5688
about	-11.5689
▁betroth	-11.5695
game	-11.5706
▁medic	-11.572
▁pla	-11.5724
fa	-11.5726
▁fri	-11.5742
▁johnnys	-11.5742
▁kra	-11.5743
▁sac	-11.5744
▁wishing	-11.575
uit	-11.5752
▁olive	-11.5754
▁encourag	-11.5754
▁ninety	-11.5761
▁ai	-11.5765
ounding	-11.5765
▁audi	-11.5777
▁honk	-11.5794
▁repair	-11.5796
▁is	-11.5797
▁joyful	-11.5797
▁prospect	-11.58
▁stud	-11.5807
▁sto	-11.581
▁creak	-11.5813
▁squawk	-11.5825
bird	-11.5826
▁emerge	-11.5826
▁grub	-11.5826
▁shriek	-11.5829
▁ladybug	-11.583
▁clerk	-11.583
▁executive	-11.583
▁outcast	-11.583
▁exclaim	-11.5831
▁nerd	-11.5831
▁sailboat	-11.5831
▁forehead	-11.5831
▁honeys	-11.5831
▁generation	-11.5845
▁handcuff	-11.5846
▁argument	-11.5846
▁patterson	-11.5846
▁vampire	-11.5846
▁benefit	-11.5846
▁ribbon	-11.5846
▁blister	-11.5846
▁cuddle	-11.5847
▁appetite	-11.5848
▁asshole	-11.5848
▁adjustment	-11.5848
curr	-11.5849
▁backpack	-11.585
▁method	-11.5852
▁teenager	-11.5853
▁specialist	-11.5855
▁towel	-11.5855
▁marble	-11.5855
▁intention	-11.5856
▁noodle	-11.5857
▁sputter	-11.5858
▁daydream	-11.5858
▁spice	-11.5861
▁rumor	-11.5861
▁crocodile	-11.5862
▁snarl	-11.5862
▁brownie	-11.5862
▁affair	-11.5866
▁spider	-11.5866
▁nigger	-11.5866
▁whine	-11.5868
▁goblin	-11.5868
▁scoff	-11.5871
▁sock	-11.5873
▁bullfight	-11.5879
▁founder	-11.5886
▁boiler	-11.5886
▁swingin	-11.589
erry	-11.5894
▁gall	-11.5899
▁howl	-11.5904
bag	-11.5907
▁gene	-11.5915
▁my	-11.5915
ulu	-11.5916
om	-11.5917
▁cru	-11.5924
▁superpower	-11.5926
▁atta	-11.5927
tit	-11.593
amas	-11.593
▁disappoint	-11.5931
▁stu	-11.5934
gum	-11.5936
train	-11.5942
▁adopt	-11.5952
▁drawer	-11.5952
▁audition	-11.5955
pu	-11.5957
stage	-11.5959
▁just	-11.5959
▁flush	-11.5959
▁disrupt	-11.5959
▁continu	-11.596
▁echo	-11.5961
▁screech	-11.5961
▁kazoo	-11.5961
▁tingl	-11.5961
▁depart	-11.5963
▁cluck	-11.5965
cation	-11.5966
references	-11.5966
▁helga	-11.5969
ades	-11.5971
▁disobey	-11.5972
boy	-11.5973
▁resign	-11.5974
▁piss	-11.5974
▁sorcer	-11.5975
▁detect	-11.5975
worth	-11.5976
changes	-11.5978
▁greet	-11.5978
keeper	-11.5979
limited	-11.598
▁adventur	-11.598
fleet	-11.598
▁hoohoo	-11.598
cooked	-11.5981
magnetic	-11.5981
smith	-11.5981
john	-11.5981
case	-11.5981
tree	-11.5982
jump	-11.5982
crowd	-11.5982
charge	-11.5982
would	-11.5982
wide	-11.5982
water	-11.5983
yeah	-11.5984
▁shack	-11.5985
▁tou	-11.5985
▁inspire	-11.5986
handed	-11.5986
stein	-11.5986
▁biome	-11.5986
▁initiate	-11.5986
mom	-11.5987
▁resolve	-11.5987
▁scen	-11.5987
▁improve	-11.5988
▁unofficial	-11.5988
▁dislike	-11.5988
▁thirst	-11.5989
▁fluff	-11.599
▁vague	-11.599
▁fenc	-11.5991
▁eliminate	-11.5992
▁execution	-11.5994
▁whit	-11.5994
▁ske	-11.5995
▁intensi	-11.5995
band	-11.5995
▁nono	-11.5996
uckle	-11.5996
▁bel	-11.5996
tech	-11.5997
▁beck	-11.5997
▁morris	-11.5998
▁scot	-11.5999
▁glen	-11.5999
shirts	-11.6
rent	-11.6001
▁yuk	-11.6002
▁prettie	-11.6002
▁consult	-11.6002
▁russia	-11.6003
▁crust	-11.6003
▁react	-11.6003
▁violat	-11.6003
▁mongo	-11.6003
leine	-11.6004
▁plato	-11.6004
▁budge	-11.6004
▁henri	-11.6004
▁peach	-11.6004
▁outrage	-11.6005
mund	-11.6005
ypants	-11.6005
▁egypt	-11.6005
▁actua	-11.6005
▁neglect	-11.6005
▁sponge	-11.6005
greatgrandmother	-11.6005
humiliation	-11.6005
skirts	-11.6005
▁abilities	-11.6005
▁anonymous	-11.6005
▁antelope	-11.6005
▁arizona	-11.6005
▁arturo	-11.6005
▁attentive	-11.6005
▁beauregarde	-11.6005
▁beehive	-11.6005
▁bludger	-11.6005
▁blynken	-11.6005
▁boeuf	-11.6005
▁bourbon	-11.6005
▁bribe	-11.6005
▁broccoli	-11.6005
▁caesar	-11.6005
▁calendar	-11.6005
▁candid	-11.6005
▁catarina	-11.6005
▁cauldron	-11.6005
▁cereal	-11.6005
▁cinema	-11.6005
▁clevedon	-11.6005
▁compound	-11.6005
▁concrete	-11.6005
▁conspiring	-11.6005
▁corridor	-11.6005
▁cougar	-11.6005
▁deceiving	-11.6005
▁december	-11.6005
▁dedication	-11.6005
▁delaford	-11.6005
▁dialogue	-11.6005
▁diddlyey	-11.6005
▁district	-11.6005
▁earhart	-11.6005
▁eccentric	-11.6005
▁economy	-11.6005
▁efficiency	-11.6005
▁eleanor	-11.6005
▁empti	-11.6005
▁evolution	-11.6005
▁examination	-11.6005
▁exhaling	-11.6005
▁exhausting	-11.6005
▁fannie	-11.6005
▁filch	-11.6005
▁filter	-11.6005
▁financial	-11.6005
▁fingernails	-11.6005
▁fitzherbert	-11.6005
▁fjord	-11.6005
▁flirtatious	-11.6005
▁galahad	-11.6005
▁gertrude	-11.6005
▁glumdalclitch	-11.6005
▁gretel	-11.6005
▁griffiin	-11.6005
▁hairspray	-11.6005
▁halfhour	-11.6005
▁hampstead	-11.6005
▁harvest	-11.6005
▁heavier	-11.6005
▁hesitating	-11.6005
▁hexham	-11.6005
▁hysteria	-11.6005
▁imminent	-11.6005
▁impertinen	-11.6005
▁inferior	-11.6005
▁injustice	-11.6005
▁innocence	-11.6005
▁insignificant	-11.6005
▁intellect	-11.6005
▁invaded	-11.6005
▁invading	-11.6005
▁jamaica	-11.6005
▁jimmyjacked	-11.6005
▁jonathan	-11.6005
▁jupiter	-11.6005
▁karlmarxstadt	-11.6005
▁kettle	-11.6005
▁krishna	-11.6005
▁kupkakeinator	-11.6005
▁lamborghini	-11.6005
▁laurie	-11.6005
▁lavaughn	-11.6005
▁length	-11.6005
▁letterblair	-11.6005
▁livres	-11.6005
▁lntyre	-11.6005
▁luxury	-11.6005
▁majestic	-11.6005
▁mammoth	-11.6005
▁manipulat	-11.6005
▁marseilles	-11.6005
▁marvellous	-11.6005
▁memorial	-11.6005
▁menatarms	-11.6005
▁methane	-11.6005
▁ministry	-11.6005
▁mitts	-11.6005
▁mosquito	-11.6005
▁outrun	-11.6005
▁overreacting	-11.6005
▁persnikitty	-11.6005
▁phantom	-11.6005
▁pianoforte	-11.6005
▁pollito	-11.6005
▁poodleton	-11.6005
▁possibilities	-11.6005
▁prague	-11.6005
▁precaution	-11.6005
▁prescott	-11.6005
▁quidditch	-11.6005
▁ravage	-11.6005
▁receiving	-11.6005
▁recruit	-11.6005
▁recycled	-11.6005
▁redemption	-11.6005
▁repent	-11.6005
▁roulette	-11.6005
▁salvage	-11.6005
▁salvation	-11.6005
▁sayonara	-11.6005
▁scoundrel	-11.6005
▁september	-11.6005
▁sermon	-11.6005
▁sharkticons	-11.6005
▁shoving	-11.6005
▁significant	-11.6005
▁sleeppile	-11.6005
▁smythe	-11.6005
▁sngsng	-11.6005
▁solemn	-11.6005
▁sophie	-11.6005
▁sophisticated	-11.6005
▁spontaneous	-11.6005
▁stallyns	-11.6005
▁succotash	-11.6005
▁sugarlips	-11.6005
▁superstition	-11.6005
▁synchroniz	-11.6005
▁therapy	-11.6005
▁thorough	-11.6005
▁throttle	-11.6005
▁trophies	-11.6005
▁turf	-11.6005
▁turkish	-11.6005
▁tweedledee	-11.6005
▁tweedledum	-11.6005
▁undercover	-11.6005
▁ungrateful	-11.6005
▁unpredictable	-11.6005
▁villapianos	-11.6005
▁virtual	-11.6005
▁weselton	-11.6005
▁windshield	-11.6005
▁wynken	-11.6005
▁afghanistan	-11.6005
▁baboon	-11.6005
▁blitz	-11.6005
▁bosom	-11.6005
▁calculations	-11.6005
▁cheeseburger	-11.6005
▁draco	-11.6005
▁duplicate	-11.6005
▁friction	-11.6005
▁grouse	-11.6005
▁grove	-11.6005
▁hallucinat	-11.6005
▁immortal	-11.6005
▁lease	-11.6005
▁missouri	-11.6005
▁noisy	-11.6005
▁plymouth	-11.6005
▁politicians	-11.6005
▁rifle	-11.6005
▁sascha	-11.6005
▁saunders	-11.6005
▁senna	-11.6005
▁shatters	-11.6005
▁smooch	-11.6005
▁spooks	-11.6005
▁swoop	-11.6005
▁tampa	-11.6005
▁testimon	-11.6005
▁vandoy	-11.6005
▁angrily	-11.6005
▁doris	-11.6005
▁generosity	-11.6005
▁harsh	-11.6005
▁introduction	-11.6005
▁manilow	-11.6005
▁nevertheless	-11.6005
▁shaggy	-11.6005
▁catalog	-11.6005
▁kilbourne	-11.6005
▁nansen	-11.6005
▁resort	-11.6005
▁whirl	-11.6005
▁correspondence	-11.6005
▁obrien	-11.6005
▁triangle	-11.6005
▁venom	-11.6005
▁abroad	-11.6005
▁cedar	-11.6005
▁hurray	-11.6005
▁neighbourhood	-11.6005
▁norrin	-11.6005
▁smog	-11.6005
▁aroma	-11.6005
▁buttocks	-11.6005
▁hollow	-11.6005
▁promising	-11.6005
▁pussfeller	-11.6005
▁ryan	-11.6005
▁thieves	-11.6005
▁wilcox	-11.6005
▁broadcast	-11.6005
▁stimulat	-11.6005
▁flunk	-11.6005
▁hohoho	-11.6005
▁monsoon	-11.6005
▁pilgrimtown	-11.6005
▁foxington	-11.6005
▁memorize	-11.6005
▁sketch	-11.6005
▁hisself	-11.6006
▁houseelf	-11.6006
▁ignorance	-11.6006
▁peckerwood	-11.6006
▁decree	-11.6006
▁hisses	-11.6006
▁alicia	-11.6006
▁dispatch	-11.6006
▁exalt	-11.6006
▁lottery	-11.6006
▁evaporati	-11.6006
▁scheme	-11.6006
▁crumbling	-11.6006
▁grumbling	-11.6006
▁quinn	-11.6006
▁scalp	-11.6006
▁halves	-11.6006
▁pantoni	-11.6006
▁democrat	-11.6006
▁lapati	-11.6006
▁churn	-11.6006
▁girdle	-11.6006
▁hobbies	-11.6006
▁matonne	-11.6006
▁verified	-11.6006
▁cardiologist	-11.6006
▁mutual	-11.6006
▁swirl	-11.6006
▁absence	-11.6006
▁cul	-11.6006
▁racket	-11.6006
▁hohohoho	-11.6006
▁pleasing	-11.6006
▁scorch	-11.6006
▁skirt	-11.6006
▁bleak	-11.6006
▁flexible	-11.6006
▁canker	-11.6006
▁frivida	-11.6006
▁milord	-11.6006
▁persian	-11.6006
▁aqua	-11.6006
▁undertake	-11.6006
▁seventyfive	-11.6006
▁sideways	-11.6006
▁token	-11.6006
▁beacon	-11.6006
▁dannyboy	-11.6006
▁irma	-11.6006
▁onward	-11.6006
▁toddler	-11.6006
▁vicki	-11.6006
▁cogs	-11.6006
▁semental	-11.6006
▁gypsies	-11.6006
▁nogood	-11.6006
▁disarmament	-11.6006
▁landlord	-11.6006
▁tread	-11.6006
▁mongoose	-11.6006
▁norland	-11.6006
▁sunglasses	-11.6006
▁tenspeed	-11.6006
▁curb	-11.6006
▁optimist	-11.6006
▁barbarian	-11.6006
▁necklace	-11.6006
▁patent	-11.6006
▁appliance	-11.6006
▁propaga	-11.6006
▁massacre	-11.6006
▁popsicle	-11.6006
▁sidney	-11.6006
measur	-11.6006
▁heap	-11.6006
▁novel	-11.6006
▁holland	-11.6006
▁shelves	-11.6006
▁valise	-11.6006
▁representative	-11.6006
▁achievement	-11.6006
▁plumber	-11.6006
▁tracts	-11.6006
▁raven	-11.6006
▁womb	-11.6006
▁enthusiasm	-11.6006
▁invader	-11.6006
kind	-11.6006
▁basin	-11.6006
▁japan	-11.6006
▁duran	-11.6006
▁observation	-11.6006
▁impound	-11.6006
▁makin	-11.6006
▁racecar	-11.6006
▁rapid	-11.6006
▁savior	-11.6006
▁scotland	-11.6006
▁trotting	-11.6006
▁humour	-11.6006
▁scum	-11.6006
▁choking	-11.6006
▁altitude	-11.6006
▁dirtbag	-11.6006
▁cardinal	-11.6006
▁rhe	-11.6006
▁waterloo	-11.6006
▁enforcement	-11.6006
▁huph	-11.6006
▁grise	-11.6006
▁petition	-11.6006
▁marvel	-11.6006
▁breach	-11.6006
▁rowboat	-11.6006
▁brood	-11.6007
▁pascal	-11.6007
▁retain	-11.6007
▁oilcan	-11.6007
▁moonlight	-11.6007
▁foca	-11.6007
▁terminal	-11.6007
▁follerin	-11.6007
▁headmaster	-11.6007
▁spooky	-11.6007
ario	-11.6007
▁priority	-11.6007
▁blois	-11.6007
▁portside	-11.6007
▁flipped	-11.6007
▁retro	-11.6007
▁underway	-11.6007
▁arcee	-11.6007
▁bullied	-11.6007
▁cried	-11.6007
▁stalk	-11.6007
▁rogue	-11.6007
▁media	-11.6007
▁connection	-11.6007
▁roland	-11.6007
▁thaw	-11.6007
▁masquerade	-11.6007
▁shelf	-11.6007
▁peasant	-11.6007
▁serene	-11.6007
▁upgrade	-11.6007
▁tits	-11.6007
▁beginner	-11.6007
▁gulli	-11.6007
▁hibernation	-11.6007
▁gutter	-11.6007
▁crazier	-11.6007
▁klane	-11.6007
▁platter	-11.6007
▁godspeed	-11.6007
▁upsies	-11.6007
▁maximum	-11.6007
▁drumming	-11.6007
▁jdog	-11.6007
▁sunlight	-11.6007
▁teapot	-11.6007
▁aaaaa	-11.6008
▁central	-11.6008
▁flock	-11.6008
▁diana	-11.6008
▁yoga	-11.6008
▁equality	-11.6008
▁jehu	-11.6008
▁finch	-11.6008
▁chalo	-11.6008
▁draft	-11.6008
▁sixteen	-11.6008
▁upside	-11.6008
▁approximately	-11.6008
▁footwork	-11.6008
▁crock	-11.6008
▁rival	-11.6008
▁overnight	-11.6008
▁crucial	-11.6008
▁broom	-11.6008
▁clance	-11.6008
▁afoot	-11.6008
▁bogus	-11.6008
▁gloomy	-11.6008
▁trustworthy	-11.6008
▁liking	-11.6008
▁slippery	-11.6008
▁wacko	-11.6008
▁membership	-11.6008
▁admiral	-11.6008
▁carrier	-11.6008
▁published	-11.6008
▁chapter	-11.6008
▁rustic	-11.6009
▁restraint	-11.6009
▁ballroom	-11.6009
▁bzz	-11.6009
▁independent	-11.6009
▁beau	-11.6009
▁pul	-11.6009
▁exposed	-11.6009
▁defection	-11.6009
▁ridge	-11.6009
▁jewish	-11.6009
▁embarrassment	-11.6009
▁trenches	-11.6009
▁primate	-11.6009
▁notion	-11.6009
▁gravity	-11.6009
▁anita	-11.6009
▁barn	-11.6009
▁temptation	-11.6009
▁albert	-11.6009
icons	-11.6009
▁battlefield	-11.601
▁jalape	-11.601
▁rake	-11.601
▁slaughter	-11.601
▁adequate	-11.601
▁capacity	-11.601
▁columnist	-11.601
▁inspiring	-11.601
▁loaf	-11.601
▁possibility	-11.601
▁sufficient	-11.601
▁buen	-11.601
▁doughnut	-11.601
▁cellar	-11.601
▁hobo	-11.601
▁tourist	-11.601
▁accurate	-11.601
▁sammy	-11.601
▁bre	-11.601
▁survivor	-11.601
▁ridley	-11.601
▁barge	-11.601
▁rhino	-11.601
▁sweatshirt	-11.601
▁beak	-11.601
▁dingle	-11.601
▁atlantic	-11.601
▁screeches	-11.601
▁paco	-11.6011
▁converters	-11.6011
▁fender	-11.6011
▁arab	-11.6011
▁disco	-11.6011
ection	-11.6011
▁religion	-11.6011
▁paso	-11.6011
▁attraction	-11.6011
▁perch	-11.6011
▁dreaded	-11.6011
▁homie	-11.6011
▁soar	-11.6011
▁peril	-11.6011
▁admitted	-11.6011
▁sittin	-11.6011
▁beatles	-11.6011
▁sausage	-11.6011
▁kent	-11.6011
▁pronounce	-11.6011
▁zap	-11.6011
▁moonli	-11.6011
▁anso	-11.6011
▁mutt	-11.6011
▁investigating	-11.6012
rational	-11.6012
▁neera	-11.6012
▁fox	-11.6012
▁rome	-11.6012
▁arf	-11.6012
▁bagley	-11.6012
▁til	-11.6012
▁overwhelming	-11.6012
▁bodies	-11.6013
▁mack	-11.6013
▁poisonous	-11.6013
▁chinon	-11.6013
ofthe	-11.6013
▁damp	-11.6013
▁merciful	-11.6013
▁pact	-11.6013
▁coke	-11.6013
▁regiment	-11.6013
▁singsongy	-11.6013
▁slimy	-11.6013
iar	-11.6013
▁prior	-11.6013
▁midst	-11.6013
▁plotting	-11.6013
▁ivy	-11.6013
▁achieved	-11.6014
▁crossfield	-11.6014
▁neat	-11.6014
▁stool	-11.6014
▁disc	-11.6014
▁baking	-11.6014
▁committing	-11.6014
▁superheroes	-11.6015
▁sufferin	-11.6015
▁courageous	-11.6015
▁windsor	-11.6015
▁strik	-11.6015
▁bandage	-11.6015
▁rump	-11.6015
▁frown	-11.6016
▁sparkle	-11.6016
▁siler	-11.6016
▁exu	-11.6017
▁moss	-11.6017
▁drift	-11.6017
▁losin	-11.6017
▁blurr	-11.6017
▁keen	-11.6017
▁farther	-11.6017
▁scotch	-11.6018
gage	-11.6018
▁partial	-11.6018
▁gunter	-11.6018
▁breakdown	-11.6019
▁volu	-11.6019
▁squirt	-11.6019
▁aero	-11.6019
▁toll	-11.6019
▁tug	-11.6019
▁aww	-11.6019
▁spitting	-11.6019
▁obsessed	-11.6019
▁jimp	-11.6019
▁driveway	-11.6019
▁controlling	-11.602
▁coup	-11.602
▁molecul	-11.602
▁improvis	-11.602
▁laura	-11.6021
▁mouthful	-11.6021
▁chopped	-11.6021
▁sass	-11.6021
▁managing	-11.6021
▁hospitality	-11.6021
▁bulldog	-11.6021
▁dental	-11.6021
▁response	-11.6022
▁taxes	-11.6022
▁zum	-11.6022
▁boxer	-11.6022
▁assembled	-11.6022
▁excellenc	-11.6022
▁racy	-11.6023
▁everyday	-11.6023
allel	-11.6023
▁homeroom	-11.6023
rim	-11.6024
▁forb	-11.6024
▁referring	-11.6024
▁curve	-11.6024
▁initiated	-11.6024
▁honky	-11.6025
▁chin	-11.6025
▁combine	-11.6025
▁hami	-11.6025
▁intr	-11.6025
▁acceptable	-11.6026
▁sync	-11.6026
▁immature	-11.6026
▁sleepover	-11.6026
narr	-11.6026
▁alteration	-11.6026
▁gwen	-11.6026
▁plead	-11.6027
▁vain	-11.6027
▁hiya	-11.6027
▁curl	-11.6028
▁vend	-11.6028
▁define	-11.6028
▁burglary	-11.6028
▁troy	-11.6028
▁established	-11.6028
▁redeemed	-11.6028
▁crunchy	-11.6028
▁gil	-11.6029
▁rice	-11.6029
▁iceland	-11.6029
▁snapping	-11.6029
▁laptop	-11.6029
▁experimental	-11.603
▁diving	-11.603
▁donuts	-11.603
▁cepes	-11.603
▁elbows	-11.603
▁sardines	-11.603
▁trousers	-11.603
▁tattoos	-11.603
▁hideout	-11.6031
▁shades	-11.6031
con	-11.6032
▁lovebirds	-11.6032
eewee	-11.6032
▁probe	-11.6032
▁proving	-11.6033
▁alas	-11.6033
▁pent	-11.6033
▁faraway	-11.6034
▁taco	-11.6034
▁heartbeat	-11.6034
▁swatt	-11.6034
▁teeny	-11.6034
▁whiskers	-11.6034
▁stump	-11.6034
▁inject	-11.6035
▁instantly	-11.6035
▁mockingly	-11.6035
▁colossal	-11.6035
▁environmental	-11.6035
▁biggie	-11.6037
▁shuddering	-11.6037
▁luke	-11.6037
▁surrounding	-11.6037
▁entertaining	-11.6037
▁tempting	-11.6038
▁hookers	-11.6038
naiss	-11.604
▁harri	-11.6041
▁operational	-11.6041
▁spite	-11.6042
▁showoff	-11.6043
▁drawn	-11.6043
▁protective	-11.6043
nothing	-11.6044
▁dreadfully	-11.6044
▁cord	-11.6045
orama	-11.6046
▁goldman	-11.6047
▁disgusted	-11.6047
▁cryin	-11.6047
▁axe	-11.6048
▁rever	-11.6048
▁jay	-11.6049
▁brady	-11.605
▁disappointing	-11.605
▁sweaty	-11.605
▁tube	-11.6051
▁ken	-11.6051
▁plank	-11.6052
▁runway	-11.6052
▁madman	-11.6053
▁shipment	-11.6053
▁dined	-11.6054
▁bestow	-11.6054
omic	-11.6055
sits	-11.6055
▁annoyed	-11.6056
▁wither	-11.6056
▁your	-11.6056
▁mancha	-11.6056
▁disguised	-11.6057
mobile	-11.6057
▁delay	-11.6058
▁skid	-11.6058
play	-11.6061
▁commencing	-11.6061
▁seam	-11.6062
stabbing	-11.6062
bre	-11.6063
▁guaranteed	-11.6063
▁shaken	-11.6065
▁ahha	-11.6066
▁hel	-11.6069
▁marthai	-11.6069
▁dusk	-11.607
▁maximu	-11.607
▁firmly	-11.6071
▁fled	-11.6071
▁spuddies	-11.6072
▁tweets	-11.6072
▁muggles	-11.6072
▁friggin	-11.6074
▁declared	-11.6076
▁lent	-11.6077
ples	-11.6077
▁melted	-11.6078
▁poly	-11.6079
roy	-11.6081
▁vent	-11.6081
▁pearls	-11.6082
▁blaster	-11.6083
front	-11.6083
▁chau	-11.6084
▁taser	-11.6088
▁unloaded	-11.6093
▁gook	-11.6093
dest	-11.6102
▁dinners	-11.6104
uda	-11.6106
▁regularly	-11.6107
▁manda	-11.6107
birds	-11.6109
▁herring	-11.6113
▁vikings	-11.6116
▁reveals	-11.6116
▁rewind	-11.6116
your	-11.6117
oooooo	-11.6117
▁pumps	-11.6117
▁refugees	-11.6118
▁louisa	-11.6119
▁moans	-11.6119
▁involves	-11.612
▁grr	-11.612
▁statue	-11.6121
he	-11.6124
▁obeying	-11.6125
▁stam	-11.6126
piece	-11.6126
▁lush	-11.6126
▁pains	-11.6127
▁assured	-11.6128
▁vows	-11.6131
▁wi	-11.6131
▁whales	-11.6133
▁sleepin	-11.6136
▁impersonat	-11.6136
▁developing	-11.6138
▁aiming	-11.6138
▁aaarg	-11.6138
▁witnessed	-11.6139
▁transferr	-11.6139
▁scratched	-11.6139
▁fury	-11.6141
▁nighttime	-11.6141
▁spinn	-11.6142
▁they	-11.6146
▁smokey	-11.6147
▁greatly	-11.6147
▁performing	-11.6151
rummy	-11.6153
▁tripe	-11.6154
▁glove	-11.6158
▁superpowers	-11.6159
▁maman	-11.6159
▁marbles	-11.616
▁teenagers	-11.616
▁methods	-11.616
▁towels	-11.616
▁creaks	-11.616
▁prospects	-11.6161
▁honks	-11.6161
▁shocking	-11.6164
▁reel	-11.6165
▁defy	-11.6166
▁thankyou	-11.6169
▁fleas	-11.6174
ir	-11.6175
▁healed	-11.6176
▁canceled	-11.6176
▁difficulty	-11.6177
▁dumber	-11.6178
ility	-11.618
▁tome	-11.6183
▁continued	-11.6184
▁designer	-11.6184
▁pickle	-11.6188
▁responding	-11.6189
▁rushing	-11.6203
▁included	-11.6203
▁boxers	-11.6203
▁sledges	-11.6204
▁sheets	-11.6204
▁opponents	-11.6204
▁bolts	-11.6205
▁scraps	-11.621
nned	-11.6213
▁crashed	-11.6214
▁fres	-11.6215
▁robes	-11.6217
▁cracked	-11.6225
▁disappearing	-11.6228
▁mating	-11.6229
▁failing	-11.6231
▁prayed	-11.6243
▁darr	-11.6246
▁pranks	-11.6249
▁scullys	-11.6249
▁civiliz	-11.6249
▁dooms	-11.6249
▁landmarks	-11.625
ington	-11.6251
od	-11.6254
▁rented	-11.6262
▁straps	-11.6263
▁smiled	-11.6266
▁weed	-11.6266
▁bol	-11.6269
▁corrected	-11.627
▁sucking	-11.6271
▁dee	-11.6273
▁packs	-11.6291
▁chums	-11.6291
▁cartoons	-11.6294
▁grubers	-11.6296
▁scam	-11.6298
▁playoff	-11.63
▁fee	-11.6315
▁spec	-11.6316
▁likelike	-11.6321
▁porter	-11.6322
▁identi	-11.6323
▁tricked	-11.6323
ekka	-11.6326
▁affects	-11.6329
▁mil	-11.6331
bon	-11.6331
▁wildly	-11.6336
mite	-11.6336
▁heists	-11.6338
▁limbs	-11.6338
▁principles	-11.6338
▁tracked	-11.6339
▁ranks	-11.634
▁occasional	-11.6342
lines	-11.6347
▁deer	-11.6347
▁lak	-11.6348
▁proudly	-11.635
▁chant	-11.6351
▁corps	-11.636
▁counts	-11.6362
▁sor	-11.6372
▁rott	-11.6373
▁sadly	-11.6374
▁smashed	-11.6375
▁pins	-11.6382
▁pap	-11.6383
▁comments	-11.6383
▁stables	-11.6384
▁remarks	-11.6384
gate	-11.6385
▁puller	-11.6385
▁sweats	-11.6388
▁laps	-11.6389
elle	-11.6394
▁suggesting	-11.6398
lings	-11.6403
▁tops	-11.6404
▁shorts	-11.6407
hoohoohoo	-11.6409
▁incidental	-11.6415
▁nations	-11.6415
urance	-11.6424
▁chicks	-11.6426
▁mah	-11.6426
▁explosives	-11.6429
▁leaks	-11.643
▁images	-11.6431
▁nets	-11.6432
tolerable	-11.6433
list	-11.6447
▁renter	-11.6456
▁canad	-11.6466
▁doubted	-11.6467
▁volunteers	-11.6474
▁abs	-11.6475
▁explodes	-11.6475
▁jams	-11.6478
▁conn	-11.6488
▁respected	-11.6502
▁launching	-11.6515
▁smacks	-11.6519
▁costumes	-11.652
▁savages	-11.652
▁warriors	-11.652
▁prima	-11.6523
▁magna	-11.6524
say	-11.6544
▁lasted	-11.6553
io	-11.6557
▁locking	-11.6564
▁leagues	-11.6566
▁instruments	-11.6566
▁visas	-11.6566
▁awards	-11.6568
▁singers	-11.657
▁raci	-11.6573
nic	-11.6579
▁punching	-11.6582
eager	-11.6584
▁her	-11.6593
▁span	-11.6598
▁indians	-11.6604
▁sued	-11.6607
▁experiments	-11.6612
horn	-11.6613
▁measures	-11.6613
nd	-11.6613
▁flavors	-11.6614
▁suffers	-11.6616
▁mega	-11.6628
▁princes	-11.6641
▁listed	-11.6642
▁importantly	-11.6642
▁praises	-11.6657
▁oranges	-11.6658
▁subjects	-11.6658
▁organize	-11.6673
▁lightly	-11.6676
▁protected	-11.6692
uatro	-11.6693
ak	-11.6693
▁newspapers	-11.6704
▁riddles	-11.6704
hu	-11.6722
▁laying	-11.6727
▁domes	-11.6735
▁pudd	-11.6746
▁sharks	-11.6751
▁pizzas	-11.6751
▁vow	-11.6754
▁liquid	-11.6776
▁caper	-11.6776
▁models	-11.6778
▁on	-11.6782
▁seller	-11.6782
▁serpent	-11.6792
rid	-11.6796
▁flames	-11.6798
▁strings	-11.6803
▁fails	-11.6804
▁explaining	-11.6807
▁gre	-11.6808
rue	-11.6816
pers	-11.6825
verse	-11.6841
tack	-11.6843
▁ministers	-11.6845
▁oceans	-11.6845
▁untie	-11.6846
eens	-11.6847
▁cubs	-11.6852
▁ports	-11.6857
▁universes	-11.6858
▁raining	-11.6864
nut	-11.6865
▁covering	-11.6869
▁cooper	-11.6874
▁mouthing	-11.6876
ado	-11.6879
▁troubled	-11.689
gene	-11.6891
▁dreamy	-11.6891
▁demands	-11.6892
▁pur	-11.6893
▁mut	-11.6906
▁revis	-11.6909
▁combinations	-11.6939
hopped	-11.6953
wn	-11.6979
lez	-11.6981
gent	-11.6984
▁intends	-11.699
achi	-11.699
▁simp	-11.6997
ko	-11.7001
▁presenting	-11.7002
▁fighters	-11.7008
▁beautifully	-11.702
▁kittens	-11.7035
▁yee	-11.7039
▁ter	-11.704
▁stuffy	-11.7046
▁sorting	-11.7076
tak	-11.7089
bit	-11.7098
kins	-11.7101
shit	-11.7118
▁rocking	-11.7122
▁pas	-11.7125
▁din	-11.7141
▁radi	-11.7144
yth	-11.7149
▁finder	-11.7156
▁patients	-11.7161
▁holder	-11.7163
ettes	-11.7169
▁accessor	-11.7171
▁bun	-11.7173
▁rogers	-11.718
state	-11.7193
▁ana	-11.7196
▁determin	-11.7213
rock	-11.7223
icious	-11.7225
▁seasons	-11.7228
▁belts	-11.7228
uv	-11.7232
▁freelance	-11.7233
▁ev	-11.7236
▁wes	-11.7247
▁stages	-11.7272
▁levels	-11.7276
▁bothers	-11.7286
negotiate	-11.7296
ack	-11.7298
ste	-11.7301
cy	-11.7307
▁zoom	-11.7308
▁om	-11.7308
des	-11.732
▁angelines	-11.7328
els	-11.7331
room	-11.7335
og	-11.7335
bat	-11.734
▁reporters	-11.7342
▁rested	-11.7342
▁players	-11.7343
poli	-11.7347
mine	-11.7353
▁bou	-11.7354
karo	-11.7357
eek	-11.7364
ue	-11.7372
▁mano	-11.7373
ims	-11.7373
▁alarms	-11.7381
▁jumper	-11.7386
ins	-11.7393
▁meter	-11.7404
▁pies	-11.7405
▁hips	-11.741
▁cups	-11.7422
nts	-11.7426
▁draws	-11.7433
mon	-11.7457
bul	-11.746
▁indi	-11.7461
tin	-11.747
nox	-11.7485
rator	-11.7487
zy	-11.7501
▁questioning	-11.7513
rge	-11.7515
▁coaching	-11.7516
ntz	-11.7537
▁pic	-11.7541
umble	-11.7557
▁courts	-11.7572
raving	-11.7575
tor	-11.7592
inister	-11.7614
▁sca	-11.7622
▁differences	-11.7624
▁paths	-11.7629
▁contacts	-11.7629
▁crowns	-11.7633
▁cooks	-11.764
▁substan	-11.7644
star	-11.7646
▁med	-11.7684
▁crows	-11.7689
▁mol	-11.7695
that	-11.7701
ister	-11.7702
ert	-11.7703
deli	-11.7749
▁cav	-11.7756
▁vu	-11.7782
shaped	-11.78
▁lat	-11.7806
▁rac	-11.781
▁su	-11.7811
ator	-11.7836
▁halls	-11.7837
▁stor	-11.7842
▁russ	-11.7846
ahs	-11.7846
▁owing	-11.7864
▁bor	-11.7869
ene	-11.7879
▁sakes	-11.788
▁mikes	-11.7883
infested	-11.789
▁colors	-11.7896
inal	-11.7897
ws	-11.7898
▁contra	-11.7906
ail	-11.7911
abe	-11.7941
mans	-11.7979
sion	-11.7994
▁od	-11.7999
▁mala	-11.8
iance	-11.8028
rr	-11.8036
rapping	-11.804
▁cons	-11.804
ima	-11.8048
▁impatient	-11.8104
light	-11.8108
▁breaker	-11.8109
pet	-11.8109
▁whale	-11.8115
▁et	-11.8125
▁phones	-11.8131
▁ironic	-11.8134
aries	-11.814
yak	-11.8151
▁link	-11.8159
ze	-11.8177
▁machines	-11.8193
han	-11.82
▁gin	-11.8207
▁treats	-11.8213
inned	-11.8218
ji	-11.8241
ooh	-11.8249
min	-11.8265
▁wearer	-11.8287
bone	-11.8299
tive	-11.8308
▁emb	-11.8349
inks	-11.8353
ang	-11.8353
shes	-11.8382
die	-11.8398
▁advis	-11.8399
uck	-11.8404
▁jewel	-11.8412
▁finals	-11.8419
eeee	-11.8446
och	-11.8455
cus	-11.8458
dder	-11.8462
▁ple	-11.8479
ez	-11.8497
▁wr	-11.8503
▁rend	-11.8511
aged	-11.8516
▁respects	-11.8555
nine	-11.8557
▁pans	-11.8572
bee	-11.8576
▁anto	-11.8581
owning	-11.8583
▁prep	-11.8609
▁eu	-11.861
▁snob	-11.8611
beth	-11.8615
▁vei	-11.8616
tle	-11.8623
▁ofthe	-11.8623
gg	-11.8633
▁hoove	-11.8641
▁ph	-11.8641
vine	-11.8643
guardian	-11.8647
▁cit	-11.865
raft	-11.8656
vel	-11.867
▁sig	-11.869
rus	-11.8714
ceived	-11.8715
▁majors	-11.873
immer	-11.8743
▁ann	-11.8743
▁pom	-11.8765
▁ahoo	-11.8766
▁consume	-11.8767
bb	-11.8768
▁cli	-11.8771
ight	-11.8774
▁sie	-11.8778
hy	-11.8778
cent	-11.878
▁vol	-11.8792
rice	-11.8799
▁caus	-11.8801
▁asks	-11.8801
▁deba	-11.8809
ied	-11.8811
▁pros	-11.8812
▁wrappe	-11.8819
hman	-11.882
lis	-11.8838
approval	-11.8839
two	-11.8839
▁sic	-11.8851
tors	-11.8853
▁tau	-11.8859
overs	-11.8861
ugh	-11.8877
▁davids	-11.8896
nia	-11.8903
▁rom	-11.8909
makers	-11.8916
rod	-11.892
▁switche	-11.8941
ads	-11.8942
▁halfa	-11.8952
q	-11.8956
▁distinct	-11.8957
layed	-11.8957
kin	-11.8961
▁rap	-11.8966
▁squir	-11.8967
uge	-11.8974
rack	-11.8976
▁stepp	-11.8998
nn	-11.9
▁explains	-11.9022
dom	-11.9022
rel	-11.9022
ety	-11.9027
▁newly	-11.9029
▁maka	-11.9032
leys	-11.9036
itis	-11.9066
▁mug	-11.9066
▁preten	-11.9078
ointed	-11.9105
ament	-11.9106
tility	-11.911
▁cre	-11.9121
▁lem	-11.9132
▁capt	-11.9133
▁huff	-11.9147
▁initial	-11.9147
▁pump	-11.9153
▁ama	-11.9153
▁occur	-11.9155
▁moan	-11.9155
▁reveal	-11.9157
▁swims	-11.916
▁whisper	-11.9163
▁blighter	-11.9164
▁carnival	-11.9164
▁cushion	-11.9164
▁dwarf	-11.9164
▁imbecile	-11.9164
▁marshmallow	-11.9164
▁pledge	-11.9164
▁reservation	-11.9164
▁slice	-11.9164
▁jar	-11.9164
anne	-11.9166
▁onion	-11.9167
▁allie	-11.9168
▁beetle	-11.9169
▁mau	-11.9171
winding	-11.9175
acco	-11.9177
sky	-11.9178
▁pint	-11.9179
▁caterpillar	-11.918
▁coconut	-11.918
▁bruise	-11.918
▁bugger	-11.918
▁involve	-11.918
▁athlete	-11.9182
▁airline	-11.9183
▁pun	-11.9183
▁ave	-11.9186
bums	-11.9187
▁expense	-11.9191
▁sponsor	-11.9191
▁viking	-11.9192
▁refugee	-11.9193
▁scientist	-11.9194
▁vegetable	-11.9194
▁vulture	-11.9194
▁triplet	-11.9194
▁pyramid	-11.9195
▁arrow	-11.9196
▁obstacle	-11.9197
▁element	-11.9198
ril	-11.9198
rick	-11.9198
▁oompaloompa	-11.9199
▁luyden	-11.9199
▁cupcake	-11.92
▁photographer	-11.9201
▁eyeball	-11.9201
▁footstep	-11.9201
▁sample	-11.9201
▁clap	-11.9201
▁decepticon	-11.9202
▁smither	-11.9207
▁access	-11.9215
armed	-11.9216
slash	-11.9216
▁degree	-11.9219
press	-11.9223
mart	-11.9226
atta	-11.9228
▁refer	-11.9229
care	-11.9232
▁pac	-11.9233
hem	-11.9233
arb	-11.9233
▁hog	-11.9235
▁cam	-11.9235
▁karates	-11.9235
▁ski	-11.9236
▁ooz	-11.9239
▁grav	-11.9246
▁factor	-11.9251
▁tempt	-11.9254
will	-11.9254
▁devastat	-11.9256
▁logic	-11.9258
kids	-11.9263
▁entertain	-11.9264
▁surround	-11.9266
dress	-11.9274
lm	-11.9277
guard	-11.928
▁sm	-11.9281
▁frighten	-11.9282
▁with	-11.9284
east	-11.9285
▁compar	-11.9287
▁bluff	-11.9288
▁trespass	-11.9293
▁devot	-11.9294
base	-11.9294
▁involv	-11.9294
▁shudder	-11.9295
acy	-11.9296
lights	-11.9296
war	-11.9299
▁inevitabl	-11.9299
▁murmur	-11.9299
▁mastermind	-11.9302
▁burp	-11.9302
▁harr	-11.9302
mother	-11.9303
▁clank	-11.9304
▁alleg	-11.9305
tial	-11.9305
cracker	-11.9307
▁establish	-11.9307
tub	-11.9307
ranged	-11.9307
▁redeem	-11.9307
▁inherit	-11.9308
▁crook	-11.9308
blood	-11.9309
▁burst	-11.931
▁slid	-11.931
▁function	-11.931
cream	-11.9311
▁hover	-11.9311
sync	-11.9311
guff	-11.9311
helm	-11.9312
aste	-11.9312
happy	-11.9313
▁kit	-11.9313
galact	-11.9313
sharing	-11.9314
▁poster	-11.9314
evidence	-11.9314
function	-11.9314
phew	-11.9314
grown	-11.9314
ubbing	-11.9314
lift	-11.9315
screen	-11.9315
juice	-11.9315
prison	-11.9315
▁trill	-11.9315
jungle	-11.9315
melon	-11.9315
coast	-11.9315
bread	-11.9315
world	-11.9315
support	-11.9315
famous	-11.9315
record	-11.9315
phones	-11.9315
woman	-11.9315
▁lung	-11.9315
poop	-11.9315
▁offend	-11.9315
wash	-11.9316
beam	-11.9316
chuck	-11.9316
sick	-11.9316
bottom	-11.9316
fast	-11.9316
pool	-11.9316
plant	-11.9316
▁brid	-11.9316
button	-11.9317
aye	-11.9317
human	-11.9317
▁chit	-11.9317
self	-11.9318
stick	-11.9318
capable	-11.9318
▁surge	-11.9318
dash	-11.9318
level	-11.9319
▁fulfil	-11.9319
after	-11.9319
pure	-11.9319
bright	-11.9319
wave	-11.932
▁excite	-11.9321
▁frame	-11.9321
mission	-11.9321
▁whi	-11.9321
minute	-11.9321
▁dedicate	-11.9321
angri	-11.9321
uch	-11.9322
▁incorrect	-11.9322
drop	-11.9322
▁relate	-11.9323
▁capture	-11.9323
▁relieve	-11.9323
▁psych	-11.9323
▁recon	-11.9323
▁marrie	-11.9323
▁amaze	-11.9324
▁deliberate	-11.9324
▁surprising	-11.9324
▁sneez	-11.9324
▁dispose	-11.9325
▁apparent	-11.9326
order	-11.9327
teen	-11.9327
closed	-11.9327
▁extensi	-11.9328
bah	-11.9329
retching	-11.933
▁gigant	-11.933
▁spur	-11.9331
▁sentiment	-11.9333
icular	-11.9333
▁isabell	-11.9334
▁czechoslovakia	-11.9334
sucker	-11.9334
▁trench	-11.9334
▁restrain	-11.9334
▁villa	-11.9335
▁volcan	-11.9336
▁bloomin	-11.9336
▁accommodat	-11.9336
▁hibernat	-11.9336
▁capit	-11.9336
itude	-11.9336
▁televisi	-11.9336
▁guap	-11.9336
▁corporat	-11.9337
omm	-11.9337
tention	-11.9337
dark	-11.9337
flect	-11.9337
▁equi	-11.9337
▁bleat	-11.9337
▁germ	-11.9337
▁haste	-11.9337
▁enforce	-11.9337
mov	-11.9338
▁convent	-11.9338
▁kitch	-11.9338
affe	-11.9338
perator	-11.9338
▁casual	-11.9339
ologist	-11.9339
▁disarm	-11.9339
▁rejoic	-11.9339
▁cockadoodle	-11.9339
▁deconstruct	-11.9339
▁immigrat	-11.9339
animous	-11.9339
awchuckleamalus	-11.9339
heinliken	-11.9339
kami	-11.9339
misunderstanding	-11.9339
osaurus	-11.9339
▁abducted	-11.9339
▁abusive	-11.9339
▁adrenal	-11.9339
▁ambush	-11.9339
▁aorta	-11.9339
▁aquarium	-11.9339
▁armagnac	-11.9339
▁arnie	-11.9339
▁balcony	-11.9339
▁battalion	-11.9339
▁beagle	-11.9339
▁beretta	-11.9339
▁bertie	-11.9339
▁beryllium	-11.9339
▁blarda	-11.9339
▁bleeker	-11.9339
▁bonsoir	-11.9339
▁brickleback	-11.9339
▁brougham	-11.9339
▁brunette	-11.9339
▁bulk	-11.9339
▁burgund	-11.9339
▁canaveral	-11.9339
▁cannibal	-11.9339
▁canvas	-11.9339
▁caricature	-11.9339
▁carlisle	-11.9339
▁carnivore	-11.9339
▁casanova	-11.9339
▁cautious	-11.9339
▁chantrellines	-11.9339
▁chariot	-11.9339
▁chimichanga	-11.9339
▁chocolatier	-11.9339
▁choreograph	-11.9339
▁clooney	-11.9339
▁compadre	-11.9339
▁condemn	-11.9339
▁conservatoire	-11.9339
▁conspicuous	-11.9339
▁convincing	-11.9339
▁cortez	-11.9339
▁critters	-11.9339
▁crumpets	-11.9339
▁cubbins	-11.9339
▁cucaracha	-11.9339
▁cucumber	-11.9339
▁currants	-11.9339
▁deacon	-11.9339
▁debutante	-11.9339
▁decipher	-11.9339
▁detroit	-11.9339
▁diarmuid	-11.9339
▁dinobots	-11.9339
▁disease	-11.9339
▁disrespect	-11.9339
▁distress	-11.9339
▁doorknob	-11.9339
▁drowsy	-11.9339
▁economic	-11.9339
▁efficient	-11.9339
▁effley	-11.9339
▁eject	-11.9339
▁elegance	-11.9339
▁endeavors	-11.9339
▁enlighten	-11.9339
▁escargot	-11.9339
▁escobar	-11.9339
▁exosuit	-11.9339
▁exterminator	-11.9339
▁extravagan	-11.9339
▁exxon	-11.9339
▁fairfarren	-11.9339
▁fascinated	-11.9339
▁fironic	-11.9339
▁fleury	-11.9339
▁francine	-11.9339
▁frederick	-11.9339
▁frustrating	-11.9339
▁frustration	-11.9339
▁furrows	-11.9339
▁gaucourt	-11.9339
▁gazerbeam	-11.9339
▁geoffrey	-11.9339
▁gerbil	-11.9339
▁gibson	-11.9339
▁glimpse	-11.9339
▁godfather	-11.9339
▁gonzalez	-11.9339
▁grasshopper	-11.9339
▁grinning	-11.9339
▁hollandaise	-11.9339
▁honeymaren	-11.9339
▁hypno	-11.9339
▁hypnotize	-11.9339
▁hypothe	-11.9339
▁imagining	-11.9339
▁impeccable	-11.9339
▁incorrigible	-11.9339
▁indebted	-11.9339
▁induce	-11.9339
▁industri	-11.9339
▁inhumane	-11.9339
▁inseparable	-11.9339
▁invoice	-11.9339
▁isolated	-11.9339
▁ixnay	-11.9339
▁january	-11.9339
▁kaleigh	-11.9339
▁kindygarten	-11.9339
▁klondike	-11.9339
▁kobaya	-11.9339
▁korrd	-11.9339
▁lamarr	-11.9339
▁legitimate	-11.9339
▁leibel	-11.9339
▁liberal	-11.9339
▁livelihood	-11.9339
▁lorraine	-11.9339
▁luchador	-11.9339
▁macadamia	-11.9339
▁maneuver	-11.9339
▁maurier	-11.9339
▁mcclure	-11.9339
▁megatunnel	-11.9339
▁merchant	-11.9339
▁milliwatt	-11.9339
▁miraculous	-11.9339
▁misjudged	-11.9339
▁mitchie	-11.9339
▁monolith	-11.9339
▁muscular	-11.9339
▁neonazi	-11.9339
▁nicklebones	-11.9339
▁nitroglycerin	-11.9339
▁norwegian	-11.9339
▁notredame	-11.9339
▁nougat	-11.9339
▁nuisance	-11.9339
▁obedient	-11.9339
▁obnoxious	-11.9339
▁okeydokey	-11.9339
▁oregon	-11.9339
▁otra	-11.9339
▁outlaw	-11.9339
▁pablo	-11.9339
▁panpisco	-11.9339
▁parachute	-11.9339
▁parliament	-11.9339
▁patriot	-11.9339
▁paycheck	-11.9339
▁penniless	-11.9339
▁perceptor	-11.9339
▁perspective	-11.9339
▁petunia	-11.9339
▁pneumonia	-11.9339
▁poitiers	-11.9339
▁pollen	-11.9339
▁possum	-11.9339
▁poverty	-11.9339
▁prejudice	-11.9339
▁propeller	-11.9339
▁prosecutor	-11.9339
▁prototype	-11.9339
▁railsworth	-11.9339
▁raksha	-11.9339
▁ramsbottom	-11.9339
▁rawhide	-11.9339
▁recognition	-11.9339
▁recycling	-11.9339
▁registration	-11.9339
▁repellent	-11.9339
▁replacing	-11.9339
▁resources	-11.9339
▁romulan	-11.9339
▁rooney	-11.9339
▁saintloup	-11.9339
▁samaritan	-11.9339
▁sanitary	-11.9339
▁schwartzman	-11.9339
▁sebastopol	-11.9339
▁seduced	-11.9339
▁senate	-11.9339
▁shanghai	-11.9339
▁sheesh	-11.9339
▁shenzi	-11.9339
▁shipwreck	-11.9339
▁shira	-11.9339
▁significance	-11.9339
▁skedaddle	-11.9339
▁skunk	-11.9339
▁smurf	-11.9339
▁snazzy	-11.9339
▁soprano	-11.9339
▁stradivarius	-11.9339
▁stupendous	-11.9339
▁sublime	-11.9339
▁switzerland	-11.9339
▁sybil	-11.9339
▁tarpaulin	-11.9339
▁technician	-11.9339
▁terreray	-11.9339
▁tobacco	-11.9339
▁translation	-11.9339
▁treasury	-11.9339
▁trinket	-11.9339
▁twentysixth	-11.9339
▁ucla	-11.9339
▁uglie	-11.9339
▁umbradge	-11.9339
▁umbrella	-11.9339
▁underminer	-11.9339
▁underpantyworld	-11.9339
▁unemploy	-11.9339
▁unreasonable	-11.9339
▁urinate	-11.9339
▁ursula	-11.9339
▁vaccinate	-11.9339
▁vaucouleurs	-11.9339
▁vegetarian	-11.9339
▁veronica	-11.9339
▁vijay	-11.9339
▁vulnerable	-11.9339
▁welfare	-11.9339
▁whatcha	-11.9339
▁whatwhat	-11.9339
▁winniver	-11.9339
▁woodbury	-11.9339
▁wpsst	-11.9339
▁xavier	-11.9339
▁zodiac	-11.9339
▁affliction	-11.9339
▁analog	-11.9339
▁asylum	-11.9339
▁bulg	-11.9339
▁diarrhea	-11.9339
▁disregard	-11.9339
▁indulge	-11.9339
▁interrogat	-11.9339
▁invincib	-11.9339
▁linguist	-11.9339
▁lndian	-11.9339
▁reassemble	-11.9339
plausible	-11.9339
▁airborne	-11.9339
▁benefic	-11.9339
▁bonkers	-11.9339
▁chronic	-11.9339
▁circulation	-11.9339
▁cpr	-11.9339
▁deformit	-11.9339
▁deja	-11.9339
▁delusion	-11.9339
▁fiesta	-11.9339
▁genie	-11.9339
▁microchip	-11.9339
▁ninerniner	-11.9339
▁oaf	-11.9339
▁overrated	-11.9339
▁proposing	-11.9339
▁rascal	-11.9339
▁sarc	-11.9339
▁selfloath	-11.9339
▁smuggle	-11.9339
▁smuggling	-11.9339
▁sperm	-11.9339
▁tempests	-11.9339
▁tourelles	-11.9339
▁wlfe	-11.9339
▁amusing	-11.9339
▁cinnamon	-11.9339
▁dorm	-11.9339
▁dreary	-11.9339
▁flesheating	-11.9339
▁hyper	-11.9339
▁jammed	-11.9339
▁moreno	-11.9339
▁philip	-11.9339
▁premises	-11.9339
▁reckless	-11.9339
▁talbot	-11.9339
▁yeshuh	-11.9339
▁chord	-11.9339
▁combining	-11.9339
▁exaggerat	-11.9339
▁fionn	-11.9339
▁maggot	-11.9339
▁session	-11.9339
▁territori	-11.9339
▁tootsie	-11.9339
▁vibes	-11.9339
▁wherefore	-11.9339
▁bishop	-11.9339
▁commotion	-11.9339
▁encino	-11.9339
▁irresponsible	-11.9339
▁petroleum	-11.9339
▁spicy	-11.9339
▁volleyball	-11.9339
▁bulb	-11.9339
▁cruising	-11.9339
▁lrv	-11.9339
▁lvor	-11.9339
▁silicon	-11.9339
▁unrealistic	-11.9339
dynamic	-11.9339
▁abundan	-11.9339
▁femur	-11.9339
▁afghan	-11.9339
▁giddy	-11.9339
▁knives	-11.9339
▁macready	-11.9339
▁scheming	-11.9339
▁whisky	-11.9339
▁bugging	-11.9339
▁frankenstein	-11.9339
▁hedwig	-11.9339
▁latitude	-11.9339
▁multiplied	-11.9339
▁youknowwh	-11.9339
▁acrophobia	-11.9339
▁dubious	-11.9339
▁joyride	-11.9339
▁stubbins	-11.9339
▁terminated	-11.9339
yfish	-11.9339
▁borneo	-11.9339
▁bubbling	-11.9339
▁juggle	-11.9339
▁knick	-11.9339
▁waistband	-11.9339
▁titani	-11.9339
ampered	-11.9339
▁colleague	-11.9339
▁frood	-11.9339
▁mickey	-11.9339
▁slurping	-11.9339
▁arrgh	-11.9339
▁clarkson	-11.9339
▁nude	-11.9339
▁waistcoat	-11.9339
▁abort	-11.9339
▁barging	-11.9339
▁branson	-11.9339
▁funnel	-11.9339
▁makati	-11.9339
▁oppress	-11.9339
▁unharmed	-11.9339
▁clarify	-11.9339
▁davis	-11.9339
▁gunnel	-11.9339
▁freight	-11.9339
▁residents	-11.9339
▁acquired	-11.9339
▁yikes	-11.9339
▁fratern	-11.9339
▁motorcar	-11.9339
▁devonshire	-11.9339
▁morgue	-11.9339
▁batterbie	-11.9339
▁whwhy	-11.9339
▁raids	-11.9339
▁admission	-11.9339
▁cheerleading	-11.9339
▁detonate	-11.9339
▁jetpack	-11.9339
▁plunder	-11.9339
▁casualties	-11.9339
▁etern	-11.9339
▁departure	-11.9339
▁doublecrossed	-11.9339
▁hazardous	-11.9339
▁rumours	-11.9339
▁summar	-11.9339
▁ethical	-11.9339
▁suburban	-11.9339
▁violin	-11.9339
▁conjure	-11.9339
▁gann	-11.9339
▁insecurity	-11.9339
▁melody	-11.9339
▁struthers	-11.9339
roving	-11.9339
▁ransom	-11.9339
▁stabbed	-11.9339
▁conspirator	-11.9339
▁flippers	-11.9339
▁martian	-11.9339
▁downhill	-11.9339
▁tombstone	-11.9339
▁calvin	-11.9339
▁asap	-11.9339
▁employment	-11.9339
▁wrath	-11.9339
▁parading	-11.9339
▁toothpick	-11.9339
▁truffle	-11.9339
▁unplug	-11.9339
▁greta	-11.9339
▁hostess	-11.9339
▁underwater	-11.9339
▁automobile	-11.9339
▁humanely	-11.9339
▁hillbill	-11.9339
▁inhospitable	-11.9339
▁mischief	-11.9339
▁pitiful	-11.9339
▁bourge	-11.9339
▁gallop	-11.9339
▁hazelnut	-11.9339
▁apron	-11.9339
▁evaluat	-11.9339
▁inquiry	-11.9339
▁blunder	-11.9339
▁unforgivable	-11.9339
▁vacant	-11.9339
▁confine	-11.9339
▁salina	-11.9339
▁predictable	-11.9339
▁reginald	-11.9339
▁regroup	-11.9339
▁splendor	-11.9339
▁vomit	-11.9339
▁zinga	-11.9339
▁convertible	-11.9339
▁incurable	-11.9339
▁illustrat	-11.9339
▁shawl	-11.9339
▁swole	-11.9339
▁ounce	-11.9339
▁wuss	-11.9339
orita	-11.9339
▁greaseball	-11.9339
▁hardships	-11.9339
▁posterized	-11.9339
▁dawson	-11.9339
▁windowsill	-11.9339
▁nuance	-11.9339
▁opium	-11.9339
▁penthouse	-11.9339
▁draught	-11.9339
▁korea	-11.9339
▁trigger	-11.9339
▁communication	-11.9339
▁blackberry	-11.9339
▁creek	-11.9339
▁ferocious	-11.9339
▁yeesh	-11.9339
▁allenham	-11.9339
▁inquiring	-11.9339
▁binds	-11.9339
▁eyebrows	-11.9339
▁kapu	-11.9339
▁persist	-11.934
▁splashdown	-11.934
▁excessive	-11.934
▁retard	-11.934
▁patmore	-11.934
▁dekko	-11.934
▁mainsail	-11.934
▁outcome	-11.934
▁avert	-11.934
▁sissy	-11.934
▁compassionate	-11.934
▁harlem	-11.934
▁overpower	-11.934
▁belgi	-11.934
▁unoccupied	-11.934
▁stewart	-11.934
▁villaincon	-11.934
▁caravan	-11.934
▁richmond	-11.934
▁fertilizer	-11.934
▁assign	-11.934
▁carrie	-11.934
▁temple	-11.934
▁prodd	-11.934
▁methodist	-11.934
▁fragment	-11.934
▁loire	-11.934
▁psychotic	-11.934
▁venus	-11.934
▁shaft	-11.934
▁karen	-11.934
▁stint	-11.934
▁gravestone	-11.934
▁tickling	-11.934
▁fowl	-11.934
▁scone	-11.934
▁labato	-11.934
▁scurry	-11.934
▁divry	-11.934
▁hunch	-11.934
▁lingerie	-11.934
▁buggy	-11.934
▁pike	-11.934
▁chili	-11.934
▁fester	-11.934
▁canteen	-11.934
▁jimbo	-11.934
▁complimentary	-11.934
▁misery	-11.934
▁tess	-11.934
▁instructor	-11.934
▁reply	-11.934
▁whack	-11.934
▁norby	-11.934
▁dishonor	-11.934
▁legacy	-11.934
▁terrorist	-11.934
▁argus	-11.934
▁negotiation	-11.934
▁lemonade	-11.934
▁severus	-11.934
▁susie	-11.934
▁uphold	-11.934
▁klaus	-11.934
▁doormat	-11.934
▁posture	-11.934
▁pimple	-11.934
▁beauties	-11.934
▁snorting	-11.934
wa	-11.934
▁revolting	-11.934
▁groceries	-11.934
▁exhibition	-11.934
▁stature	-11.934
▁starscream	-11.934
uckling	-11.934
▁sexier	-11.934
▁cheerio	-11.934
▁dawg	-11.934
▁flux	-11.934
▁persuasion	-11.934
▁casa	-11.934
▁gasoline	-11.934
▁petro	-11.934
▁clipping	-11.934
▁symp	-11.934
▁hooper	-11.9341
▁kindergarteners	-11.9341
▁slut	-11.9341
▁marlin	-11.9341
▁dibble	-11.9341
▁income	-11.9341
▁chugg	-11.9341
▁pillar	-11.9341
▁hasty	-11.9341
▁rita	-11.9341
▁swis	-11.9341
▁wad	-11.9341
▁spotlight	-11.9341
▁lizard	-11.9341
▁debate	-11.9341
▁foster	-11.9341
▁pox	-11.9341
nbau	-11.9341
anide	-11.9341
▁deliri	-11.9341
▁odor	-11.9341
▁ruthless	-11.9341
▁trolley	-11.9341
▁locksley	-11.9341
▁improvement	-11.9341
▁finance	-11.9341
▁starlight	-11.9341
kyo	-11.9341
▁warbling	-11.9341
▁waist	-11.9341
▁hippie	-11.9341
▁recracker	-11.9341
▁voil	-11.9341
▁halfwit	-11.9341
▁quota	-11.9341
▁furious	-11.9341
rthol	-11.9341
▁urine	-11.9341
▁plotted	-11.9341
▁petrol	-11.9341
▁unconscious	-11.9341
▁unpack	-11.9341
▁accommodation	-11.9341
▁quarterback	-11.9341
▁avery	-11.9341
adada	-11.9341
omew	-11.9341
▁syn	-11.9341
airie	-11.9341
▁leroy	-11.9341
▁refreshment	-11.9341
▁waah	-11.9342
▁bidder	-11.9342
▁reeks	-11.9342
▁equip	-11.9342
▁posing	-11.9342
▁wrapping	-11.9342
▁investment	-11.9342
▁permitted	-11.9342
▁preferably	-11.9342
▁gutless	-11.9342
▁moth	-11.9342
▁foley	-11.9342
▁salam	-11.9342
▁winston	-11.9342
▁prospector	-11.9342
convenient	-11.9342
▁trav	-11.9342
▁editor	-11.9342
▁tasty	-11.9342
▁brag	-11.9342
▁rash	-11.9342
▁alex	-11.9342
▁brutality	-11.9342
▁shred	-11.9342
▁retirement	-11.9342
▁alcoholic	-11.9342
▁underland	-11.9342
▁tumble	-11.9342
▁beverage	-11.9342
▁overall	-11.9342
▁beings	-11.9342
▁winwin	-11.9342
▁adoption	-11.9342
▁frequently	-11.9342
▁antonio	-11.9342
▁atti	-11.9342
▁booze	-11.9342
opening	-11.9343
▁revelation	-11.9343
▁verbal	-11.9343
▁locate	-11.9343
antha	-11.9343
▁cupboard	-11.9343
▁ambition	-11.9343
▁peeler	-11.9343
▁chico	-11.9343
▁reaction	-11.9343
▁sturdy	-11.9343
▁upwind	-11.9343
▁itit	-11.9343
▁swiped	-11.9343
▁gangway	-11.9343
▁outof	-11.9343
▁snot	-11.9343
▁accomplishment	-11.9343
▁voila	-11.9343
▁spurn	-11.9343
▁spurt	-11.9343
▁grain	-11.9343
▁insta	-11.9344
▁subway	-11.9344
▁whoohoohoo	-11.9344
▁compost	-11.9344
▁oran	-11.9344
▁toothp	-11.9344
▁cbs	-11.9344
▁bracelet	-11.9344
▁babysitting	-11.9344
▁amor	-11.9344
▁victorious	-11.9344
▁courtship	-11.9344
▁juda	-11.9344
▁rally	-11.9344
▁cartograph	-11.9344
▁deniers	-11.9344
▁drape	-11.9345
▁journalist	-11.9345
▁reload	-11.9345
▁welcoming	-11.9345
▁prettier	-11.9345
▁attendant	-11.9345
▁egghead	-11.9345
assic	-11.9345
▁absorbe	-11.9345
▁neato	-11.9345
▁apocalyp	-11.9345
▁avocado	-11.9345
▁booger	-11.9345
▁compatible	-11.9345
▁dignified	-11.9345
▁paragraph	-11.9345
▁variety	-11.9345
▁vietnam	-11.9345
▁altar	-11.9345
▁heinz	-11.9345
▁cheeseray	-11.9345
▁boan	-11.9345
▁spectre	-11.9345
▁console	-11.9345
▁ripple	-11.9345
▁admirers	-11.9345
▁vichy	-11.9345
▁advertise	-11.9345
▁harem	-11.9346
▁pasture	-11.9346
▁loop	-11.9346
▁polo	-11.9346
prit	-11.9346
▁andor	-11.9346
▁poof	-11.9346
▁fiction	-11.9346
▁bandit	-11.9346
▁blanche	-11.9346
▁preachin	-11.9346
▁gw	-11.9346
variabl	-11.9346
▁kibble	-11.9346
▁char	-11.9346
▁slobber	-11.9346
▁elected	-11.9346
▁vested	-11.9346
▁blindfolded	-11.9346
▁employed	-11.9346
▁cloth	-11.9346
▁geese	-11.9346
kety	-11.9347
▁decal	-11.9347
▁foiled	-11.9347
▁doings	-11.9347
▁storybook	-11.9347
▁hager	-11.9347
▁tush	-11.9347
▁versa	-11.9347
ozen	-11.9347
▁hoard	-11.9347
▁lime	-11.9347
▁muss	-11.9347
atus	-11.9348
▁wedgie	-11.9348
▁marsh	-11.9348
elter	-11.9348
▁pinkie	-11.9348
▁hull	-11.9348
▁packard	-11.9348
▁harmless	-11.9348
▁whang	-11.9348
▁acceptance	-11.9348
ua	-11.9348
▁fries	-11.9348
breaker	-11.9348
▁smie	-11.9348
ashb	-11.9348
▁colour	-11.9349
▁repeatedly	-11.9349
▁theoretically	-11.9349
▁morrison	-11.9349
▁cox	-11.9349
▁ferry	-11.9349
▁effortless	-11.9349
▁monologuing	-11.9349
▁ravishing	-11.9349
▁blabbering	-11.9349
▁medication	-11.9349
▁croaking	-11.9349
▁supervised	-11.9349
▁bulletin	-11.935
▁abby	-11.935
▁facility	-11.935
▁zit	-11.935
rious	-11.935
▁albus	-11.935
▁australian	-11.935
▁flick	-11.935
▁footmen	-11.935
▁nowa	-11.935
▁hatred	-11.935
▁dramatically	-11.9351
▁stance	-11.9351
▁nno	-11.9351
▁nickname	-11.9351
▁tel	-11.9351
▁timid	-11.9351
▁scenery	-11.9351
bili	-11.9351
▁overhead	-11.9351
▁womanhood	-11.9352
▁gir	-11.9352
▁suckup	-11.9352
cca	-11.9352
▁management	-11.9352
▁controller	-11.9352
▁rex	-11.9352
▁straightaway	-11.9352
▁supportive	-11.9353
▁glowin	-11.9353
▁devour	-11.9353
▁froth	-11.9353
rabbits	-11.9353
▁tipped	-11.9353
▁depressed	-11.9353
▁dug	-11.9353
▁fold	-11.9353
▁marion	-11.9353
▁honestto	-11.9354
▁magnif	-11.9354
▁kidney	-11.9354
▁cass	-11.9354
▁discretion	-11.9354
▁activity	-11.9354
▁scoop	-11.9355
▁swoon	-11.9355
▁balt	-11.9355
▁soll	-11.9355
▁cubby	-11.9355
▁sadder	-11.9355
▁initially	-11.9355
zie	-11.9355
▁satin	-11.9356
▁cando	-11.9356
▁machi	-11.9356
▁essential	-11.9356
▁obedience	-11.9356
▁mascot	-11.9356
▁georgina	-11.9356
▁whipped	-11.9357
▁hun	-11.9357
▁hamburger	-11.9357
▁milkman	-11.9357
▁ash	-11.9357
▁metro	-11.9357
▁bushes	-11.9358
▁valve	-11.9358
▁publicity	-11.9358
▁huffy	-11.9358
▁doodle	-11.9358
▁firewood	-11.9358
▁mustang	-11.9358
▁planoff	-11.9358
buck	-11.9358
eks	-11.9359
▁framed	-11.9359
▁quest	-11.9359
▁threaten	-11.9359
▁conquered	-11.9359
▁expanded	-11.9359
hearted	-11.9359
▁mast	-11.9359
▁consideration	-11.9359
▁fairyland	-11.936
▁warship	-11.936
▁setback	-11.936
▁yarn	-11.936
▁weaken	-11.936
▁footage	-11.9361
▁tapping	-11.9361
▁shipped	-11.9361
▁forgetem	-11.9361
▁sway	-11.9362
▁vaguely	-11.9362
▁stepback	-11.9362
▁suz	-11.9362
▁chopping	-11.9362
▁interruption	-11.9362
ourself	-11.9362
▁funky	-11.9362
pecul	-11.9363
▁rowleyl	-11.9363
▁hacker	-11.9363
▁taki	-11.9363
▁tong	-11.9363
orating	-11.9363
▁breakthrough	-11.9363
▁lobe	-11.9363
▁prot	-11.9364
▁seca	-11.9364
erial	-11.9365
gus	-11.9365
▁brewer	-11.9366
▁biomed	-11.9366
▁inspired	-11.9366
▁tolerate	-11.9367
▁digger	-11.9367
▁gambler	-11.9368
▁blush	-11.9368
▁exclusively	-11.9368
▁splitting	-11.9368
▁unclear	-11.9368
▁estimate	-11.9369
▁shallow	-11.9369
▁abuse	-11.9369
▁barbie	-11.9369
▁sonny	-11.9369
▁blackout	-11.9369
▁helm	-11.9369
▁ballet	-11.9369
▁anticipated	-11.937
▁guff	-11.937
▁tyre	-11.937
▁rhyme	-11.937
▁delegate	-11.937
hydrate	-11.937
▁und	-11.9371
▁fiddle	-11.9371
ency	-11.9371
▁guin	-11.9371
▁organized	-11.9371
▁scramble	-11.9371
▁iso	-11.9372
▁pitches	-11.9372
ida	-11.9372
▁sharpened	-11.9372
▁alleged	-11.9372
▁pumped	-11.9373
▁boob	-11.9373
▁housewife	-11.9373
▁agreeable	-11.9374
▁machinery	-11.9374
▁resolved	-11.9374
rile	-11.9374
▁disturbances	-11.9374
▁lawsuits	-11.9374
▁pixies	-11.9374
▁rookies	-11.9374
▁chronos	-11.9375
▁earthquakes	-11.9375
▁panchos	-11.9375
▁suburbs	-11.9375
▁trimmings	-11.9375
▁zombies	-11.9375
▁glees	-11.9375
▁corvettes	-11.9375
▁restored	-11.9375
▁vamos	-11.9375
▁handling	-11.9375
▁speeches	-11.9375
▁antoni	-11.9376
▁steer	-11.9376
▁damag	-11.9376
▁bona	-11.9378
▁foreigners	-11.9378
▁anim	-11.9378
▁insp	-11.9378
▁chemical	-11.9379
▁disposed	-11.938
▁tech	-11.938
▁presentation	-11.938
▁binky	-11.938
▁itchy	-11.9381
▁jacques	-11.9381
▁gland	-11.9381
▁unexpectedly	-11.9381
▁ofjo	-11.9382
▁bongi	-11.9382
▁shaved	-11.9382
▁amused	-11.9383
▁transmit	-11.9383
▁velo	-11.9384
toes	-11.9384
▁justifi	-11.9384
▁linger	-11.9384
▁abound	-11.9384
▁lax	-11.9385
▁hovering	-11.9385
▁trespassing	-11.9385
▁devastating	-11.9385
▁sel	-11.9385
▁aries	-11.9385
▁injected	-11.9385
▁disobeyed	-11.9386
iger	-11.9386
▁bursting	-11.9386
▁sang	-11.9387
▁tighten	-11.9387
▁repaired	-11.9387
▁extinguisher	-11.9388
▁butcher	-11.9388
▁darts	-11.9388
▁portal	-11.9388
▁badab	-11.9388
▁funnie	-11.9388
roll	-11.9388
▁leonardo	-11.9388
▁revs	-11.9391
ige	-11.9391
▁dale	-11.9391
lkin	-11.9391
▁haver	-11.9391
▁traditional	-11.9392
▁sharpen	-11.9393
▁mona	-11.9394
▁ranting	-11.9395
chamel	-11.9395
▁momentum	-11.9395
▁fare	-11.9396
poster	-11.9397
▁stash	-11.9397
▁soften	-11.9397
▁goldf	-11.9398
▁mints	-11.9399
▁plucked	-11.9399
▁triumphed	-11.9399
▁darre	-11.9399
▁navel	-11.94
▁rosen	-11.9401
▁fulltime	-11.9401
▁hermano	-11.9401
rumbles	-11.9401
▁faintly	-11.9401
▁puzzle	-11.9402
▁disrupting	-11.9403
▁kazooing	-11.9403
▁consulting	-11.9403
tona	-11.9404
▁bullfighting	-11.9404
▁eli	-11.9404
▁warp	-11.9404
▁firsthand	-11.9405
▁tame	-11.9406
etic	-11.9406
▁doublet	-11.9407
inia	-11.9407
finite	-11.9408
shells	-11.941
▁contradict	-11.9411
▁zippe	-11.9411
▁rusted	-11.9412
▁snowball	-11.9412
▁rainin	-11.9413
▁flattered	-11.9413
▁hiking	-11.9413
▁ohhh	-11.9415
▁pish	-11.9417
▁knewjust	-11.9417
▁pointless	-11.9418
▁sincere	-11.9418
▁punished	-11.9418
▁setup	-11.9419
▁craze	-11.9419
iary	-11.9421
god	-11.9422
▁exploded	-11.9423
▁groove	-11.9424
▁scraping	-11.9425
▁tomo	-11.9425
▁lifelike	-11.9427
▁makalo	-11.9427
▁itching	-11.9428
▁wandered	-11.9429
▁misty	-11.9429
▁cle	-11.9429
▁encouraged	-11.943
▁exercised	-11.943
uster	-11.9431
▁mule	-11.9432
▁rockin	-11.9434
▁topic	-11.9434
▁socially	-11.9434
umbling	-11.9435
erton	-11.9436
▁footprint	-11.9436
▁blenkers	-11.9436
▁corporations	-11.9436
▁hamsters	-11.9436
▁freckles	-11.9436
▁creators	-11.9436
▁applauds	-11.9437
▁questionable	-11.9437
▁tusks	-11.9437
▁aches	-11.9437
hereabouts	-11.9438
▁miners	-11.9439
▁stressed	-11.9439
▁amend	-11.9439
▁quacking	-11.944
▁shrinking	-11.944
▁martinis	-11.944
▁niles	-11.944
stille	-11.9441
▁fussing	-11.9441
▁taller	-11.9442
▁sleepwalk	-11.9442
▁petal	-11.9445
▁attach	-11.9446
▁grooming	-11.9449
▁whupp	-11.945
▁bullfighter	-11.9451
ggles	-11.9454
▁sewing	-11.9454
▁funk	-11.9456
▁cured	-11.9458
tempo	-11.946
▁bred	-11.9461
▁frolic	-11.9463
▁speculat	-11.9465
rania	-11.9465
▁mining	-11.9466
▁concealed	-11.9466
▁careless	-11.9467
▁dimwitte	-11.947
▁marita	-11.9472
▁defeated	-11.9472
ersons	-11.9473
▁desperately	-11.9474
goo	-11.9474
▁gown	-11.9477
▁bargaining	-11.9477
▁retreating	-11.9478
▁preaching	-11.948
sail	-11.9481
told	-11.9481
▁papi	-11.9483
▁yihe	-11.9484
▁brighten	-11.9485
▁teaches	-11.9486
▁lard	-11.9487
month	-11.9491
▁contained	-11.9493
▁frightful	-11.9493
▁banda	-11.9493
elina	-11.9496
▁tossing	-11.9496
▁slaying	-11.9496
▁shushing	-11.9496
▁hogs	-11.9498
▁satan	-11.9499
▁sweating	-11.9499
▁caterpillars	-11.95
▁coconuts	-11.95
▁buggers	-11.95
▁athletes	-11.9501
▁dribbl	-11.9502
▁triplets	-11.9503
▁bene	-11.9503
▁gent	-11.9504
▁cling	-11.9505
▁succeeded	-11.9507
erous	-11.951
▁mushy	-11.9515
▁factors	-11.9519
▁hale	-11.952
▁permanently	-11.952
▁wisely	-11.9521
▁runne	-11.9522
▁foundation	-11.9523
▁dome	-11.9523
▁recalled	-11.9524
ith	-11.9526
▁standin	-11.9526
▁brushing	-11.9532
▁rewarded	-11.9534
▁millionaire	-11.9534
▁comp	-11.9535
▁comforted	-11.9536
▁kil	-11.9537
riff	-11.9538
▁lament	-11.9544
▁daw	-11.9544
▁johnnyo	-11.9544
▁seeds	-11.9545
▁roughly	-11.9547
▁rushed	-11.9549
▁princesses	-11.955
tarts	-11.9554
▁kate	-11.9556
▁pope	-11.9556
▁delays	-11.9559
▁recur	-11.956
tense	-11.9561
eck	-11.9561
ff	-11.9563
▁daydreams	-11.9564
▁blisters	-11.9565
▁cuddles	-11.9565
▁adjustments	-11.9565
▁arguments	-11.9565
▁benefits	-11.9565
▁handcuffs	-11.9565
▁pattersons	-11.9565
▁ribbons	-11.9565
▁vampires	-11.9565
▁mys	-11.9565
▁assholes	-11.9566
pods	-11.9566
▁appetites	-11.9566
▁holdup	-11.957
▁flavored	-11.9575
▁trashy	-11.9575
▁conor	-11.9576
▁spared	-11.9577
▁nasa	-11.9577
▁smoked	-11.9579
watch	-11.9579
▁boilers	-11.958
ger	-11.9582
▁favorites	-11.9583
▁emergenc	-11.9585
▁crater	-11.9585
▁sweetest	-11.9587
▁avoiding	-11.9589
▁denying	-11.9591
▁lam	-11.9591
▁dealt	-11.9594
▁peek	-11.96
leviat	-11.9601
▁penne	-11.9602
▁harmed	-11.9603
▁duet	-11.9604
hone	-11.9606
▁followers	-11.9606
▁workout	-11.9607
▁scratching	-11.9609
▁likewise	-11.961
▁blamed	-11.9615
▁banged	-11.9617
▁brownies	-11.962
▁notori	-11.9622
▁tougher	-11.9625
▁camel	-11.9628
▁hatched	-11.9629
▁babysitters	-11.963
▁autographs	-11.963
▁musicians	-11.963
▁skipp	-11.963
▁roles	-11.963
▁pups	-11.9631
▁favourites	-11.9631
▁flashing	-11.9631
ook	-11.9633
▁taped	-11.9638
▁awe	-11.9639
hus	-11.9639
▁demo	-11.9639
▁littleton	-11.9641
▁lil	-11.9644
▁milli	-11.9644
ribb	-11.9646
▁naha	-11.965
▁traveler	-11.9653
nker	-11.9658
dity	-11.9658
▁homeless	-11.966
▁checka	-11.966
▁apo	-11.9667
nishment	-11.9678
lam	-11.968
dependent	-11.9684
▁copying	-11.9685
▁protects	-11.9685
ulating	-11.9688
▁askin	-11.9694
▁increases	-11.9695
▁lookee	-11.9695
ipping	-11.9695
▁parrots	-11.9696
▁shelters	-11.9696
lain	-11.9696
▁swinger	-11.9698
▁heroics	-11.97
▁boosters	-11.9705
▁sideline	-11.9709
▁stitch	-11.9709
bie	-11.9712
▁grandda	-11.9716
▁rin	-11.9722
▁lotion	-11.9724
igger	-11.9729
▁peas	-11.9734
▁terrorize	-11.9741
fly	-11.9751
▁panick	-11.9755
▁tearing	-11.9757
▁sta	-11.9757
▁brats	-11.976
elves	-11.9761
▁fundamentals	-11.9762
▁mandrakes	-11.9762
▁straws	-11.9762
▁purrs	-11.9762
▁products	-11.9762
try	-11.9764
▁creativ	-11.9765
▁bully	-11.9774
▁buttered	-11.978
▁wanders	-11.978
▁masse	-11.9783
ification	-11.9787
▁budd	-11.9791
roo	-11.9798
▁needle	-11.98
utes	-11.9802
▁anhi	-11.9809
▁european	-11.9813
▁roma	-11.9814
▁contacted	-11.9815
gram	-11.9819
everage	-11.9823
▁cur	-11.9825
▁mul	-11.9826
▁sole	-11.9827
▁uniforms	-11.9828
▁braces	-11.9828
▁champs	-11.9828
▁owls	-11.9829
▁tryin	-11.9833
▁comeback	-11.9834
▁rainy	-11.9838
▁tackle	-11.9838
▁moom	-11.9839
▁jetti	-11.984
▁callin	-11.9856
hew	-11.986
▁disapprov	-11.9865
▁destroys	-11.9865
▁strongly	-11.9867
▁wits	-11.9872
▁wheelie	-11.9872
linger	-11.9879
▁vern	-11.9879
nu	-11.9882
dont	-11.9883
nual	-11.9884
▁jest	-11.9886
oke	-11.989
▁manuals	-11.9893
▁commitments	-11.9895
▁colored	-11.9895
▁stationed	-11.99
lu	-11.9923
each	-11.9926
ake	-11.9928
sley	-11.9932
▁camping	-11.9936
▁alls	-11.9937
tiv	-11.9948
omen	-11.9956
▁stings	-11.9959
rine	-11.9961
▁orbits	-11.9962
▁neighs	-11.9962
▁barnacles	-11.9962
▁valentines	-11.9962
▁techniques	-11.9962
rett	-11.9963
▁nau	-11.9971
urch	-11.9974
gone	-11.9977
luxe	-11.9993
▁clar	-11.9994
witch	-12
▁enlarg	-12.0002
▁cou	-12.0003
▁siri	-12.0003
▁deceive	-12.0006
▁fairly	-12.0006
▁thumbs	-12.0008
tour	-12.0008
▁griev	-12.002
dies	-12.002
thank	-12.002
▁demons	-12.0027
▁kamals	-12.003
▁payments	-12.003
▁seeking	-12.0031
▁guarantees	-12.0032
▁studios	-12.0033
▁exercises	-12.0033
▁flapp	-12.0035
▁nato	-12.0035
jor	-12.0038
▁yukies	-12.0043
▁rounded	-12.0049
lalalala	-12.0052
▁sly	-12.0059
▁sooth	-12.0065
▁blacked	-12.0078
▁miyagis	-12.0082
orous	-12.0084
size	-12.0085
qui	-12.0085
▁drums	-12.0094
▁yino	-12.0095
▁prophets	-12.0099
▁carriages	-12.0099
▁curses	-12.01
▁balloons	-12.01
▁pointer	-12.0104
▁coloring	-12.0105
▁passions	-12.0106
▁cy	-12.0107
▁creed	-12.0113
▁porc	-12.0119
▁divid	-12.0121
▁overlook	-12.013
▁thro	-12.0132
▁nicer	-12.0145
tract	-12.0165
▁fig	-12.0166
▁museums	-12.0167
aves	-12.0174
▁seated	-12.0175
tynine	-12.0183
▁observ	-12.0184
▁polish	-12.0186
▁pep	-12.0187
▁weekly	-12.0192
▁emitt	-12.02
pain	-12.0208
▁sno	-12.0216
▁llet	-12.0217
▁kala	-12.0217
rich	-12.0221
liance	-12.0221
▁galact	-12.0224
toto	-12.0229
▁outfits	-12.0237
▁invitations	-12.0237
▁cheeks	-12.0245
▁suited	-12.0247
ggi	-12.0253
▁lac	-12.0254
zi	-12.0256
abys	-12.0264
any	-12.0273
bo	-12.0289
iff	-12.029
ok	-12.0293
▁muc	-12.0297
▁sweeps	-12.0305
▁sauces	-12.0306
▁signatures	-12.0306
toone	-12.0309
▁fences	-12.0314
▁guides	-12.0318
shi	-12.0335
▁flags	-12.0346
gat	-12.0349
▁catchy	-12.0355
▁warmed	-12.0358
▁pl	-12.0366
▁tasks	-12.0376
▁blankets	-12.0376
▁honours	-12.0377
▁jumprop	-12.0381
ican	-12.0383
▁caring	-12.0386
thing	-12.0387
▁newt	-12.0389
▁coll	-12.0391
▁bra	-12.0392
▁bla	-12.0412
▁tai	-12.0416
trapped	-12.0417
▁counted	-12.043
▁trio	-12.0436
▁breathed	-12.0444
▁meals	-12.0445
eves	-12.0448
▁downs	-12.0458
▁loo	-12.0467
▁sportsman	-12.0478
▁rips	-12.049
▁nat	-12.0491
▁investigate	-12.0493
▁pali	-12.0494
▁ic	-12.0502
lts	-12.0505
▁forg	-12.0509
▁lined	-12.0512
▁potions	-12.0518
▁andr	-12.052
▁tapes	-12.0535
▁rocked	-12.0541
▁bes	-12.0544
tro	-12.0545
▁gali	-12.0563
pture	-12.0571
▁convers	-12.0581
ador	-12.0585
▁plu	-12.0587
▁concerns	-12.0594
▁evasi	-12.0595
▁closely	-12.0599
mby	-12.06
ille	-12.0607
▁diplomati	-12.064
▁acr	-12.0644
▁crave	-12.0659
▁salts	-12.0668
ddle	-12.0671
▁dove	-12.0686
phy	-12.07
▁checks	-12.0715
bri	-12.0721
▁posts	-12.0724
ov	-12.073
▁tunnels	-12.0734
▁tennerays	-12.0734
▁cob	-12.0738
zoom	-12.0738
ibbled	-12.0757
ita	-12.0766
gr	-12.0772
▁yachts	-12.0788
▁begg	-12.0789
▁crimes	-12.0807
▁nu	-12.0808
▁contribut	-12.0809
▁requests	-12.0811
num	-12.0813
▁manages	-12.0814
▁lice	-12.0829
▁destroying	-12.0842
▁quill	-12.0848
▁willi	-12.0849
int	-12.0871
chur	-12.0879
▁cracker	-12.0891
tion	-12.0892
▁snapp	-12.0907
▁glori	-12.091
▁wherea	-12.092
termination	-12.0932
▁regrett	-12.0938
cer	-12.0942
▁porto	-12.0943
▁decks	-12.0954
▁champions	-12.0954
enhanced	-12.0954
▁norm	-12.0957
▁judges	-12.0958
mona	-12.0961
▁contrar	-12.0975
ore	-12.0986
have	-12.0998
uce	-12.1021
onium	-12.1029
▁programs	-12.1031
▁ups	-12.1042
▁mixe	-12.1042
▁horrors	-12.1045
▁baker	-12.1049
▁intervene	-12.106
tingly	-12.1081
▁ordering	-12.1083
obby	-12.1092
▁modell	-12.11
▁loads	-12.11
▁crews	-12.1104
▁chem	-12.1113
▁compress	-12.1118
▁interests	-12.1131
dley	-12.1145
ph	-12.1149
▁enable	-12.115
lt	-12.1163
eology	-12.1165
▁stat	-12.1173
▁forms	-12.1185
▁ado	-12.119
▁checker	-12.1198
scan	-12.12
▁by	-12.1208
arnish	-12.1211
▁baths	-12.1216
▁forag	-12.1219
▁cava	-12.1219
▁juic	-12.1222
▁grapes	-12.1231
erie	-12.1242
▁oppose	-12.1242
▁trac	-12.1252
▁prov	-12.1259
▁steves	-12.1262
▁tucks	-12.1263
okay	-12.1272
audible	-12.1273
▁sander	-12.1277
ancy	-12.1298
sque	-12.1331
▁opinions	-12.1333
▁horri	-12.1334
▁dearly	-12.1334
▁spr	-12.1335
▁strikes	-12.1341
▁whoosh	-12.1347
ode	-12.1352
prosy	-12.1355
tortion	-12.1361
▁sams	-12.1373
▁associate	-12.1377
igators	-12.1382
▁dundundu	-12.1391
▁edwards	-12.1409
▁gangst	-12.1412
▁ahah	-12.1414
▁risks	-12.1414
nch	-12.1439
▁heater	-12.1442
lashed	-12.1442
▁yorker	-12.1446
stated	-12.1447
▁backfire	-12.1455
▁meas	-12.1488
▁com	-12.1501
hal	-12.1506
▁hol	-12.1509
tum	-12.1514
▁jeopard	-12.1523
▁allergi	-12.1546
tches	-12.1559
▁diver	-12.156
▁likeness	-12.1561
▁storms	-12.1565
inch	-12.1581
ren	-12.1593
hank	-12.1596
▁herds	-12.1598
▁heroin	-12.1606
tyl	-12.1617
▁muj	-12.1626
▁warnings	-12.1643
▁journeys	-12.1643
yl	-12.1644
▁feeds	-12.1655
uchi	-12.1655
▁yia	-12.1656
ner	-12.1663
▁pers	-12.1687
ob	-12.1696
oohoohoo	-12.1708
pe	-12.1722
groom	-12.1724
ag	-12.1736
agged	-12.1781
ening	-12.1789
▁anha	-12.1796
▁grape	-12.1848
evel	-12.1849
▁yith	-12.1867
▁goats	-12.1869
lant	-12.1871
kov	-12.1871
▁haw	-12.1872
sit	-12.1872
▁compa	-12.1878
▁statu	-12.188
▁mort	-12.1891
code	-12.1897
▁rad	-12.1907
▁ref	-12.1911
▁vin	-12.1914
ela	-12.1916
▁yiwhe	-12.1932
▁shapes	-12.1952
▁jungles	-12.1963
▁thistlewaites	-12.1964
jah	-12.2002
aver	-12.2008
posed	-12.2025
▁cla	-12.2046
ban	-12.2046
▁avo	-12.2077
ods	-12.2079
lnut	-12.2082
▁pegg	-12.2082
ager	-12.2093
▁mill	-12.2095
▁recit	-12.2115
▁prefers	-12.2124
ista	-12.2148
ptu	-12.2152
lima	-12.2169
athing	-12.218
rand	-12.2189
they	-12.2192
rat	-12.2196
ust	-12.2209
▁globb	-12.2225
wi	-12.2234
▁pursu	-12.2235
dacious	-12.2239
▁thr	-12.2246
ni	-12.2255
▁exp	-12.2258
kun	-12.2267
hen	-12.2285
▁jumb	-12.2307
▁contribute	-12.2313
▁qual	-12.233
erb	-12.2347
hh	-12.2366
ards	-12.2367
▁af	-12.2371
rago	-12.2375
▁bridges	-12.2376
▁donkeys	-12.2379
ulation	-12.2437
mates	-12.2445
▁lighting	-12.2454
tem	-12.2462
nky	-12.2476
▁banish	-12.2477
abbing	-12.2477
▁cro	-12.2506
▁diploma	-12.2517
▁pai	-12.2522
rag	-12.2577
▁tub	-12.2578
anger	-12.2588
upper	-12.2593
▁norma	-12.2596
▁palat	-12.2602
aded	-12.2623
▁rape	-12.2631
▁bottoms	-12.2636
logged	-12.2636
▁cin	-12.264
▁rang	-12.264
▁bru	-12.271
▁kristoffs	-12.2718
▁spun	-12.272
ncies	-12.2737
rpentine	-12.2754
ab	-12.2779
▁sever	-12.2782
▁silli	-12.2789
gestion	-12.2805
▁ahooh	-12.2805
mble	-12.2809
car	-12.2811
ggle	-12.2829
lets	-12.2831
nner	-12.2833
▁cent	-12.2837
▁jumprope	-12.2838
▁clim	-12.2846
aint	-12.2847
mela	-12.2849
▁ava	-12.2867
▁az	-12.2891
atkins	-12.2895
▁clima	-12.2903
▁pearl	-12.2907
▁ando	-12.291
▁thth	-12.2921
▁mart	-12.2932
▁shsh	-12.2935
▁admir	-12.2942
gment	-12.2991
lsa	-12.3003
▁spends	-12.3008
servant	-12.3009
▁thankful	-12.3043
ken	-12.3048
▁oblivi	-12.3049
nows	-12.3058
▁som	-12.3061
▁boards	-12.3078
▁larg	-12.3079
actic	-12.309
▁interna	-12.3097
▁rec	-12.3125
▁trad	-12.316
hattering	-12.3184
ckles	-12.3205
aging	-12.3209
▁vot	-12.3212
▁prim	-12.3225
▁mash	-12.3238
▁magn	-12.3243
nnies	-12.3251
long	-12.3252
rcum	-12.3271
nance	-12.328
▁kim	-12.3281
ex	-12.3285
oon	-12.3305
▁inhal	-12.3316
sm	-12.3323
dence	-12.3334
▁grad	-12.3342
yde	-12.3344
pl	-12.3353
▁dul	-12.3355
▁invi	-12.3357
▁shap	-12.3374
opsi	-12.3384
▁scat	-12.339
▁charl	-12.3398
tsy	-12.3412
table	-12.3414
▁kla	-12.3415
ienne	-12.3416
sville	-12.3416
rising	-12.3429
aaa	-12.3441
nag	-12.3442
itch	-12.3445
mit	-12.3472
au	-12.3511
▁harle	-12.3518
▁reader	-12.3523
alice	-12.3527
ett	-12.3559
ration	-12.3565
irl	-12.3575
bed	-12.3584
hi	-12.3589
▁startle	-12.3595
nar	-12.3616
stened	-12.3622
▁sav	-12.3649
▁ooooo	-12.366
non	-12.3661
▁sprinkl	-12.3662
▁apologiz	-12.3675
▁kni	-12.3676
mile	-12.3683
boo	-12.3688
▁matt	-12.3689
▁peg	-12.3702
part	-12.3711
mini	-12.3729
ux	-12.3737
asco	-12.3737
▁spar	-12.3758
rmi	-12.3767
close	-12.3774
seven	-12.3775
▁rappin	-12.378
dle	-12.3791
sipp	-12.3807
▁ifth	-12.3816
▁choo	-12.3828
punctu	-12.383
ari	-12.3843
xide	-12.3847
dad	-12.3858
good	-12.3861
egee	-12.3874
▁bobb	-12.3877
▁chic	-12.3888
udic	-12.3891
coming	-12.3891
umps	-12.3899
acu	-12.3902
▁conv	-12.3914
▁accord	-12.3914
▁nor	-12.392
udge	-12.3922
▁strip	-12.3928
▁phon	-12.3939
▁tack	-12.3964
hine	-12.3969
obe	-12.3977
▁midw	-12.3977
ashing	-12.3979
▁ache	-12.3981
▁electron	-12.3983
fin	-12.3985
ickens	-12.4002
suring	-12.401
ebra	-12.4012
▁upto	-12.4019
▁jan	-12.4021
ustache	-12.4024
win	-12.4024
▁jig	-12.4035
lace	-12.4037
ement	-12.4041
▁uni	-12.4052
▁pili	-12.4056
▁alg	-12.4073
▁dyna	-12.4086
iece	-12.4105
kh	-12.4108
lums	-12.4113
▁conduc	-12.4126
▁dimwit	-12.4128
▁impersonatin	-12.4134
▁adri	-12.4136
▁fro	-12.4137
ky	-12.4137
eers	-12.4138
▁applaud	-12.414
▁squeak	-12.4141
laws	-12.4141
▁philosoph	-12.4142
cake	-12.4145
▁kr	-12.4151
▁depressi	-12.4155
▁mongol	-12.4157
oes	-12.4158
▁sharpe	-12.4158
▁kam	-12.416
maker	-12.416
powered	-12.4162
▁clan	-12.4162
▁puzzl	-12.4165
▁trumpet	-12.4165
▁brainiac	-12.4165
▁dumdum	-12.4165
▁leopard	-12.4165
▁preparation	-12.4165
▁titov	-12.4165
▁gesture	-12.4165
▁sherman	-12.4165
shell	-12.4166
▁stir	-12.4166
▁saber	-12.4168
▁drug	-12.4168
▁kat	-12.4168
▁decoration	-12.4169
▁bodyguard	-12.4169
▁decade	-12.4169
▁tweet	-12.4172
cro	-12.4175
▁splinter	-12.4177
▁aff	-12.4178
uff	-12.418
▁freckle	-12.4181
▁tusk	-12.4182
▁blenker	-12.4182
▁counte	-12.4182
▁creator	-12.4182
▁hamster	-12.4184
▁corporation	-12.4186
reference	-12.4188
hun	-12.4188
▁spuddie	-12.4188
▁muggle	-12.4189
corro	-12.4189
▁exhibit	-12.419
▁intruder	-12.4192
▁rooster	-12.4192
▁bapti	-12.4194
▁neighbour	-12.4195
▁ancestor	-12.4195
pulsive	-12.4197
jector	-12.4198
▁hou	-12.4198
▁consequence	-12.4198
▁snicker	-12.4198
▁exter	-12.4199
▁carnotaur	-12.4199
▁shiv	-12.4199
▁gulp	-12.4199
▁rib	-12.42
slides	-12.42
owners	-12.42
▁groov	-12.4201
▁carrot	-12.4202
▁nutri	-12.4202
▁circumstance	-12.4203
▁web	-12.4203
▁martini	-12.4204
▁coordinate	-12.4208
▁mopin	-12.4208
rest	-12.4209
pion	-12.421
▁whup	-12.421
▁firework	-12.421
▁nile	-12.4212
▁compos	-12.4214
▁unf	-12.4217
thy	-12.4218
▁wri	-12.4219
▁peck	-12.422
angel	-12.422
▁rowe	-12.422
mond	-12.4223
▁shu	-12.4223
▁mur	-12.4223
wed	-12.4226
▁unto	-12.4226
▁maxim	-12.4228
▁halfling	-12.4229
▁decor	-12.4231
▁smok	-12.4233
▁tum	-12.4234
ati	-12.4234
▁coot	-12.4234
▁rattle	-12.4239
pala	-12.4244
▁activat	-12.4245
covered	-12.4247
building	-12.4249
yass	-12.4251
▁hydro	-12.4252
▁bean	-12.4254
▁py	-12.4254
▁extinguish	-12.4259
▁butch	-12.426
▁ax	-12.426
▁dw	-12.4262
onnais	-12.4264
▁arr	-12.4265
otted	-12.4266
ents	-12.4267
▁recip	-12.4268
joy	-12.4269
bling	-12.4269
pack	-12.4269
awn	-12.427
▁chang	-12.427
▁environment	-12.4271
▁blond	-12.4271
connect	-12.4272
open	-12.4272
▁coloss	-12.4278
▁pil	-12.4278
heart	-12.4278
▁anwas	-12.4279
lein	-12.4279
friend	-12.4279
meter	-12.428
▁accompan	-12.428
power	-12.4281
look	-12.4282
ast	-12.4283
▁tuc	-12.4285
range	-12.4285
▁fantasi	-12.4285
▁vip	-12.4286
spect	-12.4288
bbering	-12.4289
omb	-12.4289
▁anticipat	-12.429
▁intimidat	-12.4291
▁restrict	-12.4291
▁assembl	-12.4291
▁metaphor	-12.4292
▁gamble	-12.4292
▁injur	-12.4292
▁sofi	-12.4292
▁seiz	-12.4293
▁plac	-12.4293
▁nur	-12.4295
seas	-12.4295
▁dispos	-12.4295
▁satisfy	-12.4296
▁blot	-12.4298
▁trai	-12.4298
wait	-12.4298
mpos	-12.4299
▁squa	-12.4299
▁vocaliz	-12.43
▁eliminat	-12.43
▁scor	-12.43
▁ent	-12.4303
▁exert	-12.4304
conscious	-12.4304
glass	-12.4304
▁foller	-12.4305
gggg	-12.4305
▁conquer	-12.4306
▁leftover	-12.4306
▁expand	-12.4307
▁confirm	-12.4307
▁native	-12.4307
▁obsess	-12.4307
guided	-12.4308
▁identif	-12.4308
antenna	-12.4308
berries	-12.4308
schnitzel	-12.4308
blahblahblah	-12.4308
ucky	-12.4308
hill	-12.4309
▁slim	-12.4309
▁declar	-12.4309
certain	-12.4309
▁dismiss	-12.431
guin	-12.431
mascot	-12.4311
obedience	-12.4311
degree	-12.4311
essential	-12.4311
hmm	-12.4311
craft	-12.4311
protective	-12.4312
scotch	-12.4312
doubted	-12.4312
poo	-12.4312
▁neg	-12.4312
generation	-12.4313
detected	-12.4313
inform	-12.4313
belief	-12.4313
scheduled	-12.4314
appropriate	-12.4314
writer	-12.4314
goyle	-12.4314
author	-12.4314
tcher	-12.4314
colo	-12.4314
jinx	-12.4314
claim	-12.4314
text	-12.4314
develop	-12.4314
quote	-12.4314
sensitive	-12.4314
apple	-12.4314
blowing	-12.4314
daughter	-12.4314
worm	-12.4314
clip	-12.4315
humor	-12.4315
quarter	-12.4315
speaker	-12.4315
valuable	-12.4315
birth	-12.4315
historic	-12.4315
professional	-12.4315
distance	-12.4315
winning	-12.4315
argh	-12.4315
balance	-12.4315
boyfriend	-12.4315
difference	-12.4315
model	-12.4315
spread	-12.4315
writing	-12.4315
american	-12.4315
pilot	-12.4315
teacher	-12.4315
bridge	-12.4315
indistinct	-12.4315
cheese	-12.4315
filled	-12.4315
control	-12.4315
dramatic	-12.4315
judge	-12.4315
crazy	-12.4315
pretty	-12.4315
please	-12.4315
luck	-12.4315
monkey	-12.4315
sweet	-12.4315
wit	-12.4316
telling	-12.4316
discover	-12.4316
fingers	-12.4316
species	-12.4316
freeze	-12.4316
park	-12.4316
changing	-12.4316
enough	-12.4316
magic	-12.4316
newsman	-12.4316
plate	-12.4316
first	-12.4316
credit	-12.4316
driver	-12.4316
talk	-12.4317
guy	-12.4317
broken	-12.4317
theyre	-12.4317
week	-12.4317
lava	-12.4317
girl	-12.4317
cool	-12.4317
making	-12.4317
oochie	-12.4317
church	-12.4317
type	-12.4317
▁resembl	-12.4317
tender	-12.4317
▁fracture	-12.4317
▁decline	-12.4317
ograph	-12.4318
brady	-12.4318
linda	-12.4318
▁iv	-12.4318
▁achieve	-12.4319
attack	-12.4319
must	-12.4319
teeth	-12.4319
shut	-12.4319
owl	-12.432
statement	-12.432
hunting	-12.432
proper	-12.432
keeping	-12.432
stuck	-12.4321
puss	-12.4321
track	-12.4321
today	-12.4321
▁rebuil	-12.4321
drudd	-12.4321
▁connect	-12.4322
▁chunk	-12.4322
▁confuse	-12.4322
▁appli	-12.4322
▁complicate	-12.4322
▁scul	-12.4322
▁celebrit	-12.4322
▁beyon	-12.4322
▁mercenar	-12.4322
▁theoretical	-12.4322
fri	-12.4322
▁strateg	-12.4322
ouche	-12.4323
▁dumm	-12.4323
▁jabberwock	-12.4323
wow	-12.4323
▁opportunit	-12.4323
bang	-12.4323
hard	-12.4323
lady	-12.4323
ooling	-12.4323
neck	-12.4324
bill	-12.4324
▁splint	-12.4324
dare	-12.4324
▁scull	-12.4324
▁fantasti	-12.4325
▁singsong	-12.4325
dale	-12.4325
▁pictur	-12.4325
really	-12.4326
cut	-12.4326
▁literal	-12.4326
▁antiqu	-12.4326
▁refuge	-12.4326
vice	-12.4326
arthy	-12.4326
bank	-12.4326
vic	-12.4327
▁diff	-12.4327
▁immaculat	-12.4327
final	-12.4328
▁wond	-12.4328
▁spectr	-12.4328
known	-12.4329
▁tru	-12.4329
▁consol	-12.4329
▁intimidate	-12.4329
▁participat	-12.4329
▁interfer	-12.4329
laid	-12.4329
▁presum	-12.4329
▁sunshin	-12.433
▁hustl	-12.433
▁sensibl	-12.433
cold	-12.433
unction	-12.4331
bot	-12.4331
probabl	-12.4331
▁govern	-12.4332
ouchy	-12.4332
theist	-12.4333
▁instruct	-12.4333
att	-12.4333
▁blanch	-12.4333
▁breech	-12.4333
▁alcohol	-12.4333
▁flaming	-12.4333
abbits	-12.4334
correct	-12.4334
nip	-12.4334
▁reflex	-12.4334
blanc	-12.4334
▁infectio	-12.4334
▁mimi	-12.4334
▁steel	-12.4334
▁independen	-12.4334
wimmin	-12.4334
bbers	-12.4334
▁should	-12.4335
▁communi	-12.4335
aja	-12.4335
▁pizz	-12.4335
buckle	-12.4335
▁crazie	-12.4336
beard	-12.4336
▁kindergarten	-12.4336
rubs	-12.4336
▁motivat	-12.4336
▁renovat	-12.4336
▁navigat	-12.4336
▁persuasi	-12.4336
scription	-12.4336
horts	-12.4336
▁cruci	-12.4336
▁grocer	-12.4336
easant	-12.4336
▁revol	-12.4336
▁convict	-12.4336
▁commo	-12.4336
▁cyclon	-12.4336
▁contemp	-12.4337
convenience	-12.4337
loved	-12.4337
▁posse	-12.4337
▁flee	-12.4337
▁veek	-12.4337
▁reenlarge	-12.4337
party	-12.4337
▁writin	-12.4337
▁occup	-12.4337
▁michel	-12.4338
▁scur	-12.4338
▁runnin	-12.4338
▁enthusias	-12.4338
ligans	-12.4338
▁easie	-12.4338
insula	-12.4338
▁excess	-12.4338
▁feroci	-12.4338
▁givin	-12.4338
elimina	-12.4338
▁practi	-12.4338
▁pressur	-12.4338
▁advent	-12.4338
bourg	-12.4338
▁poach	-12.4338
▁vapor	-12.4338
▁eviden	-12.4338
▁vandal	-12.4338
plore	-12.4338
rfeit	-12.4338
interpret	-12.4338
ltitude	-12.4338
▁pilgrim	-12.4339
contaminat	-12.4339
cracy	-12.4339
bourne	-12.4339
▁stereo	-12.4339
lange	-12.4339
▁decommission	-12.4339
▁frumpy	-12.4339
corde	-12.4339
nunciat	-12.4339
▁annihilat	-12.4339
▁apprehen	-12.4339
▁confiscat	-12.4339
▁dissipat	-12.4339
▁distribut	-12.4339
▁illuminat	-12.4339
▁invalid	-12.4339
▁jellyfish	-12.4339
▁patoot	-12.4339
▁redecorat	-12.4339
▁selfpre	-12.4339
abrac	-12.4339
arkansas	-12.4339
corne	-12.4339
cyclop	-12.4339
dolph	-12.4339
eavesdropping	-12.4339
forsaken	-12.4339
hashtag	-12.4339
hominahomina	-12.4339
hygienic	-12.4339
ijuana	-12.4339
incomprehensible	-12.4339
inocula	-12.4339
ovascular	-12.4339
percussion	-12.4339
rlog	-12.4339
rophobi	-12.4339
scrumptious	-12.4339
secretarygeneral	-12.4339
sseldorf	-12.4339
terrestria	-12.4339
vavoom	-12.4339
▁abbey	-12.4339
▁abracadabra	-12.4339
▁adolescent	-12.4339
▁advocate	-12.4339
▁afuera	-12.4339
▁aggression	-12.4339
▁amadeus	-12.4339
▁amphibi	-12.4339
▁anomalies	-12.4339
▁anyplace	-12.4339
▁apologising	-12.4339
▁arithmetic	-12.4339
▁artifact	-12.4339
▁athens	-12.4339
▁attorneyatlaw	-12.4339
▁austrey	-12.4339
▁avatar	-12.4339
▁ballycarbery	-12.4339
▁baloney	-12.4339
▁baltimore	-12.4339
▁bankrupt	-12.4339
▁beethoven	-12.4339
▁benadryl	-12.4339
▁bernie	-12.4339
▁berserk	-12.4339
▁bhaiya	-12.4339
▁bienven	-12.4339
▁blemish	-12.4339
▁boggart	-12.4339
▁bohemian	-12.4339
▁bollockse	-12.4339
▁bourguignon	-12.4339
▁bremann	-12.4339
▁bridesmaids	-12.4339
▁bristlemoss	-12.4339
▁bruntford	-12.4339
▁brussels	-12.4339
▁buddhist	-12.4339
▁bulstrode	-12.4339
▁bunpowder	-12.4339
▁bygones	-12.4339
▁camouflage	-12.4339
▁cartridge	-12.4339
▁cataclysm	-12.4339
▁catapult	-12.4339
▁categories	-12.4339
▁ceramic	-12.4339
▁cherries	-12.4339
▁chimney	-12.4339
▁chipmunk	-12.4339
▁chiweenie	-12.4339
▁cinderella	-12.4339
▁cleopatra	-12.4339
[...]
