<unk>	0
<s>	0
</s>	0
s	-3.01452
e	-3.71235
t	-4.01337
ing	-4.11647
d	-4.26157
▁	-4.2946
y	-4.37027
ed	-4.45855
o	-4.48151
n	-4.5273
a	-4.56816
p	-4.64447
er	-4.65413
c	-4.70003
r	-4.80477
u	-4.84569
i	-4.85164
in	-4.85209
m	-4.93963
b	-5.00432
▁s	-5.01663
h	-5.06276
▁oh	-5.07612
▁im	-5.13717
▁dont	-5.15964
g	-5.1672
▁go	-5.18287
le	-5.21811
ar	-5.22445
l	-5.24918
or	-5.26746
▁p	-5.32119
k	-5.34113
▁well	-5.36708
▁know	-5.37517
▁a	-5.40173
▁get	-5.41068
al	-5.41541
▁come	-5.44048
▁f	-5.49866
ly	-5.51497
f	-5.52514
en	-5.55825
on	-5.55989
it	-5.57732
w	-5.58819
▁like	-5.5916
▁b	-5.61077
ch	-5.61525
ri	-5.62203
re	-5.63908
▁one	-5.64591
v	-5.65038
ll	-5.65509
▁right	-5.65819
▁see	-5.68885
▁good	-5.69795
▁got	-5.73511
▁youre	-5.75694
at	-5.75865
▁t	-5.76081
ck	-5.76541
▁de	-5.804
▁thats	-5.84066
▁l	-5.84397
ra	-5.84936
es	-5.88078
▁look	-5.88572
▁re	-5.90931
st	-5.92118
▁g	-5.92443
▁yes	-5.93004
▁c	-5.95412
il	-5.97878
an	-6.0073
▁w	-6.00819
▁time	-6.01513
▁think	-6.03007
▁want	-6.03539
ir	-6.03727
▁yeah	-6.03926
▁sh	-6.04379
▁us	-6.05034
▁na	-6.05952
▁o	-6.07211
▁ill	-6.08101
▁co	-6.10364
ur	-6.10508
▁hey	-6.10611
▁ch	-6.10734
▁st	-6.10737
ent	-6.11072
el	-6.11498
▁ha	-6.11559
▁ma	-6.11886
z	-6.12046
▁back	-6.12381
ve	-6.13244
▁say	-6.13466
▁man	-6.13868
▁k	-6.14919
▁take	-6.15172
▁me	-6.17767
ic	-6.18485
ter	-6.18559
▁ho	-6.18652
▁cant	-6.19871
▁e	-6.22071
▁pa	-6.23194
la	-6.24225
us	-6.25608
un	-6.25689
▁little	-6.26544
▁hes	-6.3066
▁okay	-6.3069
ne	-6.31025
▁in	-6.31818
▁tell	-6.31857
▁mo	-6.3251
am	-6.32843
ow	-6.32874
▁ra	-6.33984
▁he	-6.34293
▁going	-6.34741
▁love	-6.36138
▁thank	-6.36635
ut	-6.38779
▁r	-6.39111
▁let	-6.3918
ke	-6.39353
ro	-6.3968
▁make	-6.40609
▁way	-6.42312
ce	-6.44294
▁would	-6.44598
et	-6.44887
▁gon	-6.44926
▁mean	-6.46364
▁could	-6.46708
▁never	-6.47163
is	-6.47686
id	-6.48694
▁uh	-6.49283
om	-6.49803
th	-6.50174
ie	-6.50935
li	-6.51121
▁bu	-6.5187
▁ro	-6.52357
▁cr	-6.53223
▁wait	-6.53599
▁sp	-6.54419
▁la	-6.55188
▁help	-6.55246
ge	-6.55626
▁whats	-6.5622
oo	-6.56502
ng	-6.57339
▁mr	-6.58038
▁must	-6.58682
▁please	-6.59584
▁hi	-6.59621
sh	-6.59918
▁give	-6.60135
▁ive	-6.60763
ol	-6.60859
▁bo	-6.61168
ver	-6.61438
▁something	-6.62067
▁v	-6.62538
as	-6.62624
ant	-6.628
▁day	-6.63796
▁theres	-6.63923
▁li	-6.6413
▁to	-6.65274
ation	-6.65402
▁th	-6.66471
▁miss	-6.68458
▁ta	-6.6862
ate	-6.68876
▁really	-6.69273
▁su	-6.69941
▁need	-6.70229
ion	-6.7041
▁mi	-6.70518
▁didnt	-6.72952
▁con	-6.73887
j	-6.74168
▁te	-6.75433
ul	-6.76399
est	-6.77853
▁lo	-6.79409
ers	-6.8068
ry	-6.80851
▁ca	-6.81369
▁old	-6.8141
▁find	-6.81914
▁sir	-6.81959
▁lets	-6.8211
▁sure	-6.82115
▁boy	-6.8223
▁work	-6.82385
▁talk	-6.82389
mp	-6.83323
▁po	-6.84471
▁great	-6.85739
te	-6.85811
▁al	-6.86092
▁we	-6.86149
▁un	-6.86503
ies	-6.86667
ther	-6.88018
▁do	-6.88768
▁wa	-6.88839
ig	-6.89008
▁two	-6.89142
▁call	-6.907
▁stop	-6.91064
▁girl	-6.91118
ta	-6.91283
▁pro	-6.92195
▁keep	-6.92509
▁thing	-6.92773
ù	-6.93067
de	-6.93186
▁even	-6.9337
▁night	-6.93636
▁life	-6.94225
▁car	-6.94353
ad	-6.9441
▁ex	-6.94421
▁no	-6.94534
▁ah	-6.94588
▁sorry	-6.95937
▁home	-6.95978
▁di	-6.96023
▁much	-6.97543
▁so	-6.97894
▁nothing	-6.98056
x	-6.98342
▁long	-6.98455
▁first	-7.00387
▁da	-7.00695
▁new	-7.00774
▁be	-7.00802
▁ne	-7.00902
tion	-7.01145
um	-7.01895
▁wont	-7.01932
end	-7.02222
im	-7.0258
▁said	-7.02679
▁fa	-7.0309
▁better	-7.03784
and	-7.04053
▁dr	-7.0451
▁away	-7.04834
▁friend	-7.05362
▁youll	-7.05681
▁ba	-7.06373
▁stay	-7.0699
▁theyre	-7.07488
▁feel	-7.07649
▁shes	-7.07762
op	-7.08181
▁ever	-7.0837
▁wh	-7.09017
▁big	-7.0907
▁try	-7.10088
mm	-7.10179
ag	-7.10737
ff	-7.10798
▁du	-7.10806
up	-7.12426
▁around	-7.12637
ot	-7.12923
▁people	-7.1298
ap	-7.13188
able	-7.13203
▁mar	-7.13349
▁youve	-7.13672
▁win	-7.15364
▁hand	-7.15472
ma	-7.15519
▁j	-7.16491
▁may	-7.16827
▁world	-7.16841
▁je	-7.16989
▁ga	-7.17276
age	-7.17316
▁anything	-7.17559
▁thought	-7.17921
▁cl	-7.18054
▁sc	-7.18225
▁ti	-7.18823
▁show	-7.18866
▁em	-7.18953
less	-7.19243
▁still	-7.19988
▁turn	-7.20125
▁every	-7.20781
▁always	-7.20857
ill	-7.21045
▁put	-7.21346
▁gr	-7.22056
▁leave	-7.22357
▁mother	-7.22988
▁believe	-7.24651
▁sa	-7.24875
na	-7.25294
▁id	-7.25489
▁place	-7.25821
▁course	-7.26212
▁things	-7.27356
▁father	-7.27537
▁live	-7.28122
iv	-7.28269
▁hu	-7.28487
▁dear	-7.29365
▁kid	-7.29532
▁last	-7.29792
ive	-7.30489
▁care	-7.30926
▁part	-7.31267
▁start	-7.31519
▁en	-7.31735
▁rid	-7.32544
▁gra	-7.32616
▁kind	-7.33163
ful	-7.3383
▁hear	-7.34138
▁name	-7.3431
▁might	-7.34823
▁run	-7.34964
▁fly	-7.35097
▁whoa	-7.35267
ty	-7.36533
ness	-7.36794
mon	-7.36872
▁laugh	-7.37426
ment	-7.37929
▁nice	-7.37942
ist	-7.38335
ous	-7.38376
▁told	-7.39675
▁coming	-7.39701
ak	-7.40293
ten	-7.40401
▁isnt	-7.40552
▁head	-7.40869
▁minute	-7.41006
▁guy	-7.4105
ence	-7.4166
▁dis	-7.41764
ling	-7.41932
▁made	-7.4197
igh	-7.42232
▁king	-7.42386
▁bad	-7.42863
▁aint	-7.42952
▁morning	-7.42967
▁ask	-7.43059
▁col	-7.43131
▁play	-7.43798
man	-7.44281
▁sw	-7.44475
▁word	-7.4475
▁hold	-7.45219
▁mind	-7.45246
▁war	-7.45386
▁house	-7.45691
▁maybe	-7.4665
ough	-7.47047
▁bro	-7.47218
▁enough	-7.47675
▁three	-7.48106
▁another	-7.48574
ber	-7.49155
ted	-7.49256
▁bring	-7.49653
▁fine	-7.50895
▁done	-7.50952
▁everything	-7.51065
▁bea	-7.51098
▁wouldnt	-7.51117
▁vi	-7.51664
▁fl	-7.51826
▁huh	-7.51851
▁men	-7.51948
▁bra	-7.52271
ew	-7.52619
▁light	-7.52949
▁ooh	-7.53668
▁watch	-7.54149
if	-7.54576
▁listen	-7.54665
▁bit	-7.5473
▁children	-7.55181
ard	-7.55555
▁pre	-7.56131
▁remember	-7.56231
▁doesnt	-7.56231
▁left	-7.56765
ity	-7.56951
▁door	-7.57269
▁second	-7.57298
▁today	-7.57372
▁plan	-7.5739
▁hello	-7.57393
▁baby	-7.57851
▁best	-7.58337
▁understand	-7.58376
▁ya	-7.58583
▁heart	-7.58731
▁kill	-7.59265
ish	-7.59337
▁ju	-7.59393
▁lot	-7.5982
▁bird	-7.60592
▁hope	-7.61385
▁captain	-7.61682
▁ready	-7.61739
▁real	-7.62151
▁wrong	-7.62245
▁dream	-7.62252
▁ad	-7.62309
▁far	-7.64515
▁sl	-7.6453
ance	-7.64836
▁sit	-7.65315
▁scar	-7.65572
▁ow	-7.66119
▁shall	-7.66298
▁app	-7.66381
▁matter	-7.66874
▁land	-7.66902
▁comp	-7.67396
▁die	-7.6786
▁bar	-7.68129
▁late	-7.68191
ia	-7.68428
▁beautiful	-7.68641
▁pick	-7.68681
▁without	-7.69244
▁ja	-7.69259
▁move	-7.70261
▁eat	-7.70971
▁ik	-7.7113
▁came	-7.71209
▁i	-7.71229
▁eye	-7.72071
▁scarlett	-7.72311
▁seen	-7.72542
▁weve	-7.7349
▁dad	-7.73946
▁blu	-7.74248
port	-7.74268
▁goodbye	-7.74837
▁use	-7.75178
▁years	-7.75189
▁money	-7.75487
▁god	-7.76188
▁hard	-7.76194
▁ge	-7.76204
▁they	-7.76473
▁stand	-7.76638
▁next	-7.76774
▁looking	-7.77095
▁count	-7.77463
▁fire	-7.77746
ious	-7.77988
▁change	-7.78088
▁town	-7.7811
▁water	-7.79325
▁young	-7.79412
▁alone	-7.80114
▁set	-7.80394
ize	-7.80695
▁tomorrow	-7.80758
▁grow	-7.81102
▁high	-7.81463
ian	-7.82238
▁happen	-7.82303
▁true	-7.82382
▁yet	-7.82901
▁whi	-7.82977
▁close	-7.83539
▁road	-7.83932
▁bell	-7.84023
▁else	-7.84222
▁worry	-7.84915
▁idea	-7.85069
▁sta	-7.85529
▁happy	-7.87054
▁open	-7.87092
▁meet	-7.87474
▁many	-7.87729
▁suppose	-7.87778
▁beg	-7.87844
▁sea	-7.88337
▁qu	-7.88436
▁race	-7.88781
▁ze	-7.88985
▁mu	-7.89025
▁room	-7.8915
▁youd	-7.8925
▁horse	-7.89255
▁buzz	-7.89986
▁sleep	-7.89987
▁whole	-7.90006
▁cat	-7.91036
▁face	-7.91213
▁someone	-7.91482
▁hmm	-7.91502
▁brother	-7.91647
▁ball	-7.91663
▁fell	-7.91695
▁whos	-7.9237
▁hour	-7.92795
▁child	-7.93019
ank	-7.93033
▁dog	-7.93106
▁tonight	-7.93773
▁woman	-7.9378
▁walk	-7.93796
▁music	-7.93834
light	-7.94303
▁found	-7.94548
▁everyone	-7.94575
▁heard	-7.95076
ical	-7.95248
▁family	-7.95329
▁hurry	-7.95331
▁along	-7.95341
▁cause	-7.95381
▁wan	-7.95582
▁tw	-7.95846
▁job	-7.96133
ship	-7.96773
▁um	-7.96893
▁havent	-7.96915
▁human	-7.97034
▁dead	-7.97089
▁soon	-7.9728
▁business	-7.9771
▁clear	-7.97762
▁saw	-7.9778
▁poor	-7.97796
ward	-7.97864
▁rest	-7.98164
▁inter	-7.98184
▁star	-7.98843
▁princess	-7.99405
▁mom	-7.99452
▁christmas	-8.00149
ture	-8.00808
▁four	-8.01008
▁power	-8.01034
▁fun	-8.01242
▁speak	-8.01816
▁lady	-8.019
▁wish	-8.02223
▁together	-8.0265
▁fast	-8.03469
▁end	-8.03658
▁happened	-8.04127
▁pretty	-8.04354
▁arm	-8.04732
▁six	-8.0523
▁luck	-8.05237
▁guess	-8.06084
▁caesar	-8.06091
▁getting	-8.06494
▁cut	-8.06862
▁everybody	-8.0696
▁free	-8.07081
▁rome	-8.07089
▁year	-8.07361
▁lost	-8.07362
▁knew	-8.07855
▁bear	-8.0791
▁chance	-8.08207
▁sun	-8.0848
▁save	-8.08662
q	-8.08964
▁act	-8.09428
▁excuse	-8.09639
▁pass	-8.10424
▁chuckles	-8.10548
▁sign	-8.10583
▁afraid	-8.11465
▁trouble	-8.11465
▁promise	-8.11467
▁scream	-8.11468
▁flo	-8.13063
▁couldnt	-8.13426
▁boo	-8.1416
▁follow	-8.14269
▁jim	-8.14615
▁check	-8.15281
▁dat	-8.15771
▁gentlemen	-8.16183
▁safe	-8.16264
▁drive	-8.16586
▁forget	-8.17154
▁sound	-8.17164
▁hell	-8.17191
▁dan	-8.17502
day	-8.17624
▁whoo	-8.17672
▁quite	-8.18148
▁feet	-8.18206
▁break	-8.19128
▁point	-8.1918
▁story	-8.19191
▁cheer	-8.19407
▁mine	-8.20145
▁toto	-8.2035
que	-8.20529
▁till	-8.21076
▁nobody	-8.21135
▁wasnt	-8.22159
▁sighs	-8.22235
▁arent	-8.22248
▁een	-8.2252
▁anyone	-8.23186
▁fool	-8.23226
▁arr	-8.24206
▁daughter	-8.24228
▁quick	-8.24233
▁wild	-8.24268
▁hurt	-8.24268
▁lead	-8.24288
▁picture	-8.25282
▁ashley	-8.26344
▁leg	-8.26665
▁ease	-8.27466
▁gold	-8.27611
▁marry	-8.27815
▁perhaps	-8.28506
▁blood	-8.28507
▁learn	-8.2851
▁sweet	-8.28524
▁wow	-8.2925
▁rock	-8.29335
▁certain	-8.29605
▁problem	-8.29605
▁fight	-8.29626
▁five	-8.297
▁fall	-8.2994
▁book	-8.30229
▁nu	-8.30446
▁black	-8.30726
▁expect	-8.3184
▁school	-8.3184
▁inside	-8.31842
▁moment	-8.32644
▁already	-8.32976
▁number	-8.32977
▁ahead	-8.32987
▁dance	-8.33642
▁spirit	-8.34132
▁read	-8.34162
▁ni	-8.34167
▁week	-8.34177
▁special	-8.35289
▁crazy	-8.35289
▁order	-8.35298
▁hachi	-8.35325
▁ago	-8.3559
▁mike	-8.36223
▁return	-8.36466
▁ponyo	-8.36467
▁quiet	-8.36472
▁earth	-8.36474
▁wheres	-8.36481
▁touch	-8.36482
▁half	-8.36486
▁since	-8.36511
▁niet	-8.36688
▁finish	-8.37663
▁gasps	-8.37664
▁throw	-8.37668
▁easy	-8.37679
▁taking	-8.37716
▁catch	-8.38309
▁yo	-8.38839
▁cub	-8.38924
▁pull	-8.38964
▁city	-8.39568
▁important	-8.40082
▁darling	-8.40082
▁price	-8.40096
▁took	-8.40123
▁wonderful	-8.40145
▁trust	-8.40367
▁fish	-8.41056
▁hate	-8.41092
▁wonder	-8.41252
▁almost	-8.41315
▁kiki	-8.41315
▁strange	-8.41317
▁danger	-8.4133
▁sister	-8.41357
▁miles	-8.41475
▁behind	-8.42565
▁stuff	-8.42571
▁month	-8.42586
▁glad	-8.42605
▁control	-8.43831
▁master	-8.43976
▁side	-8.44063
▁white	-8.44346
▁alive	-8.45503
▁somebody	-8.46411
▁rhett	-8.46411
▁command	-8.46412
▁food	-8.46453
▁peter	-8.4658
▁welcome	-8.47727
▁street	-8.47736
▁joel	-8.47737
▁shoot	-8.47774
▁death	-8.4778
▁full	-8.48022
▁small	-8.49072
way	-8.49225
▁tree	-8.49397
▁surprise	-8.50412
▁honor	-8.5047
▁lose	-8.50841
▁perfect	-8.51781
▁heaven	-8.51782
▁honey	-8.51808
nder	-8.52039
qua	-8.52337
▁taylor	-8.5317
▁front	-8.53172
▁careful	-8.53407
▁maria	-8.53452
▁drop	-8.53604
▁grand	-8.53765
▁drink	-8.54596
▁making	-8.54669
▁burn	-8.54697
▁continue	-8.56007
▁different	-8.56007
▁dinner	-8.56008
▁message	-8.56009
▁reason	-8.56018
▁dress	-8.56097
▁heres	-8.56204
▁game	-8.56223
▁blow	-8.57475
▁fact	-8.57536
øùù	-8.58927
▁person	-8.58945
▁dark	-8.5895
▁stick	-8.58972
▁lord	-8.59115
spect	-8.59158
▁aye	-8.59655
▁mcqueen	-8.6042
▁daphne	-8.6042
▁houston	-8.6042
▁voice	-8.60421
▁engine	-8.60421
▁least	-8.60424
▁fix	-8.60436
▁bye	-8.61005
▁actually	-8.61935
▁exactly	-8.61935
▁become	-8.61935
▁sosuke	-8.61935
▁teach	-8.61962
▁train	-8.61979
▁anybody	-8.63473
▁apollo	-8.63473
▁answer	-8.63473
▁yell	-8.63484
▁witch	-8.63494
▁funny	-8.63499
▁flik	-8.63502
▁running	-8.63538
▁magic	-8.63549
▁aunt	-8.63565
▁shell	-8.63614
▁step	-8.63817
▁probably	-8.65036
▁jij	-8.6504
▁georg	-8.65104
▁truth	-8.65191
▁secret	-8.66623
▁straight	-8.66623
▁ghost	-8.66623
▁brought	-8.68236
▁office	-8.68238
▁million	-8.68239
▁roger	-8.68297
▁short	-8.68494
▁fear	-8.68539
▁sort	-8.70401
time	-8.70678
down	-8.71462
▁forgot	-8.71542
▁ramona	-8.7155
▁present	-8.7158
▁tru	-8.72399
▁ùù	-8.73245
▁wife	-8.73262
▁spell	-8.73326
▁kiss	-8.73367
▁grunts	-8.74962
▁stupid	-8.74963
▁round	-8.74988
▁upon	-8.7499
▁snow	-8.75051
▁mmm	-8.75108
▁rule	-8.75435
▁mountain	-8.76715
▁scrooge	-8.76715
▁forgive	-8.76715
▁whatever	-8.76717
▁except	-8.76717
▁phone	-8.76719
▁ladies	-8.76733
▁foot	-8.76828
▁sick	-8.76879
▁professor	-8.78501
▁alright	-8.78501
▁heighho	-8.78501
▁bloom	-8.78501
▁charlie	-8.78502
▁question	-8.78502
▁velma	-8.78503
▁track	-8.78522
▁belong	-8.8032
▁woody	-8.8032
▁monster	-8.80323
▁smell	-8.80323
▁trans	-8.80325
▁anyway	-8.82171
▁jonah	-8.82171
▁chicken	-8.82171
▁buddy	-8.82174
▁fault	-8.82186
▁papa	-8.82401
▁paper	-8.82445
▁possible	-8.84058
▁shouldnt	-8.84058
▁eliza	-8.84058
▁forever	-8.84059
▁strong	-8.84062
▁future	-8.84066
▁complete	-8.84081
▁explain	-8.85981
▁doctor	-8.85982
▁kenai	-8.85982
▁peace	-8.85983
▁merry	-8.85996
▁married	-8.86006
▁daddy	-8.86037
▁clean	-8.86041
▁higgins	-8.87942
▁breath	-8.87942
▁butler	-8.87944
▁direct	-8.87949
▁billy	-8.87995
▁egg	-8.87995
▁living	-8.88021
▁suitcase	-8.89942
▁uhhuh	-8.89942
▁penny	-8.89944
▁agree	-8.89959
▁serious	-8.89964
▁outside	-8.91983
▁enjoy	-8.91983
▁hannah	-8.91983
▁inform	-8.91983
▁jacob	-8.91983
▁mistake	-8.91983
▁travel	-8.91983
▁folks	-8.91984
▁deliver	-8.91988
▁seven	-8.91991
▁worth	-8.91999
▁space	-8.92004
▁treat	-8.92018
▁join	-8.92035
▁finally	-8.94066
▁protect	-8.94068
▁machine	-8.94068
▁gift	-8.9409
▁queen	-8.94106
▁sometimes	-8.96194
▁simple	-8.96194
▁entire	-8.96197
▁outta	-8.96198
▁beside	-8.96199
▁madam	-8.96239
▁mornin	-8.97793
▁somewhere	-8.98368
▁ground	-8.98368
▁absolutely	-9.0059
▁clothes	-9.0059
▁leaving	-9.0059
▁system	-9.0059
▁judah	-9.0059
▁john	-9.0059
▁yankee	-9.0059
▁hungry	-9.00591
▁sulley	-9.00592
▁charles	-9.00594
▁jewel	-9.00597
▁pardon	-9.006
▁church	-9.00606
▁wiz	-9.00626
▁dirt	-9.00887
▁attention	-9.02863
▁field	-9.02864
▁smile	-9.02868
▁devil	-9.02886
▁pride	-9.02886
▁courage	-9.05192
▁launch	-9.05198
▁forest	-9.05213
▁pound	-9.05215
▁wendy	-9.05215
▁crowd	-9.0522
ndistinct	-9.07569
▁anymore	-9.07569
▁double	-9.07569
▁simba	-9.0757
▁level	-9.07572
▁jungle	-9.07572
▁prepare	-9.07581
▁search	-9.07582
▁bread	-9.07583
▁matty	-9.076
▁flower	-9.07603
▁south	-9.07741
▁nothin	-9.09445
▁mmhmm	-9.10008
▁position	-9.10009
▁london	-9.10009
▁figure	-9.10011
▁offer	-9.10029
board	-9.10855
▁husband	-9.12508
▁escape	-9.12508
▁wilkes	-9.12509
▁record	-9.1251
▁prince	-9.14832
▁hospital	-9.15072
▁sheriff	-9.15073
▁thousand	-9.15073
▁squeak	-9.15073
▁chaney	-9.15074
▁police	-9.15076
▁piece	-9.1509
▁either	-9.1509
▁craig	-9.15095
▁melanie	-9.17704
▁merlin	-9.17705
▁groans	-9.17705
▁thunder	-9.17706
▁notice	-9.17717
▁worse	-9.17719
▁afternoon	-9.20406
▁difficult	-9.20406
▁favorite	-9.20406
▁malcolm	-9.20406
▁history	-9.20407
▁village	-9.20409
▁idiot	-9.20412
ipped	-9.20494
▁gentleman	-9.23184
▁kuzco	-9.23184
▁destroy	-9.23184
▁worried	-9.23185
▁beyond	-9.23185
▁caught	-9.26041
▁public	-9.26041
▁emperor	-9.26042
▁battle	-9.26044
▁birthday	-9.28983
▁english	-9.28983
▁majesty	-9.28983
▁motorcycle	-9.28983
▁randall	-9.28983
▁animal	-9.28983
▁bright	-9.28983
▁consider	-9.28984
▁middle	-9.28984
▁marvelous	-9.32013
ø	-10.2754
