<unk>	0
<s>	0
</s>	0
s	-4.16329
▁im	-4.44945
▁dont	-4.50147
▁know	-4.68875
▁oh	-4.71012
▁get	-4.71605
▁go	-4.73876
▁right	-4.79752
▁come	-4.80046
▁well	-4.90574
▁like	-4.9394
▁got	-4.94565
▁youre	-5.01169
▁yeah	-5.07102
▁thats	-5.07263
▁one	-5.13078
▁good	-5.16555
▁na	-5.28836
▁see	-5.30685
▁okay	-5.32233
▁hey	-5.32442
▁yes	-5.36236
▁think	-5.3753
▁look	-5.44332
▁back	-5.45196
▁want	-5.47176
ing	-5.51278
▁gon	-5.51613
▁going	-5.52386
▁hes	-5.5618
▁us	-5.56786
▁time	-5.57705
▁cant	-5.61462
▁ill	-5.63493
▁man	-5.65431
▁take	-5.66241
▁really	-5.76022
▁lets	-5.7665
▁say	-5.81704
▁could	-5.82042
▁way	-5.83106
▁little	-5.86345
▁never	-5.88331
▁something	-5.89415
▁mr	-5.91682
▁would	-5.93224
▁tell	-5.939
ed	-5.9727
▁need	-5.9938
▁thank	-6.00917
▁make	-6.01278
▁mean	-6.03703
▁please	-6.05017
▁sorry	-6.05936
▁whats	-6.06722
▁love	-6.07269
▁ive	-6.07374
▁give	-6.07533
▁let	-6.0946
▁didnt	-6.10725
▁wait	-6.11976
▁theres	-6.13199
▁	-6.13838
▁sir	-6.16073
▁thing	-6.23101
▁two	-6.24131
▁l	-6.28743
▁day	-6.30535
▁great	-6.32314
▁sure	-6.32605
▁said	-6.32998
▁help	-6.33331
▁much	-6.34722
▁theyre	-6.3589
▁must	-6.40214
▁stop	-6.40681
▁home	-6.42237
▁first	-6.42251
▁guys	-6.43437
y	-6.44532
d	-6.44575
▁dad	-6.46711
▁even	-6.46946
▁nothing	-6.48046
▁work	-6.48418
▁people	-6.48555
▁uh	-6.48691
▁night	-6.49303
▁find	-6.49607
▁life	-6.52172
▁big	-6.52439
▁maybe	-6.52797
▁better	-6.53144
▁away	-6.53673
▁new	-6.54492
▁still	-6.55973
▁thought	-6.5603
▁ever	-6.56176
▁anything	-6.56332
▁put	-6.58695
▁boy	-6.58902
▁keep	-6.59378
▁listen	-6.59599
▁hi	-6.60375
▁around	-6.60561
▁shes	-6.61329
▁god	-6.62418
▁nice	-6.63499
▁old	-6.66064
▁believe	-6.66078
▁call	-6.66659
▁always	-6.66958
▁id	-6.69043
▁place	-6.70667
▁youve	-6.70837
▁baby	-6.7131
▁name	-6.71963
▁last	-6.72037
▁three	-6.72087
▁everything	-6.73417
▁talk	-6.7365
▁things	-6.74531
▁hello	-6.74694
▁father	-6.75466
▁play	-6.75687
▁wont	-6.76179
▁feel	-6.76273
▁years	-6.77031
▁whoa	-6.79299
▁youll	-6.79302
▁every	-6.80174
▁ta	-6.80536
▁long	-6.80602
▁world	-6.8085
▁fine	-6.8146
▁kind	-6.81474
▁doesnt	-6.82057
▁isnt	-6.82057
▁thanks	-6.83283
ly	-6.83623
▁stay	-6.83819
▁mom	-6.85116
▁bad	-6.85747
▁coming	-6.86345
▁miss	-6.8719
▁told	-6.87561
▁huh	-6.87807
▁ready	-6.87872
▁hold	-6.89224
▁remember	-6.92348
▁hell	-6.92451
▁enough	-6.92865
▁may	-6.93085
▁course	-6.93386
▁house	-6.94673
▁made	-6.94719
▁guy	-6.95618
▁lot	-6.95637
▁wrong	-6.9576
▁morning	-6.96027
▁try	-6.96141
▁hear	-6.96651
▁leave	-6.97002
▁done	-6.97108
e	-6.97878
▁kids	-6.98232
▁best	-6.99022
▁girl	-6.99482
▁wan	-7.00641
▁might	-7.00686
▁mind	-7.01382
▁show	-7.01542
▁understand	-7.02831
▁real	-7.03403
▁move	-7.0364
▁today	-7.0411
▁left	-7.04603
▁talking	-7.0553
▁run	-7.07049
▁mother	-7.07391
▁next	-7.07956
▁job	-7.10514
▁weve	-7.12273
▁game	-7.13346
▁another	-7.13858
▁school	-7.14354
▁watch	-7.1543
▁son	-7.1635
▁jack	-7.1635
▁excuse	-7.16452
▁car	-7.16646
▁tonight	-7.17111
▁honey	-7.18778
▁money	-7.19115
▁guess	-7.20045
▁ok	-7.20056
▁everybody	-7.20132
▁family	-7.20473
▁coach	-7.21037
▁minute	-7.21058
▁getting	-7.21256
▁looking	-7.22468
▁happened	-7.22697
▁care	-7.22967
▁room	-7.2319
▁woman	-7.23247
er	-7.23373
▁george	-7.24661
▁pretty	-7.24662
▁came	-7.25042
▁together	-7.25737
▁found	-7.26087
▁tomorrow	-7.26098
▁wouldnt	-7.2688
▁trying	-7.27367
▁seen	-7.27905
▁meet	-7.27946
▁live	-7.28191
▁saw	-7.28663
▁aint	-7.28665
▁use	-7.28702
▁team	-7.28757
▁dear	-7.29008
▁wanted	-7.29467
▁hope	-7.2963
▁whole	-7.30158
▁heard	-7.30378
▁second	-7.30447
▁ask	-7.30986
▁ah	-7.3143
▁bring	-7.31741
▁without	-7.33606
▁dead	-7.3387
▁knew	-7.33997
▁yet	-7.34339
▁wasnt	-7.34782
▁turn	-7.35318
▁boys	-7.36767
▁whos	-7.37113
▁start	-7.37343
▁idea	-7.37708
▁else	-7.37783
▁easy	-7.37991
▁head	-7.3913
▁win	-7.41023
▁door	-7.41112
▁matter	-7.41245
▁open	-7.41284
▁worry	-7.42153
▁many	-7.42215
▁lost	-7.4258
▁late	-7.42854
▁looks	-7.43748
▁em	-7.44359
▁friends	-7.44443
▁hard	-7.44528
▁water	-7.44581
▁since	-7.44712
▁playing	-7.45524
▁havent	-7.45604
▁alone	-7.45605
▁true	-7.45616
▁friend	-7.46222
▁crazy	-7.4649
▁happy	-7.46932
▁cause	-7.47217
▁face	-7.47396
▁kill	-7.47432
▁children	-7.47827
▁five	-7.47837
▁end	-7.47945
▁music	-7.48276
▁eat	-7.48657
▁shall	-7.49181
▁everyone	-7.50017
▁sit	-7.51593
▁afraid	-7.51955
▁kid	-7.52364
▁beautiful	-7.52778
▁welcome	-7.52896
▁used	-7.52986
▁actually	-7.53377
▁king	-7.53399
▁called	-7.53492
▁wow	-7.53848
▁lucky	-7.5394
▁gone	-7.54021
▁fun	-7.54609
▁brother	-7.55262
▁laughing	-7.55433
▁says	-7.55829
▁set	-7.56214
▁hand	-7.56649
▁men	-7.56987
▁fight	-7.57223
▁already	-7.57245
▁went	-7.57247
▁stuff	-7.57477
▁ha	-7.57567
▁business	-7.57719
▁hit	-7.57824
▁someone	-7.58258
▁far	-7.58429
▁four	-7.58734
▁took	-7.58738
▁forget	-7.59233
▁somebody	-7.5924
▁break	-7.59857
▁hands	-7.60833
▁dream	-7.61287
▁charlie	-7.61791
▁year	-7.61871
▁cool	-7.62234
▁quite	-7.62352
▁couldnt	-7.62399
▁chance	-7.62922
▁days	-7.63649
▁change	-7.63826
▁dance	-7.63838
▁problem	-7.63985
▁word	-7.63994
▁eyes	-7.64086
▁lm	-7.6434
▁number	-7.6477
es	-7.6495
n	-7.65547
▁power	-7.6561
▁close	-7.65803
o	-7.65936
▁youd	-7.67106
▁hurt	-7.67396
▁hmm	-7.68205
▁fire	-7.68207
▁stand	-7.68524
▁young	-7.68643
▁mary	-7.68758
▁supposed	-7.68824
▁side	-7.68946
▁check	-7.69817
▁anyone	-7.6986
a	-7.69889
ve	-7.70218
▁exactly	-7.70998
▁high	-7.71369
▁heart	-7.71504
▁part	-7.71614
▁wish	-7.71817
▁probably	-7.72126
▁arent	-7.72126
▁hurry	-7.7213
▁happen	-7.72257
▁save	-7.73138
▁shut	-7.73277
▁nobody	-7.7328
▁free	-7.7328
▁inside	-7.73281
al	-7.73303
▁saying	-7.73656
▁walk	-7.73672
▁plan	-7.74031
▁minutes	-7.74033
▁ball	-7.74129
▁anyway	-7.74132
▁pick	-7.7418
▁red	-7.75233
▁read	-7.75345
▁thinking	-7.75757
▁bit	-7.75823
▁blue	-7.75941
▁wants	-7.77377
▁later	-7.77502
▁ago	-7.78035
▁working	-7.78268
▁special	-7.78622
▁wife	-7.78644
▁almost	-7.79251
▁taking	-7.7926
▁mine	-7.79261
▁pay	-7.79454
▁wheres	-7.79564
▁perfect	-7.79731
▁six	-7.7986
▁cut	-7.80101
▁ahead	-7.80491
▁funny	-7.80494
▁sighs	-7.80504
▁sleep	-7.80668
▁trouble	-7.80687
▁soon	-7.81046
▁whatever	-7.81114
▁rest	-7.81184
▁die	-7.81665
▁goes	-7.82847
▁fast	-7.829
▁goodbye	-7.83013
▁city	-7.83024
▁ybi	-7.83234
▁hate	-7.83337
▁line	-7.83617
▁least	-7.83657
▁um	-7.83676
▁different	-7.84178
▁lose	-7.86703
▁fly	-7.87104
▁though	-7.87552
▁heres	-7.87693
▁dog	-7.88221
▁half	-7.8825
▁bye	-7.88262
▁smurf	-7.88633
▁gave	-7.88943
▁party	-7.88975
▁john	-7.8961
▁parents	-7.89714
▁un	-7.90065
▁hang	-7.90444
▁food	-7.90821
▁fred	-7.90999
▁anybody	-7.91685
▁lady	-7.91708
▁gasps	-7.91839
▁joe	-7.92198
▁moment	-7.92312
▁married	-7.92387
▁point	-7.92597
▁girls	-7.9261
▁hair	-7.92835
▁week	-7.93019
▁light	-7.93094
▁deal	-7.93203
▁phone	-7.93535
▁ladies	-7.93801
▁damn	-7.94247
▁safe	-7.94359
▁front	-7.94512
▁feet	-7.94515
▁daddy	-7.95187
▁ride	-7.9588
▁running	-7.95962
▁comes	-7.96259
▁important	-7.96565
▁earth	-7.96571
▁means	-7.97207
▁making	-7.97426
▁chuckles	-7.9746
▁clear	-7.98123
▁dinner	-7.98157
▁telling	-7.9825
▁times	-7.98545
▁quick	-7.98724
▁bed	-7.9888
▁trust	-7.98905
▁hot	-7.98995
▁pull	-7.98998
▁follow	-7.99
▁full	-7.99494
▁town	-7.99626
▁theyll	-7.99666
▁lord	-7.99673
▁horse	-7.9969
r	-8.00289
▁sweet	-8.0036
▁waiting	-8.00761
▁step	-8.00785
i	-8.01731
▁behind	-8.0195
▁story	-8.01964
▁laughs	-8.02038
▁field	-8.02399
▁started	-8.02436
▁hours	-8.02452
▁gentlemen	-8.02726
▁body	-8.02779
▁speak	-8.03085
▁wonderful	-8.03536
▁shot	-8.03604
▁also	-8.04294
▁makes	-8.04326
▁throw	-8.04376
▁question	-8.04717
▁catch	-8.04981
▁careful	-8.04999
▁space	-8.05154
▁kidding	-8.06696
▁sometimes	-8.06995
▁luck	-8.07355
▁child	-8.07507
▁along	-8.07509
▁perhaps	-8.08327
t	-8.08547
▁bear	-8.09096
▁stupid	-8.09138
▁war	-8.09403
▁grand	-8.09872
▁country	-8.09994
▁general	-8.10151
▁daughter	-8.10165
▁top	-8.10634
▁till	-8.10838
▁asked	-8.11387
▁weird	-8.11537
▁ooh	-8.1157
▁mama	-8.11679
▁ship	-8.11897
▁banks	-8.12227
▁beat	-8.12485
▁scared	-8.12594
▁rock	-8.12718
▁news	-8.12786
l	-8.13038
▁continues	-8.13058
▁send	-8.13157
▁strong	-8.13286
▁drive	-8.13321
ie	-8.13385
▁harry	-8.13594
▁book	-8.13608
in	-8.13676
▁land	-8.13886
▁couple	-8.14262
▁christmas	-8.14262
▁finally	-8.14293
▁promise	-8.14321
▁met	-8.14699
▁drink	-8.14848
▁shoot	-8.1491
▁glad	-8.15123
▁grunts	-8.15212
▁sound	-8.15627
▁anymore	-8.16024
▁air	-8.16231
▁ow	-8.16305
▁s	-8.16621
▁straight	-8.16808
▁th	-8.16891
▁moving	-8.16917
▁ice	-8.16925
▁captain	-8.17179
▁human	-8.17218
▁hour	-8.17243
▁ya	-8.17269
▁order	-8.17429
▁either	-8.17817
▁radio	-8.17818
▁ernie	-8.17819
▁screaming	-8.17874
▁sister	-8.18145
▁killed	-8.18325
▁outside	-8.19646
▁white	-8.19689
est	-8.19981
▁ducks	-8.20167
▁death	-8.20571
▁cheering	-8.207
▁dr	-8.20889
▁song	-8.20986
▁camp	-8.21462
▁tried	-8.21506
▁football	-8.21507
▁learn	-8.21749
▁small	-8.22373
▁alive	-8.22459
▁answer	-8.22587
▁knows	-8.22933
▁bet	-8.23182
▁serious	-8.23292
▁super	-8.2338
▁itll	-8.23401
▁kiss	-8.23635
▁pass	-8.23751
▁wake	-8.23779
▁wonder	-8.2407
▁crowd	-8.24089
▁black	-8.24358
▁touch	-8.24426
▁seems	-8.24677
▁sounds	-8.25014
▁women	-8.25332
▁somewhere	-8.25332
▁brought	-8.25332
▁forever	-8.25332
▁person	-8.25485
▁lead	-8.25787
▁piece	-8.25813
▁ones	-8.25861
▁scott	-8.26284
▁proud	-8.27303
▁amazing	-8.27306
▁feeling	-8.27598
▁fact	-8.27753
▁reason	-8.27782
▁english	-8.28272
▁buddy	-8.28307
▁star	-8.28958
▁north	-8.29317
▁buy	-8.29776
▁happens	-8.29901
▁darling	-8.30335
▁blow	-8.30578
▁ring	-8.30706
▁magic	-8.30885
▁whoo	-8.31071
able	-8.31166
▁b	-8.31167
▁lovely	-8.31329
▁class	-8.31332
▁absolutely	-8.31375
▁sort	-8.31882
▁wed	-8.32425
▁jump	-8.32791
▁case	-8.32842
▁queen	-8.32979
▁sign	-8.33063
▁sea	-8.33072
▁ten	-8.33212
▁fair	-8.33358
▁maam	-8.33459
▁living	-8.33463
▁clean	-8.33733
▁eye	-8.34172
▁control	-8.34299
▁road	-8.34522
▁kelly	-8.34527
▁poor	-8.34527
▁race	-8.34527
▁needs	-8.34746
▁fish	-8.34822
▁husband	-8.3517
▁president	-8.36251
▁grandma	-8.36266
▁office	-8.36641
▁fault	-8.36684
▁princess	-8.36699
▁seven	-8.36737
▁figure	-8.37198
▁round	-8.37364
▁papa	-8.37784
▁groans	-8.37809
▁short	-8.38379
▁hall	-8.38765
▁york	-8.38895
▁dangerous	-8.389
▁stick	-8.39038
▁smurfs	-8.39108
▁g	-8.39357
▁island	-8.396
▁eight	-8.40008
▁mario	-8.40153
▁cute	-8.40156
▁seem	-8.40255
▁loved	-8.40513
▁secret	-8.40649
▁c	-8.40696
▁become	-8.40764
▁street	-8.40786
▁theyve	-8.41172
▁grunting	-8.4118
▁sing	-8.41884
▁spend	-8.41893
▁lts	-8.41918
▁suppose	-8.42147
▁police	-8.42282
▁dreams	-8.42438
▁fall	-8.42725
▁report	-8.42896
▁past	-8.43074
▁f	-8.43111
▁quit	-8.4335
▁sense	-8.43439
▁marshall	-8.4347
▁bob	-8.43473
▁wear	-8.4367
▁join	-8.43933
▁evening	-8.4398
▁deep	-8.44432
▁cat	-8.44479
▁uncle	-8.44495
▁fear	-8.44528
▁tough	-8.44563
▁train	-8.4462
▁lives	-8.44647
▁sent	-8.44652
▁la	-8.44653
▁weeks	-8.4476
▁cover	-8.45241
▁write	-8.4531
▁surprise	-8.4535
▁months	-8.45351
▁boat	-8.4554
▁quiet	-8.45721
▁cold	-8.45763
▁outta	-8.45836
▁sick	-8.45836
▁lunch	-8.45857
▁able	-8.46107
▁a	-8.46236
▁smell	-8.46493
▁voice	-8.46729
ies	-8.46931
ll	-8.47008
▁calling	-8.47033
▁georgie	-8.47039
▁gets	-8.47611
▁buzz	-8.4772
▁marry	-8.47848
▁juli	-8.48073
ion	-8.48193
▁hows	-8.48258
▁felt	-8.48258
▁shouldnt	-8.48265
▁vince	-8.48267
▁state	-8.48291
▁park	-8.48385
▁simple	-8.48907
▁happening	-8.49115
us	-8.49247
▁leaving	-8.49494
▁worse	-8.49494
▁shit	-8.49513
on	-8.49661
▁gun	-8.49742
▁summer	-8.50406
▁handle	-8.50652
▁mmm	-8.50732
▁hungry	-8.50744
▁wild	-8.50744
▁nose	-8.50751
▁possible	-8.52008
▁rather	-8.52009
man	-8.52386
▁p	-8.52457
▁slow	-8.52706
▁age	-8.52991
▁re	-8.5329
▁future	-8.53291
▁count	-8.53301
ers	-8.5338
ar	-8.53394
▁mess	-8.53703
▁finish	-8.53841
▁taken	-8.54164
▁drop	-8.54359
▁michael	-8.54381
▁soul	-8.54391
▁bryce	-8.5459
▁college	-8.54594
▁smurfette	-8.54594
▁strange	-8.54601
▁died	-8.55025
▁dark	-8.55787
▁truth	-8.55905
▁van	-8.56071
▁laugh	-8.56379
▁fix	-8.56461
▁teach	-8.56742
▁quack	-8.56784
▁words	-8.56976
▁worth	-8.57058
▁tree	-8.57087
▁entire	-8.57129
▁kay	-8.57242
▁giving	-8.57243
▁tired	-8.57247
▁terrible	-8.57258
▁hut	-8.57271
▁busy	-8.57383
or	-8.5752
▁act	-8.57536
▁speaking	-8.57926
▁mouth	-8.57949
▁known	-8.58269
▁sun	-8.58407
▁w	-8.58485
▁forgive	-8.58521
▁mission	-8.58559
▁clumsy	-8.58589
▁paddington	-8.58589
▁attention	-8.5859
▁third	-8.58591
▁less	-8.58646
▁meeting	-8.58703
▁worked	-8.59282
▁favorite	-8.59749
▁mad	-8.59775
▁eating	-8.59807
▁bird	-8.59813
▁officer	-8.59859
▁stuck	-8.5996
▁josh	-8.5996
▁richard	-8.59962
▁aah	-8.59993
▁early	-8.6001
▁standing	-8.60972
▁nine	-8.61111
▁grab	-8.61192
▁brown	-8.61195
▁doctor	-8.61234
▁london	-8.61348
▁low	-8.61394
▁army	-8.6146
▁longer	-8.61781
▁dress	-8.6202
▁return	-8.62501
▁moon	-8.62555
▁window	-8.62668
▁spot	-8.62749
▁forgot	-8.62755
▁definitely	-8.62759
▁popper	-8.62761
▁upon	-8.62763
▁trip	-8.62836
▁changed	-8.63183
▁fool	-8.63403
▁bill	-8.63922
▁present	-8.6394
▁smart	-8.64075
▁m	-8.64101
▁grinch	-8.64185
▁gerry	-8.6419
▁calm	-8.64192
▁unless	-8.64211
▁broken	-8.64217
▁honor	-8.64905
▁expect	-8.64968
▁ground	-8.6537
▁shell	-8.65405
▁bus	-8.65484
▁box	-8.65509
▁awesome	-8.65635
▁jacques	-8.65635
▁boss	-8.65653
▁completely	-8.65704
▁asking	-8.65713
▁faster	-8.65797
▁hiro	-8.66009
▁push	-8.66217
▁flying	-8.66518
▁imagine	-8.66937
▁blood	-8.66951
▁tight	-8.67018
▁born	-8.671
▁afternoon	-8.67105
▁pleasure	-8.67107
▁hide	-8.67134
▁hed	-8.67316
▁meant	-8.67537
▁de	-8.67669
▁kick	-8.67751
▁given	-8.67766
▁eric	-8.68516
▁french	-8.68577
▁dorothy	-8.68598
▁others	-8.68598
▁key	-8.6866
le	-8.68679
▁machine	-8.68689
ic	-8.68898
▁attack	-8.69411
▁except	-8.7009
▁fantastic	-8.70113
▁middle	-8.70113
▁doubt	-8.70118
▁foot	-8.70132
▁incredible	-8.70137
▁share	-8.70158
▁gosh	-8.70357
▁i	-8.70433
▁wash	-8.70874
▁legs	-8.70919
st	-8.71
▁turned	-8.71085
▁seconds	-8.71503
▁master	-8.71574
▁steve	-8.71584
▁ben	-8.71587
▁accident	-8.71596
▁baymax	-8.71651
▁lucas	-8.71651
▁caught	-8.71651
▁mommy	-8.71665
▁none	-8.71679
▁monster	-8.71693
▁t	-8.71844
▁suit	-8.71864
▁watching	-8.7201
up	-8.7221
▁miles	-8.72304
▁wind	-8.72506
▁bell	-8.72792
▁rules	-8.72821
▁carry	-8.72857
▁relax	-8.72923
▁mike	-8.73052
▁date	-8.73053
▁match	-8.73147
▁company	-8.73214
▁arthur	-8.73214
▁works	-8.73289
▁brothers	-8.73299
g	-8.74203
▁anywhere	-8.74801
▁kept	-8.74802
▁tv	-8.74804
▁bag	-8.74832
▁station	-8.74834
▁system	-8.74878
▁jim	-8.75056
▁takes	-8.75303
▁sell	-8.76027
▁pain	-8.76028
▁hero	-8.76342
▁prince	-8.76389
▁defense	-8.76414
▁pardon	-8.76414
▁davis	-8.7642
▁congratulations	-8.76428
▁missed	-8.7646
▁wedding	-8.76464
▁tall	-8.76485
▁commander	-8.76512
▁lie	-8.76754
h	-8.76839
▁wearing	-8.7697
▁singing	-8.76984
ment	-8.77097
▁roll	-8.77137
▁explain	-8.77849
▁an	-8.77944
▁frank	-8.77946
▁hasnt	-8.78058
▁yesterday	-8.7806
▁walter	-8.78107
▁sword	-8.78131
▁dude	-8.7818
▁million	-8.78182
nt	-8.78224
▁grow	-8.79
▁enjoy	-8.79032
▁test	-8.79241
▁build	-8.79317
▁fat	-8.79497
▁neither	-8.7972
▁marina	-8.79726
▁champion	-8.79904
▁animal	-8.7991
▁played	-8.79972
▁american	-8.79986
▁building	-8.80256
▁bomb	-8.81016
▁hotel	-8.81433
▁ray	-8.81454
▁certainly	-8.81489
▁spell	-8.81549
▁choice	-8.81564
▁table	-8.81626
▁ass	-8.81691
▁greatest	-8.81748
▁saved	-8.81885
▁worried	-8.83139
▁goldberg	-8.83139
▁jesus	-8.83141
▁stoker	-8.83144
▁bunch	-8.83145
▁forward	-8.83145
▁loves	-8.83151
▁jane	-8.8319
▁totally	-8.83197
▁club	-8.8335
▁picture	-8.8341
▁screams	-8.83549
▁protect	-8.84117
▁art	-8.84374
▁named	-8.84607
▁questions	-8.84659
▁names	-8.84817
▁sweetheart	-8.84894
▁evil	-8.84895
▁breakfast	-8.84896
▁mmhmm	-8.84896
▁sitting	-8.84927
▁horn	-8.85039
▁mistake	-8.85098
▁cake	-8.85141
▁besides	-8.85149
▁learned	-8.85369
▁law	-8.85641
▁al	-8.85806
▁knock	-8.86152
▁board	-8.86313
▁dads	-8.86456
▁double	-8.86517
▁extra	-8.86523
▁belong	-8.86679
▁across	-8.86679
▁rayburn	-8.8668
▁birthday	-8.8668
▁terrific	-8.8668
▁yall	-8.86721
▁charge	-8.86804
▁service	-8.86923
▁william	-8.86962
▁hat	-8.87681
▁personal	-8.88082
▁bar	-8.88288
▁corner	-8.88436
▁meat	-8.88497
▁alliance	-8.88498
▁history	-8.88501
▁yep	-8.88503
▁nando	-8.88516
▁single	-8.88531
▁interesting	-8.88659
▁in	-8.88718
▁locked	-8.88732
▁spirit	-8.88785
▁rocky	-8.88834
▁stone	-8.88838
re	-8.88931
▁rich	-8.88999
▁be	-8.89365
▁ho	-8.89464
▁south	-8.89635
▁card	-8.89737
▁fighting	-8.89995
▁respect	-8.90006
▁nervous	-8.90228
▁horses	-8.90279
▁fell	-8.90301
▁gargamel	-8.90349
▁spanish	-8.90349
▁holy	-8.90472
▁chattering	-8.90497
▁river	-8.90574
▁promised	-8.90689
▁chicken	-8.9072
▁looked	-8.90808
▁destroy	-8.91716
▁speed	-8.91798
▁offer	-8.91867
▁near	-8.92042
▁steal	-8.92231
▁napoleon	-8.92236
▁somehow	-8.92236
▁werent	-8.92236
▁goddamn	-8.92237
▁clothes	-8.92241
▁message	-8.92256
▁tea	-8.92309
▁talked	-8.92569
▁group	-8.9259
▁finished	-8.92619
▁thousand	-8.92635
▁map	-8.92685
▁plans	-8.93265
▁program	-8.93399
▁cream	-8.93874
▁command	-8.93904
▁vote	-8.93971
▁sad	-8.94065
▁ivan	-8.94158
▁engine	-8.94213
▁appreciate	-8.9435
▁green	-8.94437
▁fathers	-8.94674
▁wall	-8.94759
▁pop	-8.95004
▁rings	-8.95025
▁ohh	-8.95253
▁cross	-8.9531
▁missing	-8.95397
▁warm	-8.95431
▁plays	-8.95478
▁lock	-8.95883
▁smile	-8.95947
▁normal	-8.96027
▁arm	-8.96093
▁shrek	-8.9612
▁kitchen	-8.9612
▁emergency	-8.96125
▁amen	-8.96133
▁west	-8.96217
▁joke	-8.96221
▁artie	-8.96288
▁annie	-8.96308
▁rule	-8.96402
▁quickly	-8.96405
▁brain	-8.96457
▁mumble	-8.96457
▁d	-8.96543
▁agree	-8.97939
ness	-8.98073
▁artemis	-8.9812
▁instead	-8.9812
▁major	-8.9812
▁upstairs	-8.9812
▁coffee	-8.9812
▁chief	-8.9812
▁camera	-8.98125
▁heh	-8.98125
▁tooth	-8.98128
▁paid	-8.98148
▁barker	-8.98158
▁action	-8.9817
▁whistle	-8.98442
▁angel	-8.98443
▁area	-8.98597
▁position	-8.98629
▁seat	-8.98793
▁per	-8.99191
less	-8.99288
▁h	-8.99532
▁seeing	-8.99546
k	-8.99714
▁practice	-8.99989
▁starting	-9.00153
▁allison	-9.00161
▁moses	-9.00161
▁enzo	-9.00162
▁teeth	-9.00163
▁shh	-9.00165
▁sophie	-9.00176
▁brave	-9.00242
▁shouting	-9.00283
▁davey	-9.00293
▁carl	-9.00339
▁yo	-9.00356
▁favor	-9.00571
▁katherine	-9.00663
▁greek	-9.00693
▁egg	-9.00744
▁goodness	-9.00753
c	-9.00834
▁training	-9.00861
▁da	-9.01072
▁needed	-9.01121
th	-9.01262
▁heads	-9.01327
▁holding	-9.01399
▁feels	-9.01474
▁eggs	-9.01654
▁visit	-9.01807
▁blind	-9.01964
▁mention	-9.02006
▁realize	-9.02117
▁spent	-9.02231
▁lucy	-9.02245
▁henry	-9.02246
▁worst	-9.02248
▁panting	-9.02261
▁eh	-9.02329
▁guard	-9.02423
▁pa	-9.0256
▁listening	-9.02563
▁chair	-9.02751
▁purpose	-9.02806
▁ann	-9.03361
▁reach	-9.03627
▁cry	-9.04018
▁loud	-9.04096
▁village	-9.04372
▁impossible	-9.04372
▁swear	-9.04372
▁boris	-9.04373
▁uhhuh	-9.04374
▁beyond	-9.0438
▁k	-9.04381
▁band	-9.04394
▁thunder	-9.04428
▁breath	-9.04446
▁e	-9.04522
▁folks	-9.04617
an	-9.04704
▁bank	-9.04823
▁difference	-9.04925
▁nuts	-9.04948
▁games	-9.05702
▁n	-9.05945
m	-9.06346
▁east	-9.06404
▁majesty	-9.06545
▁universe	-9.06545
▁ridiculous	-9.06546
▁annabel	-9.06546
▁smoke	-9.06546
▁vacation	-9.06546
▁gordon	-9.06547
▁jamie	-9.06602
▁putting	-9.06642
▁lights	-9.06768
ity	-9.0679
▁accept	-9.06871
▁aunt	-9.07084
▁situation	-9.07208
▁agent	-9.07254
▁penguin	-9.07261
en	-9.07443
▁out	-9.07539
▁dare	-9.0773
▁moved	-9.07761
▁cook	-9.08047
▁rid	-9.08138
to	-9.08164
▁shel	-9.08402
▁complete	-9.08475
▁escape	-9.08604
▁christ	-9.08742
▁weather	-9.08768
▁wrote	-9.08768
▁emmet	-9.08768
▁dumb	-9.0877
▁vanya	-9.08771
▁sam	-9.08773
▁kingdom	-9.08774
▁lyle	-9.08779
▁sky	-9.0879
▁hiding	-9.08809
▁stopped	-9.08812
▁trick	-9.0905
▁dogs	-9.09224
▁owe	-9.09343
▁saturday	-9.09372
▁wine	-9.09406
▁hundred	-9.0947
▁battle	-9.0949
▁sake	-9.0949
ry	-9.10252
▁gods	-9.10255
▁list	-9.10417
▁draw	-9.10481
▁sight	-9.10579
▁launch	-9.10773
▁broke	-9.10997
▁ian	-9.11026
▁syracuse	-9.1104
▁twice	-9.1104
▁department	-9.11041
▁danny	-9.11042
▁ought	-9.11044
▁truly	-9.11048
▁danger	-9.11069
▁highness	-9.11092
▁choose	-9.11105
▁victory	-9.11189
▁pat	-9.11542
p	-9.11706
▁roger	-9.11765
▁floor	-9.11767
▁planet	-9.11839
▁letter	-9.11908
▁lived	-9.12035
▁lots	-9.12161
ous	-9.12626
▁howd	-9.13187
▁strength	-9.13272
▁beach	-9.13302
ance	-9.13312
▁ii	-9.13338
▁church	-9.13364
▁excellent	-9.13366
▁indeed	-9.13366
▁nowhere	-9.13366
▁blast	-9.13366
▁duran	-9.13367
▁plenty	-9.13367
▁heck	-9.13368
▁silly	-9.13369
▁record	-9.13375
▁poppins	-9.13387
▁tony	-9.13397
▁bridge	-9.13406
▁losing	-9.13419
▁decided	-9.13462
▁lt	-9.13639
▁deliver	-9.1365
▁fairy	-9.13719
▁gift	-9.13942
▁flower	-9.14275
▁stars	-9.14431
▁liked	-9.14491
▁orders	-9.14903
▁problems	-9.15268
▁swing	-9.15433
▁press	-9.15514
▁settle	-9.1556
▁risk	-9.15577
▁using	-9.15654
▁goin	-9.15686
▁freeze	-9.15713
▁juni	-9.1572
▁nothin	-9.15723
▁francis	-9.15742
▁england	-9.15747
▁thatll	-9.15747
▁bunny	-9.15747
▁underdog	-9.15747
▁bobby	-9.15759
▁forest	-9.15762
▁boom	-9.15771
▁bother	-9.15868
▁seriously	-9.16019
▁figured	-9.16127
▁crying	-9.16201
▁dis	-9.16484
▁score	-9.16501
▁butt	-9.16511
ive	-9.16515
▁continue	-9.16521
▁winner	-9.16585
▁idiot	-9.16622
▁season	-9.16655
▁cousin	-9.16657
▁knight	-9.1667
▁hole	-9.1667
▁yard	-9.16711
▁picked	-9.16792
▁pal	-9.17038
▁victor	-9.1722
▁prove	-9.17266
▁zoo	-9.17687
▁spy	-9.17786
▁waste	-9.18039
▁private	-9.18046
▁certain	-9.18072
▁dave	-9.18087
▁large	-9.18162
▁apart	-9.1817
▁balboa	-9.18186
▁empty	-9.18186
▁hockey	-9.18186
▁beauty	-9.18187
▁dancing	-9.18187
▁driving	-9.18187
▁carlos	-9.18195
▁handsome	-9.18198
▁zone	-9.18199
▁bowl	-9.18203
▁gold	-9.18206
▁center	-9.18213
▁tiny	-9.18229
▁sweetie	-9.18279
▁sandy	-9.18298
▁freak	-9.18365
▁mark	-9.18412
▁beg	-9.1849
▁dollars	-9.18543
▁con	-9.18578
▁bucks	-9.18589
▁whose	-9.18777
▁tie	-9.18851
▁level	-9.19061
▁squirrel	-9.19124
te	-9.19144
▁computer	-9.19149
▁begin	-9.19184
▁month	-9.19197
▁walking	-9.19903
▁store	-9.19925
▁block	-9.20266
▁fit	-9.20418
▁killing	-9.20421
▁ruin	-9.20432
▁ran	-9.20433
▁peace	-9.20679
▁upset	-9.20687
▁information	-9.20689
▁everywhere	-9.2069
▁pressure	-9.20691
▁neck	-9.20703
▁wolfman	-9.20706
▁obviously	-9.20717
▁cale	-9.20724
▁usually	-9.20731
▁cup	-9.20735
▁weight	-9.20755
▁closer	-9.20849
▁carol	-9.20852
▁allowed	-9.20909
▁siren	-9.21196
▁calls	-9.21334
▁bite	-9.21627
▁tiger	-9.21665
▁beast	-9.21708
▁strike	-9.21713
▁fellas	-9.21717
▁flintstone	-9.21727
▁giant	-9.21735
▁track	-9.21765
▁books	-9.22489
▁lift	-9.22496
▁bitch	-9.22758
▁soft	-9.2305
▁r	-9.23077
▁raise	-9.23115
▁excited	-9.23135
▁operation	-9.23204
▁according	-9.2325
▁byebye	-9.2325
▁especially	-9.2325
▁science	-9.2325
▁beginning	-9.23252
▁terry	-9.23253
▁angry	-9.23257
▁lake	-9.23327
▁barking	-9.23377
▁prepare	-9.23409
▁post	-9.23445
▁lay	-9.23635
▁shed	-9.23682
▁v	-9.23684
▁travel	-9.23786
▁wet	-9.23795
▁should	-9.23839
▁lines	-9.24061
▁duck	-9.24181
▁german	-9.24193
▁force	-9.24214
▁shoes	-9.24241
ist	-9.24294
▁type	-9.24317
▁wondering	-9.24338
▁st	-9.24802
▁sisters	-9.24923
▁starts	-9.24936
▁missy	-9.24943
out	-9.24987
▁cop	-9.25717
▁notice	-9.2572
▁awful	-9.2578
▁paul	-9.258
▁max	-9.25823
▁hospital	-9.25869
▁unbelievable	-9.25882
▁hadnt	-9.25882
▁allnut	-9.25882
▁gloria	-9.25883
▁voss	-9.25883
▁bathroom	-9.25883
▁flight	-9.25886
▁nina	-9.25889
ation	-9.26126
se	-9.26214
▁rain	-9.26224
▁repeat	-9.26664
▁ears	-9.26815
▁bro	-9.26845
w	-9.26925
▁miracle	-9.27057
▁robot	-9.27074
▁blows	-9.27081
▁leader	-9.27103
▁fellow	-9.27114
▁pie	-9.27466
▁pitch	-9.27638
na	-9.27853
▁se	-9.28061
▁ape	-9.28307
▁bright	-9.28508
▁elizabeth	-9.28584
▁marriage	-9.28584
▁ulysses	-9.28584
▁support	-9.28585
▁northbrook	-9.28585
▁claire	-9.28587
▁telephone	-9.28587
▁yellow	-9.28587
▁howard	-9.2859
▁soup	-9.28594
▁bread	-9.28595
▁katie	-9.28597
▁doin	-9.286
▁carried	-9.286
▁uhoh	-9.28613
▁interested	-9.28737
▁breathe	-9.28747
▁bloody	-9.28879
f	-9.2927
▁gas	-9.29325
ful	-9.29544
▁contact	-9.29606
▁view	-9.29622
▁bath	-9.29624
▁mate	-9.29725
▁ocean	-9.29775
▁baker	-9.29803
▁mountain	-9.29835
▁wouldve	-9.29908
▁ate	-9.29963
▁player	-9.30752
▁alarm	-9.31078
▁honest	-9.31086
▁due	-9.31179
▁invite	-9.31203
▁wolf	-9.31239
▁fresh	-9.31323
▁abigail	-9.31362
▁british	-9.31362
▁clyde	-9.31362
▁restaurant	-9.31362
▁matthew	-9.31363
▁friday	-9.31363
▁climb	-9.31363
▁swim	-9.31363
▁nope	-9.31364
▁taught	-9.31366
▁admiral	-9.31366
▁dying	-9.31366
▁onto	-9.31367
▁pool	-9.31369
▁sunday	-9.3137
▁shame	-9.31378
▁amy	-9.31382
▁james	-9.31383
▁huge	-9.31454
cient	-9.31467
▁julie	-9.31512
▁gotten	-9.31532
▁pack	-9.31625
▁perfectly	-9.31855
▁leg	-9.32179
▁cheer	-9.32293
▁o	-9.32339
▁girlfriend	-9.32467
▁bottom	-9.32587
▁grade	-9.32633
▁creature	-9.32705
▁feelings	-9.32844
age	-9.33403
▁discuss	-9.33717
▁harm	-9.33872
▁animals	-9.33893
▁showed	-9.33908
▁allow	-9.33969
▁main	-9.34005
▁final	-9.34127
▁they	-9.34192
▁court	-9.34216
▁roof	-9.3422
▁snow	-9.3422
▁staff	-9.3422
▁trash	-9.3422
▁jason	-9.34221
▁assignment	-9.34222
▁ugly	-9.34222
▁lisa	-9.34224
▁tentacular	-9.34226
▁babe	-9.34226
▁gross	-9.34228
▁security	-9.34228
▁spaceship	-9.34237
▁dive	-9.34239
▁simply	-9.34242
▁stage	-9.34256
▁invited	-9.34388
▁lll	-9.34671
▁where	-9.35173
▁note	-9.35278
▁ringing	-9.35369
▁garden	-9.35496
▁shake	-9.35577
▁following	-9.35793
▁yards	-9.36019
▁heat	-9.36267
▁powers	-9.36433
▁arms	-9.36437
▁numbers	-9.36501
▁helping	-9.36536
▁hug	-9.36833
came	-9.36934
▁square	-9.36953
▁difficult	-9.36954
▁brilliant	-9.37024
▁tape	-9.37135
▁poet	-9.37156
▁aculos	-9.3716
▁offense	-9.3716
▁cindy	-9.37161
▁journey	-9.37161
▁cheese	-9.37161
▁charles	-9.37161
▁clarence	-9.37161
▁ugh	-9.37161
▁crew	-9.37164
▁royal	-9.37167
▁candy	-9.37168
▁bride	-9.37176
▁groaning	-9.37179
▁milk	-9.37183
▁texas	-9.37186
▁nancy	-9.37186
▁tom	-9.37325
▁math	-9.37496
▁san	-9.37856
▁hardly	-9.37904
▁color	-9.38394
ine	-9.38406
▁throat	-9.3843
▁burn	-9.38615
▁quarter	-9.38631
▁gate	-9.38635
▁taste	-9.38676
▁guest	-9.38687
▁plane	-9.38964
▁oi	-9.39506
ah	-9.39805
▁cora	-9.39997
▁indistinct	-9.40082
▁crap	-9.40099
▁glass	-9.40139
▁bough	-9.40158
▁admit	-9.40182
▁curt	-9.40186
▁heavy	-9.40186
▁wrestling	-9.40191
▁teddy	-9.40191
▁calvin	-9.40192
▁horrible	-9.40196
▁bigger	-9.40205
▁aw	-9.40208
▁darkness	-9.4022
▁bought	-9.40225
▁flag	-9.40236
▁powerful	-9.40244
▁pants	-9.40273
▁charming	-9.40323
▁pet	-9.40387
▁easter	-9.40399
▁thinks	-9.40497
▁reading	-9.40637
▁yay	-9.40734
▁dressed	-9.40747
▁breathing	-9.40787
▁pulled	-9.41238
▁treat	-9.41272
▁shop	-9.41681
▁donkey	-9.41681
▁bottle	-9.41692
▁di	-9.41717
▁russian	-9.41813
ting	-9.41817
▁ma	-9.41932
▁flowers	-9.42161
▁staying	-9.4234
ce	-9.4255
▁health	-9.43158
▁doc	-9.43209
▁coast	-9.43223
▁heading	-9.43235
▁dig	-9.43253
▁orange	-9.43309
▁sugar	-9.43316
▁lovelace	-9.43316
▁pedro	-9.43316
▁possibly	-9.43316
▁pygar	-9.43316
▁europe	-9.43316
▁root	-9.43316
▁device	-9.43317
▁asleep	-9.43317
▁government	-9.43318
▁chuckling	-9.43319
▁shape	-9.43319
▁mick	-9.43323
▁clock	-9.43323
▁grover	-9.43324
▁immediately	-9.43355
▁ahh	-9.43439
▁billy	-9.43668
▁pounds	-9.44071
▁ant	-9.44311
▁aliens	-9.44619
▁quest	-9.44667
▁heaven	-9.44878
▁project	-9.44906
▁noise	-9.44965
▁paper	-9.45032
▁tc	-9.45135
▁ideas	-9.4532
▁fan	-9.45398
iy	-9.45465
▁turns	-9.45582
▁feed	-9.45669
▁consider	-9.45782
▁mo	-9.46027
way	-9.46093
▁fill	-9.46208
▁rescue	-9.46353
▁curse	-9.46374
▁survive	-9.46377
▁total	-9.46443
▁genius	-9.46481
▁loose	-9.46506
▁public	-9.46529
▁wide	-9.46536
▁fulton	-9.46542
▁professor	-9.46542
▁merlin	-9.46542
▁zoc	-9.46542
▁ducal	-9.46543
▁jerry	-9.46544
▁barley	-9.46544
▁tommy	-9.46544
▁rosie	-9.46544
▁bravo	-9.46546
▁duke	-9.46546
▁forgotten	-9.46547
▁self	-9.4655
▁winning	-9.4656
▁toula	-9.46561
▁announcer	-9.46562
▁lonely	-9.46572
▁safety	-9.46578
▁jackson	-9.4659
▁embarrassing	-9.46602
▁whatd	-9.46613
▁carmen	-9.46615
▁serve	-9.46675
▁nature	-9.4669
▁prepared	-9.46766
▁birds	-9.46832
▁trees	-9.46922
▁immortals	-9.47018
▁passed	-9.47416
▁ends	-9.47459
▁acting	-9.47533
is	-9.47549
▁fired	-9.47577
▁blowing	-9.47834
itd	-9.47971
rs	-9.47981
▁experience	-9.48057
▁edge	-9.48325
et	-9.48412
▁hanging	-9.48482
▁guns	-9.48521
you	-9.48622
▁sleeping	-9.48659
▁paint	-9.48714
▁penguins	-9.48786
▁ed	-9.48805
▁hearts	-9.4882
▁challenge	-9.48957
▁grandpa	-9.49004
▁everythings	-9.49076
▁enter	-9.49205
▁suffer	-9.49318
▁over	-9.49411
▁mothers	-9.49439
▁collect	-9.49528
▁bond	-9.49543
▁focus	-9.49609
▁shift	-9.49716
▁america	-9.49723
▁sub	-9.49791
▁trade	-9.49841
ted	-9.49874
▁applause	-9.49875
▁appointment	-9.49875
▁built	-9.49875
▁mckenna	-9.49875
▁bombay	-9.49875
▁tsar	-9.49876
▁virginia	-9.49876
▁bruce	-9.49877
▁alright	-9.49879
▁whispering	-9.49883
▁hazel	-9.49884
▁sonja	-9.49884
▁delicious	-9.49887
▁ellie	-9.49906
▁petey	-9.49912
▁lying	-9.49933
▁growling	-9.49934
▁rocket	-9.49965
▁kim	-9.49987
▁signal	-9.50022
▁likes	-9.50069
▁sooner	-9.50263
▁wings	-9.51055
▁hook	-9.51147
▁doors	-9.51499
▁fowl	-9.51564
▁crime	-9.51642
▁bug	-9.51753
▁sport	-9.51819
▁cost	-9.51821
▁answers	-9.51825
▁wheel	-9.51838
▁there	-9.51894
▁member	-9.5207
▁cars	-9.5212
▁mi	-9.52195
▁form	-9.52487
men	-9.52541
▁weak	-9.53176
▁ref	-9.53288
▁afford	-9.53291
▁stomach	-9.53322
▁azrael	-9.53323
▁downstairs	-9.53323
▁nonsense	-9.53323
▁sauvage	-9.53323
▁shoeshine	-9.53323
▁biggest	-9.53323
▁jungle	-9.53324
▁luther	-9.53324
▁hova	-9.53324
▁elsie	-9.53325
▁raymond	-9.53325
▁david	-9.53325
▁truck	-9.53325
▁tower	-9.53326
▁lenny	-9.53327
▁jerk	-9.53327
▁energy	-9.53328
▁equipment	-9.53328
▁heavyweight	-9.53329
▁meow	-9.53331
▁africa	-9.53334
▁gentleman	-9.53335
▁zero	-9.53336
▁stories	-9.53336
▁cash	-9.53346
▁suddenly	-9.5336
▁fourth	-9.53409
▁nicky	-9.53424
▁bringing	-9.53504
▁approaching	-9.53616
▁tied	-9.53689
▁clearly	-9.53833
▁grace	-9.54076
▁falls	-9.54331
▁career	-9.54461
▁sports	-9.54836
▁pi	-9.54911
▁dragon	-9.54913
▁account	-9.54943
▁pieces	-9.5517
▁deserve	-9.55173
▁mask	-9.55214
▁tail	-9.55292
▁robots	-9.55292
▁cops	-9.5531
▁student	-9.55365
▁stranger	-9.55432
▁mile	-9.55465
▁teacher	-9.55562
▁tear	-9.55919
ai	-9.5595
▁surely	-9.56027
▁pray	-9.56388
ia	-9.56578
▁direct	-9.56608
▁opening	-9.56732
▁base	-9.56743
▁austin	-9.56895
▁montgomery	-9.56895
▁wilma	-9.56895
▁written	-9.56895
▁colonel	-9.56895
▁midnight	-9.56895
▁often	-9.56895
▁sobbing	-9.56895
▁bruno	-9.56897
▁enemy	-9.56898
▁glenn	-9.56899
▁distance	-9.56899
▁stadium	-9.56899
▁fancy	-9.569
▁airport	-9.56903
▁exciting	-9.56904
▁comfortable	-9.56906
▁flies	-9.56907
▁titanic	-9.56907
▁blame	-9.56915
▁varsity	-9.56916
▁size	-9.56918
▁winnie	-9.56919
▁loving	-9.56941
▁male	-9.56944
▁arrived	-9.56951
▁bigfoot	-9.56958
▁code	-9.5701
▁heroes	-9.57014
▁nearly	-9.57102
▁gasping	-9.57115
▁bat	-9.57122
▁inter	-9.57173
▁spin	-9.57196
▁warning	-9.57206
▁loss	-9.57218
▁hoping	-9.57256
▁surprised	-9.57384
▁destroyed	-9.57385
▁dry	-9.57419
▁waited	-9.57563
▁judge	-9.576
um	-9.57749
ty	-9.57823
▁stu	-9.58045
▁tickets	-9.58096
▁alien	-9.58122
▁leaves	-9.58281
▁yell	-9.58687
▁hearing	-9.58711
▁matters	-9.58735
▁spit	-9.58769
▁relationship	-9.58833
▁supper	-9.58834
▁target	-9.58834
ish	-9.589
▁spring	-9.58965
▁mm	-9.58979
▁style	-9.58992
▁championship	-9.5906
▁weapon	-9.59064
▁ghost	-9.59077
▁movie	-9.59082
▁button	-9.59083
▁lesson	-9.59093
▁co	-9.59114
▁fella	-9.59184
▁file	-9.59549
▁claim	-9.6013
▁punch	-9.60292
▁gather	-9.6034
▁require	-9.60429
▁louis	-9.60468
▁stole	-9.60562
▁regret	-9.60589
▁although	-9.60598
▁apologize	-9.60598
▁drej	-9.60598
▁ralph	-9.60598
▁whether	-9.60598
▁eddie	-9.60598
▁necessary	-9.60598
▁dennis	-9.60599
▁example	-9.60599
▁grandfather	-9.606
▁romantic	-9.60601
▁rough	-9.60602
▁within	-9.60602
▁wherever	-9.60602
▁resistance	-9.60603
▁famous	-9.60603
▁speech	-9.60603
▁sox	-9.60604
▁permission	-9.60605
▁freedom	-9.60607
▁orangemen	-9.60607
▁glory	-9.60609
▁stepford	-9.60612
▁boone	-9.60614
▁vision	-9.60614
▁basement	-9.60617
▁pink	-9.60621
▁honking	-9.60623
▁batman	-9.60629
▁prize	-9.6063
▁paulie	-9.60639
▁fairies	-9.60675
▁add	-9.6073
▁juliet	-9.6077
▁tires	-9.608
▁yelling	-9.61011
▁barn	-9.61036
▁mayor	-9.61198
▁j	-9.61234
▁sand	-9.6128
▁nate	-9.61384
▁knocking	-9.61452
▁pru	-9.61491
▁soldiers	-9.61496
▁bo	-9.61592
▁followed	-9.61889
▁falling	-9.61922
▁woods	-9.61955
▁flat	-9.62046
▁ye	-9.62201
▁cares	-9.62348
▁sons	-9.62354
▁remind	-9.62551
land	-9.62668
▁language	-9.62679
▁peyton	-9.62679
▁crocodile	-9.62866
▁eagle	-9.62866
▁shark	-9.6288
▁defend	-9.6299
▁crack	-9.63161
▁address	-9.63662
▁belongs	-9.63786
▁bless	-9.63821
▁shower	-9.63835
▁pl	-9.63861
▁runs	-9.63968
▁correct	-9.63974
ling	-9.64004
▁pretend	-9.64033
▁decide	-9.64286
id	-9.64331
▁dan	-9.64334
▁toast	-9.64364
▁leonard	-9.64392
▁prefer	-9.64438
▁capsule	-9.64444
▁stretch	-9.64444
▁taeko	-9.64444
▁understood	-9.64444
▁attitude	-9.64445
▁whiskey	-9.64445
▁harper	-9.64445
▁babies	-9.64446
▁phil	-9.64446
▁agency	-9.64446
▁doo	-9.64447
▁adam	-9.64449
▁however	-9.6445
▁responsibility	-9.6445
▁dawn	-9.64451
▁dropped	-9.64453
▁positive	-9.64454
▁castle	-9.64465
▁betty	-9.64476
▁barely	-9.64485
▁turning	-9.64506
▁dirty	-9.64536
▁moms	-9.64536
▁bump	-9.64576
▁hooker	-9.64586
▁coat	-9.6459
▁national	-9.64596
▁hoops	-9.64598
▁screeching	-9.64628
▁plus	-9.64703
▁filled	-9.64753
▁goal	-9.64765
▁keeping	-9.65069
▁titans	-9.65195
▁hawks	-9.65272
▁ex	-9.65292
ke	-9.65427
▁ba	-9.65536
▁older	-9.65871
▁drinking	-9.66264
▁shooting	-9.66266
▁landing	-9.66321
▁pleased	-9.66373
▁guests	-9.66409
▁creatures	-9.66531
▁witch	-9.66632
▁rise	-9.66818
▁conversation	-9.66834
▁saving	-9.66885
▁weekend	-9.66885
▁tunnel	-9.66902
▁sometime	-9.66949
▁beer	-9.66968
▁keeps	-9.67047
just	-9.67135
▁loser	-9.67155
▁bears	-9.67609
▁breaking	-9.67616
▁believed	-9.67659
▁hatch	-9.67668
▁hill	-9.67866
▁demand	-9.6799
▁faith	-9.68006
▁speaks	-9.68058
▁fields	-9.68112
▁wreck	-9.68175
▁attend	-9.6819
▁llke	-9.68237
▁sharp	-9.68344
▁india	-9.68387
▁among	-9.68432
▁lorenzo	-9.68444
▁mississippi	-9.68444
▁silence	-9.68444
▁traffic	-9.68444
▁mmmhmm	-9.68445
▁boston	-9.68445
▁pregnant	-9.68445
▁assistant	-9.68445
▁giggling	-9.68445
▁someday	-9.68445
▁ellen	-9.68445
▁sarah	-9.68448
▁patton	-9.68449
▁quarterback	-9.6845
▁tongue	-9.6845
▁percent	-9.68451
▁flora	-9.68453
▁barney	-9.68456
▁regular	-9.68459
▁common	-9.68461
▁panic	-9.68461
▁held	-9.68466
▁began	-9.68469
▁goalie	-9.68476
▁fearless	-9.68488
▁involved	-9.685
▁passion	-9.68529
▁landon	-9.68545
▁sold	-9.68558
▁x	-9.68593
▁parker	-9.68683
▁raised	-9.68755
▁moments	-9.68943
▁degrees	-9.68978
os	-9.69114
▁santa	-9.69174
▁aye	-9.69247
▁spark	-9.69275
▁trained	-9.69341
▁hop	-9.69418
▁turner	-9.69698
▁magical	-9.70173
▁lips	-9.70397
▁model	-9.70594
▁apes	-9.70747
▁germans	-9.70812
▁scare	-9.70904
▁boyfriend	-9.70941
▁metal	-9.71057
▁rope	-9.71067
▁humans	-9.71168
▁cheat	-9.71285
▁ways	-9.71417
▁en	-9.71651
▁bust	-9.7171
▁rev	-9.71798
▁wood	-9.718
ch	-9.72138
▁ear	-9.72143
▁farm	-9.72235
▁switch	-9.72303
▁crash	-9.72324
▁screw	-9.72358
▁kragle	-9.72403
▁skin	-9.72412
▁introduce	-9.72455
▁sandwich	-9.72559
▁superhero	-9.72559
▁spoke	-9.72561
▁keys	-9.72599
▁akima	-9.72611
▁bertier	-9.72611
▁edmund	-9.72611
▁floyd	-9.72611
▁pabio	-9.72611
▁university	-9.72611
▁video	-9.72611
▁wadsworth	-9.72611
▁advice	-9.72611
▁herbert	-9.72611
▁insane	-9.72611
▁local	-9.72612
▁franck	-9.72613
▁memory	-9.72613
▁averman	-9.72613
▁threw	-9.72614
▁grandmother	-9.72614
▁writing	-9.72617
▁property	-9.72618
▁mercy	-9.72622
▁poetry	-9.72627
▁path	-9.72644
▁spread	-9.72647
▁mister	-9.72661
▁stairs	-9.72709
▁honestly	-9.72776
▁lower	-9.72831
▁oil	-9.72881
oggy	-9.73009
▁uhh	-9.73051
▁jan	-9.73321
▁riding	-9.73388
▁cooking	-9.73389
ring	-9.73647
▁lately	-9.73697
▁fingers	-9.73759
▁cos	-9.73768
▁counting	-9.73955
▁nah	-9.74063
▁salt	-9.74087
▁losers	-9.74283
▁hated	-9.74377
▁period	-9.74423
▁sail	-9.7447
▁walked	-9.74491
▁remain	-9.74676
▁suggest	-9.74892
it	-9.75104
▁cell	-9.75178
▁recipe	-9.75276
▁split	-9.75289
▁peanut	-9.75318
▁meredith	-9.75346
▁lawyer	-9.75346
ng	-9.75394
▁devil	-9.754
▁director	-9.75426
▁chocolate	-9.75552
▁belt	-9.75584
▁sale	-9.75632
▁joy	-9.7581
▁lou	-9.75905
down	-9.76192
▁event	-9.7623
▁dump	-9.76245
▁rush	-9.76246
▁pictures	-9.76346
▁places	-9.76474
▁avoid	-9.7666
▁crown	-9.76711
▁guarantee	-9.76779
▁official	-9.76846
▁madam	-9.76858
▁jail	-9.76874
▁proper	-9.76881
▁cooper	-9.76915
▁convent	-9.76937
▁log	-9.76947
▁wing	-9.76952
▁batter	-9.76954
▁schedule	-9.76959
▁tadashi	-9.76959
▁tuesday	-9.76959
▁mood	-9.76959
▁whoever	-9.76959
▁bishop	-9.76959
▁sunshine	-9.7696
▁easier	-9.7696
▁sheldon	-9.76961
▁duty	-9.76962
▁lousy	-9.76962
▁baseball	-9.76962
▁fuel	-9.76963
▁desk	-9.76963
▁wiii	-9.76964
▁loan	-9.76965
▁therapy	-9.76965
▁alice	-9.76965
▁grass	-9.76966
▁herd	-9.76971
▁pure	-9.76977
▁central	-9.76981
▁iove	-9.76991
▁mail	-9.76999
▁scene	-9.77005
▁wise	-9.77028
▁moves	-9.7709
▁eaten	-9.77102
▁useless	-9.77112
▁indistinctly	-9.77116
▁failed	-9.77183
▁united	-9.77231
▁manage	-9.77276
▁peter	-9.77353
▁deeply	-9.77369
▁giggles	-9.77472
▁higher	-9.77523
▁states	-9.77553
▁towards	-9.77677
▁harder	-9.77697
▁highly	-9.77812
▁pen	-9.77878
▁touched	-9.78141
▁closed	-9.78295
▁yells	-9.78784
▁up	-9.78799
▁woo	-9.79093
ally	-9.79229
▁greater	-9.79238
▁interest	-9.7926
▁tapes	-9.79294
▁murder	-9.79483
▁italian	-9.79504
▁talent	-9.79563
▁giants	-9.7961
▁parts	-9.7967
▁shield	-9.79736
▁wizard	-9.79737
▁section	-9.79745
▁knights	-9.79749
▁butts	-9.79753
by	-9.79795
▁shirt	-9.79818
▁players	-9.79825
▁pocket	-9.79863
▁mushroom	-9.79891
▁decision	-9.79918
▁pipe	-9.79935
▁tank	-9.79939
▁warrior	-9.79973
▁bastard	-9.79983
▁ticket	-9.79992
▁guards	-9.80195
b	-9.80317
off	-9.80434
▁led	-9.80475
▁champions	-9.81005
▁americans	-9.81006
▁pan	-9.81091
▁bang	-9.8111
ne	-9.81142
▁gain	-9.81261
▁jealous	-9.81317
▁tess	-9.81335
▁natural	-9.81424
▁express	-9.8149
▁bullshit	-9.81495
▁diana	-9.81504
▁fiona	-9.81504
▁opinion	-9.81504
▁paradise	-9.81504
▁whistling	-9.81504
▁wolfgang	-9.81504
▁blew	-9.81505
▁choir	-9.81505
▁someplace	-9.81505
▁joanna	-9.81505
▁female	-9.81505
▁gillian	-9.81505
▁chicago	-9.81505
▁pride	-9.81505
▁valley	-9.81506
▁ogre	-9.81506
▁division	-9.81507
▁naked	-9.81508
▁regent	-9.81508
▁clears	-9.8151
▁shine	-9.81512
▁merry	-9.81513
▁liar	-9.81521
▁eden	-9.81522
▁portal	-9.81529
▁homework	-9.81556
▁boring	-9.81559
▁milly	-9.8157
▁nest	-9.81574
▁hitting	-9.81584
▁latest	-9.81698
▁kingman	-9.81741
▁pe	-9.81803
▁settled	-9.81825
▁depends	-9.82274
▁messed	-9.82427
▁lad	-9.8268
la	-9.82737
▁kissed	-9.82753
▁les	-9.82806
▁expecting	-9.82816
▁units	-9.8291
▁rats	-9.82958
▁bastards	-9.8305
▁ke	-9.83051
▁sever	-9.83222
▁diet	-9.83409
▁ghosts	-9.83411
▁weapons	-9.83411
▁ants	-9.83717
co	-9.83721
one	-9.83736
▁opens	-9.8378
▁fielding	-9.83964
at	-9.84041
▁adventure	-9.84225
▁hm	-9.84274
▁legend	-9.84495
▁champ	-9.84559
▁poem	-9.84581
▁puck	-9.8459
▁letters	-9.84634
▁ike	-9.84695
▁cookie	-9.84734
▁skull	-9.84735
▁pig	-9.84737
▁direction	-9.8492
▁so	-9.84961
▁rocks	-9.84973
▁ships	-9.85097
▁painting	-9.85106
▁ad	-9.85199
ro	-9.8525
▁changes	-9.85314
▁nurse	-9.85334
▁killer	-9.85404
▁fighter	-9.85406
▁interrupt	-9.85526
▁steam	-9.85595
▁search	-9.85597
▁bow	-9.85716
▁fetch	-9.8579
▁contract	-9.8582
▁au	-9.8582
▁approach	-9.85861
▁warn	-9.8589
▁recognize	-9.86066
▁brad	-9.86097
▁foreign	-9.86174
▁orbit	-9.8622
▁somethin	-9.86249
▁gettin	-9.86252
▁circus	-9.86266
▁easily	-9.86266
▁krei	-9.86266
▁negro	-9.86266
▁transmooker	-9.86266
▁unusual	-9.86266
▁whinnying	-9.86266
▁judy	-9.86266
▁slate	-9.86267
▁priest	-9.86267
▁isle	-9.86268
▁sherry	-9.86268
▁fake	-9.86269
▁colony	-9.86271
▁humming	-9.86271
▁precious	-9.86273
▁gem	-9.86274
▁lightyear	-9.86275
▁francisco	-9.86277
▁planned	-9.86278
▁moore	-9.8628
▁piano	-9.86283
▁grateful	-9.86284
▁assure	-9.86289
▁rare	-9.86293
▁touchdown	-9.86296
▁laughter	-9.86298
▁callaghan	-9.86301
▁apartment	-9.86304
▁whispers	-9.86309
▁cloe	-9.86311
▁swamp	-9.86311
▁jr	-9.86311
▁auntie	-9.8633
▁stolen	-9.86331
▁shore	-9.86333
▁disgusting	-9.86336
▁received	-9.86368
▁actress	-9.86419
▁sat	-9.86498
▁march	-9.86631
▁brainy	-9.8666
▁slowly	-9.86681
▁rat	-9.86844
▁social	-9.86861
▁talkin	-9.86918
▁pee	-9.87041
▁kicked	-9.87105
▁expected	-9.87131
▁returned	-9.87154
▁legal	-9.87227
▁smells	-9.87459
▁growing	-9.87461
▁noon	-9.87497
ma	-9.87514
▁ted	-9.87574
▁kicking	-9.87604
▁grave	-9.87605
ant	-9.87642
▁mere	-9.87668
▁secrets	-9.87827
▁victoria	-9.87879
▁buzzing	-9.87906
▁cleaning	-9.88152
▁signs	-9.88339
▁tears	-9.88353
▁shoulder	-9.8852
▁z	-9.88841
▁suck	-9.88892
▁cast	-9.89017
ern	-9.89029
▁whoohoo	-9.89068
▁condition	-9.89254
▁opened	-9.89263
▁matt	-9.8941
ical	-9.89423
▁unit	-9.89425
▁exist	-9.89426
▁title	-9.895
▁turtle	-9.89579
▁criminal	-9.89579
▁tricks	-9.89582
▁meal	-9.89618
▁row	-9.89634
▁effort	-9.89652
▁partner	-9.89667
▁winter	-9.89763
▁hurts	-9.89771
▁wheat	-9.89914
time	-9.89994
▁watched	-9.90174
▁par	-9.90226
▁sweat	-9.90282
▁wins	-9.90475
▁ron	-9.90539
▁fail	-9.90556
▁design	-9.90563
▁ending	-9.90796
▁ca	-9.90845
▁chatter	-9.90886
▁concern	-9.91007
ra	-9.91057
▁someones	-9.9106
▁release	-9.91097
▁exact	-9.91188
▁wire	-9.91194
▁price	-9.91254
▁snap	-9.91257
▁gee	-9.9126
▁create	-9.91261
▁debbie	-9.91266
▁deloris	-9.91266
▁geoffrey	-9.91266
▁germaine	-9.91266
▁jemima	-9.91266
▁collier	-9.91266
▁clue	-9.91267
▁sergeant	-9.91267
▁daniel	-9.91267
▁jeez	-9.91267
▁insurance	-9.91267
▁community	-9.91267
▁source	-9.91267
▁invisible	-9.91267
▁johana	-9.91268
▁helen	-9.91268
▁sasha	-9.91269
▁connie	-9.9127
▁noble	-9.91271
▁ouch	-9.91273
▁clubber	-9.91273
▁brian	-9.91275
▁shopping	-9.91275
▁dummy	-9.91275
▁practically	-9.91275
▁peasant	-9.91276
▁nasty	-9.9128
▁labor	-9.91285
▁grizzly	-9.91287
▁enchanted	-9.91287
▁rice	-9.91288
▁cow	-9.91289
▁century	-9.91297
▁dean	-9.9131
▁instructions	-9.91311
▁exhales	-9.91312
▁sicily	-9.91313
▁trapped	-9.91313
▁fallen	-9.91318
▁jewels	-9.91388
▁scottie	-9.91418
▁whooping	-9.91425
▁process	-9.91447
▁healthy	-9.91527
▁copy	-9.91575
▁noticed	-9.91585
▁personally	-9.91607
▁stops	-9.91656
il	-9.91714
▁aha	-9.91875
▁younger	-9.91938
▁burning	-9.91957
▁fashion	-9.92029
▁fate	-9.92056
▁nation	-9.92062
▁wave	-9.92081
▁thy	-9.92178
▁lovers	-9.922
▁kinda	-9.92296
▁el	-9.92341
▁friendly	-9.92534
no	-9.92743
▁parking	-9.92978
z	-9.93085
▁russians	-9.93779
▁reasons	-9.93849
▁hip	-9.94026
▁pulling	-9.94089
▁skate	-9.94241
▁forces	-9.9427
ize	-9.9431
▁character	-9.94552
▁do	-9.94606
▁hoo	-9.94714
▁praise	-9.94727
▁no	-9.94787
▁storm	-9.94789
▁cloud	-9.94794
▁picking	-9.94888
▁rose	-9.94908
▁seek	-9.94928
▁current	-9.94941
▁bon	-9.94945
▁nightmare	-9.94948
▁cave	-9.94974
▁ranger	-9.94991
▁closes	-9.95137
▁bull	-9.95166
▁brains	-9.95236
cy	-9.95317
▁fur	-9.9537
▁tale	-9.95405
▁access	-9.95826
▁load	-9.95967
▁audition	-9.96055
▁jazz	-9.96096
u	-9.96156
▁desert	-9.96244
▁spoil	-9.96256
▁award	-9.96263
▁tune	-9.96321
▁refuse	-9.96363
▁professional	-9.96403
▁physical	-9.96411
▁cheap	-9.9645
▁cape	-9.96485
▁mamma	-9.96498
▁brooklyn	-9.96529
▁champagne	-9.96529
▁chinese	-9.96529
▁clever	-9.96529
▁gardner	-9.96529
▁gibberish	-9.96529
▁grip	-9.96529
▁include	-9.96529
▁jonathan	-9.96529
▁justice	-9.96529
▁knife	-9.96529
▁license	-9.96529
▁marmalade	-9.96529
▁murmuring	-9.96529
▁mysterious	-9.96529
▁philip	-9.96529
▁progress	-9.96529
▁responsible	-9.96529
▁strict	-9.96529
▁tavern	-9.96529
▁thursday	-9.96529
▁wilkins	-9.96529
▁zurg	-9.96529
▁lancelot	-9.9653
▁stood	-9.9653
▁neighborhood	-9.9653
▁reverend	-9.9653
▁guppy	-9.9653
▁patrick	-9.9653
▁dietrich	-9.9653
▁military	-9.9653
▁garbage	-9.9653
▁happiness	-9.96531
▁mouse	-9.96531
▁niko	-9.96531
▁florida	-9.96531
▁intelligent	-9.96531
▁executive	-9.96531
▁frost	-9.96533
▁drax	-9.96534
▁opposite	-9.96534
▁negative	-9.96537
▁maiden	-9.96537
▁hector	-9.96537
▁kitty	-9.96537
▁fought	-9.96538
▁wlli	-9.96538
▁junk	-9.96539
▁nora	-9.9654
▁peru	-9.96544
▁solid	-9.96544
▁france	-9.96545
▁owns	-9.96545
▁planning	-9.96546
▁confused	-9.96552
▁familiar	-9.96562
▁collection	-9.96562
▁bench	-9.96566
▁yearold	-9.96571
▁beeping	-9.96587
▁impressed	-9.96594
▁friendship	-9.96603
▁rude	-9.96606
▁julius	-9.96623
▁chasing	-9.96627
▁exclaiming	-9.96631
▁mixed	-9.96634
▁rate	-9.96637
▁navy	-9.96656
▁naturally	-9.96657
▁scoffs	-9.96657
▁emotional	-9.96692
▁carter	-9.96712
▁scored	-9.96896
▁realized	-9.9702
▁kings	-9.97089
▁points	-9.97132
▁suffering	-9.97186
▁bend	-9.97212
▁all	-9.97302
▁ned	-9.97323
ble	-9.97327
▁ages	-9.97493
ian	-9.97554
▁fixed	-9.97584
▁toys	-9.97659
▁worlds	-9.97704
▁indians	-9.97836
▁paris	-9.98452
▁leading	-9.98804
▁nights	-9.9884
▁wheels	-9.98925
▁prime	-9.98989
▁heavens	-9.99098
▁papers	-9.99102
▁ga	-9.99399
▁flintstones	-9.99775
▁sink	-9.99886
▁scores	-9.99953
▁uniform	-10.0031
▁vehicle	-10.0031
▁crystal	-10.0031
▁monday	-10.0032
▁slide	-10.0033
▁whale	-10.0036
▁chamber	-10.0044
▁flame	-10.0045
▁patient	-10.0048
▁wound	-10.0048
▁net	-10.0051
▁coward	-10.0052
▁pro	-10.0053
▁bullet	-10.0053
▁chain	-10.0055
▁finger	-10.0056
▁page	-10.0056
▁bike	-10.0084
tic	-10.0111
▁nut	-10.0118
▁caul	-10.0128
ac	-10.0129
▁nick	-10.0133
and	-10.0152
▁artist	-10.0157
▁effect	-10.0166
▁market	-10.017
▁witness	-10.0173
house	-10.0174
▁faint	-10.0182
▁sex	-10.0193
▁magnificent	-10.0195
▁taxi	-10.02
▁sneak	-10.0206
▁yup	-10.0207
▁cabin	-10.0208
▁fruit	-10.0208
▁barsinister	-10.0209
▁blaring	-10.0209
▁couid	-10.0209
▁defensive	-10.0209
▁dwarf	-10.0209
▁families	-10.0209
▁hendricks	-10.0209
▁japanese	-10.0209
▁lieutenant	-10.0209
▁literally	-10.0209
▁neruda	-10.0209
▁ordinary	-10.0209
▁shouid	-10.0209
▁solution	-10.0209
▁surrender	-10.0209
▁barbara	-10.0209
▁donnagon	-10.0209
▁fortune	-10.0209
▁opportunity	-10.0209
▁rommel	-10.0209
▁splendid	-10.0209
▁surface	-10.0209
▁violence	-10.0209
▁brewster	-10.0209
▁unhappy	-10.0209
▁conference	-10.0209
▁memories	-10.0209
▁basketball	-10.0209
▁feast	-10.0209
▁imagination	-10.0209
▁washington	-10.0209
▁beatrice	-10.0209
▁theater	-10.0209
▁volcano	-10.0209
▁swimming	-10.0209
▁hyah	-10.0209
▁campbell	-10.0209
▁essence	-10.0209
▁fabulous	-10.0209
▁attractive	-10.0209
▁machines	-10.021
▁jade	-10.021
▁pair	-10.021
▁honeymoon	-10.021
▁barbarella	-10.0211
▁johnny	-10.0211
▁gim	-10.0211
▁luke	-10.0213
▁chosen	-10.0213
▁lang	-10.0215
▁dust	-10.0215
▁firm	-10.0218
▁ila	-10.0218
▁grown	-10.0224
▁explorer	-10.0225
▁willing	-10.0228
▁frightened	-10.0228
sh	-10.023
▁butter	-10.0236
▁hire	-10.0236
▁subtitles	-10.0248
▁agreed	-10.0255
▁wishes	-10.0262
▁ruined	-10.0267
▁blessing	-10.0269
▁armed	-10.0283
▁brakes	-10.0284
ary	-10.0286
▁knocked	-10.0291
▁heroics	-10.0293
▁knees	-10.0293
▁carefully	-10.0294
▁souls	-10.0296
▁kip	-10.0311
as	-10.032
ore	-10.0326
▁whod	-10.0328
▁joined	-10.0334
side	-10.0335
laid	-10.0339
▁jumped	-10.0349
▁selling	-10.0354
▁carrying	-10.0359
▁ac	-10.0359
▁landed	-10.0378
▁maria	-10.0385
▁odds	-10.044
do	-10.0454
▁passing	-10.0455
▁boo	-10.047
▁fans	-10.0481
▁beating	-10.0484
▁sol	-10.0525
▁mountains	-10.0525
▁mass	-10.0536
lo	-10.0537
▁odd	-10.0557
▁chi	-10.0577
▁gifts	-10.058
▁prison	-10.061
▁pin	-10.0614
▁spike	-10.062
▁bedroom	-10.0621
▁jean	-10.0623
more	-10.0626
▁stable	-10.0626
▁ab	-10.0629
▁lit	-10.0631
▁pilot	-10.0635
▁apple	-10.0635
▁slave	-10.064
▁circle	-10.0641
▁monkey	-10.0641
▁bone	-10.0642
▁cage	-10.0651
line	-10.0653
ham	-10.0656
▁toe	-10.0656
▁owner	-10.0677
▁scratch	-10.0721
▁shock	-10.0722
ur	-10.0724
▁leo	-10.0728
▁er	-10.0734
▁tests	-10.0737
▁pre	-10.0745
x	-10.0755
▁bags	-10.0762
▁borrow	-10.0767
▁divorce	-10.078
▁disease	-10.078
▁flow	-10.0784
▁weigh	-10.0786
▁slight	-10.0787
▁incredibl	-10.0787
▁politic	-10.0788
▁fights	-10.0788
▁kit	-10.079
▁chase	-10.0793
▁drunk	-10.0796
▁revolution	-10.0796
▁elephant	-10.0797
▁beindorf	-10.0797
▁caesar	-10.0797
▁carriage	-10.0797
▁emperor	-10.0797
▁enormous	-10.0797
▁farquaad	-10.0797
▁gondorff	-10.0797
▁jersey	-10.0797
▁jessie	-10.0797
▁macdonald	-10.0797
▁miserable	-10.0797
▁otherwise	-10.0797
▁recently	-10.0797
▁route	-10.0797
▁scientist	-10.0797
▁snarling	-10.0797
▁wasabi	-10.0797
▁wouid	-10.0797
▁authorities	-10.0797
▁filthy	-10.0797
▁furniture	-10.0797
▁museum	-10.0797
▁rotten	-10.0797
▁cotton	-10.0797
▁exercise	-10.0797
▁irwin	-10.0797
▁courage	-10.0797
▁mystery	-10.0797
▁smiling	-10.0797
▁whenever	-10.0797
▁desire	-10.0797
▁eminence	-10.0797
▁changing	-10.0797
▁gerti	-10.0797
▁favour	-10.0797
▁steady	-10.0797
▁joking	-10.0797
▁buried	-10.0797
▁iron	-10.0797
▁soap	-10.0797
▁chapter	-10.0797
▁failure	-10.0797
▁disaster	-10.0797
▁pillow	-10.0797
▁alba	-10.0797
▁generous	-10.0797
▁usual	-10.0797
▁decent	-10.0797
▁roman	-10.0797
▁colin	-10.0797
▁leerie	-10.0797
▁monsieur	-10.0798
▁hyperspeed	-10.0798
▁raph	-10.0798
▁lonnie	-10.0798
▁available	-10.0798
▁shaw	-10.0798
▁complicated	-10.0798
▁aboard	-10.0799
▁conway	-10.0799
▁pathetic	-10.0799
▁fifty	-10.0799
▁secretary	-10.0799
▁extremely	-10.0799
▁precisely	-10.0799
▁monty	-10.08
▁weii	-10.0801
▁wallet	-10.0801
▁unfortunately	-10.0801
▁holly	-10.0801
▁reverse	-10.0802
▁surrounded	-10.0802
▁bald	-10.0802
▁thee	-10.0803
▁protection	-10.0804
▁forth	-10.0804
▁gary	-10.0806
▁junior	-10.0806
▁stopping	-10.0806
▁provided	-10.0809
▁noodles	-10.0811
▁gay	-10.0814
▁hammer	-10.0826
▁louise	-10.0843
▁aii	-10.0847
▁searching	-10.085
▁lies	-10.0851
▁shows	-10.0854
ter	-10.0862
▁reached	-10.087
▁terms	-10.0898
▁boots	-10.0919
▁vi	-10.0925
▁oni	-10.0925
▁celebrate	-10.0926
▁tip	-10.0934
▁dang	-10.097
▁waves	-10.0981
▁teaching	-10.0984
▁gune	-10.0987
▁skulls	-10.0991
▁warriors	-10.1
▁hates	-10.1009
▁me	-10.1022
▁fishing	-10.1031
▁cab	-10.1038
▁movies	-10.1047
▁students	-10.1057
▁learning	-10.1064
▁not	-10.1074
go	-10.1075
▁steps	-10.1107
▁li	-10.1115
▁miracles	-10.1143
▁plant	-10.116
▁mans	-10.1163
▁request	-10.1171
▁cub	-10.1187
▁paying	-10.1208
▁cha	-10.1217
▁ja	-10.1224
▁pound	-10.1229
▁scream	-10.1231
▁lap	-10.1251
▁exit	-10.1254
▁guardian	-10.1254
▁whir	-10.1255
▁dolphin	-10.126
back	-10.126
▁pitt	-10.1263
▁adult	-10.1263
▁nun	-10.1269
▁soldier	-10.127
▁indian	-10.1272
▁snake	-10.1273
▁thousands	-10.1288
▁ar	-10.1288
▁rod	-10.1289
▁driver	-10.129
▁brings	-10.1303
▁float	-10.1376
▁drawing	-10.1379
▁trace	-10.1395
▁spare	-10.1404
▁monsters	-10.1405
▁ski	-10.1405
▁remove	-10.1408
▁capture	-10.1411
▁terribl	-10.1412
ge	-10.1413
▁chose	-10.1417
▁robert	-10.1417
▁deck	-10.1419
▁russ	-10.1421
▁apollo	-10.1422
▁cassandra	-10.1422
▁charlene	-10.1422
▁flack	-10.1422
▁headquarters	-10.1422
▁hefty	-10.1422
▁lagoon	-10.1422
▁lonnegan	-10.1422
▁milner	-10.1422
▁peopie	-10.1422
▁quarry	-10.1422
▁rameses	-10.1422
▁sengh	-10.1422
▁senior	-10.1422
▁underneath	-10.1422
▁astronaut	-10.1422
▁cantonese	-10.1422
▁gym	-10.1422
▁laurie	-10.1422
▁sweep	-10.1422
▁desperate	-10.1422
▁henderson	-10.1422
▁unique	-10.1422
▁glorious	-10.1422
▁morris	-10.1422
▁downtown	-10.1422
▁guide	-10.1422
▁helmet	-10.1422
▁shaking	-10.1422
▁impressive	-10.1422
▁exchange	-10.1422
▁behold	-10.1422
▁rash	-10.1422
▁construction	-10.1422
▁grew	-10.1422
▁brotherhood	-10.1422
▁neat	-10.1422
▁sogo	-10.1422
▁trophy	-10.1422
▁gorgeous	-10.1422
▁cities	-10.1422
▁coordinates	-10.1423
▁luigi	-10.1423
▁stallion	-10.1423
▁jb	-10.1423
▁gundy	-10.1423
▁twitch	-10.1423
▁behavior	-10.1423
▁argue	-10.1423
▁iike	-10.1423
▁awake	-10.1424
▁amount	-10.1424
▁concert	-10.1424
▁rumbling	-10.1424
▁aside	-10.1424
▁plain	-10.1425
▁wives	-10.1425
▁bash	-10.1425
▁groom	-10.1425
▁mental	-10.1425
▁daisy	-10.1426
▁lump	-10.1427
▁mall	-10.1427
▁non	-10.1427
▁theme	-10.1429
▁discovered	-10.1433
▁wailing	-10.1434
▁kite	-10.1434
▁annoying	-10.1436
▁microbots	-10.1437
▁scary	-10.1438
▁hike	-10.1444
▁arrested	-10.1446
▁ace	-10.1449
▁preed	-10.1451
▁classes	-10.1454
▁created	-10.1454
▁designed	-10.1455
▁hired	-10.1455
▁windows	-10.1463
▁forced	-10.1466
▁hustle	-10.1471
▁stayed	-10.1472
▁biscuits	-10.1477
▁engineer	-10.1485
▁goat	-10.1499
▁guts	-10.15
▁county	-10.1503
▁patch	-10.1503
▁rooms	-10.1514
▁skills	-10.1517
ily	-10.1523
▁shelly	-10.1525
▁golf	-10.1525
▁somethings	-10.1538
▁scar	-10.1545
▁nana	-10.1551
▁everyones	-10.1553
▁appears	-10.1567
▁signed	-10.158
▁fully	-10.1584
▁toes	-10.1592
▁faces	-10.1598
ina	-10.1601
ta	-10.1621
▁messing	-10.1628
son	-10.1632
▁jumping	-10.1676
▁husbands	-10.1681
▁il	-10.1696
▁checked	-10.1722
▁le	-10.1725
▁sending	-10.1732
ized	-10.1746
▁twenty	-10.1813
▁begins	-10.1822
▁cousins	-10.1833
▁chat	-10.1834
ts	-10.1875
▁te	-10.1882
▁shout	-10.1891
▁sp	-10.19
▁gasp	-10.1901
▁babys	-10.1904
▁creep	-10.1905
▁checking	-10.1907
▁violin	-10.1911
▁hurting	-10.1915
▁seats	-10.1917
▁servant	-10.1919
▁scale	-10.1926
fully	-10.1926
▁scholarship	-10.1929
▁durberville	-10.1931
me	-10.1932
▁issue	-10.1932
▁pops	-10.1933
red	-10.1936
▁appear	-10.194
▁chickens	-10.1955
▁citizen	-10.1967
▁reporter	-10.1975
med	-10.199
▁whip	-10.2005
▁insist	-10.2011
▁crush	-10.2017
board	-10.2038
▁twist	-10.2044
day	-10.2049
beat	-10.2061
▁insult	-10.2061
▁arrest	-10.2063
▁balance	-10.2068
ship	-10.2068
▁bud	-10.2069
▁retire	-10.207
▁damage	-10.2071
▁advance	-10.2072
▁mona	-10.2072
▁dirt	-10.2072
▁wipe	-10.2073
▁actual	-10.2078
▁marc	-10.208
▁gig	-10.2081
▁hits	-10.2085
▁deaf	-10.2087
▁herb	-10.2088
▁photo	-10.2088
▁tour	-10.2088
▁amateur	-10.2088
▁california	-10.2088
▁circumstances	-10.2088
▁companion	-10.2088
▁competition	-10.2088
▁fifteen	-10.2088
▁granada	-10.2088
▁innocent	-10.2088
▁kornpett	-10.2088
▁lydia	-10.2088
▁phantom	-10.2088
▁prescott	-10.2088
▁silver	-10.2088
▁slept	-10.2088
▁stubborn	-10.2088
▁whinnies	-10.2088
▁wicked	-10.2088
▁confidence	-10.2088
▁forbidden	-10.2088
▁racing	-10.2088
▁destiny	-10.2088
▁commercial	-10.2088
▁expensive	-10.2088
▁abdullah	-10.2088
▁flew	-10.2088
▁ladder	-10.2088
▁fortress	-10.2088
▁auction	-10.2088
▁granger	-10.2088
▁tsk	-10.2088
▁wretche	-10.2088
▁lunatic	-10.2089
▁operator	-10.2089
▁turkey	-10.2089
▁piease	-10.2089
▁material	-10.2089
▁donald	-10.2089
▁bradley	-10.2089
▁cowboy	-10.2089
▁foul	-10.2089
▁rewind	-10.2089
▁palace	-10.2089
▁cherry	-10.2089
▁harrison	-10.2089
▁woke	-10.2089
▁orion	-10.2089
▁attic	-10.2089
▁reward	-10.2089
▁superior	-10.2089
▁plot	-10.2089
▁garage	-10.2089
▁soda	-10.2089
▁ambulance	-10.2089
▁anchor	-10.2089
▁district	-10.2089
▁technology	-10.2089
▁chef	-10.2089
▁bodies	-10.2089
▁iook	-10.209
▁penny	-10.209
▁lunchbox	-10.209
▁average	-10.209
▁pit	-10.209
▁whimpering	-10.209
▁stammering	-10.209
▁data	-10.209
▁mummy	-10.209
▁doorbell	-10.209
▁apparently	-10.2091
▁golden	-10.2092
▁equal	-10.2092
▁temper	-10.2092
▁scan	-10.2093
▁marie	-10.2094
▁research	-10.2096
▁motion	-10.2098
▁clay	-10.2098
▁cantrow	-10.2099
▁birth	-10.2099
▁guilty	-10.2099
▁itch	-10.21
▁darn	-10.21
▁disappointed	-10.21
▁farty	-10.2101
▁glasses	-10.2103
▁mud	-10.2103
▁taco	-10.2105
▁mia	-10.2105
▁successful	-10.2108
▁matty	-10.2111
▁disappeared	-10.2113
▁this	-10.2114
▁sec	-10.2117
▁awfully	-10.2118
▁steven	-10.2118
ph	-10.2121
▁hunting	-10.2121
▁concerned	-10.2123
▁growls	-10.2124
▁warned	-10.2126
▁screwed	-10.2131
▁delivery	-10.2136
the	-10.2139
▁locker	-10.2145
▁entirely	-10.2145
▁stronger	-10.2147
▁cal	-10.2147
▁twins	-10.2148
▁sailing	-10.2154
▁belly	-10.2165
▁oldest	-10.2187
▁michaels	-10.2193
▁prayers	-10.2195
▁attacked	-10.2207
▁pills	-10.2233
▁covered	-10.2243
▁joey	-10.2249
▁mist	-10.2255
▁boats	-10.227
▁bones	-10.2273
▁tradition	-10.2282
lf	-10.2284
▁mum	-10.2284
▁ordered	-10.2287
ied	-10.2308
▁streets	-10.2313
▁members	-10.234
▁finding	-10.2366
▁staring	-10.2374
▁ti	-10.2384
▁thin	-10.2389
▁ms	-10.2402
▁si	-10.2419
▁backup	-10.2423
▁fi	-10.2459
▁winds	-10.2489
▁songs	-10.252
▁hon	-10.2527
▁ne	-10.2556
▁beats	-10.2616
▁pharaoh	-10.2625
▁marine	-10.2626
▁screen	-10.2626
▁rainbow	-10.2634
▁value	-10.2635
▁walls	-10.2638
▁holiday	-10.2638
▁affair	-10.2641
▁result	-10.2641
▁option	-10.2645
▁height	-10.2646
▁nasa	-10.2649
▁hawk	-10.2652
▁plate	-10.2655
▁what	-10.2661
ped	-10.2665
▁toy	-10.2666
▁tap	-10.268
▁mistakes	-10.2696
ii	-10.2696
▁pill	-10.2698
▁unh	-10.2699
▁disappear	-10.2728
▁wi	-10.2737
▁piss	-10.2737
▁chuck	-10.2742
▁we	-10.2752
▁film	-10.276
▁wrestle	-10.2761
▁stack	-10.2774
▁smash	-10.2775
▁frighten	-10.2779
▁achieve	-10.2781
▁jones	-10.2782
▁jam	-10.2785
mo	-10.279
▁grant	-10.2795
▁tuck	-10.2796
▁bid	-10.2797
while	-10.2798
▁education	-10.2798
▁lab	-10.2798
▁narnia	-10.2798
▁gentle	-10.28
▁runner	-10.2801
ney	-10.2801
▁inch	-10.2802
▁egypt	-10.2802
▁basket	-10.2802
▁coronation	-10.2803
▁dagger	-10.2803
▁durbeyfield	-10.2803
▁excalibur	-10.2803
▁ignore	-10.2803
▁kgys	-10.2803
▁labyrinth	-10.2803
▁necklace	-10.2803
▁oclock	-10.2803
▁prophecy	-10.2803
▁reggie	-10.2803
▁rhythm	-10.2803
▁silent	-10.2803
▁snyder	-10.2803
▁spretzle	-10.2803
▁struggle	-10.2803
▁tremendous	-10.2803
▁larry	-10.2803
▁mathmos	-10.2803
▁mostly	-10.2803
▁exhibit	-10.2803
▁quality	-10.2803
▁cloak	-10.2803
▁apology	-10.2803
▁potential	-10.2803
▁extraordinary	-10.2803
▁bratitude	-10.2803
▁capcom	-10.2803
▁rubbish	-10.2803
▁reception	-10.2803
▁couch	-10.2803
▁kidnapped	-10.2803
▁plaza	-10.2803
▁terrified	-10.2803
▁authority	-10.2803
▁closing	-10.2803
▁unknown	-10.2803
▁uther	-10.2803
▁traitor	-10.2803
▁cinderella	-10.2803
▁modern	-10.2803
▁formula	-10.2803
▁comin	-10.2803
▁earlier	-10.2803
▁anxious	-10.2803
▁believing	-10.2803
▁bedrock	-10.2803
▁uhuh	-10.2803
▁curry	-10.2803
▁ronny	-10.2803
▁ruffin	-10.2803
▁myth	-10.2803
▁impression	-10.2803
▁alfred	-10.2803
▁lack	-10.2804
▁fuzzy	-10.2804
▁anytime	-10.2804
▁becoming	-10.2804
▁oxygen	-10.2804
▁sensitive	-10.2804
▁valuable	-10.2804
▁huddle	-10.2804
▁beloved	-10.2804
▁principal	-10.2804
▁arguing	-10.2804
▁fo	-10.2805
▁frozen	-10.2805
▁dropping	-10.2805
▁location	-10.2806
▁toss	-10.2806
▁june	-10.2806
▁blonde	-10.2806
▁stock	-10.2807
▁veer	-10.2807
▁clicking	-10.2807
▁fuss	-10.2808
▁presentation	-10.2808
▁freshman	-10.2808
▁ciao	-10.2809
▁indiana	-10.281
▁superheroes	-10.2812
▁laser	-10.2812
▁doomed	-10.2812
▁arranged	-10.2813
▁whisrles	-10.282
▁clicks	-10.282
▁tax	-10.2823
▁ra	-10.2825
▁hah	-10.2827
▁pity	-10.2832
▁bay	-10.2834
▁softly	-10.2834
▁down	-10.2841
▁sweater	-10.2842
▁timing	-10.2844
▁hail	-10.2845
▁escaped	-10.2857
▁letting	-10.2857
▁doctors	-10.2864
▁colored	-10.2866
▁closet	-10.2877
▁mis	-10.2881
▁whoops	-10.2885
▁cia	-10.2893
▁feeding	-10.2897
▁che	-10.29
▁boot	-10.2903
▁offered	-10.2904
▁destroyer	-10.2906
▁singer	-10.291
▁tim	-10.2919
▁traveling	-10.2921
▁makeup	-10.2923
▁corn	-10.2928
▁washed	-10.2928
▁workin	-10.2932
▁pirates	-10.2935
▁hum	-10.2962
▁worker	-10.2967
▁hairy	-10.2974
▁mon	-10.2978
▁plants	-10.299
▁chin	-10.2996
▁winding	-10.3001
▁su	-10.3016
▁cruise	-10.3029
▁shoulders	-10.3039
▁to	-10.3052
▁fist	-10.3053
▁marrying	-10.3055
national	-10.3099
▁starter	-10.3119
▁walker	-10.3121
▁teachers	-10.3135
el	-10.3184
▁catching	-10.3193
▁frye	-10.3196
▁for	-10.3202
▁walks	-10.3217
▁balls	-10.3218
▁ali	-10.3229
▁ended	-10.3236
led	-10.3237
▁perkis	-10.33
ster	-10.332
▁under	-10.3346
▁stink	-10.335
what	-10.3359
▁mentor	-10.3361
▁psycho	-10.3373
▁wa	-10.3384
▁outfit	-10.3395
▁rico	-10.3395
▁hiya	-10.3398
▁daughters	-10.3404
▁costume	-10.341
▁dreaming	-10.341
▁gorilla	-10.3418
▁chick	-10.3421
▁cards	-10.3433
▁titan	-10.3443
▁williams	-10.3443
▁fog	-10.345
looking	-10.3452
▁earn	-10.3472
▁statue	-10.3482
▁thrill	-10.3493
▁shots	-10.3497
▁cass	-10.3516
▁comfort	-10.3517
▁lamb	-10.3526
▁mu	-10.353
▁drill	-10.3541
▁gran	-10.3541
▁develop	-10.3544
▁suspect	-10.3544
▁perform	-10.3547
ate	-10.3551
▁secure	-10.3552
▁replace	-10.3555
▁y	-10.3561
▁hung	-10.3564
▁tomato	-10.3566
▁morgan	-10.3567
▁coin	-10.3568
▁drag	-10.3568
▁bryan	-10.3568
▁gang	-10.3569
▁council	-10.357
▁mmhm	-10.3571
▁remembered	-10.3571
▁slip	-10.3571
▁absurd	-10.3572
▁academy	-10.3572
▁alexander	-10.3572
▁chemical	-10.3572
▁coincidence	-10.3572
▁committee	-10.3572
▁ease	-10.3572
▁elevator	-10.3572
▁flesh	-10.3572
▁grimsdyke	-10.3572
▁heavily	-10.3572
▁illegal	-10.3572
▁kibner	-10.3572
▁memphis	-10.3572
▁penalty	-10.3572
▁practicing	-10.3572
▁sniffing	-10.3572
▁syndicate	-10.3572
▁twelve	-10.3572
▁underground	-10.3572
▁unexpected	-10.3572
▁yabbadabbadoo	-10.3572
▁yoast	-10.3572
▁ceremony	-10.3572
▁duane	-10.3572
▁lyssa	-10.3572
▁naughty	-10.3572
▁drove	-10.3572
▁mitchell	-10.3572
▁seminar	-10.3572
▁shaikh	-10.3572
▁thief	-10.3572
▁fascinating	-10.3572
▁expert	-10.3572
▁puppy	-10.3572
▁lemon	-10.3572
▁alert	-10.3572
▁brody	-10.3572
▁including	-10.3572
▁reputation	-10.3572
▁accent	-10.3572
▁bennell	-10.3572
▁hollywood	-10.3572
▁maintain	-10.3572
▁yasmin	-10.3572
▁credit	-10.3572
▁miami	-10.3572
▁pleasant	-10.3572
▁therefore	-10.3572
▁zap	-10.3572
▁herman	-10.3572
▁toilet	-10.3572
▁fridge	-10.3572
▁begging	-10.3572
▁shane	-10.3572
▁fever	-10.3572
▁whew	-10.3573
▁delightful	-10.3573
▁coyle	-10.3573
▁freezing	-10.3573
▁clare	-10.3573
▁electricity	-10.3573
▁medical	-10.3573
▁drew	-10.3573
▁angle	-10.3573
▁carpathia	-10.3573
▁thick	-10.3573
▁jimbo	-10.3573
▁performance	-10.3573
▁association	-10.3573
▁boof	-10.3573
▁peaches	-10.3573
▁original	-10.3574
▁lars	-10.3574
▁minor	-10.3574
▁lazy	-10.3574
▁happily	-10.3574
jesse	-10.3575
▁promotion	-10.3575
▁messina	-10.3575
▁grandson	-10.3576
▁mice	-10.3576
▁chet	-10.3576
▁whyd	-10.3577
▁standard	-10.3577
▁alan	-10.3577
▁smith	-10.3577
▁lila	-10.3578
▁lean	-10.3579
▁invented	-10.3579
▁squealing	-10.358
▁capable	-10.3581
▁witches	-10.3582
▁spoken	-10.3582
▁proof	-10.3583
▁ballet	-10.3583
▁fox	-10.3584
nix	-10.3585
tion	-10.3585
▁forgetting	-10.3585
▁manual	-10.3586
▁chill	-10.3586
▁cliff	-10.3588
▁forty	-10.3589
▁convinced	-10.359
▁dining	-10.359
▁concept	-10.3591
▁playoffs	-10.3591
▁supplies	-10.3591
▁chanting	-10.3594
▁confirmed	-10.3594
▁union	-10.3596
▁captured	-10.3598
▁loaded	-10.3611
▁blown	-10.3611
▁based	-10.3612
ard	-10.3615
▁searched	-10.3615
▁floating	-10.3624
de	-10.3633
▁hint	-10.3639
▁fort	-10.3644
▁fence	-10.3654
▁delivered	-10.366
▁missions	-10.3664
▁dish	-10.3667
eth	-10.3668
▁mentioned	-10.3673
▁lookin	-10.3682
▁swor	-10.3683
▁sa	-10.3684
▁ap	-10.3688
▁owners	-10.3734
▁protecting	-10.3762
pe	-10.3763
▁manor	-10.3793
▁signor	-10.3794
▁bum	-10.3795
▁product	-10.3799
▁cats	-10.3801
▁u	-10.3802
▁ln	-10.3812
▁tells	-10.3831
▁stare	-10.3834
▁ki	-10.3836
▁torture	-10.3839
▁ay	-10.3843
▁sticks	-10.3854
▁rip	-10.3856
▁med	-10.3866
rage	-10.3871
▁tone	-10.3909
erial	-10.3913
ature	-10.3914
▁touching	-10.3919
▁subject	-10.3923
▁gal	-10.4013
▁shoo	-10.4047
▁dealing	-10.4049
ow	-10.4055
hand	-10.4118
ea	-10.4123
▁stands	-10.4128
▁thoughts	-10.4131
▁stor	-10.4152
▁wrap	-10.4189
▁positions	-10.4191
▁whistles	-10.4192
▁bark	-10.42
▁port	-10.422
▁sw	-10.4227
▁stargazer	-10.4228
▁potion	-10.423
▁explode	-10.4231
▁occasion	-10.4235
▁paw	-10.4236
▁mirror	-10.4236
▁brick	-10.4238
▁manticore	-10.4241
▁depth	-10.4241
▁object	-10.4241
▁newspaper	-10.4244
▁contain	-10.4244
▁balloon	-10.4244
▁saint	-10.4245
nd	-10.4245
▁glove	-10.4248
▁masterbuilder	-10.425
▁pirate	-10.4253
▁chances	-10.4255
▁rear	-10.4265
▁hopes	-10.4309
▁spray	-10.431
▁he	-10.4326
▁mount	-10.4326
▁photograph	-10.4339
▁screech	-10.4359
foot	-10.4363
▁study	-10.4367
▁tackle	-10.4368
▁hunt	-10.4369
▁success	-10.4378
▁announce	-10.4379
▁cod	-10.4379
▁defeat	-10.4379
▁intend	-10.4381
▁suits	-10.4389
▁rent	-10.4391
ming	-10.4393
▁obvious	-10.4395
▁typ	-10.4396
▁trail	-10.4396
▁immediate	-10.44
▁russia	-10.4401
▁smooth	-10.4402
▁runnin	-10.4404
▁disgrace	-10.4404
▁applaud	-10.4405
▁ashamed	-10.4405
▁awkward	-10.4405
▁certificate	-10.4405
▁corridor	-10.4405
▁dawson	-10.4405
▁dentist	-10.4405
▁eventually	-10.4405
▁explanation	-10.4405
▁federal	-10.4405
▁footsteps	-10.4405
▁garrett	-10.4405
▁incoming	-10.4405
▁kimberly	-10.4405
▁korso	-10.4405
▁krupp	-10.4405
▁largo	-10.4405
▁mulch	-10.4405
▁orchestra	-10.4405
▁philadelphia	-10.4405
▁referee	-10.4405
▁resort	-10.4405
▁specimen	-10.4405
▁splinter	-10.4405
▁supreme	-10.4405
▁tyrant	-10.4405
▁ufc	-10.4405
▁underwear	-10.4405
▁vacuum	-10.4405
▁victim	-10.4405
▁welsh	-10.4405
▁wyldstyle	-10.4405
▁byzanium	-10.4405
▁dort	-10.4405
▁gear	-10.4405
▁automatic	-10.4405
▁library	-10.4405
▁compete	-10.4405
▁demonstration	-10.4405
▁picnic	-10.4405
▁treasure	-10.4405
▁caddie	-10.4405
▁delicate	-10.4405
▁freddie	-10.4405
▁marvelous	-10.4405
▁palermo	-10.4405
▁protest	-10.4405
▁adorable	-10.4405
▁stiles	-10.4405
▁riley	-10.4405
▁forfeit	-10.4405
▁beardsley	-10.4405
▁enemies	-10.4405
▁whoville	-10.4405
▁medicine	-10.4405
▁pecan	-10.4405
▁communist	-10.4405
▁fishfinger	-10.4405
▁hooray	-10.4405
▁mambo	-10.4405
▁entrance	-10.4405
▁bidding	-10.4405
▁curious	-10.4405
▁hippo	-10.4405
▁finley	-10.4405
▁phoebe	-10.4405
▁raven	-10.4405
▁martha	-10.4406
▁splash	-10.4406
▁remark	-10.4406
▁leap	-10.4406
▁april	-10.4406
▁hailey	-10.4406
▁karp	-10.4406
▁albert	-10.4406
▁delos	-10.4406
▁blah	-10.4406
▁ripped	-10.4406
▁embassy	-10.4406
▁galaxy	-10.4406
▁intelligence	-10.4406
▁struck	-10.4407
▁knowledge	-10.4407
▁slot	-10.4407
▁suicide	-10.4407
▁sunset	-10.4407
▁marty	-10.4407
▁injured	-10.4407
▁hidden	-10.4407
▁coke	-10.4407
▁comment	-10.4407
▁romance	-10.4408
▁announcement	-10.4408
▁skinny	-10.4408
▁hirota	-10.4408
▁fanny	-10.4408
▁topsy	-10.4408
▁juice	-10.4408
▁goose	-10.4409
▁charity	-10.4409
▁squad	-10.4409
▁diner	-10.4409
▁liz	-10.4409
▁disco	-10.4409
▁bold	-10.441
▁chest	-10.441
▁izzy	-10.441
▁belief	-10.4411
▁fries	-10.4411
▁buckle	-10.4411
▁spotted	-10.4411
▁quitting	-10.4411
▁roberto	-10.4412
▁cruel	-10.4412
▁troops	-10.4413
▁oss	-10.4413
▁polly	-10.4413
▁pm	-10.4414
▁sensor	-10.4414
▁worthless	-10.4414
▁stress	-10.4414
▁pot	-10.4414
▁badge	-10.4415
▁sandwiches	-10.4416
▁stalk	-10.4417
▁cutting	-10.4417
▁aim	-10.4422
▁sixth	-10.4424
▁superman	-10.4424
▁campers	-10.4425
▁hooting	-10.4426
▁retired	-10.4426
▁gutsy	-10.4427
▁delighted	-10.4429
▁dramatic	-10.4432
▁hans	-10.4432
▁iet	-10.4433
▁fal	-10.4434
▁wrestler	-10.4434
▁thrilled	-10.4434
▁brand	-10.4434
▁alpha	-10.4437
▁roy	-10.444
▁of	-10.4443
▁survived	-10.4449
▁vice	-10.4452
▁details	-10.4453
▁duel	-10.4458
▁rd	-10.4462
▁wee	-10.4463
▁blessed	-10.4464
▁gotcha	-10.4466
▁entered	-10.4476
▁moral	-10.4483
▁cheating	-10.4492
▁centr	-10.4493
▁onions	-10.4508
▁muscles	-10.4509
▁pas	-10.4528
▁timeout	-10.4534
▁heels	-10.4536
▁shade	-10.4541
ite	-10.4547
▁heal	-10.4551
▁sin	-10.4555
▁freaking	-10.4556
▁lied	-10.4559
▁tend	-10.4562
▁laughed	-10.4577
op	-10.4585
king	-10.4613
▁til	-10.4614
oohoo	-10.4626
▁surprises	-10.4643
▁pushing	-10.4654
▁exists	-10.4674
▁opera	-10.4687
di	-10.4735
▁tunnels	-10.4743
▁reminds	-10.4758
▁championships	-10.4771
▁deserves	-10.4786
▁understanding	-10.4797
▁showing	-10.4798
ier	-10.4809
▁wished	-10.481
▁term	-10.4819
▁measure	-10.4819
▁lu	-10.4831
ial	-10.485
▁colors	-10.4856
▁mode	-10.4886
ey	-10.4892
ps	-10.4895
▁fe	-10.4902
▁bot	-10.4914
▁depend	-10.4925
▁tracks	-10.494
▁beasts	-10.494
▁strikes	-10.4941
▁drums	-10.4944
ette	-10.4954
▁computers	-10.4955
▁wha	-10.496
▁jobs	-10.4968
▁cad	-10.4977
her	-10.4987
▁bounce	-10.4991
▁mini	-10.5014
▁ken	-10.5018
▁gumm	-10.5018
like	-10.5025
▁agents	-10.5025
ee	-10.5033
▁bri	-10.5068
▁whee	-10.5069
▁shoe	-10.5094
ass	-10.5094
▁jokes	-10.51
▁tips	-10.5105
▁annu	-10.5107
za	-10.5114
▁buck	-10.5121
▁vow	-10.5127
▁trunk	-10.5137
▁governor	-10.5137
▁trial	-10.5138
▁cigarette	-10.5145
▁beak	-10.5146
▁sailor	-10.5149
▁clown	-10.5152
▁loski	-10.5153
▁experiment	-10.5154
▁league	-10.5155
▁nerve	-10.5156
▁string	-10.5157
▁banana	-10.5159
▁toward	-10.5162
▁sucker	-10.5163
▁lick	-10.5164
▁charges	-10.5169
▁cancel	-10.5174
▁breaks	-10.5225
▁dick	-10.523
▁confirm	-10.5235
▁charm	-10.5236
ford	-10.5249
▁nu	-10.5253
west	-10.5254
▁organ	-10.5257
book	-10.5264
load	-10.5268
▁systems	-10.5269
▁qyack	-10.5269
▁leak	-10.5269
▁hack	-10.5273
▁corps	-10.5274
▁image	-10.5285
▁sauce	-10.5287
▁repair	-10.5287
▁delight	-10.5291
lake	-10.5292
▁receive	-10.53
▁shave	-10.5301
away	-10.5302
▁particular	-10.5303
▁neighbor	-10.5304
▁conquer	-10.5309
▁mystic	-10.5309
▁commit	-10.5311
▁fortuna	-10.5313
▁stew	-10.5314
▁poison	-10.5314
▁tattoo	-10.5314
▁afterwards	-10.5314
▁amigo	-10.5314
▁anyhow	-10.5314
▁aziz	-10.5314
▁beneath	-10.5314
▁cactus	-10.5314
▁campaign	-10.5314
▁corcoran	-10.5314
▁dazzling	-10.5314
▁destination	-10.5314
▁dorothea	-10.5314
▁dwayne	-10.5314
▁elise	-10.5314
▁explosion	-10.5314
▁griselda	-10.5314
▁guvnor	-10.5314
▁ibm	-10.5314
▁increase	-10.5314
▁minnesota	-10.5314
▁mtv	-10.5314
▁mvp	-10.5314
▁otter	-10.5314
▁patrol	-10.5314
▁reentry	-10.5314
▁routine	-10.5314
▁sofa	-10.5314
▁spear	-10.5314
▁squeaking	-10.5314
▁symbol	-10.5314
▁territory	-10.5314
▁vegetarian	-10.5314
▁vodka	-10.5314
▁widow	-10.5314
▁wisdom	-10.5314
▁wrightwood	-10.5314
▁calculations	-10.5314
▁despair	-10.5314
▁montrose	-10.5314
▁rookie	-10.5314
▁justin	-10.5314
▁policy	-10.5314
▁resent	-10.5314
▁advantage	-10.5314
▁audience	-10.5314
▁susan	-10.5314
▁activity	-10.5314
▁presence	-10.5314
▁employee	-10.5314
▁slomo	-10.5314
▁popcorn	-10.5314
▁pursuit	-10.5314
▁foam	-10.5314
▁underwater	-10.5314
▁pacific	-10.5315
▁revving	-10.5315
▁motor	-10.5315
▁felix	-10.5315
▁monitor	-10.5315
▁digging	-10.5315
▁adrian	-10.5315
▁fernandes	-10.5315
▁thomson	-10.5315
▁budget	-10.5315
▁addition	-10.5315
▁sherman	-10.5315
▁huntington	-10.5315
▁mumbling	-10.5315
▁ojo	-10.5315
▁estate	-10.5315
▁rejoice	-10.5315
▁franklin	-10.5315
▁pastuzo	-10.5315
▁springfield	-10.5315
▁passionate	-10.5315
▁personnel	-10.5315
▁rabies	-10.5315
▁concentrate	-10.5315
▁geez	-10.5315
▁satisfied	-10.5316
▁species	-10.5316
▁jimmy	-10.5316
▁grandchildren	-10.5316
▁chili	-10.5316
▁beef	-10.5316
▁robin	-10.5316
▁brush	-10.5316
▁task	-10.5316
▁flash	-10.5316
▁anger	-10.5316
▁escort	-10.5316
▁society	-10.5317
▁clattering	-10.5317
▁lightning	-10.5317
▁spain	-10.5317
▁potatoes	-10.5317
▁whatll	-10.5317
▁signature	-10.5317
▁theory	-10.5318
▁beings	-10.5318
▁freshmen	-10.5318
▁expression	-10.5319
▁cameron	-10.5319
▁luisa	-10.5319
▁spies	-10.5319
▁cole	-10.5319
▁salad	-10.532
▁formation	-10.532
▁farren	-10.532
▁sang	-10.532
▁stealth	-10.5321
▁dishes	-10.5321
▁utter	-10.5321
▁shallow	-10.5321
▁manager	-10.5322
▁sum	-10.5322
▁china	-10.5323
▁stammers	-10.5323
▁threatened	-10.5323
▁approved	-10.5325
▁christian	-10.5325
▁bout	-10.5326
▁curly	-10.5326
▁mac	-10.5328
▁engaged	-10.5329
▁dial	-10.533
▁established	-10.5331
▁slightly	-10.5332
▁muttering	-10.5332
▁likely	-10.5332
▁honks	-10.5337
▁creepy	-10.5337
▁useful	-10.5339
▁daylight	-10.5339
▁classic	-10.5341
▁decker	-10.5342
▁bleeding	-10.5345
▁perfection	-10.5348
▁granted	-10.5349
▁ni	-10.5351
▁ancestors	-10.5352
▁beeps	-10.5353
▁corpse	-10.5355
▁off	-10.5356
▁mid	-10.5362
▁served	-10.5364
▁claws	-10.5367
▁passes	-10.5367
▁thorns	-10.5367
▁normally	-10.5368
▁cheated	-10.5375
▁you	-10.5375
▁fools	-10.5376
▁daddys	-10.5376
▁here	-10.538
▁exclaims	-10.5382
▁thas	-10.5386
▁banging	-10.54
▁mob	-10.5403
▁martin	-10.5408
li	-10.5413
▁po	-10.5422
▁officers	-10.5422
▁drugs	-10.5427
▁relatives	-10.5427
▁fil	-10.5429
▁roast	-10.5437
▁feelin	-10.5441
▁handled	-10.5447
▁counter	-10.5456
▁cutters	-10.546
▁raining	-10.5463
▁enjoyed	-10.5465
▁bananas	-10.5473
▁fianc	-10.5473
▁whas	-10.5479
▁counts	-10.5484
▁shown	-10.5486
▁grounded	-10.5487
▁masterbuilders	-10.5488
▁painful	-10.5488
ka	-10.5489
▁barks	-10.549
▁coaching	-10.5504
▁offering	-10.5525
▁rode	-10.5532
▁snakes	-10.5548
▁laps	-10.5551
▁cleaned	-10.5552
▁flu	-10.5553
▁voices	-10.5561
▁ju	-10.5562
▁slaves	-10.5564
▁covers	-10.5577
▁when	-10.5581
▁clouds	-10.5595
▁indicate	-10.5597
▁conditions	-10.5611
▁winters	-10.5613
▁range	-10.5622
▁pigs	-10.5626
▁va	-10.5632
▁sings	-10.5636
▁remains	-10.5658
vi	-10.5661
bon	-10.5684
▁grandmas	-10.5694
▁wanting	-10.5704
▁buttons	-10.5718
▁cases	-10.574
▁forms	-10.5743
▁deed	-10.576
▁ch	-10.5773
ball	-10.5785
kin	-10.5787
▁sto	-10.5805
▁talks	-10.5808
▁deb	-10.5821
ated	-10.5839
▁peel	-10.5841
▁cheers	-10.5846
▁shove	-10.5855
▁clearing	-10.5859
▁lan	-10.5896
▁bets	-10.5902
▁holds	-10.5909
▁blocks	-10.5913
ca	-10.5922
▁gum	-10.5925
▁idiots	-10.5935
▁site	-10.5942
▁headed	-10.595
ati	-10.5972
ny	-10.5975
ton	-10.601
▁inn	-10.601
▁shoots	-10.6017
ory	-10.6044
▁sh	-10.6051
▁teams	-10.6058
▁helped	-10.6096
▁wh	-10.61
▁parent	-10.6122
▁arrive	-10.6136
▁steak	-10.6137
▁rack	-10.6137
▁lamp	-10.6138
▁electric	-10.6139
▁chart	-10.6146
▁punk	-10.6148
▁basic	-10.6149
▁elbow	-10.615
▁shutter	-10.6153
▁inc	-10.6155
▁compliment	-10.6156
▁graduate	-10.6158
▁knee	-10.6158
▁feather	-10.6159
▁heel	-10.6162
▁immortal	-10.6163
▁skill	-10.6165
▁cutter	-10.6166
▁dollar	-10.6166
▁beside	-10.6167
▁broad	-10.6169
▁cakes	-10.6171
▁heroic	-10.6172
▁cor	-10.6179
▁prayer	-10.6182
▁tin	-10.6194
▁suite	-10.62
▁dudes	-10.6235
▁nail	-10.6238
▁gut	-10.6248
ping	-10.6261
▁drama	-10.6282
box	-10.6286
▁rick	-10.629
free	-10.6291
▁puzzle	-10.6294
▁assume	-10.6297
▁guilt	-10.6299
▁convince	-10.6301
▁trap	-10.6302
▁eternal	-10.6302
▁instant	-10.6303
▁dom	-10.6303
▁absolute	-10.6304
▁solve	-10.6305
▁chris	-10.6306
▁risin	-10.6313
ini	-10.6313
▁threat	-10.6313
▁text	-10.6314
▁lailailailai	-10.6314
▁pizza	-10.6314
▁resist	-10.6314
▁affirmative	-10.6314
▁ambassador	-10.6314
▁archbishop	-10.6314
▁athletic	-10.6314
▁bammbamm	-10.6314
▁bargain	-10.6314
▁boycott	-10.6314
▁bubbie	-10.6314
▁carpet	-10.6314
▁chimpanzee	-10.6314
▁colwyn	-10.6314
▁craven	-10.6314
▁elevar	-10.6314
▁evelyn	-10.6314
▁evidence	-10.6314
▁explosiveskull	-10.6314
▁garner	-10.6314
▁helicopter	-10.6314
▁isiand	-10.6314
▁julianna	-10.6314
▁kangaroo	-10.6314
▁lloyd	-10.6314
▁niece	-10.6314
▁nikki	-10.6314
▁ouimet	-10.6314
▁privacy	-10.6314
▁razor	-10.6314
▁review	-10.6314
▁rifle	-10.6314
▁schwartzwalder	-10.6314
▁soccer	-10.6314
▁stupendous	-10.6314
▁sunrise	-10.6314
▁surveillance	-10.6314
▁survival	-10.6314
▁tokyo	-10.6314
▁trajectory	-10.6314
▁trisha	-10.6314
▁vitruvius	-10.6314
▁candle	-10.6314
▁hungarian	-10.6314
▁swallow	-10.6314
▁toad	-10.6314
▁barrel	-10.6314
▁fierce	-10.6314
▁burden	-10.6314
▁cortez	-10.6314
▁gracious	-10.6314
▁bachelorette	-10.6314
▁charmaine	-10.6314
▁illusion	-10.6314
▁stream	-10.6314
▁claude	-10.6314
▁horizon	-10.6314
▁roam	-10.6314
▁excitement	-10.6314
▁hyper	-10.6314
▁wagon	-10.6314
▁profit	-10.6314
▁worries	-10.6314
▁pedal	-10.6314
▁colour	-10.6314
▁celebration	-10.6315
▁japan	-10.6315
▁sheryl	-10.6315
▁bicycle	-10.6315
▁otho	-10.6315
▁assistance	-10.6315
▁healthcare	-10.6315
▁gentry	-10.6315
▁novel	-10.6315
▁phoe	-10.6315
▁behalf	-10.6315
▁wimp	-10.6315
▁moonwind	-10.6315
▁sharkboy	-10.6315
▁shotgun	-10.6315
▁mamaji	-10.6315
▁appetite	-10.6315
▁buff	-10.6315
▁rattle	-10.6315
▁dull	-10.6315
▁starving	-10.6315
▁tennis	-10.6315
▁confession	-10.6315
▁mickey	-10.6315
▁confident	-10.6315
▁oliver	-10.6315
▁chaos	-10.6316
▁collar	-10.6316
▁kansas	-10.6316
▁possibility	-10.6316
▁powder	-10.6316
▁saddle	-10.6316
▁sacred	-10.6316
▁accountant	-10.6316
▁exhausted	-10.6316
▁overtime	-10.6316
▁pippi	-10.6316
▁objective	-10.6316
▁bucket	-10.6316
▁sunny	-10.6317
▁jammed	-10.6317
▁chew	-10.6317
▁ayah	-10.6317
▁indoor	-10.6317
▁wax	-10.6317
▁bunk	-10.6317
▁christina	-10.6318
▁modest	-10.6318
▁firebird	-10.6318
▁constant	-10.6318
▁drift	-10.6319
▁executed	-10.6319
▁avery	-10.6319
▁amongst	-10.6319
▁technically	-10.632
▁williamson	-10.632
▁palmer	-10.632
▁dna	-10.632
▁coughing	-10.6321
▁personality	-10.6321
▁lever	-10.6321
▁theatre	-10.6322
▁necktie	-10.6322
▁janie	-10.6322
▁xl	-10.6322
▁strategy	-10.6322
▁growth	-10.6322
▁related	-10.6323
▁michaelson	-10.6323
▁mint	-10.6323
▁worm	-10.6324
▁mor	-10.6324
▁haha	-10.6324
▁update	-10.6324
▁nigger	-10.6324
▁emily	-10.6324
▁solo	-10.6325
▁host	-10.6325
▁acky	-10.6326
▁hose	-10.6327
▁compared	-10.6328
▁cargo	-10.6329
im	-10.6329
▁separated	-10.6329
▁tau	-10.6329
▁bush	-10.633
▁setting	-10.6332
▁creed	-10.6332
▁buckley	-10.6334
▁pole	-10.6335
▁nerd	-10.6336
▁campus	-10.6339
▁scraps	-10.6339
▁advanced	-10.634
▁rapids	-10.634
▁lo	-10.6342
▁divorced	-10.6343
▁goodnight	-10.6343
▁prey	-10.6344
▁oops	-10.6344
▁bury	-10.6345
▁lifetime	-10.6349
▁bent	-10.635
▁earned	-10.635
▁nailed	-10.6356
▁lawn	-10.636
▁bare	-10.6367
▁loudly	-10.6369
▁vegetables	-10.6373
▁manners	-10.6373
▁bills	-10.6379
▁switched	-10.638
right	-10.638
▁groves	-10.639
▁smaller	-10.6397
▁considered	-10.64
▁painted	-10.6403
▁burned	-10.6406
▁drain	-10.6406
▁awaits	-10.6407
▁anti	-10.6407
▁packed	-10.6413
▁fame	-10.6418
▁bass	-10.642
▁shadows	-10.6423
▁mikey	-10.6425
▁farming	-10.6426
▁marked	-10.6426
▁purp	-10.643
▁colt	-10.6432
▁dings	-10.6437
▁metaphors	-10.644
v	-10.644
▁accepted	-10.644
▁prisoners	-10.6443
▁entering	-10.6446
▁crossed	-10.6456
▁mare	-10.6457
▁fir	-10.6463
▁sk	-10.6465
ent	-10.6477
ov	-10.6477
▁casey	-10.648
▁safely	-10.648
ible	-10.648
▁tested	-10.6481
▁bobbin	-10.6501
▁sins	-10.6501
▁citizens	-10.6503
▁honored	-10.6507
em	-10.6509
▁fooled	-10.651
▁chicks	-10.6524
▁visiting	-10.6526
▁reed	-10.6531
▁beard	-10.6532
▁defi	-10.654
▁plates	-10.6543
▁nap	-10.655
ks	-10.6552
my	-10.6563
▁reporters	-10.6577
▁testing	-10.658
▁stan	-10.658
▁rolling	-10.6586
▁mol	-10.6587
▁hills	-10.66
oft	-10.6602
▁gus	-10.6604
▁wondered	-10.6605
▁bullets	-10.6608
▁chains	-10.661
▁now	-10.6616
▁lend	-10.6622
▁wears	-10.6632
▁tales	-10.6636
field	-10.6638
▁produce	-10.6638
▁bake	-10.6666
ten	-10.6669
▁handy	-10.6674
▁ham	-10.6688
▁waters	-10.6691
▁bored	-10.6699
▁fighters	-10.6707
▁rounds	-10.6719
▁souther	-10.6723
▁provide	-10.6723
▁savings	-10.6728
ung	-10.6737
▁signing	-10.6739
▁bound	-10.6741
▁wor	-10.676
▁files	-10.6771
▁iii	-10.6773
▁seas	-10.6782
▁kissing	-10.6783
▁strangers	-10.6788
▁schools	-10.6793
▁pace	-10.6811
▁badly	-10.6812
▁cr	-10.6815
be	-10.6832
▁treats	-10.6851
▁dreamed	-10.6864
▁tastes	-10.6865
▁quarters	-10.6866
▁stuffed	-10.6889
kins	-10.689
▁notes	-10.6894
▁gin	-10.6944
▁sm	-10.6963
▁dar	-10.6975
andy	-10.6994
▁despi	-10.7002
▁seasons	-10.7005
▁mc	-10.7016
ol	-10.7023
cha	-10.7023
▁mop	-10.7071
gan	-10.7072
▁spa	-10.7107
tan	-10.7122
▁greeks	-10.7128
▁cla	-10.7139
▁angels	-10.7148
▁meaning	-10.7152
ri	-10.7178
▁mega	-10.7192
io	-10.7195
un	-10.7203
clear	-10.7213
▁gen	-10.7228
▁stones	-10.7233
▁sacrifice	-10.7239
▁chirp	-10.7248
▁item	-10.7248
▁meatball	-10.725
▁booth	-10.7253
▁medal	-10.7254
▁frog	-10.7255
▁rooster	-10.7256
▁rabbit	-10.7256
▁jock	-10.7256
▁pigeon	-10.7261
▁rubble	-10.7261
▁connection	-10.7262
▁wednesday	-10.7263
▁jesuit	-10.7266
▁possession	-10.7266
▁brake	-10.7273
▁degree	-10.7274
▁hen	-10.7274
▁pod	-10.7282
▁seal	-10.7285
▁exception	-10.7286
▁clubs	-10.7287
▁drawer	-10.7294
maker	-10.7296
▁bombs	-10.732
rdy	-10.7326
▁millions	-10.7341
▁tag	-10.7349
▁skip	-10.7353
da	-10.7364
▁flee	-10.7366
bo	-10.7375
hut	-10.7379
▁sentence	-10.7379
cliff	-10.7382
▁echo	-10.7382
▁liver	-10.7382
▁respond	-10.7384
▁delay	-10.7396
▁display	-10.7396
▁wast	-10.7397
▁betray	-10.7399
▁behave	-10.7405
▁crow	-10.7407
▁separate	-10.7409
▁propose	-10.741
▁permanent	-10.7414
▁prop	-10.7414
▁urgent	-10.7414
▁sudden	-10.7415
▁marsha	-10.7416
▁torpedo	-10.742
▁crick	-10.7423
▁gorge	-10.7424
▁orphan	-10.7424
shot	-10.7425
▁arrival	-10.7425
▁ashira	-10.7425
▁bartolini	-10.7425
▁beautifui	-10.7425
▁bluenote	-10.7425
▁bouchard	-10.7425
▁capital	-10.7425
▁centuries	-10.7425
▁cinnamon	-10.7425
▁circuit	-10.7425
▁cleveland	-10.7425
▁dogpile	-10.7425
▁dynamite	-10.7425
▁hallelujah	-10.7425
▁halloween	-10.7425
▁hawthorne	-10.7425
▁interview	-10.7425
▁ipod	-10.7425
▁kimono	-10.7425
▁laundry	-10.7425
▁lengyel	-10.7425
▁lincoln	-10.7425
▁madison	-10.7425
▁minneapolis	-10.7425
▁nantucket	-10.7425
▁odile	-10.7425
▁offensive	-10.7425
▁patricia	-10.7425
▁pennant	-10.7425
▁perceval	-10.7425
▁portuguese	-10.7425
▁presume	-10.7425
▁reckon	-10.7425
▁refund	-10.7425
▁reilly	-10.7425
▁ricardo	-10.7425
▁rodrigo	-10.7425
▁snips	-10.7425
▁squeaks	-10.7425
▁tatiana	-10.7425
▁tatianna	-10.7425
▁thirteen	-10.7425
▁trigger	-10.7425
▁twirl	-10.7425
▁ultimate	-10.7425
▁violet	-10.7425
▁vocalizing	-10.7425
▁winslow	-10.7425
▁xavier	-10.7425
▁neighbourhood	-10.7425
▁opponent	-10.7425
▁profile	-10.7425
▁crikey	-10.7425
▁frown	-10.7425
▁biology	-10.7425
▁rhonda	-10.7425
▁thatd	-10.7425
▁vardon	-10.7425
▁beetle	-10.7425
▁cancer	-10.7425
▁determine	-10.7425
▁extension	-10.7425
▁ceiling	-10.7426
▁portokalos	-10.7426
▁gonogo	-10.7426
▁mankind	-10.7426
▁empire	-10.7426
▁unfair	-10.7426
▁aaron	-10.7426
▁venture	-10.7426
▁avenue	-10.7426
▁creek	-10.7426
▁lewis	-10.7426
▁boogie	-10.7426
▁casa	-10.7426
▁realise	-10.7426
▁irene	-10.7426
▁lobby	-10.7426
▁obey	-10.7426
▁blob	-10.7426
▁diane	-10.7426
▁jewelry	-10.7426
▁recall	-10.7426
▁weld	-10.7426
▁brooke	-10.7426
▁fiom	-10.7426
▁trend	-10.7426
▁shiny	-10.7426
▁stool	-10.7426
▁darren	-10.7426
▁kenny	-10.7426
▁romero	-10.7426
▁oath	-10.7426
▁colum	-10.7426
ville	-10.7426
▁pronounce	-10.7426
▁register	-10.7426
▁slice	-10.7426
▁embrace	-10.7426
▁grid	-10.7426
▁dirk	-10.7426
▁sheep	-10.7426
▁stevenson	-10.7426
▁kong	-10.7426
▁facility	-10.7427
▁eighteen	-10.7427
▁jake	-10.7427
▁thou	-10.7427
▁dedicated	-10.7427
▁critical	-10.7427
▁highpi	-10.7427
▁entertainment	-10.7427
▁facing	-10.7427
▁nephew	-10.7427
▁educate	-10.7427
▁thirty	-10.7427
▁comic	-10.7427
▁quill	-10.7427
▁honour	-10.7427
▁steel	-10.7427
▁squeeze	-10.7427
▁owned	-10.7427
▁hardware	-10.7427
▁oui	-10.7427
▁sentimental	-10.7427
▁distant	-10.7427
▁fbi	-10.7427
▁reservation	-10.7427
▁firewood	-10.7427
▁chores	-10.7428
▁bedell	-10.7428
▁gunshot	-10.7428
▁nickel	-10.7428
▁starfish	-10.7428
▁gail	-10.7428
▁layla	-10.7428
▁rumble	-10.7428
▁coleman	-10.7428
▁peak	-10.7428
▁dickon	-10.7428
▁portman	-10.7428
▁gently	-10.7428
▁shares	-10.7428
▁amazed	-10.7429
▁shelby	-10.7429
▁taik	-10.7429
▁tries	-10.7429
▁marcus	-10.7429
▁rubber	-10.7429
tail	-10.743
▁mackenzie	-10.743
▁smoking	-10.743
▁thirsty	-10.743
▁existence	-10.743
▁hush	-10.743
▁accidentally	-10.743
▁stiff	-10.743
▁soar	-10.7431
▁alas	-10.7431
▁foolish	-10.7431
▁dating	-10.7432
fire	-10.7432
▁knockout	-10.7432
▁domino	-10.7433
▁overman	-10.7433
▁barry	-10.7433
▁heartbeat	-10.7434
▁steer	-10.7434
▁bedtime	-10.7434
▁aware	-10.7434
▁hideous	-10.7435
▁layers	-10.7435
▁sonny	-10.7436
▁sore	-10.7436
▁earrings	-10.7436
▁whimpers	-10.7436
▁recovery	-10.7436
▁mayol	-10.7437
▁stranded	-10.7437
▁ins	-10.7439
▁embarrassed	-10.744
▁ew	-10.744
▁mustache	-10.744
▁straighten	-10.7442
▁distract	-10.7442
▁snoring	-10.7443
▁status	-10.7444
▁billion	-10.7444
▁libert	-10.7444
▁organized	-10.7445
▁connected	-10.7446
▁thorne	-10.7446
▁will	-10.7447
▁tyre	-10.7447
▁pour	-10.7447
▁cody	-10.7448
▁downloaded	-10.7449
▁longhorns	-10.7454
▁carrots	-10.7454
▁backyard	-10.7455
▁properly	-10.7457
▁boiling	-10.7458
▁sexy	-10.746
▁defeated	-10.7461
ummy	-10.7462
▁louder	-10.7466
▁pissed	-10.7468
▁lone	-10.7468
▁boxes	-10.7469
▁sheets	-10.7473
▁ribs	-10.7473
▁sparky	-10.7473
▁teammates	-10.7474
▁backwards	-10.7474
▁lb	-10.7474
▁mar	-10.7481
▁ringo	-10.7483
▁dee	-10.7484
▁safer	-10.7485
than	-10.7485
▁stinking	-10.7489
▁kisses	-10.7491
▁zorgons	-10.7491
▁debts	-10.7492
▁erica	-10.7493
▁buzzer	-10.7497
▁talented	-10.7498
▁deeper	-10.75
▁shi	-10.75
▁frankly	-10.7506
▁reminded	-10.7507
▁habits	-10.751
▁waponis	-10.751
▁customers	-10.7511
▁tubes	-10.7512
▁tons	-10.7522
▁quested	-10.7522
▁treated	-10.7526
ot	-10.7527
▁clients	-10.7528
▁browns	-10.7536
▁link	-10.7539
▁pretending	-10.7553
▁cracking	-10.7554
▁mutt	-10.7564
▁observe	-10.757
▁grabb	-10.7582
▁worthy	-10.7588
▁tech	-10.7588
▁writer	-10.7596
ook	-10.761
▁neighbors	-10.7617
▁ooo	-10.7631
▁recording	-10.7637
▁pushed	-10.7639
▁gloves	-10.7642
▁pr	-10.7642
▁stinks	-10.7663
▁waiter	-10.7667
▁heights	-10.768
▁pope	-10.7687
ni	-10.7696
▁issues	-10.7699
▁durbervilles	-10.7699
▁shouts	-10.77
▁gu	-10.7704
we	-10.7704
nce	-10.7706
ber	-10.7713
▁nuns	-10.7719
ors	-10.7734
▁circles	-10.7737
▁monkeys	-10.7737
▁gene	-10.7746
▁ber	-10.7747
ett	-10.7749
▁dino	-10.7756
▁cowards	-10.7757
ef	-10.7759
▁uncles	-10.7772
▁fooling	-10.7776
▁rangers	-10.7778
▁roses	-10.7779
▁sucks	-10.7798
▁ads	-10.781
▁adventures	-10.7819
▁vin	-10.783
kov	-10.785
▁cleared	-10.7851
▁joining	-10.7855
▁ping	-10.7876
▁caused	-10.7888
▁weekends	-10.7891
iest	-10.7909
▁admire	-10.7909
▁sharks	-10.7911
ven	-10.7917
▁tr	-10.7917
▁lessons	-10.7932
gh	-10.7952
▁costs	-10.797
fish	-10.7981
▁sounding	-10.7997
▁traditional	-10.8013
▁sta	-10.8016
▁del	-10.8019
▁hips	-10.8038
▁hoped	-10.8042
▁facts	-10.8055
▁lip	-10.806
▁dies	-10.8064
▁chime	-10.8066
▁lame	-10.8068
lic	-10.8076
▁wonders	-10.8125
ating	-10.816
▁squirrels	-10.8184
▁marks	-10.8188
▁severe	-10.8201
▁sha	-10.8202
▁bl	-10.8202
▁loyal	-10.8263
▁sakes	-10.8263
▁transfer	-10.8273
▁situations	-10.8283
▁cent	-10.8335
▁goody	-10.8351
▁inform	-10.8363
▁bubble	-10.8372
▁mat	-10.8382
▁magnet	-10.8398
▁clip	-10.8401
ul	-10.8416
▁attempt	-10.8423
▁conduct	-10.8444
ave	-10.8455
▁pump	-10.8487
let	-10.8493
zy	-10.8495
▁candie	-10.8498
▁continent	-10.8498
▁laws	-10.8498
▁caf	-10.8501
▁geek	-10.8501
▁cheerleader	-10.8506
▁length	-10.8506
▁pattern	-10.8506
▁towel	-10.8506
▁decade	-10.8506
▁andrea	-10.8507
▁tent	-10.8507
▁stake	-10.8509
▁pearl	-10.851
▁mermaid	-10.8511
▁temperature	-10.8511
▁rhyme	-10.8511
▁scout	-10.8511
▁breakdown	-10.8516
▁villain	-10.8517
▁metaphor	-10.8519
▁relative	-10.852
▁drug	-10.8521
▁muscle	-10.8522
▁giggle	-10.8524
▁nip	-10.8524
▁onion	-10.8526
▁folk	-10.853
▁actor	-10.8531
▁prisoner	-10.8535
▁farmer	-10.8538
port	-10.856
ttering	-10.8561
▁interfere	-10.8571
▁dock	-10.8571
▁peoples	-10.8583
▁rap	-10.8594
▁rolls	-10.8597
▁comb	-10.8614
▁vic	-10.8617
boy	-10.8623
▁gr	-10.8625
▁swell	-10.8627
▁proceed	-10.8628
▁glow	-10.8628
▁bleed	-10.863
▁shrink	-10.863
▁fleet	-10.8638
ze	-10.8642
stair	-10.8647
▁pinch	-10.8647
▁attach	-10.8649
▁download	-10.8649
born	-10.865
com	-10.8651
▁loosen	-10.8651
▁mix	-10.8651
fashion	-10.8652
four	-10.8653
decker	-10.8654
▁visual	-10.8656
▁arrange	-10.8658
▁eliminate	-10.8658
▁underestimate	-10.8658
▁hugg	-10.8658
▁lords	-10.8661
▁pep	-10.8668
▁involve	-10.8671
▁civil	-10.8671
▁translat	-10.8673
▁transport	-10.8674
▁makin	-10.8675
▁gwen	-10.8675
▁reckless	-10.8675
▁almighty	-10.8675
▁anniversary	-10.8675
▁atmosphere	-10.8675
▁attorney	-10.8675
▁australia	-10.8675
▁bermuda	-10.8675
▁capitol	-10.8675
▁clacktiel	-10.8675
▁combination	-10.8675
▁cosimo	-10.8675
▁diaper	-10.8675
▁diggums	-10.8675
▁dorsey	-10.8675
▁doulton	-10.8675
▁dozen	-10.8675
▁eberhart	-10.8675
▁expedition	-10.8675
▁fleekfest	-10.8675
▁geneva	-10.8675
▁geronimo	-10.8675
▁gracias	-10.8675
▁gravity	-10.8675
▁greece	-10.8675
▁guenevere	-10.8675
▁guinevere	-10.8675
▁habib	-10.8675
▁hauptmannkoenig	-10.8675
▁hawaii	-10.8675
▁hebrew	-10.8675
▁heip	-10.8675
▁howre	-10.8675
▁hydrogen	-10.8675
▁ingredient	-10.8675
▁irrational	-10.8675
▁jimothy	-10.8675
▁kathryn	-10.8675
▁lafleur	-10.8675
▁liquid	-10.8675
▁luggage	-10.8675
▁munion	-10.8675
▁nicholas	-10.8675
▁nightwatcher	-10.8675
▁pabllto	-10.8675
▁persuade	-10.8675
▁phillip	-10.8675
▁prototype	-10.8675
▁rajeev	-10.8675
▁relief	-10.8675
▁resource	-10.8675
▁response	-10.8675
▁reunion	-10.8675
▁sasquatch	-10.8675
▁satisfaction	-10.8675
▁smurfintine	-10.8675
▁snack	-10.8675
▁sniffs	-10.8675
▁steuby	-10.8675
▁sullivan	-10.8675
▁supervisor	-10.8675
▁supply	-10.8675
▁taylor	-10.8675
▁toshio	-10.8675
▁tournament	-10.8675
▁undefeated	-10.8675
▁vault	-10.8675
▁welfare	-10.8675
▁whobilation	-10.8675
▁yaeko	-10.8675
▁primitive	-10.8675
▁relay	-10.8675
▁reply	-10.8675
▁sheriff	-10.8675
▁spindle	-10.8675
▁television	-10.8675
▁torres	-10.8675
▁armando	-10.8675
▁tippytoe	-10.8675
▁graduation	-10.8675
▁shatter	-10.8675
▁crisis	-10.8675
▁cyril	-10.8675
▁grazie	-10.8675
▁latin	-10.8675
▁pancake	-10.8675
▁trulock	-10.8675
uuu	-10.8676
▁muffled	-10.8676
▁reveal	-10.8676
▁farewell	-10.8676
▁gibb	-10.8676
▁holmes	-10.8676
▁beaumont	-10.8676
▁gravy	-10.8676
▁funeral	-10.8676
▁harold	-10.8676
▁belmont	-10.8676
▁berlin	-10.8676
▁brandnew	-10.8676
▁greed	-10.8676
▁pepper	-10.8676
▁shaft	-10.8676
▁quadrant	-10.8676
▁stella	-10.8676
▁audible	-10.8676
▁doyle	-10.8676
▁blend	-10.8676
▁permit	-10.8676
▁blitz	-10.8676
▁ducksworth	-10.8676
▁injuries	-10.8676
▁rattling	-10.8676
▁turton	-10.8676
▁frail	-10.8676
▁argument	-10.8676
▁ignorant	-10.8676
▁popular	-10.8676
▁catholic	-10.8676
▁internet	-10.8676
▁reign	-10.8676
▁pony	-10.8676
▁ronnie	-10.8676
▁nanny	-10.8676
▁edward	-10.8676
▁grail	-10.8676
▁dowager	-10.8676
▁thomas	-10.8676
▁marble	-10.8676
▁sector	-10.8676
▁robinson	-10.8676
▁combat	-10.8676
▁bacon	-10.8676
▁hottest	-10.8676
▁asshole	-10.8676
▁upside	-10.8676
▁grizzlies	-10.8676
▁groceries	-10.8676
▁breeze	-10.8676
▁stith	-10.8676
▁judgment	-10.8676
▁suitcase	-10.8676
▁diving	-10.8676
▁basically	-10.8676
▁institute	-10.8676
▁oven	-10.8676
▁cheerio	-10.8676
▁tammy	-10.8676
▁ergo	-10.8676
▁embarrassment	-10.8676
▁chump	-10.8677
▁snowball	-10.8677
▁kerby	-10.8677
▁mercury	-10.8677
▁squid	-10.8677
▁religion	-10.8677
▁transferred	-10.8677
▁bien	-10.8677
▁festival	-10.8677
▁begun	-10.8677
▁chancing	-10.8677
▁minister	-10.8677
▁hilarious	-10.8677
▁represent	-10.8677
▁fumble	-10.8677
▁bunnies	-10.8677
▁stroke	-10.8677
▁revenge	-10.8677
▁princeton	-10.8678
▁carolina	-10.8678
▁sexual	-10.8678
▁improvement	-10.8678
▁swat	-10.8678
▁enid	-10.8678
▁spill	-10.8678
▁injury	-10.8678
▁gruber	-10.8678
▁frame	-10.8678
▁scatter	-10.8678
▁digit	-10.8678
▁aggressive	-10.8678
▁broadway	-10.8678
▁furry	-10.8678
▁caleb	-10.8678
▁upper	-10.8679
roll	-10.8679
▁hull	-10.8679
▁commandant	-10.8679
▁philosophy	-10.8679
▁adjust	-10.8679
▁plead	-10.8679
▁canal	-10.8679
mela	-10.868
▁romeo	-10.868
▁rex	-10.868
▁fuck	-10.868
▁maid	-10.868
▁eleven	-10.868
▁peaceful	-10.8681
▁foaly	-10.8681
▁development	-10.8681
▁temporary	-10.8681
▁delia	-10.8681
▁hoid	-10.8681
▁consume	-10.8681
▁lightfoot	-10.8681
▁unlike	-10.8681
▁taft	-10.8682
▁harsh	-10.8682
▁cries	-10.8682
▁sincerely	-10.8682
▁surprisingly	-10.8682
bi	-10.8683
▁berg	-10.8683
▁moron	-10.8683
▁morgana	-10.8683
▁johnson	-10.8684
▁possessed	-10.8684
▁robbed	-10.8684
▁declare	-10.8685
▁hump	-10.8686
▁dime	-10.8686
gged	-10.8686
▁inches	-10.8687
▁blares	-10.8687
▁consequences	-10.8687
▁dallas	-10.8687
▁donuts	-10.8688
▁fluffy	-10.8688
▁relieved	-10.8688
▁aid	-10.8688
▁burst	-10.8689
▁tore	-10.869
▁qualified	-10.8692
▁triple	-10.8692
▁mild	-10.8692
▁playbook	-10.8693
▁statement	-10.8694
▁peeking	-10.8695
▁divided	-10.8695
▁punished	-10.8695
▁deny	-10.8696
▁label	-10.8699
▁shy	-10.8701
▁stinky	-10.8704
▁former	-10.8704
▁sole	-10.8705
▁twisty	-10.8708
▁greetings	-10.8708
▁sewers	-10.8708
▁jacket	-10.8709
▁reasonable	-10.8711
▁earl	-10.8712
▁bitter	-10.8713
▁ro	-10.8714
▁endless	-10.8715
▁mounted	-10.8717
▁refused	-10.8717
▁ticking	-10.8717
▁para	-10.872
▁hood	-10.8723
▁wolfe	-10.8723
▁heed	-10.8724
▁requested	-10.8732
▁reality	-10.8732
▁realm	-10.8733
▁managed	-10.8734
▁trac	-10.8745
▁smarter	-10.8745
▁shipp	-10.8751
▁movement	-10.8752
▁carries	-10.8756
aah	-10.876
▁shovel	-10.8765
▁pounding	-10.8765
▁lane	-10.8766
▁addressed	-10.8767
▁presents	-10.877
▁ohio	-10.877
bar	-10.8772
some	-10.8774
▁tricky	-10.8774
▁goodlooking	-10.8779
▁focused	-10.8781
▁conditioning	-10.8788
tte	-10.8791
▁wasted	-10.8797
▁charged	-10.88
▁riders	-10.8802
▁quietly	-10.8802
ock	-10.8804
ified	-10.8814
▁br	-10.8817
▁faithful	-10.882
▁tryin	-10.8825
▁banker	-10.8825
▁imagined	-10.8828
▁praying	-10.8833
▁deals	-10.8833
▁pumps	-10.8837
▁creat	-10.8844
▁bounds	-10.8865
▁wedd	-10.8868
▁retrieve	-10.887
▁compliments	-10.888
▁protected	-10.8881
▁nails	-10.8885
▁coaches	-10.8886
▁bitching	-10.8897
▁nerves	-10.8901
▁vows	-10.8902
▁bothering	-10.8911
▁incident	-10.8911
▁swinging	-10.8913
ill	-10.8913
▁drops	-10.8914
▁tan	-10.8916
▁ty	-10.8918
▁divers	-10.8919
rig	-10.8919
ya	-10.8924
▁dash	-10.8929
▁oooh	-10.8942
esy	-10.8943
▁tick	-10.8944
▁painter	-10.8947
amore	-10.8963
▁crossing	-10.8967
▁sank	-10.8968
▁ding	-10.8973
▁bubbles	-10.8989
▁leon	-10.8997
▁tense	-10.9007
▁dip	-10.9008
▁smurfy	-10.9008
▁adults	-10.901
▁drawings	-10.9011
▁chap	-10.9012
tched	-10.9018
▁enjoying	-10.9019
lles	-10.9022
▁mil	-10.9034
▁har	-10.9037
onic	-10.9042
onne	-10.9049
▁thom	-10.9053
els	-10.9057
▁kab	-10.9071
▁nightmares	-10.9076
▁bur	-10.9097
▁sim	-10.91
▁fund	-10.9101
head	-10.9137
▁workers	-10.9143
▁becomes	-10.9143
▁lam	-10.9149
▁rob	-10.9156
▁belts	-10.9164
▁devils	-10.9164
▁gro	-10.9169
▁imp	-10.9171
▁fin	-10.9183
▁damned	-10.9185
▁ropes	-10.9186
▁sticking	-10.919
▁fl	-10.9201
not	-10.9208
▁it	-10.9211
▁figures	-10.9213
▁hom	-10.9214
▁the	-10.9225
▁drum	-10.9228
▁cuts	-10.9231
▁crocodiles	-10.9231
▁eagles	-10.9231
▁hy	-10.9242
caster	-10.9246
ound	-10.9247
▁hells	-10.9254
▁controls	-10.928
▁calculate	-10.9284
▁mut	-10.9288
ck	-10.9304
▁ol	-10.9307
ti	-10.9319
▁edges	-10.932
hi	-10.9337
▁noises	-10.9342
▁rama	-10.9371
▁ust	-10.9385
▁gates	-10.9387
bag	-10.9391
▁fry	-10.9393
▁bits	-10.9411
▁fri	-10.9413
▁strap	-10.942
▁fellows	-10.9427
ons	-10.9431
yhead	-10.9432
tar	-10.9438
▁tur	-10.9439
▁sch	-10.9443
ens	-10.9449
▁chip	-10.945
▁bakers	-10.9457
▁whoop	-10.9471
▁palm	-10.9482
ong	-10.9498
ko	-10.95
▁vol	-10.9509
▁astra	-10.9518
▁dim	-10.9535
▁stores	-10.9548
▁freaks	-10.9551
▁pals	-10.9559
▁if	-10.9568
▁holes	-10.9573
▁records	-10.9598
▁scum	-10.9598
▁hundreds	-10.9637
▁yas	-10.9644
▁lawful	-10.9645
▁cons	-10.965
▁robe	-10.9653
▁drinks	-10.969
▁purposes	-10.9706
rk	-10.9714
▁poo	-10.9725
▁convention	-10.9728
▁braves	-10.9731
▁areas	-10.9751
▁sue	-10.9761
▁ravi	-10.9766
▁finds	-10.9778
work	-10.9791
erry	-10.9811
ron	-10.9823
▁flip	-10.9837
▁fr	-10.9844
val	-10.9849
▁puff	-10.9859
▁iu	-10.986
▁spirits	-10.9868
bird	-10.9878
town	-10.9879
▁fright	-10.9881
▁pros	-10.9882
▁cabe	-10.9891
▁services	-10.9891
▁evergiot	-10.9908
▁procedure	-10.9908
▁souvenir	-10.9908
▁racehorse	-10.9908
▁allamerican	-10.9909
▁sample	-10.9909
▁dame	-10.9916
▁horns	-10.9916
▁individual	-10.9919
▁athlete	-10.9926
▁satellite	-10.9927
▁turnip	-10.9927
▁chute	-10.9927
▁blanket	-10.9927
▁mechanical	-10.9928
▁communication	-10.9929
▁reaction	-10.9934
▁survivor	-10.9935
▁conclusion	-10.9935
▁blade	-10.9939
▁sleeve	-10.9942
▁invitation	-10.9942
▁grownup	-10.9944
▁cheek	-10.9944
▁kinds	-10.9947
▁shadow	-10.9948
▁com	-10.9954
▁musician	-10.9956
▁visitor	-10.9957
▁hunter	-10.9958
▁herring	-10.9961
min	-10.9965
▁stall	-10.9966
▁helps	-10.9969
▁buildings	-10.9985
▁setup	-10.9989
▁bomber	-10.9994
▁bel	-10.9995
▁grows	-10.9997
ional	-10.9999
ium	-11.0002
▁inspir	-11.0007
▁kin	-11.0008
▁brief	-11.0018
▁boil	-11.0019
ellow	-11.0024
▁weirdo	-11.0026
▁disturb	-11.0029
▁disappoint	-11.0032
▁cleaner	-11.0035
▁greet	-11.0052
▁slug	-11.0057
bury	-11.0063
▁brat	-11.0069
headed	-11.0069
stone	-11.0072
▁endanger	-11.0075
etta	-11.0077
▁establish	-11.0078
itch	-11.008
well	-11.008
birth	-11.008
▁connect	-11.0081
▁improve	-11.0084
▁poke	-11.0086
▁grouch	-11.0087
▁worrying	-11.009
▁soph	-11.0093
ept	-11.0094
▁ack	-11.0094
▁explore	-11.0094
▁fold	-11.0097
▁luis	-11.0098
▁rank	-11.01
▁anton	-11.0101
▁august	-11.0101
▁affect	-11.0101
▁obsess	-11.0101
▁qui	-11.0102
▁condo	-11.0103
▁valenti	-11.0103
▁journal	-11.0103
▁movin	-11.0103
▁specific	-11.0103
gs	-11.0103
▁spiritual	-11.0104
▁ruth	-11.0104
▁alva	-11.0104
▁arnold	-11.0104
▁bathtub	-11.0104
▁beagle	-11.0104
▁beckerstead	-11.0104
▁beechwood	-11.0104
▁bellicec	-11.0104
▁benefit	-11.0104
▁cafeteria	-11.0104
▁circling	-11.0104
▁currency	-11.0104
▁custody	-11.0104
▁detroit	-11.0104
▁disagree	-11.0104
▁dylan	-11.0104
▁elmira	-11.0104
▁essential	-11.0104
▁eustace	-11.0104
▁evacuate	-11.0104
▁exaggerate	-11.0104
▁fitzroyce	-11.0104
▁grief	-11.0104
▁hernan	-11.0104
▁hirschorn	-11.0104
▁horror	-11.0104
▁incandesto	-11.0104
▁invasion	-11.0104
▁jeff	-11.0104
▁kennedy	-11.0104
▁mccann	-11.0104
▁mexico	-11.0104
▁mischief	-11.0104
▁nehamkin	-11.0104
▁piscine	-11.0104
▁portugal	-11.0104
▁possibilities	-11.0104
▁publish	-11.0104
▁refrigerator	-11.0104
▁rescuing	-11.0104
▁salino	-11.0104
▁schwedes	-11.0104
▁scientific	-11.0104
▁selfdefense	-11.0104
▁seymour	-11.0104
▁shepard	-11.0104
▁skeleton	-11.0104
▁slitherpoole	-11.0104
▁sponsor	-11.0104
▁sunningdale	-11.0104
▁territories	-11.0104
▁throne	-11.0104
▁tuppence	-11.0104
▁uncomfortable	-11.0104
▁uryens	-11.0104
▁vanilla	-11.0104
▁voyage	-11.0104
▁wilson	-11.0104
▁gerald	-11.0104
▁godbole	-11.0104
▁straining	-11.0104
▁amelia	-11.0104
▁article	-11.0104
▁laddie	-11.0104
▁tragic	-11.0104
▁ankle	-11.0104
▁underpants	-11.0104
▁vegas	-11.0104
▁cannon	-11.0104
▁excess	-11.0104
▁siggy	-11.0104
▁unstable	-11.0104
▁dinky	-11.0104
▁halt	-11.0104
▁juicy	-11.0104
▁cuckooland	-11.0104
▁maniac	-11.0104
▁departure	-11.0104
▁motorcycle	-11.0104
▁override	-11.0104
▁salsa	-11.0104
▁tidy	-11.0104
▁wheelchair	-11.0104
▁cupcake	-11.0104
▁phase	-11.0104
▁stride	-11.0104
▁shaving	-11.0104
▁complex	-11.0104
▁wallpaper	-11.0104
▁malia	-11.0104
▁sorrow	-11.0104
▁denver	-11.0104
▁jelly	-11.0104
▁mistress	-11.0104
▁absence	-11.0104
▁medlock	-11.0104
▁trading	-11.0104
▁rival	-11.0104
▁antonio	-11.0104
▁facilities	-11.0104
▁steed	-11.0104
▁hahaha	-11.0104
▁mcgill	-11.0104
▁yeehaw	-11.0104
▁femaie	-11.0104
▁shining	-11.0104
▁snorts	-11.0104
▁capella	-11.0104
▁granddaughter	-11.0104
▁maximum	-11.0104
▁arise	-11.0104
▁flare	-11.0104
▁online	-11.0104
▁henri	-11.0104
▁pumpkin	-11.0104
▁hostile	-11.0104
▁laurence	-11.0104
▁cakeeater	-11.0104
▁narrator	-11.0104
▁spicy	-11.0104
▁dismiss	-11.0104
▁sack	-11.0104
▁curley	-11.0104
▁basketboy	-11.0104
▁voula	-11.0104
▁babysitter	-11.0104
▁brace	-11.0104
▁furious	-11.0104
▁allergic	-11.0105
▁jeep	-11.0105
▁cherish	-11.0105
▁epic	-11.0105
▁lungs	-11.0105
▁shortcut	-11.0105
▁importance	-11.0105
▁organization	-11.0105
▁mam	-11.0105
▁pierce	-11.0105
▁thread	-11.0105
▁void	-11.0105
▁unchar	-11.0105
▁yummy	-11.0105
▁spinning	-11.0105
▁childhood	-11.0105
▁temple	-11.0105
▁lounge	-11.0105
▁polish	-11.0105
▁ambition	-11.0105
▁approval	-11.0105
▁inspiration	-11.0105
▁damp	-11.0105
▁jab	-11.0105
▁media	-11.0105
▁series	-11.0105
▁punishment	-11.0105
▁rome	-11.0105
▁baptized	-11.0105
▁vanished	-11.0106
▁jolly	-11.0106
▁begged	-11.0106
▁ditch	-11.0106
▁spacecraft	-11.0106
▁youth	-11.0106
▁sharing	-11.0106
▁orient	-11.0106
▁submar	-11.0106
▁yield	-11.0106
▁tourist	-11.0106
▁holiness	-11.0106
▁programming	-11.0106
▁serene	-11.0106
▁grifter	-11.0106
▁entry	-11.0106
▁bait	-11.0107
▁elway	-11.0107
▁jockey	-11.0107
▁veal	-11.0107
▁fren	-11.0107
▁disappointment	-11.0107
▁gunfire	-11.0107
▁oak	-11.0107
▁hostage	-11.0107
▁cricket	-11.0107
ieval	-11.0107
▁rising	-11.0107
▁headache	-11.0107
▁falcon	-11.0108
▁auto	-11.0108
▁retirement	-11.0108
▁guild	-11.0108
▁loony	-11.0108
▁humor	-11.0108
▁pooper	-11.0108
▁commitment	-11.0108
▁beam	-11.0108
▁kneel	-11.0109
▁redstone	-11.0109
▁lockdown	-11.0109
▁streak	-11.0109
▁celebrating	-11.0109
▁selfish	-11.011
▁appeal	-11.011
▁squash	-11.011
▁management	-11.011
▁rumor	-11.011
▁starboard	-11.011
▁bonus	-11.011
▁offended	-11.011
gage	-11.011
▁cork	-11.011
▁lust	-11.011
▁dez	-11.0111
▁logical	-11.0111
▁whoosh	-11.0111
▁knot	-11.0112
▁factory	-11.0112
▁monk	-11.0112
▁complaint	-11.0113
▁ridge	-11.0113
▁infinity	-11.0113
▁handbook	-11.0113
▁allen	-11.0113
▁raft	-11.0114
▁screeches	-11.0114
▁apply	-11.0114
▁sewing	-11.0114
▁zu	-11.0114
▁roaring	-11.0114
▁taki	-11.0116
▁larson	-11.0116
▁ohhh	-11.0116
▁narrow	-11.0116
▁rape	-11.0117
▁dreadful	-11.0117
▁merciful	-11.0117
▁mansion	-11.0117
▁flown	-11.0117
▁pebbles	-11.0118
▁fingerprints	-11.0118
▁harmony	-11.0118
▁gallons	-11.0118
▁valentines	-11.0118
▁slayers	-11.0118
▁swam	-11.0118
▁whining	-11.0118
▁disguise	-11.0118
▁discovery	-11.0118
▁abandoned	-11.0119
▁madness	-11.0119
▁forgiveness	-11.0119
▁kiddo	-11.0119
▁tease	-11.012
▁skies	-11.012
▁recruiting	-11.0121
▁grouchy	-11.0121
▁freakin	-11.0121
▁armor	-11.0122
▁kent	-11.0123
▁ripe	-11.0123
▁chopper	-11.0124
▁socks	-11.0124
▁orbital	-11.0125
▁frenchman	-11.0126
▁unite	-11.0126
▁punches	-11.0126
▁mayday	-11.0128
▁takeover	-11.0128
▁recovered	-11.0128
▁clearance	-11.0128
▁sally	-11.0128
▁humanity	-11.0129
▁assumed	-11.0129
▁fried	-11.0129
▁eve	-11.0132
▁attached	-11.0135
▁janet	-11.0139
▁gown	-11.014
oh	-11.014
through	-11.014
▁crawling	-11.014
▁deepest	-11.0142
▁associates	-11.0142
▁mens	-11.0143
▁officially	-11.0144
▁hopeless	-11.0145
▁groove	-11.0146
fifth	-11.0147
▁crank	-11.0148
▁charmer	-11.0149
▁mistaken	-11.0149
▁removed	-11.0151
▁sensei	-11.0151
▁rented	-11.0152
▁bigtime	-11.0152
▁released	-11.0155
▁yah	-11.0156
▁matches	-11.0157
▁cue	-11.0157
▁responding	-11.016
▁wired	-11.0162
▁dresses	-11.0163
▁chased	-11.0164
▁mainly	-11.0165
▁rage	-11.0167
▁marshmallows	-11.0167
▁robbers	-11.0168
▁squeals	-11.0168
▁creak	-11.0168
▁pasta	-11.0169
▁shocked	-11.0173
ure	-11.0173
▁fastest	-11.0175
▁studying	-11.0181
▁cursed	-11.0184
▁sucked	-11.0187
▁nan	-11.0188
ght	-11.0189
▁tools	-11.0191
▁passengers	-11.0192
▁slower	-11.0195
▁web	-11.0203
▁wrecked	-11.0206
▁scratching	-11.0214
▁gathered	-11.0215
▁chant	-11.0215
▁buster	-11.0225
ery	-11.0227
▁suffered	-11.0227
▁cam	-11.024
▁tar	-11.0242
▁fades	-11.0242
rate	-11.0253
▁mort	-11.0256
▁crashing	-11.0259
▁stalls	-11.0266
▁blocked	-11.0269
▁grabs	-11.027
▁hunters	-11.0271
but	-11.0285
▁cooked	-11.0291
▁villains	-11.0292
▁cents	-11.0299
▁considering	-11.0308
▁oka	-11.0311
▁possessions	-11.0317
▁jesuits	-11.0317
▁comeback	-11.0321
▁domin	-11.0322
▁mel	-11.0323
▁feathers	-11.0341
▁lightly	-11.0355
are	-11.0356
▁pete	-11.0358
▁des	-11.0361
▁can	-11.0362
ians	-11.0365
▁strings	-11.0367
▁experiments	-11.0368
▁electrical	-11.0368
lle	-11.0371
▁sire	-11.0375
▁sting	-11.0377
▁hangs	-11.0377
thing	-11.0388
▁poster	-11.0391
▁contains	-11.0393
▁objects	-11.0393
zer	-11.0408
▁reaching	-11.0416
end	-11.0427
▁gil	-11.0443
▁unders	-11.0452
▁chan	-11.0464
▁eats	-11.0466
▁scholarships	-11.0469
▁boarding	-11.0476
▁lover	-11.0496
▁drivers	-11.0513
▁cages	-11.0521
▁sal	-11.0524
▁jacks	-11.0527
lair	-11.0533
▁answered	-11.055
ther	-11.0558
▁gra	-11.0558
▁cared	-11.056
▁writes	-11.0566
▁keeper	-11.0571
▁caves	-11.0571
▁currents	-11.0572
▁sounded	-11.058
▁dressing	-11.0581
▁ram	-11.0581
▁arch	-11.0586
▁ava	-11.0597
▁partners	-11.0598
▁allah	-11.0618
▁probe	-11.0625
ning	-11.0629
▁cookies	-11.0639
▁decisions	-11.0649
▁tanks	-11.065
▁pipes	-11.0652
sky	-11.0654
ank	-11.0667
▁chocolates	-11.0675
▁formal	-11.0675
for	-11.0677
▁sales	-11.0679
▁rehears	-11.0686
▁gl	-11.0727
▁and	-11.0744
igma	-11.0747
▁presidents	-11.0753
▁burns	-11.0826
▁queens	-11.0827
fortunately	-11.0839
▁dragons	-11.0844
ascal	-11.087
vous	-11.0871
les	-11.0874
▁showers	-11.0877
▁quests	-11.0887
▁rocking	-11.0893
och	-11.0901
▁wrapp	-11.0903
ator	-11.091
tami	-11.0912
yo	-11.0962
▁gardens	-11.0964
▁minds	-11.0966
mal	-11.0974
▁thinkin	-11.0974
▁baths	-11.1015
▁oceans	-11.1016
▁lifes	-11.1017
▁nicely	-11.1052
▁travell	-11.1053
aw	-11.1089
▁tigers	-11.1096
▁disrupt	-11.1115
▁rehearse	-11.1118
ns	-11.1136
▁ri	-11.1136
▁sr	-11.1166
tal	-11.1188
▁sleepy	-11.119
▁sides	-11.1191
▁bore	-11.1192
▁battles	-11.1209
▁planets	-11.1211
▁bam	-11.1225
▁rub	-11.1263
▁sho	-11.1265
▁bi	-11.1271
▁jo	-11.1307
ations	-11.1315
put	-11.1333
ken	-11.1336
▁katherines	-11.1339
▁sends	-11.135
▁controll	-11.1361
gle	-11.1374
wrapped	-11.1379
lly	-11.1382
▁engines	-11.1426
▁generals	-11.1431
ious	-11.1447
▁groups	-11.1448
▁vet	-11.1476
▁print	-11.1481
nie	-11.1489
▁sap	-11.1492
▁scramble	-11.1493
▁sunk	-11.1501
▁vers	-11.1503
room	-11.1514
▁pam	-11.152
▁que	-11.1544
iver	-11.1556
sm	-11.1558
▁craft	-11.156
▁await	-11.1561
▁app	-11.1568
ha	-11.1574
▁diamond	-11.1575
▁nickname	-11.1575
▁instrument	-11.1575
▁thumb	-11.1575
▁bugger	-11.1577
▁flavor	-11.1578
▁rehearsal	-11.158
▁grunt	-11.1581
▁doll	-11.1586
▁twin	-11.1592
▁ninja	-11.1593
▁pistol	-11.1593
▁scheme	-11.1593
▁region	-11.1594
▁jew	-11.1594
▁fade	-11.1595
▁gar	-11.1596
▁election	-11.1596
▁airplane	-11.1596
▁throws	-11.1598
▁elk	-11.1598
▁element	-11.1601
▁reject	-11.1602
▁turk	-11.1603
▁treatment	-11.1603
▁magazine	-11.1606
▁instinct	-11.1609
▁sel	-11.1609
▁generation	-11.161
▁et	-11.1612
ify	-11.1613
▁choices	-11.1614
▁biscuit	-11.1617
▁fu	-11.1618
▁engraving	-11.1621
▁tot	-11.1631
▁foundation	-11.1645
▁dictator	-11.1661
▁bodys	-11.1667
▁dec	-11.168
▁chop	-11.1685
▁limit	-11.1686
▁reno	-11.1693
▁slap	-11.1694
▁entertain	-11.1694
atherin	-11.1699
▁client	-11.1705
yard	-11.1707
▁suff	-11.171
▁breed	-11.1727
▁decorat	-11.1727
▁recover	-11.1727
▁discover	-11.1729
▁herr	-11.1729
▁annoy	-11.1732
▁recommend	-11.1733
mmering	-11.1734
▁moan	-11.1735
▁kablowey	-11.1738
▁succeed	-11.1738
▁volunteer	-11.1738
▁adopt	-11.1741
▁bail	-11.1741
▁punish	-11.1743
proof	-11.1747
bug	-11.1748
worthy	-11.1748
▁bee	-11.1749
wall	-11.175
neck	-11.1751
▁bells	-11.1753
▁encourage	-11.1753
▁relieve	-11.1754
▁fluff	-11.1754
▁communicate	-11.1755
▁sicil	-11.1755
▁divide	-11.1757
wll	-11.1758
▁swift	-11.1759
▁cloth	-11.1759
hog	-11.1759
ena	-11.176
ninth	-11.176
▁amor	-11.1762
▁execution	-11.1763
▁occur	-11.1764
▁elli	-11.1764
▁urge	-11.1765
▁environment	-11.1765
▁instruct	-11.1765
▁potato	-11.1765
▁brass	-11.1768
▁thrust	-11.1768
▁alternat	-11.1769
▁accelerat	-11.1769
▁kiddin	-11.1769
▁strip	-11.1769
▁livin	-11.1769
▁demo	-11.177
▁aa	-11.177
ki	-11.177
▁architect	-11.177
uki	-11.1771
▁alligator	-11.1771
▁appropriate	-11.1771
▁aquamarine	-11.1771
▁aslan	-11.1771
▁bagumba	-11.1771
▁barbecue	-11.1771
▁bhutan	-11.1771
▁binnacle	-11.1771
▁boolah	-11.1771
▁boomerang	-11.1771
▁brazil	-11.1771
▁bronco	-11.1771
▁bronski	-11.1771
▁casino	-11.1771
▁caspian	-11.1771
▁catalyst	-11.1771
▁caviar	-11.1771
▁cheermeister	-11.1771
▁coconut	-11.1771
▁conspiracy	-11.1771
▁contagious	-11.1771
▁corral	-11.1771
▁cylinder	-11.1771
▁cynic	-11.1771
▁deposit	-11.1771
▁disobey	-11.1771
▁disposal	-11.1771
▁diva	-11.1771
▁domestic	-11.1771
▁duncan	-11.1771
▁eisenhower	-11.1771
▁episode	-11.1771
▁error	-11.1771
▁evolving	-11.1771
▁excellency	-11.1771
▁exotic	-11.1771
▁exploding	-11.1771
▁figaro	-11.1771
▁fleming	-11.1771
▁fountain	-11.1771
▁furnace	-11.1771
▁gauol	-11.1771
▁glaive	-11.1771
▁griffen	-11.1771
▁harriet	-11.1771
▁heisman	-11.1771
▁higloss	-11.1771
▁hoffman	-11.1771
▁igrayne	-11.1771
▁inaudible	-11.1771
▁institution	-11.1771
▁investigate	-11.1771
▁itaiy	-11.1771
▁klonk	-11.1771
▁lasagna	-11.1771
▁laurel	-11.1771
▁lettuce	-11.1771
▁liquor	-11.1771
▁loretta	-11.1771
▁marlott	-11.1771
▁massachusetts	-11.1771
▁milagro	-11.1771
▁molinari	-11.1771
▁moose	-11.1771
▁mordred	-11.1771
▁moreno	-11.1771
▁moscow	-11.1771
▁moustache	-11.1771
▁muffinman	-11.1771
▁mysteries	-11.1771
▁ncaa	-11.1771
▁neglect	-11.1771
▁obsolete	-11.1771
▁oppressor	-11.1771
▁overrated	-11.1771
▁pennsylvania	-11.1771
▁perfume	-11.1771
▁poppop	-11.1771
▁predicament	-11.1771
▁prettypretty	-11.1771
▁protocol	-11.1771
▁raphael	-11.1771
▁remote	-11.1771
▁reprogram	-11.1771
▁rewbell	-11.1771
▁rouge	-11.1771
▁scotland	-11.1771
▁semester	-11.1771
▁serfs	-11.1771
▁simmons	-11.1771
▁slade	-11.1771
▁solemn	-11.1771
▁squawk	-11.1771
▁symphony	-11.1771
▁temporarily	-11.1771
▁thunderlips	-11.1771
▁tragedy	-11.1771
▁trespassing	-11.1771
▁ukata	-11.1771
▁unpleasant	-11.1771
▁valestra	-11.1771
▁vatsnik	-11.1771
▁vietnam	-11.1771
▁vocalizes	-11.1771
▁voskovec	-11.1771
▁wilmer	-11.1771
▁zathura	-11.1771
▁activities	-11.1771
▁chemist	-11.1771
▁cpr	-11.1771
▁goodwill	-11.1771
▁mercenar	-11.1771
▁opportunities	-11.1771
▁plastic	-11.1771
▁ponies	-11.1771
▁reconsider	-11.1771
▁seagram	-11.1771
▁tiffany	-11.1771
▁wealth	-11.1771
▁adios	-11.1771
▁clique	-11.1771
▁dusk	-11.1771
▁gyps	-11.1771
▁scandal	-11.1771
▁spectacular	-11.1771
▁dawes	-11.1771
▁decorations	-11.1771
▁flirt	-11.1771
▁phrase	-11.1771
▁valve	-11.1771
▁acquired	-11.1771
▁financia	-11.1771
▁italy	-11.1771
▁koushik	-11.1771
▁scuba	-11.1771
▁fruitcake	-11.1771
▁pencil	-11.1771
▁arriving	-11.1771
▁brutal	-11.1771
▁defence	-11.1771
▁dulock	-11.1771
▁plumbers	-11.1771
▁knives	-11.1771
▁lundy	-11.1771
▁robbins	-11.1771
▁homecoming	-11.1771
▁lavagirl	-11.1771
▁germs	-11.1771
▁psychiatrist	-11.1771
▁vortex	-11.1771
▁briefcase	-11.1771
▁betelgeuse	-11.1771
▁console	-11.1771
▁civilization	-11.1771
▁inconvenience	-11.1771
▁simms	-11.1771
▁cartier	-11.1771
▁glide	-11.1771
▁figler	-11.1771
▁minimum	-11.1771
▁amusing	-11.1771
▁polite	-11.1771
▁kaiser	-11.1771
▁suspension	-11.1771
▁ammo	-11.1771
▁prolong	-11.1771
▁regency	-11.1771
▁strawberries	-11.1771
▁stafford	-11.1771
▁juanita	-11.1771
▁upgrade	-11.1771
▁waltz	-11.1771
▁concentration	-11.1771
▁revoir	-11.1771
▁bailey	-11.1771
▁grey	-11.1771
▁cornell	-11.1771
▁foley	-11.1771
▁chlle	-11.1771
▁studio	-11.1771
▁psst	-11.1771
▁annihilat	-11.1771
▁notify	-11.1771
▁langley	-11.1771
▁decline	-11.1771
▁weakness	-11.1771
▁flick	-11.1771
▁detective	-11.1771
▁clinic	-11.1771
▁morehead	-11.1771
▁graveyard	-11.1771
▁pinned	-11.1771
▁elegan	-11.1771
▁spook	-11.1771
▁westworld	-11.1771
▁retain	-11.1771
▁twentytwo	-11.1771
▁overnight	-11.1771
▁internal	-11.1771
▁karate	-11.1771
▁gaze	-11.1771
▁specifically	-11.1771
▁techno	-11.1771
▁channel	-11.1771
▁petition	-11.1771
▁superpower	-11.1771
▁yoohoo	-11.1772
▁description	-11.1772
▁hashtag	-11.1772
▁parade	-11.1772
▁hissing	-11.1772
▁teii	-11.1772
▁darby	-11.1772
▁breach	-11.1772
▁fond	-11.1772
▁parole	-11.1772
▁gillie	-11.1772
▁paperwork	-11.1772
▁castaway	-11.1772
▁congratulate	-11.1772
▁conform	-11.1772
▁shona	-11.1772
▁countess	-11.1772
▁sara	-11.1772
▁victorious	-11.1772
▁inspector	-11.1772
jour	-11.1772
▁transportation	-11.1772
▁crab	-11.1772
▁nanako	-11.1772
▁spoon	-11.1772
▁fisherman	-11.1772
▁amusement	-11.1772
▁reflection	-11.1772
▁clapping	-11.1773
▁barkis	-11.1773
▁patsy	-11.1773
▁confirmation	-11.1773
▁rations	-11.1773
▁selection	-11.1773
▁hava	-11.1773
▁debut	-11.1773
▁expectations	-11.1773
▁puke	-11.1773
▁dug	-11.1773
▁temptation	-11.1773
▁feedback	-11.1773
▁moran	-11.1773
▁venge	-11.1773
▁clerk	-11.1773
▁destruction	-11.1773
▁sahib	-11.1773
▁atlas	-11.1773
▁salesman	-11.1773
▁joust	-11.1773
▁overdo	-11.1773
▁which	-11.1773
▁chimney	-11.1773
▁lizard	-11.1774
▁globe	-11.1774
▁ramon	-11.1774
▁noah	-11.1774
▁sip	-11.1774
▁tutor	-11.1774
▁compare	-11.1774
▁honeypot	-11.1774
▁benny	-11.1774
▁chica	-11.1774
▁sequence	-11.1774
▁erm	-11.1774
▁raw	-11.1774
▁abra	-11.1774
▁flock	-11.1775
▁brew	-11.1775
▁cooperation	-11.1775
▁tripped	-11.1775
▁hatred	-11.1775
▁poker	-11.1775
▁branches	-11.1775
▁lime	-11.1775
▁lindy	-11.1775
▁nursery	-11.1775
▁willie	-11.1775
▁multiply	-11.1775
▁aldo	-11.1776
▁councilman	-11.1776
▁barber	-11.1776
▁rally	-11.1776
▁certifi	-11.1776
▁bingo	-11.1776
▁toid	-11.1776
▁hitler	-11.1776
▁heap	-11.1776
▁lull	-11.1776
▁southby	-11.1776
▁mortal	-11.1777
▁chess	-11.1777
▁tono	-11.1777
▁cress	-11.1777
▁mock	-11.1777
▁andi	-11.1778
▁structure	-11.1778
▁assuming	-11.1778
ile	-11.1778
▁sneakers	-11.1778
▁vain	-11.1778
▁gram	-11.1778
▁caveman	-11.1778
▁leaf	-11.1778
▁attracted	-11.1778
▁employed	-11.1778
▁unload	-11.1778
▁identify	-11.1778
▁forged	-11.1779
▁contraction	-11.1779
▁rusty	-11.1779
▁arrangement	-11.1779
▁clink	-11.178
▁worn	-11.178
▁receiver	-11.178
▁erie	-11.178
▁devoted	-11.178
▁hobby	-11.178
▁clap	-11.178
▁ninety	-11.178
▁lava	-11.1781
form	-11.1781
▁tee	-11.1781
pin	-11.1781
▁torn	-11.1782
▁waitress	-11.1782
▁speaker	-11.1782
▁scotch	-11.1782
▁hubba	-11.1782
▁yama	-11.1782
▁amuse	-11.1782
▁educational	-11.1782
▁crawl	-11.1783
▁flattered	-11.1783
▁variet	-11.1783
▁detected	-11.1783
▁descent	-11.1783
▁yash	-11.1783
▁allies	-11.1783
▁bestowed	-11.1783
▁core	-11.1783
▁ahhh	-11.1784
▁lifeboat	-11.1784
▁endure	-11.1784
▁notion	-11.1784
▁dimly	-11.1784
▁restored	-11.1785
▁coverage	-11.1785
▁tina	-11.1786
▁rais	-11.1786
▁thia	-11.1787
▁grandparents	-11.1787
▁nicolas	-11.1787
▁hup	-11.1788
▁relics	-11.1788
▁arabs	-11.1788
▁cried	-11.1788
▁installed	-11.1788
▁hunger	-11.1788
▁retarded	-11.1788
▁driveway	-11.1789
▁stlli	-11.1789
▁tucker	-11.179
▁ka	-11.1791
▁antony	-11.1791
▁jet	-11.1791
▁armies	-11.1792
▁seventh	-11.1792
▁eu	-11.1793
▁particularly	-11.1793
▁headline	-11.1793
▁crooked	-11.1793
▁switches	-11.1794
▁purse	-11.1796
elope	-11.1796
▁vicious	-11.1797
▁mace	-11.1797
▁dart	-11.1799
▁cord	-11.1799
▁mio	-11.18
▁producer	-11.1801
▁lighten	-11.1803
▁quitter	-11.1804
▁cured	-11.1805
▁pointless	-11.1806
▁drowning	-11.1806
▁binding	-11.1807
▁bumper	-11.1807
▁package	-11.1807
▁englishman	-11.181
▁threatening	-11.181
nda	-11.1811
▁replaced	-11.1811
▁drawn	-11.1813
▁madame	-11.1813
▁moaning	-11.1814
ud	-11.1815
▁gadgets	-11.1816
▁references	-11.1817
▁angelo	-11.1817
af	-11.1819
▁angeles	-11.182
▁inspired	-11.182
gratitude	-11.1821
▁diseased	-11.1822
▁disappointing	-11.1822
▁jar	-11.1823
▁repaired	-11.1823
▁roommate	-11.1823
▁collector	-11.1825
▁pickup	-11.1826
▁joint	-11.1826
▁shipment	-11.1832
▁dana	-11.1832
▁performed	-11.1833
▁developed	-11.1833
▁iive	-11.1833
▁inspire	-11.1835
▁drivein	-11.1836
▁learnt	-11.184
▁goof	-11.1842
▁insulted	-11.1843
▁ph	-11.1843
▁caper	-11.1843
▁parties	-11.1844
▁explosives	-11.1846
▁knuckles	-11.1846
▁cre	-11.1846
▁hobbs	-11.1846
▁parenting	-11.1847
▁doses	-11.1849
▁businessman	-11.185
▁introduced	-11.1852
▁pub	-11.1855
▁yetis	-11.1855
▁renounc	-11.1856
▁vero	-11.1857
▁dye	-11.1859
▁virtue	-11.1859
▁spoiled	-11.1863
▁continu	-11.1865
▁beta	-11.1869
▁deer	-11.187
▁thoughtful	-11.1871
▁touches	-11.1874
j	-11.1874
▁planted	-11.1875
▁tentacles	-11.1875
▁sobs	-11.1876
▁pissing	-11.1878
▁filming	-11.1878
▁murdered	-11.1879
▁my	-11.1883
▁dumped	-11.1883
▁rushed	-11.1883
▁suggested	-11.1885
▁crushing	-11.1886
▁slim	-11.1886
▁crashed	-11.1887
▁attended	-11.1896
▁hardest	-11.1896
▁busted	-11.1899
▁hopeful	-11.1903
▁bella	-11.1905
▁comrades	-11.1905
▁toots	-11.1905
▁prevents	-11.1906
▁nazis	-11.1906
▁loudy	-11.1916
▁jazzing	-11.1918
▁loading	-11.1918
▁iand	-11.1921
▁dearie	-11.1922
▁practiced	-11.1923
▁sucking	-11.1928
▁ely	-11.1933
▁engravings	-11.1935
▁instincts	-11.1935
▁generations	-11.1936
▁tots	-11.1936
▁okie	-11.1939
▁doubled	-11.1945
▁los	-11.1951
▁remaining	-11.1955
▁naz	-11.1957
▁quicker	-11.1958
▁cans	-11.1959
▁cube	-11.1961
▁invitations	-11.1965
▁sleeves	-11.1965
▁cheeks	-11.1965
▁ai	-11.1966
▁visitors	-11.1968
▁chips	-11.1974
▁extract	-11.1985
▁omin	-11.1986
▁fabric	-11.1987
▁fins	-11.1987
▁reduce	-11.199
▁marker	-11.1994
▁runt	-11.1995
▁farmers	-11.2005
▁bonding	-11.2006
▁env	-11.2006
▁blinded	-11.2009
▁messy	-11.2012
▁mars	-11.2013
eye	-11.202
▁fore	-11.202
▁via	-11.2025
▁wednesdays	-11.2026
▁hens	-11.203
▁playin	-11.2033
▁den	-11.2033
▁tags	-11.204
▁coo	-11.2041
▁cooler	-11.2042
▁cornered	-11.2043
▁cro	-11.2045
▁dreamer	-11.2046
ide	-11.2052
▁packing	-11.2052
▁vita	-11.2054
▁charts	-11.2057
▁arrives	-11.2057
▁ver	-11.206
ost	-11.206
ley	-11.2061
▁peer	-11.2082
▁rustl	-11.2083
▁loskis	-11.2087
▁clowns	-11.2087
▁sant	-11.2088
▁wink	-11.2097
▁saints	-11.2117
▁newspapers	-11.2117
▁balloons	-11.2118
ata	-11.2119
▁illness	-11.2126
▁wayne	-11.2126
▁gals	-11.2126
nesia	-11.2129
▁swap	-11.2137
▁glue	-11.2146
▁costumes	-11.2148
▁guarding	-11.2149
▁hoot	-11.2149
ark	-11.2159
▁ger	-11.2161
▁magnetic	-11.2162
tions	-11.2168
▁options	-11.2178
▁affairs	-11.2178
▁results	-11.2178
ters	-11.2179
▁parked	-11.2179
youre	-11.2184
▁ther	-11.2186
▁misses	-11.2187
▁smelled	-11.2188
▁foods	-11.2232
imon	-11.2235
▁dolphins	-11.224
▁cosm	-11.2246
ga	-11.2249
▁ego	-11.2255
yah	-11.2271
hound	-11.2277
▁loses	-11.2278
▁figur	-11.2284
oo	-11.2285
▁pilots	-11.2293
hop	-11.2295
▁wounds	-11.2299
▁bikes	-11.2301
▁patients	-11.2301
▁caring	-11.2318
▁ur	-11.2318
▁bb	-11.2325
▁praises	-11.2334
▁dada	-11.2337
▁alli	-11.2347
oyalty	-11.236
▁efforts	-11.2364
▁mouthing	-11.2367
anding	-11.2371
▁fixing	-11.2377
▁directions	-11.2394
your	-11.2397
ets	-11.2401
▁slowing	-11.2401
▁mushrooms	-11.2426
▁interests	-11.243
▁sleeps	-11.2435
▁quote	-11.2446
bra	-11.2448
if	-11.245
▁menu	-11.2453
▁merediths	-11.2457
▁lawyers	-11.2457
rus	-11.2462
▁islands	-11.2469
om	-11.247
ris	-11.2478
fyou	-11.2484
▁scares	-11.2506
▁sle	-11.2507
▁conversations	-11.252
lands	-11.2523
▁chatt	-11.2529
dog	-11.253
▁tab	-11.2542
shes	-11.2562
▁pile	-11.2576
ob	-11.2586
▁bing	-11.26
ition	-11.2604
ler	-11.2606
▁ton	-11.2616
▁accounts	-11.2617
▁volt	-11.2627
dom	-11.2652
ez	-11.2667
▁origin	-11.268
▁experiences	-11.2681
shore	-11.2689
▁collapse	-11.2693
▁who	-11.2699
▁rein	-11.2707
lity	-11.2714
tor	-11.2737
▁marv	-11.2748
▁sc	-11.2749
▁pap	-11.2761
bby	-11.2783
▁measur	-11.2788
▁reads	-11.2791
▁mara	-11.2809
▁ob	-11.2814
▁grades	-11.2838
lie	-11.284
▁ei	-11.2845
▁bra	-11.2853
▁tit	-11.2857
▁je	-11.2862
ups	-11.2919
▁amp	-11.2921
▁ferr	-11.293
face	-11.2938
▁believes	-11.294
▁lighting	-11.294
▁types	-11.2947
iness	-11.2951
▁kar	-11.2996
▁checks	-11.3003
▁fee	-11.3012
▁winners	-11.3034
▁bothers	-11.3042
ita	-11.3054
po	-11.3057
▁fires	-11.3066
▁convers	-11.308
ren	-11.3083
▁rogers	-11.3099
▁floors	-11.3099
▁carve	-11.3104
▁uses	-11.3105
ically	-11.315
year	-11.316
▁bites	-11.316
▁dancer	-11.316
ipping	-11.3182
▁archi	-11.3182
bell	-11.3184
got	-11.3185
▁riches	-11.3188
▁gravel	-11.3227
▁promises	-11.3233
erlock	-11.3242
itting	-11.3252
yi	-11.3259
ou	-11.3265
▁lands	-11.3272
▁sparkl	-11.3292
▁limo	-11.3306
rn	-11.3307
sel	-11.3329
▁at	-11.3334
▁ru	-11.3357
▁commands	-11.3375
▁pla	-11.3376
ight	-11.3393
▁hol	-11.3402
▁mer	-11.3407
▁bobbi	-11.3419
alta	-11.3428
▁athe	-11.3447
▁twink	-11.3448
▁meets	-11.3457
▁prod	-11.3467
▁keg	-11.3468
mans	-11.3481
ward	-11.3484
▁complain	-11.3487
light	-11.3495
▁slam	-11.3498
▁din	-11.3499
▁cur	-11.3503
itating	-11.3503
▁invisi	-11.3519
ency	-11.352
ace	-11.3527
▁hun	-11.3531
istic	-11.3532
tie	-11.3534
▁emotion	-11.3535
▁vali	-11.3542
▁fer	-11.3544
▁harmon	-11.3547
ista	-11.3549
▁teas	-11.3551
▁discipline	-11.3556
▁terminate	-11.3556
▁rhun	-11.3559
▁crook	-11.3566
▁regard	-11.3572
▁document	-11.3573
▁exclaim	-11.3574
▁contest	-11.3575
▁insect	-11.3575
▁cramp	-11.3575
▁reserve	-11.3576
▁dork	-11.3576
▁lecture	-11.3576
▁tribe	-11.3578
▁prevent	-11.358
▁pu	-11.3587
ned	-11.3588
nk	-11.3592
▁tender	-11.3594
snt	-11.3597
▁email	-11.3598
▁troll	-11.3598
▁spells	-11.3599
▁tables	-11.36
▁maxie	-11.3601
▁macbride	-11.3601
▁radical	-11.3601
▁flipper	-11.3602
▁intention	-11.3603
▁role	-11.3606
▁comrade	-11.3609
▁levi	-11.361
▁demon	-11.361
night	-11.3611
▁toot	-11.3611
▁waponi	-11.3613
▁warhead	-11.3616
▁grove	-11.3616
▁habit	-11.3616
▁subtitle	-11.3618
▁tube	-11.3619
▁customer	-11.3621
▁bean	-11.3623
▁trader	-11.3626
▁vine	-11.3628
▁nazi	-11.3631
▁birdie	-11.3643
▁marchin	-11.3647
aisie	-11.3655
▁sled	-11.3658
▁abs	-11.3661
▁explains	-11.3664
▁magn	-11.3669
▁wit	-11.3677
udge	-11.3685
▁ec	-11.369
▁broadcast	-11.3693
▁alter	-11.3696
▁drown	-11.3697
▁emma	-11.3698
art	-11.3704
▁surf	-11.371
▁groov	-11.3711
▁slack	-11.3718
▁integrat	-11.3718
place	-11.3721
jo	-11.3721
▁ach	-11.3721
▁embarrass	-11.3723
▁explor	-11.3723
tial	-11.3725
▁vomit	-11.3727
▁wak	-11.3728
▁tu	-11.3728
rst	-11.3729
hold	-11.373
▁wail	-11.3732
boat	-11.3733
ties	-11.3734
hill	-11.3735
een	-11.3735
locks	-11.3736
▁suspend	-11.3738
▁select	-11.3738
▁atta	-11.3738
▁stations	-11.3739
▁assign	-11.3741
▁distress	-11.3741
life	-11.3743
▁unti	-11.3743
pilots	-11.3746
bridge	-11.3746
play	-11.3747
piece	-11.3747
understanding	-11.3747
snake	-11.3747
wise	-11.3747
wife	-11.3748
water	-11.3748
ode	-11.3748
wire	-11.3748
mission	-11.3749
mega	-11.375
capable	-11.375
▁prom	-11.3751
▁fulfill	-11.3751
▁doom	-11.3753
▁poll	-11.3754
▁strateg	-11.3755
▁engage	-11.3756
▁blink	-11.3756
leg	-11.3757
▁combine	-11.3757
▁approve	-11.3758
▁locate	-11.3758
▁surprising	-11.3759
▁technical	-11.376
▁unfortunate	-11.376
▁pad	-11.376
▁custom	-11.3761
▁blond	-11.3761
▁pimp	-11.3762
▁bind	-11.3762
bad	-11.3763
▁posit	-11.3763
▁pond	-11.3763
▁scram	-11.3764
▁claus	-11.3764
▁untie	-11.3764
aturi	-11.3765
▁occup	-11.3766
▁princip	-11.3766
▁branch	-11.3766
▁impress	-11.3766
▁horri	-11.3768
▁confess	-11.3769
▁flex	-11.3769
come	-11.3769
▁stoke	-11.377
▁transform	-11.377
ndians	-11.377
▁blank	-11.377
▁mmmmm	-11.377
ecutive	-11.377
▁neuro	-11.377
▁kidnap	-11.377
▁pow	-11.377
lfred	-11.377
▁analy	-11.377
▁dough	-11.377
▁exam	-11.377
tchup	-11.377
▁similar	-11.3771
▁segregat	-11.3771
proximate	-11.3771
responsibilities	-11.3771
rgensson	-11.3771
▁abbey	-11.3771
▁allotment	-11.3771
▁applesauce	-11.3771
▁automated	-11.3771
▁avanri	-11.3771
▁avatus	-11.3771
▁bahamas	-11.3771
▁banquet	-11.3771
▁behaving	-11.3771
▁bernard	-11.3771
▁bff	-11.3771
▁brearh	-11.3771
▁brittany	-11.3771
▁buddhist	-11.3771
▁butler	-11.3771
▁calendar	-11.3771
▁canada	-11.3771
▁canaveral	-11.3771
▁cannibal	-11.3771
▁cauldron	-11.3771
▁cease	-11.3771
▁cemetery	-11.3771
▁charging	-11.3771
▁chipmunk	-11.3771
▁cinzano	-11.3771
▁collision	-11.3771
▁colorado	-11.3771
▁companies	-11.3771
▁compartment	-11.3771
▁competitive	-11.3771
▁compromise	-11.3771
▁corrupt	-11.3771
▁dagmar	-11.3771
▁delilah	-11.3771
▁destined	-11.3771
▁dignity	-11.3771
▁elevated	-11.3771
▁expense	-11.3771
▁fresno	-11.3771
▁galleon	-11.3771
▁gasoline	-11.3771
▁geometry	-11.3771
▁gesture	-11.3771
▁gossip	-11.3771
▁guarani	-11.3771
▁guitar	-11.3771
▁hamada	-11.3771
▁hasbeen	-11.3771
▁humiliate	-11.3771
▁humiliating	-11.3771
▁hwyl	-11.3771
▁ignition	-11.3771
▁imperative	-11.3771
▁inappropriate	-11.3771
▁inbedkov	-11.3771
▁intrusion	-11.3771
▁inviting	-11.3771
▁irregular	-11.3771
▁jefferson	-11.3771
▁joylette	-11.3771
▁jumbo	-11.3771
▁kelp	-11.3771
▁kovacs	-11.3771
▁krapotkin	-11.3771
▁lafawnduh	-11.3771
▁latrine	-11.3771
▁lesbian	-11.3771
▁limb	-11.3771
▁lntelligence	-11.3771
▁lollipop	-11.3771
▁luxury	-11.3771
▁malfunction	-11.3771
▁mannequin	-11.3771
▁meerkats	-11.3771
▁memento	-11.3771
▁merchant	-11.3771
▁messenger	-11.3771
▁microwave	-11.3771
▁miraculous	-11.3771
▁miriam	-11.3771
▁misselthwaite	-11.3771
▁muslim	-11.3771
▁mwah	-11.3771
▁obedience	-11.3771
▁october	-11.3771
▁omelet	-11.3771
▁osborne	-11.3771
▁overreact	-11.3771
▁overseas	-11.3771
▁passelevve	-11.3771
▁pimlico	-11.3771
▁piracy	-11.3771
▁popsicle	-11.3771
▁pronto	-11.3771
▁quarrel	-11.3771
▁recognis	-11.3771
▁regatta	-11.3771
▁repay	-11.3771
▁requisition	-11.3771
▁retreat	-11.3771
▁roosevelt	-11.3771
▁saudi	-11.3771
▁scranton	-11.3771
▁session	-11.3771
▁southampton	-11.3771
▁spatters	-11.3771
▁stamina	-11.3771
▁stereo	-11.3771
▁struggling	-11.3771
▁sweatshirt	-11.3771
▁sync	-11.3771
▁textronics	-11.3771
▁theodore	-11.3771
▁tminus	-11.3771
▁treasury	-11.3771
▁tumips	-11.3771
▁tuscan	-11.3771
▁twerk	-11.3771
▁unbearable	-11.3771
▁unbeatable	-11.3771
▁unnecessary	-11.3771
▁unsportsmanlike	-11.3771
▁vaughan	-11.3771
▁vessel	-11.3771
▁vulnerable	-11.3771
▁walkietalkie	-11.3771
▁wardrobe	-11.3771
▁whereabouts	-11.3771
▁whisrling	-11.3771
▁willoughby	-11.3771
▁xander	-11.3771
▁yeahbsolutely	-11.3771
▁anesti	-11.3771
▁canoe	-11.3771
▁canyon	-11.3771
▁cautious	-11.3771
▁czar	-11.3771
▁dedmon	-11.3771
▁devastat	-11.3771
▁disrespect	-11.3771
▁enthusias	-11.3771
▁hesitate	-11.3771
▁legacy	-11.3771
▁necessarily	-11.3771
▁noisy	-11.3771
▁outdoor	-11.3771
▁postpone	-11.3771
▁ritual	-11.3771
▁sushi	-11.3771
culi	-11.3771
▁aiways	-11.3771
▁aspect	-11.3771
▁chariot	-11.3771
▁gerwyn	-11.3771
▁homosexual	-11.3771
▁plague	-11.3771
▁resign	-11.3771
▁salute	-11.3771
▁squander	-11.3771
▁stylis	-11.3771
▁thudding	-11.3771
▁wilderness	-11.3771
▁axehammer	-11.3771
▁bundle	-11.3771
▁hyperdrive	-11.3771
▁hysterical	-11.3771
▁panicked	-11.3771
▁congress	-11.3771
▁dariing	-11.3771
▁grumps	-11.3771
▁linebacker	-11.3771
▁mendoza	-11.3771
▁redeem	-11.3771
▁eternity	-11.3771
▁hobbyhorse	-11.3771
▁unseen	-11.3771
▁cockpit	-11.3771
▁normandy	-11.3771
▁ruoppoio	-11.3771
▁electronic	-11.3771
▁fraud	-11.3771
▁ignorance	-11.3771
▁instance	-11.3771
▁submit	-11.3771
▁banner	-11.3771
▁cecilia	-11.3771
▁darrell	-11.3771
▁friction	-11.3771
▁pepsi	-11.3771
▁inherit	-11.3771
▁werewolf	-11.3771
▁piggy	-11.3771
▁therapi	-11.3771
▁bullseye	-11.3771
▁dodg	-11.3771
▁imaginary	-11.3771
▁outrageous	-11.3771
▁strummin	-11.3771
▁kilometers	-11.3771
▁waik	-11.3771
▁milord	-11.3771
▁pension	-11.3771
▁simpson	-11.3771
▁stamp	-11.3771
▁walsh	-11.3771
▁talons	-11.3771
▁thirtyfive	-11.3771
▁fiction	-11.3771
▁mutual	-11.3771
▁strut	-11.3771
▁robotics	-11.3771
▁andrew	-11.3771
▁berries	-11.3771
▁database	-11.3771
▁uppity	-11.3771
▁influence	-11.3771
▁kidnapping	-11.3771
▁gokart	-11.3771
▁afore	-11.3771
▁fading	-11.3771
▁swarm	-11.3771
▁boogeyman	-11.3771
▁chevy	-11.3771
▁compassion	-11.3771
▁dioxide	-11.3771
▁elected	-11.3771
▁humour	-11.3771
▁lemonade	-11.3771
▁geographers	-11.3771
▁bernie	-11.3771
▁serpentine	-11.3771
▁stanley	-11.3771
▁constance	-11.3771
khan	-11.3771
▁yuck	-11.3771
▁raincoat	-11.3771
▁riff	-11.3771
▁deetz	-11.3771
▁flunk	-11.3771
▁nomad	-11.3771
▁studied	-11.3771
▁slick	-11.3771
▁medium	-11.3771
▁wrist	-11.3771
▁grasp	-11.3771
▁employment	-11.3771
▁unemployment	-11.3771
▁shaii	-11.3771
▁vox	-11.3771
▁archaic	-11.3771
▁mangled	-11.3771
▁misery	-11.3771
▁chubby	-11.3771
▁dexter	-11.3771
▁heir	-11.3771
▁pause	-11.3771
▁ridden	-11.3771
▁straw	-11.3771
▁dolores	-11.3771
▁slipping	-11.3771
▁republican	-11.3771
▁downfield	-11.3771
▁succor	-11.3771
▁ajob	-11.3771
▁quiz	-11.3771
▁nicholson	-11.3771
▁spun	-11.3771
▁whatcha	-11.3771
▁aisle	-11.3772
▁buts	-11.3772
▁aqua	-11.3772
▁bratz	-11.3772
▁beals	-11.3772
▁ginger	-11.3772
▁beware	-11.3772
▁saks	-11.3772
▁disarm	-11.3772
▁piace	-11.3772
▁poking	-11.3772
▁trina	-11.3772
▁slipped	-11.3772
▁abide	-11.3772
▁alcohol	-11.3772
▁stacy	-11.3772
▁supernatural	-11.3772
▁voting	-11.3772
▁rayray	-11.3772
▁aiready	-11.3772
▁babysitting	-11.3772
▁transformation	-11.3772
ometer	-11.3772
▁heii	-11.3772
▁depot	-11.3772
▁gloss	-11.3772
▁paffe	-11.3772
▁motherinlaw	-11.3772
▁administrator	-11.3772
▁isa	-11.3772
▁conned	-11.3772
▁assess	-11.3772
▁concrete	-11.3772
▁preserve	-11.3772
▁tux	-11.3772
▁contribution	-11.3772
▁negotiate	-11.3772
▁eise	-11.3772
▁tempora	-11.3772
ronic	-11.3772
▁democratic	-11.3772
▁merge	-11.3772
▁subtle	-11.3772
▁tijada	-11.3772
▁cattle	-11.3772
▁oof	-11.3772
▁buon	-11.3772
▁duh	-11.3772
▁sidekick	-11.3772
▁phew	-11.3772
▁irish	-11.3772
▁motivation	-11.3772
▁income	-11.3772
▁dj	-11.3773
▁partnership	-11.3773
▁cooperate	-11.3773
▁inhales	-11.3773
▁thieves	-11.3773
▁cruelty	-11.3773
▁gel	-11.3773
▁committed	-11.3773
▁bodyguard	-11.3773
▁oblige	-11.3773
▁testify	-11.3773
▁prettier	-11.3773
▁viii	-11.3773
▁legendary	-11.3773
▁harness	-11.3773
▁countries	-11.3773
▁tj	-11.3773
▁maury	-11.3773
▁ernest	-11.3773
▁battlefield	-11.3773
bre	-11.3773
▁linda	-11.3773
▁butterfly	-11.3773
▁underway	-11.3773
▁senor	-11.3773
▁farmhouse	-11.3773
▁shuttle	-11.3773
▁tolera	-11.3773
▁alexandra	-11.3773
▁alternative	-11.3774
▁scarce	-11.3774
▁operate	-11.3774
▁tango	-11.3774
▁buoy	-11.3774
▁punctual	-11.3774
▁angelica	-11.3774
▁iong	-11.3774
▁violation	-11.3774
▁einstein	-11.3774
▁sloppy	-11.3774
▁engagement	-11.3774
▁leadership	-11.3774
▁classroom	-11.3774
▁harbor	-11.3774
▁keegan	-11.3774
▁tissue	-11.3774
▁rosa	-11.3774
▁shuffle	-11.3774
▁intense	-11.3774
▁donation	-11.3774
▁grim	-11.3774
▁maywho	-11.3775
▁feei	-11.3775
▁jj	-11.3775
▁melan	-11.3775
▁espn	-11.3775
▁hottie	-11.3775
▁fuse	-11.3775
▁kol	-11.3775
stitute	-11.3775
▁logic	-11.3775
▁teleport	-11.3775
▁restore	-11.3775
▁jaw	-11.3775
▁beeper	-11.3775
▁batch	-11.3775
▁winwin	-11.3775
▁asian	-11.3776
▁curve	-11.3776
▁beau	-11.3776
▁dates	-11.3776
udos	-11.3776
▁stabilizer	-11.3776
▁appa	-11.3776
▁clamoring	-11.3776
▁shushing	-11.3776
▁beatles	-11.3776
▁spitting	-11.3776
▁copper	-11.3776
▁raff	-11.3777
▁riverside	-11.3777
▁acceleration	-11.3777
▁reinstated	-11.3777
▁priceless	-11.3777
▁whore	-11.3777
▁firstclass	-11.3777
▁miller	-11.3777
▁toll	-11.3777
▁stripes	-11.3778
▁worldwide	-11.3778
arette	-11.3778
▁pupa	-11.3778
▁dice	-11.3778
▁omen	-11.3778
▁resume	-11.3778
▁bible	-11.3778
▁hotshot	-11.3778
chita	-11.3778
▁aww	-11.3778
▁stepping	-11.3778
▁ahold	-11.3779
▁cosmo	-11.3779
▁gelatine	-11.3779
▁plantation	-11.3779
▁gener	-11.3779
▁hank	-11.3779
▁perish	-11.3779
▁ability	-11.3779
ember	-11.3779
▁patty	-11.3779
▁moth	-11.378
▁whipped	-11.378
▁clank	-11.378
▁crest	-11.378
▁woe	-11.378
▁bugged	-11.378
▁promoted	-11.378
▁skipped	-11.378
▁buckman	-11.378
▁reflect	-11.3781
▁robbery	-11.3781
▁lottie	-11.3781
▁mature	-11.3781
▁herbie	-11.3781
▁spectre	-11.3781
▁accused	-11.3782
▁prune	-11.3782
▁cabinet	-11.3783
▁shant	-11.3783
▁conqueror	-11.3783
▁sorcerer	-11.3783
▁offender	-11.3783
▁iot	-11.3783
▁efficient	-11.3783
▁plug	-11.3784
▁kathy	-11.3784
▁sanders	-11.3784
▁superb	-11.3784
trate	-11.3785
▁ames	-11.3785
▁scraping	-11.3785
▁tendon	-11.3786
▁inflat	-11.3786
▁bruise	-11.3786
▁dk	-11.3786
▁panel	-11.3787
▁fulltime	-11.3787
▁dinnertime	-11.3787
ere	-11.3787
▁lau	-11.3789
▁settlement	-11.379
▁tighten	-11.379
▁squirt	-11.3791
▁zip	-11.3791
▁civilians	-11.3792
▁haunted	-11.3792
gantic	-11.3792
▁parttime	-11.3792
▁exposed	-11.3792
▁witnesses	-11.3792
▁flooded	-11.3792
▁runaway	-11.3793
▁active	-11.3793
▁payoff	-11.3793
▁permanently	-11.3793
▁realistic	-11.3793
▁earthling	-11.3793
▁faded	-11.3793
▁consideration	-11.3793
▁caus	-11.3794
▁startled	-11.3794
▁cadet	-11.3794
▁backpack	-11.3795
▁regiment	-11.3795
▁counseling	-11.3795
▁lei	-11.3796
▁hometown	-11.3797
pido	-11.3799
▁lark	-11.3799
▁sober	-11.3799
▁halfway	-11.3799
▁eliminated	-11.38
▁located	-11.38
▁baking	-11.38
▁challenger	-11.3801
▁mold	-11.3801
▁butterfi	-11.3801
▁faceoff	-11.3801
▁hatches	-11.3801
was	-11.3804
▁freeway	-11.3804
▁takin	-11.3804
▁postman	-11.3805
▁rider	-11.3806
▁madman	-11.3806
▁brownies	-11.3808
▁hurr	-11.3808
tridge	-11.3809
▁eighth	-11.381
▁hugo	-11.381
▁tempt	-11.3811
▁sic	-11.3811
▁effective	-11.3812
▁operational	-11.3812
▁coil	-11.3812
▁policeman	-11.3813
▁majestic	-11.3813
▁limited	-11.3814
▁ranked	-11.3814
▁vomiting	-11.3815
syc	-11.3815
▁complaining	-11.3816
▁waking	-11.3816
▁solved	-11.3817
▁weep	-11.3817
▁informed	-11.3818
▁announced	-11.3819
▁distracted	-11.3823
▁betrayed	-11.3823
▁wrestled	-11.3823
▁entertaining	-11.3825
▁missiles	-11.3827
▁catalogues	-11.3827
▁bred	-11.3827
▁roars	-11.3827
▁slippers	-11.3827
▁decorating	-11.3828
▁voil	-11.3828
▁breeding	-11.3828
▁unlock	-11.3829
▁gardener	-11.383
▁damaged	-11.383
▁tara	-11.3831
▁render	-11.3833
▁pest	-11.3834
▁canceled	-11.3837
▁sincere	-11.3838
▁intended	-11.3842
▁pipp	-11.3844
▁stormy	-11.3844
cap	-11.3846
▁suspected	-11.3848
seven	-11.3849
▁echoing	-11.3854
▁inning	-11.3855
▁smashed	-11.3856
▁stud	-11.3857
▁curl	-11.3858
▁careless	-11.3858
▁bong	-11.3861
▁crushed	-11.3861
▁mammals	-11.3864
▁curtains	-11.3864
▁initials	-11.3864
▁closest	-11.3865
▁angu	-11.3866
▁hangin	-11.387
▁buzzes	-11.3872
▁flush	-11.3875
▁punt	-11.3875
ual	-11.3876
▁exp	-11.3877
▁deserved	-11.3883
▁checker	-11.3884
▁overlook	-11.3885
▁awarded	-11.3885
▁rebels	-11.3886
▁content	-11.3893
▁invade	-11.3894
▁deci	-11.3897
▁wage	-11.3898
▁breasts	-11.39
▁sightings	-11.3901
▁rails	-11.3901
▁sneezes	-11.3902
▁threatens	-11.3902
▁kindness	-11.3904
car	-11.3906
▁sadly	-11.3906
▁crowned	-11.391
▁workout	-11.3912
▁earths	-11.3913
▁engineering	-11.3923
▁shorter	-11.3927
▁brag	-11.3934
▁bitey	-11.3934
▁punched	-11.3936
▁script	-11.3937
▁beans	-11.3938
▁documents	-11.3939
▁regards	-11.3939
▁warheads	-11.3939
▁sets	-11.3941
▁photographer	-11.3942
▁slams	-11.3944
▁shells	-11.3946
igan	-11.3946
▁sinking	-11.3947
▁chub	-11.3949
▁leelailai	-11.3952
▁tits	-11.3954
▁joker	-11.3958
▁stutter	-11.3963
sley	-11.3968
▁smiled	-11.3969
▁lion	-11.397
▁magazines	-11.3976
▁ruled	-11.3976
mon	-11.3985
mobile	-11.3985
▁pian	-11.399
▁dumping	-11.3994
▁rushing	-11.3994
▁rag	-11.3999
▁posted	-11.4009
▁rides	-11.4009
▁ink	-11.4013
▁grownups	-11.4014
▁blades	-11.4017
▁musicians	-11.4022
lets	-11.4027
mont	-11.4029
▁gifted	-11.4033
▁plat	-11.4034
▁min	-11.4037
▁speakers	-11.404
▁mutter	-11.4044
▁combs	-11.4049
▁docks	-11.4051
▁scouts	-11.4051
▁mermaids	-11.4051
▁temperatures	-11.4051
▁rhymes	-11.4052
▁phones	-11.4052
▁houses	-11.4052
▁actors	-11.4055
tation	-11.4056
▁mari	-11.4059
ick	-11.4068
▁kee	-11.4076
▁ranch	-11.408
pick	-11.4084
▁pods	-11.4088
▁pigeons	-11.4089
▁connections	-11.4089
▁rubbles	-11.4089
▁seals	-11.4089
▁seated	-11.4097
▁lik	-11.4097
▁suns	-11.4099
▁aged	-11.4104
ofthe	-11.4113
▁cheater	-11.4119
dan	-11.4119
▁sticky	-11.4119
▁rem	-11.4121
▁some	-11.4122
unce	-11.4125
▁bin	-11.4125
▁elbows	-11.4127
▁basics	-11.4127
▁commission	-11.4128
▁mouths	-11.4129
▁vend	-11.4138
ries	-11.414
▁chuc	-11.4146
▁leagues	-11.4165
▁distort	-11.4167
▁gur	-11.4171
▁touchy	-11.4176
▁lookout	-11.4176
▁maud	-11.4176
▁suckers	-11.4178
▁lin	-11.4193
▁depths	-11.4203
▁manticores	-11.4203
▁paws	-11.4203
zzle	-11.4206
iate	-11.4208
▁subjects	-11.4216
▁prov	-11.4237
▁gorillas	-11.4241
▁mentors	-11.4243
▁regula	-11.4255
▁lodge	-11.4259
igh	-11.4261
over	-11.4262
▁partys	-11.4267
▁jen	-11.4277
▁holidays	-11.428
▁shr	-11.428
▁commanding	-11.4286
▁gi	-11.429
ush	-11.4296
▁traditions	-11.4309
▁scales	-11.4322
▁landscape	-11.4324
ink	-11.4325
ver	-11.4325
predictable	-11.4335
ru	-11.4337
▁beautifully	-11.4339
▁tart	-11.4345
guel	-11.4347
▁pitts	-11.435
▁guessing	-11.4357
▁craz	-11.4362
▁ato	-11.4363
agging	-11.4375
▁waitin	-11.4382
▁rec	-11.4387
▁apples	-11.4396
▁lasted	-11.4396
eh	-11.4426
▁artists	-11.4427
▁chambers	-11.4434
▁pages	-11.4435
▁attacking	-11.4436
▁nets	-11.4437
▁flames	-11.4439
▁swan	-11.4443
▁lib	-11.4452
zo	-11.4462
ais	-11.4464
▁bulls	-11.4465
▁fisher	-11.447
▁storms	-11.4474
▁characters	-11.4475
shed	-11.4484
xton	-11.4486
yes	-11.4501
▁mend	-11.4504
ep	-11.4509
▁dreamy	-11.4545
▁finishing	-11.4552
hampton	-11.4561
anita	-11.4563
▁kn	-11.4567
▁timer	-11.4572
▁seeks	-11.459
▁pockets	-11.4591
▁murders	-11.4594
▁italians	-11.4595
ir	-11.4616
▁zit	-11.4622
▁peanuts	-11.4631
▁directors	-11.4631
▁hats	-11.4633
ok	-11.4637
this	-11.4653
vin	-11.4657
▁dancers	-11.4662
▁killers	-11.467
▁programme	-11.4673
▁troubles	-11.4679
▁shorts	-11.468
ell	-11.4682
ft	-11.4695
mination	-11.4695
▁events	-11.4698
luc	-11.4704
▁carb	-11.4706
▁rises	-11.4709
▁tha	-11.4718
▁beers	-11.474
▁ci	-11.4751
▁cap	-11.4754
prone	-11.4756
▁styles	-11.4789
▁springs	-11.4794
▁goals	-11.4795
▁priv	-11.4797
▁sup	-11.4812
▁distinct	-11.4829
rous	-11.4847
aver	-11.4855
nic	-11.4882
hunk	-11.4882
▁blues	-11.4883
gent	-11.4897
▁len	-11.4913
kung	-11.4921
▁projects	-11.495
▁elses	-11.4964
▁simpl	-11.498
▁pint	-11.4984
▁bottles	-11.4991
▁donkeys	-11.4991
▁shops	-11.4992
▁buys	-11.4994
ities	-11.5007
ho	-11.5012
she	-11.5025
▁anyways	-11.503
▁picks	-11.503
▁readings	-11.5035
▁fortunate	-11.5037
ete	-11.5048
lege	-11.5057
▁shakes	-11.5072
ba	-11.5074
▁alo	-11.5093
titude	-11.5098
cra	-11.5109
ence	-11.5111
▁handed	-11.5114
▁bottoms	-11.5116
fo	-11.5129
ap	-11.514
tics	-11.5142
▁pea	-11.5143
ats	-11.5146
▁on	-11.5156
▁stays	-11.5163
row	-11.5164
▁tor	-11.5168
five	-11.5178
▁poppe	-11.5188
▁rains	-11.5197
▁aaa	-11.5198
each	-11.5199
of	-11.52
▁repeats	-11.52
ider	-11.5201
he	-11.5213
▁wakes	-11.5229
▁du	-11.5231
▁pursue	-11.5234
▁don	-11.5247
▁nibble	-11.5274
▁wav	-11.5276
ade	-11.5285
▁motivat	-11.5313
▁econom	-11.5316
▁levels	-11.532
lli	-11.5329
▁mattered	-11.5333
oid	-11.536
▁shad	-11.5364
▁oo	-11.5377
ug	-11.5385
ath	-11.5424
bility	-11.543
▁ve	-11.5464
▁captains	-11.5481
▁outs	-11.5482
▁tut	-11.5483
▁hind	-11.55
tale	-11.5511
ative	-11.5513
▁accepts	-11.5526
▁enti	-11.5562
▁differences	-11.5573
du	-11.5579
▁gag	-11.558
▁predict	-11.5587
unk	-11.559
▁chas	-11.5594
▁mag	-11.56
▁chairs	-11.5615
▁harrys	-11.5633
act	-11.5639
ture	-11.5648
▁sai	-11.5683
▁organize	-11.5713
ying	-11.5721
ld	-11.5722
▁astro	-11.5727
▁judg	-11.5746
fe	-11.5746
onai	-11.5748
ization	-11.5769
cal	-11.5785
ulation	-11.5789
▁nav	-11.5811
ak	-11.5817
hard	-11.5837
dispose	-11.5839
▁wars	-11.5848
que	-11.5848
▁offers	-11.5851
▁vir	-11.5854
wa	-11.5871
▁bod	-11.5875
sters	-11.5881
sca	-11.5907
lain	-11.591
ddy	-11.5923
▁with	-11.5924
uke	-11.5932
ebra	-11.5939
aff	-11.5942
spread	-11.5948
▁ybia	-11.595
▁martini	-11.5986
ids	-11.6009
▁rust	-11.6013
▁hid	-11.6019
bble	-11.6026
▁terror	-11.6037
bus	-11.6038
▁threaten	-11.6039
▁retard	-11.6048
nut	-11.6052
▁ana	-11.6056
▁describe	-11.6058
▁rail	-11.6063
▁strand	-11.6067
▁perimeter	-11.6075
▁probiem	-11.6075
▁lantern	-11.6075
▁frederick	-11.6075
▁conflict	-11.6075
▁triangle	-11.6076
▁forbid	-11.6076
▁riot	-11.6076
▁scalp	-11.6076
▁twinkle	-11.6079
▁passport	-11.6082
▁yawn	-11.609
▁suggestion	-11.609
▁spider	-11.6091
▁typewriter	-11.6093
▁microphone	-11.6093
▁hindu	-11.6094
▁sob	-11.6097
lum	-11.61
▁hurdle	-11.6102
▁obstacle	-11.6102
▁method	-11.6102
▁mineral	-11.6102
▁vibration	-11.6102
▁bracelet	-11.6102
▁breast	-11.6107
▁tickle	-11.6107
▁thorn	-11.6107
▁sneeze	-11.6108
▁racket	-11.6108
▁tentacle	-11.6109
▁passenger	-11.6111
▁tire	-11.6111
▁tool	-11.6112
▁zorgon	-11.6114
▁neutral	-11.6114
▁vegetable	-11.6115
▁carrie	-11.6117
▁claw	-11.6118
ja	-11.612
▁manner	-11.612
▁detail	-11.612
▁debt	-11.6124
▁turd	-11.6128
▁why	-11.614
▁am	-11.6144
▁pun	-11.615
▁murderer	-11.6151
▁diver	-11.6153
spy	-11.6154
▁sens	-11.6158
▁lav	-11.6159
▁lickin	-11.6171
bb	-11.6176
amari	-11.6177
▁briefing	-11.6177
▁walters	-11.6181
▁bast	-11.6183
▁clo	-11.6192
▁surround	-11.6193
▁swords	-11.6195
▁abandon	-11.6196
▁shack	-11.62
ior	-11.6207
▁doe	-11.6209
▁flood	-11.621
▁mooch	-11.6211
▁stroll	-11.6213
py	-11.6215
▁cock	-11.6217
▁melt	-11.6219
mill	-11.622
hro	-11.6221
▁spank	-11.6226
▁snor	-11.6228
▁boxer	-11.6229
▁disgust	-11.623
wood	-11.6232
▁invest	-11.6235
▁summon	-11.6239
▁invent	-11.624
eyed	-11.6241
▁smack	-11.6241
▁apprehend	-11.6241
mom	-11.6242
craft	-11.6243
identified	-11.6243
hole	-11.6244
transmitter	-11.6244
orted	-11.6244
▁install	-11.6244
activated	-11.6247
signor	-11.6247
wheel	-11.6247
normal	-11.6248
shift	-11.6248
paid	-11.6248
yeah	-11.6248
white	-11.6248
girl	-11.6249
break	-11.6249
case	-11.6249
▁iad	-11.6251
standing	-11.6251
▁wuss	-11.6251
game	-11.6251
▁purchase	-11.6252
▁gregor	-11.6253
speed	-11.6253
rais	-11.6254
▁or	-11.6254
▁bridg	-11.6254
eight	-11.6255
▁tat	-11.6257
launch	-11.6257
▁triumphant	-11.6257
▁mill	-11.6257
teen	-11.6258
style	-11.6258
▁kath	-11.6259
▁izz	-11.6259
urdu	-11.626
▁apparent	-11.626
▁precise	-11.626
▁gelatin	-11.626
master	-11.626
slav	-11.6261
▁extreme	-11.6261
hatt	-11.6262
▁comput	-11.6262
▁activate	-11.6262
ologist	-11.6262
dest	-11.6264
care	-11.6264
hour	-11.6264
▁thund	-11.6265
▁micromanage	-11.6265
▁aft	-11.6265
▁bloom	-11.6266
▁froze	-11.6266
mail	-11.6266
ficial	-11.6266
▁sentiment	-11.6266
▁enforce	-11.6267
destruct	-11.6267
▁etc	-11.6268
▁villa	-11.6268
▁adel	-11.6268
leash	-11.6268
▁intercept	-11.6268
gre	-11.6268
▁obli	-11.6269
tysix	-11.6269
▁democrat	-11.6269
▁peach	-11.6269
▁casual	-11.627
▁seasick	-11.627
▁random	-11.627
▁triumph	-11.627
▁virgin	-11.627
▁diploma	-11.627
▁motto	-11.6271
gantuan	-11.6271
▁akbar	-11.6271
▁alexi	-11.6271
▁apprentice	-11.6271
▁arrivai	-11.6271
▁assault	-11.6271
▁atlantic	-11.6271
▁background	-11.6271
▁balcony	-11.6271
▁bavaria	-11.6271
▁beefsteak	-11.6271
▁bellveedaray	-11.6271
▁bennett	-11.6271
▁blimey	-11.6271
▁blindfold	-11.6271
▁boscoe	-11.6271
▁bundt	-11.6271
▁butbut	-11.6271
▁callendar	-11.6271
▁canadian	-11.6271
▁captivity	-11.6271
▁carpent	-11.6271
▁chivalry	-11.6271
▁choking	-11.6271
▁cloudbreather	-11.6271
▁clutch	-11.6271
▁collaborat	-11.6271
▁competitor	-11.6271
▁concussion	-11.6271
▁conrinues	-11.6271
▁contemplat	-11.6271
▁contempt	-11.6271
▁convenient	-11.6271
▁cornelius	-11.6271
▁cottage	-11.6271
▁crimson	-11.6271
▁cushion	-11.6271
▁deceased	-11.6271
▁dessert	-11.6271
▁detonator	-11.6271
▁deuce	-11.6271
▁dialogue	-11.6271
▁dungeon	-11.6271
▁dynasty	-11.6271
▁eleanor	-11.6271
▁elusive	-11.6271
▁emerald	-11.6271
▁encounter	-11.6271
▁evangel	-11.6271
▁exterior	-11.6271
▁fatima	-11.6271
▁fiddleyio	-11.6271
▁formidable	-11.6271
▁garcia	-11.6271
▁gauntlet	-11.6271
▁genuine	-11.6271
▁ghana	-11.6271
▁gianni	-11.6271
▁golilla	-11.6271
▁grease	-11.6271
▁grenade	-11.6271
▁grissom	-11.6271
▁guidance	-11.6271
▁handkerchief	-11.6271
▁heavier	-11.6271
▁heinlein	-11.6271
▁hereafter	-11.6271
▁hitchhike	-11.6271
▁hobart	-11.6271
▁houdini	-11.6271
▁humiliation	-11.6271
▁inarco	-11.6271
▁incomplete	-11.6271
▁integrity	-11.6271
▁investigation	-11.6271
▁jello	-11.6271
▁jiffy	-11.6271
▁klaus	-11.6271
▁knack	-11.6271
▁laboratory	-11.6271
▁lavatory	-11.6271
▁livorno	-11.6271
▁lucian	-11.6271
▁mackerel	-11.6271
▁maestro	-11.6271
▁magistrate	-11.6271
▁maitland	-11.6271
▁marvellous	-11.6271
▁meatloaf	-11.6271
▁mechanism	-11.6271
▁meherunissa	-11.6271
▁menopause	-11.6271
▁myspace	-11.6271
▁narragansett	-11.6271
▁neanderthal	-11.6271
▁nelson	-11.6271
▁nominee	-11.6271
▁norwegian	-11.6271
▁oatmeal	-11.6271
▁octopus	-11.6271
▁okeydoke	-11.6271
▁olympic	-11.6271
▁orangutan	-11.6271
▁outsmart	-11.6271
▁overblown	-11.6271
▁parakeet	-11.6271
▁paralyzed	-11.6271
▁perpetual	-11.6271
▁picasso	-11.6271
▁pipsqueak	-11.6271
▁playwright	-11.6271
▁poldark	-11.6271
▁poultry	-11.6271
▁poverty	-11.6271
▁preview	-11.6271
▁protein	-11.6271
▁psyched	-11.6271
▁psychology	-11.6271
▁raspberries	-11.6271
▁reeves	-11.6271
▁reindeer	-11.6271
▁reminisce	-11.6271
▁reunite	-11.6271
▁revolting	-11.6271
▁saajan	-11.6271
▁safflower	-11.6271
▁salmonella	-11.6271
▁satisfy	-11.6271
▁savor	-11.6271
▁saxophone	-11.6271
▁scrugg	-11.6271
▁senator	-11.6271
▁shepherd	-11.6271
▁shipshape	-11.6271
▁slab	-11.6271
▁slaughter	-11.6271
▁snarls	-11.6271
▁sniffles	-11.6271
▁sniper	-11.6271
▁snowflake	-11.6271
▁snuck	-11.6271
▁sodium	-11.6271
▁spaghetti	-11.6271
▁sphincter	-11.6271
▁spontaneous	-11.6271
▁stooge	-11.6271
▁strife	-11.6271
▁stunned	-11.6271
▁symptoms	-11.6271
▁syrup	-11.6271
▁takarazuka	-11.6271
▁talisman	-11.6271
▁taormina	-11.6271
▁telegram	-11.6271
▁threequarters	-11.6271
▁toohey	-11.6271
▁touganda	-11.6271
▁trampoline	-11.6271
▁trifle	-11.6271
▁umbrella	-11.6271
▁unacceptable	-11.6271
▁unconscious	-11.6271
▁undercover	-11.6271
▁unforg	-11.6271
▁unimaginab	-11.6271
▁unreasonable	-11.6271
▁usefui	-11.6271
▁utopia	-11.6271
▁vanechka	-11.6271
▁vicinity	-11.6271
▁waffle	-11.6271
▁wield	-11.6271
▁wolffstein	-11.6271
▁wonderfui	-11.6271
▁wondrous	-11.6271
▁yeerow	-11.6271
▁yikes	-11.6271
▁arcane	-11.6271
▁ballerina	-11.6271
▁celtic	-11.6271
▁complication	-11.6271
▁conjure	-11.6271
▁cucumber	-11.6271
▁dairy	-11.6271
▁domovoi	-11.6271
▁dreary	-11.6271
▁fugax	-11.6271
▁guiding	-11.6271
▁horde	-11.6271
▁klein	-11.6271
▁monument	-11.6271
▁participat	-11.6271
▁pasanda	-11.6271
▁premises	-11.6271
▁prospect	-11.6271
▁radar	-11.6271
▁secretaries	-11.6271
▁swedish	-11.6271
▁vokes	-11.6271
▁abyss	-11.6271
▁actuator	-11.6271
▁dimitr	-11.6271
▁extend	-11.6271
▁glitter	-11.6271
▁goblin	-11.6271
▁ieave	-11.6271
▁offsides	-11.6271
▁sciatic	-11.6271
▁slant	-11.6271
▁boast	-11.6271
▁dorm	-11.6271
▁gender	-11.6271
▁graphic	-11.6271
▁hughes	-11.6271
▁lynetta	-11.6271
▁regain	-11.6271
▁rupee	-11.6271
▁cabbages	-11.6271
▁cologne	-11.6271
▁juvenile	-11.6271
▁nimble	-11.6271
▁staircase	-11.6271
▁beanstalk	-11.6271
▁bloomington	-11.6271
▁blouse	-11.6271
▁determination	-11.6271
▁michelle	-11.6271
▁zao	-11.6271
▁ongoing	-11.6271
▁prevail	-11.6271
▁airborne	-11.6271
▁google	-11.6271
▁jejune	-11.6271
▁refusing	-11.6271
▁residence	-11.6271
▁saloon	-11.6271
▁yowl	-11.6271
namel	-11.6271
▁banjo	-11.6271
▁brood	-11.6271
▁bypass	-11.6271
▁naoko	-11.6271
▁proclaim	-11.6271
▁exborneo	-11.6271
▁corsage	-11.6271
▁iralia	-11.6271
▁harvey	-11.6271
▁aintree	-11.6271
▁antarctic	-11.6271
▁attagirl	-11.6271
▁cherries	-11.6271
▁ohhhohh	-11.6271
▁duties	-11.6271
▁itsa	-11.6271
claren	-11.6271
▁yourseif	-11.6271
abolic	-11.6271
▁boundaries	-11.6271
▁fanciful	-11.6271
▁onward	-11.6271
▁anoint	-11.6271
▁helium	-11.6271
▁peepee	-11.6271
▁vague	-11.6271
▁newcomer	-11.6271
▁rhin	-11.6271
▁anonymous	-11.6271
▁tenner	-11.6271
▁turold	-11.6271
▁breck	-11.6271
▁gregorio	-11.6271
▁patriot	-11.6271
▁tribute	-11.6271
▁belgian	-11.6271
▁housing	-11.6271
▁pitiful	-11.6271
▁barbaric	-11.6271
▁imagining	-11.6271
▁generator	-11.6271
▁cocktail	-11.6271
▁cowabunga	-11.6271
▁altogether	-11.6271
▁deactivate	-11.6271
▁gallop	-11.6271
▁madder	-11.6271
▁coq	-11.6271
▁cellphone	-11.6271
▁stomp	-11.6271
▁fortytwo	-11.6271
▁leeke	-11.6271
▁groveton	-11.6271
▁windex	-11.6271
biamo	-11.6271
▁basin	-11.6271
▁convict	-11.6271
▁guinea	-11.6271
▁homesick	-11.6271
▁puppet	-11.6271
▁adolescence	-11.6271
▁acorn	-11.6271
▁franz	-11.6271
▁mingle	-11.6271
▁serum	-11.6271
▁brays	-11.6271
▁keith	-11.6271
▁steep	-11.6271
▁ninny	-11.6271
▁bengalla	-11.6271
▁loaf	-11.6271
▁anarchist	-11.6271
▁petersburg	-11.6271
▁rivet	-11.6271
▁prank	-11.6271
▁slapped	-11.6271
▁terrain	-11.6271
▁beginners	-11.6271
▁salvage	-11.6271
▁plaster	-11.6271
▁initiation	-11.6271
▁motel	-11.6271
▁flourish	-11.6271
▁suspicious	-11.6271
▁inferna	-11.6271
▁merciless	-11.6271
▁microscop	-11.6271
▁synthesizer	-11.6271
▁ahoy	-11.6271
▁burial	-11.6271
▁siena	-11.6271
▁anandi	-11.6271
▁whack	-11.6271
▁align	-11.6271
▁ourse	-11.6271
▁bummer	-11.6271
▁ellison	-11.6271
▁petachi	-11.6271
▁observation	-11.6271
▁abdicat	-11.6271
▁petals	-11.6271
▁howling	-11.6271
▁memorial	-11.6271
▁stunning	-11.6271
▁theoretical	-11.6271
▁wigs	-11.6272
▁georgia	-11.6272
▁swirl	-11.6272
▁textbook	-11.6272
▁tread	-11.6272
▁iq	-11.6272
▁korean	-11.6272
▁numerous	-11.6272
▁inclin	-11.6272
▁skating	-11.6272
▁civilized	-11.6272
▁flipped	-11.6272
▁avail	-11.6272
▁exterminator	-11.6272
▁polar	-11.6272
▁delta	-11.6272
▁illumination	-11.6272
▁surgeon	-11.6272
▁clayton	-11.6272
▁huff	-11.6272
▁janitor	-11.6272
▁overcome	-11.6272
▁hippi	-11.6272
▁granny	-11.6272
▁coover	-11.6272
▁edition	-11.6272
▁ceti	-11.6272
▁rehearsai	-11.6272
▁rhe	-11.6272
▁pinball	-11.6272
▁crumble	-11.6272
▁upsidedown	-11.6272
▁curb	-11.6272
▁soninlaw	-11.6272
▁lancers	-11.6272
▁seasickness	-11.6272
▁reset	-11.6272
▁porch	-11.6272
▁ravish	-11.6272
▁detector	-11.6272
▁markowe	-11.6272
▁courtroom	-11.6272
▁salvation	-11.6272
▁coordination	-11.6272
▁riddle	-11.6272
▁eastbridge	-11.6272
▁radius	-11.6272
luxe	-11.6272
▁conga	-11.6272
▁appli	-11.6272
▁buddies	-11.6272
▁karen	-11.6272
▁catastrophe	-11.6272
▁clipper	-11.6272
▁irresponsible	-11.6272
▁siege	-11.6272
▁heartsong	-11.6272
▁salary	-11.6272
▁haircut	-11.6272
▁cozy	-11.6272
▁tasty	-11.6273
quent	-11.6273
▁arrow	-11.6273
▁rational	-11.6273
▁divine	-11.6273
▁vivi	-11.6273
▁hlife	-11.6273
▁stash	-11.6273
▁unveil	-11.6273
▁gulp	-11.6273
▁ernst	-11.6273
▁boosters	-11.6273
▁journalist	-11.6273
▁fangs	-11.6273
▁egyptian	-11.6273
▁paycheck	-11.6273
▁feline	-11.6273
▁corporation	-11.6273
▁consist	-11.6273
▁construct	-11.6273
▁native	-11.6273
▁revolutionary	-11.6273
▁invention	-11.6273
▁occasionally	-11.6273
▁alamo	-11.6273
▁wooster	-11.6273
▁debate	-11.6273
▁oink	-11.6273
▁finance	-11.6273
▁spotlight	-11.6273
▁chic	-11.6273
▁phony	-11.6274
▁abducted	-11.6274
▁nominated	-11.6274
▁hoover	-11.6274
▁indo	-11.6274
▁liberated	-11.6274
▁operating	-11.6274
olera	-11.6274
▁maim	-11.6274
▁elsewhere	-11.6274
▁napis	-11.6274
▁recital	-11.6274
▁appall	-11.6274
▁scorn	-11.6274
▁occurred	-11.6274
▁proposal	-11.6274
▁investment	-11.6274
▁gael	-11.6274
▁normai	-11.6274
▁thrusters	-11.6274
vious	-11.6275
▁enforcer	-11.6275
▁randy	-11.6275
▁ethel	-11.6275
▁bowser	-11.6275
▁webber	-11.6275
▁arf	-11.6275
▁atlanta	-11.6275
▁bacteria	-11.6275
▁eligible	-11.6275
▁increasing	-11.6275
▁lyrics	-11.6275
▁priority	-11.6275
▁jonah	-11.6275
▁syllable	-11.6275
▁unleash	-11.6275
▁draft	-11.6275
▁gunther	-11.6275
▁wales	-11.6275
▁network	-11.6275
▁reassigned	-11.6275
▁pulse	-11.6275
▁navigate	-11.6275
▁tide	-11.6275
▁hence	-11.6275
▁poise	-11.6275
▁clover	-11.6276
▁translation	-11.6276
▁titch	-11.6276
demn	-11.6276
▁papathing	-11.6276
▁pledge	-11.6276
▁exactiy	-11.6276
▁lailailai	-11.6276
▁slurp	-11.6276
▁adela	-11.6276
▁marshal	-11.6276
▁wager	-11.6276
▁vast	-11.6276
▁milli	-11.6276
▁garment	-11.6277
▁scoring	-11.6277
▁torment	-11.6277
▁slavery	-11.6277
▁shelter	-11.6277
▁cinema	-11.6277
▁blowfish	-11.6277
▁legit	-11.6277
▁skit	-11.6277
▁reload	-11.6277
▁gawking	-11.6278
▁codman	-11.6278
▁mich	-11.6278
▁helm	-11.6278
▁premier	-11.6278
▁concluded	-11.6278
▁guin	-11.6279
▁brassie	-11.6279
▁dede	-11.6279
idian	-11.6279
▁admitted	-11.6279
▁lastik	-11.6279
▁menace	-11.6279
nice	-11.6279
▁shelley	-11.6279
▁icebox	-11.6279
▁curtis	-11.628
eau	-11.628
▁awhile	-11.628
▁alma	-11.628
▁honorary	-11.628
▁frieda	-11.628
▁analyze	-11.628
▁playmate	-11.628
▁serving	-11.628
▁tickling	-11.628
▁minion	-11.6281
▁footprint	-11.6281
▁anthea	-11.6281
▁jc	-11.6281
▁hedge	-11.6281
▁donnie	-11.6282
▁tapped	-11.6282
▁meh	-11.6282
▁publicity	-11.6282
▁equipped	-11.6282
▁ironic	-11.6282
▁bever	-11.6282
▁thankful	-11.6282
▁industrial	-11.6283
▁stepped	-11.6283
▁shelf	-11.6283
▁executioner	-11.6283
▁capacity	-11.6283
▁culture	-11.6284
▁dried	-11.6284
mite	-11.6284
chen	-11.6284
▁uphold	-11.6284
▁deke	-11.6284
▁torpedoes	-11.6285
▁hospitality	-11.6285
▁haul	-11.6285
▁household	-11.6285
▁cellar	-11.6285
▁teamwork	-11.6285
▁mystical	-11.6286
▁zor	-11.6286
▁derri	-11.6286
tled	-11.6286
▁coup	-11.6286
▁acceptance	-11.6286
live	-11.6287
▁ringside	-11.6287
▁teenager	-11.6287
▁telescope	-11.6288
▁wat	-11.6288
▁somewh	-11.6288
▁squire	-11.6288
▁huy	-11.6288
▁swiftly	-11.629
▁halfback	-11.629
▁blindness	-11.629
▁ahem	-11.6291
▁scooter	-11.6291
▁plugged	-11.6291
▁departed	-11.6291
▁tomatoes	-11.6291
▁overwhelmed	-11.6291
▁comming	-11.6291
▁terrif	-11.6292
▁drone	-11.6292
ssa	-11.6293
▁git	-11.6293
▁achi	-11.6293
▁charter	-11.6293
▁gia	-11.6293
▁hallway	-11.6293
▁crunch	-11.6294
cht	-11.6294
▁wedge	-11.6295
▁halftime	-11.6295
▁stray	-11.6295
▁sideline	-11.6296
▁slash	-11.6297
▁adore	-11.6297
▁hookin	-11.6297
▁bowie	-11.6297
▁eyeballs	-11.6298
▁bygones	-11.6298
▁hardship	-11.6298
▁mathematics	-11.6298
▁paramedics	-11.6298
▁applications	-11.6298
▁mayfield	-11.6298
▁finis	-11.6299
▁vanity	-11.6299
▁shamus	-11.63
▁urgently	-11.63
▁raisins	-11.63
▁partial	-11.6301
aby	-11.6301
▁yea	-11.6302
▁cameraman	-11.6302
▁authorized	-11.6302
▁foil	-11.6303
▁fm	-11.6303
▁menno	-11.6303
▁mule	-11.6303
▁instantly	-11.6303
▁antique	-11.6303
▁improved	-11.6304
▁poked	-11.6304
▁sickness	-11.6305
▁cosa	-11.6305
▁starry	-11.6306
▁hothead	-11.6306
▁deadline	-11.6307
▁assigned	-11.6307
▁altered	-11.6307
▁butcher	-11.6308
▁prevented	-11.6308
▁duet	-11.631
▁leonardo	-11.631
▁coon	-11.6311
▁coal	-11.6311
tration	-11.6311
▁slimy	-11.6311
▁massage	-11.6312
▁cheaper	-11.6313
▁underestimated	-11.6314
▁bellies	-11.6314
▁wedg	-11.6315
▁poly	-11.6315
▁crawled	-11.6315
▁larger	-11.6316
▁portra	-11.6316
▁spanking	-11.6316
▁flooding	-11.6316
▁railing	-11.6317
▁melting	-11.6318
▁justif	-11.6318
tty	-11.6319
▁rewrit	-11.6319
▁soil	-11.632
▁rous	-11.6321
▁mma	-11.6322
rita	-11.6322
▁rum	-11.6322
▁endangered	-11.6324
▁disturbed	-11.6324
▁seduc	-11.6324
▁shaved	-11.6324
▁rollin	-11.6325
ewer	-11.6325
▁bucky	-11.6326
▁activated	-11.6327
motion	-11.6328
▁toaster	-11.6329
▁poop	-11.633
▁fasten	-11.633
▁reminder	-11.633
▁rig	-11.6331
▁handful	-11.6331
▁pushin	-11.6332
▁pumped	-11.6333
▁jester	-11.6333
▁define	-11.6335
▁leadman	-11.6336
▁rell	-11.6337
▁pawn	-11.6337
▁jimi	-11.6338
▁bagel	-11.634
▁achieved	-11.634
▁swis	-11.6341
▁shackle	-11.6343
▁relations	-11.6344
▁surroundings	-11.6345
▁grains	-11.6345
▁sausages	-11.6345
▁coughs	-11.6345
lutz	-11.6346
▁gabriel	-11.6348
▁wisely	-11.6348
ving	-11.6349
▁suburb	-11.635
state	-11.6351
▁sealed	-11.6352
▁doug	-11.6352
▁jay	-11.6352
bastia	-11.6355
▁disturbing	-11.6355
▁chuckle	-11.6359
▁correctly	-11.6359
▁accidents	-11.636
▁bonehead	-11.636
evita	-11.6361
action	-11.6362
▁bowler	-11.6365
▁cloudy	-11.6366
▁nighttime	-11.6368
▁shrinking	-11.6368
▁loosening	-11.637
▁fleeting	-11.637
axis	-11.638
▁chrom	-11.6381
▁ina	-11.6382
mad	-11.6383
rakes	-11.6385
▁doubts	-11.6386
▁guaranteed	-11.6386
▁forgiven	-11.6387
date	-11.6387
▁twisted	-11.6389
▁julia	-11.6391
▁purd	-11.6394
▁burgers	-11.6394
▁cure	-11.6396
▁finishes	-11.6397
▁skirts	-11.6398
▁teen	-11.6399
▁wart	-11.64
dding	-11.6402
dental	-11.6403
▁excitedly	-11.6404
old	-11.6407
▁qyacking	-11.6407
▁hacking	-11.641
▁slamm	-11.641
▁leaking	-11.6411
▁depending	-11.6412
▁required	-11.6412
▁taller	-11.6412
▁fainted	-11.6415
▁ern	-11.6418
ments	-11.6419
nel	-11.6421
▁deserted	-11.6422
▁resolve	-11.6426
▁bal	-11.6427
▁youngest	-11.6432
▁buen	-11.6434
▁ache	-11.6434
▁catchman	-11.6436
▁dominate	-11.6438
▁contracted	-11.6439
▁interrupted	-11.6439
▁trim	-11.6439
▁whys	-11.6439
▁feds	-11.644
▁difficulty	-11.6442
▁flyers	-11.6442
▁minerals	-11.6443
▁hurdles	-11.6443
▁methods	-11.6443
▁obstacles	-11.6443
▁vibrations	-11.6443
▁bracelets	-11.6443
▁rackets	-11.6443
▁tickles	-11.6444
▁gained	-11.6449
doo	-11.645
▁honesty	-11.6453
▁loop	-11.6453
wh	-11.6453
▁fightin	-11.6455
▁nervously	-11.6457
▁murderers	-11.6457
▁esp	-11.6457
▁remained	-11.6458
▁sailed	-11.6459
▁carts	-11.646
▁colder	-11.6463
▁cutest	-11.6464
▁tougher	-11.6465
▁germany	-11.6465
▁loo	-11.6466
▁collective	-11.6466
▁pomp	-11.6467
▁wip	-11.6468
▁commenc	-11.6471
sotto	-11.6472
▁tro	-11.6475
▁requesting	-11.6477
▁tendenc	-11.6478
iiy	-11.6479
shelves	-11.648
▁rags	-11.6481
▁cracked	-11.6482
▁dreamt	-11.6482
▁memo	-11.6482
▁risky	-11.6484
▁hatched	-11.6485
▁grue	-11.6485
▁capp	-11.6485
▁howdy	-11.6489
▁backed	-11.6492
▁intentions	-11.6492
▁macbrides	-11.6492
▁radicals	-11.6492
▁demons	-11.6492
▁flippers	-11.6492
▁pads	-11.6493
pping	-11.6494
▁emotions	-11.6494
addle	-11.6497
▁marketing	-11.6499
▁qualifie	-11.65
▁traders	-11.6501
cement	-11.6503
▁infinit	-11.6503
ue	-11.6505
▁molt	-11.6505
▁formed	-11.6506
cadill	-11.6512
▁designer	-11.6521
▁whistled	-11.6525
▁failing	-11.6527
▁continued	-11.6527
▁coos	-11.6532
▁shooter	-11.6534
lock	-11.6534
▁simulat	-11.6538
▁interrupting	-11.654
▁rejects	-11.6542
▁elements	-11.6542
▁dolls	-11.6542
▁turks	-11.6542
▁cuddl	-11.6544
▁hast	-11.6545
▁kil	-11.6545
now	-11.6546
▁snob	-11.6547
pit	-11.655
▁dep	-11.6553
▁lance	-11.6557
▁helpless	-11.6557
▁alarmed	-11.6563
▁repeated	-11.6576
▁import	-11.6578
▁skater	-11.6582
▁survivors	-11.6592
▁conclusions	-11.6592
▁individuals	-11.6592
▁demanding	-11.6593
▁hatching	-11.6593
▁zi	-11.6595
▁dealer	-11.6596
ub	-11.6596
▁cri	-11.6597
▁busting	-11.6598
▁setups	-11.6601
▁freaked	-11.6602
ci	-11.6608
▁bothered	-11.6611
▁pressed	-11.6613
▁weirdos	-11.6618
▁recorded	-11.6619
▁chor	-11.662
▁pushy	-11.6621
ingham	-11.6623
▁haunt	-11.6627
▁pearls	-11.6633
nis	-11.6635
▁dated	-11.6636
cky	-11.6638
owed	-11.6639
nova	-11.664
▁stakes	-11.6641
▁towels	-11.6642
▁cheerleaders	-11.6642
▁lengths	-11.6642
▁patterns	-11.6642
▁andreas	-11.6642
▁decades	-11.6642
▁nipp	-11.6644
▁attempts	-11.6644
▁pork	-11.6647
mes	-11.6647
▁exceptional	-11.666
▁franca	-11.6667
ache	-11.6671
▁sighting	-11.6673
▁pip	-11.6681
▁ity	-11.669
▁roosters	-11.6692
▁jocks	-11.6692
▁rabbits	-11.6692
▁frogs	-11.6692
▁scal	-11.6693
▁sacrifices	-11.6694
▁creamed	-11.6698
▁ledge	-11.6705
ahu	-11.6706
▁growl	-11.6716
ire	-11.6719
▁drawers	-11.6721
▁wherea	-11.6721
▁ir	-11.6722
▁favorites	-11.6723
▁pitcher	-11.6728
▁clam	-11.6732
conductor	-11.6737
▁graduates	-11.6741
▁punks	-11.6743
hur	-11.6744
▁scrambl	-11.6744
▁ros	-11.6745
▁tangle	-11.675
▁shutters	-11.675
▁importantly	-11.6752
hew	-11.6754
cho	-11.6759
▁nobe	-11.6765
vard	-11.6767
ean	-11.6771
▁explained	-11.6776
▁genetic	-11.6784
▁beaks	-11.6793
▁cigarettes	-11.6793
▁sailors	-11.6795
▁relaxed	-11.6799
▁conceive	-11.6802
▁dam	-11.6804
ule	-11.6808
ggle	-11.6809
toe	-11.6815
▁differently	-11.6817
ms	-11.6836
▁bricks	-11.6839
▁prim	-11.684
▁shades	-11.6841
▁mirrors	-11.6844
▁occasions	-11.6844
itt	-11.6847
▁acts	-11.6852
▁bums	-11.6864
vy	-11.687
▁jose	-11.6872
▁eld	-11.6873
▁mach	-11.6881
▁wo	-11.6885
▁statues	-11.689
▁fed	-11.6894
▁mus	-11.69
▁coy	-11.6901
▁seize	-11.6903
ghi	-11.6906
ptical	-11.6906
cuff	-11.6912
▁counted	-11.6916
▁kills	-11.6924
▁rainbows	-11.6946
▁values	-11.6947
▁shee	-11.6951
▁keepers	-11.6956
▁tru	-11.6964
mi	-11.6965
don	-11.6967
▁speeding	-11.6971
▁wheatie	-11.6973
▁revive	-11.6974
▁feared	-11.6977
ication	-11.6984
▁hu	-11.6987
▁organiz	-11.6993
▁creeps	-11.6998
▁servants	-11.6998
▁paddle	-11.7007
▁peek	-11.702
▁phoned	-11.7021
ament	-11.7023
nog	-11.7025
▁whirs	-11.704
ipped	-11.7043
▁hel	-11.7047
▁summers	-11.7049
▁exits	-11.705
▁guardians	-11.7053
▁bombing	-11.7055
rr	-11.7068
▁cher	-11.7079
arm	-11.708
▁hating	-11.7084
saur	-11.7089
made	-11.7092
▁norma	-11.7121
shing	-11.7123
nar	-11.7135
▁troubled	-11.7139
gging	-11.7139
▁crowded	-11.7146
▁noo	-11.7155
immer	-11.7155
▁whales	-11.7156
▁stat	-11.7165
ag	-11.7168
fi	-11.7178
▁comp	-11.7189
▁deadly	-11.7191
▁tunes	-11.7196
eck	-11.7208
ttle	-11.7212
▁secondly	-11.7222
erran	-11.7223
inal	-11.7224
▁rates	-11.7226
arge	-11.723
▁irrita	-11.7253
feit	-11.7255
▁meals	-11.7258
▁criminals	-11.726
▁turtles	-11.726
▁lace	-11.7269
▁est	-11.7272
▁quacking	-11.7283
ude	-11.7285
scrape	-11.7288
▁fears	-11.729
▁bul	-11.7293
▁bounc	-11.7304
▁poems	-11.7313
▁pucks	-11.7313
▁champs	-11.7314
cello	-11.7323
mile	-11.7327
stick	-11.7329
▁spends	-11.7359
▁ash	-11.7363
▁shirts	-11.7366
▁talents	-11.7369
▁gala	-11.7371
▁despis	-11.7375
lin	-11.738
▁pans	-11.7388
▁vari	-11.74
done	-11.74
che	-11.7404
▁eth	-11.741
ax	-11.7421
▁recipes	-11.7421
▁periods	-11.743
▁dos	-11.7434
▁she	-11.7439
▁revs	-11.7465
▁shov	-11.7467
▁boyfriends	-11.7473
martial	-11.7473
lla	-11.7474
▁pointed	-11.7489
tra	-11.7513
tasha	-11.7514
▁rotat	-11.7517
▁gust	-11.7528
lapping	-11.7534
▁bou	-11.7534
▁intimidat	-11.7549
▁rebel	-11.7559
▁fli	-11.7568
▁gott	-11.7597
eating	-11.7604
▁masse	-11.7623
▁inf	-11.7632
▁hai	-11.7651
ites	-11.7662
hoohoo	-11.7668
▁masks	-11.7695
▁graces	-11.7708
▁finder	-11.7714
▁hooks	-11.7731
con	-11.7735
octan	-11.774
▁bugs	-11.774
▁crimes	-11.7745
▁needle	-11.7767
cum	-11.7782
▁ordering	-11.7805
win	-11.7805
▁io	-11.7807
▁scen	-11.7808
▁sorts	-11.782
▁fearful	-11.7823
▁govern	-11.783
jury	-11.7833
▁hog	-11.7849
▁octa	-11.7861
▁kat	-11.7869
nzo	-11.787
▁pets	-11.7879
▁numbered	-11.7908
▁stra	-11.7937
oni	-11.7937
dale	-11.7947
▁om	-11.795
▁as	-11.7952
liest	-11.7977
aint	-11.7982
▁las	-11.8002
cuss	-11.8004
tz	-11.8007
net	-11.8015
▁anda	-11.8026
▁questioning	-11.8028
pache	-11.8041
▁pic	-11.8043
▁admir	-11.8045
▁hydra	-11.8051
▁sti	-11.8053
▁rea	-11.8061
mic	-11.8061
bert	-11.8068
hnu	-11.8069
nes	-11.8098
▁imitat	-11.8099
tle	-11.8099
▁sig	-11.8111
ological	-11.8118
mp	-11.814
ending	-11.8162
▁mates	-11.8174
▁oppos	-11.8189
▁cart	-11.8189
▁ybith	-11.8195
▁dicta	-11.8196
▁santo	-11.8199
▁chim	-11.8204
▁var	-11.8209
ew	-11.8221
our	-11.824
per	-11.8244
▁posts	-11.826
mor	-11.8264
▁leaders	-11.8271
▁calculat	-11.8275
▁clic	-11.8278
nex	-11.8278
table	-11.8299
▁fra	-11.8302
▁planes	-11.8311
▁exc	-11.8318
▁fits	-11.8321
▁maker	-11.8322
gi	-11.8323
that	-11.8333
ives	-11.8339
▁bak	-11.8339
range	-11.8366
ple	-11.8372
▁estimate	-11.8395
edge	-11.8433
urt	-11.8438
▁sax	-11.8452
▁rang	-11.8466
plore	-11.8471
▁cruis	-11.8476
▁delivers	-11.8488
roy	-11.8496
ku	-11.8516
▁mira	-11.8519
sir	-11.8536
▁spi	-11.8554
nik	-11.856
tho	-11.856
▁carbo	-11.8562
alo	-11.8563
▁pickle	-11.8575
▁saturdays	-11.8598
▁challeng	-11.8611
▁ties	-11.8613
gon	-11.8613
uel	-11.8653
▁aunts	-11.866
ric	-11.8673
uate	-11.8674
▁indicat	-11.8683
ray	-11.8718
yll	-11.8719
achi	-11.8741
▁cu	-11.8746
▁yyou	-11.8748
rc	-11.8764
▁consul	-11.8773
▁gall	-11.8777
▁humbl	-11.878
▁swa	-11.8798
▁mod	-11.8816
mer	-11.8817
▁ideal	-11.8826
das	-11.8827
uff	-11.8835
rium	-11.8838
▁favors	-11.8842
ppy	-11.8842
▁trans	-11.885
gar	-11.8851
▁qua	-11.8859
ndri	-11.8863
▁def	-11.889
▁op	-11.8892
jima	-11.8899
▁duplicate	-11.8908
▁nurs	-11.8943
hey	-11.8946
▁flop	-11.895
▁mumbles	-11.8956
▁teller	-11.8957
▁hick	-11.8967
try	-11.8967
bet	-11.897
▁flap	-11.8978
▁char	-11.8989
▁sham	-11.9013
▁greens	-11.9015
▁compos	-11.9026
eaten	-11.9034
▁hea	-11.904
▁feli	-11.9043
▁jens	-11.9043
▁pent	-11.9044
get	-11.9048
ages	-11.9058
▁maps	-11.9058
rew	-11.9065
cent	-11.9068
ano	-11.9074
mber	-11.9088
▁indifferen	-11.9099
▁prepar	-11.9106
ggin	-11.9113
▁rivers	-11.9133
▁arr	-11.9138
▁unto	-11.9153
▁sci	-11.916
▁accessor	-11.9162
▁viola	-11.9175
turn	-11.9177
▁jos	-11.9182
ador	-11.9188
city	-11.9202
butt	-11.9202
▁react	-11.9204
hoe	-11.9205
▁corners	-11.9208
▁bars	-11.9223
run	-11.9227
hibi	-11.9229
▁ama	-11.9238
cat	-11.9248
arily	-11.9248
iled	-11.9249
▁qualif	-11.925
▁scr	-11.9251
ngs	-11.9251
tro	-11.9256
▁spaces	-11.926
▁bef	-11.9281
iii	-11.9283
ome	-11.9283
under	-11.9285
▁knocks	-11.9289
▁furth	-11.9304
▁squeal	-11.9305
ila	-11.9306
▁af	-11.9326
oir	-11.9328
▁machin	-11.9334
▁rib	-11.9348
▁comme	-11.9352
tah	-11.9369
ained	-11.9369
post	-11.9371
mate	-11.9379
guard	-11.9382
suit	-11.9387
rish	-11.9387
fly	-11.9389
▁invad	-11.9389
▁peters	-11.9391
▁seam	-11.94
▁cult	-11.94
▁mic	-11.9402
▁forc	-11.9406
▁beep	-11.9406
▁critic	-11.9409
▁balkan	-11.9409
▁unicorn	-11.9409
▁thrive	-11.9409
▁sculpture	-11.9409
▁pudding	-11.9409
▁knucklehead	-11.941
▁autograph	-11.941
▁giri	-11.941
▁landlord	-11.941
▁armpit	-11.9411
▁virtu	-11.9412
▁seventy	-11.9413
▁ag	-11.9414
▁opal	-11.9415
ect	-11.9424
▁flake	-11.9426
▁savage	-11.9427
▁hobb	-11.9428
▁burger	-11.9436
▁skirt	-11.9436
▁robber	-11.9437
▁curtain	-11.944
▁initial	-11.944
▁knuckle	-11.9442
▁explosive	-11.9443
gway	-11.9443
▁wr	-11.9443
▁marshmallow	-11.9445
▁ancestor	-11.9449
▁chord	-11.9452
▁sheet	-11.9452
▁teammate	-11.9455
rched	-11.9456
long	-11.9458
ench	-11.9458
▁monet	-11.946
▁dose	-11.9464
▁mammal	-11.9465
▁hoop	-11.947
xes	-11.9472
ware	-11.9477
▁multi	-11.9496
▁illustr	-11.9499
▁temp	-11.95
▁bes	-11.95
ky	-11.9502
▁shredd	-11.9509
few	-11.9519
eri	-11.9527
▁majesti	-11.9528
pack	-11.953
ara	-11.9534
breath	-11.9534
▁brav	-11.9535
lez	-11.9536
▁backward	-11.9542
▁bluff	-11.9547
▁captur	-11.9547
stery	-11.9555
stage	-11.9556
▁counsel	-11.9557
friend	-11.9558
▁scrubb	-11.9559
▁communicat	-11.9559
▁remodel	-11.956
▁revolve	-11.9561
kid	-11.9561
▁recruit	-11.9561
aye	-11.9562
▁cul	-11.9566
base	-11.9567
▁decei	-11.9568
▁convinc	-11.9568
▁robb	-11.9569
burn	-11.9569
igue	-11.9569
body	-11.9569
half	-11.957
▁squa	-11.9571
wide	-11.9571
▁absorb	-11.9571
▁ambush	-11.9571
accounted	-11.9574
osity	-11.9574
garde	-11.9574
▁distinguish	-11.9574
▁declar	-11.9575
whom	-11.9575
point	-11.9575
▁overwhelm	-11.9576
▁possess	-11.9576
minded	-11.9576
▁disc	-11.9577
esteem	-11.9577
stock	-11.9577
covered	-11.9578
fare	-11.9578
chin	-11.9578
inkling	-11.9578
authorized	-11.9578
regard	-11.9579
plug	-11.9579
hubba	-11.9579
threatening	-11.9579
charge	-11.958
qualified	-11.958
world	-11.958
scotch	-11.958
worm	-11.958
league	-11.958
human	-11.958
brush	-11.958
▁bol	-11.958
belief	-11.958
grade	-11.958
american	-11.9581
yearold	-11.9581
familiar	-11.9581
century	-11.9581
varsity	-11.9581
plus	-11.9581
▁forge	-11.9581
course	-11.9581
mouth	-11.9581
blue	-11.9581
walk	-11.9581
second	-11.9581
market	-11.9581
three	-11.9581
first	-11.9581
cause	-11.9581
grave	-11.9581
toula	-11.9582
▁detect	-11.9582
weii	-11.9582
israel	-11.9582
loving	-11.9583
bank	-11.9583
dancer	-11.9583
▁blam	-11.9583
throw	-11.9584
hammer	-11.9584
think	-11.9584
super	-11.9584
▁sobe	-11.9585
▁weir	-11.9585
mother	-11.9585
▁felon	-11.9586
▁grizzl	-11.9586
ohh	-11.9586
▁uphol	-11.9586
▁capacit	-11.9586
▁authorize	-11.9586
moon	-11.9587
plate	-11.9587
unh	-11.9587
named	-11.9587
▁execute	-11.9588
finished	-11.9588
escent	-11.9588
▁confuse	-11.9588
▁enchante	-11.9588
▁floo	-11.9588
tight	-11.9589
aware	-11.9589
▁strik	-11.9589
▁thorough	-11.959
▁deceive	-11.9591
▁puss	-11.9591
▁specia	-11.9592
▁tub	-11.9592
▁vent	-11.9593
▁fran	-11.9593
new	-11.9595
▁numb	-11.9595
▁beyon	-11.9596
▁epi	-11.9596
shit	-11.9596
▁sung	-11.9596
▁scatt	-11.9597
▁coordinat	-11.9597
▁scrub	-11.9598
▁dow	-11.9598
acious	-11.9599
▁q	-11.9599
▁profession	-11.9599
▁alexandr	-11.9599
▁drunken	-11.9599
▁mechanic	-11.9599
easant	-11.9599
wind	-11.96
descent	-11.9601
morr	-11.9601
▁esc	-11.9601
▁hallucinat	-11.9602
▁eject	-11.9602
▁whove	-11.9602
▁administrat	-11.9602
hrist	-11.9602
▁maze	-11.9602
▁grocer	-11.9602
scription	-11.9602
▁mangia	-11.9602
▁believin	-11.9602
▁dancin	-11.9602
▁depart	-11.9602
▁conscious	-11.9603
▁republic	-11.9603
▁blueberr	-11.9603
▁asia	-11.9603
▁bir	-11.9603
▁historic	-11.9603
▁numer	-11.9603
▁lauren	-11.9603
▁candid	-11.9603
sburg	-11.9603
coded	-11.9604
▁mead	-11.9604
▁branc	-11.9604
▁hypo	-11.9604
▁minsk	-11.9604
nfair	-11.9604
ivable	-11.9604
▁tram	-11.9604
ogne	-11.9604
dolph	-11.9604
grance	-11.9604
ceremon	-11.9604
▁spontan	-11.9604
dabbadoo	-11.9604
curricul	-11.9604
disobedience	-11.9604
ophobia	-11.9604
pande	-11.9604
▁abduction	-11.9604
▁abruptly	-11.9604
▁accommodat	-11.9604
▁afghanistan	-11.9604
▁aiuro	-11.9604
▁akrennian	-11.9604
▁andonandon	-11.9604
▁andonandonandon	-11.9604
▁apologies	-11.9604
▁archbold	-11.9604
▁armadillo	-11.9604
▁austria	-11.9604
▁barndoor	-11.9604
▁bathrobe	-11.9604
▁bernhardt	-11.9604
▁betrothed	-11.9604
▁bioexorcist	-11.9604
▁bizarre	-11.9604
▁bjorn	-11.9604
▁boulder	-11.9604
▁britney	-11.9604
▁brochure	-11.9604
▁brokaw	-11.9604
▁bubbly	-11.9604
▁burrito	-11.9604
▁camelyarde	-11.9604
▁canhardly	-11.9604
▁carlysle	-11.9604
▁carnival	-11.9604
▁carnivorous	-11.9604
▁carousel	-11.9604
▁catlady	-11.9604
▁cauliflower	-11.9604
▁cavity	-11.9604
▁celebrit	-11.9604
▁centaur	-11.9604
▁centimeters	-11.9604
▁cheerleading	-11.9604
▁chepstow	-11.9604
▁chloe	-11.9604
▁chowquin	-11.9604
▁cleopatra	-11.9604
▁cockaleekie	-11.9604
▁coffins	-11.9604
▁collide	-11.9604
▁commodity	-11.9604
▁confusing	-11.9604
▁congeniality	-11.9604
▁connecticut	-11.9604
▁conquest	-11.9604
▁consolation	-11.9604
▁constitution	-11.9604
▁copilot	-11.9604
▁coveted	-11.9604
▁cradle	-11.9604
▁crease	-11.9604
▁cudgeon	-11.9604
▁cyborg	-11.9604
▁dammit	-11.9604
▁deacon	-11.9604
▁defrost	-11.9604
▁delirious	-11.9604
▁demure	-11.9604
▁destructive	-11.9604
▁detention	-11.9604
▁detour	-11.9604
▁diabet	-11.9604
▁diagram	-11.9604
▁diarrhea	-11.9604
▁diaz	-11.9604
▁dignified	-11.9604
▁dilation	-11.9604
▁dimension	-11.9604
▁discomfort	-11.9604
▁discourage	-11.9604
▁doorknob	-11.9604
▁doorstep	-11.9604
▁drapes	-11.9604
▁driscoll	-11.9604
▁dryclean	-11.9604
▁duluth	-11.9604
▁dummkopf	-11.9604
▁dwarves	-11.9604
▁elcott	-11.9604
▁embark	-11.9604
▁embezzle	-11.9604
▁enchantment	-11.9604
▁energize	-11.9604
▁evangelyne	-11.9604
▁excellence	-11.9604
▁executors	-11.9604
▁expertise	-11.9604
▁exquisite	-11.9604
▁extensive	-11.9604
▁extinguish	-11.9604
▁fathom	-11.9604
▁franchise	-11.9604
▁freezedried	-11.9604
▁furlough	-11.9604
▁gagarin	-11.9604
▁gesundheit	-11.9604
▁geyser	-11.9604
▁glisten	-11.9604
▁gluten	-11.9604
▁griffin	-11.9604
▁grumble	-11.9604
▁grungy	-11.9604
▁hampshire	-11.9604
▁hiccup	-11.9604
▁houston	-11.9604
▁humongous	-11.9604
▁hyatt	-11.9604
▁iaugh	-11.9604
▁impulse	-11.9604
▁inbetween	-11.9604
▁incisor	-11.9604
▁incomp	-11.9604
▁indulge	-11.9604
▁inhabitant	-11.9604
▁injun	-11.9604
▁innocence	-11.9604
▁insanity	-11.9604
▁interfering	-11.9604
▁interrogation	-11.9604
▁jacob	-11.9604
▁jeopardy	-11.9604
▁jib	-11.9604
▁jolt	-11.9604
▁kasserine	-11.9604
▁kimchee	-11.9604
▁koolaid	-11.9604
▁krishna	-11.9604
▁kroot	-11.9604
▁krull	-11.9604
▁krypton	-11.9604
▁kwon	-11.9604
▁lamplighter	-11.9604
▁leather	-11.9604
▁leopard	-11.9604
▁leprechaun	-11.9604
▁liberation	-11.9604
▁literature	-11.9604
▁lolley	-11.9604
▁lombard	-11.9604
▁malcolm	-11.9604
▁malfoy	-11.9604
▁masculine	-11.9604
▁matllde	-11.9604
▁mcnally	-11.9604
▁metabolism	-11.9604
▁microchip	-11.9604
▁misunderstood	-11.9604
▁mitzvah	-11.9604
▁molitor	-11.9604
▁monstrous	-11.9604
▁mozart	-11.9604
▁murmurs	-11.9604
▁nagilah	-11.9604
▁nakayama	-11.9604
▁newlywed	-11.9604
▁nigel	-11.9604
▁nimrod	-11.9604
▁nissan	-11.9604
▁nononono	-11.9604
▁obligation	-11.9604
▁oppressive	-11.9604
▁orthodox	-11.9604
▁overdue	-11.9604
▁overheard	-11.9604
▁palmyra	-11.9604
▁pandemonium	-11.9604
▁paranoid	-11.9604
▁parlor	-11.9604
▁parody	-11.9604
▁parrot	-11.9604
▁pentagon	-11.9604
▁peripheral	-11.9604
▁pestilence	-11.9604
▁petrina	-11.9604
▁phobia	-11.9604
▁phyllis	-11.9604
▁piatform	-11.9604
▁pineapple	-11.9604
▁playground	-11.9604
▁pneumonia	-11.9604
▁pomelo	-11.9604
▁pondicherry	-11.9604
▁poptart	-11.9604
▁porridge	-11.9604
▁pottery	-11.9604
▁prioritize	-11.9604
▁psychic	-11.9604
▁pterodactyl	-11.9604
▁railroad	-11.9604
▁rebuil	-11.9604
▁receipt	-11.9604
▁reduction	-11.9604
▁reepicheep	-11.9604
▁reminiscing	-11.9604
▁repent	-11.9604
▁replied	-11.9604
▁repuls	-11.9604
▁retropackage	-11.9604
▁rokai	-11.9604
▁rooftops	-11.9604
▁rosebuds	-11.9604
▁sabotage	-11.9604
▁safari	-11.9604
▁sanchez	-11.9604
▁sandbourne	-11.9604
▁scooch	-11.9604
▁scrimmag	-11.9604
▁selfrespect	-11.9604
▁selvam	-11.9604
▁senile	-11.9604
▁separation	-11.9604
▁sesharrim	-11.9604
▁shakespeare	-11.9604
▁shingles	-11.9604
▁shrieking	-11.9604
▁shrieks	-11.9604
▁shudder	-11.9604
▁sketch	-11.9604
▁skulk	-11.9604
▁slizzard	-11.9604
▁socrates	-11.9604
▁sonofabitch	-11.9604
▁soysages	-11.9604
▁spleen	-11.9604
▁sportscenter	-11.9604
▁stohler	-11.9604
▁strelitz	-11.9604
▁suffocate	-11.9604
▁tahiti	-11.9604
▁teresa	-11.9604
▁thefts	-11.9604
▁thoroughbred	-11.9604
▁tkani	-11.9604
▁tolstoy	-11.9604
▁topotrepolovsky	-11.9604
▁tourism	-11.9604
▁trantridge	-11.9604
▁truffle	-11.9604
▁turquoise	-11.9604
▁twig	-11.9604
▁ukulele	-11.9604
▁ulanga	-11.9604
▁unbeaten	-11.9604
▁unikitty	-11.9604
▁universal	-11.9604
▁unsuccessful	-11.9604
▁vandercave	-11.9604
▁velocity	-11.9604
▁venezuela	-11.9604
▁visiontext	-11.9604
▁vulgar	-11.9604
▁wacko	-11.9604
▁wagner	-11.9604
▁weasel	-11.9604
▁welcoming	-11.9604
▁wilhelm	-11.9604
▁withdraw	-11.9604
▁ybidanger	-11.9604
▁youtube	-11.9604
ogogo	-11.9604
▁assassin	-11.9604
▁bogey	-11.9604
▁confront	-11.9604
▁dvd	-11.9604
▁llama	-11.9604
▁morehouse	-11.9604
▁parlay	-11.9604
▁precaution	-11.9604
▁yabbadabbadabba	-11.9604
▁bolander	-11.9604
▁craic	-11.9604
▁dedication	-11.9604
▁drab	-11.9604
▁eager	-11.9604
▁gettysburg	-11.9604
▁highrise	-11.9604
▁iead	-11.9604
▁ingalls	-11.9604
▁justjust	-11.9604
▁leggings	-11.9604
▁mastermind	-11.9604
▁nassau	-11.9604
▁nitrog	-11.9604
▁pegasus	-11.9604
▁retching	-11.9604
▁schveer	-11.9604
▁sumner	-11.9604
▁sustain	-11.9604
▁unruly	-11.9604
▁whatsoever	-11.9604
▁whimsical	-11.9604
alibu	-11.9604
▁bosom	-11.9604
▁crisp	-11.9604
▁duffy	-11.9604
▁peewee	-11.9604
▁pioneer	-11.9604
▁shouring	-11.9604
▁snout	-11.9604
▁spectacle	-11.9604
▁submarsble	-11.9604
▁unison	-11.9604
▁academi	-11.9604
▁alec	-11.9604
▁bandaid	-11.9604
▁grits	-11.9604
▁massacre	-11.9604
▁melod	-11.9604
▁monica	-11.9604
▁prophet	-11.9604
▁qualities	-11.9604
▁renee	-11.9604
▁superfl	-11.9604
▁abused	-11.9604
▁halyard	-11.9604
▁latchkey	-11.9604
▁mayhen	-11.9604
▁mittens	-11.9604
▁transfusion	-11.9604
▁clemen	-11.9604
▁mistreat	-11.9604
▁zorbas	-11.9604
▁colleague	-11.9604
▁errand	-11.9604
▁clobber	-11.9604
▁cluck	-11.9604
▁decay	-11.9604
▁drinian	-11.9604
▁fuzzball	-11.9604
▁lorna	-11.9604
▁nowadays	-11.9604
▁puncture	-11.9604
▁silk	-11.9604
▁accomplishments	-11.9604
▁afterlife	-11.9604
▁drool	-11.9604
▁dutch	-11.9604
▁iast	-11.9604
▁warrant	-11.9604
▁adapt	-11.9604
▁cigars	-11.9604
▁greer	-11.9604
▁polyester	-11.9604
▁strains	-11.9604
▁ammunition	-11.9604
▁delusion	-11.9604
▁lulu	-11.9604
▁nuhuh	-11.9604
▁sermon	-11.9604
terrence	-11.9604
▁charisma	-11.9604
▁duration	-11.9604
▁musket	-11.9604
▁yelp	-11.9604
▁impostor	-11.9604
▁oneonone	-11.9604
▁sarcastic	-11.9604
▁tonsils	-11.9604
nburg	-11.9604
▁dizzy	-11.9604
▁ortho	-11.9604
▁psychological	-11.9604
▁stocktak	-11.9604
▁ascent	-11.9604
▁imaginable	-11.9604
▁snatch	-11.9604
▁bleep	-11.9604
▁feminine	-11.9604
▁jerome	-11.9604
▁screwdriver	-11.9604
▁shebang	-11.9604
▁slingshot	-11.9604
▁disneyland	-11.9604
▁licence	-11.9604
▁llfe	-11.9604
▁peggy	-11.9604
▁recess	-11.9604
ntysi	-11.9604
▁pecs	-11.9604
▁snooty	-11.9604
▁snotty	-11.9604
▁oxford	-11.9604
▁bengal	-11.9604
▁casualties	-11.9604
▁demonstrate	-11.9604
▁abundance	-11.9604
▁citation	-11.9604
▁doormat	-11.9604
▁flickering	-11.9604
▁quartet	-11.9604
▁skua	-11.9604
▁terrace	-11.9604
▁aero	-11.9604
▁graduating	-11.9604
▁overflow	-11.9604
▁stimulating	-11.9604
▁streb	-11.9604
▁cheesecake	-11.9604
▁greasy	-11.9604
▁caution	-11.9604
▁gallery	-11.9604
▁jethro	-11.9604
▁scour	-11.9604
▁armada	-11.9604
▁seventyfour	-11.9604
▁alisha	-11.9604
▁redskins	-11.9604
▁settling	-11.9604
▁biue	-11.9604
▁hunchback	-11.9604
▁jingle	-11.9604
▁aloha	-11.9604
▁discount	-11.9604
▁encore	-11.9604
▁flabb	-11.9604
▁lesions	-11.9604
▁eflat	-11.9604
▁thunderstorm	-11.9604
▁outlaw	-11.9604
▁pervert	-11.9604
▁howler	-11.9604
▁mixture	-11.9604
▁toothpaste	-11.9604
▁bankruptcy	-11.9604
▁descendant	-11.9604
▁envelope	-11.9604
▁greyhound	-11.9604
▁tweed	-11.9604
▁vertical	-11.9604
▁wilt	-11.9604
▁drastic	-11.9604
▁garga	-11.9604
▁sanitation	-11.9604
▁tumble	-11.9604
dellver	-11.9604
▁millfield	-11.9604
▁canned	-11.9604
▁devour	-11.9604
▁discretion	-11.9604
▁bunco	-11.9604
▁contrary	-11.9604
▁counterfeit	-11.9604
▁rugged	-11.9604
▁termites	-11.9604
▁thornton	-11.9604
▁skunk	-11.9604
▁knox	-11.9604
▁flour	-11.9604
quette	-11.9604
▁braying	-11.9604
▁hamstring	-11.9604
▁shours	-11.9604
▁tyler	-11.9604
▁arabic	-11.9604
▁strangle	-11.9604
▁tiara	-11.9604
▁cruz	-11.9605
▁transference	-11.9605
▁depriv	-11.9605
▁prescription	-11.9605
▁definition	-11.9605
▁evaluation	-11.9605
▁frantic	-11.9605
▁slowpoke	-11.9605
▁thems	-11.9605
▁before	-11.9605
▁overpower	-11.9605
▁gunslinger	-11.9605
▁speck	-11.9605
▁kimura	-11.9605
▁motorcar	-11.9605
▁substance	-11.9605
unning	-11.9605
▁grammy	-11.9605
▁rigged	-11.9605
munition	-11.9605
▁cheque	-11.9605
▁equation	-11.9605
▁radiant	-11.9605
▁immigra	-11.9605
▁purring	-11.9605
▁martinez	-11.9605
▁myrna	-11.9605
▁qb	-11.9605
▁shamble	-11.9605
gnant	-11.9605
▁ensure	-11.9605
▁knob	-11.9605
▁bienven	-11.9605
▁blanche	-11.9605
▁uptight	-11.9605
▁commute	-11.9605
▁delhi	-11.9605
▁starkiller	-11.9605
▁watson	-11.9605
utical	-11.9605
▁suppliers	-11.9605
▁solving	-11.9605
▁grandchild	-11.9605
▁password	-11.9605
▁agri	-11.9605
▁aspirin	-11.9605
▁confusion	-11.9605
▁gramps	-11.9605
▁nasik	-11.9605
▁invalid	-11.9605
shire	-11.9605
▁ritz	-11.9605
▁bulb	-11.9605
▁drought	-11.9605
▁rogan	-11.9605
▁wrench	-11.9605
▁stabb	-11.9605
▁llve	-11.9605
▁clark	-11.9605
▁agility	-11.9605
▁mottola	-11.9605
▁mexica	-11.9605
▁briggs	-11.9605
sighted	-11.9605
▁alumn	-11.9605
▁kittridge	-11.9605
▁dispers	-11.9605
▁recreat	-11.9605
▁simkin	-11.9605
▁muddle	-11.9605
▁brute	-11.9605
▁merri	-11.9605
▁neurotic	-11.9605
▁iittie	-11.9605
▁flea	-11.9605
▁tampa	-11.9605
▁colorcoded	-11.9605
▁pierre	-11.9605
▁uncertain	-11.9605
▁halfpipe	-11.9605
▁zak	-11.9605
▁arena	-11.9605
▁bonita	-11.9605
▁deception	-11.9605
mercial	-11.9605
ualize	-11.9605
▁ybivalue	-11.9605
▁dribble	-11.9605
▁contestant	-11.9605
▁faut	-11.9605
▁plunk	-11.9605
▁electro	-11.9605
▁hyde	-11.9605
▁dubb	-11.9605
▁folly	-11.9605
▁initiative	-11.9605
▁gravitat	-11.9605
▁scanning	-11.9605
iddly	-11.9605
▁truce	-11.9605
▁intuitive	-11.9605
▁davies	-11.9605
▁pabl	-11.9605
▁xeno	-11.9605
▁manifesto	-11.9605
▁nettie	-11.9605
▁smol	-11.9605
▁usuai	-11.9605
▁semi	-11.9605
▁beggar	-11.9605
▁eyewitnesses	-11.9605
▁craftsman	-11.9605
▁harvest	-11.9605
▁navigator	-11.9605
▁retrieval	-11.9605
▁clone	-11.9605
▁notified	-11.9605
▁rejoin	-11.9605
▁tiresome	-11.9605
▁zep	-11.9605
▁detain	-11.9605
▁twentyfour	-11.9605
▁depression	-11.9605
▁fiber	-11.9605
▁groveling	-11.9605
▁outrun	-11.9605
▁ratio	-11.9605
▁whim	-11.9605
▁attraction	-11.9606
▁nutrition	-11.9606
▁consciousness	-11.9606
▁magnum	-11.9606
▁chuff	-11.9606
▁foraze	-11.9606
▁interface	-11.9606
▁vale	-11.9606
▁stoop	-11.9606
▁macaro	-11.9606
▁worship	-11.9606
▁kitten	-11.9606
▁crust	-11.9606
▁hula	-11.9606
▁flipping	-11.9606
▁kevin	-11.9606
▁whwhat	-11.9606
▁lilly	-11.9606
▁muddy	-11.9606
▁sleet	-11.9606
▁bonfire	-11.9606
▁contender	-11.9606
▁ferret	-11.9606
▁revoke	-11.9606
▁shrub	-11.9606
▁dinah	-11.9606
▁frag	-11.9606
▁filter	-11.9606
▁latch	-11.9606
▁omg	-11.9606
▁nonetheless	-11.9606
▁roster	-11.9606
▁fatso	-11.9606
▁spice	-11.9606
▁earliest	-11.9606
▁floss	-11.9606
▁yamoto	-11.9606
▁flint	-11.9606
▁docile	-11.9606
▁sophia	-11.9606
▁landmark	-11.9606
▁rascal	-11.9606
▁whatwhat	-11.9606
▁dented	-11.9606
▁tolley	-11.9606
▁crump	-11.9606
▁lesley	-11.9606
▁booze	-11.9606
▁juno	-11.9606
▁falter	-11.9606
▁lackey	-11.9606
▁renew	-11.9606
▁spoonful	-11.9606
▁hallucination	-11.9606
▁halston	-11.9606
nbaum	-11.9606
▁introduction	-11.9606
▁platitude	-11.9606
▁retro	-11.9606
▁infectious	-11.9606
▁niro	-11.9606
▁hygiene	-11.9607
▁mmmmmm	-11.9607
▁hungary	-11.9607
▁imbecile	-11.9607
▁procure	-11.9607
▁flagstone	-11.9607
▁vista	-11.9607
▁coursecorrect	-11.9607
▁drunkard	-11.9607
▁ogi	-11.9607
▁cawing	-11.9607
▁snapped	-11.9607
▁population	-11.9607
▁editor	-11.9607
▁upload	-11.9607
▁nyah	-11.9607
▁vigilante	-11.9607
▁yoga	-11.9607
▁bias	-11.9607
▁civilis	-11.9607
▁padre	-11.9607
plex	-11.9607
▁nineteen	-11.9607
▁yahoo	-11.9607
▁barren	-11.9607
▁caii	-11.9607
▁output	-11.9607
▁sensational	-11.9607
▁organis	-11.9607
flounder	-11.9607
▁chorus	-11.9607
▁evasive	-11.9607
▁limitless	-11.9607
▁witty	-11.9607
▁disturbance	-11.9607
▁defect	-11.9607
▁orphanage	-11.9607
▁masterpiece	-11.9608
▁pending	-11.9608
▁refugees	-11.9608
▁fax	-11.9608
▁creative	-11.9608
▁kiii	-11.9608
▁waterfall	-11.9608
▁fro	-11.9608
▁moonlight	-11.9608
▁irritating	-11.9608
dero	-11.9608
▁churchill	-11.9608
▁fantasy	-11.9608
▁pharmacy	-11.9608
▁evolved	-11.9608
▁dwell	-11.9608
▁potty	-11.9608
▁elian	-11.9608
▁giddy	-11.9608
▁coria	-11.9608
▁unpack	-11.9608
▁backpackers	-11.9608
▁misplaced	-11.9609
▁pact	-11.9609
▁conscien	-11.9609
▁infectio	-11.9609
▁garda	-11.9609
▁seattle	-11.9609
▁whipper	-11.9609
▁elo	-11.9609
▁parson	-11.9609
▁instructor	-11.9609
▁fudge	-11.9609
▁chunk	-11.9609
▁anthe	-11.9609
▁happier	-11.9609
▁darkroom	-11.9609
▁ohhhh	-11.9609
▁persian	-11.9609
▁crossfire	-11.9609
checking	-11.9609
▁pecke	-11.9609
▁fag	-11.9609
▁tbird	-11.9609
▁preparation	-11.9609
▁midian	-11.961
▁radi	-11.961
uzo	-11.961
▁polo	-11.961
acia	-11.961
▁disgraceful	-11.961
▁tuna	-11.961
▁rockingham	-11.961
▁glance	-11.961
▁preferred	-11.961
▁composition	-11.961
▁reap	-11.961
▁alley	-11.961
▁waist	-11.961
▁dali	-11.961
▁exclusive	-11.961
▁forecast	-11.961
▁rocco	-11.961
▁scope	-11.961
▁jingling	-11.961
▁clench	-11.961
▁shag	-11.961
mia	-11.961
theless	-11.961
▁busboy	-11.961
▁beneficia	-11.961
▁diary	-11.961
roach	-11.961
▁springtime	-11.961
▁crock	-11.961
▁jamb	-11.961
▁inlaw	-11.9611
▁makebelieve	-11.9611
▁sophisticated	-11.9611
▁enlightened	-11.9611
▁wandered	-11.9611
▁flexible	-11.9611
▁brah	-11.9611
▁fanatic	-11.9611
▁hilton	-11.9611
▁rearranging	-11.9611
▁budda	-11.9611
▁ofyour	-11.9611
▁dung	-11.9611
▁moderate	-11.9611
▁housekeeper	-11.9611
▁reborn	-11.9611
ntact	-11.9611
▁doodoo	-11.9611
▁alicia	-11.9611
▁maxim	-11.9611
▁tension	-11.9611
hearted	-11.9612
▁cox	-11.9612
ilated	-11.9612
▁basta	-11.9612
▁kell	-11.9612
▁popping	-11.9612
▁border	-11.9612
▁bullshitting	-11.9612
▁splutter	-11.9612
▁parched	-11.9612
▁thanksgiving	-11.9612
▁crackling	-11.9612
tuous	-11.9612
▁pike	-11.9612
▁properiy	-11.9612
▁ramp	-11.9612
▁mink	-11.9613
▁containment	-11.9613
▁satin	-11.9613
▁woof	-11.9613
▁lastminute	-11.9613
▁sour	-11.9613
▁daily	-11.9613
▁restraint	-11.9613
▁angelina	-11.9613
▁respectful	-11.9613
▁fide	-11.9613
▁occupation	-11.9613
▁mimic	-11.9613
▁cardboard	-11.9613
ogery	-11.9614
▁info	-11.9614
▁emiiy	-11.9614
▁analyst	-11.9614
▁fireplace	-11.9614
▁sept	-11.9614
▁plugg	-11.9614
▁comedian	-11.9614
▁tung	-11.9614
ssors	-11.9614
▁fink	-11.9614
▁clunking	-11.9615
▁reconditioning	-11.9615
▁frequent	-11.9615
▁yacht	-11.9615
▁foal	-11.9615
▁hors	-11.9615
▁cola	-11.9615
▁juan	-11.9615
liet	-11.9615
▁backflip	-11.9615
▁trampled	-11.9615
▁ballroom	-11.9616
▁portion	-11.9616
▁inventory	-11.9616
▁wavering	-11.9616
▁millard	-11.9616
▁stung	-11.9616
▁dragged	-11.9616
▁fatter	-11.9616
▁dante	-11.9616
▁farley	-11.9616
kne	-11.9617
▁jove	-11.9617
▁freakish	-11.9617
▁rug	-11.9617
▁northwest	-11.9617
▁judi	-11.9617
▁skyl	-11.9617
▁lalalala	-11.9617
▁royalty	-11.9617
igious	-11.9618
andahalf	-11.9618
▁haif	-11.9618
▁tranquilizer	-11.9618
▁satan	-11.9618
▁weaponry	-11.9618
▁commissioner	-11.9618
tured	-11.9618
▁fiend	-11.9618
▁straightaway	-11.9618
▁midst	-11.9619
store	-11.9619
▁troublemaker	-11.9619
▁advisor	-11.9619
▁benson	-11.9619
anthrop	-11.9619
ternal	-11.9619
▁certainiy	-11.9619
▁discre	-11.9619
▁relaxant	-11.9619
▁knockdown	-11.9619
▁ponder	-11.9619
▁belongings	-11.9619
▁canes	-11.962
ulp	-11.962
sten	-11.962
▁seaboard	-11.9621
▁intruder	-11.9621
▁accurate	-11.9621
▁rilla	-11.9621
▁marrie	-11.9621
▁whiz	-11.9621
▁wandering	-11.9621
▁muz	-11.9621
▁grind	-11.9621
▁leftover	-11.9621
▁snapper	-11.9621
▁brandt	-11.9622
▁accomplished	-11.9622
▁advertised	-11.9622
▁depressed	-11.9622
▁restricted	-11.9622
▁blackboard	-11.9622
▁disconnected	-11.9622
mond	-11.9622
▁stern	-11.9622
▁bolted	-11.9623
▁felony	-11.9623
▁bathe	-11.9623
▁squished	-11.9623
▁logan	-11.9623
▁ietter	-11.9623
▁lois	-11.9623
▁roundhouse	-11.9623
▁pussy	-11.9623
▁salon	-11.9623
▁sharpen	-11.9624
▁alai	-11.9624
▁wellknown	-11.9624
▁clause	-11.9624
cial	-11.9625
uppies	-11.9625
▁mailman	-11.9625
▁agony	-11.9625
▁identif	-11.9625
▁vest	-11.9625
▁anten	-11.9626
▁folder	-11.9626
▁refle	-11.9626
▁tapping	-11.9627
▁unhand	-11.9628
▁achievement	-11.9628
▁stance	-11.9628
▁foggy	-11.9628
asis	-11.9628
breathing	-11.9628
▁burglar	-11.9628
▁assist	-11.9629
▁reid	-11.9629
▁horseback	-11.9629
▁manpower	-11.9629
▁domo	-11.9629
▁brushes	-11.9629
▁correction	-11.9629
nko	-11.9629
▁manhood	-11.9629
▁disabled	-11.9629
▁homemade	-11.963
gnora	-11.963
▁gregory	-11.963
▁signora	-11.9631
▁sportsman	-11.9631
▁esteem	-11.9631
chan	-11.9632
▁sculpting	-11.9633
▁warmth	-11.9633
▁alto	-11.9633
▁sighing	-11.9633
▁functioning	-11.9633
▁alge	-11.9633
▁bugging	-11.9633
▁assembled	-11.9633
▁gand	-11.9634
▁distinguished	-11.9634
▁vested	-11.9634
wash	-11.9634
▁ord	-11.9634
▁jai	-11.9634
lance	-11.9634
▁sadness	-11.9635
▁wool	-11.9635
▁narnian	-11.9635
strange	-11.9635
▁bueno	-11.9635
▁sala	-11.9635
▁fizz	-11.9636
▁diego	-11.9636
▁hami	-11.9636
▁disable	-11.9636
▁jeopardize	-11.9636
▁tremble	-11.9637
▁briefly	-11.9637
▁intimidated	-11.9637
▁aver	-11.9637
▁described	-11.9637
▁combined	-11.9638
▁disciplined	-11.9638
▁brig	-11.9638
▁englishmen	-11.9638
▁badger	-11.9639
▁stitch	-11.9639
uve	-11.9639
▁bina	-11.9639
▁idiotic	-11.964
▁lori	-11.964
▁hiide	-11.964
▁agreement	-11.964
quil	-11.9641
▁pepe	-11.9641
▁weakest	-11.9641
▁painless	-11.9641
▁beatty	-11.9642
▁imply	-11.9642
▁comedy	-11.9642
▁considerable	-11.9642
▁transmitter	-11.9642
▁identified	-11.9643
▁setback	-11.9643
▁flyby	-11.9643
▁tagged	-11.9643
▁betting	-11.9643
▁propos	-11.9644
▁pumas	-11.9644
▁appearances	-11.9644
▁predictions	-11.9644
▁arthritis	-11.9644
▁cardinals	-11.9644
▁carnivores	-11.9644
▁fractions	-11.9644
▁gentoos	-11.9644
▁hormones	-11.9644
▁pukas	-11.9644
▁vitamins	-11.9644
▁volumes	-11.9644
▁typists	-11.9644
▁stoppin	-11.9644
▁reserved	-11.9645
▁hee	-11.9645
▁playboy	-11.9645
▁smacked	-11.9646
▁apprehended	-11.9646
dated	-11.9646
▁crafty	-11.9646
▁dove	-11.9646
▁mmmm	-11.9646
▁darken	-11.9647
▁newbury	-11.9648
▁protective	-11.9648
▁rosen	-11.9649
▁ththe	-11.9649
▁pastry	-11.9649
▁taxes	-11.965
▁physics	-11.965
▁telep	-11.9651
▁remodeling	-11.9651
erty	-11.9652
▁dew	-11.9652
▁eternally	-11.9652
dad	-11.9652
▁quid	-11.9653
▁subt	-11.9653
▁millenni	-11.9653
▁numberone	-11.9654
▁pup	-11.9654
▁matchup	-11.9655
▁backstage	-11.9655
▁restorati	-11.9656
▁alphabetical	-11.9656
▁secondary	-11.9657
▁specialty	-11.9657
▁bravest	-11.9657
▁distressed	-11.9658
▁drowned	-11.9658
▁selected	-11.9658
▁passive	-11.9658
▁grub	-11.9658
▁complained	-11.9659
▁bitchin	-11.9659
▁dingd	-11.9661
▁erase	-11.9663
▁enable	-11.9664
▁aber	-11.9664
▁perfectiy	-11.9664
▁politician	-11.9664
▁goldie	-11.9665
▁respectable	-11.9666
aloof	-11.9667
trays	-11.9668
▁skyler	-11.9668
▁mcd	-11.9668
▁commencing	-11.9669
▁adopted	-11.9669
▁entertained	-11.967
▁recommended	-11.967
gler	-11.967
▁abandoning	-11.9671
sanitary	-11.9671
▁printed	-11.9671
▁gladness	-11.9671
▁poc	-11.9674
▁sacrificed	-11.9675
▁cleanup	-11.9676
▁geniuses	-11.9677
▁flatter	-11.9677
▁specialist	-11.9677
▁asph	-11.9679
▁llst	-11.9679
▁workload	-11.968
▁pamper	-11.968
kar	-11.9681
sprinkle	-11.9681
▁briefed	-11.9682
handed	-11.9683
▁devi	-11.9684
ovsky	-11.9686
▁programmer	-11.9687
▁sweets	-11.9687
▁kai	-11.9687
▁slop	-11.9688
▁bowel	-11.9688
▁moocher	-11.969
▁stroller	-11.969
antly	-11.969
▁regarding	-11.969
▁imminent	-11.9691
▁pitches	-11.9692
▁evis	-11.9692
nation	-11.9693
▁pinched	-11.9693
▁ricket	-11.9694
▁attempted	-11.9695
▁unc	-11.9695
▁budd	-11.9697
▁physically	-11.9698
▁proposed	-11.9698
▁arabia	-11.9698
▁chilly	-11.9698
▁admired	-11.9699
▁ire	-11.9699
scot	-11.97
▁messin	-11.9701
▁towns	-11.9702
▁funnie	-11.9703
▁mush	-11.9704
▁funk	-11.9704
▁delayed	-11.9705
▁displayed	-11.9705
ole	-11.9707
suction	-11.9707
▁angela	-11.9709
▁promi	-11.9711
▁awaiting	-11.9712
▁residents	-11.9713
▁thuds	-11.9713
▁enterprises	-11.9713
▁harpoons	-11.9713
▁hurricanes	-11.9713
▁pyramids	-11.9713
▁yankees	-11.9713
▁chisels	-11.9713
▁primms	-11.9713
▁expos	-11.9713
▁blazes	-11.9714
▁surfer	-11.9714
▁requirements	-11.9714
▁molecules	-11.9714
▁buns	-11.9715
▁gangsters	-11.9715
▁contractor	-11.9718
▁saucer	-11.972
▁prest	-11.9721
▁stumble	-11.9721
ywed	-11.9721
ger	-11.9722
▁spared	-11.9722
attaboy	-11.9723
▁peeled	-11.9725
▁brighter	-11.9726
▁amore	-11.9726
▁slugg	-11.9727
▁packet	-11.973
sand	-11.9731
▁wll	-11.9734
opolis	-11.9734
▁spine	-11.9735
▁pene	-11.9736
graph	-11.9736
▁beds	-11.9736
▁vowed	-11.9738
▁whin	-11.9739
▁printer	-11.974
▁recorder	-11.9746
▁proceeding	-11.9746
▁glowing	-11.9747
oda	-11.9748
sis	-11.9748
rushe	-11.975
▁questionable	-11.975
▁sweaty	-11.975
▁praised	-11.9751
easy	-11.9753
▁strongest	-11.9754
▁carte	-11.9757
▁sendin	-11.9757
dge	-11.9759
▁hiring	-11.9759
▁owl	-11.976
▁authenticat	-11.9762
▁banksie	-11.9762
▁fury	-11.9763
ngers	-11.9763
▁jealousy	-11.9764
▁tessy	-11.9764
▁stacked	-11.9765
ori	-11.977
▁arma	-11.977
▁taber	-11.9771
▁wiped	-11.9771
being	-11.9774
▁fireman	-11.9775
▁wring	-11.9775
eology	-11.9776
▁insisted	-11.9778
▁nearer	-11.978
▁savages	-11.9784
▁chords	-11.9784
awing	-11.9784
gets	-11.9785
akis	-11.9786
▁magician	-11.979
▁bowi	-11.9797
▁starve	-11.9798
▁ini	-11.98
▁borrowed	-11.9801
▁joel	-11.9802
can	-11.9803
tant	-11.9804
▁flyin	-11.9804
▁criticiz	-11.9806
cular	-11.9807
eum	-11.9811
▁pickles	-11.9811
bound	-11.9811
uf	-11.9811
▁witnessed	-11.9813
▁sleepin	-11.9815
▁snobs	-11.9818
icted	-11.9822
▁washer	-11.9822
▁shifty	-11.9825
▁dealt	-11.9828
▁fishes	-11.983
▁tighter	-11.9831
assan	-11.9833
▁rescued	-11.9834
uga	-11.9834
▁bling	-11.9836
▁masters	-11.9838
nates	-11.984
▁existed	-11.9841
crimina	-11.9843
▁treaty	-11.9843
▁mentoring	-11.9846
▁headon	-11.9847
▁dictators	-11.9848
bone	-11.9855
▁turds	-11.9856
▁briefings	-11.9856
▁typewriters	-11.9856
▁microphones	-11.9856
▁spiders	-11.9856
▁strands	-11.9856
ifications	-11.9858
orse	-11.9859
▁hindus	-11.9859
▁disappearing	-11.9862
▁suz	-11.9863
▁weed	-11.9865
▁tong	-11.9865
▁undertak	-11.9871
▁lave	-11.9873
▁avoided	-11.9874
closure	-11.9877
▁dictate	-11.988
▁insisting	-11.9882
inner	-11.9886
▁tres	-11.9897
▁eatin	-11.9899
▁helpful	-11.9908
ida	-11.991
▁defended	-11.9915
▁minu	-11.9915
rrange	-11.9916
ference	-11.9918
▁shocking	-11.992
▁corporat	-11.9927
▁lions	-11.9927
▁trolls	-11.9927
▁emails	-11.9928
▁roles	-11.9929
▁crooks	-11.9929
▁reserves	-11.993
▁charit	-11.9932
double	-11.9934
▁verse	-11.9935
▁margar	-11.9936
▁wits	-11.9937
▁aced	-11.9939
▁transc	-11.994
gus	-11.994
tly	-11.994
nstein	-11.9942
▁yak	-11.9943
▁vines	-11.9943
brows	-11.9944
▁terroris	-11.9945
▁thankyou	-11.9947
▁broads	-11.9949
nickers	-11.995
zing	-11.9952
▁quell	-11.9959
▁auditioning	-11.9959
▁completed	-11.9959
▁coed	-11.996
oud	-11.9962
▁lens	-11.9965
▁dragonfl	-11.9967
▁pta	-11.9974
dance	-11.9975
▁madly	-11.9975
antiag	-11.9976
▁anna	-11.998
▁takedown	-11.9983
▁jokey	-11.9984
▁homeless	-11.9989
▁clash	-11.9989
▁deni	-11.9993
▁kicks	-11.9993
other	-11.9993
▁babbl	-11.9994
▁voted	-11.9997
▁steaming	-11.9998
▁fetching	-11.9998
▁bambin	-11.9998
▁prettie	-12
▁jews	-12.0001
▁airplanes	-12.0002
▁birdies	-12.0002
▁regions	-12.0002
▁schemes	-12.0002
▁ninjas	-12.0002
▁pistols	-12.0002
▁elections	-12.0002
▁weirder	-12.0002
▁treatments	-12.0003
hoho	-12.0006
▁missus	-12.0008
▁nam	-12.0009
▁apps	-12.001
▁bearer	-12.001
▁foundations	-12.0022
▁embr	-12.0024
▁heated	-12.003
▁mur	-12.003
▁greatness	-12.0032
izer	-12.0032
▁bic	-12.0044
▁strat	-12.0046
brain	-12.0066
▁lifted	-12.0072
▁scu	-12.0074
▁communications	-12.0075
▁turnips	-12.0075
▁mechanicals	-12.0075
▁satellites	-12.0075
▁blankets	-12.0076
▁herrings	-12.0078
▁athletes	-12.0082
▁chutes	-12.0082
▁lighter	-12.0083
ration	-12.009
visibility	-12.0092
pac	-12.01
all	-12.0112
cassette	-12.0113
▁claiming	-12.0114
▁handi	-12.0117
▁modul	-12.0127
▁bees	-12.0129
▁bombers	-12.0133
▁recit	-12.0133
▁launched	-12.0134
▁listed	-12.0138
▁tricked	-12.014
▁breakdowns	-12.015
▁continents	-12.015
▁candies	-12.015
▁geeks	-12.0152
▁festiv	-12.0158
▁hairs	-12.0163
asl	-12.0165
▁hooking	-12.0166
▁cleaners	-12.0169
▁rever	-12.017
lai	-12.017
nique	-12.0172
til	-12.0176
lon	-12.0178
mantle	-12.0179
▁lure	-12.0182
▁audi	-12.019
▁bonne	-12.0192
▁satur	-12.0193
▁grande	-12.0196
▁kins	-12.0198
sychocardiograms	-12.0204
posed	-12.0217
▁sentences	-12.0218
▁booths	-12.0224
▁items	-12.0224
▁meatballs	-12.0224
▁chirps	-12.0225
▁medals	-12.0225
▁moons	-12.0228
fu	-12.0234
▁paces	-12.0234
▁vay	-12.0238
▁alph	-12.0242
▁warmed	-12.0245
▁independen	-12.0247
▁axe	-12.0252
▁ais	-12.0257
▁respected	-12.0258
▁fares	-12.026
firm	-12.0261
hear	-12.0263
▁viva	-12.0264
▁weary	-12.0264
▁discussing	-12.0277
yle	-12.0277
lamour	-12.0279
▁belonged	-12.0279
▁nines	-12.0291
yor	-12.0299
▁steaks	-12.03
▁wheeze	-12.03
▁lamps	-12.0301
▁racks	-12.0314
▁gums	-12.0317
▁neednt	-12.0321
▁pitching	-12.0322
▁feeder	-12.0323
▁llt	-12.0342
▁classy	-12.0344
▁blott	-12.0346
▁grin	-12.0348
▁licks	-12.035
▁lifting	-12.036
▁indis	-12.0365
▁dicks	-12.0367
▁ban	-12.0368
hades	-12.0373
▁deli	-12.0375
▁trials	-12.0375
▁trunks	-12.0376
▁governors	-12.0376
▁periodical	-12.0393
▁heater	-12.0398
▁spying	-12.04
▁slid	-12.0411
▁dryer	-12.0413
▁gent	-12.0435
take	-12.0438
pot	-12.0439
▁ports	-12.0444
▁ruff	-12.045
▁explodes	-12.0451
rom	-12.0452
▁stargazers	-12.0452
▁potions	-12.0453
▁trou	-12.0453
▁fare	-12.0454
faw	-12.0457
▁zoom	-12.0461
affe	-12.0463
jv	-12.0467
▁listing	-12.0468
▁boob	-12.0476
mashed	-12.0477
▁vern	-12.0478
▁products	-12.0479
wn	-12.0482
▁braver	-12.0484
harmonic	-12.0494
hal	-12.0515
▁mee	-12.0525
▁ricos	-12.0527
▁acted	-12.0528
▁outfits	-12.0529
uck	-12.0532
▁fart	-12.0548
▁lig	-12.0558
am	-12.0562
▁walkon	-12.0566
proving	-12.0579
shim	-12.0588
▁gai	-12.0589
ience	-12.0596
▁screens	-12.0606
▁pharaohs	-12.0606
▁marines	-12.0606
▁cracker	-12.0616
tures	-12.0618
uty	-12.0625
▁bor	-12.0625
▁warming	-12.0627
▁yuko	-12.0661
ress	-12.0665
sian	-12.0671
▁by	-12.0672
ut	-12.0675
asses	-12.0677
sensible	-12.0684
▁violins	-12.0684
rch	-12.0685
sized	-12.0704
ships	-12.0709
▁joyful	-12.0714
loss	-12.0722
▁mont	-12.073
▁cubs	-12.0752
booster	-12.0764
▁requests	-12.0771
▁resi	-12.08
raving	-12.0803
rob	-12.0806
utta	-12.0817
▁addict	-12.0821
▁jeans	-12.0822
▁iv	-12.0835
▁gray	-12.0837
▁abse	-12.084
▁stables	-12.0841
▁bedrooms	-12.0842
▁spikes	-12.0843
▁prisons	-12.0843
▁defender	-12.0853
▁lefthand	-12.0861
cer	-12.0862
ittle	-12.0864
▁pins	-12.0879
▁sis	-12.089
rod	-12.0897
▁washing	-12.0907
▁converti	-12.0909
▁crystals	-12.0921
▁uniforms	-12.0921
▁vehicles	-12.0921
▁mondays	-12.0921
vit	-12.0922
elle	-12.0922
▁slides	-12.0927
▁parks	-12.093
▁sinks	-12.0931
▁graceful	-12.0932
▁dict	-12.0933
star	-12.0943
▁roller	-12.0963
set	-12.0974
▁vis	-12.0983
razi	-12.0986
▁lep	-12.0994
▁honoring	-12.0995
▁zo	-12.1004
▁ratt	-12.1008
keep	-12.1018
▁skates	-12.1027
erra	-12.1047
▁cran	-12.1049
▁tellin	-12.1057
pel	-12.106
▁rows	-12.1061
nn	-12.1069
▁pur	-12.1073
▁rocked	-12.1077
▁feature	-12.1078
▁titles	-12.1084
ran	-12.109
▁matts	-12.1098
▁sympath	-12.1098
bies	-12.1105
emp	-12.1112
▁prima	-12.1114
▁thej	-12.1124
▁kinder	-12.1156
▁nurses	-12.116
▁raid	-12.1164
▁legends	-12.1164
▁paintings	-12.1165
▁trains	-12.1174
▁inhuman	-12.1183
pped	-12.1184
▁cru	-12.1191
▁theor	-12.1195
▁loath	-12.1197
▁stal	-12.1198
tel	-12.1203
▁lesser	-12.1218
hart	-12.1228
▁bru	-12.123
▁ups	-12.1231
version	-12.1235
tig	-12.1243
exp	-12.1243
▁shields	-12.1245
▁wizards	-12.1245
▁sections	-12.1248
▁subjectiv	-12.1252
▁barge	-12.1255
▁sayin	-12.1258
pi	-12.127
▁glor	-12.1274
▁meddle	-12.1279
▁initiate	-12.1294
▁lis	-12.1301
ith	-12.1314
▁genes	-12.1322
▁cells	-12.1324
erge	-12.1331
▁suggests	-12.1332
▁recon	-12.1332
▁twentyf	-12.134
▁sails	-12.1341
rake	-12.1351
miss	-12.1363
▁reporting	-12.1369
ig	-12.1382
latitude	-12.1385
ndo	-12.1403
▁nor	-12.1409
▁metals	-12.1411
rudge	-12.1459
▁mcgr	-12.1469
▁owed	-12.1476
ik	-12.1483
ents	-12.1488
▁witchs	-12.1495
lts	-12.1503
▁inver	-12.1505
ington	-12.1506
lot	-12.1534
ggling	-12.1547
▁blocker	-12.1566
▁peytons	-12.1579
▁languages	-12.1579
▁elit	-12.1599
▁heave	-12.1605
rops	-12.1613
▁philosoph	-12.1618
trapped	-12.162
▁tack	-12.1641
ail	-12.1653
▁targets	-12.1664
▁relationships	-12.1664
▁suppers	-12.1665
ernity	-12.167
nald	-12.1689
▁pra	-12.1698
rapping	-12.1703
▁tang	-12.1707
▁probabi	-12.171
▁ev	-12.1714
▁bats	-12.1719
▁tails	-12.1736
ction	-12.1752
▁usin	-12.1799
alf	-12.1799
card	-12.1828
▁fowls	-12.1835
xt	-12.1838
ux	-12.1842
bit	-12.1861
scar	-12.1862
sure	-12.1886
humble	-12.1892
ester	-12.1908
▁challenges	-12.1912
▁ybif	-12.192
ashi	-12.1936
▁sher	-12.1938
▁meteor	-12.194
▁betch	-12.1954
▁leni	-12.1967
akos	-12.1972
arro	-12.1988
▁meter	-12.2001
▁hav	-12.201
uv	-12.2024
▁dens	-12.2025
▁consen	-12.2035
nno	-12.2068
▁inni	-12.2094
hopping	-12.2101
▁catcher	-12.2131
▁throats	-12.2187
▁batt	-12.2189
ption	-12.2198
placed	-12.22
tric	-12.2205
▁fa	-12.2215
▁col	-12.2223
omor	-12.2231
rix	-12.224
vil	-12.2263
bid	-12.2277
▁marti	-12.2309
ice	-12.231
bic	-12.2317
bour	-12.2339
▁sequ	-12.2341
▁provid	-12.2341
▁girlfriends	-12.2366
▁tre	-12.237
▁chum	-12.2378
▁packs	-12.2385
▁wiz	-12.2431
nnies	-12.2436
xb	-12.244
▁loathe	-12.2442
uzz	-12.2442
going	-12.2454
▁views	-12.2454
▁contacts	-12.2455
tha	-12.2465
sha	-12.2467
awa	-12.2478
tick	-12.2506
oke	-12.2531
▁trauma	-12.2537
▁bu	-12.2538
reach	-12.2585
aine	-12.2594
lc	-12.26
ign	-12.2603
issimo	-12.2618
▁breathes	-12.2645
ibber	-12.2651
cl	-12.2669
use	-12.2671
spring	-12.2698
▁und	-12.2703
▁prep	-12.2746
elt	-12.2746
ox	-12.2751
ane	-12.2758
▁ybii	-12.2759
▁mig	-12.2797
hu	-12.2805
rets	-12.2816
▁marian	-12.283
ural	-12.2832
ulate	-12.2843
▁hitch	-12.2888
▁sanct	-12.289
shop	-12.2901
▁hamst	-12.2918
zie	-12.293
tch	-12.2935
grayn	-12.2942
▁knit	-12.2948
hing	-12.2957
▁tun	-12.2974
osaur	-12.299
▁audaci	-12.3
kers	-12.3007
▁crazi	-12.3018
ular	-12.3022
den	-12.3035
au	-12.3039
▁yuk	-12.3083
ston	-12.3092
bilis	-12.3106
bob	-12.3147
gas	-12.3162
rer	-12.3217
vant	-12.3225
▁swi	-12.3226
erbil	-12.3235
▁backhand	-12.3251
▁classifi	-12.3256
▁opt	-12.327
▁regulat	-12.3294
ureen	-12.3313
▁disr	-12.3334
▁seco	-12.3336
high	-12.3346
nish	-12.3354
ura	-12.336
▁vai	-12.3396
▁slo	-12.3404
berg	-12.3429
▁dine	-12.343
fit	-12.344
tain	-12.3445
nuity	-12.3461
▁arti	-12.3472
▁boost	-12.3474
pity	-12.3481
zz	-12.3484
▁conceiv	-12.3495
▁dynamic	-12.35
▁vo	-12.3506
rump	-12.3508
unting	-12.3514
phy	-12.3517
ua	-12.3522
tortion	-12.3534
▁ent	-12.3552
ales	-12.3566
▁tra	-12.357
▁pil	-12.3571
ams	-12.3572
▁smit	-12.3581
▁her	-12.3611
inks	-12.3618
▁pom	-12.3648
stein	-12.366
duced	-12.366
alities	-12.3668
nfirma	-12.3698
ois	-12.3708
▁whom	-12.3712
umbling	-12.373
▁av	-12.3744
rek	-12.3745
▁cabb	-12.3748
▁franc	-12.3756
ndi	-12.3775
roasted	-12.3807
iance	-12.3809
etera	-12.381
▁ax	-12.3824
▁rustle	-12.3826
ario	-12.3834
▁pol	-12.3852
witz	-12.3854
orehead	-12.3864
▁lov	-12.3867
rell	-12.3879
bal	-12.3883
▁practis	-12.3886
dio	-12.3909
▁chee	-12.3921
▁pant	-12.3923
▁salv	-12.3934
▁clin	-12.394
▁fest	-12.3952
cation	-12.3952
vite	-12.3953
ivate	-12.3954
lee	-12.3955
ndy	-12.3969
crackers	-12.4001
bla	-12.4014
▁appreciat	-12.4029
▁ybino	-12.405
ility	-12.4063
oman	-12.4072
watch	-12.4073
ively	-12.4083
sia	-12.4085
inc	-12.4086
▁blu	-12.4095
key	-12.4096
two	-12.4106
▁jenn	-12.4109
struct	-12.4122
hoo	-12.4125
wo	-12.4126
non	-12.4128
ncy	-12.4131
▁indi	-12.4134
▁quot	-12.4144
mu	-12.4159
who	-12.4161
rating	-12.4161
▁slaps	-12.4185
inous	-12.419
ddle	-12.4197
▁qu	-12.4213
mus	-12.4225
▁flam	-12.4232
solved	-12.4232
mag	-12.4233
aunted	-12.4263
tit	-12.4269
oops	-12.4277
▁ple	-12.4279
rie	-12.4283
▁deplo	-12.4283
▁drip	-12.4286
quaking	-12.4287
lateral	-12.4295
▁simp	-12.4296
ickering	-12.4297
aka	-12.4307
▁tum	-12.4317
▁relat	-12.4325
liente	-12.4325
doubted	-12.4326
bling	-12.4328
ology	-12.4329
oon	-12.4343
eater	-12.4344
inners	-12.4349
▁blaz	-12.4353
▁ahah	-12.4354
ever	-12.436
coa	-12.4366
minent	-12.4366
buck	-12.4366
tious	-12.4375
cession	-12.438
phone	-12.4384
ucks	-12.4389
have	-12.439
▁choke	-12.4391
▁cough	-12.4395
▁bun	-12.4396
▁function	-12.4396
aged	-12.44
▁click	-12.4404
racks	-12.4408
▁serpent	-12.441
▁orchid	-12.4411
▁wainwright	-12.4411
▁essay	-12.4411
▁botfight	-12.4412
▁sputter	-12.4412
agin	-12.4412
▁roar	-12.4412
▁comm	-12.4413
▁postcard	-12.4413
▁overall	-12.4413
▁napkin	-12.4413
▁reel	-12.4414
weet	-12.4415
▁counselor	-12.4415
▁plier	-12.4417
▁yaw	-12.4417
▁lee	-12.4418
▁dislike	-12.4421
▁micromanager	-12.4421
▁sigh	-12.4421
▁slipper	-12.4422
▁groan	-12.4423
piration	-12.4423
▁broom	-12.4428
▁enterprise	-12.4429
▁harpoon	-12.4429
▁hurricane	-12.4429
▁pyramid	-12.4429
▁yankee	-12.4429
▁chisel	-12.443
▁objection	-12.4431
amer	-12.4432
▁primm	-12.4432
▁molecule	-12.4433
▁rende	-12.4434
▁clan	-12.4436
cle	-12.4437
▁sausage	-12.4437
ocking	-12.4439
▁resident	-12.444
▁thud	-12.4441
▁catalogue	-12.4441
▁gangster	-12.4441
ickly	-12.4443
ades	-12.4443
▁gadget	-12.4444
▁carrot	-12.4449
▁boiler	-12.445
▁jewel	-12.4451
▁whisrle	-12.4452
▁reference	-12.4452
anza	-12.4453
▁microbot	-12.4453
aki	-12.4453
▁cau	-12.4454
▁rapid	-12.4454
▁longhorn	-12.4454
oodle	-12.4454
▁noodle	-12.4454
ired	-12.4456
▁scoff	-12.4456
▁supplie	-12.4461
▁oop	-12.4461
▁associate	-12.4461
fan	-12.4462
▁requirement	-12.4463
ridge	-12.4463
▁matte	-12.4465
▁sewer	-12.4466
▁grain	-12.4466
▁nog	-12.4468
iff	-12.4475
rinkle	-12.4481
izing	-12.4482
▁aide	-12.4483
▁dab	-12.4484
▁multipl	-12.4485
▁barb	-12.4486
▁equ	-12.4486
▁padd	-12.4487
▁jigg	-12.449
appari	-12.4494
itty	-12.4496
▁missile	-12.4497
rilla	-12.4501
▁trumpet	-12.4508
▁vouch	-12.4509
bearing	-12.451
searching	-12.4514
▁compar	-12.4519
▁alphabet	-12.452
rnets	-12.452
▁butch	-12.4521
ennial	-12.4524
▁appea	-12.4529
rome	-12.453
▁receiv	-12.453
check	-12.4531
parts	-12.4531
power	-12.4534
▁tele	-12.4535
▁regimen	-12.4536
aunt	-12.4536
powered	-12.4539
erving	-12.454
▁seren	-12.4543
▁disguis	-12.4544
hawks	-12.4546
amma	-12.4546
undering	-12.4548
▁introduc	-12.455
▁jest	-12.455
▁offend	-12.455
▁remov	-12.4552
▁dread	-12.4552
▁thrash	-12.4553
▁poach	-12.4553
▁asp	-12.4553
▁intr	-12.4554
hood	-12.4554
▁surrounding	-12.4555
▁infl	-12.4555
read	-12.4556
▁sculpt	-12.4557
rain	-12.4558
▁scoot	-12.4559
▁theatr	-12.456
eech	-12.456
nails	-12.4561
▁koen	-12.4561
▁encourag	-12.4561
▁recogniz	-12.4562
▁devot	-12.4562
▁engrav	-12.4562
▁assembl	-12.4562
▁activat	-12.4563
look	-12.4563
▁sixty	-12.4564
▁accompan	-12.4564
▁merci	-12.4565
▁fulfil	-12.4565
▁ang	-12.4565
conduct	-12.4565
class	-12.4566
▁appre	-12.4567
▁atten	-12.4567
▁sorcer	-12.4567
minute	-12.4568
▁engag	-12.4568
▁amu	-12.4569
▁teenage	-12.4569
mir	-12.4569
east	-12.457
giving	-12.457
itude	-12.457
itori	-12.4573
ju	-12.4573
q	-12.4574
▁attract	-12.4574
communicated	-12.4574
woman	-12.4574
parallel	-12.4574
moxys	-12.4574
crucify	-12.4574
turf	-12.4574
▁accomplish	-12.4574
▁depress	-12.4575
▁advertis	-12.4575
▁restrict	-12.4575
function	-12.4575
boiled	-12.4575
▁divid	-12.4575
melon	-12.4575
cut	-12.4576
heated	-12.4576
▁disconnect	-12.4576
know	-12.4576
▁efficien	-12.4576
folk	-12.4577
▁tranquili	-12.4577
accurate	-12.4577
protective	-12.4577
snapper	-12.4577
▁intrude	-12.4577
flop	-12.4578
▁employ	-12.4578
culture	-12.4578
equipped	-12.4578
industrial	-12.4578
▁bugg	-12.4578
natural	-12.4578
random	-12.4579
barb	-12.4579
▁squish	-12.4579
sleep	-12.4579
fury	-12.4579
talk	-12.4579
lava	-12.4579
assuming	-12.4579
vision	-12.458
orbital	-12.458
structure	-12.458
lawful	-12.458
temporary	-12.458
utc	-12.458
▁lev	-12.458
existence	-12.458
mackenzie	-12.458
talented	-12.458
smoking	-12.458
eleven	-12.458
feather	-12.458
ullah	-12.458
engaged	-12.458
juice	-12.4581
develop	-12.4581
goose	-12.4581
plant	-12.4581
amount	-12.4581
discovered	-12.4581
fifty	-12.4581
daisy	-12.4581
aaaaa	-12.4581
barbarella	-12.4581
social	-12.4581
grateful	-12.4581
junior	-12.4581
teacher	-12.4581
safe	-12.4581
punch	-12.4581
concert	-12.4581
perform	-12.4581
freaking	-12.4581
knock	-12.4581
group	-12.4581
drift	-12.4581
june	-12.4581
location	-12.4581
fight	-12.4581
blood	-12.4581
julie	-12.4581
season	-12.4581
club	-12.4581
food	-12.4581
help	-12.4581
winnie	-12.4581
blind	-12.4581
given	-12.4581
people	-12.4581
school	-12.4581
special	-12.4581
captain	-12.4581
farren	-12.4581
entered	-12.4582
▁sew	-12.4582
keeper	-12.4582
judge	-12.4582
common	-12.4582
jack	-12.4582
bread	-12.4582
forward	-12.4582
tooth	-12.4582
smell	-12.4582
speak	-12.4582
sorry	-12.4582
wives	-12.4583
beard	-12.4583
worry	-12.4583
mark	-12.4583
study	-12.4584
▁happi	-12.4584
▁gloom	-12.4584
story	-12.4584
located	-12.4584
moth	-12.4584
around	-12.4584
maybe	-12.4584
kill	-12.4584
force	-12.4584
▁regi	-12.4584
shoulder	-12.4584
flower	-12.4585
movie	-12.4585
▁pou	-12.4585
reason	-12.4585
intend	-12.4585
nothing	-12.4585
▁rubb	-12.4585
tape	-12.4585
trained	-12.4585
[...]
