<unk>	0
<s>	0
</s>	0
s	-4.1016
▁im	-4.31166
▁dont	-4.38711
▁know	-4.41956
▁get	-4.63295
▁yeah	-4.64775
▁right	-4.71317
▁like	-4.77588
▁got	-4.79178
▁go	-4.80129
▁oh	-4.83854
▁youre	-4.87963
▁come	-4.88475
▁okay	-4.97041
▁na	-5.03457
▁thats	-5.0914
▁well	-5.15271
▁want	-5.18724
▁think	-5.26829
▁one	-5.27594
▁gon	-5.27818
▁hey	-5.29365
▁good	-5.36929
▁see	-5.38931
▁man	-5.40601
▁going	-5.49008
▁look	-5.49145
▁fuck	-5.51924
▁back	-5.54744
ing	-5.57942
▁take	-5.58764
▁shit	-5.65465
▁fucking	-5.66639
▁hes	-5.66688
▁ill	-5.67193
▁time	-5.70968
▁really	-5.73977
▁l	-5.75225
▁cant	-5.75237
▁us	-5.76192
▁yes	-5.78619
▁tell	-5.79054
▁say	-5.79761
ed	-5.8371
▁whats	-5.84373
▁something	-5.86443
▁need	-5.90394
▁sorry	-5.90476
▁please	-5.9183
▁mean	-5.92144
▁didnt	-5.92513
▁lets	-5.93323
▁would	-5.94122
▁god	-5.95137
▁way	-5.9871
▁love	-6.04093
▁make	-6.04941
▁could	-6.06342
▁thank	-6.07213
▁little	-6.07465
▁let	-6.07726
▁give	-6.11159
▁people	-6.13073
▁never	-6.14261
▁theres	-6.14581
▁two	-6.18508
▁ive	-6.22144
▁thing	-6.22497
▁	-6.22903
▁said	-6.25529
d	-6.27273
▁shes	-6.27486
▁sure	-6.29815
▁uh	-6.30268
▁guys	-6.30967
▁much	-6.33595
▁call	-6.33958
▁help	-6.35819
y	-6.36203
▁wait	-6.36203
▁maybe	-6.38092
▁theyre	-6.3877
▁talk	-6.39427
▁put	-6.41473
▁great	-6.44667
▁hi	-6.45608
▁even	-6.45684
▁stop	-6.4573
▁guy	-6.4694
▁still	-6.48028
▁anything	-6.49239
▁hell	-6.50512
▁home	-6.51409
▁first	-6.52308
▁hello	-6.5283
▁day	-6.52996
▁nice	-6.53258
▁work	-6.54575
▁night	-6.56156
▁keep	-6.57906
▁ta	-6.58135
▁big	-6.58741
▁nothing	-6.59751
▁life	-6.60419
▁car	-6.60765
▁name	-6.62176
▁around	-6.62473
▁mr	-6.62662
▁better	-6.6282
▁find	-6.62828
▁wan	-6.62922
▁thought	-6.63012
▁new	-6.64284
▁sir	-6.65794
▁money	-6.67971
▁feel	-6.70304
▁away	-6.70561
▁ever	-6.72092
▁told	-6.72254
▁baby	-6.73072
▁everything	-6.73982
▁last	-6.74384
e	-6.74748
▁talking	-6.76471
▁phone	-6.76558
▁listen	-6.7667
▁girl	-6.77205
▁stay	-6.77299
▁hear	-6.78121
▁coming	-6.78147
▁things	-6.78381
▁lot	-6.78883
▁three	-6.79967
▁hold	-6.80224
▁kill	-6.80437
▁believe	-6.80602
▁kind	-6.80614
▁always	-6.80999
▁bad	-6.81083
▁long	-6.82586
▁move	-6.8273
▁leave	-6.83584
▁house	-6.84954
▁thanks	-6.86851
▁youve	-6.87211
▁fine	-6.87659
▁place	-6.88229
▁huh	-6.88322
▁real	-6.88858
▁doesnt	-6.88994
▁years	-6.89582
▁woman	-6.90354
▁id	-6.9066
▁wont	-6.915
▁boy	-6.91866
ly	-6.92593
▁door	-6.94229
▁remember	-6.94253
▁happened	-6.94436
▁getting	-6.94851
er	-6.95419
▁every	-6.96187
▁made	-6.98207
▁old	-6.99331
▁wanted	-6.99898
▁understand	-7.003
▁must	-7.00923
▁care	-7.04072
▁bitch	-7.04753
▁show	-7.048
▁open	-7.05039
▁ass	-7.05666
▁wrong	-7.05863
▁ok	-7.05892
▁try	-7.06241
▁aint	-7.06666
▁might	-7.08022
▁um	-7.08612
▁tonight	-7.09663
▁youll	-7.09664
▁friend	-7.1025
▁done	-7.10502
▁trying	-7.11163
▁else	-7.11346
▁someone	-7.12681
▁shut	-7.13576
▁son	-7.13606
▁room	-7.13892
▁meet	-7.14983
▁saying	-7.15312
▁dad	-7.16292
▁isnt	-7.16533
▁looking	-7.16717
▁world	-7.16843
▁guess	-7.17127
▁lm	-7.17222
▁dead	-7.17315
▁mom	-7.17358
▁dude	-7.18082
▁another	-7.18326
▁enough	-7.1863
▁pretty	-7.18932
▁today	-7.19237
▁play	-7.19325
▁actually	-7.19545
▁cause	-7.19963
▁music	-7.20208
▁left	-7.20462
▁ask	-7.20522
▁next	-7.22013
▁excuse	-7.22015
▁black	-7.22641
▁damn	-7.22985
▁best	-7.23235
▁mind	-7.23255
▁jesus	-7.23273
▁saw	-7.23595
▁wasnt	-7.25842
▁kids	-7.26885
n	-7.27112
▁fuckin	-7.27799
▁whole	-7.27814
a	-7.28627
▁job	-7.28698
▁course	-7.28815
▁ready	-7.2994
▁seen	-7.29958
▁watch	-7.30152
▁head	-7.31378
▁hard	-7.33055
▁together	-7.33267
▁second	-7.33489
▁mother	-7.33504
▁die	-7.33515
▁wouldnt	-7.33655
▁heard	-7.33943
▁run	-7.34247
▁came	-7.34904
▁police	-7.35368
▁check	-7.36045
▁went	-7.36469
▁hit	-7.36478
in	-7.36695
▁bit	-7.37136
▁kid	-7.37868
▁honey	-7.38294
▁minute	-7.38611
▁whos	-7.39021
▁start	-7.39064
▁father	-7.3914
▁friends	-7.39224
▁weve	-7.39405
▁everybody	-7.39775
▁crazy	-7.39779
▁somebody	-7.40152
▁turn	-7.40846
▁face	-7.40971
▁five	-7.42063
▁may	-7.42306
▁called	-7.42892
▁live	-7.43198
▁men	-7.4374
▁end	-7.4416
▁probably	-7.44367
▁jake	-7.44367
▁morning	-7.44763
▁found	-7.45167
▁many	-7.45274
▁used	-7.45285
▁matter	-7.45655
▁wife	-7.46062
▁hand	-7.46256
▁cool	-7.46319
▁four	-7.46346
▁ha	-7.46723
▁happy	-7.46746
▁bring	-7.46898
▁alone	-7.4755
▁playing	-7.47631
▁school	-7.48161
▁days	-7.48654
▁havent	-7.48768
▁white	-7.48773
▁problem	-7.48881
▁whatever	-7.49177
▁minutes	-7.49241
▁family	-7.498
es	-7.49824
▁hot	-7.50449
▁brother	-7.50553
▁stuff	-7.50649
▁anyway	-7.51019
▁ah	-7.51119
▁killed	-7.51828
t	-7.52081
▁goddamn	-7.52094
▁use	-7.52241
▁supposed	-7.52555
▁hope	-7.53174
▁later	-7.53416
▁forget	-7.54225
▁took	-7.54231
▁says	-7.54266
▁tomorrow	-7.54664
▁easy	-7.54666
▁yet	-7.54667
▁young	-7.55435
▁eat	-7.55478
▁ago	-7.55541
o	-7.56242
▁hurt	-7.56288
▁sit	-7.56645
▁beautiful	-7.56857
▁wow	-7.57303
▁close	-7.57471
▁gun	-7.5754
▁youd	-7.57767
▁drink	-7.58502
▁cut	-7.58635
▁knew	-7.58647
▁sex	-7.58951
▁looks	-7.58998
▁point	-7.59472
▁em	-7.59746
al	-7.5994
▁miss	-7.60803
▁idea	-7.60878
▁pay	-7.60927
▁fire	-7.61115
▁frank	-7.61227
▁without	-7.62795
▁water	-7.63226
▁already	-7.63267
▁true	-7.63277
▁line	-7.63585
▁number	-7.63644
▁couldnt	-7.63788
▁wheres	-7.64078
▁la	-7.64103
▁business	-7.64193
▁whoa	-7.64712
▁person	-7.65101
▁nobody	-7.66579
▁read	-7.6659
▁gone	-7.67105
r	-7.67437
▁inside	-7.67617
▁children	-7.67619
▁hands	-7.68539
▁everyone	-7.68605
▁wants	-7.69024
▁deal	-7.69702
▁movie	-7.70107
▁dick	-7.7043
▁high	-7.70885
▁girls	-7.70946
▁bye	-7.71138
▁eyes	-7.71288
▁worry	-7.71646
▁set	-7.71668
▁fun	-7.72167
▁taking	-7.72181
▁power	-7.72189
▁though	-7.7262
▁sleep	-7.72647
▁working	-7.72838
▁six	-7.73185
▁happen	-7.73485
▁story	-7.74251
▁screaming	-7.74307
▁shoot	-7.74485
▁shot	-7.7486
▁sonny	-7.7532
▁jack	-7.75519
▁fight	-7.75668
▁mine	-7.75728
▁anybody	-7.75846
▁paul	-7.7629
▁couple	-7.76384
▁asshole	-7.76481
▁late	-7.76832
▁part	-7.76838
▁lost	-7.76938
▁safe	-7.77311
▁un	-7.7749
▁yo	-7.77711
▁anyone	-7.78563
▁walk	-7.78923
▁women	-7.79116
▁outside	-7.79116
▁word	-7.79246
▁christ	-7.79494
▁half	-7.80054
▁town	-7.80242
▁daddy	-7.80422
▁making	-7.80797
▁far	-7.80979
▁drive	-7.81462
▁sometimes	-7.81584
▁met	-7.82418
▁anymore	-7.82497
▁since	-7.82498
▁funny	-7.82502
▁thinking	-7.83194
▁alive	-7.83655
▁pick	-7.84143
▁telling	-7.84166
▁exactly	-7.8424
▁hate	-7.84653
▁laughing	-7.85539
▁year	-7.85642
▁hours	-7.85899
▁sam	-7.86476
▁lts	-7.8739
▁city	-7.87805
▁goes	-7.87867
▁makes	-7.88087
▁boys	-7.8815
▁party	-7.88185
▁free	-7.885
▁sighs	-7.88502
▁york	-7.8901
▁week	-7.89308
▁started	-7.89478
▁side	-7.89509
▁stand	-7.89554
▁also	-7.89622
▁change	-7.89765
▁body	-7.90093
▁welcome	-7.9024
▁soon	-7.90768
▁times	-7.91187
▁hang	-7.91421
▁arent	-7.91486
▁different	-7.92112
▁hows	-7.92114
▁rest	-7.9278
▁mitch	-7.93381
▁kidding	-7.93385
▁death	-7.93387
▁break	-7.93569
▁game	-7.93778
▁wish	-7.94605
▁dinner	-7.94664
i	-7.94731
▁charlie	-7.95097
▁question	-7.95354
▁john	-7.9596
▁front	-7.95969
▁answer	-7.9613
▁motherfucker	-7.96423
▁serious	-7.96532
▁dog	-7.97011
▁sweet	-7.97261
▁trust	-7.97669
▁months	-7.97987
▁child	-7.98633
▁almost	-7.99306
▁air	-7.99418
▁husband	-7.99843
▁food	-7.99987
▁married	-7.9999
▁dave	-8.00001
▁heart	-8.00019
▁sounds	-8.00042
▁special	-8.00049
▁street	-8.00511
▁straight	-8.00658
▁aah	-8.00679
▁case	-8.01744
h	-8.0202
▁truth	-8.02054
▁stupid	-8.02055
▁country	-8.02061
▁gave	-8.02065
▁heres	-8.02145
▁sick	-8.02684
▁ahead	-8.02758
▁scared	-8.02802
▁dance	-8.03407
▁trouble	-8.03424
▁bobby	-8.03463
▁blood	-8.04
▁bullshit	-8.04161
▁mike	-8.04711
▁important	-8.04781
▁bed	-8.05156
▁asked	-8.05544
▁wake	-8.05609
▁weird	-8.06271
▁behind	-8.0633
▁bet	-8.06834
l	-8.0749
▁fucked	-8.07723
▁sound	-8.07745
▁perfect	-8.07773
▁hmm	-8.07797
▁dr	-8.07914
▁bro	-8.08276
▁full	-8.08351
▁afraid	-8.08533
▁light	-8.08751
▁reason	-8.09222
▁sister	-8.09245
▁happening	-8.09806
c	-8.09875
▁touch	-8.10052
▁continues	-8.10686
▁clear	-8.1074
▁tried	-8.10807
▁chuckles	-8.10943
▁buy	-8.11183
▁speak	-8.11834
▁laughs	-8.12284
▁hurry	-8.12321
▁tv	-8.12339
▁grunts	-8.12424
▁chance	-8.13126
▁ooh	-8.13268
▁ten	-8.14104
▁annie	-8.14668
▁moving	-8.14671
▁c	-8.14878
▁parents	-8.15641
▁waiting	-8.16076
▁feeling	-8.1628
p	-8.16306
▁order	-8.16343
▁book	-8.17002
▁radio	-8.17066
▁lady	-8.17098
▁happens	-8.17238
▁send	-8.17514
▁theyll	-8.17878
▁running	-8.17886
▁holy	-8.17953
▁cold	-8.18612
▁dream	-8.18852
▁red	-8.18904
▁daniel	-8.19528
▁voice	-8.19651
▁brought	-8.20358
▁grunting	-8.20384
▁hour	-8.20509
▁lie	-8.20585
▁promise	-8.21161
▁least	-8.21212
▁sal	-8.21323
▁means	-8.21503
▁k	-8.21543
▁cop	-8.21881
▁shouldnt	-8.22045
▁shh	-8.22052
▁buddy	-8.22054
▁ya	-8.22883
▁uncle	-8.22892
▁either	-8.229
▁plan	-8.23556
▁war	-8.23612
on	-8.238
▁moment	-8.23987
▁clean	-8.24068
▁coffee	-8.24632
▁lucky	-8.24776
▁officer	-8.24887
▁th	-8.24943
▁lives	-8.25473
▁watching	-8.25587
▁ringing	-8.25712
▁b	-8.25733
us	-8.25734
▁song	-8.25797
▁pull	-8.25899
▁mouth	-8.26012
▁hair	-8.26259
▁gay	-8.26404
est	-8.26494
▁bar	-8.26589
▁news	-8.26921
▁re	-8.27066
▁save	-8.27106
▁relax	-8.27286
▁drop	-8.27287
▁totally	-8.2732
▁taken	-8.27415
▁fact	-8.27518
▁calling	-8.28028
▁catch	-8.28096
▁office	-8.28134
▁weeks	-8.28645
▁calm	-8.28991
▁top	-8.2908
▁team	-8.29383
▁daughter	-8.29387
▁lord	-8.30026
▁follow	-8.30227
▁gets	-8.30584
▁mmm	-8.31871
▁doctor	-8.32219
▁seems	-8.32306
▁alright	-8.32818
or	-8.32953
▁ride	-8.32962
▁piece	-8.33197
▁george	-8.3377
▁ladies	-8.33775
▁sign	-8.34382
▁comes	-8.34455
▁joe	-8.34617
▁glad	-8.34735
▁mommy	-8.34736
▁ice	-8.34762
▁picture	-8.35156
▁road	-8.35191
▁cops	-8.3552
▁wind	-8.36273
▁meeting	-8.36358
▁itll	-8.36684
▁mmhmm	-8.36687
▁along	-8.36691
▁yall	-8.367
▁lose	-8.36739
▁sense	-8.37107
▁ron	-8.37148
▁class	-8.37507
▁fat	-8.37541
▁control	-8.37665
ve	-8.38443
▁somewhere	-8.38673
▁s	-8.38794
▁ow	-8.38835
ies	-8.39044
▁sort	-8.39154
▁wall	-8.39983
▁luck	-8.40573
▁lan	-8.40671
▁dark	-8.407
▁sent	-8.40726
▁million	-8.4122
▁hotel	-8.4123
m	-8.41443
▁careful	-8.41669
▁company	-8.41734
▁step	-8.42278
▁peter	-8.42287
▁table	-8.42378
▁died	-8.42396
▁date	-8.42422
▁record	-8.42653
▁ray	-8.42803
▁crying	-8.42962
▁seeing	-8.43062
▁pain	-8.43187
▁screams	-8.43231
▁floor	-8.43316
▁captain	-8.43829
▁leaving	-8.43829
▁living	-8.43843
▁balls	-8.44096
▁america	-8.44556
▁american	-8.44755
▁super	-8.44882
▁beat	-8.45093
▁kiss	-8.45211
▁longer	-8.45368
▁bag	-8.45481
▁seven	-8.45483
▁stu	-8.45619
▁favorite	-8.45971
▁finally	-8.46021
▁asking	-8.46178
▁murder	-8.46185
▁rock	-8.46418
▁f	-8.46561
▁card	-8.46705
▁smart	-8.47014
▁breathe	-8.47043
▁groans	-8.4715
ic	-8.47183
▁cover	-8.47484
▁needs	-8.47572
▁quiet	-8.48054
▁seem	-8.48122
▁detective	-8.48155
ers	-8.48271
▁human	-8.48802
▁blue	-8.48825
ion	-8.4897
▁worked	-8.49012
▁mad	-8.49133
▁fast	-8.4918
▁da	-8.49189
▁quite	-8.49365
▁learn	-8.49695
▁boat	-8.49976
▁middle	-8.50388
▁paid	-8.50411
▁seriously	-8.50558
▁throw	-8.5108
▁nigga	-8.51116
▁loved	-8.51458
▁maam	-8.51526
▁alice	-8.51527
man	-8.51591
▁wonder	-8.51964
▁figure	-8.52084
▁names	-8.52417
▁deep	-8.52491
▁slow	-8.52576
▁strong	-8.52578
▁outta	-8.52676
▁roger	-8.52682
▁stick	-8.52855
▁wear	-8.53406
▁sitting	-8.53856
▁in	-8.54016
▁worth	-8.54828
▁broke	-8.5495
▁law	-8.55024
▁none	-8.55063
▁king	-8.55238
▁lll	-8.55258
▁g	-8.55543
▁message	-8.55848
▁eye	-8.5586
▁killing	-8.55942
▁past	-8.56181
▁cash	-8.56198
g	-8.56221
▁fix	-8.57106
▁theyve	-8.57409
▁absolutely	-8.57413
▁born	-8.57425
▁kick	-8.57628
▁knows	-8.5798
▁e	-8.58449
able	-8.58534
▁beach	-8.5863
▁awesome	-8.5863
▁sweetheart	-8.58631
▁sim	-8.58706
up	-8.59394
▁cute	-8.59506
▁lt	-8.59588
▁ball	-8.59602
ie	-8.59652
▁box	-8.59825
▁amazing	-8.59863
▁dear	-8.60009
▁able	-8.60082
▁explain	-8.60413
▁seat	-8.60536
▁spend	-8.60736
▁quick	-8.60914
▁carl	-8.61103
▁security	-8.61113
▁p	-8.61368
▁ones	-8.61467
▁less	-8.6155
▁doin	-8.61759
▁secret	-8.62079
▁small	-8.62281
▁situation	-8.62379
▁gentlemen	-8.6238
▁eli	-8.62452
▁mm	-8.62467
▁blow	-8.62951
▁brothers	-8.63238
▁birthday	-8.63661
▁werent	-8.63661
▁felt	-8.63662
▁gasps	-8.63986
▁fall	-8.64214
an	-8.64284
▁victor	-8.64566
le	-8.64642
▁words	-8.64653
▁cell	-8.64663
▁kept	-8.6496
▁knock	-8.65617
▁henry	-8.66035
▁quit	-8.66191
▁others	-8.66275
▁christmas	-8.66275
▁boss	-8.66284
▁swear	-8.66287
▁looked	-8.66337
▁speaking	-8.66912
▁attention	-8.67609
▁possible	-8.67609
▁proud	-8.6761
▁college	-8.6761
▁fault	-8.6761
▁till	-8.67614
▁de	-8.68058
▁gods	-8.682
▁star	-8.68557
▁christian	-8.68742
▁key	-8.68745
▁agent	-8.68763
▁girlfriend	-8.68765
▁across	-8.6896
▁goodbye	-8.6896
▁chattering	-8.69114
▁killer	-8.69392
▁attack	-8.69632
▁known	-8.69853
▁bill	-8.69931
▁ground	-8.70036
▁wed	-8.70277
▁major	-8.7033
▁english	-8.70332
▁doc	-8.70594
▁bloody	-8.70665
▁roll	-8.70732
▁bus	-8.71018
▁enjoy	-8.71022
▁smoke	-8.71296
▁short	-8.71328
▁lay	-8.71408
▁space	-8.71517
▁sake	-8.71548
▁beer	-8.71576
▁gold	-8.71706
▁jerry	-8.71722
▁crowd	-8.7173
ass	-8.71927
▁singing	-8.72038
b	-8.7217
▁lock	-8.72454
▁n	-8.72724
▁fish	-8.72728
▁sell	-8.72763
▁truck	-8.72967
▁worse	-8.73127
▁completely	-8.73171
▁eight	-8.73362
▁works	-8.73619
▁finish	-8.73875
▁arm	-8.73974
▁standing	-8.73983
▁honest	-8.7428
▁mistake	-8.74341
▁video	-8.74405
▁lawyer	-8.74438
▁joke	-8.74468
▁shall	-8.7455
▁babe	-8.74556
▁david	-8.74556
▁forgot	-8.74556
▁wedding	-8.74574
▁tara	-8.74659
k	-8.74679
▁keys	-8.74754
▁choice	-8.748
▁suck	-8.75114
less	-8.75226
▁prison	-8.7577
▁rich	-8.75914
▁pal	-8.75923
▁accident	-8.76005
▁except	-8.76005
▁bought	-8.76009
▁wonderful	-8.76017
▁june	-8.76017
▁act	-8.76048
▁feels	-8.76048
▁hed	-8.76257
▁finished	-8.76297
▁st	-8.76473
▁needed	-8.7653
▁rules	-8.76683
▁join	-8.7673
▁state	-8.76954
▁appreciate	-8.77276
▁share	-8.77286
▁ryan	-8.77363
▁club	-8.77379
▁smell	-8.77403
▁bastard	-8.77404
▁month	-8.77415
▁write	-8.77439
▁bathroom	-8.77476
▁shell	-8.7748
▁bunch	-8.77481
▁single	-8.77516
▁count	-8.77802
▁calls	-8.78041
▁win	-8.78408
▁surprise	-8.78778
▁tight	-8.78881
▁strange	-8.78914
▁favor	-8.78965
▁congratulations	-8.78968
▁scene	-8.78968
▁grab	-8.78971
▁driving	-8.78971
▁definitely	-8.78973
▁building	-8.79056
▁kate	-8.79152
▁south	-8.79209
▁takes	-8.79219
▁dre	-8.79276
▁seconds	-8.79475
▁burn	-8.79707
▁steal	-8.80097
▁t	-8.80097
▁fair	-8.80202
▁neck	-8.80445
▁become	-8.80451
▁island	-8.80483
▁donnie	-8.80483
▁alarm	-8.80484
▁clothes	-8.80486
▁feet	-8.8049
▁pussy	-8.80498
▁lovely	-8.80517
▁i	-8.80602
▁ran	-8.80999
▁sean	-8.81442
▁conversation	-8.81938
▁bob	-8.81991
▁green	-8.82014
▁court	-8.82022
▁giving	-8.82023
▁hungry	-8.82027
▁station	-8.82051
▁dumb	-8.82209
▁wouldve	-8.82439
▁knocking	-8.82459
▁wearing	-8.82526
ll	-8.82819
▁ex	-8.83268
▁realize	-8.83432
▁machine	-8.83556
▁respect	-8.83572
▁yesterday	-8.83584
▁history	-8.83584
▁forever	-8.83585
▁panting	-8.83585
▁riley	-8.83589
▁window	-8.83614
▁groaning	-8.83619
▁band	-8.83627
▁unless	-8.8363
▁hide	-8.83681
▁suit	-8.83796
▁film	-8.83861
▁breathing	-8.8392
▁handle	-8.83946
st	-8.83962
▁ho	-8.84063
▁meant	-8.84586
▁r	-8.84785
▁bank	-8.84939
▁a	-8.85123
▁upstairs	-8.85171
▁drunk	-8.85172
▁tough	-8.85172
▁uhhuh	-8.85172
▁yep	-8.85175
▁hundred	-8.85212
▁ship	-8.85237
▁ring	-8.85239
▁starts	-8.85329
▁acting	-8.85578
▁pass	-8.86159
▁laugh	-8.8617
▁lead	-8.8634
ist	-8.86645
▁m	-8.86763
▁dying	-8.86786
▁poor	-8.86799
▁pizza	-8.86835
▁partner	-8.86865
▁trip	-8.86868
ment	-8.86868
▁sing	-8.87054
▁mess	-8.87566
▁evening	-8.87643
▁park	-8.87653
▁report	-8.87852
▁turned	-8.88014
▁near	-8.8829
▁force	-8.88325
▁witch	-8.88367
▁anywhere	-8.88424
▁brenda	-8.88424
▁pants	-8.88428
▁earth	-8.88433
▁lying	-8.88444
▁glass	-8.88457
▁early	-8.88462
▁tired	-8.88463
▁eh	-8.88464
▁department	-8.88474
▁system	-8.88514
▁talked	-8.88543
ive	-8.8871
id	-8.8902
▁jump	-8.8939
▁return	-8.89783
▁listening	-8.89848
▁north	-8.90088
▁perhaps	-8.9009
▁sergeant	-8.90091
▁mookie	-8.90101
▁cube	-8.90127
▁stopped	-8.9013
▁gasping	-8.90192
▁computer	-8.90203
▁goin	-8.90273
▁j	-8.90728
▁al	-8.90728
▁fly	-8.91461
▁test	-8.91608
▁london	-8.91785
▁candy	-8.91786
▁darling	-8.91787
▁sandie	-8.91798
▁foot	-8.91798
▁pop	-8.91813
▁personal	-8.91857
▁rings	-8.91909
▁horse	-8.91946
▁locked	-8.92132
▁kinda	-8.92353
▁age	-8.92502
u	-8.9272
▁problems	-8.93029
▁breath	-8.93237
▁general	-8.93401
▁worried	-8.93509
▁private	-8.9351
▁jail	-8.93511
▁movies	-8.93547
▁pleasure	-8.93654
▁whoo	-8.93671
▁guard	-8.93692
▁er	-8.93712
▁busy	-8.93724
▁metal	-8.93872
▁dollars	-8.94018
▁dare	-8.94108
lng	-8.94151
▁fucker	-8.94764
▁dress	-8.94935
▁nine	-8.95128
▁certain	-8.95177
▁hospital	-8.95251
▁fresh	-8.95254
▁caught	-8.95264
▁sarge	-8.95264
▁jimmy	-8.95264
▁group	-8.9527
▁whatd	-8.95287
▁lunch	-8.95289
▁jay	-8.95316
▁yelling	-8.95421
▁fear	-8.95441
▁weekend	-8.95457
▁camera	-8.9552
f	-8.95817
▁questions	-8.95891
▁continue	-8.96121
▁legs	-8.96573
▁missing	-8.96697
▁hole	-8.9678
▁nah	-8.96871
▁entire	-8.96948
▁eric	-8.96992
▁land	-8.97038
▁starting	-8.97046
▁phillip	-8.9705
▁stuck	-8.97056
▁lights	-8.97161
▁tape	-8.97267
▁folks	-8.9732
▁owe	-8.97377
▁miles	-8.97441
▁sun	-8.97468
out	-8.97469
▁walking	-8.9826
▁moved	-8.98662
▁camp	-8.98676
▁beyond	-8.98868
▁rather	-8.98868
▁government	-8.98868
▁summer	-8.98871
▁excited	-8.98879
▁named	-8.99057
▁boyfriend	-8.99106
▁soul	-8.99146
is	-8.9917
▁wine	-8.99255
w	-8.99321
▁fit	-8.99399
▁train	-8.99716
at	-8.99871
▁push	-9.00032
ation	-9.00215
x	-9.00464
▁plane	-9.00515
▁jones	-9.00591
▁played	-9.00593
▁simple	-9.00599
▁loud	-9.0065
en	-9.00716
▁shouting	-9.00857
▁ii	-9.00863
▁language	-9.00959
▁weapon	-9.0103
▁shoes	-9.01127
el	-9.01365
▁fighting	-9.02022
▁staying	-9.02299
▁arrest	-9.02315
▁smile	-9.02521
▁fell	-9.0254
▁colonel	-9.02606
▁evidence	-9.02606
▁neighborhood	-9.02607
▁sandy	-9.02643
▁putting	-9.02699
▁shirt	-9.02906
▁position	-9.02966
▁beth	-9.02983
te	-9.03061
▁art	-9.03625
▁teach	-9.04045
▁agree	-9.04323
▁ben	-9.04334
▁d	-9.04375
▁heavy	-9.04529
▁instead	-9.04529
▁themistokles	-9.04529
▁eddie	-9.0453
▁terrible	-9.0453
▁pregnant	-9.0453
▁round	-9.0453
▁race	-9.04533
▁lori	-9.04534
▁johnny	-9.04544
▁sweetie	-9.04584
▁ms	-9.04638
▁horn	-9.04687
▁shed	-9.047
▁h	-9.05311
▁drugs	-9.05407
▁reading	-9.06013
▁sea	-9.06161
▁engine	-9.06275
▁imagine	-9.06277
▁waste	-9.06354
▁normal	-9.0639
▁crap	-9.06471
▁upset	-9.06483
▁california	-9.0649
▁florida	-9.0649
▁lucas	-9.0649
▁russell	-9.0649
▁forward	-9.06491
▁nicole	-9.06492
▁howard	-9.06492
▁knife	-9.06493
▁cream	-9.06497
▁code	-9.06505
▁chad	-9.06567
▁apartment	-9.06895
▁finger	-9.06927
v	-9.07051
▁changed	-9.07096
▁mum	-9.07103
▁crash	-9.07715
▁missed	-9.07727
▁visit	-9.08078
▁carry	-9.08229
▁block	-9.08258
▁board	-9.08286
▁howd	-9.08312
▁lynn	-9.08357
z	-9.08366
▁terrance	-9.0849
▁eloise	-9.0849
▁support	-9.0849
▁spent	-9.08492
▁third	-9.08493
▁president	-9.08493
▁credit	-9.08494
▁kane	-9.08497
▁director	-9.08512
▁present	-9.08587
▁army	-9.08731
▁interesting	-9.08816
▁tires	-9.08891
▁relationship	-9.08951
▁action	-9.08979
▁final	-9.09057
ity	-9.09438
▁lived	-9.09478
▁birds	-9.09604
▁lve	-9.09616
re	-9.09681
▁type	-9.0983
▁color	-9.09994
▁soft	-9.10283
▁loves	-9.10376
▁nick	-9.10388
▁abigail	-9.10531
▁chief	-9.10531
▁future	-9.10531
▁throat	-9.10534
▁fbi	-9.10535
▁choose	-9.10539
▁lonely	-9.10545
▁information	-9.10546
▁extra	-9.1067
▁base	-9.10733
▁saved	-9.10969
▁sad	-9.10985
it	-9.11372
▁closed	-9.11403
▁expect	-9.11935
▁given	-9.11938
▁mark	-9.11949
▁sleeping	-9.12014
▁pack	-9.12033
▁unit	-9.12105
▁cry	-9.12279
▁command	-9.12432
▁adrian	-9.12606
▁wrote	-9.12614
▁loretta	-9.12614
▁rachel	-9.12615
▁list	-9.12625
▁wild	-9.12635
▁barry	-9.12638
▁double	-9.12643
um	-9.12645
▁bomb	-9.12714
th	-9.12864
▁billy	-9.12877
▁leg	-9.13491
▁bell	-9.13558
▁hanging	-9.13866
gest	-9.14092
▁rid	-9.14109
ne	-9.14425
▁blame	-9.14543
▁dangerous	-9.14631
▁offer	-9.14641
▁spot	-9.14737
▁west	-9.14737
▁area	-9.14742
▁rush	-9.14742
▁hasnt	-9.14743
▁samantha	-9.14743
▁mama	-9.14753
▁yaya	-9.14761
▁obviously	-9.14799
▁hall	-9.1482
▁moms	-9.14843
▁hat	-9.1491
▁copy	-9.15174
▁restaurant	-9.15258
▁idiot	-9.15321
ch	-9.15343
▁richard	-9.15359
▁doors	-9.15454
▁talkin	-9.15671
▁where	-9.15684
ce	-9.15758
ness	-9.16024
to	-9.16155
▁reach	-9.16245
▁punch	-9.16597
▁warm	-9.16685
▁gives	-9.16696
▁taste	-9.16699
▁nervous	-9.16807
▁grand	-9.16823
▁turning	-9.16864
▁malorie	-9.16916
▁theyd	-9.16916
▁nowhere	-9.16916
▁sydney	-9.16916
▁zooey	-9.16916
▁river	-9.16917
▁milton	-9.16917
▁within	-9.16924
▁booth	-9.16927
▁danny	-9.16929
▁creaking	-9.16937
▁usually	-9.16975
▁dirty	-9.16978
▁inhales	-9.17028
▁banging	-9.17193
▁meg	-9.17304
▁experience	-9.17343
▁duke	-9.17481
▁bottle	-9.17557
▁corner	-9.1759
▁cock	-9.17676
▁leon	-9.18009
▁cross	-9.18441
▁piss	-9.18467
▁richards	-9.18503
▁eating	-9.18797
▁suppose	-9.18957
▁thousand	-9.19017
▁afternoon	-9.19138
▁church	-9.19138
▁asleep	-9.19139
▁toast	-9.19139
▁jeff	-9.19139
▁professor	-9.19141
▁battle	-9.19141
▁freedom	-9.19142
▁counselor	-9.19142
▁turns	-9.19151
▁ought	-9.19184
▁broken	-9.19275
▁charge	-9.19583
▁jon	-9.19728
▁dig	-9.19781
▁driver	-9.2
▁protect	-9.20162
▁cook	-9.20694
▁press	-9.21119
▁notice	-9.21221
▁plays	-9.2127
▁built	-9.21411
▁difference	-9.21411
▁larry	-9.21411
▁lisa	-9.21412
▁emergency	-9.21417
▁distance	-9.21418
▁thatll	-9.21418
▁beauty	-9.2142
▁sobbing	-9.21427
▁interest	-9.21428
▁jamie	-9.21439
▁text	-9.21465
▁walter	-9.21479
▁honestly	-9.2157
▁grow	-9.2163
▁tom	-9.2172
▁figured	-9.21805
▁belong	-9.21836
▁nuts	-9.22103
▁whose	-9.2215
ous	-9.22272
▁honor	-9.22485
ur	-9.22841
▁shooting	-9.23037
▁liked	-9.23225
▁india	-9.23651
▁low	-9.23683
▁nothin	-9.23716
▁dope	-9.23717
▁extreme	-9.23736
▁lainey	-9.23736
▁trevor	-9.23736
▁contact	-9.23737
▁famous	-9.23737
▁address	-9.23738
▁ellie	-9.23739
▁marriage	-9.23739
▁castle	-9.23746
▁claire	-9.23747
▁bigger	-9.23784
▁besides	-9.2383
▁moaning	-9.23848
▁lance	-9.23951
▁stone	-9.2414
▁rent	-9.24169
nt	-9.24207
▁seemed	-9.24351
▁los	-9.24565
▁shower	-9.25358
et	-9.25418
▁load	-9.25482
▁holding	-9.25635
▁sa	-9.25651
▁rain	-9.25746
▁ed	-9.25862
▁difficult	-9.26117
▁lieutenant	-9.26117
▁neither	-9.26117
▁ridiculous	-9.26118
▁french	-9.26118
▁exhales	-9.26121
▁heavily	-9.26121
▁james	-9.26251
▁arms	-9.26312
▁deeply	-9.26325
▁nora	-9.26367
▁allow	-9.26621
▁pressure	-9.26907
▁gift	-9.2695
▁guest	-9.2699
▁east	-9.27113
▁guns	-9.27115
▁cat	-9.27162
▁picked	-9.27309
ry	-9.2767
▁v	-9.27995
▁boyd	-9.28091
▁spread	-9.28169
▁bless	-9.28297
▁heat	-9.28504
▁speaks	-9.2855
▁jonathan	-9.28556
▁kitchen	-9.28556
▁plenty	-9.28556
▁thomas	-9.28556
▁whether	-9.28556
▁crew	-9.28558
▁hobbes	-9.2856
▁elevator	-9.28561
▁everywhere	-9.28567
▁bodies	-9.2857
▁janet	-9.28572
▁safety	-9.28592
▁skin	-9.28671
▁joy	-9.2868
▁dis	-9.28732
▁mayor	-9.28797
▁judge	-9.28908
▁higher	-9.29014
▁drug	-9.29052
▁learned	-9.2919
▁local	-9.29396
▁decision	-9.29428
▁service	-9.29472
▁yells	-9.29479
▁mate	-9.29502
ful	-9.29829
▁pa	-9.29901
ah	-9.30068
▁drinking	-9.30605
▁raise	-9.30888
▁bottom	-9.30956
▁aiex	-9.31057
▁theater	-9.31058
▁shop	-9.3106
▁max	-9.31061
▁wendy	-9.31063
▁teeth	-9.31066
▁dropped	-9.31066
▁plus	-9.31067
▁upon	-9.31069
▁manager	-9.3108
▁nose	-9.31082
▁fan	-9.31167
▁pam	-9.31261
▁tits	-9.31289
▁closer	-9.31322
▁van	-9.31376
▁bucks	-9.31479
▁dogs	-9.31574
▁kat	-9.31742
▁deserve	-9.31829
▁sexy	-9.32017
▁tree	-9.3203
▁crime	-9.32048
▁student	-9.32051
▁animal	-9.32055
▁paper	-9.32063
▁bother	-9.32931
▁paying	-9.33106
▁assholes	-9.3318
▁apologize	-9.33408
▁total	-9.33529
▁forgive	-9.33608
▁especially	-9.33621
▁shouldve	-9.33621
▁suzanne	-9.33621
▁worst	-9.33621
▁program	-9.33621
▁harold	-9.33621
▁investigation	-9.33621
▁imran	-9.33623
▁beginning	-9.33624
▁milk	-9.33637
▁rumbling	-9.33646
▁angeles	-9.3368
▁cup	-9.33692
▁cheering	-9.33734
ish	-9.33907
▁realized	-9.34013
▁den	-9.34044
▁note	-9.34075
▁numbers	-9.3416
▁lines	-9.34168
▁promised	-9.34203
▁mothers	-9.34409
▁angel	-9.34547
▁ghost	-9.34669
▁records	-9.34856
▁mindy	-9.35048
▁wa	-9.35063
▁accept	-9.35518
▁track	-9.35768
▁co	-9.35781
▁repeat	-9.35944
▁orders	-9.3601
▁doug	-9.36213
▁gaz	-9.36251
▁doubt	-9.36252
▁esther	-9.36252
▁level	-9.36252
▁marcus	-9.36252
▁taught	-9.36252
▁vegas	-9.36252
▁fantastic	-9.36252
▁genius	-9.36252
▁kelly	-9.36253
▁downtown	-9.36253
▁hollywood	-9.36253
▁nikki	-9.36254
▁whatre	-9.36255
▁boring	-9.36255
▁colin	-9.36272
▁disgusting	-9.36277
ary	-9.36316
▁involved	-9.3632
▁mary	-9.36357
▁sucks	-9.36433
▁awful	-9.36552
▁interested	-9.36585
▁cheers	-9.36749
▁ears	-9.36871
▁streets	-9.3688
▁couldve	-9.36892
▁operation	-9.37308
ro	-9.3749
ar	-9.37558
▁sexual	-9.37719
▁books	-9.3799
▁hunt	-9.38169
▁officers	-9.38317
▁pretend	-9.3856
▁risk	-9.38764
▁loose	-9.38792
▁peace	-9.38946
▁cheese	-9.38953
▁walsh	-9.38956
▁rusty	-9.38962
▁airport	-9.38968
▁brian	-9.38971
▁immediately	-9.38989
▁coughing	-9.39022
▁laid	-9.3907
▁main	-9.39138
▁beeping	-9.39147
▁san	-9.393
▁cars	-9.39599
▁lots	-9.39693
▁fool	-9.39834
▁wondering	-9.39848
▁older	-9.39995
▁desalvo	-9.40083
▁di	-9.40653
▁gas	-9.4085
▁brown	-9.40928
▁treat	-9.41026
▁states	-9.41128
▁keeps	-9.41293
▁request	-9.41428
▁aw	-9.41571
▁spirit	-9.41586
▁feelings	-9.4159
▁spoke	-9.4166
▁witness	-9.41676
▁split	-9.41726
▁kevin	-9.41733
▁memory	-9.41733
▁stories	-9.41733
▁television	-9.41733
▁whistling	-9.41733
▁willie	-9.41733
▁tongue	-9.41733
▁desk	-9.41733
▁klara	-9.41733
▁wailing	-9.41733
▁swimming	-9.41734
▁twice	-9.41734
▁gerald	-9.41735
▁marvin	-9.41735
▁flight	-9.41739
ent	-9.41777
▁huge	-9.41797
▁bass	-9.41799
▁wise	-9.41808
▁over	-9.41829
▁screeching	-9.41833
▁certainly	-9.41891
▁decided	-9.41901
▁richie	-9.41926
▁tad	-9.42102
▁paula	-9.42163
▁inter	-9.422
▁someones	-9.42445
▁account	-9.42596
ate	-9.42842
▁heaven	-9.42939
▁role	-9.42964
▁breaking	-9.43399
▁lou	-9.43404
▁tea	-9.43824
▁helping	-9.43955
▁hook	-9.43956
▁jo	-9.44035
▁watched	-9.44137
▁rap	-9.44145
▁dreams	-9.44191
▁hung	-9.44339
▁zo	-9.44417
▁ships	-9.44497
▁match	-9.44539
▁pot	-9.44568
▁angry	-9.4459
▁ralph	-9.4459
▁focus	-9.4459
▁sheriff	-9.4459
▁mckenna	-9.4459
▁nathan	-9.4459
▁often	-9.4459
▁sunday	-9.44591
▁lift	-9.44592
▁batman	-9.44598
▁royal	-9.446
▁pool	-9.44602
▁thunder	-9.44605
▁clay	-9.4461
▁hoping	-9.44824
▁bust	-9.4488
ty	-9.44885
▁post	-9.44918
▁stars	-9.45038
▁dry	-9.45281
▁butt	-9.45289
▁photo	-9.45409
▁remind	-9.45532
▁store	-9.45662
▁chick	-9.45752
▁w	-9.45801
▁closet	-9.4584
▁italian	-9.45854
▁weather	-9.45856
▁nigger	-9.45964
▁chocolate	-9.45978
▁contract	-9.45978
▁begin	-9.4598
▁admit	-9.45997
▁brain	-9.45998
▁letter	-9.46141
▁prove	-9.46414
▁travel	-9.46592
▁ended	-9.46732
▁consider	-9.46835
▁marry	-9.4714
one	-9.47178
▁talent	-9.47236
▁classic	-9.47297
▁escape	-9.47341
▁steve	-9.47451
▁tour	-9.47524
▁cindy	-9.47531
▁elliot	-9.47531
▁footsteps	-9.47531
▁nope	-9.47531
▁sinclair	-9.47531
▁jules	-9.47531
▁strike	-9.47531
▁hannibal	-9.47531
▁willing	-9.47531
▁aaron	-9.47532
▁papa	-9.47532
▁blind	-9.47532
▁spanish	-9.47532
▁chuckling	-9.47534
▁basically	-9.47534
▁mexico	-9.47534
▁mistress	-9.47534
▁self	-9.47535
▁screen	-9.47535
▁terrific	-9.47535
▁apparently	-9.47535
▁comfortable	-9.47538
▁bailey	-9.47539
▁grace	-9.4754
▁onto	-9.47545
▁machinery	-9.4755
▁ghostface	-9.47562
▁tony	-9.47567
▁lake	-9.47577
▁professional	-9.47579
▁rape	-9.47581
▁incredible	-9.47598
▁whispers	-9.47667
▁iii	-9.477
▁rob	-9.47717
▁ahh	-9.47728
▁letting	-9.47746
▁hm	-9.47833
▁pissed	-9.47917
▁nic	-9.48025
▁male	-9.4803
▁an	-9.48141
▁nurse	-9.48199
▁pulled	-9.48502
im	-9.4854
▁bang	-9.48607
▁jew	-9.48721
▁fired	-9.48758
▁hurts	-9.48844
▁jean	-9.4895
▁claim	-9.48966
▁actor	-9.49037
▁niggers	-9.49124
▁pictures	-9.49304
ge	-9.49432
▁opens	-9.49437
▁sue	-9.49493
▁pie	-9.4997
ter	-9.50059
▁sharp	-9.50162
ra	-9.50226
▁exist	-9.50289
▁survive	-9.50373
▁ohh	-9.50417
▁chris	-9.50456
▁sandwich	-9.505
▁using	-9.5053
▁roof	-9.50535
▁gettin	-9.50547
▁large	-9.50561
▁cocksucker	-9.50561
▁downstairs	-9.50561
▁gorgeous	-9.50561
▁gunfire	-9.50561
▁literally	-9.50561
▁michael	-9.50561
▁mostly	-9.50561
▁torment	-9.50561
▁joking	-9.50568
▁meat	-9.50572
▁rose	-9.50575
▁castor	-9.50579
▁laura	-9.50598
▁pete	-9.50603
▁ugh	-9.50608
▁writing	-9.50619
▁laser	-9.50639
▁belt	-9.50656
▁national	-9.507
▁beg	-9.50734
▁quickly	-9.50806
▁bird	-9.51109
▁lf	-9.51139
▁el	-9.51353
▁motherfuckers	-9.51577
▁swing	-9.51682
▁chest	-9.51781
▁following	-9.5181
▁chair	-9.52012
▁pilot	-9.52037
▁site	-9.52055
▁criminal	-9.52081
▁victim	-9.52096
▁clients	-9.52106
▁suspect	-9.52106
▁soldier	-9.52114
▁client	-9.52117
▁field	-9.52168
▁sweat	-9.52866
▁pee	-9.52877
▁fingers	-9.52992
▁rat	-9.53105
▁tip	-9.53208
▁complete	-9.53389
▁mention	-9.53445
▁matt	-9.53465
▁decide	-9.53497
▁chill	-9.535
▁weak	-9.53559
▁hero	-9.53583
se	-9.53673
▁twenty	-9.53674
▁knox	-9.53684
▁aware	-9.53686
▁babies	-9.53686
▁borrow	-9.53686
▁mirror	-9.53686
▁threw	-9.53686
▁spell	-9.53687
▁norton	-9.53687
▁evil	-9.53688
▁cancer	-9.53691
▁liar	-9.53692
▁cameron	-9.537
▁piper	-9.53722
▁scary	-9.5375
▁sold	-9.53765
▁weed	-9.53777
▁sky	-9.53828
▁warning	-9.5386
men	-9.53871
▁mission	-9.5391
▁bath	-9.53924
▁march	-9.54048
▁surprised	-9.54089
▁losing	-9.5419
▁growing	-9.542
▁lied	-9.54643
▁trick	-9.54794
▁drinks	-9.54839
▁fi	-9.55152
▁pocket	-9.55232
▁walked	-9.55342
▁gate	-9.5539
▁se	-9.55433
▁con	-9.55524
▁animals	-9.55637
▁do	-9.55746
age	-9.55955
▁search	-9.56204
ian	-9.56316
▁hon	-9.5642
▁ls	-9.56432
▁ends	-9.56464
▁chatter	-9.56544
▁oil	-9.56726
▁prince	-9.56881
▁public	-9.56896
▁bail	-9.56909
▁became	-9.56912
▁insane	-9.56912
▁punjabi	-9.56912
▁friday	-9.56912
▁mask	-9.56912
▁shame	-9.56913
▁curious	-9.56913
▁breakfast	-9.56915
▁fake	-9.56916
▁purge	-9.56916
▁stuart	-9.56918
▁whyd	-9.56928
▁standard	-9.5693
▁center	-9.56945
▁stage	-9.56952
▁hiding	-9.5701
▁pink	-9.57012
▁mende	-9.57041
▁reasons	-9.57075
▁motherfucking	-9.57083
▁kim	-9.57308
▁dressed	-9.57467
▁burned	-9.57535
na	-9.57658
ey	-9.57697
▁beeps	-9.5783
▁heads	-9.58082
▁games	-9.5818
▁master	-9.58557
▁whore	-9.58596
▁shoulder	-9.58648
▁ticket	-9.58672
▁apple	-9.58678
▁cos	-9.58905
son	-9.58981
ble	-9.59161
▁wash	-9.5944
▁screw	-9.59573
▁weapons	-9.59676
▁hearing	-9.59685
▁player	-9.59714
▁coach	-9.59848
il	-9.59912
▁non	-9.59942
▁feed	-9.60022
▁regular	-9.60139
▁rule	-9.60143
▁trent	-9.60219
▁abdullah	-9.60245
▁empty	-9.60245
▁impossible	-9.60245
▁museum	-9.60245
▁dancing	-9.60245
▁hadnt	-9.60246
▁advice	-9.60246
▁mallory	-9.60246
▁patterson	-9.60246
▁stallworth	-9.60246
▁whenever	-9.60247
▁whoever	-9.60247
▁compton	-9.60248
▁bedroom	-9.60254
▁rare	-9.60259
▁recently	-9.60281
▁andy	-9.60287
▁coat	-9.60287
ri	-9.6031
▁guilty	-9.60313
▁interviewer	-9.60332
▁cap	-9.60382
▁jet	-9.60534
▁le	-9.60612
▁nobodys	-9.60614
ized	-9.6063
▁pro	-9.6065
▁passed	-9.60853
▁zone	-9.60865
▁lately	-9.60873
▁bitches	-9.61023
▁burning	-9.61081
▁bite	-9.61343
line	-9.61376
▁bear	-9.61433
▁trace	-9.61578
▁opening	-9.61605
▁model	-9.61714
▁price	-9.6202
▁foley	-9.62039
▁queen	-9.62071
▁chicken	-9.6209
▁tall	-9.62314
▁papers	-9.62331
as	-9.62441
▁pre	-9.62696
▁fathers	-9.62709
head	-9.63062
▁bo	-9.6318
▁snow	-9.63304
▁build	-9.6332
▁bringing	-9.63427
▁image	-9.63564
▁somethin	-9.63673
▁swim	-9.63691
▁couch	-9.63694
▁dewald	-9.63694
▁otherwise	-9.63694
▁suicide	-9.63694
▁understood	-9.63694
▁monday	-9.63694
▁giggling	-9.63695
▁excellent	-9.63697
▁mmmhmm	-9.63697
▁danger	-9.63697
▁fanny	-9.63701
▁concerned	-9.63841
▁shake	-9.63906
▁union	-9.63914
▁hired	-9.63944
▁noticed	-9.63985
▁faster	-9.63993
▁murdered	-9.64628
▁devil	-9.64678
▁details	-9.64729
▁dee	-9.64911
▁scream	-9.64927
▁pulling	-9.65181
▁social	-9.65471
▁view	-9.65566
▁brains	-9.65571
▁season	-9.65639
▁jacket	-9.65668
▁remain	-9.6567
▁cigarette	-9.65687
▁russian	-9.65706
▁bun	-9.65923
tion	-9.65958
▁freak	-9.66319
▁pray	-9.66365
▁bow	-9.66463
▁plans	-9.66471
▁switch	-9.66483
▁checked	-9.66518
▁sight	-9.66906
▁study	-9.66961
▁virgin	-9.67001
▁introduce	-9.6707
▁dimitr	-9.6708
▁release	-9.6709
▁tap	-9.6714
ul	-9.67144
▁madam	-9.67163
▁freeze	-9.67187
▁stole	-9.67198
▁penis	-9.6721
▁albert	-9.67265
▁audience	-9.67265
▁common	-9.67265
▁enemy	-9.67265
▁greece	-9.67265
▁maretto	-9.67265
▁ocean	-9.67265
▁webber	-9.67265
▁rough	-9.67266
▁gotten	-9.67267
▁flesh	-9.67267
▁network	-9.67268
▁priest	-9.6727
▁innocent	-9.67271
▁beast	-9.67271
▁unbelievable	-9.67271
▁football	-9.67274
▁society	-9.67275
▁unfortunately	-9.67276
▁responsible	-9.67284
▁jewish	-9.6729
▁protection	-9.67297
▁whispering	-9.673
▁yearold	-9.6731
▁gale	-9.67358
▁smack	-9.67386
ton	-9.67394
land	-9.67395
▁witches	-9.67398
▁coughs	-9.67643
sh	-9.67704
▁traveling	-9.67728
▁josh	-9.67936
▁rip	-9.6805
ting	-9.68128
▁mo	-9.6858
▁sirens	-9.68699
▁issues	-9.68808
▁interview	-9.68862
▁cards	-9.68892
▁magic	-9.69148
▁cab	-9.69167
▁issue	-9.69202
▁character	-9.69361
▁places	-9.69365
▁picking	-9.69622
la	-9.69742
ta	-9.69939
▁discuss	-9.7013
▁mans	-9.70137
os	-9.70536
▁enter	-9.70574
▁speed	-9.70576
▁jerk	-9.70607
▁process	-9.70631
▁practice	-9.70746
▁correct	-9.70785
▁obvious	-9.70869
▁greg	-9.70968
▁easier	-9.70969
▁expensive	-9.70969
▁horrible	-9.70969
▁speech	-9.70969
▁wolken	-9.70969
▁according	-9.70969
▁boston	-9.70969
▁military	-9.70969
▁chanting	-9.70969
▁kenny	-9.7097
▁mischa	-9.7097
▁miami	-9.7097
▁juice	-9.70974
▁naked	-9.70974
▁earlier	-9.70975
▁sixpack	-9.70978
▁kitty	-9.70978
▁duty	-9.70979
▁distorted	-9.70986
▁woke	-9.70986
▁bush	-9.7099
▁market	-9.70993
▁pair	-9.70994
▁hart	-9.71019
▁rigg	-9.7104
▁nature	-9.71165
▁bleeding	-9.71203
▁je	-9.71205
▁butter	-9.71208
▁grade	-9.71234
ac	-9.71269
▁opened	-9.71274
▁showed	-9.71281
▁narrat	-9.71409
▁allowed	-9.71418
▁reached	-9.7147
▁knees	-9.71485
▁keeping	-9.71843
co	-9.71933
▁stan	-9.71969
▁murders	-9.72582
▁bags	-9.72626
▁sending	-9.7272
▁settle	-9.72938
▁career	-9.72964
by	-9.73008
▁robert	-9.73101
▁grandma	-9.73138
▁monkey	-9.73172
▁gang	-9.73195
▁target	-9.73215
▁monster	-9.73236
▁sometime	-9.73259
▁hunter	-9.7329
▁fella	-9.73383
▁closes	-9.73474
▁charges	-9.73605
▁fill	-9.74094
▁honk	-9.74276
▁dump	-9.74515
▁zahra	-9.7481
▁although	-9.74815
▁central	-9.74815
▁felicia	-9.74815
▁nelson	-9.74815
▁stood	-9.74815
▁wyatt	-9.74815
▁muffled	-9.74815
▁toilet	-9.74815
▁prick	-9.74818
▁poem	-9.74818
▁hindi	-9.74819
▁ugly	-9.74824
▁panic	-9.7483
▁mister	-9.74835
▁announcer	-9.74843
▁vision	-9.74845
▁wet	-9.74847
▁comin	-9.7485
▁howling	-9.74852
▁thirty	-9.749
▁gary	-9.74921
▁medical	-9.74937
▁federa	-9.75007
▁lookin	-9.75058
▁stairs	-9.75097
▁heading	-9.75122
▁flowers	-9.75172
ia	-9.75295
▁sally	-9.75308
▁hire	-9.75429
un	-9.75474
▁greatest	-9.7553
▁towards	-9.75536
rs	-9.75675
▁parking	-9.75716
▁selling	-9.7586
▁harder	-9.75884
▁ideas	-9.75951
▁touched	-9.76325
▁americans	-9.76597
▁tickets	-9.76668
▁click	-9.76859
▁bum	-9.77069
▁stops	-9.77088
▁sausage	-9.77093
▁slap	-9.77111
ier	-9.77113
▁moon	-9.77186
ant	-9.77188
▁greek	-9.77192
▁matthew	-9.77205
▁citizen	-9.77235
▁patient	-9.77235
▁students	-9.77236
▁u	-9.77248
▁cost	-9.77264
▁guests	-9.77362
▁thinks	-9.78056
ad	-9.78225
▁collect	-9.78444
▁recognize	-9.78611
▁divorce	-9.7864
▁louis	-9.78709
▁sudden	-9.78715
▁rub	-9.78732
▁hank	-9.78742
▁actress	-9.78754
▁windows	-9.78757
▁stock	-9.78812
▁chicago	-9.78815
▁colqhoun	-9.78815
▁crush	-9.78815
▁kenneth	-9.78815
▁lincoln	-9.78815
▁period	-9.78815
▁vacation	-9.78815
▁dallas	-9.78815
▁slept	-9.78815
▁sneak	-9.78815
▁amanda	-9.78815
▁midnight	-9.78816
▁percent	-9.78816
▁gym	-9.78816
▁distant	-9.78816
▁bright	-9.78818
▁access	-9.78819
▁wherever	-9.78821
▁logan	-9.78826
▁twelve	-9.78828
▁nasty	-9.78833
▁heh	-9.78835
▁mourning	-9.78854
▁betty	-9.78859
▁cheap	-9.78892
▁arrived	-9.78985
▁frankie	-9.78986
▁joni	-9.79007
▁cares	-9.79022
▁tied	-9.79027
▁lower	-9.79074
▁agreed	-9.79217
▁harm	-9.79243
▁helped	-9.79424
▁depends	-9.79449
ig	-9.79556
▁armed	-9.7964
▁knocked	-9.79716
▁mikey	-9.79803
▁sh	-9.79856
▁o	-9.80031
▁hells	-9.80061
▁niggas	-9.80288
▁si	-9.80296
▁clicks	-9.80422
ure	-9.80443
▁subt	-9.8054
▁gin	-9.80572
ted	-9.80692
ance	-9.80807
the	-9.80828
▁yell	-9.80974
▁project	-9.81225
▁punk	-9.81308
▁bullet	-9.81321
▁member	-9.81387
▁broad	-9.81416
▁siren	-9.81725
▁photos	-9.8179
▁dealing	-9.81875
▁ld	-9.81887
you	-9.81898
▁eazy	-9.82133
▁parts	-9.82164
▁asses	-9.82192
▁shock	-9.82286
ha	-9.82288
op	-9.82539
▁ways	-9.82548
▁direct	-9.82548
▁cast	-9.82617
▁stress	-9.82649
▁pin	-9.8265
▁wast	-9.8265
▁destroy	-9.8269
▁per	-9.82693
▁tu	-9.82699
tic	-9.82727
▁fort	-9.82791
▁secure	-9.82791
▁flash	-9.82794
▁original	-9.82886
▁chuck	-9.82961
▁ruth	-9.82969
▁advantage	-9.82982
▁canada	-9.82982
▁cocaine	-9.82982
▁exciting	-9.82982
▁license	-9.82982
▁responsibility	-9.82982
▁serrano	-9.82982
▁aisle	-9.82982
▁saving	-9.82982
▁necessary	-9.82982
▁oclock	-9.82982
▁foreign	-9.82982
▁sugar	-9.82982
▁describe	-9.82982
▁grew	-9.82983
▁omar	-9.82983
▁jeez	-9.82984
▁jason	-9.82985
▁clamoring	-9.82987
▁nola	-9.82987
▁accountant	-9.8299
▁borat	-9.8299
▁yellow	-9.82991
▁truly	-9.82994
▁opportunity	-9.83
▁tito	-9.83005
▁square	-9.83018
▁christine	-9.83018
▁held	-9.83022
▁chosen	-9.83038
▁powerful	-9.83058
▁received	-9.83067
▁wire	-9.83068
▁suddenly	-9.83086
▁embarrassed	-9.831
▁everyones	-9.8315
▁wounded	-9.83202
▁po	-9.83228
▁quietly	-9.83369
▁mentioned	-9.83372
am	-9.83662
way	-9.83749
▁cells	-9.83789
▁so	-9.83982
▁jam	-9.84073
king	-9.84106
▁blowing	-9.84229
▁sports	-9.84448
ize	-9.84476
▁te	-9.84484
▁dickie	-9.84582
ally	-9.84607
ee	-9.848
▁serve	-9.85349
▁score	-9.8552
▁stomach	-9.85639
▁pieces	-9.85656
▁clue	-9.85696
▁chain	-9.85767
ma	-9.86075
▁units	-9.86082
▁pu	-9.86398
▁deliver	-9.86407
▁flip	-9.86556
▁woo	-9.86692
▁bi	-9.86729
▁leo	-9.87014
▁beck	-9.87044
▁lap	-9.87113
▁ca	-9.87217
▁indistinct	-9.87228
▁attitude	-9.87329
▁axel	-9.87329
▁bacon	-9.87329
▁champagne	-9.87329
▁grethe	-9.87329
▁including	-9.87329
▁murphy	-9.87329
▁pamela	-9.87329
▁perimeter	-9.87329
▁piano	-9.87329
▁racist	-9.87329
▁strength	-9.87329
▁violence	-9.87329
▁pardon	-9.87329
▁afford	-9.8733
▁collins	-9.8733
▁silver	-9.8733
▁closing	-9.87331
▁wheel	-9.87331
▁cowboy	-9.87331
▁vagina	-9.87332
▁coast	-9.87332
▁several	-9.87333
▁memories	-9.87333
▁brave	-9.87335
▁assistant	-9.87335
▁fancy	-9.87337
▁vito	-9.87337
▁cunt	-9.87338
▁chef	-9.87339
▁kyle	-9.87339
▁ripley	-9.87346
▁satan	-9.87352
▁route	-9.87357
▁everybodys	-9.87357
▁pure	-9.87362
▁katie	-9.87362
▁birth	-9.87364
▁laughlng	-9.87366
▁handsome	-9.87372
▁taxi	-9.87382
▁rex	-9.87398
▁daisy	-9.87403
▁itd	-9.8742
▁clattering	-9.87423
▁pino	-9.87427
▁carlos	-9.87432
▁buzzing	-9.87456
▁embarrassing	-9.8749
▁tail	-9.87533
▁joint	-9.87596
▁filled	-9.87677
▁simpl	-9.87677
▁exercise	-9.87724
▁clicking	-9.8775
▁lips	-9.87796
▁due	-9.87859
▁clearly	-9.87917
▁en	-9.88202
▁testing	-9.88309
▁runs	-9.88314
▁flying	-9.88316
▁messing	-9.88352
▁gosh	-9.88457
▁meaning	-9.8851
▁rolling	-9.88538
▁covered	-9.88542
▁schedule	-9.8856
▁falling	-9.8862
ng	-9.88915
▁planet	-9.89131
▁fellas	-9.89167
▁walls	-9.89647
▁cali	-9.89769
▁shows	-9.89889
▁shape	-9.89992
▁arrive	-9.90016
▁out	-9.90061
▁file	-9.90104
▁bridge	-9.90165
▁storm	-9.90178
▁ipad	-9.90212
▁vehicle	-9.90216
▁neb	-9.90221
▁tunnel	-9.90239
▁adam	-9.90242
▁noise	-9.90272
▁all	-9.90286
▁pound	-9.9029
▁pig	-9.90317
▁sport	-9.90321
▁that	-9.90391
▁teacher	-9.90454
▁be	-9.90481
▁trap	-9.90573
▁nights	-9.90763
▁nation	-9.90988
▁audition	-9.91479
▁poison	-9.91492
▁grant	-9.91655
ny	-9.91655
▁bull	-9.91687
▁spare	-9.91697
▁chas	-9.917
▁prepare	-9.91709
▁natural	-9.9177
▁dicks	-9.91787
▁virus	-9.91807
▁porn	-9.91841
▁ash	-9.91848
▁brilliant	-9.91875
▁reich	-9.91875
▁schultz	-9.91875
▁umbrella	-9.91875
▁doris	-9.91875
▁taylor	-9.91875
▁buried	-9.91875
▁staff	-9.91875
▁kumar	-9.91876
▁among	-9.91876
▁romantic	-9.91876
▁gail	-9.91877
▁cherry	-9.91878
▁reese	-9.91878
▁fantasy	-9.91879
▁stink	-9.91879
▁familiar	-9.91881
▁hansel	-9.91881
▁legal	-9.91885
▁written	-9.9189
▁gentleman	-9.91891
▁joyce	-9.91896
▁laughter	-9.91897
▁rude	-9.91901
▁dads	-9.91904
▁exit	-9.91906
▁squad	-9.91906
▁secretary	-9.91907
▁scoffs	-9.91988
▁invited	-9.92031
▁approaching	-9.92046
▁failed	-9.92058
▁doll	-9.92064
▁shy	-9.92072
▁bastards	-9.92104
▁smells	-9.9211
▁disappeared	-9.92143
▁maria	-9.92381
▁bills	-9.92477
▁offered	-9.92502
▁lies	-9.9262
ni	-9.92631
▁tryin	-9.92921
▁kicked	-9.92985
de	-9.93232
▁dam	-9.93295
▁points	-9.93302
▁mul	-9.93673
▁citizens	-9.93706
▁tells	-9.93724
anc	-9.93914
▁ding	-9.94071
▁hop	-9.94195
▁tips	-9.94219
▁soldiers	-9.94232
ley	-9.9448
▁accounts	-9.94482
▁map	-9.94721
▁tank	-9.94735
▁bud	-9.94766
▁lee	-9.94815
bo	-9.94892
▁loss	-9.94939
▁owner	-9.94989
▁magazine	-9.94993
▁whistle	-9.94999
▁cousin	-9.95011
▁mountain	-9.95025
▁canadian	-9.95034
▁bond	-9.95222
▁condition	-9.95316
▁meal	-9.95362
io	-9.95473
ang	-9.95965
▁hills	-9.96009
▁dial	-9.96017
▁represent	-9.96203
itles	-9.96273
▁confirm	-9.96329
house	-9.96421
▁separate	-9.96466
▁smith	-9.96468
▁bands	-9.96565
▁coop	-9.96587
▁arjun	-9.96637
▁artemisia	-9.96637
▁assault	-9.96637
▁avoid	-9.96637
▁changing	-9.96637
▁diana	-9.96637
▁hurricane	-9.96637
▁jessica	-9.96637
▁league	-9.96637
▁miserable	-9.96637
▁pistol	-9.96637
▁saturday	-9.96637
▁somehow	-9.96637
▁byebye	-9.96637
▁freddie	-9.96637
▁stirling	-9.96637
▁funeral	-9.96637
▁irene	-9.96638
▁appointment	-9.96638
▁negative	-9.9664
▁random	-9.9664
▁chalk	-9.9664
▁impressive	-9.96641
▁planning	-9.96641
▁tasty	-9.96641
▁douche	-9.96642
▁neil	-9.96642
▁value	-9.96642
▁halloween	-9.96643
▁whimpering	-9.96643
▁blew	-9.96643
▁property	-9.96643
▁corn	-9.96647
▁santa	-9.96648
▁randy	-9.96648
▁coco	-9.96649
▁energy	-9.96658
▁broadway	-9.96659
▁confused	-9.96661
▁treatment	-9.96662
▁darkness	-9.96688
▁sword	-9.96695
▁jade	-9.96735
▁yard	-9.96766
▁madame	-9.96803
▁convinced	-9.96807
▁gina	-9.96808
▁bottomly	-9.96831
ol	-9.96838
▁parties	-9.96851
▁sisters	-9.96866
ts	-9.96889
▁thousands	-9.96907
▁farm	-9.96967
▁destroyed	-9.96972
▁charles	-9.96996
▁shitty	-9.97235
oo	-9.97354
tan	-9.97436
▁goodness	-9.97711
▁du	-9.97817
ator	-9.9785
▁bones	-9.97892
▁sale	-9.97918
ner	-9.98026
▁tend	-9.98293
▁beating	-9.98358
que	-9.98383
▁app	-9.98391
▁showing	-9.98638
▁monsters	-9.9864
▁cigarettes	-9.98794
▁form	-9.98805
▁crack	-9.99034
▁buying	-9.99065
▁actors	-9.99197
ke	-9.99203
▁disappear	-9.993
▁photograph	-9.99365
▁robb	-9.99418
ba	-9.99599
▁shout	-9.99694
ism	-9.99825
▁felix	-9.99901
▁review	-9.99902
▁moron	-9.99944
▁stalker	-9.9995
▁gunshot	-10.0001
▁cave	-10.0005
▁grown	-10.0009
▁pen	-10.001
▁page	-10.001
▁sch	-10.001
▁wave	-10.0021
▁bon	-10.0078
▁shots	-10.0089
▁suggest	-10.0091
▁cameras	-10.0103
▁believed	-10.0122
▁powers	-10.0127
ii	-10.0128
▁wipe	-10.0148
▁physical	-10.0153
▁spit	-10.0154
▁usual	-10.0154
▁aunt	-10.0154
▁traffic	-10.016
▁apart	-10.0163
▁anthony	-10.0164
▁attorney	-10.0164
▁brett	-10.0164
▁detroit	-10.0164
▁helicopter	-10.0164
▁resident	-10.0164
▁science	-10.0164
▁stephanie	-10.0164
▁tequila	-10.0164
▁undercover	-10.0164
▁whirring	-10.0164
▁alert	-10.0164
▁example	-10.0164
▁clark	-10.0164
▁positive	-10.0164
▁tommy	-10.0164
▁colorado	-10.0164
▁gear	-10.0164
▁custody	-10.0164
▁online	-10.0164
▁miracle	-10.0164
▁bread	-10.0165
▁growling	-10.0165
▁commitment	-10.0165
▁prefer	-10.0165
▁fellow	-10.0165
▁hallway	-10.0165
▁universe	-10.0165
▁smoking	-10.0165
▁ruthless	-10.0166
▁silly	-10.0166
▁attracted	-10.0166
▁doorbell	-10.0166
▁tiny	-10.0166
▁barely	-10.0167
▁fred	-10.0168
▁berry	-10.0169
▁row	-10.017
▁indeed	-10.017
▁bury	-10.0172
▁aye	-10.0173
▁hitting	-10.0173
▁weight	-10.0174
▁pace	-10.0177
▁miller	-10.0179
▁created	-10.0184
▁core	-10.0185
▁softly	-10.0189
▁prepared	-10.0192
▁screwed	-10.0208
▁pills	-10.0209
▁jonesy	-10.0211
▁lad	-10.0213
▁emotional	-10.0214
▁eggs	-10.0234
▁loser	-10.0235
▁highly	-10.0265
▁blows	-10.027
▁nut	-10.0272
▁attacked	-10.0273
▁val	-10.0275
▁springs	-10.0283
▁fixed	-10.0288
▁tie	-10.0305
▁woods	-10.031
▁spending	-10.0319
ine	-10.0319
▁shouts	-10.0325
▁throwing	-10.0335
he	-10.0338
▁ro	-10.0367
▁whip	-10.0376
▁rocks	-10.0382
▁ch	-10.04
▁hated	-10.041
▁paint	-10.0412
▁suspects	-10.0424
▁ka	-10.0427
▁hill	-10.0451
▁regret	-10.0462
▁ate	-10.0482
ball	-10.0483
▁me	-10.0506
▁scare	-10.0512
▁kershaw	-10.0516
▁german	-10.0518
▁product	-10.0518
▁daughters	-10.0519
▁diet	-10.052
▁salad	-10.052
▁subject	-10.052
▁string	-10.0524
▁neighbor	-10.0531
▁detail	-10.0533
▁dollar	-10.0539
▁brings	-10.0541
▁transfer	-10.0547
▁reporter	-10.0561
▁who	-10.0569
▁sals	-10.0582
▁draw	-10.0588
▁tapes	-10.0627
▁hug	-10.0636
▁horses	-10.0642
▁design	-10.065
▁faces	-10.0655
▁insist	-10.0659
▁worlds	-10.0662
ca	-10.0662
▁ending	-10.0667
▁rescue	-10.0669
▁health	-10.0673
▁martin	-10.0678
▁incredibl	-10.0678
▁smooth	-10.0678
▁firm	-10.0679
▁particular	-10.068
lo	-10.0681
▁chose	-10.0683
▁silence	-10.0684
▁jim	-10.0685
▁express	-10.0686
▁walt	-10.0687
▁success	-10.0689
▁album	-10.069
▁anniversary	-10.069
▁attempt	-10.069
▁available	-10.069
▁awake	-10.069
▁families	-10.069
▁female	-10.069
▁fountain	-10.069
▁griffith	-10.069
▁however	-10.069
▁instrument	-10.069
▁jealous	-10.069
▁lounge	-10.069
▁raglan	-10.069
▁someday	-10.069
▁houssam	-10.069
▁pollux	-10.069
▁darius	-10.069
▁faggot	-10.069
▁hallelujah	-10.069
▁motel	-10.069
▁community	-10.069
▁harper	-10.069
▁jennie	-10.069
▁abby	-10.069
▁merry	-10.069
▁ammo	-10.069
▁asian	-10.069
▁sobs	-10.069
▁estate	-10.0691
▁harry	-10.0691
▁purse	-10.0691
▁freezing	-10.0691
▁baseball	-10.0691
▁eve	-10.0691
off	-10.0691
▁brand	-10.0691
▁comment	-10.0691
▁attica	-10.0692
▁purpose	-10.0692
▁mobile	-10.0692
▁basement	-10.0694
▁motherfuckin	-10.0694
▁connection	-10.0694
▁statement	-10.0695
▁johnson	-10.0697
▁vc	-10.0697
▁eden	-10.0697
▁quinn	-10.0697
▁button	-10.0697
▁auntie	-10.07
▁stolen	-10.0701
▁progress	-10.0702
▁indistinctly	-10.0702
▁amy	-10.0705
▁ditch	-10.0705
ade	-10.0707
▁checking	-10.0708
▁louder	-10.0718
▁divorced	-10.0718
▁parker	-10.0722
▁lawn	-10.0723
▁disks	-10.0729
▁commander	-10.0733
▁doer	-10.0734
▁golf	-10.0734
▁busted	-10.0747
▁pi	-10.0765
▁arrested	-10.0773
▁kit	-10.0775
▁mob	-10.078
mo	-10.0785
▁speakers	-10.0788
▁carrying	-10.0792
▁lover	-10.0812
▁ma	-10.0836
▁enjoying	-10.0838
▁y	-10.0844
▁hardly	-10.0847
do	-10.0865
▁artist	-10.0876
▁ra	-10.0896
▁rep	-10.09
▁wha	-10.092
▁stayed	-10.0924
▁changes	-10.0947
▁ac	-10.0947
▁rats	-10.0958
▁jews	-10.0975
go	-10.0978
▁chicks	-10.0983
▁ren	-10.0989
tle	-10.1
▁mar	-10.1038
▁wound	-10.1049
▁beep	-10.1054
▁wood	-10.1067
▁chapter	-10.1073
▁fruit	-10.1077
▁winter	-10.1079
▁cake	-10.108
▁award	-10.1082
▁cow	-10.1086
▁signal	-10.1108
ping	-10.1114
time	-10.1118
▁moves	-10.1124
▁tellin	-10.1128
▁chase	-10.114
▁blast	-10.1204
▁mix	-10.1206
▁recommend	-10.1209
▁fo	-10.121
▁ku	-10.1211
▁forces	-10.1213
▁pump	-10.1225
▁convince	-10.1226
▁invite	-10.1226
▁illegal	-10.1234
▁fed	-10.1237
▁media	-10.1242
▁magnet	-10.1243
▁faith	-10.1245
▁basic	-10.1245
▁ambulance	-10.1246
▁barcelona	-10.1246
▁diaz	-10.1246
▁ferrigno	-10.1246
▁jocasta	-10.1246
▁lambert	-10.1246
▁procedure	-10.1246
▁warrant	-10.1246
▁chinese	-10.1246
▁costume	-10.1246
▁delicious	-10.1246
▁jersey	-10.1246
▁phil	-10.1246
▁telephone	-10.1246
▁faint	-10.1246
▁joseph	-10.1246
▁justice	-10.1246
▁garbage	-10.1246
▁permission	-10.1246
▁lugo	-10.1246
▁device	-10.1246
▁cobb	-10.1246
▁ellis	-10.1246
▁eventually	-10.1246
▁happiness	-10.1246
▁behavior	-10.1246
▁shack	-10.1246
▁tennis	-10.1246
▁anger	-10.1246
▁stevie	-10.1246
▁lobster	-10.1246
▁clock	-10.1246
▁ripped	-10.1246
▁section	-10.1247
▁delta	-10.1247
▁klan	-10.1247
▁therell	-10.1247
▁whooping	-10.1247
▁therapy	-10.1247
▁grave	-10.1248
▁proof	-10.1249
▁slut	-10.1249
▁bored	-10.125
▁coke	-10.125
▁gum	-10.1251
▁uhoh	-10.1251
▁gig	-10.1252
end	-10.1256
▁former	-10.1257
▁discovered	-10.126
▁robin	-10.126
▁inform	-10.1264
▁billion	-10.1265
▁earn	-10.1266
▁glasses	-10.1267
▁queer	-10.1268
▁her	-10.1269
▁bike	-10.127
▁reality	-10.1276
▁hatcher	-10.1276
▁up	-10.1281
▁managed	-10.1281
▁this	-10.1285
▁deny	-10.1286
▁personally	-10.1286
▁lawyers	-10.1293
▁x	-10.131
▁finding	-10.132
▁hol	-10.1327
▁you	-10.1328
▁degrees	-10.1333
▁sooner	-10.1334
▁ey	-10.1346
▁riding	-10.1347
▁training	-10.1362
▁passing	-10.138
▁prisoners	-10.1406
▁staring	-10.1408
▁dies	-10.1408
▁neighbors	-10.1416
▁waves	-10.1426
▁followed	-10.1427
▁pounds	-10.1444
▁pr	-10.1453
▁ordered	-10.1453
ions	-10.1473
▁ic	-10.1474
▁jobs	-10.1484
▁trusted	-10.1498
▁sat	-10.1502
▁sub	-10.1562
▁hip	-10.1588
▁ghosts	-10.1593
▁crimes	-10.1602
ph	-10.1603
ak	-10.1629
▁hack	-10.164
▁tuesday	-10.166
▁material	-10.166
▁leaves	-10.166
▁mechanic	-10.1664
▁coward	-10.1665
▁va	-10.1668
▁winner	-10.1669
▁odd	-10.1671
▁songs	-10.1681
▁indian	-10.1682
▁matters	-10.1693
▁che	-10.1698
▁prisoner	-10.1714
▁headed	-10.1736
▁li	-10.1741
▁z	-10.1745
ot	-10.1763
▁ne	-10.1773
▁lame	-10.1786
cy	-10.1787
▁gather	-10.179
ue	-10.1796
▁bleed	-10.1796
▁med	-10.1797
▁desert	-10.1801
▁tuck	-10.1803
▁hatch	-10.1807
▁assume	-10.1813
▁dirt	-10.1817
ite	-10.1818
▁dust	-10.1818
▁rick	-10.1819
▁fift	-10.1819
▁amen	-10.1821
▁exact	-10.1824
▁official	-10.1824
looking	-10.1828
▁sec	-10.1829
▁gentle	-10.1831
▁alcohol	-10.1832
▁mmhm	-10.1832
▁attend	-10.1833
▁ashamed	-10.1834
▁beverly	-10.1834
▁celebrate	-10.1834
▁cmon	-10.1834
▁cruel	-10.1834
▁defense	-10.1834
▁donkey	-10.1834
▁dwight	-10.1834
▁eriksson	-10.1834
▁kirby	-10.1834
▁leonidas	-10.1834
▁leroy	-10.1834
▁mcquarry	-10.1834
▁outfit	-10.1834
▁peggy	-10.1834
▁possibly	-10.1834
▁sensitive	-10.1834
▁thursday	-10.1834
▁toffler	-10.1834
▁drove	-10.1834
▁baldwin	-10.1834
▁commercial	-10.1834
▁series	-10.1834
▁wallace	-10.1834
▁dispatch	-10.1834
▁violent	-10.1834
▁martha	-10.1834
▁applause	-10.1834
▁suzy	-10.1834
▁steak	-10.1834
▁attractive	-10.1834
▁intelligence	-10.1834
▁pillow	-10.1834
▁zero	-10.1834
▁prime	-10.1834
▁hidden	-10.1834
▁lewis	-10.1834
▁saint	-10.1834
▁organization	-10.1834
▁washington	-10.1834
▁digging	-10.1834
▁crackling	-10.1834
▁laundry	-10.1834
▁honour	-10.1834
▁bruno	-10.1834
▁becoming	-10.1834
▁firing	-10.1835
▁float	-10.1835
▁cujo	-10.1835
▁nina	-10.1835
▁cartman	-10.1835
▁minor	-10.1836
▁confession	-10.1836
▁butcher	-10.1836
▁loving	-10.1836
▁limit	-10.1837
▁psycho	-10.1837
▁charly	-10.1837
▁iike	-10.1838
▁personality	-10.1839
▁wing	-10.1839
▁golden	-10.1839
▁habit	-10.1839
▁troy	-10.184
▁uhuh	-10.1841
▁host	-10.1841
▁fashion	-10.1841
▁slide	-10.1842
▁boom	-10.1842
▁impressed	-10.1844
▁bout	-10.1845
▁mood	-10.1846
▁texas	-10.1846
▁deadline	-10.1847
▁fourth	-10.185
▁fifty	-10.1851
some	-10.1852
▁cheating	-10.1856
▁winning	-10.1858
ling	-10.1867
▁tax	-10.1867
▁entirely	-10.1868
ddam	-10.1869
▁finest	-10.1884
▁stronger	-10.1884
▁slowly	-10.1887
▁horny	-10.1888
▁raised	-10.1894
▁chat	-10.1901
▁forced	-10.1904
▁county	-10.1905
▁fart	-10.1908
▁am	-10.1909
▁shorty	-10.191
ow	-10.193
ical	-10.1932
▁wasted	-10.1935
▁raped	-10.1935
▁jumped	-10.194
ns	-10.195
▁teaching	-10.1953
▁on	-10.1992
▁marsh	-10.2017
▁kicking	-10.2023
ette	-10.2031
▁backup	-10.2031
▁vic	-10.2044
▁cara	-10.2052
sky	-10.2061
▁stare	-10.2069
▁mal	-10.2072
j	-10.2086
▁salt	-10.21
▁bee	-10.2105
▁trade	-10.2117
▁port	-10.2128
em	-10.2138
ile	-10.2148
▁manage	-10.216
ut	-10.2163
va	-10.2166
▁players	-10.2167
▁simon	-10.2171
▁letters	-10.2176
▁com	-10.2181
▁unite	-10.2211
▁pat	-10.2221
▁vi	-10.2229
▁ruin	-10.2256
▁for	-10.228
▁blindfold	-10.2289
▁snake	-10.229
▁bells	-10.229
▁explosion	-10.2291
▁option	-10.2296
▁direction	-10.2296
▁cloud	-10.2299
▁deck	-10.2305
▁stranger	-10.2317
ka	-10.2334
▁que	-10.2356
▁climb	-10.2384
▁ba	-10.2406
▁hump	-10.2424
▁stretch	-10.2426
▁sink	-10.2429
▁whack	-10.2429
▁lo	-10.2431
▁guarantee	-10.2436
▁damage	-10.244
▁proper	-10.2451
▁russia	-10.2451
▁bone	-10.2451
▁trans	-10.2457
▁anti	-10.2458
▁susan	-10.2458
▁fag	-10.2458
▁wrap	-10.2458
▁alonzo	-10.2459
▁associate	-10.2459
▁boycott	-10.2459
▁confidence	-10.2459
▁dessert	-10.2459
▁equipment	-10.2459
▁fabulous	-10.2459
▁grogan	-10.2459
▁insurance	-10.2459
▁kindergarten	-10.2459
▁maintenance	-10.2459
▁mercury	-10.2459
▁plastic	-10.2459
▁rattling	-10.2459
▁research	-10.2459
▁routine	-10.2459
▁spoil	-10.2459
▁tatiana	-10.2459
▁unknown	-10.2459
▁vaughn	-10.2459
▁cease	-10.2459
▁generous	-10.2459
▁quality	-10.2459
▁unusual	-10.2459
▁nancy	-10.2459
▁rope	-10.2459
▁ethan	-10.2459
▁stammers	-10.2459
▁mathew	-10.2459
▁janice	-10.2459
▁wolf	-10.2459
▁fifteen	-10.2459
▁pathetic	-10.2459
▁clever	-10.2459
▁silent	-10.2459
▁university	-10.2459
▁smiling	-10.2459
▁internet	-10.2459
▁combat	-10.2459
▁chopper	-10.2459
▁soho	-10.2459
▁uncomfortable	-10.2459
▁version	-10.2459
▁suge	-10.2459
▁pride	-10.2459
▁native	-10.246
▁amount	-10.246
▁psychic	-10.246
▁theory	-10.246
▁mosely	-10.246
▁humor	-10.246
▁location	-10.246
▁thud	-10.246
▁toss	-10.246
▁shopping	-10.2461
▁respond	-10.2461
▁offense	-10.2461
▁athens	-10.2461
▁complicated	-10.2462
▁damon	-10.2463
▁marty	-10.2463
▁apology	-10.2463
▁dice	-10.2463
▁ted	-10.2464
▁dopeman	-10.2464
▁fallen	-10.2465
▁campers	-10.2467
▁stunt	-10.2467
▁cutting	-10.2469
▁tone	-10.2469
▁deaf	-10.2471
▁ay	-10.2472
▁becomes	-10.2473
▁abandoned	-10.2473
▁shine	-10.2474
▁wallet	-10.2475
▁dating	-10.2476
▁healthy	-10.248
▁adopted	-10.2481
▁knowledge	-10.2485
▁jesse	-10.2485
▁prize	-10.2485
▁rooms	-10.2487
▁keyes	-10.2488
▁ruined	-10.2489
▁mixed	-10.2492
▁suffering	-10.2495
▁jer	-10.2495
▁giggles	-10.2495
ped	-10.2509
▁hooked	-10.2525
za	-10.2526
▁chips	-10.2527
▁customers	-10.2528
▁packed	-10.2549
▁expected	-10.2549
▁waited	-10.2551
▁colored	-10.2552
bit	-10.256
▁gasp	-10.2564
▁develop	-10.257
▁uhh	-10.2576
▁when	-10.2576
▁slams	-10.2579
▁burgers	-10.2579
▁wit	-10.2579
▁socks	-10.2589
▁terms	-10.259
tor	-10.26
▁reporting	-10.2608
ga	-10.2611
▁add	-10.2614
▁provide	-10.262
▁counting	-10.2624
▁strip	-10.263
▁ignore	-10.2664
nd	-10.2681
▁pigs	-10.2684
▁kissing	-10.2689
ring	-10.27
▁advance	-10.2701
▁breaks	-10.2702
ger	-10.2746
▁dreaming	-10.2758
▁steps	-10.2774
▁rom	-10.2857
▁notes	-10.2859
▁hates	-10.2865
▁services	-10.2874
erial	-10.2877
▁ear	-10.2894
▁flow	-10.29
da	-10.2917
▁popular	-10.2917
▁bottles	-10.2927
▁parent	-10.2928
ern	-10.2932
▁doo	-10.2937
▁tear	-10.2937
▁dime	-10.2941
▁adult	-10.2951
▁blanket	-10.2952
▁gene	-10.2955
▁clown	-10.2955
▁effort	-10.2955
▁goat	-10.2958
▁nerve	-10.2958
▁email	-10.2958
▁treasure	-10.296
▁diamond	-10.2963
▁relationships	-10.297
ens	-10.2973
▁spring	-10.2973
▁writer	-10.2984
▁movement	-10.3002
▁sucker	-10.3007
ard	-10.3012
▁garden	-10.3022
▁bra	-10.3047
▁scratch	-10.305
▁steel	-10.305
▁suffer	-10.3058
▁ages	-10.3064
▁defend	-10.3082
▁log	-10.3082
▁reports	-10.3091
▁concern	-10.3097
▁partners	-10.3097
▁leads	-10.3101
▁jill	-10.3109
▁warn	-10.3114
side	-10.3116
▁drag	-10.3116
▁successful	-10.3116
▁julia	-10.3119
▁cure	-10.312
▁europe	-10.3123
▁stab	-10.3124
▁blank	-10.3124
▁anytime	-10.3125
▁arguing	-10.3125
▁background	-10.3125
▁barbara	-10.3125
▁cynthia	-10.3125
▁desperate	-10.3125
▁disease	-10.3125
▁elaine	-10.3125
▁exclaiming	-10.3125
▁experiment	-10.3125
▁guitar	-10.3125
▁honeymoon	-10.3125
▁hudson	-10.3125
▁jefferson	-10.3125
▁ruiz	-10.3125
▁sabrina	-10.3125
▁serena	-10.3125
▁someplace	-10.3125
▁surrender	-10.3125
▁tenenbaum	-10.3125
▁vodka	-10.3125
▁whimpers	-10.3125
▁wreck	-10.3125
▁appeal	-10.3125
▁evelyn	-10.3125
▁gross	-10.3125
▁privacy	-10.3125
▁proceed	-10.3125
▁starving	-10.3125
▁vibe	-10.3125
▁mumbles	-10.3125
▁trigger	-10.3126
▁interlinked	-10.3126
▁maggie	-10.3126
▁accent	-10.3126
▁response	-10.3126
▁waitress	-10.3126
▁weii	-10.3126
▁sober	-10.3126
▁orphanage	-10.3126
▁backwards	-10.3126
▁deckard	-10.3126
▁medicine	-10.3126
▁appropriate	-10.3126
▁bernie	-10.3126
▁fries	-10.3126
▁scott	-10.3126
▁rita	-10.3126
▁sentence	-10.3126
▁authority	-10.3126
▁fence	-10.3126
▁fe	-10.3127
▁studio	-10.3127
▁investment	-10.3127
▁funk	-10.3127
▁aside	-10.3127
▁facility	-10.3127
▁agency	-10.3127
▁mayday	-10.3127
▁kilo	-10.3128
▁rash	-10.3128
▁drill	-10.3128
▁planned	-10.3128
▁alien	-10.3128
▁slater	-10.3128
▁obsessed	-10.3129
▁trial	-10.3129
▁mass	-10.3129
▁quote	-10.3129
▁lean	-10.313
▁slip	-10.3131
▁painful	-10.3132
▁echoing	-10.3132
▁forth	-10.3132
▁bound	-10.3133
▁wide	-10.3133
▁bridget	-10.3134
▁carried	-10.3136
▁badge	-10.3137
▁style	-10.3137
▁dean	-10.3139
▁injured	-10.314
▁fuckedup	-10.3144
▁fl	-10.3146
▁setup	-10.3151
▁boner	-10.3159
▁boxes	-10.316
▁sons	-10.3162
▁brief	-10.3166
▁nearly	-10.3168
▁confirmed	-10.3168
▁hee	-10.3169
▁defeat	-10.3172
▁civilians	-10.3176
no	-10.3179
▁spartans	-10.3187
▁checks	-10.3188
▁considered	-10.3194
▁accepted	-10.3202
▁loaded	-10.321
me	-10.3212
▁texted	-10.3213
▁williams	-10.3221
▁survivors	-10.3221
▁ln	-10.3221
▁girlfriends	-10.3229
▁trained	-10.3235
▁singer	-10.3241
▁mc	-10.3249
▁watches	-10.325
▁gr	-10.3251
▁sins	-10.3268
▁julie	-10.3276
▁slaves	-10.3276
▁killers	-10.3297
▁reporters	-10.3343
▁lads	-10.3358
▁charlies	-10.3363
▁covering	-10.3366
▁friendly	-10.3379
▁members	-10.3389
▁patients	-10.3401
▁tub	-10.341
▁cuba	-10.3415
gh	-10.343
▁cleaning	-10.343
▁understanding	-10.3464
▁gates	-10.3468
▁ram	-10.3472
▁touching	-10.3477
▁victims	-10.348
▁anyways	-10.3517
▁cha	-10.353
▁thin	-10.3543
▁doctors	-10.3574
our	-10.3585
▁ci	-10.3585
ev	-10.3596
▁belongs	-10.3606
and	-10.3607
▁path	-10.3642
board	-10.3645
▁bump	-10.3652
▁min	-10.3657
▁under	-10.3658
ned	-10.3659
▁shift	-10.3662
▁assignment	-10.3666
▁ad	-10.3668
▁chop	-10.367
▁size	-10.3671
port	-10.3671
▁or	-10.3672
▁opinion	-10.3672
▁archer	-10.3674
▁package	-10.3675
▁tool	-10.3675
▁actions	-10.3675
▁blocks	-10.3676
▁bug	-10.3677
▁hostage	-10.3681
▁slave	-10.3687
▁shoe	-10.3691
▁mile	-10.3692
▁buns	-10.3693
▁lesson	-10.3695
▁patrol	-10.3699
▁aa	-10.3718
▁bel	-10.3729
▁hurting	-10.373
ily	-10.3748
▁fail	-10.3769
▁drown	-10.377
▁resist	-10.3798
▁systems	-10.3799
▁intend	-10.3808
▁vanish	-10.381
▁twist	-10.381
▁bat	-10.3811
field	-10.3818
▁advise	-10.3818
▁iron	-10.3823
ious	-10.3826
▁object	-10.3829
▁actual	-10.383
▁cancel	-10.383
▁suits	-10.3831
▁sparta	-10.3832
▁helen	-10.3833
through	-10.3836
▁flag	-10.3837
▁establish	-10.3838
▁makin	-10.3838
▁flour	-10.3839
▁affair	-10.384
▁average	-10.384
▁clitoris	-10.384
▁dylan	-10.384
▁explanation	-10.384
▁explosiveskull	-10.384
▁fraternity	-10.384
▁hockey	-10.384
▁inspector	-10.384
▁invisible	-10.384
▁library	-10.384
▁lydia	-10.384
▁mcbride	-10.384
▁meserve	-10.384
▁messenger	-10.384
▁muslim	-10.384
▁possibility	-10.384
▁prevent	-10.384
▁resort	-10.384
▁sacrifice	-10.384
▁shotgun	-10.384
▁soap	-10.384
▁sobvechik	-10.384
▁suribachi	-10.384
▁thief	-10.384
▁trash	-10.384
▁turkey	-10.384
▁vault	-10.384
▁village	-10.384
▁wouid	-10.384
▁zhang	-10.384
▁terry	-10.384
▁bureau	-10.384
▁chandler	-10.384
▁gloria	-10.384
▁torn	-10.384
▁april	-10.384
▁fantasies	-10.384
▁psychiatrist	-10.384
▁mickey	-10.384
▁operator	-10.384
▁diane	-10.384
▁nickname	-10.384
▁inaudible	-10.384
▁hailey	-10.384
▁rookie	-10.384
▁survival	-10.384
▁soda	-10.384
▁oak	-10.384
▁denise	-10.3841
▁poker	-10.3841
▁convention	-10.3841
▁junior	-10.3841
▁childhood	-10.3841
▁skull	-10.3841
▁solid	-10.3841
▁beef	-10.3841
▁fought	-10.3841
▁cleaves	-10.3841
▁giant	-10.3841
▁reaction	-10.3842
▁sailor	-10.3842
▁grimes	-10.3842
▁stuntman	-10.3842
▁ima	-10.3842
▁patch	-10.3842
▁rise	-10.3843
▁dropping	-10.3844
▁alley	-10.3844
▁technically	-10.3844
▁amber	-10.3845
▁intense	-10.3846
▁mis	-10.3846
▁forest	-10.3846
▁friendship	-10.3846
▁politics	-10.3846
▁gim	-10.3847
▁brit	-10.3847
▁china	-10.3848
▁highway	-10.3848
▁diego	-10.3849
▁chin	-10.3851
▁blaring	-10.3852
▁barking	-10.3853
▁heroes	-10.3854
▁chor	-10.3856
▁taj	-10.3857
▁robbie	-10.3858
▁carol	-10.3859
▁brandy	-10.3864
▁locate	-10.3865
▁timing	-10.3867
▁curse	-10.3867
▁circumstances	-10.387
▁meantime	-10.3876
▁impression	-10.3881
hole	-10.3884
▁thrown	-10.3887
▁survived	-10.389
▁jud	-10.3895
▁boyle	-10.3898
▁deeper	-10.3903
mi	-10.3903
▁sniffs	-10.3906
▁smiley	-10.3908
dy	-10.3918
▁cooper	-10.3922
▁fate	-10.3937
ai	-10.395
▁landed	-10.3961
▁event	-10.3963
▁guts	-10.3967
▁messed	-10.3973
▁packing	-10.3975
▁cr	-10.3976
▁boots	-10.3987
▁grounded	-10.3999
fucking	-10.4002
▁hostages	-10.4003
national	-10.4003
ible	-10.4048
▁to	-10.4061
per	-10.4066
▁spin	-10.4073
▁answers	-10.4075
▁kings	-10.4079
▁lefty	-10.4086
▁challenge	-10.4106
▁typ	-10.4107
▁worker	-10.4118
▁bullets	-10.4124
▁pos	-10.4142
▁hay	-10.4163
▁remains	-10.4173
▁sol	-10.419
bra	-10.4195
▁sn	-10.4207
▁jeans	-10.4234
▁reminds	-10.4247
▁toy	-10.426
▁mill	-10.4262
▁bio	-10.4265
▁vote	-10.4277
ack	-10.4292
▁pet	-10.4292
▁signs	-10.4293
▁mud	-10.4311
▁ar	-10.4322
▁caused	-10.4326
▁mates	-10.4326
ver	-10.4329
▁there	-10.4331
▁homeless	-10.4335
▁stones	-10.4346
▁rate	-10.4358
▁term	-10.4362
ir	-10.4364
▁pan	-10.4378
ug	-10.4381
▁experiences	-10.4382
aii	-10.4389
▁bars	-10.439
▁moan	-10.4414
▁ce	-10.4415
▁sin	-10.4423
▁creep	-10.4429
▁tire	-10.4434
▁roommate	-10.4439
▁equal	-10.444
▁grandmother	-10.4441
▁sock	-10.4441
▁threat	-10.4444
▁nightmare	-10.4445
▁horns	-10.4456
▁chuckle	-10.4457
▁hood	-10.4459
▁dudes	-10.4463
▁leona	-10.4466
▁souls	-10.4492
▁murderer	-10.4509
▁suite	-10.4516
▁connect	-10.4529
▁hu	-10.4538
▁thoughts	-10.4557
▁no	-10.4566
▁crawl	-10.457
▁reward	-10.4577
down	-10.4577
q	-10.4582
water	-10.4584
▁refuse	-10.4588
▁erase	-10.4589
four	-10.4589
▁hundreds	-10.4591
▁immediate	-10.4599
▁abort	-10.4599
▁peach	-10.4603
▁environment	-10.4603
▁commit	-10.4605
▁mook	-10.4606
▁shave	-10.4607
▁livin	-10.4608
▁specific	-10.4608
▁ethel	-10.4609
▁aggressive	-10.4609
▁awkward	-10.4609
▁boitano	-10.4609
▁bravo	-10.4609
▁butterfly	-10.4609
▁cecil	-10.4609
▁debbie	-10.4609
▁dilip	-10.4609
▁enforcement	-10.4609
▁howre	-10.4609
▁jigsaw	-10.4609
▁kazakhstan	-10.4609
▁leprechaun	-10.4609
▁lorraine	-10.4609
▁mardukas	-10.4609
▁method	-10.4609
▁moretti	-10.4609
▁olympia	-10.4609
▁precinct	-10.4609
▁rachael	-10.4609
▁raheem	-10.4609
▁religious	-10.4609
▁senior	-10.4609
▁sheep	-10.4609
▁shepard	-10.4609
▁sunshine	-10.4609
▁tokyo	-10.4609
▁xerxes	-10.4609
▁exclaims	-10.4609
▁sweep	-10.4609
▁weiss	-10.4609
▁presence	-10.4609
▁temperature	-10.4609
▁lecter	-10.4609
▁pepper	-10.4609
▁financial	-10.4609
▁vocalizing	-10.4609
▁thumping	-10.4609
▁drake	-10.4609
▁broadcast	-10.4609
▁border	-10.4609
▁misery	-10.4609
▁crisis	-10.4609
▁bartender	-10.4609
▁organism	-10.4609
▁hahaha	-10.4609
▁perkins	-10.4609
▁snack	-10.4609
▁jelly	-10.4609
▁paperwork	-10.4609
▁whew	-10.4609
▁jury	-10.4609
gawa	-10.4609
▁phoebe	-10.461
▁garage	-10.461
▁titty	-10.461
▁denver	-10.461
▁lousy	-10.461
▁leather	-10.461
▁incident	-10.461
▁edition	-10.461
▁cooperation	-10.461
▁thick	-10.461
▁passport	-10.4611
▁neat	-10.4611
▁debt	-10.4611
▁identity	-10.4611
▁gently	-10.4611
▁cries	-10.4611
▁anika	-10.4612
▁bowman	-10.4614
▁skies	-10.4614
▁homicide	-10.4614
▁began	-10.4614
▁soup	-10.4615
▁hayes	-10.4616
▁theo	-10.4616
▁fry	-10.4616
▁mustard	-10.462
▁froze	-10.4621
▁jackson	-10.4621
▁possession	-10.4621
▁fireball	-10.4624
▁brutal	-10.4625
▁witnesses	-10.4626
▁ml	-10.4627
▁bunker	-10.4627
▁critical	-10.4628
▁afterwards	-10.4629
▁lifetime	-10.4629
▁roaring	-10.463
▁bay	-10.4633
com	-10.4633
▁arch	-10.4636
▁holly	-10.4636
▁connected	-10.4639
▁sighing	-10.4642
▁goodnight	-10.4646
▁grass	-10.4648
li	-10.4648
▁boot	-10.4649
red	-10.4656
▁photographer	-10.4658
▁released	-10.4663
▁gotcha	-10.4668
▁recall	-10.4673
und	-10.4678
▁freaking	-10.4694
▁carefully	-10.4696
▁homey	-10.4703
▁les	-10.4711
▁victory	-10.4717
ham	-10.4721
▁boobs	-10.4732
▁holidays	-10.4733
▁circle	-10.4749
▁fund	-10.475
▁reported	-10.4753
▁expecting	-10.4756
▁peoples	-10.478
▁dan	-10.4782
▁latin	-10.4812
▁hal	-10.4829
jo	-10.4832
▁recorded	-10.4835
▁feds	-10.4839
▁lab	-10.4841
▁cia	-10.4848
▁messages	-10.4854
▁signed	-10.4858
▁bonds	-10.4877
▁canadians	-10.4877
ik	-10.4879
▁cleaned	-10.4882
▁col	-10.4896
▁chains	-10.4904
ably	-10.4911
▁lovers	-10.4913
▁he	-10.4913
ms	-10.4926
▁targets	-10.4943
▁knowing	-10.4951
▁gar	-10.4955
▁robe	-10.4964
▁russians	-10.497
ster	-10.4983
▁apples	-10.4996
▁shoulders	-10.4996
ps	-10.4996
▁net	-10.5
▁dates	-10.5007
nder	-10.5008
led	-10.5017
▁of	-10.5042
▁fucks	-10.5092
▁graduate	-10.5097
▁capital	-10.5103
los	-10.5115
▁wifes	-10.5189
▁facts	-10.5195
ls	-10.5202
▁effect	-10.5236
den	-10.5241
▁pe	-10.5244
▁cheer	-10.5262
▁scientist	-10.5267
▁grandfather	-10.5268
▁concept	-10.5272
▁muscle	-10.5275
▁rapid	-10.528
▁slam	-10.5283
▁toward	-10.5285
▁plate	-10.5286
▁promises	-10.5288
▁burger	-10.5293
ell	-10.5303
▁tune	-10.5304
▁voices	-10.5311
▁taco	-10.5312
▁placed	-10.5326
▁it	-10.5332
▁cal	-10.5342
▁skip	-10.5349
ise	-10.536
called	-10.5361
▁chi	-10.5371
▁bub	-10.5372
▁down	-10.5383
▁lit	-10.5397
ft	-10.54
▁flat	-10.5401
▁pour	-10.5407
▁perform	-10.5408
▁jess	-10.5411
▁homes	-10.5413
▁adopt	-10.5413
▁medic	-10.5419
▁remove	-10.5422
▁solve	-10.5423
▁guilt	-10.5425
▁plant	-10.5431
▁ultimate	-10.5431
away	-10.5433
▁erotic	-10.5433
▁harris	-10.5434
▁slight	-10.5434
▁similar	-10.5442
▁balance	-10.5442
▁choking	-10.5442
▁devon	-10.5442
▁dolores	-10.5442
▁donny	-10.5442
▁fellcla	-10.5442
▁glorious	-10.5442
▁gretel	-10.5442
▁horror	-10.5442
▁kennedy	-10.5442
▁lgbt	-10.5442
▁marissa	-10.5442
▁mexican	-10.5442
▁milano	-10.5442
▁mystic	-10.5442
▁patrice	-10.5442
▁phase	-10.5442
▁profile	-10.5442
▁schraeder	-10.5442
▁sequence	-10.5442
▁shannon	-10.5442
▁skullfucker	-10.5442
▁soprano	-10.5442
▁stammering	-10.5442
▁stephen	-10.5442
▁symptoms	-10.5442
▁uniform	-10.5442
▁uplink	-10.5442
▁worries	-10.5442
▁balloon	-10.5442
▁dawn	-10.5442
▁forgotten	-10.5442
▁martelli	-10.5442
▁kwame	-10.5442
▁stabbed	-10.5442
▁sullivan	-10.5442
▁sheila	-10.5442
▁surround	-10.5442
▁script	-10.5442
▁reception	-10.5442
▁jungle	-10.5443
▁humming	-10.5443
▁guide	-10.5443
▁michelle	-10.5443
▁demand	-10.5443
▁robbery	-10.5443
▁choke	-10.5443
▁sauce	-10.5443
▁marath	-10.5443
▁parade	-10.5443
▁lease	-10.5443
▁heii	-10.5443
▁paris	-10.5443
▁massage	-10.5443
while	-10.5443
▁avenue	-10.5443
▁envelope	-10.5443
▁morton	-10.5443
▁evie	-10.5443
▁fortune	-10.5444
▁wore	-10.5444
▁status	-10.5444
▁ocp	-10.5444
▁sarah	-10.5444
▁legend	-10.5444
▁maxine	-10.5444
▁allah	-10.5444
▁toll	-10.5444
▁caine	-10.5445
▁bingo	-10.5445
▁label	-10.5445
▁rifle	-10.5445
▁pause	-10.5445
▁mail	-10.5445
▁region	-10.5446
▁nearby	-10.5446
▁robot	-10.5446
▁bonus	-10.5447
▁duck	-10.5447
▁gray	-10.5448
cient	-10.5449
▁gain	-10.5449
▁expression	-10.545
▁published	-10.545
▁plain	-10.545
▁lifestyle	-10.545
▁vent	-10.5451
▁launch	-10.5451
▁cage	-10.5452
▁scar	-10.5453
▁engaged	-10.5453
▁bam	-10.5454
▁filthy	-10.5455
▁cassie	-10.5459
▁haunted	-10.5459
▁sandwiches	-10.546
▁begging	-10.546
▁shaking	-10.5461
▁yale	-10.5461
▁cargo	-10.5466
▁spoken	-10.5468
▁pm	-10.547
▁q	-10.5471
▁provided	-10.5473
▁paulie	-10.5473
wo	-10.5476
▁delivery	-10.5477
▁canceled	-10.5477
▁hicks	-10.5478
▁troops	-10.5478
▁normally	-10.5487
▁blown	-10.5492
▁drawing	-10.5505
▁brad	-10.5507
▁deserved	-10.5509
▁poisoning	-10.5515
▁mount	-10.552
▁arty	-10.5523
▁pipe	-10.5531
▁ko	-10.5531
▁gloves	-10.5535
▁comp	-10.5538
▁bothered	-10.5542
▁fairy	-10.5543
▁fades	-10.5549
▁carter	-10.5555
▁counter	-10.5556
▁shared	-10.5557
▁brownie	-10.5566
▁tracking	-10.5568
ons	-10.557
▁pushed	-10.5582
▁loading	-10.5582
▁nathe	-10.5583
▁tina	-10.5585
▁cents	-10.5592
▁offering	-10.5598
▁joey	-10.5604
▁plates	-10.5606
▁behave	-10.561
▁makeup	-10.5615
▁toys	-10.5622
▁smash	-10.5622
▁pushing	-10.5623
▁enjoyed	-10.5629
▁pays	-10.5635
▁younger	-10.5637
▁wi	-10.5657
▁events	-10.5671
▁indians	-10.568
▁fishing	-10.5681
▁led	-10.5689
▁fuckers	-10.569
val	-10.5692
▁mars	-10.5697
▁hoo	-10.5704
▁cart	-10.5709
▁sticks	-10.5743
top	-10.5743
▁noises	-10.575
▁files	-10.575
▁figures	-10.5754
▁walker	-10.5755
ax	-10.5758
▁broads	-10.578
▁honks	-10.5795
▁answered	-10.5839
▁listened	-10.584
▁images	-10.5851
▁models	-10.5852
▁ere	-10.591
▁chocolates	-10.5926
▁fools	-10.5951
ze	-10.5961
▁angels	-10.5982
▁cor	-10.5988
▁trees	-10.5996
▁deserves	-10.5997
cat	-10.6007
▁terror	-10.6011
▁op	-10.602
ip	-10.6027
▁har	-10.6047
▁teams	-10.6055
ville	-10.6071
ud	-10.6074
ill	-10.6083
ities	-10.6087
▁corners	-10.6087
▁waiter	-10.6088
over	-10.609
rk	-10.6092
▁cur	-10.6106
▁sp	-10.6112
▁prep	-10.6114
▁sigh	-10.6143
▁lves	-10.6145
▁musical	-10.616
▁buck	-10.6174
▁producer	-10.6179
▁newspaper	-10.6181
▁piranha	-10.6184
▁persian	-10.6184
▁blade	-10.6184
▁finds	-10.6184
▁quarter	-10.6185
▁edge	-10.6185
▁thumb	-10.6185
▁cent	-10.619
▁gut	-10.6196
▁print	-10.6198
om	-10.6204
▁cracker	-10.6204
▁tube	-10.6205
▁sweater	-10.6205
▁sand	-10.6207
▁poop	-10.6219
▁ur	-10.6219
▁gi	-10.6224
▁phones	-10.6231
imately	-10.624
▁holes	-10.6242
▁sc	-10.6245
armo	-10.626
▁bounc	-10.6264
▁pops	-10.6274
▁sets	-10.628
▁pitch	-10.6287
▁computers	-10.6288
iest	-10.6291
▁complain	-10.6292
▁interrupt	-10.6293
▁aim	-10.6296
well	-10.6298
▁motherfuck	-10.6302
back	-10.6312
▁skate	-10.6317
▁receive	-10.6317
▁vouch	-10.6319
▁spill	-10.6321
ship	-10.6323
▁nail	-10.6329
school	-10.633
▁frame	-10.6331
▁garci	-10.6331
▁negotiate	-10.6331
▁require	-10.6331
let	-10.6331
▁suspens	-10.6332
▁africa	-10.6334
▁bunk	-10.6335
▁potential	-10.634
▁create	-10.634
▁recent	-10.6343
▁mental	-10.6345
▁judgment	-10.6346
▁alex	-10.6347
▁olive	-10.6347
malcolm	-10.6348
▁kidnapp	-10.6349
▁journal	-10.6349
▁homosexual	-10.635
▁transport	-10.6351
▁appro	-10.6351
▁andre	-10.6351
▁element	-10.6351
▁expert	-10.6351
▁hypnoti	-10.6351
▁monitor	-10.6351
▁buzzsaw	-10.6351
▁coincidence	-10.6351
▁complex	-10.6351
▁conference	-10.6351
▁dammit	-10.6351
▁dejesus	-10.6351
▁depressing	-10.6351
▁doodoo	-10.6351
▁easily	-10.6351
▁eleven	-10.6351
▁fugazy	-10.6351
▁garrison	-10.6351
▁grateful	-10.6351
▁grief	-10.6351
▁implosion	-10.6351
▁industry	-10.6351
▁jazz	-10.6351
▁jericho	-10.6351
▁klaven	-10.6351
▁lobby	-10.6351
▁maintain	-10.6351
▁mckinley	-10.6351
▁moltisanti	-10.6351
▁mystery	-10.6351
▁naughty	-10.6351
▁nielson	-10.6351
▁pagoda	-10.6351
▁pleasant	-10.6351
▁policy	-10.6351
▁protocol	-10.6351
▁remote	-10.6351
▁revelle	-10.6351
▁reverse	-10.6351
▁satellite	-10.6351
▁scotch	-10.6351
▁supply	-10.6351
▁tragedy	-10.6351
▁underneath	-10.6351
▁voight	-10.6351
▁volunteer	-10.6351
▁wyler	-10.6351
▁carveth	-10.6351
▁ease	-10.6351
▁kerry	-10.6351
▁laughlin	-10.6351
▁sharing	-10.6351
▁unarmed	-10.6351
▁michigan	-10.6351
▁chirp	-10.6351
▁alpha	-10.6351
▁brick	-10.6351
▁clarence	-10.6351
▁parlor	-10.6351
▁radiation	-10.6352
▁mabel	-10.6352
▁slick	-10.6352
▁repair	-10.6352
▁despi	-10.6352
▁basketball	-10.6352
▁motive	-10.6352
▁culture	-10.6352
▁description	-10.6352
▁intruder	-10.6352
▁mackey	-10.6352
▁pirate	-10.6352
▁political	-10.6352
▁corporation	-10.6352
▁annette	-10.6352
▁jenny	-10.6352
▁palace	-10.6352
▁pumpkin	-10.6352
▁pilar	-10.6352
▁pimp	-10.6352
▁rubber	-10.6352
▁patricia	-10.6352
▁destruction	-10.6352
▁grill	-10.6352
▁disrespect	-10.6352
▁edward	-10.6352
▁sherman	-10.6352
▁fleet	-10.6352
▁fond	-10.6352
▁groceries	-10.6352
▁personnel	-10.6352
▁arabic	-10.6352
▁strawberry	-10.6352
▁genetic	-10.6352
▁brogan	-10.6352
▁grabbed	-10.6353
▁precious	-10.6353
▁lockwood	-10.6353
▁independent	-10.6353
▁selfish	-10.6353
▁organic	-10.6353
▁strangler	-10.6353
▁sector	-10.6353
▁pepe	-10.6353
▁exclusive	-10.6353
▁static	-10.6353
▁elton	-10.6353
▁brotherhood	-10.6353
▁clap	-10.6353
▁swat	-10.6354
▁charity	-10.6354
▁cafe	-10.6354
▁root	-10.6354
▁virginity	-10.6354
▁loan	-10.6354
▁maxim	-10.6355
▁cities	-10.6355
▁irish	-10.6355
▁bruise	-10.6355
▁rabbit	-10.6355
▁stepping	-10.6356
▁jane	-10.6356
▁collection	-10.6356
▁sack	-10.6356
▁owns	-10.6357
▁hiya	-10.6357
▁rumor	-10.6357
▁regard	-10.6357
▁nwa	-10.6357
▁ferry	-10.6358
▁quid	-10.6358
▁flagg	-10.6358
▁ballet	-10.6359
▁flies	-10.6359
▁dealer	-10.6359
▁cruise	-10.6359
▁pile	-10.6359
▁godfather	-10.6361
▁crown	-10.6361
▁retired	-10.6362
▁mall	-10.6363
▁sync	-10.6364
▁clothing	-10.6364
▁charming	-10.6365
▁threatening	-10.6366
▁range	-10.6367
▁trapped	-10.6367
▁officially	-10.6368
▁yella	-10.6368
▁production	-10.6369
▁boil	-10.637
▁superman	-10.637
▁stoner	-10.6371
▁sixth	-10.6371
▁gran	-10.6374
▁pork	-10.6377
▁pier	-10.6377
▁palm	-10.6378
gen	-10.638
▁stroke	-10.638
▁passes	-10.6388
▁becky	-10.6389
▁bent	-10.6391
▁humvees	-10.6391
▁pinch	-10.6392
star	-10.6394
▁chimes	-10.6406
▁stud	-10.6408
▁melt	-10.6409
▁nig	-10.6413
▁escaped	-10.6416
▁stoney	-10.6423
his	-10.6424
▁smaller	-10.6425
▁gags	-10.6425
ff	-10.6428
▁noon	-10.6428
▁freaked	-10.643
▁bl	-10.6434
▁bowl	-10.6446
▁talented	-10.6448
▁shitting	-10.6452
▁studying	-10.6453
▁sources	-10.6453
▁terrorists	-10.6453
▁screwing	-10.6461
▁alis	-10.6464
▁chambers	-10.6469
▁appears	-10.6469
▁honored	-10.6472
▁fa	-10.6483
▁twins	-10.6485
▁rangers	-10.6487
▁hunting	-10.6487
▁agents	-10.6497
▁locker	-10.6497
▁demons	-10.65
▁hooker	-10.651
bs	-10.6513
▁henrys	-10.6526
▁safely	-10.6533
▁cases	-10.6534
▁visiting	-10.6535
▁concentrate	-10.6543
▁falls	-10.6545
▁funds	-10.6548
▁moans	-10.6548
▁lessons	-10.6565
▁ace	-10.657
▁husbands	-10.6573
▁tears	-10.6582
ex	-10.6586
▁strangers	-10.6599
▁sucking	-10.6606
▁latte	-10.6618
▁laying	-10.6619
▁tomb	-10.6646
▁thinkin	-10.6651
▁trainer	-10.6655
▁disappears	-10.666
▁pages	-10.666
▁depend	-10.6666
▁mountains	-10.6674
if	-10.6695
▁recording	-10.6705
▁boats	-10.6718
we	-10.6735
▁matthews	-10.6737
▁cleanse	-10.6769
▁characters	-10.6769
mine	-10.678
▁stands	-10.6796
▁chickens	-10.6804
fully	-10.6828
▁badly	-10.6832
▁las	-10.6843
res	-10.6848
▁criminals	-10.6849
▁ki	-10.6863
gi	-10.6871
▁laisse	-10.6873
▁contracts	-10.6878
iy	-10.6884
▁approach	-10.6885
cc	-10.697
▁eva	-10.6973
▁passion	-10.6976
▁comfort	-10.6984
▁mon	-10.701
nie	-10.7012
▁kills	-10.7017
▁snap	-10.7029
▁imp	-10.704
ppy	-10.7052
▁drivers	-10.7054
▁mid	-10.7069
▁idiots	-10.7073
▁bombs	-10.7096
▁imperi	-10.7097
ck	-10.7123
boy	-10.7127
▁wars	-10.7128
▁sayin	-10.7133
▁su	-10.7135
ations	-10.7146
▁gal	-10.7161
▁surely	-10.7165
▁positions	-10.717
▁compliment	-10.7176
▁result	-10.7176
▁squeal	-10.7176
▁clang	-10.7177
▁channel	-10.7178
▁pattern	-10.7182
ever	-10.7183
▁mi	-10.7184
▁breast	-10.7186
▁donna	-10.7186
ology	-10.7188
▁holiday	-10.7191
▁degree	-10.7192
▁demon	-10.7194
▁tickle	-10.7194
▁folk	-10.7195
▁toe	-10.7206
▁riot	-10.7209
ou	-10.7213
▁she	-10.7243
▁leader	-10.7243
▁guards	-10.7248
▁as	-10.7253
▁boob	-10.7262
night	-10.7263
aw	-10.7272
▁damned	-10.7275
▁embarrass	-10.7285
▁cheat	-10.7299
▁screech	-10.7306
▁tim	-10.7308
ide	-10.731
worth	-10.7311
ought	-10.7317
▁retard	-10.7318
▁drain	-10.732
▁register	-10.7321
▁speaker	-10.7324
▁sings	-10.7327
▁squeeze	-10.7329
holland	-10.7329
fuck	-10.733
husband	-10.733
▁abuse	-10.7331
▁approve	-10.7334
▁mic	-10.7335
▁custom	-10.7339
▁examine	-10.7341
▁constant	-10.7341
ula	-10.7345
▁potato	-10.7345
▁films	-10.7346
▁dais	-10.7347
▁buggin	-10.7349
▁runnin	-10.735
▁entertain	-10.735
▁lalala	-10.7351
▁vietnam	-10.7351
▁alicia	-10.7351
▁amsterdam	-10.7351
▁argument	-10.7351
▁azamat	-10.7351
▁benicio	-10.7351
▁bribe	-10.7351
▁brooklyn	-10.7351
▁cadillac	-10.7351
▁campaign	-10.7351
▁candice	-10.7351
▁carmichael	-10.7351
▁catherine	-10.7351
▁celebrating	-10.7351
▁cheetah	-10.7351
▁cinque	-10.7351
▁cleveland	-10.7351
▁configuration	-10.7351
▁depressed	-10.7351
▁dialogue	-10.7351
▁diarrhea	-10.7351
▁district	-10.7351
▁enormous	-10.7351
▁espresso	-10.7351
▁fridge	-10.7351
▁grutas	-10.7351
▁hiphop	-10.7351
▁impact	-10.7351
▁individual	-10.7351
▁infirmary	-10.7351
▁instance	-10.7351
▁institution	-10.7351
▁intimate	-10.7351
▁kuribayashi	-10.7351
▁liquid	-10.7351
▁mccormick	-10.7351
▁mysterious	-10.7351
▁observe	-10.7351
▁olympic	-10.7351
▁ounce	-10.7351
▁phyllis	-10.7351
▁platform	-10.7351
▁porsche	-10.7351
▁possibilities	-10.7351
▁quarantine	-10.7351
▁rendezvous	-10.7351
▁sapper	-10.7351
▁sperm	-10.7351
▁spray	-10.7351
▁submarine	-10.7351
▁syndrome	-10.7351
▁teresa	-10.7351
▁thanksgiving	-10.7351
▁torsten	-10.7351
▁underground	-10.7351
▁uzi	-10.7351
▁voodoo	-10.7351
▁woodsboro	-10.7351
▁agnes	-10.7351
▁fingerprints	-10.7351
▁mumbai	-10.7351
▁narrow	-10.7351
responsibilities	-10.7351
▁mutual	-10.7351
▁automatic	-10.7351
▁donation	-10.7351
▁corrupt	-10.7351
▁mousetrap	-10.7351
▁practical	-10.7351
▁journey	-10.7351
▁gorgo	-10.7351
▁violation	-10.7351
▁plague	-10.7352
▁distinct	-10.7352
▁tanya	-10.7352
▁crunch	-10.7352
▁snatch	-10.7352
▁catholic	-10.7352
▁panties	-10.7352
▁tsk	-10.7352
▁tappan	-10.7352
▁cried	-10.7352
▁francisco	-10.7352
▁orange	-10.7352
sili	-10.7352
▁nino	-10.7352
▁dennis	-10.7352
▁gregory	-10.7352
▁tanner	-10.7352
▁margot	-10.7352
▁obsession	-10.7352
▁grip	-10.7352
▁steady	-10.7352
▁forehead	-10.7352
▁mush	-10.7352
▁population	-10.7352
▁stiff	-10.7352
▁bugger	-10.7352
▁glory	-10.7352
▁upper	-10.7352
▁membership	-10.7352
▁hostile	-10.7352
▁glue	-10.7352
▁stitch	-10.7352
▁construction	-10.7352
▁harsh	-10.7352
▁slash	-10.7352
▁mmmmmm	-10.7352
▁subway	-10.7352
▁compare	-10.7352
▁newscast	-10.7353
▁british	-10.7353
▁cereal	-10.7353
▁transportation	-10.7353
▁liking	-10.7353
▁terribly	-10.7353
▁dozen	-10.7353
▁boogie	-10.7353
▁performance	-10.7353
▁cornish	-10.7353
▁gap	-10.7353
▁flaw	-10.7353
▁motion	-10.7354
▁warren	-10.7354
▁rice	-10.7354
▁sixteen	-10.7354
▁sammy	-10.7354
▁kong	-10.7354
▁alike	-10.7354
▁foolish	-10.7355
▁budget	-10.7355
▁yup	-10.7355
▁spain	-10.7356
▁footage	-10.7356
▁shrink	-10.7356
▁tech	-10.7356
▁negroes	-10.7356
▁plug	-10.7357
▁hopefully	-10.7357
▁muthafucka	-10.7358
▁column	-10.7358
▁shiny	-10.7358
▁strangled	-10.7359
▁medal	-10.7359
▁tries	-10.7359
▁creative	-10.736
▁restraint	-10.7361
▁infected	-10.7361
▁currently	-10.7361
▁chew	-10.7362
▁murmuring	-10.7362
▁inner	-10.7362
▁nein	-10.7363
▁ahhh	-10.7363
▁polly	-10.7363
▁dna	-10.7363
▁specialty	-10.7364
▁vern	-10.7364
▁wicked	-10.7366
▁maid	-10.7366
▁campus	-10.7367
▁sickness	-10.7368
▁filles	-10.7368
▁tweet	-10.7368
▁weeping	-10.737
▁armor	-10.737
▁complaint	-10.737
▁retreat	-10.7371
▁noble	-10.7371
▁particularly	-10.7372
ney	-10.7372
▁marine	-10.7374
▁mmmm	-10.7374
▁off	-10.7375
▁tender	-10.7376
▁lyrics	-10.7378
▁freezer	-10.7379
▁reasonable	-10.738
▁angela	-10.738
▁stopping	-10.7382
▁eaten	-10.7382
light	-10.7385
▁ban	-10.739
▁sexually	-10.7393
▁useless	-10.7393
▁menu	-10.7395
▁whys	-10.7395
▁performing	-10.7399
▁served	-10.7399
▁crawling	-10.7403
▁rage	-10.7403
berg	-10.7406
▁sl	-10.7406
▁runners	-10.7412
▁suggested	-10.7413
▁finale	-10.7415
▁traditional	-10.7422
▁corpse	-10.7428
▁dumped	-10.7432
▁electric	-10.7436
▁switched	-10.7439
▁nicky	-10.7444
▁howdy	-10.7445
ung	-10.7446
▁wrists	-10.7447
▁mistakes	-10.7449
uck	-10.7453
▁announce	-10.7454
▁nap	-10.7457
▁shithead	-10.7463
▁spiders	-10.7464
▁tons	-10.7466
usse	-10.7475
▁shutter	-10.7476
ial	-10.7484
▁wayne	-10.7484
▁rd	-10.7486
▁considering	-10.7489
▁crossed	-10.7493
ez	-10.7494
▁creatures	-10.7499
▁smoked	-10.7501
▁vera	-10.7509
ised	-10.7511
▁spreading	-10.7518
tra	-10.7519
▁fires	-10.7523
▁hike	-10.7543
ius	-10.7547
▁tacos	-10.7552
▁crashing	-10.7556
▁plants	-10.7557
▁yay	-10.7563
▁mac	-10.7566
▁creeps	-10.7569
▁landing	-10.758
▁int	-10.758
▁diamonds	-10.7604
▁leading	-10.7604
▁clouds	-10.7622
▁hearts	-10.7624
▁turner	-10.7625
▁fully	-10.763
ler	-10.7635
▁shown	-10.7646
▁deed	-10.7646
▁ja	-10.7655
▁puts	-10.7665
▁tab	-10.7669
▁cu	-10.7672
ets	-10.7672
▁products	-10.7675
▁wh	-10.7676
▁caves	-10.7692
▁abu	-10.7693
▁photographs	-10.7694
kin	-10.7716
▁ph	-10.7719
ice	-10.7745
▁deposit	-10.7777
▁lane	-10.7831
▁ke	-10.7834
▁tricks	-10.7889
▁fle	-10.7891
▁gl	-10.7892
▁fields	-10.7904
▁bangs	-10.7923
▁tut	-10.7928
▁begins	-10.7941
plng	-10.7954
▁minds	-10.7955
▁wo	-10.7966
ters	-10.8
▁tracks	-10.8005
▁seek	-10.8068
▁boo	-10.8081
▁daddys	-10.8083
▁reg	-10.8104
▁dec	-10.8107
erto	-10.8127
▁cocks	-10.8133
ified	-10.8138
▁res	-10.8151
ick	-10.8175
▁colors	-10.8199
▁not	-10.8228
lly	-10.8229
▁knee	-10.8234
▁tr	-10.8238
ina	-10.8249
▁ideal	-10.8265
▁tri	-10.8269
▁grunt	-10.8273
▁current	-10.8277
▁desire	-10.8287
▁amateur	-10.8292
▁lesbian	-10.8294
▁cheek	-10.8295
▁intention	-10.8295
▁slice	-10.8297
▁trunk	-10.8299
▁creature	-10.83
▁william	-10.8302
▁survivor	-10.8303
▁occur	-10.8303
▁egg	-10.8303
▁camps	-10.8304
▁twin	-10.8305
▁cookie	-10.8311
▁drum	-10.8314
▁ranger	-10.8318
izing	-10.8329
bu	-10.833
▁fears	-10.8335
ect	-10.8336
▁cra	-10.8355
▁ul	-10.8356
▁ge	-10.8362
▁dancer	-10.8372
▁tests	-10.8372
▁steam	-10.8375
▁rag	-10.838
▁dem	-10.8381
▁distract	-10.8386
▁mini	-10.84
▁mag	-10.8401
ved	-10.8421
▁commission	-10.8421
▁lick	-10.8422
▁confess	-10.8429
wood	-10.8431
▁recover	-10.8432
▁punish	-10.8433
▁reveal	-10.8433
▁discover	-10.8434
low	-10.8439
ular	-10.8439
minute	-10.8441
free	-10.8441
girl	-10.8441
▁apply	-10.8443
▁filth	-10.8445
five	-10.845
two	-10.8452
▁bert	-10.8453
▁mast	-10.8454
▁colombia	-10.8454
play	-10.8456
▁bryan	-10.8456
▁audit	-10.8457
▁opera	-10.8461
▁emil	-10.8461
▁multiple	-10.8462
▁grind	-10.8462
▁confident	-10.8462
▁academy	-10.8463
▁admire	-10.8463
▁arizona	-10.8463
▁athenian	-10.8463
▁aurora	-10.8463
▁bachelor	-10.8463
▁barbecue	-10.8463
▁benefit	-10.8463
▁buffalo	-10.8463
▁caitlin	-10.8463
▁canaris	-10.8463
▁cannon	-10.8463
▁carpenter	-10.8463
▁century	-10.8463
▁cognac	-10.8463
▁columbia	-10.8463
▁database	-10.8463
▁defensive	-10.8463
▁disagree	-10.8463
▁disaster	-10.8463
▁disorder	-10.8463
▁dorfler	-10.8463
▁encounter	-10.8463
▁eversmann	-10.8463
▁false	-10.8463
▁hilarious	-10.8463
▁intimacy	-10.8463
▁inviting	-10.8463
▁kashani	-10.8463
▁kirsten	-10.8463
▁kosher	-10.8463
▁luggage	-10.8463
▁lunatic	-10.8463
▁observation	-10.8463
▁october	-10.8463
▁opposite	-10.8463
▁orleans	-10.8463
▁patience	-10.8463
▁physics	-10.8463
▁reschedule	-10.8463
▁reverend	-10.8463
▁rumspringa	-10.8463
▁selena	-10.8463
▁shark	-10.8463
▁shatters	-10.8463
▁shield	-10.8463
▁sidney	-10.8463
▁struggle	-10.8463
▁suspend	-10.8463
▁talbot	-10.8463
▁timothy	-10.8463
▁unavailable	-10.8463
▁underwear	-10.8463
▁unhappy	-10.8463
▁volume	-10.8463
▁wednesday	-10.8463
▁wizard	-10.8463
▁donor	-10.8463
▁iook	-10.8463
▁niece	-10.8463
▁tampon	-10.8463
shoulda	-10.8463
▁grandpa	-10.8463
▁praise	-10.8463
▁communicate	-10.8463
▁douglas	-10.8463
▁shudders	-10.8463
▁scumbag	-10.8463
▁wendell	-10.8463
▁beloved	-10.8463
▁clerk	-10.8463
▁inappropriate	-10.8463
▁conduct	-10.8463
▁creek	-10.8463
▁aboot	-10.8463
▁modern	-10.8463
▁chiming	-10.8463
▁transmission	-10.8463
▁alibi	-10.8463
▁nawal	-10.8463
▁polite	-10.8463
▁motor	-10.8463
▁arsehole	-10.8463
▁fetch	-10.8463
▁lucy	-10.8463
▁update	-10.8463
▁flare	-10.8463
▁attach	-10.8463
▁execution	-10.8463
▁unique	-10.8463
▁division	-10.8463
▁strapped	-10.8463
▁argue	-10.8463
▁interstate	-10.8463
▁babysitter	-10.8463
▁strap	-10.8463
▁dodge	-10.8463
▁exchange	-10.8463
▁boog	-10.8463
▁chug	-10.8463
▁lalalala	-10.8463
▁article	-10.8463
▁assistance	-10.8463
▁herb	-10.8463
▁mumbling	-10.8463
▁initial	-10.8464
▁aight	-10.8464
▁prank	-10.8464
▁dragged	-10.8464
▁jojo	-10.8464
▁pond	-10.8464
▁clive	-10.8464
▁glen	-10.8464
▁reflection	-10.8464
▁geez	-10.8464
▁expectations	-10.8464
lsey	-10.8464
▁eagle	-10.8464
▁education	-10.8464
▁identified	-10.8464
▁surveillance	-10.8464
▁temporary	-10.8464
▁blog	-10.8464
▁fbl	-10.8464
▁lamb	-10.8464
▁decent	-10.8464
▁task	-10.8464
▁medication	-10.8464
▁leak	-10.8464
▁birack	-10.8464
▁soil	-10.8464
▁puke	-10.8465
▁empire	-10.8465
▁dj	-10.8465
▁perry	-10.8465
▁entry	-10.8466
▁raw	-10.8466
▁moral	-10.8466
▁trish	-10.8466
▁bunny	-10.8466
▁cork	-10.8466
▁gypsy	-10.8466
▁jj	-10.8466
▁snoop	-10.8466
▁claw	-10.8466
▁sasha	-10.8466
▁grid	-10.8467
▁wig	-10.8467
▁roast	-10.8467
▁drummer	-10.8467
▁solution	-10.8467
▁copper	-10.8467
▁uli	-10.8467
▁acid	-10.8467
▁transferred	-10.8468
▁ninety	-10.8468
▁darn	-10.8468
▁notary	-10.8468
▁fried	-10.8468
▁bose	-10.8468
▁buzzes	-10.8468
▁inches	-10.8468
▁bible	-10.8469
▁broom	-10.8469
▁trem	-10.847
▁pledge	-10.847
▁tess	-10.847
▁stalking	-10.847
▁mature	-10.8471
▁reject	-10.8471
▁math	-10.8472
▁brush	-10.8473
▁wheezing	-10.8474
▁constantly	-10.8474
▁tout	-10.8474
▁homework	-10.8475
▁executed	-10.8475
▁delay	-10.8476
▁triple	-10.8476
▁battery	-10.8476
▁lala	-10.8477
▁shove	-10.8477
▁bench	-10.8478
▁shining	-10.8478
▁stack	-10.8479
▁ashes	-10.8479
▁daylight	-10.848
▁haul	-10.848
▁ari	-10.8481
▁thee	-10.8481
▁replaced	-10.8481
▁sum	-10.8482
▁properly	-10.8483
▁switches	-10.8483
▁luv	-10.8483
▁african	-10.8484
▁taik	-10.8484
▁bah	-10.8484
▁spy	-10.8486
▁dl	-10.8487
▁nest	-10.8489
▁emily	-10.8489
▁holland	-10.8489
▁backyard	-10.849
▁grits	-10.8492
▁mutters	-10.8493
▁breed	-10.8493
gging	-10.8494
▁hits	-10.8494
▁novel	-10.8495
▁propose	-10.8495
▁registered	-10.8496
▁raid	-10.8497
▁discussion	-10.8498
▁mansion	-10.8501
▁pickup	-10.8502
▁ana	-10.8504
▁holl	-10.8505
▁jackie	-10.8505
▁bagel	-10.8507
▁latest	-10.8507
▁bounce	-10.8509
▁kay	-10.851
▁veins	-10.8512
▁drowned	-10.8512
▁suffered	-10.8514
▁ruby	-10.8514
▁tada	-10.8517
▁assist	-10.8523
▁kindness	-10.8526
▁designed	-10.8529
▁counts	-10.8529
▁supplies	-10.8531
▁completed	-10.8536
▁pope	-10.8547
ated	-10.8548
▁loosen	-10.8549
▁shortly	-10.855
▁mu	-10.8551
gue	-10.8552
▁title	-10.8552
▁badass	-10.8555
ho	-10.8556
▁hunger	-10.8564
▁donuts	-10.857
▁grenades	-10.857
▁beans	-10.857
▁searched	-10.8571
▁shocking	-10.8571
▁washed	-10.8572
▁structure	-10.8574
▁ver	-10.8577
▁ae	-10.8584
▁gee	-10.8589
▁purchase	-10.8589
▁aids	-10.8599
▁hut	-10.86
▁sakes	-10.861
▁waters	-10.861
▁driven	-10.862
▁trunks	-10.8629
▁marked	-10.8632
▁treating	-10.8634
▁cookies	-10.8641
▁beston	-10.8644
▁sticky	-10.8645
▁toes	-10.8658
gie	-10.8659
▁texting	-10.8662
▁protecting	-10.8663
▁tubes	-10.8678
▁traveler	-10.8687
▁effects	-10.8688
▁bend	-10.8693
▁needle	-10.8696
nce	-10.8699
▁acted	-10.8706
▁threats	-10.8707
▁dated	-10.8714
▁patriot	-10.8717
▁chops	-10.8727
▁shifts	-10.8727
▁remembered	-10.8736
▁secrets	-10.8738
ium	-10.8762
▁seats	-10.8765
▁suckers	-10.8765
▁rec	-10.8766
▁options	-10.8767
▁stealing	-10.8767
▁mayer	-10.8767
so	-10.8771
▁by	-10.8773
▁cuts	-10.8779
▁odds	-10.8786
stein	-10.8791
▁kissed	-10.8795
▁roller	-10.8796
▁zip	-10.884
▁tent	-10.8841
▁gunshots	-10.8846
ole	-10.8849
▁forms	-10.8851
ford	-10.886
▁cousins	-10.8866
▁whistles	-10.8869
▁reed	-10.8876
▁scores	-10.8909
▁blues	-10.8937
▁sales	-10.8942
iological	-10.8942
▁greeks	-10.8945
▁chap	-10.8959
cha	-10.8959
▁sis	-10.8962
▁hem	-10.8981
ison	-10.9001
ins	-10.9004
▁coordinate	-10.9033
▁peters	-10.9058
▁millions	-10.9074
ingle	-10.9079
▁au	-10.9097
▁dorm	-10.9107
eth	-10.9109
▁roads	-10.9109
▁jacked	-10.9137
roll	-10.9169
▁mel	-10.917
ren	-10.9177
▁activate	-10.9182
eastern	-10.9195
ike	-10.9207
▁whoohoo	-10.921
▁ai	-10.9213
tta	-10.9218
ok	-10.9219
rian	-10.9236
▁et	-10.9249
▁nicely	-10.9266
of	-10.9274
▁cats	-10.9277
▁greater	-10.9282
ture	-10.9297
test	-10.9314
▁walks	-10.9318
ado	-10.9351
▁vice	-10.9355
▁hype	-10.9356
▁we	-10.9389
▁showers	-10.939
etic	-10.9397
che	-10.9398
▁kris	-10.9423
▁sho	-10.9436
ologist	-10.944
▁apartments	-10.945
▁ye	-10.945
▁cl	-10.9459
▁bats	-10.9492
▁determine	-10.9499
rock	-10.9507
▁appear	-10.9519
▁electronic	-10.9537
▁session	-10.9538
▁sheet	-10.9538
▁scale	-10.9538
▁knight	-10.9545
bi	-10.9546
▁peanut	-10.9546
▁shadow	-10.9548
▁collar	-10.9548
hem	-10.955
▁chamber	-10.9551
▁ski	-10.9552
▁palmer	-10.956
▁legit	-10.9564
ja	-10.9568
▁fade	-10.957
▁combin	-10.9578
▁prayer	-10.9584
▁here	-10.9589
faced	-10.9607
face	-10.9628
▁buzz	-10.9643
▁organ	-10.9643
art	-10.9656
▁the	-10.966
▁chances	-10.9663
gl	-10.9665
▁hammer	-10.9669
▁studie	-10.9671
▁elses	-10.9671
▁founding	-10.9672
town	-10.9674
▁rais	-10.9675
▁pizzas	-10.9675
room	-10.9676
▁fold	-10.9677
▁depart	-10.9679
▁flood	-10.968
load	-10.9682
ward	-10.9682
▁thrill	-10.9683
▁abandon	-10.9683
▁bind	-10.9684
law	-10.9686
▁profession	-10.9691
piece	-10.9692
▁torture	-10.9693
▁capture	-10.9694
door	-10.9695
beat	-10.9698
bone	-10.9702
▁coloni	-10.9706
▁negro	-10.9706
ki	-10.9706
▁branch	-10.9707
▁function	-10.9707
▁sensation	-10.9707
▁rig	-10.9708
sistance	-10.971
▁civil	-10.9711
▁rang	-10.9711
▁clip	-10.9712
▁profit	-10.9712
▁dahdah	-10.9712
▁exhibit	-10.9712
▁absurd	-10.9713
▁accurate	-10.9713
▁acknowledge	-10.9713
▁airplane	-10.9713
▁algeria	-10.9713
▁alliance	-10.9713
▁alternative	-10.9713
▁anxious	-10.9713
▁asap	-10.9713
▁auction	-10.9713
▁azazel	-10.9713
▁bannerman	-10.9713
▁bannion	-10.9713
▁baxter	-10.9713
▁bishop	-10.9713
▁bleats	-10.9713
▁bonnet	-10.9713
▁chisso	-10.9713
▁competition	-10.9713
▁conscience	-10.9713
▁convenient	-10.9713
▁cycle	-10.9713
▁daedalus	-10.9713
▁destiny	-10.9713
▁diligence	-10.9713
▁disconnect	-10.9713
▁dublin	-10.9713
▁escort	-10.9713
▁forensic	-10.9713
▁franchise	-10.9713
▁frustration	-10.9713
▁georgie	-10.9713
▁gordon	-10.9713
▁harrigan	-10.9713
▁headquarters	-10.9713
▁hoffman	-10.9713
▁intelligent	-10.9713
▁jiang	-10.9713
▁kinkabe	-10.9713
▁kirsch	-10.9713
▁liquor	-10.9713
▁luxury	-10.9713
▁malfunction	-10.9713
▁mercedes	-10.9713
▁moscone	-10.9713
▁muskavich	-10.9713
▁nuclear	-10.9713
▁oberoi	-10.9713
▁orgasm	-10.9713
▁overreact	-10.9713
▁pencil	-10.9713
▁pervert	-10.9713
▁prahba	-10.9713
▁pritchard	-10.9713
▁psychopath	-10.9713
▁relieve	-10.9713
▁rhodes	-10.9713
▁schoolteacher	-10.9713
▁scully	-10.9713
▁servant	-10.9713
▁sniper	-10.9713
▁stadium	-10.9713
▁supermarket	-10.9713
▁territory	-10.9713
▁tevin	-10.9713
▁therapist	-10.9713
▁twombly	-10.9713
▁underpants	-10.9713
▁vibrating	-10.9713
▁voicemail	-10.9713
▁wisconsin	-10.9713
▁convoy	-10.9713
▁frankenstein	-10.9713
▁japanese	-10.9713
▁ninth	-10.9713
▁rhythm	-10.9713
▁torch	-10.9713
▁warehouse	-10.9713
▁yacht	-10.9713
▁knives	-10.9713
▁panicked	-10.9713
▁manifest	-10.9713
▁marijuana	-10.9713
▁heather	-10.9713
▁jukebox	-10.9713
▁susie	-10.9713
▁namaste	-10.9713
▁clich	-10.9713
▁courtesy	-10.9713
▁entrance	-10.9713
▁sacred	-10.9713
▁brooks	-10.9713
▁sorina	-10.9713
▁kryptonite	-10.9713
▁hamburger	-10.9713
▁promotion	-10.9713
▁appetite	-10.9713
▁lavash	-10.9713
▁tropic	-10.9713
▁dodd	-10.9713
▁boundaries	-10.9713
▁pulse	-10.9713
▁supper	-10.9713
▁cahill	-10.9713
▁executive	-10.9713
▁generation	-10.9713
▁mercy	-10.9713
▁anyhow	-10.9713
▁tiger	-10.9713
▁behold	-10.9713
▁addition	-10.9713
▁booze	-10.9713
▁imagination	-10.9713
▁duties	-10.9713
▁shane	-10.9713
▁suze	-10.9713
▁donald	-10.9713
▁vanilla	-10.9713
▁employee	-10.9713
▁adventure	-10.9713
▁jewelry	-10.9713
▁surgery	-10.9713
▁tadder	-10.9713
▁adorable	-10.9713
▁slang	-10.9713
▁picnic	-10.9713
▁paddle	-10.9713
▁influence	-10.9713
▁gracie	-10.9713
▁skeleton	-10.9713
▁chickenshit	-10.9713
▁navy	-10.9713
▁paui	-10.9713
▁polish	-10.9713
▁angie	-10.9713
▁puppy	-10.9713
▁upside	-10.9713
▁rational	-10.9713
▁bride	-10.9714
▁replacement	-10.9714
▁medium	-10.9714
▁oj	-10.9714
▁drama	-10.9714
▁psychotic	-10.9714
▁combination	-10.9714
▁morality	-10.9714
▁tapping	-10.9714
▁nephew	-10.9714
▁rail	-10.9714
▁technology	-10.9714
▁valuable	-10.9714
▁draft	-10.9714
▁jinx	-10.9714
▁romance	-10.9714
▁dripping	-10.9714
▁entertainment	-10.9714
▁raymond	-10.9715
▁deactivated	-10.9715
▁strictly	-10.9715
▁chili	-10.9715
▁hatred	-10.9715
▁priority	-10.9715
▁holster	-10.9715
▁clapping	-10.9715
▁minister	-10.9715
▁popped	-10.9715
▁lockdown	-10.9715
▁fascinating	-10.9715
▁obey	-10.9715
▁thou	-10.9716
▁carrie	-10.9716
▁gangster	-10.9716
▁frickin	-10.9716
▁debra	-10.9716
▁heartbeat	-10.9716
▁fever	-10.9716
▁roldy	-10.9716
▁foul	-10.9716
▁covey	-10.9716
▁fuel	-10.9716
▁isolated	-10.9717
▁skinny	-10.9717
▁whale	-10.9717
▁stepped	-10.9717
▁rainbow	-10.9718
▁hobby	-10.9718
▁wax	-10.9718
▁accused	-10.9718
▁mustache	-10.9718
▁tower	-10.9718
▁dread	-10.9719
▁rapist	-10.9719
▁tracy	-10.9719
▁brass	-10.9719
▁lottery	-10.972
▁privileged	-10.972
▁invented	-10.972
▁relative	-10.9721
▁paso	-10.9721
▁sour	-10.9721
▁firewater	-10.9721
▁korean	-10.9721
▁deline	-10.9722
▁dismissed	-10.9723
▁del	-10.9723
▁por	-10.9723
▁organized	-10.9723
▁rear	-10.9724
▁commissioner	-10.9724
▁spotted	-10.9724
tv	-10.9724
▁enterprise	-10.9725
▁recommendation	-10.9725
▁beliefs	-10.9725
▁sadie	-10.9725
▁peterson	-10.9726
▁halfway	-10.9726
▁taxes	-10.9726
▁ticking	-10.9727
▁studer	-10.9727
▁fur	-10.9728
▁ohhh	-10.9728
▁objection	-10.9729
▁arranged	-10.9729
▁tense	-10.9729
▁prom	-10.9729
▁haha	-10.973
▁related	-10.973
▁coma	-10.973
▁dickhead	-10.9731
▁flush	-10.9731
stand	-10.9731
▁setting	-10.9731
▁metro	-10.9731
▁worthless	-10.9732
▁pic	-10.9732
tch	-10.9735
▁shushing	-10.9736
▁sealed	-10.9737
▁iim	-10.9737
▁inch	-10.9738
▁heroin	-10.9739
▁squeaking	-10.9741
▁maniac	-10.9742
▁okla	-10.9743
▁thrilled	-10.9743
ural	-10.9743
yev	-10.9745
▁shutting	-10.9745
▁brakes	-10.9747
▁punished	-10.9747
▁confessed	-10.9747
▁jilly	-10.9747
▁vat	-10.9751
▁louise	-10.9755
▁cable	-10.9755
▁bully	-10.9764
▁pole	-10.9767
▁explosives	-10.9768
▁yankees	-10.9768
▁scaring	-10.9771
▁sniffl	-10.9774
▁whacked	-10.9775
▁warmer	-10.9776
▁lack	-10.9777
▁boyz	-10.9779
▁buildings	-10.9779
▁earned	-10.9784
▁drowning	-10.9784
▁stillson	-10.9786
▁loudly	-10.9787
▁tearing	-10.9791
▁assure	-10.9792
▁sm	-10.9793
▁unh	-10.9793
▁clubs	-10.98
▁granted	-10.9801
▁coolest	-10.9804
▁ham	-10.981
▁prey	-10.9811
▁proved	-10.9815
▁quicker	-10.9818
▁acts	-10.9819
▁cole	-10.982
▁prisons	-10.9822
lf	-10.9832
▁safer	-10.9834
▁scrap	-10.9835
▁documents	-10.9835
▁sails	-10.9835
▁billboards	-10.9836
▁casting	-10.9836
▁blamed	-10.9837
▁jokes	-10.9838
▁manner	-10.9846
▁standin	-10.9848
▁translates	-10.9851
▁reminded	-10.9852
▁smiled	-10.9852
▁speeding	-10.9852
▁posted	-10.9853
▁ri	-10.9857
▁treated	-10.9857
▁paintings	-10.9858
▁fooled	-10.9858
▁evans	-10.9858
▁coins	-10.9858
▁starve	-10.9871
▁compromise	-10.9876
▁tomas	-10.9878
▁studies	-10.9878
▁peeing	-10.9879
▁shadows	-10.988
▁injur	-10.9882
▁prayers	-10.9888
ara	-10.9906
▁primar	-10.9909
▁blocked	-10.9913
▁rot	-10.9913
▁bothering	-10.9917
▁banker	-10.9933
▁lion	-10.9933
▁cooking	-10.9943
▁pissing	-10.9949
▁parked	-10.996
▁oi	-10.9969
▁jar	-10.997
▁nightmares	-10.9992
▁therese	-10.9997
▁tag	-11.0035
oul	-11.0043
▁joining	-11.0073
mer	-11.0077
shit	-11.0086
ron	-11.0088
rai	-11.0098
min	-11.0106
ata	-11.0112
▁jan	-11.0115
▁til	-11.0117
▁meteor	-11.0124
mp	-11.0136
▁casual	-11.0139
▁sleepy	-11.0182
▁eats	-11.0188
▁tunnels	-11.0196
▁adams	-11.0196
▁contain	-11.02
▁ga	-11.0202
▁ali	-11.0212
▁clues	-11.0219
▁ven	-11.0225
▁cally	-11.0236
hoo	-11.0239
▁workin	-11.0239
▁br	-11.0248
▁cleared	-11.0252
sam	-11.0261
▁graduat	-11.0263
mber	-11.0268
▁aid	-11.0269
▁fame	-11.0281
▁mouthing	-11.0315
lm	-11.0318
ants	-11.0321
▁beats	-11.0331
▁queens	-11.0357
▁kinds	-11.0369
▁ab	-11.0382
▁gil	-11.0384
ew	-11.0404
car	-11.0405
ox	-11.041
▁ol	-11.0425
▁claims	-11.0445
▁pub	-11.0449
van	-11.0457
oca	-11.0467
▁link	-11.0469
▁lone	-11.0472
▁what	-11.0474
▁roles	-11.0494
how	-11.0495
met	-11.051
▁forty	-11.0525
▁poo	-11.0533
ank	-11.0534
▁questioning	-11.0535
▁ap	-11.0539
▁scr	-11.055
▁ev	-11.0565
▁affect	-11.0575
position	-11.0591
ordinary	-11.0663
▁jun	-11.0666
▁texts	-11.0685
▁imitat	-11.0743
▁pulls	-11.0748
ath	-11.0752
▁rum	-11.0756
▁offers	-11.0759
ong	-11.0781
done	-11.0783
▁closest	-11.0798
▁moments	-11.0798
▁micro	-11.08
▁presents	-11.0819
▁emotion	-11.0822
rish	-11.0835
▁ny	-11.0847
my	-11.0865
▁choices	-11.0884
▁plot	-11.0889
▁inn	-11.0895
▁hum	-11.0897
▁pointing	-11.0903
▁gu	-11.0913
▁snor	-11.092
▁react	-11.0927
od	-11.0935
▁cough	-11.0947
gae	-11.096
▁colleague	-11.0965
▁motorcycle	-11.0968
▁signature	-11.0971
▁passenger	-11.0973
ker	-11.0974
▁headache	-11.0975
▁reservation	-11.0977
▁height	-11.0977
▁skill	-11.0977
▁spider	-11.0979
▁source	-11.098
▁glove	-11.0981
▁terrorist	-11.0981
▁weekends	-11.0985
▁mil	-11.0989
▁visitor	-11.0989
▁evan	-11.0992
▁customer	-11.0996
▁chip	-11.1
▁whin	-11.1006
▁soak	-11.1015
▁coin	-11.102
▁nor	-11.1022
▁lip	-11.1045
▁par	-11.1048
▁minu	-11.1057
work	-11.1059
ella	-11.1065
▁toot	-11.1071
▁ton	-11.1081
▁junk	-11.1087
▁weigh	-11.1096
▁fuss	-11.1097
▁goal	-11.1098
▁beds	-11.1101
lock	-11.1101
▁painting	-11.1102
▁steer	-11.1105
▁roar	-11.1106
▁succeed	-11.1107
▁recruit	-11.111
▁trauma	-11.111
▁addict	-11.111
▁cater	-11.111
▁chocolat	-11.111
▁haunt	-11.1112
▁unlock	-11.1112
class	-11.1113
like	-11.1118
old	-11.1119
born	-11.112
type	-11.112
foot	-11.112
▁stall	-11.112
▁engage	-11.112
▁teenage	-11.1121
▁relate	-11.1121
neck	-11.1122
▁include	-11.1123
▁restrain	-11.1128
▁instant	-11.1128
▁batter	-11.1128
▁cruis	-11.1129
▁anonymous	-11.113
▁bree	-11.113
▁permanent	-11.113
▁intens	-11.1131
▁hysterical	-11.1131
▁mug	-11.1131
▁banks	-11.1132
▁invest	-11.1133
▁dd	-11.1133
▁spark	-11.1135
box	-11.1135
▁detect	-11.1137
▁counsel	-11.1138
▁disco	-11.1139
▁condo	-11.1139
mond	-11.114
▁courage	-11.114
▁admira	-11.114
▁serge	-11.1141
partment	-11.1141
▁scholar	-11.1141
▁griev	-11.1141
▁abernathy	-11.1141
▁allergic	-11.1141
▁amistad	-11.1141
▁amnesia	-11.1141
▁anderson	-11.1141
▁arrival	-11.1141
▁atlanta	-11.1141
▁bakersfield	-11.1141
▁bathtub	-11.1141
▁becca	-11.1141
▁beezel	-11.1141
▁biscuit	-11.1141
▁bourbon	-11.1141
▁celebrities	-11.1141
▁ceremony	-11.1141
▁cheerleader	-11.1141
▁chemical	-11.1141
▁circus	-11.1141
▁competitive	-11.1141
▁congrats	-11.1141
▁conspiracy	-11.1141
▁contagio	-11.1141
▁convincing	-11.1141
▁dynamo	-11.1141
▁elderly	-11.1141
▁enemies	-11.1141
▁enlighten	-11.1141
▁exhausted	-11.1141
▁explode	-11.1141
▁extend	-11.1141
▁furniture	-11.1141
▁ghetto	-11.1141
▁halifax	-11.1141
▁hayashi	-11.1141
▁janitor	-11.1141
▁joadson	-11.1141
▁lonzo	-11.1141
▁malibu	-11.1141
▁marwan	-11.1141
▁microwave	-11.1141
▁militia	-11.1141
▁montgomery	-11.1141
▁nowadays	-11.1141
▁obscur	-11.1141
▁occult	-11.1141
▁orchestra	-11.1141
▁ouch	-11.1141
▁principle	-11.1141
▁purging	-11.1141
▁raspberry	-11.1141
▁relations	-11.1141
▁religion	-11.1141
▁ritual	-11.1141
▁sargnt	-11.1141
▁scissors	-11.1141
▁shanna	-11.1141
▁shrimp	-11.1141
▁stepmother	-11.1141
▁storage	-11.1141
▁strategy	-11.1141
▁stream	-11.1141
▁struecker	-11.1141
▁subzero	-11.1141
▁surprising	-11.1141
▁suzie	-11.1141
▁swedish	-11.1141
▁sylvia	-11.1141
▁taguchi	-11.1141
▁terrifying	-11.1141
▁thirsty	-11.1141
▁tragic	-11.1141
▁uncuff	-11.1141
▁website	-11.1141
▁windigo	-11.1141
▁wisdom	-11.1141
▁wolcott	-11.1141
▁abdi	-11.1141
▁acoustic	-11.1141
▁affirmative	-11.1141
▁ahooh	-11.1141
▁countries	-11.1141
▁hirawa	-11.1141
▁panther	-11.1141
▁solving	-11.1141
▁terminal	-11.1141
▁trafficante	-11.1141
▁aggression	-11.1141
▁coffin	-11.1141
▁permit	-11.1141
▁bubbles	-11.1141
▁davis	-11.1141
▁dorn	-11.1141
▁senor	-11.1141
▁automated	-11.1141
▁twitter	-11.1141
▁basis	-11.1141
▁liberation	-11.1141
▁poet	-11.1141
▁racing	-11.1141
▁camilla	-11.1141
▁hotshot	-11.1141
▁civilization	-11.1141
▁sprinkle	-11.1141
▁wesker	-11.1141
▁divine	-11.1141
▁hummus	-11.1141
▁reference	-11.1141
▁rodney	-11.1141
▁surface	-11.1141
▁strung	-11.1141
▁protein	-11.1141
▁institute	-11.1141
▁todd	-11.1141
▁wives	-11.1141
▁untie	-11.1141
▁buff	-11.1141
▁debate	-11.1141
▁assuming	-11.1141
▁england	-11.1141
▁whiskey	-11.1141
▁breach	-11.1141
▁nishi	-11.1141
▁shelf	-11.1141
▁lemonade	-11.1141
▁pistone	-11.1141
▁flank	-11.1141
jay	-11.1142
▁freakshow	-11.1142
ficial	-11.1142
▁knot	-11.1142
▁mangled	-11.1142
▁stash	-11.1142
▁gerry	-11.1142
▁grape	-11.1142
▁after	-11.1142
▁karen	-11.1142
▁manaker	-11.1142
▁labour	-11.1142
▁underwater	-11.1142
▁disney	-11.1142
▁sanderson	-11.1142
lux	-11.1142
▁johan	-11.1142
▁documentary	-11.1142
▁definition	-11.1142
▁typical	-11.1142
▁doggy	-11.1142
▁decline	-11.1142
▁incoming	-11.1142
▁overall	-11.1142
▁quota	-11.1142
levant	-11.1142
▁blowjob	-11.1142
▁luis	-11.1142
▁france	-11.1142
▁antique	-11.1142
▁limp	-11.1142
▁investigator	-11.1142
▁extraordinary	-11.1142
▁rican	-11.1142
▁blend	-11.1142
▁connie	-11.1143
▁hush	-11.1143
▁haircut	-11.1143
▁beak	-11.1143
▁motherinlaw	-11.1143
▁electricity	-11.1143
▁horseshit	-11.1143
▁rapper	-11.1143
▁can	-11.1143
▁authentic	-11.1143
▁purp	-11.1143
▁slit	-11.1143
▁amish	-11.1143
▁feast	-11.1143
▁sidewalk	-11.1143
▁beings	-11.1143
▁crank	-11.1143
▁traitor	-11.1143
▁tonic	-11.1143
▁contest	-11.1143
▁exam	-11.1143
▁forcefully	-11.1143
▁glock	-11.1143
▁panel	-11.1143
▁internal	-11.1144
▁reborn	-11.1144
▁romeo	-11.1144
▁youth	-11.1144
▁severe	-11.1144
▁negotiation	-11.1144
nanana	-11.1144
▁theme	-11.1144
▁tide	-11.1144
▁scent	-11.1144
▁teasing	-11.1144
▁champion	-11.1144
▁halfhour	-11.1145
▁aboard	-11.1145
▁cuz	-11.1145
▁muss	-11.1145
▁confirmation	-11.1145
▁aspirin	-11.1145
▁blackburn	-11.1145
▁caity	-11.1146
▁sunny	-11.1146
▁surgeon	-11.1146
▁faithful	-11.1146
▁bertra	-11.1146
▁reiner	-11.1146
▁unload	-11.1146
▁rehab	-11.1146
▁tripping	-11.1146
▁western	-11.1146
▁weakness	-11.1147
▁investigating	-11.1147
▁fitting	-11.1147
▁dishes	-11.1147
▁committed	-11.1147
▁toad	-11.1147
▁lamp	-11.1148
▁whim	-11.1148
▁arise	-11.1148
▁conscious	-11.1149
▁dug	-11.115
▁tooth	-11.115
▁potatoes	-11.115
▁muttering	-11.1151
▁serving	-11.1151
▁july	-11.1151
▁controlled	-11.1152
▁barton	-11.1152
▁hugh	-11.1153
▁agreement	-11.1153
▁princess	-11.1153
▁runaway	-11.1153
▁perish	-11.1153
ber	-11.1154
▁ann	-11.1154
▁assign	-11.1154
▁arse	-11.1154
▁jive	-11.1155
▁australian	-11.1155
▁ssh	-11.1155
▁restricted	-11.1155
▁harrison	-11.1156
▁annoying	-11.1157
▁seventh	-11.1157
▁skipper	-11.1157
cero	-11.1157
▁ada	-11.1157
▁threatened	-11.1158
▁buckley	-11.1158
▁unclear	-11.1158
▁server	-11.1159
▁dumbass	-11.1159
▁beaten	-11.116
▁slightly	-11.116
▁ability	-11.116
▁takin	-11.1161
▁included	-11.1161
for	-11.1165
▁sixty	-11.1166
▁factor	-11.1167
▁pity	-11.1168
▁lighten	-11.1168
▁hound	-11.1169
▁cabin	-11.1169
▁designer	-11.117
▁ants	-11.1171
▁fist	-11.1171
▁refer	-11.1171
▁soaked	-11.1172
▁physically	-11.1173
▁wanda	-11.1173
▁required	-11.1174
▁sniffing	-11.1175
▁naturally	-11.1176
▁solo	-11.1176
▁creepy	-11.1177
▁removed	-11.1177
▁pacific	-11.1178
▁ville	-11.1179
▁originally	-11.118
▁verse	-11.118
▁rhymes	-11.1181
▁titties	-11.1181
▁refugees	-11.1182
▁ew	-11.1183
▁recovered	-11.1183
▁dusty	-11.1187
▁ricky	-11.1188
look	-11.1188
▁loop	-11.119
▁morris	-11.1191
▁amend	-11.1193
▁killian	-11.1194
▁ringo	-11.1194
▁vet	-11.1195
▁sore	-11.1197
▁cling	-11.1198
▁depending	-11.1201
▁offender	-11.1202
▁licking	-11.1203
▁twisted	-11.1205
▁interrupting	-11.1205
▁beatles	-11.1206
▁planted	-11.1207
▁bumper	-11.1207
▁cutie	-11.1208
▁oy	-11.121
▁blink	-11.121
▁lapd	-11.1211
▁nell	-11.1212
▁pouring	-11.1213
▁transmitt	-11.1214
▁gel	-11.1214
▁warned	-11.1216
▁barks	-11.1216
▁cuse	-11.1218
▁dimitri	-11.122
▁spa	-11.1222
▁wins	-11.1227
▁tricky	-11.1228
▁jen	-11.123
▁flowing	-11.1231
▁introduced	-11.1234
▁cured	-11.1236
▁gen	-11.1237
▁beard	-11.1238
▁classes	-11.124
▁dere	-11.1242
▁dots	-11.1244
eight	-11.1245
▁delivered	-11.1248
▁shocked	-11.1252
▁decades	-11.1258
▁weirdo	-11.1259
▁virginia	-11.126
▁cracking	-11.1265
▁discussed	-11.1267
▁para	-11.1269
▁content	-11.1269
▁stoned	-11.1272
▁spook	-11.1274
▁ju	-11.1276
▁creat	-11.1282
▁samples	-11.1284
▁involve	-11.1296
▁belly	-11.1296
▁filling	-11.1298
ery	-11.13
▁oral	-11.1303
▁heights	-11.131
▁requested	-11.1311
▁praying	-11.1312
▁and	-11.1313
▁trucks	-11.1319
▁tale	-11.132
▁feeding	-11.1322
▁locks	-11.1328
azy	-11.1329
ast	-11.1331
▁blessed	-11.1333
▁collars	-11.1336
▁peanuts	-11.1336
▁marrying	-11.1347
▁troubles	-11.1352
▁bets	-11.1353
▁beers	-11.1354
▁ir	-11.1361
▁slices	-11.1362
▁af	-11.1367
▁compassion	-11.1378
▁rotte	-11.1384
▁breasts	-11.1388
▁formal	-11.1389
part	-11.139
▁raining	-11.1397
▁snapp	-11.1397
▁comic	-11.1398
▁pd	-11.1399
▁noons	-11.1405
▁thumbs	-11.1415
▁prints	-11.1415
sex	-11.1418
▁crackers	-11.1422
▁finn	-11.1422
▁reaching	-11.1423
▁houses	-11.1425
▁wally	-11.143
rate	-11.1431
▁dea	-11.1433
▁dent	-11.1434
▁listing	-11.1435
▁pipes	-11.1437
▁psych	-11.1439
▁hose	-11.1449
▁flipp	-11.1458
style	-11.1462
▁joined	-11.1464
▁thy	-11.1464
▁sucked	-11.1467
aged	-11.1478
▁sides	-11.148
ami	-11.1482
▁cher	-11.1491
▁tools	-11.1494
▁frankly	-11.1497
▁bugs	-11.1499
wing	-11.1515
▁treasures	-11.152
▁explained	-11.1524
ors	-11.1526
vard	-11.153
▁translate	-11.154
zed	-11.1541
▁hy	-11.1544
▁directions	-11.1548
▁fore	-11.156
▁salts	-11.1566
▁hid	-11.157
▁finishing	-11.1573
kes	-11.1595
▁cows	-11.1599
▁awards	-11.1599
tte	-11.1603
all	-11.1619
▁seize	-11.1629
▁explaining	-11.1637
een	-11.166
▁meals	-11.1676
▁camel	-11.1678
▁magazines	-11.1679
▁dar	-11.1679
sta	-11.1685
was	-11.1687
misunderstanding	-11.1692
▁cripple	-11.1713
▁workers	-11.1716
▁teachers	-11.1724
▁pave	-11.173
▁chass	-11.1731
argh	-11.1752
rated	-11.1754
▁tan	-11.1761
ugh	-11.1766
▁signing	-11.1784
hu	-11.1786
▁costs	-11.1788
▁sw	-11.1788
▁ther	-11.1797
▁gangs	-11.1809
▁monkeys	-11.1812
▁hel	-11.1818
▁tables	-11.184
uc	-11.1841
▁technical	-11.1851
▁sevens	-11.1854
arm	-11.1874
iie	-11.1876
ative	-11.1879
og	-11.1883
ility	-11.1886
▁swor	-11.1897
▁bears	-11.1903
▁familys	-11.1922
▁qu	-11.1941
▁doz	-11.1952
▁rev	-11.1968
▁hoped	-11.199
▁trad	-11.2006
gate	-11.2028
▁mario	-11.2035
▁butts	-11.2045
▁stays	-11.2046
▁curl	-11.2065
mar	-11.2093
▁tro	-11.2106
▁meetings	-11.211
▁fu	-11.2139
cle	-11.2144
▁stat	-11.2145
cie	-11.2153
▁decisions	-11.2191
▁marsha	-11.2209
▁gifts	-11.2212
yo	-11.2214
▁bu	-11.2222
▁inc	-11.2226
▁cub	-11.2237
mming	-11.2245
she	-11.2266
▁hen	-11.2268
▁babys	-11.2306
ric	-11.2338
ties	-11.2341
ib	-11.2349
bl	-11.235
▁vest	-11.235
▁pursue	-11.2378
tina	-11.2381
▁marg	-11.2402
▁amb	-11.2419
▁fre	-11.2428
corn	-11.2431
iii	-11.2444
ening	-11.2448
ence	-11.2457
▁ont	-11.2473
▁with	-11.2486
uk	-11.2488
are	-11.2499
▁pea	-11.2501
ov	-11.2519
▁sniff	-11.2525
▁eighth	-11.2532
oli	-11.2546
▁barn	-11.2557
▁trains	-11.2565
▁fits	-11.2577
▁boyfriends	-11.2582
▁clatter	-11.2601
▁sail	-11.2611
▁groan	-11.2614
▁bean	-11.2618
▁pill	-11.2624
▁banana	-11.2632
▁superior	-11.2632
▁illusion	-11.2632
▁circuit	-11.2634
▁urge	-11.2635
▁homo	-11.2637
▁orphan	-11.2638
▁grenade	-11.2644
▁document	-11.2644
▁sample	-11.2644
▁stripper	-11.2645
▁donut	-11.2645
▁wrist	-11.2645
▁tactic	-11.2647
▁billboard	-11.2647
han	-11.2654
▁tit	-11.2659
▁pleasures	-11.266
▁cla	-11.2664
▁spartan	-11.2666
▁corps	-11.2678
▁tradition	-11.2687
▁flower	-11.2695
▁der	-11.2699
yard	-11.2701
▁shak	-11.2703
▁dat	-11.2706
▁pla	-11.2711
▁bake	-11.2723
▁vow	-11.2732
▁strain	-11.2735
▁offend	-11.2737
fish	-11.2743
▁heal	-11.2749
▁flirt	-11.2766
▁squawk	-11.2767
▁squeak	-11.2768
book	-11.2772
▁sk	-11.2776
▁accomplish	-11.2777
cell	-11.2779
teen	-11.278
▁produce	-11.2781
▁ditche	-11.2781
craft	-11.2784
heart	-11.2784
ability	-11.2785
print	-11.2786
fashion	-11.2786
▁arrange	-11.2786
▁retire	-11.2787
yeah	-11.2787
▁greed	-11.2788
fall	-11.2788
made	-11.2788
▁australia	-11.2792
▁replace	-11.2793
itation	-11.2793
▁thems	-11.2794
pot	-11.2796
▁courageous	-11.2796
mara	-11.2796
fore	-11.2797
▁maze	-11.2798
▁iris	-11.2799
▁puss	-11.2799
stone	-11.2801
▁tomato	-11.2801
ench	-11.2805
▁sittin	-11.2806
▁reflect	-11.2806
▁consult	-11.2807
▁lemon	-11.2807
▁cigar	-11.2808
▁chuff	-11.2808
▁infiltrat	-11.2808
▁accelerat	-11.2808
▁accomplice	-11.2808
▁akiko	-11.2808
▁amigo	-11.2808
▁ammunition	-11.2808
▁anchor	-11.2808
▁ashtray	-11.2808
▁august	-11.2808
▁austin	-11.2808
▁berynium	-11.2808
▁blunt	-11.2808
▁bookmark	-11.2808
▁brandnew	-11.2808
▁butterscotch	-11.2808
▁celebration	-11.2808
▁celebrity	-11.2808
▁claustrophobi	-11.2808
▁compound	-11.2808
▁conflict	-11.2808
▁corporal	-11.2808
▁corpus	-11.2808
▁council	-11.2808
▁dejeune	-11.2808
▁devote	-11.2808
▁discount	-11.2808
▁dixie	-11.2808
▁eclipse	-11.2808
▁economy	-11.2808
▁educate	-11.2808
▁erections	-11.2808
▁eugene	-11.2808
▁finsecker	-11.2808
▁frightened	-11.2808
▁fugitive	-11.2808
▁fulbright	-11.2808
▁galentine	-11.2808
▁gardner	-11.2808
▁georgia	-11.2808
▁gracias	-11.2808
▁griga	-11.2808
▁guinea	-11.2808
▁hazard	-11.2808
▁hazmat	-11.2808
▁hitchhiker	-11.2808
▁ibabe	-11.2808
▁identify	-11.2808
▁increase	-11.2808
▁isolation	-11.2808
▁jennifer	-11.2808
▁jordan	-11.2808
▁juicy	-11.2808
▁jupiter	-11.2808
▁karma	-11.2808
▁katherine	-11.2808
▁kempeitai	-11.2808
▁ketchup	-11.2808
▁koushik	-11.2808
▁lenore	-11.2808
▁libby	-11.2808
▁limousine	-11.2808
▁loomis	-11.2808
▁lorenzo	-11.2808
▁mafia	-11.2808
▁maggots	-11.2808
▁mamma	-11.2808
▁maneuver	-11.2808
▁masturbate	-11.2808
▁mcknight	-11.2808
▁mclaughlin	-11.2808
▁meddows	-11.2808
▁medivac	-11.2808
▁mimic	-11.2808
▁minimum	-11.2808
▁moscow	-11.2808
▁mulvaney	-11.2808
▁mungo	-11.2808
▁obligation	-11.2808
▁obtain	-11.2808
▁octopus	-11.2808
▁outstanding	-11.2808
▁password	-11.2808
▁pendejo	-11.2808
▁pingpong	-11.2808
▁pizzeria	-11.2808
▁poltergeist	-11.2808
▁psychoplasmics	-11.2808
▁qualities	-11.2808
▁raleigh	-11.2808
▁randall	-11.2808
▁razor	-11.2808
▁reckon	-11.2808
▁reinforcements	-11.2808
▁rejoice	-11.2808
▁reputation	-11.2808
▁semester	-11.2808
▁serpent	-11.2808
▁sheffield	-11.2808
▁shrieks	-11.2808
▁slesers	-11.2808
▁smother	-11.2808
▁species	-11.2808
▁spectacular	-11.2808
▁sponsor	-11.2808
▁stateoftheart	-11.2808
▁steroids	-11.2808
▁strand	-11.2808
▁striking	-11.2808
▁struggling	-11.2808
▁tambourine	-11.2808
▁travers	-11.2808
▁ulysses	-11.2808
▁unfair	-11.2808
▁unintelligibl	-11.2808
▁vengeance	-11.2808
▁vibrator	-11.2808
▁violet	-11.2808
▁violin	-11.2808
▁vulnerab	-11.2808
▁wardrobe	-11.2808
▁welfare	-11.2808
▁widow	-11.2808
▁xander	-11.2808
▁arnold	-11.2808
▁bikini	-11.2808
▁ceiling	-11.2808
▁envy	-11.2808
▁liddy	-11.2808
▁marilyn	-11.2808
▁mkay	-11.2808
▁outlaws	-11.2808
▁angle	-11.2808
▁directress	-11.2808
▁meredith	-11.2808
▁offworld	-11.2808
▁reilly	-11.2808
▁shivering	-11.2808
▁yelp	-11.2808
▁abnormal	-11.2808
▁carpet	-11.2808
▁collapse	-11.2808
▁evacuate	-11.2808
▁jupe	-11.2808
▁langley	-11.2808
▁repuls	-11.2808
▁authorities	-11.2808
▁gossip	-11.2808
▁omelet	-11.2808
▁pedro	-11.2808
▁ahmad	-11.2808
▁kroy	-11.2808
▁montes	-11.2808
▁programmed	-11.2808
▁baltimore	-11.2808
▁consent	-11.2808
▁swamp	-11.2808
▁partygoer	-11.2808
▁penthouse	-11.2808
▁coroner	-11.2808
▁favour	-11.2808
▁franklin	-11.2808
▁italy	-11.2808
▁nitro	-11.2808
▁yule	-11.2808
▁lnternet	-11.2808
▁democracy	-11.2808
▁loneliness	-11.2808
gdi	-11.2808
ibility	-11.2808
▁crotch	-11.2808
▁gambl	-11.2808
▁hehhehheh	-11.2808
▁bloom	-11.2808
▁patrick	-11.2808
▁voil	-11.2808
▁helmet	-11.2808
▁oxygen	-11.2808
▁sunset	-11.2808
▁colony	-11.2808
▁unpatriotic	-11.2808
▁ireland	-11.2808
▁kinney	-11.2808
▁activity	-11.2808
▁confusing	-11.2808
▁hydrant	-11.2808
▁ignorant	-11.2808
▁pappa	-11.2808
▁skating	-11.2808
▁skank	-11.2808
▁automobile	-11.2808
▁urban	-11.2808
▁concentration	-11.2808
▁deception	-11.2808
▁hector	-11.2808
▁salvation	-11.2808
▁lindsay	-11.2808
▁joshua	-11.2808
▁shakily	-11.2808
▁outbreak	-11.2808
▁breeze	-11.2808
▁tolerate	-11.2808
▁blanc	-11.2808
▁oops	-11.2808
▁swanson	-11.2808
▁submissive	-11.2808
▁drape	-11.2808
▁recip	-11.2808
▁expelled	-11.2808
▁chainsaw	-11.2808
▁jangl	-11.2808
▁absent	-11.2808
▁gretta	-11.2808
▁flint	-11.2808
▁suspicious	-11.2808
▁designated	-11.2808
▁disappointment	-11.2808
▁excitement	-11.2808
▁annihilator	-11.2808
▁clipping	-11.2808
▁heck	-11.2808
▁deput	-11.2809
▁joanne	-11.2809
▁craig	-11.2809
▁comedian	-11.2809
▁dramatic	-11.2809
▁item	-11.2809
▁edgar	-11.2809
▁bruce	-11.2809
▁admirable	-11.2809
▁mouse	-11.2809
▁infection	-11.2809
▁triton	-11.2809
▁galway	-11.2809
▁puff	-11.2809
▁straighten	-11.2809
▁silk	-11.2809
▁necklace	-11.2809
▁rico	-11.2809
▁campbell	-11.2809
▁slipped	-11.2809
▁hyah	-11.2809
▁bridgewater	-11.2809
▁loo	-11.2809
▁rosewood	-11.2809
▁brew	-11.2809
▁lecture	-11.2809
▁theft	-11.2809
▁telescope	-11.2809
▁specifically	-11.2809
▁japan	-11.2809
▁marcy	-11.2809
▁terra	-11.2809
▁dentist	-11.2809
▁overnight	-11.2809
▁retirement	-11.2809
▁knoxville	-11.2809
▁limo	-11.2809
▁engl	-11.2809
shi	-11.2809
▁necessarily	-11.2809
▁dummy	-11.2809
▁denial	-11.2809
▁huey	-11.281
▁extraction	-11.281
▁valley	-11.281
▁trenches	-11.281
▁engagement	-11.281
▁blah	-11.281
nshaw	-11.281
▁bloke	-11.281
▁farsi	-11.281
▁whatll	-11.281
▁hooah	-11.281
▁roadblock	-11.281
▁chaos	-11.281
▁planko	-11.281
▁happier	-11.281
▁rebound	-11.281
▁whyg	-11.281
▁manhattan	-11.281
▁pluto	-11.281
▁wagon	-11.281
▁warfare	-11.281
▁absorb	-11.281
▁pony	-11.281
▁essential	-11.281
▁stanley	-11.281
▁bash	-11.281
▁roland	-11.281
▁scout	-11.281
▁graduation	-11.281
▁announcement	-11.281
▁scholarship	-11.281
▁slavery	-11.281
▁dink	-11.2811
▁napkin	-11.2811
▁stake	-11.2811
▁brace	-11.2811
▁diction	-11.2811
▁injection	-11.2811
▁scum	-11.2811
▁tapped	-11.2811
▁terrorism	-11.2811
▁wrapped	-11.2811
▁barber	-11.2811
▁groove	-11.2811
▁princeton	-11.2811
ujo	-11.2811
▁development	-11.2811
▁cuddle	-11.2811
▁salami	-11.2812
▁apc	-11.2812
▁jessie	-11.2812
lab	-11.2812
▁fran	-11.2812
▁lois	-11.2812
▁mainland	-11.2812
▁overhead	-11.2812
▁trafficking	-11.2812
▁shipped	-11.2812
▁stokely	-11.2813
▁jamaican	-11.2813
▁hoak	-11.2813
▁benny	-11.2813
▁journalist	-11.2813
▁shipping	-11.2813
▁resistance	-11.2813
▁flames	-11.2813
▁linda	-11.2813
▁jac	-11.2813
▁aidid	-11.2814
▁dedicated	-11.2814
▁fulfill	-11.2814
▁troll	-11.2814
▁heke	-11.2814
▁powder	-11.2814
▁abra	-11.2814
▁atlanti	-11.2814
▁shore	-11.2814
▁tomatoes	-11.2814
▁facebook	-11.2814
▁alcoholic	-11.2815
itage	-11.2815
▁jeanne	-11.2815
▁alter	-11.2815
▁sensational	-11.2815
▁fusses	-11.2815
▁hangover	-11.2816
▁remarkable	-11.2816
▁aww	-11.2816
▁basket	-11.2816
▁rolex	-11.2816
▁feature	-11.2816
▁plantation	-11.2816
▁crispy	-11.2816
▁everyday	-11.2816
▁crooked	-11.2816
▁gma	-11.2816
▁inspired	-11.2816
rence	-11.2816
▁penny	-11.2816
▁mitchell	-11.2817
▁cj	-11.2817
▁ross	-11.2817
▁prob	-11.2818
▁immune	-11.2818
come	-11.2818
▁mave	-11.2818
▁poly	-11.2818
▁tita	-11.2819
▁fitness	-11.2819
▁mole	-11.2819
▁goofy	-11.282
▁yoga	-11.282
▁ciao	-11.282
▁elias	-11.282
fan	-11.2821
▁moss	-11.2821
▁heroic	-11.2821
▁inventor	-11.2821
▁fee	-11.2821
▁fax	-11.2821
▁disappointed	-11.2823
▁hustler	-11.2823
▁shovel	-11.2824
▁capable	-11.2825
▁narcotics	-11.2825
▁syd	-11.2827
▁ofthe	-11.2828
▁data	-11.2828
▁mia	-11.2828
▁emma	-11.283
▁machines	-11.283
▁anne	-11.283
▁examiner	-11.283
▁balti	-11.2831
▁sara	-11.2832
▁wink	-11.2832
▁teenager	-11.2833
▁erm	-11.2833
▁streaking	-11.2833
ena	-11.2834
▁drawn	-11.2834
▁factory	-11.2834
▁arti	-11.2835
▁mice	-11.2835
▁impress	-11.2835
▁captured	-11.2836
self	-11.2836
▁nod	-11.2837
▁successfully	-11.2837
▁forgetting	-11.2838
▁nearest	-11.2839
▁accomplished	-11.2839
▁mona	-11.2839
▁penises	-11.284
▁amaze	-11.2841
▁dish	-11.2841
▁hotter	-11.2843
▁approved	-11.2843
▁addicted	-11.2844
▁matches	-11.2848
▁healing	-11.2848
▁musician	-11.285
▁appeared	-11.2851
iber	-11.2852
tory	-11.2853
▁topic	-11.2853
▁teen	-11.2853
▁shaved	-11.2854
▁erased	-11.2855
▁legally	-11.2855
jack	-11.2855
▁communications	-11.2855
▁implants	-11.2855
▁politicians	-11.2855
▁vibrates	-11.2855
▁charts	-11.2855
▁revealed	-11.2856
▁directly	-11.2856
▁perfection	-11.2861
▁copies	-11.2862
ican	-11.2862
▁skiing	-11.2863
▁taser	-11.2866
▁kidnapped	-11.2867
▁budd	-11.2868
▁fuckface	-11.2868
▁damaged	-11.2868
▁nailed	-11.2869
▁assumed	-11.2869
▁reminder	-11.287
▁seal	-11.2872
▁mat	-11.2873
burger	-11.2874
▁junkie	-11.2876
▁smithy	-11.2877
▁burnt	-11.2879
▁conf	-11.288
eyed	-11.288
▁wiped	-11.2881
▁dolphins	-11.2886
▁snarls	-11.2886
nows	-11.2888
▁filed	-11.289
▁playlng	-11.2893
▁era	-11.2895
▁climbed	-11.2896
▁rim	-11.2901
▁recognized	-11.2901
▁settled	-11.2904
▁issued	-11.2907
▁alexand	-11.2909
ryl	-11.2909
▁highest	-11.291
▁insisted	-11.2912
▁euros	-11.2917
▁frogs	-11.2917
▁inmates	-11.2918
▁baker	-11.2919
▁kisses	-11.292
▁chicky	-11.2922
▁sinking	-11.2923
▁begg	-11.2923
▁humping	-11.2924
▁cds	-11.2925
▁ni	-11.2933
▁fairly	-11.2936
▁tanker	-11.2936
▁hint	-11.2941
▁carson	-11.2943
▁vu	-11.2943
▁helpful	-11.2945
▁sew	-11.2948
▁candles	-11.2948
▁farting	-11.2949
▁cuffs	-11.295
▁suggesting	-11.2951
▁conditioning	-11.2957
▁processed	-11.2958
▁touches	-11.2963
▁prayed	-11.2964
▁chasing	-11.2969
▁charged	-11.2972
▁bois	-11.2973
▁tactics	-11.2976
▁strippers	-11.298
▁pale	-11.2981
▁existed	-11.2992
▁ip	-11.2994
▁cans	-11.2998
▁videos	-11.2999
▁peed	-11.3002
sync	-11.3002
▁entering	-11.3003
▁drawer	-11.3004
▁jerking	-11.3004
▁bare	-11.3007
▁steele	-11.301
▁skills	-11.301
▁reservations	-11.301
▁passengers	-11.301
▁slu	-11.301
▁wu	-11.3012
▁bin	-11.3013
▁emotions	-11.3014
▁pad	-11.3019
▁modeling	-11.302
▁coaching	-11.3025
▁rely	-11.303
▁comedy	-11.3036
▁marching	-11.3038
▁pasta	-11.3043
ya	-11.3045
▁palmers	-11.3046
▁rolls	-11.3047
▁protected	-11.3054
▁lighter	-11.3055
▁honky	-11.3066
▁drinkin	-11.3067
▁appreciated	-11.3071
▁cheeks	-11.3073
▁lesbians	-11.3073
▁intentions	-11.3073
▁drums	-11.3073
lne	-11.3076
▁pretending	-11.3077
▁peep	-11.3078
▁importantly	-11.3082
gr	-11.3086
ona	-11.3088
lic	-11.3088
ore	-11.3098
▁starr	-11.3104
oop	-11.3113
▁rocky	-11.3117
hour	-11.312
ington	-11.312
▁rad	-11.3124
▁tur	-11.3132
what	-11.3133
▁blades	-11.3136
▁persians	-11.3136
▁piranhas	-11.3136
▁quarters	-11.3136
▁crossing	-11.3137
▁nails	-11.3139
▁def	-11.3143
▁returned	-11.3147
▁peek	-11.3147
▁scars	-11.3152
▁watchin	-11.3154
▁laughed	-11.3157
▁rapids	-11.3166
▁muscles	-11.3167
▁coo	-11.3173
cam	-11.3174
▁mari	-11.3187
▁askin	-11.3188
▁mata	-11.3188
▁grandmothers	-11.3199
lia	-11.3202
innit	-11.322
▁sy	-11.3225
▁opinions	-11.323
▁packages	-11.323
ub	-11.3232
dog	-11.3243
▁ple	-11.3247
▁closely	-11.325
read	-11.326
▁emails	-11.3262
▁nerves	-11.3262
pack	-11.3269
▁ward	-11.327
▁earl	-11.3282
▁linen	-11.3285
▁explosions	-11.3294
▁trapp	-11.3311
▁winners	-11.3325
▁za	-11.3345
▁unfi	-11.3355
▁ned	-11.3357
▁cakes	-11.3357
▁signals	-11.3358
▁wounds	-11.3359
▁chen	-11.3359
inary	-11.3365
▁lv	-11.3367
inch	-11.3374
▁strings	-11.3389
habi	-11.339
tti	-11.3401
▁scares	-11.3404
ition	-11.3421
▁christy	-11.343
east	-11.3436
▁tanks	-11.3455
▁participate	-11.3468
▁deadly	-11.3478
▁vehicles	-11.3485
▁ipads	-11.3485
▁bridges	-11.3485
▁nebs	-11.3486
▁arrives	-11.3486
▁shapes	-11.3488
▁nations	-11.3492
▁dreamed	-11.3501
▁scramble	-11.3519
▁ani	-11.3522
▁hangs	-11.3535
▁rebel	-11.3544
▁cont	-11.3544
▁projects	-11.355
▁hollow	-11.355
eta	-11.3553
ological	-11.3564
▁humans	-11.3575
▁flu	-11.3579
▁moons	-11.3583
gger	-11.3586
▁mcc	-11.3591
▁uni	-11.3608
▁bur	-11.3612
zzle	-11.3627
▁hunters	-11.363
▁simulat	-11.3631
▁ll	-11.3672
▁seasons	-11.3679
▁jackets	-11.3687
ital	-11.3688
▁waitin	-11.3695
▁conc	-11.3699
▁pubes	-11.3702
mus	-11.3704
▁corr	-11.3707
▁prices	-11.3711
▁foleys	-11.3711
cilla	-11.3718
▁asks	-11.3725
▁magical	-11.3732
▁ordering	-11.374
lar	-11.3742
▁whores	-11.3745
▁masters	-11.3748
ttie	-11.3749
▁grad	-11.377
ame	-11.3771
erra	-11.3774
▁flam	-11.3776
▁schools	-11.3778
▁toi	-11.379
ttle	-11.3804
▁pilots	-11.3809
▁joi	-11.3816
▁bing	-11.3816
▁lighting	-11.3817
ummy	-11.3839
yle	-11.384
ora	-11.3874
▁luci	-11.3877
qu	-11.3898
▁senses	-11.39
▁heavens	-11.3907
writer	-11.3923
▁diar	-11.3925
bre	-11.3937
▁vin	-11.3939
▁desalvos	-11.394
ids	-11.3945
▁moo	-11.3948
date	-11.3965
▁operations	-11.3973
rified	-11.3973
grade	-11.3975
▁drives	-11.3984
▁dip	-11.3988
▁circl	-11.3989
▁ele	-11.3994
▁bre	-11.4007
bell	-11.4008
▁cam	-11.403
▁shi	-11.4072
nies	-11.4086
lie	-11.409
▁charle	-11.4112
ied	-11.4113
▁grows	-11.4171
▁plea	-11.4175
▁gag	-11.4189
▁bolt	-11.42
ads	-11.4202
gs	-11.4205
▁watcher	-11.4231
maker	-11.4232
▁tang	-11.4232
▁sled	-11.4259
▁breaker	-11.4278
▁arab	-11.4279
ita	-11.4279
▁mines	-11.4307
tal	-11.4315
▁marks	-11.4324
▁nurs	-11.4326
zing	-11.4328
pla	-11.437
ooooo	-11.439
▁wak	-11.4392
ookie	-11.4417
ddle	-11.4435
gar	-11.4438
▁clo	-11.4446
▁shirts	-11.4473
▁smiles	-11.4479
agging	-11.4482
▁reds	-11.4484
air	-11.4485
mes	-11.4495
▁digit	-11.4502
nk	-11.4522
▁cro	-11.4532
▁involv	-11.4534
ko	-11.4553
ming	-11.4553
▁shooter	-11.4568
▁deals	-11.4568
ider	-11.457
icu	-11.4576
▁inde	-11.4576
ight	-11.4582
▁scan	-11.459
tz	-11.4593
izer	-11.4602
▁length	-11.4624
▁margarita	-11.4624
▁shaft	-11.4624
▁concert	-11.4624
▁rpg	-11.4624
▁crystal	-11.4627
▁rehearsal	-11.4632
▁await	-11.4632
▁nipple	-11.4632
▁suggestion	-11.4633
▁savage	-11.4637
▁warrior	-11.4637
icle	-11.4637
▁bir	-11.4638
▁towel	-11.4638
▁arrangement	-11.4638
▁candle	-11.4639
▁paramedic	-11.464
▁cuff	-11.464
▁decade	-11.4642
▁rocket	-11.4644
ubby	-11.4648
▁civilian	-11.4649
▁stair	-11.4652
uce	-11.4659
▁disk	-11.4664
pie	-11.467
▁ti	-11.467
▁planes	-11.4672
sale	-11.4681
▁sup	-11.4693
oke	-11.4704
▁payment	-11.4705
gow	-11.4723
▁writ	-11.4723
▁origin	-11.4728
hoe	-11.4742
▁spoo	-11.4744
nut	-11.4745
▁departments	-11.4746
▁employ	-11.4763
▁greet	-11.4766
▁tempt	-11.4766
▁prepar	-11.4769
▁releas	-11.4769
▁possess	-11.4772
▁install	-11.4775
uh	-11.4777
▁caus	-11.4777
flower	-11.4778
boat	-11.4779
hand	-11.478
itts	-11.4781
yearold	-11.4784
▁blar	-11.4786
point	-11.4786
pipe	-11.4786
ofthe	-11.4786
block	-11.4786
take	-11.4786
ghostface	-11.4786
seven	-11.4787
year	-11.4787
mouth	-11.4787
six	-11.4787
cock	-11.4788
berry	-11.4788
▁achieve	-11.4788
▁residenc	-11.4789
▁shush	-11.4789
mal	-11.4789
wide	-11.4789
▁execute	-11.479
mona	-11.4792
think	-11.4793
▁korea	-11.4793
▁wick	-11.4793
▁buckle	-11.4794
▁precise	-11.4796
quinn	-11.4797
▁tow	-11.4797
▁colum	-11.4798
▁mort	-11.4799
▁prosecut	-11.4801
▁kink	-11.4802
▁attic	-11.4802
spect	-11.4802
▁protest	-11.4803
▁toke	-11.4803
▁sur	-11.4803
quie	-11.4803
angel	-11.4804
▁zoom	-11.4804
mhmm	-11.4804
▁grim	-11.4805
▁beginnin	-11.4805
▁remark	-11.4806
▁extract	-11.4806
▁movin	-11.4806
▁terrifi	-11.4806
elvis	-11.4806
asket	-11.4806
▁puttin	-11.4806
▁detonat	-11.4807
▁precede	-11.4807
▁nix	-11.4807
ski	-11.4807
tricia	-11.4807
▁increasing	-11.4808
▁jurisdiction	-11.4808
▁advisor	-11.4808
▁analysis	-11.4808
▁applied	-11.4808
▁architect	-11.4808
▁argentina	-11.4808
▁association	-11.4808
▁athlete	-11.4808
▁augsburg	-11.4808
▁autopsy	-11.4808
▁azupep	-11.4808
▁bacteria	-11.4808
▁balenciaga	-11.4808
▁battalion	-11.4808
▁believing	-11.4808
▁benigna	-11.4808
▁benjamin	-11.4808
▁bizarre	-11.4808
▁blackmail	-11.4808
▁blake	-11.4808
▁blizzard	-11.4808
▁borgens	-11.4808
▁bouchard	-11.4808
▁brennan	-11.4808
▁chrissake	-11.4808
▁clinic	-11.4808
▁clinking	-11.4808
▁corridor	-11.4808
▁corsetti	-11.4808
▁crickets	-11.4808
▁curiosity	-11.4808
▁deceased	-11.4808
▁delhi	-11.4808
▁delicate	-11.4808
▁destination	-11.4808
▁devaney	-11.4808
▁devastated	-11.4808
▁diploma	-11.4808
▁dynami	-11.4808
▁dysentery	-11.4808
▁easiest	-11.4808
▁elephant	-11.4808
▁episode	-11.4808
▁essay	-11.4808
▁eternity	-11.4808
▁evacuation	-11.4808
▁exclude	-11.4808
▁exwife	-11.4808
▁futile	-11.4808
▁fuzzy	-11.4808
▁gasoline	-11.4808
▁gauge	-11.4808
▁genuine	-11.4808
▁giovanni	-11.4808
▁goddammit	-11.4808
▁graphic	-11.4808
▁gueros	-11.4808
▁hannah	-11.4808
▁happily	-11.4808
▁hebrew	-11.4808
▁heidi	-11.4808
▁henessey	-11.4808
▁horribly	-11.4808
▁immortal	-11.4808
▁indigenous	-11.4808
▁kesher	-11.4808
▁lauderdale	-11.4808
▁leviathan	-11.4808
▁lindsey	-11.4808
▁ludmilla	-11.4808
▁luenell	-11.4808
▁maccready	-11.4808
▁mainframe	-11.4808
▁mainstream	-11.4808
▁mcgarrick	-11.4808
▁mcnamara	-11.4808
▁meurice	-11.4808
▁monroe	-11.4808
▁muhammad	-11.4808
▁mussolini	-11.4808
▁nightclub	-11.4808
▁nonsense	-11.4808
▁pancakes	-11.4808
▁paralyzed	-11.4808
▁penitentiary	-11.4808
▁pennsylvania	-11.4808
▁phantom	-11.4808
▁pittsburgh	-11.4808
▁playground	-11.4808
▁plumbing	-11.4808
▁podcast	-11.4808
▁prelim	-11.4808
▁principal	-11.4808
▁probiem	-11.4808
▁producing	-11.4808
▁prophecy	-11.4808
▁proximity	-11.4808
▁puppet	-11.4808
▁rabies	-11.4808
▁receipt	-11.4808
▁receiving	-11.4808
▁rehearsing	-11.4808
▁relief	-11.4808
▁remorse	-11.4808
▁replicant	-11.4808
▁revelation	-11.4808
▁robocop	-11.4808
▁sardine	-11.4808
▁savannah	-11.4808
▁scientific	-11.4808
▁seafood	-11.4808
▁selwyn	-11.4808
▁shamiana	-11.4808
▁sheldon	-11.4808
▁shimizu	-11.4808
▁skirt	-11.4808
▁slippery	-11.4808
▁smear	-11.4808
▁soccer	-11.4808
▁somafree	-11.4808
▁souvenir	-11.4808
▁spencer	-11.4808
▁starbucks	-11.4808
▁starstruck	-11.4808
▁stubborn	-11.4808
▁substance	-11.4808
▁suicidal	-11.4808
▁sylvester	-11.4808
▁tannoy	-11.4808
▁tarzan	-11.4808
▁temple	-11.4808
▁tennessee	-11.4808
▁thompson	-11.4808
▁thorough	-11.4808
▁tunnei	-11.4808
▁ucla	-11.4808
▁unexpected	-11.4808
▁unleash	-11.4808
▁utter	-11.4808
▁verdict	-11.4808
▁veronica	-11.4808
▁vibration	-11.4808
▁vivid	-11.4808
▁vocabulary	-11.4808
▁vogue	-11.4808
▁wealth	-11.4808
▁wwen	-11.4808
▁wyoming	-11.4808
▁yankeenineniner	-11.4808
monos	-11.4808
▁assumption	-11.4808
▁canyon	-11.4808
▁cissy	-11.4808
▁dalton	-11.4808
▁eldad	-11.4808
▁feather	-11.4808
▁hawk	-11.4808
▁jello	-11.4808
▁leahy	-11.4808
▁mechanism	-11.4808
▁piease	-11.4808
▁promising	-11.4808
▁reboot	-11.4808
▁riends	-11.4808
▁sliding	-11.4808
▁tyler	-11.4808
▁activities	-11.4808
▁britain	-11.4808
▁exclalm	-11.4808
▁grove	-11.4808
▁jeep	-11.4808
▁smelt	-11.4808
▁tomica	-11.4808
▁unholy	-11.4808
▁abbie	-11.4808
▁dvd	-11.4808
▁tyson	-11.4808
▁crayon	-11.4808
▁seasick	-11.4808
▁videotape	-11.4808
▁goggles	-11.4808
▁gratitude	-11.4808
▁newark	-11.4808
▁reckless	-11.4808
▁shuffle	-11.4808
▁somali	-11.4808
▁ulcer	-11.4808
▁bureaucracy	-11.4808
▁frown	-11.4808
▁holabird	-11.4808
▁radiologist	-11.4808
▁barrier	-11.4808
▁asthma	-11.4808
▁dresden	-11.4808
▁intervene	-11.4808
▁sorrow	-11.4808
▁westray	-11.4808
▁peasant	-11.4808
▁distress	-11.4808
▁sumbitch	-11.4808
▁thugs	-11.4808
▁macarthur	-11.4808
▁melody	-11.4808
friggin	-11.4808
▁commence	-11.4808
▁attaboy	-11.4808
▁quiche	-11.4808
▁kkk	-11.4808
▁cartoon	-11.4808
▁naomi	-11.4808
▁hanley	-11.4808
▁arriving	-11.4808
▁adachi	-11.4808
▁steward	-11.4808
▁stamp	-11.4808
▁sophia	-11.4808
▁braying	-11.4808
▁spear	-11.4808
▁operative	-11.4808
▁entitled	-11.4808
▁profound	-11.4808
▁sinatra	-11.4808
▁thigh	-11.4808
▁foxhole	-11.4808
▁instructions	-11.4808
▁analyst	-11.4808
▁onstage	-11.4808
▁waldman	-11.4808
▁burden	-11.4808
▁garlic	-11.4808
▁merger	-11.4808
▁oblivious	-11.4808
▁contrary	-11.4808
▁dietrich	-11.4808
▁petition	-11.4808
▁upstate	-11.4808
▁compete	-11.4808
▁kemp	-11.4808
▁visa	-11.4808
▁cloak	-11.4808
▁motto	-11.4808
▁confront	-11.4808
▁dewey	-11.4808
▁wright	-11.4808
▁psst	-11.4808
▁clank	-11.4808
▁dining	-11.4808
▁esu	-11.4808
▁blanche	-11.4808
▁myth	-11.4808
▁doogie	-11.4808
▁raisins	-11.4808
▁stonewall	-11.4808
▁upgrade	-11.4808
▁inevitable	-11.4808
▁marketplace	-11.4808
▁visual	-11.4808
▁inherit	-11.4808
▁representative	-11.4808
▁benedict	-11.4808
▁cautionary	-11.4808
▁carolina	-11.4809
▁sadistic	-11.4809
▁babysitting	-11.4809
▁temper	-11.4809
▁lightning	-11.4809
▁choi	-11.4809
▁trumpet	-11.4809
▁cinder	-11.4809
▁outdoor	-11.4809
▁struck	-11.4809
▁alabama	-11.4809
▁legacy	-11.4809
▁heip	-11.4809
▁regain	-11.4809
▁existence	-11.4809
▁hootch	-11.4809
▁rog	-11.4809
▁calvin	-11.4809
▁resolution	-11.4809
▁skinnies	-11.4809
▁cheeseburger	-11.4809
▁merch	-11.4809
▁jiff	-11.4809
▁winston	-11.4809
▁google	-11.4809
▁perez	-11.4809
▁which	-11.4809
▁suitcase	-11.4809
▁bugged	-11.4809
▁bundle	-11.4809
▁tich	-11.4809
▁etheline	-11.4809
▁vicious	-11.4809
▁cursing	-11.4809
▁hippie	-11.4809
▁bandari	-11.4809
▁supervisor	-11.4809
▁ragged	-11.4809
▁mira	-11.4809
▁poetry	-11.4809
▁barrel	-11.4809
▁atmosphere	-11.4809
▁chico	-11.4809
▁consciousness	-11.4809
▁christopher	-11.4809
▁consumer	-11.4809
▁auto	-11.481
▁landscape	-11.481
▁niv	-11.481
▁venture	-11.481
▁festival	-11.481
▁vital	-11.481
▁isa	-11.481
▁apologies	-11.481
▁moose	-11.481
▁inbound	-11.481
▁twat	-11.481
▁portia	-11.481
▁bilo	-11.481
▁dumpster	-11.481
▁whwhat	-11.481
▁compos	-11.481
▁okeydokey	-11.481
▁shade	-11.481
▁gooks	-11.481
▁operate	-11.481
▁butthole	-11.481
▁yyou	-11.481
▁baggage	-11.481
▁underestimated	-11.481
▁flourish	-11.4811
▁durant	-11.4811
▁homosexuality	-11.4811
▁satisfy	-11.4811
▁grandkids	-11.4811
▁kansas	-11.4811
▁harass	-11.4811
▁smuggling	-11.4811
▁andrew	-11.4811
▁nixon	-11.4811
▁fraud	-11.4811
▁porch	-11.4811
▁aidan	-11.4811
▁spitting	-11.4811
▁marble	-11.4811
▁shopper	-11.4811
ient	-11.4811
▁ballroom	-11.4811
▁zap	-11.4811
▁nuke	-11.4811
▁improvement	-11.4811
▁coleman	-11.4811
▁growls	-11.4811
▁irre	-11.4811
▁stanton	-11.4811
▁detector	-11.4812
▁charter	-11.4812
▁righteous	-11.4812
▁ivan	-11.4812
▁levin	-11.4812
▁ratings	-11.4812
▁tipped	-11.4812
▁patel	-11.4812
▁communist	-11.4812
▁prostitute	-11.4812
▁objective	-11.4812
▁globe	-11.4812
▁rack	-11.4812
▁delusional	-11.4812
▁casing	-11.4812
▁particle	-11.4813
▁whoops	-11.4813
▁vesper	-11.4813
▁classified	-11.4813
▁trespassing	-11.4813
▁wrestling	-11.4813
enne	-11.4813
▁escaping	-11.4813
▁wack	-11.4813
▁airlock	-11.4813
▁replay	-11.4813
▁germ	-11.4813
▁mailman	-11.4813
▁splitting	-11.4813
▁hardware	-11.4814
▁european	-11.4814
▁trophy	-11.4814
▁felony	-11.4814
▁hbo	-11.4814
▁sympathy	-11.4814
oodle	-11.4814
▁fork	-11.4814
▁keen	-11.4814
▁variation	-11.4815
▁paranoid	-11.4815
▁yank	-11.4815
▁gps	-11.4815
▁labor	-11.4815
▁anson	-11.4815
▁baseline	-11.4815
▁collier	-11.4815
▁satisfied	-11.4815
▁excessive	-11.4815
▁buke	-11.4815
▁molly	-11.4815
▁convenience	-11.4816
▁phrase	-11.4816
▁interference	-11.4816
▁thai	-11.4816
▁upsetting	-11.4816
▁paradi	-11.4816
▁publicity	-11.4816
▁juliana	-11.4816
▁markos	-11.4816
▁ridge	-11.4816
▁gender	-11.4816
▁rayette	-11.4816
▁popil	-11.4817
▁ego	-11.4817
▁santo	-11.4817
▁payroll	-11.4817
▁pension	-11.4817
▁harmless	-11.4817
▁grindr	-11.4817
▁publicist	-11.4818
▁hull	-11.4818
day	-11.4818
▁blonde	-11.4818
▁firewood	-11.4818
▁willy	-11.4818
▁injected	-11.4818
▁passage	-11.4818
▁branches	-11.4819
where	-11.4819
▁allie	-11.4819
▁eliminated	-11.4819
▁sophie	-11.482
▁vig	-11.482
▁shelley	-11.482
▁scam	-11.482
▁slapping	-11.482
▁richter	-11.482
▁payback	-11.4821
▁warden	-11.4823
▁hospitality	-11.4823
▁rlc	-11.4823
▁permanently	-11.4823
▁coverage	-11.4824
▁ceo	-11.4824
▁anna	-11.4824
▁divided	-11.4824
▁expired	-11.4824
▁splashing	-11.4825
▁retract	-11.4825
▁insulted	-11.4825
▁parttime	-11.4826
▁disable	-11.4826
▁smuggle	-11.4827
▁weep	-11.4827
▁acceptable	-11.4828
▁anus	-11.4829
▁equations	-11.4829
▁payoff	-11.483
▁helena	-11.4831
▁bullshitting	-11.4831
▁glowing	-11.4831
▁pronounced	-11.4831
▁jog	-11.4832
▁mentally	-11.4833
▁alan	-11.4833
▁yaah	-11.4835
▁imply	-11.4835
▁hometown	-11.4835
▁trin	-11.4836
chad	-11.4837
▁delightful	-11.4837
▁jima	-11.4839
▁scorch	-11.4839
▁installed	-11.4839
▁revving	-11.484
▁weston	-11.484
▁snorting	-11.4841
killer	-11.4841
▁kia	-11.4842
▁actresses	-11.4843
▁burp	-11.4844
▁runway	-11.4845
▁gordy	-11.4845
▁receiver	-11.4845
▁mina	-11.4846
▁tortured	-11.4846
▁strained	-11.4846
▁jude	-11.4847
▁possessed	-11.4847
▁define	-11.4847
▁weave	-11.4849
▁persons	-11.485
▁beanie	-11.4851
▁ella	-11.4852
▁bucky	-11.4852
▁firmly	-11.4852
▁tuber	-11.4853
unch	-11.4853
▁recruited	-11.4853
▁anal	-11.4855
▁mint	-11.4855
▁framed	-11.4856
▁violate	-11.4857
▁eyeball	-11.4858
▁squawking	-11.4858
▁straining	-11.4858
▁pup	-11.486
uv	-11.4863
▁estimate	-11.4863
▁irony	-11.4864
▁shifty	-11.4865
▁refused	-11.4866
▁cambers	-11.4866
▁bollocks	-11.4866
▁regulations	-11.4866
▁stalling	-11.4867
▁elbows	-11.4867
▁fussing	-11.4867
▁transmitter	-11.4867
▁commissioned	-11.4867
▁measure	-11.4868
▁mer	-11.4869
▁funky	-11.4874
▁drained	-11.4874
▁retarded	-11.4874
▁cheated	-11.4875
▁washer	-11.4876
▁relay	-11.4878
▁ture	-11.4879
▁regularly	-11.4879
▁crashes	-11.4881
▁conversations	-11.4881
kins	-11.4881
▁spilled	-11.4881
▁wat	-11.4882
dialing	-11.4882
▁sharply	-11.4887
tery	-11.4887
▁glo	-11.4893
▁dau	-11.4894
▁corny	-11.4895
▁badger	-11.4895
▁lew	-11.4898
▁hopeless	-11.4899
▁pitcher	-11.49
▁yah	-11.4902
▁consequences	-11.4905
▁straws	-11.4905
▁ducts	-11.4905
▁hadas	-11.4905
▁pooping	-11.4905
▁bumped	-11.4905
▁heels	-11.4906
▁flashy	-11.4906
▁onions	-11.4907
▁ohoh	-11.4907
▁endless	-11.4907
▁nazis	-11.4908
▁occasions	-11.4908
▁homeland	-11.4908
▁gents	-11.4909
▁lowly	-11.4911
▁separated	-11.4913
▁nervously	-11.4918
rum	-11.4919
▁taro	-11.492
▁effective	-11.492
▁correction	-11.4923
▁burns	-11.4924
▁developing	-11.4928
▁scoot	-11.4929
▁recommended	-11.4931
▁damp	-11.4931
▁scor	-11.4931
dom	-11.4932
▁tighten	-11.4938
▁crafts	-11.494
▁secured	-11.4942
▁ankles	-11.4943
▁vegetables	-11.4943
▁clams	-11.4944
▁scored	-11.4944
▁thankyou	-11.4945
▁il	-11.4945
▁policeman	-11.4946
▁generally	-11.4947
▁lend	-11.4948
ration	-11.4949
▁indicate	-11.495
ddad	-11.4953
▁benz	-11.4953
▁painted	-11.4956
place	-11.4957
▁checkers	-11.4959
▁fled	-11.4959
▁posters	-11.4962
▁fisher	-11.4972
▁katy	-11.4974
▁godking	-11.4978
▁savages	-11.4982
▁warriors	-11.4982
▁arrangements	-11.4982
▁towels	-11.4983
▁reaii	-11.4985
ky	-11.4987
▁ryans	-11.4987
▁sash	-11.4988
▁wal	-11.4989
▁ste	-11.4991
dead	-11.4994
▁digits	-11.4999
▁niner	-11.5001
▁screamed	-11.5004
▁revs	-11.5014
▁ken	-11.5014
▁experienced	-11.5016
▁dialing	-11.5019
bound	-11.502
▁orphans	-11.5021
▁clatters	-11.5021
▁directing	-11.5022
▁importan	-11.5034
▁hangin	-11.5039
▁signatures	-11.506
▁headaches	-11.506
▁visitors	-11.5062
▁catcher	-11.5063
▁messy	-11.5063
▁hunted	-11.5067
▁whine	-11.507
▁repeated	-11.5073
▁bearing	-11.5073
▁calmly	-11.5075
▁washing	-11.5079
▁ref	-11.5079
▁ag	-11.5085
▁searching	-11.5088
▁pas	-11.5096
▁knights	-11.5099
▁swinging	-11.51
▁honesty	-11.5101
▁orderly	-11.511
▁belonged	-11.5112
▁pressed	-11.5116
▁handled	-11.5119
▁farmer	-11.5127
lor	-11.5128
▁accounting	-11.5128
▁nam	-11.5131
▁browning	-11.5136
▁amateurs	-11.5138
▁spaced	-11.5141
name	-11.5145
▁wes	-11.5148
▁ull	-11.5151
▁mons	-11.5157
▁boarded	-11.5157
culo	-11.5159
▁dancers	-11.5163
▁recit	-11.5165
je	-11.517
▁tickles	-11.5173
▁donnas	-11.5177
▁hiss	-11.5177
▁patterns	-11.5177
▁consol	-11.5178
▁snaps	-11.5189
ory	-11.5195
▁christians	-11.5197
▁dose	-11.5201
▁illness	-11.5203
▁ohio	-11.5207
▁leaders	-11.521
▁lu	-11.5211
▁cred	-11.5211
▁edges	-11.5216
▁newspapers	-11.5216
ban	-11.5218
mission	-11.5219
ire	-11.5219
▁perp	-11.5237
▁bombing	-11.5241
▁concepts	-11.5256
▁tunes	-11.5258
▁blocking	-11.5262
▁eazye	-11.5264
boards	-11.5271
▁contribut	-11.5272
▁massacre	-11.5281
▁counted	-11.5282
▁circles	-11.5288
hot	-11.5291
▁equals	-11.5295
▁elect	-11.5297
tara	-11.5299
▁roommates	-11.53
▁camping	-11.5309
▁did	-11.5331
zy	-11.5331
ipped	-11.5337
▁batt	-11.534
▁murderers	-11.5344
▁ky	-11.5354
▁janu	-11.5356
▁bran	-11.5359
ache	-11.5368
▁clowns	-11.5374
▁efforts	-11.5374
▁movements	-11.5375
eath	-11.538
▁cd	-11.5381
▁seated	-11.5384
▁kin	-11.5386
▁pol	-11.539
▁crate	-11.5394
▁snakes	-11.5414
▁blindfolds	-11.5414
▁casey	-11.5417
▁conv	-11.5419
▁manipulat	-11.5425
▁bagg	-11.5426
▁wondered	-11.5428
▁medi	-11.5447
show	-11.545
▁mechanics	-11.5454
▁cowards	-11.5454
▁premier	-11.5461
▁bees	-11.5462
▁peel	-11.5467
▁subs	-11.548
▁attacking	-11.5484
▁kicks	-11.5489
▁tedd	-11.5489
▁fruits	-11.5494
▁winters	-11.5497
▁invad	-11.5504
horn	-11.5507
▁killin	-11.5513
▁loc	-11.5517
▁cel	-11.5517
▁hips	-11.5521
yan	-11.5522
atch	-11.5525
▁subjects	-11.5534
▁fin	-11.5549
▁pens	-11.5562
ras	-11.5572
▁kn	-11.5573
▁stalkers	-11.5575
▁morons	-11.5577
▁growns	-11.5579
▁conditions	-11.5597
▁wil	-11.5607
▁owners	-11.5611
▁sting	-11.5611
▁logic	-11.5612
card	-11.5613
▁nicer	-11.563
▁edit	-11.5635
▁learning	-11.5638
ively	-11.5645
▁von	-11.5654
ama	-11.5657
logical	-11.5668
▁nate	-11.5688
cent	-11.5689
▁roman	-11.5692
▁stomachs	-11.5695
hunt	-11.5713
▁prop	-11.5722
▁vario	-11.5722
▁punks	-11.5735
▁determin	-11.5743
▁degenera	-11.5744
▁rewrite	-11.5752
▁amp	-11.5754
izzi	-11.5755
▁active	-11.5757
cro	-11.5774
▁bums	-11.5776
comprehensi	-11.5796
▁grandmas	-11.5817
▁settles	-11.5819
▁delusion	-11.5823
▁grades	-11.5846
mont	-11.5847
▁stuffy	-11.5848
▁interviews	-11.5861
chez	-11.5867
▁nooo	-11.5894
▁views	-11.5895
▁dot	-11.5908
lon	-11.5913
ctor	-11.5947
▁floors	-11.5947
▁yum	-11.5959
▁booking	-11.5975
ofa	-11.5982
▁sos	-11.5991
▁hotels	-11.602
▁pockets	-11.6021
▁ber	-11.6025
▁clearing	-11.6054
▁chairs	-11.6063
▁swings	-11.6063
▁sorts	-11.6075
nish	-11.6094
▁boul	-11.6097
▁defi	-11.6105
urke	-11.6109
ola	-11.6121
▁proves	-11.6141
▁weathers	-11.6145
▁stores	-11.6148
hard	-11.6152
▁winds	-11.6154
▁italians	-11.6156
▁mutilate	-11.6159
agement	-11.616
▁ell	-11.6177
▁marie	-11.6192
▁tw	-11.622
stra	-11.6228
gage	-11.6229
list	-11.6235
paid	-11.6237
▁vari	-11.6243
▁whe	-11.6256
▁whi	-11.6257
▁ze	-11.6264
▁resu	-11.6265
apped	-11.6279
rative	-11.6294
▁av	-11.6297
▁advanc	-11.6299
▁boi	-11.6302
rosi	-11.6327
fli	-11.6333
state	-11.634
dick	-11.6391
▁partying	-11.6394
▁locals	-11.6395
▁ec	-11.6399
▁pressures	-11.6429
▁allows	-11.6438
tit	-11.6449
▁bou	-11.6467
pop	-11.6468
ota	-11.6493
hold	-11.6514
▁interests	-11.6534
▁premiere	-11.6538
ane	-11.6557
latter	-11.6564
itch	-11.6589
▁dukes	-11.6608
city	-11.6618
eek	-11.6633
aste	-11.6636
▁verif	-11.6643
▁initiat	-11.6644
▁restaurants	-11.665
▁useful	-11.6654
lew	-11.6658
▁pl	-11.6679
▁koo	-11.6697
pass	-11.6718
▁allo	-11.6722
▁intern	-11.6741
ware	-11.6768
▁sil	-11.6769
gic	-11.6783
▁mums	-11.6796
run	-11.6797
▁just	-11.6808
aid	-11.6825
aries	-11.6826
▁engines	-11.6833
busters	-11.6835
ink	-11.6851
▁loyal	-11.6851
▁crav	-11.6866
▁jap	-11.6868
ago	-11.688
oh	-11.6886
just	-11.6894
oster	-11.6911
inate	-11.6913
rine	-11.6921
ecora	-11.6934
liness	-11.6935
ife	-11.6936
▁mod	-11.6942
▁boned	-11.6944
▁zon	-11.695
▁languages	-11.6951
▁sor	-11.6959
▁judg	-11.6962
▁tagg	-11.6964
tial	-11.7
▁cle	-11.7
pression	-11.701
row	-11.7017
▁moist	-11.7018
char	-11.7027
▁communi	-11.7027
horizo	-11.7043
udge	-11.7047
▁lands	-11.7052
▁charm	-11.7053
▁raf	-11.7057
lace	-11.706
itched	-11.7063
tro	-11.7072
▁clam	-11.7077
aper	-11.7083
home	-11.7084
itter	-11.7087
▁spi	-11.71
▁transmit	-11.71
▁reai	-11.7105
▁supplie	-11.7109
cuse	-11.7115
▁ninja	-11.7124
▁homie	-11.7124
▁trump	-11.7124
▁bracelet	-11.7124
▁cramp	-11.7124
▁indicat	-11.7125
▁quad	-11.7126
tens	-11.7131
▁expense	-11.7132
▁conclusion	-11.7133
▁cocktail	-11.7133
▁bucket	-11.7135
▁ankle	-11.7137
▁vegetable	-11.7137
▁lite	-11.7139
▁trailer	-11.714
▁inmate	-11.714
▁euro	-11.714
▁frog	-11.7141
▁gem	-11.7143
▁breaths	-11.7146
▁chime	-11.7147
▁giggle	-11.7148
▁colombian	-11.7155
nine	-11.7174
▁craft	-11.7175
ifies	-11.7175
▁predict	-11.7177
▁runner	-11.7187
wise	-11.7189
minded	-11.7191
▁owes	-11.7195
gio	-11.7196
▁snort	-11.7201
▁but	-11.7203
▁jeopard	-11.7212
walk	-11.7217
▁tack	-11.7219
kill	-11.7223
▁lung	-11.7224
▁glas	-11.7225
but	-11.7228
uran	-11.723
▁asset	-11.7233
▁threaten	-11.7244
▁inf	-11.7244
break	-11.7245
▁ruf	-11.7246
▁poster	-11.7254
umpy	-11.7255
▁squa	-11.7256
father	-11.7258
▁tweak	-11.7264
▁mock	-11.7266
▁streak	-11.7268
union	-11.7268
▁cloth	-11.7269
▁wee	-11.7269
pit	-11.727
kfar	-11.7272
iving	-11.7273
ken	-11.7273
▁swell	-11.7275
▁pag	-11.7278
burn	-11.7279
cut	-11.7281
quin	-11.7282
covered	-11.7283
lasting	-11.7283
▁strangle	-11.7283
fif	-11.7284
▁arc	-11.7284
▁rug	-11.7284
range	-11.7285
▁slaughter	-11.7285
dollar	-11.7286
▁apolog	-11.7286
birth	-11.7286
virgin	-11.7286
storm	-11.7286
certain	-11.7287
case	-11.7287
second	-11.7287
launch	-11.7287
running	-11.7287
moving	-11.7287
course	-11.7287
chuckles	-11.7287
okay	-11.7287
▁expire	-11.7287
mindy	-11.7287
change	-11.7287
▁occup	-11.7287
chip	-11.7288
▁burglar	-11.7288
▁ave	-11.7288
know	-11.7288
▁frost	-11.7289
bury	-11.7289
▁mute	-11.7289
phone	-11.7289
▁deedee	-11.729
▁twink	-11.7291
▁muthafuck	-11.7291
beth	-11.7292
child	-11.7295
▁previous	-11.7295
▁immun	-11.7295
▁psychological	-11.7296
▁numb	-11.7298
uzz	-11.7298
▁definite	-11.7298
▁claus	-11.7299
▁absolute	-11.7299
pole	-11.7299
▁cutler	-11.7299
▁fox	-11.7299
▁surge	-11.7299
▁shaw	-11.73
▁revv	-11.7301
▁champ	-11.7303
cript	-11.7303
hood	-11.7303
along	-11.7303
▁trait	-11.7304
▁bore	-11.7304
▁premi	-11.7304
▁unlike	-11.7305
▁choo	-11.7305
▁boost	-11.7305
▁grocer	-11.7305
▁oppress	-11.7305
▁luther	-11.7305
tock	-11.7305
▁construct	-11.7306
▁darlin	-11.7306
▁trippin	-11.7306
▁pronounce	-11.7306
▁caution	-11.7307
▁vegeta	-11.7307
▁francis	-11.7307
▁moth	-11.7307
ndsay	-11.7307
▁beautif	-11.7307
▁oxy	-11.7308
▁vocal	-11.7308
▁stereo	-11.7308
titude	-11.7308
chemistry	-11.7308
nbaum	-11.7308
ovich	-11.7308
▁academic	-11.7308
▁adversary	-11.7308
▁advising	-11.7308
▁allergies	-11.7308
▁alligator	-11.7308
▁amazon	-11.7308
▁annual	-11.7308
▁antarctica	-11.7308
▁anwar	-11.7308
▁aramaic	-11.7308
▁arbor	-11.7308
▁athletic	-11.7308
▁authorization	-11.7308
▁baboon	-11.7308
▁barricade	-11.7308
▁beacon	-11.7308
▁bellevue	-11.7308
▁beneficial	-11.7308
▁berserk	-11.7308
▁biltmore	-11.7308
▁binoculars	-11.7308
▁boomshakalaka	-11.7308
▁booyah	-11.7308
▁brazil	-11.7308
▁brenner	-11.7308
▁brezhnev	-11.7308
▁budweiser	-11.7308
▁calendar	-11.7308
▁calogero	-11.7308
▁candidate	-11.7308
▁cerrano	-11.7308
▁chameleon	-11.7308
▁circumstantial	-11.7308
▁clarify	-11.7308
▁clutenichols	-11.7308
▁cohen	-11.7308
▁cologne	-11.7308
▁congratulate	-11.7308
▁congress	-11.7308
▁connecticut	-11.7308
▁consistency	-11.7308
▁corroborate	-11.7308
▁craftacular	-11.7308
▁crawford	-11.7308
▁crossfire	-11.7308
▁curtains	-11.7308
▁cynical	-11.7308
▁deranged	-11.7308
▁descend	-11.7308
▁desirable	-11.7308
▁destined	-11.7308
▁detour	-11.7308
▁devastating	-11.7308
▁diabolical	-11.7308
▁dildo	-11.7308
▁dominique	-11.7308
▁donovan	-11.7308
▁dorothy	-11.7308
▁downstream	-11.7308
▁drydock	-11.7308
▁dumbdumb	-11.7308
▁dungeon	-11.7308
▁dunno	-11.7308
▁dupea	-11.7308
▁embrace	-11.7308
▁emporium	-11.7308
▁encouraging	-11.7308
▁enrique	-11.7308
▁exfil	-11.7308
▁expand	-11.7308
▁experiencing	-11.7308
▁eyewitness	-11.7308
▁facial	-11.7308
▁florist	-11.7308
▁frustrating	-11.7308
▁gabriel	-11.7308
▁gauze	-11.7308
▁geometr	-11.7308
▁giraffe	-11.7308
▁grentz	-11.7308
▁guilford	-11.7308
▁gunshofl	-11.7308
▁hairdresser	-11.7308
▁hanako	-11.7308
▁hawlwadig	-11.7308
▁heinemann	-11.7308
▁heterosexual	-11.7308
▁hulk	-11.7308
▁identical	-11.7308
▁identification	-11.7308
▁illinois	-11.7308
▁imagining	-11.7308
▁incontinent	-11.7308
▁inflation	-11.7308
▁infrared	-11.7308
▁inspection	-11.7308
▁invalid	-11.7308
▁invasion	-11.7308
▁invitation	-11.7308
▁japonaise	-11.7308
▁jazeristan	-11.7308
▁kaufman	-11.7308
▁kenosha	-11.7308
▁kevlar	-11.7308
▁krimp	-11.7308
▁lasagna	-11.7308
▁liberty	-11.7308
▁louisiana	-11.7308
▁malmsteen	-11.7308
▁marauder	-11.7308
▁mascot	-11.7308
▁migraine	-11.7308
▁misconduct	-11.7308
▁mistletoe	-11.7308
▁mitzvah	-11.7308
▁montana	-11.7308
▁mordecai	-11.7308
▁morgue	-11.7308
▁mormon	-11.7308
▁mullins	-11.7308
▁navigate	-11.7308
▁nibble	-11.7308
▁nietzsche	-11.7308
▁notorious	-11.7308
▁obstacle	-11.7308
▁offshore	-11.7308
▁okidoki	-11.7308
▁oklahoma	-11.7308
▁oksana	-11.7308
▁omega	-11.7308
▁outsmart	-11.7308
▁overseas	-11.7308
▁overwhelmed	-11.7308
▁overwhelming	-11.7308
▁pajama	-11.7308
▁parrot	-11.7308
▁pasadena	-11.7308
▁pawnshop	-11.7308
▁penguin	-11.7308
▁perspective	-11.7308
▁pharmac	-11.7308
▁philadelphia	-11.7308
▁philanthropist	-11.7308
▁philosophy	-11.7308
▁portuguese	-11.7308
▁precaution	-11.7308
▁premonition	-11.7308
▁prestig	-11.7308
▁prohibited	-11.7308
▁reassess	-11.7308
▁recoil	-11.7308
▁reflexes	-11.7308
▁reliable	-11.7308
▁retches	-11.7308
▁revenge	-11.7308
▁rodrigo	-11.7308
▁roosevelt	-11.7308
▁roscoe	-11.7308
▁saarne	-11.7308
▁sacramento	-11.7308
▁sacrificing	-11.7308
▁savior	-11.7308
▁schumacher	-11.7308
▁scotland	-11.7308
▁screwdriver	-11.7308
▁scrotum	-11.7308
▁seizure	-11.7308
▁sentimental	-11.7308
▁shattered	-11.7308
▁shirley	-11.7308
▁shuddering	-11.7308
▁significance	-11.7308
▁slayer	-11.7308
▁smeet	-11.7308
▁sociopath	-11.7308
▁sophisticated	-11.7308
▁soviet	-11.7308
▁spakowsky	-11.7308
▁spontaneous	-11.7308
▁stomp	-11.7308
▁strahm	-11.7308
▁sufficient	-11.7308
▁taiaha	-11.7308
▁tantrum	-11.7308
▁tattoo	-11.7308
▁testimony	-11.7308
▁thieves	-11.7308
▁thornton	-11.7308
▁throuple	-11.7308
▁tiffany	-11.7308
▁transform	-11.7308
▁tricycle	-11.7308
▁tyree	-11.7308
▁tyrell	-11.7308
▁unemployed	-11.7308
▁unheard	-11.7308
▁untouched	-11.7308
▁uptight	-11.7308
▁urinal	-11.7308
▁valentine	-11.7308
▁vessel	-11.7308
▁volleyball	-11.7308
▁wagner	-11.7308
▁webster	-11.7308
▁welove	-11.7308
▁windshield	-11.7308
▁wolves	-11.7308
▁worship	-11.7308
▁wrath	-11.7308
▁yourseif	-11.7308
▁yurek	-11.7308
▁zombie	-11.7308
▁arsenal	-11.7308
▁blaming	-11.7308
▁bozo	-11.7308
▁bronze	-11.7308
▁bueno	-11.7308
▁buggy	-11.7308
▁bulb	-11.7308
▁bullseye	-11.7308
▁capacity	-11.7308
▁conquer	-11.7308
▁couid	-11.7308
▁dawg	-11.7308
▁diagnos	-11.7308
▁dudley	-11.7308
▁emperor	-11.7308
▁emphasi	-11.7308
▁estonia	-11.7308
▁fresno	-11.7308
▁frisk	-11.7308
▁harbor	-11.7308
▁impala	-11.7308
▁kanu	-11.7308
▁licence	-11.7308
▁maddox	-11.7308
▁nightgown	-11.7308
▁noisy	-11.7308
▁oleary	-11.7308
▁parasite	-11.7308
▁pfc	-11.7308
▁portray	-11.7308
▁proportion	-11.7308
▁slob	-11.7308
▁soames	-11.7308
▁testify	-11.7308
▁tyran	-11.7308
▁viral	-11.7308
▁wilderness	-11.7308
▁yorkshire	-11.7308
hyperventilating	-11.7308
▁coupon	-11.7308
▁eager	-11.7308
▁farewell	-11.7308
▁firefighter	-11.7308
▁hastings	-11.7308
▁piana	-11.7308
▁piggy	-11.7308
▁retching	-11.7308
▁strait	-11.7308
▁fierce	-11.7308
▁freelance	-11.7308
▁hanni	-11.7308
▁heartbreaker	-11.7308
▁lodge	-11.7308
▁itches	-11.7308
▁klein	-11.7308
▁pelle	-11.7308
▁salute	-11.7308
▁scheme	-11.7308
▁squirrel	-11.7308
▁unreal	-11.7308
▁bronx	-11.7308
▁cubits	-11.7308
▁endanger	-11.7308
▁error	-11.7308
▁jammed	-11.7308
▁lantern	-11.7308
▁prompt	-11.7308
▁autograph	-11.7308
▁backseat	-11.7308
▁crowbar	-11.7308
▁doughnut	-11.7308
▁hesitate	-11.7308
▁iove	-11.7308
▁reihi	-11.7308
▁forcing	-11.7308
▁greyhound	-11.7308
▁possum	-11.7308
▁rowlands	-11.7308
▁yabe	-11.7308
▁plumber	-11.7308
yify	-11.7308
▁colonists	-11.7308
▁cremated	-11.7308
▁everett	-11.7308
▁cadre	-11.7308
▁calder	-11.7308
▁slurr	-11.7308
▁decaf	-11.7308
▁ensure	-11.7308
▁panini	-11.7308
▁sheehy	-11.7308
▁dyke	-11.7308
▁harrell	-11.7308
▁okubo	-11.7308
▁wails	-11.7308
▁grammy	-11.7308
parallel	-11.7308
▁carbon	-11.7308
▁iraq	-11.7308
▁resumes	-11.7308
▁forecast	-11.7308
▁fireworks	-11.7308
▁occupied	-11.7308
▁tray	-11.7308
▁abroad	-11.7308
▁radiator	-11.7308
▁alaska	-11.7308
▁censorship	-11.7308
▁gurgling	-11.7308
▁nassar	-11.7308
▁nuys	-11.7308
▁dismantl	-11.7308
▁drift	-11.7308
▁radiant	-11.7308
▁rosie	-11.7308
▁freight	-11.7308
▁prognosis	-11.7308
▁whinnies	-11.7308
▁dipshit	-11.7308
▁lomper	-11.7308
▁behalf	-11.7308
▁blouse	-11.7308
▁brunch	-11.7308
▁surfboard	-11.7308
▁glitch	-11.7308
mphatic	-11.7308
▁almighty	-11.7308
▁conceiv	-11.7308
▁insecure	-11.7308
▁muffins	-11.7308
▁priorities	-11.7308
▁application	-11.7308
▁bald	-11.7308
▁gracious	-11.7308
▁pulsing	-11.7308
▁apologise	-11.7308
▁friendlies	-11.7308
▁kidneys	-11.7308
▁scrapbook	-11.7308
▁babbling	-11.7308
▁default	-11.7308
▁vaseline	-11.7308
▁insert	-11.7308
▁mythology	-11.7308
bb	-11.7308
▁apron	-11.7308
▁flunk	-11.7308
▁physicist	-11.7308
▁flapp	-11.7308
▁refill	-11.7308
▁briefcase	-11.7308
▁pursuit	-11.7308
▁relocat	-11.7308
oggy	-11.7308
▁parole	-11.7308
▁donate	-11.7308
▁sideways	-11.7308
▁superset	-11.7308
▁sushi	-11.7308
▁frequency	-11.7308
▁chump	-11.7308
▁cavalry	-11.7308
▁bulge	-11.7308
▁mellow	-11.7308
▁dye	-11.7308
▁frail	-11.7308
▁mushroom	-11.7308
▁epidemic	-11.7308
▁mailbox	-11.7308
▁outrun	-11.7308
▁lethal	-11.7308
▁plaza	-11.7308
▁tidy	-11.7308
▁welsh	-11.7308
▁choosing	-11.7308
▁toolbox	-11.7308
▁waffle	-11.7308
obe	-11.7308
▁cavit	-11.7308
▁nude	-11.7308
▁olga	-11.7309
▁confidential	-11.7309
▁forbid	-11.7309
▁lowlife	-11.7309
▁scanner	-11.7309
▁tshirt	-11.7309
▁surro	-11.7309
▁birdbath	-11.7309
▁convict	-11.7309
▁zipper	-11.7309
▁squash	-11.7309
▁decipher	-11.7309
iglia	-11.7309
▁registration	-11.7309
▁gurgle	-11.7309
▁expertise	-11.7309
uj	-11.7309
▁eternal	-11.7309
▁stride	-11.7309
▁gilligan	-11.7309
▁mornin	-11.7309
▁swine	-11.7309
▁crip	-11.7309
▁deformed	-11.7309
▁vicki	-11.7309
▁wilson	-11.7309
▁consultant	-11.7309
▁banned	-11.7309
▁vchip	-11.7309
▁grabbing	-11.7309
▁renew	-11.7309
▁decorative	-11.7309
▁dispens	-11.7309
▁chocolatier	-11.7309
▁criteria	-11.7309
▁vagine	-11.7309
▁pocketbook	-11.7309
▁boast	-11.7309
▁riba	-11.7309
▁queso	-11.7309
▁extension	-11.7309
▁knob	-11.7309
▁selfmade	-11.7309
▁thethe	-11.7309
▁trend	-11.7309
▁clarissa	-11.7309
▁geneva	-11.7309
▁schizophrenic	-11.7309
▁orbit	-11.7309
▁chopped	-11.7309
▁divers	-11.7309
▁interrogation	-11.7309
▁fright	-11.7309
▁humiliation	-11.7309
▁journalism	-11.7309
▁oof	-11.7309
▁flashlight	-11.7309
▁rising	-11.7309
▁urns	-11.7309
▁urgent	-11.731
▁colour	-11.731
▁disarm	-11.731
▁preach	-11.731
▁operating	-11.731
▁shortcut	-11.731
▁cornell	-11.731
▁rotate	-11.731
▁upped	-11.731
▁jock	-11.731
▁decorator	-11.731
▁faking	-11.731
▁commencement	-11.731
▁harassment	-11.731
▁slipping	-11.731
road	-11.731
▁lapham	-11.731
▁capisce	-11.731
▁eminent	-11.731
▁karate	-11.731
▁polar	-11.731
▁fangs	-11.731
▁guam	-11.731
▁tying	-11.731
▁rodman	-11.731
▁spaz	-11.731
▁flexi	-11.731
▁variable	-11.731
▁industrial	-11.731
▁chiii	-11.731
▁failure	-11.731
▁gangsta	-11.731
▁election	-11.731
▁gutter	-11.731
▁editor	-11.731
▁display	-11.731
▁beggar	-11.731
▁elegant	-11.731
▁fyi	-11.731
▁pelvis	-11.731
▁oven	-11.731
▁kiloton	-11.7311
▁tension	-11.7311
▁retro	-11.7311
▁detonation	-11.7311
▁tickin	-11.7311
▁dork	-11.7311
▁attendant	-11.7311
▁tillington	-11.7311
▁derogatory	-11.7311
▁aquar	-11.7311
▁eighteen	-11.7311
▁harlem	-11.7311
▁disrespectful	-11.7311
▁sustain	-11.7311
▁aargh	-11.7311
▁cre	-11.7311
▁raul	-11.7311
▁grey	-11.7311
▁reek	-11.7311
▁fractured	-11.7311
actic	-11.7311
▁chatting	-11.7311
▁juan	-11.7311
▁babysit	-11.7311
▁zahrani	-11.7311
▁wong	-11.7311
▁cult	-11.7311
▁stoker	-11.7312
▁gab	-11.7312
▁anxiety	-11.7312
▁climate	-11.7312
▁flavor	-11.7312
▁fiction	-11.7312
▁holloway	-11.7312
▁lime	-11.7312
▁maiden	-11.7312
▁accusation	-11.7312
▁withers	-11.7312
▁wildcat	-11.7312
▁prior	-11.7312
▁conclude	-11.7312
▁shawna	-11.7312
▁addiction	-11.7312
▁appetiz	-11.7312
▁clement	-11.7312
▁scarf	-11.7312
▁goldstein	-11.7312
▁mmmmm	-11.7312
▁stockings	-11.7312
▁genus	-11.7312
▁brooke	-11.7312
▁brutality	-11.7312
▁robinson	-11.7312
▁heavier	-11.7312
▁approval	-11.7312
▁windsor	-11.7312
▁monk	-11.7313
▁citystate	-11.7313
▁rach	-11.7313
▁deliberately	-11.7313
▁evidently	-11.7313
▁batteries	-11.7313
▁khan	-11.7313
▁slab	-11.7313
▁didi	-11.7313
▁reactor	-11.7313
▁erik	-11.7313
▁salesman	-11.7313
▁thong	-11.7313
▁plow	-11.7313
▁yoko	-11.7313
▁poetic	-11.7313
▁ferr	-11.7314
▁creation	-11.7314
▁info	-11.7314
▁minority	-11.7314
▁incidentally	-11.7314
▁denny	-11.7314
▁grudge	-11.7314
▁establishment	-11.7314
▁bugging	-11.7314
▁abc	-11.7314
▁iq	-11.7314
▁notch	-11.7314
▁posse	-11.7314
▁bluffing	-11.7314
▁kiii	-11.7315
▁tripped	-11.7315
▁justin	-11.7315
▁wander	-11.7315
▁humble	-11.7315
▁semen	-11.7315
▁unpack	-11.7315
▁armour	-11.7315
▁attraction	-11.7315
▁keyboard	-11.7315
▁russo	-11.7315
▁carmelo	-11.7315
itory	-11.7316
▁formation	-11.7316
▁betrayal	-11.7316
▁representation	-11.7316
▁protestant	-11.7316
job	-11.7316
▁mayflower	-11.7316
▁restroom	-11.7317
▁royalty	-11.7317
▁fluid	-11.7317
▁danie	-11.7317
▁slant	-11.7317
▁poll	-11.7317
▁batch	-11.7317
▁promoted	-11.7317
▁respectfully	-11.7317
▁conviction	-11.7317
▁cleav	-11.7318
▁canal	-11.7318
▁lining	-11.7318
▁popping	-11.7318
▁spicer	-11.7318
▁ravel	-11.7318
▁kurt	-11.7318
▁delete	-11.7319
▁peaceful	-11.7319
▁somewh	-11.7319
▁mack	-11.7319
diac	-11.732
▁payload	-11.732
▁perk	-11.732
▁functional	-11.732
▁grease	-11.732
▁iv	-11.732
▁warped	-11.732
▁ante	-11.7321
▁impersonati	-11.7321
▁qualified	-11.7321
▁doom	-11.7321
▁hidin	-11.7321
▁clause	-11.7321
▁consideration	-11.7321
runo	-11.7321
brid	-11.7321
▁employer	-11.7321
▁flattered	-11.7321
▁equity	-11.7322
▁majesty	-11.7322
▁meaningless	-11.7322
▁robbers	-11.7322
▁hazy	-11.7322
▁humiliated	-11.7322
▁breakdown	-11.7322
rich	-11.7322
▁growth	-11.7322
hohoho	-11.7322
▁metres	-11.7323
▁setback	-11.7323
▁discharged	-11.7323
▁forged	-11.7323
▁warmth	-11.7323
▁breakthrough	-11.7323
▁cabinet	-11.7323
▁oliver	-11.7324
▁worldclass	-11.7324
▁capu	-11.7324
▁luke	-11.7324
▁sadness	-11.7324
▁weaponry	-11.7325
▁hedge	-11.7325
▁kike	-11.7325
▁nickel	-11.7326
▁disturbing	-11.7326
▁bedtime	-11.7326
▁whooshing	-11.7326
equent	-11.7326
▁dunk	-11.7327
▁joan	-11.7327
▁robble	-11.7327
▁collector	-11.7327
▁pillar	-11.7327
▁jeopardy	-11.7327
ari	-11.7327
▁twinky	-11.7327
▁jeanie	-11.7327
▁diving	-11.7328
▁lifeboat	-11.7328
▁screamers	-11.7328
▁kara	-11.7328
breaking	-11.7328
▁anonymously	-11.7328
fft	-11.7329
▁container	-11.7329
▁stem	-11.7329
▁perv	-11.7329
▁chev	-11.7329
▁crocke	-11.7329
obin	-11.733
minent	-11.733
▁mindfuck	-11.733
▁continuing	-11.733
▁admitted	-11.7331
▁whispered	-11.7331
▁playboy	-11.7332
▁mere	-11.7332
▁bj	-11.7332
racks	-11.7333
▁playback	-11.7333
ankh	-11.7334
▁trenton	-11.7334
▁chopin	-11.7334
▁leftover	-11.7334
▁crab	-11.7335
▁masses	-11.7336
▁wop	-11.7336
worthy	-11.7336
▁residency	-11.7336
▁fearless	-11.7336
▁frontier	-11.7337
▁hustled	-11.7337
▁reserved	-11.7337
oach	-11.7338
▁surfing	-11.7338
▁socket	-11.7338
▁betting	-11.7339
▁handling	-11.7339
▁fec	-11.7339
nson	-11.7339
▁scoop	-11.7339
▁inspiration	-11.734
▁centre	-11.734
atra	-11.734
▁pushup	-11.734
▁slaughtered	-11.734
▁humanity	-11.734
▁salary	-11.7341
▁wonderf	-11.7341
▁tracing	-11.7341
▁bombers	-11.7342
▁abortion	-11.7342
▁pierc	-11.7342
▁publisher	-11.7343
▁comply	-11.7344
▁hiv	-11.7344
▁ultimately	-11.7344
▁porno	-11.7345
▁produced	-11.7345
▁pilla	-11.7346
▁respectable	-11.7346
▁supreme	-11.7346
▁assassin	-11.7346
▁handicap	-11.7347
▁hardball	-11.7348
▁landers	-11.7348
▁viruses	-11.7349
▁losses	-11.735
▁lockup	-11.735
▁deadend	-11.7351
▁pager	-11.7352
▁jeweler	-11.7353
artar	-11.7354
▁acquire	-11.7354
▁sang	-11.7355
▁mist	-11.7356
▁buzzer	-11.7356
▁larger	-11.7357
▁porter	-11.7357
▁smartass	-11.7357
▁interfere	-11.7357
▁stable	-11.7357
▁bushes	-11.7359
▁hola	-11.7359
▁sweetness	-11.7359
▁screamin	-11.736
▁zoo	-11.736
▁cutter	-11.7361
▁const	-11.7361
▁rome	-11.7361
▁tempting	-11.7362
▁greeting	-11.7362
▁illegally	-11.7364
anor	-11.7365
▁madman	-11.7366
▁projector	-11.7367
▁pitt	-11.7367
▁garcia	-11.7369
▁specialist	-11.7371
▁coal	-11.7371
most	-11.7372
istan	-11.7372
ality	-11.7373
▁flirting	-11.7374
▁charger	-11.7374
▁clamp	-11.7375
▁cord	-11.7375
▁imperfect	-11.7376
▁mastermind	-11.7377
teria	-11.7377
▁shin	-11.7377
omy	-11.7377
▁flooded	-11.7377
▁departed	-11.7377
▁lair	-11.7378
▁doorway	-11.7381
▁hail	-11.7383
▁endure	-11.7384
▁smartest	-11.7384
▁spite	-11.7385
▁arrows	-11.7385
▁tissues	-11.7385
▁bisexuals	-11.7385
▁coyotes	-11.7385
▁rattlesnakes	-11.7385
▁magicians	-11.7385
▁followers	-11.7385
▁pearls	-11.7385
▁steering	-11.7386
▁distracted	-11.7387
win	-11.7387
talk	-11.7387
▁troopers	-11.7387
▁bigtime	-11.7387
▁rod	-11.7387
▁advised	-11.739
▁daytime	-11.7391
▁folding	-11.7398
▁these	-11.7398
▁cryin	-11.7398
▁spank	-11.7398
scrib	-11.7398
▁adv	-11.7401
▁bern	-11.7404
▁icy	-11.7405
▁dickless	-11.7408
scher	-11.7414
tant	-11.7415
poli	-11.7416
▁tani	-11.7416
vision	-11.7418
▁greas	-11.7419
▁rescued	-11.742
▁singin	-11.7425
▁pine	-11.7425
▁manny	-11.7429
▁sling	-11.743
▁joel	-11.7431
▁intended	-11.7433
▁vanished	-11.7433
▁intro	-11.7433
▁shiv	-11.7434
▁complaining	-11.7434
▁meters	-11.7435
▁worms	-11.7436
▁jaws	-11.7436
▁toppings	-11.7436
▁creaks	-11.7436
▁cello	-11.7436
▁funnie	-11.7437
▁soy	-11.7439
▁marshal	-11.7439
itty	-11.7444
▁businessman	-11.7444
▁rollin	-11.7445
uter	-11.7448
▁sputter	-11.7448
▁starin	-11.745
▁stretched	-11.7451
▁fuse	-11.7452
▁frequen	-11.7454
▁bounced	-11.7457
▁freaky	-11.746
▁deserted	-11.7461
▁spiritual	-11.7461
▁tucked	-11.7461
▁dewa	-11.7465
▁pit	-11.7466
▁bragg	-11.7466
▁suppress	-11.7466
▁pumped	-11.747
▁vers	-11.747
▁resisting	-11.747
▁failing	-11.747
▁jewels	-11.7474
▁chilly	-11.7482
▁scratching	-11.7483
▁matty	-11.7483
▁gardening	-11.7483
▁laur	-11.7484
▁parenting	-11.7484
▁expenses	-11.7487
▁cocktails	-11.7487
▁conclusions	-11.7487
▁lungs	-11.7487
▁buckets	-11.7487
▁colombians	-11.7488
▁trailers	-11.7488
▁berg	-11.749
▁cracked	-11.7492
▁jewel	-11.7494
▁dialed	-11.7498
igan	-11.7499
illa	-11.7503
▁formed	-11.7505
▁stain	-11.751
▁risky	-11.751
bod	-11.7512
▁goof	-11.7513
▁stored	-11.7515
going	-11.752
▁drugg	-11.7521
▁blasting	-11.7522
erald	-11.7522
matic	-11.7523
▁steamer	-11.7525
▁apo	-11.7525
▁bid	-11.7525
coat	-11.753
▁collected	-11.7535
uz	-11.7535
▁awaits	-11.7538
▁paramedics	-11.7538
▁rehearsals	-11.7538
▁nipples	-11.7538
▁payments	-11.7538
▁apologized	-11.7544
ouse	-11.7544
▁disappearing	-11.7547
call	-11.7552
▁mick	-11.7553
▁representing	-11.7555
▁interviewed	-11.7557
esca	-11.7562
▁workout	-11.7565
ckle	-11.7566
▁coos	-11.7566
▁dearly	-11.7566
▁auditioning	-11.7567
▁reform	-11.757
▁raft	-11.7572
▁lana	-11.7574
▁flick	-11.7578
▁bru	-11.7579
▁cubic	-11.758
lain	-11.7583
▁urges	-11.7587
▁circuits	-11.7589
▁superiors	-11.7589
▁bananas	-11.7589
▁homos	-11.7589
▁illusions	-11.7589
▁tricked	-11.7596
tched	-11.7596
anda	-11.7605
▁laver	-11.7606
▁thankful	-11.7608
▁wishes	-11.7608
▁comb	-11.7615
▁imagined	-11.7618
▁lotion	-11.7628
▁discussing	-11.763
▁capric	-11.7634
▁reacts	-11.7637
▁colleagues	-11.7641
▁motorcycles	-11.7642
▁switching	-11.7642
▁clair	-11.7643
▁sighting	-11.7643
▁abs	-11.7644
cub	-11.7652
▁snowing	-11.7652
▁aha	-11.7655
ommies	-11.7661
luck	-11.7661
▁ob	-11.7664
▁appoint	-11.7672
▁mope	-11.7675
▁dreamer	-11.7675
▁colder	-11.7679
▁ep	-11.7681
▁clum	-11.7683
▁scales	-11.7692
▁sweating	-11.7692
▁sessions	-11.7692
▁electronics	-11.7692
▁sheets	-11.7693
▁spic	-11.7695
▁abo	-11.77
▁beta	-11.771
▁expose	-11.771
▁cooked	-11.7715
▁ugli	-11.7715
nuck	-11.772
quel	-11.773
▁wedd	-11.7732
▁punched	-11.7733
▁warmed	-11.7734
▁ree	-11.7736
▁ocul	-11.7742
▁desires	-11.7744
▁currents	-11.7745
▁skipp	-11.7758
bel	-11.7758
ggl	-11.7759
▁cope	-11.7763
▁accepting	-11.7766
▁presented	-11.7767
gged	-11.7771
▁my	-11.7774
▁crashed	-11.7774
stage	-11.7775
▁pri	-11.7779
▁crave	-11.778
▁sher	-11.7782
▁clangs	-11.7795
▁span	-11.7795
▁squeals	-11.7796
▁channels	-11.7796
▁compliments	-11.7796
▁results	-11.7796
▁gals	-11.7797
acy	-11.7799
▁worthy	-11.7806
nts	-11.7807
▁riots	-11.7813
▁rein	-11.7815
▁turnin	-11.7815
▁undo	-11.7816
▁startin	-11.7825
leys	-11.7849
▁producers	-11.785
▁sweaters	-11.7871
▁classy	-11.7872
▁lions	-11.7881
▁filmed	-11.7901
▁grandfathers	-11.7901
▁scientists	-11.7901
▁lor	-11.7913
bath	-11.7929
▁fam	-11.7932
▁playin	-11.7938
▁hairy	-11.794
▁hoods	-11.7953
tar	-11.7973
▁votes	-11.7978
▁imitate	-11.7981
▁dealers	-11.7986
▁tin	-11.7988
▁sta	-11.7989
▁anticipate	-11.7998
▁bumps	-11.8006
▁sizes	-11.8006
▁assignments	-11.8007
▁leftys	-11.8011
▁anthe	-11.8011
▁archers	-11.8015
▁initiate	-11.8018
▁understa	-11.8039
▁jumping	-11.804
▁bark	-11.8041
▁ads	-11.805
▁comets	-11.805
▁adults	-11.806
▁blankets	-11.8061
▁flows	-11.8062
▁genes	-11.8071
cast	-11.8078
▁writers	-11.8079
ila	-11.8083
▁filming	-11.8083
▁decks	-11.8108
oose	-11.8112
▁ruins	-11.8115
hin	-11.8116
rank	-11.812
▁oc	-11.8129
hell	-11.8138
yi	-11.8144
balls	-11.8144
▁wings	-11.8157
▁materials	-11.8166
▁tuesdays	-11.8166
▁farts	-11.817
▁inhale	-11.8191
kers	-11.8208
▁layer	-11.8209
▁chapters	-11.822
▁specialize	-11.8226
lu	-11.8262
▁germans	-11.8265
rent	-11.8266
▁stayin	-11.8271
▁kershaws	-11.8273
▁salads	-11.8278
eena	-11.8278
▁stac	-11.8306
▁reviews	-11.8327
▁felixs	-11.8327
▁cracks	-11.8334
▁feelin	-11.834
▁launder	-11.8368
ura	-11.8374
▁sticker	-11.8375
▁buds	-11.8381
zh	-11.8401
▁marl	-11.8408
▁intimidate	-11.8433
▁storms	-11.8434
lish	-11.8437
▁ger	-11.8438
▁stro	-11.8439
▁inci	-11.8448
atic	-11.8472
ledge	-11.8476
▁bund	-11.8478
▁crumb	-11.8484
▁marker	-11.8487
▁serves	-11.8492
tted	-11.8545
▁assess	-11.856
▁crazie	-11.8569
shes	-11.857
ril	-11.8575
gan	-11.8588
hook	-11.8594
▁sausages	-11.8599
▁insulat	-11.8623
escent	-11.8624
▁roberts	-11.8645
mino	-11.8645
bar	-11.8647
tore	-11.8648
▁cleaner	-11.8661
▁tutu	-11.867
▁wiggl	-11.8689
bag	-11.87
ndo	-11.8709
▁twi	-11.8747
wee	-11.8763
▁dim	-11.8769
audible	-11.878
▁callin	-11.8796
▁getz	-11.8838
▁marti	-11.8842
▁pai	-11.8849
▁hog	-11.885
apri	-11.8858
lect	-11.886
▁rul	-11.8894
lot	-11.8894
aux	-11.8927
▁shu	-11.8969
hart	-11.9021
▁thi	-11.9029
▁pec	-11.9034
worn	-11.9046
rman	-11.9066
▁pac	-11.9084
▁comprehen	-11.9087
amen	-11.909
▁mode	-11.9104
rrection	-11.9106
brained	-11.9109
elier	-11.9121
ulation	-11.9163
rv	-11.9191
▁sedat	-11.9196
▁trac	-11.9203
illi	-11.9213
▁gall	-11.9229
rl	-11.9243
hea	-11.9248
nick	-11.9287
owned	-11.9313
opping	-11.9313
hill	-11.9331
▁fighter	-11.9331
▁aca	-11.9333
chester	-11.9337
▁misunderstand	-11.9348
rocco	-11.9351
hopping	-11.9386
orc	-11.9397
▁tru	-11.9412
pher	-11.9425
onne	-11.9431
serving	-11.9444
▁craz	-11.9447
▁invade	-11.9506
ippy	-11.9534
ipping	-11.954
▁anton	-11.9548
ification	-11.9554
fer	-11.9568
▁prov	-11.9571
▁qui	-11.9575
▁premed	-11.9609
▁explor	-11.9644
▁earlie	-11.9666
have	-11.9674
▁dana	-11.9692
each	-11.9695
cious	-11.9703
▁spr	-11.9703
lash	-11.9707
ruck	-11.9718
▁marcha	-11.9748
got	-11.9754
▁fer	-11.9779
ational	-11.9786
pan	-11.9798
▁juli	-11.9804
ple	-11.9831
▁neu	-11.9851
eye	-11.9853
hit	-11.9854
▁trou	-11.9862
▁manual	-11.9873
▁environmental	-11.9883
▁pip	-11.9888
wat	-11.9896
▁ru	-11.9925
▁scrape	-11.9939
▁ito	-11.994
cit	-11.9953
dar	-11.9954
▁alg	-11.996
▁preserv	-11.9992
egade	-12.0025
▁sip	-12.0028
unro	-12.0036
▁berk	-12.0039
istic	-12.0045
▁revolution	-12.0053
ool	-12.0068
▁mart	-12.0071
▁bog	-12.0075
route	-12.0101
carat	-12.0114
▁gent	-12.0123
otes	-12.0132
appointed	-12.0152
tre	-12.0157
oga	-12.0162
gular	-12.0165
▁clai	-12.0181
▁vam	-12.0186
▁cul	-12.0211
bron	-12.0217
▁prima	-12.0226
eater	-12.0237
▁occasion	-12.0241
▁bere	-12.0248
making	-12.0253
licking	-12.0253
▁virtu	-12.0256
iff	-12.0264
ency	-12.0297
mba	-12.0312
▁troubl	-12.0325
▁dribble	-12.0326
▁ug	-12.0333
agged	-12.0341
egan	-12.0374
trane	-12.0385
▁sac	-12.0402
▁bathe	-12.0413
▁whisper	-12.0414
▁betray	-12.0418
▁hoot	-12.0421
▁creak	-12.0429
eau	-12.0429
tical	-12.0435
bird	-12.0436
ody	-12.0439
▁mourn	-12.045
aver	-12.0451
▁handcuff	-12.0458
▁caxton	-12.0458
▁economic	-12.0458
▁eyebrow	-12.0458
▁misfit	-12.0458
▁pretzel	-12.0458
▁predator	-12.0458
▁oscar	-12.0458
▁alexa	-12.0458
▁slack	-12.0459
▁dispos	-12.0462
▁cougar	-12.0463
▁worm	-12.0466
▁troop	-12.0468
▁straw	-12.047
▁consequence	-12.047
▁dew	-12.0471
▁nazi	-12.0471
▁condom	-12.0471
▁dolphin	-12.0473
▁snarl	-12.0473
▁grownup	-12.0474
▁jaw	-12.0477
▁explosive	-12.0477
▁yankee	-12.0478
▁envi	-12.0479
▁vein	-12.0479
▁humvee	-12.048
▁circumstance	-12.0481
▁duct	-12.0485
▁topping	-12.0488
▁onion	-12.0488
▁beside	-12.0489
mates	-12.05
▁heel	-12.05
▁hada	-12.0508
ync	-12.0515
press	-12.052
▁lave	-12.052
▁kidnap	-12.0524
nica	-12.0539
▁salva	-12.054
▁redeem	-12.0542
▁why	-12.0544
▁nip	-12.0545
treating	-12.0546
▁critic	-12.0548
▁rank	-12.0548
▁beatle	-12.0551
lios	-12.0554
ickers	-12.0562
▁delight	-12.0563
▁publish	-12.0563
▁hick	-12.0564
▁tick	-12.0564
ister	-12.0565
▁cassi	-12.0566
lushing	-12.0567
▁annoy	-12.0568
handed	-12.0572
▁interfer	-12.0573
▁flop	-12.0574
▁trail	-12.0584
oma	-12.0587
wearing	-12.059
three	-12.0592
▁figur	-12.0595
nis	-12.0597
▁stutter	-12.0597
▁slurp	-12.0598
friends	-12.0599
▁unfold	-12.06
coming	-12.0601
▁murmur	-12.0602
▁wheez	-12.0603
▁plac	-12.0604
▁howl	-12.0604
▁disgust	-12.0604
▁secur	-12.0604
icky	-12.0605
▁echo	-12.0605
grad	-12.0605
▁select	-12.0606
thats	-12.0608
▁jame	-12.0608
▁disappoint	-12.0609
▁infect	-12.061
▁insult	-12.061
cher	-12.061
▁dismiss	-12.0611
▁restrict	-12.0611
▁glow	-12.0613
scope	-12.0613
conscious	-12.0614
riots	-12.0615
▁hustle	-12.0615
guard	-12.0615
february	-12.0616
▁rehearse	-12.0617
▁encourage	-12.0617
partial	-12.0617
whi	-12.0617
abas	-12.0618
dressed	-12.0618
dunk	-12.0618
▁crazies	-12.0618
privileged	-12.0619
spotted	-12.0619
▁declare	-12.0619
announce	-12.0619
regard	-12.0619
plug	-12.0619
make	-12.062
proof	-12.062
season	-12.062
apple	-12.062
model	-12.062
whispers	-12.062
▁discharge	-12.062
▁limb	-12.062
claim	-12.062
shift	-12.062
horse	-12.062
information	-12.062
danny	-12.062
movie	-12.062
behind	-12.062
married	-12.062
together	-12.062
fast	-12.062
sighs	-12.062
safe	-12.062
tips	-12.062
children	-12.062
▁eliminate	-12.062
▁excite	-12.0621
guns	-12.0621
black	-12.0621
siren	-12.0621
important	-12.0622
double	-12.0622
▁majest	-12.0622
▁whisk	-12.0622
wall	-12.0622
▁confuse	-12.0622
thunder	-12.0622
today	-12.0622
wick	-12.0622
grass	-12.0623
white	-12.0623
tail	-12.0623
fight	-12.0623
mature	-12.0623
excuse	-12.0624
▁energ	-12.0624
▁opportunit	-12.0624
perish	-12.0624
american	-12.0624
bodies	-12.0624
rude	-12.0624
▁equit	-12.0624
right	-12.0625
wha	-12.0625
▁rabbi	-12.0625
tube	-12.0625
▁crisp	-12.0626
▁blond	-12.0626
▁verbal	-12.0627
▁mutt	-12.0627
▁slate	-12.0628
▁univers	-12.0628
▁biblical	-12.0628
good	-12.0629
▁mutat	-12.0629
bank	-12.0629
▁vag	-12.063
long	-12.063
▁offens	-12.0631
bitch	-12.0631
ichi	-12.0631
▁unfortunate	-12.0631
▁whit	-12.0632
nail	-12.0632
▁salwa	-12.0632
bab	-12.0633
▁forge	-12.0633
hound	-12.0633
▁instruct	-12.0634
▁grac	-12.0634
bend	-12.0634
▁stoke	-12.0635
trap	-12.0635
▁touc	-12.0635
▁exhal	-12.0635
▁beave	-12.0635
▁gif	-12.0636
▁happie	-12.0636
▁beau	-12.0636
▁metallic	-12.0636
▁alias	-12.0637
▁swis	-12.0637
believable	-12.0637
▁colli	-12.0637
▁bold	-12.0637
metal	-12.0637
▁administrati	-12.0638
▁supervis	-12.0638
▁symbol	-12.0639
▁nozz	-12.0639
▁suburb	-12.0639
▁destruct	-12.0639
dolph	-12.0639
▁drivin	-12.0639
▁plannin	-12.0639
▁dyin	-12.064
▁defect	-12.064
▁gras	-12.064
umbling	-12.064
▁lovin	-12.0641
▁submit	-12.0641
omotion	-12.0641
▁krypton	-12.0641
ization	-12.0641
person	-12.0641
▁censor	-12.0641
▁rival	-12.0641
▁decorat	-12.0641
▁barten	-12.0641
▁fundamental	-12.0641
▁condescend	-12.0641
▁disrupt	-12.0641
▁exterminat	-12.0641
contamination	-12.0641
cuous	-12.0641
dahdahdahdah	-12.0641
encyclopedia	-12.0641
sensual	-12.0641
tinguish	-12.0641
▁abdomin	-12.0641
▁abilities	-12.0641
▁abolitionist	-12.0641
▁ackwell	-12.0641
▁aegean	-12.0641
▁aircondition	-12.0641
▁alleged	-12.0641
▁alternate	-12.0641
▁anchov	-12.0641
▁anello	-12.0641
▁aquinas	-12.0641
▁ararat	-12.0641
▁areuh	-12.0641
▁arrogant	-12.0641
▁artaphernes	-12.0641
▁aspen	-12.0641
▁astronaut	-12.0641
▁atoms	-12.0641
▁attaglia	-12.0641
▁audio	-12.0641
▁autumn	-12.0641
▁avocado	-12.0641
▁baloney	-12.0641
▁bankrupt	-12.0641
▁barboza	-12.0641
▁beheadings	-12.0641
▁beverage	-12.0641
▁bicycle	-12.0641
▁biohazard	-12.0641
▁boddicker	-12.0641
▁bolero	-12.0641
▁borough	-12.0641
▁bouchet	-12.0641
▁bouquet	-12.0641
▁bribing	-12.0641
▁brilliance	-12.0641
▁brittany	-12.0641
▁broflovski	-12.0641
▁caffeine	-12.0641
▁camaraderie	-12.0641
▁camcorder	-12.0641
▁campfire	-12.0641
▁capabilities	-12.0641
▁caribbean	-12.0641
▁catalogue	-12.0641
▁caucasian	-12.0641
▁caviar	-12.0641
▁chariot	-12.0641
▁charlotte	-12.0641
▁cheddar	-12.0641
▁chopsticks	-12.0641
▁chronic	-12.0641
▁chuckllng	-12.0641
▁cinnamon	-12.0641
▁clunking	-12.0641
▁cocksucking	-12.0641
▁coffeecake	-12.0641
▁coglin	-12.0641
▁condiments	-12.0641
▁cottage	-12.0641
▁counterfeit	-12.0641
▁daydream	-12.0641
▁deceiving	-12.0641
▁desatting	-12.0641
▁dilemma	-12.0641
▁diligent	-12.0641
▁disbarred	-12.0641
▁discreet	-12.0641
▁discretion	-12.0641
▁disengage	-12.0641
▁disobey	-12.0641
▁dissolve	-12.0641
▁ditomasso	-12.0641
▁dominatrix	-12.0641
▁dubai	-12.0641
▁dubov	-12.0641
▁dysfunction	-12.0641
▁earmuff	-12.0641
▁ebitda	-12.0641
▁eggplant	-12.0641
▁egypt	-12.0641
▁einstein	-12.0641
▁empower	-12.0641
▁encryption	-12.0641
▁enhance	-12.0641
▁enthusiasm	-12.0641
▁epitaph	-12.0641
▁ethnic	-12.0641
▁eunuch	-12.0641
▁examination	-12.0641
▁exhausting	-12.0641
▁expend	-12.0641
▁exposure	-12.0641
▁exquisite	-12.0641
▁famished	-12.0641
▁farrakhan	-12.0641
▁fazools	-12.0641
▁firepower	-12.0641
▁flanne	-12.0641
▁flapjack	-12.0641
▁flaps	-12.0641
▁fluttering	-12.0641
▁fragile	-12.0641
▁freysa	-12.0641
▁fujita	-12.0641
▁furnace	-12.0641
▁fword	-12.0641
▁gaelic	-12.0641
▁galaxy	-12.0641
▁gallivanting	-12.0641
▁generosity	-12.0641
▁genevieve	-12.0641
▁gibberish	-12.0641
▁giddyap	-12.0641
▁giuseppina	-12.0641
▁gordetsky	-12.0641
▁grandparents	-12.0641
▁gretzky	-12.0641
▁guillermo	-12.0641
▁handicrafts	-12.0641
▁hawaii	-12.0641
▁heirloom	-12.0641
▁hellfire	-12.0641
▁hemorrhaging	-12.0641
▁historian	-12.0641
▁horrific	-12.0641
▁housekeeper	-12.0641
▁housewives	-12.0641
▁ichimaru	-12.0641
▁impeccable	-12.0641
▁imprison	-12.0641
▁impulse	-12.0641
▁insatiable	-12.0641
▁insubordination	-12.0641
▁insured	-12.0641
▁intellectual	-12.0641
▁intervention	-12.0641
▁intrusion	-12.0641
▁jetlagged	-12.0641
▁kashiwara	-12.0641
▁kazakh	-12.0641
▁khaleesi	-12.0641
▁kilometers	-12.0641
▁kilometre	-12.0641
▁kimberly	-12.0641
▁kolnas	-12.0641
▁kramer	-12.0641
▁kristofferson	-12.0641
▁kyushi	-12.0641
▁lackett	-12.0641
▁lactose	-12.0641
▁laguna	-12.0641
▁literature	-12.0641
▁lizard	-12.0641
▁lloyd	-12.0641
▁macneil	-12.0641
▁managing	-12.0641
▁manicotti	-12.0641
▁margaret	-12.0641
▁marvelous	-12.0641
▁massachusetts	-12.0641
▁masturbation	-12.0641
▁matawai	-12.0641
▁mcbrayer	-12.0641
▁mcclure	-12.0641
▁miguel	-12.0641
▁minamata	-12.0641
▁misunderstood	-12.0641
▁mmmmmartin	-12.0641
▁mogadishu	-12.0641
▁monogamy	-12.0641
▁monopoly	-12.0641
▁motoyama	-12.0641
▁municipal	-12.0641
▁mwah	-12.0641
▁neanderthal	-12.0641
▁neglect	-12.0641
▁neighbourhood	-12.0641
▁nevada	-12.0641
▁nostalgia	-12.0641
▁nugget	-12.0641
▁nuisance	-12.0641
▁obligated	-12.0641
▁oconnor	-12.0641
▁optimistic	-12.0641
▁ostrich	-12.0641
▁overhaul	-12.0641
▁pakistani	-12.0641
▁paolo	-12.0641
▁parameters	-12.0641
▁pavilion	-12.0641
▁peekaboo	-12.0641
▁perceive	-12.0641
▁perception	-12.0641
▁perpetrator	-12.0641
▁pixel	-12.0641
▁pneumonia	-12.0641
▁poiice	-12.0641
▁polaroid	-12.0641
▁preoccupied	-12.0641
▁prettier	-12.0641
▁prevailed	-12.0641
▁prokofiev	-12.0641
▁prophet	-12.0641
▁pterodactyl	-12.0641
▁purring	-12.0641
▁quadrant	-12.0641
▁quivering	-12.0641
▁racetrack	-12.0641
▁racism	-12.0641
▁reagan	-12.0641
▁recreation	-12.0641
▁refrain	-12.0641
▁resource	-12.0641
▁retaliat	-12.0641
▁rossaveal	-12.0641
▁roundabout	-12.0641
▁sabbath	-12.0641
▁sabotag	-12.0641
▁scallions	-12.0641
▁schlomit	-12.0641
▁schlotzskys	-12.0641
▁schmid	-12.0641
▁schmuck	-12.0641
▁seagulls	-12.0641
▁selfsufficient	-12.0641
▁september	-12.0641
▁seventyfive	-12.0641
▁shakespeare	-12.0641
▁shattering	-12.0641
▁shelves	-12.0641
▁shrieking	-12.0641
▁sicilian	-12.0641
▁smoky	-12.0641
▁solemn	-12.0641
▁spectacle	-12.0641
▁spiddal	-12.0641
▁squid	-12.0641
▁streisand	-12.0641
▁sugarbug	-12.0641
▁summat	-12.0641
▁sundeck	-12.0641
▁sunglasses	-12.0641
▁sunrise	-12.0641
▁superpower	-12.0641
▁swift	-12.0641
▁symphoni	-12.0641
▁syrup	-12.0641
▁telegram	-12.0641
▁thrones	-12.0641
▁toledo	-12.0641
▁transaction	-12.0641
▁transparent	-12.0641
▁transplant	-12.0641
▁triangle	-12.0641
▁trioceanic	-12.0641
▁trudeau	-12.0641
▁tulyakbay	-12.0641
▁ultraviolet	-12.0641
▁unhealthy	-12.0641
▁unicef	-12.0641
▁unimaginable	-12.0641
▁uninterested	-12.0641
▁unpleasant	-12.0641
▁unrelated	-12.0641
▁unstoppable	-12.0641
▁unzipping	-12.0641
▁urgency	-12.0641
▁vaccine	-12.0641
▁vacuum	-12.0641
▁vampire	-12.0641
▁vasquez	-12.0641
▁verdegast	-12.0641
▁viagra	-12.0641
▁vicinity	-12.0641
▁visiontext	-12.0641
▁voguing	-12.0641
▁wahab	-12.0641
▁wanjidon	-12.0641
▁whatnot	-12.0641
▁wheelchair	-12.0641
▁willful	-12.0641
▁xoxo	-12.0641
▁xylitol	-12.0641
▁yogurt	-12.0641
migrant	-12.0641
tomic	-12.0641
▁analyze	-12.0641
▁bleep	-12.0641
▁briggs	-12.0641
▁hiccup	-12.0641
▁intestin	-12.0641
▁jacob	-12.0641
▁leap	-12.0641
▁resolve	-12.0641
▁ryder	-12.0641
▁seatbelt	-12.0641
▁selfdefen	-12.0641
▁shouid	-12.0641
▁sponge	-12.0641
▁steadi	-12.0641
▁zinc	-12.0641
▁brrr	-12.0641
▁canvas	-12.0641
▁carrots	-12.0641
▁coeur	-12.0641
▁farmhands	-12.0641
▁flashdance	-12.0641
▁fortifications	-12.0641
▁fossil	-12.0641
▁gazebo	-12.0641
▁gazzo	-12.0641
▁godawful	-12.0641
▁hardcore	-12.0641
▁havana	-12.0641
▁herpes	-12.0641
▁hpv	-12.0641
▁instagram	-12.0641
▁integr	-12.0641
▁jomon	-12.0641
▁jovi	-12.0641
▁merci	-12.0641
▁piace	-12.0641
▁practicing	-12.0641
▁proposal	-12.0641
▁remodeling	-12.0641
▁rotating	-12.0641
▁senate	-12.0641
▁solomon	-12.0641
▁stunned	-12.0641
▁survey	-12.0641
▁swoll	-12.0641
▁twentie	-12.0641
▁worshippers	-12.0641
▁xray	-12.0641
▁yikes	-12.0641
▁yuca	-12.0641
▁assembled	-12.0641
▁bleak	-12.0641
▁bulldogs	-12.0641
▁canoe	-12.0641
▁credentia	-12.0641
▁demeaning	-12.0641
▁depp	-12.0641
▁diapers	-12.0641
▁dominat	-12.0641
▁ibm	-12.0641
▁jasper	-12.0641
▁linebacker	-12.0641
▁obnoxious	-12.0641
▁phony	-12.0641
▁shag	-12.0641
▁siege	-12.0641
▁substantia	-12.0641
efficient	-12.0641
▁alienating	-12.0641
▁exceptional	-12.0641
▁mortars	-12.0641
▁raving	-12.0641
▁saveaho	-12.0641
▁slippers	-12.0641
▁stabbing	-12.0641
▁tingling	-12.0641
▁unkind	-12.0641
▁visible	-12.0641
▁whadda	-12.0641
urray	-12.0641
▁bandana	-12.0641
▁gymnasium	-12.0641
▁overhear	-12.0641
▁provincetown	-12.0641
▁salmon	-12.0641
▁ovation	-12.0641
▁smores	-12.0641
▁adapt	-12.0641
▁strobe	-12.0641
▁agitat	-12.0641
▁beauregard	-12.0641
▁hilton	-12.0641
▁sensor	-12.0641
▁vichy	-12.0641
template	-12.0641
▁amusing	-12.0641
▁bartending	-12.0641
▁havin	-12.0641
▁ooooh	-12.0641
▁abusive	-12.0641
▁berenson	-12.0641
▁evict	-12.0641
▁hiatus	-12.0641
▁overlapping	-12.0641
▁plugged	-12.0641
▁rattles	-12.0641
▁synthe	-12.0641
▁ficus	-12.0641
▁homophobi	-12.0641
▁silicon	-12.0641
▁sunbed	-12.0641
▁historic	-12.0641
▁presume	-12.0641
▁farther	-12.0641
▁morphine	-12.0641
▁emerson	-12.0641
▁facing	-12.0641
▁peckerwood	-12.0641
endricks	-12.0641
▁belittl	-12.0641
▁boris	-12.0641
▁highprice	-12.0641
▁innovati	-12.0641
▁ruski	-12.0641
▁obama	-12.0641
▁yawn	-12.0641
▁alphabet	-12.0641
▁crossways	-12.0641
▁headphones	-12.0641
▁knucklehead	-12.0641
▁silvi	-12.0641
▁wilki	-12.0641
▁stewardess	-12.0641
▁abscam	-12.0641
ashima	-12.0641
▁whirl	-12.0641
▁frightening	-12.0641
▁oneonone	-12.0641
▁trembling	-12.0641
▁werdijan	-12.0641
▁yoohoo	-12.0641
▁apocalypse	-12.0641
▁coddling	-12.0641
▁communities	-12.0641
▁muff	-12.0641
▁playlists	-12.0641
▁ribbed	-12.0641
oglob	-12.0641
▁conflat	-12.0641
▁cyb	-12.0641
▁microphone	-12.0641
▁whitney	-12.0641
▁vacant	-12.0641
▁assertations	-12.0641
▁bodybuilders	-12.0641
▁cliff	-12.0641
▁millennium	-12.0641
▁minibar	-12.0641
▁radioactivity	-12.0641
▁taime	-12.0641
▁aroused	-12.0641
▁anomal	-12.0641
▁ninetynine	-12.0641
▁voyeurism	-12.0641
▁colaba	-12.0641
▁tranquilizer	-12.0641
▁derringer	-12.0641
▁dispers	-12.0641
▁exploding	-12.0641
▁blaze	-12.0641
▁corrado	-12.0641
▁ecsta	-12.0641
▁houston	-12.0641
▁pillbox	-12.0641
▁swarm	-12.0641
▁twitch	-12.0641
▁sphin	-12.0641
▁caramel	-12.0642
▁linguist	-12.0642
▁modified	-12.0642
▁offhand	-12.0642
▁plunge	-12.0642
▁splatter	-12.0642
holding	-12.0642
▁commis	-12.0642
▁psychologist	-12.0642
▁lassies	-12.0642
▁decorations	-12.0642
▁dispute	-12.0642
▁thudding	-12.0642
▁gibb	-12.0642
▁evaluation	-12.0642
▁frederickson	-12.0642
▁rubbing	-12.0642
▁darren	-12.0642
▁postdeath	-12.0642
▁bernard	-12.0642
▁sharpshooter	-12.0642
▁admission	-12.0642
▁antisemitic	-12.0642
▁hurl	-12.0642
▁whatcha	-12.0642
▁slamming	-12.0642
▁spinning	-12.0642
▁arcade	-12.0642
▁hinges	-12.0642
▁pablo	-12.0642
▁pedal	-12.0642
▁clockwise	-12.0642
▁cnn	-12.0642
▁karl	-12.0642
▁resemblance	-12.0642
▁guff	-12.0642
▁submitted	-12.0642
▁douchebag	-12.0642
▁timmy	-12.0642
▁cockmaster	-12.0642
▁hypnotized	-12.0642
▁peddle	-12.0642
▁phew	-12.0642
▁slaughterhouse	-12.0642
▁spectrum	-12.0642
▁inher	-12.0642
▁swip	-12.0642
▁translation	-12.0642
▁wilkins	-12.0642
▁dumont	-12.0642
▁resignation	-12.0642
▁beware	-12.0642
▁gestur	-12.0642
▁hypothe	-12.0642
▁morocco	-12.0642
▁intercept	-12.0642
▁penalty	-12.0642
▁sequel	-12.0642
▁infant	-12.0642
▁sandler	-12.0642
▁bullhorn	-12.0642
▁statue	-12.0642
▁sissy	-12.0642
▁siding	-12.0642
▁furious	-12.0642
▁hayward	-12.0642
▁liability	-12.0642
▁pinpoint	-12.0642
▁millionaire	-12.0642
▁twentynine	-12.0642
▁skipperling	-12.0642
▁ribs	-12.0642
▁casa	-12.0642
▁xbox	-12.0642
▁accessory	-12.0642
▁lebel	-12.0642
▁dcs	-12.0642
▁lenin	-12.0642
▁withdrawal	-12.0642
▁pulak	-12.0642
▁finland	-12.0642
▁composting	-12.0642
▁nadia	-12.0642
▁britney	-12.0642
▁chimp	-12.0642
▁pollution	-12.0643
▁zimmerman	-12.0643
▁whirs	-12.0643
giver	-12.0643
▁offside	-12.0643
▁sherry	-12.0643
▁sarcasm	-12.0643
▁clipped	-12.0643
▁dominan	-12.0643
▁malice	-12.0643
▁lindus	-12.0643
▁provoke	-12.0643
▁hillbillies	-12.0643
▁michi	-12.0643
▁futon	-12.0643
▁plating	-12.0643
▁contestant	-12.0643
▁barcode	-12.0643
▁fluent	-12.0643
▁regroup	-12.0643
▁junco	-12.0643
▁software	-12.0643
▁cancelled	-12.0643
▁vague	-12.0643
▁duff	-12.0643
▁precedent	-12.0643
▁yuck	-12.0643
▁suburban	-12.0643
▁participation	-12.0643
▁saddle	-12.0643
▁glee	-12.0643
▁programming	-12.0643
▁blondie	-12.0643
▁oooh	-12.0643
▁lucious	-12.0643
juven	-12.0643
bbling	-12.0643
▁snot	-12.0643
▁trance	-12.0643
▁selection	-12.0643
▁mappy	-12.0643
▁glance	-12.0643
▁symbolic	-12.0644
uzzi	-12.0644
▁ceme	-12.0644
▁sulli	-12.0644
▁hunk	-12.0644
▁outlet	-12.0644
▁nudge	-12.0644
▁merit	-12.0644
▁hottie	-12.0644
▁mousse	-12.0644
nburg	-12.0644
▁poppy	-12.0644
▁bandaid	-12.0644
▁cellphone	-12.0644
▁measurement	-12.0644
▁suki	-12.0644
▁lindem	-12.0644
▁aero	-12.0644
▁beetle	-12.0644
▁caroline	-12.0644
▁twinkie	-12.0644
▁adrenaline	-12.0644
▁penetrate	-12.0644
▁jasmine	-12.0644
▁roleplay	-12.0644
▁administration	-12.0644
▁ciose	-12.0644
▁feedback	-12.0644
▁hunch	-12.0644
▁buren	-12.0645
▁patio	-12.0645
▁skeptical	-12.0645
▁caf	-12.0645
▁steppin	-12.0645
▁passbook	-12.0645
▁dooley	-12.0645
▁shred	-12.0645
▁quartet	-12.0645
neau	-12.0645
▁traumatic	-12.0645
naise	-12.0645
▁resent	-12.0645
▁squirt	-12.0645
▁underway	-12.0645
▁cris	-12.0645
▁atta	-12.0645
▁mediator	-12.0645
▁brotherinlaw	-12.0645
owow	-12.0645
▁toby	-12.0645
▁flak	-12.0645
▁maui	-12.0645
▁pervers	-12.0645
▁humid	-12.0645
▁thirt	-12.0645
▁rawness	-12.0645
▁nause	-12.0645
▁dojo	-12.0645
▁elementary	-12.0645
▁arson	-12.0645
▁bodyguard	-12.0645
▁spade	-12.0646
▁smut	-12.0646
anquet	-12.0646
▁category	-12.0646
▁livestock	-12.0646
▁farmhouse	-12.0646
▁containment	-12.0646
▁feminist	-12.0646
▁magnu	-12.0646
▁apb	-12.0646
▁bookcase	-12.0646
▁milf	-12.0646
▁ramey	-12.0646
▁ramble	-12.0646
▁panty	-12.0646
▁deceived	-12.0646
▁rosa	-12.0646
▁airbag	-12.0646
▁susanna	-12.0646
▁disappearance	-12.0646
▁juke	-12.0646
▁selfishness	-12.0646
▁esta	-12.0646
▁courtroom	-12.0646
atian	-12.0646
▁jerkoff	-12.0646
▁sofa	-12.0646
▁income	-12.0647
▁margie	-12.0647
▁crane	-12.0647
▁retardation	-12.0647
▁sewers	-12.0647
▁rave	-12.0647
▁motivation	-12.0647
▁premeditated	-12.0647
▁circumcised	-12.0647
▁errands	-12.0647
▁jackrabbit	-12.0647
▁closure	-12.0647
▁falco	-12.0647
▁bruh	-12.0647
▁unconscious	-12.0647
▁clash	-12.0647
▁foreman	-12.0647
arthur	-12.0647
▁aaah	-12.0647
▁nourishment	-12.0647
▁disposal	-12.0647
riving	-12.0647
▁pussies	-12.0647
▁rodeo	-12.0647
▁hassl	-12.0647
▁riddler	-12.0647
▁intel	-12.0647
▁detest	-12.0647
▁coven	-12.0647
▁volcano	-12.0648
▁profitable	-12.0648
▁snuff	-12.0648
▁andie	-12.0648
quit	-12.0648
▁bode	-12.0648
▁indoor	-12.0648
▁nutri	-12.0648
▁stella	-12.0648
▁marone	-12.0648
▁waxman	-12.0648
▁curb	-12.0648
▁lyin	-12.0648
▁mariana	-12.0648
▁brevi	-12.0648
ntact	-12.0649
▁accosted	-12.0649
▁snicker	-12.0649
▁spooner	-12.0649
▁dragging	-12.0649
▁dante	-12.0649
reign	-12.0649
▁welcom	-12.0649
▁metallica	-12.0649
▁comf	-12.0649
▁classroom	-12.0649
▁eff	-12.0649
▁theatre	-12.0649
▁tribe	-12.0649
▁indie	-12.065
▁upto	-12.065
openha	-12.065
▁lefthanded	-12.065
forsak	-12.065
▁dried	-12.065
▁reload	-12.065
▁hoover	-12.065
▁casualty	-12.065
▁poof	-12.065
▁controller	-12.065
▁spices	-12.065
orium	-12.0651
▁cement	-12.0651
▁handjob	-12.0651
▁indulging	-12.0651
▁invigorating	-12.0651
▁vomiting	-12.0651
litol	-12.0651
▁indicator	-12.0651
▁yearbook	-12.0651
▁modest	-12.0651
▁maim	-12.0651
▁advancement	-12.0651
wind	-12.0651
▁valet	-12.0651
▁bearbear	-12.0651
did	-12.0652
▁carats	-12.0652
▁mortal	-12.0652
▁swish	-12.0652
ylli	-12.0652
▁melon	-12.0652
▁shah	-12.0652
▁writin	-12.0652
dancin	-12.0652
▁dumbsky	-12.0652
▁brood	-12.0652
▁croatia	-12.0652
▁gust	-12.0652
▁chink	-12.0652
▁whoaoh	-12.0652
▁combo	-12.0653
▁assert	-12.0653
▁prosecutor	-12.0654
▁triad	-12.0654
▁mutation	-12.0654
▁thatthat	-12.0654
▁dej	-12.0654
▁techno	-12.0654
▁electrocuted	-12.0655
▁secondhand	-12.0655
▁nof	-12.0655
▁stow	-12.0655
▁marta	-12.0655
▁hallowe	-12.0655
▁deduction	-12.0655
▁arlene	-12.0655
▁prin	-12.0656
▁rations	-12.0656
▁mandel	-12.0656
mated	-12.0656
▁dole	-12.0656
aday	-12.0656
▁vey	-12.0656
▁stray	-12.0656
▁token	-12.0656
▁surf	-12.0656
▁irises	-12.0656
▁billow	-12.0657
▁evac	-12.0657
▁truthfully	-12.0657
cative	-12.0657
▁emmy	-12.0657
player	-12.0657
▁instructor	-12.0657
▁iong	-12.0657
▁unlikely	-12.0657
▁greenway	-12.0657
▁landline	-12.0658
▁vast	-12.0658
▁pasa	-12.0658
▁neuro	-12.0658
minar	-12.0658
▁differential	-12.0658
▁kung	-12.0658
▁settlement	-12.0658
▁quest	-12.0659
▁cere	-12.0659
▁twentyone	-12.0659
▁khole	-12.0659
theless	-12.0659
idden	-12.0659
▁grandson	-12.0659
▁seattle	-12.0659
▁touchdown	-12.0659
erlin	-12.0659
▁investor	-12.0659
▁rally	-12.0659
▁homecoming	-12.066
▁household	-12.066
▁forgiveness	-12.066
▁enable	-12.0661
▁zoomer	-12.0661
▁nationalist	-12.0662
▁aggravated	-12.0662
▁smushed	-12.0662
▁whisky	-12.0662
▁precisely	-12.0662
▁seduced	-12.0662
▁colonies	-12.0662
▁flushes	-12.0662
▁benson	-12.0662
▁katz	-12.0662
▁earnest	-12.0662
ffle	-12.0662
▁aj	-12.0662
▁goose	-12.0663
▁postcard	-12.0663
▁priceless	-12.0663
▁vel	-12.0663
▁arl	-12.0663
▁dept	-12.0663
▁rumbl	-12.0663
▁declared	-12.0663
▁lyon	-12.0663
▁aspir	-12.0664
▁bedside	-12.0664
uate	-12.0665
▁quitting	-12.0665
▁badasses	-12.0665
▁snlffl	-12.0665
▁waist	-12.0666
▁jour	-12.0666
▁judgmental	-12.0666
▁mazel	-12.0666
▁pact	-12.0666
▁february	-12.0666
uffy	-12.0666
▁hitler	-12.0666
▁conan	-12.0667
crimination	-12.0667
▁fulltime	-12.0667
▁disturbed	-12.0667
▁adjusted	-12.0667
▁yama	-12.0668
▁hollering	-12.0668
▁deter	-12.0668
▁sandal	-12.0668
▁bein	-12.0669
▁occupy	-12.0669
▁burglary	-12.0669
▁foxy	-12.0669
▁frosty	-12.0669
▁ivy	-12.0669
▁presentation	-12.067
▁mog	-12.067
▁wel	-12.067
▁viewers	-12.067
▁pitches	-12.0671
▁bertin	-12.0671
bbed	-12.0672
▁hysterically	-12.0672
▁cour	-12.0672
▁bandit	-12.0672
band	-12.0673
care	-12.0673
cek	-12.0674
gina	-12.0674
urity	-12.0675
▁muted	-12.0675
▁plotz	-12.0675
▁selected	-12.0675
▁annoyed	-12.0675
▁delighted	-12.0675
▁clearance	-12.0675
▁betrayed	-12.0675
▁pinto	-12.0676
▁peaches	-12.0676
▁vagi	-12.0676
▁roofies	-12.0677
▁processor	-12.0677
mption	-12.0677
▁kinky	-12.0677
▁accommodate	-12.0677
▁dang	-12.0678
lnglng	-12.0678
▁challenger	-12.0678
▁num	-12.0679
▁roid	-12.0679
veil	-12.0679
▁contractor	-12.068
▁improvise	-12.068
▁daah	-12.0681
▁barge	-12.0681
▁malt	-12.0681
▁engineering	-12.0681
▁hun	-12.0681
▁boop	-12.0681
▁judi	-12.0681
▁megan	-12.0682
▁hijack	-12.0682
esteem	-12.0682
▁hof	-12.0682
▁shipment	-12.0682
▁heap	-12.0683
▁astrophysics	-12.0683
▁brochures	-12.0683
▁chippendales	-12.0683
alga	-12.0683
▁demer	-12.0684
▁skimm	-12.0684
▁conver	-12.0685
▁uphold	-12.0685
▁slurping	-12.0685
▁stuttering	-12.0685
▁unfolding	-12.0685
▁trailing	-12.0685
▁greedy	-12.0685
ployed	-12.0686
▁penal	-12.0686
eady	-12.0686
▁cellmate	-12.0687
▁sect	-12.0687
▁turd	-12.0687
▁pint	-12.0687
▁duo	-12.0688
▁knuckles	-12.0688
▁standby	-12.0688
antic	-12.0689
▁drew	-12.0689
atlng	-12.0689
▁biggie	-12.0689
▁potentially	-12.069
▁fum	-12.0691
▁elite	-12.0691
▁charmed	-12.0691
▁partial	-12.0692
▁superb	-12.0692
▁drone	-12.0693
▁bogot	-12.0693
▁gunner	-12.0694
front	-12.0694
▁rode	-12.0694
life	-12.0699
▁swan	-12.0699
anguish	-12.07
▁dragon	-12.07
▁vh	-12.07
▁tilt	-12.0701
▁amped	-12.0701
▁via	-12.0701
▁achieved	-12.0702
▁sexier	-12.0702
▁swelling	-12.0702
▁mocking	-12.0702
▁tweaking	-12.0702
▁enjoyable	-12.0704
▁sanction	-12.0704
talking	-12.0704
▁nightnight	-12.0705
▁kickass	-12.0705
▁teammate	-12.0706
▁icon	-12.0707
▁reel	-12.0707
▁employed	-12.0708
▁bulletin	-12.0708
ature	-12.0708
▁salsa	-12.0709
▁dur	-12.0709
▁rustl	-12.071
walker	-12.0711
▁rubin	-12.0711
▁digest	-12.0712
▁betsy	-12.0712
▁iiii	-12.0713
▁nerd	-12.0713
ronto	-12.0714
▁straightened	-12.0715
▁healed	-12.0716
▁prayin	-12.0716
▁jett	-12.0717
▁wages	-12.0717
▁freakin	-12.0717
▁kla	-12.0718
▁mixer	-12.0718
▁reserve	-12.0719
▁hissing	-12.0721
▁topless	-12.0723
▁sitter	-12.0724
▁conserv	-12.0725
▁lars	-12.0725
▁squeezed	-12.0725
▁headline	-12.0727
▁smoothly	-12.0727
▁abused	-12.0727
▁unlocked	-12.0729
▁succeeded	-12.0729
▁weighed	-12.0729
▁cong	-12.0729
▁reacted	-12.0729
bling	-12.073
▁crow	-12.0731
working	-12.0732
▁comme	-12.0732
▁unto	-12.0733
donna	-12.0733
▁dale	-12.0734
▁quint	-12.0735
▁followup	-12.0736
▁sailing	-12.0739
tarian	-12.074
▁becker	-12.074
▁peeping	-12.0741
▁personne	-12.0744
▁solved	-12.0744
pad	-12.0748
▁devour	-12.0751
▁steven	-12.0752
▁negotiated	-12.0753
▁mau	-12.0754
▁beams	-12.0754
▁plums	-12.0754
▁appearances	-12.0754
▁fragments	-12.0754
▁tooheys	-12.0754
▁veterans	-12.0754
▁tourists	-12.0754
▁distorts	-12.0754
▁nuns	-12.0755
▁contributions	-12.0755
▁mit	-12.0756
▁licked	-12.0756
▁secondary	-12.0757
▁nighttime	-12.0759
spel	-12.076
▁daring	-12.0765
▁hornet	-12.0766
▁linger	-12.0768
▁skid	-12.0769
▁escala	-12.077
▁scraping	-12.0771
▁hammering	-12.0772
▁approached	-12.0772
▁binding	-12.0773
▁clone	-12.0774
▁yea	-12.0775
▁roy	-12.0776
▁calculate	-12.0777
▁guaranteed	-12.0779
▁hangup	-12.078
achi	-12.0781
▁vouched	-12.0783
▁interrupted	-12.0783
▁likewise	-12.0784
▁sic	-12.0787
▁weakly	-12.0788
▁whatshis	-12.0788
▁originate	-12.0789
▁applying	-12.079
▁distracting	-12.0791
▁raging	-12.0791
▁anima	-12.0792
▁interaction	-12.0794
▁sai	-12.0795
tech	-12.0798
▁dresses	-12.08
▁pointless	-12.0805
ulder	-12.0806
birds	-12.0807
▁gram	-12.0807
▁inco	-12.0812
▁doe	-12.0815
▁rewarded	-12.0815
rag	-12.0816
▁suing	-12.0817
▁potion	-12.0819
▁erica	-12.0821
vatore	-12.0824
winces	-12.0826
▁pitching	-12.0826
▁aiming	-12.0826
▁ranks	-12.0827
▁slacks	-12.0828
▁cougars	-12.0828
▁misfits	-12.0828
▁oscars	-12.0828
▁caxtons	-12.0828
▁economics	-12.0828
▁eyebrows	-12.0828
▁predators	-12.0828
▁pretzels	-12.0828
▁grownups	-12.0828
▁betrays	-12.0829
▁condoms	-12.0829
▁handcuffs	-12.083
▁hind	-12.0835
▁scratched	-12.0838
▁justif	-12.084
erous	-12.0843
▁buses	-12.0844
nium	-12.0845
▁gunman	-12.0853
▁spared	-12.0854
▁trimm	-12.0855
▁fallin	-12.0856
▁dangerously	-12.0859
▁connecting	-12.0862
outof	-12.0866
▁hardass	-12.0868
▁tendenc	-12.0869
▁mistaken	-12.0871
▁shaped	-12.0871
▁occasional	-12.0873
▁practiced	-12.0878
▁wearin	-12.0881
▁highp	-12.0884
▁thoughtful	-12.0891
▁sweaty	-12.0896
▁defending	-12.0897
dis	-12.0899
▁martini	-12.0901
▁quads	-12.0901
▁gems	-12.0902
▁snorts	-12.0902
▁cramps	-12.0903
▁bracelets	-12.0903
▁homies	-12.0903
▁ninjas	-12.0903
▁trumps	-12.0903
▁eman	-12.0903
▁charms	-12.0904
▁mannys	-12.0905
▁narcissist	-12.0906
credible	-12.0908
▁photographed	-12.091
cards	-12.0913
▁climbing	-12.0915
▁lynne	-12.0918
mut	-12.0922
idal	-12.0925
▁oily	-12.0925
▁soften	-12.0928
nsion	-12.0929
▁quin	-12.093
▁starters	-12.0931
▁gathering	-12.0932
▁mara	-12.0938
rawn	-12.0939
▁assets	-12.094
▁fortunate	-12.0941
monica	-12.0945
elli	-12.0954
▁manda	-12.0956
▁pullin	-12.0957
▁shorter	-12.096
▁stressed	-12.096
offing	-12.097
▁mcfe	-12.0973
▁financ	-12.0974
▁crystals	-12.0978
▁concerts	-12.0978
▁lengths	-12.0978
▁margaritas	-12.0978
▁rpgs	-12.0978
▁shafts	-12.0978
▁ruler	-12.0978
▁suggestions	-12.0982
izers	-12.0983
▁rockets	-12.0987
adios	-12.0987
hugging	-12.0987
ria	-12.0989
▁greatness	-12.099
▁sicko	-12.0993
▁pleur	-12.1001
▁gardener	-12.1003
▁provo	-12.1005
▁heed	-12.1021
▁sharpen	-12.1021
uda	-12.1027
▁deer	-12.1035
amas	-12.1035
▁fizz	-12.1039
communica	-12.1041
▁delivering	-12.1042
▁mach	-12.1043
upand	-12.105
▁tasted	-12.1054
▁snore	-12.1056
▁affects	-12.1061
gro	-12.107
predictable	-12.108
▁nada	-12.1082
▁blo	-12.1083
▁baron	-12.1094
seen	-12.1096
▁realm	-12.1116
▁hums	-12.1121
▁mai	-12.1122
▁deduct	-12.1131
▁crescen	-12.1133
▁untr	-12.1146
▁walkin	-12.1148
▁buttfuck	-12.1162
tribution	-12.1164
▁jig	-12.1208
▁justju	-12.1212
▁stumble	-12.1217
ually	-12.1221
hey	-12.1231
pedo	-12.1237
ailey	-12.1246
▁vap	-12.1251
mel	-12.1255
▁plato	-12.1263
hine	-12.1266
▁cue	-12.1279
▁gus	-12.1284
▁plott	-12.1287
▁smoker	-12.13
▁bubb	-12.1304
▁sames	-12.1325
▁pear	-12.1325
now	-12.134
▁nu	-12.135
▁deriv	-12.1351
▁hob	-12.136
▁fra	-12.1362
cept	-12.1363
ua	-12.1398
plate	-12.1408
▁shrin	-12.1412
▁louie	-12.1421
▁checkin	-12.1421
bri	-12.1421
▁victoria	-12.1426
▁patroll	-12.143
▁ama	-12.1435
owels	-12.1448
▁vot	-12.145
▁headin	-12.1459
▁beii	-12.1466
more	-12.1474
▁overstat	-12.1482
▁conne	-12.1483
oomar	-12.1483
▁stripp	-12.1496
▁hamst	-12.1517
▁calculat	-12.1526
thre	-12.1556
ratio	-12.1557
quent	-12.1566
oki	-12.1581
▁bung	-12.1583
▁hein	-12.1591
▁explore	-12.1595
▁whwh	-12.1606
cita	-12.164
passionate	-12.1642
fers	-12.1651
hooters	-12.1666
mash	-12.1667
zen	-12.1704
put	-12.1709
▁showin	-12.171
▁divide	-12.1725
luster	-12.173
bach	-12.1736
▁ado	-12.1736
fulness	-12.1749
▁magnifi	-12.1754
▁keeg	-12.1757
▁tease	-12.1757
ittie	-12.178
▁engineer	-12.1781
sug	-12.1783
▁hobb	-12.1796
orate	-12.18
▁patholog	-12.1812
▁styl	-12.1836
▁notar	-12.1843
▁overt	-12.1853
▁oni	-12.1859
reach	-12.1885
▁hyper	-12.1909
▁hipp	-12.1957
butt	-12.1961
log	-12.1972
luke	-12.1982
▁prepp	-12.2003
▁nob	-12.2009
loo	-12.201
aura	-12.2011
▁ador	-12.2049
stache	-12.2072
▁rile	-12.2076
▁sanit	-12.2086
▁circulate	-12.2118
roth	-12.2119
▁colorful	-12.2127
hap	-12.2137
kro	-12.2169
▁terroriz	-12.2181
marley	-12.2182
▁improv	-12.2188
▁filmmak	-12.219
umbled	-12.2195
▁char	-12.2195
ump	-12.2229
▁hai	-12.2251
▁investigate	-12.2318
andal	-12.232
omin	-12.2326
ando	-12.2329
▁buster	-12.2357
▁truc	-12.2386
posed	-12.2391
▁regrett	-12.2488
▁mutilat	-12.2495
▁gir	-12.2498
chin	-12.2522
▁tracker	-12.254
▁adi	-12.2561
rick	-12.2579
store	-12.2582
aze	-12.2595
▁regress	-12.262
loving	-12.2638
awa	-12.2655
inson	-12.2674
af	-12.2688
jure	-12.2722
mik	-12.2724
▁demo	-12.2736
▁garb	-12.2768
▁disciplin	-12.2807
▁gra	-12.2812
▁cabo	-12.2822
▁milli	-12.2842
mu	-12.2853
nutter	-12.2874
minus	-12.2875
▁unsu	-12.2879
▁swap	-12.288
▁admitt	-12.2884
▁grin	-12.2886
▁ambi	-12.2894
▁twee	-12.2895
arth	-12.2905
whee	-12.2924
▁stripe	-12.2963
▁gallo	-12.3
rump	-12.3005
▁penn	-12.3019
▁quo	-12.3026
ween	-12.3037
▁technicalit	-12.3073
unde	-12.3083
izzle	-12.3083
▁chan	-12.3106
throw	-12.3116
▁manufacture	-12.3133
plicate	-12.316
cket	-12.3162
cum	-12.3172
▁roo	-12.3197
▁mea	-12.32
suit	-12.3201
rill	-12.322
▁wigg	-12.3234
rel	-12.3234
umper	-12.3241
pota	-12.3243
▁elm	-12.3265
uddy	-12.3276
wel	-12.3307
▁degener	-12.332
mper	-12.3345
▁defro	-12.339
▁finaliz	-12.3409
see	-12.3421
loud	-12.3438
▁scrambl	-12.345
▁intimidat	-12.3467
▁improve	-12.3478
yp	-12.35
contained	-12.3518
▁challeng	-12.3524
▁arteri	-12.3558
▁continu	-12.3571
tf	-12.3572
mmy	-12.3581
oise	-12.3639
▁assfuck	-12.3694
▁swa	-12.371
rdy	-12.373
▁hydr	-12.3738
ension	-12.3762
▁dart	-12.3772
▁participat	-12.3783
gm	-12.3819
▁discipline	-12.3828
▁abe	-12.3828
▁ignor	-12.3829
▁nov	-12.3831
▁scarie	-12.3871
▁electr	-12.3873
lter	-12.3886
onald	-12.3931
hia	-12.3959
▁fau	-12.3966
rilla	-12.3967
▁tex	-12.3973
mina	-12.398
▁cele	-12.3982
▁provid	-12.3986
▁sedati	-12.4014
bitt	-12.4018
lvy	-12.4029
ride	-12.408
solution	-12.4117
ym	-12.4175
lox	-12.421
nthe	-12.4215
lito	-12.4225
▁anticipat	-12.4225
▁unnecessar	-12.423
tton	-12.4245
developed	-12.4273
utin	-12.4286
▁anth	-12.4319
pol	-12.4325
adder	-12.4353
▁recap	-12.4362
▁mot	-12.4369
housing	-12.438
▁contribute	-12.4392
mashup	-12.4405
airline	-12.4413
▁obscen	-12.4416
hero	-12.4421
ept	-12.4446
▁hym	-12.4464
▁seduc	-12.448
▁nom	-12.4494
▁conce	-12.4508
▁negotia	-12.4514
pel	-12.4524
uki	-12.4557
▁deb	-12.4561
gain	-12.4573
▁kni	-12.4582
wad	-12.4588
urp	-12.4605
rives	-12.462
jewish	-12.4628
▁behav	-12.4628
▁console	-12.4639
eft	-12.4644
▁colo	-12.4715
uary	-12.4734
▁alp	-12.4761
▁arg	-12.4785
formed	-12.4804
ugged	-12.481
▁dool	-12.4811
▁distribut	-12.484
▁fro	-12.4926
hank	-12.494
leone	-12.4955
mc	-12.4967
filled	-12.4973
ario	-12.4977
▁separat	-12.4993
harmed	-12.5027
▁fel	-12.5048
perative	-12.5059
mala	-12.5067
▁purif	-12.5092
▁deli	-12.5111
tention	-12.512
rinkle	-12.5122
bred	-12.5149
▁unde	-12.5168
izzy	-12.5172
▁semi	-12.5172
stains	-12.5221
▁impose	-12.5231
▁scoo	-12.5232
▁moi	-12.5257
layed	-12.5259
bj	-12.5267
spooky	-12.5301
▁keg	-12.533
▁unbe	-12.5335
exist	-12.5336
▁philip	-12.5353
mburg	-12.5363
▁terminat	-12.5395
▁participa	-12.5404
▁winnin	-12.5406
ulating	-12.5414
abian	-12.5432
▁distort	-12.5432
▁pil	-12.5433
▁reserv	-12.5448
ounded	-12.5454
▁fragment	-12.5459
▁toohey	-12.5459
▁veteran	-12.5459
▁mutter	-12.546
▁plum	-12.5462
▁appearance	-12.5463
perfect	-12.5466
▁bisexual	-12.5467
▁coyote	-12.5467
▁rattlesnake	-12.5467
▁contribution	-12.5468
▁arrow	-12.5468
eating	-12.5469
▁tissue	-12.5469
▁beam	-12.547
▁measur	-12.5471
▁bollock	-12.5472
▁elbow	-12.5472
▁regulation	-12.5472
▁pearl	-12.5474
having	-12.5474
▁vibrate	-12.5475
▁communication	-12.5475
▁implant	-12.5475
▁politician	-12.5475
▁camber	-12.5476
▁rhyme	-12.5477
▁sympath	-12.5479
▁lyric	-12.5481
bows	-12.5481
▁tittie	-12.5482
▁magician	-12.5482
▁afterward	-12.5483
▁brake	-12.5484
▁chart	-12.5485
▁trooper	-12.5487
raping	-12.5489
ractions	-12.549
▁refugee	-12.5492
▁grit	-12.5492
▁tourist	-12.5496
▁fri	-12.5498
▁viola	-12.5499
▁rio	-12.5505
▁nun	-12.5505
▁enforc	-12.5507
▁rust	-12.551
▁nove	-12.5513
▁brut	-12.5521
rell	-12.5522
erina	-12.5526
▁acqui	-12.5529
▁preco	-12.5534
▁inspir	-12.5539
ography	-12.5546
ube	-12.5552
▁scoff	-12.5553
dale	-12.5554
arve	-12.5555
teller	-12.5557
immer	-12.5558
▁hustl	-12.5562
signed	-12.5563
▁puck	-12.5564
▁invent	-12.5564
▁barrac	-12.5565
▁disturb	-12.5566
▁trim	-12.5569
iggling	-12.5574
inema	-12.5576
▁este	-12.5579
▁gird	-12.5579
▁ooo	-12.5583
arian	-12.5583
▁divorc	-12.5586
hol	-12.5587
▁doubl	-12.5588
▁gav	-12.5589
▁appreciat	-12.5591
▁surviv	-12.5593
drops	-12.5593
drive	-12.5594
▁attract	-12.5594
▁achiev	-12.5595
▁valid	-12.5596
boxin	-12.5597
▁shap	-12.5597
▁boilin	-12.5598
▁morn	-12.5598
▁introduc	-12.5599
blood	-12.5599
▁replac	-12.5599
▁stalk	-12.5599
▁homicid	-12.56
▁inject	-12.5601
▁suppos	-12.5601
▁snlff	-12.5601
▁splash	-12.5601
▁devi	-12.5602
bears	-12.5602
▁pau	-12.5605
▁sobb	-12.5606
discriminat	-12.5606
▁adjust	-12.5607
▁smush	-12.5608
▁aggravat	-12.5608
▁obsess	-12.561
▁crook	-12.5611
duct	-12.5612
aleck	-12.5614
▁scorpio	-12.5614
liz	-12.5614
▁smar	-12.5615
negotia	-12.5615
▁romania	-12.5616
rape	-12.5616
cream	-12.5617
▁oblige	-12.5617
possessed	-12.5617
▁soph	-12.5617
convict	-12.5617
paramedic	-12.5618
phrase	-12.5618
gua	-12.5618
issue	-12.5618
convenience	-12.5618
interference	-12.5618
secured	-12.5618
shirt	-12.5618
powder	-12.5619
remarkable	-12.5619
▁div	-12.5619
italians	-12.5619
controlled	-12.5619
tooth	-12.5619
beard	-12.5619
shaped	-12.5619
fuckin	-12.5619
grunt	-12.5619
▁electrocute	-12.5619
brush	-12.5619
▁gravit	-12.5619
▁sketch	-12.5619
▁squint	-12.5619
▁excess	-12.5619
budget	-12.5619
washed	-12.5619
▁butch	-12.5619
moral	-12.5619
fresh	-12.5619
spoken	-12.5619
pause	-12.562
anika	-12.562
gray	-12.562
mobile	-12.562
capable	-12.562
therapy	-12.562
found	-12.562
grown	-12.562
motherfuckin	-12.562
patient	-12.562
broadway	-12.562
winning	-12.562
written	-12.562
twelve	-12.562
responsible	-12.562
crime	-12.562
pay	-12.562
accounts	-12.562
engine	-12.562
public	-12.562
▁promote	-12.562
pizza	-12.562
▁qualifie	-12.562
hundred	-12.562
camera	-12.562
girlfriend	-12.562
million	-12.562
distance	-12.562
weapons	-12.562
knock	-12.562
▁respon	-12.562
space	-12.562
daniel	-12.562
banging	-12.562
gasps	-12.562
help	-12.562
believe	-12.562
deep	-12.562
guy	-12.562
nothing	-12.562
anything	-12.562
beeping	-12.5621
smith	-12.5621
origin	-12.5621
▁refuge	-12.5621
▁paranoi	-12.5621
▁heavi	-12.5621
▁dedicate	-12.5621
screaming	-12.5621
baker	-12.5621
group	-12.5621
atlanti	-12.5621
grave	-12.5621
▁isolate	-12.5621
amaze	-12.5622
▁baba	-12.5622
stool	-12.5622
▁stimulat	-12.5622
check	-12.5622
slaughter	-12.5622
morning	-12.5622
slave	-12.5622
sleep	-12.5622
crowd	-12.5622
▁conno	-12.5622
houn	-12.5623
loved	-12.5623
smoking	-12.5623
▁gyps	-12.5624
half	-12.5624
▁jamaica	-12.5624
▁facilit	-12.5624
▁quart	-12.5624
basket	-12.5624
▁societ	-12.5624
▁emergenc	-12.5624
▁agenc	-12.5624
▁troph	-12.5625
master	-12.5625
orous	-12.5625
paper	-12.5625
rifle	-12.5625
▁humiliate	-12.5626
▁charit	-12.5626
bench	-12.5626
gender	-12.5626
▁ofher	-12.5626
share	-12.5626
bridge	-12.5626
▁hoho	-12.5627
owner	-12.5627
▁felon	-12.5628
▁theatr	-12.5628
dark	-12.5628
teeth	-12.5628
▁prostitut	-12.5628
▁snoo	-12.5628
▁groov	-12.5629
▁cuddl	-12.5629
▁empir	-12.5629
▁terrib	-12.5629
▁responsibl	-12.5629
▁scatt	-12.563
▁rampa	-12.563
▁deliberate	-12.563
▁evident	-12.563
▁russ	-12.563
▁canc	-12.5631
▁strict	-12.5631
▁regime	-12.5631
personal	-12.5631
▁apparent	-12.5631
poop	-12.5631
▁michel	-12.5632
▁rold	-12.5632
▁independen	-12.5632
police	-12.5632
boop	-12.5633
▁whoosh	-12.5633
▁humbl	-12.5633
woman	-12.5634
etting	-12.5634
crimin	-12.5634
brian	-12.5634
▁territori	-12.5635
legs	-12.5635
ject	-12.5635
▁squir	-12.5635
▁livi	-12.5635
▁glob	-12.5635
▁fertilize	-12.5635
▁memori	-12.5635
▁hysteric	-12.5635
▁skeptic	-12.5635
▁beaut	-12.5635
▁nikk	-12.5635
▁industri	-12.5635
tivity	-12.5636
hili	-12.5636
▁trench	-12.5636
▁sancti	-12.5636
▁christophe	-12.5636
▁excellen	-12.5636
▁committe	-12.5636
▁consume	-12.5636
hair	-12.5637
▁trivia	-12.5637
code	-12.5637
▁behavio	-12.5637
cool	-12.5637
▁clemen	-12.5637
▁phenomen	-12.5638
flies	-12.5638
strictions	-12.5638
▁punc	-12.5638
▁schizophreni	-12.5638
larissa	-12.5638
▁influen	-12.5638
▁definiti	-12.5638
rizzl	-12.5638
▁diabet	-12.5638
▁hillbill	-12.5638
▁multi	-12.5638
▁annihilat	-12.5638
▁sarcas	-12.5639
▁speculat	-12.5639
▁gurg	-12.5639
▁everythin	-12.5639
▁conspi	-12.5639
▁grabbin	-12.5639
▁poppin	-12.5639
▁inevitab	-12.5639
▁smilin	-12.5639
cipher	-12.5639
▁wend	-12.5639
▁casin	-12.5639
tein	-12.5639
▁wailin	-12.5639
▁givin	-12.5639
▁zimmer	-12.5639
▁vehic	-12.5639
arse	-12.5639
▁imagina	-12.5639
▁hygien	-12.5639
ntruder	-12.5639
ntelligence	-12.5639
▁trib	-12.564
▁hypo	-12.564
▁resign	-12.564
razie	-12.564
▁organize	-12.564
▁psychiatr	-12.564
ecision	-12.564
▁practi	-12.564
▁recogni	-12.564
moment	-12.564
▁disgrace	-12.564
aunted	-12.564
▁hallucin	-12.564
▁pollut	-12.564
stinct	-12.564
▁applau	-12.564
▁frederick	-12.564
▁forfeit	-12.564
▁neutral	-12.564
▁govern	-12.564
▁extensi	-12.5641
▁voyeur	-12.5641
▁acquaint	-12.5641
tribute	-12.5641
cussion	-12.5641
polit	-12.5641
▁democra	-12.5641
cipation	-12.5641
▁ohhoho	-12.5641
brook	-12.5641
▁authori	-12.5641
▁morgan	-12.5641
forgiv	-12.5641
▁outrage	-12.5641
wich	-12.5641
▁strategi	-12.5641
igating	-12.5641
chffffff	-12.5641
pregna	-12.5641
team	-12.5641
ymphos	-12.5641
assiveaggressive	-12.5641
buttholesandwich	-12.5641
significant	-12.5641
▁absofucking	-12.5641
▁accompany	-12.5641
▁attentive	-12.5641
▁blubber	-12.5641
▁condemn	-12.5641
▁controvers	-12.5641
▁discomfort	-12.5641
▁dislodg	-12.5641
▁disparaging	-12.5641
▁eavesdrop	-12.5641
▁endeavo	-12.5641
▁excruciating	-12.5641
▁explicit	-12.5641
▁exploit	-12.5641
▁foiiow	-12.5641
▁instantaneous	-12.5641
▁irritat	-12.5641
▁karasawa	-12.5641
▁mathematic	-12.5641
▁misfir	-12.5641
▁reconnoitr	-12.5641
▁relentless	-12.5641
▁remix	-12.5641
▁shaqu	-12.5641
▁skiptrac	-12.5641
▁smooch	-12.5641
▁snigger	-12.5641
▁spawn	-12.5641
▁structural	-12.5641
▁thrash	-12.5641
▁thrust	-12.5641
▁transpo	-12.5641
▁unnatural	-12.5641
▁varnish	-12.5641
▁yugoslav	-12.5641
aculate	-12.5641
astronom	-12.5641
chiecoo	-12.5641
cognito	-12.5641
coloured	-12.5641
fuiiy	-12.5641
gahertz	-12.5641
heehyskeffington	-12.5641
iepoo	-12.5641
khnum	-12.5641
nostromo	-12.5641
pituitar	-12.5641
puccino	-12.5641
rhythms	-12.5641
scraper	-12.5641
tronic	-12.5641
▁abdul	-12.5641
▁abracadabra	-12.5641
▁acapulco	-12.5641
▁accumulate	-12.5641
▁acknowledgment	-12.5641
▁administer	-12.5641
▁affiliat	-12.5641
▁alitalia	-12.5641
▁ambushed	-12.5641
▁amerikkka	-12.5641
▁ancestors	-12.5641
▁angrily	-12.5641
▁anorexic	-12.5641
▁applesauce	-12.5641
▁archuleta	-12.5641
▁arcturian	-12.5641
▁aristotle	-12.5641
▁artillery	-12.5641
▁assembly	-12.5641
▁astrologer	-12.5641
▁asylum	-12.5641
▁auckland	-12.5641
▁autism	-12.5641
▁automotive	-12.5641
▁avenge	-12.5641
▁axmurder	-12.5641
▁bagatov	-12.5641
▁balcony	-12.5641
▁barbarian	-12.5641
▁barbershop	-12.5641
▁barrington	-12.5641
▁baywatch	-12.5641
▁beekeeper	-12.5641
▁berkeley	-12.5641
▁bigboobalert	-12.5641
▁blackandwhite	-12.5641
▁blitzed	-12.5641
▁blunderbuss	-12.5641
▁blunk	-12.5641
▁bonfire	-12.5641
▁brunette	-12.5641
▁buddhist	-12.5641
▁bullfrog	-12.5641
▁bullock	-12.5641
▁bumbumbum	-12.5641
▁burrito	-12.5641
▁cabbage	-12.5641
▁cajun	-12.5641
▁cannabis	-12.5641
▁cartridge	-12.5641
▁catheter	-12.5641
▁cenobites	-12.5641
▁centuries	-12.5641
▁cervix	-12.5641
▁charcoal	-12.5641
▁chartreuse	-12.5641
▁chode	-12.5641
▁circumcision	-12.5641
▁clarity	-12.5641
▁clinton	-12.5641
▁coblenz	-12.5641
▁coblog	-12.5641
▁collaborat	-12.5641
▁collagen	-12.5641
▁collating	-12.5641
▁collette	-12.5641
▁communicating	-12.5641
▁companies	-12.5641
▁component	-12.5641
▁condominium	-12.5641
▁congratu	-12.5641
▁conquest	-12.5641
▁consummate	-12.5641
▁consumption	-12.5641
▁contaminate	-12.5641
▁contingency	-12.5641
▁cornbread	-12.5641
▁corrosion	-12.5641
▁crossreference	-12.5641
▁cucumber	-12.5641
▁curfew	-12.5641
▁ddojsioc	-12.5641
▁dedication	-12.5641
▁dementia	-12.5641
▁demographic	-12.5641
▁dempsey	-12.5641
▁depict	-12.5641
▁deprive	-12.5641
▁dervish	-12.5641
▁devotion	-12.5641
▁dilorenzo	-12.5641
▁dingdong	-12.5641
▁dinosaurs	-12.5641
▁disadvantage	-12.5641
▁disbelief	-12.5641
▁disciples	-12.5641
▁disembark	-12.5641
▁dodgy	-12.5641
▁doltan	-12.5641
[...]
