<unk>	0
<s>	0
</s>	0
s	-3.81741
▁im	-4.46563
▁dont	-4.59556
▁know	-4.60182
▁get	-4.81143
▁go	-4.86716
▁right	-4.91593
▁oh	-4.93473
▁like	-4.99053
▁youre	-5.02003
▁got	-5.04204
▁come	-5.08851
▁yeah	-5.09696
▁well	-5.17306
▁one	-5.1985
▁thats	-5.20106
ing	-5.2462
▁na	-5.2546
▁okay	-5.33185
▁think	-5.39168
▁good	-5.41739
▁see	-5.47612
▁gon	-5.49246
▁want	-5.50804
▁hey	-5.5349
▁man	-5.57316
▁look	-5.6148
▁back	-5.61711
▁	-5.63311
ed	-5.6457
▁us	-5.64961
▁time	-5.66114
▁yes	-5.6703
▁ill	-5.68573
▁hes	-5.68862
▁take	-5.72737
▁going	-5.74146
▁cant	-5.75618
▁would	-5.76526
▁need	-5.7998
▁tell	-5.87624
▁say	-5.91973
▁could	-5.92438
▁something	-5.95172
▁really	-5.95476
▁thank	-5.97807
d	-6.0006
▁way	-6.00998
▁sorry	-6.01209
▁never	-6.02474
▁l	-6.02557
▁love	-6.0276
▁let	-6.03545
▁make	-6.03753
▁little	-6.06248
▁lets	-6.07678
▁didnt	-6.08471
▁whats	-6.09172
▁god	-6.10122
▁please	-6.14125
▁theres	-6.20881
▁mean	-6.21348
▁said	-6.26132
▁two	-6.26401
▁mr	-6.27136
▁give	-6.29745
▁ive	-6.30706
▁thing	-6.31285
y	-6.31701
▁wait	-6.32047
▁find	-6.32394
e	-6.32454
ly	-6.33676
▁sir	-6.33727
▁help	-6.34627
▁people	-6.34669
▁life	-6.36133
▁sure	-6.38976
▁first	-6.40381
▁stop	-6.40527
▁shes	-6.41333
▁call	-6.41827
▁great	-6.44294
▁day	-6.44805
▁much	-6.4642
▁still	-6.47072
▁even	-6.4949
▁maybe	-6.50467
▁guys	-6.50839
▁theyre	-6.5254
▁put	-6.52713
▁home	-6.53757
▁night	-6.56957
▁new	-6.57531
▁last	-6.57746
▁work	-6.59076
▁hell	-6.59342
▁uh	-6.61682
▁keep	-6.63298
er	-6.63592
▁thought	-6.64946
▁nothing	-6.65379
▁must	-6.65562
▁hi	-6.66452
▁anything	-6.67183
▁ever	-6.67215
n	-6.67713
▁shit	-6.6901
▁better	-6.70059
i	-6.70281
▁ta	-6.72229
▁always	-6.74306
▁everything	-6.76059
▁name	-6.76426
▁years	-6.7643
▁away	-6.76734
▁talk	-6.77996
▁id	-6.79661
▁long	-6.79765
▁guy	-6.80767
▁ok	-6.81506
t	-6.81897
▁leave	-6.82264
▁stay	-6.82987
▁old	-6.83265
▁every	-6.83842
▁baby	-6.8387
▁believe	-6.84822
▁nice	-6.8525
▁hello	-6.854
▁told	-6.85561
▁around	-6.86044
▁wont	-6.87026
▁world	-6.88415
▁made	-6.89065
▁girl	-6.89173
▁wan	-6.89369
▁three	-6.89526
▁things	-6.89539
▁car	-6.90502
▁miss	-6.90887
▁dad	-6.91054
▁coming	-6.91572
▁feel	-6.91671
in	-6.92256
▁woman	-6.92608
▁youll	-6.92865
▁kind	-6.93379
▁youve	-6.93389
▁dead	-6.93657
▁move	-6.94533
▁fine	-6.94683
▁may	-6.95023
▁kill	-6.95678
▁doesnt	-6.95782
▁hear	-6.96226
▁thanks	-6.9632
▁wrong	-6.97411
▁remember	-6.976
▁place	-6.9896
▁hold	-6.99417
▁left	-6.99904
▁done	-7.00472
▁de	-7.02658
▁someone	-7.02749
▁listen	-7.03107
a	-7.03972
▁understand	-7.04542
▁another	-7.05677
▁house	-7.05694
▁isnt	-7.06573
▁boy	-7.06606
▁course	-7.06882
▁might	-7.07289
▁show	-7.07508
▁lot	-7.07827
▁wanted	-7.08566
▁big	-7.08651
▁door	-7.08728
▁die	-7.09387
r	-7.10009
▁son	-7.11349
▁care	-7.11742
▁next	-7.12121
▁real	-7.12709
▁ask	-7.13164
▁found	-7.13398
▁money	-7.13719
▁mom	-7.14542
▁best	-7.15499
▁getting	-7.1573
▁try	-7.16384
▁enough	-7.16992
▁mind	-7.17619
▁bad	-7.17811
▁happened	-7.17849
al	-7.18674
▁trying	-7.1887
▁talking	-7.20147
▁morning	-7.20722
▁today	-7.21767
es	-7.22152
en	-7.22391
▁end	-7.22756
▁open	-7.23594
▁ready	-7.23629
▁friend	-7.23694
▁meet	-7.24792
▁actually	-7.25325
▁looking	-7.25484
▁came	-7.25701
▁run	-7.25785
▁live	-7.25846
▁play	-7.2657
▁else	-7.28254
▁ik	-7.28266
▁jay	-7.28304
▁late	-7.29296
▁family	-7.30132
o	-7.30298
▁job	-7.3033
▁excuse	-7.30513
▁huh	-7.30513
▁knew	-7.31277
▁um	-7.31321
▁father	-7.3266
▁many	-7.33484
▁minutes	-7.3371
▁watch	-7.33833
▁tonight	-7.35592
▁guess	-7.35842
▁damn	-7.36033
▁idea	-7.3625
▁wasnt	-7.36801
▁saw	-7.36807
▁hard	-7.3686
▁whole	-7.3721
▁ah	-7.37344
▁mother	-7.37542
▁five	-7.37638
▁together	-7.38439
▁start	-7.38616
▁room	-7.38819
▁took	-7.39686
▁school	-7.40108
▁head	-7.40462
▁lost	-7.4096
▁without	-7.41367
▁called	-7.41474
▁weve	-7.41795
▁hope	-7.44131
▁turn	-7.44768
▁phone	-7.44906
▁part	-7.45154
▁je	-7.45163
▁yet	-7.45269
▁aint	-7.45716
▁honey	-7.46151
▁whos	-7.46174
▁seen	-7.4618
▁already	-7.46596
▁bring	-7.46664
▁use	-7.46979
▁shut	-7.47038
▁four	-7.47044
▁heard	-7.47932
▁friends	-7.47942
▁ago	-7.47964
▁wouldnt	-7.48004
▁used	-7.48119
▁face	-7.48303
▁everybody	-7.48402
▁year	-7.4857
▁happy	-7.48859
▁alone	-7.4886
▁lm	-7.49463
▁men	-7.49717
▁fire	-7.49991
▁kids	-7.50335
▁hand	-7.50979
▁tomorrow	-7.51173
▁van	-7.51193
▁bit	-7.51862
▁second	-7.5187
ve	-7.52344
▁music	-7.52948
▁whoa	-7.53074
▁met	-7.53961
▁dr	-7.5401
▁cause	-7.54739
▁gone	-7.54969
▁beautiful	-7.54993
▁daisy	-7.54993
▁days	-7.55054
▁chuckles	-7.55066
l	-7.5542
▁dear	-7.55512
▁matter	-7.56827
▁pretty	-7.56958
▁check	-7.57545
▁minute	-7.57834
▁game	-7.58342
▁saying	-7.58703
▁went	-7.58965
▁kid	-7.59365
▁anyone	-7.59471
▁inside	-7.59473
▁heart	-7.59576
▁power	-7.59868
▁pay	-7.60966
▁captain	-7.61009
▁john	-7.61508
▁hit	-7.61778
▁true	-7.63098
▁sit	-7.63397
▁crazy	-7.6363
▁break	-7.64063
▁couldnt	-7.65292
▁eyes	-7.6533
▁un	-7.65907
▁welcome	-7.66317
▁since	-7.66814
▁killed	-7.6703
▁problem	-7.67486
▁air	-7.68527
▁light	-7.68603
▁blood	-7.68842
▁shall	-7.69073
▁child	-7.69086
▁close	-7.69595
▁ass	-7.69754
▁mrs	-7.69993
▁looks	-7.70086
▁point	-7.70931
▁side	-7.70954
▁somebody	-7.70967
▁playing	-7.71018
▁says	-7.71392
▁water	-7.71583
▁probably	-7.71921
▁mine	-7.71953
▁wife	-7.72091
▁everyone	-7.72103
▁youd	-7.73086
est	-7.73109
▁trust	-7.73275
▁set	-7.74038
▁working	-7.74137
▁wheres	-7.7431
▁stand	-7.74312
▁doctor	-7.74465
▁city	-7.7488
▁whatever	-7.75439
▁een	-7.75495
▁ship	-7.75686
▁supposed	-7.75938
▁pick	-7.76188
▁thinking	-7.76225
▁stuff	-7.76264
▁hands	-7.76503
▁havent	-7.7664
▁wow	-7.76644
▁hot	-7.76776
▁week	-7.76924
▁en	-7.77223
▁exactly	-7.77271
▁worry	-7.77297
▁speak	-7.77466
▁read	-7.77704
▁clear	-7.77706
▁hurt	-7.78222
▁children	-7.78475
an	-7.78479
▁death	-7.79715
▁happen	-7.79817
▁save	-7.80101
▁sleep	-7.80431
▁easy	-7.80962
▁forget	-7.80962
▁dog	-7.81408
▁white	-7.8141
▁rest	-7.81601
▁gave	-7.81609
▁question	-7.82012
▁sweet	-7.82202
▁story	-7.82234
▁wish	-7.82795
▁far	-7.83322
▁change	-7.844
▁means	-7.84496
▁chance	-7.84636
▁deal	-7.84673
▁police	-7.84797
▁order	-7.84944
▁laughing	-7.84997
▁word	-7.85243
▁died	-7.85412
▁black	-7.85458
▁anyway	-7.85479
▁sighs	-7.85704
▁half	-7.86137
▁eat	-7.86207
▁line	-7.86431
▁fun	-7.86511
▁walk	-7.86779
▁moment	-7.86826
or	-7.87367
▁drink	-7.87497
▁nobody	-7.88043
▁number	-7.88049
▁person	-7.88065
▁war	-7.88085
▁promise	-7.88587
▁young	-7.89333
on	-7.89382
▁later	-7.89683
▁alive	-7.90218
▁town	-7.90226
c	-7.90239
▁yo	-7.90338
▁afraid	-7.90904
▁jesus	-7.90904
▁taking	-7.90915
▁mij	-7.91346
▁business	-7.91579
▁em	-7.92802
▁trouble	-7.93
▁i	-7.93144
▁drive	-7.93525
▁lord	-7.93729
▁wants	-7.94424
▁almost	-7.9445
▁high	-7.94821
▁quite	-7.95239
▁fight	-7.95243
▁girls	-7.9549
▁earth	-7.95911
▁free	-7.95926
▁plan	-7.96234
▁living	-7.9664
▁six	-7.96648
▁lady	-7.96671
▁safe	-7.97104
▁ride	-7.97849
▁funny	-7.98887
▁c	-7.98984
▁shot	-7.99001
▁hours	-7.99109
m	-7.99322
▁cut	-7.99351
▁different	-7.99441
▁red	-8.00078
▁bye	-8.004
ic	-8.00447
▁human	-8.01345
▁brother	-8.0135
▁dat	-8.01484
▁ho	-8.0157
▁hate	-8.01594
▁laughs	-8.02016
▁sometimes	-8.02174
▁cool	-8.02584
▁outside	-8.02713
▁anymore	-8.02725
▁perfect	-8.03337
▁hmm	-8.03518
▁makes	-8.03979
▁though	-8.04191
▁truth	-8.04296
▁chris	-8.04496
▁hang	-8.04586
▁frank	-8.04918
▁follow	-8.04987
▁answer	-8.04996
▁soon	-8.05152
▁boys	-8.05179
▁reason	-8.05337
▁full	-8.05728
▁speaking	-8.058
▁married	-8.05913
▁president	-8.06729
▁bed	-8.06805
▁het	-8.07578
▁lose	-8.07834
▁behind	-8.08372
▁times	-8.08594
▁throw	-8.09075
able	-8.09113
▁niet	-8.09206
▁also	-8.09252
▁russian	-8.10461
▁news	-8.10489
▁body	-8.10829
▁arent	-8.10894
▁maam	-8.10895
▁book	-8.11347
▁re	-8.11462
▁send	-8.11634
▁sick	-8.1174
▁running	-8.11761
▁train	-8.12165
▁grunts	-8.12677
▁catch	-8.12941
▁bitch	-8.13459
▁mama	-8.13505
▁sound	-8.136
▁drop	-8.1393
p	-8.14089
▁office	-8.14262
▁gasps	-8.14463
▁jack	-8.14795
ie	-8.14837
▁gun	-8.14877
▁anybody	-8.15242
▁island	-8.15242
ers	-8.15357
▁least	-8.16135
▁attack	-8.16286
ous	-8.16396
▁goes	-8.16428
▁months	-8.16464
▁husband	-8.16674
▁waiting	-8.16753
▁started	-8.16907
▁either	-8.17035
▁stupid	-8.17035
▁front	-8.17046
▁case	-8.1705
▁secret	-8.17601
▁bet	-8.17606
▁ladies	-8.17948
▁bella	-8.17982
▁s	-8.18167
▁ten	-8.18178
▁control	-8.18841
▁making	-8.18877
▁asked	-8.18954
▁happens	-8.1925
▁party	-8.19251
▁boat	-8.19489
▁hour	-8.19529
▁church	-8.19704
▁feeling	-8.20436
▁protect	-8.20601
▁ahead	-8.20734
▁dance	-8.21334
re	-8.21341
▁clean	-8.21675
▁touch	-8.21707
▁serious	-8.22443
k	-8.2261
▁spanish	-8.22618
▁english	-8.2262
▁shoot	-8.2263
st	-8.22645
▁blue	-8.23102
▁date	-8.23306
▁finally	-8.23671
▁pain	-8.2377
▁heres	-8.23912
▁daughter	-8.24295
f	-8.24482
▁goodbye	-8.24551
▁seven	-8.24554
▁important	-8.24556
u	-8.24583
▁eye	-8.24629
▁pull	-8.24634
▁ha	-8.24847
▁able	-8.24981
▁wear	-8.25036
▁fair	-8.25158
▁st	-8.25174
▁telling	-8.25266
▁gentlemen	-8.25533
ation	-8.2601
▁lie	-8.26019
▁needs	-8.26128
ies	-8.26324
▁dream	-8.26346
▁continues	-8.26422
▁past	-8.26473
g	-8.26505
▁road	-8.26521
▁women	-8.26522
▁breathe	-8.26628
▁lives	-8.27377
▁henry	-8.27522
▁top	-8.27658
▁sounds	-8.27969
▁fly	-8.28146
▁voice	-8.2845
▁future	-8.28531
▁p	-8.28639
w	-8.28792
▁beat	-8.28811
▁small	-8.29419
▁dark	-8.29529
▁david	-8.29552
▁ooh	-8.29552
▁leaving	-8.29553
▁till	-8.29557
▁couple	-8.29561
▁tried	-8.29639
▁step	-8.30477
▁team	-8.30504
▁hurry	-8.30583
▁honor	-8.30587
▁feet	-8.30598
▁none	-8.30613
▁mary	-8.30623
▁parents	-8.3073
▁buy	-8.31062
▁sign	-8.31116
▁th	-8.31217
▁perhaps	-8.31624
▁country	-8.31643
itll	-8.31655
▁scared	-8.31742
us	-8.31778
▁words	-8.31879
▁cover	-8.32344
▁mike	-8.32493
▁message	-8.32612
▁sister	-8.32636
▁space	-8.32673
▁bilbo	-8.32677
▁history	-8.32677
▁company	-8.32683
▁bernie	-8.32684
▁cold	-8.32707
▁hows	-8.32804
▁lucky	-8.32855
▁loud	-8.33705
▁born	-8.33794
▁asking	-8.34429
▁in	-8.34744
▁choice	-8.34786
▁million	-8.34808
▁weird	-8.34818
▁kidding	-8.3482
▁food	-8.34823
▁green	-8.35149
▁b	-8.35299
▁figure	-8.35654
▁seems	-8.35828
▁possible	-8.35903
▁mad	-8.36688
▁smart	-8.36857
▁ow	-8.36987
▁shell	-8.36999
▁professor	-8.37002
▁count	-8.37297
▁ge	-8.37494
▁wake	-8.37685
▁write	-8.37954
▁security	-8.3813
ion	-8.38188
▁dan	-8.38225
el	-8.38253
▁song	-8.38269
man	-8.38482
▁careful	-8.39088
le	-8.39102
▁goddamn	-8.39237
▁moving	-8.39237
▁tv	-8.39242
▁spend	-8.39244
▁calm	-8.39249
ch	-8.3932
▁street	-8.39357
▁comes	-8.39733
▁win	-8.39879
▁luck	-8.40187
▁shouldnt	-8.40373
▁loved	-8.40734
▁seem	-8.40793
▁upon	-8.41537
▁hair	-8.41543
▁groans	-8.41688
▁become	-8.417
▁finish	-8.4177
▁state	-8.41827
▁given	-8.42568
▁accident	-8.42676
▁dinner	-8.42685
▁gandalf	-8.42685
▁general	-8.42685
▁charles	-8.42685
▁law	-8.42723
▁unless	-8.42729
▁rey	-8.4294
▁k	-8.43346
▁return	-8.43506
▁fear	-8.43609
▁worth	-8.4365
▁strong	-8.43683
▁te	-8.43771
▁rather	-8.43864
▁sense	-8.43867
▁sent	-8.43904
▁soul	-8.44051
▁kiss	-8.44147
▁land	-8.44338
▁fast	-8.44798
▁happening	-8.44862
▁wat	-8.44864
▁entire	-8.44873
▁known	-8.44909
▁ball	-8.4492
▁york	-8.45051
▁brought	-8.45052
▁grace	-8.45058
▁zach	-8.45059
▁star	-8.45218
▁screams	-8.45304
▁breathing	-8.45357
▁officer	-8.45402
▁act	-8.45685
▁meant	-8.4606
▁hospital	-8.46257
▁cady	-8.46258
▁grunting	-8.4628
▁others	-8.46297
▁calling	-8.46668
it	-8.46769
▁la	-8.46803
▁special	-8.46868
▁e	-8.46921
▁lead	-8.47051
▁wild	-8.47118
▁ground	-8.47122
▁indistinct	-8.47295
▁fact	-8.47415
▁finn	-8.47476
▁favor	-8.47746
▁floor	-8.47758
▁building	-8.47962
▁zo	-8.48282
▁blow	-8.48295
▁king	-8.48358
▁fall	-8.4845
ce	-8.48529
▁strange	-8.48616
▁relax	-8.48711
▁caleb	-8.48711
▁forever	-8.48711
▁birthday	-8.48713
▁wonderful	-8.48718
▁theyll	-8.48729
▁james	-8.4874
▁screaming	-8.48775
▁daddy	-8.49023
▁u	-8.4903
▁knows	-8.49328
▁ones	-8.49344
▁longer	-8.49416
▁taken	-8.49466
▁cat	-8.49507
▁they	-8.49716
▁launch	-8.49755
▁fault	-8.49961
▁susan	-8.49961
▁along	-8.49963
▁amazing	-8.49963
▁across	-8.49964
▁force	-8.50089
▁radio	-8.50094
▁ya	-8.50189
▁planet	-8.50549
▁ii	-8.51226
▁mouth	-8.51238
less	-8.51258
▁cell	-8.51577
▁master	-8.51663
▁bank	-8.52381
▁glad	-8.52413
▁peace	-8.52499
▁anywhere	-8.52509
▁terrible	-8.52509
▁richard	-8.52513
▁panting	-8.52539
▁table	-8.52562
z	-8.52838
▁sort	-8.52908
▁lts	-8.52943
▁h	-8.53012
▁meeting	-8.53109
▁middle	-8.53808
▁somewhere	-8.53808
▁evening	-8.53943
▁truck	-8.54214
▁learn	-8.5422
▁park	-8.54235
▁sing	-8.54261
▁missed	-8.54302
▁sun	-8.54334
▁respect	-8.54694
▁trip	-8.54969
▁robert	-8.55012
▁sea	-8.55108
▁coffee	-8.55123
▁absolutely	-8.55141
▁handle	-8.55161
▁grab	-8.55175
▁west	-8.55219
ment	-8.55786
▁christ	-8.56115
▁fix	-8.56143
▁broke	-8.56161
▁imagine	-8.56194
h	-8.56274
▁slow	-8.56277
b	-8.56308
▁jane	-8.56358
▁buddy	-8.56458
▁voor	-8.56463
▁information	-8.56464
▁single	-8.56485
▁seriously	-8.56706
▁an	-8.56735
▁questions	-8.56923
▁hed	-8.56925
▁a	-8.57015
▁hero	-8.57104
▁deep	-8.57482
▁test	-8.57627
▁worked	-8.57653
▁machine	-8.57808
▁felt	-8.5785
▁window	-8.58368
ll	-8.58868
▁turned	-8.58905
▁except	-8.59114
▁looked	-8.59171
▁werent	-8.59178
▁christmas	-8.59178
▁alright	-8.59179
▁stephen	-8.5918
▁explain	-8.59368
▁fool	-8.59374
▁age	-8.59456
▁push	-8.59656
▁les	-8.60006
ar	-8.60283
▁less	-8.60329
▁college	-8.60567
▁giving	-8.60567
▁hazel	-8.60568
▁nine	-8.60604
▁wed	-8.6081
▁bar	-8.60999
ity	-8.61347
▁suit	-8.61554
▁rock	-8.61856
▁g	-8.61876
▁michael	-8.61975
▁er	-8.62539
▁piece	-8.62675
▁round	-8.63404
▁george	-8.63405
▁mgan	-8.63412
ter	-8.63561
▁pass	-8.63834
▁join	-8.63908
▁ja	-8.63915
▁service	-8.64111
▁queen	-8.64139
up	-8.6466
▁short	-8.64666
▁sex	-8.64669
▁greville	-8.64853
▁straight	-8.64853
▁swear	-8.64855
▁jason	-8.64865
▁aye	-8.64912
ive	-8.64974
po	-8.65066
▁mm	-8.65139
▁mistake	-8.65498
▁dude	-8.65572
▁movie	-8.65639
▁horse	-8.65648
▁picture	-8.65657
▁command	-8.65909
▁standing	-8.66179
▁fantasy	-8.66327
▁brian	-8.6633
▁battle	-8.66341
▁bag	-8.66636
▁m	-8.668
▁speaks	-8.67077
te	-8.671
▁system	-8.67155
▁weapon	-8.6717
▁plane	-8.67199
▁whoo	-8.67327
▁crowd	-8.67465
▁op	-8.67759
▁tom	-8.67797
▁dying	-8.67818
▁evil	-8.67819
▁danny	-8.67827
▁thou	-8.67841
▁ben	-8.68106
▁mess	-8.68108
▁watching	-8.68326
▁class	-8.68549
▁key	-8.68739
▁quick	-8.69006
▁seat	-8.69084
▁near	-8.69151
▁attention	-8.69331
▁impossible	-8.69331
▁missing	-8.69416
▁needed	-8.69568
▁mission	-8.6957
▁gift	-8.69841
▁expect	-8.69972
▁seconds	-8.70126
▁weeks	-8.70134
▁lovely	-8.70351
▁code	-8.70662
▁quiet	-8.70681
▁sydney	-8.7087
▁aah	-8.70889
▁sky	-8.70895
▁list	-8.71018
▁eight	-8.71269
▁hij	-8.71378
▁saved	-8.71527
▁club	-8.71794
▁hundred	-8.71811
▁month	-8.71862
▁dress	-8.71991
▁foot	-8.72252
▁works	-8.7229
▁junior	-8.72432
▁early	-8.72518
▁holly	-8.72539
▁lll	-8.7271
▁wind	-8.7326
▁tower	-8.73374
▁crewe	-8.73983
▁gerry	-8.7402
▁worse	-8.7402
▁poor	-8.7404
▁joe	-8.7428
▁interesting	-8.74348
▁roll	-8.74391
▁keys	-8.74683
▁travel	-8.75075
▁killing	-8.75559
▁rachel	-8.75636
▁spent	-8.75637
▁gas	-8.75708
▁hotel	-8.75714
▁wonder	-8.76359
▁wearing	-8.76512
▁language	-8.76652
▁american	-8.76878
▁difference	-8.77272
▁wedding	-8.77274
▁zijn	-8.77279
▁spirit	-8.77281
▁lunch	-8.77283
▁pleasure	-8.7729
▁anna	-8.77301
▁burn	-8.77305
▁crew	-8.77318
▁board	-8.77373
▁miles	-8.77679
▁stick	-8.77841
▁record	-8.77974
▁f	-8.78042
▁thousand	-8.78401
▁produce	-8.78408
▁favorite	-8.78939
▁chuckling	-8.78939
▁definitely	-8.78942
▁low	-8.79028
▁hide	-8.79133
▁feed	-8.79142
▁enjoy	-8.79722
▁weekend	-8.80108
▁smell	-8.80138
▁brain	-8.80173
▁alien	-8.8018
▁joke	-8.80221
ur	-8.80465
▁chief	-8.80633
▁darling	-8.80633
▁emergency	-8.80634
▁duke	-8.80638
▁thorin	-8.80655
▁yall	-8.80659
▁cheering	-8.80795
▁poe	-8.81155
▁singing	-8.81332
out	-8.81354
ance	-8.81378
▁summer	-8.81827
▁flight	-8.81832
▁agree	-8.82089
▁america	-8.82231
▁thomas	-8.82358
▁tough	-8.82358
▁bullshit	-8.82358
▁alice	-8.8236
▁north	-8.82364
▁yep	-8.82364
▁forward	-8.82367
▁rain	-8.8239
la	-8.83343
▁position	-8.83643
▁offer	-8.83647
▁station	-8.83695
▁d	-8.83701
▁lt	-8.83712
▁paper	-8.83725
▁suppose	-8.83867
li	-8.83925
is	-8.83995
▁heb	-8.84025
▁box	-8.84099
▁public	-8.84112
▁driving	-8.84113
▁french	-8.84114
▁mmm	-8.84118
▁paid	-8.84129
▁anne	-8.84131
▁gasping	-8.84167
▁totally	-8.84174
▁stopped	-8.84186
▁beach	-8.84186
▁choose	-8.84331
th	-8.84436
▁jo	-8.84991
de	-8.85001
▁contact	-8.85507
▁destroy	-8.85544
▁begin	-8.85589
▁owe	-8.8564
ist	-8.8572
▁drunk	-8.85898
▁cindy	-8.85906
▁reach	-8.86547
ta	-8.86658
▁om	-8.86708
▁girlfriend	-8.87287
▁target	-8.87355
▁surprise	-8.87465
▁proud	-8.87518
▁forgive	-8.87702
▁forgot	-8.87703
▁langdon	-8.87716
▁caught	-8.87717
▁gemma	-8.87723
▁fell	-8.87737
▁thee	-8.87766
▁amy	-8.87773
▁hat	-8.87834
▁base	-8.87946
▁art	-8.88297
ry	-8.88852
▁lived	-8.88971
▁nick	-8.89011
▁chatter	-8.8905
▁maid	-8.89106
▁animals	-8.89157
▁field	-8.89235
▁reading	-8.89318
▁final	-8.89391
▁moved	-8.89435
▁stole	-8.89444
▁glass	-8.89491
▁visit	-8.89566
▁aibileen	-8.89568
▁worried	-8.89568
▁maar	-8.89582
▁ran	-8.89988
▁wondering	-8.90172
▁murder	-8.90323
▁changed	-8.90328
▁shh	-8.90767
▁sell	-8.90927
▁robot	-8.91156
il	-8.91157
▁beep	-8.91279
▁hole	-8.91379
▁unit	-8.91402
▁neither	-8.91455
▁strike	-8.91455
▁east	-8.91455
▁group	-8.91462
▁third	-8.91465
▁within	-8.91467
▁south	-8.91517
▁plant	-8.91677
▁double	-8.91742
▁thy	-8.91789
to	-8.92024
▁shoes	-8.9219
▁kick	-8.92493
▁talked	-8.92541
▁present	-8.92607
▁guard	-8.92758
▁marry	-8.92832
▁lay	-8.92995
▁appreciate	-8.931
▁moon	-8.93117
▁spot	-8.93149
▁normal	-8.93205
▁super	-8.93351
▁vatican	-8.93377
▁congratulations	-8.93378
▁simple	-8.93378
▁throat	-8.93382
▁clothes	-8.93384
▁dangerous	-8.93397
▁personal	-8.93421
▁marie	-8.93422
▁shouting	-8.93488
▁rose	-8.93606
▁feels	-8.93709
▁gets	-8.93785
▁chattering	-8.93931
▁finished	-8.93972
▁block	-8.94111
▁laugh	-8.94228
▁accept	-8.94357
▁bomb	-8.94529
um	-8.94702
▁engine	-8.94801
▁charge	-8.94861
▁sad	-8.95035
▁bastard	-8.95125
▁boss	-8.95256
▁uncle	-8.953
▁extra	-8.95331
▁majesty	-8.95338
▁kappa	-8.95339
▁kept	-8.95339
▁dick	-8.95345
▁military	-8.95357
▁immediately	-8.95365
▁obviously	-8.95397
▁tony	-8.95403
▁tess	-8.95417
▁warm	-8.9544
▁al	-8.96096
▁pop	-8.96613
ma	-8.9663
▁wouldve	-8.96673
ke	-8.96854
▁color	-8.97006
▁correct	-8.97281
▁beyond	-8.97338
▁saturday	-8.97338
▁situation	-8.97338
▁yesterday	-8.97338
▁italian	-8.97341
▁government	-8.97342
▁smile	-8.97342
▁diane	-8.97343
▁bathroom	-8.97344
▁heavily	-8.97347
▁vader	-8.97352
▁watson	-8.97358
▁center	-8.97367
▁lf	-8.97432
ate	-8.97437
▁woody	-8.97478
▁als	-8.97553
▁mayor	-8.97697
ant	-8.97874
▁jump	-8.98318
▁knock	-8.98458
▁walking	-8.98946
▁farm	-8.99047
▁bill	-8.99076
▁realize	-8.9917
▁river	-8.99181
▁william	-8.99188
▁guardian	-8.99212
▁quit	-8.99228
▁area	-8.99234
▁grand	-8.99366
▁rich	-8.99377
▁mirror	-8.99379
▁stories	-8.99379
▁katie	-8.99381
▁football	-8.99384
▁cop	-8.99398
ten	-8.99873
▁passed	-8.99886
▁ex	-9.00076
▁seeing	-9.00515
▁carl	-9.00709
▁breath	-9.0071
▁doc	-9.01326
▁soldier	-9.01414
▁faith	-9.01452
▁bought	-9.01462
▁rules	-9.01462
▁uhhuh	-9.01462
▁freedom	-9.01463
▁science	-9.01463
▁twice	-9.01464
▁satine	-9.0147
▁nose	-9.01475
▁fleet	-9.01492
▁chicken	-9.01501
▁tired	-9.01526
▁decided	-9.01638
▁named	-9.01708
▁pro	-9.01906
▁certain	-9.02005
▁pet	-9.02032
▁j	-9.02326
▁seek	-9.02437
▁cross	-9.02592
▁mark	-9.02676
▁complete	-9.03157
▁prove	-9.03257
▁ice	-9.03379
▁heat	-9.03505
▁asshole	-9.03565
▁weak	-9.03585
▁instead	-9.0359
▁worst	-9.0359
▁detective	-9.03593
▁rule	-9.03595
▁outta	-9.03596
▁universe	-9.03596
▁hilly	-9.03605
▁milo	-9.03609
▁whatd	-9.03642
▁cops	-9.03675
▁gary	-9.03678
ness	-9.03712
▁doubt	-9.03737
▁broken	-9.03823
▁x	-9.03842
v	-9.0433
▁press	-9.0468
▁pal	-9.04727
▁ed	-9.04727
▁over	-9.04773
▁nu	-9.04825
▁tea	-9.05026
▁bus	-9.0527
▁shouldve	-9.05769
▁nina	-9.05772
▁excited	-9.05772
▁josh	-9.05774
▁tree	-9.05783
▁howd	-9.05817
▁dit	-9.05902
▁completely	-9.05947
▁copy	-9.05958
▁wall	-9.05985
▁dreams	-9.0611
▁report	-9.06508
▁card	-9.06569
▁whose	-9.06665
▁search	-9.07062
na	-9.07386
▁lock	-9.07537
▁clark	-9.07786
▁daniel	-9.07891
▁magic	-9.07918
▁koning	-9.07948
▁leg	-9.07951
▁enemy	-9.07986
▁research	-9.07986
▁sweetheart	-9.07986
▁holmes	-9.07986
▁wrote	-9.07987
▁lisa	-9.07988
▁christian	-9.0799
▁linda	-9.07994
▁jail	-9.08008
▁ring	-9.08026
▁bond	-9.08063
▁mountain	-9.08065
▁bigg	-9.08104
▁teacher	-9.08144
▁busy	-9.08175
▁peter	-9.08179
▁dean	-9.08241
▁per	-9.08331
▁crying	-9.08365
▁paris	-9.08621
▁promised	-9.08809
▁weapons	-9.08972
▁del	-9.09362
▁v	-9.09452
▁dis	-9.09473
▁mask	-9.09904
▁share	-9.10008
▁risk	-9.10071
▁rings	-9.10171
▁prins	-9.10189
▁dumb	-9.10251
▁afternoon	-9.10259
▁boyfriend	-9.10259
▁colonel	-9.10259
▁excellent	-9.10259
▁ridiculous	-9.10259
▁video	-9.10259
▁charlie	-9.10259
▁pardon	-9.1026
▁jim	-9.10267
▁paul	-9.10268
▁minny	-9.10273
▁medical	-9.10282
▁shield	-9.10287
▁fit	-9.10294
▁arm	-9.10314
▁corner	-9.10329
▁trade	-9.10355
▁agent	-9.10382
▁level	-9.10453
▁guards	-9.10523
▁signal	-9.10526
▁using	-9.1074
at	-9.1083
▁ga	-9.11414
▁bear	-9.11799
▁teach	-9.11902
▁lies	-9.12218
▁program	-9.12265
▁soft	-9.12409
▁legs	-9.12486
ne	-9.12509
▁cash	-9.12583
▁audrey	-9.12585
▁indeed	-9.12585
▁crime	-9.12585
▁stuck	-9.12587
▁council	-9.12589
▁experience	-9.12589
▁license	-9.12589
▁court	-9.12599
▁store	-9.12702
▁whispering	-9.12706
▁spider	-9.12769
▁bird	-9.12804
▁interested	-9.12909
▁locked	-9.12958
▁sam	-9.13018
▁growing	-9.13092
▁gosh	-9.1317
▁folks	-9.13183
▁greatest	-9.13231
▁wine	-9.13373
▁tape	-9.1343
▁da	-9.13459
▁fan	-9.138
▁takes	-9.139
▁consider	-9.14031
▁crash	-9.14046
ro	-9.14048
ng	-9.14265
▁lights	-9.14501
▁doors	-9.14717
▁admit	-9.14958
▁awesome	-9.14966
▁local	-9.14966
▁tommy	-9.14969
▁hungry	-9.1497
▁strength	-9.1497
▁grail	-9.14973
▁apartment	-9.14981
▁mmhmm	-9.14991
▁sand	-9.15003
▁skin	-9.15013
▁angel	-9.15025
▁doin	-9.15039
▁salt	-9.15049
▁edward	-9.15108
ia	-9.15227
▁wave	-9.15238
▁mo	-9.15242
son	-9.1537
ra	-9.15425
▁continue	-9.1546
▁books	-9.16196
▁mate	-9.16222
▁training	-9.16451
age	-9.16459
ary	-9.16633
▁stars	-9.16873
▁grow	-9.16915
▁n	-9.16936
▁focus	-9.1704
▁secure	-9.17135
▁holding	-9.17136
▁taste	-9.17184
▁tight	-9.17272
▁steve	-9.17282
▁w	-9.17388
▁built	-9.17405
▁especially	-9.17405
▁heavy	-9.17405
▁skeeter	-9.17405
▁purpose	-9.1741
▁twenty	-9.17412
▁pressure	-9.17412
▁deserve	-9.17432
▁wide	-9.17433
▁path	-9.1745
▁putting	-9.17486
▁groaning	-9.17492
▁losing	-9.17521
▁pack	-9.17595
▁certainly	-9.17612
▁warning	-9.17624
▁button	-9.17688
▁quickly	-9.17694
▁prince	-9.17704
▁commander	-9.1774
▁fucking	-9.17789
▁cute	-9.18303
▁liked	-9.18698
▁picked	-9.18874
rs	-9.18993
▁common	-9.19042
▁brothers	-9.19319
▁draw	-9.19322
▁track	-9.19338
▁balls	-9.19395
▁eating	-9.19397
▁fish	-9.19427
▁headed	-9.19505
▁mi	-9.19599
▁arms	-9.19747
▁aw	-9.19825
▁gold	-9.19846
▁elizabeth	-9.19905
▁everywhere	-9.19905
▁dracula	-9.19905
▁bruce	-9.19905
▁helsing	-9.19906
▁memory	-9.19906
▁price	-9.19907
▁bunch	-9.19909
▁beginning	-9.19912
▁crap	-9.19912
▁blind	-9.19919
▁ends	-9.19948
▁lying	-9.19961
ty	-9.20042
▁spy	-9.20072
▁softly	-9.20097
▁army	-9.20107
▁nature	-9.20116
▁plus	-9.20215
▁t	-9.20242
▁roberta	-9.2034
▁bell	-9.2036
▁ringing	-9.20505
▁be	-9.20659
▁lied	-9.20813
▁dogs	-9.20924
▁closed	-9.21026
▁fat	-9.21285
▁form	-9.21407
▁interest	-9.21607
▁r	-9.21892
▁san	-9.21928
as	-9.21975
▁sleeping	-9.22065
▁honest	-9.22093
et	-9.22184
▁sara	-9.22455
▁angry	-9.22469
▁brenda	-9.22469
▁evidence	-9.22469
▁plenty	-9.22469
▁gollum	-9.22469
▁hasnt	-9.22469
▁clay	-9.22472
▁regret	-9.22474
▁heh	-9.22485
▁remind	-9.22488
▁sitting	-9.22499
▁incredible	-9.22518
▁jacket	-9.22519
▁speed	-9.22553
▁screeching	-9.22822
▁idiot	-9.22984
▁beg	-9.23051
▁tires	-9.23133
ts	-9.23224
by	-9.23246
nt	-9.23411
▁ender	-9.23466
▁map	-9.23497
▁bro	-9.2399
men	-9.24362
▁fill	-9.24422
▁serve	-9.24602
▁due	-9.24614
▁listening	-9.24636
▁carry	-9.2475
▁escape	-9.24914
▁spoke	-9.24972
▁wherever	-9.25101
▁bobby	-9.25105
▁alex	-9.25105
▁roarke	-9.25106
▁apparently	-9.25107
▁teeth	-9.25115
▁rome	-9.2513
▁gods	-9.25153
▁waar	-9.2516
▁dare	-9.25199
▁band	-9.25208
▁sight	-9.25249
ful	-9.25291
▁nation	-9.25352
ri	-9.25489
▁bridge	-9.25523
▁numbers	-9.25525
▁heaven	-9.25575
▁wood	-9.2566
▁staying	-9.25712
▁stone	-9.25722
▁there	-9.25875
▁bones	-9.2609
▁fingers	-9.26136
un	-9.26189
▁worlds	-9.26193
▁co	-9.2671
▁allow	-9.26873
ig	-9.27022
▁sp	-9.27069
▁enter	-9.27335
▁si	-9.27512
▁create	-9.27556
▁ze	-9.27594
▁ne	-9.2765
▁support	-9.27785
▁difficult	-9.27803
▁exciting	-9.27803
▁kitai	-9.27803
▁nervous	-9.27803
▁seymour	-9.27803
▁truly	-9.27803
▁upstairs	-9.27803
▁access	-9.27803
▁cousin	-9.27803
▁sharon	-9.27804
▁fresh	-9.27804
▁innocent	-9.27808
▁ronan	-9.2781
▁awful	-9.27813
▁shaw	-9.27814
▁hut	-9.27823
▁sold	-9.27876
▁hath	-9.27877
▁usually	-9.27899
▁hiding	-9.27929
▁match	-9.27993
▁maria	-9.28024
▁circle	-9.28166
▁starts	-9.28212
▁calls	-9.28244
▁conversation	-9.28303
▁cars	-9.28313
▁type	-9.2832
▁sat	-9.28342
▁theyd	-9.28348
go	-9.28365
▁gate	-9.28373
▁student	-9.28403
▁animal	-9.28423
▁camera	-9.28477
▁cost	-9.28506
▁learned	-9.28548
▁shine	-9.28578
▁ver	-9.28752
▁pray	-9.29486
ge	-9.29831
▁foreign	-9.29859
ine	-9.29929
▁discuss	-9.30179
▁remain	-9.30253
and	-9.30338
▁private	-9.30389
▁waste	-9.30399
▁yi	-9.30542
▁lo	-9.30565
▁major	-9.30566
▁storm	-9.30579
▁ancient	-9.30581
▁anspeak	-9.30581
▁bottom	-9.30581
▁christopher	-9.30581
▁credit	-9.30581
▁insurance	-9.30581
▁location	-9.30581
▁orchestra	-9.30581
▁smoke	-9.30581
▁vacation	-9.30581
▁audience	-9.30581
▁taught	-9.30581
▁sugar	-9.30581
▁larry	-9.30584
▁anderson	-9.30584
▁repeat	-9.30587
▁ugh	-9.30588
▁silly	-9.30594
▁whered	-9.30613
▁subject	-9.30617
▁male	-9.30718
▁seemed	-9.30843
▁gus	-9.30877
▁butt	-9.30891
▁horn	-9.30901
▁size	-9.31076
▁figured	-9.31226
▁ticket	-9.31241
ling	-9.31678
ul	-9.318
▁trained	-9.31803
▁systems	-9.31831
▁hol	-9.32341
▁suggest	-9.32406
▁following	-9.32461
▁hanging	-9.32469
▁fate	-9.32545
▁plans	-9.33186
▁prison	-9.33274
▁raise	-9.33293
▁doug	-9.33421
▁orb	-9.33424
▁breaking	-9.33425
▁cruel	-9.33426
▁computer	-9.33438
▁kitchen	-9.33438
▁cancer	-9.33438
▁fantastic	-9.33438
▁elevator	-9.33439
▁allison	-9.33442
▁alert	-9.33443
▁shame	-9.33445
▁scratch	-9.3345
▁danger	-9.33456
▁claudio	-9.33464
▁pretend	-9.33471
▁labor	-9.33492
▁treat	-9.33503
▁sonny	-9.33506
▁suddenly	-9.33529
▁large	-9.33623
▁willing	-9.33699
▁shed	-9.33745
▁pope	-9.33788
▁note	-9.33887
▁indian	-9.33912
▁destroyed	-9.34015
▁closer	-9.34079
▁action	-9.34144
▁pen	-9.34476
▁lou	-9.34493
▁letter	-9.34745
▁el	-9.34927
▁chase	-9.3532
▁swing	-9.35874
▁cap	-9.3593
▁up	-9.35933
▁zamunda	-9.3597
▁problems	-9.35993
▁mention	-9.36057
▁watched	-9.3609
▁decide	-9.36132
▁goin	-9.3615
▁amen	-9.3617
▁health	-9.36197
▁adaline	-9.36379
▁chinese	-9.36379
▁piragua	-9.36379
▁rafo	-9.36379
▁snow	-9.36379
▁empty	-9.36379
▁campbell	-9.36382
▁department	-9.36388
▁pink	-9.36399
▁neck	-9.36425
▁hall	-9.36462
om	-9.36522
▁uit	-9.36564
▁con	-9.36612
▁lift	-9.36698
▁diamonds	-9.37011
▁sake	-9.37084
▁cup	-9.37112
▁scene	-9.37126
▁plate	-9.37196
▁paint	-9.37207
▁missile	-9.37245
am	-9.38343
op	-9.38476
▁file	-9.38521
ass	-9.3854
▁drinking	-9.38753
▁steal	-9.38854
▁states	-9.38979
▁barr	-9.39103
▁freak	-9.39116
▁sacrifice	-9.39149
▁notice	-9.39158
▁survive	-9.39188
▁cons	-9.39246
▁ought	-9.39315
j	-9.39322
▁aunt	-9.39381
▁breakfast	-9.39409
▁dillon	-9.39409
▁doubtfire	-9.39409
▁fought	-9.39409
▁response	-9.39409
▁restaurant	-9.39409
▁sarge	-9.39409
▁sheriff	-9.39409
▁precious	-9.3941
▁ryan	-9.3941
▁spock	-9.39413
▁address	-9.39414
▁lab	-9.39414
▁nuclear	-9.39416
▁practice	-9.39416
▁dna	-9.39432
▁safety	-9.39452
▁invited	-9.39552
▁shake	-9.3957
▁bigger	-9.39625
x	-9.39635
▁showed	-9.39936
▁rid	-9.40005
▁ty	-9.40011
▁kingdom	-9.40201
▁ghost	-9.40251
▁starting	-9.40293
▁egg	-9.40322
im	-9.40469
▁hum	-9.40506
▁besides	-9.40539
▁older	-9.41149
time	-9.41231
se	-9.41548
▁keeps	-9.41548
▁cook	-9.416
▁plays	-9.41725
be	-9.41837
▁pa	-9.42006
▁cry	-9.42066
▁suck	-9.42467
he	-9.42476
▁mmhm	-9.425
▁birth	-9.42529
▁chirping	-9.42534
▁familiar	-9.42534
▁female	-9.42534
▁galaxy	-9.42534
▁grandfather	-9.42534
▁stormtrooper	-9.42534
▁whether	-9.42534
▁jerry	-9.42534
▁however	-9.42535
▁opportunity	-9.42535
▁pregnant	-9.42535
▁jimmy	-9.42537
▁thatll	-9.42538
▁nope	-9.4254
▁shirt	-9.42541
▁baseball	-9.42541
▁often	-9.42542
▁sunday	-9.42547
▁max	-9.42554
▁paddle	-9.42554
▁christine	-9.42557
▁abby	-9.42559
▁johnny	-9.42579
▁powerful	-9.42595
▁coat	-9.426
▁rise	-9.42604
▁held	-9.42608
▁grown	-9.42698
▁honestly	-9.42754
▁pants	-9.42865
▁voices	-9.42911
▁main	-9.42911
▁allowed	-9.42952
▁robots	-9.42968
▁bucks	-9.43065
▁pre	-9.43101
▁operation	-9.43414
▁suspect	-9.43433
▁account	-9.43507
▁project	-9.43544
tion	-9.4358
▁mu	-9.43861
ted	-9.43867
▁se	-9.43933
▁queens	-9.44092
▁fired	-9.44259
▁ms	-9.44306
▁masters	-9.44727
▁bother	-9.44782
▁build	-9.45231
▁do	-9.4538
▁birds	-9.45486
▁shows	-9.45619
▁switch	-9.45688
▁pipe	-9.45759
▁enemies	-9.4576
▁possibly	-9.4576
▁speech	-9.4576
▁thunder	-9.4576
▁denise	-9.4576
▁cheese	-9.4576
▁italy	-9.45761
▁piano	-9.45761
▁patrick	-9.45761
▁earlier	-9.45761
▁susie	-9.45761
▁brown	-9.45762
▁augustus	-9.45762
▁sammy	-9.45763
▁asleep	-9.45767
▁dudley	-9.45767
▁beauty	-9.45768
▁friday	-9.45769
▁dropped	-9.45785
just	-9.45793
▁exhales	-9.45801
▁kate	-9.45826
▁hem	-9.45865
▁zoon	-9.45927
▁hoping	-9.45953
▁gotham	-9.46019
way	-9.46023
▁approaching	-9.4605
▁sexy	-9.46174
▁hill	-9.46372
▁murdered	-9.46381
▁returned	-9.46756
▁clock	-9.46759
▁noise	-9.46793
▁ld	-9.46796
▁nurse	-9.46858
▁decision	-9.46862
▁cardinal	-9.46877
▁kinda	-9.46885
▁beer	-9.46959
▁pulled	-9.46965
▁toy	-9.47064
▁stranger	-9.47064
ial	-9.47201
▁iron	-9.47293
ian	-9.47348
▁flying	-9.47501
▁cleaning	-9.47616
▁player	-9.48036
▁fighting	-9.48177
sh	-9.48327
▁ruin	-9.4873
▁grant	-9.48739
▁russia	-9.48968
▁harm	-9.49048
▁he	-9.49052
▁among	-9.49062
▁apologize	-9.49093
▁babies	-9.49093
▁bertleman	-9.49093
▁distance	-9.49093
▁insane	-9.49093
▁london	-9.49093
▁otherwise	-9.49093
▁simply	-9.49093
▁judge	-9.49094
▁quill	-9.49097
▁grew	-9.49098
▁assistant	-9.49098
▁threw	-9.49099
▁bourne	-9.491
▁famous	-9.49119
▁literally	-9.49121
▁director	-9.49121
▁written	-9.49124
▁brave	-9.49127
▁under	-9.49133
▁priory	-9.4914
▁sweetie	-9.4925
▁bb	-9.49261
▁row	-9.49286
▁stage	-9.4931
▁national	-9.49379
ally	-9.49395
▁beeps	-9.49556
▁ad	-9.49782
▁metal	-9.49874
▁dollars	-9.49886
▁games	-9.49892
▁fa	-9.50083
▁turner	-9.50107
▁appear	-9.50117
▁pocket	-9.50227
▁pilot	-9.50257
▁view	-9.5026
▁manager	-9.50325
▁guest	-9.50327
me	-9.50451
▁ma	-9.51163
▁di	-9.5143
▁fuck	-9.51506
onto	-9.51514
▁fail	-9.51617
▁waters	-9.5165
▁cameras	-9.51791
ton	-9.51853
▁parts	-9.51916
▁laws	-9.51922
▁killer	-9.5196
▁rush	-9.51992
▁prepare	-9.52327
▁natural	-9.52377
▁opens	-9.52388
▁cares	-9.52417
▁brilliant	-9.52542
▁jij	-9.52542
▁roof	-9.52542
▁desire	-9.52542
▁interview	-9.52542
▁ugly	-9.52542
▁minho	-9.52542
▁meat	-9.52543
▁romantic	-9.52544
▁tiger	-9.52545
▁blame	-9.52546
▁macho	-9.52546
▁trapped	-9.52548
▁spell	-9.52552
▁martin	-9.52553
▁mommy	-9.52564
▁announcer	-9.52569
▁witch	-9.52572
▁loose	-9.5258
▁chili	-9.52581
▁huge	-9.52624
▁believed	-9.52657
▁nathan	-9.52683
▁checking	-9.52765
▁bent	-9.52837
ba	-9.52985
▁agreed	-9.53049
▁wayne	-9.53049
▁challenge	-9.53063
▁entirely	-9.53069
▁pie	-9.53151
▁bringing	-9.5319
▁ren	-9.53227
▁whispers	-9.53288
▁belong	-9.53476
▁nuts	-9.53491
▁po	-9.53658
▁trick	-9.53709
▁feelings	-9.5375
▁partner	-9.53872
▁quarter	-9.53876
▁saving	-9.53962
▁newt	-9.53964
▁orc	-9.54186
▁horses	-9.54191
▁driver	-9.54319
id	-9.54491
▁rip	-9.54622
ah	-9.54628
ad	-9.54753
▁gives	-9.54907
▁wil	-9.54937
▁bite	-9.54941
▁keeping	-9.55082
cy	-9.55189
▁screw	-9.55203
ow	-9.55294
▁tie	-9.55501
▁bless	-9.55645
▁schedule	-9.55866
▁bright	-9.55924
▁deliver	-9.55926
ina	-9.55959
▁walls	-9.56048
▁apart	-9.56092
▁split	-9.56109
▁accord	-9.56113
▁amsterdam	-9.56113
▁heeft	-9.56113
▁horrible	-9.56113
▁somehow	-9.56113
▁sophie	-9.56113
▁soviet	-9.56113
▁traffic	-9.56113
▁unusual	-9.56113
▁zidler	-9.56113
▁particular	-9.56113
▁complicated	-9.56113
▁tongue	-9.56114
▁monday	-9.56115
▁groot	-9.56115
▁yellow	-9.56116
▁devil	-9.56116
▁balin	-9.56117
▁square	-9.56118
▁thud	-9.56124
▁jody	-9.56125
▁belt	-9.56132
▁grave	-9.56155
▁basement	-9.56163
▁technically	-9.56169
▁winter	-9.56172
▁rocket	-9.56172
▁carver	-9.56185
▁soldiers	-9.56214
▁woods	-9.56257
▁fred	-9.56265
▁sue	-9.56286
▁hogs	-9.56423
▁prom	-9.56477
▁failed	-9.56488
▁personally	-9.56492
▁joint	-9.56602
▁aan	-9.56802
▁film	-9.56895
▁dressed	-9.56965
▁highly	-9.57016
▁sub	-9.57047
▁orders	-9.57058
ier	-9.57192
▁sin	-9.57207
tic	-9.57271
▁bike	-9.57435
▁symbol	-9.57548
▁names	-9.57552
▁nah	-9.57588
ny	-9.57636
▁hardly	-9.5773
▁creatures	-9.57779
▁pictures	-9.57825
pe	-9.5807
▁on	-9.58434
▁rob	-9.58628
▁and	-9.58872
▁wipe	-9.58971
▁o	-9.58991
▁respond	-9.59261
▁hunt	-9.59277
co	-9.59394
▁trash	-9.59419
▁vote	-9.59419
off	-9.59436
▁arrest	-9.59455
▁cure	-9.59645
▁hearing	-9.59677
▁played	-9.59703
▁threat	-9.59738
▁helen	-9.59778
▁upset	-9.59811
▁oak	-9.59815
▁abuela	-9.59817
▁advice	-9.59817
▁alabanza	-9.59817
▁although	-9.59817
▁became	-9.59817
▁benjamin	-9.59817
▁lieutenant	-9.59817
▁lomax	-9.59817
▁byebye	-9.59817
▁extreme	-9.59817
▁lanning	-9.59817
▁opinion	-9.59817
▁signior	-9.59817
▁hermia	-9.59817
▁spring	-9.59818
▁desert	-9.59818
▁hadnt	-9.59819
▁harry	-9.5982
▁vanessa	-9.59823
▁tyler	-9.59824
▁surgery	-9.59825
▁hawaiian	-9.59834
▁fellow	-9.59834
▁ruby	-9.59855
▁writing	-9.59917
▁coughing	-9.59931
▁involved	-9.59951
▁confirmed	-9.60068
▁stolen	-9.60074
▁created	-9.60165
▁surprised	-9.60334
▁sooner	-9.60436
▁cooking	-9.60458
▁ear	-9.60907
▁no	-9.60933
▁hoe	-9.61062
▁covered	-9.61105
▁duck	-9.6133
▁guns	-9.61439
▁ray	-9.61463
▁helped	-9.61467
▁followed	-9.61511
▁mistakes	-9.61603
light	-9.61877
▁le	-9.61964
▁moet	-9.62072
uw	-9.62116
▁so	-9.62238
▁surf	-9.62641
▁piss	-9.62791
▁sh	-9.62901
▁screech	-9.63131
▁study	-9.63239
▁chest	-9.63303
▁introduce	-9.63395
▁shop	-9.63595
▁wise	-9.63607
▁chill	-9.63624
▁pr	-9.63626
▁confess	-9.63637
▁chick	-9.63659
▁benedick	-9.63663
▁calvin	-9.63663
▁destiny	-9.63663
▁gabriel	-9.63663
▁kobayashi	-9.63663
▁marriage	-9.63663
▁moscow	-9.63663
▁necessary	-9.63663
▁relationship	-9.63663
▁vittoria	-9.63663
▁thief	-9.63663
▁conference	-9.63663
▁silver	-9.63663
▁insist	-9.63664
▁celia	-9.63666
▁percent	-9.63666
▁opened	-9.63667
▁jonathan	-9.63667
▁marshall	-9.63668
▁source	-9.63669
▁desk	-9.63671
▁cody	-9.63671
▁property	-9.63673
▁available	-9.63673
▁santa	-9.63685
▁naked	-9.63695
▁kelly	-9.63696
▁panic	-9.63698
▁darkness	-9.6371
▁blast	-9.63719
▁mood	-9.63729
▁shape	-9.63797
▁hired	-9.63834
▁heights	-9.63883
▁zero	-9.63923
▁snap	-9.63932
▁port	-9.64008
▁que	-9.64066
▁faster	-9.64102
▁nearly	-9.64126
▁rent	-9.64159
▁mae	-9.64372
▁race	-9.64601
▁ln	-9.64634
ard	-9.64814
▁matters	-9.64866
▁scare	-9.65011
▁expecting	-9.65034
▁pin	-9.65038
▁exist	-9.65071
▁wings	-9.65205
▁attacked	-9.65232
▁contract	-9.65245
▁bull	-9.65321
▁blowing	-9.65364
▁score	-9.65402
▁knight	-9.65424
▁pirate	-9.65435
▁dragon	-9.65462
▁waited	-9.65632
gen	-9.65701
▁walked	-9.65775
▁couldve	-9.65949
▁doctors	-9.66103
▁sending	-9.66126
ca	-9.6647
▁letters	-9.6662
▁showing	-9.66651
▁humans	-9.66747
▁fe	-9.66951
▁shower	-9.67118
▁hook	-9.67166
ated	-9.67311
▁matt	-9.6736
▁jealous	-9.67472
▁ka	-9.67644
▁scan	-9.67662
▁camerlengo	-9.67663
▁carlisle	-9.67663
▁intelligence	-9.67663
▁jerome	-9.67663
▁slide	-9.67663
▁sobbing	-9.67663
▁surveillance	-9.67663
▁weather	-9.67663
▁oxygen	-9.67663
▁whoever	-9.67664
▁policy	-9.67664
▁bravo	-9.67665
▁jerk	-9.67667
▁bread	-9.6767
▁adler	-9.6767
▁milk	-9.67672
▁flat	-9.67673
▁blackwood	-9.67674
▁cake	-9.67674
▁china	-9.67674
▁diana	-9.67675
▁penny	-9.67675
▁potential	-9.67677
▁recognize	-9.67677
▁arizona	-9.67679
▁droid	-9.67686
▁nasty	-9.67686
▁comfortable	-9.67686
▁wet	-9.67687
▁barely	-9.67689
▁treasure	-9.67692
▁decent	-9.67693
▁market	-9.67716
▁pool	-9.67737
▁honking	-9.67743
▁range	-9.67761
▁directly	-9.67785
▁designed	-9.67948
▁mac	-9.67993
▁butter	-9.68021
▁ate	-9.68059
▁stronger	-9.68119
▁spots	-9.68145
▁ross	-9.6838
▁powers	-9.68415
▁mothers	-9.68433
ha	-9.68655
▁families	-9.68712
▁flowers	-9.68728
▁aliens	-9.68776
mo	-9.68778
▁nights	-9.68822
ped	-9.68928
ish	-9.68963
▁harder	-9.68995
▁kan	-9.69155
▁wheel	-9.69256
end	-9.69424
▁falling	-9.69433
▁patient	-9.69445
▁monitor	-9.69521
▁toilet	-9.69542
▁vehicle	-9.69542
▁holiday	-9.69558
▁bottle	-9.69558
▁monster	-9.69559
▁satellite	-9.69606
▁counting	-9.69637
▁babe	-9.69639
den	-9.69698
▁stayed	-9.69742
land	-9.6975
▁ships	-9.70032
▁hier	-9.70415
▁mile	-9.71121
▁camp	-9.7125
▁require	-9.7151
▁saun	-9.71545
▁curse	-9.7158
▁spare	-9.71647
▁exact	-9.7166
▁spit	-9.7167
▁refuse	-9.71694
▁original	-9.71704
▁freeze	-9.71753
▁gentle	-9.718
▁wiggin	-9.71809
▁social	-9.71813
▁proper	-9.71817
▁akeem	-9.7183
▁avoid	-9.7183
▁chirps	-9.7183
▁easier	-9.7183
▁firm	-9.7183
▁freya	-9.7183
▁jacob	-9.7183
▁katherine	-9.7183
▁miracle	-9.7183
▁ninetysix	-9.7183
▁rough	-9.7183
▁wicked	-9.7183
▁champagne	-9.7183
▁dwarf	-9.7183
▁marisa	-9.7183
▁england	-9.71831
▁afford	-9.71831
▁hidden	-9.71832
▁spread	-9.71832
▁lawyer	-9.71833
▁swim	-9.71834
▁merry	-9.71836
▁celebrate	-9.71838
▁practical	-9.71838
▁virgin	-9.71843
▁aim	-9.71869
▁meal	-9.71893
ure	-9.71903
ey	-9.71929
▁baron	-9.71946
▁badge	-9.71952
▁dirty	-9.7196
▁honour	-9.72054
▁letting	-9.7206
▁yelling	-9.72076
▁concerned	-9.72135
▁event	-9.72169
▁heads	-9.72208
da	-9.72255
▁crack	-9.72303
▁page	-9.72318
ise	-9.72413
▁filled	-9.72433
▁data	-9.7247
▁begins	-9.72711
▁bust	-9.72762
▁fully	-9.72806
▁papers	-9.72817
▁lines	-9.72818
▁fel	-9.72947
▁fixed	-9.72975
▁bounce	-9.73138
▁dry	-9.73359
▁cheers	-9.73512
▁parking	-9.7358
▁nee	-9.73612
▁jam	-9.73822
▁tells	-9.73834
▁disease	-9.73891
▁ian	-9.73971
▁lesson	-9.74074
com	-9.74366
▁leader	-9.74412
▁dez	-9.74494
▁artist	-9.74519
▁ohh	-9.7456
▁post	-9.74572
ther	-9.74761
▁greene	-9.74811
ize	-9.7511
▁suite	-9.75111
▁students	-9.75239
▁net	-9.75317
ol	-9.75544
▁hills	-9.75585
▁chew	-9.7565
▁coast	-9.75687
▁streets	-9.75729
▁reports	-9.76092
▁chas	-9.761
▁berlin	-9.76178
▁channel	-9.76178
▁charlotte	-9.76178
▁disaster	-9.76178
▁downstairs	-9.76178
▁dwarves	-9.76178
▁equipment	-9.76178
▁figaro	-9.76178
▁genius	-9.76178
▁giggling	-9.76178
▁isaac	-9.76178
▁mandarin	-9.76178
▁pyramus	-9.76178
▁regular	-9.76178
▁temperature	-9.76178
▁whenever	-9.76178
▁amount	-9.76178
▁device	-9.76178
▁erik	-9.76178
▁eventually	-9.76178
▁gwen	-9.76178
▁evelyn	-9.76178
▁kathy	-9.76178
▁alarm	-9.7618
▁route	-9.7618
▁guldan	-9.76182
▁quarterback	-9.76183
▁giant	-9.76185
▁joking	-9.76185
▁understood	-9.76187
▁funeral	-9.76188
▁hydra	-9.76191
▁community	-9.76203
▁rumbling	-9.76203
▁theory	-9.76204
▁drill	-9.76205
▁energy	-9.76206
▁guilty	-9.76206
▁handsome	-9.76216
▁season	-9.76217
▁bert	-9.76217
▁reid	-9.76218
▁screen	-9.7622
▁mister	-9.76231
▁tomb	-9.76234
▁lonely	-9.76237
▁process	-9.76238
▁deck	-9.76272
▁billion	-9.76281
▁weight	-9.76284
▁eric	-9.76296
▁self	-9.76301
▁buzzing	-9.76302
▁pm	-9.76329
▁paying	-9.76345
▁sisters	-9.76347
▁navy	-9.76354
▁tall	-9.76426
▁tail	-9.76436
▁stairs	-9.76625
▁bath	-9.76675
▁coughs	-9.76727
▁deeply	-9.76769
▁taxi	-9.76785
▁off	-9.76815
▁ay	-9.76877
▁nobodys	-9.76908
▁county	-9.76917
▁writer	-9.76941
▁loss	-9.76954
▁gra	-9.77045
▁goodness	-9.77124
▁settle	-9.77411
▁gee	-9.77442
▁changes	-9.77449
▁records	-9.77495
▁clearly	-9.77495
▁rod	-9.77578
▁ira	-9.77814
▁bug	-9.77818
▁condition	-9.77911
▁par	-9.7803
▁acting	-9.78172
▁para	-9.78365
pa	-9.78406
▁issue	-9.78494
▁bullet	-9.78504
▁model	-9.78516
▁effect	-9.78518
▁grade	-9.78826
▁files	-9.79423
pped	-9.79569
▁closes	-9.79621
▁it	-9.79709
▁stu	-9.79816
▁turns	-9.79927
▁defend	-9.80126
▁intend	-9.8034
▁borrow	-9.80354
ler	-9.80406
▁assume	-9.80465
fore	-9.80522
▁mountains	-9.80561
▁mis	-9.80574
▁ab	-9.80591
▁flash	-9.80636
ting	-9.80645
▁prefer	-9.80708
▁arthur	-9.80723
▁british	-9.80723
▁buried	-9.80723
▁clever	-9.80723
▁experiment	-9.80723
▁gilcrest	-9.80723
▁including	-9.80723
▁joffer	-9.80723
▁medivh	-9.80723
▁sergeant	-9.80723
▁surrender	-9.80723
▁presence	-9.80723
▁bandera	-9.80723
▁usnavi	-9.80723
▁beneath	-9.80723
▁ellis	-9.80723
▁sista	-9.80724
▁nicole	-9.80724
▁neighborhood	-9.80724
▁caroline	-9.80724
▁modern	-9.80724
▁coach	-9.80727
▁monkey	-9.80727
▁permission	-9.80728
▁internet	-9.80731
▁suicide	-9.80733
▁france	-9.80734
▁applause	-9.80736
▁blade	-9.80736
▁empire	-9.80736
▁howard	-9.80736
▁phil	-9.80742
▁grateful	-9.80749
▁ocean	-9.80749
▁dancing	-9.8075
▁professional	-9.80751
▁rare	-9.80754
▁sarah	-9.80759
▁fury	-9.80763
▁betty	-9.80776
▁responsible	-9.80779
▁began	-9.80798
▁jackson	-9.80799
▁aware	-9.80805
▁stark	-9.80814
▁proof	-9.80822
▁protection	-9.80839
▁cia	-9.80843
▁chewie	-9.80871
▁fl	-9.80885
▁sitar	-9.8089
▁scotty	-9.80901
▁arrived	-9.80975
▁zone	-9.80991
▁signs	-9.81002
▁healthy	-9.81012
▁who	-9.81116
▁noticed	-9.81131
▁wolf	-9.81156
▁meaning	-9.81275
ily	-9.81389
▁kicked	-9.81594
ism	-9.81899
▁trap	-9.81935
▁princess	-9.81943
ose	-9.82187
▁sa	-9.82218
▁du	-9.82365
▁non	-9.82874
ren	-9.82915
ee	-9.82964
▁ted	-9.82985
▁opening	-9.83057
▁sword	-9.83179
▁creature	-9.83293
▁ranger	-9.83343
▁career	-9.83488
▁inter	-9.83992
▁forces	-9.84112
▁cos	-9.84233
▁all	-9.84353
▁tickets	-9.84355
ag	-9.84405
▁wit	-9.84816
lin	-9.85019
ship	-9.85021
▁spiders	-9.85104
▁bail	-9.85107
▁talent	-9.85114
▁request	-9.8512
▁separate	-9.85223
▁spoon	-9.85256
▁brand	-9.85261
▁scott	-9.85337
▁courage	-9.85452
▁somethin	-9.85458
▁role	-9.85476
▁image	-9.85479
▁desperate	-9.85485
▁lucinda	-9.85485
▁mercedes	-9.85485
▁miranda	-9.85485
▁niece	-9.85485
▁scientific	-9.85485
▁someday	-9.85485
▁teresa	-9.85485
▁mostly	-9.85485
▁pump	-9.85485
▁silence	-9.85485
▁valley	-9.85486
▁washington	-9.85487
▁choking	-9.85487
▁midnight	-9.85487
▁gunshot	-9.85489
▁theme	-9.8549
▁unbelievable	-9.8549
▁society	-9.8549
▁impressive	-9.85491
▁laura	-9.85491
▁basically	-9.85492
▁rita	-9.85494
▁hillard	-9.85495
▁benefit	-9.85497
▁governor	-9.85499
▁cmon	-9.85505
▁jenny	-9.85511
▁gentleman	-9.85512
▁nog	-9.85519
▁plain	-9.85522
▁bodies	-9.8553
▁toss	-9.85531
▁yearold	-9.85549
▁glen	-9.85555
▁warden	-9.85572
▁shift	-9.85574
▁mc	-9.85575
▁tank	-9.85627
▁impressed	-9.85687
▁eden	-9.85698
▁spoken	-9.85719
▁host	-9.8575
▁discovered	-9.85794
▁lower	-9.8587
▁add	-9.85875
▁billy	-9.85945
▁joy	-9.85997
▁slap	-9.86021
▁sean	-9.86022
▁strip	-9.86148
we	-9.86182
▁blessing	-9.86211
▁crossed	-9.86312
day	-9.86321
▁riding	-9.86333
ax	-9.86397
▁forced	-9.86461
▁perfectly	-9.86606
▁fellas	-9.86664
▁rogers	-9.87075
ea	-9.87087
▁naar	-9.87369
ck	-9.8741
▁loves	-9.87467
▁talkin	-9.87635
▁lion	-9.87751
▁claim	-9.8781
▁concern	-9.8783
▁ca	-9.87906
▁official	-9.87986
▁chair	-9.88161
▁cave	-9.88201
▁to	-9.88222
▁tip	-9.88264
▁repair	-9.8836
vi	-9.88505
▁orcs	-9.88512
▁bound	-9.88687
▁somebodys	-9.88762
▁checked	-9.89061
▁painting	-9.89125
▁points	-9.89143
os	-9.89388
dy	-9.89797
▁gather	-9.89915
▁lots	-9.90053
▁attempt	-9.90096
▁crush	-9.90135
▁release	-9.90223
▁damage	-9.90228
▁provide	-9.90229
▁total	-9.90336
red	-9.90402
▁cha	-9.90423
▁usual	-9.90428
▁affair	-9.90485
▁atari	-9.90485
▁attorney	-9.90485
▁ceremony	-9.90485
▁climb	-9.90485
▁disgusting	-9.90485
▁empress	-9.90485
▁florida	-9.90485
▁gardner	-9.90485
▁harvard	-9.90485
▁maisie	-9.90485
▁mmmhmm	-9.90485
▁negative	-9.90485
▁pearl	-9.90485
▁responsibility	-9.90485
▁sweep	-9.90485
▁texas	-9.90485
▁unknown	-9.90485
▁current	-9.90485
▁journey	-9.90485
▁physical	-9.90485
▁baggins	-9.90485
▁shore	-9.90485
▁taylor	-9.90485
▁cypher	-9.90485
▁downtown	-9.90486
▁nowhere	-9.90486
▁mitchell	-9.90487
▁staff	-9.90487
▁telephone	-9.90487
▁europe	-9.90487
▁curious	-9.90487
▁value	-9.90487
▁bunny	-9.90488
▁beatrice	-9.90488
▁pepper	-9.90488
▁ridley	-9.90489
▁houten	-9.90489
▁pathetic	-9.90489
▁dentist	-9.9049
▁greek	-9.90491
▁success	-9.90495
▁michelle	-9.90496
▁revenge	-9.90496
▁cliff	-9.90498
▁saint	-9.90498
▁oil	-9.90505
▁nova	-9.90521
▁math	-9.90524
▁louisa	-9.90528
▁of	-9.90533
▁jedi	-9.90541
▁beth	-9.90596
▁duty	-9.90625
▁eve	-9.90626
▁eh	-9.90629
der	-9.90659
▁thatd	-9.90683
▁chanting	-9.90693
▁design	-9.90694
▁wel	-9.90706
▁kane	-9.90725
▁barn	-9.90893
▁wheeler	-9.90906
▁screwed	-9.90998
▁sequence	-9.91108
ized	-9.91111
▁degrees	-9.91349
▁armed	-9.91375
▁out	-9.91422
ent	-9.9143
▁burned	-9.91601
▁expected	-9.91692
▁tri	-9.91695
▁closet	-9.91698
▁mid	-9.91809
▁drugs	-9.91937
mi	-9.91959
▁va	-9.92132
▁burning	-9.92154
led	-9.92452
▁legal	-9.9248
ver	-9.9262
lo	-9.92693
als	-9.92709
▁ra	-9.9285
▁patients	-9.93215
▁pig	-9.93425
▁member	-9.93498
ak	-9.93658
▁rap	-9.93672
▁helping	-9.93783
▁sucks	-9.9407
let	-9.94095
ster	-9.94126
▁everyones	-9.9417
▁viv	-9.94228
▁pe	-9.94363
▁z	-9.94442
▁wha	-9.94592
the	-9.94653
▁dom	-9.94689
▁cheat	-9.94853
▁shots	-9.94909
▁can	-9.94941
▁shock	-9.95154
doth	-9.95189
▁ls	-9.95332
▁poison	-9.9537
▁confirm	-9.9539
▁usr	-9.95464
▁guide	-9.95477
▁invite	-9.95498
▁german	-9.95564
▁cheap	-9.95595
▁asgard	-9.95718
▁comfort	-9.95724
▁attend	-9.95735
▁illuminati	-9.95737
▁archibald	-9.95748
▁arrival	-9.95748
▁bofur	-9.95748
▁chemical	-9.95748
▁coincidence	-9.95748
▁elliot	-9.95748
▁elrond	-9.95748
▁exegol	-9.95748
▁gorgeous	-9.95748
▁maintain	-9.95748
▁margaret	-9.95748
▁megget	-9.95748
▁memories	-9.95748
▁twelve	-9.95748
▁collins	-9.95748
▁zac	-9.95748
▁fireworks	-9.95749
▁agency	-9.95749
▁dwalin	-9.95749
▁trunk	-9.95749
▁demand	-9.95749
▁kimble	-9.95749
▁sec	-9.9575
▁milt	-9.9575
▁smoking	-9.9575
▁youth	-9.95751
▁closing	-9.95751
▁stink	-9.95751
▁existence	-9.95753
▁garage	-9.95757
▁league	-9.95759
▁species	-9.95759
▁fortune	-9.95759
▁flag	-9.95763
▁anger	-9.95764
▁bedroom	-9.95764
▁julia	-9.95767
▁fake	-9.95768
▁calor	-9.95781
▁loving	-9.95785
▁deaf	-9.95786
▁century	-9.95799
▁setting	-9.95802
▁tiny	-9.95804
▁lena	-9.9581
▁scary	-9.95814
▁bride	-9.95832
▁ease	-9.95834
▁cage	-9.95836
▁growling	-9.95843
▁chain	-9.95851
▁rusty	-9.95858
▁dave	-9.95874
▁joan	-9.95877
▁stops	-9.95879
▁legend	-9.95899
▁ar	-9.95925
▁doen	-9.9593
▁bay	-9.95942
▁nest	-9.9597
▁carson	-9.96074
▁prepared	-9.96207
▁y	-9.96212
▁gay	-9.96225
▁sadly	-9.96246
▁survived	-9.96262
▁engines	-9.96313
▁raised	-9.96368
▁wie	-9.96659
▁ook	-9.96761
▁younger	-9.96797
ja	-9.96975
▁knocking	-9.9718
tra	-9.97188
▁scientists	-9.97271
▁remembered	-9.97434
je	-9.97444
port	-9.98227
▁onz	-9.98482
▁cheer	-9.98576
▁ears	-9.98895
▁penguin	-9.98962
▁tunnel	-9.99013
▁vision	-9.99032
▁beast	-9.99066
▁cloud	-9.99086
line	-9.99101
▁finger	-9.99121
▁shoe	-9.99128
do	-9.99152
▁odd	-9.99201
▁prisoner	-9.99324
▁answers	-9.995
▁falls	-9.99874
▁leads	-10.0001
▁officers	-10.0026
▁dot	-10.0049
▁tend	-10.0049
▁wing	-10.005
em	-10.0052
▁discover	-10.0076
▁photograph	-10.0082
▁awake	-10.0095
▁load	-10.0101
▁sudden	-10.0112
over	-10.012
▁witness	-10.0123
▁loan	-10.0124
▁counsel	-10.0126
▁complain	-10.0129
▁fruit	-10.0129
▁fifty	-10.013
▁hm	-10.013
▁broadcast	-10.013
▁buckingham	-10.013
▁california	-10.013
▁cancan	-10.013
▁claire	-10.013
▁false	-10.013
▁flesh	-10.013
▁harold	-10.013
▁increase	-10.013
▁koninklijk	-10.013
▁penkovsky	-10.013
▁spectacular	-10.013
▁supper	-10.013
▁toulouse	-10.013
▁wynne	-10.013
▁deputy	-10.013
▁fifth	-10.013
▁virus	-10.013
▁extend	-10.013
▁stewart	-10.013
▁everdene	-10.0131
▁museum	-10.0131
▁throne	-10.0131
▁prime	-10.0131
▁digging	-10.0131
▁pride	-10.0131
▁tracy	-10.0131
▁foul	-10.0131
▁kitty	-10.0131
▁stood	-10.0131
▁section	-10.0131
▁basic	-10.0132
▁catholic	-10.0132
▁prick	-10.0132
▁custody	-10.0132
▁fancy	-10.0132
▁task	-10.0132
▁contest	-10.0132
▁grandma	-10.0132
▁forest	-10.0133
▁comin	-10.0133
berry	-10.0134
▁richter	-10.0135
one	-10.0136
▁cabin	-10.0137
▁penis	-10.0137
▁unfortunately	-10.0138
▁homework	-10.0139
▁hail	-10.0139
▁chosen	-10.0139
▁capable	-10.014
▁hopeful	-10.0143
▁meer	-10.0143
▁trial	-10.0144
▁gene	-10.0145
▁pity	-10.0149
▁passion	-10.0152
▁laid	-10.0153
▁skull	-10.0153
▁bleeding	-10.0154
▁cole	-10.0156
▁string	-10.0156
▁highest	-10.0166
▁hebt	-10.0166
ble	-10.0169
▁dump	-10.017
▁bob	-10.0174
▁scoffs	-10.0175
▁janet	-10.0178
▁arrested	-10.0185
▁pleased	-10.0189
bacc	-10.0191
▁finest	-10.0199
▁tear	-10.0199
▁habit	-10.02
▁goed	-10.0202
▁units	-10.0207
▁bat	-10.0216
ov	-10.0229
▁rat	-10.0249
▁dinosaurs	-10.0253
▁depends	-10.0253
▁pair	-10.0262
▁messed	-10.0268
▁heading	-10.0286
no	-10.0297
bell	-10.0308
▁li	-10.0318
▁signed	-10.0329
kin	-10.0343
▁pee	-10.0345
▁protected	-10.0354
▁lookin	-10.0362
▁fathers	-10.0377
▁disappear	-10.0384
▁ba	-10.0385
▁movies	-10.0406
ible	-10.0428
▁wiggl	-10.043
▁beating	-10.0437
ture	-10.0439
▁limit	-10.0446
▁ending	-10.0448
▁mortal	-10.0455
▁ch	-10.0482
▁wound	-10.0484
▁tricks	-10.0489
▁clue	-10.0493
▁sport	-10.0493
▁tone	-10.0495
▁bean	-10.0499
▁beside	-10.0501
▁ton	-10.0507
▁rate	-10.0508
▁yard	-10.0515
ft	-10.0535
▁manage	-10.0551
▁tor	-10.058
▁leaves	-10.0584
▁dies	-10.061
lic	-10.0618
▁idiots	-10.0619
▁betray	-10.0622
▁wash	-10.0623
▁suffer	-10.0627
▁approach	-10.0657
▁waves	-10.066
▁roar	-10.0661
▁lin	-10.0667
▁sink	-10.0668
▁wast	-10.0668
▁cab	-10.0673
▁bone	-10.0675
ot	-10.0678
ning	-10.0679
▁sharp	-10.0691
▁guarantee	-10.0692
▁direct	-10.0693
▁random	-10.0698
▁olive	-10.0699
▁dirt	-10.07
▁obvious	-10.0701
▁swan	-10.0707
▁federal	-10.071
▁trees	-10.0714
▁gl	-10.0716
▁progress	-10.0717
▁specific	-10.0718
▁fashion	-10.0718
▁mass	-10.0719
▁anchor	-10.0719
▁benedict	-10.0719
▁bishop	-10.0719
▁chekov	-10.0719
▁chicago	-10.0719
▁complex	-10.0719
▁lavelle	-10.0719
▁lysander	-10.0719
▁malekith	-10.0719
▁megasaki	-10.0719
▁mexico	-10.0719
▁nemerov	-10.0719
▁nonsense	-10.0719
▁prevent	-10.0719
▁rouge	-10.0719
▁salmon	-10.0719
▁smooth	-10.0719
▁snails	-10.0719
▁solution	-10.0719
▁subtitles	-10.0719
▁footsteps	-10.0719
▁inspiration	-10.0719
▁loki	-10.0719
▁material	-10.0719
▁unique	-10.0719
▁example	-10.0719
▁authorities	-10.0719
▁cowboy	-10.0719
▁positive	-10.0719
▁crisis	-10.0719
▁francisco	-10.0719
▁committed	-10.0719
▁application	-10.0719
▁woodward	-10.0719
▁cream	-10.0719
▁traitor	-10.0719
▁silent	-10.0719
▁myth	-10.0719
▁status	-10.072
▁garbage	-10.072
▁happiness	-10.072
▁aidan	-10.072
▁daily	-10.072
▁electric	-10.072
▁several	-10.072
▁massive	-10.072
▁mental	-10.072
▁liar	-10.0721
▁surface	-10.0721
▁batman	-10.0721
▁maze	-10.0721
▁moul	-10.0721
▁march	-10.0721
▁supply	-10.0722
▁edge	-10.0722
▁mercy	-10.0722
▁oclock	-10.0722
▁benny	-10.0722
▁auto	-10.0722
▁royal	-10.0723
▁forgotten	-10.0723
▁lucy	-10.0724
▁wallet	-10.0725
▁highway	-10.0725
▁sally	-10.0726
▁dawn	-10.0726
▁della	-10.0726
▁murmuring	-10.0727
▁lester	-10.0729
▁confused	-10.0729
▁marks	-10.0729
▁will	-10.073
▁alan	-10.0733
▁smith	-10.0733
▁engaged	-10.0736
▁breed	-10.0736
▁fry	-10.0737
▁golden	-10.0737
▁ability	-10.0738
▁fourth	-10.0738
▁lack	-10.0744
▁sith	-10.0745
▁banging	-10.0751
▁doll	-10.0752
▁dads	-10.0763
▁lungs	-10.0767
▁bi	-10.0801
▁coordinates	-10.0803
▁indistinctly	-10.0809
▁sha	-10.0812
▁knees	-10.0822
▁alle	-10.0822
▁here	-10.0824
▁stealing	-10.0826
▁am	-10.0827
▁surely	-10.0831
▁wee	-10.0834
▁reached	-10.084
▁tu	-10.0843
▁enjoyed	-10.0849
ug	-10.0867
io	-10.0868
ied	-10.0869
▁gim	-10.0882
▁vampires	-10.089
▁torture	-10.0891
▁tr	-10.0918
hi	-10.0919
▁lee	-10.0919
lor	-10.0929
down	-10.0934
▁yards	-10.0945
▁spin	-10.0946
▁testing	-10.0961
bi	-10.1006
dog	-10.101
di	-10.1014
▁bugs	-10.1019
▁sigh	-10.104
▁somethings	-10.1046
▁russians	-10.1055
▁moe	-10.108
▁jet	-10.1082
▁lake	-10.1082
ana	-10.1094
▁wrap	-10.1103
▁village	-10.1103
▁rumor	-10.111
▁represent	-10.1111
▁cuba	-10.1122
▁link	-10.1127
sigu	-10.1131
▁bra	-10.1133
▁vi	-10.1149
▁missiles	-10.1169
▁cats	-10.1175
ir	-10.1185
istic	-10.1186
fi	-10.1221
▁hates	-10.1227
▁flow	-10.1236
▁deserves	-10.127
▁pale	-10.1287
board	-10.1299
back	-10.1303
spite	-10.1304
▁interrupt	-10.1306
▁cancel	-10.1306
▁stress	-10.1306
▁abandon	-10.1307
bo	-10.131
ile	-10.1315
ball	-10.1315
▁balance	-10.1316
▁becom	-10.132
ay	-10.1321
▁sneak	-10.1322
▁coward	-10.1324
▁anti	-10.1337
▁surge	-10.1343
▁admire	-10.1344
▁ambulance	-10.1344
▁atlantic	-10.1344
▁cavendish	-10.1344
▁crystal	-10.1344
▁divine	-10.1344
▁easily	-10.1344
▁ipkiss	-10.1344
▁jersey	-10.1344
▁leonato	-10.1344
▁manhattan	-10.1344
▁mystery	-10.1344
▁sensitive	-10.1344
▁sulu	-10.1344
▁terribly	-10.1344
▁uniform	-10.1344
▁vault	-10.1344
▁worship	-10.1344
▁pursue	-10.1344
▁ursa	-10.1344
▁whirring	-10.1344
▁competition	-10.1344
▁personnel	-10.1344
▁appointment	-10.1344
▁boldwood	-10.1344
▁stanley	-10.1344
▁biosyn	-10.1344
▁demetrius	-10.1344
▁evacuation	-10.1344
▁illegal	-10.1344
▁flew	-10.1344
▁andrew	-10.1344
▁pulse	-10.1344
▁display	-10.1344
▁zeggen	-10.1344
▁diner	-10.1344
▁shopping	-10.1344
▁garden	-10.1344
▁behavior	-10.1344
▁protest	-10.1344
▁palmer	-10.1344
▁bury	-10.1345
▁failure	-10.1345
▁pledge	-10.1345
▁bump	-10.1345
▁genetic	-10.1346
▁aboard	-10.1346
▁dropping	-10.1346
▁media	-10.1346
▁winning	-10.1347
▁hank	-10.1347
▁mobile	-10.1347
▁campus	-10.1348
▁leia	-10.1348
▁moeder	-10.1349
▁jones	-10.1349
▁boom	-10.1349
▁emotional	-10.135
▁recently	-10.135
▁kil	-10.135
▁style	-10.1352
▁formic	-10.1352
▁assholes	-10.1354
▁secretary	-10.1355
▁lean	-10.1356
▁forty	-10.1359
▁lane	-10.1359
▁recall	-10.1363
▁skid	-10.1365
▁instructions	-10.1366
▁developed	-10.1367
▁gray	-10.137
▁glasses	-10.1372
ko	-10.1372
▁pat	-10.1379
▁abandoned	-10.138
▁ti	-10.1391
▁cock	-10.1391
▁union	-10.1393
▁escort	-10.1397
ious	-10.1399
oo	-10.1401
▁served	-10.1409
▁mutants	-10.1409
▁goat	-10.1411
fa	-10.1413
▁rooms	-10.1414
head	-10.1415
▁beard	-10.1416
▁escaped	-10.1418
▁counter	-10.1421
▁warn	-10.1448
▁ere	-10.1453
▁freaking	-10.1457
▁woo	-10.1462
les	-10.1464
▁ignore	-10.1473
▁murderer	-10.1477
▁tracking	-10.1483
▁turning	-10.1487
tro	-10.1489
pen	-10.149
▁gifted	-10.1497
▁ideas	-10.1497
▁farmer	-10.1497
▁yells	-10.1498
berg	-10.1502
▁jokes	-10.1526
▁boo	-10.1552
od	-10.1566
▁mar	-10.1573
▁ev	-10.1576
▁passing	-10.1588
▁secrets	-10.1588
▁touched	-10.1593
▁bid	-10.1596
▁tears	-10.1597
▁odds	-10.16
▁beta	-10.1621
ang	-10.1644
▁bags	-10.1648
▁classic	-10.1651
▁places	-10.1653
▁lately	-10.166
pin	-10.1661
▁gar	-10.1676
▁penni	-10.168
▁we	-10.168
▁pieces	-10.1687
gg	-10.17
▁dig	-10.1705
▁pulling	-10.1707
ack	-10.1708
▁site	-10.1714
▁belongs	-10.1751
▁comp	-10.1757
▁drivers	-10.176
▁appears	-10.1765
▁toys	-10.1779
▁cardinals	-10.1779
▁luke	-10.1784
▁client	-10.1784
▁victim	-10.1786
▁criminal	-10.1788
▁roger	-10.179
▁shoulder	-10.1791
nder	-10.1792
side	-10.1802
▁gear	-10.1804
like	-10.1821
▁likely	-10.1841
▁su	-10.1843
ph	-10.1844
ff	-10.1858
▁remains	-10.186
▁ahh	-10.1886
▁boot	-10.1901
▁transport	-10.1911
▁becomes	-10.1932
▁revolution	-10.1934
▁trail	-10.1943
zal	-10.1945
▁crawl	-10.1956
▁twist	-10.1957
row	-10.1958
▁seal	-10.1962
house	-10.1966
▁text	-10.197
ze	-10.1974
ging	-10.1976
▁divorce	-10.1985
▁constant	-10.1991
▁object	-10.1991
▁glob	-10.1992
▁actual	-10.1994
▁hahaha	-10.2004
▁expert	-10.201
▁punk	-10.201
▁butch	-10.201
▁chechnya	-10.201
▁delicious	-10.201
▁durotan	-10.201
▁generaal	-10.201
▁invasion	-10.201
▁invisible	-10.201
▁jarvis	-10.201
▁kijk	-10.201
▁lemarc	-10.201
▁natalie	-10.201
▁period	-10.201
▁profion	-10.201
▁rebecca	-10.201
▁rufus	-10.201
▁someplace	-10.201
▁struggle	-10.201
▁terrific	-10.201
▁unexpected	-10.201
▁yondu	-10.201
▁aether	-10.201
▁kurt	-10.201
▁lamia	-10.201
▁terug	-10.201
▁thanos	-10.201
▁jasper	-10.201
▁steel	-10.201
▁claus	-10.201
▁mobley	-10.201
▁hammer	-10.201
▁grandmother	-10.201
▁proceed	-10.201
▁sacred	-10.201
▁division	-10.201
▁university	-10.201
▁fuel	-10.2011
▁medicine	-10.2011
▁toast	-10.2011
▁bargain	-10.2011
▁tour	-10.2011
▁authority	-10.2011
▁spill	-10.2011
▁vincent	-10.2011
▁noble	-10.2011
▁punch	-10.2011
▁purse	-10.2011
▁rail	-10.2011
▁faint	-10.2011
▁terrorist	-10.2011
▁performance	-10.2012
▁swiss	-10.2012
▁owner	-10.2012
▁tag	-10.2012
▁bowman	-10.2012
▁trace	-10.2012
▁steady	-10.2012
▁sentence	-10.2012
▁affection	-10.2012
▁forth	-10.2012
▁survival	-10.2013
▁stock	-10.2013
▁successful	-10.2013
▁swell	-10.2013
▁q	-10.2013
▁phase	-10.2014
▁series	-10.2015
▁apple	-10.2015
▁whyd	-10.2015
▁planning	-10.2015
▁religion	-10.2016
▁colt	-10.2016
▁lightning	-10.2017
▁standard	-10.2018
▁temporary	-10.2019
▁ciao	-10.202
ions	-10.2021
▁drag	-10.2021
▁portal	-10.2024
▁victory	-10.2024
▁leven	-10.2025
▁apply	-10.2026
▁ended	-10.2027
▁background	-10.2027
▁thus	-10.2028
▁deny	-10.2028
ating	-10.2029
▁received	-10.2032
▁convinced	-10.2034
▁internal	-10.2039
▁growls	-10.205
▁sealed	-10.205
▁betrayed	-10.2052
▁bills	-10.2055
▁limited	-10.2056
▁tooth	-10.2057
▁pod	-10.2059
▁gem	-10.2061
▁reacher	-10.2061
▁pissed	-10.2075
▁jean	-10.2077
▁ruined	-10.2085
▁charges	-10.2086
▁skills	-10.2096
▁treated	-10.2097
▁argue	-10.2112
ities	-10.2139
▁fairy	-10.2142
▁nss	-10.2145
▁fishing	-10.216
▁bass	-10.2167
ste	-10.217
act	-10.218
▁vo	-10.2188
▁thoughts	-10.2205
▁primar	-10.2209
▁sm	-10.2216
▁criminals	-10.2238
▁hip	-10.2243
▁hatch	-10.2249
wa	-10.2278
▁maya	-10.2314
owned	-10.2325
ho	-10.2328
iction	-10.2335
▁deze	-10.2337
▁hurts	-10.2352
▁satellites	-10.2381
her	-10.239
▁badly	-10.2391
▁dreaming	-10.2392
▁led	-10.2394
▁dragons	-10.2397
▁ripp	-10.2413
ette	-10.2415
pt	-10.2419
▁lad	-10.2422
hand	-10.243
▁ons	-10.2432
▁or	-10.2436
▁dut	-10.2475
▁explosion	-10.2486
▁explosive	-10.2486
▁dork	-10.249
▁generation	-10.2491
▁touchdown	-10.2493
ige	-10.2496
▁term	-10.25
▁eggs	-10.25
▁civilian	-10.2501
▁print	-10.2507
▁sometime	-10.2508
▁cast	-10.2511
▁sides	-10.2537
▁loser	-10.2582
▁tale	-10.2588
▁stones	-10.259
▁dia	-10.2598
▁wa	-10.2611
▁fighter	-10.2623
ock	-10.2635
▁paci	-10.2656
▁blink	-10.2665
▁corn	-10.2685
▁connect	-10.2687
ru	-10.2694
▁remove	-10.2699
▁convince	-10.2699
▁af	-10.2701
▁rescue	-10.2702
cular	-10.2705
▁claudi	-10.2718
▁rot	-10.2722
▁kom	-10.2722
▁rude	-10.2723
▁lamb	-10.2724
▁brucie	-10.2725
▁caesar	-10.2725
▁candidate	-10.2725
▁clattering	-10.2725
▁conclave	-10.2725
▁dessert	-10.2725
▁eminence	-10.2725
▁emmett	-10.2725
▁enterprise	-10.2725
▁falcon	-10.2725
▁federation	-10.2725
▁gamora	-10.2725
▁generous	-10.2725
▁identify	-10.2725
▁krall	-10.2725
▁maharajah	-10.2725
▁monsieur	-10.2725
▁nebula	-10.2725
▁proposal	-10.2725
▁radagast	-10.2725
▁radiation	-10.2725
▁republic	-10.2725
▁retrieve	-10.2725
▁scraping	-10.2725
▁sheila	-10.2725
▁shelter	-10.2725
▁sparrow	-10.2725
▁spencer	-10.2725
▁swallow	-10.2725
▁terrence	-10.2725
▁thieves	-10.2725
▁valuable	-10.2725
▁vessel	-10.2725
▁widow	-10.2725
▁courtesan	-10.2725
▁physics	-10.2725
▁succeed	-10.2725
▁justice	-10.2725
▁davis	-10.2725
▁firing	-10.2725
▁verris	-10.2725
▁leigh	-10.2725
▁treadstone	-10.2725
▁sobs	-10.2725
▁blew	-10.2725
▁rhoda	-10.2725
▁stein	-10.2725
▁chamber	-10.2725
▁drank	-10.2725
▁wailing	-10.2725
▁stuart	-10.2725
▁circus	-10.2725
▁dewey	-10.2725
▁magnet	-10.2725
▁superstar	-10.2725
▁fache	-10.2725
▁kirk	-10.2725
▁halt	-10.2726
▁rope	-10.2726
▁barrio	-10.2726
▁towel	-10.2726
▁vrouw	-10.2726
▁nonny	-10.2726
▁television	-10.2726
▁reward	-10.2726
▁estate	-10.2726
▁intense	-10.2727
▁brush	-10.2727
▁aside	-10.2727
▁laser	-10.2728
▁gain	-10.2728
▁begun	-10.2728
▁lothar	-10.2728
▁review	-10.2728
▁annie	-10.2729
▁memorial	-10.2729
▁rabbit	-10.2729
▁weakness	-10.2729
▁gang	-10.2729
▁quest	-10.273
▁cutting	-10.273
▁cabot	-10.273
▁ox	-10.2731
▁millions	-10.2731
▁chap	-10.2731
▁airport	-10.2731
▁hack	-10.2731
▁ballet	-10.2731
▁laughter	-10.2732
▁polite	-10.2732
▁formation	-10.2732
▁bedtime	-10.2732
▁hung	-10.2733
▁captured	-10.2735
▁dinky	-10.2735
▁rep	-10.2736
▁ofthe	-10.2738
▁tuck	-10.2738
▁grid	-10.2739
ud	-10.2739
▁stopping	-10.274
▁clearance	-10.2743
▁boring	-10.2744
▁embarrassing	-10.2747
▁advanced	-10.2748
▁discovery	-10.2749
▁jackie	-10.275
▁magical	-10.2751
▁powerless	-10.2755
rii	-10.2758
▁spooner	-10.276
▁connected	-10.2761
▁shitty	-10.2763
▁former	-10.2763
▁iyou	-10.2765
▁hostages	-10.2767
▁resources	-10.2767
▁civil	-10.2767
▁edie	-10.2768
▁loaded	-10.2779
▁mage	-10.278
▁sighing	-10.2789
▁steps	-10.2792
▁payment	-10.28
▁ir	-10.28
▁lily	-10.2802
▁bastards	-10.2805
▁smaller	-10.2822
▁transfer	-10.2824
aged	-10.2832
▁hunting	-10.2832
▁realized	-10.2833
▁considered	-10.2838
▁knocked	-10.2857
▁drinks	-10.2865
owns	-10.2867
▁details	-10.2868
▁targets	-10.2871
▁ap	-10.2879
▁siren	-10.2886
▁teaching	-10.2898
▁replace	-10.2899
▁med	-10.29
▁samples	-10.2902
▁shouts	-10.2903
▁unh	-10.2931
▁towards	-10.2936
▁brains	-10.2938
▁mit	-10.2939
▁selling	-10.2939
▁goal	-10.2941
ger	-10.2973
▁unto	-10.2981
art	-10.2981
ence	-10.2991
ep	-10.3016
▁pushing	-10.3019
▁clouds	-10.3021
▁por	-10.3021
▁hundreds	-10.3022
▁husbands	-10.3025
▁ski	-10.3038
ors	-10.3038
▁hast	-10.3049
▁shooter	-10.3052
▁ac	-10.3054
▁cal	-10.3058
▁kissing	-10.3069
ably	-10.3071
▁issues	-10.309
▁effects	-10.309
▁conditions	-10.3092
▁buying	-10.3117
ken	-10.3119
ath	-10.3122
▁leaders	-10.3127
▁rocks	-10.3132
▁pirates	-10.3143
▁shooting	-10.3153
ook	-10.3158
▁fools	-10.3162
▁ken	-10.3165
▁events	-10.3174
▁windows	-10.3175
ern	-10.318
▁lai	-10.3189
▁guests	-10.3211
▁gi	-10.3228
▁thor	-10.3228
omin	-10.3253
▁equal	-10.3255
▁email	-10.3259
▁effort	-10.3259
▁roommate	-10.3259
▁dating	-10.326
▁sock	-10.326
▁brake	-10.3267
▁warrior	-10.3267
▁statement	-10.3268
▁toward	-10.3271
▁vampire	-10.3272
▁scientist	-10.3273
▁option	-10.3273
▁heel	-10.3273
▁drug	-10.328
▁manner	-10.3288
squeeze	-10.3289
▁me	-10.3293
▁cu	-10.3316
▁kings	-10.3319
tti	-10.3328
▁pi	-10.3365
▁reminds	-10.3366
▁toe	-10.3383
▁tracks	-10.3393
▁kyl	-10.3411
va	-10.3428
aar	-10.343
you	-10.3433
▁arrive	-10.3451
▁rev	-10.3451
ville	-10.3452
▁recommend	-10.3452
for	-10.3452
▁perform	-10.3453
▁wreck	-10.3454
▁defeat	-10.3455
▁songs	-10.3455
▁agents	-10.3457
encia	-10.3462
▁prize	-10.3466
▁receive	-10.3467
▁evacuate	-10.3467
▁solve	-10.3471
▁sauce	-10.3472
▁alli	-10.3472
▁rapid	-10.3475
▁assure	-10.3477
▁sandwich	-10.3485
▁dust	-10.3485
▁zie	-10.3485
▁flush	-10.3488
▁gig	-10.3488
▁express	-10.3489
▁adopt	-10.3491
▁invent	-10.3491
▁awkward	-10.3494
▁bonzo	-10.3494
▁cadillac	-10.3494
▁central	-10.3494
▁chadwick	-10.3494
▁comanche	-10.3494
▁companion	-10.3494
▁december	-10.3494
▁eagle	-10.3494
▁embassy	-10.3494
▁emperor	-10.3494
▁encounter	-10.3494
▁glorious	-10.3494
▁guitar	-10.3494
▁helmet	-10.3494
▁incident	-10.3494
▁kgb	-10.3494
▁muffled	-10.3494
▁pizza	-10.3494
▁residence	-10.3494
▁sattler	-10.3494
▁sebastian	-10.3494
▁senior	-10.3494
▁switzerland	-10.3494
▁terrified	-10.3494
▁uncomfortable	-10.3494
▁violent	-10.3494
▁anytime	-10.3494
▁dispatch	-10.3494
▁fetch	-10.3494
▁joseph	-10.3494
▁popular	-10.3494
▁pussy	-10.3494
▁survey	-10.3494
▁privacy	-10.3494
▁swimming	-10.3494
▁kemosabe	-10.3494
▁drove	-10.3494
▁visual	-10.3494
▁mankind	-10.3494
▁bachelorette	-10.3494
▁battery	-10.3494
▁ruth	-10.3494
▁title	-10.3494
▁valentine	-10.3494
▁celebration	-10.3494
▁dori	-10.3494
▁golf	-10.3494
▁pillow	-10.3494
▁centuries	-10.3494
▁rodney	-10.3494
▁foster	-10.3494
▁yorktown	-10.3495
▁atmosphere	-10.3495
▁candy	-10.3495
▁medication	-10.3495
▁sexual	-10.3495
▁stake	-10.3495
▁constantine	-10.3495
▁production	-10.3495
▁begging	-10.3495
▁temple	-10.3495
▁collection	-10.3496
▁comment	-10.3496
▁juice	-10.3496
▁destruction	-10.3496
▁mitch	-10.3496
▁remarkable	-10.3496
▁chapel	-10.3496
▁inhales	-10.3497
▁planned	-10.3497
▁minor	-10.3497
▁wander	-10.3497
▁exercise	-10.3497
▁ashes	-10.3497
▁robbery	-10.3498
▁dish	-10.3498
▁stealth	-10.3498
▁bible	-10.3498
▁function	-10.3499
▁witter	-10.3499
▁reaction	-10.3499
▁stamper	-10.35
▁peaceful	-10.35
▁sack	-10.35
▁discussion	-10.3501
▁laat	-10.3501
▁loop	-10.3503
▁fort	-10.3503
▁waitress	-10.3505
▁leak	-10.3506
▁disappointed	-10.3508
▁annoying	-10.3509
▁determined	-10.351
▁grass	-10.3511
▁haar	-10.3511
▁endure	-10.3513
▁bud	-10.3514
▁authorized	-10.3516
▁app	-10.3518
▁dull	-10.352
▁whimpers	-10.3522
▁hood	-10.3524
▁pile	-10.3526
▁core	-10.3529
▁bl	-10.3531
▁hug	-10.3533
▁earn	-10.3533
▁provided	-10.3534
▁archives	-10.354
▁chimes	-10.354
▁changing	-10.3541
▁required	-10.3542
▁suffered	-10.3542
▁cursed	-10.3543
▁whooping	-10.3544
▁treaty	-10.3546
▁cheated	-10.3549
▁requested	-10.3554
▁gloves	-10.3558
▁sensors	-10.3558
▁belly	-10.3559
▁honks	-10.3559
▁willy	-10.356
▁dew	-10.3562
ito	-10.3566
▁actor	-10.3566
▁realms	-10.3566
▁teams	-10.3574
▁nicky	-10.3575
▁engineer	-10.3578
▁proved	-10.359
▁pure	-10.3608
uit	-10.3615
▁mag	-10.3616
ex	-10.3617
▁lips	-10.362
▁worthy	-10.3622
▁the	-10.367
tr	-10.3674
▁drawer	-10.3675
▁hearts	-10.3675
ont	-10.3681
▁sales	-10.3683
ient	-10.3685
tage	-10.3687
▁reporter	-10.3699
▁backup	-10.3702
▁cr	-10.3706
ms	-10.371
▁kicking	-10.3722
▁tryin	-10.3738
▁goede	-10.3742
ac	-10.3744
ify	-10.3747
▁sla	-10.3753
ments	-10.376
▁shoulders	-10.3761
▁boats	-10.3768
▁scale	-10.3796
▁fund	-10.3811
▁prisoners	-10.3824
▁learning	-10.3831
▁dei	-10.3832
▁wo	-10.3846
za	-10.3877
▁pan	-10.3881
gh	-10.3881
▁kills	-10.3896
▁regard	-10.3911
vo	-10.3911
ping	-10.3915
▁stare	-10.3934
▁hated	-10.3935
▁rec	-10.3944
▁ordered	-10.3946
▁chi	-10.3947
▁protecting	-10.3968
▁explains	-10.3969
▁cleared	-10.3983
▁princes	-10.3995
ide	-10.4027
▁creak	-10.4037
mon	-10.4039
▁down	-10.4039
▁decisions	-10.4041
▁reasons	-10.4057
▁tire	-10.4087
▁result	-10.4088
▁colleague	-10.4093
▁border	-10.4093
▁shadow	-10.4093
▁zombie	-10.4096
▁dozen	-10.4099
▁walter	-10.4099
▁sch	-10.41
▁familie	-10.4107
▁folk	-10.4114
▁demon	-10.4114
▁asset	-10.4117
▁buildings	-10.4132
▁nut	-10.4151
▁rear	-10.416
▁phones	-10.4162
▁her	-10.4167
▁flower	-10.4169
▁greater	-10.4179
▁dealing	-10.4181
▁grad	-10.4223
▁bo	-10.4236
▁bon	-10.4238
oon	-10.424
▁clan	-10.4253
▁lap	-10.4255
▁sniff	-10.427
▁slaughter	-10.4287
▁insult	-10.4287
lijk	-10.4288
▁adventure	-10.429
▁delay	-10.4293
▁signals	-10.4294
jo	-10.4296
▁propose	-10.4301
▁advance	-10.4304
▁corps	-10.4308
▁creep	-10.4309
▁delight	-10.4309
▁intern	-10.4312
▁couch	-10.4313
▁chose	-10.4316
▁todays	-10.4318
▁cruise	-10.4318
▁cans	-10.4319
▁combat	-10.4325
▁pimp	-10.4325
▁favour	-10.4327
▁koushik	-10.4327
▁burden	-10.4327
▁character	-10.4327
▁distress	-10.4327
▁forbid	-10.4327
▁absurd	-10.4327
▁anniversary	-10.4327
▁applauding	-10.4327
▁burglar	-10.4327
▁canaima	-10.4327
▁eternal	-10.4327
▁expensive	-10.4327
▁fifteen	-10.4327
▁galadriel	-10.4327
▁grief	-10.4327
▁jessica	-10.4327
▁judgment	-10.4327
▁leefolt	-10.4327
▁luggage	-10.4327
▁oswald	-10.4327
▁palpatine	-10.4327
▁pamela	-10.4327
▁rehearsal	-10.4327
▁saruman	-10.4327
▁shreck	-10.4327
▁tequila	-10.4327
▁traynor	-10.4327
▁turkey	-10.4327
▁velkan	-10.4327
▁wayfinder	-10.4327
▁wednesday	-10.4327
▁wizard	-10.4327
▁jennings	-10.4327
▁robbed	-10.4327
▁swarm	-10.4327
▁blaring	-10.4327
▁insight	-10.4327
▁nerve	-10.4327
▁ventura	-10.4327
▁goddess	-10.4327
▁junk	-10.4327
▁vangor	-10.4327
▁huntsman	-10.4327
▁orange	-10.4327
▁cheque	-10.4327
▁investigation	-10.4327
▁creative	-10.4327
▁kendra	-10.4327
▁latin	-10.4327
▁robbie	-10.4327
▁milady	-10.4327
▁stray	-10.4327
▁elves	-10.4327
▁bernard	-10.4328
▁underground	-10.4328
▁solid	-10.4328
▁urgent	-10.4328
▁carried	-10.4328
▁argument	-10.4328
▁pogue	-10.4328
▁serum	-10.4328
▁wrist	-10.4328
▁appropriate	-10.4328
▁connie	-10.4328
▁facility	-10.4328
▁compliment	-10.4328
▁lenny	-10.4328
▁selfish	-10.4328
▁radar	-10.4329
▁thirty	-10.4329
▁sworn	-10.4329
▁commitment	-10.4329
▁superior	-10.4329
▁elder	-10.4329
▁engagement	-10.4329
▁fbi	-10.4329
▁exam	-10.4329
▁identity	-10.433
▁whatre	-10.433
▁cries	-10.433
▁motion	-10.433
▁mail	-10.433
▁effective	-10.4331
▁potatoes	-10.4331
▁raji	-10.4331
▁spice	-10.4332
▁pleasant	-10.4332
▁petra	-10.4332
▁development	-10.4333
▁uhoh	-10.4335
▁zeg	-10.4335
▁cards	-10.4336
▁thirsty	-10.4336
▁sailor	-10.4336
▁agreement	-10.4337
▁debt	-10.4337
▁mall	-10.4337
▁web	-10.4338
▁humor	-10.4338
▁stroke	-10.4339
▁wellesley	-10.4339
▁oleg	-10.434
▁cellar	-10.434
▁mmmm	-10.4341
▁haha	-10.4345
▁creepy	-10.4346
▁poem	-10.4346
▁johnson	-10.4347
▁metro	-10.4348
▁log	-10.4348
▁gaan	-10.4348
▁humanity	-10.4348
▁outer	-10.435
▁bumpy	-10.4353
lar	-10.4357
▁policeman	-10.4359
▁divorced	-10.4361
▁iim	-10.4362
▁daylight	-10.4364
▁patch	-10.4365
▁sayin	-10.4367
▁goodnight	-10.4368
▁useless	-10.4368
▁pole	-10.437
▁killian	-10.437
▁squealing	-10.4372
▁stud	-10.4375
▁survivors	-10.4377
▁amerika	-10.4389
bu	-10.4391
▁crawling	-10.4397
▁chart	-10.4401
▁normally	-10.441
q	-10.441
▁granted	-10.4422
▁dreamt	-10.4425
tu	-10.4426
▁fee	-10.4427
▁ag	-10.4428
ight	-10.443
▁studying	-10.445
▁hits	-10.4452
▁tracker	-10.4454
▁beats	-10.4454
▁yea	-10.446
▁inject	-10.4464
heid	-10.4468
▁clicks	-10.4477
▁as	-10.4478
▁wars	-10.448
ap	-10.4481
▁fo	-10.4485
▁colored	-10.4486
▁prayers	-10.4486
▁madam	-10.449
ps	-10.4496
▁neighbors	-10.4497
▁carrying	-10.4508
▁crashing	-10.4528
▁frankly	-10.4528
▁searching	-10.4542
▁pushed	-10.4559
▁fr	-10.456
▁jumping	-10.4562
▁lu	-10.4568
▁scr	-10.458
▁smells	-10.4583
▁whoop	-10.4586
▁fare	-10.4587
▁civilians	-10.4597
▁mages	-10.4599
▁enjoying	-10.4611
▁victims	-10.4617
▁americans	-10.4623
▁traveling	-10.4625
mer	-10.463
▁walker	-10.4639
▁ward	-10.468
king	-10.4699
▁leading	-10.4722
ick	-10.4726
▁rust	-10.4757
▁bullets	-10.4758
▁models	-10.476
▁services	-10.4782
tor	-10.4788
ative	-10.4789
▁caused	-10.4796
ule	-10.4802
▁bulls	-10.482
▁planes	-10.4839
▁sons	-10.4865
▁tests	-10.4866
▁mor	-10.4871
len	-10.4878
▁mighty	-10.4884
yo	-10.4886
ka	-10.4892
▁mer	-10.4897
▁sets	-10.4902
▁inform	-10.4906
ill	-10.4919
▁yell	-10.4923
▁est	-10.4928
▁ye	-10.4935
▁pu	-10.4936
▁accounts	-10.4946
hot	-10.4947
▁shout	-10.4963
tz	-10.4986
▁outlaw	-10.4997
▁cigarette	-10.5002
▁dated	-10.5004
▁nightmare	-10.5007
▁tornado	-10.5007
▁connection	-10.5008
▁beam	-10.501
▁sample	-10.5014
▁dollar	-10.502
ogen	-10.5028
▁au	-10.5031
▁sale	-10.5033
tie	-10.5035
▁jew	-10.5061
▁fella	-10.5067
▁pur	-10.5072
bb	-10.5077
▁jou	-10.5077
▁souls	-10.5088
▁understanding	-10.5089
▁tap	-10.5093
▁lame	-10.5119
▁gal	-10.5123
▁continu	-10.5138
▁victor	-10.5139
▁damned	-10.5149
▁severe	-10.5163
cra	-10.5166
▁fi	-10.5179
▁bowl	-10.5182
born	-10.5185
well	-10.5188
▁tattoo	-10.5195
▁ke	-10.5196
▁trigger	-10.5196
▁crow	-10.5197
▁levels	-10.5198
box	-10.5199
skull	-10.5199
▁violate	-10.521
▁speaker	-10.5217
▁incredibl	-10.5218
ullie	-10.5219
▁alpha	-10.522
away	-10.5222
▁pitch	-10.5223
five	-10.5225
ford	-10.5226
▁peters	-10.5229
▁hawaii	-10.5232
▁terror	-10.5233
▁nothin	-10.5234
▁resist	-10.5235
▁discipl	-10.5235
▁dorm	-10.5236
▁defense	-10.5236
▁album	-10.5236
▁altijd	-10.5236
▁apologies	-10.5236
▁atherton	-10.5236
▁attitude	-10.5236
▁beacon	-10.5236
▁bedankt	-10.5236
▁belief	-10.5236
▁cheek	-10.5236
▁clack	-10.5236
▁clamoring	-10.5236
▁commodore	-10.5236
▁conclusion	-10.5236
▁conklin	-10.5236
▁corporation	-10.5236
▁curtain	-10.5236
▁damodar	-10.5236
▁dartagnan	-10.5236
▁district	-10.5236
▁dolittle	-10.5236
▁dorothy	-10.5236
▁elbow	-10.5236
▁extension	-10.5236
▁extraordinary	-10.5236
▁fabulous	-10.5236
▁gianni	-10.5236
▁independent	-10.5236
▁kennelly	-10.5236
▁kovaks	-10.5236
▁lawrence	-10.5236
▁leather	-10.5236
▁maximum	-10.5236
▁metcalf	-10.5236
▁newspaper	-10.5236
▁powder	-10.5236
▁promotion	-10.5236
▁psychic	-10.5236
▁raphael	-10.5236
▁rattling	-10.5236
▁reputation	-10.5236
▁rochefort	-10.5236
▁rosalie	-10.5236
▁sanctuary	-10.5236
▁scroll	-10.5236
▁selina	-10.5236
▁sleeve	-10.5236
▁squawking	-10.5236
▁territory	-10.5236
▁troops	-10.5236
▁tuesday	-10.5236
▁violence	-10.5236
▁volturi	-10.5236
▁volunteer	-10.5236
▁whistling	-10.5236
▁worries	-10.5236
▁athos	-10.5236
▁dragged	-10.5236
▁favourite	-10.5236
▁pursuit	-10.5236
▁smiling	-10.5236
▁headquarters	-10.5236
▁hebben	-10.5236
▁utter	-10.5236
▁fourteen	-10.5236
▁horde	-10.5236
▁incoming	-10.5236
▁stretch	-10.5236
▁bald	-10.5236
▁harris	-10.5236
▁bolt	-10.5236
▁underneath	-10.5236
▁alai	-10.5236
▁darn	-10.5236
▁elite	-10.5236
▁jeez	-10.5236
▁irene	-10.5236
▁ntl	-10.5236
▁turtle	-10.5236
▁outstanding	-10.5236
▁purple	-10.5236
▁slept	-10.5236
▁aloha	-10.5236
▁concert	-10.5236
▁liberty	-10.5236
▁frodo	-10.5236
▁melon	-10.5236
▁version	-10.5236
▁praise	-10.5236
▁squish	-10.5236
▁banana	-10.5236
▁fraud	-10.5236
▁underwear	-10.5237
▁exotic	-10.5237
▁kidnapped	-10.5237
▁accurate	-10.5237
▁dormov	-10.5237
▁moira	-10.5237
▁bow	-10.5237
▁priest	-10.5237
▁winston	-10.5237
▁legacy	-10.5237
▁gettin	-10.5237
▁distraction	-10.5237
▁altar	-10.5237
▁fox	-10.5237
▁eternity	-10.5237
▁library	-10.5237
▁online	-10.5237
▁poetry	-10.5238
▁shaking	-10.5238
▁soda	-10.5238
▁tech	-10.5238
▁southern	-10.5238
▁winner	-10.5238
▁knife	-10.5238
▁possibility	-10.5238
▁committee	-10.5238
▁halley	-10.5238
▁marta	-10.5238
▁subway	-10.5238
▁blah	-10.5238
▁collar	-10.5238
▁hobbit	-10.5239
▁iets	-10.5239
▁objective	-10.5239
▁chocolate	-10.5239
▁ordinary	-10.5239
▁grandpa	-10.5239
▁crypt	-10.5239
▁electricity	-10.5239
▁drew	-10.524
▁toll	-10.524
▁weaver	-10.5241
▁roman	-10.5241
▁foolish	-10.5241
▁management	-10.5241
▁bij	-10.5242
▁billings	-10.5242
▁tonto	-10.5242
▁facing	-10.5242
▁inches	-10.5242
▁gently	-10.5243
▁franklin	-10.5243
▁cities	-10.5243
▁whore	-10.5244
▁precisely	-10.5244
▁bleep	-10.5244
▁lecture	-10.5244
▁prostitute	-10.5245
▁involve	-10.5245
▁coverage	-10.5246
▁noon	-10.5247
▁frightened	-10.5249
▁exchange	-10.525
▁thisby	-10.525
▁friendship	-10.5251
▁debate	-10.5252
▁logical	-10.5253
▁kit	-10.5254
▁mild	-10.5255
▁hawking	-10.5255
▁kent	-10.5255
▁bout	-10.5257
▁blackout	-10.5259
▁threatened	-10.5259
▁dive	-10.5261
▁solved	-10.5267
▁barking	-10.5267
▁whistles	-10.5269
▁officially	-10.5271
▁koningin	-10.528
▁earned	-10.528
▁naturally	-10.5286
▁mustnt	-10.5287
▁tighter	-10.5288
▁bio	-10.5291
▁oops	-10.5291
▁politics	-10.5291
▁heroes	-10.5293
▁warned	-10.5294
▁washed	-10.5295
▁obey	-10.5296
▁disappeared	-10.5296
▁areas	-10.5304
▁crushed	-10.5305
▁refused	-10.531
▁closest	-10.5315
▁behave	-10.5319
▁minu	-10.5319
itd	-10.5322
▁suffering	-10.5323
▁musketeers	-10.5335
▁singer	-10.5337
rand	-10.5352
▁kin	-10.5352
▁jd	-10.5352
▁smarter	-10.5353
▁armor	-10.5358
▁frigg	-10.5366
▁slowly	-10.5368
▁programme	-10.5369
▁apes	-10.5372
ery	-10.5374
▁asses	-10.5375
▁twins	-10.5378
▁bikers	-10.5381
▁screwing	-10.5382
▁carr	-10.5384
▁lend	-10.5384
▁rushing	-10.5387
ker	-10.539
▁opu	-10.5403
▁mikey	-10.5408
low	-10.541
▁higher	-10.5415
▁average	-10.5415
ert	-10.5417
▁remaining	-10.5423
▁comm	-10.5432
▁cullens	-10.5445
▁bearing	-10.5461
▁hop	-10.5476
oid	-10.549
▁tested	-10.5496
▁danced	-10.5499
▁marrying	-10.551
▁bee	-10.5511
▁chances	-10.5511
▁options	-10.5511
▁nor	-10.5524
eld	-10.5526
▁supposedly	-10.5533
test	-10.5534
▁indicate	-10.5535
burg	-10.5544
ella	-10.556
some	-10.5561
▁gr	-10.5573
▁now	-10.5605
▁photos	-10.5639
▁sounded	-10.5643
▁winds	-10.5645
▁members	-10.5645
▁thr	-10.5647
▁gifts	-10.5656
hu	-10.5666
▁jacks	-10.5674
▁br	-10.5676
▁answered	-10.568
▁formal	-10.5683
▁jaw	-10.5692
oom	-10.5701
▁skip	-10.5729
▁friendly	-10.574
night	-10.5747
▁dec	-10.5749
▁inc	-10.5759
▁wheels	-10.576
ell	-10.5781
▁knights	-10.5781
▁exists	-10.5783
▁snaps	-10.5794
▁custom	-10.5796
mar	-10.58
▁touching	-10.5801
▁photo	-10.5809
▁loses	-10.5859
▁faces	-10.5874
▁measure	-10.5884
▁leo	-10.5913
▁moves	-10.5916
ada	-10.5916
▁scream	-10.5927
affl	-10.5933
▁cells	-10.5941
▁bang	-10.595
▁usi	-10.595
▁sail	-10.595
▁mam	-10.5962
▁whisper	-10.5963
▁spa	-10.5964
▁plates	-10.5964
▁sta	-10.597
▁finding	-10.5971
▁players	-10.5981
▁tradition	-10.5989
ou	-10.599
▁helicopter	-10.5997
▁statue	-10.5997
▁sewer	-10.6005
▁scanner	-10.6006
▁jewel	-10.6006
▁floors	-10.6009
▁package	-10.6009
▁employee	-10.6009
▁cullen	-10.6013
▁depend	-10.6014
▁dinosaur	-10.6015
▁diamond	-10.6017
▁decade	-10.6018
▁castle	-10.6026
▁nay	-10.6034
▁plot	-10.6044
els	-10.6052
▁heavens	-10.6057
▁lands	-10.6064
▁boyd	-10.6082
▁mol	-10.6084
▁bas	-10.6088
bl	-10.6094
▁what	-10.6098
tched	-10.6101
▁observe	-10.6105
▁cre	-10.6105
▁organ	-10.6111
pping	-10.6116
ese	-10.6128
▁grows	-10.6133
eyed	-10.6147
▁flip	-10.6168
▁continent	-10.6172
▁collect	-10.6174
ber	-10.6174
▁invest	-10.618
work	-10.6181
▁squeal	-10.6182
▁wester	-10.6185
maker	-10.6187
▁possess	-10.6189
▁develop	-10.6195
▁reveal	-10.6199
▁summon	-10.62
▁fights	-10.62
year	-10.62
level	-10.6201
free	-10.6202
▁retire	-10.6208
how	-10.6209
▁bend	-10.6222
▁unlike	-10.6225
▁realise	-10.6228
▁fianc	-10.6229
▁logic	-10.6233
▁xandar	-10.6233
zz	-10.6234
▁laten	-10.6235
terior	-10.6235
▁psycho	-10.6235
▁deliberate	-10.6236
▁horizon	-10.6236
▁advantage	-10.6236
▁artifact	-10.6236
▁assault	-10.6236
▁aurelio	-10.6236
▁beowulf	-10.6236
▁butler	-10.6236
▁caretaker	-10.6236
▁chorus	-10.6236
▁election	-10.6236
▁entrance	-10.6236
▁explanation	-10.6236
▁fantasies	-10.6236
▁flava	-10.6236
▁gunfire	-10.6236
▁impulse	-10.6236
▁individual	-10.6236
▁intelligent	-10.6236
▁international	-10.6236
▁lewis	-10.6236
▁lloyd	-10.6236
▁magdalene	-10.6236
▁magnificent	-10.6236
▁midget	-10.6236
▁natasha	-10.6236
▁override	-10.6236
▁pajama	-10.6236
▁popcorn	-10.6236
▁pyramid	-10.6236
▁renesmee	-10.6236
▁sciama	-10.6236
▁specimen	-10.6236
▁stomach	-10.6236
▁struck	-10.6236
▁stubborn	-10.6236
▁vegetable	-10.6236
▁videotape	-10.6236
▁vietnam	-10.6236
▁vodka	-10.6236
▁whoaohoh	-10.6236
▁wisdom	-10.6236
▁wolves	-10.6236
▁yorgi	-10.6236
▁await	-10.6236
▁buddies	-10.6236
▁canyon	-10.6236
▁novel	-10.6236
▁pagan	-10.6236
▁profit	-10.6236
▁boston	-10.6236
▁cadet	-10.6236
▁distant	-10.6236
▁eigen	-10.6236
▁jimeno	-10.6236
▁salad	-10.6236
▁madrid	-10.6236
▁satisfied	-10.6236
▁dedicate	-10.6236
▁hustle	-10.6236
▁error	-10.6236
▁gringo	-10.6236
▁wacht	-10.6236
▁essay	-10.6236
▁terra	-10.6236
▁tragic	-10.6236
▁fridge	-10.6236
▁leslie	-10.6236
▁whens	-10.6236
▁assuming	-10.6236
▁connors	-10.6236
▁yahoo	-10.6236
▁warrant	-10.6236
▁capsule	-10.6236
▁imagination	-10.6236
▁kidnapping	-10.6236
▁elsie	-10.6236
▁plaza	-10.6236
▁fluid	-10.6236
▁apology	-10.6236
▁impact	-10.6237
▁tennis	-10.6237
▁garona	-10.6237
▁slim	-10.6237
▁forehead	-10.6237
▁vince	-10.6237
▁accent	-10.6237
▁morrow	-10.6237
▁flood	-10.6237
▁babu	-10.6237
▁doughnut	-10.6237
▁scotch	-10.6237
▁inspector	-10.6237
▁margi	-10.6237
▁navigation	-10.6237
▁irish	-10.6237
▁miserable	-10.6237
▁nooo	-10.6237
▁motor	-10.6238
▁heir	-10.6238
▁specifically	-10.6238
▁paperwork	-10.6238
▁trauma	-10.6238
▁thumb	-10.6238
▁marina	-10.6238
▁spear	-10.6238
▁critical	-10.6238
▁pause	-10.6238
▁patience	-10.6238
▁patriot	-10.6238
▁remote	-10.6238
▁sheet	-10.6238
▁define	-10.6239
▁crackling	-10.6239
▁rug	-10.6239
▁deacon	-10.6239
▁groom	-10.6239
▁artoo	-10.6239
▁entry	-10.6239
▁include	-10.6239
▁brief	-10.6239
▁polish	-10.6239
▁glow	-10.624
▁studies	-10.624
▁wore	-10.624
▁damon	-10.624
▁gravity	-10.624
▁mmmmm	-10.624
▁award	-10.6241
▁crop	-10.6241
▁african	-10.6241
▁modest	-10.6242
▁sunlight	-10.6242
▁alza	-10.6242
▁craft	-10.6242
▁weg	-10.6243
▁vast	-10.6244
▁frickin	-10.6244
▁uhuh	-10.6245
▁whimpering	-10.6245
▁vig	-10.6245
▁jeff	-10.6246
▁robertson	-10.6246
▁digit	-10.6246
▁daar	-10.6247
▁spain	-10.6247
▁hitting	-10.6248
▁treatment	-10.6249
▁halfway	-10.6249
▁ahem	-10.625
▁quar	-10.625
▁aaah	-10.6252
▁sickness	-10.6252
▁komt	-10.6252
▁outsiders	-10.6254
▁bu	-10.6254
▁simon	-10.6256
▁embarrassed	-10.6258
▁identified	-10.6258
▁torn	-10.6259
▁timing	-10.6261
▁assist	-10.6262
▁barrel	-10.6262
▁relative	-10.6264
▁offended	-10.6266
▁spe	-10.6267
▁crown	-10.6267
▁contained	-10.6268
▁bush	-10.6269
▁ditch	-10.6269
▁assured	-10.627
▁multipl	-10.6271
▁cord	-10.6271
▁businessman	-10.6272
▁circumstances	-10.6273
▁revealed	-10.6273
▁cargo	-10.6276
▁strongest	-10.6277
▁active	-10.6279
▁dood	-10.6279
▁bully	-10.6286
▁peek	-10.6287
▁shy	-10.6288
▁owl	-10.6289
▁assumed	-10.6295
▁coma	-10.6296
▁meter	-10.6297
▁locusts	-10.6297
▁goblins	-10.6299
▁reality	-10.63
▁customers	-10.63
▁creaking	-10.6305
▁helpful	-10.6309
▁settled	-10.6312
▁thin	-10.6313
▁borrowed	-10.632
▁backwards	-10.6321
▁fed	-10.6327
▁busted	-10.6331
▁hooked	-10.6332
▁bitches	-10.6335
tempo	-10.6336
▁nail	-10.6339
▁shave	-10.6343
▁pills	-10.6346
▁deserved	-10.6346
air	-10.6348
▁spark	-10.635
▁virtual	-10.6354
▁itch	-10.6356
bur	-10.6361
▁safer	-10.6361
▁diplomat	-10.6363
bel	-10.6364
eg	-10.6369
▁wishes	-10.637
val	-10.6371
▁guts	-10.6371
▁tied	-10.6371
▁louder	-10.6373
▁forks	-10.6394
▁visitors	-10.6396
▁crashed	-10.64
▁cur	-10.6413
▁pickle	-10.6415
▁makeup	-10.6418
▁pounds	-10.6419
▁mont	-10.6425
▁liver	-10.6426
▁jumped	-10.6428
▁accepted	-10.6436
▁perk	-10.6441
▁docks	-10.6442
▁entering	-10.6451
▁hump	-10.6461
▁louis	-10.6464
▁my	-10.6465
▁nails	-10.6468
hole	-10.649
stone	-10.6495
▁safely	-10.6502
ost	-10.6505
▁demons	-10.6517
▁assets	-10.652
▁pot	-10.6535
▁warriors	-10.6542
▁heels	-10.6543
▁speakers	-10.6548
▁toes	-10.6559
▁sirens	-10.6567
▁thousands	-10.6579
▁lovers	-10.6588
▁clients	-10.6592
▁wilde	-10.6626
▁dreamed	-10.6633
ological	-10.6637
▁cleaned	-10.6654
use	-10.6655
▁clubs	-10.6677
▁humbl	-10.669
▁moms	-10.6701
▁reed	-10.6706
oc	-10.6713
▁seats	-10.6718
▁vice	-10.6727
▁staring	-10.6728
▁mix	-10.6756
▁bri	-10.6759
igor	-10.6765
ado	-10.6774
▁jobs	-10.6779
▁lessons	-10.6792
uff	-10.6793
▁leeuw	-10.6796
▁sends	-10.6815
▁rad	-10.6834
cha	-10.6834
ast	-10.6866
▁sting	-10.6881
room	-10.6892
nes	-10.6897
▁lil	-10.6909
itation	-10.6913
▁quarters	-10.6919
▁partners	-10.6919
mber	-10.6925
▁hoped	-10.693
uc	-10.6936
▁instant	-10.694
▁needle	-10.6944
▁lover	-10.6949
▁hon	-10.6963
▁chop	-10.6964
▁ties	-10.6972
▁chip	-10.6973
▁strangers	-10.6981
▁brings	-10.702
▁ros	-10.702
▁tis	-10.7038
gul	-10.705
▁cary	-10.7067
▁notes	-10.7082
▁horns	-10.7102
▁magazine	-10.7108
▁intention	-10.711
▁snake	-10.7113
▁root	-10.7113
▁protocol	-10.7119
▁citizen	-10.712
▁direction	-10.712
▁assassin	-10.712
▁document	-10.7122
▁neighbor	-10.7122
▁gates	-10.7126
▁costs	-10.7128
▁detail	-10.7129
▁cow	-10.713
ab	-10.7135
mat	-10.7142
▁trans	-10.7156
▁nap	-10.7158
▁za	-10.7174
▁india	-10.7193
▁bells	-10.7199
▁domestic	-10.7207
▁at	-10.7211
▁dock	-10.7212
▁dancer	-10.7216
▁buttons	-10.723
▁tax	-10.723
▁lar	-10.7242
▁immortal	-10.7247
▁sweat	-10.7252
▁drown	-10.7252
▁mop	-10.7262
▁malfunction	-10.7287
even	-10.7291
face	-10.7295
▁charm	-10.7296
▁predict	-10.7297
hood	-10.7303
▁affect	-10.7304
ability	-10.7306
▁recruit	-10.7307
book	-10.7307
▁deploy	-10.7307
▁register	-10.7309
▁thrill	-10.731
▁mole	-10.7317
▁alter	-10.7317
▁privilege	-10.732
▁collapse	-10.7321
▁graduate	-10.7322
ley	-10.7325
▁dial	-10.7327
▁june	-10.7328
▁technical	-10.7329
▁occasion	-10.7338
▁environment	-10.7338
▁painful	-10.7339
▁roy	-10.7341
▁blank	-10.7345
▁moral	-10.7345
▁defect	-10.7345
annah	-10.7346
▁react	-10.7346
▁resent	-10.7346
looking	-10.7347
▁respira	-10.7347
▁thorough	-10.7347
▁achter	-10.7347
▁allergic	-10.7347
▁antimatter	-10.7347
▁ascend	-10.7347
▁assignment	-10.7347
▁aurelia	-10.7347
▁bacon	-10.7347
▁bicycle	-10.7347
▁brogan	-10.7347
▁caliban	-10.7347
▁campaign	-10.7347
▁carnaval	-10.7347
▁cobblepot	-10.7347
▁commercial	-10.7347
▁companies	-10.7347
▁dammit	-10.7347
▁dochter	-10.7347
▁einstein	-10.7347
▁elected	-10.7347
▁elegant	-10.7347
▁envelope	-10.7347
▁erebor	-10.7347
▁essential	-10.7347
▁exclaiming	-10.7347
▁felix	-10.7347
▁galileo	-10.7347
▁graduation	-10.7347
▁housekeeper	-10.7347
▁injured	-10.7347
▁jennifer	-10.7347
▁kennedy	-10.7347
▁lancaster	-10.7347
▁langley	-10.7347
▁lobby	-10.7347
▁malcolm	-10.7347
▁matveyev	-10.7347
▁miami	-10.7347
▁mississippi	-10.7347
▁misunderstand	-10.7347
▁naughty	-10.7347
▁necessarily	-10.7347
▁necklace	-10.7347
▁neski	-10.7347
▁pacific	-10.7347
▁pentagon	-10.7347
▁permanent	-10.7347
▁phenomenon	-10.7347
▁reclaim	-10.7347
▁richelieu	-10.7347
▁routine	-10.7347
▁scepter	-10.7347
▁shampoo	-10.7347
▁snoring	-10.7347
▁splash	-10.7347
▁starfleet	-10.7347
▁strauss	-10.7347
▁sunglasses	-10.7347
▁tuscany	-10.7347
▁vagina	-10.7347
▁venice	-10.7347
▁venom	-10.7347
▁violation	-10.7347
▁violin	-10.7347
▁vortex	-10.7347
▁airborne	-10.7347
▁bueno	-10.7347
▁canister	-10.7347
▁echoing	-10.7347
▁gracias	-10.7347
▁honeymoon	-10.7347
▁palace	-10.7347
▁plastic	-10.7347
▁southwest	-10.7347
▁squeak	-10.7347
▁storage	-10.7347
▁wagon	-10.7347
▁cherish	-10.7347
▁daycare	-10.7347
▁ferry	-10.7347
▁giggles	-10.7347
▁holiness	-10.7347
▁knowledge	-10.7347
▁madison	-10.7347
▁mushnik	-10.7347
▁rhodes	-10.7347
▁windigo	-10.7347
▁ellie	-10.7347
▁jolene	-10.7347
▁siempre	-10.7347
▁convergence	-10.7347
▁neveu	-10.7347
▁worn	-10.7347
▁humming	-10.7347
▁reef	-10.7347
▁angle	-10.7347
▁transmission	-10.7347
▁transplant	-10.7347
▁hallelujah	-10.7347
▁sharing	-10.7347
▁radius	-10.7348
▁ritual	-10.7348
▁devastating	-10.7348
▁chemo	-10.7348
▁nattie	-10.7348
▁sheep	-10.7348
▁yelena	-10.7348
▁burger	-10.7348
▁scholarship	-10.7348
▁hazard	-10.7348
▁bubble	-10.7348
▁fortress	-10.7348
▁eugenia	-10.7348
▁crab	-10.7348
▁glory	-10.7348
▁kree	-10.7348
▁basketball	-10.7348
▁farewell	-10.7348
▁paddling	-10.7348
▁gemini	-10.7348
▁fingerprint	-10.7348
▁creating	-10.7348
▁liddy	-10.7348
▁troy	-10.7348
▁blunt	-10.7348
▁montana	-10.7348
▁vetra	-10.7348
▁declare	-10.7348
▁financial	-10.7348
▁starving	-10.7348
▁initiative	-10.7348
▁integrity	-10.7348
▁nickname	-10.7348
▁ginger	-10.7348
▁liking	-10.7348
▁network	-10.7348
▁suspicious	-10.7348
▁izzi	-10.7348
▁concourse	-10.7348
▁reference	-10.7348
▁edgar	-10.7348
▁loyalty	-10.7348
▁ladder	-10.7348
▁expertise	-10.7348
▁hostile	-10.7348
▁sniper	-10.7348
▁izmer	-10.7348
▁elaborate	-10.7349
▁mouse	-10.7349
▁jonas	-10.7349
▁announcement	-10.7349
▁administration	-10.7349
▁containment	-10.7349
▁depressed	-10.7349
▁assistance	-10.7349
▁leap	-10.7349
▁impression	-10.7349
▁tribe	-10.7349
▁fond	-10.7349
▁raid	-10.7349
▁obsession	-10.7349
▁brax	-10.735
▁lousy	-10.735
▁retirement	-10.735
▁frequency	-10.735
▁mahalik	-10.735
▁phrase	-10.735
▁relief	-10.735
▁sloane	-10.735
▁technology	-10.735
▁fence	-10.735
▁myrna	-10.735
▁meeka	-10.735
▁ribbon	-10.735
▁creation	-10.735
▁attractive	-10.735
▁gps	-10.735
▁gross	-10.7351
▁generator	-10.7351
▁construction	-10.7351
▁filthy	-10.7351
▁salesman	-10.7351
▁harp	-10.7351
▁dodo	-10.7352
▁worldwide	-10.7352
▁yup	-10.7352
▁transportation	-10.7352
▁hence	-10.7352
▁cabinet	-10.7353
▁latte	-10.7353
▁runner	-10.7354
▁stomp	-10.7354
▁behold	-10.7355
▁denk	-10.7355
▁harmless	-10.7355
▁possession	-10.7355
▁investment	-10.7355
boy	-10.7356
▁karen	-10.7356
▁orbit	-10.7357
▁brandon	-10.7357
▁uhura	-10.7357
▁clucking	-10.7357
▁bloodline	-10.7357
▁forgetting	-10.7359
▁qualified	-10.7359
▁tina	-10.7359
▁fili	-10.736
▁limo	-10.7362
▁shrieks	-10.7363
▁exhausted	-10.7363
▁tram	-10.7364
▁bora	-10.7364
▁shovel	-10.7364
▁this	-10.7365
▁political	-10.7365
▁tackle	-10.7366
▁surrounded	-10.7367
▁delete	-10.7367
▁sang	-10.7369
▁deadline	-10.7369
▁triple	-10.7369
▁float	-10.7369
▁yale	-10.737
▁label	-10.737
▁protective	-10.7371
▁weet	-10.7371
▁divide	-10.7372
▁swann	-10.7373
▁queenie	-10.7374
▁retired	-10.7376
▁cutter	-10.7377
▁gally	-10.7378
▁globe	-10.738
▁choices	-10.738
▁bitten	-10.738
▁bored	-10.7382
▁hotter	-10.7384
▁factor	-10.7384
▁thrilled	-10.7385
▁hmo	-10.7386
▁angeles	-10.7387
▁alley	-10.7387
▁removed	-10.7389
▁emotions	-10.7389
▁feature	-10.7389
▁deano	-10.739
▁stable	-10.7391
▁erase	-10.7392
▁offense	-10.7392
▁bitter	-10.7394
▁raptor	-10.7394
ffe	-10.7394
▁yelled	-10.7395
▁shining	-10.7398
res	-10.74
polit	-10.7401
▁useful	-10.7402
▁jealousy	-10.7403
▁zei	-10.7403
▁damaged	-10.7407
▁kay	-10.7408
etic	-10.741
▁fold	-10.7414
▁passes	-10.7414
▁nukes	-10.7416
▁fuegos	-10.7416
▁orions	-10.7416
▁consequences	-10.7418
▁gotcha	-10.742
▁santi	-10.7424
▁andand	-10.7426
▁aro	-10.7428
▁engineering	-10.7429
dingen	-10.7432
heim	-10.7433
iest	-10.7437
▁mud	-10.7445
▁pete	-10.7446
▁sacrificed	-10.7447
▁cable	-10.7455
▁sinking	-10.7457
▁tab	-10.7457
gun	-10.7459
▁od	-10.7461
ned	-10.7465
▁ranks	-10.7467
▁cheating	-10.747
▁resumes	-10.747
▁journals	-10.7474
▁jur	-10.7475
▁nic	-10.7476
▁fore	-10.7477
nny	-10.748
▁peas	-10.7487
▁shortly	-10.7499
▁blocks	-10.7507
▁owen	-10.7517
▁responding	-10.7522
▁lesbians	-10.7525
▁moons	-10.7527
▁wasted	-10.753
▁tra	-10.7536
▁cents	-10.7552
▁adults	-10.7553
▁interpret	-10.7555
▁plants	-10.7556
stop	-10.7563
▁citizens	-10.758
▁protocols	-10.758
ical	-10.7589
▁holes	-10.759
▁filling	-10.7597
▁drawing	-10.761
▁wondered	-10.7617
▁str	-10.7624
four	-10.7625
▁sank	-10.7627
▁jews	-10.7636
▁crossing	-10.7658
▁dozens	-10.7664
▁walters	-10.7664
rd	-10.7689
▁nato	-10.7692
ona	-10.7692
▁manners	-10.7692
▁landed	-10.772
▁offering	-10.7724
▁val	-10.7732
▁losers	-10.774
bar	-10.7744
▁len	-10.7745
▁lukes	-10.7748
ium	-10.7767
▁ri	-10.7768
▁messing	-10.7788
▁dates	-10.7791
▁shhh	-10.7792
▁clues	-10.7805
▁qua	-10.7813
▁doe	-10.7814
▁bats	-10.7823
▁domin	-10.7826
▁beasts	-10.7832
eze	-10.7833
ney	-10.7837
▁handy	-10.7838
ini	-10.7845
▁suburb	-10.7859
▁tool	-10.7862
▁papa	-10.7901
▁landing	-10.7908
▁rangers	-10.7922
uv	-10.7938
▁trains	-10.7968
▁uni	-10.7972
▁pap	-10.7974
▁poke	-10.799
ties	-10.799
▁bottles	-10.8003
▁holidays	-10.8003
▁monsters	-10.8003
▁diet	-10.8005
▁rig	-10.8012
▁los	-10.8021
▁scores	-10.8032
▁nono	-10.8036
▁beste	-10.805
atic	-10.8061
▁gu	-10.8087
▁symbols	-10.8089
trap	-10.8121
orgen	-10.8139
▁ads	-10.8149
▁pam	-10.8155
▁iii	-10.8206
▁operations	-10.8206
▁bre	-10.824
▁vital	-10.8243
▁freaks	-10.8244
▁ori	-10.8272
▁planets	-10.8276
▁daddys	-10.8296
▁ns	-10.8297
▁disco	-10.8307
▁reli	-10.8309
▁mil	-10.8311
▁favors	-10.8311
▁cart	-10.8312
▁click	-10.8316
▁sav	-10.8321
cla	-10.8335
▁wai	-10.8342
▁kar	-10.8342
▁knee	-10.8344
▁chat	-10.8346
▁maniac	-10.8349
▁buck	-10.8354
▁patrol	-10.8358
▁carrier	-10.8364
▁fra	-10.8364
▁communication	-10.8369
▁adult	-10.8369
▁pound	-10.8372
▁shin	-10.8372
▁appearance	-10.8374
▁degree	-10.8383
▁fears	-10.842
▁col	-10.8425
▁steven	-10.8432
▁lifetime	-10.8435
▁prayer	-10.8437
ology	-10.846
▁rem	-10.8478
▁trie	-10.848
▁cent	-10.8482
▁chil	-10.8483
▁chang	-10.8485
▁offend	-10.8493
▁tub	-10.8496
▁disturb	-10.8498
uch	-10.8506
pre	-10.851
ward	-10.8513
▁rais	-10.8519
▁recover	-10.8538
▁salv	-10.8541
▁convert	-10.8541
▁punish	-10.8544
▁chant	-10.855
field	-10.8554
▁detect	-10.8557
▁mum	-10.8558
▁publish	-10.8559
▁bleed	-10.856
course	-10.856
know	-10.856
itte	-10.8563
tender	-10.8566
▁slice	-10.8568
▁tempt	-10.8574
▁engage	-10.8576
bag	-10.8576
▁unconscious	-10.8576
▁prior	-10.8577
▁slave	-10.8577
▁immediate	-10.858
▁dink	-10.858
▁ultimate	-10.8582
yard	-10.8584
▁wire	-10.8584
self	-10.8585
▁gri	-10.8586
▁heal	-10.8586
▁pla	-10.8587
▁origin	-10.8589
▁bonds	-10.8591
▁vari	-10.8591
▁flee	-10.8592
▁bern	-10.8592
▁intercept	-10.8593
▁alcohol	-10.8594
▁abort	-10.8594
▁imperial	-10.8596
▁stab	-10.8596
▁viki	-10.8596
▁orphan	-10.8596
▁loyal	-10.8597
▁probation	-10.8597
▁algorithm	-10.8597
▁antidote	-10.8597
▁ashamed	-10.8597
▁azeroth	-10.8597
▁baltimore	-10.8597
▁barbara	-10.8597
▁barbossa	-10.8597
▁bastaard	-10.8597
▁batroc	-10.8597
▁becca	-10.8597
▁bextrum	-10.8597
▁bizarre	-10.8597
▁bohemian	-10.8597
▁buffalo	-10.8597
▁cairo	-10.8597
▁cheeseburger	-10.8597
▁chenkov	-10.8597
▁clutch	-10.8597
▁column	-10.8597
▁conflict	-10.8597
▁contrary	-10.8597
▁crucial	-10.8597
▁dainard	-10.8597
▁destination	-10.8597
▁disguise	-10.8597
▁doreena	-10.8597
▁elsewhere	-10.8597
▁fascinating	-10.8597
▁frankenstein	-10.8597
▁ganush	-10.8597
▁giselle	-10.8597
▁grenade	-10.8597
▁guild	-10.8597
▁handshake	-10.8597
▁harbor	-10.8597
▁hurricane	-10.8597
▁injury	-10.8597
▁instructor	-10.8597
▁jungle	-10.8597
▁junson	-10.8597
▁khadgar	-10.8597
▁knauer	-10.8597
▁krelborn	-10.8597
▁mademoiselle	-10.8597
▁maintenance	-10.8597
▁melissa	-10.8597
▁metaphor	-10.8597
▁mysterious	-10.8597
▁orlov	-10.8597
▁paprika	-10.8597
▁phelan	-10.8597
▁pistol	-10.8597
▁prefect	-10.8597
▁principal	-10.8597
▁proportion	-10.8597
▁quality	-10.8597
▁salute	-10.8597
▁scorn	-10.8597
▁similar	-10.8597
▁snarling	-10.8597
▁soccer	-10.8597
▁swore	-10.8597
▁therapy	-10.8597
▁threshold	-10.8597
▁vriend	-10.8597
▁xavier	-10.8597
▁alexander	-10.8597
▁brooklyn	-10.8597
▁chieftain	-10.8597
▁elaine	-10.8597
▁flank	-10.8597
▁friar	-10.8597
▁liefde	-10.8597
▁roast	-10.8597
▁senshi	-10.8597
▁snack	-10.8597
▁spray	-10.8597
▁streak	-10.8597
▁terminal	-10.8597
▁tomato	-10.8597
▁volume	-10.8597
▁gloin	-10.8597
▁poppet	-10.8597
▁trouwen	-10.8597
▁upper	-10.8597
▁echt	-10.8597
▁editor	-10.8597
▁equi	-10.8597
▁norris	-10.8597
▁region	-10.8597
▁narrat	-10.8597
▁nixon	-10.8597
▁perfume	-10.8597
▁shalt	-10.8597
▁commission	-10.8597
▁inmate	-10.8597
▁assessment	-10.8597
▁gym	-10.8597
▁donor	-10.8597
▁feather	-10.8597
▁grabbed	-10.8597
▁tshirt	-10.8597
▁aisle	-10.8597
▁debbie	-10.8597
▁senator	-10.8597
▁mcgivern	-10.8597
▁anarchy	-10.8597
▁troll	-10.8597
▁clapping	-10.8597
▁industrial	-10.8597
▁turley	-10.8597
▁acquired	-10.8598
▁autograph	-10.8598
▁meteor	-10.8598
▁execution	-10.8598
▁lindsey	-10.8598
▁breeze	-10.8598
▁toxic	-10.8598
▁sunset	-10.8598
▁melt	-10.8598
▁veel	-10.8598
▁combination	-10.8598
▁amanda	-10.8598
▁reproduce	-10.8598
▁mignon	-10.8598
▁signore	-10.8598
▁excitement	-10.8598
▁verander	-10.8598
▁executive	-10.8598
▁biology	-10.8598
▁addition	-10.8598
▁ignition	-10.8598
▁lct	-10.8598
▁asap	-10.8598
▁praten	-10.8598
▁celebrating	-10.8598
▁translation	-10.8598
▁puppet	-10.8598
▁gravitation	-10.8598
▁rattle	-10.8598
▁colony	-10.8598
▁decree	-10.8598
▁slams	-10.8598
▁dolce	-10.8598
▁dragging	-10.8598
▁stormwind	-10.8598
▁rham	-10.8598
▁marcus	-10.8598
▁furry	-10.8598
▁senate	-10.8598
▁enforcement	-10.8598
▁pinned	-10.8598
▁shaft	-10.8598
▁grey	-10.8598
▁smack	-10.8598
▁lockwood	-10.8598
▁reverse	-10.8598
▁alternative	-10.8598
▁frakel	-10.8598
▁savage	-10.8598
▁edition	-10.8599
▁oath	-10.8599
▁melanie	-10.8599
▁migs	-10.8599
▁typing	-10.8599
▁rodent	-10.8599
▁simulation	-10.8599
▁hissing	-10.8599
▁lassie	-10.8599
▁planchet	-10.8599
▁pipeline	-10.8599
▁infection	-10.8599
▁bucket	-10.8599
▁villain	-10.8599
▁irv	-10.86
▁paycheck	-10.86
▁actress	-10.86
▁twee	-10.86
▁disappointment	-10.86
▁basket	-10.86
▁costume	-10.86
▁noah	-10.86
▁eastern	-10.86
▁toby	-10.86
▁pony	-10.86
▁population	-10.86
▁hula	-10.8601
▁attendant	-10.8601
▁ensure	-10.8601
▁airplane	-10.8601
▁operator	-10.8601
▁onder	-10.8601
▁thick	-10.8601
▁quant	-10.8601
▁neuro	-10.8601
▁makin	-10.8601
▁passport	-10.8602
▁twistle	-10.8602
▁starboard	-10.8602
▁brace	-10.8602
▁parade	-10.8602
▁tide	-10.8602
▁stall	-10.8603
▁attached	-10.8603
▁sour	-10.8603
▁consumed	-10.8603
▁mew	-10.8603
▁artific	-10.8603
▁welch	-10.8603
▁spotted	-10.8604
▁mei	-10.8604
▁blackhand	-10.8605
▁vanquished	-10.8605
▁shelley	-10.8605
▁frozen	-10.8605
▁marcy	-10.8605
▁flies	-10.8605
▁dice	-10.8606
▁whoosh	-10.8606
▁undo	-10.8606
▁arranged	-10.8606
▁oye	-10.8606
istine	-10.8607
▁hele	-10.8608
▁arrogant	-10.8608
▁mansion	-10.8608
▁monk	-10.8608
star	-10.8608
▁teachers	-10.8608
▁payback	-10.8608
▁dug	-10.8608
▁serving	-10.8608
▁growth	-10.8608
▁conduct	-10.8609
▁odin	-10.8609
▁mira	-10.861
▁toxin	-10.861
▁lazy	-10.861
▁haul	-10.8611
▁sincerely	-10.8611
▁dishes	-10.8611
▁stain	-10.8611
▁obsessed	-10.8611
▁exit	-10.8612
▁rice	-10.8612
▁dart	-10.8613
▁compromised	-10.8613
▁slightly	-10.8614
assic	-10.8614
▁accused	-10.8615
cent	-10.8615
▁infected	-10.8616
▁frost	-10.8616
▁tense	-10.8616
▁sur	-10.8618
▁nori	-10.8619
▁dismissed	-10.862
▁mock	-10.8621
▁worthless	-10.8622
▁mona	-10.8622
▁tele	-10.8623
▁entertaining	-10.8624
▁clip	-10.8624
▁sole	-10.8628
▁medal	-10.8629
▁dc	-10.8629
▁helena	-10.8633
▁violated	-10.8634
▁cerebr	-10.8637
▁matches	-10.8637
tre	-10.8637
▁proposed	-10.8638
▁oughta	-10.8638
▁yen	-10.8638
▁fatal	-10.8639
▁exposed	-10.8639
▁sharply	-10.8639
▁summoned	-10.8645
▁manley	-10.8645
▁sor	-10.8647
▁hunter	-10.8648
▁mayoral	-10.865
▁inch	-10.8651
print	-10.8651
▁converting	-10.8654
▁followers	-10.8654
▁clicking	-10.8655
▁boxes	-10.866
▁ave	-10.866
▁sion	-10.8663
▁gained	-10.8665
▁released	-10.8666
▁soy	-10.8667
▁tactic	-10.8668
▁separated	-10.8669
▁twisted	-10.867
▁hint	-10.8671
▁pace	-10.8672
▁stressed	-10.8675
▁boobs	-10.8675
▁vegas	-10.8676
▁breasts	-10.8676
▁veins	-10.8676
▁locker	-10.868
▁proven	-10.868
▁fallen	-10.8681
▁tender	-10.8682
▁teen	-10.8687
poppin	-10.8687
atch	-10.8698
▁messages	-10.8702
▁sandy	-10.8707
▁victoria	-10.8708
▁tube	-10.8709
▁guardians	-10.8712
▁mistaken	-10.8718
▁cel	-10.8726
cker	-10.8728
▁colo	-10.8731
▁rach	-10.8732
▁sports	-10.8733
▁seizures	-10.8738
▁blown	-10.8741
▁coaster	-10.8747
▁shared	-10.8752
▁investigate	-10.8759
▁ci	-10.8764
▁mentioned	-10.8766
▁sneeze	-10.8769
▁robotics	-10.8769
▁patterns	-10.8769
▁elements	-10.8769
▁peanuts	-10.8769
ola	-10.877
tual	-10.8781
▁moron	-10.8786
avi	-10.8795
▁warp	-10.8797
yl	-10.88
ache	-10.8803
▁landy	-10.8815
▁searched	-10.8823
▁appearances	-10.8832
▁communications	-10.8832
▁wh	-10.8833
▁influenc	-10.8843
▁hom	-10.8852
▁fairly	-10.8855
▁lone	-10.8856
too	-10.886
▁sucker	-10.8865
▁hid	-10.8869
▁shaki	-10.8874
▁handled	-10.888
▁lent	-10.8881
ron	-10.8883
▁lens	-10.8884
ende	-10.8895
▁decades	-10.8895
▁employees	-10.8896
bound	-10.8896
not	-10.8897
ress	-10.8897
▁sails	-10.8898
▁allo	-10.8915
▁pol	-10.8919
▁tornados	-10.8927
▁beams	-10.8927
▁nightmares	-10.8927
▁ally	-10.8937
▁dote	-10.8965
unnen	-10.8974
▁robe	-10.8984
ques	-10.8985
▁jon	-10.8989
▁brakes	-10.8991
pr	-10.8995
▁ew	-10.9001
▁ob	-10.9005
▁destroying	-10.902
▁recording	-10.9051
▁tales	-10.9051
▁boots	-10.9053
▁sticking	-10.9053
dogs	-10.9059
▁rolling	-10.9066
▁snapp	-10.909
▁guessing	-10.911
▁nicer	-10.9114
▁beans	-10.912
▁pairs	-10.9127
▁communicate	-10.9127
▁mon	-10.9128
win	-10.9128
▁rats	-10.914
▁feelin	-10.9141
base	-10.9149
▁tunnels	-10.9152
otch	-10.917
af	-10.9183
▁pigs	-10.9186
right	-10.919
▁attacks	-10.9193
lag	-10.9196
▁dove	-10.92
my	-10.9209
▁dent	-10.9212
▁paintings	-10.9218
▁tips	-10.9219
▁concerns	-10.922
▁claims	-10.922
rie	-10.9225
▁sol	-10.9232
eemed	-10.9249
▁finishing	-10.9258
▁drops	-10.9275
▁neat	-10.9279
▁batt	-10.9281
▁ali	-10.9297
▁dudes	-10.9303
▁via	-10.9311
▁diseases	-10.9316
een	-10.9338
▁beds	-10.9347
▁toilets	-10.9349
▁vehicles	-10.9349
▁ani	-10.9365
▁contracts	-10.9383
▁suits	-10.939
esa	-10.9406
▁mee	-10.9432
igu	-10.9444
▁bou	-10.9445
▁drie	-10.9468
▁catching	-10.9491
▁hu	-10.9496
▁pilots	-10.9515
▁cit	-10.9518
▁comet	-10.9524
▁pockets	-10.9528
▁showers	-10.9533
▁wins	-10.9546
▁trucks	-10.9561
▁ju	-10.9576
▁runs	-10.9578
▁uses	-10.959
▁wifes	-10.9592
▁fil	-10.9598
ole	-10.9603
what	-10.9604
ula	-10.9606
hh	-10.9611
▁ghosts	-10.9616
rung	-10.9633
▁killers	-10.9687
eye	-10.971
▁butts	-10.9721
▁hou	-10.9732
▁biologica	-10.9743
▁recon	-10.9743
▁conversations	-10.9752
▁contain	-10.9754
▁groan	-10.9759
othe	-10.976
▁bridges	-10.9786
▁candle	-10.9787
▁pit	-10.9788
▁fugitive	-10.9791
▁cannon	-10.9791
▁vow	-10.9793
▁rhyme	-10.9793
▁headache	-10.9794
ility	-10.9796
tle	-10.9798
▁lesbian	-10.9798
▁bla	-10.9801
▁fork	-10.9801
eb	-10.9805
▁chuckle	-10.9812
▁parent	-10.9812
home	-10.9818
▁visitor	-10.9832
▁biker	-10.9838
▁forms	-10.9839
while	-10.9847
ition	-10.9854
▁nav	-10.9877
▁twin	-10.9879
▁kn	-10.9884
▁cue	-10.989
▁scar	-10.9893
▁worrying	-10.9899
▁opera	-10.9906
ius	-10.9913
ade	-10.9913
▁not	-10.9923
ue	-10.9939
▁char	-10.9941
pot	-10.9942
cop	-10.9942
▁placed	-10.9944
ground	-10.9951
ator	-10.9951
▁threaten	-10.9964
▁depart	-10.9964
▁offens	-10.9968
▁counts	-10.9972
wood	-10.9981
aint	-10.9983
▁impress	-10.9986
master	-10.9987
castle	-10.9988
nathan	-10.9988
▁crook	-10.9988
smith	-10.9989
american	-10.9989
yeah	-10.999
cause	-10.9991
six	-10.9991
tri	-10.9991
▁drum	-10.9991
active	-10.9992
stick	-10.9995
▁riddle	-10.9997
fall	-10.9997
▁approve	-10.9999
▁inspire	-10.9999
door	-11.0001
▁describe	-11.0003
▁compete	-11.0004
▁shove	-11.0005
▁crank	-11.0006
▁exclusive	-11.0006
▁absolute	-11.0008
half	-11.0008
▁vol	-11.0009
bone	-11.001
▁weigh	-11.0011
▁shoo	-11.0011
core	-11.0012
▁bake	-11.0012
▁caf	-11.0016
▁lip	-11.0016
▁education	-11.0017
▁operate	-11.0018
▁slight	-11.0018
▁tapes	-11.002
▁kidnap	-11.0021
▁resign	-11.0023
▁runnin	-11.0024
ologist	-11.0025
▁francis	-11.0025
▁occur	-11.0025
▁commit	-11.0025
timate	-11.0025
▁bodyguard	-11.0025
▁activity	-11.0026
▁administer	-11.0026
▁approval	-11.0026
▁beseech	-11.0026
▁bounty	-11.0026
▁budget	-11.0026
▁cemetery	-11.0026
▁conscience	-11.0026
▁curiosity	-11.0026
▁deactivate	-11.0026
▁depression	-11.0026
▁dogflu	-11.0026
▁dominican	-11.0026
▁elephant	-11.0026
▁enlighten	-11.0026
▁enormous	-11.0026
▁frequencies	-11.0026
▁groceries	-11.0026
▁happily	-11.0026
▁harvest	-11.0026
▁hiphop	-11.0026
▁horror	-11.0026
▁incantation	-11.0026
▁infinity	-11.0026
▁invitation	-11.0026
▁janitor	-11.0026
▁jupiter	-11.0026
▁jurisdiction	-11.0026
▁kilometers	-11.0026
▁lestrade	-11.0026
▁lidewij	-11.0026
▁luister	-11.0026
▁luxury	-11.0026
▁lyrics	-11.0026
▁mactaggert	-11.0026
▁matsui	-11.0026
▁michigan	-11.0026
▁napalm	-11.0026
▁napoleon	-11.0026
▁nelec	-11.0026
▁nypd	-11.0026
▁orleans	-11.0026
▁ounce	-11.0026
▁parliament	-11.0026
▁patricia	-11.0026
▁peggy	-11.0026
▁penthouse	-11.0026
▁perimeter	-11.0026
▁phelpmitter	-11.0026
▁picnic	-11.0026
▁platform	-11.0026
▁presume	-11.0026
▁principle	-11.0026
▁probability	-11.0026
▁procedure	-11.0026
▁profound	-11.0026
▁puddle	-11.0026
▁roxanne	-11.0026
▁silvano	-11.0026
▁switowski	-11.0026
▁tennessee	-11.0026
▁thanksgiving	-11.0026
▁thursday	-11.0026
▁tiffany	-11.0026
▁tortuga	-11.0026
▁trembling	-11.0026
▁tremendous	-11.0026
▁typewriter	-11.0026
▁unleash	-11.0026
▁venezia	-11.0026
▁werewolf	-11.0026
▁aibee	-11.0026
▁applied	-11.0026
▁cockroach	-11.0026
▁crumbs	-11.0026
▁eyelash	-11.0026
▁fierce	-11.0026
▁gerald	-11.0026
▁harvey	-11.0026
▁identical	-11.0026
▁imminent	-11.0026
▁instance	-11.0026
▁preacher	-11.0026
▁preserve	-11.0026
▁skywalker	-11.0026
▁starlord	-11.0026
▁tissue	-11.0026
▁xander	-11.0026
▁yuri	-11.0026
▁article	-11.0026
▁coffin	-11.0026
▁pigeon	-11.0026
▁reckon	-11.0026
▁sprinkle	-11.0026
▁steam	-11.0026
▁typical	-11.0026
▁combine	-11.0026
▁burst	-11.0026
▁causing	-11.0026
▁leroy	-11.0026
▁appeal	-11.0026
▁chiming	-11.0026
▁nigger	-11.0026
▁mistress	-11.0026
▁sizzl	-11.0026
▁whoohoo	-11.0026
▁arriving	-11.0026
▁moaning	-11.0026
▁stanford	-11.0026
▁carpet	-11.0026
▁aaron	-11.0026
▁minister	-11.0026
▁lampley	-11.0026
▁lottery	-11.0026
▁freezing	-11.0026
▁youyou	-11.0026
▁choir	-11.0026
▁klein	-11.0026
▁genoeg	-11.0026
▁dixon	-11.0026
▁ifyou	-11.0026
▁relations	-11.0026
▁wives	-11.0026
▁euro	-11.0026
▁championship	-11.0026
▁institution	-11.0026
▁fraternity	-11.0026
▁salon	-11.0026
▁fuss	-11.0026
▁cryptex	-11.0026
▁culture	-11.0026
lbert	-11.0026
▁moans	-11.0026
▁acres	-11.0027
▁believing	-11.0027
beloved	-11.0027
▁uptown	-11.0027
▁swam	-11.0027
▁database	-11.0027
▁password	-11.0027
▁slander	-11.0027
▁parley	-11.0027
▁located	-11.0027
▁hugging	-11.0027
▁egyptian	-11.0027
▁theater	-11.0027
▁dagger	-11.0027
▁token	-11.0027
▁psychotic	-11.0027
▁employment	-11.0027
▁flex	-11.0027
▁nooit	-11.0027
▁transferred	-11.0027
▁eleven	-11.0027
▁retreat	-11.0027
▁slot	-11.0027
▁descend	-11.0027
▁alignment	-11.0027
▁lauren	-11.0027
▁yield	-11.0027
▁pierce	-11.0028
▁extinction	-11.0028
▁arch	-11.0028
▁hollywood	-11.0028
▁bonny	-11.0028
▁sellner	-11.0028
▁festival	-11.0028
▁yyou	-11.0028
▁wherere	-11.0028
▁prank	-11.0028
▁upside	-11.0028
▁grote	-11.0028
▁numer	-11.0028
▁grill	-11.0029
▁rotten	-11.0029
▁dining	-11.0029
▁dwell	-11.0029
▁furniture	-11.0029
▁inflict	-11.0029
▁profile	-11.0029
▁submit	-11.0029
▁solar	-11.0029
▁amuse	-11.0029
▁rubber	-11.0029
▁heartbeat	-11.003
▁lima	-11.003
▁riva	-11.003
▁hub	-11.003
▁stevenson	-11.003
▁alcoholic	-11.003
▁virginia	-11.003
▁scent	-11.003
▁willis	-11.0031
▁fame	-11.0031
▁quote	-11.0031
▁centre	-11.0031
▁skinny	-11.0031
▁mensen	-11.0032
▁cuff	-11.0032
ooit	-11.0032
▁investigating	-11.0032
▁dressler	-11.0032
▁significant	-11.0032
▁geez	-11.0033
▁sela	-11.0033
▁slut	-11.0033
▁beings	-11.0033
▁chairman	-11.0033
▁popped	-11.0034
▁refer	-11.0034
▁meaningless	-11.0034
▁drained	-11.0035
▁controlled	-11.0035
▁dough	-11.0036
▁expression	-11.0036
▁stepped	-11.0036
▁ahab	-11.0036
▁nearby	-11.0037
▁notion	-11.0037
▁passage	-11.0038
▁illumination	-11.0039
▁ego	-11.0039
▁stunning	-11.0039
▁verse	-11.0039
▁howling	-11.004
▁toon	-11.004
▁attracted	-11.0041
▁deac	-11.0041
▁komen	-11.0042
▁jackass	-11.0042
▁skies	-11.0043
▁embrace	-11.0043
▁torment	-11.0043
▁hoop	-11.0045
▁bind	-11.0045
ong	-11.0045
▁ranch	-11.0045
▁fist	-11.0046
▁shattered	-11.0046
▁paulie	-11.0047
▁rational	-11.0047
▁lords	-11.0047
▁rossi	-11.0049
▁zola	-11.0049
▁bucky	-11.005
city	-11.005
▁allies	-11.0051
▁inspired	-11.0053
▁clone	-11.0053
▁unlikely	-11.0054
▁rage	-11.0054
▁ballot	-11.0056
▁tick	-11.0056
▁frightening	-11.0057
▁twister	-11.0057
▁guin	-11.0057
▁iemand	-11.0059
▁vest	-11.0061
▁kneel	-11.0063
▁advised	-11.0063
▁troubles	-11.0064
▁ink	-11.0067
▁tickle	-11.0069
▁robin	-11.0069
▁thine	-11.0069
▁deeds	-11.0069
▁disturbed	-11.007
▁dried	-11.0071
▁gale	-11.0073
▁operat	-11.0074
▁mint	-11.0075
▁mixed	-11.0075
▁hooker	-11.0078
▁ban	-11.0079
▁matthews	-11.0081
▁premises	-11.0081
▁germany	-11.0082
▁bc	-11.0082
wind	-11.0082
▁screamed	-11.0083
ji	-11.0083
▁allen	-11.0087
▁momma	-11.009
▁ron	-11.0091
▁guaranteed	-11.0093
▁moest	-11.0094
▁vel	-11.0094
▁originally	-11.0096
▁nanny	-11.01
▁woke	-11.0102
▁drowning	-11.0104
▁brutal	-11.0105
▁delivery	-11.0108
▁newton	-11.011
▁classes	-11.0113
▁dread	-11.0115
▁canceled	-11.0117
▁interrupted	-11.0117
▁eyebrows	-11.0117
▁arrows	-11.0117
▁ribs	-11.0117
▁wholl	-11.012
▁dumped	-11.0126
▁parties	-11.0126
▁sniffing	-11.0126
zy	-11.013
▁poisoned	-11.0134
▁vin	-11.014
ner	-11.0142
▁claimed	-11.0142
ual	-11.0143
▁beaten	-11.0145
▁talented	-11.0146
▁stumbl	-11.0147
cul	-11.0149
mine	-11.0149
▁marines	-11.0153
▁errands	-11.0153
▁muscles	-11.0153
▁arquillians	-11.0153
▁yelps	-11.0153
▁arrangements	-11.0153
▁virtue	-11.0156
▁cracked	-11.0162
▁leaf	-11.0163
▁roaring	-11.0171
▁williams	-11.0172
osaurus	-11.0177
▁weed	-11.018
▁dame	-11.0183
▁crickets	-11.019
▁instincts	-11.019
▁banker	-11.0193
▁warg	-11.0197
das	-11.0198
▁that	-11.0199
▁cater	-11.0203
▁eaten	-11.0209
ory	-11.0212
▁lid	-11.0215
▁quietly	-11.0216
▁freaked	-11.0216
▁geef	-11.0223
▁cracker	-11.0224
▁flames	-11.0229
▁suggested	-11.0229
▁with	-11.0231
▁discussed	-11.0234
▁prayed	-11.0236
▁minds	-11.0239
▁bombs	-11.0241
▁rd	-11.0242
▁translate	-11.0243
hamm	-11.0245
▁transporter	-11.0246
ified	-11.0248
▁tot	-11.0251
mond	-11.0252
▁helpless	-11.0257
▁packed	-11.0262
▁focused	-11.0264
▁walkin	-11.0266
▁produced	-11.0272
▁thrown	-11.0276
oh	-11.0279
▁carefully	-11.0287
▁illness	-11.0291
▁ai	-11.0303
▁pressed	-11.0306
▁imp	-11.0312
▁tops	-11.0312
▁marked	-11.0322
▁suggesting	-11.0331
▁coordinate	-11.0332
▁imagined	-11.0334
▁cy	-11.0334
▁documents	-11.0337
▁tar	-11.0339
▁hay	-11.034
▁praying	-11.0341
▁riv	-11.0343
▁hire	-11.0345
▁fields	-11.0347
▁maids	-11.0349
▁shad	-11.035
▁ser	-11.0357
cro	-11.0365
▁scanners	-11.0374
▁packages	-11.0374
▁jewels	-11.0374
▁rely	-11.0376
▁walks	-11.0383
▁meg	-11.0385
▁quo	-11.0385
▁considering	-11.0394
▁connections	-11.0412
▁marker	-11.0416
about	-11.0417
bal	-11.0418
▁pressing	-11.0432
▁squeez	-11.0432
▁daughters	-11.0436
▁fib	-11.0438
▁bees	-11.0446
▁zombies	-11.0449
hola	-11.0452
▁stations	-11.0456
▁der	-11.0461
▁presente	-11.0464
▁tac	-11.047
▁pest	-11.0474
eful	-11.0475
ati	-11.048
tration	-11.0481
▁cont	-11.0491
ome	-11.0507
▁whitey	-11.0508
▁activate	-11.0515
who	-11.0518
▁terms	-11.0524
bul	-11.0526
▁kissed	-11.0527
▁weekends	-11.0528
▁lads	-11.054
ades	-11.054
cho	-11.0541
▁rag	-11.0553
▁subs	-11.0562
▁sticks	-11.0576
▁vis	-11.0601
cult	-11.0608
erv	-11.0616
▁cata	-11.0655
hat	-11.0663
▁cam	-11.0674
▁towers	-11.0676
▁negotiate	-11.0681
▁destroyer	-11.07
uh	-11.0737
▁inn	-11.0737
▁religio	-11.0744
▁chairs	-11.0752
▁officials	-11.0753
▁lit	-11.0762
eren	-11.0774
▁wr	-11.0781
▁dus	-11.0781
▁swords	-11.079
▁images	-11.0793
tory	-11.0839
▁if	-11.0847
▁deb	-11.0861
▁sim	-11.0863
▁cracks	-11.0881
▁wakes	-11.0885
uce	-11.0903
▁monitors	-11.0906
umb	-11.0915
▁frame	-11.0924
▁ps	-11.0932
try	-11.0948
gious	-11.095
▁bars	-11.0964
acy	-11.0974
▁faced	-11.0978
▁titan	-11.098
rew	-11.1003
bro	-11.1004
▁mat	-11.1008
▁bikes	-11.1025
▁har	-11.1026
▁sins	-11.1029
put	-11.1032
bat	-11.1038
▁stuffed	-11.1039
ynn	-11.1039
▁stat	-11.106
▁dev	-11.1062
▁savings	-11.1063
▁trusted	-11.1072
▁views	-11.1103
bra	-11.1105
▁managers	-11.1106
▁nurs	-11.1117
▁noises	-11.1142
▁min	-11.1143
lan	-11.1145
cia	-11.1156
▁projects	-11.1181
erk	-11.1193
▁kindly	-11.1199
▁sorts	-11.1202
gio	-11.1218
gar	-11.1242
mbo	-11.1263
▁caps	-11.1264
ipping	-11.1266
▁seri	-11.1285
▁deposit	-11.1304
▁treats	-11.131
equ	-11.1322
▁blows	-11.1337
▁mari	-11.134
▁decorate	-11.1343
▁bites	-11.1354
dig	-11.1373
ham	-11.1408
inch	-11.141
ita	-11.1418
▁cough	-11.1419
▁mob	-11.1444
▁product	-11.1449
▁explode	-11.1454
▁outfit	-11.1454
▁convict	-11.1458
▁hen	-11.1462
▁element	-11.1462
▁peanut	-11.1463
▁flame	-11.1468
lly	-11.1471
▁pattern	-11.1474
▁how	-11.1475
▁skill	-11.1476
▁gut	-11.1481
▁robotic	-11.1498
▁plu	-11.1499
▁sparkl	-11.1502
▁gro	-11.1512
gue	-11.1517
▁robertas	-11.1521
did	-11.1537
ub	-11.1537
▁she	-11.154
▁hurting	-11.154
ando	-11.1542
▁packs	-11.1545
▁hel	-11.1562
tar	-11.1581
▁edwards	-11.1588
▁angels	-11.1589
▁harmon	-11.1592
▁movement	-11.1598
▁embarrass	-11.1599
called	-11.1602
▁escap	-11.1612
▁stores	-11.1612
▁fans	-11.1614
gs	-11.1622
▁multi	-11.1634
▁stamp	-11.1637
▁pour	-11.1645
▁advise	-11.1646
ura	-11.1648
▁establish	-11.1651
household	-11.1652
place	-11.1652
plane	-11.1652
▁inherit	-11.1653
life	-11.1653
foot	-11.1654
iemand	-11.1654
identified	-11.1655
proof	-11.1656
▁gasp	-11.1656
two	-11.1659
made	-11.1659
▁conquer	-11.166
▁rub	-11.166
letter	-11.1662
▁eliminate	-11.1663
▁update	-11.1664
▁anticipate	-11.1665
cover	-11.1667
front	-11.1669
▁stir	-11.1669
▁capture	-11.167
▁shields	-11.1671
trained	-11.1673
▁thirst	-11.1674
mery	-11.1674
▁unfortunate	-11.1674
▁hull	-11.1675
▁bum	-11.1676
▁bark	-11.1676
▁masks	-11.1677
▁vanish	-11.1679
▁sew	-11.1679
▁recent	-11.168
▁profession	-11.1682
told	-11.1684
▁virg	-11.1684
▁potato	-11.1684
▁leonard	-11.1685
▁recogni	-11.1686
▁crate	-11.1686
▁fright	-11.1687
▁urge	-11.1689
▁intent	-11.169
▁reflect	-11.169
▁corrupt	-11.169
▁conceal	-11.169
▁kiddin	-11.1691
appointed	-11.1692
▁drama	-11.1692
▁casual	-11.1692
berries	-11.1693
▁achieve	-11.1693
▁academic	-11.1693
▁accustomed	-11.1693
▁acquaintance	-11.1693
▁afrika	-11.1693
▁aldrich	-11.1693
▁alfonz	-11.1693
▁alfred	-11.1693
▁analysis	-11.1693
▁architect	-11.1693
▁barbecue	-11.1693
▁beaver	-11.1693
▁beresford	-11.1693
▁bifur	-11.1693
▁bikini	-11.1693
▁blithe	-11.1693
▁budapest	-11.1693
▁cackling	-11.1693
▁calendar	-11.1693
▁capitol	-11.1693
▁cavalry	-11.1693
▁chalice	-11.1693
▁clumsy	-11.1693
▁communist	-11.1693
▁corridor	-11.1693
▁covenant	-11.1693
▁curfew	-11.1693
▁deceased	-11.1693
▁delacourt	-11.1693
▁donnie	-11.1693
▁electromagnet	-11.1693
▁episode	-11.1693
▁eradicat	-11.1693
▁extremis	-11.1693
▁fitzhugh	-11.1693
▁galaxies	-11.1693
▁gambling	-11.1693
▁gattaca	-11.1693
▁grandchildren	-11.1693
▁handcuffs	-11.1693
▁hologram	-11.1693
▁huwelijk	-11.1693
▁hyperventilat	-11.1693
▁inappropriate	-11.1693
▁increasing	-11.1693
▁injuries	-11.1693
▁inquir	-11.1693
▁invalid	-11.1693
▁israel	-11.1693
▁karazhan	-11.1693
▁kevin	-11.1693
▁khrushchev	-11.1693
▁kijimi	-11.1693
▁koestler	-11.1693
▁koninkrijk	-11.1693
▁lehnsherr	-11.1693
▁louisiana	-11.1693
▁lsabel	-11.1693
▁lydia	-11.1693
▁maddox	-11.1693
▁majesteit	-11.1693
▁marvin	-11.1693
▁mcdowell	-11.1693
▁mcdunnough	-11.1693
▁microphone	-11.1693
▁minimum	-11.1693
▁mortuary	-11.1693
▁motorcycle	-11.1693
▁municipal	-11.1693
▁nieuw	-11.1693
▁nigga	-11.1693
▁norrington	-11.1693
▁oasis	-11.1693
▁october	-11.1693
▁oklahoma	-11.1693
▁opposite	-11.1693
▁oracle	-11.1693
▁outpost	-11.1693
▁paralysis	-11.1693
▁penalty	-11.1693
▁pennsylvania	-11.1693
▁peppermint	-11.1693
▁phoenix	-11.1693
▁physician	-11.1693
▁postcard	-11.1693
▁previous	-11.1693
▁prospect	-11.1693
▁qualms	-11.1693
▁radiant	-11.1693
▁ralph	-11.1693
▁ramsay	-11.1693
▁rendezvous	-11.1693
▁sarcophagus	-11.1693
▁semester	-11.1693
▁sequel	-11.1693
▁shepherd	-11.1693
▁skarratt	-11.1693
▁snorting	-11.1693
▁snoutfever	-11.1693
▁sobiech	-11.1693
▁southeast	-11.1693
▁stockbroker	-11.1693
▁substance	-11.1693
▁swedish	-11.1693
▁sympath	-11.1693
▁symptoms	-11.1693
▁technique	-11.1693
▁therapist	-11.1693
▁toulour	-11.1693
▁transform	-11.1693
▁transylvania	-11.1693
▁triumph	-11.1693
▁tupac	-11.1693
▁unprecedented	-11.1693
▁venezuela	-11.1693
▁vulcan	-11.1693
▁website	-11.1693
▁welfare	-11.1693
▁yoohoo	-11.1693
▁adapt	-11.1693
▁aleera	-11.1693
▁branch	-11.1693
▁bronx	-11.1693
▁caddy	-11.1693
▁condom	-11.1693
▁corporate	-11.1693
▁crib	-11.1693
▁cyrus	-11.1693
▁darcy	-11.1693
▁defence	-11.1693
▁dignity	-11.1693
▁equation	-11.1693
▁fingertip	-11.1693
▁hobby	-11.1693
▁jfk	-11.1693
▁overcome	-11.1693
▁preferiti	-11.1693
▁revving	-11.1693
▁stereo	-11.1693
▁frik	-11.1693
▁fuzz	-11.1693
▁gospel	-11.1693
▁illusions	-11.1693
▁janson	-11.1693
▁noisy	-11.1693
▁skirt	-11.1693
▁tijd	-11.1693
▁uncovered	-11.1693
▁venus	-11.1693
▁constable	-11.1693
▁dvd	-11.1693
▁granddad	-11.1693
▁jaylah	-11.1693
▁motel	-11.1693
▁ragged	-11.1693
▁sunshine	-11.1693
▁sushi	-11.1693
▁unstable	-11.1693
▁enchanted	-11.1693
▁hyde	-11.1693
▁hypothetical	-11.1693
▁sentiment	-11.1693
▁tugboat	-11.1693
▁vacant	-11.1693
▁ruling	-11.1693
▁compass	-11.1693
▁jammed	-11.1693
▁yacht	-11.1693
▁grozny	-11.1693
▁rackham	-11.1693
▁reign	-11.1693
▁afterward	-11.1693
▁teabing	-11.1693
▁conspiracy	-11.1693
▁excess	-11.1693
▁olsen	-11.1693
▁steep	-11.1693
▁alicia	-11.1693
▁todd	-11.1693
▁casualties	-11.1693
▁inaudible	-11.1693
▁judging	-11.1693
▁tinker	-11.1693
cryption	-11.1693
▁stadium	-11.1693
▁vulnerable	-11.1693
▁wails	-11.1693
▁spontane	-11.1693
▁selv	-11.1693
▁valerious	-11.1693
▁dialogue	-11.1693
▁facilities	-11.1693
▁commandeer	-11.1693
▁prachtig	-11.1693
▁plutonium	-11.1693
▁bernini	-11.1693
▁cocktail	-11.1693
▁nancy	-11.1693
▁liquid	-11.1693
▁sermon	-11.1693
▁wrath	-11.1693
▁radical	-11.1693
▁puerto	-11.1693
▁elector	-11.1693
▁upload	-11.1693
▁zwart	-11.1693
▁broadway	-11.1693
▁cartoon	-11.1693
▁slipped	-11.1693
▁content	-11.1693
▁lnjun	-11.1693
▁skate	-11.1693
▁upgrade	-11.1693
▁whip	-11.1693
▁audition	-11.1693
▁shiva	-11.1693
▁nodig	-11.1693
▁promote	-11.1693
▁whwhat	-11.1693
▁representative	-11.1693
▁granny	-11.1694
▁subtle	-11.1694
▁waving	-11.1694
▁zulu	-11.1694
▁theft	-11.1694
▁ravagers	-11.1694
▁oblivion	-11.1694
▁feast	-11.1694
▁sober	-11.1694
ography	-11.1694
▁suitcase	-11.1694
▁ches	-11.1694
▁enrique	-11.1694
▁nobel	-11.1694
▁aircraft	-11.1694
▁unnatural	-11.1694
▁bingo	-11.1694
▁chef	-11.1694
▁medium	-11.1694
▁voting	-11.1694
▁poking	-11.1694
▁prada	-11.1694
▁griev	-11.1694
▁enhanc	-11.1694
▁mummy	-11.1694
rudy	-11.1694
▁approximately	-11.1695
▁inevitable	-11.1695
▁offline	-11.1695
▁philosophy	-11.1695
▁naples	-11.1695
▁onboard	-11.1695
▁leadership	-11.1695
▁cease	-11.1695
▁irina	-11.1695
▁chaos	-11.1695
▁confusion	-11.1695
▁jewelry	-11.1695
▁priority	-11.1695
▁resistance	-11.1696
▁damp	-11.1696
▁keystone	-11.1696
▁native	-11.1696
▁epic	-11.1696
▁revolutionary	-11.1696
▁checkpoint	-11.1696
▁boil	-11.1696
▁bachelor	-11.1696
▁definitive	-11.1696
▁burt	-11.1696
▁lono	-11.1696
▁elevated	-11.1696
▁leah	-11.1696
▁sophisticated	-11.1696
▁involvement	-11.1697
▁riot	-11.1697
▁convention	-11.1697
▁northeast	-11.1697
▁parallel	-11.1697
▁athlete	-11.1697
▁frog	-11.1697
▁promising	-11.1697
tawny	-11.1697
▁courtesy	-11.1697
▁holler	-11.1697
▁litera	-11.1697
▁kidnapper	-11.1697
▁klaa	-11.1697
▁canna	-11.1697
▁amber	-11.1697
▁coco	-11.1697
▁vent	-11.1697
▁feedback	-11.1697
▁wack	-11.1697
▁renee	-11.1697
▁buff	-11.1698
▁balloon	-11.1698
▁stalk	-11.1698
▁injection	-11.1698
▁hallway	-11.1698
▁snot	-11.1698
▁adam	-11.1698
▁beef	-11.1698
▁underestimate	-11.1698
▁slightest	-11.1698
▁invention	-11.1698
▁plug	-11.1698
▁buckley	-11.1698
▁introducing	-11.1698
▁shrieking	-11.1698
▁carries	-11.1699
▁grove	-11.1699
▁korean	-11.1699
▁belongings	-11.1699
▁wilson	-11.1699
eight	-11.1699
▁chopper	-11.1699
▁punishment	-11.1699
▁moonlight	-11.1699
▁pork	-11.1699
▁leonardo	-11.17
acci	-11.17
▁examiner	-11.17
▁alike	-11.17
▁tallis	-11.17
gone	-11.17
▁childhood	-11.17
urkin	-11.17
▁mick	-11.17
▁kidney	-11.1701
▁coke	-11.1702
▁asteroid	-11.1702
▁fog	-11.1702
▁brah	-11.1702
▁toch	-11.1702
▁luckily	-11.1702
▁dj	-11.1703
▁asgardian	-11.1703
▁dorian	-11.1703
▁tegen	-11.1703
▁encourage	-11.1703
▁marion	-11.1703
▁distracted	-11.1703
▁lamp	-11.1703
▁vile	-11.1703
▁advisor	-11.1703
▁aggressive	-11.1704
▁shipping	-11.1704
▁bunker	-11.1704
▁stripper	-11.1705
▁amazed	-11.1705
▁plead	-11.1705
▁footage	-11.1706
▁taxes	-11.1706
▁mason	-11.1706
▁hijack	-11.1706
▁dose	-11.1707
▁traditional	-11.1707
▁carlton	-11.1707
▁determine	-11.1707
▁wheezing	-11.1708
▁distracting	-11.1709
▁merely	-11.1709
▁woodman	-11.1709
▁solo	-11.171
▁jake	-11.171
▁purr	-11.171
▁restored	-11.171
▁amongst	-11.1711
▁cruiser	-11.1712
▁inner	-11.1712
▁manually	-11.1712
▁chuck	-11.1713
▁madness	-11.1714
▁rex	-11.1714
ets	-11.1715
▁armies	-11.1715
▁motive	-11.1715
▁banish	-11.1715
▁july	-11.1716
▁accomplished	-11.1717
▁vip	-11.1717
▁dense	-11.1717
▁through	-11.1718
▁willen	-11.1718
▁waylon	-11.1718
▁tack	-11.1719
▁sanders	-11.1719
▁witnesses	-11.1719
▁saber	-11.172
▁structure	-11.172
▁locks	-11.172
▁keer	-11.1721
▁mature	-11.1721
▁hyper	-11.1722
▁manual	-11.1723
▁hind	-11.1723
▁morally	-11.1724
▁approved	-11.1724
▁described	-11.1724
▁remy	-11.1724
▁porn	-11.1725
▁factory	-11.1726
▁sage	-11.1726
▁sustained	-11.1726
▁farts	-11.1731
▁aid	-11.1731
▁mayday	-11.1731
▁expose	-11.1731
▁weten	-11.1732
▁sore	-11.1733
▁corpse	-11.1733
▁luv	-11.1734
▁rick	-11.1734
▁rodin	-11.1735
▁anton	-11.1735
▁takin	-11.1736
▁deceived	-11.1737
▁rifle	-11.1737
▁esc	-11.1737
▁cult	-11.1738
▁crooked	-11.1738
▁dusty	-11.1739
▁hooting	-11.1739
uf	-11.174
▁racing	-11.1741
▁correction	-11.1744
▁punished	-11.1744
▁recipe	-11.1745
▁zien	-11.1745
▁published	-11.1745
gree	-11.1746
▁suggestion	-11.1749
▁fade	-11.175
▁taller	-11.175
lange	-11.175
▁kai	-11.1751
▁folded	-11.1751
▁contractor	-11.1752
▁notifi	-11.1753
▁saucer	-11.1754
▁jar	-11.1758
▁flares	-11.1758
▁rescued	-11.1758
▁insects	-11.1759
▁dune	-11.1759
▁prinses	-11.1759
▁cane	-11.1762
▁registered	-11.1763
▁crosses	-11.1765
▁threatening	-11.1765
▁zoo	-11.1765
▁cube	-11.1767
▁drowned	-11.1767
▁reasonable	-11.1767
▁daw	-11.1769
▁daniela	-11.177
▁maiden	-11.1771
har	-11.1773
▁cycle	-11.1773
▁lijk	-11.1775
▁more	-11.1777
▁jeb	-11.1778
▁cot	-11.1781
▁charming	-11.1781
▁thoughtful	-11.1789
▁dresses	-11.179
▁tricky	-11.1793
▁observ	-11.1794
▁sailing	-11.1794
▁hillys	-11.1796
▁coin	-11.1796
▁mathematical	-11.1798
look	-11.1799
▁irony	-11.18
▁preparations	-11.1802
▁flipp	-11.1807
▁awaken	-11.181
▁chilly	-11.1811
▁fasten	-11.1815
▁privately	-11.1817
▁squa	-11.1818
▁youngest	-11.1819
▁meantime	-11.1821
▁jumper	-11.1822
▁spinn	-11.1824
▁scheduled	-11.1827
▁lando	-11.183
▁whack	-11.1832
▁bailed	-11.1836
▁wilt	-11.1838
ple	-11.1838
▁meen	-11.1841
tract	-11.1842
log	-11.1843
▁intended	-11.1843
▁sincere	-11.1844
▁snores	-11.1845
▁methods	-11.1845
▁yankees	-11.1845
▁starters	-11.1848
culate	-11.1849
nine	-11.1849
▁cove	-11.1853
▁moor	-11.1855
▁churches	-11.1858
▁amend	-11.1859
▁wage	-11.186
▁dell	-11.1861
▁existed	-11.1868
▁disappearing	-11.187
▁kyle	-11.1873
▁layers	-11.1876
▁dam	-11.1877
▁deeper	-11.1882
▁rivers	-11.1883
ime	-11.1886
▁spite	-11.1888
▁worms	-11.1889
▁server	-11.1894
ndant	-11.1895
▁ash	-11.1899
▁temp	-11.1902
▁bub	-11.191
▁deceive	-11.191
▁cooked	-11.1915
▁foote	-11.192
▁mur	-11.1923
▁conditioning	-11.1923
▁joey	-11.1925
▁lawn	-11.1925
▁tur	-11.1931
▁convicts	-11.1933
▁broker	-11.1935
▁charged	-11.1941
▁newman	-11.1941
fortunately	-11.1946
▁rocky	-11.1947
▁unity	-11.195
pers	-11.1952
▁movements	-11.1957
bre	-11.1959
▁voter	-11.1962
▁kon	-11.1964
▁mill	-11.1975
▁cannons	-11.1977
▁fugitives	-11.1977
▁vows	-11.1977
▁rhymes	-11.1978
▁yay	-11.1981
▁producer	-11.1984
▁beter	-11.1991
oy	-11.1993
▁failing	-11.1995
▁cor	-11.2007
▁kim	-11.2014
▁carriers	-11.2021
▁ul	-11.2027
▁shade	-11.2038
▁workers	-11.2038
▁tent	-11.2039
▁prep	-11.2044
▁beck	-11.2045
▁driven	-11.2047
▁moed	-11.2051
▁laughed	-11.2052
▁il	-11.2054
▁breakin	-11.2057
▁roots	-11.2066
▁snakes	-11.2066
▁murders	-11.2066
▁directions	-11.2067
position	-11.2075
play	-11.2093
▁mooi	-11.2098
▁girlfriends	-11.2137
▁maken	-11.2151
▁cigarettes	-11.2155
top	-11.2156
▁startin	-11.2164
▁molecul	-11.2167
▁leid	-11.2168
▁reporting	-11.2171
▁destroys	-11.2181
▁parker	-11.2198
▁colleagues	-11.22
▁borders	-11.22
▁creaks	-11.2203
▁shadows	-11.2204
▁fooled	-11.2206
sure	-11.222
▁positions	-11.2224
▁bombing	-11.2231
▁accepting	-11.2235
▁meters	-11.2238
▁hun	-11.2243
▁laying	-11.2243
tec	-11.2245
▁efforts	-11.2245
▁roommates	-11.2245
▁flights	-11.2267
▁summers	-11.2268
▁pose	-11.2271
don	-11.2273
▁deem	-11.2275
▁grounded	-11.2277
▁buzz	-11.2283
▁cob	-11.2286
▁wi	-11.229
▁dorks	-11.2291
▁generations	-11.2291
▁ador	-11.2295
▁hav	-11.2303
your	-11.2316
▁rega	-11.2322
cated	-11.2325
heads	-11.2326
▁burns	-11.2353
▁scrambl	-11.2365
▁thorn	-11.2372
▁represents	-11.2375
▁fighters	-11.2376
rock	-11.2377
▁links	-11.2382
▁rumors	-11.2383
wyn	-11.2397
▁languages	-11.2399
ame	-11.2402
▁wrappe	-11.2403
▁qui	-11.2412
anda	-11.2423
▁sen	-11.2424
▁menu	-11.2427
▁naive	-11.2431
▁rates	-11.2455
say	-11.2469
▁ape	-11.2469
▁penguins	-11.2474
▁visions	-11.2475
roni	-11.2482
▁dag	-11.252
▁conc	-11.2524
▁fram	-11.2535
lon	-11.2535
▁repairs	-11.2553
▁mod	-11.2555
▁caves	-11.2567
of	-11.2579
rick	-11.2583
▁mal	-11.2584
stan	-11.2601
ano	-11.2601
dium	-11.2607
▁dee	-11.2631
lit	-11.2632
▁specialize	-11.2641
▁dealer	-11.2648
▁gel	-11.2657
vy	-11.2675
▁dim	-11.2685
bill	-11.2686
changing	-11.2691
▁cone	-11.2706
etti	-11.2713
och	-11.2724
▁nou	-11.2726
pher	-11.2732
eva	-11.2736
▁carro	-11.2745
▁babes	-11.2754
▁shi	-11.2754
ullen	-11.2775
tham	-11.2781
▁tin	-11.2787
▁elk	-11.2796
▁passengers	-11.2803
▁scares	-11.2817
ians	-11.2834
alah	-11.2841
▁ducks	-11.285
▁rays	-11.2851
▁hond	-11.2852
▁eu	-11.2868
▁chu	-11.2886
▁had	-11.2895
▁scal	-11.2897
▁ni	-11.2903
▁films	-11.2906
▁emerge	-11.2906
▁era	-11.2917
▁moi	-11.2921
▁sustain	-11.2932
▁haste	-11.2941
▁sw	-11.2993
▁ham	-11.3002
mont	-11.3014
▁adore	-11.3025
tale	-11.3027
▁clocks	-11.3043
▁bounc	-11.3055
step	-11.307
▁beers	-11.3072
▁author	-11.3074
new	-11.3085
▁mode	-11.309
▁suspects	-11.3092
wart	-11.3131
▁kingdoms	-11.3141
▁journal	-11.3151
▁pier	-11.3171
▁legi	-11.3173
▁luc	-11.3182
▁scenes	-11.319
▁sakes	-11.319
▁lifts	-11.3196
gress	-11.3215
bie	-11.3218
▁qu	-11.3243
dont	-11.3247
▁actions	-11.3247
▁virtu	-11.3269
rated	-11.3295
▁mere	-11.33
ency	-11.3323
geven	-11.333
▁fates	-11.3334
▁types	-11.3338
▁fortunate	-11.3387
▁prohibit	-11.3389
▁bor	-11.339
▁dumps	-11.3401
akin	-11.3406
ppe	-11.3407
tical	-11.341
sti	-11.3418
▁poet	-11.3421
▁fur	-11.343
fri	-11.3433
▁slip	-11.3446
▁merchant	-11.3447
▁cannibal	-11.3447
▁particle	-11.3447
▁teenager	-11.3447
▁where	-11.3448
▁scout	-11.3454
▁worm	-11.3458
▁curve	-11.3459
▁cricket	-11.3461
▁instinct	-11.3461
▁seizure	-11.3463
▁rac	-11.3465
▁resume	-11.3465
▁musketeer	-11.3467
▁mutant	-11.347
oz	-11.3472
▁audi	-11.3473
ware	-11.3474
▁stair	-11.348
▁chr	-11.3482
▁pill	-11.3484
org	-11.3487
run	-11.3489
here	-11.3499
▁indi	-11.3502
posing	-11.3503
rah	-11.3504
▁hoef	-11.3513
helf	-11.3554
most	-11.3554
last	-11.356
▁bin	-11.3571
▁writ	-11.3577
▁strap	-11.3578
ew	-11.3594
▁exception	-11.3598
▁medic	-11.3603
▁defi	-11.3612
▁tan	-11.3619
▁dogg	-11.3621
▁sip	-11.3621
▁vomit	-11.3633
herei	-11.3635
▁inhal	-11.3641
woman	-11.3641
▁clo	-11.3646
▁hyp	-11.3647
fold	-11.3649
▁drift	-11.3651
mark	-11.3652
▁disappoint	-11.3652
school	-11.3652
turn	-11.3653
town	-11.3654
▁confus	-11.3654
plant	-11.3654
▁dismiss	-11.3655
▁surround	-11.3655
ofthe	-11.3656
prince	-11.3656
minute	-11.3656
walk	-11.3656
girl	-11.3656
three	-11.3656
bomb	-11.3657
blood	-11.3657
kiss	-11.3657
beat	-11.3658
scene	-11.3659
tum	-11.366
listen	-11.3661
chick	-11.3661
hunt	-11.3661
▁examine	-11.3663
force	-11.3663
▁associate	-11.3663
▁resolve	-11.3663
coat	-11.3663
tail	-11.3664
▁concentrate	-11.3666
▁compromise	-11.3666
▁doom	-11.3666
▁delicate	-11.3672
▁crunch	-11.3672
never	-11.3673
sky	-11.3675
▁precise	-11.3675
aware	-11.3675
▁lever	-11.3676
bric	-11.3676
▁tune	-11.3677
▁hoot	-11.3679
▁blend	-11.3679
▁froze	-11.3679
▁krijg	-11.368
▁heave	-11.368
▁literal	-11.3682
armed	-11.3683
ession	-11.3683
▁hanse	-11.3683
▁bun	-11.3683
▁should	-11.3683
▁rum	-11.3683
▁govern	-11.3683
▁torpedo	-11.3683
▁julie	-11.3684
▁sketch	-11.3684
▁preten	-11.3686
▁patter	-11.3686
▁consult	-11.3688
▁kir	-11.3688
▁railroad	-11.3688
jun	-11.3689
shit	-11.3689
▁exterminat	-11.369
▁suspens	-11.369
▁humiliat	-11.369
▁select	-11.369
▁leavin	-11.369
▁addict	-11.369
▁convers	-11.369
▁extinct	-11.369
▁confront	-11.369
▁align	-11.3691
▁champ	-11.3691
▁ravage	-11.3691
▁beau	-11.3692
▁capital	-11.3692
▁scholar	-11.3692
produc	-11.3692
▁douche	-11.3692
▁kell	-11.3692
▁decommission	-11.3693
▁glitch	-11.3693
▁mislead	-11.3693
ezvous	-11.3693
▁abilities	-11.3693
▁academy	-11.3693
▁adrenaline	-11.3693
▁afghanistan	-11.3693
▁alejandro	-11.3693
▁allergies	-11.3693
▁amazon	-11.3693
▁apprehend	-11.3693
▁argentinean	-11.3693
▁ascertain	-11.3693
▁assigned	-11.3693
▁astronaut	-11.3693
▁astrophysic	-11.3693
▁athenian	-11.3693
▁athens	-11.3693
▁australia	-11.3693
▁bathsheba	-11.3693
▁bordeaux	-11.3693
▁brochure	-11.3693
▁bruiloft	-11.3693
▁bureau	-11.3693
▁calculated	-11.3693
▁cellphone	-11.3693
▁cherlinski	-11.3693
▁chipmunks	-11.3693
▁civic	-11.3693
▁collision	-11.3693
▁comfy	-11.3693
▁compressor	-11.3693
▁concept	-11.3693
▁conform	-11.3693
▁contaminated	-11.3693
▁convenient	-11.3693
▁cramps	-11.3693
▁cunning	-11.3693
▁curtis	-11.3693
▁czech	-11.3693
▁defcon	-11.3693
▁despise	-11.3693
▁deterrent	-11.3693
▁devonshire	-11.3693
▁dictate	-11.3693
▁disgrace	-11.3693
▁disorder	-11.3693
▁doppler	-11.3693
▁dowry	-11.3693
▁dunmeyer	-11.3693
▁earthquake	-11.3693
▁egeus	-11.3693
▁exhaling	-11.3693
▁exhusband	-11.3693
▁faggot	-11.3693
▁finnegan	-11.3693
▁flapping	-11.3693
▁forecast	-11.3693
▁freckles	-11.3693
▁frypan	-11.3693
▁genuine	-11.3693
▁geweldig	-11.3693
▁ghetto	-11.3693
▁gierasch	-11.3693
▁gracious	-11.3693
▁granddaughter	-11.3693
▁grandparents	-11.3693
▁gratitude	-11.3693
▁grazie	-11.3693
▁gretel	-11.3693
▁grudge	-11.3693
▁guidance	-11.3693
▁happier	-11.3693
▁holbrook	-11.3693
▁housekeeping	-11.3693
▁impeccable	-11.3693
▁independence	-11.3693
▁infinite	-11.3693
▁injustice	-11.3693
▁invincible	-11.3693
▁ipswich	-11.3693
▁isolation	-11.3693
▁january	-11.3693
▁jefferson	-11.3693
▁jeremy	-11.3693
▁kalashov	-11.3693
▁kaufman	-11.3693
▁laboratory	-11.3693
▁landfill	-11.3693
▁lassiter	-11.3693
▁laundry	-11.3693
▁liaison	-11.3693
▁lunatic	-11.3693
▁manufacturer	-11.3693
▁martha	-11.3693
▁mcloughlin	-11.3693
▁mexican	-11.3693
▁misschien	-11.3693
▁nachttrein	-11.3693
▁nanites	-11.3693
▁nexdoria	-11.3693
▁nightcrawler	-11.3693
▁nigra	-11.3693
▁nonsmoking	-11.3693
▁oakenshield	-11.3693
▁opponent	-11.3693
▁ordinance	-11.3693
▁pakistan	-11.3693
▁pancakes	-11.3693
▁parachute	-11.3693
▁parasites	-11.3693
▁participat	-11.3693
▁perspective	-11.3693
▁persuade	-11.3693
▁peterquince	-11.3693
▁phenomena	-11.3693
▁possibilities	-11.3693
▁prevail	-11.3693
▁prinselijk	-11.3693
▁propulsion	-11.3693
▁receiving	-11.3693
▁reconsider	-11.3693
▁redirect	-11.3693
▁rehearse	-11.3693
▁releasing	-11.3693
▁resident	-11.3693
▁resurrect	-11.3693
▁rupert	-11.3693
▁salamander	-11.3693
▁scenario	-11.3693
▁schmuck	-11.3693
▁schumann	-11.3693
▁scoring	-11.3693
▁selenium	-11.3693
▁semmi	-11.3693
▁september	-11.3693
▁snoop	-11.3693
▁sorority	-11.3693
▁souvenir	-11.3693
▁stammering	-11.3693
▁stepfather	-11.3693
▁storyteller	-11.3693
▁struggling	-11.3693
▁supermarket	-11.3693
▁supreme	-11.3693
▁surprising	-11.3693
▁suspicion	-11.3693
▁swept	-11.3693
▁technician	-11.3693
▁terrifying	-11.3693
▁theories	-11.3693
▁thirteen	-11.3693
▁tivan	-11.3693
▁toekomst	-11.3693
▁tortoise	-11.3693
▁trophy	-11.3693
▁undeniable	-11.3693
▁unorthodox	-11.3693
▁vacuum	-11.3693
▁vegetarian	-11.3693
▁vladimir	-11.3693
▁waffles	-11.3693
▁wheat	-11.3693
▁zurich	-11.3693
▁ambassad	-11.3693
▁batteries	-11.3693
▁capacity	-11.3693
▁chastity	-11.3693
▁comrade	-11.3693
▁conjur	-11.3693
▁copeland	-11.3693
▁democrat	-11.3693
▁disagree	-11.3693
▁dispute	-11.3693
▁examination	-11.3693
▁google	-11.3693
▁infant	-11.3693
▁kroon	-11.3693
▁maggot	-11.3693
▁solemn	-11.3693
▁spenser	-11.3693
▁stroll	-11.3693
▁termination	-11.3693
▁trooper	-11.3693
▁twitch	-11.3693
▁tyrant	-11.3693
▁wealth	-11.3693
▁wereld	-11.3693
▁zelf	-11.3693
▁zich	-11.3693
▁bulb	-11.3693
▁clerk	-11.3693
▁duct	-11.3693
▁laddie	-11.3693
▁monica	-11.3693
▁scraps	-11.3693
▁slurp	-11.3693
▁straining	-11.3693
▁troth	-11.3693
▁wassen	-11.3693
▁xray	-11.3693
▁claw	-11.3693
▁gulf	-11.3693
▁steak	-11.3693
▁vermin	-11.3693
▁vinci	-11.3693
calculation	-11.3693
imprison	-11.3693
▁canvas	-11.3693
▁endanger	-11.3693
▁exhibit	-11.3693
▁keala	-11.3693
▁serpent	-11.3693
▁bold	-11.3693
▁depth	-11.3693
▁isolate	-11.3693
▁limb	-11.3693
▁porthos	-11.3693
▁sixteen	-11.3693
▁amusing	-11.3693
▁bosom	-11.3693
▁mystique	-11.3693
▁reserve	-11.3693
▁thrust	-11.3693
▁adios	-11.3693
▁barracks	-11.3693
▁intel	-11.3693
▁rodeo	-11.3693
▁grimes	-11.3693
▁marvel	-11.3693
▁saddle	-11.3693
▁sensation	-11.3693
▁mourn	-11.3693
▁panicked	-11.3693
▁signora	-11.3693
▁eddie	-11.3693
▁likewise	-11.3693
▁tanya	-11.3693
▁carbon	-11.3693
▁gascon	-11.3693
▁prague	-11.3693
▁rook	-11.3693
▁ufo	-11.3693
▁assumption	-11.3693
▁oui	-11.3693
▁terry	-11.3693
▁countries	-11.3693
▁sumdall	-11.3693
▁ammo	-11.3693
▁hayseed	-11.3693
▁kansas	-11.3693
▁lump	-11.3693
▁mccoy	-11.3693
▁dunbar	-11.3693
▁putnam	-11.3693
▁insured	-11.3693
▁unhappy	-11.3693
▁insert	-11.3693
▁lvan	-11.3693
▁vibrating	-11.3693
▁oversee	-11.3693
▁whew	-11.3693
▁ransom	-11.3693
▁cement	-11.3693
▁wormhole	-11.3693
▁santos	-11.3693
▁calnet	-11.3693
▁titanium	-11.3693
▁reelection	-11.3693
▁vocal	-11.3693
▁harley	-11.3693
▁registration	-11.3693
▁bootstrap	-11.3693
▁defy	-11.3693
▁freight	-11.3693
▁laptop	-11.3693
▁plumber	-11.3693
▁historical	-11.3693
▁lethal	-11.3693
▁disrespect	-11.3693
▁phi	-11.3693
▁outbreak	-11.3693
▁vicious	-11.3693
▁phd	-11.3693
▁riley	-11.3693
▁decoy	-11.3693
▁inventory	-11.3693
▁esme	-11.3693
▁leash	-11.3693
▁uplink	-11.3693
▁swift	-11.3693
▁yawn	-11.3693
▁hamster	-11.3693
▁saturn	-11.3693
▁vague	-11.3693
▁charging	-11.3693
▁nazis	-11.3693
▁kwam	-11.3693
▁bodyguarddog	-11.3693
▁truce	-11.3693
▁biologist	-11.3693
▁tuition	-11.3693
▁gibbons	-11.3693
▁glue	-11.3693
▁overdue	-11.3693
▁vibrate	-11.3693
▁overflow	-11.3693
▁scarlet	-11.3693
▁stap	-11.3693
▁unpredictable	-11.3693
▁brook	-11.3693
▁humour	-11.3693
▁leftovers	-11.3693
▁occurred	-11.3693
▁thudding	-11.3693
▁patron	-11.3693
▁oxford	-11.3693
▁incapable	-11.3693
▁pronounce	-11.3693
▁avenue	-11.3693
▁kabul	-11.3694
▁dennis	-11.3694
▁silas	-11.3694
▁mount	-11.3694
▁supplies	-11.3694
▁wimp	-11.3694
▁congress	-11.3694
▁contend	-11.3694
▁ravenna	-11.3694
▁implie	-11.3694
▁lemonade	-11.3694
▁anonymous	-11.3694
▁extract	-11.3694
muffin	-11.3694
▁babysitter	-11.3694
▁rooster	-11.3694
▁bunk	-11.3694
▁abroad	-11.3694
▁demonstration	-11.3694
▁harsh	-11.3694
▁dodgson	-11.3694
▁sniffles	-11.3694
▁obligation	-11.3694
▁troon	-11.3694
▁swat	-11.3694
▁studied	-11.3694
▁birthright	-11.3694
▁rico	-11.3694
▁flunk	-11.3694
▁hush	-11.3694
▁reordan	-11.3694
▁titania	-11.3694
▁bonehead	-11.3694
▁raige	-11.3694
▁avenge	-11.3694
▁devote	-11.3694
▁jacksonville	-11.3694
▁axe	-11.3694
▁formula	-11.3694
▁polland	-11.3694
▁swimmer	-11.3694
▁pantry	-11.3694
▁belch	-11.3695
▁champion	-11.3695
▁memo	-11.3695
▁settlements	-11.3695
▁sunrise	-11.3695
▁scu	-11.3695
▁orient	-11.3695
▁descendant	-11.3695
▁electronic	-11.3695
▁inconvenience	-11.3695
▁accusation	-11.3695
▁rising	-11.3695
▁scandalous	-11.3695
▁homicide	-11.3695
▁gutter	-11.3695
▁housing	-11.3695
▁jannah	-11.3695
▁hisse	-11.3695
▁transition	-11.3695
▁choke	-11.3695
▁establishment	-11.3695
▁atta	-11.3695
▁classified	-11.3695
▁staat	-11.3695
▁devise	-11.3695
▁meatball	-11.3695
▁mathematician	-11.3695
▁litter	-11.3695
▁overnight	-11.3695
▁teddy	-11.3695
▁filter	-11.3696
▁compassion	-11.3696
▁bailey	-11.3696
▁tasty	-11.3696
▁charity	-11.3696
▁skipped	-11.3696
▁reception	-11.3696
retard	-11.3696
▁imaging	-11.3696
▁panties	-11.3696
▁premi	-11.3696
▁peak	-11.3696
▁splitting	-11.3696
▁heck	-11.3696
▁winehouse	-11.3696
▁adorable	-11.3696
▁hesitate	-11.3697
▁basis	-11.3697
▁breakthrough	-11.3697
▁seattle	-11.3697
▁inbound	-11.3697
▁swap	-11.3697
▁espn	-11.3697
▁rash	-11.3697
▁alliance	-11.3697
comb	-11.3697
▁slapped	-11.3697
▁dios	-11.3697
▁climate	-11.3698
▁violet	-11.3698
▁wig	-11.3698
▁alternat	-11.3698
▁ciara	-11.3698
▁sasha	-11.3698
▁void	-11.3698
▁popping	-11.3698
▁testify	-11.3698
▁stung	-11.3698
▁stability	-11.3698
▁various	-11.3698
▁voil	-11.3698
▁undone	-11.3699
▁replacement	-11.3699
▁relat	-11.3699
▁yum	-11.3699
▁shred	-11.3699
▁terrorism	-11.3699
▁diaz	-11.3699
▁romance	-11.3699
lasses	-11.3699
▁marco	-11.3699
▁anomaly	-11.3699
▁panel	-11.3699
▁spanky	-11.3699
▁herman	-11.3699
▁halen	-11.37
▁tripod	-11.37
▁stepping	-11.37
▁faia	-11.37
▁pageant	-11.37
▁reese	-11.37
▁dodg	-11.3701
▁recommendation	-11.3701
▁trager	-11.3701
▁zit	-11.3701
▁rally	-11.3701
▁clownin	-11.3701
▁rotation	-11.3701
▁soil	-11.3701
▁psychological	-11.3701
▁proton	-11.3701
▁assassination	-11.3701
▁icon	-11.3702
▁jelly	-11.3702
▁vivian	-11.3702
▁reduce	-11.3702
▁probe	-11.3702
▁cili	-11.3702
▁shuttle	-11.3702
▁installed	-11.3702
▁semi	-11.3702
▁pawn	-11.3703
▁waist	-11.3703
▁philippe	-11.3703
▁faithful	-11.3704
▁greedy	-11.3704
▁strategy	-11.3704
▁employer	-11.3704
▁crater	-11.3704
▁jock	-11.3704
▁lust	-11.3704
▁logan	-11.3704
▁rik	-11.3704
▁improvement	-11.3704
▁parri	-11.3704
▁diary	-11.3705
▁mamma	-11.3705
▁for	-11.3706
▁spout	-11.3706
▁liever	-11.3706
▁midst	-11.3706
▁restricted	-11.3706
▁fax	-11.3706
▁geda	-11.3706
▁broom	-11.3707
▁render	-11.3707
▁bonus	-11.3707
▁zaak	-11.3707
▁earl	-11.3707
▁geze	-11.3707
▁cosm	-11.3707
chio	-11.3707
▁judy	-11.3707
▁cuss	-11.3707
▁eerste	-11.3708
▁reem	-11.3708
▁unger	-11.3708
▁cabo	-11.3708
▁paddy	-11.3708
▁kinderen	-11.3709
▁cloth	-11.3709
▁lighthouse	-11.3709
▁dings	-11.371
▁blaze	-11.371
▁respectful	-11.371
▁miller	-11.3711
izer	-11.3711
zero	-11.3712
▁homemade	-11.3712
▁frontier	-11.3712
▁brass	-11.3713
▁warren	-11.3713
▁evolved	-11.3713
▁doggy	-11.3713
▁crest	-11.3713
sett	-11.3713
▁cookies	-11.3713
▁crippled	-11.3714
▁arguing	-11.3714
▁frigga	-11.3715
▁felon	-11.3715
▁neem	-11.3716
▁dacht	-11.3716
▁sandwiches	-11.3716
coin	-11.3718
▁standish	-11.3718
▁fren	-11.3719
▁eten	-11.3719
ereen	-11.3719
▁stitch	-11.372
▁slet	-11.372
▁exclusively	-11.3721
▁itit	-11.3721
▁helicarriers	-11.3723
▁doggie	-11.3723
▁shush	-11.3723
▁fulfilled	-11.3723
▁potter	-11.3723
▁shutting	-11.3724
▁shallow	-11.3724
▁federales	-11.3724
▁masses	-11.3724
▁wade	-11.3724
▁approaches	-11.3724
▁diga	-11.3725
▁ultimately	-11.3725
▁compelling	-11.3725
▁slamming	-11.3725
▁trespassing	-11.3725
vp	-11.3725
▁pak	-11.3725
ilus	-11.3725
▁turd	-11.3726
▁recovery	-11.3726
▁sixty	-11.3727
▁geld	-11.3728
▁mcc	-11.3729
▁newborn	-11.3729
▁bench	-11.3729
▁transmitt	-11.3729
▁coucher	-11.3729
▁jingl	-11.373
▁gigi	-11.373
▁pant	-11.373
▁mali	-11.373
▁disable	-11.3731
▁whir	-11.3731
▁dang	-11.3732
▁jury	-11.3732
anton	-11.3733
▁airline	-11.3733
ood	-11.3734
▁gum	-11.3734
▁barnes	-11.3734
▁onion	-11.3735
▁pinch	-11.3735
▁losses	-11.3735
▁compared	-11.3736
▁inhaler	-11.3737
▁greeting	-11.3738
▁breached	-11.3739
▁severely	-11.3739
▁hose	-11.374
▁tang	-11.3741
muri	-11.3743
▁foe	-11.3743
▁privileged	-11.3744
▁hah	-11.3745
▁conquered	-11.3745
▁established	-11.3745
▁operational	-11.375
▁reply	-11.3751
▁jac	-11.3752
andere	-11.3752
▁referr	-11.3752
▁dale	-11.3754
isch	-11.3755
assup	-11.3756
▁badass	-11.3758
▁oin	-11.3758
▁showtime	-11.3759
▁backyard	-11.376
▁mechanical	-11.3764
▁pouring	-11.3764
▁iv	-11.3764
▁oliver	-11.3766
▁usgs	-11.3768
▁mustard	-11.3772
▁evacuated	-11.3773
▁tourists	-11.3775
▁earrings	-11.3775
▁scaring	-11.3777
▁homeland	-11.3777
▁departing	-11.3777
▁ticking	-11.3777
▁mechanics	-11.3778
▁bore	-11.378
▁oer	-11.3781
▁refus	-11.3784
▁bori	-11.3785
▁brandy	-11.3786
▁informed	-11.3786
▁expos	-11.3787
▁bein	-11.3787
eared	-11.3788
onic	-11.3788
▁dena	-11.3789
▁rebuild	-11.379
vet	-11.3792
▁delayed	-11.3793
hound	-11.3798
▁pac	-11.3798
▁reaches	-11.3798
▁performed	-11.3801
▁defeated	-11.3801
▁recommended	-11.3801
▁matty	-11.3804
▁guided	-11.3805
▁jin	-11.3806
▁rank	-11.3811
towe	-11.3812
▁ole	-11.3812
▁mace	-11.3814
▁ford	-11.3815
▁lotto	-11.3816
▁irre	-11.3819
▁temper	-11.3822
▁puzzles	-11.3828
▁templars	-11.3828
▁colours	-11.3828
▁genies	-11.3828
▁diapers	-11.3829
rete	-11.3831
▁apri	-11.3832
▁legions	-11.3832
▁drumm	-11.3833
▁quake	-11.3834
aving	-11.3836
▁sher	-11.3837
▁spared	-11.3837
▁ava	-11.3845
▁aging	-11.3848
▁observer	-11.3849
▁confiden	-11.385
thou	-11.3851
▁ol	-11.3852
talk	-11.3854
▁epi	-11.3858
▁attempted	-11.3862
▁summar	-11.3878
▁ancestors	-11.3883
▁dungeons	-11.3883
▁ochis	-11.3883
▁grind	-11.3887
▁risky	-11.3888
▁drones	-11.3888
▁chewed	-11.3889
▁posted	-11.3892
▁exceptional	-11.3892
▁clarky	-11.3892
▁havin	-11.3894
▁donald	-11.3897
▁umm	-11.391
▁pasta	-11.3913
▁tha	-11.3914
▁gogh	-11.3928
▁carla	-11.3928
▁thankful	-11.3929
▁scouts	-11.3937
▁secured	-11.394
▁surfer	-11.3941
love	-11.3943
▁tasted	-11.3943
▁fucked	-11.3944
▁appeared	-11.3947
▁gathering	-11.3948
▁dunk	-11.3959
▁protector	-11.3963
▁genome	-11.3964
▁worden	-11.3968
▁bash	-11.3969
▁defending	-11.3974
▁wink	-11.3975
date	-11.3977
▁savin	-11.3982
▁iced	-11.3982
▁seize	-11.3984
lau	-11.3986
▁messy	-11.3991
▁completed	-11.3992
▁explodes	-11.3992
▁outfits	-11.3992
▁products	-11.3992
vol	-11.3997
▁cracking	-11.3997
▁vic	-11.3997
▁doo	-11.401
▁sum	-11.402
▁cooper	-11.4021
▁lass	-11.4021
▁pissing	-11.4029
▁surfing	-11.403
▁swi	-11.4033
▁aa	-11.404
▁headaches	-11.4047
▁candles	-11.4047
▁contains	-11.4049
▁filming	-11.4049
rted	-11.4054
▁grip	-11.4057
▁jess	-11.406
▁ark	-11.407
ington	-11.4074
▁masked	-11.4075
▁musical	-11.4089
▁reported	-11.409
▁coded	-11.409
▁bothering	-11.4094
▁stevens	-11.4099
▁dealt	-11.4101
▁patrols	-11.4103
▁lifetimes	-11.4103
▁cooler	-11.4105
▁sucking	-11.4105
▁keepers	-11.4106
orge	-11.4108
▁mayan	-11.4124
cel	-11.413
▁waive	-11.4133
▁swinging	-11.4136
▁aha	-11.4136
state	-11.414
▁blocked	-11.4142
▁pitt	-11.4146
▁oud	-11.4146
▁guarded	-11.4148
raw	-11.415
blo	-11.4152
cut	-11.4153
tors	-11.4157
▁magazines	-11.4158
▁cows	-11.4159
ips	-11.4159
▁intentions	-11.4159
▁authoriz	-11.4163
▁prejudice	-11.4166
▁lars	-11.4168
▁chips	-11.4168
▁chatt	-11.4169
all	-11.4177
▁allowing	-11.4178
▁lalala	-11.4184
▁contacted	-11.4185
▁watches	-11.4186
▁dancers	-11.4187
him	-11.4199
▁pots	-11.4202
▁lag	-11.4202
▁feds	-11.4214
▁helicopters	-11.4215
▁statues	-11.4215
▁traditions	-11.4215
▁jen	-11.4216
▁castles	-11.4216
▁bangs	-11.4218
▁sewers	-11.4219
▁ahhh	-11.4228
▁bugge	-11.4258
▁outlaws	-11.4271
▁foreigner	-11.4278
▁differently	-11.428
▁crowded	-11.4286
▁ware	-11.4294
zed	-11.432
hem	-11.4321
▁conta	-11.4324
▁results	-11.4328
▁educate	-11.4332
▁biz	-11.4344
▁explained	-11.435
dding	-11.4351
ones	-11.4364
▁navigat	-11.4368
▁respected	-11.4369
▁blocking	-11.4371
▁emails	-11.4372
▁aged	-11.4372
rb	-11.4374
▁prosecut	-11.438
▁flor	-11.4383
▁equals	-11.4385
▁socks	-11.4385
▁statements	-11.4392
▁illuminat	-11.4392
but	-11.44
▁sni	-11.4401
▁reaching	-11.4429
▁explosives	-11.4441
▁prints	-11.4442
▁explosions	-11.4442
▁touchdowns	-11.4442
▁cleary	-11.4449
▁feared	-11.446
▁misses	-11.4461
read	-11.4471
▁tim	-11.4478
▁como	-11.4485
▁closely	-11.4491
lam	-11.4505
kom	-11.4527
▁cuban	-11.4531
▁painter	-11.4533
jaar	-11.4533
▁interr	-11.4541
▁winding	-11.4542
dag	-11.4549
will	-11.4556
awn	-11.4561
▁eject	-11.4576
▁slu	-11.4582
▁artistic	-11.4587
itating	-11.4591
aking	-11.4592
▁greas	-11.4597
▁flo	-11.4598
▁organiz	-11.4612
▁wounds	-11.4616
▁opener	-11.4618
▁disappears	-11.4624
gger	-11.4639
▁limits	-11.4642
▁rocking	-11.4643
▁passenger	-11.4668
▁roller	-11.4679
▁exc	-11.4703
▁cinc	-11.4728
ijn	-11.4733
▁overhea	-11.4738
chita	-11.474
uz	-11.4747
▁shown	-11.4756
rise	-11.4758
▁iso	-11.4766
▁sle	-11.4766
ization	-11.4771
wear	-11.4773
bab	-11.4792
▁blo	-11.4794
theres	-11.4818
▁generate	-11.4886
▁env	-11.4902
▁idol	-11.4905
ification	-11.4906
have	-11.4911
zar	-11.4957
▁converge	-11.4959
aker	-11.4968
bot	-11.4987
gel	-11.502
oof	-11.505
▁tools	-11.5052
▁yah	-11.5109
▁pil	-11.5116
▁wre	-11.5117
▁grease	-11.514
chy	-11.5141
▁awe	-11.5142
chet	-11.5162
▁eng	-11.5222
▁zap	-11.524
lay	-11.5256
▁settl	-11.5267
▁meth	-11.5345
▁com	-11.5368
lunk	-11.5376
our	-11.5404
▁prima	-11.5414
▁ee	-11.542
lton	-11.5433
▁hog	-11.5434
raff	-11.545
▁sac	-11.5457
▁announc	-11.5493
▁nik	-11.5499
▁cro	-11.5528
▁eighth	-11.5548
ound	-11.5558
unt	-11.5564
▁evict	-11.5569
ata	-11.5618
▁ideal	-11.5619
iggle	-11.5629
grade	-11.5633
neck	-11.5641
▁induct	-11.5642
▁maca	-11.5643
cal	-11.5647
olo	-11.5653
ux	-11.5659
▁jest	-11.5661
rake	-11.5666
▁sti	-11.5697
▁breach	-11.5706
▁cho	-11.5715
▁hips	-11.5729
▁dun	-11.5738
evel	-11.5749
erial	-11.5768
ofa	-11.5829
mmy	-11.5837
dieu	-11.5854
▁adjust	-11.586
▁geno	-11.5868
oway	-11.5871
▁lor	-11.588
ease	-11.5881
vision	-11.5889
rmal	-11.5908
▁honk	-11.5923
▁amor	-11.5928
hell	-11.593
▁grunt	-11.5941
net	-11.5945
▁rosario	-11.5947
▁shark	-11.5947
▁mutter	-11.5947
▁investigator	-11.5948
▁napkin	-11.5949
▁reservation	-11.5954
▁ancestor	-11.5954
▁dungeon	-11.5954
▁ochi	-11.5954
▁spike	-11.5956
▁refu	-11.5958
▁snore	-11.5959
▁yankee	-11.5959
▁method	-11.5959
▁arquillian	-11.5961
▁yelp	-11.5961
▁arrangement	-11.5963
▁errand	-11.5967
▁muscle	-11.5968
▁sensor	-11.5969
▁megan	-11.597
▁scoff	-11.5971
▁glove	-11.5972
ois	-11.5974
▁lung	-11.5975
▁sab	-11.5979
▁initial	-11.5979
tif	-11.5983
▁drone	-11.5984
oop	-11.601
class	-11.6024
▁marine	-11.6025
▁mathematic	-11.6026
imp	-11.6027
cola	-11.6029
▁ref	-11.6029
action	-11.6041
destined	-11.6043
▁dw	-11.6051
anse	-11.6053
▁backward	-11.6054
ucky	-11.6084
▁aaa	-11.6085
▁shatter	-11.6092
damer	-11.6094
phob	-11.61
▁recip	-11.6112
▁frighten	-11.6112
▁surviv	-11.6114
▁frig	-11.6121
name	-11.6122
seat	-11.6124
▁wij	-11.6126
▁prepar	-11.6127
▁expand	-11.6133
▁steward	-11.6133
▁employ	-11.6134
▁entertain	-11.6134
▁greet	-11.6135
▁hawk	-11.6138
▁accus	-11.6138
▁rang	-11.6141
fianc	-11.6142
style	-11.6142
rank	-11.6144
iva	-11.6146
through	-11.6148
jack	-11.6148
▁indulge	-11.6149
quet	-11.615
▁annoy	-11.6151
▁unlock	-11.6151
point	-11.6151
▁jilt	-11.6151
▁fran	-11.6151
▁wak	-11.6152
lady	-11.6152
stream	-11.6152
▁smash	-11.6152
▁exhaust	-11.6152
▁suspend	-11.6153
▁pervert	-11.6153
▁flaw	-11.6153
▁spoil	-11.6153
limits	-11.6153
yearold	-11.6153
▁fulfill	-11.6154
park	-11.6154
with	-11.6154
rational	-11.6154
frost	-11.6154
clip	-11.6154
▁accomplish	-11.6155
exchange	-11.6155
thisby	-11.6155
▁forge	-11.6155
mission	-11.6155
movie	-11.6156
wide	-11.6156
security	-11.6156
thinking	-11.6157
broken	-11.6157
stroke	-11.6157
▁brag	-11.6158
bitch	-11.6159
phy	-11.6159
reason	-11.6159
mature	-11.616
thug	-11.6161
boat	-11.6162
weight	-11.6162
oleg	-11.6163
hine	-11.6163
job	-11.6163
▁relieve	-11.6163
watch	-11.6163
mix	-11.6164
case	-11.6164
▁cripple	-11.6165
fight	-11.6166
▁abuse	-11.6166
▁discipline	-11.6166
▁restore	-11.6168
break	-11.6168
pool	-11.6168
loop	-11.6169
hill	-11.6169
dead	-11.617
▁energ	-11.6171
▁layer	-11.6171
▁eerst	-11.6173
zoon	-11.6174
▁temporar	-11.6174
▁guilt	-11.6174
▁scot	-11.6179
▁africa	-11.6179
▁compare	-11.618
▁zij	-11.618
▁scarf	-11.6181
▁clown	-11.6182
▁psycholog	-11.6182
▁tow	-11.6183
▁frustrat	-11.6183
▁improve	-11.6184
▁rom	-11.6184
▁supervis	-11.6186
▁disrupt	-11.6187
▁definiti	-11.6188
▁marty	-11.6188
▁outrage	-11.6189
metric	-11.619
▁scandal	-11.619
convenience	-11.619
▁assembly	-11.619
▁lovin	-11.619
▁melan	-11.619
magine	-11.619
▁singular	-11.619
▁sittin	-11.6191
▁egypt	-11.6191
more	-11.6191
▁zip	-11.6191
▁raven	-11.6191
kiel	-11.6192
▁allegian	-11.6192
scious	-11.6192
▁neighbour	-11.6192
▁clap	-11.6192
▁compartment	-11.6192
▁accur	-11.6192
▁sci	-11.6192
▁theseus	-11.6193
▁correspond	-11.6193
▁olympi	-11.6193
▁reboot	-11.6193
responsibilities	-11.6193
sacrificing	-11.6193
saturationcrisis	-11.6193
splatter	-11.6193
▁abducted	-11.6193
▁abrupt	-11.6193
▁acute	-11.6193
▁adversary	-11.6193
▁advertise	-11.6193
▁allemaal	-11.6193
▁allergy	-11.6193
▁amateur	-11.6193
▁ambition	-11.6193
▁ambush	-11.6193
▁andiamo	-11.6193
▁anesthetic	-11.6193
▁antibiotic	-11.6193
▁apologise	-11.6193
▁aramis	-11.6193
▁aringarosa	-11.6193
▁armstrong	-11.6193
▁astound	-11.6193
▁auction	-11.6193
▁autopsy	-11.6193
▁azog	-11.6193
▁baghdad	-11.6193
▁bahama	-11.6193
▁beijing	-11.6193
▁berklee	-11.6193
▁biscuito	-11.6193
▁blijf	-11.6193
▁blitz	-11.6193
▁bonanza	-11.6193
▁boulevard	-11.6193
▁bridetobe	-11.6193
▁bruises	-11.6193
▁buzzkill	-11.6193
▁cafeteria	-11.6193
▁cambridge	-11.6193
▁capitana	-11.6193
▁caribbean	-11.6193
▁casino	-11.6193
▁casket	-11.6193
▁cassiopeia	-11.6193
▁caution	-11.6193
▁chauffeur	-11.6193
▁cheerleader	-11.6193
▁chittering	-11.6193
▁chortling	-11.6193
▁clatters	-11.6193
▁cologne	-11.6193
▁colombia	-11.6193
▁confine	-11.6193
▁conrade	-11.6193
▁consulate	-11.6193
▁cosmonaut	-11.6193
▁crawdad	-11.6193
▁creativity	-11.6193
▁credential	-11.6193
▁critter	-11.6193
▁crumple	-11.6193
▁cucumber	-11.6193
▁declaration	-11.6193
▁dedication	-11.6193
▁defensive	-11.6193
▁deshawn	-11.6193
▁diptet	-11.6193
▁dissolve	-11.6193
▁dissuade	-11.6193
▁doggychop	-11.6193
▁doilies	-11.6193
▁dongdongdong	-11.6193
▁dwarvish	-11.6193
▁echoes	-11.6193
▁emerald	-11.6193
▁enslave	-11.6193
▁enteprise	-11.6193
▁erfgenaam	-11.6193
▁erupted	-11.6193
▁eulogy	-11.6193
▁evolving	-11.6193
▁explore	-11.6193
▁extinguish	-11.6193
▁eyelids	-11.6193
▁facial	-11.6193
▁farfetched	-11.6193
▁february	-11.6193
▁ferrari	-11.6193
▁ferret	-11.6193
▁frostwolf	-11.6193
▁frostwolves	-11.6193
▁gadget	-11.6193
▁gebruiken	-11.6193
▁gedroomd	-11.6193
▁gefeliciteerd	-11.6193
▁generosity	-11.6193
▁georgia	-11.6193
▁gridlock	-11.6193
▁gucci	-11.6193
▁hendrix	-11.6193
▁highpitch	-11.6193
▁houseguest	-11.6193
▁identification	-11.6193
▁imbecile	-11.6193
▁incorrect	-11.6193
▁indestructible	-11.6193
▁infestation	-11.6193
▁infinities	-11.6193
▁infirm	-11.6193
▁insanity	-11.6193
▁instrument	-11.6193
▁interfere	-11.6193
▁intruder	-11.6193
▁invoke	-11.6193
▁jeopard	-11.6193
▁jewellery	-11.6193
▁kikk	-11.6193
▁knitting	-11.6193
▁kremlin	-11.6193
▁kuwait	-11.6193
▁lahiri	-11.6193
▁laxative	-11.6193
▁leprechaun	-11.6193
▁leukemia	-11.6193
▁manipulate	-11.6193
▁maserati	-11.6193
▁mcqueen	-11.6193
▁medieval	-11.6193
▁merchandise	-11.6193
▁michelangelo	-11.6193
▁millennium	-11.6193
▁miraculous	-11.6193
▁monopoly	-11.6193
▁muffet	-11.6193
▁neptune	-11.6193
▁obituary	-11.6193
▁oblige	-11.6193
▁obstacle	-11.6193
▁offshore	-11.6193
▁offspring	-11.6193
▁omhoog	-11.6193
▁oregon	-11.6193
▁pantheon	-11.6193
▁parameter	-11.6193
▁pasquale	-11.6193
▁pedestrian	-11.6193
▁petroleum	-11.6193
▁pezzulo	-11.6193
▁pharaoh	-11.6193
▁philadelphia	-11.6193
▁physicist	-11.6193
▁piazza	-11.6193
▁plumbing	-11.6193
▁practicing	-11.6193
▁precaution	-11.6193
▁primitive	-11.6193
▁prototype	-11.6193
▁psychiatric	-11.6193
▁puppysnap	-11.6193
▁qualify	-11.6193
▁qualities	-11.6193
▁quileute	-11.6193
▁rafael	-11.6193
▁rambling	-11.6193
▁ramsey	-11.6193
▁rebellion	-11.6193
▁regulate	-11.6193
▁reuben	-11.6193
▁reynolds	-11.6193
▁rishkov	-11.6193
▁russell	-11.6193
▁saintsulpice	-11.6193
▁scarborough	-11.6193
▁scoop	-11.6193
▁shylock	-11.6193
▁slouch	-11.6193
▁snitch	-11.6193
▁snuck	-11.6193
▁somewhat	-11.6193
▁soothing	-11.6193
▁sovereign	-11.6193
▁spectro	-11.6193
▁strumming	-11.6193
▁submarine	-11.6193
▁sufficient	-11.6193
▁suicidal	-11.6193
▁syndrome	-11.6193
▁technologie	-11.6193
▁tengallon	-11.6193
▁theoretically	-11.6193
▁transducing	-11.6193
▁trevor	-11.6193
▁tsunami	-11.6193
▁umbrella	-11.6193
▁unnecessary	-11.6193
▁unpainted	-11.6193
▁urinating	-11.6193
▁vandaag	-11.6193
▁vengeance	-11.6193
▁veracruz	-11.6193
▁vocalizing	-11.6193
▁vreugde	-11.6193
▁vroeg	-11.6193
▁wagner	-11.6193
▁warfare	-11.6193
▁watanabe	-11.6193
▁wheelchair	-11.6193
▁withdraw	-11.6193
▁womb	-11.6193
▁woorden	-11.6193
▁wrestling	-11.6193
▁youtube	-11.6193
avond	-11.6193
eductive	-11.6193
hearted	-11.6193
▁alumn	-11.6193
▁bonnie	-11.6193
▁bronco	-11.6193
▁burial	-11.6193
▁category	-11.6193
▁curtsy	-11.6193
▁disdain	-11.6193
▁dissect	-11.6193
▁flemming	-11.6193
▁gebeur	-11.6193
▁gupta	-11.6193
▁intellect	-11.6193
▁itsits	-11.6193
▁juicy	-11.6193
▁kensington	-11.6193
▁leuk	-11.6193
▁outcome	-11.6193
▁paradise	-11.6193
▁parrot	-11.6193
▁payroll	-11.6193
▁pencil	-11.6193
▁predator	-11.6193
▁prosper	-11.6193
▁psyche	-11.6193
▁ravish	-11.6193
▁rosenberg	-11.6193
▁spassky	-11.6193
▁strict	-11.6193
▁temperament	-11.6193
▁threepio	-11.6193
▁thuis	-11.6193
▁tierra	-11.6193
▁verrassing	-11.6193
▁vicki	-11.6193
▁warlock	-11.6193
apocalyp	-11.6193
inhabit	-11.6193
▁alumnae	-11.6193
▁anduin	-11.6193
▁bleak	-11.6193
▁bmw	-11.6193
▁carriage	-11.6193
▁cherry	-11.6193
▁dexter	-11.6193
▁fenway	-11.6193
▁gluten	-11.6193
▁huddl	-11.6193
▁jimmie	-11.6193
▁keef	-11.6193
▁muller	-11.6193
▁purga	-11.6193
▁reckless	-11.6193
▁reenact	-11.6193
▁refugee	-11.6193
▁savior	-11.6193
▁seatbelt	-11.6193
▁simeon	-11.6193
▁spooky	-11.6193
▁stimulat	-11.6193
▁vicky	-11.6193
▁woude	-11.6193
▁cultural	-11.6193
▁permit	-11.6193
▁crashlanded	-11.6193
▁edison	-11.6193
▁embele	-11.6193
▁heathen	-11.6193
▁info	-11.6193
▁knave	-11.6193
▁scam	-11.6193
▁scheme	-11.6193
▁stuttering	-11.6193
▁debris	-11.6193
▁evelle	-11.6193
▁stranded	-11.6193
▁absence	-11.6193
▁draka	-11.6193
▁ponies	-11.6193
▁seduce	-11.6193
▁swimsuit	-11.6193
▁trek	-11.6193
▁tyrel	-11.6193
▁collide	-11.6193
▁copper	-11.6193
▁opportunities	-11.6193
▁trilling	-11.6193
▁contempt	-11.6193
▁coroner	-11.6193
▁freddie	-11.6193
▁items	-11.6193
▁quarrel	-11.6193
▁ahmm	-11.6193
▁automatic	-11.6193
▁denied	-11.6193
▁kelt	-11.6193
▁repuls	-11.6193
▁tolerate	-11.6193
▁durin	-11.6193
▁fascis	-11.6193
▁francesca	-11.6193
▁gracie	-11.6193
▁oldtimer	-11.6193
▁alaska	-11.6193
▁crave	-11.6193
▁attribute	-11.6193
▁emerson	-11.6193
▁handicap	-11.6193
▁sculpture	-11.6193
itude	-11.6193
▁llane	-11.6193
▁luncheon	-11.6193
▁pennyways	-11.6193
▁denial	-11.6193
▁drafted	-11.6193
▁reece	-11.6193
▁refract	-11.6193
▁signori	-11.6193
▁huntsmen	-11.6193
▁menace	-11.6193
▁modification	-11.6193
▁nigel	-11.6193
▁wakita	-11.6193
▁beginnen	-11.6193
▁snatch	-11.6193
▁dispose	-11.6193
▁estimate	-11.6193
▁narrow	-11.6193
▁voyage	-11.6193
▁automobile	-11.6193
▁bouquet	-11.6193
▁pillars	-11.6193
▁smits	-11.6193
▁oven	-11.6193
▁scumbag	-11.6193
▁bulgari	-11.6193
▁specs	-11.6193
▁sync	-11.6193
▁slop	-11.6193
▁mercenar	-11.6193
▁oates	-11.6193
▁mingle	-11.6193
▁crust	-11.6193
▁ignorant	-11.6193
▁blouse	-11.6193
▁phillip	-11.6193
▁plague	-11.6193
▁retina	-11.6193
length	-11.6193
▁slick	-11.6193
▁havoc	-11.6193
▁banner	-11.6193
▁annihilation	-11.6193
▁appreciation	-11.6193
▁compound	-11.6193
▁icu	-11.6193
▁whiff	-11.6193
▁troubling	-11.6193
▁civilization	-11.6193
▁slipping	-11.6193
▁grabbing	-11.6193
▁unharmed	-11.6193
▁creator	-11.6193
▁elkaar	-11.6193
▁pension	-11.6193
▁income	-11.6193
▁warehouse	-11.6193
▁pond	-11.6193
▁oppose	-11.6193
▁chimp	-11.6193
▁seks	-11.6193
▁dunham	-11.6193
▁exgirlfriend	-11.6193
▁oyster	-11.6193
okken	-11.6193
▁complication	-11.6193
▁underworld	-11.6193
▁whining	-11.6193
▁wreak	-11.6193
▁baldwin	-11.6193
▁decaf	-11.6193
▁mineral	-11.6193
▁consciousness	-11.6193
▁geleden	-11.6193
▁paranoi	-11.6193
▁outrun	-11.6193
▁baggia	-11.6193
▁headlines	-11.6193
▁quiver	-11.6193
▁antonio	-11.6193
▁cyber	-11.6193
dfather	-11.6193
▁brandnew	-11.6193
▁cornfield	-11.6193
▁visible	-11.6193
hall	-11.6193
▁greg	-11.6193
▁anxious	-11.6193
▁sideways	-11.6193
▁alibi	-11.6194
▁exwife	-11.6194
ntangle	-11.6194
polis	-11.6194
▁saturation	-11.6194
▁gallery	-11.6194
▁honger	-11.6194
▁apparel	-11.6194
▁ceo	-11.6194
▁commence	-11.6194
▁steer	-11.6194
▁expectations	-11.6194
▁medford	-11.6194
▁babar	-11.6194
▁chopping	-11.6194
talia	-11.6194
▁bluff	-11.6194
▁dramatic	-11.6194
▁tread	-11.6194
▁rooftop	-11.6194
▁zorgen	-11.6194
▁teenax	-11.6194
probable	-11.6194
▁parole	-11.6194
▁casa	-11.6194
▁eaux	-11.6194
▁tummy	-11.6194
▁revel	-11.6194
▁paso	-11.6194
▁armour	-11.6194
▁mutin	-11.6194
▁nadine	-11.6194
▁amazement	-11.6194
▁rightfully	-11.6194
▁panhead	-11.6194
▁stutters	-11.6194
▁pryde	-11.6194
▁studio	-11.6194
▁elvis	-11.6194
▁ouch	-11.6194
▁whereas	-11.6194
▁zipper	-11.6194
▁encode	-11.6194
▁syd	-11.6194
fusion	-11.6194
▁flick	-11.6194
▁elementary	-11.6194
▁trudy	-11.6195
▁patsy	-11.6195
▁quack	-11.6195
▁norda	-11.6195
▁cried	-11.6195
▁singularity	-11.6195
▁frantic	-11.6195
▁slack	-11.6195
▁racist	-11.6195
▁jewish	-11.6195
▁sublevel	-11.6195
▁triang	-11.6195
▁philosopher	-11.6195
▁harness	-11.6195
▁soap	-11.6195
▁prado	-11.6195
▁shortcut	-11.6195
▁rotting	-11.6195
▁rue	-11.6195
▁winchester	-11.6195
▁hiya	-11.6195
▁assemblyman	-11.6195
exap	-11.6195
▁blake	-11.6195
▁posers	-11.6195
▁economic	-11.6195
▁tinder	-11.6195
▁tedious	-11.6195
▁courtney	-11.6195
▁meow	-11.6195
▁steed	-11.6196
▁bugging	-11.6196
▁disney	-11.6196
▁padre	-11.6196
▁haircut	-11.6196
▁snag	-11.6196
▁hathaway	-11.6196
▁hollow	-11.6196
▁alek	-11.6196
▁satisfy	-11.6196
▁selection	-11.6196
▁extraction	-11.6196
▁gangway	-11.6196
▁embarrassment	-11.6196
▁afoot	-11.6196
▁bongo	-11.6196
▁fundamental	-11.6196
▁penetrat	-11.6196
▁verify	-11.6196
▁klau	-11.6196
▁huis	-11.6196
▁kunt	-11.6196
▁brutality	-11.6196
▁preferred	-11.6196
▁vials	-11.6197
▁corruption	-11.6197
▁tasting	-11.6197
▁alec	-11.6197
▁enforce	-11.6197
▁plato	-11.6197
▁punkass	-11.6197
▁awhile	-11.6197
▁rookie	-11.6197
▁cupboard	-11.6197
▁supervisor	-11.6197
▁shaneequa	-11.6197
donna	-11.6197
▁dawg	-11.6197
▁implicated	-11.6197
▁turf	-11.6197
urging	-11.6197
▁worthwhile	-11.6197
nfl	-11.6197
▁scum	-11.6197
▁partnership	-11.6197
▁sector	-11.6197
▁upsetting	-11.6197
▁wireless	-11.6197
▁bidet	-11.6198
▁classroom	-11.6198
cou	-11.6198
▁cattle	-11.6198
▁faking	-11.6198
▁sterk	-11.6198
▁doover	-11.6198
▁outline	-11.6198
▁heather	-11.6198
ulating	-11.6198
▁barber	-11.6198
▁tux	-11.6198
▁hallowe	-11.6198
rink	-11.6198
▁geology	-11.6198
▁fever	-11.6198
▁thrive	-11.6198
▁hunk	-11.6198
▁renew	-11.6198
▁gins	-11.6198
▁whup	-11.6199
▁purge	-11.6199
▁decreases	-11.6199
▁scavenger	-11.6199
▁ratings	-11.6199
endell	-11.6199
▁acquainted	-11.6199
▁manifest	-11.6199
▁syrup	-11.6199
page	-11.6199
▁northwest	-11.6199
▁programming	-11.6199
▁unfold	-11.6199
▁fern	-11.62
▁florence	-11.62
▁dope	-11.62
▁hiring	-11.62
▁sportster	-11.62
▁blanket	-11.62
▁mega	-11.62
▁whirl	-11.62
▁hydrant	-11.62
▁cotton	-11.62
▁glance	-11.62
▁loft	-11.6201
▁leche	-11.6201
▁lundy	-11.6201
▁psst	-11.6201
▁caption	-11.6201
band	-11.6201
▁noem	-11.6201
▁verge	-11.6201
▁demonstrate	-11.6201
authorized	-11.6201
▁cathy	-11.6202
▁surfng	-11.6202
▁fumble	-11.6202
▁hardware	-11.6202
▁prego	-11.6202
▁trippin	-11.6202
▁rebel	-11.6202
▁vinden	-11.6202
▁tull	-11.6202
▁princeton	-11.6202
▁heet	-11.6202
▁seaboard	-11.6202
▁funki	-11.6202
▁merci	-11.6202
▁legos	-11.6203
▁cashier	-11.6203
▁sundown	-11.6203
▁pathway	-11.6203
▁pub	-11.6203
▁hopping	-11.6203
▁braz	-11.6203
▁voel	-11.6203
▁airfield	-11.6204
▁sketches	-11.6204
▁tango	-11.6204
▁capability	-11.6204
▁cruelty	-11.6204
ically	-11.6204
▁conceived	-11.6205
▁stom	-11.6205
marked	-11.6205
▁jj	-11.6205
▁blur	-11.6205
▁headmaster	-11.6205
▁kira	-11.6205
▁eyeball	-11.6206
▁faraway	-11.6206
speed	-11.6206
▁stack	-11.6207
▁gill	-11.6207
▁thug	-11.6207
talian	-11.6208
▁moat	-11.6208
▁gewe	-11.6208
▁holla	-11.6209
▁booth	-11.6209
▁sitwell	-11.6209
antine	-11.6209
▁condemned	-11.621
▁mime	-11.621
▁vowel	-11.621
▁chow	-11.621
▁junction	-11.621
▁download	-11.621
▁jongen	-11.6211
▁batch	-11.6211
▁prediction	-11.6211
train	-11.6211
▁platz	-11.6211
▁delbert	-11.6211
▁confession	-11.6211
▁uncha	-11.6212
▁enact	-11.6212
▁rumble	-11.6212
▁neef	-11.6212
▁sadness	-11.6212
▁lifestyle	-11.6212
izzy	-11.6212
▁delta	-11.6213
faced	-11.6213
▁betting	-11.6213
▁controller	-11.6213
▁oogie	-11.6213
▁opge	-11.6213
▁cosmo	-11.6213
▁atomic	-11.6213
▁supportive	-11.6213
▁majority	-11.6214
▁forgiveness	-11.6214
▁accidentally	-11.6214
▁asian	-11.6215
▁sheer	-11.6215
▁wedge	-11.6215
▁cds	-11.6215
▁exile	-11.6216
▁warmth	-11.6216
▁knockout	-11.6216
▁investor	-11.6217
▁anders	-11.6217
▁vibe	-11.6218
▁fitting	-11.6218
▁smartass	-11.6219
▁christianity	-11.6219
▁transmitter	-11.6219
▁crunchy	-11.6219
▁executed	-11.6219
▁porters	-11.6219
elena	-11.6219
▁kont	-11.622
▁lease	-11.622
oorde	-11.6221
▁abused	-11.6221
▁hinge	-11.6221
▁initiated	-11.6221
▁scattered	-11.6221
▁haunted	-11.6221
▁invaded	-11.6221
▁rejected	-11.6221
▁broad	-11.6222
▁darkling	-11.6222
▁assemble	-11.6222
▁hugh	-11.6223
ever	-11.6223
▁galactic	-11.6223
▁kiddo	-11.6223
▁colin	-11.6224
▁hover	-11.6224
▁fitch	-11.6224
▁heerse	-11.6226
▁annu	-11.6226
▁lace	-11.6226
▁proc	-11.6228
▁provoked	-11.6228
▁bel	-11.6228
▁sweater	-11.6229
▁examined	-11.6229
tized	-11.623
▁tapping	-11.623
▁dime	-11.623
▁starry	-11.623
▁cafe	-11.623
▁nion	-11.623
▁fig	-11.6231
▁doet	-11.6231
▁fowler	-11.6231
▁hamburger	-11.6231
haired	-11.6231
▁brightest	-11.6231
▁truthful	-11.6231
▁meeker	-11.6232
▁orgasms	-11.6232
▁paramedics	-11.6232
▁flawed	-11.6233
▁perverted	-11.6233
▁spoiled	-11.6233
▁suspended	-11.6233
▁entit	-11.6234
▁stream	-11.6234
idge	-11.6234
▁vind	-11.6234
▁stem	-11.6235
▁ants	-11.6235
ifa	-11.6235
▁squad	-11.6235
▁requirement	-11.6235
▁dashing	-11.6236
▁presentation	-11.6236
▁pitcher	-11.6237
▁whine	-11.6238
cup	-11.624
▁obsessing	-11.6241
iberia	-11.6241
▁haz	-11.6243
▁sweaty	-11.6243
▁demo	-11.6243
▁wigging	-11.6243
▁doomed	-11.6244
▁leverage	-11.6246
▁croque	-11.6246
▁disabled	-11.6246
▁flashes	-11.6247
▁spat	-11.6249
▁antique	-11.6249
▁hunger	-11.625
▁universal	-11.625
bet	-11.625
minate	-11.625
uration	-11.625
▁zin	-11.6252
▁expanding	-11.6253
▁stewarding	-11.6253
▁overex	-11.6253
▁wired	-11.6253
▁peel	-11.6254
▁moss	-11.6254
▁trage	-11.6256
▁inherited	-11.6256
▁flown	-11.6256
hair	-11.6256
▁sunk	-11.6258
draft	-11.6258
▁handful	-11.6259
▁graduated	-11.6261
ished	-11.6261
▁vanished	-11.6262
▁wiser	-11.6262
▁nagel	-11.6263
▁rapidly	-11.6264
▁hornet	-11.6264
▁household	-11.6265
jay	-11.6265
▁collapsed	-11.6267
▁respectable	-11.6268
▁papi	-11.6268
▁switches	-11.6269
▁vomiting	-11.627
▁gent	-11.6271
▁bk	-11.6272
▁gap	-11.6272
gegaan	-11.6273
▁stan	-11.6273
▁stirr	-11.6273
▁related	-11.6273
distribute	-11.6275
▁clang	-11.6275
▁yuck	-11.6275
▁constantly	-11.6276
▁detected	-11.6278
▁lick	-11.6279
▁fuckin	-11.6281
▁cowardly	-11.6281
illa	-11.6282
▁shitting	-11.6282
ucat	-11.6288
▁predicted	-11.6288
▁sma	-11.6288
▁padd	-11.629
▁deployed	-11.629
▁recruited	-11.629
▁altered	-11.629
▁herd	-11.629
▁ledge	-11.6291
▁dryer	-11.6291
pressuriz	-11.6291
▁buyers	-11.6293
aaah	-11.6294
▁oni	-11.6296
▁restless	-11.6296
▁affected	-11.6297
▁spine	-11.6298
clover	-11.6299
▁shrink	-11.63
▁stabb	-11.63
▁topic	-11.6301
▁gallons	-11.6301
▁squirrels	-11.6301
▁consumes	-11.6301
▁possessed	-11.6302
▁invested	-11.6302
una	-11.6305
▁brighter	-11.6308
▁realm	-11.6309
▁hither	-11.6311
▁fastest	-11.6311
▁triggered	-11.6313
▁adventurer	-11.6316
▁balanced	-11.6317
▁cutie	-11.6317
▁vanity	-11.6319
▁disturbing	-11.6322
▁brew	-11.6323
legge	-11.6323
▁insulted	-11.6325
▁slaughtered	-11.6325
▁delighted	-11.6325
▁trim	-11.6326
▁omen	-11.6328
done	-11.6328
▁delen	-11.6329
▁makeover	-11.633
▁startup	-11.633
▁patiently	-11.633
▁duet	-11.633
powers	-11.6336
▁wrecked	-11.6336
▁vet	-11.6337
▁malfunctioning	-11.6339
▁sweating	-11.6339
▁allied	-11.6339
▁zon	-11.634
▁dialing	-11.6343
ocht	-11.6344
▁blonde	-11.635
fan	-11.6353
▁irritat	-11.6353
▁collecting	-11.6356
▁sever	-11.6356
▁texted	-11.6359
▁messes	-11.636
▁dung	-11.636
▁clank	-11.6361
▁ohhh	-11.6364
▁readers	-11.6365
▁reek	-11.6366
▁servants	-11.6372
▁ankles	-11.6372
▁expenses	-11.6372
▁organisms	-11.6372
▁rodrigues	-11.6372
▁signatures	-11.6372
▁ventures	-11.6372
▁cigars	-11.6372
▁moroes	-11.6372
▁marshals	-11.6372
▁slippers	-11.6372
▁whys	-11.6373
▁bowling	-11.6376
▁lise	-11.6382
▁unpack	-11.6384
▁prey	-11.6384
▁freaky	-11.6384
▁pry	-11.6388
▁heater	-11.639
▁nun	-11.6392
▁lure	-11.6396
▁hike	-11.6398
▁horny	-11.6401
▁oy	-11.6401
▁careless	-11.6402
▁introduced	-11.6404
▁polar	-11.6417
▁honesty	-11.6421
▁blinking	-11.6426
▁greatness	-11.6436
▁pad	-11.6438
▁reservations	-11.6444
▁megans	-11.6444
▁mutters	-11.6444
▁napkins	-11.6444
▁rosarios	-11.6444
▁sharks	-11.6444
▁investigators	-11.6444
▁burner	-11.6446
▁spikes	-11.6447
▁photographer	-11.6454
▁niks	-11.6456
▁conn	-11.6457
▁ideals	-11.6461
oud	-11.6461
▁flowing	-11.6462
rdes	-11.6465
▁sealing	-11.6466
▁quicker	-11.6471
▁washing	-11.6478
▁betraying	-11.6479
orsten	-11.6482
▁tame	-11.649
▁presently	-11.6493
▁uphol	-11.6493
▁vond	-11.6496
▁varie	-11.6499
▁trashed	-11.65
▁twig	-11.65
graph	-11.6501
▁sums	-11.6506
▁proudly	-11.6509
▁shocking	-11.6513
▁teenagers	-11.6516
▁cannibals	-11.6516
▁merchants	-11.6516
▁particles	-11.6516
▁slips	-11.6516
▁curves	-11.6517
▁cured	-11.6518
▁belonged	-11.6518
▁tic	-11.6522
▁ale	-11.6537
▁hardest	-11.6545
▁bothered	-11.6547
▁schaa	-11.6547
▁noted	-11.6552
▁homeless	-11.657
▁lifted	-11.6579
car	-11.659
▁klo	-11.6593
▁camping	-11.6603
▁remained	-11.6605
▁poli	-11.6607
▁bare	-11.6608
ric	-11.6608
▁pra	-11.6611
▁commando	-11.6622
▁lighten	-11.6625
▁appreciated	-11.6625
▁frie	-11.663
▁comedy	-11.6632
▁reminded	-11.6636
▁stillman	-11.6652
▁grap	-11.6661
seed	-11.6665
▁launchy	-11.6671
▁rho	-11.6682
▁jenk	-11.6688
▁sadde	-11.6697
▁maniacal	-11.6743
cyb	-11.6744
bidder	-11.6749
chester	-11.6752
▁decorat	-11.6752
▁zed	-11.6765
▁dub	-11.6766
▁duel	-11.6768
▁elm	-11.6779
▁whil	-11.6796
rious	-11.6803
▁brom	-11.6808
▁gele	-11.6812
arm	-11.6853
gging	-11.6864
▁pul	-11.6879
▁bog	-11.6888
▁iwh	-11.6902
▁announce	-11.6918
loos	-11.6921
mile	-11.6922
rummy	-11.6934
path	-11.6951
▁niko	-11.6953
sale	-11.6971
▁accelerate	-11.6973
▁conclude	-11.6974
▁contribut	-11.6995
▁gev	-11.7006
ante	-11.7007
lore	-11.7028
▁som	-11.7069
▁wip	-11.707
shire	-11.707
▁begon	-11.708
▁cycl	-11.7119
were	-11.7127
▁vali	-11.7139
▁whi	-11.714
▁jap	-11.7151
hor	-11.7154
▁valer	-11.7165
▁var	-11.7178
sustainable	-11.7203
azy	-11.7214
▁measur	-11.7228
▁immun	-11.7229
▁gaze	-11.723
human	-11.7242
▁commoner	-11.7244
gart	-11.7257
▁prec	-11.7262
ots	-11.7264
▁beet	-11.7269
isha	-11.7271
▁beha	-11.7275
▁revolve	-11.7316
▁flu	-11.7331
▁hadd	-11.7335
▁jud	-11.735
▁baller	-11.7352
▁gir	-11.7375
roo	-11.7447
bit	-11.7454
▁infect	-11.7464
que	-11.7471
grim	-11.7474
gram	-11.7476
iger	-11.7496
range	-11.7502
▁tien	-11.7504
▁you	-11.7525
ttle	-11.7567
irth	-11.7586
nks	-11.7605
▁heroic	-11.7628
▁compr	-11.7649
ussen	-11.7661
▁yith	-11.7663
ibut	-11.7685
iq	-11.7689
▁paralyze	-11.7694
▁rustl	-11.7708
▁generat	-11.7722
▁iri	-11.777
ku	-11.7784
ext	-11.7794
mortality	-11.781
into	-11.7812
hink	-11.785
ash	-11.7855
▁zus	-11.7859
▁isob	-11.7863
▁dod	-11.788
▁circ	-11.7889
▁macki	-11.7895
ban	-11.7928
▁unsu	-11.7932
▁poo	-11.7951
▁spina	-11.7954
urban	-11.7977
▁zoek	-11.7984
ask	-11.7988
sque	-11.7998
▁negotiat	-11.8
▁kend	-11.8004
bloed	-11.8012
▁che	-11.802
▁commend	-11.8023
than	-11.8027
▁slug	-11.8047
▁communicat	-11.8098
ager	-11.8115
▁sponsor	-11.812
▁whit	-11.8143
zien	-11.8166
▁mist	-11.8202
▁tw	-11.8205
▁shu	-11.823
▁buzze	-11.8251
▁sif	-11.8257
gain	-11.8301
drum	-11.8307
zonder	-11.8323
unch	-11.8325
▁therm	-11.8361
▁indicat	-11.8362
▁illuminate	-11.8365
immune	-11.8407
▁spic	-11.8413
▁obsess	-11.8463
▁tempe	-11.8465
uga	-11.8486
every	-11.8502
▁craz	-11.8532
▁soak	-11.8561
achi	-11.8562
▁corona	-11.8595
▁loo	-11.8613
ppa	-11.8673
both	-11.8741
mmuni	-11.8742
▁infer	-11.8745
▁frag	-11.875
packing	-11.8763
essa	-11.8775
logical	-11.8777
schi	-11.8791
▁minn	-11.8804
jector	-11.8816
term	-11.8818
▁oude	-11.8819
▁poll	-11.8837
▁micro	-11.8847
▁cum	-11.8883
▁dol	-11.891
▁jab	-11.8938
midd	-11.8944
▁doubl	-11.8947
▁deceiv	-11.8976
▁choos	-11.9052
tonic	-11.9056
▁habitat	-11.9064
▁friggin	-11.907
dacht	-11.9077
ummy	-11.9094
otic	-11.9106
iden	-11.9112
hou	-11.912
▁arab	-11.9157
tto	-11.9161
ector	-11.9169
donalds	-11.9172
▁perish	-11.9179
▁integr	-11.9193
▁siz	-11.9196
older	-11.9212
▁twi	-11.9214
power	-11.9241
▁politic	-11.9243
amos	-11.9249
hic	-11.9253
avari	-11.9269
▁marshal	-11.9276
terre	-11.9281
▁expense	-11.9281
▁rodrigue	-11.9281
▁signature	-11.9281
▁ankle	-11.9281
▁moroe	-11.9282
▁slipper	-11.9282
▁cigar	-11.9282
▁servant	-11.9282
▁venture	-11.9283
▁organism	-11.9284
▁diaper	-11.9288
▁genie	-11.9288
▁puzzle	-11.9289
▁templar	-11.9289
degrad	-11.9293
▁colour	-11.9293
▁goblin	-11.9295
▁eyebrow	-11.9295
▁preparation	-11.9297
▁breast	-11.9298
▁arrow	-11.9298
▁vega	-11.9299
▁consequence	-11.9299
▁fuego	-11.9299
▁locust	-11.93
immer	-11.9301
▁vein	-11.9301
▁rib	-11.9302
▁lei	-11.9303
▁resource	-11.9304
▁cooperat	-11.9305
▁blond	-11.9307
arity	-11.9308
▁chime	-11.9308
▁archive	-11.9308
▁survivor	-11.9308
▁hostage	-11.9314
hold	-11.9315
▁height	-11.9316
▁why	-11.9319
▁toot	-11.9321
▁brut	-11.9321
randy	-11.9324
▁orion	-11.9328
erable	-11.9328
▁boob	-11.9331
ocus	-11.9339
▁involv	-11.9341
ulated	-11.9341
▁legion	-11.9343
▁growl	-11.9348
▁nuke	-11.9352
▁iyo	-11.9357
▁gort	-11.9358
▁customer	-11.9359
▁oop	-11.937
▁ceremoni	-11.937
▁advis	-11.9376
pid	-11.938
▁shrin	-11.9386
▁featur	-11.9387
eaded	-11.9387
▁replica	-11.9389
trader	-11.9392
▁neutral	-11.9395
▁medi	-11.9395
vich	-11.9398
▁skim	-11.9406
▁cere	-11.9411
▁til	-11.9418
▁alo	-11.942
flow	-11.9431
▁mak	-11.9438
abbing	-11.9441
oxi	-11.9442
fish	-11.9444
load	-11.9446
▁acqui	-11.9455
gora	-11.9458
▁bleat	-11.9464
sail	-11.9464
▁slamm	-11.9468
▁trespass	-11.9468
▁compell	-11.947
▁meek	-11.9472
▁engag	-11.9472
▁fowl	-11.9473
▁hamburg	-11.9473
scribe	-11.9475
▁plac	-11.9476
lift	-11.9478
pire	-11.9478
nati	-11.9479
zoek	-11.948
▁compar	-11.9481
▁dip	-11.9482
▁invad	-11.9482
anticipated	-11.9483
productive	-11.9483
▁reject	-11.9483
nuts	-11.9483
▁dash	-11.9484
▁initiat	-11.9484
broad	-11.9485
assemble	-11.9485
galactic	-11.9485
related	-11.9485
cloth	-11.9486
bird	-11.9486
zoo	-11.9486
▁provok	-11.9487
screen	-11.9487
▁attract	-11.9487
corder	-11.9487
safe	-11.9487
qualified	-11.9488
world	-11.9488
wife	-11.9488
grass	-11.9489
century	-11.9489
standing	-11.9489
effect	-11.9489
responsible	-11.9489
bodies	-11.9489
original	-11.9489
kerry	-11.9489
word	-11.9489
teacher	-11.9489
study	-11.9489
floor	-11.949
mouth	-11.949
party	-11.949
chuckles	-11.949
first	-11.949
child	-11.949
pants	-11.949
cold	-11.949
military	-11.9491
▁haunt	-11.9491
thats	-11.9491
piece	-11.9493
▁scatter	-11.9495
horse	-11.9495
▁plea	-11.9496
eaches	-11.9497
took	-11.9497
▁amaze	-11.9497
ello	-11.9497
toxin	-11.9498
▁evolve	-11.9499
wire	-11.95
water	-11.9502
plate	-11.9502
vito	-11.9502
▁pupp	-11.9502
kick	-11.9503
loaded	-11.9506
▁strateg	-11.9506
▁greed	-11.9507
link	-11.9507
▁weave	-11.9508
ficial	-11.9508
leid	-11.9508
▁robber	-11.951
butt	-11.9511
▁electro	-11.9511
▁heavi	-11.9511
▁merc	-11.9512
ounced	-11.9512
▁presiden	-11.9512
▁korea	-11.9512
web	-11.9514
aby	-11.9515
saw	-11.9515
▁arrange	-11.9515
▁jonge	-11.9515
bug	-11.9517
▁decreas	-11.9517
▁marc	-11.9518
long	-11.9518
▁critic	-11.9518
▁secre	-11.9519
ltz	-11.952
tram	-11.9521
▁escalat	-11.9521
▁simulat	-11.9521
▁construct	-11.9521
▁bleach	-11.9522
▁raj	-11.9522
▁destructi	-11.9522
▁econom	-11.9522
▁guld	-11.9522
▁rack	-11.9523
▁oog	-11.9523
▁hobbi	-11.9523
quisit	-11.9523
▁livin	-11.9523
▁august	-11.9523
▁mornin	-11.9523
▁weep	-11.9523
▁scrub	-11.9524
▁isabel	-11.9524
▁cour	-11.9524
onkey	-11.9524
▁regime	-11.9524
▁fortuna	-11.9524
▁whwh	-11.9525
▁admiral	-11.9525
▁punct	-11.9525
terranean	-11.9525
▁liqu	-11.9525
▁empti	-11.9525
achtig	-11.9525
▁roos	-11.9525
historic	-11.9525
▁mcgiv	-11.9526
▁imagina	-11.9526
tachment	-11.9526
▁vertel	-11.9526
▁atom	-11.9526
▁ortho	-11.9526
▁refresh	-11.9526
junct	-11.9526
▁poverty	-11.9526
alimentatie	-11.9526
anguish	-11.9526
boogedyboogedy	-11.9526
discretion	-11.9526
inaugura	-11.9526
snorharen	-11.9526
verwacht	-11.9526
▁abbott	-11.9526
▁abronath	-11.9526
▁acknowledg	-11.9526
▁activities	-11.9526
▁admirabl	-11.9526
▁admiration	-11.9526
▁afghan	-11.9526
▁allfather	-11.9526
▁almighty	-11.9526
▁altitude	-11.9526
▁ambigram	-11.9526
▁ambitious	-11.9526
▁apollo	-11.9526
▁apologizing	-11.9526
▁arsenal	-11.9526
▁artillery	-11.9526
▁aspect	-11.9526
▁association	-11.9526
▁athletic	-11.9526
▁authentic	-11.9526
▁bagpipes	-11.9526
▁bailiff	-11.9526
▁bamboo	-11.9526
▁baptist	-11.9526
▁bazooka	-11.9526
▁beechwood	-11.9526
▁belangrijk	-11.9526
▁betekent	-11.9526
▁beuken	-11.9526
▁beverage	-11.9526
▁biscuits	-11.9526
▁blasphem	-11.9526
▁blijven	-11.9526
▁bodega	-11.9526
▁bonfire	-11.9526
▁bopoto	-11.9526
▁bpositive	-11.9526
▁breastfeed	-11.9526
▁brengt	-11.9526
▁bruid	-11.9526
▁bungalow	-11.9526
▁buonasera	-11.9526
▁buongiorno	-11.9526
▁burroughs	-11.9526
▁bypass	-11.9526
▁calculating	-11.9526
▁caravan	-11.9526
▁casablanca	-11.9526
▁caucasian	-11.9526
▁celestial	-11.9526
▁certificate	-11.9526
▁challenging	-11.9526
▁chelsea	-11.9526
▁chemistry	-11.9526
▁cherub	-11.9526
▁choochoo	-11.9526
▁cinnamon	-11.9526
▁clandestine	-11.9526
▁clarissa	-11.9526
▁cleveland	-11.9526
▁coggan	-11.9526
▁component	-11.9526
▁comprehend	-11.9526
▁concierge	-11.9526
▁confidential	-11.9526
▁confiscated	-11.9526
▁congruent	-11.9526
▁consensus	-11.9526
▁consolidat	-11.9526
▁constellation	-11.9526
▁constituen	-11.9526
▁consummate	-11.9526
▁contemplat	-11.9526
▁convincing	-11.9526
▁cortex	-11.9526
▁corvette	-11.9526
▁counterfeit	-11.9526
▁coyote	-11.9526
▁crawfish	-11.9526
▁cspan	-11.9526
▁cucina	-11.9526
▁cynical	-11.9526
▁cynicism	-11.9526
▁delacorte	-11.9526
▁delegate	-11.9526
▁delegation	-11.9526
▁delgado	-11.9526
▁desperation	-11.9526
▁despicable	-11.9526
▁diagramma	-11.9526
▁diarrhoea	-11.9526
▁dimension	-11.9526
▁disadvantage	-11.9526
▁discard	-11.9526
▁discontinue	-11.9526
▁discreet	-11.9526
▁disobedien	-11.9526
▁disposal	-11.9526
▁distinguish	-11.9526
▁distorted	-11.9526
▁divinity	-11.9526
▁dogcatchers	-11.9526
▁dolphins	-11.9526
▁dondervogel	-11.9526
▁dreadnought	-11.9526
▁drooling	-11.9526
▁drought	-11.9526
▁dwergi	-11.9526
▁enlarge	-11.9526
▁epicenter	-11.9526
▁equator	-11.9526
▁espresso	-11.9526
▁euphegenia	-11.9526
▁evaluation	-11.9526
▁exclaims	-11.9526
▁expired	-11.9526
▁exploding	-11.9526
▁fascinated	-11.9526
▁fingernails	-11.9526
▁firecracker	-11.9526
▁flavaflav	-11.9526
▁fleurdelis	-11.9526
▁forensic	-11.9526
▁forgave	-11.9526
▁fountain	-11.9526
▁fracture	-11.9526
▁furnace	-11.9526
▁furzee	-11.9526
▁garrison	-11.9526
▁georgie	-11.9526
▁gewoon	-11.9526
▁gezicht	-11.9526
▁ghastly	-11.9526
▁giggins	-11.9526
▁gloria	-11.9526
▁glorieu	-11.9526
▁gokarts	-11.9526
▁graffiti	-11.9526
▁greenwich	-11.9526
▁grushkov	-11.9526
▁gullible	-11.9526
▁gypsy	-11.9526
▁haiku	-11.9526
▁halfhour	-11.9526
▁hancock	-11.9526
▁headphones	-11.9526
▁hemisphere	-11.9526
▁henceforth	-11.9526
▁hernandez	-11.9526
▁historian	-11.9526
▁histories	-11.9526
▁horrific	-11.9526
▁hurley	-11.9526
▁hygiene	-11.9526
▁impetuous	-11.9526
▁inaccurate	-11.9526
▁incentive	-11.9526
▁inconvenient	-11.9526
▁indebted	-11.9526
▁infiltrat	-11.9526
▁inscription	-11.9526
▁insomnia	-11.9526
▁inspiring	-11.9526
▁instructed	-11.9526
▁interject	-11.9526
▁intimidate	-11.9526
▁inviting	-11.9526
▁juggling	-11.9526
▁kaartjes	-11.9526
▁kamehameha	-11.9526
▁kassimatis	-11.9526
▁kovacs	-11.9526
▁laoghaire	-11.9526
▁leopard	-11.9526
▁lnteresting	-11.9526
▁lubricant	-11.9526
▁luminosity	-11.9526
▁lynch	-11.9526
▁maddison	-11.9526
▁majordomo	-11.9526
▁maneuver	-11.9526
▁mclntyre	-11.9526
▁menehune	-11.9526
▁microscop	-11.9526
▁milinov	-11.9526
▁millennia	-11.9526
▁minimal	-11.9526
▁minnesota	-11.9526
▁mirembe	-11.9526
▁miriam	-11.9526
▁mischief	-11.9526
▁mistletoe	-11.9526
▁moneypenny	-11.9526
▁moriarty	-11.9526
▁mumbling	-11.9526
▁myspace	-11.9526
▁natuurlijk	-11.9526
▁nebraska	-11.9526
▁necessity	-11.9526
▁necromancer	-11.9526
▁neglect	-11.9526
▁november	-11.9526
▁nutmeg	-11.9526
▁oahu	-11.9526
▁obituaries	-11.9526
▁obtain	-11.9526
▁oldfashioned	-11.9526
▁ontdekt	-11.9526
▁oranjee	-11.9526
▁outnumber	-11.9526
▁outsmart	-11.9526
▁overexcited	-11.9526
▁overreact	-11.9526
▁pacifist	-11.9526
▁papajohn	-11.9526
▁papyrus	-11.9526
▁pentacle	-11.9526
▁pentagram	-11.9526
▁pharmaceutical	-11.9526
▁pixie	-11.9526
▁postponed	-11.9526
▁practise	-11.9526
▁practitioner	-11.9526
▁provost	-11.9526
▁psylocke	-11.9526
▁pudgie	-11.9526
▁pussycat	-11.9526
▁quadrant	-11.9526
▁quincy	-11.9526
▁rainbow	-11.9526
▁raleigh	-11.9526
▁reconcile	-11.9526
▁redgick	-11.9526
▁regroup	-11.9526
▁relentless	-11.9526
▁rescuing	-11.9526
▁resembl	-11.9526
▁retained	-11.9526
▁retrieving	-11.9526
▁rhetoric	-11.9526
▁safeguard	-11.9526
▁sassmouthing	-11.9526
▁savrille	-11.9526
▁scaffold	-11.9526
▁scissors	-11.9526
▁segno	-11.9526
▁shakespeare	-11.9526
▁shelby	-11.9526
▁shenanigans	-11.9526
▁sherlock	-11.9526
▁shrapnel	-11.9526
▁skeptical	-11.9526
▁skydiving	-11.9526
▁smithsonian	-11.9526
▁snoke	-11.9526
▁snorts	-11.9526
▁snuggl	-11.9526
▁solenoid	-11.9526
▁solicit	-11.9526
▁soprano	-11.9526
▁sought	-11.9526
▁subscription	-11.9526
▁substantial	-11.9526
▁subversive	-11.9526
▁suction	-11.9526
▁synthesize	-11.9526
▁systolic	-11.9526
▁tarconi	-11.9526
▁thatthat	-11.9526
▁theatre	-11.9526
▁thermometer	-11.9526
▁tiptoeing	-11.9526
▁titties	-11.9526
▁tminus	-11.9526
▁tranquil	-11.9526
▁trouwd	-11.9526
▁tuxedos	-11.9526
▁twinkie	-11.9526
▁twinkle	-11.9526
▁unattended	-11.9526
▁unfair	-11.9526
▁unhunh	-11.9526
▁unmistakable	-11.9526
▁unscramble	-11.9526
▁unworth	-11.9526
▁velocities	-11.9526
▁verhinder	-11.9526
▁vertrekt	-11.9526
▁verzorg	-11.9526
▁vijf	-11.9526
▁visioen	-11.9526
▁volcano	-11.9526
▁volleyball	-11.9526
▁vultures	-11.9526
▁wardrobe	-11.9526
▁welterusten	-11.9526
▁werewolves	-11.9526
▁whatshername	-11.9526
▁whinnies	-11.9526
▁whiskey	-11.9526
▁wilhelm	-11.9526
▁wilkensen	-11.9526
▁wobbly	-11.9526
▁woohoo	-11.9526
▁wskid	-11.9526
▁zakarewski	-11.9526
▁zwaar	-11.9526
▁advocat	-11.9526
▁aristocrat	-11.9526
▁cactus	-11.9526
▁ecsta	-11.9526
▁justify	-11.9526
▁knuckle	-11.9526
▁neigh	-11.9526
▁optimis	-11.9526
▁sulph	-11.9526
▁superhero	-11.9526
▁amigo	-11.9526
▁angmar	-11.9526
▁bandaid	-11.9526
▁bubbly	-11.9526
▁chrissake	-11.9526
▁cinema	-11.9526
▁cuticles	-11.9526
▁darren	-11.9526
▁declined	-11.9526
▁dishonor	-11.9526
▁distill	-11.9526
▁dylan	-11.9526
▁emblem	-11.9526
▁empathy	-11.9526
▁endeavo	-11.9526
▁essence	-11.9526
▁fetish	-11.9526
▁gloat	-11.9526
▁honeycutt	-11.9526
▁inhabitant	-11.9526
▁jammies	-11.9526
▁knapsack	-11.9526
▁koji	-11.9526
▁lchaim	-11.9526
▁lydie	-11.9526
▁mcgoo	-11.9526
▁medallion	-11.9526
▁morgan	-11.9526
▁nominal	-11.9526
▁osteosarcoma	-11.9526
▁penrose	-11.9526
▁perceive	-11.9526
▁phew	-11.9526
▁purchase	-11.9526
▁radiate	-11.9526
▁reeves	-11.9526
▁reinforce	-11.9526
▁ronnie	-11.9526
▁sanctioned	-11.9526
▁sloppy	-11.9526
▁starvation	-11.9526
▁stefan	-11.9526
▁supplement	-11.9526
▁symphon	-11.9526
▁torches	-11.9526
▁tulip	-11.9526
▁veteran	-11.9526
▁voeten	-11.9526
▁watchtower	-11.9526
▁wrench	-11.9526
▁zealot	-11.9526
franchise	-11.9526
▁ahchoo	-11.9526
▁ashore	-11.9526
▁autonom	-11.9526
▁bookstore	-11.9526
▁brothel	-11.9526
▁cronan	-11.9526
▁dadadada	-11.9526
▁deciding	-11.9526
▁doomsday	-11.9526
▁emptyhanded	-11.9526
▁fancies	-11.9526
▁finland	-11.9526
▁fishermen	-11.9526
▁housepets	-11.9526
▁hysterical	-11.9526
▁impotent	-11.9526
▁intact	-11.9526
▁ireland	-11.9526
▁misfit	-11.9526
▁moisture	-11.9526
▁neural	-11.9526
▁quiera	-11.9526
▁reaper	-11.9526
▁refrigerator	-11.9526
▁sancti	-11.9526
▁sierra	-11.9526
▁vapori	-11.9526
▁vesey	-11.9526
▁welcoming	-11.9526
▁whatsoever	-11.9526
mobilize	-11.9526
orpheus	-11.9526
▁beltzer	-11.9526
▁blazing	-11.9526
▁deranged	-11.9526
▁fiesta	-11.9526
▁gallant	-11.9526
▁horizontal	-11.9526
▁hypertensi	-11.9526
▁index	-11.9526
▁mannelijk	-11.9526
▁meddle	-11.9526
▁outdoors	-11.9526
▁piggy	-11.9526
▁poodle	-11.9526
▁robbin	-11.9526
▁surgical	-11.9526
ughn	-11.9526
▁ferri	-11.9526
▁forcing	-11.9526
▁gossip	-11.9526
▁insufficien	-11.9526
▁kobe	-11.9526
▁rapper	-11.9526
▁resort	-11.9526
▁rigged	-11.9526
▁surgeries	-11.9526
druk	-11.9526
pregna	-11.9526
▁donde	-11.9526
▁draai	-11.9526
▁kike	-11.9526
▁riddance	-11.9526
▁salary	-11.9526
▁squi	-11.9526
▁melod	-11.9526
▁segment	-11.9526
▁axis	-11.9526
▁contracepti	-11.9526
▁marilyn	-11.9526
▁pollute	-11.9526
▁seventeen	-11.9526
▁tyrann	-11.9526
analyst	-11.9526
▁chomp	-11.9526
▁emissions	-11.9526
▁guidelines	-11.9526
▁pincer	-11.9526
▁primates	-11.9526
▁tinashe	-11.9526
▁waldorf	-11.9526
▁arteries	-11.9526
▁herpes	-11.9526
▁microwave	-11.9526
▁pavement	-11.9526
▁toshi	-11.9526
▁aeroplane	-11.9526
▁blister	-11.9526
▁cavern	-11.9526
▁checkmate	-11.9526
▁gorilla	-11.9526
iterate	-11.9526
▁angst	-11.9526
▁carcass	-11.9526
▁hoog	-11.9526
▁ihey	-11.9526
▁iooking	-11.9526
▁ipad	-11.9526
▁tribun	-11.9526
▁urine	-11.9526
complicate	-11.9526
▁forcibl	-11.9526
▁traditie	-11.9526
▁aerosmith	-11.9526
▁deduce	-11.9526
▁tumor	-11.9526
bonan	-11.9526
▁enchanting	-11.9526
blossom	-11.9526
▁atrocities	-11.9526
▁overdose	-11.9526
▁indoors	-11.9526
▁pilgrim	-11.9526
▁readiness	-11.9526
▁senorita	-11.9526
▁afterlife	-11.9526
▁oneonone	-11.9526
▁strawberries	-11.9526
▁cleo	-11.9526
▁politicians	-11.9526
▁silicon	-11.9526
▁churn	-11.9526
▁beginners	-11.9526
▁beloof	-11.9526
▁innovat	-11.9526
▁withhold	-11.9526
▁ambien	-11.9526
▁begged	-11.9526
▁crucifix	-11.9526
▁grotesque	-11.9526
▁bloodshed	-11.9526
▁deenz	-11.9526
knit	-11.9526
▁memorize	-11.9526
▁nessie	-11.9526
▁overlapp	-11.9526
▁swindle	-11.9526
▁nipp	-11.9526
▁gordon	-11.9526
▁mushroom	-11.9526
▁retarded	-11.9526
trouwe	-11.9526
wave	-11.9526
▁funnel	-11.9526
▁distorting	-11.9526
▁krause	-11.9526
▁prominent	-11.9526
▁clinic	-11.9526
▁acid	-11.9526
▁rivington	-11.9526
▁tinkl	-11.9526
▁neighbourhood	-11.9526
▁bundle	-11.9526
▁incurred	-11.9526
▁spreken	-11.9526
imaginative	-11.9526
▁constitution	-11.9526
▁jeebs	-11.9526
▁shelv	-11.9526
▁currenc	-11.9526
▁governess	-11.9526
▁unseen	-11.9526
▁eugen	-11.9526
▁quaint	-11.9526
▁danvers	-11.9526
▁squadron	-11.9526
▁hardliner	-11.9526
▁gulp	-11.9526
▁lipstick	-11.9526
▁strawberry	-11.9526
▁witchcraft	-11.9526
▁diagnosis	-11.9526
▁foreplay	-11.9526
▁trading	-11.9526
▁ukrainian	-11.9526
▁cdc	-11.9526
▁rumlow	-11.9526
▁wreath	-11.9526
portrait	-11.9526
▁barkley	-11.9526
▁concentration	-11.9526
▁intersection	-11.9526
▁kirill	-11.9526
strasse	-11.9527
▁verkoop	-11.9527
▁horrifying	-11.9527
▁koi	-11.9527
▁simpson	-11.9527
▁syllabus	-11.9527
▁milner	-11.9527
▁peepee	-11.9527
▁treeouts	-11.9527
▁charley	-11.9527
▁mcflurby	-11.9527
▁burp	-11.9527
▁stiff	-11.9527
strial	-11.9527
▁bummer	-11.9527
▁bumbl	-11.9527
▁snickering	-11.9527
▁shudder	-11.9527
▁undertake	-11.9527
▁wield	-11.9527
▁earpiece	-11.9527
▁recharge	-11.9527
▁recuerdo	-11.9527
▁tradecraft	-11.9527
maakt	-11.9527
▁carlyle	-11.9527
▁rogue	-11.9527
▁subterranean	-11.9527
▁whatnot	-11.9527
▁loneliness	-11.9527
ointment	-11.9527
▁groping	-11.9527
▁zocht	-11.9527
▁underwater	-11.9527
▁belied	-11.9527
▁motivate	-11.9527
▁nutritio	-11.9527
▁belgium	-11.9527
▁upholster	-11.9527
▁notify	-11.9527
▁donuts	-11.9527
▁ingrat	-11.9527
▁fortified	-11.9527
salaam	-11.9527
▁sculptor	-11.9527
▁baggage	-11.9527
▁detonate	-11.9527
▁spazz	-11.9527
▁yummy	-11.9527
▁carving	-11.9527
▁cordell	-11.9527
▁obedien	-11.9527
▁admiralty	-11.9527
▁madonna	-11.9527
▁outof	-11.9527
▁dealership	-11.9527
▁fatalities	-11.9527
▁exposure	-11.9527
▁marino	-11.9527
▁ramp	-11.9527
▁garwin	-11.9527
▁pleasing	-11.9527
▁dunno	-11.9527
▁premature	-11.9527
▁yank	-11.9527
▁gravy	-11.9527
▁pontif	-11.9527
▁appall	-11.9527
▁affirmative	-11.9527
▁emptiness	-11.9527
▁mailbox	-11.9527
▁restoring	-11.9527
▁keenser	-11.9527
▁descendent	-11.9527
▁homesick	-11.9527
▁reassur	-11.9527
▁dye	-11.9527
▁fiery	-11.9527
▁vernet	-11.9528
▁josie	-11.9528
▁accommodation	-11.9528
▁inspection	-11.9528
▁recap	-11.9528
▁quoting	-11.9528
▁rosko	-11.9528
▁boogie	-11.9528
▁whipping	-11.9528
▁knots	-11.9528
▁collet	-11.9528
behaving	-11.9528
▁outward	-11.9528
▁aqua	-11.9528
▁occupation	-11.9528
▁anthr	-11.9528
▁circum	-11.9528
▁ltaly	-11.9528
▁yknow	-11.9528
▁gloom	-11.9528
▁thatyou	-11.9528
▁massacre	-11.9528
▁winces	-11.9528
▁keating	-11.9528
▁cocaine	-11.9528
▁isla	-11.9528
▁vergeten	-11.9528
▁decay	-11.9528
▁soundtrack	-11.9528
▁timetable	-11.9528
▁lemon	-11.9528
▁voltage	-11.9528
▁beware	-11.9528
▁wiener	-11.9528
▁famine	-11.9528
▁sunscreen	-11.9528
forsake	-11.9528
▁masterpiece	-11.9528
haald	-11.9528
▁rinse	-11.9528
▁parcha	-11.9528
chaux	-11.9528
▁whipped	-11.9528
▁lurk	-11.9528
▁graveyard	-11.9528
▁squash	-11.9528
▁priv	-11.9528
▁chickenshit	-11.9528
▁fashionably	-11.9528
▁coconut	-11.9529
▁sauri	-11.9529
▁zitten	-11.9529
▁ventilat	-11.9529
▁consultant	-11.9529
stemming	-11.9529
▁booze	-11.9529
▁gorman	-11.9529
▁mutual	-11.9529
▁necro	-11.9529
▁argh	-11.9529
▁rejection	-11.9529
▁knul	-11.9529
▁infraction	-11.9529
▁rubble	-11.9529
▁internship	-11.9529
▁bibli	-11.9529
▁interven	-11.9529
bouche	-11.9529
▁florist	-11.9529
bite	-11.9529
▁ripley	-11.9529
▁silk	-11.9529
▁navier	-11.9529
▁depose	-11.9529
▁fatigue	-11.9529
▁proposition	-11.9529
udder	-11.9529
▁sacri	-11.9529
▁luther	-11.9529
▁entertainment	-11.9529
▁fijn	-11.9529
▁marble	-11.9529
▁grond	-11.9529
▁bloom	-11.9529
▁remark	-11.9529
▁lingerie	-11.9529
▁allegiance	-11.9529
▁combo	-11.9529
▁powell	-11.9529
▁pedal	-11.9529
edwina	-11.9529
▁orphanage	-11.953
▁panicking	-11.953
▁norway	-11.953
▁utilit	-11.953
▁demoli	-11.953
▁booster	-11.953
▁restrain	-11.953
▁precies	-11.953
▁bogus	-11.953
▁glide	-11.953
▁wepa	-11.953
▁fanatic	-11.953
▁clink	-11.953
locate	-11.953
▁chute	-11.953
▁quiz	-11.953
▁ammoni	-11.953
▁tarry	-11.953
▁flock	-11.953
▁lawsuit	-11.953
rich	-11.953
▁nini	-11.953
▁courtroom	-11.9531
flake	-11.9531
▁flem	-11.9531
▁ditties	-11.9531
▁carnivore	-11.9531
▁dwa	-11.9531
▁fut	-11.9531
▁dangle	-11.9531
▁humiliation	-11.9531
▁suspension	-11.9531
▁crackles	-11.9531
akku	-11.9531
▁straw	-11.9531
▁nerd	-11.9531
▁soir	-11.9531
▁aroma	-11.9531
▁knap	-11.9531
▁stew	-11.9531
▁begrijpen	-11.9531
▁effi	-11.9531
▁verenigen	-11.9531
▁disturbance	-11.9531
▁versch	-11.9531
▁railway	-11.9531
▁swag	-11.9531
▁shavers	-11.9531
▁unsafe	-11.9531
▁nomination	-11.9532
▁trend	-11.9532
▁dabu	-11.9532
▁reflection	-11.9532
▁supervision	-11.9532
▁japan	-11.9532
▁battlefield	-11.9532
▁hux	-11.9532
▁viking	-11.9532
▁schat	-11.9532
▁divers	-11.9532
dolin	-11.9532
zmer	-11.9532
▁scarce	-11.9532
logue	-11.9532
▁beige	-11.9532
▁blair	-11.9532
▁cork	-11.9532
▁buddh	-11.9533
▁gezin	-11.9533
▁firepower	-11.9533
▁amass	-11.9533
▁babysit	-11.9533
▁lopen	-11.9533
▁loath	-11.9533
▁defiler	-11.9533
okaya	-11.9533
thium	-11.9533
▁freddy	-11.9533
▁graff	-11.9533
▁baking	-11.9533
▁receivers	-11.9533
▁amun	-11.9533
▁highschool	-11.9533
▁oakland	-11.9533
▁levi	-11.9533
▁proceedings	-11.9534
▁prophet	-11.9534
▁resignation	-11.9534
▁oline	-11.9534
▁dislike	-11.9534
▁juli	-11.9534
▁cheerful	-11.9534
▁archies	-11.9534
▁massage	-11.9534
▁addiction	-11.9534
▁milano	-11.9534
▁heartbreak	-11.9534
union	-11.9534
▁blowhole	-11.9534
▁renard	-11.9534
▁consent	-11.9534
▁dominion	-11.9535
ilige	-11.9535
▁saul	-11.9535
journe	-11.9535
▁haole	-11.9535
▁firearm	-11.9535
▁occasional	-11.9535
▁cris	-11.9535
▁diagnosed	-11.9535
▁undefeated	-11.9535
▁fleek	-11.9535
▁factual	-11.9535
▁arise	-11.9535
▁furnish	-11.9535
▁reflex	-11.9535
▁astoria	-11.9535
▁contamination	-11.9535
▁feminine	-11.9535
▁relevant	-11.9535
▁trustworthy	-11.9535
▁huff	-11.9536
▁sisterhood	-11.9536
▁wrestle	-11.9536
▁marla	-11.9536
▁witty	-11.9536
▁defenseless	-11.9536
▁coca	-11.9536
▁wasteland	-11.9536
▁cellula	-11.9536
▁speel	-11.9536
▁complaints	-11.9536
▁cremat	-11.9536
refund	-11.9536
▁milan	-11.9536
▁grandmama	-11.9536
▁diction	-11.9536
aphase	-11.9537
▁blog	-11.9537
▁merit	-11.9537
▁trivial	-11.9537
▁casing	-11.9537
▁sofa	-11.9537
▁electron	-11.9537
▁fearsome	-11.9537
▁meiden	-11.9537
▁mush	-11.9537
▁witte	-11.9537
tomy	-11.9538
▁flea	-11.9538
▁shook	-11.9538
▁broaden	-11.9538
▁cupid	-11.9538
▁pimple	-11.9538
▁larson	-11.9538
▁grapes	-11.9538
▁immunes	-11.9538
▁xandarian	-11.9538
▁paleis	-11.9538
irgin	-11.9539
▁restraint	-11.9539
▁lava	-11.9539
▁lull	-11.9539
▁discriminate	-11.9539
▁stabilize	-11.9539
▁peur	-11.9539
▁juan	-11.9539
▁eddy	-11.9539
▁conspiring	-11.9539
▁interceptor	-11.9539
▁adoption	-11.9539
▁frustration	-11.954
▁progressive	-11.954
▁docent	-11.954
▁matchmaker	-11.954
▁martyr	-11.954
controll	-11.954
▁pago	-11.954
▁astonishing	-11.954
▁intriguing	-11.954
▁signify	-11.954
▁font	-11.954
▁vred	-11.954
▁organic	-11.9541
▁astronomer	-11.9542
▁fastball	-11.9542
▁stunt	-11.9542
▁socialist	-11.9542
▁ballistic	-11.9542
▁ridge	-11.9542
▁torpedoes	-11.9542
▁operative	-11.9542
▁naming	-11.9543
schap	-11.9543
▁refine	-11.9544
▁stern	-11.9544
theless	-11.9544
thrand	-11.9544
▁dumbass	-11.9544
solut	-11.9544
▁ignoring	-11.9544
▁accountant	-11.9545
▁fatty	-11.9545
▁compli	-11.9545
▁indication	-11.9545
▁bennett	-11.9545
itable	-11.9546
▁jurk	-11.9546
leggen	-11.9546
▁iti	-11.9546
▁linus	-11.9547
▁alton	-11.9547
▁puppy	-11.9548
▁retro	-11.9548
▁facebook	-11.9548
▁krijgt	-11.9549
▁paw	-11.9549
▁gesche	-11.9549
▁educational	-11.9549
▁spaceship	-11.9549
▁unwell	-11.9549
▁muse	-11.955
▁occasionally	-11.955
▁sexton	-11.955
foresee	-11.955
▁cooperate	-11.9551
▁eyesight	-11.9551
▁disintegrat	-11.9551
▁embarked	-11.9551
▁enrolled	-11.9551
▁exaggerated	-11.9551
▁plastered	-11.9551
▁prolonged	-11.9551
zny	-11.9551
▁rubin	-11.9551
▁potty	-11.9551
▁restart	-11.9551
▁oooh	-11.9552
▁danish	-11.9552
▁headstone	-11.9552
▁hansen	-11.9552
▁travelling	-11.9553
▁tug	-11.9553
▁endorse	-11.9553
▁blender	-11.9553
▁courageous	-11.9553
▁playboy	-11.9554
ahead	-11.9554
kerel	-11.9555
manded	-11.9555
▁booby	-11.9555
▁blu	-11.9555
▁environmental	-11.9556
▁murmur	-11.9556
▁counselor	-11.9557
punisher	-11.9557
▁ergo	-11.9558
▁mono	-11.9558
flower	-11.9558
▁conserv	-11.9558
▁sewn	-11.9558
▁drac	-11.9559
▁yoko	-11.9559
▁aster	-11.9559
▁sanity	-11.9559
polite	-11.956
wag	-11.956
▁verla	-11.9562
▁jeep	-11.9562
dub	-11.9562
▁nica	-11.9562
▁moo	-11.9563
▁tuba	-11.9563
▁delicately	-11.9563
▁youngster	-11.9564
▁flirting	-11.9564
▁thumping	-11.9564
▁rubbing	-11.9564
▁valid	-11.9564
▁tomas	-11.9565
▁splen	-11.9565
▁bono	-11.9565
▁cora	-11.9565
▁analytical	-11.9567
▁relieved	-11.9567
▁forged	-11.9567
▁hazy	-11.9567
▁disciplined	-11.9567
▁fuse	-11.9567
▁alleg	-11.9567
▁marti	-11.9568
▁fried	-11.9568
▁fout	-11.9568
▁paar	-11.9568
▁peterson	-11.9569
ennis	-11.9569
▁maple	-11.9569
▁kerry	-11.9569
▁hash	-11.9569
▁kop	-11.957
▁wither	-11.957
▁zoom	-11.957
▁auntie	-11.957
▁bam	-11.957
▁personality	-11.957
▁shagg	-11.957
▁manuel	-11.957
▁keen	-11.9571
▁becky	-11.9571
▁flushes	-11.9572
▁degene	-11.9572
nham	-11.9572
▁evan	-11.9573
▁ivy	-11.9573
▁controlling	-11.9573
▁superb	-11.9573
▁productive	-11.9574
▁vle	-11.9574
▁unwi	-11.9575
▁ober	-11.9575
▁brid	-11.9575
▁verbal	-11.9576
▁mixer	-11.9578
eith	-11.9578
▁associated	-11.9578
▁resolved	-11.9578
transcontinental	-11.9579
uitt	-11.9579
▁eggses	-11.9579
▁irrev	-11.9579
▁sway	-11.958
▁vu	-11.958
wall	-11.958
stem	-11.958
▁tuned	-11.958
▁lala	-11.958
llinois	-11.9581
xon	-11.9581
▁ix	-11.9581
▁cranky	-11.9582
▁layman	-11.9582
▁nickel	-11.9583
luded	-11.9583
migration	-11.9583
▁sharpen	-11.9584
▁cling	-11.9584
▁jilted	-11.9584
▁smashed	-11.9584
▁unlocked	-11.9584
▁employed	-11.9584
▁speeders	-11.9584
hard	-11.9585
▁vito	-11.9586
▁copies	-11.9586
▁spre	-11.9587
▁taser	-11.9587
▁concentrated	-11.9588
▁unconsciously	-11.9588
▁bleating	-11.9589
rote	-11.9589
▁milton	-11.9589
▁rival	-11.9589
▁loopt	-11.959
▁peep	-11.959
▁eliminated	-11.959
▁updated	-11.959
▁weeping	-11.9591
▁verslo	-11.9591
▁halfling	-11.9592
▁compet	-11.9592
▁wager	-11.9593
erhaal	-11.9594
▁unfi	-11.9595
▁contd	-11.9595
utton	-11.9596
otto	-11.9597
▁techno	-11.9597
▁painfully	-11.9597
▁linds	-11.9597
▁lime	-11.9599
▁juney	-11.9599
▁kyln	-11.96
▁saal	-11.96
▁hyped	-11.96
▁pinched	-11.9601
eater	-11.9601
▁drifted	-11.9601
▁riddled	-11.9602
▁causeway	-11.9602
▁wanderer	-11.9602
▁artie	-11.9602
ekend	-11.9603
oga	-11.9604
▁trustee	-11.9605
▁princesses	-11.9605
▁pep	-11.9606
▁steph	-11.9606
orita	-11.9607
▁fearless	-11.9607
▁ldl	-11.9607
▁chile	-11.9608
▁emts	-11.9609
▁baker	-11.9609
▁meid	-11.9609
▁facetime	-11.961
▁shep	-11.9611
anot	-11.9613
▁slaved	-11.9613
▁sliced	-11.9613
▁shattering	-11.9614
▁fiance	-11.9614
▁parkus	-11.9617
tag	-11.9618
▁brie	-11.9618
▁lawman	-11.9618
▁gaping	-11.9619
▁freezer	-11.9619
▁handling	-11.9619
▁quad	-11.9622
▁accuser	-11.9622
▁lawson	-11.9623
spoed	-11.9623
▁objection	-11.9624
▁tailor	-11.9624
▁unclean	-11.9625
▁pana	-11.9625
▁acceptable	-11.9626
▁pager	-11.9627
intz	-11.9627
▁doctorate	-11.9627
▁stamped	-11.9628
▁carol	-11.9631
▁klee	-11.9632
▁loaner	-11.9633
▁modif	-11.9635
aagd	-11.9635
▁slay	-11.9636
tub	-11.9637
▁dank	-11.9638
▁moz	-11.9638
▁realised	-11.9638
▁cheaper	-11.9639
▁winch	-11.9639
compatible	-11.9642
▁anticipated	-11.9643
▁corny	-11.9644
▁gunman	-11.9648
▁lineup	-11.965
▁healed	-11.965
▁acc	-11.9651
▁recovered	-11.9652
▁atla	-11.9652
▁bigtime	-11.9652
▁tempted	-11.9653
▁riders	-11.9654
hc	-11.9655
mpet	-11.9655
▁volt	-11.9655
▁cocky	-11.9657
fraction	-11.9659
loo	-11.9659
▁sneaky	-11.9659
▁adviser	-11.9661
▁randomly	-11.9664
rig	-11.9664
▁feest	-11.9664
▁replicate	-11.9665
▁linger	-11.9665
▁liberti	-11.9666
▁sash	-11.9668
▁bui	-11.967
▁cryin	-11.967
▁after	-11.9675
▁doormen	-11.9676
▁presto	-11.9676
▁prized	-11.9678
▁flipper	-11.9685
▁cleaners	-11.9687
▁wider	-11.9688
▁checkup	-11.9692
▁ceremonie	-11.9694
▁presses	-11.9695
▁buses	-11.9695
▁salvage	-11.9696
station	-11.9698
▁funk	-11.97
▁tattooed	-11.9701
▁dome	-11.9701
▁shifty	-11.9701
▁skimm	-11.9702
treat	-11.9703
▁idio	-11.9705
▁overheat	-11.971
▁bosses	-11.9712
lekke	-11.9712
▁operated	-11.9713
▁pott	-11.9713
▁pont	-11.9715
▁mysti	-11.972
issy	-11.9724
▁licenc	-11.9726
onden	-11.9733
▁offender	-11.9734
bracht	-11.9739
evolutionary	-11.9743
▁strapp	-11.9748
▁suz	-11.9756
▁excel	-11.977
▁authoris	-11.9783
gambo	-11.9795
▁harmoniz	-11.98
▁hoss	-11.9801
▁musician	-11.9801
▁sauna	-11.9804
▁modifi	-11.9804
▁execute	-11.9805
▁indie	-11.9812
morph	-11.982
ilant	-11.982
▁thro	-11.9824
ently	-11.9828
▁bodybuild	-11.9829
▁myr	-11.9833
▁cind	-11.9837
▁felicit	-11.9839
▁interst	-11.9856
▁volgen	-11.9861
▁avia	-11.9866
▁recalibrat	-11.9877
▁erect	-11.9888
dron	-11.9893
provision	-11.9909
▁trailer	-11.9924
▁fres	-11.9924
swipe	-11.9924
owa	-11.9926
nazi	-11.9945
▁stoke	-11.9947
▁ww	-11.9966
▁revolutionize	-11.9969
▁ofyou	-11.9971
capita	-11.9972
▁smuggle	-11.9986
nnen	-11.9986
rice	-11.999
tilton	-11.9994
▁amo	-12.0003
domesticated	-12.0011
▁furthe	-12.0018
▁mold	-12.0038
▁philipp	-12.004
▁battl	-12.0059
▁shipment	-12.0061
▁gamble	-12.0062
esley	-12.008
▁zamundaans	-12.0083
appy	-12.0084
due	-12.0092
journalist	-12.0114
▁gli	-12.0129
▁herb	-12.0148
tox	-12.0169
▁breache	-12.0173
ushing	-12.0179
ppy	-12.0219
llaba	-12.0222
ronic	-12.0252
▁microb	-12.0259
▁plott	-12.0284
rhythmi	-12.0287
▁galle	-12.0288
▁caff	-12.0302
▁trav	-12.0304
▁assassinat	-12.0311
▁minne	-12.033
duction	-12.0342
▁grou	-12.0343
▁wool	-12.0387
count	-12.0429
written	-12.0454
▁sil	-12.0461
rties	-12.0476
▁redeem	-12.0484
nik	-12.0492
vloe	-12.0498
▁fend	-12.0515
tious	-12.0537
▁coronar	-12.0568
▁astr	-12.0606
▁crazie	-12.061
▁distributi	-12.0635
▁blain	-12.0638
vitalis	-12.0657
rything	-12.0659
escent	-12.0686
uel	-12.0698
▁poster	-12.0709
ollock	-12.0734
▁bil	-12.086
▁blim	-12.0885
▁kno	-12.0886
▁hart	-12.0935
atten	-12.0944
▁anyou	-12.0976
flamma	-12.0994
▁mami	-12.0996
paired	-12.1046
▁gand	-12.1076
▁pea	-12.1092
▁emergen	-12.1105
▁anno	-12.1129
▁villager	-12.114
▁stabilise	-12.1163
▁discharge	-12.1165
▁aggravate	-12.1165
▁reconfigure	-12.1166
▁mini	-12.1177
▁adhe	-12.1208
▁bagg	-12.1219
▁infam	-12.1259
stitute	-12.1267
titanic	-12.1273
▁obliterate	-12.129
▁customar	-12.1294
eraan	-12.1295
▁incline	-12.1339
nno	-12.1381
▁bloodsuck	-12.1385
zoeken	-12.1406
▁imitat	-12.1413
reliable	-12.1426
▁zul	-12.1435
cms	-12.1468
▁thermo	-12.1583
▁gravi	-12.1628
▁magnif	-12.1647
regardless	-12.167
embe	-12.1753
▁onge	-12.1756
▁paralyz	-12.1764
bora	-12.1785
▁pun	-12.1791
▁gravit	-12.1806
▁ifthe	-12.1846
racht	-12.1862
uti	-12.1865
ngelo	-12.1959
▁infecti	-12.2051
joined	-12.2082
nedens	-12.2094
venue	-12.212
famous	-12.2168
ijden	-12.2195
aux	-12.2319
▁revolv	-12.2358
nip	-12.2365
paid	-12.2376
▁uncertain	-12.2416
▁combust	-12.244
▁flam	-12.2496
uden	-12.2524
view	-12.2526
touch	-12.2558
▁humid	-12.2618
▁wigg	-12.2641
▁sov	-12.2647
▁activat	-12.2694
▁vitr	-12.271
prosecution	-12.2752
▁rappin	-12.2768
pick	-12.2776
educated	-12.2865
▁tortur	-12.2872
ebee	-12.2893
enige	-12.2973
phers	-12.3075
ssel	-12.3179
▁rewrit	-12.3233
ubby	-12.3268
▁vale	-12.3279
elocity	-12.3295
struction	-12.3346
structure	-12.3386
▁influen	-12.3416
interpreted	-12.3455
kimo	-12.351
squ	-12.3527
▁argu	-12.3561
okay	-12.3623
ambler	-12.3678
blime	-12.3683
▁philip	-12.371
circled	-12.3736
building	-12.3756
▁sequenc	-12.3772
▁distincti	-12.3783
nova	-12.3786
▁smuggl	-12.3816
▁tamp	-12.3838
signer	-12.3841
stokes	-12.3874
cocked	-12.39
matched	-12.3989
▁summ	-12.4005
lude	-12.4007
▁provocati	-12.4014
▁volg	-12.4018
▁felici	-12.4043
tribute	-12.4051
amerikaans	-12.4076
▁confide	-12.408
▁mechanic	-12.4086
▁repri	-12.4092
doubted	-12.4094
▁realiz	-12.413
zzi	-12.4146
civiliz	-12.4155
▁evolution	-12.418
▁irrita	-12.4183
ceivable	-12.4216
▁emotion	-12.4237
▁whimper	-12.425
▁consume	-12.4257
cemail	-12.4279
▁squirrel	-12.4284
▁gallon	-12.4285
▁earring	-12.4291
umbles	-12.4293
▁insect	-12.4294
▁matthew	-12.4297
▁premise	-12.4302
▁circumstance	-12.4302
appen	-12.4303
▁liber	-12.4303
▁whistle	-12.4303
gaan	-12.4304
▁tourist	-12.4307
▁instruction	-12.431
▁other	-12.4326
▁flare	-12.4331
leider	-12.4335
▁determin	-12.4347
▁relativ	-12.4361
▁transmit	-12.4376
▁univers	-12.4377
▁rifl	-12.4384
vided	-12.4389
▁disabl	-12.4392
rijd	-12.4395
▁blee	-12.4402
▁murm	-12.442
▁clu	-12.4425
▁distract	-12.4431
atomic	-12.4443
▁motiv	-12.4444
▁encourag	-12.4446
▁sapp	-12.4448
ambles	-12.4455
▁embrac	-12.4456
▁rubb	-12.4459
▁thump	-12.4464
▁appar	-12.4464
▁flirt	-12.4465
▁wheez	-12.447
phase	-12.4472
▁cluck	-12.4472
▁stunn	-12.4473
craft	-12.448
▁treasur	-12.448
▁complet	-12.4481
entine	-12.4483
acceptable	-12.4483
dressed	-12.4484
natural	-12.4485
▁exaggerat	-12.4485
▁embark	-12.4485
▁enroll	-12.4485
measur	-12.4485
platz	-12.4485
fitting	-12.4485
grunt	-12.4485
oooh	-12.4486
explained	-12.4486
restricted	-12.4486
should	-12.4486
▁condemn	-12.4486
mcc	-12.4486
capable	-12.4487
aggressive	-12.4487
registered	-12.4487
▁prolong	-12.4487
▁plaster	-12.4488
mobile	-12.4488
milton	-12.4488
contained	-12.4488
girlfriend	-12.4488
together	-12.4489
function	-12.4489
folk	-12.4489
moral	-12.4489
havin	-12.4489
pleasant	-12.4489
respect	-12.4489
rescue	-12.4489
memorial	-12.4489
facing	-12.4489
temporary	-12.4489
limited	-12.4489
electric	-12.4489
oclock	-12.4489
photograph	-12.4489
quarter	-12.4489
patient	-12.4489
dancing	-12.4489
grateful	-12.4489
wheel	-12.4489
hydra	-12.4489
process	-12.4489
community	-12.4489
camp	-12.449
touchdown	-12.449
▁vanquish	-12.449
schedule	-12.449
ocean	-12.449
noticed	-12.449
student	-12.449
filled	-12.449
secretary	-12.449
animal	-12.449
loving	-12.449
panic	-12.449
sauce	-12.449
complete	-12.449
weapon	-12.449
uncle	-12.449
engine	-12.449
spirit	-12.449
behold	-12.449
pleasure	-12.449
teeth	-12.449
third	-12.449
problem	-12.449
close	-12.449
blind	-12.449
company	-12.449
important	-12.449
street	-12.449
perfect	-12.449
mgan	-12.449
junction	-12.449
dream	-12.449
rumbling	-12.449
felt	-12.449
people	-12.449
▁drain	-12.449
would	-12.449
shoot	-12.449
maybe	-12.449
earth	-12.449
james	-12.449
naked	-12.4491
rabbit	-12.4491
couple	-12.4491
forget	-12.4491
prins	-12.4491
oogie	-12.4491
block	-12.4491
normal	-12.4491
zaak	-12.4491
▁pleasur	-12.4491
paying	-12.4492
kids	-12.4492
forward	-12.4492
theory	-12.4492
country	-12.4493
jacket	-12.4493
▁stev	-12.4493
steroids	-12.4494
high	-12.4494
nice	-12.4494
▁slum	-12.4495
lovers	-12.4495
beast	-12.4495
common	-12.4496
lamp	-12.4497
tooth	-12.4498
aaaa	-12.4498
vibe	-12.4498
track	-12.4498
▁conceive	-12.4498
▁spik	-12.4499
digit	-12.4499
wound	-12.45
vader	-12.45
bij	-12.45
▁bennet	-12.45
▁attache	-12.45
▁succ	-12.45
mask	-12.4501
document	-12.4501
food	-12.4501
▁demonstrat	-12.4503
▁discriminat	-12.4505
▁capabilit	-12.4506
▁anomal	-12.4506
deep	-12.4506
prehensi	-12.4506
bike	-12.4507
▁underestimat	-12.4507
▁spank	-12.4507
▁ultimat	-12.4507
▁ordinar	-12.4507
ibbons	-12.4507
▁stead	-12.4508
▁frida	-12.4508
▁responsibl	-12.4508
▁applaus	-12.4508
dunk	-12.4508
killer	-12.4509
▁apparent	-12.4509
▁intens	-12.4509
▁excite	-12.451
mother	-12.451
▁coupl	-12.451
▁twent	-12.451
▁benefi	-12.4511
▁celebr	-12.4511
▁scatt	-12.4511
▁securit	-12.4511
▁scaveng	-12.4511
▁germa	-12.4513
hran	-12.4513
▁prophe	-12.4513
▁innocen	-12.4514
▁nigh	-12.4515
▁significan	-12.4515
umptio	-12.4515
▁suppl	-12.4515
▁filth	-12.4515
▁custo	-12.4516
▁numb	-12.4516
▁scribbl	-12.4516
▁negro	-12.4516
▁shaneequ	-12.4516
▁administrat	-12.4517
▁sacrament	-12.4517
▁verenig	-12.4517
traumati	-12.4517
giver	-12.4518
▁inspect	-12.4518
▁begrijp	-12.4518
▁festiv	-12.4518
▁villa	-12.4518
elfes	-12.4518
▁boar	-12.4518
▁identit	-12.452
▁recept	-12.452
plications	-12.4521
▁oppressi	-12.4521
▁buckle	-12.4521
▁mechani	-12.4521
plicit	-12.4521
encies	-12.4521
▁dynam	-12.4522
ception	-12.4522
▁oblivi	-12.4522
uspicious	-12.4522
▁nausea	-12.4522
▁permissi	-12.4522
▁posit	-12.4522
▁anonym	-12.4523
adequate	-12.4523
▁occup	-12.4523
aught	-12.4523
▁accommodat	-12.4523
▁believin	-12.4523
▁celebratin	-12.4523
▁persisten	-12.4523
▁smokin	-12.4523
▁aouuu	-12.4523
▁starvin	-12.4523
▁givin	-12.4523
▁ignit	-12.4523
umpy	-12.4524
▁winnin	-12.4524
rique	-12.4524
escription	-12.4524
▁valenti	-12.4524
▁asia	-12.4524
riving	-12.4524
▁fratern	-12.4524
teau	-12.4524
aith	-12.4524
▁industr	-12.4525
ecutive	-12.4525
negotia	-12.4525
lactic	-12.4525
enuous	-12.4525
▁mcflur	-12.4525
▁chokin	-12.4525
oberta	-12.4525
ordinate	-12.4525
▁ukrain	-12.4525
▁accompli	-12.4525
▁differ	-12.4525
▁hydro	-12.4525
▁aggress	-12.4525
nquish	-12.4525
bereid	-12.4525
rmia	-12.4525
▁vibra	-12.4525
gnant	-12.4525
scape	-12.4526
▁congratulat	-12.4526
tastic	-12.4526
▁prosec	-12.4526
▁congrat	-12.4526
▁belgi	-12.4526
naire	-12.4526
piration	-12.4526
▁sylv	-12.4526
gay	-12.4526
refrigerat	-12.4526
oesophag	-12.4526
iririr	-12.4526
▁aardappel	-12.4526
▁brainwash	-12.4526
▁vocabul	-12.4526
▁altruistic	-12.4526
▁cautious	-12.4526
▁clergy	-12.4526
▁eloquent	-12.4526
▁exploit	-12.4526
▁frequent	-12.4526
▁implod	-12.4526
▁kappers	-12.4526
▁monogam	-12.4526
▁propriet	-12.4526
▁smushed	-12.4526
▁speckle	-12.4526
▁superfluous	-12.4526
▁terugtrekken	-12.4526
▁theirgrand	-12.4526
▁unanimous	-12.4526
▁vassily	-12.4526
▁zigzag	-12.4526
blieft	-12.4526
brill	-12.4526
ckenzie	-12.4526
disproportionate	-12.4526
ediatric	-12.4526
eindelijk	-12.4526
explanat	-12.4526
guir	-12.4526
ijuana	-12.4526
issimo	-12.4526
leheart	-12.4526
nscript	-12.4526
onsequential	-12.4526
plicht	-12.4526
rehabilitation	-12.4526
sensitivity	-12.4526
songwriter	-12.4526
temperat	-12.4526
tinatinatin	-12.4526
twerp	-12.4526
ukki	-12.4526
▁abomination	-12.4526
▁absinthe	-12.4526
▁admiring	-12.4526
▁advertising	-12.4526
▁aerobics	-12.4526
▁affiliate	-12.4526
▁agricultural	-12.4526
▁agriculture	-12.4526
▁ahhahhahhahhahh	-12.4526
▁ahhhhhh	-12.4526
▁airspace	-12.4526
▁alchemist	-12.4526
▁algebra	-12.4526
▁alstublieft	-12.4526
▁altamid	-12.4526
▁alyesk	-12.4526
▁ambrosia	-12.4526
▁amphibian	-12.4526
▁android	-12.4526
▁angrily	-12.4526
▁antagoniz	-12.4526
▁anthony	-12.4526
▁appetit	-12.4526
▁applicants	-12.4526
▁aqui	-12.4526
▁arsenic	-12.4526
▁asylum	-12.4526
▁atheists	-12.4526
▁avondwandeling	-12.4526
▁azmath	-12.4526
▁babbling	-12.4526
▁bacteria	-12.4526
▁balcony	-12.4526
▁banzai	-12.4526
▁barometer	-12.4526
▁barricad	-12.4526
▁bartholomew	-12.4526
▁batcave	-12.4526
▁bauble	-12.4526
▁bedfellow	-12.4526
▁berendzen	-12.4526
▁betwixt	-12.4526
▁blingbling	-12.4526
▁blizzard	-12.4526
▁bludgeon	-12.4526
▁bonjour	-12.4526
▁botanical	-12.4526
▁botanist	-12.4526
▁boutique	-12.4526
▁bravissimo	-12.4526
▁brethren	-12.4526
▁brezhnev	-12.4526
▁bridesmaid	-12.4526
▁brilliance	-12.4526
▁bruegel	-12.4526
▁burglarhobit	-12.4526
▁burrito	-12.4526
▁calamity	-12.4526
▁calculator	-12.4526
▁camaraderie	-12.4526
▁cappella	-12.4526
▁cappuccino	-12.4526
▁caracterize	-12.4526
▁cartwright	-12.4526
▁caspian	-12.4526
▁cataclysmic	-12.4526
▁cathedral	-12.4526
▁ceiling	-12.4526
▁charisse	-12.4526
▁cherokee	-12.4526
▁cherpitski	-12.4526
▁chitters	-12.4526
▁chunky	-12.4526
▁circulation	-12.4526
▁circumstantial	-12.4526
▁clarence	-12.4526
▁cleats	-12.4526
▁cloakroom	-12.4526
▁collaborat	-12.4526
▁commonwealth	-12.4526
▁commuter	-12.4526
▁concurren	-12.4526
▁condolences	-12.4526
▁configuration	-12.4526
▁connecticut	-12.4526
▁consolation	-12.4526
▁cormeir	-12.4526
▁cornpone	-12.4526
▁corrosive	-12.4526
[...]
