<unk>	0
<s>	0
</s>	0
s	-2.95828
e	-4.12199
ing	-4.12815
d	-4.24442
t	-4.26462
a	-4.43861
y	-4.48933
ed	-4.52122
i	-4.52782
▁	-4.54344
n	-4.56985
o	-4.57058
▁s	-4.58026
m	-4.68952
er	-4.72508
p	-4.78654
g	-4.86852
u	-4.89164
r	-4.91307
▁im	-4.95561
b	-4.97699
in	-5.0382
▁know	-5.04896
c	-5.1019
▁dont	-5.10903
▁go	-5.19771
▁get	-5.2648
k	-5.2662
or	-5.32323
le	-5.34912
al	-5.36325
▁like	-5.39384
ar	-5.41383
▁right	-5.42299
▁l	-5.43643
w	-5.4474
v	-5.45513
▁c	-5.45704
re	-5.48683
▁youre	-5.5024
▁come	-5.51157
l	-5.51369
ly	-5.5445
▁got	-5.55187
it	-5.55224
▁yeah	-5.58478
f	-5.59896
▁na	-5.62944
▁one	-5.64888
an	-5.65368
▁oh	-5.66596
▁well	-5.68223
▁re	-5.6982
on	-5.70178
en	-5.70358
▁thats	-5.70463
ch	-5.75825
h	-5.76402
at	-5.77505
▁f	-5.77809
▁see	-5.77879
▁want	-5.78871
▁okay	-5.80437
▁us	-5.8228
▁a	-5.8514
ent	-5.85375
il	-5.85709
▁w	-5.86009
▁p	-5.86252
▁think	-5.86346
▁st	-5.86379
▁good	-5.87033
▁de	-5.87755
ri	-5.92558
▁man	-5.94412
▁hey	-5.94764
es	-5.95163
ur	-5.9603
▁gon	-5.97582
▁be	-6.01553
▁look	-6.01902
▁back	-6.03651
▁t	-6.04481
th	-6.0733
ic	-6.08411
▁time	-6.08451
ra	-6.09311
▁say	-6.1019
▁take	-6.10429
▁going	-6.10525
▁need	-6.10532
▁yes	-6.12471
▁g	-6.13964
ir	-6.14075
z	-6.15661
ter	-6.16117
ne	-6.16789
ce	-6.16981
▁in	-6.18602
sh	-6.21299
▁bo	-6.23038
ie	-6.23558
st	-6.24333
▁cant	-6.24625
▁ma	-6.26296
ll	-6.27033
ro	-6.28165
▁hes	-6.2857
▁tell	-6.2901
ol	-6.29668
▁ill	-6.30071
▁ch	-6.30682
▁k	-6.30949
ve	-6.31973
li	-6.32498
el	-6.32737
▁e	-6.33002
▁would	-6.33084
et	-6.33608
▁tr	-6.34975
▁make	-6.36798
▁mean	-6.37445
▁bu	-6.38211
▁co	-6.3964
▁pa	-6.40663
▁could	-6.40912
x	-6.41001
▁let	-6.41316
ick	-6.41672
▁really	-6.42105
▁m	-6.42193
am	-6.43304
▁way	-6.451
▁love	-6.45805
te	-6.45833
ate	-6.46789
▁didnt	-6.49004
un	-6.49043
▁sir	-6.49125
ng	-6.51574
▁b	-6.51585
▁ro	-6.52142
▁car	-6.52417
ver	-6.53669
is	-6.54004
▁ra	-6.54186
▁never	-6.54892
▁whats	-6.55151
ell	-6.55804
▁call	-6.55813
▁lets	-6.56271
▁something	-6.56458
▁r	-6.57035
▁ta	-6.57158
ke	-6.57223
ul	-6.57914
ion	-6.58464
▁thank	-6.58605
▁sh	-6.59341
▁to	-6.59961
▁po	-6.60821
ation	-6.61019
▁work	-6.61334
se	-6.6171
la	-6.61777
▁con	-6.61842
▁little	-6.62496
▁th	-6.63581
▁o	-6.63662
▁mar	-6.63878
▁v	-6.6396
sp	-6.64249
▁ca	-6.6467
▁j	-6.65155
age	-6.6568
▁sorry	-6.65724
▁un	-6.66019
ow	-6.67159
▁ho	-6.67298
im	-6.67868
▁day	-6.69308
▁give	-6.69352
▁da	-6.7058
▁please	-6.70819
est	-6.71363
ers	-6.71846
▁two	-6.72501
▁even	-6.74076
▁ba	-6.74821
▁wait	-6.75236
▁god	-6.75463
us	-6.76879
▁help	-6.77145
▁theres	-6.77419
ry	-6.78921
▁mr	-6.79127
▁pro	-6.79306
▁said	-6.79772
▁people	-6.80038
▁hi	-6.80363
▁ive	-6.81862
ge	-6.81863
▁stop	-6.82257
id	-6.82567
▁ex	-6.8288
▁lo	-6.82905
▁dr	-6.82912
▁la	-6.83382
▁di	-6.83508
▁se	-6.84282
▁he	-6.84734
▁life	-6.84767
ard	-6.87722
ot	-6.88466
▁fa	-6.89099
▁uh	-6.89446
▁thing	-6.90005
▁mi	-6.90187
▁nb	-6.90889
and	-6.90937
ment	-6.91523
ill	-6.91549
me	-6.91722
▁find	-6.91941
▁feel	-6.92069
▁me	-6.92213
ist	-6.92432
▁new	-6.9258
ta	-6.92993
end	-6.93096
ive	-6.93443
um	-6.9366
▁jo	-6.93678
▁sure	-6.94212
▁te	-6.94311
tion	-6.94831
▁keep	-6.94953
ant	-6.95055
▁br	-6.95492
▁much	-6.96045
▁home	-6.96098
▁sc	-6.97512
pe	-6.97797
▁wh	-6.97813
▁guys	-6.97935
ac	-6.98057
ff	-6.98392
▁kid	-6.99024
▁put	-6.99179
▁h	-6.99209
▁girl	-6.99271
▁no	-6.9946
lo	-6.99572
▁so	-7.00015
▁cl	-7.00546
▁great	-7.00638
ight	-7.01643
▁hand	-7.01973
▁anything	-7.02369
▁for	-7.02597
▁ar	-7.02773
▁sha	-7.03493
▁theyre	-7.04135
ma	-7.04442
▁do	-7.04493
▁first	-7.04672
▁ha	-7.05616
ies	-7.0586
▁miss	-7.06814
de	-7.06831
▁maybe	-7.0685
op	-7.07681
▁still	-7.09048
▁stay	-7.09498
▁al	-7.09498
▁mo	-7.09778
▁boy	-7.1042
▁name	-7.10744
▁friend	-7.11335
▁shes	-7.11404
able	-7.11946
ty	-7.12008
▁talk	-7.12229
▁kill	-7.12374
uck	-7.1316
ting	-7.1322
▁long	-7.13511
▁play	-7.13807
▁thought	-7.1383
▁ask	-7.13964
▁must	-7.14177
ally	-7.15119
man	-7.15271
▁night	-7.15648
per	-7.15848
▁ne	-7.16305
▁ever	-7.16685
ack	-7.17495
▁big	-7.17874
ine	-7.18476
▁id	-7.19277
▁hell	-7.20384
▁le	-7.20638
▁em	-7.20915
▁better	-7.21192
▁ru	-7.21254
▁last	-7.21361
▁mom	-7.21959
▁leave	-7.22032
ci	-7.2232
▁move	-7.23187
▁nothing	-7.2332
▁always	-7.23749
▁show	-7.23791
▁fe	-7.23973
ip	-7.24136
▁fl	-7.24256
ance	-7.24839
ure	-7.25326
▁listen	-7.25499
▁place	-7.26384
ian	-7.26772
▁away	-7.26904
▁music	-7.27066
▁guy	-7.28072
ast	-7.28081
▁pre	-7.29063
▁every	-7.29427
▁everything	-7.2978
▁start	-7.30077
▁world	-7.30238
▁around	-7.30239
ity	-7.30257
ut	-7.31083
▁dis	-7.314
▁ad	-7.31463
▁bl	-7.31506
▁wa	-7.31717
▁vi	-7.31947
ther	-7.32492
▁kind	-7.33078
▁son	-7.33231
▁live	-7.33521
▁youve	-7.33768
▁real	-7.33923
▁fr	-7.35007
▁done	-7.35045
▁an	-7.35051
▁coming	-7.35143
mo	-7.35162
▁believe	-7.35458
ide	-7.35481
▁head	-7.35735
▁dad	-7.35965
▁old	-7.36249
▁shit	-7.36383
▁money	-7.36455
ock	-7.36481
▁made	-7.37111
▁left	-7.37188
▁ass	-7.37306
▁laugh	-7.37701
up	-7.37911
▁doesnt	-7.37925
▁hold	-7.38692
ph	-7.39524
▁hear	-7.39574
▁du	-7.39577
▁wan	-7.39806
▁told	-7.40733
▁lot	-7.41039
ous	-7.41898
▁turn	-7.42273
▁nice	-7.42352
▁ready	-7.42381
he	-7.42552
ling	-7.42809
na	-7.43592
und	-7.43825
▁speak	-7.43839
ted	-7.43875
gh	-7.44156
▁years	-7.44509
▁came	-7.44731
▁qu	-7.45289
▁may	-7.45382
co	-7.45536
▁bit	-7.45888
▁gra	-7.46891
▁care	-7.469
▁three	-7.4791
▁bad	-7.48188
▁watch	-7.48251
▁hard	-7.48261
ia	-7.48382
less	-7.48516
ence	-7.48707
▁family	-7.49003
▁might	-7.49008
▁fine	-7.4903
▁pe	-7.4919
▁things	-7.49356
▁door	-7.49479
▁thanks	-7.49507
▁open	-7.49579
▁plan	-7.49886
ise	-7.50106
▁ja	-7.50507
▁ab	-7.50645
▁win	-7.51113
ful	-7.51475
▁remember	-7.51545
out	-7.51662
ca	-7.52038
▁cha	-7.52463
▁course	-7.52698
▁hello	-7.52953
▁happen	-7.53025
ton	-7.53466
▁enough	-7.53569
▁wont	-7.5389
▁house	-7.54165
▁hu	-7.54491
tch	-7.54537
j	-7.54854
▁pi	-7.55276
for	-7.55941
all	-7.5609
▁ju	-7.56158
▁minute	-7.56232
▁dead	-7.56321
▁ah	-7.56823
▁war	-7.57207
▁playing	-7.57215
▁mon	-7.57522
▁someone	-7.57742
▁huh	-7.58073
▁close	-7.59012
▁youll	-7.59277
cu	-7.5949
▁brother	-7.59587
▁wrong	-7.59587
▁part	-7.59879
▁mother	-7.60017
▁fire	-7.60455
▁talking	-7.60644
▁phone	-7.60834
▁fight	-7.61074
▁wanted	-7.61597
▁meet	-7.61879
ble	-7.62007
▁men	-7.62778
▁another	-7.63057
ake	-7.63349
▁best	-7.63505
ha	-7.63684
▁die	-7.64109
▁ear	-7.64286
▁tonight	-7.64354
▁gu	-7.64499
▁ti	-7.645
▁found	-7.64678
▁today	-7.64779
▁father	-7.65157
qu	-7.65297
▁mind	-7.65723
▁run	-7.65898
▁bring	-7.66006
▁en	-7.66174
▁school	-7.67655
▁woman	-7.6766
▁gun	-7.681
▁next	-7.69353
▁um	-7.6938
▁pr	-7.69582
▁app	-7.69785
▁guess	-7.70746
▁end	-7.70928
▁am	-7.71214
tic	-7.71593
▁comp	-7.7175
▁room	-7.71803
▁trying	-7.71881
port	-7.72016
▁ga	-7.7218
▁understand	-7.72828
▁com	-7.73337
▁second	-7.73539
▁week	-7.73539
▁job	-7.7402
▁check	-7.74254
▁damn	-7.74281
▁baby	-7.74996
▁pass	-7.75058
▁bar	-7.76068
▁inter	-7.76089
▁getting	-7.76258
▁else	-7.76654
▁eye	-7.76689
▁happened	-7.76751
ize	-7.78154
ary	-7.78255
▁isnt	-7.78285
▁wasnt	-7.79036
▁bat	-7.79166
▁morning	-7.79412
▁heart	-7.79688
▁knew	-7.79795
▁cause	-7.79831
▁chuckles	-7.80552
▁game	-7.80718
▁stand	-7.81315
ught	-7.81337
ition	-7.82171
ated	-7.82599
▁looking	-7.82601
▁sighs	-7.82874
▁pretty	-7.82876
▁aint	-7.82943
▁har	-7.83546
▁change	-7.83719
▁saw	-7.83793
que	-7.83845
▁where	-7.83987
▁try	-7.85354
▁cheer	-7.8537
▁problem	-7.85653
▁weve	-7.86076
spect	-7.86874
▁word	-7.86918
▁lu	-7.86944
▁whole	-7.87294
▁many	-7.87659
▁whos	-7.87859
▁high	-7.87874
▁already	-7.88096
ness	-7.88484
▁actually	-7.88924
▁without	-7.8934
▁el	-7.89562
▁everyone	-7.89776
▁together	-7.90179
▁hurt	-7.90207
▁fun	-7.90827
▁wouldnt	-7.91093
▁seen	-7.91761
▁everybody	-7.91878
▁idea	-7.92071
▁cut	-7.92245
▁walk	-7.92331
▁hot	-7.92393
▁break	-7.92738
▁excuse	-7.92738
▁mine	-7.92798
▁five	-7.93178
▁pay	-7.93998
▁hope	-7.94107
ook	-7.94238
ward	-7.94491
▁heard	-7.94622
▁office	-7.94922
▁act	-7.94948
▁dance	-7.94969
day	-7.95243
ical	-7.9561
▁took	-7.96511
▁sound	-7.96886
▁city	-7.97174
▁far	-7.97221
▁went	-7.97296
▁face	-7.97416
▁read	-7.97566
▁hit	-7.97651
▁person	-7.98084
▁safe	-7.98531
▁anyone	-7.98976
▁water	-7.9948
▁clear	-7.99484
▁rest	-7.99793
▁ok	-7.99915
▁deal	-8.00176
▁whoa	-8.00865
▁question	-8.01303
▁scream	-8.01304
▁shot	-8.01326
▁bra	-8.01531
▁per	-8.02096
▁grunts	-8.02247
▁four	-8.02275
▁met	-8.02789
▁matter	-8.03225
▁light	-8.03429
▁killed	-8.036
▁breath	-8.03683
▁pick	-8.03692
▁mu	-8.03766
ade	-8.03923
▁continue	-8.04166
▁lead	-8.0423
▁power	-8.04687
▁blood	-8.05139
▁sweet	-8.0514
▁alright	-8.05141
▁eat	-8.05328
▁drive	-8.05612
▁stuff	-8.05636
▁year	-8.05868
▁lost	-8.06602
▁america	-8.07115
▁drink	-8.07126
▁yet	-8.0719
▁set	-8.07544
▁sleep	-8.08119
▁easy	-8.08121
▁since	-8.08167
▁save	-8.08305
▁party	-8.08417
▁team	-8.08696
▁line	-8.09101
▁point	-8.09184
▁hour	-8.09208
▁crazy	-8.0964
▁luck	-8.09748
▁arm	-8.10083
▁tomorrow	-8.10153
▁follow	-8.10668
▁free	-8.10704
▁train	-8.10727
▁air	-8.10799
▁cop	-8.11205
▁ow	-8.11347
▁captain	-8.11707
▁youd	-8.11714
▁soon	-8.12391
▁john	-8.12768
▁beautiful	-8.13286
▁true	-8.13357
▁couldnt	-8.13365
▁ball	-8.13421
▁welcome	-8.13818
▁happy	-8.14353
▁sl	-8.14776
▁young	-8.14892
▁engine	-8.14893
▁ago	-8.15042
▁joe	-8.1544
▁alone	-8.15457
▁nobody	-8.15974
▁business	-8.15975
▁forget	-8.16531
▁book	-8.16754
▁sign	-8.17018
▁order	-8.17075
▁trust	-8.17101
▁black	-8.17254
▁grand	-8.18216
ign	-8.18422
▁whatever	-8.18738
▁case	-8.18754
ious	-8.18921
▁shut	-8.19157
▁ya	-8.19239
▁somebody	-8.19299
▁dog	-8.19305
▁shoot	-8.19306
▁cool	-8.19344
▁gl	-8.19663
▁havent	-8.19868
▁full	-8.20028
▁late	-8.21002
▁probably	-8.21003
▁wife	-8.21004
▁death	-8.21041
▁six	-8.21071
▁spanish	-8.21578
▁jake	-8.22129
▁report	-8.22144
▁police	-8.22158
▁promise	-8.2216
▁chance	-8.22659
▁worry	-8.22744
▁spa	-8.22785
▁bill	-8.22799
▁gave	-8.23087
▁jack	-8.23703
▁inside	-8.23938
▁wonder	-8.25098
▁wish	-8.25128
▁master	-8.26405
▁aye	-8.26502
▁side	-8.26546
▁up	-8.26843
▁answer	-8.26906
▁moment	-8.2748
▁fall	-8.27751
com	-8.28036
▁serious	-8.29379
▁christ	-8.30003
▁dream	-8.30004
▁later	-8.30033
▁gar	-8.30336
▁nu	-8.31096
▁funny	-8.31271
▁taking	-8.31304
▁hate	-8.31328
▁exactly	-8.3189
▁ahead	-8.31891
▁supposed	-8.32368
▁lady	-8.32606
▁hang	-8.3311
▁step	-8.33529
▁protect	-8.33826
▁least	-8.34083
▁town	-8.34518
▁chatter	-8.3515
▁half	-8.36479
▁final	-8.36753
▁ship	-8.37041
▁making	-8.37208
▁wow	-8.37384
▁street	-8.37824
▁lose	-8.38115
▁hmm	-8.38528
▁rich	-8.38559
▁drop	-8.3916
▁number	-8.39178
▁secret	-8.39178
▁murder	-8.39178
▁catch	-8.39563
▁grunting	-8.39868
▁perfect	-8.39868
▁story	-8.39955
▁fast	-8.4
▁lock	-8.41102
▁count	-8.412
▁foot	-8.41278
▁also	-8.41476
▁pull	-8.42001
▁camp	-8.42107
▁honey	-8.4269
▁white	-8.42711
▁ni	-8.4306
▁afraid	-8.43389
▁reason	-8.43392
▁throw	-8.434
▁behind	-8.44109
▁truth	-8.44125
▁grow	-8.44851
▁trouble	-8.45563
▁stupid	-8.45565
▁james	-8.45589
▁ride	-8.46316
▁though	-8.46389
▁fact	-8.46855
ject	-8.47042
▁anyway	-8.47786
▁tried	-8.47947
▁alive	-8.48233
▁learn	-8.48557
▁voice	-8.49296
▁over	-8.4954
▁rock	-8.49786
▁anymore	-8.50058
▁ladies	-8.50066
▁enola	-8.50068
▁important	-8.50829
▁hall	-8.51159
▁strong	-8.51607
▁body	-8.52544
▁write	-8.52667
▁bye	-8.5333
▁figure	-8.53965
▁outside	-8.53965
▁theyll	-8.53965
▁finish	-8.54765
▁return	-8.54766
▁almost	-8.54766
▁blow	-8.5522
▁doctor	-8.55572
▁cru	-8.5591
▁panting	-8.56423
▁broke	-8.57222
▁different	-8.58031
▁touch	-8.58048
▁yo	-8.58279
▁human	-8.5911
▁slow	-8.59134
▁charlie	-8.59705
▁kiss	-8.59811
▁country	-8.59854
pped	-8.59884
▁victor	-8.60552
▁control	-8.60552
▁living	-8.60554
▁married	-8.60575
▁harlan	-8.61417
▁ooh	-8.61432
▁seven	-8.61437
▁class	-8.62294
▁picture	-8.63138
▁jimmy	-8.64015
▁jesus	-8.64019
way	-8.64733
▁indistinct	-8.649
▁parents	-8.64902
▁couple	-8.64903
▁hurry	-8.64905
▁sub	-8.65207
▁ghost	-8.65793
▁quite	-8.6582
▁child	-8.65831
down	-8.66688
▁expect	-8.66694
▁food	-8.66697
▁clean	-8.66768
▁terri	-8.66784
wood	-8.66791
▁burn	-8.66801
▁wear	-8.66821
▁careful	-8.66889
time	-8.67541
▁bird	-8.67632
▁charge	-8.67674
▁shouldnt	-8.68521
▁leaving	-8.68521
▁attack	-8.68521
▁brought	-8.68524
▁running	-8.68568
▁opera	-8.7009
ept	-8.70148
▁become	-8.70391
▁suit	-8.70577
▁front	-8.71348
▁horse	-8.71352
▁gasps	-8.71353
▁sister	-8.71443
▁choice	-8.72278
▁million	-8.7228
▁henry	-8.72287
▁itll	-8.72324
▁blue	-8.72383
▁surprise	-8.73238
▁deep	-8.73552
▁anybody	-8.74209
▁movie	-8.74223
▁piece	-8.7423
▁sometimes	-8.7519
▁direct	-8.75193
▁teach	-8.75215
▁soft	-8.75223
▁lord	-8.75454
▁record	-8.76181
▁allow	-8.76194
▁weapon	-8.7718
▁president	-8.7718
▁children	-8.77187
▁key	-8.77499
▁shoe	-8.77638
▁gentlemen	-8.7819
▁complete	-8.782
▁worth	-8.78211
▁dark	-8.78225
▁straight	-8.79214
▁short	-8.79383
▁normal	-8.80243
▁elect	-8.80245
▁smart	-8.80255
▁along	-8.80269
field	-8.80283
▁special	-8.81283
▁park	-8.81376
▁husband	-8.82336
▁spirit	-8.82336
▁super	-8.82434
▁gold	-8.82598
▁contact	-8.834
▁radio	-8.83401
▁fault	-8.83414
▁honest	-8.8342
▁fool	-8.83443
▁daddy	-8.83471
▁enjoy	-8.84474
▁women	-8.84475
▁either	-8.84484
▁honor	-8.8453
▁temp	-8.84638
▁north	-8.85591
▁detective	-8.8666
▁perhaps	-8.8666
▁certain	-8.86661
▁dinner	-8.86661
▁ground	-8.87773
▁knock	-8.88904
▁miller	-8.88922
▁jump	-8.88937
▁moving	-8.88939
▁sense	-8.89013
▁future	-8.90033
▁york	-8.90039
▁offer	-8.90042
▁small	-8.90083
▁travel	-8.91183
▁quiet	-8.91204
▁dangerous	-8.92344
▁target	-8.92344
▁mistake	-8.92345
▁agent	-8.92396
▁buddy	-8.93523
▁relax	-8.93526
▁goodbye	-8.94713
▁window	-8.94719
▁company	-8.94725
▁cross	-8.94728
▁decide	-8.94738
▁somewhere	-8.95915
▁push	-8.9596
▁angel	-8.9597
▁goddamn	-8.97135
▁driving	-8.97136
▁squa	-8.97823
▁bobby	-8.9837
▁command	-8.98378
▁others	-8.98414
▁crew	-8.98433
▁crowd	-8.9962
▁freak	-8.99622
▁extra	-8.9965
▁court	-8.99845
▁escape	-9.00886
▁peace	-9.00905
▁definitely	-9.02167
▁explain	-9.02168
▁bridge	-9.02169
▁shouting	-9.02178
▁english	-9.03466
▁heavily	-9.03466
▁uncle	-9.03498
▁aunt	-9.03524
▁birthday	-9.04782
▁sweetwater	-9.04782
▁floor	-9.04825
▁south	-9.04854
▁soldier	-9.06115
▁island	-9.06115
▁theyve	-9.06116
▁entire	-9.06118
▁daughter	-9.06121
▁possible	-9.07467
▁double	-9.0747
▁forgot	-9.07473
▁mouth	-9.07484
▁champion	-9.08837
▁hundred	-9.08837
▁member	-9.08837
▁strange	-9.08846
▁apart	-9.10227
▁worse	-9.10258
▁security	-9.11634
▁across	-9.11634
▁weird	-9.11635
▁gift	-9.11636
▁deserve	-9.11637
▁swear	-9.11637
▁except	-9.11637
▁prison	-9.11638
▁screw	-9.11651
▁gllllan	-9.13062
▁groans	-9.13063
▁agree	-9.13087
▁notice	-9.13183
▁service	-9.14512
▁forgive	-9.14518
▁girlfriend	-9.15982
▁dragon	-9.15982
▁history	-9.15982
▁david	-9.15989
▁glass	-9.17492
▁account	-9.1899
▁anywhere	-9.1899
▁obvious	-9.1899
▁amazing	-9.1899
▁major	-9.18995
▁accept	-9.20528
▁hospital	-9.20528
▁coffee	-9.20529
▁hasnt	-9.20535
▁accident	-9.22091
▁boyfriend	-9.22091
▁destroy	-9.22091
▁belong	-9.22095
▁wedding	-9.22098
duct	-9.22466
▁college	-9.23678
▁private	-9.25291
▁system	-9.25291
▁impress	-9.25292
q	-9.33031
