<unk>	0
<s>	0
</s>	0
s	-3.57575
▁im	-4.35765
▁dont	-4.44915
▁know	-4.46254
▁get	-4.64309
▁yeah	-4.69437
▁right	-4.77903
▁go	-4.82037
▁like	-4.8221
▁got	-4.84296
▁oh	-4.90761
▁come	-4.93366
▁youre	-4.93451
▁okay	-5.03356
▁na	-5.06345
▁thats	-5.14781
ing	-5.18491
▁well	-5.20855
▁want	-5.24886
▁one	-5.31065
▁think	-5.31833
▁gon	-5.32418
▁hey	-5.33736
ed	-5.34853
▁good	-5.39579
▁man	-5.42353
▁see	-5.44551
▁look	-5.53379
▁going	-5.55781
▁fuck	-5.57278
▁back	-5.57888
▁take	-5.65676
▁shit	-5.69511
▁l	-5.71312
d	-5.72831
▁fucking	-5.73257
▁ill	-5.74069
▁hes	-5.74787
▁time	-5.74973
▁really	-5.78903
▁us	-5.79827
▁tell	-5.80426
▁say	-5.812
▁yes	-5.81758
▁cant	-5.82245
▁whats	-5.88098
▁something	-5.90748
y	-5.90935
▁need	-5.94752
▁didnt	-5.95999
▁please	-5.97187
▁mean	-5.97189
▁god	-5.98734
▁sorry	-5.98907
▁would	-5.99112
▁lets	-5.99188
▁way	-6.02373
▁make	-6.07642
▁thank	-6.08418
▁love	-6.0951
▁let	-6.09986
▁could	-6.10527
▁little	-6.11759
▁give	-6.15366
er	-6.1554
▁people	-6.17443
▁	-6.19736
▁theres	-6.19928
▁two	-6.20845
▁never	-6.21059
e	-6.24274
▁thing	-6.25686
▁said	-6.27316
▁call	-6.31437
▁shes	-6.3144
▁ive	-6.31829
▁sure	-6.33103
▁uh	-6.35321
▁guys	-6.3774
▁wait	-6.37972
▁much	-6.39433
in	-6.40588
▁hi	-6.41388
▁help	-6.41556
▁talk	-6.43448
▁put	-6.4367
▁maybe	-6.44229
▁theyre	-6.4519
r	-6.46933
▁stop	-6.48262
ly	-6.48788
▁even	-6.48866
▁home	-6.49387
▁guy	-6.49872
▁day	-6.52329
▁great	-6.52591
▁hell	-6.53123
▁night	-6.53227
▁ta	-6.53366
▁anything	-6.53822
▁work	-6.54111
▁nice	-6.54531
▁still	-6.56085
▁keep	-6.6022
▁hello	-6.60449
▁car	-6.60756
▁first	-6.61308
▁find	-6.62051
a	-6.62799
▁name	-6.62989
▁nothing	-6.64606
▁wan	-6.64613
▁thought	-6.64815
▁life	-6.65438
▁big	-6.66633
n	-6.67054
▁around	-6.67487
▁better	-6.67666
t	-6.7152
▁sir	-6.7167
▁feel	-6.7172
▁lot	-6.75624
▁new	-6.7585
▁told	-6.75931
▁baby	-6.76117
▁away	-6.76123
▁money	-6.76307
▁ever	-6.77189
▁hear	-6.7828
▁listen	-6.78421
▁move	-6.7902
▁last	-6.79784
▁phone	-6.79946
▁kind	-6.80695
▁girl	-6.81387
▁everything	-6.81717
▁talking	-6.81746
▁house	-6.82127
▁stay	-6.82485
▁coming	-6.82961
▁real	-6.8316
▁leave	-6.84333
▁kill	-6.84675
▁id	-6.86337
▁bad	-6.86597
▁believe	-6.86902
▁hold	-6.87741
▁long	-6.8788
▁three	-6.88286
o	-6.89874
▁things	-6.9021
▁fine	-6.9063
▁always	-6.91298
▁huh	-6.91303
c	-6.91703
▁doesnt	-6.91956
▁place	-6.91999
▁thanks	-6.93161
▁youve	-6.93286
p	-6.93508
▁mr	-6.93739
▁door	-6.94452
▁woman	-6.9554
▁happened	-6.9642
▁remember	-6.96456
▁years	-6.96837
▁boy	-6.9781
▁wont	-6.97847
i	-6.9809
▁understand	-6.99731
es	-7.00834
▁old	-7.00976
▁getting	-7.01028
g	-7.01267
al	-7.0281
▁ass	-7.04512
▁every	-7.04692
▁show	-7.04793
▁made	-7.06679
▁open	-7.07565
▁must	-7.07882
▁else	-7.07908
▁wanted	-7.07996
▁bitch	-7.08092
▁aint	-7.08681
▁care	-7.10116
▁try	-7.1194
▁world	-7.13203
▁um	-7.1328
▁someone	-7.13538
▁trying	-7.13773
▁done	-7.1403
▁wrong	-7.14298
▁ask	-7.14373
▁youll	-7.14574
▁ok	-7.14854
▁friend	-7.15298
▁dead	-7.1539
▁might	-7.15405
▁room	-7.15415
▁son	-7.15947
▁guess	-7.16242
▁shut	-7.16766
▁tonight	-7.17088
▁cause	-7.17655
▁mom	-7.17828
▁dude	-7.17943
▁play	-7.18003
▁meet	-7.18244
▁looking	-7.18247
▁lm	-7.19963
▁isnt	-7.20541
▁left	-7.2056
▁another	-7.20834
▁watch	-7.2148
▁saying	-7.21601
▁next	-7.22911
▁enough	-7.23815
▁actually	-7.2382
▁music	-7.2415
▁damn	-7.24432
▁dad	-7.2464
l	-7.24653
▁mind	-7.24787
▁black	-7.25034
▁pretty	-7.25339
▁excuse	-7.26265
▁jesus	-7.26576
▁today	-7.27828
▁whole	-7.28782
▁job	-7.28807
▁ha	-7.28842
▁wasnt	-7.29415
▁course	-7.31356
▁saw	-7.31696
▁check	-7.32964
▁die	-7.3352
▁run	-7.34044
b	-7.34059
m	-7.34286
▁best	-7.343
▁kids	-7.34946
▁mother	-7.35018
▁face	-7.35378
▁fuckin	-7.35879
▁hard	-7.35966
▁second	-7.36061
▁crazy	-7.3706
▁heard	-7.37298
h	-7.37318
▁may	-7.37389
▁wouldnt	-7.37461
▁head	-7.37615
▁together	-7.37755
▁hit	-7.37907
▁kid	-7.38197
▁seen	-7.38273
▁went	-7.3916
▁came	-7.39181
▁everybody	-7.39862
▁honey	-7.40222
▁ready	-7.40415
▁minute	-7.40719
▁hand	-7.40849
▁la	-7.41376
▁police	-7.41654
▁found	-7.41657
▁called	-7.41987
▁matter	-7.42061
▁start	-7.42747
▁turn	-7.43083
▁somebody	-7.43112
or	-7.43781
▁friends	-7.4452
▁bit	-7.44723
▁men	-7.45337
▁end	-7.45455
▁many	-7.45506
▁whos	-7.45761
▁father	-7.45783
▁cool	-7.46861
▁five	-7.47657
▁live	-7.47792
▁probably	-7.48
▁wife	-7.48001
▁stuff	-7.48006
▁morning	-7.49945
▁weve	-7.49949
▁havent	-7.50734
▁school	-7.5154
▁hot	-7.51599
▁anyway	-7.5193
▁use	-7.52171
▁brother	-7.5243
▁happy	-7.52741
▁hope	-7.53132
▁white	-7.5314
on	-7.53398
▁used	-7.53686
▁minutes	-7.53798
▁family	-7.54364
▁un	-7.54455
▁alone	-7.54781
▁four	-7.5518
▁jake	-7.5519
▁playing	-7.55578
▁em	-7.55703
▁drink	-7.56108
▁bring	-7.56176
▁easy	-7.56439
▁problem	-7.56666
▁tomorrow	-7.56859
▁yet	-7.56866
▁days	-7.56996
▁young	-7.57068
▁eat	-7.57541
▁knew	-7.57704
▁hurt	-7.57835
▁ah	-7.58301
▁number	-7.5842
▁sex	-7.58731
▁whatever	-7.58987
▁took	-7.58989
▁wow	-7.58994
▁inside	-7.59855
▁point	-7.60228
▁pay	-7.60234
▁sit	-7.60735
▁frank	-7.61116
▁business	-7.61161
▁supposed	-7.61217
▁close	-7.61238
w	-7.61555
▁goddamn	-7.62044
▁fire	-7.62161
▁miss	-7.62168
▁high	-7.62575
▁line	-7.62633
▁later	-7.62646
▁cut	-7.62756
▁forget	-7.62905
▁youd	-7.62964
▁ago	-7.63388
▁beautiful	-7.63834
f	-7.64002
▁idea	-7.64373
▁killed	-7.64876
▁water	-7.6522
le	-7.65851
▁everyone	-7.66013
▁already	-7.66116
▁deal	-7.66249
▁re	-7.66461
▁gun	-7.67056
▁nobody	-7.67139
▁person	-7.67887
▁says	-7.67901
▁set	-7.68502
▁wheres	-7.68611
▁whoa	-7.69428
▁safe	-7.69706
▁power	-7.69864
▁gone	-7.69978
▁f	-7.70297
an	-7.70585
ie	-7.71075
▁eyes	-7.71158
▁read	-7.71501
▁looks	-7.71933
ic	-7.72018
▁though	-7.72172
▁part	-7.72701
▁six	-7.72762
▁without	-7.72802
▁stand	-7.73279
▁story	-7.73297
▁anybody	-7.74294
▁true	-7.74306
▁couldnt	-7.74365
us	-7.74676
ers	-7.75095
▁anyone	-7.75809
▁sonny	-7.75829
▁hands	-7.76122
ion	-7.76447
▁dick	-7.76537
▁shot	-7.76837
▁lost	-7.7686
▁christ	-7.7691
▁screaming	-7.76929
▁fun	-7.78046
en	-7.78218
▁fight	-7.78356
▁children	-7.78391
▁paul	-7.78774
▁movie	-7.78807
▁shoot	-7.78874
▁walk	-7.79149
▁sleep	-7.79405
▁worry	-7.79437
▁pick	-7.79437
▁taking	-7.80011
▁far	-7.80081
ve	-7.80235
▁working	-7.80319
u	-7.80591
▁bye	-7.82115
▁word	-7.82652
▁jack	-7.83076
▁funny	-7.83212
▁yo	-7.83894
▁met	-7.84286
▁couple	-7.84302
▁since	-7.84305
▁happen	-7.84309
▁wants	-7.84522
▁mine	-7.85555
▁sam	-7.85735
re	-7.85759
▁late	-7.85932
▁half	-7.85991
▁asshole	-7.86085
ch	-7.86382
▁c	-7.86757
▁hate	-7.86801
▁girls	-7.8809
▁women	-7.88258
▁making	-7.88267
▁daddy	-7.88279
▁heart	-7.8828
▁hang	-7.88286
▁break	-7.88287
▁drive	-7.88634
▁anymore	-7.88836
▁party	-7.89153
▁laughing	-7.8965
▁soon	-7.89799
▁john	-7.89974
▁year	-7.90212
▁question	-7.90213
▁motherfucker	-7.9023
▁in	-7.90351
▁answer	-7.9059
▁town	-7.90612
▁st	-7.90899
▁sometimes	-7.91015
▁wish	-7.91193
▁thinking	-7.91444
▁outside	-7.91778
▁case	-7.91796
▁hours	-7.91977
▁death	-7.92379
it	-7.92399
▁side	-7.92419
▁charlie	-7.92978
▁city	-7.93008
▁months	-7.93979
▁rest	-7.94189
▁started	-7.94374
▁exactly	-7.94821
▁different	-7.95425
▁body	-7.9543
▁game	-7.95809
▁dog	-7.96156
▁telling	-7.96476
▁kidding	-7.96674
k	-7.96809
▁welcome	-7.973
▁arent	-7.97306
▁air	-7.97328
est	-7.97458
▁week	-7.97728
▁sweet	-7.97886
▁k	-7.98026
▁goes	-7.98285
▁clear	-7.98415
▁bed	-7.98444
▁trust	-7.98732
▁s	-7.99173
ies	-7.99225
▁york	-7.99859
▁special	-8.00488
▁husband	-8.00518
v	-8.0079
▁serious	-8.01006
▁makes	-8.01358
▁sick	-8.01813
▁free	-8.01825
▁dr	-8.01883
▁change	-8.0208
▁married	-8.02484
▁lts	-8.0297
▁food	-8.03146
▁mitch	-8.03147
▁child	-8.03148
▁gave	-8.03151
▁alive	-8.03163
▁full	-8.03181
▁bro	-8.03537
▁ahead	-8.03824
▁dave	-8.03852
▁street	-8.04473
▁sister	-8.04493
▁aah	-8.04513
▁bar	-8.0458
▁straight	-8.05129
▁sound	-8.05173
▁bullshit	-8.05173
▁front	-8.05182
ting	-8.05213
▁sighs	-8.05381
▁bet	-8.05423
▁weird	-8.05858
▁also	-8.05859
▁sounds	-8.05862
z	-8.06093
te	-8.06174
▁war	-8.06355
▁ya	-8.06791
▁ten	-8.06849
▁light	-8.07355
▁afraid	-8.07941
▁trouble	-8.07983
▁stupid	-8.08645
▁wake	-8.0865
▁important	-8.08651
▁touch	-8.09019
▁blood	-8.09084
▁boys	-8.09094
▁times	-8.09226
▁laughs	-8.09332
▁hows	-8.09356
▁fucked	-8.09433
▁de	-8.09891
▁sal	-8.0998
▁almost	-8.10069
ist	-8.10081
▁dinner	-8.10788
▁tv	-8.10909
▁truth	-8.11515
▁behind	-8.11517
id	-8.11915
▁order	-8.11956
▁dance	-8.11959
▁chance	-8.12247
▁perfect	-8.1225
el	-8.12296
▁scared	-8.12398
▁feeling	-8.12446
man	-8.12629
▁red	-8.13332
▁pull	-8.13429
ate	-8.13639
ar	-8.13701
▁team	-8.1374
ation	-8.14006
▁mike	-8.14195
at	-8.14361
able	-8.14399
▁happening	-8.14465
▁th	-8.14921
▁a	-8.15226
▁hmm	-8.15234
▁moment	-8.15284
▁tried	-8.1531
▁book	-8.15587
▁moving	-8.15978
▁country	-8.15985
▁dream	-8.16506
▁hair	-8.16739
ra	-8.16772
th	-8.17895
▁heres	-8.18297
▁chuckles	-8.18652
up	-8.18839
▁lady	-8.19129
▁parents	-8.19497
▁b	-8.19559
ro	-8.19679
▁bobby	-8.19854
▁mouth	-8.19857
▁speak	-8.20268
▁cop	-8.20341
▁daniel	-8.20645
▁annie	-8.20653
▁cold	-8.20734
▁holy	-8.20824
▁voice	-8.21105
▁e	-8.21294
▁ooh	-8.21666
▁reason	-8.21903
▁asked	-8.22016
▁radio	-8.22253
▁grunting	-8.22286
▁da	-8.22298
▁top	-8.2238
▁send	-8.22519
▁officer	-8.2291
um	-8.22989
▁hurry	-8.23064
▁brought	-8.23065
▁piece	-8.23622
▁hour	-8.23634
▁continues	-8.23636
▁meeting	-8.23838
▁running	-8.23898
▁lives	-8.23959
ter	-8.24037
▁lie	-8.24775
▁buy	-8.25022
st	-8.25441
▁coffee	-8.25544
ne	-8.25593
▁promise	-8.26057
▁fact	-8.26343
ity	-8.27319
▁grunts	-8.27413
▁waiting	-8.27507
▁either	-8.28086
▁happens	-8.2821
▁step	-8.28925
▁lord	-8.28952
▁shh	-8.29
▁news	-8.29342
▁calling	-8.29471
▁shouldnt	-8.29818
▁buddy	-8.29821
▁least	-8.29859
▁follow	-8.30531
▁lose	-8.3057
▁date	-8.30622
▁along	-8.30699
▁totally	-8.30748
▁wall	-8.30882
▁sign	-8.30903
▁ringing	-8.31011
▁p	-8.31089
▁office	-8.31415
▁drop	-8.31583
▁calm	-8.31591
il	-8.31595
▁i	-8.31597
▁catch	-8.31605
▁gay	-8.31624
ment	-8.32076
ive	-8.3225
▁relax	-8.32473
▁sort	-8.32474
▁road	-8.32476
▁save	-8.33071
▁taken	-8.33363
▁means	-8.33401
▁mmm	-8.33422
▁mrs	-8.3346
▁ride	-8.336
▁g	-8.33669
▁clean	-8.34026
▁seven	-8.34254
▁theyll	-8.34283
▁uncle	-8.34283
▁sense	-8.34283
▁ladies	-8.34289
▁plan	-8.34492
▁ho	-8.35152
▁alright	-8.352
ur	-8.35276
▁lucky	-8.35444
▁kiss	-8.35465
▁wind	-8.35559
▁floor	-8.36126
▁mmhmm	-8.36137
▁human	-8.36151
is	-8.36576
▁itll	-8.37064
▁glad	-8.37064
▁daughter	-8.37132
▁america	-8.37443
▁joe	-8.37505
▁record	-8.37641
▁doctor	-8.38107
less	-8.38858
▁super	-8.38928
▁beat	-8.3933
▁wonder	-8.39339
▁n	-8.39364
la	-8.3937
▁fat	-8.39951
▁table	-8.40021
ce	-8.40852
▁george	-8.40889
▁class	-8.41008
▁picture	-8.41078
▁song	-8.41386
▁peter	-8.41996
▁rock	-8.42355
▁seems	-8.42513
ass	-8.42734
▁careful	-8.42768
▁screams	-8.42791
▁lan	-8.42831
▁somewhere	-8.42859
x	-8.4292
▁weeks	-8.43171
▁quiet	-8.43708
▁million	-8.43878
▁sent	-8.43894
▁murder	-8.44055
▁mo	-8.44323
▁figure	-8.44563
▁r	-8.44657
▁stu	-8.44694
▁v	-8.44778
▁stick	-8.449
▁ice	-8.4512
▁wear	-8.45362
▁pain	-8.45591
▁fast	-8.45693
▁luck	-8.4576
et	-8.4588
▁king	-8.45882
▁dark	-8.45885
▁crying	-8.46204
▁died	-8.46215
▁j	-8.46437
ll	-8.46536
▁bag	-8.46842
▁kick	-8.46924
▁favorite	-8.46924
▁message	-8.46929
▁con	-8.47066
▁ron	-8.47208
▁eye	-8.4738
▁t	-8.47699
lo	-8.47748
▁control	-8.47954
▁leaving	-8.47964
▁seem	-8.48187
ul	-8.48783
▁american	-8.49013
▁yall	-8.49048
▁boat	-8.49054
▁past	-8.491
▁groans	-8.49181
▁throw	-8.49382
ia	-8.49894
▁worth	-8.50071
▁company	-8.50079
▁cops	-8.50546
▁blow	-8.50943
▁seeing	-8.51072
▁middle	-8.51155
▁smart	-8.51155
▁asking	-8.51177
am	-8.51226
▁able	-8.51491
▁watching	-8.52111
▁mad	-8.52193
▁cover	-8.52296
▁finally	-8.52321
▁hotel	-8.52322
sh	-8.5237
▁ow	-8.52387
▁lt	-8.52563
▁roll	-8.52809
▁deep	-8.52998
▁blue	-8.53342
ish	-8.5338
▁seriously	-8.53599
▁balls	-8.53607
▁cute	-8.53845
▁cell	-8.54067
na	-8.54175
▁ran	-8.54224
▁detective	-8.54453
▁henry	-8.54453
▁worked	-8.54565
ant	-8.55201
▁pa	-8.55222
▁secret	-8.55566
▁living	-8.55585
▁none	-8.5574
▁ex	-8.56635
▁agent	-8.5672
▁maam	-8.56722
▁cash	-8.56734
▁lll	-8.57088
j	-8.57381
▁broke	-8.57753
▁captain	-8.57861
▁felt	-8.57861
▁absolutely	-8.57865
▁paid	-8.57891
oo	-8.58033
▁ray	-8.58043
▁beer	-8.58145
▁suck	-8.58636
▁prison	-8.58762
▁small	-8.58802
▁explain	-8.59023
▁mommy	-8.59048
▁fall	-8.5969
▁slow	-8.60051
▁breathe	-8.60077
▁security	-8.602
▁theyve	-8.602
▁eight	-8.60236
▁christian	-8.6024
▁star	-8.60736
▁lock	-8.60956
ent	-8.61037
▁brothers	-8.61098
ous	-8.61232
▁seat	-8.61268
▁joke	-8.61399
▁pop	-8.6148
▁knock	-8.61563
▁count	-8.61737
▁gasps	-8.61758
▁spend	-8.6203
▁card	-8.62201
co	-8.62393
▁box	-8.62559
▁block	-8.62601
▁roger	-8.62623
▁singing	-8.63001
▁loved	-8.63011
▁pal	-8.63462
▁key	-8.63516
▁ball	-8.63591
ful	-8.63722
▁swear	-8.63815
▁win	-8.63815
▁christmas	-8.63816
▁tight	-8.63821
▁outta	-8.63821
▁alice	-8.63824
▁law	-8.63891
▁chattering	-8.64061
▁dear	-8.6421
▁wed	-8.64338
se	-8.64355
▁eli	-8.64763
▁ship	-8.64826
▁quit	-8.6489
▁court	-8.65049
▁except	-8.65049
▁lawyer	-8.65051
▁jerry	-8.65053
▁longer	-8.65053
▁sake	-8.65058
▁shall	-8.65062
▁sitting	-8.65143
▁quite	-8.6525
▁ca	-8.65347
▁less	-8.65359
▁fish	-8.65788
▁quick	-8.65924
un	-8.66013
▁nigga	-8.66056
ta	-8.66106
▁strange	-8.66134
▁sweetheart	-8.66303
▁appreciate	-8.66684
▁bloody	-8.66779
to	-8.66785
▁known	-8.66922
ness	-8.67262
▁join	-8.67523
▁awesome	-8.67565
▁college	-8.67565
▁mm	-8.67652
▁al	-8.67708
▁hed	-8.67975
▁w	-8.68
▁arm	-8.68031
▁looked	-8.68089
ian	-8.68319
▁test	-8.6837
ey	-8.68446
▁film	-8.68636
im	-8.68804
▁donnie	-8.68847
▁major	-8.68847
▁building	-8.69025
▁land	-8.69091
▁carl	-8.69335
▁report	-8.6963
▁learn	-8.6967
▁finish	-8.69672
▁smoke	-8.69808
▁strong	-8.69928
▁choice	-8.70146
▁others	-8.70146
▁born	-8.70156
▁partner	-8.70171
▁amazing	-8.70201
▁bo	-8.70558
▁act	-8.70889
▁dre	-8.71279
▁o	-8.71308
▁gentlemen	-8.71463
▁till	-8.715
ac	-8.71566
▁enjoy	-8.71729
▁tara	-8.71739
▁di	-8.71933
▁ground	-8.72309
▁fix	-8.72329
▁short	-8.72357
▁sim	-8.72669
▁killer	-8.72719
▁beach	-8.72795
▁english	-8.72796
▁completely	-8.7285
▁burn	-8.73419
me	-8.73485
▁wearing	-8.73532
ma	-8.73561
▁killing	-8.73762
▁smell	-8.74098
▁respect	-8.74146
▁situation	-8.74146
▁giving	-8.74146
▁scene	-8.74146
▁werent	-8.74146
▁birthday	-8.74147
▁proud	-8.74152
▁camp	-8.74155
▁space	-8.74155
▁bank	-8.74163
▁doc	-8.74168
▁lying	-8.74188
▁single	-8.74219
▁attack	-8.75034
ee	-8.75108
▁bill	-8.75167
▁lay	-8.75179
▁doin	-8.75191
▁hole	-8.75504
▁bastard	-8.75504
▁video	-8.75516
▁across	-8.75516
▁possible	-8.75516
▁david	-8.75516
▁ryan	-8.75517
▁club	-8.75519
ty	-8.75531
ff	-8.75583
▁boss	-8.75594
▁se	-8.75762
▁m	-8.75986
▁d	-8.76173
one	-8.76361
▁laugh	-8.76362
▁speaking	-8.76487
▁force	-8.76574
▁computer	-8.76905
▁kept	-8.76905
▁truck	-8.76906
ling	-8.77437
▁an	-8.78187
▁dumb	-8.78314
▁pleasure	-8.78314
▁driving	-8.78314
▁yep	-8.78333
▁station	-8.78383
▁bus	-8.78389
▁grab	-8.7843
▁suit	-8.78484
▁co	-8.78843
son	-8.78992
▁lovely	-8.79138
li	-8.79586
▁honest	-8.7961
▁rich	-8.79622
▁hospital	-8.79742
▁mistake	-8.79743
▁bathroom	-8.79744
▁neck	-8.79747
▁definitely	-8.79748
▁hungry	-8.79748
ow	-8.79762
▁weekend	-8.79763
▁wonderful	-8.79769
▁june	-8.79781
▁whoo	-8.79802
▁become	-8.79848
▁girlfriend	-8.79848
os	-8.80066
▁needed	-8.80601
ton	-8.80614
▁er	-8.80625
▁smile	-8.80912
▁art	-8.80955
▁near	-8.81039
▁guard	-8.81177
▁uhhuh	-8.81191
▁earth	-8.81197
▁clothes	-8.81199
▁finished	-8.81724
▁bomb	-8.81959
ry	-8.82054
▁sell	-8.82136
▁dress	-8.82276
▁po	-8.82343
▁mark	-8.82655
▁accident	-8.82662
▁attention	-8.82662
▁babe	-8.82662
▁steal	-8.82663
▁general	-8.82663
▁wedding	-8.82664
▁words	-8.82667
▁crowd	-8.8267
▁shell	-8.82671
lng	-8.82708
▁hide	-8.82792
▁names	-8.82983
▁needs	-8.82993
▁keys	-8.83017
out	-8.83504
▁state	-8.83671
▁surprise	-8.83826
ot	-8.83879
▁victor	-8.8388
▁sea	-8.83888
▁fair	-8.83891
▁favor	-8.84149
▁conversation	-8.84155
▁return	-8.84155
▁brenda	-8.84155
▁present	-8.84155
▁forever	-8.84156
▁pizza	-8.84159
ca	-8.84183
▁window	-8.84432
▁sun	-8.84448
▁trip	-8.84455
▁band	-8.84509
▁ben	-8.84729
▁stone	-8.85341
▁mar	-8.85411
▁gold	-8.85653
▁worse	-8.8567
▁south	-8.8567
▁goodbye	-8.8567
▁sergeant	-8.85672
▁bunch	-8.85699
▁cock	-8.85701
▁stuck	-8.85708
▁early	-8.85729
▁west	-8.85737
▁busy	-8.85963
▁horse	-8.85978
▁breathing	-8.86223
▁locked	-8.86277
▁knocking	-8.86383
no	-8.86573
▁breath	-8.8682
nt	-8.8691
ol	-8.86925
▁sa	-8.86991
▁forgot	-8.87208
▁upstairs	-8.87208
▁yesterday	-8.87208
▁green	-8.87208
▁pussy	-8.87208
▁fear	-8.87208
▁island	-8.87208
▁private	-8.87209
▁alarm	-8.87212
▁pray	-8.87218
▁poor	-8.8727
▁sh	-8.87683
▁wa	-8.87718
▁ring	-8.88018
as	-8.88122
▁handle	-8.88233
▁write	-8.8858
▁comes	-8.88669
▁machine	-8.88756
▁language	-8.88771
▁howd	-8.88771
▁tough	-8.88772
▁department	-8.88777
▁drunk	-8.88781
▁mookie	-8.88788
▁groaning	-8.88821
▁mum	-8.88832
▁gasping	-8.88878
▁personal	-8.88882
▁yelling	-8.89003
▁lead	-8.8936
▁grow	-8.89625
▁simple	-8.89649
▁be	-8.89758
▁listening	-8.90192
ho	-8.90273
▁riley	-8.90363
▁pants	-8.90364
▁panting	-8.90369
▁stopped	-8.90472
▁movies	-8.90674
▁continue	-8.90842
▁push	-8.90926
▁horn	-8.91692
▁protect	-8.91928
▁train	-8.91936
▁anywhere	-8.91971
▁fault	-8.91971
▁phillip	-8.91971
▁lunch	-8.91971
▁north	-8.91975
▁apartment	-8.91982
▁nine	-8.92018
▁standing	-8.92173
▁fit	-8.92204
▁pass	-8.92558
▁metal	-8.92581
▁mess	-8.92585
▁camera	-8.92595
ine	-8.92644
▁feels	-8.93357
▁witch	-8.93525
▁congratulations	-8.9361
▁engine	-8.9361
▁group	-8.9361
▁bought	-8.93614
▁jail	-8.93621
▁boyfriend	-8.93626
▁position	-8.9363
▁action	-8.93785
▁no	-8.93831
▁system	-8.94149
▁jo	-8.94184
▁month	-8.94206
▁acting	-8.9433
▁works	-8.94564
▁cross	-8.94784
▁jump	-8.94795
age	-8.9488
▁share	-8.94965
hi	-8.95015
ni	-8.95034
▁glass	-8.95201
ping	-8.95273
▁experience	-8.95277
▁jimmy	-8.95279
▁tired	-8.95351
▁whatd	-8.95366
▁corner	-8.95498
▁gods	-8.9567
▁folks	-8.95731
▁turned	-8.9575
▁plane	-8.9579
▁sing	-8.9651
▁ii	-8.96776
▁history	-8.96972
▁summer	-8.96972
▁imagine	-8.96972
▁feet	-8.96972
▁darling	-8.96983
▁round	-8.96987
▁board	-8.9706
▁do	-8.97171
▁bell	-8.97239
▁shoes	-8.97555
▁tires	-8.97587
▁hundred	-8.97635
▁base	-8.97641
▁meant	-8.97704
▁talked	-8.97766
op	-8.97797
▁pre	-8.97903
ut	-8.98034
▁arrest	-8.98214
▁color	-8.98238
▁rings	-8.98295
▁rules	-8.98557
▁loud	-8.98671
▁beyond	-8.98696
▁perhaps	-8.98696
▁support	-8.98696
▁soul	-8.98711
▁honor	-8.98741
▁eric	-8.98752
▁fighting	-8.98818
▁eh	-8.98833
▁missing	-8.99152
▁sean	-8.99272
▁wouldve	-8.99528
▁age	-8.99763
▁questions	-8.99819
▁seconds	-9.00302
ge	-9.00404
▁foot	-9.00449
▁worried	-9.0045
▁candy	-9.0045
▁upset	-9.00451
▁idiot	-9.00451
▁lonely	-9.00451
▁river	-9.00454
▁trick	-9.00455
▁sandie	-9.00482
▁cube	-9.00492
▁over	-9.00501
▁unless	-9.00551
▁sweetie	-9.00575
▁meg	-9.00677
▁talkin	-9.00742
▁offer	-9.01335
▁extra	-9.01612
ted	-9.01661
▁crash	-9.01667
ary	-9.01847
▁nah	-9.01964
▁evening	-9.02029
▁fell	-9.02098
mo	-9.02165
▁fresh	-9.02204
▁caught	-9.02236
▁colonel	-9.02236
▁lucas	-9.02236
▁rather	-9.02238
▁rid	-9.02275
▁code	-9.02293
▁ms	-9.02437
▁pu	-9.02617
▁legs	-9.02693
▁park	-9.02806
▁driver	-9.02931
ah	-9.02976
▁paper	-9.03123
▁ba	-9.03546
bo	-9.03679
▁cry	-9.03788
▁realize	-9.03797
ha	-9.03887
▁normal	-9.03895
▁named	-9.04008
▁ghost	-9.04051
▁florida	-9.04054
▁instead	-9.04054
▁johnny	-9.04088
▁low	-9.04164
▁taste	-9.04167
▁el	-9.04403
▁starting	-9.05061
king	-9.05173
ts	-9.05346
▁sad	-9.05519
▁dare	-9.05542
ley	-9.05641
▁entire	-9.0575
▁goin	-9.05795
▁fool	-9.05891
▁difference	-9.05906
▁government	-9.05906
▁london	-9.05906
▁malorie	-9.05906
▁terrance	-9.05906
▁throat	-9.05906
▁credit	-9.05906
▁self	-9.05908
▁involved	-9.05992
▁rain	-9.06033
▁kinda	-9.06059
▁shouting	-9.06073
ance	-9.06501
▁pro	-9.06597
ect	-9.06652
▁weapon	-9.06931
ure	-9.06998
▁drug	-9.07016
▁carry	-9.07405
▁jones	-9.07586
▁certain	-9.07652
▁kat	-9.07687
▁contract	-9.07793
▁evidence	-9.07793
▁president	-9.07793
▁punch	-9.07793
▁wrote	-9.07793
▁local	-9.07796
▁kane	-9.07804
▁h	-9.07805
▁dirty	-9.07863
▁nicole	-9.07867
▁jay	-9.07922
▁missed	-9.07924
▁fucker	-9.08015
▁dig	-9.08065
▁kate	-9.08272
▁bear	-9.0832
▁bob	-9.08369
▁shed	-9.08379
ad	-9.08406
▁lve	-9.09005
io	-9.09135
▁text	-9.09248
▁owe	-9.09309
▁lynn	-9.09512
▁adrian	-9.09716
▁shirt	-9.09716
▁dying	-9.09719
▁jeff	-9.09723
▁spot	-9.09727
▁wild	-9.09792
▁press	-9.0987
▁reading	-9.10001
▁ar	-9.10002
▁fly	-9.10009
▁fi	-9.10046
▁interesting	-9.10096
▁lance	-9.10108
▁billy	-9.10108
▁putting	-9.10171
▁teach	-9.10472
▁starts	-9.1051
▁problems	-9.10612
▁charge	-9.10922
▁grand	-9.1116
▁butt	-9.11233
▁agree	-9.11321
▁nick	-9.11433
▁soft	-9.11526
▁ma	-9.11572
▁chick	-9.1164
▁desalvo	-9.11677
▁samantha	-9.11677
▁third	-9.11677
▁dangerous	-9.11686
▁information	-9.11695
▁beth	-9.11963
▁given	-9.12102
▁bun	-9.12291
▁miles	-9.12405
▁dollars	-9.12609
per	-9.12698
▁whose	-9.12707
▁reach	-9.13198
▁tape	-9.1321
▁cat	-9.13366
▁angel	-9.13439
ized	-9.13592
▁abigail	-9.13677
▁eloise	-9.13677
▁lieutenant	-9.13677
▁nervous	-9.13677
▁hasnt	-9.13679
▁race	-9.13699
▁hall	-9.13822
ial	-9.13842
▁broken	-9.13896
▁swing	-9.14
▁army	-9.1411
▁cr	-9.14239
▁rent	-9.1425
tra	-9.14332
▁wine	-9.14342
▁post	-9.14349
▁takes	-9.14471
▁zo	-9.14527
▁expect	-9.14654
▁changed	-9.14674
ny	-9.14681
▁hat	-9.14718
line	-9.14748
▁sc	-9.14798
▁type	-9.14845
▁relationship	-9.14963
▁moved	-9.1506
▁visit	-9.15079
▁calls	-9.15151
▁where	-9.15185
▁bang	-9.15217
▁remind	-9.15224
▁lived	-9.154
▁crap	-9.15636
▁russell	-9.15718
▁forward	-9.15718
▁feed	-9.15722
▁store	-9.15792
▁walking	-9.15845
▁va	-9.15873
ea	-9.1589
▁heat	-9.15907
▁birds	-9.16134
▁saved	-9.16467
ke	-9.16478
▁list	-9.16733
em	-9.16736
▁leon	-9.16834
▁bi	-9.17057
▁finger	-9.1713
▁richard	-9.1715
qu	-9.17164
▁gas	-9.17174
▁treat	-9.17194
▁closed	-9.17252
▁staying	-9.17342
▁fl	-9.1736
▁final	-9.17447
▁jean	-9.17797
▁church	-9.17801
▁double	-9.17801
▁kitchen	-9.17801
▁loretta	-9.17801
▁pregnant	-9.17801
▁address	-9.17801
▁neighborhood	-9.17801
▁future	-9.17803
▁repeat	-9.17807
▁fbi	-9.17822
▁mama	-9.17829
▁wash	-9.17831
▁usually	-9.17861
▁obviously	-9.1788
▁sandy	-9.17928
▁warm	-9.18027
▁pe	-9.18057
ions	-9.18098
om	-9.18371
▁cook	-9.18688
▁drugs	-9.18754
▁fan	-9.19211
lly	-9.19387
▁picked	-9.19707
▁lights	-9.19737
▁california	-9.19928
▁heavy	-9.19928
▁professor	-9.19928
▁sarge	-9.19928
▁chief	-9.19929
▁eddie	-9.19929
▁theyd	-9.19929
▁teeth	-9.1993
▁terrible	-9.1993
▁lori	-9.1993
▁cheese	-9.19931
▁danny	-9.19934
▁duke	-9.19938
vi	-9.19947
▁cream	-9.19948
▁excited	-9.19953
▁jamie	-9.19976
▁director	-9.19983
▁creaking	-9.2002
▁skin	-9.20113
▁honestly	-9.20159
ber	-9.20207
ph	-9.20257
ped	-9.20338
di	-9.20411
▁richards	-9.20613
▁ed	-9.20949
▁pack	-9.21106
dy	-9.21195
gest	-9.2135
▁india	-9.21384
▁bother	-9.21616
▁french	-9.22102
▁rachel	-9.22102
▁search	-9.22102
▁level	-9.22103
▁nowhere	-9.22103
▁counselor	-9.22111
▁beginning	-9.22114
▁tits	-9.2212
▁within	-9.22133
▁leg	-9.22214
▁sleeping	-9.22234
▁mary	-9.22528
▁sl	-9.22863
way	-9.22938
▁rat	-9.23
▁cl	-9.23014
de	-9.23255
ck	-9.23493
ble	-9.23525
▁crime	-9.23762
▁animal	-9.23796
▁freak	-9.23837
▁allow	-9.2386
▁blame	-9.23991
▁notice	-9.23996
▁peace	-9.24305
▁max	-9.24324
▁decision	-9.24325
▁themistokles	-9.24325
▁victim	-9.24325
▁zooey	-9.24325
▁yaya	-9.24326
▁operation	-9.24327
▁loose	-9.2433
▁judge	-9.24333
▁pressure	-9.24341
▁crew	-9.24344
▁booth	-9.24348
▁gaz	-9.24372
▁james	-9.24394
▁ones	-9.24461
▁walter	-9.2448
▁cup	-9.24578
fi	-9.24605
▁ab	-9.24707
▁banging	-9.24939
▁books	-9.25666
▁hon	-9.25775
ba	-9.25786
▁liked	-9.25865
▁track	-9.26013
▁thousand	-9.26088
▁waste	-9.26264
rs	-9.26313
tic	-9.2644
▁hanging	-9.26532
▁angry	-9.26597
▁apologize	-9.26597
▁contact	-9.26597
▁emergency	-9.26597
▁knife	-9.26597
▁restaurant	-9.26597
▁sobbing	-9.26597
▁worst	-9.26597
▁battle	-9.26598
▁gift	-9.266
▁area	-9.2661
▁spent	-9.26615
▁huge	-9.26723
▁tony	-9.2677
▁joy	-9.27004
ard	-9.27041
▁so	-9.272
▁inter	-9.27243
▁paula	-9.27244
▁van	-9.2727
▁per	-9.27418
▁vi	-9.27739
▁shower	-9.28276
ick	-9.28324
ew	-9.28386
▁belong	-9.28464
▁account	-9.28471
▁direct	-9.28734
the	-9.28755
▁hero	-9.28831
▁asleep	-9.28923
▁built	-9.28923
▁difficult	-9.28923
▁neither	-9.28923
▁nikki	-9.28923
▁suzanne	-9.28923
▁whether	-9.28923
▁plus	-9.28923
▁bodies	-9.28923
▁sydney	-9.28924
▁weak	-9.28926
▁chair	-9.28929
▁everywhere	-9.2893
▁thatll	-9.28933
▁upon	-9.28961
▁exist	-9.28987
▁model	-9.29078
▁sight	-9.2917
▁chocolate	-9.29174
end	-9.29277
ier	-9.29347
▁ch	-9.29567
les	-9.29637
▁eating	-9.29707
go	-9.29738
▁seemed	-9.30009
▁tom	-9.30076
▁nuts	-9.30101
▁sp	-9.30118
▁san	-9.30179
▁played	-9.30459
▁ra	-9.30581
▁le	-9.30602
ga	-9.30655
▁bird	-9.30853
▁tree	-9.30895
▁service	-9.30905
▁brown	-9.30938
▁command	-9.30994
da	-9.31053
▁prove	-9.31189
▁dope	-9.31294
▁choose	-9.31304
▁heaven	-9.31304
▁heavily	-9.31304
▁rumbling	-9.31304
▁target	-9.31304
▁harold	-9.31304
▁marcus	-9.31304
▁mostly	-9.31304
▁stories	-9.31304
▁wailing	-9.31304
▁larry	-9.31304
▁marriage	-9.31305
▁howard	-9.31312
▁famous	-9.31322
▁ad	-9.31475
▁hunter	-9.31725
▁doug	-9.31727
▁nic	-9.31993
▁sucks	-9.32118
▁copy	-9.32127
▁boyd	-9.32251
▁turning	-9.32553
uck	-9.32686
▁travel	-9.33172
▁dis	-9.3324
▁guns	-9.33289
and	-9.33323
▁doors	-9.33494
▁discuss	-9.33629
▁nothin	-9.33655
tor	-9.33673
▁admit	-9.33743
▁afternoon	-9.33743
▁shouldve	-9.33743
▁trevor	-9.33743
▁vegas	-9.33743
▁sharp	-9.33743
▁ellie	-9.33743
▁lainey	-9.33743
▁investigation	-9.33745
▁beauty	-9.33746
ence	-9.3376
▁janet	-9.33769
▁field	-9.33803
▁manager	-9.33803
▁risk	-9.33814
▁role	-9.33858
▁note	-9.33872
▁si	-9.33873
▁gate	-9.3388
▁sky	-9.33917
▁cheering	-9.33936
▁magic	-9.33956
▁chad	-9.3397
▁chill	-9.3398
▁nora	-9.33988
▁moaning	-9.34042
▁mayor	-9.34171
▁ti	-9.34451
▁mate	-9.34519
men	-9.34537
▁closer	-9.3462
▁learned	-9.34649
ner	-9.34663
▁couldve	-9.34801
▁rub	-9.35042
▁dreams	-9.35175
▁holding	-9.35348
▁crack	-9.35464
▁en	-9.35946
▁older	-9.3595
▁bottle	-9.35973
▁guest	-9.36023
▁sexual	-9.36082
▁bottom	-9.36086
▁total	-9.3609
▁du	-9.36191
▁east	-9.36219
▁especially	-9.36243
▁jonathan	-9.36243
▁klara	-9.36243
▁twenty	-9.36243
▁freedom	-9.36243
▁roof	-9.36243
▁milton	-9.36247
▁bailey	-9.36256
▁rush	-9.36258
▁awful	-9.36259
▁airport	-9.36263
▁barry	-9.36302
▁nurse	-9.36377
ev	-9.36393
▁wise	-9.36405
▁screeching	-9.36436
▁arms	-9.36646
▁realized	-9.36834
▁turns	-9.37054
▁dry	-9.37318
▁wondering	-9.3773
▁yells	-9.38107
▁accept	-9.38319
▁cab	-9.38377
▁distance	-9.38807
▁eazy	-9.38807
▁forgive	-9.38807
▁plenty	-9.38807
▁thomas	-9.38807
▁walsh	-9.38807
▁wendy	-9.38807
▁downtown	-9.38808
▁greek	-9.38809
▁borrow	-9.3881
▁snow	-9.38811
▁kelly	-9.38812
▁brian	-9.38817
▁milk	-9.38838
▁swim	-9.3884
▁tour	-9.38843
▁bigger	-9.38868
▁master	-9.38916
▁colin	-9.38942
▁certainly	-9.39018
com	-9.39285
▁louis	-9.39459
▁file	-9.39529
▁main	-9.39662
▁drinking	-9.39681
▁cheers	-9.3984
bb	-9.39967
res	-9.39992
▁all	-9.40143
land	-9.40202
▁sexy	-9.40464
ring	-9.40475
▁den	-9.40485
▁hu	-9.40699
▁hook	-9.40706
▁iii	-9.40831
▁beg	-9.40865
▁bucks	-9.40906
▁disappear	-9.4096
ru	-9.40983
▁bless	-9.41024
ated	-9.41074
▁matt	-9.41114
▁spoke	-9.4131
▁public	-9.4142
▁extreme	-9.41439
▁pilot	-9.41439
▁pretend	-9.41439
▁program	-9.41439
▁coach	-9.41439
▁royal	-9.41439
▁genius	-9.41439
▁hollywood	-9.4144
▁twice	-9.41442
▁gerald	-9.41442
▁toast	-9.41443
▁price	-9.41443
▁thunder	-9.41446
▁split	-9.41447
▁machinery	-9.41465
▁marry	-9.41466
▁castle	-9.41481
▁whore	-9.41492
▁laser	-9.41502
▁streets	-9.41515
▁large	-9.41546
▁belt	-9.41548
▁warning	-9.41691
▁deeply	-9.41813
▁interested	-9.41882
ise	-9.42009
▁letter	-9.42025
ture	-9.42194
▁dogs	-9.42419
▁plays	-9.42438
off	-9.42449
▁promised	-9.42481
▁moms	-9.42537
▁speaks	-9.42627
▁beeps	-9.42858
▁pot	-9.43147
▁rap	-9.43177
time	-9.43542
head	-9.43642
▁assholes	-9.43672
▁deserve	-9.4372
▁switch	-9.44081
▁nigger	-9.44114
▁student	-9.44115
▁spirit	-9.4414
▁aiex	-9.44141
▁claire	-9.44141
▁doubt	-9.44141
▁elevator	-9.44141
▁hobbes	-9.44141
▁ridiculous	-9.44141
▁television	-9.44141
▁theater	-9.44141
▁weather	-9.44141
▁aaron	-9.44141
▁cameron	-9.44142
▁lisa	-9.44147
▁marvin	-9.4415
▁exhales	-9.44151
▁chuckling	-9.44152
▁match	-9.44154
▁onto	-9.44154
▁shop	-9.44155
▁lake	-9.44224
▁national	-9.44267
▁march	-9.44327
▁shooting	-9.4433
▁nose	-9.44373
▁motherfucking	-9.44374
ally	-9.44444
▁inhales	-9.44494
ell	-9.44811
▁paying	-9.44935
▁jon	-9.45012
▁rob	-9.45029
▁lo	-9.45085
▁ears	-9.45213
led	-9.45916
▁orders	-9.46186
▁chatter	-9.46375
▁shock	-9.46424
▁suppose	-9.46608
▁pie	-9.46632
▁hearing	-9.4665
▁com	-9.46754
ize	-9.46845
▁virgin	-9.46907
▁cocksucker	-9.46919
▁footsteps	-9.46919
▁italian	-9.46919
▁memory	-9.46919
▁monkey	-9.46919
▁project	-9.46919
▁willie	-9.46919
▁besides	-9.46919
▁dancing	-9.46919
▁steve	-9.46924
▁remain	-9.46924
▁sunday	-9.46925
▁torment	-9.46927
▁evil	-9.4693
▁season	-9.46951
▁client	-9.46962
▁ugh	-9.46999
▁safety	-9.47017
▁writing	-9.4704
▁decided	-9.47156
▁ahh	-9.47321
▁hoping	-9.47324
▁pin	-9.47422
ls	-9.47497
▁pr	-9.47526
do	-9.47698
▁bust	-9.47957
▁pi	-9.48114
tion	-9.4816
▁papers	-9.48387
ari	-9.48435
▁reporter	-9.48614
ator	-9.48626
▁ne	-9.48682
▁consider	-9.48709
▁motherfuckers	-9.48737
▁interest	-9.48779
▁piss	-9.4879
▁los	-9.48825
▁escape	-9.49437
▁mindy	-9.4946
▁deliver	-9.49495
▁gives	-9.49547
▁sub	-9.49744
▁tea	-9.49766
▁mckenna	-9.49776
▁request	-9.49776
▁esther	-9.49776
▁speed	-9.49778
▁tongue	-9.49778
▁settle	-9.49787
▁view	-9.49788
▁imran	-9.49794
▁whatre	-9.49795
▁claim	-9.49811
▁hm	-9.49814
▁queen	-9.49816
▁broad	-9.49822
▁ought	-9.49822
▁ticket	-9.4991
▁concerned	-9.49978
▁clay	-9.49982
▁bass	-9.49983
▁lines	-9.49993
▁cap	-9.50094
▁pissed	-9.50259
▁aw	-9.50329
▁surprised	-9.50412
▁whispers	-9.50564
▁loves	-9.50588
▁numbers	-9.50739
▁pee	-9.50756
▁officers	-9.50872
▁pen	-9.50943
▁higher	-9.51175
▁states	-9.51237
▁scream	-9.51326
▁non	-9.51427
og	-9.51648
▁load	-9.5166
▁hunt	-9.5167
ism	-9.51687
▁me	-9.51939
▁hum	-9.52038
▁image	-9.52087
▁fill	-9.52198
▁survive	-9.52382
▁photo	-9.52498
▁breaking	-9.52631
▁character	-9.52717
▁downstairs	-9.52717
▁fantastic	-9.52717
▁insane	-9.52717
▁knox	-9.52717
▁matthew	-9.52717
▁ralph	-9.52717
▁regular	-9.52717
▁spanish	-9.52717
▁whistling	-9.52717
▁purge	-9.52717
▁hadnt	-9.52718
▁rusty	-9.52718
▁trent	-9.52718
▁nathan	-9.52718
▁willing	-9.52722
▁lift	-9.52722
▁responsible	-9.52727
▁liar	-9.52742
▁professional	-9.52772
▁u	-9.52781
▁cast	-9.52811
▁guilty	-9.52811
▁rigg	-9.52856
▁study	-9.52882
▁suspect	-9.52919
▁sold	-9.52942
▁jacket	-9.53025
▁pink	-9.5303
▁richie	-9.53036
▁male	-9.53126
▁bath	-9.53265
▁pam	-9.53413
▁animals	-9.53423
▁rule	-9.53491
▁keeps	-9.53615
▁letting	-9.537
min	-9.53719
▁figured	-9.53739
▁dial	-9.53778
▁growing	-9.53779
▁games	-9.53878
▁z	-9.53909
▁ohh	-9.54214
ud	-9.5438
ng	-9.54492
▁lou	-9.54535
ver	-9.54588
▁following	-9.54642
ug	-9.54829
▁form	-9.55077
▁pictures	-9.55157
▁chas	-9.55218
▁sale	-9.5531
▁freeze	-9.55579
▁mothers	-9.55579
▁col	-9.55628
▁product	-9.55656
▁criminal	-9.55748
▁mexico	-9.55748
▁michael	-9.55748
▁often	-9.55748
▁sheriff	-9.55748
▁vehicle	-9.55748
▁practice	-9.55748
▁threw	-9.55748
▁blind	-9.55748
▁rape	-9.55753
▁foley	-9.55755
▁comfortable	-9.55755
▁terrific	-9.55761
▁grace	-9.55763
▁batman	-9.55778
▁dropped	-9.55783
▁score	-9.55808
▁meal	-9.55846
▁comin	-9.55869
▁angeles	-9.55897
▁zone	-9.55904
▁mende	-9.55951
▁ro	-9.55975
▁scary	-9.56025
▁soldier	-9.56064
▁fort	-9.56098
▁quickly	-9.56128
▁out	-9.56177
▁actor	-9.56182
▁brain	-9.5623
▁knees	-9.56497
▁lately	-9.56598
▁porn	-9.5668
▁bow	-9.5711
▁bat	-9.57147
ette	-9.57161
▁to	-9.57402
▁sirens	-9.57783
▁bra	-9.57967
▁fired	-9.58052
▁bite	-9.58086
▁chris	-9.582
▁spread	-9.58291
▁closet	-9.58368
▁jew	-9.58617
▁cos	-9.58637
ai	-9.58691
▁bridge	-9.58743
▁witness	-9.58782
▁somethin	-9.58785
▁cra	-9.58851
▁elliot	-9.58873
▁screen	-9.58873
▁strike	-9.58873
▁suicide	-9.58873
▁taught	-9.58873
▁cancer	-9.58873
▁cousin	-9.58873
▁actress	-9.58873
▁basically	-9.58877
▁gotten	-9.58883
▁compton	-9.58885
▁bedroom	-9.58892
▁boring	-9.58896
▁gang	-9.58896
▁enter	-9.58908
▁flight	-9.58921
▁disgusting	-9.58936
▁castor	-9.58937
▁rare	-9.58937
▁stage	-9.58944
▁grade	-9.58948
▁litera	-9.58948
▁immediately	-9.58954
▁market	-9.58973
▁piper	-9.58973
▁incredible	-9.58975
▁site	-9.58994
▁witches	-9.5906
▁joni	-9.59102
ens	-9.59168
▁cost	-9.59171
▁beeping	-9.59223
▁bud	-9.59239
▁tad	-9.59283
▁russian	-9.59301
▁losing	-9.59525
▁allowed	-9.59552
mp	-9.59633
▁jam	-9.59747
▁hurts	-9.60007
▁murdered	-9.60379
▁scar	-9.60433
va	-9.60457
▁heads	-9.60458
▁lied	-9.60557
▁watched	-9.60792
▁stars	-9.60925
▁using	-9.61
▁ac	-9.61064
▁someones	-9.61351
▁tu	-9.61467
▁sweat	-9.61473
▁talent	-9.61604
▁brains	-9.61763
▁dimitr	-9.61791
▁release	-9.61792
ler	-9.61803
▁classic	-9.61854
▁interview	-9.61884
▁sch	-9.61898
▁plans	-9.62096
▁became	-9.62099
▁canada	-9.62099
▁gorgeous	-9.62099
▁military	-9.62099
▁patterson	-9.62099
▁pocket	-9.62099
▁process	-9.62099
▁tunnel	-9.62099
▁greg	-9.62099
▁mountain	-9.62099
▁virus	-9.62099
▁friday	-9.62099
▁foreign	-9.62099
▁monday	-9.62101
▁sugar	-9.62101
▁hank	-9.62108
▁yellow	-9.62112
▁aware	-9.62115
▁niggers	-9.62133
▁fred	-9.6214
▁robert	-9.62196
▁lots	-9.62222
▁invited	-9.62299
all	-9.6232
▁laid	-9.62374
ze	-9.62422
ction	-9.62424
▁tip	-9.62495
▁corn	-9.62502
▁noticed	-9.62581
▁union	-9.62637
▁ends	-9.62648
▁ships	-9.6279
▁secure	-9.62829
▁nature	-9.62907
▁dressed	-9.63165
▁up	-9.63234
▁burning	-9.63474
▁drinks	-9.6362
▁keeping	-9.63635
our	-9.63872
▁pulled	-9.64226
▁screw	-9.64364
▁ren	-9.64914
▁records	-9.65006
▁hip	-9.65085
▁serve	-9.65102
▁walked	-9.65104
▁lover	-9.65196
house	-9.65225
pe	-9.65247
▁mu	-9.6533
▁cu	-9.65332
▁gettin	-9.65375
▁harm	-9.65429
▁abdullah	-9.65432
▁babies	-9.65432
▁breakfast	-9.65432
▁condition	-9.65432
▁familiar	-9.65432
▁greece	-9.65432
▁gunfire	-9.65432
▁slept	-9.65432
▁cindy	-9.65432
▁empty	-9.65432
▁jules	-9.65432
▁period	-9.65432
▁wheel	-9.65432
▁stallworth	-9.65432
▁midnight	-9.65433
▁whoever	-9.65434
▁smith	-9.65434
▁earlier	-9.65434
▁option	-9.65436
▁clue	-9.65441
▁punk	-9.65448
▁ocean	-9.6545
▁joking	-9.65456
▁bail	-9.6546
▁owner	-9.65462
▁audition	-9.65463
▁ghostface	-9.6547
▁hiding	-9.65479
▁gary	-9.65633
▁jerk	-9.65688
▁grown	-9.65706
▁gu	-9.65734
▁buck	-9.65882
▁mission	-9.65911
▁coughs	-9.6597
by	-9.65998
▁amen	-9.65999
▁opening	-9.65999
▁chicken	-9.66093
▁paint	-9.66174
▁sue	-9.66219
▁opens	-9.66531
▁fingers	-9.66531
▁jet	-9.66675
▁weapons	-9.66995
▁falling	-9.67072
▁rolling	-9.67179
gi	-9.67211
▁bum	-9.67575
pa	-9.67777
▁lf	-9.67965
ned	-9.6819
you	-9.68446
▁divorce	-9.68573
▁correct	-9.68626
ball	-9.68699
▁wh	-9.68728
▁stole	-9.68754
▁trans	-9.68873
▁represent	-9.68876
▁apparently	-9.6888
▁couch	-9.6888
▁douche	-9.6888
▁impossible	-9.6888
▁mistress	-9.6888
▁crush	-9.6888
▁flash	-9.6888
▁trace	-9.6888
▁laura	-9.68881
▁mask	-9.68882
▁garden	-9.68883
▁rough	-9.68883
▁kevin	-9.68883
▁desk	-9.68885
▁grew	-9.68888
▁shake	-9.68891
▁nope	-9.68894
▁society	-9.68895
▁jason	-9.68895
▁understood	-9.68899
▁duty	-9.68903
▁clock	-9.68905
▁meat	-9.68915
▁app	-9.68919
▁recently	-9.68943
▁sword	-9.68944
▁laughter	-9.68946
▁standard	-9.68948
▁mourning	-9.6895
▁lee	-9.68979
ak	-9.68997
▁rose	-9.69021
▁maria	-9.69026
▁bush	-9.69054
▁whispering	-9.69071
▁interviewer	-9.69111
ii	-9.69133
▁brave	-9.69146
tan	-9.69261
▁signal	-9.69269
▁weed	-9.6927
▁joint	-9.69344
▁united	-9.69381
▁niggas	-9.69565
▁bullet	-9.69607
back	-9.69611
▁begin	-9.69809
▁mi	-9.6989
▁passed	-9.6991
▁teacher	-9.70052
▁sw	-9.70092
▁cards	-9.70095
▁te	-9.70203
▁bitches	-9.70214
▁asses	-9.70263
▁reasons	-9.70268
▁career	-9.70638
▁fart	-9.70787
bit	-9.7086
▁mel	-9.71121
▁bl	-9.71159
▁mon	-9.71258
light	-9.71474
uc	-9.71515
gh	-9.71791
▁su	-9.71855
▁tank	-9.72015
▁mention	-9.72049
▁raise	-9.72207
▁hung	-9.72229
▁val	-9.72277
fuck	-9.72287
▁access	-9.72451
▁innocent	-9.72451
▁mirror	-9.72451
▁punjabi	-9.72451
▁sinclair	-9.72451
▁social	-9.72451
▁zahra	-9.72451
▁vacation	-9.72452
▁slap	-9.72452
▁network	-9.72453
▁whenever	-9.72453
▁bright	-9.72456
▁unbelievable	-9.72456
▁priest	-9.72458
▁kitty	-9.72462
▁hart	-9.72462
▁prick	-9.72464
▁fake	-9.72474
▁santa	-9.72478
▁grandma	-9.72482
▁pool	-9.72486
▁medical	-9.72562
▁coughing	-9.72568
▁moon	-9.72642
▁trap	-9.72818
▁hired	-9.72923
teen	-9.73012
▁due	-9.73253
▁reached	-9.7332
▁port	-9.73325
▁ru	-9.7345
▁bringing	-9.73696
▁gl	-9.73754
▁devil	-9.73755
▁armed	-9.73812
▁cars	-9.73921
▁charges	-9.73944
▁bump	-9.74008
▁checked	-9.74009
ang	-9.7424
ack	-9.7424
▁lap	-9.7433
▁ram	-9.7443
side	-9.74432
▁page	-9.74498
ue	-9.74632
▁bull	-9.74911
▁draw	-9.74994
▁murders	-9.7512
cious	-9.75127
▁dee	-9.75237
▁doo	-9.75392
▁feelings	-9.75462
▁fathers	-9.75485
▁tips	-9.75567
▁sha	-9.75639
▁complete	-9.75657
▁closes	-9.75748
▁li	-9.75753
▁design	-9.75868
▁mal	-9.75877
▁sandwich	-9.76056
▁prince	-9.76058
ern	-9.76062
▁player	-9.76096
▁according	-9.76155
▁afford	-9.76155
▁felicia	-9.76155
▁juice	-9.76155
▁nelson	-9.76155
▁oclock	-9.76155
▁shift	-9.76155
▁somehow	-9.76155
▁cloud	-9.76155
▁axel	-9.76155
▁dewald	-9.76155
▁fruit	-9.76156
▁stairs	-9.76156
▁whyd	-9.76156
▁woke	-9.76161
▁community	-9.76161
▁common	-9.76162
▁stuart	-9.76171
▁beast	-9.76182
▁rick	-9.76201
▁panic	-9.76203
▁adam	-9.76207
▁size	-9.7622
▁carlos	-9.76225
▁coat	-9.76234
▁yearold	-9.76243
▁christine	-9.76259
▁pure	-9.76287
▁assume	-9.76288
▁loss	-9.76297
▁powerful	-9.76298
ong	-9.76314
▁wet	-9.76318
ray	-9.76325
▁pino	-9.76342
▁center	-9.76361
▁pete	-9.76362
▁picking	-9.76407
▁yell	-9.76483
▁earn	-9.76522
▁ton	-9.7659
my	-9.76594
▁click	-9.76618
▁helping	-9.76831
▁dealing	-9.76976
▁shoulder	-9.77154
▁monster	-9.77173
▁citizen	-9.77175
▁sometime	-9.77221
▁flying	-9.77269
▁fella	-9.77486
▁burned	-9.77503
▁oil	-9.77732
▁meaning	-9.77815
▁pig	-9.77902
▁int	-9.77911
▁tri	-9.78059
▁min	-9.78069
▁sucker	-9.78155
▁bags	-9.78642
▁salt	-9.78906
▁mis	-9.78968
▁pulling	-9.79065
anc	-9.79162
▁nobodys	-9.79214
ide	-9.79218
▁hug	-9.79379
▁am	-9.79399
▁confirm	-9.79482
▁focus	-9.79504
▁dump	-9.79518
▁wound	-9.7953
▁cha	-9.79604
▁decide	-9.79676
▁introduce	-9.79691
▁lookin	-9.79755
▁natural	-9.79838
▁indistinct	-9.79845
ov	-9.79846
▁penis	-9.79935
▁chuck	-9.79943
▁danger	-9.79986
▁advice	-9.80001
▁artemisia	-9.80001
▁cocaine	-9.80001
▁collins	-9.80001
▁excellent	-9.80001
▁expensive	-9.80001
▁kenny	-9.80001
▁license	-9.80001
▁maretto	-9.80001
▁museum	-9.80001
▁recognize	-9.80001
▁several	-9.80001
▁speech	-9.80001
▁thirty	-9.80001
▁vagina	-9.80001
▁distant	-9.80001
▁quarter	-9.80001
▁whistle	-9.80001
▁firm	-9.80002
▁pamela	-9.80002
▁distort	-9.80002
▁ugly	-9.80002
▁crawl	-9.80002
▁gym	-9.80002
▁moron	-9.80002
▁boston	-9.80003
▁odd	-9.80005
▁mmmhmm	-9.80005
▁appointment	-9.80006
▁curious	-9.80006
▁stretch	-9.80008
▁ash	-9.8001
▁damage	-9.80012
▁football	-9.80015
▁gentleman	-9.8002
▁fanny	-9.80022
▁papa	-9.80023
▁jewish	-9.80026
▁pair	-9.80027
▁mister	-9.80029
▁storm	-9.80031
▁cake	-9.80045
▁students	-9.80051
▁heh	-9.80054
▁weight	-9.80074
▁chest	-9.80095
▁betty	-9.80098
▁connection	-9.80102
▁row	-9.80125
▁cave	-9.80133
▁kim	-9.80145
▁federa	-9.80163
▁andy	-9.80165
▁josh	-9.80184
▁arrived	-9.80307
▁or	-9.80639
▁agreed	-9.80658
ft	-9.80699
▁disappeared	-9.80709
▁butter	-9.80791
▁ja	-9.80807
▁faster	-9.80829
▁issue	-9.80829
▁x	-9.8083
con	-9.80848
▁sally	-9.80937
▁greatest	-9.80941
air	-9.81029
▁ended	-9.81031
old	-9.8104
▁apple	-9.81207
▁chop	-9.81287
▁rip	-9.81415
▁towards	-9.81416
▁ri	-9.81511
for	-9.81576
▁cla	-9.8161
▁farm	-9.81643
▁gr	-9.81845
▁hire	-9.81868
▁gene	-9.81944
ious	-9.82285
cat	-9.82299
▁tryin	-9.8237
▁tall	-9.82736
tch	-9.8289
▁clicks	-9.82917
▁ruin	-9.83171
▁windows	-9.83318
▁opened	-9.83327
▁build	-9.83441
▁mix	-9.83534
▁br	-9.83647
▁beck	-9.83748
down	-9.83782
▁tickets	-9.83827
▁sudden	-9.83846
▁obvious	-9.83847
▁collect	-9.83924
▁clients	-9.8394
▁traffic	-9.83989
▁strip	-9.8399
▁amanda	-9.84001
▁attitude	-9.84001
▁audience	-9.84001
▁champagne	-9.84001
▁chicago	-9.84001
▁climb	-9.84001
▁easier	-9.84001
▁effect	-9.84001
▁interlinked	-9.84001
▁interrupt	-9.84001
▁magazine	-9.84001
▁official	-9.84001
▁sausage	-9.84001
▁serrano	-9.84001
▁umbrella	-9.84001
▁webber	-9.84001
▁gunshot	-9.84001
▁pardon	-9.84001
▁schedule	-9.84001
▁aisle	-9.84002
▁albert	-9.84002
▁ipad	-9.84002
▁staff	-9.84002
▁flesh	-9.84002
▁hindi	-9.84002
▁stood	-9.84002
▁opportunity	-9.84003
▁norton	-9.84006
▁miami	-9.84007
▁vision	-9.84007
▁spell	-9.84015
▁whack	-9.84017
▁sixpack	-9.84021
▁shame	-9.84027
▁logan	-9.84028
▁poem	-9.8403
▁tuck	-9.8405
▁on	-9.84068
▁pace	-9.84085
▁whip	-9.84119
▁snap	-9.84123
▁mass	-9.84132
▁spare	-9.84153
▁photos	-9.84298
▁bleeding	-9.84409
▁frankie	-9.84421
▁comp	-9.84435
▁filled	-9.84663
▁lower	-9.84765
▁je	-9.84777
▁tap	-9.84838
ub	-9.84912
ight	-9.84939
▁jud	-9.84977
▁clearly	-9.84998
▁member	-9.8532
▁shape	-9.85485
▁chain	-9.85503
▁ic	-9.85653
iy	-9.85713
▁covered	-9.85854
ets	-9.85913
▁ku	-9.85938
▁planet	-9.86029
▁details	-9.86426
bra	-9.86494
▁flip	-9.86505
gu	-9.86537
ville	-9.86745
▁cur	-9.86769
▁touched	-9.86782
▁pos	-9.86875
▁issues	-9.86912
ki	-9.8694
oh	-9.86942
▁cor	-9.8742
▁hal	-9.87427
▁chi	-9.87452
▁photograph	-9.87685
▁destroy	-9.87686
▁ideas	-9.87787
▁prepare	-9.87833
▁pat	-9.87833
▁arrive	-9.87838
▁hills	-9.87863
book	-9.88024
▁madam	-9.8805
ank	-9.8812
▁flat	-9.88127
den	-9.88136
▁threat	-9.88168
▁clamoring	-9.88168
▁device	-9.88168
▁exercise	-9.88168
▁fantasy	-9.88168
▁howling	-9.88168
▁object	-9.88168
▁otherwise	-9.88168
▁rescue	-9.88168
▁review	-9.88168
▁saturday	-9.88168
▁mallory	-9.88168
▁swimming	-9.88169
▁nerve	-9.88169
▁toilet	-9.88169
▁stress	-9.8817
▁barely	-9.88171
▁kyle	-9.88171
▁among	-9.88175
▁blew	-9.88179
▁kilo	-9.88183
▁stan	-9.88187
▁naked	-9.88193
▁award	-9.882
▁stock	-9.88201
▁nasty	-9.88234
▁demon	-9.88238
▁salad	-9.8824
ppy	-9.8828
▁protection	-9.88281
▁ruth	-9.88289
▁exit	-9.88304
▁uhoh	-9.88352
▁lesson	-9.88358
▁original	-9.88509
▁guests	-9.88583
▁advance	-9.88621
▁unit	-9.88706
▁mentioned	-9.88734
ok	-9.88761
▁charles	-9.88838
▁tail	-9.88871
▁accounts	-9.88968
▁dicks	-9.89297
▁artist	-9.89443
▁mc	-9.89501
▁neighbor	-9.89653
▁noise	-9.89668
▁goodness	-9.89737
▁bond	-9.89951
ox	-9.90016
▁testing	-9.90057
▁hop	-9.90184
▁cells	-9.90209
▁who	-9.90377
ren	-9.90414
mon	-9.90514
▁americans	-9.90768
ast	-9.90935
▁fund	-9.9094
▁units	-9.90986
▁dan	-9.91166
kin	-9.91646
▁places	-9.91742
▁bon	-9.91767
vin	-9.91863
▁soldiers	-9.92076
port	-9.92178
▁twin	-9.92203
▁aunt	-9.92416
ile	-9.92432
▁recommend	-9.92485
▁apart	-9.92505
▁birth	-9.92513
▁arjun	-9.92516
▁dallas	-9.92516
▁exciting	-9.92516
▁felix	-9.92516
▁female	-9.92516
▁hannibal	-9.92516
▁horrible	-9.92516
▁lincoln	-9.92516
▁material	-9.92516
▁mechanic	-9.92516
▁muffled	-9.92516
▁necessary	-9.92516
▁particular	-9.92516
▁responsibility	-9.92516
▁sneak	-9.92516
▁stomach	-9.92516
▁violence	-9.92516
▁whimpering	-9.92516
▁changing	-9.92516
▁enemy	-9.92516
▁irene	-9.92516
▁kumar	-9.92516
▁silver	-9.92516
▁awake	-9.92516
▁impressive	-9.92516
▁harry	-9.92516
▁scoffs	-9.92516
▁route	-9.92516
▁bug	-9.92517
▁mischa	-9.9252
▁fancy	-9.9252
▁smack	-9.92521
▁colorado	-9.92524
▁percent	-9.92525
▁ripley	-9.92529
▁purpose	-9.9253
▁coast	-9.92533
▁cunt	-9.92535
▁rude	-9.92542
▁chapter	-9.92549
▁vito	-9.92551
▁accountant	-9.92553
▁confused	-9.92553
▁coco	-9.92574
▁nola	-9.92576
▁basement	-9.9258
▁wire	-9.92649
▁daisy	-9.92657
▁stolen	-9.92677
▁itd	-9.92723
▁rex	-9.92728
▁madame	-9.92731
▁embarrassed	-9.92743
red	-9.92756
▁erase	-9.92802
▁martin	-9.92861
▁sink	-9.92865
▁created	-9.92897
ical	-9.93041
▁taco	-9.93066
bi	-9.93189
▁clicking	-9.93191
ung	-9.93198
▁spit	-9.93403
▁tied	-9.93632
▁offered	-9.93718
ite	-9.93817
▁parking	-9.93921
▁headed	-9.94152
▁mikey	-9.94159
▁speakers	-9.9438
▁he	-9.94452
▁der	-9.94621
▁stra	-9.94629
▁gi	-9.94631
▁map	-9.94666
ax	-9.94762
▁blowing	-9.94865
▁throwing	-9.94912
▁ko	-9.95053
ade	-9.95107
▁siren	-9.9536
▁buying	-9.95584
▁sending	-9.95661
▁nail	-9.95907
▁horses	-9.96164
▁lies	-9.96355
▁connect	-9.96452
▁poison	-9.96482
▁showed	-9.96518
▁mob	-9.96612
▁stops	-9.96637
▁hol	-9.96651
▁moan	-9.96706
▁walt	-9.96756
board	-9.96824
tro	-9.96962
▁off	-9.97061
▁although	-9.97061
▁assault	-9.97061
▁blindfold	-9.97061
▁diamond	-9.97061
▁eventually	-9.97061
▁league	-9.97061
▁negative	-9.97061
▁schultz	-9.97061
▁silence	-9.97061
▁snake	-9.97061
▁square	-9.97061
▁stephanie	-9.97061
▁strength	-9.97061
▁wyatt	-9.97061
▁central	-9.97061
▁dispatch	-9.97061
▁illegal	-9.97061
▁jeez	-9.97061
▁racist	-9.97061
▁stalker	-9.97061
▁closing	-9.97062
▁doris	-9.97062
▁chanting	-9.97062
▁buried	-9.97062
▁freddie	-9.97062
▁held	-9.97062
▁cheap	-9.97063
▁giggling	-9.97063
▁wasting	-9.97065
▁planning	-9.97065
▁reese	-9.97065
▁narrat	-9.97066
▁mobile	-9.97067
▁halloween	-9.97068
▁insist	-9.97068
▁squad	-9.97071
▁pride	-9.97075
▁german	-9.97076
▁wherever	-9.97077
▁estate	-9.97078
▁suge	-9.97078
▁baseball	-9.97079
▁unfortunately	-9.9708
▁legal	-9.97088
▁stink	-9.97096
▁bills	-9.97103
▁truly	-9.97123
▁pitch	-9.97126
▁string	-9.97135
▁statement	-9.97139
▁announcer	-9.97147
▁jim	-9.97149
▁neb	-9.97168
▁chosen	-9.97183
▁suddenly	-9.97239
▁received	-9.97255
▁wipe	-9.97271
▁clattering	-9.9732
▁brit	-9.9732
▁miller	-9.97338
▁approaching	-9.97367
▁chat	-9.97381
▁softly	-9.97428
▁add	-9.97707
▁jonesy	-9.97736
▁quietly	-9.97785
▁thi	-9.97861
▁shy	-9.97891
▁dar	-9.97921
▁gra	-9.98112
▁county	-9.9813
▁lips	-9.98132
▁hump	-9.9816
▁nation	-9.98222
▁flowers	-9.9825
▁shitty	-9.98278
▁cali	-9.98458
ill	-9.98631
aii	-9.98856
▁del	-9.98883
▁aa	-9.98918
▁cigarette	-9.98994
▁patient	-9.98997
▁detail	-9.99001
▁bee	-9.99171
▁gin	-9.99255
▁sports	-9.9929
ky	-9.99584
▁eggs	-9.99714
▁robb	-9.99916
▁heading	-9.99968
▁harder	-10.0003
ncy	-10.004
▁citizens	-10.0052
▁sol	-10.0073
irling	-10.0095
cent	-10.0096
▁range	-10.0099
▁drown	-10.0124
pro	-10.0126
▁wha	-10.0127
▁runs	-10.0147
▁flow	-10.0159
▁physical	-10.0166
ara	-10.0169
▁chose	-10.017
▁phil	-10.0175
▁express	-10.0176
play	-10.0177
▁instrument	-10.0182
▁alcohol	-10.0182
▁colqhoun	-10.0182
▁commercial	-10.0182
▁echoing	-10.0182
▁equipment	-10.0182
▁faggot	-10.0182
▁jocasta	-10.0182
▁kindergarten	-10.0182
▁perimeter	-10.0182
▁pollux	-10.0182
▁positive	-10.0182
▁research	-10.0182
▁romantic	-10.0182
▁someday	-10.0182
▁telephone	-10.0182
▁thursday	-10.0182
▁toffler	-10.0182
▁tuesday	-10.0182
▁twelve	-10.0182
▁vaughn	-10.0182
▁whirring	-10.0182
▁miserable	-10.0182
▁random	-10.0182
▁omar	-10.0182
▁borat	-10.0182
▁indeed	-10.0182
▁prefer	-10.0182
▁faint	-10.0182
▁desert	-10.0182
▁print	-10.0182
▁series	-10.0182
▁persian	-10.0182
▁funeral	-10.0182
▁susan	-10.0183
▁describe	-10.0183
▁gather	-10.0183
▁cowboy	-10.0183
▁brett	-10.0183
▁yard	-10.0183
▁defend	-10.0183
▁steel	-10.0183
burg	-10.0183
▁tommy	-10.0184
▁pump	-10.0184
▁bacon	-10.0184
▁tasty	-10.0184
▁tool	-10.0184
▁saving	-10.0184
▁coward	-10.0184
▁bored	-10.0185
▁honking	-10.0185
▁crackling	-10.0185
▁winner	-10.0186
▁coke	-10.0186
▁blanket	-10.0187
▁laughlng	-10.0188
▁quinn	-10.0188
▁treatment	-10.0188
▁pet	-10.019
▁minor	-10.019
▁media	-10.0194
▁katie	-10.0194
▁under	-10.0194
▁berry	-10.0196
▁dust	-10.0201
▁funk	-10.0201
▁indistinctly	-10.0202
▁drum	-10.0202
▁fifty	-10.0203
▁gina	-10.0206
▁glasses	-10.0211
▁embarrassing	-10.0212
▁cow	-10.0212
▁sand	-10.0227
▁destroyed	-10.0238
▁bu	-10.024
▁deny	-10.0241
nie	-10.0241
▁coin	-10.0241
▁wood	-10.0245
▁ge	-10.0248
▁che	-10.0252
▁raised	-10.0253
▁char	-10.0259
▁leo	-10.0265
▁tend	-10.0267
▁ka	-10.0269
▁mill	-10.0291
▁thousands	-10.0291
▁scare	-10.0296
▁doer	-10.0307
▁jumped	-10.0323
ami	-10.0325
▁badge	-10.035
▁fixed	-10.0359
▁stab	-10.0359
▁fa	-10.0362
▁selling	-10.0372
▁slaves	-10.0373
▁knocked	-10.0379
▁shows	-10.0386
▁ci	-10.0386
▁pan	-10.0389
▁ph	-10.0392
▁canadian	-10.0395
▁med	-10.0397
▁depends	-10.0402
▁parent	-10.0405
▁ln	-10.0411
▁cent	-10.0415
▁bones	-10.0415
▁simpl	-10.0421
▁backup	-10.0428
▁helped	-10.0442
▁vic	-10.0442
▁cares	-10.0444
▁pounds	-10.0445
▁gal	-10.0458
▁lads	-10.0461
▁cigarettes	-10.0474
▁beating	-10.0475
ice	-10.0483
hand	-10.0507
ible	-10.0513
▁cameras	-10.0528
▁dads	-10.0535
▁monsters	-10.0546
▁fellas	-10.055
▁resist	-10.0561
▁that	-10.0577
▁sals	-10.0579
art	-10.0608
iest	-10.061
▁ce	-10.0626
▁daughters	-10.0644
▁hatch	-10.0645
▁grant	-10.0646
▁convince	-10.0649
unk	-10.0664
ama	-10.0672
▁faith	-10.0681
▁attempt	-10.0682
▁advantage	-10.0682
▁ambulance	-10.0682
▁attend	-10.0682
▁attorney	-10.0682
▁bruno	-10.0682
▁garbage	-10.0682
▁guarantee	-10.0682
▁hansel	-10.0682
▁including	-10.0682
▁invisible	-10.0682
▁jealous	-10.0682
▁joseph	-10.0682
▁kershaw	-10.0682
▁rattling	-10.0682
▁resident	-10.0682
▁taylor	-10.0682
▁album	-10.0682
▁contain	-10.0682
▁silent	-10.0682
▁smiling	-10.0682
▁wolf	-10.0682
▁doorbell	-10.0682
▁piano	-10.0682
▁purse	-10.0682
▁nightmare	-10.0682
▁helen	-10.0683
▁zero	-10.0683
▁cheek	-10.0683
▁impressed	-10.0683
▁cherry	-10.0683
▁assistant	-10.0683
▁memories	-10.0684
▁successful	-10.0684
▁abby	-10.0684
▁written	-10.0684
▁cleaves	-10.0684
▁sail	-10.0684
▁silly	-10.0685
▁tiny	-10.0685
▁firing	-10.0685
▁universe	-10.0685
▁neil	-10.0687
▁thud	-10.0687
▁chef	-10.0687
▁growling	-10.0688
▁rapid	-10.0688
▁handsome	-10.0688
▁darkness	-10.0691
▁fag	-10.0691
▁pour	-10.0695
▁toss	-10.0695
▁style	-10.0695
▁tube	-10.0697
▁troy	-10.0697
▁bout	-10.0697
llis	-10.0698
▁tickle	-10.07
▁sur	-10.0702
▁winter	-10.0704
▁discovered	-10.0706
press	-10.0708
▁queer	-10.0711
▁direction	-10.0713
▁tone	-10.0721
▁entirely	-10.0725
▁gale	-10.0725
▁bur	-10.0733
▁personally	-10.0742
▁changes	-10.0743
▁parker	-10.0744
▁wounded	-10.0746
▁movement	-10.0749
▁rum	-10.0755
▁bla	-10.0761
▁dam	-10.0773
▁prep	-10.0775
▁subt	-10.0798
▁wrap	-10.0802
ters	-10.0809
▁ber	-10.0825
▁arrested	-10.0826
▁anti	-10.083
▁everyones	-10.0831
▁dickie	-10.0842
▁au	-10.0845
▁ate	-10.0849
▁springs	-10.0854
▁messing	-10.0862
▁beep	-10.0896
hole	-10.0899
▁brings	-10.0903
▁goat	-10.0909
▁kicked	-10.0923
▁plate	-10.0924
▁spending	-10.0927
▁pound	-10.0928
▁waves	-10.0929
▁sec	-10.0935
▁hee	-10.0961
▁fo	-10.0977
▁believed	-10.0978
▁wing	-10.0984
▁bert	-10.0988
▁lad	-10.1009
▁prisoner	-10.1022
▁ordered	-10.1023
▁ted	-10.1031
▁separate	-10.1054
ative	-10.1057
▁rep	-10.1073
▁trusted	-10.1074
▁leona	-10.1077
ium	-10.1077
▁worker	-10.1085
▁indian	-10.1099
▁ga	-10.1109
▁mic	-10.1113
▁hay	-10.1128
ath	-10.1133
▁qui	-10.1159
▁we	-10.1165
▁pla	-10.117
que	-10.1171
▁suspects	-10.1172
▁invite	-10.1176
ui	-10.118
▁brand	-10.1182
▁spa	-10.1188
▁usual	-10.1194
▁emotional	-10.1197
▁develop	-10.1206
▁anthony	-10.1209
▁available	-10.1209
▁avoid	-10.1209
▁barbara	-10.1209
▁clown	-10.1209
▁combat	-10.1209
▁donkey	-10.1209
▁ferrigno	-10.1209
▁houssam	-10.1209
▁kenneth	-10.1209
▁miracle	-10.1209
▁murphy	-10.1209
▁muscle	-10.1209
▁respond	-10.1209
▁science	-10.1209
▁serena	-10.1209
▁smoking	-10.1209
▁smooth	-10.1209
▁subject	-10.1209
▁wolken	-10.1209
▁fifteen	-10.1209
▁proof	-10.1209
▁motel	-10.1209
▁plastic	-10.1209
▁proceed	-10.1209
▁costume	-10.1209
▁klan	-10.1209
▁advise	-10.1209
▁translate	-10.1209
▁lugo	-10.1209
▁magnet	-10.1209
▁pathetic	-10.1209
▁iron	-10.1209
▁loving	-10.1209
▁asian	-10.1209
▁mathew	-10.1209
▁golf	-10.1209
▁clark	-10.121
▁rope	-10.121
▁online	-10.121
▁anger	-10.121
▁stripper	-10.121
▁property	-10.121
▁flour	-10.121
▁therapy	-10.121
▁cartman	-10.1211
▁value	-10.1211
▁ripped	-10.1211
▁coop	-10.1211
▁blade	-10.1211
▁hallway	-10.1211
▁fries	-10.1211
▁gear	-10.1212
▁ellis	-10.1212
▁section	-10.1212
▁joyce	-10.1214
▁satan	-10.1215
▁obsessed	-10.1215
▁thick	-10.1217
▁barking	-10.1218
▁boom	-10.1219
ified	-10.1222
▁auntie	-10.1222
▁sm	-10.1223
▁button	-10.1224
▁evan	-10.1225
▁deck	-10.123
▁dating	-10.123
▁rot	-10.1232
▁blast	-10.1234
▁healthy	-10.1235
▁billion	-10.1236
▁robin	-10.1242
▁jade	-10.1242
duct	-10.1243
▁bury	-10.1243
▁convinced	-10.1246
▁amy	-10.1251
▁vc	-10.1261
▁scrap	-10.1266
▁cia	-10.1269
▁screwed	-10.1287
▁points	-10.1287
▁writer	-10.1318
▁tub	-10.1323
▁traveling	-10.1335
▁carrying	-10.1372
▁williams	-10.1374
▁slams	-10.1388
wn	-10.139
bel	-10.1392
▁cookie	-10.1394
▁highly	-10.1399
▁attacked	-10.14
▁sooner	-10.141
▁tear	-10.1453
▁shouts	-10.1454
▁ob	-10.1464
some	-10.1469
▁plant	-10.1481
▁appear	-10.1481
▁parts	-10.1482
lock	-10.1483
▁term	-10.1483
▁nut	-10.1492
bl	-10.1498
▁murderer	-10.1544
▁cleaning	-10.1551
▁checking	-10.1589
▁ke	-10.1603
▁wi	-10.1608
▁sin	-10.1608
gen	-10.1613
▁leads	-10.1622
▁ver	-10.1631
ook	-10.1655
▁boo	-10.1658
▁gosh	-10.1662
room	-10.1664
▁lick	-10.1669
▁there	-10.1671
▁ld	-10.1683
ik	-10.1684
▁hill	-10.1685
▁hated	-10.1686
▁suggest	-10.1692
ham	-10.1693
▁buzz	-10.1698
▁doctors	-10.1706
▁bleed	-10.1708
▁players	-10.1718
▁woo	-10.1722
erial	-10.1726
ship	-10.1736
▁health	-10.1739
▁proper	-10.1764
▁applause	-10.1764
▁delicious	-10.1764
▁dessert	-10.1764
▁detroit	-10.1764
▁environment	-10.1764
▁example	-10.1764
▁explanation	-10.1764
▁explosion	-10.1764
▁fraternity	-10.1764
▁grandmother	-10.1764
▁hallelujah	-10.1764
▁happiness	-10.1764
▁hurricane	-10.1764
▁ignore	-10.1764
▁jessica	-10.1764
▁leonidas	-10.1764
▁maintenance	-10.1764
▁mcquarry	-10.1764
▁pistol	-10.1764
▁progress	-10.1764
▁punish	-10.1764
▁regret	-10.1764
▁stevie	-10.1764
▁treasure	-10.1764
▁anytime	-10.1764
▁bureau	-10.1764
▁defense	-10.1764
▁adult	-10.1764
▁becoming	-10.1764
▁merry	-10.1764
▁retard	-10.1764
▁squeal	-10.1764
▁thief	-10.1764
▁opinion	-10.1764
▁alert	-10.1764
▁freezing	-10.1764
▁julia	-10.1764
▁bounc	-10.1764
▁saint	-10.1764
▁deaf	-10.1765
▁sobs	-10.1765
▁attractive	-10.1765
▁orphanage	-10.1765
▁drag	-10.1765
▁spill	-10.1765
▁honour	-10.1766
▁chopper	-10.1766
▁cujo	-10.1766
▁slide	-10.1766
▁cobb	-10.1768
▁mail	-10.1768
▁customers	-10.1768
▁broadway	-10.1768
▁custody	-10.1768
▁comment	-10.1769
▁grave	-10.1769
▁jill	-10.177
▁shine	-10.177
▁iike	-10.177
▁edge	-10.177
▁marty	-10.177
▁bike	-10.177
▁squ	-10.1774
▁ap	-10.1777
nder	-10.178
▁johnson	-10.1781
▁eve	-10.1781
▁wit	-10.1784
▁aye	-10.1784
▁fallen	-10.1785
▁mustard	-10.1786
▁down	-10.1795
▁her	-10.1796
▁archer	-10.1808
▁walls	-10.1811
▁ban	-10.1813
▁damon	-10.1822
▁gig	-10.1828
▁louder	-10.1836
▁slowly	-10.184
▁jer	-10.185
▁gum	-10.1852
▁the	-10.1856
hem	-10.1864
ware	-10.1864
ney	-10.1867
▁kit	-10.1868
▁boyle	-10.1882
▁chips	-10.1889
▁doll	-10.1892
cal	-10.19
ttie	-10.191
▁ay	-10.1911
ddam	-10.1923
▁singer	-10.1929
▁tie	-10.1937
▁simon	-10.194
▁training	-10.1966
▁reported	-10.1977
▁ur	-10.2005
▁loser	-10.2008
▁diet	-10.2009
▁hardly	-10.2028
▁pills	-10.2031
▁mul	-10.2042
▁ending	-10.2054
▁leader	-10.2066
▁carol	-10.2069
▁sport	-10.2075
▁dollar	-10.208
▁chuckle	-10.2081
▁wave	-10.2087
▁patients	-10.2108
▁stranger	-10.2139
▁warn	-10.2189
ka	-10.2204
ett	-10.2211
▁bands	-10.2254
▁trade	-10.2254
ound	-10.2258
▁pill	-10.2283
▁cancel	-10.2304
▁dem	-10.2307
work	-10.2315
▁incredibl	-10.2333
looking	-10.2334
▁immediate	-10.2337
▁mmhm	-10.2346
▁blank	-10.2347
▁pepper	-10.235
▁document	-10.2351
▁anniversary	-10.2352
▁associate	-10.2352
▁butcher	-10.2352
▁celebrate	-10.2352
▁chamber	-10.2352
▁clitoris	-10.2352
▁compliment	-10.2352
▁effort	-10.2352
▁energy	-10.2352
▁envelope	-10.2352
▁families	-10.2352
▁fashion	-10.2352
▁fountain	-10.2352
▁giggles	-10.2352
▁griffith	-10.2352
▁helicopter	-10.2352
▁kirby	-10.2352
▁lesbian	-10.2352
▁lobster	-10.2352
▁outfit	-10.2352
▁peggy	-10.2352
▁sensitive	-10.2352
▁someplace	-10.2352
▁trunk	-10.2352
▁uncomfortable	-10.2352
▁undercover	-10.2352
▁chinese	-10.2352
▁cruel	-10.2352
▁donna	-10.2352
▁grethe	-10.2352
▁honeymoon	-10.2352
▁julie	-10.2352
▁location	-10.2352
▁lounge	-10.2352
▁sweep	-10.2352
▁thumb	-10.2352
▁byebye	-10.2352
▁lewis	-10.2352
▁wrist	-10.2352
▁wallace	-10.2352
▁terry	-10.2352
▁organization	-10.2352
▁email	-10.2352
▁reich	-10.2353
▁slater	-10.2353
▁scratch	-10.2353
▁intelligence	-10.2353
▁justice	-10.2353
▁disks	-10.2353
▁darius	-10.2353
▁mood	-10.2353
▁bernie	-10.2353
▁abort	-10.2353
▁source	-10.2353
▁edward	-10.2353
▁garage	-10.2354
▁refuse	-10.2354
▁digging	-10.2354
▁soak	-10.2354
▁commitment	-10.2354
▁slice	-10.2355
▁native	-10.2356
▁ruthless	-10.2356
▁slut	-10.2356
▁package	-10.2356
▁motherfuckin	-10.2356
▁shopping	-10.2357
▁fellow	-10.2358
▁vanish	-10.2358
▁bastards	-10.2358
▁randy	-10.2359
▁alien	-10.2359
▁mental	-10.236
▁dime	-10.2361
▁heal	-10.2361
▁habit	-10.2365
▁highway	-10.2366
▁cure	-10.2367
▁trial	-10.2367
▁psycho	-10.2374
▁smells	-10.2375
wo	-10.2377
▁pipe	-10.2378
nior	-10.238
▁host	-10.238
pot	-10.2381
▁riot	-10.2383
▁hood	-10.239
▁bottomly	-10.239
▁fourth	-10.2394
▁prize	-10.2396
▁former	-10.2396
▁hitting	-10.2409
▁marsh	-10.2411
▁buzzing	-10.2413
▁ev	-10.2419
fucking	-10.2422
▁commander	-10.2431
▁stronger	-10.2454
▁busted	-10.2463
▁what	-10.2482
gged	-10.2486
▁showing	-10.2496
▁brad	-10.2504
▁tellin	-10.2513
gging	-10.2516
▁rats	-10.2516
▁raped	-10.253
▁stud	-10.2532
▁cracker	-10.2541
▁socks	-10.2556
▁pieces	-10.2561
▁spin	-10.2584
▁yu	-10.2586
▁hostages	-10.2592
over	-10.2592
▁dol	-10.2595
▁vent	-10.26
▁tapes	-10.2606
val	-10.2607
▁voices	-10.2612
▁finding	-10.2615
▁sniff	-10.2637
▁counting	-10.2642
▁shout	-10.2642
pped	-10.2659
▁mac	-10.2683
▁followed	-10.269
▁kicking	-10.2691
▁depend	-10.2694
▁blows	-10.2695
▁ski	-10.2698
let	-10.2706
▁prisoners	-10.2706
▁woods	-10.2707
▁cam	-10.2708
▁ages	-10.2715
▁kissing	-10.2732
▁hundreds	-10.2733
▁sat	-10.2771
▁members	-10.2772
▁eva	-10.2786
car	-10.2802
▁dreaming	-10.2812
ities	-10.2841
▁suffer	-10.287
▁actors	-10.2918
▁becomes	-10.293
▁girlfriends	-10.2932
▁hy	-10.2932
berg	-10.2941
wood	-10.2948
▁bone	-10.2952
▁fift	-10.2958
itles	-10.296
▁slight	-10.297
▁slip	-10.2975
▁gentle	-10.2976
▁alex	-10.2976
▁amount	-10.2977
▁border	-10.2977
▁concept	-10.2977
▁confidence	-10.2977
▁corporation	-10.2977
▁desperate	-10.2977
▁disrespect	-10.2977
▁distract	-10.2977
▁dylan	-10.2977
▁exclaiming	-10.2977
▁financial	-10.2977
▁however	-10.2977
▁judgment	-10.2977
▁mickey	-10.2977
▁offense	-10.2977
▁procedure	-10.2977
▁routine	-10.2977
▁sacrifice	-10.2977
▁scientist	-10.2977
▁surrender	-10.2977
▁tequila	-10.2977
▁texas	-10.2977
▁turkey	-10.2977
▁unknown	-10.2977
▁violent	-10.2977
▁beverly	-10.2977
▁broadcast	-10.2977
▁brutal	-10.2977
▁disease	-10.2977
▁generous	-10.2977
▁hudson	-10.2977
▁plug	-10.2977
▁shadow	-10.2977
▁ashamed	-10.2977
▁ethan	-10.2977
▁float	-10.2977
▁jefferson	-10.2977
▁steak	-10.2977
▁martha	-10.2977
▁candle	-10.2977
▁equal	-10.2977
▁frame	-10.2977
▁diana	-10.2977
▁limit	-10.2977
▁hidden	-10.2978
▁gross	-10.2978
▁uhuh	-10.2978
▁vibe	-10.2978
▁cease	-10.2978
▁tennis	-10.2978
▁breast	-10.2978
▁medicine	-10.2978
▁deckard	-10.2979
▁assignment	-10.2979
▁childhood	-10.2979
▁waitress	-10.2979
▁popular	-10.2979
▁locate	-10.2979
▁delta	-10.298
▁therell	-10.298
▁gail	-10.298
▁winning	-10.2981
▁coloni	-10.2982
▁facility	-10.2982
▁tito	-10.2982
▁cmon	-10.2983
▁whooping	-10.2984
▁poop	-10.2984
▁junk	-10.2984
▁solve	-10.2984
ulation	-10.2986
▁wide	-10.2986
▁taxi	-10.2987
▁dropping	-10.2987
▁painful	-10.2989
▁cries	-10.2989
ably	-10.299
▁attracted	-10.2992
▁gain	-10.2997
▁hack	-10.3001
▁op	-10.3001
▁cooper	-10.3001
▁managed	-10.3009
▁ref	-10.301
▁abandoned	-10.3011
▁producer	-10.3014
tit	-10.3015
▁dean	-10.3018
▁gray	-10.3019
▁gar	-10.3022
▁failed	-10.3023
▁timing	-10.3024
▁cutting	-10.3024
▁mmmm	-10.3026
▁cheating	-10.3032
lab	-10.3032
▁letters	-10.3043
▁divorced	-10.3047
▁signs	-10.3048
▁lawn	-10.3052
▁tax	-10.3057
ink	-10.3059
▁finest	-10.3068
list	-10.3076
▁when	-10.3088
▁burgers	-10.31
▁packed	-10.3122
sistance	-10.3133
▁survivors	-10.3138
gar	-10.315
▁degrees	-10.3157
▁pushed	-10.3173
▁cal	-10.3176
▁circle	-10.3178
▁killers	-10.3179
▁def	-10.3204
ella	-10.321
▁stayed	-10.3217
ological	-10.3217
▁fur	-10.3217
mine	-10.3226
▁ey	-10.3253
top	-10.3255
▁sniffs	-10.3258
▁enjoying	-10.3259
▁ere	-10.3261
▁ding	-10.3264
▁staring	-10.3289
▁tur	-10.3303
ward	-10.3306
▁younger	-10.3314
▁cara	-10.3324
▁you	-10.3363
▁gut	-10.339
▁systems	-10.3422
▁chains	-10.3426
▁ditch	-10.3437
▁apples	-10.3447
▁shoulders	-10.3464
▁rocks	-10.3477
▁rom	-10.3496
▁touching	-10.3508
cha	-10.3521
▁songs	-10.3522
▁ye	-10.3529
▁suite	-10.3569
▁ul	-10.3583
ger	-10.3585
face	-10.3594
▁concern	-10.3596
▁fail	-10.3598
▁lefty	-10.3601
q	-10.3603
ith	-10.3615
▁que	-10.3626
▁exact	-10.3629
▁russia	-10.3631
▁flag	-10.3635
box	-10.3642
▁success	-10.3642
▁transfer	-10.3643
▁inform	-10.3644
▁basic	-10.3644
▁civil	-10.3644
▁establish	-10.3644
▁affair	-10.3644
▁alonzo	-10.3644
▁appropriate	-10.3644
▁barcelona	-10.3644
▁bartender	-10.3644
▁behavior	-10.3644
▁brief	-10.3644
▁brilliant	-10.3644
▁clarence	-10.3644
▁cynthia	-10.3644
▁dwight	-10.3644
▁guitar	-10.3644
▁laundry	-10.3644
▁marissa	-10.3644
▁mcbride	-10.3644
▁mercury	-10.3644
▁meserve	-10.3644
▁messenger	-10.3644
▁moretti	-10.3644
▁passenger	-10.3644
▁piranha	-10.3644
▁possibly	-10.3644
▁potential	-10.3644
▁prevent	-10.3644
▁raglan	-10.3644
▁register	-10.3644
▁require	-10.3644
▁sheila	-10.3644
▁stammers	-10.3644
▁supplie	-10.3644
▁suribachi	-10.3644
▁survival	-10.3644
▁tatiana	-10.3644
▁unusual	-10.3644
▁volunteer	-10.3644
▁xerxes	-10.3644
▁arguing	-10.3644
▁doodoo	-10.3644
▁elaine	-10.3644
▁jungle	-10.3644
▁maggie	-10.3644
▁pattern	-10.3644
▁signature	-10.3644
▁spoil	-10.3644
▁internet	-10.3644
▁lambert	-10.3644
▁trash	-10.3644
▁shotgun	-10.3644
▁warrant	-10.3644
▁washington	-10.3644
▁harper	-10.3644
▁perkins	-10.3644
▁ultimate	-10.3644
▁drove	-10.3644
▁hailey	-10.3644
▁grabbed	-10.3644
through	-10.3644
▁diaz	-10.3644
▁garci	-10.3644
▁trigger	-10.3645
▁suzy	-10.3645
▁prime	-10.3645
▁operator	-10.3645
▁backwards	-10.3645
▁brick	-10.3646
▁intend	-10.3646
▁script	-10.3646
▁investment	-10.3646
▁olive	-10.3646
▁lousy	-10.3646
▁fought	-10.3646
▁bread	-10.3647
▁soda	-10.3647
▁giant	-10.3647
▁sarah	-10.3647
▁oak	-10.3648
▁wore	-10.3648
▁vote	-10.3648
▁patrol	-10.3648
▁solid	-10.3649
▁rita	-10.3649
▁forest	-10.3649
▁reward	-10.3649
▁launch	-10.3649
▁planned	-10.365
▁aside	-10.365
▁mayday	-10.365
▁sentence	-10.365
▁stunt	-10.3651
▁opera	-10.3651
▁quote	-10.3652
▁secretary	-10.3652
▁dopeman	-10.3653
▁technically	-10.3654
▁humor	-10.3658
▁dice	-10.3658
▁aim	-10.366
▁jesse	-10.3661
▁amber	-10.3662
▁bound	-10.3664
▁jar	-10.3665
▁gim	-10.3668
▁yella	-10.3669
▁lame	-10.367
▁cheat	-10.3673
▁roaring	-10.3674
▁fuckedup	-10.3674
▁lifetime	-10.3678
▁tune	-10.3682
▁wallet	-10.3682
▁nein	-10.3685
▁goodnight	-10.3685
▁becky	-10.3691
▁pm	-10.3697
▁prepared	-10.3701
▁cuba	-10.3705
▁bottles	-10.3719
▁mid	-10.3725
▁log	-10.373
▁mole	-10.373
▁thin	-10.3731
▁dec	-10.3733
▁taj	-10.3734
▁fore	-10.3734
▁reality	-10.3735
▁nancy	-10.3738
▁shave	-10.3739
zy	-10.3741
▁pier	-10.3744
▁wasted	-10.3745
ike	-10.3754
▁fal	-10.3757
▁services	-10.3759
▁considered	-10.3761
▁core	-10.3761
▁mag	-10.3762
▁hooked	-10.3771
▁victory	-10.3772
▁sweater	-10.3781
▁manage	-10.3782
▁deeper	-10.3784
▁expected	-10.3809
▁lab	-10.381
▁crimes	-10.3819
nit	-10.3821
▁contribut	-10.383
▁expecting	-10.384
▁recover	-10.3843
▁noon	-10.3847
ular	-10.3847
▁riding	-10.3865
▁seats	-10.3872
▁fuckers	-10.3877
▁watches	-10.3877
▁passing	-10.3888
iff	-10.3921
▁hoo	-10.3932
atic	-10.3935
▁guts	-10.3941
ark	-10.3967
▁fate	-10.3969
▁par	-10.3976
▁jun	-10.3995
▁egg	-10.3996
▁ear	-10.4
▁signed	-10.4027
▁ali	-10.4033
▁cheer	-10.4052
law	-10.4071
▁hostage	-10.4075
▁dealer	-10.4079
aging	-10.4082
▁skip	-10.4085
ised	-10.4091
▁slave	-10.4101
illa	-10.4122
gger	-10.4123
▁sings	-10.413
▁pigs	-10.4161
ado	-10.4197
arm	-10.4242
▁screech	-10.4302
ou	-10.4315
▁ki	-10.4329
▁dirt	-10.4331
▁complain	-10.4332
walk	-10.4338
▁et	-10.4339
▁create	-10.4339
▁it	-10.434
jack	-10.4341
town	-10.4346
four	-10.4348
▁react	-10.4352
tta	-10.4354
▁terror	-10.4354
▁journal	-10.4355
▁trauma	-10.4358
▁wouid	-10.4358
▁wreck	-10.4358
▁adventure	-10.4358
▁boycott	-10.4358
▁chandler	-10.4358
▁complicated	-10.4358
▁debbie	-10.4358
▁enforcement	-10.4358
▁gloria	-10.4358
▁grimes	-10.4358
▁hockey	-10.4358
▁homicide	-10.4358
▁insurance	-10.4358
▁jericho	-10.4358
▁kennedy	-10.4358
▁lydia	-10.4358
▁mardukas	-10.4358
▁multiple	-10.4358
▁mystic	-10.4358
▁negotiate	-10.4358
▁nickname	-10.4358
▁permanent	-10.4358
▁profile	-10.4358
▁quality	-10.4358
▁resort	-10.4358
▁response	-10.4358
▁rifle	-10.4358
▁shannon	-10.4358
▁tenenbaum	-10.4358
▁village	-10.4358
▁voight	-10.4358
▁bruise	-10.4358
▁squeak	-10.4358
▁wyler	-10.4358
▁peach	-10.4358
malcolm	-10.4358
▁capital	-10.4358
▁appeal	-10.4358
▁result	-10.4358
▁jersey	-10.4358
▁diane	-10.4358
▁politics	-10.4358
▁chimes	-10.4358
▁collar	-10.4358
▁weiss	-10.4358
▁injured	-10.4358
▁spider	-10.4358
▁starving	-10.4359
▁misery	-10.4359
▁mount	-10.4359
▁cassie	-10.4359
▁grandfather	-10.4359
▁intruder	-10.4359
▁jennie	-10.4359
▁drain	-10.4359
▁authority	-10.4359
▁university	-10.4359
▁propose	-10.4359
▁dodge	-10.4359
▁psychiatrist	-10.4359
▁hahaha	-10.4359
▁accent	-10.4359
▁demand	-10.436
▁intention	-10.436
▁paperwork	-10.436
▁begging	-10.436
▁reservation	-10.436
▁pillow	-10.436
▁janice	-10.436
▁mutters	-10.436
▁ammo	-10.4361
▁massage	-10.4361
▁billboard	-10.4361
▁twist	-10.4361
▁premi	-10.4362
▁clang	-10.4362
▁crown	-10.4362
▁boogie	-10.4363
▁strangler	-10.4363
▁andre	-10.4363
▁shack	-10.4363
▁godfather	-10.4363
▁approve	-10.4363
▁urge	-10.4364
▁examine	-10.4364
▁betray	-10.4365
▁wick	-10.4365
▁neat	-10.4366
▁sammy	-10.4367
▁elect	-10.4368
▁intense	-10.437
▁theo	-10.437
▁alley	-10.4371
▁yup	-10.4371
▁began	-10.4371
▁boil	-10.4373
jo	-10.4373
▁maid	-10.4373
▁lean	-10.4374
ife	-10.4374
▁sandwiches	-10.4378
▁golden	-10.4379
▁plain	-10.4382
▁clothing	-10.4382
▁charly	-10.4382
▁bunker	-10.4384
▁rome	-10.4384
▁heroes	-10.439
▁holly	-10.4392
▁armor	-10.4394
▁passes	-10.4404
▁pub	-10.4406
ude	-10.4409
▁recall	-10.4412
▁parties	-10.4413
▁keyes	-10.4419
▁boxes	-10.4419
▁suffering	-10.4425
east	-10.4433
attering	-10.4435
day	-10.4435
▁hatcher	-10.4441
▁survived	-10.4442
▁stillson	-10.4443
▁thrown	-10.4448
▁confirmed	-10.4451
▁notes	-10.4459
▁nicky	-10.4465
▁bay	-10.4469
▁bel	-10.4491
▁accepted	-10.4499
▁curse	-10.4504
▁belongs	-10.4505
▁buggin	-10.4505
▁jewel	-10.4507
▁sk	-10.4509
▁shorty	-10.4514
▁uhh	-10.453
▁imitat	-10.4534
▁forced	-10.4537
▁boots	-10.4542
pin	-10.4549
▁carter	-10.4562
▁visiting	-10.4568
▁teaching	-10.4578
▁messed	-10.4581
well	-10.4581
▁trained	-10.4582
▁ace	-10.4594
▁offering	-10.46
▁grounded	-10.4631
▁relationships	-10.4634
▁dancer	-10.4661
▁feds	-10.4662
▁event	-10.472
▁shitting	-10.4734
▁appears	-10.4737
▁terms	-10.4739
▁covering	-10.4754
▁fed	-10.4756
ina	-10.4773
▁toy	-10.4777
▁friendly	-10.4784
ttle	-10.4801
▁creep	-10.4811
▁tire	-10.4827
▁toward	-10.4847
▁neighbors	-10.4854
▁tab	-10.4871
▁mile	-10.4876
ify	-10.4898
▁pages	-10.4937
▁challenge	-10.4949
▁chickens	-10.4993
ius	-10.4999
ration	-10.5008
▁russians	-10.5035
▁jews	-10.5044
▁speaker	-10.506
state	-10.5065
ores	-10.5066
▁confess	-10.507
▁receive	-10.5073
night	-10.5078
water	-10.5101
national	-10.5107
school	-10.5107
graph	-10.5111
blo	-10.5113
▁religio	-10.5114
▁jess	-10.5121
▁custom	-10.5123
▁europe	-10.5123
▁commit	-10.5124
▁fuss	-10.5126
▁remains	-10.5126
▁euro	-10.5127
▁accomplish	-10.5128
▁amateur	-10.5128
▁anonymous	-10.5128
▁athens	-10.5128
▁background	-10.5128
▁boitano	-10.5128
▁candice	-10.5128
▁cecil	-10.5128
▁channel	-10.5128
▁coincidence	-10.5128
▁confident	-10.5128
▁dejesus	-10.5128
▁disturb	-10.5128
▁eleven	-10.5128
▁eversmann	-10.5128
▁explosiveskull	-10.5128
▁fabulous	-10.5128
▁fridge	-10.5128
▁grenade	-10.5128
▁gretel	-10.5128
▁kuribayashi	-10.5128
▁leprechaun	-10.5128
▁muslim	-10.5128
▁newspaper	-10.5128
▁olympic	-10.5128
▁phoebe	-10.5128
▁precinct	-10.5128
▁reception	-10.5128
▁rendezvous	-10.5128
▁revelle	-10.5128
▁scotch	-10.5128
▁shrink	-10.5128
▁snarl	-10.5128
▁stammering	-10.5128
▁temperature	-10.5128
▁tragedy	-10.5128
▁uniform	-10.5128
▁vodka	-10.5128
▁vouch	-10.5128
▁zhang	-10.5128
▁afterwards	-10.5128
▁brush	-10.5128
▁concentrate	-10.5128
▁lobby	-10.5128
▁monitor	-10.5128
▁ruiz	-10.5128
▁bravo	-10.5128
▁butterfly	-10.5128
▁depressed	-10.5128
▁phase	-10.5128
▁status	-10.5128
▁evelyn	-10.5128
▁fortune	-10.5128
▁leroy	-10.5128
▁mosely	-10.5128
▁smash	-10.5128
▁drummer	-10.5128
▁annoy	-10.5128
▁interfer	-10.5128
▁stabbed	-10.5128
▁civilians	-10.5128
▁ocp	-10.5128
▁method	-10.5128
▁defeat	-10.5128
▁nwa	-10.5128
▁session	-10.5128
▁tanner	-10.5128
▁chalk	-10.5128
▁roommate	-10.5128
▁humming	-10.5128
▁steam	-10.5128
▁thisll	-10.5128
▁pause	-10.5128
▁version	-10.5128
▁impression	-10.5128
▁grind	-10.5128
▁apology	-10.5128
▁honks	-10.5128
▁decade	-10.5128
▁culture	-10.5128
▁membership	-10.5128
▁torture	-10.5128
▁obsession	-10.5128
▁weii	-10.5129
▁tactic	-10.5129
▁rashid	-10.5129
▁towel	-10.5129
▁sector	-10.5129
▁orange	-10.5129
▁theory	-10.5129
▁heii	-10.5129
▁offend	-10.5129
▁height	-10.513
▁trapped	-10.513
▁capture	-10.513
▁frozen	-10.513
▁nina	-10.5131
▁stuntman	-10.5131
▁knight	-10.5131
▁attica	-10.5133
▁maxine	-10.5133
▁skate	-10.5134
gawa	-10.5135
▁reaction	-10.5136
▁caine	-10.5137
▁sailor	-10.5137
▁friendship	-10.5139
▁fireball	-10.5139
▁murmuring	-10.5139
▁retreat	-10.5141
▁personality	-10.5141
▁wax	-10.5142
▁carried	-10.5142
▁broom	-10.5143
▁latte	-10.5144
▁forth	-10.5146
▁tries	-10.5149
▁wel	-10.5151
▁deserves	-10.5152
▁jackson	-10.5153
▁fry	-10.5154
▁tina	-10.5156
▁haunted	-10.5157
▁strain	-10.5158
▁deadline	-10.5159
▁eden	-10.5159
ugh	-10.5161
▁tender	-10.5165
▁spoken	-10.5166
▁adopted	-10.5169
stein	-10.5175
▁setup	-10.5177
▁circumstances	-10.5187
▁factor	-10.5188
▁canceled	-10.5192
▁tim	-10.5204
▁meantime	-10.5206
▁granted	-10.5206
▁stoner	-10.5212
▁weep	-10.5215
▁chor	-10.5222
▁ruined	-10.5225
▁gotcha	-10.5229
▁mates	-10.5231
rated	-10.5238
eroi	-10.5244
▁carefully	-10.5256
▁trees	-10.5265
▁horny	-10.5266
▁fairy	-10.5278
▁loading	-10.5285
▁hunting	-10.5285
▁painting	-10.529
▁shared	-10.5291
▁transmitt	-10.5302
▁creatures	-10.5328
▁packing	-10.5342
▁surely	-10.5353
▁colored	-10.5355
▁boog	-10.5371
▁joey	-10.5376
▁and	-10.5395
▁hurting	-10.5401
▁creeps	-10.5424
▁landed	-10.5434
▁resu	-10.5436
sky	-10.5463
▁fishing	-10.5502
▁swi	-10.5518
▁chin	-10.5541
▁recorded	-10.5544
▁sins	-10.5544
▁peep	-10.5556
▁indians	-10.5562
▁stare	-10.5564
▁remove	-10.5569
▁tor	-10.5574
▁cents	-10.5583
▁canadians	-10.5592
▁wo	-10.5614
▁walker	-10.5628
▁noises	-10.5665
▁bonds	-10.5666
▁holiday	-10.5672
▁troop	-10.5674
▁sock	-10.568
▁spring	-10.568
▁slam	-10.5687
▁chase	-10.5751
▁q	-10.5772
▁begins	-10.5788
▁bullets	-10.5789
rock	-10.5796
▁toot	-10.5841
iii	-10.5847
eight	-10.5852
▁musical	-10.5871
▁lit	-10.5876
▁tick	-10.5884
▁palm	-10.5907
▁reveal	-10.5911
▁charm	-10.5916
▁guilt	-10.5934
field	-10.5939
girl	-10.594
▁current	-10.5945
▁actual	-10.5946
berry	-10.5946
▁approach	-10.5947
▁potato	-10.5951
▁negro	-10.5952
▁recent	-10.5954
▁makin	-10.5954
▁orphan	-10.596
door	-10.596
▁moral	-10.596
▁inspir	-10.5961
▁automatic	-10.5961
▁incident	-10.5961
▁journey	-10.5961
▁shudder	-10.5961
▁skull	-10.5961
▁supply	-10.5961
▁academy	-10.5961
▁athenian	-10.5961
▁benicio	-10.5961
▁cleveland	-10.5961
▁convention	-10.5961
▁expert	-10.5961
▁explosive	-10.5961
▁fugazy	-10.5961
▁headache	-10.5961
▁inspector	-10.5961
▁jazz	-10.5961
▁kazakhstan	-10.5961
▁kwame	-10.5961
▁leather	-10.5961
▁library	-10.5961
▁lorraine	-10.5961
▁martelli	-10.5961
▁mexican	-10.5961
▁mystery	-10.5961
▁observe	-10.5961
▁patrice	-10.5961
▁peanut	-10.5961
▁possession	-10.5961
▁practical	-10.5961
▁protocol	-10.5961
▁rabbit	-10.5961
▁rachael	-10.5961
▁redneck	-10.5961
▁reverse	-10.5961
▁sabrina	-10.5961
▁satellite	-10.5961
▁soprano	-10.5961
▁steady	-10.5961
▁sympath	-10.5961
▁teresa	-10.5961
▁tokyo	-10.5961
▁uplink	-10.5961
▁voodoo	-10.5961
▁worries	-10.5961
▁april	-10.5961
▁cereal	-10.5961
▁erotic	-10.5961
▁fellcla	-10.5961
▁rookie	-10.5961
▁sheep	-10.5961
▁shush	-10.5961
▁balance	-10.5961
▁choking	-10.5961
▁devon	-10.5961
▁exclaims	-10.5961
▁indicat	-10.5961
▁whimpers	-10.5961
▁stroke	-10.5961
▁forgotten	-10.5961
▁knowledge	-10.5961
▁soap	-10.5961
▁carveth	-10.5961
▁sperm	-10.5961
▁superior	-10.5961
▁presence	-10.5961
▁delay	-10.5961
▁mumbles	-10.5961
▁luv	-10.5961
▁basketball	-10.5961
▁blond	-10.5961
▁novel	-10.5961
▁sparta	-10.5961
▁scale	-10.5962
▁organism	-10.5962
▁permission	-10.5962
▁immun	-10.5962
▁clever	-10.5962
▁lease	-10.5962
▁groceries	-10.5962
▁blaring	-10.5963
▁studio	-10.5963
▁craft	-10.5963
▁bryan	-10.5963
▁hicks	-10.5963
▁dais	-10.5963
▁agency	-10.5963
▁edition	-10.5964
▁medication	-10.5964
▁grandpa	-10.5964
▁pepe	-10.5964
▁subway	-10.5964
▁legend	-10.5965
▁glue	-10.5965
▁compare	-10.5965
▁root	-10.5965
▁dawn	-10.5965
▁flush	-10.5966
▁charity	-10.5966
▁kris	-10.5966
▁debra	-10.5967
▁warren	-10.5968
▁fbl	-10.5968
▁elton	-10.5968
▁lifestyle	-10.5969
▁confession	-10.5969
▁bonus	-10.597
▁selfish	-10.5971
▁tech	-10.5971
▁kong	-10.5971
▁negroes	-10.5971
▁strangled	-10.5971
▁soup	-10.5972
▁gir	-10.5973
▁barber	-10.5974
▁torn	-10.5975
▁expression	-10.5975
▁dna	-10.5975
▁marg	-10.5975
▁patch	-10.5976
▁collection	-10.5977
▁hayes	-10.5978
▁medal	-10.5978
▁filthy	-10.5979
▁raw	-10.5979
▁tess	-10.5982
▁clap	-10.5982
▁grass	-10.5986
▁engaged	-10.5986
▁witnesses	-10.5988
▁campers	-10.5994
▁bridget	-10.5996
stone	-10.5996
▁arch	-10.5997
▁solo	-10.6002
▁production	-10.6002
▁brandy	-10.6006
imately	-10.601
▁performing	-10.6014
▁sighing	-10.6016
▁abuse	-10.6017
▁trailer	-10.6018
▁coma	-10.6022
▁rag	-10.6027
▁ml	-10.6034
▁normally	-10.6037
▁stopping	-10.6046
▁mud	-10.6047
▁eaten	-10.605
range	-10.6051
▁connected	-10.6053
▁hardest	-10.6055
▁menu	-10.6058
▁jani	-10.6061
▁photographer	-10.6061
▁blown	-10.6065
▁palmer	-10.6067
▁scan	-10.6068
▁cleanse	-10.6069
▁shutter	-10.6088
boy	-10.6097
▁loaded	-10.6106
▁beston	-10.6106
▁homeless	-10.6108
▁fam	-10.6111
▁whoohoo	-10.6111
▁freaked	-10.6152
▁provide	-10.6157
erto	-10.6166
ever	-10.6167
zed	-10.617
▁gags	-10.6173
▁fades	-10.618
▁texted	-10.6183
▁latin	-10.6188
▁tut	-10.6199
▁gran	-10.62
▁toes	-10.6207
▁bub	-10.6221
ban	-10.6221
▁makeup	-10.6232
ther	-10.6234
bound	-10.625
read	-10.6253
▁holidays	-10.6258
▁troops	-10.6258
eeze	-10.6267
▁pushing	-10.6277
etic	-10.6281
▁toys	-10.6289
▁trainer	-10.629
▁ny	-10.6313
▁coo	-10.6315
▁prop	-10.6329
▁gen	-10.633
▁typ	-10.6357
▁gasp	-10.6375
▁vera	-10.6383
▁events	-10.639
▁sucking	-10.6396
▁strangers	-10.6398
▁plants	-10.6418
istic	-10.642
▁tears	-10.6422
▁plates	-10.6442
▁sigh	-10.6445
▁ham	-10.65
▁bowl	-10.6502
▁bree	-10.6522
▁shoe	-10.6551
▁ven	-10.6556
pack	-10.6567
ita	-10.6573
▁net	-10.6574
▁william	-10.6586
▁furn	-10.6593
ame	-10.6599
▁bubb	-10.6614
▁badly	-10.6641
lute	-10.6659
atch	-10.667
▁cart	-10.6734
▁oi	-10.6739
▁embarrass	-10.6765
cut	-10.677
▁chap	-10.6779
called	-10.6782
▁motherfuck	-10.6788
test	-10.6799
ddle	-10.6799
ology	-10.6805
▁perform	-10.6812
▁rais	-10.6813
▁wig	-10.682
▁adopt	-10.6821
▁abandon	-10.6821
ashi	-10.6846
▁medic	-10.6847
what	-10.6848
▁commission	-10.6848
break	-10.6848
free	-10.685
class	-10.6854
job	-10.6856
▁africa	-10.6857
kill	-10.6858
▁runnin	-10.6862
▁livin	-10.6863
▁mort	-10.6865
while	-10.6867
▁homosexual	-10.6867
▁entertain	-10.6867
▁invest	-10.6868
▁electric	-10.6868
▁transport	-10.6868
▁depart	-10.687
▁experiment	-10.687
▁individual	-10.687
▁liquid	-10.687
▁mckinley	-10.687
▁mutual	-10.687
▁anika	-10.687
▁argument	-10.687
▁attach	-10.687
▁aurora	-10.687
▁average	-10.687
▁awkward	-10.687
▁azamat	-10.687
▁baldwin	-10.687
▁birack	-10.687
▁campaign	-10.687
▁catherine	-10.687
▁celebrating	-10.687
▁colleague	-10.687
▁columbia	-10.687
▁conference	-10.687
▁configuration	-10.687
▁corrupt	-10.687
▁cruise	-10.687
▁dublin	-10.687
▁easily	-10.687
▁expense	-10.687
▁frankenstein	-10.687
▁glorious	-10.687
▁hamburger	-10.687
▁hypnoti	-10.687
▁imagination	-10.687
▁inaudible	-10.687
▁industry	-10.687
▁infirmary	-10.687
▁mackey	-10.687
▁milano	-10.687
▁motorcycle	-10.687
▁occur	-10.687
▁olympia	-10.687
▁pledge	-10.687
▁possibilities	-10.687
▁possibility	-10.687
▁quarantine	-10.687
▁radiation	-10.687
▁raheem	-10.687
▁schraeder	-10.687
▁sequence	-10.687
▁servant	-10.687
▁shield	-10.687
▁similar	-10.687
▁snoop	-10.687
▁structure	-10.687
▁submarine	-10.687
▁suspense	-10.687
▁temporary	-10.687
▁thumping	-10.687
▁dilip	-10.687
▁donny	-10.687
▁donut	-10.687
▁grief	-10.687
▁insult	-10.687
▁lunatic	-10.687
▁maintain	-10.687
▁reckon	-10.687
▁sapper	-10.687
▁vault	-10.687
▁flood	-10.687
▁howre	-10.687
▁identity	-10.687
▁profit	-10.687
▁sauce	-10.687
possessed	-10.687
▁depressing	-10.687
▁hammer	-10.687
▁slash	-10.687
▁stephen	-10.687
▁fleet	-10.687
▁glory	-10.687
▁vocalizing	-10.687
▁sheet	-10.687
▁brakes	-10.687
▁ease	-10.687
▁personnel	-10.687
▁debt	-10.687
▁affect	-10.687
▁geez	-10.687
▁spartans	-10.687
▁backyard	-10.687
▁trump	-10.6871
▁francisco	-10.6871
▁despi	-10.6871
▁jenny	-10.6871
▁participat	-10.6871
▁creek	-10.6871
▁zip	-10.6871
▁skipper	-10.6872
▁margot	-10.6872
▁jojo	-10.6872
made	-10.6872
▁paddle	-10.6872
▁terribly	-10.6872
▁whew	-10.6873
▁denver	-10.6873
▁genetic	-10.6873
▁guide	-10.6873
▁psychic	-10.6873
▁denise	-10.6873
▁owns	-10.6873
▁upper	-10.6873
▁arabic	-10.6873
▁foul	-10.6874
▁paris	-10.6874
▁rubber	-10.6874
▁slick	-10.6874
▁nearby	-10.6875
▁static	-10.6875
▁fever	-10.6875
▁bunny	-10.6875
▁morton	-10.6876
▁soho	-10.6876
▁drill	-10.6877
▁wheez	-10.6877
▁evie	-10.6877
▁skill	-10.6878
▁virginity	-10.6879
▁rice	-10.688
▁bible	-10.688
▁soil	-10.688
▁beef	-10.688
▁lamb	-10.6881
▁clive	-10.6881
▁controlled	-10.6881
▁appro	-10.6881
▁stepped	-10.6882
▁function	-10.6883
▁gently	-10.6883
▁pinch	-10.6884
▁comic	-10.6886
▁loan	-10.6886
▁invented	-10.6887
▁ballet	-10.6887
bag	-10.6887
▁jelly	-10.6887
▁fence	-10.6888
▁china	-10.6892
▁jive	-10.6894
▁passion	-10.6896
▁diego	-10.6897
▁runner	-10.69
▁superman	-10.6901
▁campus	-10.6903
▁cage	-10.6903
talk	-10.6906
▁reasonable	-10.6906
xter	-10.6907
▁intimate	-10.6908
▁rise	-10.6909
▁narrow	-10.6911
▁tro	-10.6921
▁cargo	-10.6927
▁mode	-10.6929
▁quid	-10.693
sili	-10.6938
▁luci	-10.6939
▁vern	-10.694
eek	-10.6942
▁flu	-10.6948
▁herb	-10.6951
▁delivery	-10.6963
atory	-10.6966
▁sniffl	-10.6973
▁legit	-10.6977
▁triple	-10.6978
▁spy	-10.6981
▁escaped	-10.6982
▁mixed	-10.6986
▁dumped	-10.6991
▁designed	-10.6995
▁brownie	-10.7025
▁terrorists	-10.7026
▁formal	-10.7036
▁stoney	-10.7046
▁amb	-10.7057
▁considering	-10.7064
corn	-10.7077
▁gloves	-10.7082
▁snort	-10.7083
▁bothered	-10.7085
▁smoked	-10.712
plng	-10.7126
▁boobs	-10.7132
▁cooking	-10.7136
roll	-10.7155
▁fu	-10.7155
sex	-10.7199
▁leading	-10.7223
▁enjoyed	-10.7227
eth	-10.7231
oster	-10.7299
▁reporting	-10.7299
▁behave	-10.73
uk	-10.7305
▁rad	-10.7312
▁ann	-10.7331
rk	-10.7366
▁cleaned	-10.7393
▁drama	-10.7447
▁cub	-10.7477
▁ol	-10.7481
▁mau	-10.7504
▁whisper	-10.7537
▁mil	-10.7575
▁degree	-10.7584
ologist	-10.7587
▁folk	-10.7591
▁graduat	-10.7623
▁lip	-10.7626
▁wil	-10.7634
▁boob	-10.7648
▁pic	-10.7694
▁bois	-10.7702
▁organ	-10.7784
pla	-10.7788
ural	-10.7796
▁spoo	-10.7806
izing	-10.781
▁clatter	-10.7813
▁discover	-10.7822
under	-10.7848
husband	-10.7849
▁technical	-10.7854
▁shove	-10.7858
▁emotion	-10.786
form	-10.7861
▁iris	-10.7864
▁communi	-10.7865
fall	-10.7865
rich	-10.7866
wise	-10.7869
▁specific	-10.7869
▁commence	-10.787
▁occasion	-10.787
▁achieve	-10.787
▁aggressive	-10.787
▁anxious	-10.787
▁australia	-10.787
▁belief	-10.787
▁bleats	-10.787
▁brandnew	-10.787
▁buzzsaw	-10.787
▁canaris	-10.787
▁cannon	-10.787
▁choir	-10.787
▁crisis	-10.787
▁defensive	-10.787
▁description	-10.787
▁district	-10.787
▁dorfler	-10.787
▁eagle	-10.787
▁entrance	-10.787
▁escort	-10.787
▁exclusive	-10.787
▁fantasies	-10.787
▁grateful	-10.787
▁grogan	-10.787
▁horror	-10.787
▁hysterical	-10.787
▁institution	-10.787
▁intelligent	-10.787
▁jeopard	-10.787
▁joadson	-10.787
▁klaven	-10.787
▁lgbt	-10.787
▁michigan	-10.787
▁mustache	-10.787
▁mysterious	-10.787
▁ninja	-10.787
▁orgasm	-10.787
▁pagoda	-10.787
▁platform	-10.787
▁policy	-10.787
▁pritchard	-10.787
▁privacy	-10.787
▁purple	-10.787
▁reverend	-10.787
▁shepard	-10.787
▁slaughter	-10.787
▁sobvechik	-10.787
▁squawk	-10.787
▁strictly	-10.787
▁sunshine	-10.787
▁surgery	-10.787
▁taguchi	-10.787
▁therapist	-10.787
▁underground	-10.787
▁underneath	-10.787
▁underwear	-10.787
▁unhappy	-10.787
▁warrior	-10.787
▁wendell	-10.787
▁woodsboro	-10.787
▁accus	-10.787
▁bishop	-10.787
▁century	-10.787
▁column	-10.787
▁desire	-10.787
▁execution	-10.787
▁goofy	-10.787
▁impact	-10.787
▁kosher	-10.787
▁moscone	-10.787
▁snatch	-10.787
▁supper	-10.787
▁branch	-10.787
▁chisso	-10.787
▁eriksson	-10.787
▁initial	-10.787
▁laisse	-10.787
▁naughty	-10.787
▁panties	-10.787
▁parlor	-10.787
▁pirate	-10.787
▁refuge	-10.787
▁remote	-10.787
▁warehouse	-10.787
▁alpha	-10.787
▁picnic	-10.787
▁pilar	-10.787
▁pleasant	-10.787
▁update	-10.787
▁donation	-10.787
▁entry	-10.787
▁plot	-10.787
▁spear	-10.787
▁scott	-10.787
▁stalking	-10.787
▁kerry	-10.787
▁palace	-10.787
▁sullivan	-10.787
▁threatening	-10.787
▁balloon	-10.787
▁muttering	-10.787
▁brogan	-10.787
▁jury	-10.787
▁cafe	-10.787
▁laughlin	-10.787
▁robbery	-10.787
▁tanya	-10.787
▁drake	-10.787
cient	-10.787
▁calculat	-10.787
▁douglas	-10.787
▁nino	-10.787
▁pitt	-10.787
▁doggy	-10.787
▁political	-10.7871
▁patricia	-10.7871
▁gorgo	-10.7871
▁dorm	-10.7871
▁construction	-10.7871
▁skank	-10.7871
▁chirp	-10.7871
▁strapped	-10.7871
▁pulse	-10.7871
▁argue	-10.7871
▁tsk	-10.7871
▁patriot	-10.7871
▁illusion	-10.7871
▁choke	-10.7871
▁bride	-10.7872
▁destruction	-10.7872
▁grape	-10.7872
▁parade	-10.7872
▁ethel	-10.7872
▁suze	-10.7872
▁after	-10.7872
▁whys	-10.7872
▁critical	-10.7872
▁mook	-10.7873
▁creative	-10.7873
▁spray	-10.7873
▁clapping	-10.7873
▁sharing	-10.7873
▁shark	-10.7873
▁population	-10.7873
▁lockwood	-10.7873
▁passport	-10.7873
▁buff	-10.7874
▁tapping	-10.7874
▁conduct	-10.7874
▁nig	-10.7874
▁jonah	-10.7875
▁cooperation	-10.7875
▁harrison	-10.7875
▁iook	-10.7875
▁pork	-10.7875
▁dedicated	-10.7876
▁alike	-10.7877
▁irish	-10.7877
▁cities	-10.7877
▁panel	-10.7877
▁flaw	-10.7877
▁motion	-10.7878
▁maxim	-10.7878
▁beings	-10.788
▁activate	-10.788
▁ferry	-10.7881
star	-10.7881
▁tadder	-10.7881
▁marine	-10.7881
▁duck	-10.7882
▁popped	-10.7882
▁tide	-10.7883
▁claus	-10.7883
▁polit	-10.7884
▁stall	-10.7885
▁restraint	-10.7885
▁inner	-10.7887
▁label	-10.7887
▁buzzes	-10.7889
▁currently	-10.7889
▁digit	-10.7892
▁prom	-10.7892
▁alter	-10.7893
▁pile	-10.7894
▁specialty	-10.7898
▁sickness	-10.7899
▁properly	-10.79
▁bench	-10.7901
▁published	-10.7904
▁spain	-10.7905
▁complaint	-10.7907
▁haha	-10.791
beat	-10.7914
▁hiya	-10.7915
▁mall	-10.7917
▁apply	-10.7918
▁ana	-10.7919
▁nest	-10.7922
▁provided	-10.7925
▁sew	-10.7928
five	-10.7929
▁latest	-10.7935
▁bam	-10.7937
▁freezer	-10.7939
▁charming	-10.7941
▁yale	-10.7945
▁iv	-10.7949
▁spook	-10.7951
▁tomas	-10.7952
▁bully	-10.7952
▁bucky	-10.7956
▁twink	-10.7961
▁suggested	-10.7962
▁kindness	-10.7967
▁lapd	-10.7968
▁finale	-10.7971
▁served	-10.7976
▁assure	-10.7984
▁nearly	-10.7986
▁badass	-10.7992
▁released	-10.7993
▁shortly	-10.7997
▁spic	-10.7999
▁boner	-10.8001
▁deserved	-10.8001
▁cher	-10.8002
▁assist	-10.8003
▁poisoning	-10.8004
shit	-10.8005
▁vol	-10.8012
▁boyz	-10.802
lm	-10.8025
▁talented	-10.803
▁ew	-10.8033
▁screwing	-10.8054
▁unite	-10.8063
▁spreading	-10.8066
▁clipp	-10.8072
▁smiley	-10.8075
▁pissing	-10.8086
▁announce	-10.8094
▁graduate	-10.8119
▁needle	-10.8125
▁tracking	-10.8142
▁parked	-10.816
▁lane	-10.8168
▁nathe	-10.8171
▁treating	-10.8172
▁auto	-10.818
bone	-10.818
▁crossed	-10.8184
▁curl	-10.8216
▁crashing	-10.8217
▁safely	-10.8227
▁mini	-10.8233
omin	-10.8254
▁bend	-10.8257
▁por	-10.8312
aving	-10.8344
two	-10.8347
▁dent	-10.8402
▁gil	-10.8418
▁mcc	-10.8446
fore	-10.8481
van	-10.8483
▁bio	-10.8504
rag	-10.8526
▁rod	-10.8527
bar	-10.8585
▁til	-10.8631
▁creature	-10.8695
▁survivor	-10.8695
avi	-10.8696
▁knee	-10.8714
▁mario	-10.872
▁snor	-10.8726
▁rocket	-10.8727
▁fade	-10.8739
▁flower	-10.8764
▁toe	-10.8765
▁just	-10.8773
▁path	-10.8794
▁mush	-10.8824
ison	-10.8852
▁chocolat	-10.8857
▁para	-10.8862
more	-10.89
▁trail	-10.8904
ula	-10.8905
▁boot	-10.8928
▁condo	-10.8933
▁produce	-10.8935
▁cel	-10.8942
▁spl	-10.8943
▁engage	-10.8947
▁tru	-10.8948
heart	-10.8957
conscious	-10.8959
holland	-10.8959
minute	-10.896
place	-10.896
plant	-10.8961
▁constant	-10.8965
▁audit	-10.897
▁tomato	-10.8971
▁harris	-10.8976
▁jane	-10.8977
▁dispos	-10.8977
▁comfort	-10.8978
▁reserv	-10.8979
▁employ	-10.8979
▁courage	-10.8979
▁element	-10.898
faced	-10.8981
responsibilities	-10.8981
shoulda	-10.8981
▁accurate	-10.8981
▁affirmative	-10.8981
▁amsterdam	-10.8981
▁arsehole	-10.8981
▁atlanta	-10.8981
▁avenue	-10.8981
▁bachelor	-10.8981
▁behold	-10.8981
▁benefit	-10.8981
▁bribe	-10.8981
▁brooklyn	-10.8981
▁caitlin	-10.8981
▁celebrity	-10.8981
▁cheetah	-10.8981
▁circuit	-10.8981
▁cognac	-10.8981
▁compassion	-10.8981
▁complex	-10.8981
▁convoy	-10.8981
▁crunch	-10.8981
▁destiny	-10.8981
▁distinct	-10.8981
▁division	-10.8981
▁electronic	-10.8981
▁explode	-10.8981
▁fascinating	-10.8981
▁favour	-10.8981
▁fingerprints	-10.8981
▁garrison	-10.8981
▁grutas	-10.8981
▁gypsy	-10.8981
▁hilarious	-10.8981
▁implosion	-10.8981
▁jigsaw	-10.8981
▁kashani	-10.8981
▁lenore	-10.8981
▁lyrics	-10.8981
▁marijuana	-10.8981
▁mccormick	-10.8981
▁nephew	-10.8981
▁nipple	-10.8981
▁observation	-10.8981
▁ordinary	-10.8981
▁orleans	-10.8981
▁pervert	-10.8981
▁rattlesnake	-10.8981
▁schoolteacher	-10.8981
▁shimizu	-10.8981
▁starstruck	-10.8981
▁succeed	-10.8981
▁supermarket	-10.8981
▁syndrome	-10.8981
▁thanksgiving	-10.8981
▁vegetable	-10.8981
▁violation	-10.8981
▁wealth	-10.8981
▁wednesday	-10.8981
▁wesker	-10.8981
▁wizard	-10.8981
▁alliance	-10.8981
▁buffalo	-10.8981
▁casual	-10.8981
▁gracie	-10.8981
▁hoffman	-10.8981
▁hummus	-10.8981
▁instance	-10.8981
▁instant	-10.8981
▁inviting	-10.8981
▁junior	-10.8981
▁namaste	-10.8981
▁precise	-10.8981
▁sacred	-10.8981
▁shelf	-10.8981
▁sidney	-10.8981
▁tappan	-10.8981
▁aboot	-10.8981
▁roldy	-10.8981
▁snack	-10.8981
▁stream	-10.8981
▁battery	-10.8981
▁dozen	-10.8981
▁johan	-10.8981
▁mumbling	-10.8981
▁niece	-10.8981
▁banana	-10.8981
▁fetch	-10.8981
▁revv	-10.8981
▁rican	-10.8981
▁sync	-10.8981
▁worm	-10.8981
▁yelp	-10.8981
▁tempt	-10.8981
▁threatened	-10.8981
▁yankees	-10.8981
▁gregory	-10.8981
▁panicked	-10.8981
▁angie	-10.8981
▁anyho	-10.8981
▁heather	-10.8981
▁hopefully	-10.8981
▁newscast	-10.8981
▁poker	-10.8981
▁frog	-10.8981
▁oscar	-10.8981
▁incoming	-10.8981
▁covey	-10.8981
▁dragged	-10.8981
▁yacht	-10.8981
ccup	-10.8981
▁residenc	-10.8981
▁dennis	-10.8981
▁studied	-10.8981
▁dorn	-10.8981
▁untie	-10.8981
▁flare	-10.8981
▁grits	-10.8981
▁lucy	-10.8981
▁cried	-10.8982
▁shiny	-10.8982
▁plague	-10.8982
▁fond	-10.8982
▁dodd	-10.8982
▁disappointment	-10.8982
▁verbal	-10.8982
▁oppress	-10.8982
▁exchange	-10.8982
▁alibi	-10.8982
▁annette	-10.8982
▁wives	-10.8982
▁generation	-10.8982
▁bingo	-10.8982
▁reiner	-10.8982
▁medium	-10.8982
▁pumpkin	-10.8982
▁steer	-10.8982
▁forehead	-10.8983
▁interstate	-10.8983
▁grill	-10.8983
▁performance	-10.8983
▁tevin	-10.8983
▁flame	-10.8983
▁bugger	-10.8983
▁tiger	-10.8983
▁michelle	-10.8983
▁arrow	-10.8983
▁slipper	-10.8983
▁announcement	-10.8984
▁contest	-10.8984
▁pimp	-10.8984
▁navy	-10.8984
▁communist	-10.8985
▁internal	-10.8985
▁shaking	-10.8985
▁bolt	-10.8985
▁brotherhood	-10.8986
▁liking	-10.8986
▁heartbeat	-10.8986
▁toad	-10.8986
▁blanc	-10.8986
▁connie	-10.8987
▁zoom	-10.8987
▁mamma	-10.8987
▁allah	-10.8987
▁solution	-10.8988
▁stiff	-10.8988
▁micro	-10.8988
▁maze	-10.8988
▁aboard	-10.8989
▁aight	-10.8989
▁troll	-10.8989
▁polly	-10.899
▁shane	-10.899
▁dishes	-10.899
▁kink	-10.899
▁colombian	-10.8991
▁korean	-10.8991
▁swat	-10.8991
▁fuel	-10.8992
▁motor	-10.8992
▁puke	-10.8993
▁acid	-10.8993
▁unlock	-10.8993
▁bowman	-10.8993
▁stack	-10.8993
▁ninety	-10.8994
▁foolish	-10.8994
▁beatles	-10.8995
▁fold	-10.8995
▁robot	-10.8995
▁tower	-10.8996
▁raid	-10.8997
▁flagg	-10.8997
▁with	-10.8997
▁tripping	-10.8997
▁african	-10.8997
▁chew	-10.8998
▁stepping	-10.9
▁dickhead	-10.9
▁scent	-10.9002
▁flies	-10.9003
▁gap	-10.9003
▁retired	-10.9003
▁active	-10.9004
▁skies	-10.9006
▁princess	-10.9007
▁emily	-10.9007
▁surrounded	-10.9008
stand	-10.9009
▁commissioner	-10.9009
▁fried	-10.901
mona	-10.9011
▁ross	-10.9012
▁takin	-10.9015
▁visitor	-10.9017
▁replaced	-10.9018
▁physically	-10.902
▁pity	-10.9024
▁robbie	-10.9028
▁suggestion	-10.9028
▁daylight	-10.9032
▁jackass	-10.9033
▁gent	-10.9034
▁gag	-10.9037
▁mansion	-10.904
▁metro	-10.9043
▁pickup	-10.9047
▁revealed	-10.9049
▁kay	-10.905
▁thee	-10.905
▁sixth	-10.905
▁iim	-10.9053
▁hunger	-10.9054
▁confessed	-10.9055
▁sexually	-10.9056
▁breed	-10.9059
▁haul	-10.9061
▁ticking	-10.9061
▁blog	-10.9061
▁pole	-10.9062
armo	-10.9063
▁angela	-10.9063
▁traditional	-10.9067
▁taser	-10.9069
▁wiped	-10.907
▁suffered	-10.9073
▁dew	-10.9074
code	-10.9076
▁jackie	-10.9082
▁warmer	-10.9107
▁tearing	-10.911
▁kisses	-10.9111
▁abu	-10.9115
▁drowning	-10.9125
▁focused	-10.9132
▁shithead	-10.9135
▁jen	-10.9138
▁helpful	-10.9148
▁proved	-10.9149
▁creat	-10.9157
▁blamed	-10.9162
▁drawer	-10.9165
▁drawing	-10.9167
▁era	-10.917
▁unh	-10.9173
oli	-10.9183
▁prey	-10.9186
▁shocked	-10.919
▁quicker	-10.9192
▁blessed	-10.9203
tina	-10.9206
▁smaller	-10.9208
▁peeing	-10.922
▁cre	-10.9248
▁reminded	-10.9267
▁phy	-10.929
ipp	-10.9313
▁apo	-10.9341
▁imperi	-10.9341
ench	-10.9373
▁deposit	-10.9385
gro	-10.9404
▁mute	-10.942
role	-10.9431
▁admir	-10.9441
▁coordinate	-10.9484
▁hut	-10.9499
away	-10.9548
▁robe	-10.9604
▁tomb	-10.9645
pelle	-10.9725
part	-10.9731
▁admire	-10.9731
▁minu	-10.9776
▁af	-10.9835
gue	-10.9859
▁instruct	-10.9882
▁grunt	-10.9896
awa	-10.9921
▁chip	-10.9937
▁glove	-10.9942
ylli	-10.9978
dunk	-11.0008
▁vice	-11.0041
▁writ	-11.0079
gate	-11.0101
▁for	-11.0156
▁nurs	-11.0162
▁creak	-11.0176
▁amaz	-11.0176
▁haunt	-11.0183
▁hustl	-11.0186
▁roar	-11.0186
ought	-11.0201
▁mast	-11.0203
▁filth	-11.0203
▁profession	-11.0207
mission	-11.0208
worth	-11.0208
just	-11.0209
▁weigh	-11.021
▁intens	-11.0214
▁bunk	-11.0218
aver	-11.0225
like	-11.0226
▁arab	-11.0227
▁assign	-11.0229
▁serge	-11.0229
ternal	-11.023
▁cult	-11.023
▁congrat	-11.0231
▁disagree	-11.0231
▁dismiss	-11.0231
▁orchestra	-11.0231
▁strawberry	-11.0231
misunderstanding	-11.0231
▁absurd	-11.0231
▁acknowledge	-11.0231
▁agnes	-11.0231
▁airplane	-11.0231
▁algeria	-11.0231
▁alternative	-11.0231
▁application	-11.0231
▁arrangement	-11.0231
▁authorities	-11.0231
▁azazel	-11.0231
▁barbecue	-11.0231
▁bisexual	-11.0231
▁cadillac	-11.0231
▁campbell	-11.0231
▁carpenter	-11.0231
▁competitive	-11.0231
▁compromise	-11.0231
▁conclusi	-11.0231
▁convenient	-11.0231
▁council	-11.0231
▁deceased	-11.0231
▁diarrhea	-11.0231
▁disorder	-11.0231
▁donald	-11.0231
▁eclipse	-11.0231
▁empire	-11.0231
▁enormous	-11.0231
▁espresso	-11.0231
▁evacuate	-11.0231
▁executive	-11.0231
▁exhausted	-11.0231
▁feature	-11.0231
▁georgie	-11.0231
▁harrigan	-11.0231
▁hazmat	-11.0231
▁headquarters	-11.0231
▁helmet	-11.0231
▁identified	-11.0231
▁increase	-11.0231
▁infected	-11.0231
▁jukebox	-11.0231
▁kinkabe	-11.0231
▁kirsch	-11.0231
▁kirsten	-11.0231
▁knives	-11.0231
▁lonzo	-11.0231
▁lorenzo	-11.0231
▁marathon	-11.0231
▁mercedes	-11.0231
▁mousetrap	-11.0231
▁narcotics	-11.0231
▁negotiation	-11.0231
▁nielson	-11.0231
▁nightclub	-11.0231
▁october	-11.0231
▁ounce	-11.0231
▁pizzeria	-11.0231
▁pluto	-11.0231
▁principle	-11.0231
▁priority	-11.0231
▁pronounce	-11.0231
▁psychopath	-11.0231
▁reggae	-11.0231
▁reinforcements	-11.0231
▁rhyme	-11.0231
▁rosenbaum	-11.0231
▁sagdiyev	-11.0231
▁sargnt	-11.0231
▁scissors	-11.0231
▁shatters	-11.0231
▁steroids	-11.0231
▁suspend	-11.0231
▁sylvia	-11.0231
▁symptoms	-11.0231
▁tambourine	-11.0231
▁timothy	-11.0231
▁torsten	-11.0231
▁tunnei	-11.0231
▁unavailable	-11.0231
▁veronica	-11.0231
▁website	-11.0231
▁windshield	-11.0231
▁wisconsin	-11.0231
▁wisdom	-11.0231
▁becca	-11.0231
▁benedict	-11.0231
▁blunt	-11.0231
▁breach	-11.0231
▁consult	-11.0231
▁dammit	-11.0231
▁gordon	-11.0231
▁lavash	-11.0231
▁mmmmmm	-11.0231
▁notary	-11.0231
▁pencil	-11.0231
▁rainbow	-11.0231
▁razor	-11.0231
▁recruit	-11.0231
▁uzi	-11.0231
▁voicemail	-11.0231
▁cinque	-11.0231
▁deput	-11.0231
▁devote	-11.0231
▁disaster	-11.0231
▁luther	-11.0231
▁motherinlaw	-11.0231
▁quad	-11.0231
▁reject	-11.0231
▁scully	-11.0231
▁duties	-11.0231
▁hiphop	-11.0231
▁bigelow	-11.0231
▁clinic	-11.0231
▁lecture	-11.0231
▁buddies	-11.0231
▁clich	-11.0231
▁jinx	-11.0231
▁swamp	-11.0231
▁article	-11.0231
▁await	-11.0231
▁coffin	-11.0231
▁ninth	-11.0231
▁moose	-11.0231
▁liddy	-11.0231
▁dvd	-11.0231
▁region	-11.0231
▁baker	-11.0231
▁july	-11.0231
▁investigating	-11.0231
▁mouse	-11.0231
▁praise	-11.0231
▁reilly	-11.0231
▁terra	-11.0231
▁inappropriate	-11.0231
▁scholarship	-11.0231
▁ankle	-11.0231
▁consequence	-11.0231
▁scumbag	-11.0231
▁courtesy	-11.0231
▁cigar	-11.0231
▁ofh	-11.0232
▁lemonade	-11.0232
▁sunset	-11.0232
▁gambl	-11.0232
▁hayashi	-11.0232
▁kidnapping	-11.0232
▁england	-11.0232
▁greed	-11.0232
▁manaker	-11.0232
▁underwater	-11.0232
▁reflect	-11.0232
▁shining	-11.0232
ofthe	-11.0232
▁adjust	-11.0232
▁maniac	-11.0232
▁vogu	-11.0232
▁labour	-11.0232
▁frickin	-11.0233
▁organized	-11.0233
▁karen	-11.0233
▁blink	-11.0233
boat	-11.0233
▁mantle	-11.0233
▁babysitter	-11.0233
▁booze	-11.0233
▁nawal	-11.0233
▁protest	-11.0233
▁vanilla	-11.0233
▁replacement	-11.0233
▁shaft	-11.0233
▁courageous	-11.0233
▁alexand	-11.0233
▁disney	-11.0234
▁upside	-11.0234
▁yank	-11.0234
▁independent	-11.0234
▁display	-11.0234
▁hound	-11.0234
▁cramp	-11.0234
▁spank	-11.0235
▁blend	-11.0235
▁slang	-11.0235
▁puppy	-11.0235
▁morality	-11.0235
▁hatred	-11.0235
▁muthafucka	-11.0235
▁budget	-11.0236
▁valley	-11.0236
▁faithful	-11.0236
▁slavery	-11.0236
▁paui	-11.0236
▁corpse	-11.0237
▁glow	-11.0237
▁graduation	-11.0237
▁mature	-11.0237
▁paso	-11.0237
▁prima	-11.0237
▁organic	-11.0237
▁rapper	-11.0237
▁glock	-11.0237
▁chili	-11.0238
▁skinny	-11.0238
▁mailman	-11.0239
▁trish	-11.0239
▁studies	-11.0239
▁nazi	-11.0239
▁cornish	-11.024
▁hangover	-11.024
▁recommendation	-11.024
▁perry	-11.0241
▁noble	-11.0241
▁serving	-11.0242
▁footage	-11.0242
▁grid	-11.0242
▁tomatoes	-11.0243
▁perish	-11.0243
▁decent	-11.0244
lsey	-11.0245
▁rack	-11.0245
▁disco	-11.0245
▁mock	-11.0246
▁regard	-11.0247
▁agreement	-11.0249
▁homo	-11.0249
▁improv	-11.025
▁copper	-11.0251
▁fax	-11.0251
▁dj	-11.0251
▁kara	-11.0252
▁elias	-11.0252
▁ahhh	-11.0254
▁math	-11.0254
▁freshman	-11.0255
▁peterson	-11.0255
▁executed	-11.0257
▁scr	-11.0257
▁whale	-11.0257
▁rave	-11.0257
▁gunmen	-11.0258
▁holland	-11.0259
▁hugh	-11.0259
▁addicted	-11.0261
▁sara	-11.0263
▁involve	-11.0264
▁ashes	-11.0266
▁homework	-11.0267
▁receiver	-11.0267
▁darn	-11.0269
▁bagel	-11.0272
▁seventh	-11.0274
▁thrilled	-11.0275
▁filles	-11.0277
▁chug	-11.0278
▁sixty	-11.0279
▁tense	-11.0279
▁starve	-11.028
▁creepy	-11.028
▁switches	-11.0281
▁emil	-11.0284
▁ssh	-11.0287
▁vig	-11.0291
▁beaten	-11.0292
▁title	-11.0294
▁dish	-11.0302
▁payment	-11.0311
▁useless	-11.0314
▁inch	-11.0314
▁straighten	-11.0319
▁refer	-11.032
▁shiv	-11.0325
riel	-11.0329
▁forgetting	-11.0331
▁nor	-11.0334
mond	-11.0336
▁okla	-11.0346
▁issued	-11.0347
▁killian	-11.0351
fli	-11.0353
▁rage	-11.0354
▁completed	-11.0354
▁dimitri	-11.0357
▁condom	-11.0364
▁lynne	-11.0372
▁introduced	-11.038
▁tada	-11.0384
▁cable	-11.0386
▁rog	-11.0386
▁gab	-11.0394
▁lack	-11.0396
▁bent	-11.0398
▁hike	-11.0412
▁bah	-11.0414
▁logic	-11.0431
▁cuse	-11.0443
▁hooker	-11.0445
▁toi	-11.0488
take	-11.0497
ubby	-11.0497
ique	-11.0533
type	-11.0546
▁rig	-11.0592
▁aes	-11.0592
▁edit	-11.0634
▁hen	-11.0664
▁screamer	-11.071
▁flipp	-11.0772
▁ak	-11.0803
ofa	-11.0845
▁rode	-11.0931
▁rott	-11.0947
▁diar	-11.1052
▁rear	-11.1137
bend	-11.1205
▁corp	-11.136
▁clip	-11.1374
▁burger	-11.1375
tti	-11.1471
▁wee	-11.1535
▁simulat	-11.1541
▁ple	-11.1542
▁psych	-11.1598
▁thrill	-11.161
▁publish	-11.161
oline	-11.1617
▁include	-11.1625
▁relate	-11.1625
hood	-11.1629
▁teenage	-11.1636
grade	-11.1638
▁restrain	-11.1638
bird	-11.1638
point	-11.1639
front	-11.1639
child	-11.1639
yearold	-11.1639
year	-11.164
piece	-11.164
▁colombia	-11.1647
▁korea	-11.1647
▁stitch	-11.1649
▁counsel	-11.1654
cock	-11.1654
▁germ	-11.1656
cript	-11.1656
▁pursu	-11.1656
▁beautif	-11.1658
▁forge	-11.1658
▁whisk	-11.1658
▁earl	-11.1659
▁vietnam	-11.166
▁abernathy	-11.166
▁accomplice	-11.166
▁activity	-11.166
▁advisor	-11.166
▁ammunition	-11.166
▁amnesia	-11.166
▁appetite	-11.166
▁arizona	-11.166
▁arnold	-11.166
▁atlanti	-11.166
▁augsburg	-11.166
▁bannerman	-11.166
▁biscuit	-11.166
▁blackburn	-11.166
▁boundaries	-11.166
▁bourbon	-11.166
▁bracelet	-11.166
▁carmichael	-11.166
▁catholic	-11.166
▁ceremony	-11.166
▁collapse	-11.166
▁combined	-11.166
▁concert	-11.166
▁conflict	-11.166
▁conscience	-11.166
▁contagious	-11.166
▁continuing	-11.166
▁crispy	-11.166
▁curiosity	-11.166
▁cycle	-11.166
▁daedalus	-11.166
▁dahdah	-11.166
▁database	-11.166
▁dejeune	-11.166
▁devastated	-11.166
▁dialogue	-11.166
▁donovan	-11.166
▁dummy	-11.166
▁dynamo	-11.166
▁economy	-11.166
▁education	-11.166
▁elephant	-11.166
▁enemies	-11.166
▁episode	-11.166
▁estimate	-11.166
▁eugene	-11.166
▁extraordinary	-11.166
▁exwife	-11.166
▁eyebrow	-11.166
▁finsecker	-11.166
▁freakshow	-11.166
▁frightened	-11.166
▁frown	-11.166
▁frustration	-11.166
▁fugitive	-11.166
▁galentine	-11.166
▁groove	-11.166
▁hussein	-11.166
▁institute	-11.166
▁investigator	-11.166
▁japan	-11.166
▁jordan	-11.166
▁kempeitai	-11.166
▁liberty	-11.166
▁liquor	-11.166
▁lnternet	-11.166
▁loneliness	-11.166
▁luxury	-11.166
▁malfunction	-11.166
▁manhattan	-11.166
▁margarita	-11.166
▁mcknight	-11.166
▁measure	-11.166
▁microwave	-11.166
▁militia	-11.166
▁moltisanti	-11.166
▁montgomery	-11.166
▁mulvaney	-11.166
▁muskavich	-11.166
▁mutilat	-11.166
▁nowadays	-11.166
▁nuclear	-11.166
▁occult	-11.166
▁octopus	-11.166
▁opposite	-11.166
▁porsche	-11.166
▁prostitut	-11.166
▁purchase	-11.166
▁qualifie	-11.166
▁rehearsal	-11.166
▁rejoice	-11.166
▁relieve	-11.166
▁replicant	-11.166
▁reschedule	-11.166
▁restricted	-11.166
▁rhythm	-11.166
▁ritual	-11.166
▁savage	-11.166
▁shakily	-11.166
▁skullfucker	-11.166
▁smother	-11.166
▁sniper	-11.166
▁struecker	-11.166
▁struggle	-11.166
▁surveillance	-11.166
▁talbot	-11.166
▁technology	-11.166
▁thompson	-11.166
▁tragic	-11.166
▁tweak	-11.166
▁underpants	-11.166
▁warfare	-11.166
▁welfare	-11.166
▁wolcott	-11.166
▁addition	-11.166
▁anuj	-11.166
▁arranged	-11.166
▁ashtray	-11.166
▁bakersfield	-11.166
▁beezel	-11.166
▁beloved	-11.166
▁caxton	-11.166
▁expelled	-11.166
▁heidi	-11.166
▁hotshot	-11.166
▁lalala	-11.166
▁muffin	-11.166
▁mumbai	-11.166
▁operative	-11.166
▁pappa	-11.166
▁rehab	-11.166
▁selena	-11.166
▁shrimp	-11.166
▁sorina	-11.166
▁suzie	-11.166
▁temper	-11.166
▁unload	-11.166
▁visual	-11.166
horizo	-11.166
paramedic	-11.166
▁bikini	-11.166
▁bonnet	-11.166
▁clinking	-11.166
▁divine	-11.166
▁excess	-11.166
▁marwan	-11.166
▁mungo	-11.166
▁obscur	-11.166
▁omelet	-11.166
▁sanderson	-11.166
▁shanna	-11.166
▁sophie	-11.166
▁submissive	-11.166
▁suppress	-11.166
▁violin	-11.166
▁windigo	-11.166
▁xander	-11.166
▁anchor	-11.166
▁elbow	-11.166
▁extend	-11.166
▁guinea	-11.166
▁dripping	-11.166
▁forcefully	-11.166
▁karma	-11.166
▁smear	-11.166
▁titty	-11.166
▁ceiling	-11.166
▁griev	-11.166
▁outlaws	-11.166
▁protein	-11.166
▁tampon	-11.166
▁terminal	-11.166
▁tyler	-11.166
▁craig	-11.166
▁debate	-11.166
▁hobby	-11.166
▁motive	-11.166
▁severe	-11.166
▁slesers	-11.166
▁inmate	-11.166
▁modern	-11.166
▁unarmed	-11.166
▁wagon	-11.166
▁bronx	-11.166
▁clerk	-11.166
▁countries	-11.166
▁nitro	-11.166
▁sherman	-11.166
▁crayon	-11.166
▁frost	-11.166
▁hawk	-11.166
▁eliminate	-11.166
▁viral	-11.166
about	-11.166
▁nishi	-11.166
▁stash	-11.166
▁donor	-11.166
▁loyal	-11.166
▁rpg	-11.166
▁minister	-11.166
▁greet	-11.166
▁shore	-11.166
▁harsh	-11.166
▁kryptonite	-11.166
▁senor	-11.166
▁ahmad	-11.166
▁baked	-11.166
▁trem	-11.166
absorb	-11.166
▁carpet	-11.166
▁holster	-11.166
▁grip	-11.166
▁shuttle	-11.166
▁concentrati	-11.166
▁flint	-11.166
▁coroner	-11.166
▁linda	-11.166
▁puzzle	-11.166
▁racing	-11.166
▁millionaire	-11.166
▁kidnapped	-11.166
▁basis	-11.166
▁davis	-11.166
▁expectations	-11.166
▁injury	-11.166
▁beau	-11.166
▁homie	-11.166
▁metallic	-11.166
▁gangster	-11.166
▁pond	-11.166
▁transmission	-11.166
▁squir	-11.1661
▁rustl	-11.1661
▁panther	-11.1661
▁consol	-11.1661
▁assuming	-11.1661
▁chickenshit	-11.1661
▁sorrow	-11.1661
▁reference	-11.1661
▁whwhat	-11.1661
▁jangl	-11.1661
▁specifically	-11.1661
▁antique	-11.1661
▁excitement	-11.1661
▁invad	-11.1661
▁syr	-11.1661
▁olga	-11.1661
▁terrorism	-11.1661
▁burden	-11.1661
▁repair	-11.1661
▁rasp	-11.1662
▁resolution	-11.1662
▁auction	-11.1662
▁assistance	-11.1662
▁etheline	-11.1662
▁france	-11.1662
▁syd	-11.1662
▁horseshit	-11.1662
▁lalalala	-11.1662
ification	-11.1662
▁barks	-11.1662
▁slipped	-11.1662
▁committed	-11.1662
▁employee	-11.1662
▁roast	-11.1663
▁hooah	-11.1663
▁prank	-11.1663
▁susie	-11.1663
▁deactivated	-11.1663
▁spark	-11.1663
▁hyah	-11.1663
▁coleman	-11.1663
▁whoops	-11.1663
▁wrapped	-11.1663
▁comedian	-11.1663
▁documentary	-11.1663
▁limp	-11.1663
▁traitor	-11.1663
▁heels	-11.1663
▁influence	-11.1663
▁flank	-11.1664
▁chopped	-11.1664
▁hollow	-11.1664
▁electricity	-11.1664
▁crank	-11.1664
▁dentist	-11.1664
▁telescope	-11.1665
▁transportation	-11.1665
▁haircut	-11.1665
▁argh	-11.1665
▁jamaican	-11.1665
▁obey	-11.1665
▁limo	-11.1665
▁thou	-11.1666
▁penny	-11.1666
▁overall	-11.1666
▁happier	-11.1666
▁princeton	-11.1666
▁aspirin	-11.1667
▁youth	-11.1667
▁leak	-11.1667
▁sober	-11.1667
▁remarkable	-11.1667
▁development	-11.1667
▁torch	-11.1667
▁angle	-11.1668
▁plantation	-11.1668
▁amish	-11.1668
▁genus	-11.1668
▁brenner	-11.1669
▁hassle	-11.1669
▁lemon	-11.1669
▁loop	-11.1669
▁firewater	-11.167
levant	-11.167
▁spotted	-11.1671
▁toll	-11.1671
▁spitting	-11.1671
▁scout	-11.1671
▁inches	-11.1672
▁privilege	-11.1672
style	-11.1672
▁confirmation	-11.1672
▁keen	-11.1672
▁firewood	-11.1672
▁hush	-11.1673
▁rebel	-11.1674
▁surf	-11.1675
▁publicity	-11.1676
▁cork	-11.1676
▁mutat	-11.1676
▁relative	-11.1677
▁potatoes	-11.1678
▁glen	-11.1678
▁rapist	-11.1678
▁yum	-11.1678
▁disappointed	-11.168
▁scum	-11.1681
▁constantly	-11.1681
rrow	-11.1683
▁oj	-11.1683
▁streaking	-11.1683
▁determined	-11.1684
▁expired	-11.1684
▁religion	-11.1685
▁conscious	-11.1687
▁sack	-11.1687
▁deline	-11.1688
▁halfway	-11.1688
▁metres	-11.1689
▁lamp	-11.1691
▁ceo	-11.1693
▁caity	-11.1693
▁included	-11.1695
▁related	-11.1695
▁worthless	-11.1695
▁slightly	-11.1699
▁gem	-11.1699
▁penises	-11.17
▁ford	-11.1702
▁bose	-11.1704
▁tapped	-11.1705
▁taik	-11.1705
▁anna	-11.1705
▁emotionally	-11.1708
▁brass	-11.1708
ssette	-11.1712
▁hustler	-11.1714
▁deadend	-11.1715
▁vest	-11.1717
▁legally	-11.172
▁wink	-11.1721
▁dock	-11.1721
▁naturally	-11.1724
▁emma	-11.1725
▁dug	-11.1726
eastern	-11.1728
stick	-11.1729
▁weave	-11.1737
▁erm	-11.1737
bet	-11.174
dder	-11.1744
▁mustnt	-11.1749
itis	-11.175
▁ada	-11.1753
▁lighten	-11.1758
nsion	-11.176
▁lala	-11.1763
cero	-11.1778
▁moss	-11.178
▁poet	-11.1805
▁dl	-11.1849
▁tanker	-11.1854
lush	-11.1931
▁tita	-11.1938
▁pint	-11.1946
▁hype	-11.2002
▁damp	-11.2033
▁cole	-11.207
▁content	-11.2095
▁equi	-11.2107
▁ditche	-11.2159
licking	-11.2193
minent	-11.222
▁extract	-11.2224
dramatic	-11.2322
▁dere	-11.2324
▁hose	-11.236
angu	-11.2439
▁peel	-11.2442
ffle	-11.2461
▁seize	-11.2594
position	-11.2718
self	-11.2721
oohoo	-11.2749
covered	-11.2798
▁cough	-11.2991
▁groan	-11.2991
maker	-11.3029
▁terrorist	-11.3044
eating	-11.3098
ifies	-11.3115
▁marsha	-11.3179
▁origin	-11.3182
▁tradition	-11.3196
llery	-11.3236
▁cloth	-11.3259
▁produc	-11.3268
▁yi	-11.327
▁retire	-11.3289
▁execute	-11.3292
▁twi	-11.3294
regard	-11.3304
flower	-11.3305
quinn	-11.3305
text	-11.3306
three	-11.3306
▁replace	-11.3307
stock	-11.3309
six	-11.3311
▁charle	-11.3316
▁beginnin	-11.3318
uzz	-11.3318
▁convict	-11.3319
▁fran	-11.3321
mhmm	-11.3323
▁engl	-11.3324
▁carrie	-11.3325
▁mutt	-11.3325
reign	-11.3326
▁fundamental	-11.3326
▁mathematic	-11.3326
▁unemploy	-11.3326
▁virtu	-11.3326
▁withdraw	-11.3326
▁ackwell	-11.3326
▁acoustic	-11.3326
▁adachi	-11.3326
▁amistad	-11.3326
▁analysis	-11.3326
▁anticipate	-11.3326
▁architect	-11.3326
▁artificial	-11.3326
▁athlete	-11.3326
▁august	-11.3326
▁azupep	-11.3326
▁believing	-11.3326
▁borgens	-11.3326
▁calogero	-11.3326
▁cheerleader	-11.3326
▁chrissake	-11.3326
▁christopher	-11.3326
▁circus	-11.3326
▁coffeecake	-11.3326
▁combination	-11.3326
▁communications	-11.3326
▁consumer	-11.3326
▁convenience	-11.3326
▁cougar	-11.3326
▁crowbar	-11.3326
▁cruisin	-11.3326
▁deception	-11.3326
▁destination	-11.3326
▁devaney	-11.3326
▁diligence	-11.3326
▁diploma	-11.3326
▁disgrace	-11.3326
▁divided	-11.3326
▁dominique	-11.3326
▁dreadfully	-11.3326
▁dysentery	-11.3326
▁easiest	-11.3326
▁educate	-11.3326
▁elderly	-11.3326
▁elegant	-11.3326
▁encounter	-11.3326
▁enterprise	-11.3326
▁essential	-11.3326
▁eternity	-11.3326
▁evacuation	-11.3326
▁exclalm	-11.3326
▁exhibit	-11.3326
▁feather	-11.3326
▁february	-11.3326
▁forensic	-11.3326
▁franchise	-11.3326
▁fundraiser	-11.3326
▁genuine	-11.3326
▁ghetto	-11.3326
▁global	-11.3326
▁globe	-11.3326
▁halifax	-11.3326
▁heinemann	-11.3326
▁heritage	-11.3326
▁holabird	-11.3326
▁increasing	-11.3326
▁injection	-11.3326
▁intimacy	-11.3326
▁intimidate	-11.3326
▁iraq	-11.3326
▁jennifer	-11.3326
▁juicy	-11.3326
▁jupiter	-11.3326
▁katherine	-11.3326
▁kevlar	-11.3326
▁knuckle	-11.3326
▁leviathan	-11.3326
▁loomis	-11.3326
▁luggage	-11.3326
▁maccready	-11.3326
▁malibu	-11.3326
▁meddows	-11.3326
▁mercy	-11.3326
▁obligation	-11.3326
▁oblivious	-11.3326
▁pacific	-11.3326
▁patience	-11.3326
▁pendejo	-11.3326
▁phantom	-11.3326
▁philadelphia	-11.3326
▁pineapple	-11.3326
▁playground	-11.3326
▁poltergeist	-11.3326
▁prosecut	-11.3326
▁raleigh	-11.3326
▁receiving	-11.3326
▁revelation	-11.3326
▁sabbath	-11.3326
▁shamiana	-11.3326
▁shattered	-11.3326
▁sheehy	-11.3326
▁sheffield	-11.3326
▁smuggling	-11.3326
▁soccer	-11.3326
▁sophia	-11.3326
▁sophisticated	-11.3326
▁species	-11.3326
▁spectacular	-11.3326
▁sponsor	-11.3326
▁squash	-11.3326
▁stadium	-11.3326
▁stateoftheart	-11.3326
▁stepmother	-11.3326
▁striking	-11.3326
▁subzero	-11.3326
▁sunglasses	-11.3326
▁surgeon	-11.3326
▁surprising	-11.3326
▁suspicious	-11.3326
▁swanson	-11.3326
▁symbol	-11.3326
▁tracy	-11.3326
▁uncuff	-11.3326
▁unpatriotic	-11.3326
▁valentine	-11.3326
▁vengeance	-11.3326
▁vibrating	-11.3326
▁volleyball	-11.3326
▁vulnerab	-11.3326
friggin	-11.3326
▁ability	-11.3326
▁adorable	-11.3326
▁asap	-11.3326
▁batteries	-11.3326
▁bookmark	-11.3326
▁cahill	-11.3326
▁cricket	-11.3326
▁delicate	-11.3326
▁fraud	-11.3326
▁fulfill	-11.3326
▁koushik	-11.3326
▁libby	-11.3326
▁merger	-11.3326
▁necklace	-11.3326
▁outstanding	-11.3326
▁overwhelm	-11.3326
▁plaza	-11.3326
▁reboot	-11.3326
▁roadblock	-11.3326
▁savior	-11.3326
▁stereo	-11.3326
▁strateg	-11.3326
▁tennessee	-11.3326
▁unfold	-11.3326
▁valuable	-11.3326
▁welove	-11.3326
▁wright	-11.3326
▁aidid	-11.3326
▁alicia	-11.3326
▁anderson	-11.3326
▁bruce	-11.3326
▁chainsaw	-11.3326
▁chuff	-11.3326
▁crotch	-11.3326
▁degenera	-11.3326
▁draft	-11.3326
▁dunno	-11.3326
▁dupea	-11.3326
▁expose	-11.3326
▁halfhour	-11.3326
▁hazard	-11.3326
▁hulk	-11.3326
▁japanese	-11.3326
▁mafia	-11.3326
▁obtain	-11.3326
▁permit	-11.3326
▁polish	-11.3326
▁vomit	-11.3326
▁collier	-11.3326
▁doogie	-11.3326
▁dudley	-11.3326
▁pussies	-11.3326
▁storage	-11.3326
▁trafficante	-11.3326
▁wwen	-11.3326
▁drape	-11.3326
▁jiang	-11.3326
▁ucla	-11.3326
▁vivid	-11.3326
▁couid	-11.3326
▁skating	-11.3326
▁voil	-11.3326
▁bloke	-11.3326
▁envy	-11.3326
▁kanu	-11.3326
▁solving	-11.3326
▁ahooh	-11.3326
▁cripple	-11.3326
▁detonat	-11.3326
▁disabled	-11.3326
▁redeem	-11.3326
▁ugli	-11.3326
▁britain	-11.3326
▁gerry	-11.3326
▁interrogat	-11.3326
▁hehhehheh	-11.3327
▁khan	-11.3327
▁whyg	-11.3327
▁rational	-11.3327
▁sliding	-11.3327
▁whooshing	-11.3327
▁baltimore	-11.3327
▁stewardess	-11.3327
▁error	-11.3327
powder	-11.3327
▁directress	-11.3327
▁strand	-11.3327
▁chiming	-11.3327
▁klein	-11.3327
▁stomp	-11.3327
▁barrel	-11.3327
▁paranoi	-11.3327
▁marcy	-11.3327
▁communicate	-11.3327
▁yabe	-11.3327
▁lindsay	-11.3327
▁absent	-11.3327
▁silk	-11.3327
▁sasha	-11.3327
▁naomi	-11.3327
▁autograph	-11.3327
▁whining	-11.3327
▁montes	-11.3327
▁carbon	-11.3327
▁franklin	-11.3327
▁sprinkle	-11.3327
▁competition	-11.3327
▁rodney	-11.3327
▁approval	-11.3327
▁lecter	-11.3327
▁tropic	-11.3327
▁lottery	-11.3327
▁dumpster	-11.3327
▁slurp	-11.3327
▁stain	-11.3327
▁bald	-11.3327
▁camilla	-11.3327
▁braying	-11.3327
▁urban	-11.3327
▁typical	-11.3327
▁quota	-11.3328
▁surface	-11.3328
▁nassar	-11.3328
▁janu	-11.3328
▁cuddle	-11.3328
▁hootch	-11.3328
▁outbreak	-11.3328
▁cinder	-11.3328
▁bridgewater	-11.3328
▁pistone	-11.3328
▁compound	-11.3328
▁rival	-11.3328
▁gender	-11.3328
▁rosewood	-11.3328
▁todd	-11.3328
▁elementary	-11.3328
▁troph	-11.3328
▁whiskey	-11.3329
▁representative	-11.3329
▁onboard	-11.3329
▁rattle	-11.3329
▁definition	-11.3329
▁babysitting	-11.3329
▁raymond	-11.3329
▁item	-11.3329
▁festiv	-11.3329
▁leap	-11.3329
▁wilson	-11.3329
▁orbit	-11.333
▁psychotic	-11.333
▁decline	-11.333
▁failure	-11.333
▁pension	-11.333
▁esu	-11.333
▁addiction	-11.333
▁luis	-11.333
▁burke	-11.333
▁jewelry	-11.333
▁heck	-11.333
▁blake	-11.333
▁supervisor	-11.333
▁blowjob	-11.3331
▁testify	-11.3331
▁inventor	-11.3331
▁compete	-11.3331
▁heke	-11.3331
▁mona	-11.3331
▁cornell	-11.3331
▁pursuit	-11.3331
▁detonation	-11.3331
▁admirable	-11.3331
partment	-11.3331
▁google	-11.3331
▁entertainment	-11.3331
▁detector	-11.3332
▁homosexuality	-11.3332
▁roland	-11.3332
▁trafficking	-11.3332
▁corpus	-11.3332
▁stake	-11.3332
▁alias	-11.3332
▁fork	-11.3333
▁satisfied	-11.3333
▁management	-11.3333
▁stockings	-11.3333
▁porch	-11.3334
▁unique	-11.3334
▁sensational	-11.3334
▁unlike	-11.3334
▁rising	-11.3334
▁foam	-11.3334
▁journalist	-11.3335
▁classified	-11.3335
▁whine	-11.3335
outof	-11.3335
▁lockdown	-11.3335
▁overhead	-11.3335
monos	-11.3335
▁rico	-11.3335
▁slapping	-11.3336
▁brew	-11.3336
▁champion	-11.3336
▁swor	-11.3336
▁whim	-11.3336
hunt	-11.3336
▁payroll	-11.3337
▁rebound	-11.3337
▁teasing	-11.3337
▁runaway	-11.3337
▁jessie	-11.3337
▁european	-11.3337
iddly	-11.3338
▁creation	-11.3338
▁rayette	-11.3338
ujo	-11.3339
▁stitches	-11.3339
▁hbo	-11.3339
▁ridge	-11.334
▁sunny	-11.3341
▁wander	-11.3341
▁rash	-11.3341
holloway	-11.3341
▁peaceful	-11.3342
▁nerd	-11.3342
▁jell	-11.3343
▁raul	-11.3343
▁scarf	-11.3343
▁define	-11.3343
▁labor	-11.3343
▁playboy	-11.3344
▁rolex	-11.3344
actic	-11.3344
▁sadness	-11.3345
▁cuz	-11.3345
▁lois	-11.3345
▁tow	-11.3346
▁wiggl	-11.3346
▁retro	-11.3347
▁fitness	-11.3347
▁shipping	-11.3348
▁exam	-11.3348
▁shovel	-11.3349
▁trim	-11.3349
lux	-11.3349
▁ego	-11.3349
▁guardian	-11.335
▁fusses	-11.335
▁jaw	-11.3351
▁crop	-11.3351
▁jeanne	-11.3351
▁vario	-11.3352
▁styl	-11.3352
▁teenager	-11.3354
▁taxes	-11.3356
▁yoga	-11.336
▁aww	-11.336
▁growth	-11.3361
▁massacre	-11.3362
▁pta	-11.3362
▁heroic	-11.3364
▁uli	-11.3364
nanana	-11.3364
▁sour	-11.3367
▁nickel	-11.3369
▁barton	-11.337
▁oz	-11.3373
▁ooo	-11.3374
quel	-11.3376
▁chemi	-11.3386
▁ante	-11.3402
deedee	-11.3407
▁discussion	-11.3411
lump	-11.3436
▁correction	-11.346
ddling	-11.3485
▁nell	-11.3537
erci	-11.355
▁plea	-11.358
▁tooth	-11.3593
culo	-11.3617
cilla	-11.368
▁beave	-11.3791
erald	-11.3822
▁wage	-11.3844
▁separat	-11.3865
▁rim	-11.3929
▁mach	-11.3935
▁thems	-11.3952
▁slit	-11.3965
▁dose	-11.3987
▁mave	-11.4072
▁sancti	-11.4143
itched	-11.4295
▁behav	-11.4394
▁predict	-11.456
▁ull	-11.4675
▁fri	-11.4706
tention	-11.4726
▁eminen	-11.4888
▁appoint	-11.4931
▁meteor	-11.5046
▁inhale	-11.5047
sequent	-11.5076
▁bre	-11.5079
▁involv	-11.5171
▁semi	-11.5178
roaches	-11.5218
ecora	-11.522
▁introduc	-11.5257
▁addict	-11.5272
▁attract	-11.5275
▁surround	-11.5277
▁determine	-11.5292
▁expire	-11.5292
keeper	-11.5295
ghostface	-11.5305
pole	-11.5305
knock	-11.5306
horse	-11.5306
perfect	-11.5306
check	-11.5306
yeah	-11.5307
polit	-11.5308
second	-11.5312
▁attic	-11.5313
▁terrifi	-11.5317
▁sensation	-11.5317
▁detect	-11.5318
▁champ	-11.5319
▁nix	-11.5321
izzi	-11.5321
dead	-11.5321
▁trippin	-11.5322
▁grocer	-11.5323
▁remark	-11.5323
▁caution	-11.5325
ization	-11.5326
▁abolition	-11.5326
▁dynami	-11.5326
premeditated	-11.5326
▁abnormal	-11.5326
▁academic	-11.5326
▁activities	-11.5326
▁advising	-11.5326
▁aircraft	-11.5326
▁akiko	-11.5326
▁allergic	-11.5326
▁alligator	-11.5326
▁apologies	-11.5326
▁aramaic	-11.5326
▁arrival	-11.5326
▁assumption	-11.5326
▁asthma	-11.5326
▁astrophysic	-11.5326
▁authorization	-11.5326
▁automated	-11.5326
▁automobile	-11.5326
▁autopsy	-11.5326
▁bacteria	-11.5326
▁bathtub	-11.5326
▁behalf	-11.5326
▁beneficial	-11.5326
▁benjamin	-11.5326
▁berenson	-11.5326
▁berynium	-11.5326
▁blizzard	-11.5326
▁bodyguard	-11.5326
▁brunch	-11.5326
▁bureaucracy	-11.5326
▁candidate	-11.5326
▁capacity	-11.5326
▁celebrities	-11.5326
▁chippendale	-11.5326
▁claustrophobi	-11.5326
▁credibility	-11.5326
▁curtains	-11.5326
▁devastating	-11.5326
▁disconnect	-11.5326
▁distress	-11.5326
▁dorothy	-11.5326
▁electrocute	-11.5326
▁encourage	-11.5326
▁equations	-11.5326
▁errands	-11.5326
▁escaping	-11.5326
▁essay	-11.5326
▁ethnic	-11.5326
▁exclude	-11.5326
▁explore	-11.5326
▁exposure	-11.5326
▁exquisite	-11.5326
▁flemming	-11.5326
▁foxhole	-11.5326
▁fragile	-11.5326
▁freysa	-11.5326
▁futile	-11.5326
▁georgia	-11.5326
▁gilligan	-11.5326
▁giovanni	-11.5326
▁goggles	-11.5326
▁gratitude	-11.5326
▁grease	-11.5326
▁grudge	-11.5326
▁hanako	-11.5326
▁hannah	-11.5326
▁happily	-11.5326
▁heartache	-11.5326
▁henessey	-11.5326
▁horribly	-11.5326
▁ibabe	-11.5326
▁indigen	-11.5326
▁infrared	-11.5326
▁initiate	-11.5326
▁invitation	-11.5326
▁isolation	-11.5326
▁jazeristan	-11.5326
▁jheri	-11.5326
▁jurisdiction	-11.5326
▁ketchup	-11.5326
▁knickers	-11.5326
▁landscape	-11.5326
▁liability	-11.5326
▁luenell	-11.5326
▁macarthur	-11.5326
▁mainframe	-11.5326
▁masturbate	-11.5326
▁mclaughlin	-11.5326
▁medivac	-11.5326
▁meurice	-11.5326
▁milkshake	-11.5326
▁mussolini	-11.5326
▁november	-11.5326
▁occupied	-11.5326
▁offensive	-11.5326
▁offworld	-11.5326
▁okidoki	-11.5326
▁oldfashioned	-11.5326
▁onstage	-11.5326
▁pancakes	-11.5326
▁peasant	-11.5326
▁perspective	-11.5326
▁philosophy	-11.5326
▁physicist	-11.5326
▁premonition	-11.5326
▁pretzel	-11.5326
▁previous	-11.5326
▁principal	-11.5326
▁prognosis	-11.5326
▁prophecy	-11.5326
▁puppet	-11.5326
▁purging	-11.5326
▁racetrack	-11.5326
▁receipt	-11.5326
▁rehearse	-11.5326
▁rehearsing	-11.5326
▁relations	-11.5326
▁remorse	-11.5326
▁revenge	-11.5326
▁revolution	-11.5326
▁rodrigo	-11.5326
▁rumspringa	-11.5326
▁savannah	-11.5326
▁scientific	-11.5326
▁scramble	-11.5326
▁selwyn	-11.5326
▁semester	-11.5326
▁shakespeare	-11.5326
▁sheldon	-11.5326
▁shelves	-11.5326
▁shrieks	-11.5326
▁shuffle	-11.5326
▁skeleton	-11.5326
▁somafree	-11.5326
▁spakowsky	-11.5326
▁splashing	-11.5326
▁stokely	-11.5326
▁stonewall	-11.5326
▁struggling	-11.5326
▁sumbitch	-11.5326
▁supreme	-11.5326
▁taniwha	-11.5326
▁terrifying	-11.5326
▁territory	-11.5326
▁thorough	-11.5326
▁tolerate	-11.5326
▁treacherous	-11.5326
▁trenches	-11.5326
▁trespassing	-11.5326
▁tulyakbay	-11.5326
▁twitter	-11.5326
▁twombly	-11.5326
▁ulysses	-11.5326
▁underestimated	-11.5326
▁unexpected	-11.5326
▁unintelligibl	-11.5326
▁unleash	-11.5326
▁uptight	-11.5326
▁vacuum	-11.5326
▁vampire	-11.5326
▁vegetarian	-11.5326
▁verdict	-11.5326
▁veteran	-11.5326
▁vibrates	-11.5326
▁whinnies	-11.5326
▁wyoming	-11.5326
▁zombie	-11.5326
▁amigo	-11.5326
▁analyst	-11.5326
▁burglar	-11.5326
▁canyon	-11.5326
▁cocktail	-11.5326
▁conceiv	-11.5326
▁discipl	-11.5326
▁embrace	-11.5326
▁gossip	-11.5326
▁griga	-11.5326
▁harbor	-11.5326
▁hector	-11.5326
▁identical	-11.5326
▁identify	-11.5326
▁intact	-11.5326
▁ireland	-11.5326
▁kimberly	-11.5326
▁maneuver	-11.5326
▁melody	-11.5326
▁minimum	-11.5326
▁oracle	-11.5326
▁paradise	-11.5326
▁patrick	-11.5326
▁phrase	-11.5326
▁physics	-11.5326
▁remodel	-11.5326
▁retract	-11.5326
▁rocco	-11.5326
▁sardine	-11.5326
▁satisfy	-11.5326
▁serpent	-11.5326
▁somali	-11.5326
▁soviet	-11.5326
▁yurek	-11.5326
▁austin	-11.5326
▁bannion	-11.5326
▁blouse	-11.5326
▁clunking	-11.5326
▁conspiracy	-11.5326
▁crooked	-11.5326
▁delusiona	-11.5326
▁dorky	-11.5326
▁garlic	-11.5326
▁joanne	-11.5326
▁louisiana	-11.5326
▁mkay	-11.5326
▁postcard	-11.5326
▁rabies	-11.5326
▁radiant	-11.5326
▁recip	-11.5326
▁reckless	-11.5326
▁reliable	-11.5326
▁squirrel	-11.5326
▁strahm	-11.5326
dolph	-11.5326
plicate	-11.5326
▁flirt	-11.5326
▁frail	-11.5326
▁hippie	-11.5326
▁kinney	-11.5326
▁monroe	-11.5326
▁obscen	-11.5326
▁promising	-11.5326
▁salvation	-11.5326
▁vesper	-11.5326
▁scorch	-11.5326
▁stumble	-11.5326
▁widow	-11.5326
▁aidan	-11.5326
▁durant	-11.5326
▁leahy	-11.5326
▁stoker	-11.5326
▁trance	-11.5326
▁volume	-11.5326
▁which	-11.5326
▁wilderness	-11.5326
▁applied	-11.5326
▁dalton	-11.5326
▁hirawa	-11.5326
▁kesher	-11.5326
▁legacy	-11.5326
▁manipulat	-11.5326
▁piease	-11.5326
▁struck	-11.5326
▁urinal	-11.5326
▁arbor	-11.5326
▁erections	-11.5326
▁income	-11.5326
▁perez	-11.5326
▁piace	-11.5326
▁reaiiy	-11.5326
▁recap	-11.5326
▁patron	-11.5326
▁regain	-11.5326
▁stabilize	-11.5326
▁whatsoever	-11.5326
zaki	-11.5326
▁bandaid	-11.5326
▁detain	-11.5326
▁planko	-11.5326
▁shitload	-11.5326
▁tyran	-11.5326
▁clement	-11.5326
▁declare	-11.5326
▁polar	-11.5326
▁stutter	-11.5326
▁utter	-11.5326
▁zap	-11.5326
▁enforc	-11.5326
▁grove	-11.5326
▁colony	-11.5327
▁hanni	-11.5327
▁poof	-11.5327
▁jupe	-11.5327
▁jeep	-11.5327
▁piggy	-11.5327
scrib	-11.5327
▁cartoon	-11.5327
▁trend	-11.5327
▁tyson	-11.5327
▁unholy	-11.5327
▁conquer	-11.5327
▁niv	-11.5327
▁videotape	-11.5327
▁jasper	-11.5327
▁mommies	-11.5327
▁ulcer	-11.5327
▁partygoer	-11.5327
▁skinnies	-11.5327
▁dragging	-11.5327
▁evolv	-11.5327
▁mimic	-11.5327
▁irre	-11.5327
▁penetrat	-11.5327
▁flexible	-11.5327
▁kroy	-11.5327
▁repuls	-11.5327
▁oof	-11.5327
▁relay	-11.5327
▁smelt	-11.5327
▁napkin	-11.5327
▁divers	-11.5327
▁yyou	-11.5327
▁eighteen	-11.5327
▁heap	-11.5327
▁heip	-11.5327
▁canal	-11.5327
closure	-11.5327
▁panini	-11.5327
▁prelim	-11.5327
▁psychologist	-11.5327
▁brooks	-11.5327
▁psychological	-11.5327
▁cadre	-11.5327
▁salesman	-11.5327
▁winston	-11.5327
▁thudding	-11.5327
▁dietrich	-11.5327
▁integrity	-11.5327
▁lovebirds	-11.5327
▁upgrade	-11.5327
nshaw	-11.5328
▁consent	-11.5328
▁finn	-11.5328
▁stimulat	-11.5328
▁cautionary	-11.5328
▁mailbox	-11.5328
▁carolina	-11.5328
▁urns	-11.5328
▁liane	-11.5328
▁toolbox	-11.5328
▁manual	-11.5328
▁appreciation	-11.5328
▁calvin	-11.5328
▁outdoor	-11.5328
▁bugged	-11.5328
▁britney	-11.5328
▁vague	-11.5329
▁transferred	-11.5329
▁romania	-11.5329
▁annihilator	-11.5329
▁psst	-11.5329
▁theft	-11.5329
▁hungover	-11.5329
▁poetry	-11.5329
▁equity	-11.5329
improvement	-11.5329
▁battlefield	-11.5329
▁promote	-11.5329
▁consciousness	-11.5329
▁vital	-11.5329
▁zipper	-11.5329
▁kemp	-11.5329
▁wordsworth	-11.5329
▁movin	-11.533
▁sadistic	-11.533
▁disarm	-11.533
▁donate	-11.533
▁retirement	-11.533
▁ragged	-11.533
▁overnight	-11.533
▁holler	-11.533
▁reborn	-11.533
▁romance	-11.5331
▁windsor	-11.5331
▁edgar	-11.5331
▁goldstein	-11.5331
▁defect	-11.5331
▁rumble	-11.5331
▁galway	-11.5331
▁tension	-11.5331
▁slipping	-11.5331
▁toby	-11.5332
▁butthole	-11.5332
▁ginger	-11.5332
▁quest	-11.5332
▁personalities	-11.5332
petition	-11.5332
▁flunk	-11.5332
▁tying	-11.5332
▁massac	-11.5332
▁riba	-11.5332
▁jerkoff	-11.5332
▁nixon	-11.5332
▁karate	-11.5332
▁chiii	-11.5333
▁delhi	-11.5333
▁babysit	-11.5333
▁erik	-11.5333
▁stanley	-11.5333
▁deform	-11.5333
▁awhile	-11.5334
▁lyon	-11.5334
▁gps	-11.5334
▁bondage	-11.5334
▁theme	-11.5334
▁notch	-11.5334
▁fluid	-11.5334
▁ballroom	-11.5334
martial	-11.5335
▁iq	-11.5335
▁stanton	-11.5335
▁gutter	-11.5336
▁triton	-11.5336
▁denial	-11.5337
▁verse	-11.5337
▁tipped	-11.5338
▁harle	-11.5338
▁dink	-11.5338
▁beak	-11.5338
▁arise	-11.5339
▁charter	-11.534
▁jock	-11.5341
▁conviction	-11.5342
▁levin	-11.5343
azar	-11.5347
▁bead	-11.5349
▁balti	-11.5364
diac	-11.5379
▁conserv	-11.5393
▁epi	-11.5398
hhh	-11.5419
tempo	-11.5467
affe	-11.552
▁fuse	-11.5586
mushroom	-11.5643
▁wilki	-11.5682
▁trad	-11.5695
▁crip	-11.5743
▁chassi	-11.5747
▁patholog	-11.5795
nows	-11.5872
▁distribut	-11.6058
hopping	-11.6394
▁circl	-11.699
▁atom	-11.6993
shaped	-11.7095
retch	-11.7105
comprehensi	-11.7365
▁advanc	-11.7529
dialing	-11.758
▁figur	-11.7719
serving	-11.7723
lasting	-11.7726
▁disgust	-11.777
▁mourn	-11.777
▁invent	-11.777
▁strangle	-11.7777
▁excite	-11.7791
where	-11.7795
ween	-11.7796
lookin	-11.7797
▁activat	-11.7799
▁numb	-11.7801
cream	-11.7802
privilege	-11.7804
dollar	-11.7805
launch	-11.7805
writer	-11.7805
claim	-11.7805
american	-11.7806
certain	-11.7806
breath	-11.7806
important	-11.7806
married	-11.7806
foot	-11.7806
mouth	-11.7806
bury	-11.7806
curl	-11.7806
true	-11.7806
siren	-11.7807
storm	-11.7808
change	-11.7817
▁darlin	-11.7818
▁exhal	-11.7818
▁cleav	-11.7818
▁mamm	-11.7818
▁sittin	-11.7819
▁influen	-11.782
▁trait	-11.782
▁supervis	-11.7821
▁michel	-11.7821
▁destruct	-11.7822
cipation	-11.7824
▁francis	-11.7825
▁authori	-11.7825
▁kidnap	-11.7825
rinkle	-11.7825
ndsay	-11.7826
▁basket	-11.7826
▁scholar	-11.7826
▁steward	-11.7826
▁myth	-11.7826
▁hemorrh	-11.7826
▁discreet	-11.7826
▁fortunate	-11.7826
▁selfdefen	-11.7826
▁skeptic	-11.7826
▁voyeur	-11.7826
efficient	-11.7826
iglia	-11.7826
sensitivity	-11.7826
significant	-11.7826
▁administrati	-11.7826
▁allergies	-11.7826
▁amarillo	-11.7826
▁ancestors	-11.7826
▁antarctica	-11.7826
▁antisemitic	-11.7826
▁apologise	-11.7826
▁areuh	-11.7826
▁arsenal	-11.7826
▁artaphernes	-11.7826
▁association	-11.7826
▁astronaut	-11.7826
▁athletic	-11.7826
▁attaboy	-11.7826
▁attaglia	-11.7826
▁balcony	-11.7826
▁battalion	-11.7826
▁baywatch	-11.7826
▁berserk	-11.7826
▁biblical	-11.7826
▁bicycle	-11.7826
▁biltmore	-11.7826
▁binoculars	-11.7826
▁biohazard	-11.7826
▁bluffing	-11.7826
▁boddicker	-11.7826
▁bodybuilders	-11.7826
▁bouchard	-11.7826
▁brainwashed	-11.7826
▁briefcase	-11.7826
▁broflovski	-11.7826
▁budweiser	-11.7826
▁bullseye	-11.7826
▁bypass	-11.7826
▁casket	-11.7826
▁category	-11.7826
▁celebration	-11.7826
▁channing	-11.7826
▁choosing	-11.7826
▁circumcised	-11.7826
▁clarify	-11.7826
▁clutenichols	-11.7826
▁congratulate	-11.7826
▁connecticut	-11.7826
▁contrary	-11.7826
▁corsetti	-11.7826
▁cottage	-11.7826
▁counterfeit	-11.7826
▁cremated	-11.7826
▁cynical	-11.7826
▁decorator	-11.7826
▁default	-11.7826
▁demonstration	-11.7826
▁dempsey	-11.7826
▁descend	-11.7826
▁desirable	-11.7826
▁diagnos	-11.7826
▁dictionary	-11.7826
▁dilemma	-11.7826
▁dipshit	-11.7826
▁discharge	-11.7826
▁dominatrix	-11.7826
▁doorknob	-11.7826
▁doughnuts	-11.7826
▁downstream	-11.7826
▁dumbdumb	-11.7826
▁dungeon	-11.7826
▁economic	-11.7826
▁ecstasy	-11.7826
▁elizabeth	-11.7826
▁emporium	-11.7826
▁encouraging	-11.7826
▁enrique	-11.7826
▁entitled	-11.7826
▁epidemic	-11.7826
▁exgirlfriend	-11.7826
▁fascinate	-11.7826
▁forbid	-11.7826
▁fractured	-11.7826
▁fulbright	-11.7826
▁gangbang	-11.7826
▁giddyap	-11.7826
▁giuseppina	-11.7826
▁glamorous	-11.7826
▁godawful	-11.7826
▁gordetsky	-11.7826
▁gracias	-11.7826
▁greasy	-11.7826
▁grentz	-11.7826
▁guilford	-11.7826
▁gurgling	-11.7826
▁gymnasium	-11.7826
▁hairdresser	-11.7826
▁harassment	-11.7826
▁heavier	-11.7826
▁hebrew	-11.7826
▁heirloom	-11.7826
▁hendricksson	-11.7826
▁heterosexual	-11.7826
▁historical	-11.7826
▁hitchhiker	-11.7826
▁housewives	-11.7826
▁humiliation	-11.7826
▁identification	-11.7826
▁ignorant	-11.7826
▁illinois	-11.7826
▁immortal	-11.7826
▁impulse	-11.7826
▁infection	-11.7826
▁initiative	-11.7826
▁inspection	-11.7826
▁installed	-11.7826
▁japonaise	-11.7826
▁kramer	-11.7826
▁length	-11.7826
▁liberation	-11.7826
▁limousine	-11.7826
▁lowlife	-11.7826
▁ludmilla	-11.7826
▁macneil	-11.7826
▁mainstream	-11.7826
▁marauder	-11.7826
▁marilyn	-11.7826
▁marvelous	-11.7826
▁mcnamara	-11.7826
▁mechanism	-11.7826
▁mediocr	-11.7826
▁meredith	-11.7826
▁microphone	-11.7826
▁migraine	-11.7826
▁minamata	-11.7826
▁misfits	-11.7826
▁mistletoe	-11.7826
▁monstrous	-11.7826
▁morgan	-11.7826
▁moscow	-11.7826
▁motoyama	-11.7826
▁mozart	-11.7826
▁muhammad	-11.7826
▁mullins	-11.7826
▁municipal	-11.7826
▁nevada	-11.7826
▁nibble	-11.7826
▁nonsense	-11.7826
▁offshore	-11.7826
▁oklahoma	-11.7826
▁omega	-11.7826
▁outsmart	-11.7826
▁oxygen	-11.7826
▁pajama	-11.7826
▁paralyzed	-11.7826
▁password	-11.7826
▁pawnshop	-11.7826
▁penitentiary	-11.7826
▁pennsylvania	-11.7826
▁philanthropist	-11.7826
▁pingpong	-11.7826
▁plumber	-11.7826
▁podcast	-11.7826
▁politicians	-11.7826
▁postdeath	-11.7826
▁prahba	-11.7826
▁priorities	-11.7826
▁promotion	-11.7826
▁proportion	-11.7826
▁psychoplasmics	-11.7826
▁qualities	-11.7826
▁reassess	-11.7826
▁registration	-11.7826
▁relief	-11.7826
▁reputation	-11.7826
▁rhodes	-11.7826
▁roosevelt	-11.7826
▁russborough	-11.7826
▁sacrificing	-11.7826
▁schumacher	-11.7826
▁screwdriver	-11.7826
▁september	-11.7826
▁shirley	-11.7826
▁shoelace	-11.7826
▁shouid	-11.7826
▁slauson	-11.7826
▁smuggler	-11.7826
▁snagged	-11.7826
▁snlff	-11.7826
▁souvenir	-11.7826
▁stubborn	-11.7826
▁substance	-11.7826
▁sufficient	-11.7826
▁suicidal	-11.7826
▁summat	-11.7826
▁sweatshirt	-11.7826
▁sylvester	-11.7826
▁tannoy	-11.7826
▁tantrum	-11.7826
▁tarzan	-11.7826
▁tattoo	-11.7826
▁temple	-11.7826
▁testimony	-11.7826
▁thornton	-11.7826
▁tiffany	-11.7826
▁tranquilizer	-11.7826
▁travers	-11.7826
▁tuxedo	-11.7826
▁tweet	-11.7826
▁tyrell	-11.7826
▁unpleasant	-11.7826
▁vaseline	-11.7826
▁verdegast	-11.7826
▁vibration	-11.7826
▁vibrator	-11.7826
▁waldman	-11.7826
▁wardrobe	-11.7826
▁witchcraft	-11.7826
▁wolves	-11.7826
▁yvonne	-11.7826
cipher	-11.7826
▁abdomin	-11.7826
▁alternate	-11.7826
▁annual	-11.7826
▁aquar	-11.7826
▁baboon	-11.7826
▁bollock	-11.7826
▁capisce	-11.7826
▁cavalry	-11.7826
▁charlotte	-11.7826
▁coconut	-11.7826
▁congress	-11.7826
▁corporal	-11.7826
▁delightful	-11.7826
▁democracy	-11.7826
▁emphasi	-11.7826
▁enlighten	-11.7826
▁gibson	-11.7826
▁gretta	-11.7826
▁infiltrat	-11.7826
▁intercept	-11.7826
▁lloyd	-11.7826
▁montana	-11.7826
▁morgue	-11.7826
▁navigate	-11.7826
▁overreact	-11.7826
▁penguin	-11.7826
▁prevail	-11.7826
▁regroup	-11.7826
▁remake	-11.7826
▁saarne	-11.7826
▁schmuck	-11.7826
▁shawna	-11.7826
▁sinatra	-11.7826
▁summon	-11.7826
▁thieves	-11.7826
▁tissue	-11.7826
▁transaction	-11.7826
▁vatican	-11.7826
▁vchip	-11.7826
▁worship	-11.7826
▁yorkshire	-11.7826
▁bernard	-11.7826
▁booyah	-11.7826
▁concuss	-11.7826
▁diabet	-11.7826
▁dildo	-11.7826
▁dribbl	-11.7826
▁expand	-11.7826
▁expend	-11.7826
▁freud	-11.7826
▁fuzzy	-11.7826
▁gardner	-11.7826
▁glitch	-11.7826
▁hallucin	-11.7826
▁oleary	-11.7826
▁overseas	-11.7826
▁plunge	-11.7826
▁reload	-11.7826
▁resync	-11.7826
▁salvage	-11.7826
▁seatbelt	-11.7826
▁smarly	-11.7826
▁snitch	-11.7826
▁suitcase	-11.7826
▁sunrise	-11.7826
▁whatnot	-11.7826
▁ararat	-11.7826
▁dispens	-11.7826
▁dixie	-11.7826
▁sensor	-11.7826
▁appetiz	-11.7826
▁bookcase	-11.7826
▁farewell	-11.7826
▁florist	-11.7826
▁mormon	-11.7826
▁neigh	-11.7826
▁retail	-11.7826
▁wrath	-11.7826
▁beacon	-11.7826
▁blackmail	-11.7826
▁bleak	-11.7826
▁bronze	-11.7826
▁brotherinlaw	-11.7826
▁bruh	-11.7826
▁colada	-11.7826
▁graphic	-11.7826
▁gueros	-11.7826
▁havana	-11.7826
▁joshua	-11.7826
▁knob	-11.7826
▁lndian	-11.7826
▁strung	-11.7826
▁twat	-11.7826
▁detour	-11.7826
▁emperor	-11.7826
▁impersonati	-11.7826
▁kkk	-11.7826
▁barrier	-11.7826
▁dignity	-11.7826
▁hunch	-11.7826
▁yikes	-11.7826
▁cohen	-11.7826
▁lomper	-11.7826
▁scoot	-11.7826
▁ouch	-11.7826
▁predator	-11.7826
▁sponge	-11.7826
▁swedish	-11.7826
▁estonia	-11.7826
▁skirt	-11.7826
▁dyke	-11.7826
▁analyze	-11.7826
▁brooke	-11.7826
▁endanger	-11.7826
▁bueno	-11.7827
▁depriv	-11.7827
▁heartbreaker	-11.7827
▁magnifi	-11.7827
▁noisy	-11.7827
▁thermo	-11.7827
▁altar	-11.7827
▁cissy	-11.7827
▁comfy	-11.7827
▁frisk	-11.7827
▁hanley	-11.7827
▁stamp	-11.7827
▁throne	-11.7827
▁herpes	-11.7827
▁russo	-11.7827
▁karl	-11.7827
▁scalp	-11.7827
▁visible	-11.7827
▁bandana	-11.7827
▁nutri	-11.7827
▁rowlands	-11.7827
▁stoop	-11.7827
▁handgun	-11.7827
▁handicap	-11.7827
▁lantern	-11.7827
▁licence	-11.7827
▁riends	-11.7827
▁gesture	-11.7827
▁orrin	-11.7827
brid	-11.7827
▁oven	-11.7827
▁info	-11.7827
▁mythology	-11.7827
▁merit	-11.7827
▁unreal	-11.7827
▁hastings	-11.7827
▁slob	-11.7827
▁manifest	-11.7827
▁censorship	-11.7827
▁prompt	-11.7827
▁intervene	-11.7827
▁uncie	-11.7827
▁luke	-11.7827
▁shoppers	-11.7827
▁civilization	-11.7827
▁gangsta	-11.7827
▁hesitate	-11.7827
▁seasick	-11.7827
▁tribe	-11.7827
▁possum	-11.7827
▁neutralize	-11.7827
▁momund	-11.7827
▁ensure	-11.7827
▁pervers	-11.7827
▁grabbing	-11.7827
▁intestin	-11.7827
▁bowels	-11.7827
▁thugs	-11.7827
dahdahdahdah	-11.7827
▁arriving	-11.7827
▁abbie	-11.7827
▁surfboard	-11.7827
parallel	-11.7827
▁hurl	-11.7828
▁precedent	-11.7828
itory	-11.7828
▁nanny	-11.7828
▁spiritual	-11.7828
▁gravit	-11.7828
▁wails	-11.7828
▁sideways	-11.7828
▁dispers	-11.7828
▁spectr	-11.7828
▁fyi	-11.7828
▁provoke	-11.7828
▁yoko	-11.7828
▁gordy	-11.7828
born	-11.783
▁lightning	-11.783
▁dining	-11.783
pregna	-11.7831
rrection	-11.7831
▁regimen	-11.7831
▁scatt	-11.7833
▁trivia	-11.7834
▁capri	-11.7835
▁indie	-11.7839
anquet	-11.7841
aleck	-11.7843
glass	-11.7848
kfar	-11.7859
▁quo	-11.7865
stool	-11.7866
▁delete	-11.7868
▁philip	-11.7884
▁ferr	-11.789
flake	-11.7922
▁rlc	-11.793
▁flapp	-11.799
lavery	-11.7991
▁lenin	-11.8093
▁insulat	-11.8102
shades	-11.8121
luster	-11.8162
▁restore	-11.82
savet	-11.8227
obin	-11.8258
▁nozz	-11.8274
▁verif	-11.8387
erlin	-11.8449
▁challeng	-11.8487
winces	-11.8513
owning	-11.8556
nnery	-11.8678
ddad	-11.8721
tomic	-11.8747
▁sedati	-11.8926
▁remov	-11.9224
righteous	-11.945
▁coordinat	-11.9633
▁provid	-12.0128
▁transmit	-12.034
busters	-12.0356
logist	-12.0574
tribute	-12.0761
egitimate	-12.079
▁circumstance	-12.0873
▁troubl	-12.0925
lapping	-12.0933
signer	-12.0948
riots	-12.0974
▁releas	-12.107
treating	-12.1072
▁divorc	-12.1081
friends	-12.1089
▁replac	-12.1089
▁suppos	-12.1094
▁streak	-12.11
▁murmur	-12.1102
▁disappoint	-12.1107
▁obsess	-12.1107
father	-12.1112
drops	-12.112
▁confuse	-12.1127
▁facilit	-12.1132
▁custod	-12.1132
solution	-12.1133
▁brenn	-12.1137
▁univers	-12.1138
winning	-12.1139
pipe	-12.1139
understood	-12.1139
virgin	-12.1139
famous	-12.1139
information	-12.1139
crowd	-12.1139
direct	-12.1139
ocean	-12.1139
running	-12.1139
behind	-12.1139
together	-12.1139
course	-12.1139
sighs	-12.1139
believe	-12.1139
▁aspir	-12.1142
▁happie	-12.1143
▁unfortunate	-12.1144
▁definite	-12.1144
▁absolute	-12.1144
▁jamaica	-12.1146
▁froze	-12.1147
▁rewrit	-12.1147
chuckles	-12.1149
▁memori	-12.115
▁critic	-12.1151
▁angl	-12.1152
hohoho	-12.1154
▁definiti	-12.1154
believable	-12.1154
▁psychiatr	-12.1157
riving	-12.1157
▁priv	-12.1157
▁opportuni	-12.1158
▁dahdahdah	-12.1158
arriage	-12.1159
ophobia	-12.1159
▁neutral	-12.1159
▁krypton	-12.1159
▁censor	-12.1159
▁flex	-12.1159
▁vocal	-12.116
▁kazakh	-12.116
roscopic	-12.116
▁condemn	-12.116
▁imprison	-12.116
▁incontinent	-12.116
▁outnumber	-12.116
▁philosophi	-12.116
▁supple	-12.116
articulate	-12.116
attentive	-12.116
contamination	-12.116
enthusiastic	-12.116
gahertz	-12.116
hisname	-12.116
hyperventilating	-12.116
recognition	-12.116
schizophrenia	-12.116
strictions	-12.116
template	-12.116
▁abscam	-12.116
▁acapulco	-12.116
▁accumulate	-12.116
▁acquaintance	-12.116
▁acquainted	-12.116
▁acquire	-12.116
▁administer	-12.116
▁aegean	-12.116
▁alaska	-12.116
▁almighty	-12.116
▁ambitious	-12.116
▁amerikkka	-12.116
▁antichrist	-12.116
▁apocalypse	-12.116
▁argentina	-12.116
▁arrogant	-12.116
▁avocado	-12.116
▁balenciaga	-12.116
▁baloney	-12.116
▁bankrupt	-12.116
▁barricade	-12.116
▁bearbear	-12.116
▁bedstuy	-12.116
▁beiieve	-12.116
▁bellevue	-12.116
▁benigna	-12.116
▁beverage	-12.116
▁bizarre	-12.116
▁blossom	-12.116
▁bonfire	-12.116
▁boomshakalaka	-12.116
▁borough	-12.116
▁bouquet	-12.116
▁brezhnev	-12.116
▁bribing	-12.116
▁briggs	-12.116
▁brunette	-12.116
▁bulldogs	-12.116
▁caffeine	-12.116
▁camaraderie	-12.116
▁camcorder	-12.116
▁capabilities	-12.116
▁caribbean	-12.116
▁catalogue	-12.116
▁caucasian	-12.116
▁chameleon	-12.116
▁cinnamon	-12.116
▁circumstantial	-12.116
▁claiborne	-12.116
▁cockmaster	-12.116
▁coexist	-12.116
▁coglin	-12.116
▁commissary	-12.116
▁composure	-12.116
▁concrete	-12.116
▁condiments	-12.116
▁confrontation	-12.116
▁confusing	-12.116
▁consistency	-12.116
▁cornbread	-12.116
▁correspond	-12.116
▁corridor	-12.116
▁crawford	-12.116
▁cryobank	-12.116
▁ddojsioc	-12.116
▁decorations	-12.116
▁delusions	-12.116
▁demeaning	-12.116
▁diabolical	-12.116
▁diligent	-12.116
▁dinosaur	-12.116
▁dipesto	-12.116
▁disadvantage	-12.116
▁disbarred	-12.116
▁discretion	-12.116
▁disguise	-12.116
▁dismantle	-12.116
▁disobey	-12.116
▁dissolve	-12.116
▁ditomasso	-12.116
▁drydock	-12.116
▁dysfunction	-12.116
▁earmuff	-12.116
▁ebitda	-12.116
▁editorial	-12.116
▁encryption	-12.116
▁energizer	-12.116
▁engraved	-12.116
▁enthusiasm	-12.116
▁entrust	-12.116
▁epileptic	-12.116
▁evolution	-12.116
▁exhausting	-12.116
▁exhumed	-12.116
▁experiencing	-12.116
▁exploring	-12.116
▁faucet	-12.116
▁fazools	-12.116
▁feminist	-12.116
▁financing	-12.116
▁fingertip	-12.116
▁firefighter	-12.116
▁firepower	-12.116
▁fragment	-12.116
▁frenzy	-12.116
▁frequent	-12.116
▁fujita	-12.116
▁fword	-12.116
▁gadget	-12.116
▁gagootz	-12.116
▁gauze	-12.116
▁generosity	-12.116
▁gibberish	-12.116
▁glasgow	-12.116
▁governor	-12.116
▁grammy	-12.116
▁grandparents	-12.116
▁greyhound	-12.116
▁gunshofl	-12.116
▁gurgle	-12.116
▁handicrafts	-12.116
▁harrell	-12.116
▁headphones	-12.116
▁henderson	-12.116
▁homicidal	-12.116
▁hygien	-12.116
▁ignoring	-12.116
▁imagining	-12.116
▁impeccable	-12.116
▁indefinitely	-12.116
▁inherit	-12.116
▁insecure	-12.116
▁instagram	-12.116
▁installments	-12.116
▁insubordination	-12.116
▁intellectual	-12.116
▁intervention	-12.116
▁investigate	-12.116
▁jetlagged	-12.116
▁kangaroo	-12.116
▁kaufman	-12.116
▁kenosha	-12.116
▁kolnas	-12.116
▁krimp	-12.116
▁kristofferson	-12.116
▁lasagna	-12.116
▁lawsuit	-12.116
▁liberating	-12.116
▁lindsey	-12.116
▁linguist	-12.116
▁lizard	-12.116
▁lymph	-12.116
▁maggots	-12.116
▁majestic	-12.116
▁malmsteen	-12.116
▁manufacture	-12.116
▁margaret	-12.116
▁mascot	-12.116
▁masturbating	-12.116
▁mccarran	-12.116
▁meadow	-12.116
▁merchant	-12.116
▁metaphor	-12.116
