<unk>	0
<s>	0
</s>	0
s	-2.9708
e	-3.88158
a	-4.19797
ing	-4.19881
t	-4.20921
d	-4.30799
ed	-4.32696
y	-4.36755
p	-4.46796
▁	-4.47267
n	-4.49281
o	-4.51183
er	-4.55934
m	-4.58607
u	-4.7494
i	-4.76418
r	-4.79124
g	-4.82151
c	-4.83271
▁s	-4.95988
h	-4.98538
in	-5.00639
b	-5.0081
f	-5.22179
▁t	-5.22361
le	-5.23031
▁im	-5.24607
or	-5.24794
al	-5.26404
▁oh	-5.27472
▁know	-5.29984
▁go	-5.31053
l	-5.31961
▁dont	-5.34479
ar	-5.3669
▁well	-5.39828
ly	-5.41054
▁f	-5.43006
k	-5.44199
▁get	-5.46331
it	-5.46655
on	-5.46912
▁like	-5.47748
▁b	-5.51386
▁come	-5.53804
▁right	-5.55647
v	-5.59478
at	-5.60235
▁c	-5.62671
▁see	-5.62969
en	-5.64424
▁one	-5.66748
▁re	-5.69236
▁m	-5.70246
▁thats	-5.71322
▁got	-5.7296
▁w	-5.76873
▁us	-5.7691
ur	-5.78607
ll	-5.78609
▁good	-5.79381
re	-5.80446
an	-5.80698
w	-5.82204
▁st	-5.83923
▁ch	-5.84842
ch	-5.85774
th	-5.87069
▁youre	-5.87805
▁want	-5.89129
▁think	-5.92147
ve	-5.92892
▁de	-5.94411
▁time	-5.9474
es	-5.96422
▁a	-5.98152
▁look	-5.98321
ent	-6.00883
st	-6.01777
▁yeah	-6.02267
ra	-6.02927
▁l	-6.0512
▁co	-6.06714
▁back	-6.06802
▁p	-6.06854
ic	-6.07255
ion	-6.07358
▁na	-6.0803
▁say	-6.09651
ce	-6.10003
ir	-6.10603
il	-6.12572
▁yes	-6.15721
ri	-6.16443
▁pa	-6.18738
▁take	-6.20155
▁going	-6.21043
us	-6.21831
▁in	-6.2208
▁k	-6.22439
▁would	-6.24306
▁bo	-6.24535
▁hes	-6.25209
est	-6.25357
li	-6.26049
▁ill	-6.27735
▁ro	-6.28299
ation	-6.30329
▁hey	-6.30921
▁ha	-6.31733
▁little	-6.31876
▁could	-6.35259
▁be	-6.35346
▁way	-6.35739
▁man	-6.35839
▁tell	-6.35916
el	-6.36398
▁gon	-6.36609
ut	-6.36667
ke	-6.37904
▁mean	-6.37905
▁thank	-6.38715
te	-6.39706
▁really	-6.40221
ne	-6.40362
ter	-6.40716
ow	-6.41286
▁o	-6.41399
▁po	-6.41977
is	-6.42967
▁cant	-6.42985
▁ho	-6.44184
▁need	-6.45238
▁make	-6.4534
ol	-6.45898
ro	-6.45976
ate	-6.46355
▁day	-6.47173
▁r	-6.47236
▁con	-6.48377
▁g	-6.50418
▁ma	-6.51272
▁love	-6.52043
and	-6.5237
la	-6.54995
▁th	-6.55751
▁never	-6.56186
▁pro	-6.56229
ie	-6.57439
▁cr	-6.57498
▁e	-6.5807
▁ca	-6.58223
▁sh	-6.58228
as	-6.58236
▁uh	-6.58641
ers	-6.60418
▁mr	-6.60838
ul	-6.6097
im	-6.61222
▁something	-6.62791
▁d	-6.62913
z	-6.63161
▁hi	-6.63541
pe	-6.64295
▁okay	-6.64529
nt	-6.64911
▁ta	-6.66035
▁mo	-6.66835
ive	-6.67123
▁work	-6.67179
▁whats	-6.67415
ine	-6.68612
▁sp	-6.68923
▁h	-6.6913
▁ex	-6.7052
et	-6.70979
▁let	-6.71711
up	-6.71843
ry	-6.72017
ies	-6.72146
▁didnt	-6.72464
mm	-6.73023
▁br	-6.73293
▁ive	-6.73408
▁lets	-6.73425
x	-6.7347
oo	-6.73647
ick	-6.74359
me	-6.75013
▁people	-6.7558
▁help	-6.75831
▁wait	-6.75844
um	-6.75982
ud	-6.76471
op	-6.76483
lo	-6.76659
▁new	-6.77041
▁sure	-6.77619
ist	-6.78211
▁ra	-6.78242
▁give	-6.78982
ge	-6.79462
▁boy	-6.79526
▁find	-6.80355
▁even	-6.80846
▁first	-6.81349
▁theres	-6.81351
▁said	-6.81442
▁music	-6.81607
▁two	-6.82399
age	-6.82901
▁talk	-6.8371
j	-6.83783
▁dr	-6.84152
▁he	-6.84221
▁wh	-6.84276
▁must	-6.85851
▁call	-6.879
ide	-6.88395
▁life	-6.88578
▁great	-6.88578
▁di	-6.88602
▁sc	-6.89151
▁mar	-6.89276
▁thing	-6.90324
▁un	-6.90488
▁theyre	-6.90683
▁sa	-6.90955
▁much	-6.9139
ect	-6.91769
▁mi	-6.92518
▁gr	-6.94797
▁home	-6.96895
▁jo	-6.96897
▁please	-6.9756
▁lo	-6.97982
▁ga	-6.98253
▁big	-6.98417
ous	-6.98492
co	-6.98504
▁cla	-6.98742
ard	-6.99999
▁name	-7.00385
vi	-7.0148
▁for	-7.02326
▁believe	-7.02538
▁ba	-7.02692
ight	-7.0352
▁friend	-7.03821
ment	-7.04036
▁ever	-7.04776
able	-7.0528
▁long	-7.06793
▁la	-7.06995
de	-7.07064
▁no	-7.07685
und	-7.07727
id	-7.07823
▁place	-7.09132
▁old	-7.09512
▁fl	-7.09631
▁to	-7.09677
▁still	-7.09762
▁miss	-7.09834
▁part	-7.10148
▁feel	-7.10179
▁lot	-7.10499
▁better	-7.10509
ant	-7.10549
▁car	-7.11216
▁li	-7.11282
act	-7.12153
▁keep	-7.13306
▁stop	-7.13428
▁pe	-7.13435
▁ah	-7.1387
▁vi	-7.14282
▁years	-7.1435
▁ar	-7.14581
▁win	-7.14948
▁put	-7.14957
▁family	-7.16187
▁care	-7.16306
▁so	-7.16504
▁thought	-7.17295
▁ap	-7.17565
▁guys	-7.18122
▁do	-7.18409
▁ad	-7.18584
▁youll	-7.18781
▁id	-7.19374
man	-7.19784
ure	-7.19841
▁start	-7.19953
ill	-7.20245
▁away	-7.20302
▁live	-7.20325
ian	-7.20444
▁world	-7.21057
▁father	-7.21057
▁always	-7.21442
ty	-7.21499
▁things	-7.21711
▁ne	-7.23168
▁play	-7.23468
▁pre	-7.235
ful	-7.23652
▁sir	-7.23845
▁maybe	-7.24189
▁ask	-7.2428
▁around	-7.24973
ting	-7.25015
own	-7.25702
▁anything	-7.25773
▁kind	-7.25799
▁night	-7.26681
▁remember	-7.26987
em	-7.27599
▁sorry	-7.27814
ance	-7.2816
uck	-7.28174
ock	-7.28413
▁gu	-7.28661
▁sea	-7.29408
▁wont	-7.29916
▁wa	-7.30248
▁da	-7.30354
▁em	-7.3052
ling	-7.30602
▁every	-7.31085
▁dis	-7.31132
▁stay	-7.31242
▁al	-7.31853
▁hand	-7.32336
ally	-7.32576
▁god	-7.3273
▁plan	-7.33055
ence	-7.33134
▁word	-7.33327
▁real	-7.33439
ew	-7.33487
▁n	-7.34032
▁best	-7.3451
ta	-7.35002
▁nothing	-7.35048
▁listen	-7.35937
ha	-7.36345
▁show	-7.36791
▁youve	-7.37728
ity	-7.39074
▁war	-7.39261
ack	-7.39364
▁ya	-7.39652
▁everything	-7.40026
▁run	-7.40055
▁hello	-7.40292
▁dog	-7.40556
▁made	-7.40779
to	-7.42206
▁course	-7.4237
▁shes	-7.42748
▁three	-7.43344
▁hoo	-7.44074
▁came	-7.44192
▁frank	-7.44287
▁minute	-7.44288
▁told	-7.44317
▁tigger	-7.44523
▁black	-7.44775
▁ri	-7.45402
less	-7.45623
▁mom	-7.45713
▁school	-7.45751
▁huh	-7.45896
▁gra	-7.46117
ip	-7.46211
▁high	-7.46271
▁hear	-7.46558
▁ear	-7.46599
▁pr	-7.46742
▁whoa	-7.47267
▁ac	-7.48067
▁je	-7.48228
▁last	-7.48247
▁weve	-7.48269
▁might	-7.4827
▁du	-7.49066
▁girl	-7.49254
▁money	-7.49257
▁nice	-7.49783
▁coming	-7.49826
ress	-7.50432
▁may	-7.51207
▁done	-7.51599
▁left	-7.5183
ical	-7.53737
▁another	-7.53939
▁enough	-7.53939
▁open	-7.53968
▁hu	-7.54314
▁playing	-7.54385
▁many	-7.54403
▁today	-7.54474
ten	-7.55848
▁idea	-7.55953
▁pi	-7.57219
▁mind	-7.57835
ated	-7.58085
▁together	-7.58858
▁bar	-7.58889
▁turn	-7.58897
▁hard	-7.59717
▁ok	-7.60387
▁try	-7.6041
▁isnt	-7.60559
▁hope	-7.60666
▁getting	-7.60807
▁found	-7.61133
ise	-7.61136
▁bad	-7.61489
▁city	-7.62785
▁meet	-7.6289
que	-7.63444
▁comp	-7.63524
▁ju	-7.63588
▁en	-7.63618
▁col	-7.64203
▁ready	-7.6435
▁son	-7.649
▁per	-7.65846
ize	-7.65932
▁sound	-7.65972
tic	-7.66105
▁they	-7.66173
▁fine	-7.66752
▁hold	-7.67054
▁el	-7.6768
▁water	-7.67957
▁va	-7.67989
▁leave	-7.6825
▁close	-7.68883
ever	-7.69005
▁morning	-7.69489
▁sw	-7.70399
▁kill	-7.71101
▁seen	-7.71586
▁set	-7.71743
▁wrong	-7.72012
▁doesnt	-7.72012
ious	-7.72876
▁sun	-7.73315
ish	-7.73425
▁looking	-7.73557
▁sit	-7.73675
▁lost	-7.7401
▁far	-7.74068
▁laugh	-7.744
▁church	-7.74607
▁inter	-7.75502
▁move	-7.75527
▁au	-7.75782
▁whos	-7.76064
form	-7.76095
▁eat	-7.76837
▁someone	-7.77259
▁understand	-7.77259
▁next	-7.77937
▁bring	-7.78203
off	-7.78292
▁kids	-7.78706
▁dad	-7.7886
ction	-7.79387
▁narrator	-7.79989
▁mother	-7.80001
port	-7.80303
▁clear	-7.80706
▁else	-7.80839
▁head	-7.81438
▁fish	-7.82592
▁without	-7.82796
▁job	-7.82947
▁gl	-7.83203
▁hell	-7.83231
▁pretty	-7.83513
▁watch	-7.83527
▁house	-7.8354
▁bear	-7.83641
▁door	-7.83819
ness	-7.84118
▁young	-7.8423
▁heard	-7.84321
▁trying	-7.8474
▁tomorrow	-7.84955
▁whole	-7.8498
▁room	-7.85019
▁ja	-7.85197
▁end	-7.85472
▁men	-7.85585
▁par	-7.85593
▁daisy	-7.85689
▁john	-7.85703
▁bit	-7.85884
▁laughing	-7.85909
▁tonight	-7.86427
▁sha	-7.86461
▁saw	-7.86518
▁eye	-7.86718
▁wouldnt	-7.87144
▁guess	-7.87195
▁year	-7.87578
▁catch	-7.87933
▁dear	-7.88114
▁change	-7.88666
▁everybody	-7.89416
▁matter	-7.89434
▁happen	-7.89586
▁aw	-7.899
▁also	-7.90296
▁happy	-7.9095
▁how	-7.91569
▁pl	-7.91837
▁luck	-7.92183
▁late	-7.93664
▁melinda	-7.94086
▁doctor	-7.94087
▁grandpa	-7.94087
▁learn	-7.94088
▁lead	-7.94093
▁strange	-7.94887
▁ph	-7.95022
▁rest	-7.95088
▁sighs	-7.95693
▁bird	-7.95729
wood	-7.95767
▁dream	-7.96507
▁order	-7.9651
▁mary	-7.96654
▁fast	-7.96711
▁stand	-7.96998
▁read	-7.97085
▁heidi	-7.97329
▁children	-7.9733
▁grow	-7.98618
▁animal	-7.98985
▁easy	-7.98999
▁cause	-7.99915
▁kid	-8.00291
▁went	-8.00537
▁guy	-8.00553
▁brother	-8.00673
▁teach	-8.00675
▁sweet	-8.00682
▁ship	-8.00951
▁free	-8.01358
▁speak	-8.01529
▁true	-8.01531
ward	-8.02208
▁break	-8.02391
▁alone	-8.03286
▁um	-8.03413
▁yet	-8.0403
▁heart	-8.04481
▁actually	-8.05022
▁vo	-8.05088
▁fun	-8.05184
▁wan	-8.05898
▁goodbye	-8.05916
▁worry	-8.06822
▁rat	-8.06823
▁horse	-8.06827
▁everyone	-8.06842
▁walk	-8.06853
▁soon	-8.07154
▁shall	-8.07237
▁happened	-8.07522
▁couldnt	-8.07613
▁wonder	-8.07652
▁second	-8.07724
▁team	-8.07731
ball	-8.08003
▁wow	-8.08488
▁beautiful	-8.08642
▁question	-8.08642
▁human	-8.08782
▁sign	-8.09199
▁suppose	-8.09568
▁aint	-8.09662
▁fight	-8.09919
▁problem	-8.10503
▁knew	-8.10511
▁four	-8.10552
▁light	-8.11209
▁mountain	-8.11446
▁youd	-8.11523
▁ye	-8.12329
▁important	-8.12399
▁week	-8.124
▁havent	-8.12406
▁spell	-8.12457
▁met	-8.12839
▁wish	-8.12883
▁took	-8.13385
▁uncle	-8.15327
▁country	-8.15418
▁ago	-8.1547
▁fell	-8.15506
▁check	-8.16302
▁expect	-8.16306
time	-8.16382
▁z	-8.16388
▁case	-8.17014
▁american	-8.17087
▁state	-8.17221
▁five	-8.17307
▁wasnt	-8.17321
▁person	-8.17346
▁pick	-8.17351
▁later	-8.17963
▁afraid	-8.18311
▁almost	-8.18311
▁bill	-8.18961
▁perfect	-8.19333
▁baby	-8.19361
▁story	-8.19422
▁annabel	-8.20362
▁benny	-8.20364
▁least	-8.20365
▁stuff	-8.2066
▁bible	-8.20715
▁chance	-8.21124
▁follow	-8.21404
▁forget	-8.21414
▁since	-8.21451
▁excuse	-8.22457
▁jack	-8.22465
▁crowd	-8.22469
▁save	-8.23108
▁brought	-8.23522
uff	-8.2353
▁lord	-8.24703
▁sleep	-8.25687
▁jason	-8.25716
▁hurt	-8.25733
▁wonderful	-8.2577
▁air	-8.25804
▁rock	-8.26161
▁daddy	-8.2681
▁begin	-8.26821
igger	-8.27757
▁face	-8.2797
▁full	-8.28186
▁game	-8.28447
▁pass	-8.28946
▁quick	-8.29016
▁anyone	-8.29016
▁making	-8.29057
▁book	-8.29064
▁point	-8.29092
ship	-8.29166
▁land	-8.29375
▁power	-8.30204
▁anyway	-8.31302
▁certain	-8.31302
▁different	-8.31302
▁nobody	-8.31302
▁hurry	-8.31307
▁promise	-8.31309
▁hmm	-8.31987
▁letter	-8.32287
▁already	-8.32465
▁number	-8.32465
▁fire	-8.3329
▁arent	-8.33416
▁special	-8.33642
▁exactly	-8.33643
▁along	-8.33653
▁gold	-8.33802
▁ass	-8.34477
▁count	-8.34718
▁catholic	-8.34832
▁half	-8.34868
▁tree	-8.35173
▁swim	-8.35185
ible	-8.35391
▁trouble	-8.36037
▁office	-8.36039
▁grandfather	-8.37256
▁quite	-8.37256
▁child	-8.37289
▁hang	-8.37342
▁peter	-8.38008
▁law	-8.38399
▁drink	-8.38505
▁build	-8.39741
▁voice	-8.39752
▁honey	-8.39759
▁safe	-8.40109
ign	-8.40225
though	-8.40991
▁amazing	-8.41007
▁brazil	-8.41007
▁reason	-8.41021
▁dusty	-8.41028
▁film	-8.4106
▁sub	-8.41205
▁manuscript	-8.42289
▁probably	-8.42289
▁secret	-8.42289
▁tischendorf	-8.42289
▁evil	-8.42299
▁wheres	-8.4231
▁pull	-8.42332
▁christmas	-8.43587
▁welcome	-8.43587
▁chuckles	-8.43588
▁robert	-8.43588
▁woman	-8.436
▁blow	-8.43661
▁christian	-8.44903
▁continue	-8.44903
▁ooh	-8.45008
▁master	-8.45013
▁glad	-8.46291
▁russ	-8.46334
▁mess	-8.46556
▁whoo	-8.47282
▁andy	-8.47691
▁bye	-8.48081
▁record	-8.48959
▁foot	-8.49024
▁white	-8.49123
▁become	-8.50348
▁inside	-8.50399
▁sister	-8.50442
▁deep	-8.5065
▁gamble	-8.51755
▁truth	-8.51756
▁trust	-8.51757
▁small	-8.51758
▁david	-8.51761
▁funny	-8.51778
▁present	-8.51807
▁dead	-8.52025
▁america	-8.52058
▁should	-8.53184
▁possible	-8.53184
▁return	-8.53185
▁whatever	-8.53185
▁running	-8.53236
▁send	-8.53381
▁sort	-8.53562
▁leg	-8.53653
▁george	-8.54633
▁history	-8.54633
▁dinner	-8.54635
▁wild	-8.54683
▁mama	-8.54761
▁business	-8.56104
▁either	-8.56104
▁complete	-8.56107
▁ocean	-8.56111
▁lady	-8.56183
▁somebody	-8.57596
▁field	-8.57597
▁balto	-8.57607
▁over	-8.57665
▁lose	-8.58254
▁perhaps	-8.59111
▁figure	-8.59111
▁danger	-8.59112
▁monster	-8.59114
▁taking	-8.59162
▁finish	-8.60657
▁feet	-8.60727
▁strong	-8.62213
▁six	-8.62254
▁fall	-8.62506
▁ivy	-8.63802
▁alice	-8.63835
▁tony	-8.64038
▁yo	-8.65117
▁surprise	-8.65412
▁ahead	-8.65414
▁gasps	-8.65429
▁smell	-8.65433
▁super	-8.65478
▁visit	-8.65518
▁cook	-8.65818
▁qua	-8.67052
▁professor	-8.67052
▁somewhere	-8.67052
▁tentrees	-8.67052
▁crazy	-8.67052
▁donald	-8.67052
▁cheering	-8.67057
▁charle	-8.67097
▁cornelius	-8.68718
▁simonides	-8.68718
▁answer	-8.68719
▁control	-8.68719
▁behind	-8.68719
▁shell	-8.68776
▁train	-8.68777
▁molly	-8.68779
▁hours	-8.6887
▁yesterday	-8.70413
▁outside	-8.70413
▁denny	-8.70416
▁trans	-8.70422
▁reach	-8.70504
▁picture	-8.72138
▁system	-8.72138
▁scream	-8.72138
▁greek	-8.72139
▁cubs	-8.72144
▁babar	-8.72156
▁butt	-8.72548
▁quiet	-8.73892
▁bounce	-8.73892
▁major	-8.73897
▁york	-8.73898
▁sense	-8.73914
▁shark	-8.73919
▁trick	-8.73925
▁large	-8.7394
▁trip	-8.73994
▁under	-8.74077
▁ski	-8.75522
▁democrat	-8.75678
▁joshua	-8.75678
▁lunch	-8.75678
▁lodge	-8.75688
▁lauren	-8.75689
▁james	-8.75716
▁throw	-8.75783
▁heres	-8.75843
▁anybody	-8.77496
▁alright	-8.77499
▁million	-8.77505
▁couple	-8.77507
▁anymore	-8.79348
▁aussie	-8.79351
▁wrote	-8.79355
▁food	-8.79401
▁month	-8.7941
▁discover	-8.81234
▁jesuit	-8.81235
▁forgot	-8.81235
▁faith	-8.81237
▁agree	-8.81248
▁allow	-8.81249
▁tried	-8.81343
▁gentlemen	-8.83157
▁destroy	-8.83158
▁breath	-8.83159
▁ground	-8.83165
▁front	-8.83166
▁serious	-8.83183
▁pray	-8.83286
▁short	-8.83489
▁ought	-8.85118
▁president	-8.85118
▁fault	-8.85119
▁spirit	-8.85128
▁north	-8.85141
▁shoot	-8.85157
▁fool	-8.85196
▁magic	-8.85386
▁protestant	-8.87118
▁explain	-8.87118
▁belong	-8.87119
▁champ	-8.87122
▁study	-8.87154
▁parents	-8.8716
▁brave	-8.8718
▁community	-8.89159
▁favor	-8.8916
▁seven	-8.89165
▁window	-8.89172
▁dark	-8.892
▁damn	-8.89219
▁absolutely	-8.91242
▁especially	-8.91242
▁london	-8.91243
▁street	-8.91254
▁touch	-8.9126
▁rather	-8.91287
ridge	-8.91664
▁buzz	-8.9337
▁clifford	-8.9337
▁prefontaine	-8.9337
▁callahan	-8.9337
▁century	-8.9337
▁alfred	-8.93371
▁cough	-8.93371
▁women	-8.93371
▁living	-8.93407
▁phone	-8.93505
▁republican	-8.95544
▁sometimes	-8.95544
▁husband	-8.95544
▁climb	-8.95544
▁ladies	-8.95557
▁decide	-8.9557
▁clean	-8.95594
▁direct	-8.95751
graph	-8.97768
▁smile	-8.97784
▁fix	-8.97802
▁ellen	-8.97812
▁notice	-8.97919
▁write	-8.97965
▁ancient	-9.00039
▁dakota	-9.00039
▁leaving	-9.00039
▁suggest	-9.00039
▁except	-9.00039
▁worried	-9.00039
▁doubt	-9.00039
▁shouting	-9.00039
▁middle	-9.0004
▁across	-9.00041
▁codex	-9.00042
▁command	-9.00043
▁steele	-9.00048
▁indeed	-9.00065
▁opera	-9.00706
▁daughter	-9.02365
▁napoleon	-9.02365
▁taught	-9.02365
▁vatican	-9.02365
▁imagine	-9.02366
▁blue	-9.02368
▁straight	-9.0237
▁caesar	-9.02384
▁track	-9.02388
▁married	-9.0239
struct	-9.02393
▁difficult	-9.04745
▁musketeer	-9.04745
▁enjoy	-9.04746
▁origin	-9.04746
▁among	-9.04746
▁wife	-9.04748
▁college	-9.04749
▁nathan	-9.04764
▁south	-9.04778
▁monty	-9.04787
▁tradition	-9.07185
▁captain	-9.07185
▁europe	-9.07185
▁grumpy	-9.07185
▁monkey	-9.07185
▁arrive	-9.07201
▁piece	-9.07215
▁clothes	-9.09684
▁england	-9.09684
▁orchestra	-9.09684
▁square	-9.09684
▁hundred	-9.09685
▁jenna	-9.09685
▁smart	-9.09693
▁breeze	-9.12249
▁accept	-9.12249
lloween	-9.12249
▁crystal	-9.12249
▁attack	-9.12249
▁giving	-9.12249
▁prison	-9.12254
▁future	-9.12255
▁forgive	-9.12257
▁others	-9.12258
▁obvious	-9.1488
▁charlotte	-9.1488
▁princess	-9.1488
▁scripture	-9.1488
▁hungry	-9.1488
▁ghost	-9.14881
▁piccolo	-9.17583
▁bottom	-9.17583
▁klara	-9.17591
▁definitely	-9.20361
▁english	-9.20361
▁necessar	-9.20361
▁scholar	-9.20361
▁blood	-9.20362
▁civil	-9.20362
▁folks	-9.20362
▁general	-9.20363
▁madam	-9.20368
▁darling	-9.2037
▁drummin	-9.20373
▁anywhere	-9.23218
▁document	-9.23218
▁sinaiticus	-9.23218
▁tummy	-9.23219
q	-10.0988
