<unk>	0
<s>	0
</s>	0
s	-3.55772
▁oh	-4.77896
▁im	-4.789
▁dont	-4.80681
▁well	-4.84899
▁know	-4.85917
▁like	-4.91848
▁get	-4.95349
ing	-5.00866
▁come	-5.01609
▁go	-5.027
▁right	-5.05527
▁one	-5.16328
▁thats	-5.20527
▁got	-5.20985
ed	-5.23515
▁see	-5.28992
▁youre	-5.3303
▁good	-5.38298
▁think	-5.45314
▁time	-5.51115
▁yeah	-5.52293
▁us	-5.52299
▁back	-5.57604
▁want	-5.62146
▁yes	-5.62212
▁going	-5.6682
▁look	-5.67669
▁na	-5.68352
▁hes	-5.70887
▁ill	-5.71393
▁would	-5.72835
▁hey	-5.74059
d	-5.7498
▁take	-5.79218
▁little	-5.79445
▁could	-5.80331
▁say	-5.81826
▁way	-5.819
▁really	-5.87251
▁tell	-5.88586
▁cant	-5.8926
y	-5.89909
▁gon	-5.91287
▁man	-5.96309
ly	-5.98766
▁	-5.9943
▁never	-6.04719
▁make	-6.06096
▁mean	-6.08057
▁need	-6.08877
▁okay	-6.11026
▁something	-6.12116
▁uh	-6.16167
▁whats	-6.17313
▁love	-6.177
▁people	-6.17994
▁didnt	-6.18459
▁ive	-6.20858
▁lets	-6.21085
▁theres	-6.2338
e	-6.2348
▁let	-6.2546
▁two	-6.26249
▁day	-6.26535
▁sure	-6.26751
▁thank	-6.27558
▁find	-6.28112
▁help	-6.28601
▁said	-6.31429
er	-6.33192
▁first	-6.33582
▁much	-6.36341
▁theyre	-6.36902
▁music	-6.38185
▁wait	-6.39088
▁give	-6.39102
▁mr	-6.41419
▁boy	-6.42015
▁must	-6.43568
▁thing	-6.4472
▁please	-6.45696
▁life	-6.47886
▁home	-6.48187
▁even	-6.4961
▁work	-6.50741
▁great	-6.51161
▁still	-6.51408
▁years	-6.53768
▁new	-6.53923
▁ever	-6.56839
▁better	-6.57097
▁big	-6.59889
▁long	-6.60714
▁things	-6.61013
▁thought	-6.6134
▁keep	-6.61729
▁name	-6.6225
▁believe	-6.63154
▁youll	-6.63859
t	-6.64039
▁anything	-6.64597
▁away	-6.64606
▁family	-6.64969
▁place	-6.66039
▁sir	-6.66528
▁guys	-6.66533
▁sorry	-6.66849
a	-6.67689
▁l	-6.68166
▁always	-6.69541
▁around	-6.70324
r	-6.70996
▁stop	-6.71103
▁old	-6.71347
in	-6.71513
▁put	-6.71882
▁kind	-6.71888
▁maybe	-6.73932
▁lot	-6.74871
▁wont	-6.75983
▁father	-6.77031
▁remember	-6.79665
▁world	-6.80975
▁night	-6.81464
▁feel	-6.81968
▁nothing	-6.81983
al	-6.82525
▁id	-6.82942
▁three	-6.84212
▁best	-6.84241
▁youve	-6.84666
▁whoa	-6.84674
▁everything	-6.86039
▁course	-6.86497
o	-6.86505
▁hello	-6.87026
▁shes	-6.88647
▁huh	-6.89789
▁hi	-6.90952
▁talk	-6.91035
▁call	-6.91145
▁coming	-6.91293
▁listen	-6.92008
▁stay	-6.92445
▁care	-6.92862
▁every	-6.93557
▁last	-6.93684
▁might	-6.93885
▁ha	-6.94149
▁nice	-6.94404
▁made	-6.94715
▁ta	-6.94909
▁told	-6.95177
es	-6.96242
▁may	-6.96722
▁hear	-6.9696
▁weve	-6.97211
▁black	-6.98076
▁together	-6.98245
▁another	-6.99815
▁playing	-6.9987
▁try	-7.013
▁enough	-7.01411
▁miss	-7.01479
▁today	-7.01949
en	-7.01988
▁ah	-7.02663
▁many	-7.03831
▁god	-7.03932
▁money	-7.04683
▁done	-7.04685
▁hard	-7.05079
▁looking	-7.05081
▁frank	-7.05241
▁school	-7.05795
▁isnt	-7.05795
▁show	-7.05951
n	-7.07524
▁run	-7.0853
▁ok	-7.08638
▁wrong	-7.09214
▁mind	-7.09228
▁getting	-7.09465
▁fine	-7.09806
▁thanks	-7.10861
▁left	-7.11561
▁seen	-7.12088
▁came	-7.12197
▁play	-7.12603
▁leave	-7.12995
▁dog	-7.13562
▁real	-7.13739
▁morning	-7.13968
▁kids	-7.1513
▁city	-7.15196
▁found	-7.15742
▁live	-7.16491
▁bad	-7.16491
▁hope	-7.19263
▁doesnt	-7.20235
▁ready	-7.20414
▁whole	-7.21542
▁someone	-7.22196
▁water	-7.22221
▁idea	-7.2335
▁understand	-7.23503
▁hold	-7.23529
▁word	-7.24796
▁hoo	-7.25021
▁next	-7.26237
▁else	-7.26929
▁men	-7.26983
▁dad	-7.27693
▁wouldnt	-7.27723
▁laughing	-7.27767
▁sea	-7.27881
▁guess	-7.2832
▁mom	-7.28334
▁start	-7.2881
▁wanted	-7.29006
▁hell	-7.29634
▁house	-7.29747
▁minute	-7.29799
▁days	-7.30392
▁daisy	-7.30448
▁friend	-7.3101
▁tonight	-7.31167
▁trying	-7.31342
h	-7.31652
▁high	-7.31704
▁friends	-7.31789
▁fish	-7.31905
▁lost	-7.31907
▁dear	-7.32641
▁also	-7.33358
▁girl	-7.3352
▁eat	-7.33574
▁bring	-7.33672
▁tomorrow	-7.34098
▁clear	-7.3458
▁narrator	-7.34844
▁heard	-7.35317
c	-7.35409
m	-7.35724
p	-7.35781
▁open	-7.3584
i	-7.36107
▁pretty	-7.36353
▁em	-7.37145
▁sighs	-7.37173
▁th	-7.37266
▁tigger	-7.3741
or	-7.37719
▁happy	-7.37891
▁saw	-7.37895
▁room	-7.37927
▁bit	-7.38603
▁talking	-7.38956
▁mother	-7.38983
▁part	-7.39314
▁ask	-7.39356
▁without	-7.39442
▁church	-7.40126
▁job	-7.40593
▁grandpa	-7.41036
▁end	-7.41751
▁melinda	-7.41823
▁went	-7.4183
est	-7.42355
▁yet	-7.4264
▁turn	-7.42646
▁far	-7.42652
▁matter	-7.43066
▁mrs	-7.43796
▁doctor	-7.44263
▁children	-7.45089
▁worry	-7.45089
▁knew	-7.4509
▁wan	-7.45794
▁ya	-7.46402
b	-7.46604
▁catch	-7.46913
▁young	-7.47419
▁meet	-7.47794
▁heidi	-7.48465
▁everybody	-7.49101
▁everyone	-7.49336
▁called	-7.4941
▁whos	-7.49542
▁happened	-7.49646
▁looks	-7.49722
▁year	-7.50599
▁watch	-7.50712
▁guy	-7.50941
▁bear	-7.50968
▁used	-7.51714
▁mary	-7.52021
▁true	-7.52202
▁aint	-7.52852
▁head	-7.53295
▁hand	-7.53401
▁sit	-7.53508
▁easy	-7.53763
▁actually	-7.53765
st	-7.53814
▁door	-7.54608
▁alone	-7.54664
f	-7.55751
▁youd	-7.56526
▁cause	-7.57105
g	-7.57438
▁wasnt	-7.5744
▁shall	-7.5744
▁problem	-7.57455
▁havent	-7.58383
▁took	-7.58383
▁beautiful	-7.58383
l	-7.58669
▁late	-7.58957
▁wow	-7.59346
▁fun	-7.5936
▁move	-7.60032
▁goodbye	-7.60298
▁chance	-7.60303
▁ago	-7.60339
▁use	-7.61383
▁son	-7.61397
▁afraid	-7.62248
▁uncle	-7.62248
▁team	-7.62261
▁read	-7.62289
▁couldnt	-7.62383
▁set	-7.62573
▁order	-7.62856
▁car	-7.62956
▁wish	-7.63145
▁rest	-7.63226
▁brought	-7.63239
▁country	-7.63249
▁um	-7.63313
▁ship	-7.63561
▁deal	-7.63588
▁sleep	-7.6424
ic	-7.64682
▁says	-7.65154
▁un	-7.65644
▁m	-7.65901
▁later	-7.66405
▁heart	-7.6728
▁important	-7.68063
▁soon	-7.6817
▁four	-7.68329
▁re	-7.68556
▁king	-7.68939
▁already	-7.69394
▁excuse	-7.69394
▁story	-7.69397
▁five	-7.69412
▁crowd	-7.69433
▁hit	-7.69722
▁forget	-7.70461
▁hurry	-7.70465
▁anyway	-7.71533
▁bible	-7.71536
▁close	-7.71555
▁stand	-7.72377
▁win	-7.72474
▁free	-7.726
▁lord	-7.72625
▁case	-7.72676
ve	-7.72788
▁goes	-7.7302
▁almost	-7.73719
▁annabel	-7.73719
▁light	-7.73748
▁gone	-7.73752
▁saying	-7.73814
▁hurt	-7.742
▁wants	-7.74258
▁anyone	-7.7483
▁along	-7.74832
▁since	-7.74833
▁daddy	-7.74835
▁john	-7.74841
▁wonderful	-7.74845
▁brother	-7.75412
▁welcome	-7.75954
▁grandfather	-7.77091
▁trouble	-7.77093
▁change	-7.7738
▁honey	-7.7824
▁stuff	-7.78241
▁benny	-7.78244
▁ooh	-7.78244
▁check	-7.78825
▁dr	-7.79111
ion	-7.79314
▁different	-7.79404
▁jason	-7.79404
▁exactly	-7.79439
▁cat	-7.79821
▁arent	-7.80586
▁quite	-7.8063
▁wonder	-7.81715
▁least	-7.81769
▁break	-7.82286
▁laughs	-7.82833
▁animals	-7.82931
▁baby	-7.82979
▁eyes	-7.83175
▁pick	-7.8365
▁times	-7.83937
▁perfect	-7.83938
▁sweet	-7.84158
▁making	-7.842
▁town	-7.84211
w	-7.84296
▁face	-7.84725
▁special	-7.84749
▁tiggers	-7.84965
▁dusty	-7.85474
▁a	-7.86388
▁woman	-7.86681
▁joy	-7.86714
▁moment	-7.86717
▁mine	-7.86737
▁hmm	-7.86787
▁dream	-7.87674
▁amazing	-7.87944
▁gamble	-7.87944
▁air	-7.87952
▁party	-7.88392
▁asked	-7.88811
▁pre	-7.88875
▁point	-7.88968
▁horse	-7.89001
▁child	-7.89222
▁rome	-7.89229
▁plan	-7.89743
▁luck	-7.89816
▁kill	-7.90175
▁glad	-7.90246
▁tischendorf	-7.90525
▁nobody	-7.90526
▁truth	-7.90526
▁taking	-7.9054
▁probably	-7.91845
▁fight	-7.92514
u	-7.92671
▁evil	-7.93174
▁top	-7.9319
▁walk	-7.93294
▁chuckles	-7.9362
able	-7.93789
▁question	-7.94402
▁sort	-7.94526
▁christmas	-7.94527
▁dinner	-7.94529
▁inside	-7.9453
▁dead	-7.94559
▁side	-7.94577
▁working	-7.94601
▁learn	-7.94667
▁wheres	-7.95838
▁history	-7.95895
▁race	-7.95909
k	-7.96029
▁land	-7.96675
▁cool	-7.97265
▁second	-7.97269
▁means	-7.97301
▁boss	-7.97302
▁bet	-7.97318
ie	-7.97938
▁promise	-7.98378
▁power	-7.9864
▁book	-7.98719
▁fact	-7.98764
▁stranger	-7.98798
re	-7.99138
▁line	-7.994
▁started	-7.99766
▁full	-7.99838
▁de	-7.99873
▁s	-8.00003
▁send	-8.00121
▁somebody	-8.00121
▁bye	-8.00121
▁become	-8.00121
▁running	-8.00123
▁feet	-8.0013
▁peter	-8.00296
▁happen	-8.00444
▁news	-8.00542
ies	-8.00755
▁war	-8.00828
▁red	-8.00951
▁fast	-8.01339
▁small	-8.01383
ous	-8.01522
▁perhaps	-8.0157
▁white	-8.01645
▁hands	-8.01687
▁kid	-8.01731
▁rat	-8.02075
▁either	-8.03041
▁george	-8.03041
▁whatever	-8.03041
▁mama	-8.03043
▁business	-8.03046
▁lady	-8.03065
▁supposed	-8.03268
▁able	-8.03337
▁makes	-8.03433
▁el	-8.03836
▁drink	-8.03843
▁person	-8.04415
▁america	-8.0444
▁field	-8.04558
▁reason	-8.04611
▁gasps	-8.04776
▁g	-8.0524
▁marc	-8.05423
▁thinking	-8.05897
z	-8.05944
▁gave	-8.06056
▁sense	-8.06075
▁finally	-8.06136
▁rock	-8.06287
▁game	-8.0629
▁pull	-8.06335
▁e	-8.06348
▁theyll	-8.07587
▁james	-8.07599
▁robert	-8.07813
it	-8.0794
▁lead	-8.08159
▁seems	-8.08216
ll	-8.08302
▁bed	-8.08379
▁pay	-8.08536
ation	-8.08859
▁half	-8.0913
▁ahead	-8.09155
▁words	-8.09324
▁act	-8.09415
▁c	-8.09439
▁sounds	-8.10281
▁beat	-8.10715
▁balto	-8.10737
▁ivy	-8.10737
▁simonides	-8.10737
▁tony	-8.10739
▁alice	-8.10744
▁early	-8.10838
▁in	-8.10858
▁boys	-8.11247
▁cut	-8.11874
et	-8.12193
▁minutes	-8.12206
▁behind	-8.1235
▁donald	-8.1235
▁possible	-8.1235
▁crazy	-8.1235
▁hound	-8.12356
▁sound	-8.12634
▁wed	-8.12764
▁tree	-8.12798
▁waiting	-8.12866
▁hang	-8.135
▁hours	-8.136
▁near	-8.13735
▁office	-8.13799
▁tentrees	-8.13989
▁alright	-8.1399
▁die	-8.1407
▁song	-8.1408
▁gods	-8.14291
▁letter	-8.14586
▁gold	-8.14627
el	-8.14843
▁ahh	-8.14871
le	-8.14912
on	-8.1525
an	-8.15378
▁deep	-8.15423
▁damn	-8.15656
▁david	-8.15656
▁molly	-8.15674
▁known	-8.16227
▁birds	-8.16483
▁met	-8.17072
ting	-8.17085
▁west	-8.17186
▁christian	-8.17338
▁professor	-8.17356
▁ball	-8.17411
us	-8.17667
▁number	-8.17962
▁human	-8.17963
▁speak	-8.18394
▁safe	-8.18651
▁feeling	-8.18764
▁somewhere	-8.19075
▁al	-8.19236
▁secret	-8.19386
▁follow	-8.19557
▁trip	-8.19604
▁andy	-8.19754
▁week	-8.19771
▁jack	-8.20466
▁control	-8.20812
▁swim	-8.2083
▁joshua	-8.20831
▁lunch	-8.20839
▁poor	-8.20844
▁funny	-8.20849
▁b	-8.21298
▁sister	-8.21563
▁ten	-8.21713
▁t	-8.22251
▁save	-8.22302
▁fire	-8.22319
▁sun	-8.22558
▁brazil	-8.22598
▁star	-8.23119
▁mmm	-8.23339
▁ocean	-8.23374
▁mountains	-8.23386
▁ride	-8.23711
▁lose	-8.24335
▁babar	-8.24433
▁fault	-8.24433
▁system	-8.24433
▁theyve	-8.24433
▁tried	-8.24433
▁greek	-8.24436
▁sam	-8.24447
▁six	-8.24453
▁alive	-8.24461
▁cold	-8.24574
▁ow	-8.24691
ch	-8.25184
▁killed	-8.25188
um	-8.25623
▁d	-8.2581
▁meeting	-8.25883
▁needs	-8.26019
▁quiet	-8.2602
▁drive	-8.26089
▁comes	-8.26142
▁though	-8.26236
▁wild	-8.26237
▁past	-8.26243
▁anybody	-8.26285
▁couple	-8.26285
▁wrote	-8.26285
▁dude	-8.26288
▁simple	-8.26551
▁be	-8.26639
▁bird	-8.26793
▁earth	-8.26822
▁anymore	-8.28172
▁cornelius	-8.28172
▁daughter	-8.28172
▁outside	-8.28174
▁front	-8.2818
▁aah	-8.28199
▁major	-8.282
▁hide	-8.2822
▁sunk	-8.28223
▁hot	-8.28281
▁cubs	-8.2908
▁teach	-8.29199
ton	-8.29639
▁alfred	-8.30095
▁lodge	-8.30095
▁napoleon	-8.30095
▁gentlemen	-8.30095
▁food	-8.30102
▁post	-8.30122
▁parents	-8.30349
▁cheering	-8.30383
▁pete	-8.30502
v	-8.30818
▁expect	-8.3082
▁present	-8.31121
▁american	-8.31131
▁answer	-8.31192
▁mountain	-8.31217
▁film	-8.31373
▁trust	-8.31532
▁wind	-8.3182
man	-8.3201
▁drop	-8.32052
▁york	-8.32055
▁brave	-8.32056
▁aussie	-8.32057
▁wide	-8.32063
ers	-8.32224
▁hat	-8.3287
ar	-8.33044
▁count	-8.33209
▁master	-8.33221
▁pain	-8.33404
ment	-8.33728
▁bill	-8.3373
▁class	-8.33774
is	-8.33778
▁h	-8.34009
▁husband	-8.34055
▁london	-8.34055
▁lauren	-8.34062
▁taught	-8.34066
▁absolutely	-8.34089
ity	-8.34231
▁seem	-8.34261
▁date	-8.34815
▁lives	-8.34998
▁ground	-8.35227
▁voice	-8.35265
▁catholic	-8.35281
ur	-8.3568
te	-8.35689
▁quick	-8.3585
▁step	-8.36009
▁r	-8.36086
▁clifford	-8.36096
▁yesterday	-8.36096
▁women	-8.36097
▁century	-8.36099
▁forever	-8.36103
▁aunt	-8.36104
▁lucky	-8.36544
▁plane	-8.36586
ive	-8.36643
▁w	-8.36737
▁pass	-8.36943
▁pope	-8.37432
▁heres	-8.38115
▁prefontaine	-8.38179
▁round	-8.38179
▁chip	-8.38193
li	-8.3843
▁sometimes	-8.38585
▁spelling	-8.38614
▁hate	-8.38694
▁denny	-8.39581
▁manuscript	-8.39612
▁fly	-8.39731
▁dance	-8.39937
▁straight	-8.40307
▁maam	-8.40307
▁married	-8.40307
▁shot	-8.40307
▁rather	-8.40309
▁steele	-8.40401
▁scared	-8.40563
▁weeks	-8.41607
▁street	-8.41749
▁million	-8.41789
▁wear	-8.41865
ry	-8.41886
▁explain	-8.41915
▁st	-8.41941
▁stick	-8.42192
▁strong	-8.42297
▁shh	-8.42449
▁climb	-8.42481
▁itll	-8.42481
▁jesus	-8.42482
▁especially	-8.42484
▁shouldnt	-8.42486
▁phone	-8.42532
▁bar	-8.42595
▁ho	-8.42614
▁certainly	-8.42629
▁mark	-8.42921
ness	-8.43334
▁train	-8.43442
nt	-8.4374
▁fear	-8.44118
▁girls	-8.4419
▁bounce	-8.44329
▁strange	-8.44537
▁caesar	-8.44703
▁codex	-8.44705
▁till	-8.44729
▁joe	-8.44749
▁forgive	-8.44769
▁warren	-8.44816
▁write	-8.45056
▁join	-8.45733
▁return	-8.45811
▁grow	-8.45935
▁surprise	-8.45988
▁visit	-8.46088
▁o	-8.46338
▁shell	-8.46415
▁smell	-8.46423
▁suppose	-8.46666
▁bee	-8.46808
as	-8.46871
▁faith	-8.46957
▁across	-8.46976
▁living	-8.46976
▁president	-8.46976
▁community	-8.46976
▁papi	-8.46976
▁moving	-8.46979
▁middle	-8.46979
▁none	-8.47021
▁evening	-8.4719
▁less	-8.47202
▁so	-8.4732
▁sign	-8.48803
▁clothes	-8.49302
▁north	-8.49302
▁boris	-8.49302
▁proud	-8.49302
▁wake	-8.49305
▁claire	-8.49437
▁sing	-8.4945
▁christ	-8.4973
▁lie	-8.50382
▁p	-8.50478
ty	-8.50523
▁taken	-8.50556
▁ones	-8.50734
▁law	-8.51237
▁band	-8.51247
▁eye	-8.51292
▁seven	-8.51666
▁ancient	-8.51683
▁callahan	-8.51683
▁others	-8.51683
▁trail	-8.51684
▁wife	-8.51684
▁darling	-8.51686
▁death	-8.51692
▁blue	-8.51706
▁crew	-8.51727
▁begin	-8.51756
▁tail	-8.51849
▁warm	-8.51912
▁reach	-8.52883
▁ba	-8.53063
▁worked	-8.53261
▁throw	-8.53308
▁tim	-8.53319
▁meow	-8.53382
▁goats	-8.53479
▁buy	-8.53746
▁monster	-8.53767
▁crystal	-8.54122
▁grumpy	-8.54122
▁worried	-8.54122
▁latin	-8.54122
▁future	-8.54122
▁fair	-8.54124
▁smile	-8.54124
▁ladies	-8.54125
▁hair	-8.54165
▁lovely	-8.54344
▁ice	-8.54357
▁billy	-8.54461
▁lm	-8.54527
ate	-8.55687
▁loves	-8.55892
▁buzz	-8.55923
▁miles	-8.5606
os	-8.56169
▁window	-8.56216
▁picture	-8.56314
▁happens	-8.5647
▁dark	-8.56599
▁protestant	-8.5661
▁foot	-8.56614
▁forgot	-8.56616
▁england	-8.56622
▁english	-8.56622
▁imagine	-8.56622
▁orchestra	-8.56622
▁nathan	-8.56622
▁princess	-8.56629
▁shut	-8.56632
▁piece	-8.56642
▁eight	-8.56651
▁indeed	-8.56658
▁lifetime	-8.56707
▁lee	-8.56775
▁building	-8.57179
▁goodman	-8.57217
il	-8.57407
▁ohh	-8.57899
▁turned	-8.58306
▁sell	-8.58511
▁large	-8.5906
▁kyle	-8.59186
▁ellen	-8.59186
▁choice	-8.59186
▁china	-8.59197
▁giving	-8.59197
▁walter	-8.59197
▁uhoh	-8.59284
▁busy	-8.59328
▁woody	-8.59332
▁completely	-8.59349
ance	-8.59415
▁leader	-8.59705
▁f	-8.59734
▁given	-8.59948
▁brothers	-8.60458
▁longer	-8.60486
▁study	-8.61124
ey	-8.61608
▁court	-8.61813
▁charlotte	-8.61817
▁definitely	-8.61817
▁sinaiticus	-8.61817
▁steal	-8.61818
▁beginning	-8.61819
▁body	-8.6182
▁monty	-8.61825
▁doubt	-8.61836
▁box	-8.61839
▁born	-8.61839
▁camp	-8.61854
▁steve	-8.61914
▁questions	-8.61986
▁gun	-8.62014
▁mess	-8.6208
ine	-8.62188
▁papa	-8.62194
less	-8.6229
▁saved	-8.62297
▁speaking	-8.62866
▁rid	-8.62983
ta	-8.63049
▁months	-8.63336
▁humans	-8.63519
ce	-8.63695
▁record	-8.63739
▁finish	-8.63989
▁slow	-8.64268
▁named	-8.64278
▁trick	-8.64292
▁dakota	-8.6452
▁klara	-8.6452
▁south	-8.6452
▁leaving	-8.64523
▁college	-8.64524
▁bout	-8.64532
▁charge	-8.64534
▁barking	-8.64649
▁sad	-8.64651
▁experience	-8.64679
▁k	-8.65002
go	-8.65048
digger	-8.65088
▁fan	-8.65119
▁musketeers	-8.65283
ack	-8.65507
▁learned	-8.65605
▁clean	-8.66006
▁chris	-8.66768
▁figure	-8.66971
▁smart	-8.67098
▁careful	-8.67128
▁takes	-8.6713
▁super	-8.67154
▁mad	-8.67251
▁shark	-8.67276
▁anywhere	-8.67298
▁built	-8.67298
▁chief	-8.67298
▁biggest	-8.67298
▁bottom	-8.67299
▁plethora	-8.67302
▁wagon	-8.67303
▁green	-8.67306
▁general	-8.67309
▁milk	-8.6731
▁danger	-8.67323
▁cape	-8.6741
▁pups	-8.67914
up	-8.67981
▁singing	-8.68114
ling	-8.68164
▁si	-8.69431
ia	-8.69465
th	-8.69499
▁shoot	-8.69532
▁enjoy	-8.69569
▁continues	-8.69586
ra	-8.69799
▁states	-8.69897
▁fell	-8.70008
▁pat	-8.7013
▁grand	-8.70153
▁captain	-8.70155
▁fifi	-8.70156
▁ape	-8.70159
▁kept	-8.70159
▁regan	-8.70161
▁upon	-8.70174
▁tv	-8.70194
▁animal	-8.70259
▁shouting	-8.70302
▁grunting	-8.70322
▁decided	-8.70333
▁interesting	-8.70388
▁where	-8.7099
ian	-8.7109
▁protect	-8.71223
▁calling	-8.7127
ent	-8.71539
▁sail	-8.7225
▁looked	-8.72424
▁blow	-8.72441
▁carry	-8.72466
▁martin	-8.72705
▁square	-8.72733
ne	-8.72807
▁seeing	-8.72916
▁over	-8.72951
▁magic	-8.72968
▁ought	-8.72982
▁fool	-8.73084
▁piccolo	-8.73096
▁laney	-8.73096
▁spend	-8.73096
▁terrible	-8.73096
▁caught	-8.73096
▁practice	-8.73097
▁position	-8.73097
▁mason	-8.73098
▁honor	-8.73108
▁ben	-8.73148
▁board	-8.73157
▁bomb	-8.73244
▁folks	-8.73401
▁talked	-8.73413
▁ja	-8.73429
▁teacher	-8.73464
▁sounder	-8.73468
▁monsters	-8.73527
ver	-8.73555
▁horses	-8.7363
▁changed	-8.73937
la	-8.74174
ful	-8.75397
▁build	-8.75465
ant	-8.75521
▁hows	-8.75605
▁telling	-8.75628
ist	-8.75669
came	-8.75785
▁difficult	-8.75816
▁among	-8.76064
▁vatican	-8.76096
▁russ	-8.76107
▁breeze	-8.76126
▁instead	-8.76126
▁jenna	-8.76126
▁ollie	-8.76126
▁wolf	-8.76126
▁theyd	-8.76127
▁larry	-8.76129
▁tummy	-8.7613
▁rich	-8.76133
▁missed	-8.76136
▁laughter	-8.7614
▁quint	-8.76146
▁groaning	-8.76159
▁unless	-8.76182
ish	-8.76189
▁winter	-8.76202
▁belong	-8.76328
▁republican	-8.7636
▁state	-8.76402
▁mo	-8.76563
▁con	-8.76978
ism	-8.7778
▁da	-8.77899
▁offer	-8.78109
▁kiss	-8.78445
▁fall	-8.78644
▁jump	-8.78682
▁knows	-8.78801
▁ch	-8.78821
▁track	-8.78833
cy	-8.78836
▁laugh	-8.78942
▁serious	-8.78995
▁low	-8.79077
▁pro	-8.79092
to	-8.79208
▁except	-8.79209
▁morgan	-8.79251
▁respect	-8.79251
▁royal	-8.79251
▁rosa	-8.79253
▁pinto	-8.79255
▁company	-8.79256
▁hungry	-8.79258
▁uhhuh	-8.7927
▁silly	-8.79274
▁harry	-8.79278
▁sent	-8.79302
▁cost	-8.7931
▁tired	-8.79402
▁smoke	-8.79408
▁guns	-8.7942
▁sh	-8.7975
▁aw	-8.79948
▁per	-8.80234
▁flying	-8.80266
da	-8.80282
▁prove	-8.80575
▁huge	-8.80896
▁using	-8.80902
▁ran	-8.81037
▁fix	-8.81189
at	-8.81262
▁agree	-8.81376
ter	-8.81458
▁spell	-8.81588
▁believed	-8.82118
▁played	-8.82123
▁worth	-8.82187
▁roman	-8.82461
▁elizabeth	-8.82477
▁radio	-8.82477
▁sheriff	-8.82477
▁speech	-8.82477
▁forward	-8.82479
▁mum	-8.82485
▁bob	-8.82487
▁message	-8.82493
▁road	-8.82495
▁talent	-8.82495
▁seconds	-8.82508
▁proof	-8.8251
▁spring	-8.82532
▁americana	-8.8271
▁la	-8.82751
▁hed	-8.82759
▁mission	-8.82779
▁andrews	-8.82813
▁faster	-8.8288
▁wall	-8.82928
▁pal	-8.83027
▁age	-8.83092
▁greatest	-8.83096
▁awful	-8.83111
▁expected	-8.83384
ul	-8.83507
ah	-8.84151
▁needed	-8.84169
▁lived	-8.84185
▁opens	-8.84744
▁form	-8.85052
▁allow	-8.85311
▁command	-8.85474
▁short	-8.85623
▁cook	-8.85663
▁drummin	-8.85758
▁driving	-8.8581
▁flavor	-8.8581
▁somehow	-8.8581
▁level	-8.85811
▁brown	-8.85811
▁mistake	-8.85812
▁bright	-8.85814
▁energy	-8.85815
▁charlene	-8.85816
▁brandon	-8.85821
▁johnson	-8.85825
▁cash	-8.85828
▁marry	-8.85828
▁dangerous	-8.85852
▁grace	-8.85854
▁gasping	-8.85943
▁sick	-8.85963
▁how	-8.86082
▁lay	-8.86162
▁spirit	-8.86342
▁heat	-8.86752
▁died	-8.86806
▁shoes	-8.86852
▁fighting	-8.87538
▁tad	-8.87583
▁knock	-8.8796
▁tru	-8.88254
▁test	-8.88679
▁attack	-8.8868
▁blood	-8.88965
▁hero	-8.89103
▁priest	-8.89254
▁coffee	-8.89259
▁example	-8.89259
▁false	-8.89259
▁project	-8.89259
▁worse	-8.89259
▁mei	-8.89262
▁teeth	-8.89262
▁mickey	-8.89265
▁rover	-8.89266
▁fellow	-8.89269
▁common	-8.89272
▁partner	-8.89289
▁bigger	-8.89293
▁single	-8.89302
▁united	-8.89318
▁taste	-8.89336
▁movement	-8.89347
▁highness	-8.89366
▁chattering	-8.8939
▁yall	-8.89392
▁loud	-8.89425
▁mir	-8.89433
▁copy	-8.89474
▁interested	-8.89485
▁hooting	-8.89636
▁continue	-8.89643
▁quickly	-8.89701
▁hole	-8.8984
▁vote	-8.90206
▁gets	-8.90279
▁co	-8.90529
▁hall	-8.91238
▁mm	-8.92045
rs	-8.92129
ial	-8.92475
▁notice	-8.92503
▁rats	-8.92537
▁tight	-8.92543
▁realize	-8.92544
▁entire	-8.92566
▁tough	-8.9257
▁honest	-8.92578
▁spot	-8.92584
▁starts	-8.92613
▁glass	-8.92725
▁favor	-8.92822
▁clara	-8.9283
▁difference	-8.9283
▁extreme	-8.9283
▁journey	-8.9283
▁language	-8.9283
▁warwick	-8.9283
▁knowledge	-8.9283
▁weird	-8.9283
▁weather	-8.92831
▁cuzco	-8.92831
▁roger	-8.92832
▁pardon	-8.92832
▁giggling	-8.92832
▁view	-8.92845
▁began	-8.92846
▁incredible	-8.92889
▁table	-8.92941
▁lotso	-8.92994
▁pot	-8.93034
▁i	-8.93097
▁petal	-8.93147
▁mile	-8.93341
▁goodness	-8.93601
▁area	-8.93629
▁text	-8.93729
▁hour	-8.93744
do	-8.93745
id	-8.93783
▁yay	-8.9404
▁ted	-8.94066
▁teaching	-8.94113
▁scholars	-8.94271
▁je	-8.94477
▁jesuits	-8.94916
▁dogs	-8.95005
▁meant	-8.95056
▁touch	-8.95219
▁lots	-8.95258
▁keys	-8.95565
▁ii	-8.95607
▁roll	-8.95659
▁pip	-8.95748
▁asking	-8.95996
▁pack	-8.96003
▁report	-8.96018
▁certain	-8.9628
▁madam	-8.96327
lloween	-8.96431
▁excellent	-8.96534
▁gift	-8.96534
▁humphrey	-8.96534
▁neither	-8.96534
▁within	-8.96534
▁repeat	-8.96534
▁east	-8.96535
▁choose	-8.96535
▁police	-8.96536
▁government	-8.96539
▁famous	-8.96539
▁spent	-8.96543
▁percy	-8.96552
▁boat	-8.96556
▁forest	-8.96589
▁nature	-8.96609
▁dumb	-8.96645
▁scary	-8.96663
▁planet	-8.96889
▁hoping	-8.96918
ut	-8.97082
ary	-8.9717
▁main	-8.97216
▁promised	-8.97434
▁truck	-8.97457
▁soul	-8.9751
▁key	-8.97539
▁toy	-8.97574
out	-8.97843
▁friendly	-8.97883
▁flowers	-8.9793
▁monkeys	-8.9803
▁handle	-8.98081
▁goat	-8.98327
x	-8.98368
age	-8.98819
▁glow	-8.99694
▁accept	-8.99807
ge	-9.00197
▁grab	-9.00351
▁breakfast	-9.0038
▁fresh	-9.0038
▁geranium	-9.0038
▁missouri	-9.0038
▁muriel	-9.0038
▁steady	-9.0038
▁wednesday	-9.0038
▁felt	-9.0038
▁storm	-9.0038
▁worst	-9.0038
▁werent	-9.00382
▁grandma	-9.00384
▁share	-9.00384
▁bank	-9.00386
▁space	-9.0039
▁danny	-9.0039
▁personal	-9.00399
▁national	-9.00439
▁gate	-9.00442
▁bower	-9.00451
▁goofy	-9.00484
▁rare	-9.00551
▁roo	-9.00588
▁en	-9.00806
▁holy	-9.00839
▁j	-9.01021
▁ringing	-9.01027
▁dreams	-9.01205
▁rain	-9.0142
▁ghost	-9.01472
▁fella	-9.01649
▁cute	-9.01749
▁pet	-9.02199
les	-9.02306
▁do	-9.02689
▁pray	-9.03175
▁letters	-9.03232
ee	-9.03413
▁ab	-9.03448
▁ships	-9.03599
▁bother	-9.03646
▁dress	-9.03736
▁complete	-9.03805
▁civil	-9.03822
▁lt	-9.03949
▁stupid	-9.04093
▁ad	-9.04098
▁sniff	-9.04186
▁starting	-9.04249
▁europe	-9.04328
▁beyond	-9.0438
▁cricket	-9.0438
▁excited	-9.0438
▁jeanpaul	-9.0438
▁puppies	-9.0438
▁ronnie	-9.0438
▁winslow	-9.0438
▁giggles	-9.0438
▁third	-9.0438
▁reef	-9.0438
▁sky	-9.0438
▁fantastic	-9.04381
▁speed	-9.04386
▁theory	-9.04389
▁pooh	-9.04389
▁generation	-9.04393
▁information	-9.04393
▁betsy	-9.04403
▁everywhere	-9.0441
▁aldo	-9.04413
▁emily	-9.0443
▁jake	-9.04433
▁hotel	-9.04443
▁totally	-9.04522
▁mars	-9.0454
▁coughing	-9.0468
▁screaming	-9.04766
▁tall	-9.04987
▁elephants	-9.05039
▁runt	-9.05296
▁chiru	-9.05525
▁seemed	-9.05638
▁paper	-9.0565
▁suit	-9.05675
▁indian	-9.05709
▁sand	-9.05861
▁ring	-9.06611
▁rings	-9.07241
▁destroy	-9.07294
▁cro	-9.07353
▁crash	-9.07808
▁tuck	-9.08179
▁peace	-9.08215
ring	-9.08221
▁yo	-9.08236
▁nervous	-9.0826
ern	-9.08306
tail	-9.08315
▁coach	-9.08445
▁sub	-9.08465
▁champ	-9.08483
▁claude	-9.08545
▁abigail	-9.08547
▁arthur	-9.08547
▁circus	-9.08547
▁competition	-9.08547
▁deserve	-9.08547
▁education	-9.08547
▁experiment	-9.08547
▁grover	-9.08547
▁kitchen	-9.08547
▁snow	-9.08547
▁voiceover	-9.08547
▁yummies	-9.08547
▁previous	-9.08547
▁buddy	-9.08548
▁whether	-9.08554
▁madrat	-9.08556
▁panting	-9.08556
▁fred	-9.08556
▁racist	-9.08561
▁pool	-9.08565
▁store	-9.08605
ke	-9.08619
▁howd	-9.0865
▁discuss	-9.08753
▁gale	-9.08764
▁lily	-9.08784
▁dare	-9.08937
▁realized	-9.08945
▁crying	-9.09056
oo	-9.09145
▁mi	-9.09184
▁finished	-9.09395
▁bell	-9.09652
▁closed	-9.09828
▁miracle	-9.09873
▁bro	-9.09917
ny	-9.09933
▁heaven	-9.10009
ped	-9.10044
▁whoo	-9.10442
▁democrats	-9.11127
▁tape	-9.11243
▁pa	-9.11813
ma	-9.11876
▁dis	-9.12177
▁final	-9.12429
lo	-9.12434
▁cover	-9.12463
▁escape	-9.1256
▁v	-9.1256
▁chase	-9.12571
▁soft	-9.12645
▁rent	-9.12699
▁problems	-9.12822
▁awesome	-9.12895
▁grandmother	-9.12895
▁indistinct	-9.12895
▁pound	-9.12895
▁unique	-9.12895
▁contest	-9.12895
▁surface	-9.12895
▁smoking	-9.12895
▁teddy	-9.12896
▁service	-9.12896
▁attention	-9.12897
▁writing	-9.12899
▁michelle	-9.129
▁hasnt	-9.129
▁nose	-9.12903
▁sunday	-9.12905
▁loose	-9.12906
▁stuck	-9.12906
▁chicken	-9.12913
▁guilty	-9.12914
▁brian	-9.12914
▁henr	-9.12919
▁nine	-9.12927
▁brazilian	-9.12936
▁scotty	-9.12988
▁camera	-9.12992
▁trumpeting	-9.13001
▁obviously	-9.13038
▁fit	-9.13104
▁list	-9.13108
▁feed	-9.13211
ol	-9.13265
led	-9.13396
▁cop	-9.13399
▁officer	-9.13413
▁besides	-9.13483
▁pata	-9.13528
▁nearly	-9.13589
▁up	-9.13638
▁dan	-9.1367
▁cheer	-9.13853
▁whose	-9.13921
▁bernier	-9.14417
▁machine	-9.14438
ha	-9.14456
▁village	-9.14498
▁park	-9.14551
▁screams	-9.14676
▁lion	-9.14923
▁plays	-9.15673
▁trees	-9.16181
▁appreciate	-9.16297
▁hunt	-9.16324
▁seat	-9.16409
▁suggest	-9.16693
time	-9.16702
▁search	-9.16746
▁push	-9.16868
▁correct	-9.17105
▁survive	-9.17153
▁quit	-9.17174
and	-9.17349
▁maj	-9.17375
▁announce	-9.17413
▁price	-9.17421
▁finn	-9.17425
▁audience	-9.1744
▁edgar	-9.1744
▁floor	-9.1744
▁liquor	-9.1744
▁rottenmeier	-9.1744
▁science	-9.1744
▁upset	-9.17441
▁opportunity	-9.17442
▁chuckling	-9.17442
▁gang	-9.17442
▁ugh	-9.17443
▁reformation	-9.17444
▁favorite	-9.17451
▁bought	-9.17453
▁paul	-9.17456
▁yep	-9.17462
▁mention	-9.17468
▁size	-9.17476
▁statement	-9.17477
▁murmuring	-9.17488
▁holding	-9.17493
▁dirty	-9.17547
▁butter	-9.17549
▁ash	-9.17575
▁moon	-9.17617
ts	-9.1767
▁swing	-9.1775
▁pictures	-9.18009
▁deeply	-9.18155
▁allowed	-9.18191
▁eh	-9.18283
▁perfectly	-9.18421
▁higher	-9.18596
▁worlds	-9.18853
▁manuscripts	-9.18961
▁explore	-9.19093
▁movie	-9.19257
▁democrat	-9.19278
▁tao	-9.19279
▁scripture	-9.19285
▁magnet	-9.19294
▁loved	-9.193
▁rule	-9.1931
▁bones	-9.19322
▁bag	-9.19339
▁ears	-9.19443
▁pe	-9.1983
▁names	-9.20023
▁cor	-9.20041
▁she	-9.20144
▁goin	-9.20472
▁dete	-9.20611
im	-9.20631
by	-9.21222
he	-9.21348
▁games	-9.21443
▁vi	-9.21554
▁consider	-9.21608
▁tea	-9.21655
ally	-9.21721
co	-9.21822
op	-9.21936
ard	-9.22191
▁birth	-9.22198
▁chinese	-9.22202
▁gorgeous	-9.22202
▁happiness	-9.22202
▁lincoln	-9.22202
▁plenty	-9.22202
▁pocahontas	-9.22202
▁stannis	-9.22202
▁strength	-9.22202
▁cherie	-9.22202
▁dawn	-9.22202
▁viren	-9.22202
▁oscar	-9.22202
▁racism	-9.22202
▁russell	-9.22207
▁written	-9.22209
▁kidding	-9.22209
▁flight	-9.22212
▁simply	-9.22225
▁summer	-9.22225
ley	-9.22226
▁willing	-9.22288
▁signal	-9.22432
▁out	-9.22938
▁plans	-9.22977
▁wine	-9.23142
▁signed	-9.23335
▁fingers	-9.23426
▁passed	-9.23481
▁wings	-9.23569
▁remain	-9.23623
▁wood	-9.23624
ho	-9.23831
▁duck	-9.24331
▁jesuit	-9.24332
▁month	-9.24357
▁happening	-9.2452
▁cross	-9.24605
▁hill	-9.24643
ors	-9.24643
▁cap	-9.24814
▁mar	-9.24892
lden	-9.25269
▁mate	-9.25273
▁calls	-9.2568
▁bus	-9.26013
ated	-9.26491
▁support	-9.26579
▁color	-9.26754
▁create	-9.2691
warren	-9.26945
▁bouncin	-9.27148
▁mouth	-9.27184
▁chicago	-9.27202
▁dorothy	-9.27202
▁heck	-9.27202
▁isabella	-9.27202
▁joseph	-9.27202
▁relax	-9.27202
▁sesemann	-9.27202
▁sweetheart	-9.27202
▁thunder	-9.27202
▁empty	-9.27202
▁modern	-9.27202
▁pedro	-9.27202
▁jones	-9.27202
▁obama	-9.27203
▁charlon	-9.27203
▁france	-9.27204
▁marvelous	-9.27205
▁theme	-9.27205
▁shame	-9.27206
▁insist	-9.27206
▁decision	-9.27206
▁approach	-9.27207
▁noise	-9.27207
▁afternoon	-9.27209
▁winning	-9.27211
▁cave	-9.27215
▁lois	-9.27216
▁lulu	-9.2722
▁normal	-9.27236
▁mmhmm	-9.27239
▁sharks	-9.27242
▁duty	-9.27258
▁under	-9.27258
▁wet	-9.27277
▁broken	-9.27279
▁rise	-9.27292
the	-9.27297
▁statue	-9.27319
▁hypnotized	-9.27361
na	-9.27364
▁sitting	-9.27376
▁usually	-9.27434
▁bang	-9.27458
▁arrived	-9.2746
▁closer	-9.27791
▁farm	-9.27806
▁tie	-9.27977
que	-9.28488
be	-9.28572
▁places	-9.28581
un	-9.28715
▁growing	-9.2874
▁jar	-9.28765
▁filming	-9.2899
▁force	-9.29181
▁clue	-9.29494
▁travel	-9.29496
▁hundred	-9.29572
▁panda	-9.29578
▁walking	-9.29823
▁there	-9.30169
▁sisters	-9.30258
ther	-9.30464
▁col	-9.30957
▁rescue	-9.32112
▁challenge	-9.32119
▁decide	-9.32142
though	-9.32212
▁cheese	-9.32465
▁congratulations	-9.32465
▁rabbit	-9.32465
▁university	-9.32465
▁wolves	-9.32465
▁held	-9.32465
▁often	-9.32466
▁telephone	-9.32466
▁edward	-9.32466
▁evidence	-9.32467
▁shape	-9.32467
▁risk	-9.32467
▁yellow	-9.32468
▁washington	-9.3247
▁onto	-9.3247
▁rosy	-9.3247
▁doorbell	-9.32473
▁cream	-9.32473
▁throat	-9.32473
▁angry	-9.32475
▁mister	-9.32479
▁trade	-9.32479
▁tj	-9.32485
▁di	-9.32488
▁involved	-9.3251
▁ken	-9.3251
▁season	-9.32514
▁democratic	-9.32521
▁type	-9.32531
▁immediately	-9.32542
▁christianity	-9.32543
▁bridge	-9.32545
▁station	-9.32546
▁tiny	-9.32592
▁carder	-9.32593
▁comin	-9.32601
▁army	-9.32615
▁stopped	-9.32629
▁double	-9.32647
▁ko	-9.32757
ily	-9.32783
▁gotten	-9.32795
▁growling	-9.32856
▁putting	-9.32876
▁seriously	-9.32906
▁br	-9.32957
▁figured	-9.33095
▁bath	-9.33281
ca	-9.33334
▁gee	-9.33426
▁sayers	-9.33464
▁gosh	-9.33553
▁he	-9.33628
▁students	-9.33665
ri	-9.3375
▁smells	-9.33776
▁fore	-9.33918
▁paws	-9.34135
▁behave	-9.3431
de	-9.3434
▁treat	-9.34395
▁gr	-9.34472
▁works	-9.34614
▁tradition	-9.34638
pa	-9.34707
▁com	-9.34936
▁gra	-9.34969
▁fur	-9.34991
▁legs	-9.35002
▁group	-9.35052
work	-9.35291
▁killing	-9.35325
▁pandas	-9.35444
▁receive	-9.36228
ir	-9.36236
▁reading	-9.36264
▁trap	-9.3652
▁watching	-9.36738
▁owe	-9.36936
land	-9.37417
▁kick	-9.37468
▁wh	-9.37499
▁cry	-9.37639
ad	-9.37642
▁n	-9.37682
▁settle	-9.37699
▁pop	-9.37737
▁successful	-9.37741
▁art	-9.3778
▁usual	-9.37941
▁broke	-9.37955
▁public	-9.37958
oh	-9.37982
▁off	-9.37985
▁hospital	-9.37992
▁proper	-9.37993
▁loyal	-9.37996
▁border	-9.38021
▁carnival	-9.38021
▁cleveland	-9.38021
▁desmond	-9.38021
▁environment	-9.38021
▁europa	-9.38021
▁neck	-9.38021
▁purpose	-9.38021
▁rumbling	-9.38021
▁savage	-9.38021
▁someday	-9.38021
▁staff	-9.38021
▁stinky	-9.38021
▁chirp	-9.38021
▁idiot	-9.38021
▁squadron	-9.38021
▁hollywood	-9.38021
▁queen	-9.38021
▁impossible	-9.38022
▁crime	-9.38022
▁pride	-9.38024
▁monday	-9.38024
▁toward	-9.38025
▁battle	-9.38025
▁slavery	-9.38026
▁gather	-9.38027
▁account	-9.38027
▁trial	-9.38027
▁nope	-9.3803
▁chasing	-9.3803
▁pressure	-9.3803
▁swimming	-9.38036
▁margo	-9.38041
▁distance	-9.38043
▁jimmie	-9.38045
▁authority	-9.3805
▁calm	-9.3805
▁blast	-9.38056
▁jail	-9.38058
▁tour	-9.38097
▁tia	-9.38133
▁healthy	-9.38157
▁rope	-9.38175
▁roof	-9.38184
▁scare	-9.38212
▁locker	-9.38271
▁grade	-9.38423
▁created	-9.38441
▁tom	-9.38489
▁du	-9.38529
▁shake	-9.38694
▁fi	-9.38695
▁tw	-9.38739
▁feels	-9.39301
▁z	-9.39376
▁ma	-9.39548
▁arms	-9.39672
em	-9.39699
▁whe	-9.39719
▁se	-9.40187
▁hanging	-9.40416
▁corner	-9.40422
▁older	-9.40645
▁cu	-9.4065
ip	-9.40766
▁horn	-9.40917
▁river	-9.40931
▁who	-9.40965
▁whistle	-9.40967
▁cub	-9.41156
▁parts	-9.41321
▁wondering	-9.41324
ite	-9.41523
ow	-9.42023
▁pi	-9.42167
ill	-9.42337
▁mis	-9.4235
▁souls	-9.42392
▁breath	-9.42611
▁bi	-9.42794
▁extra	-9.42907
▁remind	-9.43101
▁draw	-9.43102
▁crack	-9.43211
▁ruin	-9.43297
▁note	-9.43302
▁focus	-9.43313
▁paint	-9.43564
▁judge	-9.4359
▁prepare	-9.43624
▁blows	-9.4366
▁spoke	-9.43814
▁jim	-9.43845
▁inspect	-9.43857
▁lies	-9.43874
▁apart	-9.43877
▁flat	-9.43892
▁afford	-9.43903
▁asleep	-9.43903
▁bravo	-9.43903
▁brilliant	-9.43903
▁heavy	-9.43903
▁mexico	-9.43903
▁official	-9.43903
▁opinion	-9.43903
▁possibly	-9.43903
▁scientific	-9.43903
▁sugar	-9.43903
▁universe	-9.43903
▁chloe	-9.43903
▁blind	-9.43903
▁chef	-9.43903
▁gently	-9.43903
▁puppy	-9.43903
▁senor	-9.43904
▁traitor	-9.43904
▁valerie	-9.43904
▁honour	-9.43905
▁club	-9.43906
▁quince	-9.43908
▁joke	-9.4391
▁grew	-9.4391
▁claudette	-9.4391
▁amount	-9.43911
▁thanksgiving	-9.43911
▁fortune	-9.43912
▁turkey	-9.43912
▁football	-9.43913
▁operation	-9.43915
▁divine	-9.43917
▁sp	-9.4392
▁hiding	-9.43931
▁fleet	-9.43935
▁address	-9.43936
▁garden	-9.43944
▁stage	-9.43947
▁blame	-9.43952
▁kate	-9.43955
▁cake	-9.43958
▁mount	-9.43959
▁lola	-9.43962
▁powerful	-9.43972
▁safety	-9.43978
▁quito	-9.44048
▁shit	-9.44064
▁circle	-9.44074
▁necessary	-9.44091
▁cup	-9.44128
▁boom	-9.44185
▁settled	-9.44252
▁lap	-9.44282
▁cast	-9.44357
▁doors	-9.44358
▁add	-9.44382
iest	-9.44398
▁fat	-9.44413
▁chicks	-9.44713
▁woo	-9.4479
▁bust	-9.44802
line	-9.44826
▁fired	-9.45021
▁bears	-9.45042
▁leg	-9.45105
▁brain	-9.45253
ons	-9.45322
▁returned	-9.45359
▁terms	-9.45431
▁creatures	-9.45434
our	-9.46498
▁depend	-9.47196
▁thousand	-9.47225
▁hundreds	-9.47258
▁helping	-9.47659
▁plant	-9.47877
▁indians	-9.48185
▁woods	-9.48397
▁vent	-9.48611
▁sl	-9.4891
▁burn	-9.48945
▁doc	-9.49044
▁rocks	-9.49126
▁liked	-9.49335
▁screech	-9.49341
▁lock	-9.49465
▁snap	-9.49545
▁republicans	-9.49672
▁para	-9.49753
▁engine	-9.49768
off	-9.4992
▁due	-9.49922
▁dig	-9.49951
▁stole	-9.50073
▁defend	-9.50134
▁accident	-9.50141
▁arch	-9.50143
▁advice	-9.50153
▁buddies	-9.50153
▁clemons	-9.50153
▁conversation	-9.50153
▁duncan	-9.50153
▁horrible	-9.50153
▁influence	-9.50153
▁mystery	-9.50153
▁oregon	-9.50153
▁peanut	-9.50153
▁salvatore	-9.50153
▁shackelford	-9.50153
▁snake	-9.50153
▁vineyard	-9.50153
▁violet	-9.50153
▁barbie	-9.50153
▁cardinal	-9.50153
▁omar	-9.50153
▁oooh	-9.50153
▁rosita	-9.50153
▁rush	-9.50153
▁situation	-9.50153
▁testament	-9.50153
▁lonely	-9.50153
▁samba	-9.50153
▁concert	-9.50154
▁cowboy	-9.50154
▁permission	-9.50154
▁chair	-9.50154
▁mash	-9.50155
▁bouncy	-9.50156
▁deliver	-9.50156
▁fleece	-9.50156
▁criticism	-9.50157
▁luther	-9.50157
▁admit	-9.50157
▁medicine	-9.50158
▁rebecca	-9.50163
▁underground	-9.50163
▁mule	-9.50163
▁match	-9.50169
▁lake	-9.50177
▁style	-9.50179
▁plain	-9.50181
▁saucer	-9.50184
▁howling	-9.50186
▁suddenly	-9.50212
▁lope	-9.50214
▁pic	-9.50216
▁sight	-9.50234
▁hatch	-9.50239
▁wise	-9.50239
▁skin	-9.50248
▁calvin	-9.50266
▁tickle	-9.50292
▁path	-9.50328
▁according	-9.50354
▁bam	-9.50355
▁yelling	-9.50406
ence	-9.50418
▁gary	-9.50436
▁clicks	-9.50445
▁sardines	-9.50445
▁claimed	-9.50536
▁artist	-9.50704
▁recorder	-9.50713
▁mid	-9.50735
▁noticed	-9.50739
▁surprised	-9.51084
▁ideas	-9.5127
ress	-9.51481
▁meters	-9.51693
ap	-9.51834
▁conditions	-9.51983
ise	-9.52016
▁couldve	-9.52027
▁wearing	-9.52196
▁blacks	-9.52279
▁moved	-9.52366
▁walked	-9.52806
▁ex	-9.52872
der	-9.52881
ever	-9.52972
▁answers	-9.53088
ro	-9.5317
▁ends	-9.53182
▁document	-9.53263
▁learning	-9.53441
▁goal	-9.53463
▁ear	-9.53573
▁au	-9.53692
▁religion	-9.53822
▁stars	-9.53886
▁guide	-9.53897
▁numbers	-9.54453
▁beg	-9.54644
▁kings	-9.54662
▁papers	-9.54722
▁val	-9.55373
▁hop	-9.55452
ier	-9.55474
alo	-9.55649
▁mud	-9.55848
ice	-9.5608
▁scout	-9.56129
▁adopt	-9.56257
▁desire	-9.56466
▁tire	-9.56516
▁tooth	-9.56573
water	-9.56573
▁showed	-9.56605
▁prison	-9.56605
ancing	-9.56794
▁books	-9.56802
▁celeste	-9.56819
▁bdawg	-9.5682
▁boatwright	-9.5682
▁cathedral	-9.5682
▁centuries	-9.5682
▁clamoring	-9.5682
▁gregory	-9.5682
▁hudson	-9.5682
▁nonsense	-9.5682
▁pleasure	-9.5682
▁remote	-9.5682
▁request	-9.5682
▁sidewalks	-9.5682
▁society	-9.5682
▁structure	-9.5682
▁whimpering	-9.5682
▁miserable	-9.5682
▁zeus	-9.5682
▁squawk	-9.5682
▁trash	-9.5682
▁hadnt	-9.56821
▁piglet	-9.56821
▁weekend	-9.56821
▁trunk	-9.56821
▁genuine	-9.56822
▁version	-9.56822
▁newspaper	-9.56824
▁denise	-9.56825
▁warlock	-9.56828
▁bunch	-9.56828
▁meat	-9.5683
▁period	-9.5683
▁pilot	-9.5683
▁sake	-9.5683
▁romantic	-9.56833
▁pair	-9.56833
▁block	-9.56836
▁twice	-9.56837
▁valley	-9.56838
▁outta	-9.56846
▁grateful	-9.56847
▁cell	-9.56848
▁dancing	-9.56848
▁russian	-9.56858
▁destiny	-9.56869
▁winner	-9.5687
▁wheel	-9.56877
▁thumper	-9.56878
▁row	-9.56881
▁direction	-9.56882
▁thick	-9.56894
▁pure	-9.56911
▁lying	-9.56916
▁center	-9.56924
ward	-9.56971
▁maid	-9.57001
▁carbonated	-9.57016
▁setting	-9.57029
▁pastor	-9.57058
▁magical	-9.57078
▁toothy	-9.57103
▁honking	-9.57131
▁larger	-9.57154
▁press	-9.57213
▁softly	-9.57224
ical	-9.57263
▁x	-9.57276
▁discovered	-9.57311
▁filled	-9.57345
▁helped	-9.5746
▁heh	-9.5762
▁bare	-9.57631
▁destroyed	-9.57723
ition	-9.57728
agne	-9.57848
▁praying	-9.58001
▁males	-9.58013
▁begins	-9.58084
▁meaning	-9.58161
▁warn	-9.58645
oc	-9.58751
cha	-9.58965
▁coughs	-9.59
▁followed	-9.59003
▁gas	-9.59055
▁following	-9.59559
▁catholics	-9.59567
▁le	-9.59596
▁scream	-9.60388
▁german	-9.60611
▁rep	-9.60833
▁er	-9.60859
▁hills	-9.60874
▁adventure	-9.60894
▁lawyer	-9.60895
▁devil	-9.60976
▁elsa	-9.60979
▁rules	-9.61083
▁guard	-9.61085
▁scholar	-9.61091
▁monkey	-9.61096
▁can	-9.61261
▁bone	-9.61289
▁cheers	-9.61313
ure	-9.61327
ay	-9.61345
▁page	-9.6171
▁ghosts	-9.61933
▁fellas	-9.61991
▁ways	-9.62109
▁toys	-9.62148
ned	-9.62185
▁sc	-9.62377
▁historic	-9.62511
▁ac	-9.6296
▁keeping	-9.63113
▁mon	-9.63136
▁et	-9.63215
▁no	-9.63331
▁confirm	-9.63359
▁fail	-9.63366
▁bringing	-9.63387
▁cl	-9.63478
▁particular	-9.63694
score	-9.637
▁private	-9.63703
▁total	-9.63706
▁am	-9.63711
▁waste	-9.63712
▁hm	-9.6373
▁dust	-9.63797
▁original	-9.63805
▁ronald	-9.63839
▁origin	-9.63839
▁paris	-9.63915
▁character	-9.63962
▁regular	-9.63962
▁alexander	-9.63963
▁applause	-9.63963
▁charlie	-9.63963
▁courage	-9.63963
▁distiller	-9.63963
▁elliot	-9.63963
▁expedition	-9.63963
▁french	-9.63963
▁jenny	-9.63963
▁kitty	-9.63963
▁library	-9.63963
▁material	-9.63963
▁memory	-9.63963
▁oclock	-9.63963
▁patient	-9.63963
▁tardone	-9.63963
▁valuable	-9.63963
▁wound	-9.63963
▁zelda	-9.63963
▁loving	-9.63963
▁threw	-9.63963
▁thief	-9.63963
▁politics	-9.63963
▁practical	-9.63963
▁harrison	-9.63963
▁jojo	-9.63964
▁cleo	-9.63965
▁commence	-9.63966
▁virginia	-9.63967
▁psst	-9.63968
▁companion	-9.63968
▁rudi	-9.6397
▁biblical	-9.63974
▁louis	-9.63974
▁security	-9.63974
▁punch	-9.63975
▁wealth	-9.63978
▁constantine	-9.63979
▁birthday	-9.6398
▁aha	-9.63985
▁treasure	-9.63992
▁precious	-9.63994
▁extraordinary	-9.63995
▁responsible	-9.64002
▁button	-9.64023
▁aim	-9.64025
▁african	-9.64036
▁johnny	-9.64038
▁culture	-9.64051
▁cow	-9.64068
▁aaah	-9.64074
▁forgery	-9.64083
▁wave	-9.64095
▁mail	-9.64113
▁blim	-9.64131
▁weak	-9.6414
▁rough	-9.64167
▁sweetie	-9.64175
▁charley	-9.64188
▁beeping	-9.64205
▁deny	-9.64237
▁germany	-9.64254
▁rolfe	-9.64279
▁groans	-9.64301
▁disappointed	-9.64352
▁whoop	-9.64402
▁traditional	-9.64492
▁reserve	-9.64522
▁chased	-9.64525
▁carefully	-9.64712
▁furlings	-9.64738
▁cr	-9.64753
▁gal	-9.6478
▁neat	-9.64799
▁monks	-9.6496
j	-9.65185
▁prisoners	-9.65209
com	-9.65223
▁glowing	-9.65278
▁boots	-9.65335
▁barks	-9.65413
ru	-9.6559
▁blowing	-9.65687
▁spa	-9.65701
▁talkin	-9.65827
▁dry	-9.65872
ked	-9.65884
ps	-9.65997
▁missing	-9.66035
▁indi	-9.66066
ize	-9.6649
▁counting	-9.66534
▁staying	-9.6692
tri	-9.67133
▁log	-9.67234
▁changes	-9.67474
room	-9.67657
▁led	-9.6785
pe	-9.67975
▁forces	-9.6813
▁breaking	-9.68273
▁arrive	-9.68352
▁fo	-9.68353
▁scriptures	-9.68561
▁crane	-9.68625
▁knee	-9.68634
▁sewer	-9.68665
▁feather	-9.68674
▁effort	-9.68705
▁particle	-9.68716
▁guest	-9.68721
▁member	-9.68725
▁nation	-9.68788
▁flower	-9.68946
ue	-9.69089
inkle	-9.69098
ler	-9.69277
▁san	-9.69383
▁pets	-9.69459
▁fame	-9.6948
ber	-9.69954
▁discover	-9.70067
▁va	-9.70139
▁orders	-9.70255
▁spirits	-9.70403
▁fill	-9.70413
▁cooke	-9.70494
▁walls	-9.70597
▁ages	-9.70696
handed	-9.70834
▁opening	-9.70882
▁freak	-9.70901
▁bleat	-9.70961
▁perform	-9.71029
▁enter	-9.71137
▁embrace	-9.71301
▁require	-9.71302
▁natural	-9.71393
▁obvious	-9.71398
▁exact	-9.71406
▁collect	-9.71462
▁process	-9.71483
▁butt	-9.71527
▁sharp	-9.71555
▁sink	-9.7157
▁nothin	-9.71604
▁trump	-9.71621
▁protest	-9.71639
hypnoti	-9.71655
▁bacteria	-9.71655
▁brief	-9.71655
▁brookhaven	-9.71655
▁celebration	-9.71655
▁chocolate	-9.71655
▁compete	-9.71655
▁conflict	-9.71655
▁engaged	-9.71655
▁erasmus	-9.71655
▁goonches	-9.71655
▁including	-9.71655
▁museum	-9.71655
▁pearl	-9.71655
▁pelias	-9.71655
▁pineapple	-9.71655
▁professional	-9.71655
▁progress	-9.71655
▁quinceanera	-9.71655
▁ridiculous	-9.71655
▁sebastian	-9.71655
▁spread	-9.71655
▁stewart	-9.71655
▁subject	-9.71655
▁target	-9.71655
▁therefore	-9.71655
▁thomas	-9.71655
▁tunnel	-9.71655
▁welfare	-9.71655
▁william	-9.71655
▁babies	-9.71655
▁capital	-9.71655
▁enemy	-9.71655
▁exciting	-9.71655
▁twenty	-9.71655
▁giant	-9.71655
▁sneak	-9.71655
▁sword	-9.71655
▁buried	-9.71655
▁mostly	-9.71655
▁gena	-9.71656
▁religious	-9.71656
▁aloe	-9.71657
▁argue	-9.71657
▁bleep	-9.71657
▁strat	-9.71657
▁edge	-9.71658
▁rotten	-9.71658
▁humming	-9.71659
▁itd	-9.7166
▁fought	-9.71661
▁witness	-9.71661
▁mmmhmm	-9.71662
▁attic	-9.71663
▁clever	-9.71663
▁clock	-9.71664
▁becoming	-9.71665
▁basically	-9.71665
never	-9.71667
▁disappear	-9.71667
▁forbidden	-9.71667
▁plus	-9.71668
▁fuck	-9.71672
▁forgotten	-9.71672
▁santa	-9.71674
▁thatll	-9.71674
▁mike	-9.71677
▁brent	-9.7168
▁iron	-9.7168
▁arrest	-9.71683
▁swell	-9.71701
▁india	-9.71708
ions	-9.71713
▁lift	-9.71713
▁goodnight	-9.71714
▁toss	-9.7172
▁sickle	-9.71724
▁dove	-9.71747
▁title	-9.7175
▁sold	-9.71751
well	-9.71753
▁sever	-9.71753
▁european	-9.71758
▁market	-9.71772
▁silky	-9.7178
▁hup	-9.71789
oohoo	-9.71825
▁hiya	-9.71867
▁inter	-9.71871
▁justi	-9.71876
▁kent	-9.71897
▁captured	-9.71934
▁coon	-9.71934
▁invited	-9.71966
▁score	-9.71969
▁grown	-9.71972
▁parties	-9.72026
▁pine	-9.72046
▁shin	-9.72056
▁ar	-9.72165
▁action	-9.7217
▁pleased	-9.72219
▁legal	-9.72231
▁hu	-9.72258
▁locked	-9.72345
▁commander	-9.72412
▁inc	-9.72448
▁breathe	-9.72453
▁slaves	-9.72495
▁direct	-9.72514
▁churches	-9.72713
▁accepted	-9.72791
▁hunting	-9.7286
▁los	-9.72881
▁chabots	-9.73216
▁cooking	-9.73289
▁points	-9.73301
tic	-9.7333
▁shed	-9.736
▁shooting	-9.73603
▁div	-9.73734
ze	-9.7377
▁ass	-9.73774
▁hip	-9.73805
▁lately	-9.73918
▁weapons	-9.73942
▁regard	-9.73943
▁ay	-9.7401
pata	-9.74026
▁claims	-9.74198
ging	-9.74282
▁dennys	-9.7441
▁expecting	-9.74511
▁bo	-9.74672
▁members	-9.74673
▁deed	-9.74728
io	-9.7489
▁hated	-9.75202
dom	-9.75218
▁leading	-9.75234
▁introduce	-9.75279
hip	-9.75284
▁picked	-9.75329
▁turns	-9.75394
▁thousands	-9.75408
▁sa	-9.75479
▁plants	-9.75489
▁fathers	-9.75727
▁interest	-9.75774
fa	-9.76269
▁exist	-9.76397
▁gar	-9.76523
▁u	-9.76664
▁ro	-9.76707
▁pronounce	-9.76714
mm	-9.76716
▁li	-9.76818
▁cops	-9.76904
▁customer	-9.77003
eath	-9.77006
▁dawg	-9.77024
▁lesson	-9.77117
▁heavens	-9.77141
▁chuckle	-9.77157
▁all	-9.77708
▁wa	-9.77868
▁the	-9.77899
▁brains	-9.78162
▁scar	-9.78455
rectly	-9.78893
▁flow	-9.79249
▁reveal	-9.79263
ner	-9.79395
▁heal	-9.79448
▁pretend	-9.79527
▁crow	-9.79584
▁ski	-9.79606
▁raise	-9.7966
way	-9.79662
▁bull	-9.79685
wear	-9.79805
▁serve	-9.79846
▁rip	-9.7988
▁africa	-9.79902
▁confess	-9.79903
▁express	-9.79908
▁somethin	-9.79937
▁object	-9.7996
▁boo	-9.79967
▁constant	-9.79969
▁equal	-9.7998
▁mmmmmmmm	-9.79981
▁regret	-9.79988
▁research	-9.79988
▁silver	-9.79988
▁acastus	-9.79988
▁accus	-9.79988
▁beauty	-9.79988
▁benefit	-9.79988
▁bishop	-9.79988
▁cigarette	-9.79988
▁diablo	-9.79988
▁dubovsky	-9.79988
▁emergency	-9.79988
▁empire	-9.79988
▁expert	-9.79988
▁gallery	-9.79988
▁garcia	-9.79988
▁gertrude	-9.79988
▁inaudible	-9.79988
▁innocent	-9.79988
▁lemonade	-9.79988
▁mcgirk	-9.79988
▁mysterious	-9.79988
▁nigger	-9.79988
▁portuguese	-9.79988
▁rufus	-9.79988
▁stroke	-9.79988
▁terrific	-9.79988
▁ultimate	-9.79988
▁vacation	-9.79988
▁adorable	-9.79988
▁austin	-9.79988
▁booga	-9.79988
▁deck	-9.79988
▁gospel	-9.79988
▁beach	-9.79988
▁credit	-9.79988
▁jerk	-9.79988
▁oui	-9.79988
▁roast	-9.79988
▁scoffs	-9.79988
▁expensive	-9.79989
▁slam	-9.79989
▁costume	-9.79989
▁knife	-9.79989
▁interview	-9.79989
▁committee	-9.7999
▁pluto	-9.7999
▁mommy	-9.7999
▁friday	-9.7999
▁shore	-9.79991
▁sermon	-9.79991
▁turtle	-9.79992
▁nowhere	-9.79992
▁verat	-9.79995
▁cliff	-9.79995
▁adjust	-9.79996
▁drug	-9.79997
▁dying	-9.79997
▁katie	-9.79998
▁remarkable	-9.79998
▁fake	-9.8
▁confident	-9.80001
▁eagle	-9.80001
▁brad	-9.80002
▁fox	-9.80003
▁muk	-9.80004
▁easier	-9.80005
▁minus	-9.80007
▁comfortable	-9.80009
▁performance	-9.80009
▁handsome	-9.8001
▁assure	-9.8001
▁liar	-9.80016
▁rude	-9.80016
▁political	-9.80019
▁dope	-9.8002
▁mental	-9.80024
▁earlier	-9.80025
▁slight	-9.80028
▁zoo	-9.80034
▁kingdom	-9.80038
▁bowerman	-9.80044
▁reward	-9.80048
▁governor	-9.80048
▁weight	-9.80049
▁planned	-9.80051
▁simon	-9.80074
▁vaticanus	-9.80075
▁chain	-9.80079
▁swan	-9.8009
▁ridge	-9.80092
▁stone	-9.80092
▁western	-9.80101
▁awaken	-9.80117
▁amen	-9.80145
▁convinced	-9.80177
▁bow	-9.80179
▁whale	-9.80186
▁provided	-9.80206
▁spare	-9.80225
▁owl	-9.80243
▁shoulder	-9.80294
▁gay	-9.80303
▁raised	-9.80322
▁letha	-9.80366
▁ga	-9.80434
▁charming	-9.80446
▁former	-9.8046
▁published	-9.80463
▁served	-9.80492
tro	-9.80545
▁honestly	-9.80618
▁squeaking	-9.80623
▁based	-9.80684
▁fa	-9.80747
▁bleating	-9.80748
▁shy	-9.80769
iff	-9.80884
▁burning	-9.80936
▁self	-9.81172
▁partal	-9.81241
▁searching	-9.81298
▁root	-9.81369
▁tub	-9.81549
ties	-9.81581
uck	-9.81693
▁laws	-9.81714
tom	-9.81852
▁fully	-9.81913
val	-9.8208
▁crown	-9.82126
▁studying	-9.82283
rat	-9.82396
▁hay	-9.82608
mal	-9.82642
▁bees	-9.82651
lic	-9.82927
▁hearing	-9.82979
▁bored	-9.82995
ign	-9.83163
▁particles	-9.83283
▁har	-9.83502
cious	-9.83508
▁listening	-9.83593
▁ding	-9.83708
▁documents	-9.83841
ious	-9.83865
▁americans	-9.84082
▁depends	-9.84088
▁whi	-9.84193
▁sin	-9.8435
▁whistles	-9.84356
▁opera	-9.84811
▁tor	-9.84983
eth	-9.85076
▁cur	-9.85128
▁mothers	-9.85254
ters	-9.85288
za	-9.85306
▁wins	-9.85323
▁cough	-9.85478
▁andys	-9.85659
▁claim	-9.85674
▁secrets	-9.85703
▁parks	-9.8571
vi	-9.85929
▁tap	-9.85948
▁crab	-9.86048
▁belief	-9.8609
▁shoe	-9.86212
▁feelings	-9.86218
▁paw	-9.8629
side	-9.86425
red	-9.86444
ably	-9.86447
gh	-9.86549
▁worship	-9.86847
▁par	-9.87007
▁areas	-9.87094
▁sta	-9.87145
shaw	-9.87434
▁fate	-9.87852
▁bless	-9.87897
▁uhh	-9.87931
▁bat	-9.88097
ide	-9.8816
tte	-9.88213
▁abe	-9.88225
light	-9.88252
▁bla	-9.883
▁shows	-9.88332
▁squeak	-9.88428
▁eating	-9.88437
▁belongs	-9.88468
▁concern	-9.88515
▁switch	-9.88525
ki	-9.88634
▁tro	-9.88646
▁shop	-9.88661
▁steel	-9.88665
▁should	-9.88723
▁capture	-9.88753
▁victor	-9.88794
▁necessar	-9.88798
down	-9.88799
▁physical	-9.88895
▁base	-9.88939
▁trans	-9.88954
ft	-9.8896
▁heave	-9.88994
▁mmhm	-9.89015
▁recognize	-9.89015
▁contract	-9.89066
▁brand	-9.89069
▁victim	-9.89075
▁buck	-9.89077
▁threat	-9.89079
▁craft	-9.89079
▁absurd	-9.89079
▁admiralty	-9.89079
▁attempt	-9.89079
▁available	-9.89079
▁budderball	-9.89079
▁caballeros	-9.89079
▁cavalry	-9.89079
▁chemical	-9.89079
▁complain	-9.89079
▁easily	-9.89079
▁enemies	-9.89079
▁fraulein	-9.89079
▁genius	-9.89079
▁glurp	-9.89079
▁guitar	-9.89079
▁hylas	-9.89079
▁include	-9.89079
▁institute	-9.89079
▁jealous	-9.89079
▁kirby	-9.89079
▁lachman	-9.89079
▁lightyear	-9.89079
▁marriage	-9.89079
▁meadow	-9.89079
▁memories	-9.89079
▁montana	-9.89079
▁muffled	-9.89079
▁nonenglish	-9.89079
▁norwood	-9.89079
▁praise	-9.89079
▁schmauss	-9.89079
▁stingray	-9.89079
▁studied	-9.89079
▁supply	-9.89079
▁syracuse	-9.89079
▁tanino	-9.89079
▁vault	-9.89079
▁wharf	-9.89079
▁cities	-9.89079
▁privilege	-9.89079
▁reverend	-9.89079
▁closing	-9.89079
▁compare	-9.89079
▁chew	-9.89079
▁communities	-9.89079
▁eternal	-9.89079
▁telegraph	-9.8908
▁alba	-9.8908
▁scene	-9.8908
▁hooray	-9.8908
▁snor	-9.8908
▁lhc	-9.8908
▁molecul	-9.8908
▁admitted	-9.8908
▁flame	-9.8908
▁oops	-9.8908
▁natty	-9.89081
▁exclaim	-9.89082
▁assistant	-9.89083
▁local	-9.89084
▁population	-9.89085
▁yuck	-9.89085
▁launch	-9.89086
▁darn	-9.89088
▁aware	-9.89089
▁carbonation	-9.8909
▁appearance	-9.89095
▁boring	-9.89097
▁congress	-9.89097
▁dozen	-9.891
▁however	-9.89101
▁curry	-9.89107
▁grandmama	-9.89107
▁ike	-9.89112
▁location	-9.89119
▁charle	-9.8912
▁technology	-9.89121
▁aside	-9.89121
▁panic	-9.89122
▁foolish	-9.89131
▁howard	-9.89139
▁forth	-9.89139
▁chosen	-9.89142
▁friendship	-9.89162
▁media	-9.89164
▁award	-9.89165
▁suggestion	-9.89167
▁standard	-9.89168
▁confession	-9.89172
▁rose	-9.8918
▁inform	-9.89187
▁jespah	-9.89193
▁uhuh	-9.89198
▁bait	-9.89203
▁champion	-9.89222
▁tune	-9.89223
▁nest	-9.89244
▁chap	-9.89253
▁frightened	-9.89266
▁drum	-9.89293
▁curly	-9.89332
▁understanding	-9.89383
hales	-9.89396
▁declared	-9.89399
▁discovery	-9.89425
▁taxi	-9.89439
▁union	-9.8948
▁dive	-9.8955
▁harm	-9.89623
▁grass	-9.8978
▁files	-9.89825
▁prepared	-9.89861
▁tricks	-9.89874
▁stronger	-9.89879
▁ir	-9.89929
▁treated	-9.90039
▁fra	-9.90056
▁agreed	-9.90061
▁screeching	-9.90117
ius	-9.90239
▁heads	-9.90279
▁prayer	-9.90298
▁dressed	-9.90429
▁nail	-9.90518
▁spellers	-9.90742
▁sw	-9.90748
▁rolling	-9.90861
ten	-9.90958
▁bands	-9.91004
▁coast	-9.91138
▁vo	-9.91227
▁measure	-9.91372
▁joined	-9.91431
▁shells	-9.91574
ile	-9.91962
rough	-9.92014
▁den	-9.92029
▁sola	-9.92109
▁millions	-9.92149
▁hum	-9.92174
▁clearly	-9.92489
▁glori	-9.92549
▁gl	-9.92698
▁efforts	-9.92707
▁te	-9.92708
▁pages	-9.92981
▁guards	-9.93003
▁voices	-9.93012
▁masters	-9.93265
▁wondered	-9.93585
▁drinking	-9.93606
back	-9.94138
▁dir	-9.94463
▁oceans	-9.9476
▁remove	-9.94951
▁to	-9.95082
▁movies	-9.95088
ble	-9.95184
one	-9.9524
▁arm	-9.95337
▁standing	-9.95343
▁operate	-9.95442
▁talks	-9.95589
▁y	-9.95743
▁dollar	-9.95954
▁condition	-9.95956
▁degree	-9.96047
▁meal	-9.96049
▁trace	-9.96099
▁cloud	-9.96102
▁olympic	-9.96107
▁yard	-9.96113
▁odd	-9.96119
▁tent	-9.96122
▁weapon	-9.96148
▁cage	-9.96179
▁musketeer	-9.96219
▁creak	-9.96245
▁opened	-9.9627
▁hug	-9.96633
▁brings	-9.9681
me	-9.97308
▁fe	-9.97425
▁lo	-9.97714
gu	-9.97748
▁wash	-9.97753
▁publish	-9.97978
▁cab	-9.98154
▁rand	-9.98318
▁herr	-9.98342
▁seek	-9.98364
▁moves	-9.98377
▁develop	-9.98466
▁accomplish	-9.9849
▁disappoint	-9.98499
▁desert	-9.9852
▁mix	-9.98549
▁issue	-9.98554
▁mush	-9.98569
▁bay	-9.98598
▁disturb	-9.98623
▁rolf	-9.98631
▁gain	-9.98653
▁separate	-9.98728
▁hypnotize	-9.98752
screen	-9.98809
john	-9.98824
▁product	-9.98959
▁electric	-9.98959
▁potato	-9.9896
▁tax	-9.98974
▁alcohol	-9.99027
▁aircraft	-9.99079
▁apple	-9.99079
▁auburn	-9.99079
▁catherine	-9.99079
▁chihuahua	-9.99079
▁colchis	-9.99079
▁comrade	-9.99079
▁contact	-9.99079
▁cortez	-9.99079
▁downstairs	-9.99079
▁francisco	-9.99079
▁gammoudi	-9.99079
▁gauchito	-9.99079
▁geko	-9.99079
▁heavily	-9.99079
▁hercules	-9.99079
▁hydro	-9.99079
▁increase	-9.99079
▁inquisition	-9.99079
▁intelligence	-9.99079
▁intelligent	-9.99079
▁japanese	-9.99079
▁kevin	-9.99079
▁lawrence	-9.99079
▁liquid	-9.99079
▁maggie	-9.99079
▁michael	-9.99079
▁munroe	-9.99079
▁otherwise	-9.99079
▁oxygen	-9.99079
▁produce	-9.99079
▁program	-9.99079
▁relationship	-9.99079
▁saturday	-9.99079
▁shrimp	-9.99079
▁someplace	-9.99079
▁stunned	-9.99079
▁sunnyside	-9.99079
▁temperature	-9.99079
▁trigger	-9.99079
▁unhappy	-9.99079
▁upstairs	-9.99079
▁wreck	-9.99079
▁central	-9.99079
▁slurp	-9.99079
▁annoy	-9.99079
▁donation	-9.99079
▁method	-9.99079
▁wheedle	-9.99079
▁territory	-9.99079
▁tower	-9.99079
▁sample	-9.9908
▁island	-9.9908
▁autograph	-9.9908
▁hort	-9.9908
▁delicious	-9.9908
▁kibble	-9.9908
▁melt	-9.99081
▁bottle	-9.99081
▁kiki	-9.99082
▁fascinating	-9.99082
▁herd	-9.99083
▁fluid	-9.99083
▁resist	-9.99084
▁accent	-9.99086
▁hung	-9.99086
▁commission	-9.99086
lham	-9.99087
▁reformers	-9.99087
▁wiggle	-9.99091
▁spiritual	-9.99091
▁signature	-9.99095
▁neil	-9.99095
▁candy	-9.99096
▁saving	-9.99097
▁popular	-9.991
▁task	-9.991
▁translation	-9.99101
▁trapped	-9.99102
▁justice	-9.99104
▁sentence	-9.99105
▁basic	-9.99111
▁aboard	-9.99111
▁max	-9.99112
▁coward	-9.99116
▁delight	-9.99118
▁property	-9.99119
▁understood	-9.99122
▁freedom	-9.99138
▁brit	-9.99141
▁habit	-9.99144
▁ray	-9.99144
▁detector	-9.99145
▁smith	-9.9915
▁wire	-9.99154
▁girlfriend	-9.99158
▁cern	-9.99163
▁bound	-9.99179
▁ability	-9.99183
▁goof	-9.99185
▁mass	-9.99194
▁pit	-9.99218
pher	-9.99219
▁data	-9.99229
▁dave	-9.99236
▁paid	-9.9924
▁dollart	-9.9926
▁fourth	-9.99263
▁whining	-9.99268
▁surrounded	-9.99286
▁passion	-9.99297
▁grain	-9.99319
ping	-9.99344
▁whispering	-9.99346
▁sacrifice	-9.99347
▁murdered	-9.99348
▁refused	-9.99352
▁replaced	-9.9938
▁fallen	-9.99391
▁hopeless	-9.99393
▁doin	-9.99409
▁thrown	-9.99455
▁goya	-9.99487
▁youth	-9.9949
▁rejected	-9.99523
▁growl	-9.99533
▁fastest	-9.99537
▁deserted	-9.99641
▁mixed	-9.99641
▁shorter	-9.99655
▁dramatic	-9.99722
▁latest	-9.99749
▁existed	-9.99778
ists	-9.99791
ational	-9.99817
▁metal	-9.99818
▁entirely	-9.99848
▁escaped	-9.9988
▁citizens	-9.9988
▁mustnt	-9.99883
▁peaceful	-9.99904
▁shine	-9.99926
anger	-9.99982
sion	-10.0004
▁sled	-10.0007
▁snapp	-10.0014
▁strip	-10.0017
▁whispers	-10.0021
▁colored	-10.0024
▁breathing	-10.0031
ac	-10.0039
▁driver	-10.0041
▁hoot	-10.0046
▁stu	-10.0048
▁kel	-10.0052
▁thin	-10.0058
▁shown	-10.0072
▁event	-10.008
▁destroying	-10.0084
▁cate	-10.0093
▁sooner	-10.0095
▁wing	-10.01
uel	-10.0101
▁van	-10.0136
▁ser	-10.0136
▁image	-10.0147
▁manners	-10.0149
▁reached	-10.0151
thing	-10.0154
▁carrying	-10.0159
ng	-10.016
▁pol	-10.0172
▁fed	-10.0173
▁apologize	-10.0177
▁nuts	-10.0179
▁quarters	-10.0182
▁everybodys	-10.0186
▁ni	-10.0193
▁mat	-10.0194
▁buzzing	-10.0203
▁trusted	-10.021
▁odds	-10.0213
▁dollars	-10.0214
▁ignore	-10.0243
▁training	-10.0243
▁knowing	-10.0253
▁sins	-10.0255
▁moo	-10.0275
▁hera	-10.0275
▁killer	-10.0277
▁dawgs	-10.0279
wa	-10.0291
▁caused	-10.0292
▁earl	-10.0311
▁guests	-10.0312
▁gala	-10.0321
▁cats	-10.0349
con	-10.0364
▁badly	-10.0365
▁march	-10.037
old	-10.0403
▁wo	-10.041
▁notes	-10.0438
▁bl	-10.0474
▁career	-10.0481
▁asks	-10.0534
▁rag	-10.0544
▁stands	-10.0566
ction	-10.0583
▁villages	-10.0611
▁wi	-10.0631
▁finding	-10.0631
▁cares	-10.0632
▁theo	-10.064
▁bells	-10.0648
▁appear	-10.0648
▁strike	-10.0712
▁holiday	-10.072
▁ticket	-10.0721
▁amigo	-10.0721
▁creature	-10.0729
▁finger	-10.0731
▁quarter	-10.0737
▁textu	-10.0744
▁trucks	-10.0746
▁term	-10.0749
▁heading	-10.0753
▁symbol	-10.0801
ball	-10.0835
▁grumbl	-10.0851
▁ang	-10.0857
tu	-10.0865
▁skip	-10.0868
▁tear	-10.087
def	-10.0873
▁nut	-10.0884
oof	-10.0901
ven	-10.091
▁por	-10.0915
▁clair	-10.0952
▁grunt	-10.0952
va	-10.0953
ect	-10.0955
▁intend	-10.096
▁suffer	-10.0961
▁crush	-10.0976
men	-10.0978
▁grant	-10.098
ache	-10.0983
▁propose	-10.0984
▁guarantee	-10.0985
▁arrange	-10.0985
▁carbonate	-10.0987
▁replace	-10.0989
like	-10.099
▁creep	-10.0991
▁access	-10.0992
master	-10.0993
▁health	-10.0993
head	-10.0996
▁moms	-10.0997
▁attract	-10.1011
▁clarinet	-10.1012
▁connect	-10.1014
▁dang	-10.1014
▁villa	-10.1016
▁gettin	-10.1017
▁mick	-10.1017
▁social	-10.1017
▁legend	-10.1017
▁acknowledge	-10.1019
▁affair	-10.1019
▁airport	-10.1019
▁attend	-10.1019
▁avoid	-10.1019
▁bannister	-10.1019
▁bargain	-10.1019
▁burrito	-10.1019
▁california	-10.1019
▁complex	-10.1019
▁daphne	-10.1019
▁disagree	-10.1019
▁fierce	-10.1019
▁hecate	-10.1019
▁hidden	-10.1019
▁illegal	-10.1019
▁jupiter	-10.1019
▁kallinikos	-10.1019
▁langham	-10.1019
▁magrue	-10.1019
▁matthew	-10.1019
▁monastery	-10.1019
▁moonshine	-10.1019
▁positive	-10.1019
▁ratcliffe	-10.1019
▁reboux	-10.1019
▁restaurant	-10.1019
▁salvation	-10.1019
▁sandwich	-10.1019
▁silence	-10.1019
▁sneeze	-10.1019
▁source	-10.1019
▁squeeze	-10.1019
▁sunshine	-10.1019
▁surgeon	-10.1019
▁vehicle	-10.1019
▁vulgate	-10.1019
▁whimpers	-10.1019
▁apply	-10.1019
▁contain	-10.1019
▁distant	-10.1019
▁hmph	-10.1019
▁ouch	-10.1019
▁reliable	-10.1019
▁throne	-10.1019
▁byebye	-10.1019
▁conrad	-10.1019
▁recess	-10.1019
▁succeed	-10.1019
▁blew	-10.1019
▁mercy	-10.1019
▁possess	-10.1019
▁goddess	-10.1019
▁arrangements	-10.1019
▁bump	-10.1019
▁demand	-10.1019
▁hank	-10.1019
▁leadership	-10.1019
▁web	-10.1019
▁yoyo	-10.1019
▁brush	-10.1019
▁sammy	-10.1019
▁amazon	-10.1019
▁cattle	-10.1019
▁spectacular	-10.1019
▁glory	-10.1019
▁dump	-10.1019
▁steer	-10.1019
▁sweep	-10.1019
▁bloom	-10.1019
▁carlos	-10.1019
▁orphanage	-10.1019
▁literally	-10.1019
▁stray	-10.102
▁historian	-10.102
▁appalled	-10.102
▁rye	-10.102
▁failure	-10.102
▁detective	-10.102
▁loopdelooper	-10.102
▁current	-10.102
▁department	-10.102
▁exploration	-10.102
▁centre	-10.102
▁scratch	-10.1021
▁lips	-10.1021
▁acquired	-10.1021
▁yup	-10.1021
▁stock	-10.1022
▁sex	-10.1022
▁massive	-10.1022
▁palden	-10.1022
▁divide	-10.1022
▁disaster	-10.1022
▁whoopdedooper	-10.1022
▁sundown	-10.1023
▁model	-10.1023
▁series	-10.1023
▁stress	-10.1023
▁reaction	-10.1024
▁laid	-10.1024
▁spunky	-10.1024
▁ugly	-10.1024
▁marshal	-10.1024
▁examine	-10.1025
▁josh	-10.1025
▁bowl	-10.1026
▁passage	-10.1026
▁hopefully	-10.1027
▁stream	-10.1027
▁peters	-10.1028
▁catholicism	-10.1028
▁flip	-10.1029
▁whatd	-10.1029
▁darkness	-10.103
▁laurat	-10.103
gen	-10.103
▁wander	-10.1031
▁bouncing	-10.1033
▁twist	-10.1036
▁protection	-10.1036
▁sock	-10.1038
▁bond	-10.1041
▁sucker	-10.1041
ung	-10.1041
▁powers	-10.1046
bage	-10.1046
▁creepy	-10.1048
▁abandoned	-10.1049
▁impressed	-10.1049
▁arranged	-10.1053
▁glasses	-10.1053
▁hut	-10.1054
▁castle	-10.1054
sis	-10.1055
▁mood	-10.1056
ible	-10.1058
▁billion	-10.1059
▁and	-10.1061
▁privately	-10.1061
▁bot	-10.1069
▁bully	-10.1069
▁oughta	-10.1072
▁granted	-10.1076
▁angle	-10.1077
ison	-10.1077
▁believers	-10.108
▁whoooa	-10.1084
▁beth	-10.1092
▁non	-10.1092
▁now	-10.1092
ept	-10.1093
▁card	-10.11
vis	-10.1101
▁spit	-10.1108
ub	-10.1111
▁pretending	-10.1115
▁healing	-10.1115
▁adopted	-10.1116
▁losing	-10.1123
▁lower	-10.1125
remi	-10.1132
you	-10.1139
day	-10.1139
▁wipe	-10.1151
▁til	-10.1165
▁rented	-10.1169
▁covered	-10.117
▁sean	-10.1174
▁stayed	-10.1177
▁scientists	-10.1181
▁twa	-10.1188
▁amor	-10.1195
▁packed	-10.1195
▁suggesting	-10.1199
no	-10.1218
itch	-10.1221
inner	-10.1245
▁eggs	-10.1253
▁runners	-10.1255
▁historical	-10.1259
usion	-10.1278
▁mac	-10.1284
▁kissing	-10.1284
▁sal	-10.1286
▁ln	-10.129
▁doctrines	-10.1291
▁qua	-10.1298
king	-10.1315
lu	-10.1317
mber	-10.1318
▁amigos	-10.1326
▁bite	-10.1345
▁selling	-10.1345
▁clouds	-10.1363
▁olympics	-10.1363
▁yards	-10.1363
▁pr	-10.1368
ming	-10.1385
▁joining	-10.1389
▁marks	-10.1392
▁cha	-10.1396
ja	-10.1404
▁faces	-10.1404
weak	-10.1405
tion	-10.1417
▁harder	-10.1418
min	-10.1435
▁lessons	-10.1441
▁sim	-10.1442
ified	-10.1451
▁communicate	-10.1473
▁feathers	-10.1474
▁musical	-10.1505
▁hook	-10.1517
▁slo	-10.1521
▁nap	-10.1555
reign	-10.157
▁presents	-10.1593
▁rivers	-10.1623
▁pin	-10.1653
▁groups	-10.1661
fully	-10.1662
▁traditions	-10.1663
▁ju	-10.1669
▁pie	-10.1683
▁dreaming	-10.1689
▁hearts	-10.1689
▁clues	-10.1698
▁ordered	-10.1701
▁hurts	-10.1707
don	-10.1708
▁mighty	-10.1731
▁remains	-10.174
▁poll	-10.1747
▁leaves	-10.1751
▁headed	-10.1775
▁barn	-10.1791
▁watched	-10.1798
▁tr	-10.1811
▁machines	-10.1813
▁seats	-10.1827
mat	-10.1861
▁ended	-10.1868
ans	-10.1869
▁limit	-10.1907
▁turk	-10.1954
▁toot	-10.1956
▁error	-10.1959
▁doctrine	-10.1972
▁pig	-10.1973
▁student	-10.1979
▁pup	-10.1993
▁manner	-10.2012
ram	-10.2063
▁roberts	-10.2077
irring	-10.2077
▁turning	-10.2086
▁sons	-10.2119
ink	-10.212
▁placed	-10.2123
▁plum	-10.2125
istic	-10.2126
▁mutt	-10.2129
▁meter	-10.2135
ica	-10.2168
looking	-10.2176
▁charm	-10.2206
▁poison	-10.221
▁reject	-10.2213
▁shout	-10.2213
▁wast	-10.2216
▁bombs	-10.2221
▁provide	-10.2236
board	-10.2239
▁refuse	-10.2239
▁declare	-10.224
▁scott	-10.2241
flow	-10.2243
beat	-10.2248
▁doll	-10.2248
▁incredibl	-10.2249
▁awake	-10.2249
▁fort	-10.2249
itles	-10.2251
▁physic	-10.2257
▁invite	-10.2258
▁dirt	-10.2259
▁chose	-10.2261
▁tibet	-10.2261
▁interrupt	-10.2264
▁gentle	-10.2266
▁entertain	-10.2266
▁effect	-10.2267
▁success	-10.2267
▁that	-10.2267
▁intention	-10.2268
▁rio	-10.2268
▁becomes	-10.2268
▁higg	-10.2269
▁aliooper	-10.2269
▁ankle	-10.2269
▁apparently	-10.2269
▁april	-10.2269
▁atlanta	-10.2269
▁attitude	-10.2269
▁behavior	-10.2269
▁bonnie	-10.2269
▁boyfriend	-10.2269
▁bullseye	-10.2269
▁cabotinage	-10.2269
▁carroll	-10.2269
▁cetera	-10.2269
▁collision	-10.2269
▁conservation	-10.2269
▁conservative	-10.2269
▁crabtree	-10.2269
▁deceive	-10.2269
▁definition	-10.2269
▁deputy	-10.2269
▁divorce	-10.2269
▁eddie	-10.2269
▁eeyore	-10.2269
▁encounter	-10.2269
▁furnace	-10.2269
▁hammond	-10.2269
▁horizon	-10.2269
▁insane	-10.2269
▁institution	-10.2269
▁jeanmarc	-10.2269
▁jellybelly	-10.2269
▁jenkins	-10.2269
▁medea	-10.2269
▁mexican	-10.2269
▁mozart	-10.2269
▁munich	-10.2269
▁mystic	-10.2269
▁ordinary	-10.2269
▁oxford	-10.2269
▁percent	-10.2269
▁pocket	-10.2269
▁register	-10.2269
▁repair	-10.2269
▁schedule	-10.2269
▁scroll	-10.2269
▁senator	-10.2269
▁skate	-10.2269
▁smash	-10.2269
▁socalled	-10.2269
▁sphinx	-10.2269
▁spook	-10.2269
▁stomach	-10.2269
▁surgery	-10.2269
▁terribly	-10.2269
▁treason	-10.2269
▁tregelles	-10.2269
▁tremendous	-10.2269
▁twixel	-10.2269
▁voyage	-10.2269
▁bread	-10.2269
▁delicate	-10.2269
▁doomed	-10.2269
▁dudley	-10.2269
▁fetch	-10.2269
▁flag	-10.2269
▁instant	-10.2269
▁picnic	-10.2269
▁sarge	-10.2269
▁tobin	-10.2269
▁await	-10.2269
▁oath	-10.2269
▁strain	-10.2269
▁zach	-10.2269
▁brag	-10.2269
▁footsteps	-10.2269
▁seaweed	-10.2269
▁shade	-10.2269
▁merry	-10.2269
▁mumbles	-10.2269
▁countries	-10.2269
▁puzzle	-10.2269
▁essential	-10.2269
▁starving	-10.2269
voya	-10.2269
▁freddie	-10.2269
▁perkins	-10.2269
▁superhero	-10.2269
▁opposite	-10.2269
▁nephew	-10.2269
▁caution	-10.2269
▁noble	-10.2269
▁nurse	-10.2269
▁willard	-10.2269
▁higgins	-10.2269
▁racing	-10.2269
▁plague	-10.2269
▁academic	-10.227
▁planning	-10.227
▁punish	-10.227
▁medal	-10.227
▁specifically	-10.227
▁doggone	-10.227
▁moral	-10.227
▁straw	-10.227
▁blair	-10.227
▁height	-10.2271
▁dummy	-10.2271
▁transport	-10.2271
▁guts	-10.2271
▁june	-10.2271
▁touchdown	-10.2271
▁begun	-10.2271
▁flash	-10.2271
▁magnificent	-10.2271
▁monsieur	-10.2271
▁esp	-10.2271
▁split	-10.2271
▁tbone	-10.2271
▁responsibility	-10.2271
▁buff	-10.2271
▁option	-10.2271
▁shift	-10.2271
▁fold	-10.2271
▁flew	-10.2272
▁oven	-10.2272
▁gentleman	-10.2272
▁expose	-10.2272
▁foul	-10.2272
▁species	-10.2272
▁chamber	-10.2272
▁economic	-10.2272
▁dickie	-10.2272
▁cock	-10.2272
▁abortion	-10.2272
▁vari	-10.2273
▁satan	-10.2273
▁voting	-10.2273
▁alien	-10.2273
▁moore	-10.2273
▁alike	-10.2274
▁chill	-10.2274
▁presence	-10.2275
▁pink	-10.2275
▁archers	-10.2275
▁swam	-10.2276
▁labor	-10.2276
▁pour	-10.2276
▁nasty	-10.2276
▁insult	-10.2277
▁pants	-10.2277
▁connection	-10.2277
▁drier	-10.2278
▁happier	-10.2279
ghi	-10.2279
▁dishes	-10.2279
▁forged	-10.2281
▁committed	-10.2281
▁stack	-10.2281
▁mall	-10.2282
▁salt	-10.2284
▁relative	-10.2285
▁exception	-10.2287
▁spoken	-10.2289
▁secretary	-10.2289
▁chat	-10.2289
▁rot	-10.229
▁sack	-10.2291
▁drumming	-10.2291
▁halfman	-10.2291
▁ye	-10.2291
▁preserve	-10.2292
▁useful	-10.2292
▁iii	-10.2294
▁jesse	-10.2294
▁solved	-10.2295
▁stretch	-10.2295
▁cas	-10.2298
▁haha	-10.2298
▁lick	-10.2299
▁drowning	-10.2301
where	-10.2302
▁defeated	-10.2303
▁screen	-10.2303
▁aye	-10.2304
▁halloween	-10.2306
▁subt	-10.2307
▁down	-10.2307
▁victory	-10.231
▁buster	-10.2314
▁wildest	-10.2315
▁mae	-10.2316
▁emotional	-10.2316
▁sealed	-10.2317
▁particularly	-10.2317
▁ti	-10.2322
lash	-10.2323
▁hire	-10.2329
▁steph	-10.233
▁ne	-10.2333
▁foundation	-10.2339
▁washed	-10.2342
▁madame	-10.2344
▁concerned	-10.2349
▁blessed	-10.2349
▁jo	-10.2357
▁counter	-10.2358
▁personally	-10.237
▁adults	-10.2372
▁yawns	-10.2372
▁burned	-10.2388
▁ideal	-10.2393
▁slowly	-10.24
▁pole	-10.2409
▁ram	-10.2411
▁bake	-10.2418
ological	-10.2419
▁coo	-10.2419
▁considered	-10.2425
▁cracking	-10.2426
▁drawing	-10.2427
▁allie	-10.2427
nn	-10.243
▁char	-10.2431
▁era	-10.244
▁smaller	-10.2441
inkling	-10.2449
▁skullners	-10.2454
▁inch	-10.246
mon	-10.246
▁advanc	-10.2473
we	-10.2474
▁musicians	-10.2496
▁promot	-10.2497
▁angel	-10.2501
▁fixed	-10.2504
▁nights	-10.2506
just	-10.2507
▁toes	-10.2509
▁offered	-10.2512
▁cousins	-10.2537
▁females	-10.2537
▁soldiers	-10.2537
▁recorded	-10.2547
▁jos	-10.2571
ka	-10.2578
▁limits	-10.2581
▁pee	-10.2591
▁sings	-10.2595
▁visited	-10.2605
▁mai	-10.2608
▁explained	-10.2619
▁holidays	-10.2621
▁tickets	-10.2621
▁cages	-10.2663
▁reaching	-10.2663
act	-10.2665
▁damage	-10.2676
▁formal	-10.2697
▁beliefs	-10.2705
▁represent	-10.2705
son	-10.2706
▁streets	-10.2725
▁twi	-10.2766
ating	-10.2772
▁pulled	-10.2773
▁bou	-10.2786
▁arrives	-10.2794
orn	-10.2795
▁din	-10.2796
▁elsas	-10.2833
▁grounds	-10.2849
more	-10.2849
▁swa	-10.2859
▁closes	-10.2875
▁religions	-10.2875
▁you	-10.2876
ual	-10.2877
can	-10.2898
▁vents	-10.2899
▁matters	-10.2907
▁min	-10.293
▁winds	-10.293
om	-10.2935
▁horns	-10.2961
▁landing	-10.297
aking	-10.3014
▁jobs	-10.3024
▁carn	-10.3032
▁introduc	-10.3038
ata	-10.304
▁travels	-10.304
▁greater	-10.3058
▁ink	-10.3105
▁magnets	-10.3111
▁hoped	-10.3126
▁bags	-10.3136
▁player	-10.3158
▁anti	-10.3172
▁needles	-10.3201
▁bas	-10.3203
▁speaks	-10.3214
▁shower	-10.322
▁dealing	-10.3246
▁suits	-10.326
▁rains	-10.3313
nce	-10.3326
ou	-10.3342
▁for	-10.3344
▁sem	-10.3349
ome	-10.3351
▁bark	-10.3362
crowned	-10.3371
tto	-10.3374
▁eats	-10.3376
▁pan	-10.3385
▁submersible	-10.3385
▁tip	-10.3385
▁individual	-10.339
▁impression	-10.3393
▁photo	-10.3396
▁female	-10.3397
▁cousin	-10.3397
▁soldier	-10.3399
▁egg	-10.3399
yes	-10.34
▁chabot	-10.3404
▁mal	-10.3408
▁sometime	-10.3413
▁runner	-10.3414
med	-10.3425
▁sale	-10.3426
▁votes	-10.3436
▁ag	-10.3468
▁tin	-10.3489
▁sets	-10.3515
▁stan	-10.3523
▁ka	-10.3526
▁lookin	-10.3532
▁rate	-10.3539
▁wrap	-10.3552
▁tick	-10.3563
▁tracks	-10.3574
▁reasons	-10.3579
▁bur	-10.3597
▁addition	-10.3602
hhh	-10.3611
▁po	-10.3624
field	-10.3629
▁honk	-10.3631
▁corrupt	-10.3641
▁junk	-10.3647
hood	-10.3659
house	-10.3659
▁release	-10.3663
▁cam	-10.3663
▁convince	-10.3664
▁dial	-10.3666
what	-10.3666
▁shoo	-10.3667
▁photograph	-10.3668
wood	-10.3669
▁absolute	-10.3672
▁suck	-10.3677
▁sweat	-10.3678
▁luk	-10.3678
rock	-10.368
▁preach	-10.3684
▁but	-10.3686
▁lu	-10.369
▁laura	-10.3692
▁tang	-10.3692
▁locat	-10.3692
▁sec	-10.3693
while	-10.3693
▁dick	-10.3694
▁comfort	-10.3694
▁council	-10.3695
▁brutal	-10.3695
▁manichean	-10.3696
away	-10.3696
▁basket	-10.3697
▁aeetes	-10.3698
▁antitoxin	-10.3698
▁anytime	-10.3698
▁appointment	-10.3698
▁argument	-10.3698
▁armada	-10.3698
▁atlas	-10.3698
▁background	-10.3698
▁campaign	-10.3698
▁candomble	-10.3698
▁cheek	-10.3698
▁cherries	-10.3698
▁concannon	-10.3698
▁conclusion	-10.3698
▁condemned	-10.3698
▁confidence	-10.3698
▁convention	-10.3698
▁dictionary	-10.3698
▁domestic	-10.3698
▁donkey	-10.3698
▁evolution	-10.3698
▁explosive	-10.3698
▁fabulous	-10.3698
▁families	-10.3698
▁gablegobble	-10.3698
▁gannon	-10.3698
▁generous	-10.3698
▁gwangi	-10.3698
▁helsinki	-10.3698
▁hermas	-10.3698
▁homicide	-10.3698
▁identify	-10.3698
▁interpret	-10.3698
▁jackpot	-10.3698
▁joffrey	-10.3698
▁jungle	-10.3698
▁kardong	-10.3698
▁liberty	-10.3698
▁lonesome	-10.3698
▁manhattan	-10.3698
▁melod	-10.3698
▁migration	-10.3698
▁montague	-10.3698
▁nyima	-10.3698
▁opportunities	-10.3698
▁pablo	-10.3698
▁pentecostal	-10.3698
▁pizza	-10.3698
▁practising	-10.3698
▁primate	-10.3698
▁principle	-10.3698
▁proposition	-10.3698
▁rainforest	-10.3698
▁repetiteur	-10.3698
▁revision	-10.3698
▁samantha	-10.3698
▁screwnose	-10.3698
▁smooth	-10.3698
▁sobbing	-10.3698
▁spurgeon	-10.3698
▁supremac	-10.3698
▁suspicious	-10.3698
▁temple	-10.3698
▁tuesday	-10.3698
▁unfair	-10.3698
▁uniform	-10.3698
▁unknown	-10.3698
▁verdict	-10.3698
▁virgil	-10.3698
▁wolfsbottom	-10.3698
▁worries	-10.3698
▁yield	-10.3698
▁yippee	-10.3698
▁anchor	-10.3698
▁article	-10.3698
▁bogey	-10.3698
▁depth	-10.3698
▁minister	-10.3698
▁paradise	-10.3698
▁phillip	-10.3698
▁prediction	-10.3698
▁profit	-10.3698
▁radar	-10.3698
▁respond	-10.3698
▁saloon	-10.3698
▁shatter	-10.3698
▁suspect	-10.3698
inlaw	-10.3698
▁column	-10.3698
▁elevat	-10.3698
▁firm	-10.3698
▁gutter	-10.3698
▁kennedy	-10.3698
▁policy	-10.3698
▁sinai	-10.3698
▁stories	-10.3698
▁swimmies	-10.3698
▁alarm	-10.3698
▁crawl	-10.3698
▁shelter	-10.3698
▁squeal	-10.3698
▁addict	-10.3698
▁championship	-10.3698
▁mirror	-10.3698
▁pirate	-10.3698
▁braces	-10.3698
▁harmony	-10.3698
▁jolly	-10.3698
▁morton	-10.3698
▁patrol	-10.3698
▁shawn	-10.3698
▁ease	-10.3698
▁prevent	-10.3698
▁africanamerican	-10.3698
▁loaded	-10.3698
▁proceed	-10.3698
▁drove	-10.3698
▁gear	-10.3698
▁majesty	-10.3698
▁italy	-10.3698
▁estate	-10.3698
sponsor	-10.3698
▁moron	-10.3698
▁pump	-10.3698
▁alert	-10.3698
▁eohippus	-10.3698
▁details	-10.3698
▁crisis	-10.3698
▁pills	-10.3698
▁overnight	-10.3698
▁mixture	-10.3698
▁delay	-10.3698
▁rubber	-10.3698
▁ladder	-10.3698
▁noblerat	-10.3698
▁baseball	-10.3698
▁colonial	-10.3698
▁frozen	-10.3698
▁glide	-10.3698
▁print	-10.3698
▁splash	-10.3698
▁borrow	-10.3699
▁tactic	-10.3699
▁tank	-10.3699
▁pony	-10.3699
▁spanish	-10.3699
▁priestess	-10.3699
▁cocktail	-10.3699
▁sansa	-10.3699
▁andand	-10.3699
▁existence	-10.3699
▁raid	-10.3699
▁halas	-10.3699
▁section	-10.3699
▁slide	-10.3699
▁speedball	-10.3699
▁woke	-10.3699
▁leap	-10.3699
▁goose	-10.37
▁specific	-10.37
▁underwater	-10.37
▁chapter	-10.37
▁cheat	-10.37
▁testimony	-10.37
▁importance	-10.37
▁effective	-10.37
▁cannon	-10.3701
▁forgeries	-10.3701
▁drunk	-10.3701
▁parade	-10.3701
▁grownup	-10.3701
▁exhales	-10.3701
▁petition	-10.3702
▁tele	-10.3702
▁beak	-10.3702
▁laser	-10.3702
▁daily	-10.3702
▁classroom	-10.3703
▁bucket	-10.3703
▁grasp	-10.3703
▁mirage	-10.3703
▁election	-10.3704
▁exercise	-10.3704
▁pasture	-10.3704
▁apartment	-10.3704
▁pitch	-10.3705
▁anna	-10.3705
▁acre	-10.3706
▁role	-10.3706
▁sara	-10.3706
▁branches	-10.3707
▁chop	-10.3707
ger	-10.3708
▁protestantism	-10.3708
▁souffle	-10.3708
▁angeles	-10.371
▁determined	-10.3711
▁grave	-10.3711
▁nome	-10.3714
▁parish	-10.3715
▁lab	-10.3716
▁transform	-10.3716
▁carried	-10.3716
▁unfortunately	-10.3716
ope	-10.3717
▁aww	-10.3718
▁freeze	-10.3718
▁gravity	-10.3718
▁rum	-10.3718
▁stolen	-10.3719
▁tango	-10.3719
▁cabin	-10.372
bud	-10.3721
▁ahem	-10.3724
▁trickortreating	-10.3725
▁phenomenal	-10.3726
▁dish	-10.3726
▁agent	-10.3726
▁sighing	-10.3726
▁elected	-10.3729
▁apes	-10.3729
▁manual	-10.373
▁dolly	-10.3732
▁released	-10.3732
▁burg	-10.3733
▁echoing	-10.3736
▁fuel	-10.374
▁defense	-10.374
▁guaranteed	-10.3743
▁blown	-10.3744
▁heroes	-10.3745
minent	-10.3748
▁designed	-10.3748
▁steep	-10.3753
▁fried	-10.3753
▁originally	-10.3756
▁reality	-10.3763
▁hail	-10.3766
▁chor	-10.377
▁elements	-10.377
▁heretics	-10.377
▁mussels	-10.377
▁noon	-10.3779
▁meantime	-10.378
▁gained	-10.3782
ux	-10.3783
▁armed	-10.3787
▁pale	-10.3794
pl	-10.3795
▁cann	-10.3798
▁permit	-10.3813
▁supplies	-10.3814
▁blessing	-10.3815
▁argos	-10.3818
▁candles	-10.3818
▁corrections	-10.382
ppy	-10.382
▁bloody	-10.3827
▁discovering	-10.3838
solati	-10.3842
▁ske	-10.3855
▁warning	-10.3857
▁wishes	-10.3865
▁cents	-10.3866
▁tied	-10.3868
▁crossed	-10.3875
▁bend	-10.3876
▁tag	-10.3879
▁pushed	-10.3889
▁dime	-10.3891
▁closet	-10.3891
▁gu	-10.3903
▁painting	-10.3905
▁curse	-10.3912
▁quietly	-10.3923
▁reported	-10.3933
▁safely	-10.394
▁ra	-10.3943
▁boot	-10.3947
▁nik	-10.3953
▁windows	-10.3954
▁jacky	-10.3956
▁hackamaws	-10.3962
▁saints	-10.3962
▁owners	-10.3962
▁coins	-10.3962
▁tale	-10.3974
▁jumped	-10.3978
berry	-10.3978
▁exc	-10.3992
▁touching	-10.3996
▁photos	-10.401
nos	-10.4011
▁knocking	-10.4019
▁cleaner	-10.402
kin	-10.4024
▁sales	-10.4027
▁su	-10.403
▁fri	-10.4033
▁corr	-10.4037
illa	-10.4046
▁falling	-10.405
▁offering	-10.4053
ell	-10.4073
▁exp	-10.408
▁signs	-10.4093
▁trained	-10.4099
▁cleaning	-10.41
di	-10.4109
▁returns	-10.4123
▁rates	-10.4124
cal	-10.4147
▁ward	-10.4149
▁surprises	-10.415
▁pho	-10.4152
▁timing	-10.4155
▁creaks	-10.4157
▁degrees	-10.4157
▁meals	-10.4157
▁remembered	-10.4179
ros	-10.4179
▁are	-10.4204
▁crabs	-10.4207
▁speaker	-10.4215
▁events	-10.4221
▁alls	-10.4225
▁inf	-10.4247
▁organize	-10.4252
▁trac	-10.4257
▁exists	-10.4261
▁interests	-10.4263
▁minorit	-10.4268
ole	-10.4276
idal	-10.4291
nts	-10.43
▁tu	-10.4303
▁knees	-10.4307
▁cranes	-10.4307
▁nations	-10.4308
▁sewers	-10.4308
hr	-10.4315
outs	-10.4321
▁ri	-10.4348
▁cans	-10.4351
▁lou	-10.4351
▁concentrate	-10.4355
▁devils	-10.4357
ically	-10.4361
▁popes	-10.4364
ez	-10.4378
▁ol	-10.4384
▁paying	-10.4422
▁comm	-10.4434
▁pulling	-10.444
ola	-10.4442
rry	-10.4465
▁treats	-10.4564
▁nicely	-10.4565
hold	-10.4574
▁hiss	-10.4582
bit	-10.4587
▁earths	-10.4589
▁prov	-10.4617
aaa	-10.4621
furt	-10.4655
tre	-10.4683
bi	-10.4686
ford	-10.4714
▁gin	-10.4733
▁berniers	-10.4766
uff	-10.4789
▁lions	-10.4798
▁miracles	-10.4819
▁not	-10.4822
dys	-10.4827
ught	-10.4861
regardless	-10.4864
▁chirus	-10.4871
▁sat	-10.4904
▁despi	-10.4918
▁yell	-10.4925
lon	-10.4966
▁sel	-10.4969
▁pen	-10.4977
lit	-10.4997
azz	-10.5009
▁gasp	-10.5028
▁beast	-10.5052
▁dragon	-10.5058
▁hackamaw	-10.5061
▁saint	-10.5061
▁director	-10.5066
▁owner	-10.5067
▁elephant	-10.5077
▁map	-10.5085
▁catching	-10.5086
hes	-10.509
▁toe	-10.51
▁male	-10.5107
rig	-10.5118
▁prisoner	-10.5121
▁coin	-10.5127
▁dixie	-10.5153
▁cancel	-10.5167
▁speller	-10.5173
▁musician	-10.5175
shirts	-10.5177
rney	-10.518
▁thi	-10.5201
▁fac	-10.5213
nish	-10.5216
▁rub	-10.5216
▁if	-10.5228
ture	-10.5235
▁falls	-10.5258
▁surf	-10.5291
▁chatter	-10.5299
▁emotion	-10.5301
▁design	-10.5306
rents	-10.5313
▁dropp	-10.5315
▁leo	-10.5317
town	-10.5321
▁depress	-10.5331
▁bon	-10.5331
▁bene	-10.5332
place	-10.5334
powder	-10.5336
▁silk	-10.5337
▁immediate	-10.5338
fire	-10.5338
▁assume	-10.5339
made	-10.5343
▁custom	-10.5343
▁actual	-10.5344
▁forger	-10.5347
▁rem	-10.5348
▁govern	-10.5351
tory	-10.5352
▁constitution	-10.5353
▁branch	-10.5353
▁blaze	-10.5355
egie	-10.5358
▁raci	-10.5359
▁prior	-10.5362
stop	-10.5363
▁quest	-10.5364
▁distract	-10.5364
▁alternative	-10.5364
▁anglican	-10.5364
▁appeal	-10.5364
▁applaud	-10.5364
▁applied	-10.5364
▁aquacade	-10.5364
▁argonauts	-10.5364
▁baratheon	-10.5364
▁barricade	-10.5364
▁biscuit	-10.5364
▁bubbly	-10.5364
▁centaur	-10.5364
▁challenging	-10.5364
▁chittering	-10.5364
▁clarence	-10.5364
▁clark	-10.5364
▁clown	-10.5364
▁complicated	-10.5364
▁condemnation	-10.5364
▁congratulate	-10.5364
▁constantinople	-10.5364
▁convincing	-10.5364
▁darjeel	-10.5364
▁decade	-10.5364
▁deception	-10.5364
▁denham	-10.5364
▁destruction	-10.5364
▁dillyaye	-10.5364
▁dolphin	-10.5364
▁earthquake	-10.5364
▁emperor	-10.5364
▁encourag	-10.5364
▁enormous	-10.5364
▁eventually	-10.5364
▁financial	-10.5364
▁flood	-10.5364
▁freckles	-10.5364
▁fruitcake	-10.5364
▁gaucho	-10.5364
▁genevieve	-10.5364
▁goblin	-10.5364
▁gramophone	-10.5364
▁gratitude	-10.5364
▁herbs	-10.5364
▁hermes	-10.5364
▁imagination	-10.5364
▁industri	-10.5364
▁invented	-10.5364
▁laboratory	-10.5364
▁landscape	-10.5364
▁lannister	-10.5364
▁liberal	-10.5364
▁license	-10.5364
▁lullabee	-10.5364
▁mandemus	-10.5364
▁mcguirk	-10.5364
▁muscle	-10.5364
▁negative	-10.5364
▁negro	-10.5364
▁occasion	-10.5364
▁opponent	-10.5364
▁orgyen	-10.5364
▁osbourne	-10.5364
▁paisley	-10.5364
▁parrot	-10.5364
▁peasants	-10.5364
▁peculiar	-10.5364
▁pencil	-10.5364
▁phineas	-10.5364
▁piranha	-10.5364
▁platform	-10.5364
▁plumpingham	-10.5364
▁porcupine	-10.5364
▁poverty	-10.5364
▁ralph	-10.5364
▁rapid	-10.5364
▁reputation	-10.5364
▁revenge	-10.5364
▁rhythm	-10.5364
▁ribbon	-10.5364
▁ritual	-10.5364
▁rodney	-10.5364
▁rottenmeir	-10.5364
▁rubbish	-10.5364
▁schoepp	-10.5364
▁scoop	-10.5364
▁scotch	-10.5364
▁scramble	-10.5364
▁senior	-10.5364
▁serengeti	-10.5364
▁shaff	-10.5364
▁spike	-10.5364
▁stereo	-10.5364
▁television	-10.5364
▁tempt	-10.5364
▁thieves	-10.5364
▁traffic	-10.5364
▁urgent	-10.5364
▁volume	-10.5364
▁volvo	-10.5364
▁whistling	-10.5364
▁wrenn	-10.5364
▁amsterdam	-10.5364
▁aristo	-10.5364
▁debate	-10.5364
▁draft	-10.5364
▁grief	-10.5364
▁haircut	-10.5364
▁iq	-10.5364
▁latimer	-10.5364
▁merger	-10.5364
▁orange	-10.5364
▁overcome	-10.5364
▁pepper	-10.5364
▁prophet	-10.5364
▁providing	-10.5364
▁purchase	-10.5364
▁breach	-10.5364
▁decent	-10.5364
▁distribut	-10.5364
▁drummer	-10.5364
▁fifteen	-10.5364
▁fraud	-10.5364
▁maga	-10.5364
▁stork	-10.5364
▁toast	-10.5364
▁tribe	-10.5364
▁trimm	-10.5364
▁critter	-10.5364
▁douglas	-10.5364
▁stood	-10.5364
▁snub	-10.5364
▁thessal	-10.5364
▁iove	-10.5364
▁rehab	-10.5364
▁rookie	-10.5364
▁theater	-10.5364
▁carpet	-10.5364
▁julie	-10.5364
▁plateau	-10.5364
▁versus	-10.5364
▁zero	-10.5364
▁spaceship	-10.5364
▁adios	-10.5364
▁item	-10.5364
▁macdonald	-10.5364
▁relay	-10.5364
▁threatened	-10.5364
▁gorilla	-10.5364
ffert	-10.5364
▁fulfill	-10.5364
▁coordinate	-10.5364
▁doris	-10.5364
▁balloon	-10.5364
▁kanga	-10.5364
▁daycare	-10.5364
▁giddap	-10.5364
▁rowdy	-10.5365
▁resign	-10.5365
▁parenthood	-10.5365
▁scale	-10.5365
▁swallow	-10.5365
▁freezing	-10.5365
▁stride	-10.5365
▁knight	-10.5365
▁spectac	-10.5365
▁identity	-10.5365
▁robber	-10.5365
▁choir	-10.5365
▁nuru	-10.5365
▁allez	-10.5365
▁solid	-10.5365
▁phil	-10.5365
▁income	-10.5365
▁indicat	-10.5365
▁secure	-10.5365
▁curious	-10.5365
▁donate	-10.5365
▁desk	-10.5366
▁review	-10.5366
▁ambitio	-10.5366
▁jazz	-10.5366
▁ignorant	-10.5366
▁minim	-10.5366
▁celebrating	-10.5366
▁temper	-10.5366
▁reviv	-10.5366
▁whens	-10.5366
▁dedicat	-10.5366
▁batteries	-10.5366
▁wildlife	-10.5366
▁stair	-10.5366
▁flock	-10.5366
▁marble	-10.5366
▁statehood	-10.5366
▁intense	-10.5366
▁chopper	-10.5366
▁net	-10.5366
▁pancake	-10.5367
▁upside	-10.5367
▁rail	-10.5367
▁vetry	-10.5367
▁owns	-10.5367
▁weep	-10.5367
▁rachel	-10.5367
▁motion	-10.5367
▁preparation	-10.5367
▁happily	-10.5367
▁bodies	-10.5367
▁zip	-10.5367
▁wiley	-10.5367
▁youngster	-10.5368
▁violence	-10.5368
▁firewood	-10.5368
▁poach	-10.5368
▁juice	-10.5368
▁gran	-10.5368
▁happie	-10.5368
▁duke	-10.5368
rifle	-10.5368
▁noah	-10.5368
▁flora	-10.5368
▁firing	-10.5369
▁joan	-10.5369
▁funding	-10.5369
▁guardian	-10.5369
▁development	-10.5369
▁poop	-10.5369
▁childhood	-10.5369
▁cult	-10.537
▁witch	-10.537
▁peso	-10.537
▁yum	-10.537
▁bribe	-10.537
▁plate	-10.537
▁edition	-10.537
▁computer	-10.5371
▁stake	-10.5371
▁slip	-10.5371
▁bike	-10.5371
▁communication	-10.5371
▁significant	-10.5371
▁dirk	-10.5371
▁nick	-10.5371
▁bullet	-10.5371
▁changing	-10.5372
▁squ	-10.5372
▁pace	-10.5372
▁alcoholic	-10.5373
▁portal	-10.5373
▁exit	-10.5373
▁tone	-10.5375
▁romance	-10.5375
▁allowance	-10.5375
▁magician	-10.5375
▁tibetan	-10.5375
▁elder	-10.5376
▁papacy	-10.5376
▁highball	-10.5376
bble	-10.5376
▁attraction	-10.5377
▁blazer	-10.5377
▁aau	-10.538
▁apostle	-10.538
▁rack	-10.5381
▁expression	-10.5382
▁patch	-10.5382
uh	-10.5382
▁hack	-10.5382
▁funds	-10.5383
▁riot	-10.5383
▁occurre	-10.5383
▁collection	-10.5383
▁beings	-10.5384
▁stammering	-10.5385
▁prize	-10.5385
▁tut	-10.5387
▁skies	-10.5387
▁stopping	-10.5388
▁pep	-10.5389
▁winni	-10.539
▁vet	-10.5391
▁opposed	-10.5391
▁raz	-10.5391
▁yearold	-10.5392
▁earned	-10.5393
▁active	-10.5393
▁coat	-10.5395
leton	-10.5396
▁inspired	-10.5396
▁kar	-10.5398
▁playtime	-10.5399
▁on	-10.5399
ita	-10.54
▁amongst	-10.5401
▁established	-10.5401
▁mig	-10.5402
▁useless	-10.5402
▁rocket	-10.5403
▁daylight	-10.5404
▁seize	-10.5407
▁link	-10.5408
▁pod	-10.5408
▁cried	-10.5412
▁shocked	-10.5412
▁sonar	-10.5412
etta	-10.5416
tial	-10.5417
▁proposed	-10.5418
▁hitting	-10.5419
▁cane	-10.5419
ideo	-10.542
▁roam	-10.542
▁cau	-10.5421
▁bb	-10.5425
▁vow	-10.5425
▁jr	-10.5425
▁coal	-10.5426
▁naturally	-10.5427
▁proven	-10.5429
▁corrupted	-10.5433
▁bah	-10.5433
▁code	-10.5433
▁undo	-10.5435
▁mode	-10.5435
▁ap	-10.5438
halt	-10.544
▁string	-10.5443
▁pity	-10.5443
▁bean	-10.5444
car	-10.5445
▁neighbors	-10.5451
▁finale	-10.5451
▁musher	-10.5453
▁suffered	-10.5454
▁lack	-10.5454
▁roller	-10.5457
▁core	-10.546
ished	-10.5467
▁recognized	-10.5468
▁disco	-10.5472
scope	-10.5476
▁challenged	-10.5481
▁helpful	-10.5485
▁bein	-10.5491
▁collected	-10.5495
▁entered	-10.5497
▁judged	-10.5498
bore	-10.5502
▁safer	-10.5503
▁nerves	-10.5508
▁bubbles	-10.5508
▁instruments	-10.5508
▁site	-10.5508
▁napa	-10.551
▁revealing	-10.5517
▁jet	-10.5518
▁approv	-10.552
▁survived	-10.5528
▁voted	-10.5543
▁kicked	-10.5549
inch	-10.5553
▁ingredients	-10.5565
▁sports	-10.5565
▁ancestors	-10.5566
▁struggles	-10.5566
bone	-10.5566
▁critics	-10.5566
▁pl	-10.5569
▁continued	-10.5581
isle	-10.5583
bridge	-10.5587
ak	-10.5596
▁oy	-10.5597
▁sticky	-10.5613
▁skipp	-10.5616
▁visitor	-10.5622
▁values	-10.5623
▁heresy	-10.5624
▁bugs	-10.5626
eep	-10.5638
▁loser	-10.5663
▁attacked	-10.5669
▁knocked	-10.5671
▁dragons	-10.5682
▁organ	-10.5691
zzle	-10.5709
jo	-10.5715
▁dancer	-10.5716
▁dogg	-10.5734
eral	-10.5735
▁individuals	-10.574
▁nu	-10.574
▁impressions	-10.574
ular	-10.5745
▁testing	-10.5746
▁fixing	-10.5778
▁younger	-10.5779
▁pigs	-10.5799
▁ty	-10.5808
▁corn	-10.5834
late	-10.5835
▁fianc	-10.584
▁cal	-10.5847
▁qui	-10.585
▁tort	-10.5854
▁painful	-10.5855
▁strikes	-10.5857
▁cards	-10.5859
▁tears	-10.5859
▁appears	-10.586
▁kno	-10.5863
boo	-10.5892
▁sites	-10.5897
▁issues	-10.5906
▁feelin	-10.5908
▁throwing	-10.5914
▁baptis	-10.5915
▁faced	-10.5947
throp	-10.5974
▁resid	-10.6005
▁passing	-10.6013
itor	-10.6027
▁customers	-10.604
▁openly	-10.6042
bra	-10.6065
▁hee	-10.607
▁whee	-10.6074
▁arr	-10.6108
▁staring	-10.6115
▁swis	-10.615
▁adventures	-10.6158
▁lawyers	-10.6158
▁germans	-10.616
▁mmmmmmmmmm	-10.6182
▁fli	-10.6195
▁dreamed	-10.6221
ira	-10.6238
ooch	-10.6245
▁graduate	-10.6279
erous	-10.6284
▁checked	-10.6306
▁corners	-10.6307
ctor	-10.631
▁av	-10.6341
raw	-10.6394
▁lin	-10.6402
nel	-10.6412
▁logic	-10.6456
nam	-10.6495
▁ducks	-10.6528
▁rob	-10.6625
▁ham	-10.6633
▁ki	-10.6636
otic	-10.6646
cker	-10.665
▁manage	-10.6657
▁fl	-10.6679
▁ignor	-10.6693
▁ca	-10.6701
rom	-10.6711
▁gil	-10.6713
atto	-10.6734
curb	-10.6756
▁observ	-10.6773
▁dat	-10.68
unk	-10.684
loy	-10.6845
▁mu	-10.6922
hole	-10.6935
▁strap	-10.6937
▁organis	-10.6946
▁bug	-10.6966
▁ven	-10.6994
ized	-10.7003
ya	-10.7022
▁circuit	-10.7052
▁tool	-10.7054
▁value	-10.7059
▁skullner	-10.7064
▁chick	-10.7065
▁scientist	-10.7066
▁str	-10.7078
▁monk	-10.7081
▁beside	-10.7083
fish	-10.709
bri	-10.7091
▁parent	-10.7093
▁here	-10.7094
▁shi	-10.7094
▁shak	-10.7111
ilar	-10.712
fare	-10.7173
eak	-10.7183
▁ph	-10.7191
▁del	-10.7199
▁murder	-10.7214
▁rever	-10.7222
▁stir	-10.7225
mitt	-10.7259
let	-10.7266
▁shock	-10.7285
▁prepar	-10.7286
▁quack	-10.7292
▁accord	-10.7296
▁impress	-10.7301
▁decorat	-10.7305
rian	-10.7308
▁defeat	-10.7308
▁abandon	-10.7308
▁troop	-10.7312
take	-10.7315
ege	-10.7316
▁dw	-10.732
▁investigate	-10.7326
▁describe	-10.7328
▁groom	-10.733
ini	-10.7333
▁solve	-10.7333
eight	-10.7334
▁gravit	-10.7335
▁precise	-10.7336
▁unfortunate	-10.7337
jespah	-10.7338
white	-10.7339
half	-10.7339
cover	-10.7339
guard	-10.734
▁entranc	-10.7342
▁fift	-10.7342
▁quart	-10.7343
paid	-10.7344
face	-10.7344
▁unlike	-10.7344
type	-10.7346
▁tex	-10.7348
▁numb	-10.7349
easy	-10.7351
▁region	-10.7352
▁profess	-10.7357
▁mornin	-10.7359
▁refu	-10.736
raham	-10.736
▁depart	-10.7362
▁reci	-10.7362
▁sixteen	-10.7362
▁kidnap	-10.7362
escent	-10.7363
▁appal	-10.7363
▁respons	-10.7364
▁margar	-10.7364
▁accelerator	-10.7364
▁acquainted	-10.7364
▁advantage	-10.7364
▁amateur	-10.7364
▁anthony	-10.7364
▁anyhow	-10.7364
▁ashamed	-10.7364
▁astound	-10.7364
▁banquet	-10.7364
▁bartleby	-10.7364
▁bastards	-10.7364
▁beverage	-10.7364
▁brakes	-10.7364
▁briseis	-10.7364
▁broadcast	-10.7364
▁cackling	-10.7364
▁caramba	-10.7364
▁ceiling	-10.7364
▁chimney	-10.7364
▁circumstances	-10.7364
▁clancy	-10.7364
▁clumsy	-10.7364
▁coincidence	-10.7364
▁combination	-10.7364
▁competitive	-10.7364
▁confused	-10.7364
▁contrary	-10.7364
▁controversy	-10.7364
▁darwin	-10.7364
▁decretals	-10.7364
▁detroit	-10.7364
▁device	-10.7364
▁disadvantage	-10.7364
▁district	-10.7364
▁ecosystem	-10.7364
▁embarrass	-10.7364
▁employment	-10.7364
▁exhausted	-10.7364
▁explanation	-10.7364
▁explode	-10.7364
▁exposure	-10.7364
▁eyesight	-10.7364
▁fernfield	-10.7364
▁frankendude	-10.7364
▁freight	-10.7364
▁frustrat	-10.7364
▁gambling	-10.7364
▁garrison	-10.7364
▁genya	-10.7364
▁gradually	-10.7364
▁griesbach	-10.7364
▁griffin	-10.7364
▁gypsy	-10.7364
▁henderson	-10.7364
▁heritage	-10.7364
▁inject	-10.7364
▁international	-10.7364
▁kookaburra	-10.7364
▁kurek	-10.7364
▁ladida	-10.7364
▁laundry	-10.7364
▁lecture	-10.7364
▁logorrhea	-10.7364
▁lucille	-10.7364
▁luxury	-10.7364
▁maintenance	-10.7364
▁mammal	-10.7364
▁manahateen	-10.7364
▁mechanic	-10.7364
▁monopoly	-10.7364
▁narrative	-10.7364
▁nelson	-10.7364
▁obstacle	-10.7364
▁optimistic	-10.7364
▁patrick	-10.7364
▁penguin	-10.7364
▁persuade	-10.7364
▁philosophy	-10.7364
▁photosynthesis	-10.7364
▁pistol	-10.7364
▁playground	-10.7364
▁policies	-10.7364
▁procedure	-10.7364
▁profile	-10.7364
▁reflect	-10.7364
▁rehears	-10.7364
▁relief	-10.7364
▁routine	-10.7364
▁sabotage	-10.7364
▁satisfied	-10.7364
▁savior	-10.7364
▁scriptura	-10.7364
▁souschef	-10.7364
▁squirrel	-10.7364
▁stagecoach	-10.7364
▁struggling	-10.7364
▁sushi	-10.7364
▁thursday	-10.7364
▁toilet	-10.7364
▁tongue	-10.7364
▁triumph	-10.7364
▁unafraid	-10.7364
▁uncomfortable	-10.7364
▁universities	-10.7364
▁vandete	-10.7364
▁volunteer	-10.7364
▁vulture	-10.7364
▁watherstone	-10.7364
▁wescott	-10.7364
▁whiskey	-10.7364
▁attached	-10.7364
▁average	-10.7364
▁cheap	-10.7364
▁colorado	-10.7364
▁corolla	-10.7364
▁didier	-10.7364
▁dispos	-10.7364
▁drift	-10.7364
▁escort	-10.7364
▁eugen	-10.7364
▁evolv	-10.7364
▁hydra	-10.7364
▁initial	-10.7364
▁lurking	-10.7364
▁mumbling	-10.7364
▁nock	-10.7364
▁phew	-10.7364
▁recovery	-10.7364
▁referr	-10.7364
▁revolution	-10.7364
▁shivering	-10.7364
▁sparkl	-10.7364
▁tackle	-10.7364
▁twelve	-10.7364
▁ufo	-10.7364
pathy	-10.7364
▁claw	-10.7364
▁collar	-10.7364
▁curtain	-10.7364
▁donny	-10.7364
▁gunshot	-10.7364
▁instance	-10.7364
▁jewel	-10.7364
▁lamb	-10.7364
▁nevertheless	-10.7364
▁northwest	-10.7364
▁pierce	-10.7364
▁smack	-10.7364
▁crust	-10.7364
▁piano	-10.7364
▁warrior	-10.7364
▁beck	-10.7364
▁clang	-10.7364
▁litter	-10.7364
▁martyr	-10.7364
▁utter	-10.7364
algia	-10.7364
▁after	-10.7364
▁britain	-10.7364
▁conquer	-10.7364
▁farewell	-10.7364
▁obey	-10.7364
▁typical	-10.7364
▁bodyguards	-10.7364
▁eisen	-10.7364
▁predator	-10.7364
▁analog	-10.7364
▁barrel	-10.7364
▁leather	-10.7364
▁stove	-10.7364
▁goldmine	-10.7364
▁betray	-10.7364
▁superior	-10.7364
▁yelp	-10.7364
▁analy	-10.7364
▁define	-10.7364
▁dorm	-10.7364
▁habitats	-10.7364
▁impact	-10.7364
▁beam	-10.7364
▁neighborhood	-10.7364
▁dinosaur	-10.7364
▁merit	-10.7364
▁drew	-10.7364
▁boston	-10.7364
▁flesh	-10.7364
▁foam	-10.7364
▁midnight	-10.7365
▁favourite	-10.7365
▁accurate	-10.7365
▁appetite	-10.7365
▁fluff	-10.7365
▁immigration	-10.7365
▁cathy	-10.7365
▁investigation	-10.7365
▁mask	-10.7365
▁gross	-10.7365
▁opposition	-10.7365
erely	-10.7365
▁stanford	-10.7365
▁chalk	-10.7365
▁possibilities	-10.7365
▁armory	-10.7365
▁native	-10.7365
▁willow	-10.7365
▁straightened	-10.7365
▁reincarnation	-10.7365
▁typing	-10.7365
▁basketball	-10.7365
▁display	-10.7365
▁anato	-10.7365
▁salmon	-10.7365
▁joking	-10.7365
▁buen	-10.7365
▁syr	-10.7365
▁golf	-10.7365
leash	-10.7365
▁producing	-10.7365
▁howls	-10.7365
▁mmmmmm	-10.7365
▁lightning	-10.7365
▁apoc	-10.7366
▁kidnapped	-10.7366
▁infinit	-10.7366
▁preston	-10.7366
▁construct	-10.7366
▁barbarian	-10.7366
▁silent	-10.7366
▁judgment	-10.7366
▁weed	-10.7366
▁cruel	-10.7366
▁breck	-10.7366
▁expand	-10.7366
▁slipped	-10.7366
▁proclaim	-10.7366
▁paintball	-10.7366
▁rebuild	-10.7366
▁pregnant	-10.7366
▁whwhat	-10.7366
▁hahaha	-10.7366
▁potential	-10.7366
▁caption	-10.7366
▁description	-10.7366
▁outrageous	-10.7366
▁achievement	-10.7366
▁establishment	-10.7366
▁quote	-10.7366
▁scribe	-10.7366
▁heeya	-10.7367
▁civilization	-10.7367
▁maxim	-10.7367
▁scour	-10.7367
▁slope	-10.7367
▁slap	-10.7367
▁vision	-10.7367
▁rising	-10.7367
▁contractors	-10.7367
▁puff	-10.7367
▁vicious	-10.7367
▁ripped	-10.7368
▁moose	-10.7368
▁solution	-10.7368
▁tasty	-10.7368
vacu	-10.7368
▁supervis	-10.7368
▁heir	-10.7368
▁hens	-10.7368
▁charity	-10.7369
▁worn	-10.7369
▁pooch	-10.7369
▁chaos	-10.7369
new	-10.7369
▁creation	-10.7369
▁depression	-10.737
▁flatter	-10.737
▁fork	-10.737
unch	-10.737
▁microbes	-10.737
▁jackson	-10.737
▁olive	-10.737
▁discipline	-10.737
▁lair	-10.7371
iggle	-10.7371
▁ponder	-10.7371
▁beza	-10.7371
▁survival	-10.7371
▁sunlight	-10.7371
▁broad	-10.7371
▁yahoo	-10.7371
▁chapel	-10.7372
▁mouthful	-10.7372
▁tension	-10.7372
▁funnies	-10.7373
▁wheat	-10.7373
▁halfway	-10.7373
▁contribution	-10.7374
▁theological	-10.7374
▁phrase	-10.7374
▁worm	-10.7374
▁contribut	-10.7375
▁benj	-10.7375
▁penny	-10.7375
▁headache	-10.7375
▁demon	-10.7376
▁venture	-10.7376
▁regional	-10.7376
▁footage	-10.7376
▁announcement	-10.7377
▁humor	-10.738
▁inspection	-10.7381
▁jessie	-10.7381
▁drill	-10.7381
▁cri	-10.7382
▁agreement	-10.7382
▁painters	-10.7383
▁nun	-10.7383
▁fle	-10.7384
▁advised	-10.7384
▁selected	-10.7384
lessness	-10.7384
▁eee	-10.7385
▁resulted	-10.7385
onnais	-10.7385
▁norw	-10.7385
▁madman	-10.7386
▁oil	-10.7386
▁hiking	-10.7386
▁marine	-10.7386
▁cries	-10.7387
▁comb	-10.7387
▁approve	-10.7388
▁electrical	-10.739
▁tray	-10.739
▁soar	-10.739
kind	-10.739
▁celebrated	-10.7392
▁sharpen	-10.7392
▁precisely	-10.7392
▁lean	-10.7393
▁rex	-10.7393
▁fifty	-10.7395
dorf	-10.7396
tique	-10.7398
▁powder	-10.7399
▁convert	-10.74
▁doggie	-10.74
▁bru	-10.7401
reek	-10.7402
▁bonjour	-10.7403
▁gibbons	-10.7404
▁rhinos	-10.7404
▁corny	-10.7405
▁followers	-10.7405
▁roaring	-10.7406
▁jacket	-10.7406
give	-10.7408
▁photography	-10.7408
▁bury	-10.7408
▁pur	-10.7408
▁taco	-10.7413
▁july	-10.7414
▁translated	-10.7415
▁burnt	-10.7417
ava	-10.7417
endez	-10.7421
▁reasonable	-10.7422
▁vip	-10.7423
▁decorated	-10.7423
▁perp	-10.7427
aro	-10.7428
▁crop	-10.743
bel	-10.7431
▁physically	-10.7431
▁poke	-10.7433
▁reminder	-10.7436
▁dealers	-10.7436
▁quacking	-10.7439
▁yelled	-10.7439
▁assumed	-10.7441
▁whipp	-10.7445
▁dip	-10.7447
aries	-10.7448
▁why	-10.7448
▁reduc	-10.7452
▁required	-10.7463
▁embraced	-10.7463
▁poisoned	-10.7463
▁ver	-10.7463
▁sniffer	-10.747
▁dating	-10.747
▁results	-10.7473
▁crushed	-10.7476
▁intended	-10.7476
▁desired	-10.7479
rico	-10.7483
▁removed	-10.7483
▁tougher	-10.7484
believable	-10.7484
▁hint	-10.7485
▁developed	-10.7489
▁accomplished	-10.7489
▁engineer	-10.7497
▁flyin	-10.7498
▁switched	-10.7503
▁additional	-10.7507
▁homeless	-10.7507
▁rescued	-10.751
coat	-10.7513
pri	-10.7516
berg	-10.7519
▁herring	-10.7521
▁howdy	-10.7523
▁beep	-10.7526
▁fond	-10.754
▁drains	-10.7543
▁newman	-10.7544
▁athletes	-10.7549
▁oer	-10.755
▁lovers	-10.7553
coming	-10.7557
▁documented	-10.7561
▁tucker	-10.7565
lk	-10.7574
▁lava	-10.7576
▁lookout	-10.7581
▁focused	-10.7583
store	-10.7583
▁ore	-10.7588
▁cornered	-10.7589
ately	-10.7593
▁shirt	-10.7597
▁hugg	-10.7597
▁limb	-10.7601
▁scouting	-10.7605
▁completed	-10.7606
▁verm	-10.7606
inning	-10.7609
roque	-10.7612
▁instructions	-10.7615
▁compliments	-10.7615
▁robot	-10.7615
▁wester	-10.7616
▁supported	-10.7623
▁remained	-10.763
havin	-10.7633
▁pile	-10.7637
ame	-10.7642
▁nom	-10.7645
▁classical	-10.7675
▁circuits	-10.7687
▁tools	-10.7687
▁grumble	-10.7688
▁invest	-10.7691
▁backup	-10.7699
▁ter	-10.7704
▁fatal	-10.7704
▁buyer	-10.7707
▁lad	-10.7708
▁hon	-10.7712
▁bounced	-10.7719
▁touched	-10.772
▁secretly	-10.7723
▁earthy	-10.7725
▁pos	-10.773
▁begg	-10.7738
▁medic	-10.774
▁marker	-10.7745
▁admire	-10.7752
▁crashing	-10.7758
▁beasts	-10.776
▁directors	-10.7763
▁maps	-10.7763
▁yells	-10.7765
▁cater	-10.7765
▁bothering	-10.7775
▁longest	-10.7787
▁sailed	-10.7811
tox	-10.7822
▁enjoyed	-10.7824
cept	-10.7832
▁submersibles	-10.7833
▁tips	-10.7835
▁gladly	-10.785
▁port	-10.7854
▁lied	-10.7866
▁angels	-10.7871
▁agreeing	-10.788
▁tracking	-10.7888
▁pipe	-10.789
▁toots	-10.7897
▁stirr	-10.7897
▁turks	-10.7907
▁errors	-10.7908
rang	-10.7912
▁wrapp	-10.7932
▁mil	-10.7953
▁rely	-10.7964
▁feared	-10.7965
▁importantly	-10.7975
▁kn	-10.7991
▁observe	-10.7993
ruff	-10.8012
▁appreciat	-10.8015
▁meowing	-10.8053
▁fam	-10.8053
▁ban	-10.8061
▁adams	-10.8105
▁mol	-10.8123
▁viv	-10.8127
▁marking	-10.8131
▁detect	-10.8144
bal	-10.8156
pal	-10.8179
▁neuros	-10.8182
▁yearn	-10.8193
▁sting	-10.8208
opter	-10.826
ito	-10.8278
noun	-10.8341
meter	-10.8388
▁jam	-10.8395
▁litera	-10.8419
ager	-10.8421
▁cho	-10.8439
gado	-10.8446
▁sue	-10.8449
▁doug	-10.8518
▁marsh	-10.859
of	-10.8612
hoo	-10.8615
ummy	-10.8652
▁umm	-10.8661
aving	-10.8665
comin	-10.8668
mmmmmmmmmmm	-10.8708
achi	-10.8712
tically	-10.8743
▁liter	-10.876
▁corporat	-10.8822
chu	-10.8836
▁tinkl	-10.8879
upi	-10.889
▁explor	-10.8907
▁minor	-10.8911
▁cre	-10.893
▁kl	-10.897
▁bore	-10.8996
portion	-10.9024
hu	-10.9043
heat	-10.9047
▁tripp	-10.9054
▁indig	-10.9058
▁aa	-10.9124
imp	-10.9133
fi	-10.9146
▁psych	-10.9176
ory	-10.9251
struct	-10.9253
ax	-10.9261
▁ann	-10.9315
nu	-10.933
who	-10.9335
▁vale	-10.9378
▁admir	-10.9388
▁promote	-10.9396
mbo	-10.9397
ads	-10.94
lusive	-10.9403
▁tube	-10.9431
▁advance	-10.9443
amin	-10.9456
rie	-10.9492
▁whisper	-10.9497
▁exten	-10.9499
▁carve	-10.9508
▁critic	-10.9509
bor	-10.9515
▁struggle	-10.9519
▁author	-10.9541
▁instruction	-10.9552
▁compliment	-10.9554
▁ingredient	-10.9558
▁cent	-10.956
▁ancestor	-10.9561
▁medi	-10.9563
▁swi	-10.9565
▁slave	-10.9569
▁andrew	-10.9578
▁micro	-10.9582
▁furling	-10.9582
▁tra	-10.9582
▁mut	-10.9587
▁folk	-10.96
▁perm	-10.961
not	-10.9611
▁sport	-10.9616
appy	-10.9631
▁wri	-10.9669
gged	-10.968
▁plot	-10.9684
▁drama	-10.9693
enses	-10.9703
▁crap	-10.9731
sses	-10.9744
▁carson	-10.9762
▁serv	-10.9767
▁disc	-10.9767
▁continu	-10.9773
▁recogniz	-10.9782
▁wil	-10.9785
▁complet	-10.9786
bows	-10.9788
▁whoosh	-10.979
▁echo	-10.9793
▁manipulat	-10.9802
▁establish	-10.9804
▁trumpet	-10.9808
▁surround	-10.9809
▁frighten	-10.9809
retched	-10.9809
▁hiphop	-10.981
▁elect	-10.9812
cken	-10.9813
eez	-10.982
▁achieve	-10.9824
right	-10.9826
lock	-10.9827
▁fue	-10.9827
ahh	-10.9828
▁celebrate	-10.9829
▁combine	-10.9831
▁sens	-10.9832
skull	-10.9834
mount	-10.9834
▁permanent	-10.9834
claim	-10.9835
ability	-10.9837
yearold	-10.9837
bound	-10.9838
▁sudden	-10.9838
tigger	-10.9839
mark	-10.9839
▁translate	-10.984
proof	-10.984
▁thump	-10.984
jake	-10.9841
▁carrie	-10.9843
▁hustl	-10.9846
▁weigh	-10.9848
phone	-10.9848
ucky	-10.985
step	-10.9851
big	-10.9851
obby	-10.9852
▁bul	-10.9853
▁jig	-10.9854
tcher	-10.9854
agna	-10.9855
▁prince	-10.9856
▁generat	-10.9856
▁carbon	-10.9858
brain	-10.9859
pleasant	-10.9859
hower	-10.986
▁multi	-10.986
▁republic	-10.9861
▁technical	-10.9861
▁priva	-10.9862
▁egypt	-10.9862
▁barbar	-10.9862
▁virgin	-10.9863
▁ahhhhhh	-10.9864
ific	-10.9864
▁immigra	-10.9864
bloo	-10.9864
▁neigh	-10.9864
▁symp	-10.9864
aqua	-10.9864
▁crossexamin	-10.9864
▁revolt	-10.9864
itude	-10.9864
tempo	-10.9864
▁acquaintance	-10.9864
▁administration	-10.9864
▁alexandr	-10.9864
▁altitude	-10.9864
▁altogether	-10.9864
▁amazed	-10.9864
▁antelope	-10.9864
▁anthem	-10.9864
▁antimatter	-10.9864
▁apologies	-10.9864
▁apology	-10.9864
▁appaloosa	-10.9864
▁aspect	-10.9864
▁atlantic	-10.9864
▁atmosphere	-10.9864
▁automatic	-10.9864
▁autumn	-10.9864
▁avenue	-10.9864
▁babysitter	-10.9864
▁bathtub	-10.9864
▁behaviour	-10.9864
▁bilney	-10.9864
▁blackberries	-10.9864
▁blossom	-10.9864
▁brainwash	-10.9864
▁breathtaking	-10.9864
▁bronze	-10.9864
▁chieri	-10.9864
▁clavecin	-10.9864
▁client	-10.9864
▁collapse	-10.9864
▁conclude	-10.9864
▁conduct	-10.9864
▁confusion	-10.9864
▁contrast	-10.9864
▁counsel	-10.9864
▁denomination	-10.9864
▁describing	-10.9864
▁diamond	-10.9864
▁disguise	-10.9864
▁disgust	-10.9864
▁disintegrat	-10.9864
▁distilling	-10.9864
▁doofus	-10.9864
▁dummies	-10.9864
▁dynami	-10.9864
▁ecclesiastical	-10.9864
▁electronic	-10.9864
▁eligib	-10.9864
▁employee	-10.9864
▁engagement	-10.9864
▁entwine	-10.9864
▁envelope	-10.9864
▁estimate	-10.9864
▁evilfinder	-10.9864
▁excitement	-10.9864
▁expelled	-10.9864
▁exploit	-10.9864
▁explosion	-10.9864
▁familiar	-10.9864
▁flaw	-10.9864
▁florida	-10.9864
▁footprint	-10.9864
▁fragment	-10.9864
▁frown	-10.9864
▁georgie	-10.9864
▁gilbert	-10.9864
▁glasgow	-10.9864
▁gracias	-10.9864
▁granddaughter	-10.9864
▁greece	-10.9864
▁hallelujah	-10.9864
▁hebrew	-10.9864
▁hitandrun	-10.9864
▁hockey	-10.9864
▁improvise	-10.9864
▁increasing	-10.9864
▁infernal	-10.9864
▁instinct	-10.9864
▁kemble	-10.9864
▁kittens	-10.9864
▁leopard	-10.9864
▁mademoiselle	-10.9864
▁marvellous	-10.9864
▁merci	-10.9864
▁methadone	-10.9864
▁mezzofanti	-10.9864
▁military	-10.9864
▁monument	-10.9864
▁morris	-10.9864
▁mortal	-10.9864
▁murdoch	-10.9864
▁murph	-10.9864
▁murray	-10.9864
▁neighbour	-10.9864
▁orleans	-10.9864
▁overdose	-10.9864
▁palomar	-10.9864
▁pandemonium	-10.9864
▁parchment	-10.9864
▁parliament	-10.9864
▁perception	-10.9864
▁persecuted	-10.9864
▁peyrere	-10.9864
▁pheasant	-10.9864
▁picasso	-10.9864
▁politicians	-10.9864
▁purgator	-10.9864
▁qualify	-10.9864
▁quetza	-10.9864
▁rapper	-10.9864
▁raspberry	-10.9864
▁rationalism	-10.9864
▁receptus	-10.9864
▁reckon	-10.9864
▁relieved	-10.9864
▁rentakid	-10.9864
▁reservation	-10.9864
▁sacraments	-10.9864
▁sacred	-10.9864
▁satisfy	-10.9864
▁savoy	-10.9864
▁scalpel	-10.9864
▁scatter	-10.9864
▁scripps	-10.9864
▁sediment	-10.9864
▁sentimental	-10.9864
▁september	-10.9864
▁shadow	-10.9864
▁societies	-10.9864
▁souvenir	-10.9864
▁spacecraft	-10.9864
▁splendid	-10.9864
▁stadium	-10.9864
▁strangle	-10.9864
▁stubborn	-10.9864
▁submarine	-10.9864
▁suicide	-10.9864
▁suppress	-10.9864
▁surprising	-10.9864
▁surrender	-10.9864
▁terrifying	-10.9864
▁thoroughly	-10.9864
▁thriving	-10.9864
▁tyndale	-10.9864
▁uninspired	-10.9864
▁unlimited	-10.9864
▁unreasonable	-10.9864
▁unusual	-10.9864
▁urgency	-10.9864
▁vaatinen	-10.9864
▁vessel	-10.9864
▁wainwhisle	-10.9864
▁whiskers	-10.9864
▁withdraw	-10.9864
▁yourseif	-10.9864
▁zagorsky	-10.9864
▁zephir	-10.9864
▁abolish	-10.9864
▁arguing	-10.9864
▁athos	-10.9864
▁beacon	-10.9864
▁bluffing	-10.9864
▁clucking	-10.9864
▁dawdl	-10.9864
▁exterminate	-10.9864
▁fortunate	-10.9864
▁habeas	-10.9864
▁hiccup	-10.9864
▁homesick	-10.9864
▁intrud	-10.9864
▁junkyard	-10.9864
▁kathy	-10.9864
▁laptop	-10.9864
▁martian	-10.9864
▁mousse	-10.9864
▁nuclear	-10.9864
▁penetrate	-10.9864
▁radical	-10.9864
▁scrap	-10.9864
▁shortcut	-10.9864
▁spoil	-10.9864
▁trappers	-10.9864
▁wicked	-10.9864
abbot	-10.9864
urban	-10.9864
▁cemeter	-10.9864
▁columb	-10.9864
▁couch	-10.9864
▁deposit	-10.9864
▁finland	-10.9864
▁grilled	-10.9864
▁lease	-10.9864
▁legacy	-10.9864
▁prompt	-10.9864
▁rascal	-10.9864
▁recall	-10.9864
▁strict	-10.9864
▁unhand	-10.9864
▁cadet	-10.9864
▁float	-10.9864
▁internet	-10.9864
▁nightmare	-10.9864
▁orbit	-10.9864
▁screw	-10.9864
▁thirty	-10.9864
▁toxic	-10.9864
▁arose	-10.9864
▁mega	-10.9864
▁palace	-10.9864
▁recovered	-10.9864
▁shelf	-10.9864
▁swabbing	-10.9864
▁variety	-10.9864
ployed	-10.9864
▁arrows	-10.9864
▁candidates	-10.9864
▁inerran	-10.9864
▁route	-10.9864
▁spoon	-10.9864
▁stamp	-10.9864
▁wailing	-10.9864
▁cherry	-10.9864
▁decoy	-10.9864
▁dragged	-10.9864
▁thrill	-10.9864
▁tweet	-10.9864
▁cavern	-10.9864
▁hyah	-10.9864
▁primar	-10.9864
▁restoration	-10.9864
▁spicy	-10.9864
▁thumb	-10.9864
▁dork	-10.9864
▁fiesta	-10.9864
▁fourteen	-10.9864
▁hysterical	-10.9864
▁thread	-10.9864
▁amusing	-10.9864
▁brrr	-10.9864
▁butterfly	-10.9864
▁discourag	-10.9864
▁investigating	-10.9864
▁practicing	-10.9864
▁forcing	-10.9864
▁marina	-10.9864
▁wrinkl	-10.9864
▁email	-10.9864
▁feast	-10.9864
▁saddle	-10.9864
▁scoot	-10.9864
▁gangsters	-10.9864
▁smilin	-10.9864
ibald	-10.9864
wart	-10.9864
▁lamp	-10.9864
▁jingle	-10.9864
▁stinks	-10.9864
▁hick	-10.9864
▁itit	-10.9864
▁courtship	-10.9864
▁uti	-10.9864
habo	-10.9864
▁eliminate	-10.9864
▁keg	-10.9864
▁susie	-10.9864
▁resume	-10.9864
▁banana	-10.9864
▁sincerely	-10.9864
▁patron	-10.9865
▁ick	-10.9865
▁shae	-10.9865
▁quality	-10.9865
▁skills	-10.9865
▁geneva	-10.9865
▁inheritance	-10.9865
▁blanke	-10.9865
▁blend	-10.9865
▁escaping	-10.9865
▁patti	-10.9865
▁pepito	-10.9865
▁pastime	-10.9865
▁banns	-10.9865
▁collide	-10.9865
▁bernardis	-10.9865
incident	-10.9865
▁cherish	-10.9865
▁thud	-10.9865
▁descend	-10.9865
▁greet	-10.9865
▁devastat	-10.9865
▁spray	-10.9865
▁laur	-10.9865
▁drool	-10.9865
▁determination	-10.9865
▁giddyap	-10.9865
▁tweed	-10.9865
▁manaus	-10.9865
▁primo	-10.9865
▁fruit	-10.9865
▁radiation	-10.9865
▁dollhouse	-10.9865
▁dreadful	-10.9865
▁ltaly	-10.9865
▁trustees	-10.9865
▁reunit	-10.9865
▁riddle	-10.9865
onym	-10.9865
▁augustine	-10.9865
▁rattle	-10.9865
▁accelerate	-10.9865
▁pagan	-10.9865
▁inquiry	-10.9865
▁tropic	-10.9865
▁bandits	-10.9865
▁collat	-10.9865
▁flap	-10.9865
▁glob	-10.9866
▁lester	-10.9866
▁bingo	-10.9866
▁outof	-10.9866
▁youse	-10.9866
▁wives	-10.9866
▁feature	-10.9866
▁expectations	-10.9866
▁fraction	-10.9866
▁online	-10.9866
▁rape	-10.9866
▁sunset	-10.9866
▁philip	-10.9866
▁pff	-10.9866
▁chili	-10.9866
▁interact	-10.9866
▁ranks	-10.9866
▁lisa	-10.9866
zig	-10.9866
▁brass	-10.9866
▁lemon	-10.9866
▁poem	-10.9866
▁clink	-10.9866
▁tuna	-10.9866
life	-10.9866
▁colombo	-10.9866
▁equipment	-10.9866
▁assertion	-10.9866
▁organization	-10.9866
▁supper	-10.9866
▁concept	-10.9866
▁torture	-10.9866
▁talos	-10.9866
▁condenser	-10.9866
▁unorthodox	-10.9866
▁brink	-10.9866
▁salad	-10.9866
ollow	-10.9867
▁react	-10.9867
▁destination	-10.9867
▁lend	-10.9867
▁inspiration	-10.9867
▁mouse	-10.9867
rizzl	-10.9867
▁scrub	-10.9867
▁superstitio	-10.9867
itzer	-10.9867
▁concentration	-10.9867
▁furious	-10.9867
▁geese	-10.9867
▁ripping	-10.9868
▁motto	-10.9868
▁cove	-10.9868
▁moonlight	-10.9868
▁impressive	-10.9868
▁conviction	-10.9868
▁klan	-10.9868
▁oak	-10.9868
▁bulk	-10.9868
▁jeez	-10.9868
▁wedding	-10.9868
▁priority	-10.9868
▁studio	-10.9869
▁length	-10.9869
▁patience	-10.9869
▁proposal	-10.9869
▁garage	-10.9869
▁colour	-10.9869
▁affection	-10.9869
▁peak	-10.9869
▁soak	-10.9869
▁temporary	-10.9869
▁nooo	-10.9869
▁hallway	-10.9869
▁councilman	-10.9869
nfold	-10.9869
▁factory	-10.9869
▁hym	-10.987
▁unpleasant	-10.987
▁operator	-10.987
▁canary	-10.987
▁spill	-10.987
▁entertainment	-10.987
▁expense	-10.987
▁paperwork	-10.9871
▁minorities	-10.9871
▁equation	-10.9872
▁quo	-10.9872
▁label	-10.9872
▁torment	-10.9872
▁verse	-10.9872
▁tux	-10.9873
▁boil	-10.9873
▁sober	-10.9873
▁batch	-10.9873
▁shun	-10.9874
▁notion	-10.9874
▁golly	-10.9874
▁scheme	-10.9874
eebie	-10.9874
▁toll	-10.9874
▁fuss	-10.9874
wise	-10.9874
▁fence	-10.9874
▁budget	-10.9875
▁soap	-10.9875
▁educated	-10.9875
▁tide	-10.9876
▁asset	-10.9876
▁burst	-10.9877
▁basis	-10.9877
▁gator	-10.9877
▁related	-10.9877
▁lucia	-10.9877
▁household	-10.9877
▁ceremony	-10.9878
▁flaky	-10.9878
▁stem	-10.9878
▁uncon	-10.9878
▁strawberry	-10.9879
▁bolder	-10.9879
▁bleed	-10.9879
▁acceptance	-10.988
▁devoted	-10.988
▁qualified	-10.988
▁clarinetist	-10.988
▁robes	-10.988
▁lasse	-10.9881
▁masterson	-10.9881
▁publication	-10.9881
▁dull	-10.9882
pilla	-10.9882
▁vary	-10.9882
▁elite	-10.9883
▁gord	-10.9883
▁stepped	-10.9883
▁hind	-10.9883
▁semi	-10.9883
▁supporters	-10.9883
▁abv	-10.9883
▁glue	-10.9883
▁num	-10.9884
▁hustler	-10.9884
dog	-10.9884
▁desperately	-10.9885
▁recently	-10.9885
race	-10.9885
▁loan	-10.9885
▁ranger	-10.9885
▁soda	-10.9886
▁slinky	-10.9887
rug	-10.9887
▁paleograph	-10.9887
▁luckily	-10.9887
▁eric	-10.9887
▁handcuff	-10.9888
▁colon	-10.9888
▁peep	-10.9888
▁aaaah	-10.9889
▁wholl	-10.9889
▁ranch	-10.989
▁mes	-10.989
▁hija	-10.989
▁bellies	-10.989
▁purged	-10.989
▁enchanted	-10.9891
▁offended	-10.9891
▁writers	-10.9891
▁everyday	-10.9891
▁agh	-10.9892
▁whim	-10.9892
▁entrance	-10.9893
▁growth	-10.9894
▁sunup	-10.9895
rupt	-10.9895
▁glimpse	-10.9896
▁boost	-10.9897
▁filed	-10.9897
▁probe	-10.9897
▁nb	-10.9898
▁architectur	-10.9898
▁perk	-10.9899
▁aid	-10.9899
▁combined	-10.9901
▁gig	-10.9901
▁sweater	-10.9901
▁vile	-10.9903
▁bush	-10.9906
▁powerless	-10.9906
▁cul	-10.9908
▁pla	-10.9909
▁heroic	-10.991
▁carter	-10.991
▁whyd	-10.9911
▁betty	-10.9912
▁canal	-10.9912
ensure	-10.9913
▁described	-10.9914
▁screeches	-10.9915
ttle	-10.9915
▁managed	-10.9916
▁greed	-10.9916
▁jc	-10.9917
▁toughest	-10.9918
▁clattering	-10.9919
eerie	-10.9919
▁gigantical	-10.9919
ife	-10.9921
▁brew	-10.9921
▁groomer	-10.9922
stone	-10.9922
▁mold	-10.9922
owed	-10.9922
▁bitter	-10.9923
▁mob	-10.9923
▁spin	-10.9924
▁procession	-10.9925
▁raf	-10.9926
▁jackie	-10.9927
▁qu	-10.9927
▁brom	-10.9929
▁accessor	-10.9929
▁moan	-10.9931
▁bel	-10.9932
▁limo	-10.9934
▁eve	-10.9935
▁grin	-10.9935
▁forty	-10.9935
▁hom	-10.9937
▁discussion	-10.9937
▁vic	-10.9938
ont	-10.9938
▁angela	-10.9939
▁whooshing	-10.994
▁dresses	-10.9944
▁nasa	-10.9945
▁backfield	-10.9945
▁sway	-10.9948
▁tailor	-10.9948
ility	-10.9949
▁cable	-10.9949
▁questionable	-10.9949
▁hitch	-10.9949
▁ohhh	-10.9954
▁ache	-10.9955
ainty	-10.9959
▁condo	-10.9962
thic	-10.9964
▁kisses	-10.9968
▁unre	-10.9969
▁pry	-10.9971
▁separated	-10.9973
▁sop	-10.9977
▁bugg	-10.9978
▁rah	-10.998
icated	-10.9982
▁hired	-10.9984
▁surfing	-10.9984
▁dent	-10.9984
▁represented	-10.9985
▁murderer	-10.9987
▁distinct	-10.9991
▁dropping	-10.9991
▁flop	-10.9996
▁limited	-10.9998
▁iit	-11.0002
▁coolest	-11.0004
▁dialing	-11.0006
▁ticking	-11.0007
▁dominate	-11.0008
conceiv	-11.0009
▁successfully	-11.0009
▁overlook	-11.0009
dde	-11.0014
▁luc	-11.0015
▁appeared	-11.0016
▁founders	-11.0018
tense	-11.0018
hist	-11.0023
▁loop	-11.003
▁fu	-11.0034
▁reverse	-11.0035
▁mill	-11.0038
▁quin	-11.0042
▁kindness	-11.0043
▁pudd	-11.0044
▁correctly	-11.0045
▁beaten	-11.0046
▁jud	-11.0048
hopper	-11.005
▁nervously	-11.0058
▁forced	-11.0062
▁flowed	-11.0066
▁stupidly	-11.0066
▁smarter	-11.0068
limpses	-11.007
▁washing	-11.007
▁disturbing	-11.0071
lux	-11.0071
▁cod	-11.008
▁whine	-11.0083
▁performed	-11.0084
▁tightly	-11.0091
ii	-11.0099
▁confirmed	-11.0099
▁failed	-11.01
▁belly	-11.01
▁seal	-11.0111
▁booing	-11.0113
▁yah	-11.0119
▁sailor	-11.0122
▁peel	-11.0123
▁drown	-11.0126
▁diving	-11.0129
▁freaking	-11.0136
▁wasted	-11.0137
▁hunter	-11.0138
▁worthy	-11.0138
▁filling	-11.014
▁rebelli	-11.0144
▁mose	-11.0146
erfe	-11.0152
▁ruined	-11.0153
atl	-11.0154
▁reminded	-11.0154
▁difficulty	-11.0155
zar	-11.0186
hines	-11.0204
ivation	-11.0205
nix	-11.0207
▁exam	-11.0216
▁squared	-11.0217
rest	-11.0227
▁kan	-11.0245
star	-11.0253
▁yee	-11.026
▁wage	-11.0265
dine	-11.0269
▁humbl	-11.0282
▁miler	-11.0291
▁bois	-11.0334
brook	-11.0335
▁extract	-11.0344
dinari	-11.0374
▁polit	-11.0427
taker	-11.0432
▁dea	-11.0444
oses	-11.046
▁worshippe	-11.0561
long	-11.0562
▁ku	-11.0585
minary	-11.0601
iana	-11.0772
▁ali	-11.078
▁ado	-11.0785
▁robin	-11.0853
▁spl	-11.0858
▁timeout	-11.0877
cup	-11.0879
ana	-11.0886
ough	-11.0895
▁remov	-11.0902
▁hull	-11.0935
▁anni	-11.0951
parable	-11.0954
▁blu	-11.0955
lent	-11.0966
▁legi	-11.0968
▁tribu	-11.0977
antic	-11.0996
▁wit	-11.1016
▁pronounc	-11.1019
▁nazi	-11.1031
▁myth	-11.1034
▁ami	-11.1124
oom	-11.1199
hmm	-11.121
▁stare	-11.1271
pit	-11.1338
uity	-11.1344
▁unit	-11.1345
posi	-11.1355
▁barne	-11.1394
▁graduat	-11.1453
▁err	-11.1456
▁volcan	-11.1499
▁pursue	-11.1524
▁specializ	-11.156
▁gre	-11.1606
rank	-11.1608
ounciest	-11.1622
och	-11.1659
▁inte	-11.1704
▁earlie	-11.1754
▁communicat	-11.1794
▁cob	-11.1797
▁hike	-11.1801
ong	-11.1818
▁badge	-11.1847
orious	-11.191
▁content	-11.1969
▁adam	-11.1997
inson	-11.2032
representation	-11.2037
uv	-11.2057
hard	-11.2113
truck	-11.2142
get	-11.2156
▁flu	-11.2169
▁smo	-11.219
ipper	-11.2247
▁impr	-11.2267
aboo	-11.2301
▁inde	-11.2342
▁poo	-11.2355
pur	-11.2377
awk	-11.2377
mulate	-11.238
inary	-11.2396
▁operat	-11.246
wis	-11.2478
lco	-11.2538
▁tyr	-11.2552
ridge	-11.2647
izing	-11.2661
cca	-11.268
tag	-11.2696
▁alma	-11.2705
ggy	-11.271
▁wag	-11.2718
igan	-11.2738
formed	-11.2775
ization	-11.2798
▁sigh	-11.2802
▁appro	-11.2828
aaah	-11.2843
bell	-11.286
▁drain	-11.2887
▁bubble	-11.2892
▁instrument	-11.2892
▁candle	-11.2896
▁file	-11.2898
▁adult	-11.2898
▁yawn	-11.2899
▁citizen	-11.2902
▁supplie	-11.2904
▁nerve	-11.2906
▁argo	-11.2906
▁athlete	-11.2909
apo	-11.2911
▁discus	-11.2914
▁correction	-11.2937
aaaah	-11.2946
omin	-11.2956
▁what	-11.2961
omet	-11.2982
logy	-11.2992
▁notif	-11.3016
▁prefer	-11.3026
ware	-11.3032
▁conce	-11.3034
ella	-11.3041
ducing	-11.3044
▁tamp	-11.3049
▁invit	-11.3074
▁surviv	-11.3075
▁tearin	-11.3081
cephal	-11.309
▁eva	-11.3097
bearing	-11.3097
renade	-11.3098
▁whin	-11.3099
onia	-11.3102
even	-11.311
▁assum	-11.3116
▁forge	-11.3121
▁clatter	-11.3122
▁suppos	-11.3125
▁phenomen	-11.3125
▁trickortreat	-11.3126
▁vin	-11.3133
▁roar	-11.3137
▁oppos	-11.3139
▁pul	-11.3145
opher	-11.3146
owned	-11.3153
▁cultur	-11.3159
▁untie	-11.316
▁advise	-11.3162
▁apost	-11.3163
▁determine	-11.3164
▁athlet	-11.3164
▁purge	-11.3164
▁involve	-11.3165
▁destin	-11.3167
folk	-11.3169
fathers	-11.3169
▁desperate	-11.3169
▁recent	-11.3169
▁slink	-11.317
front	-11.317
power	-11.317
stream	-11.3171
mighty	-11.3171
▁hurr	-11.3171
smith	-11.3171
piece	-11.3171
filled	-11.3171
normal	-11.3172
record	-11.3172
box	-11.3172
class	-11.3172
found	-11.3172
loved	-11.3172
people	-11.3172
school	-11.3172
morning	-11.3172
drop	-11.3173
two	-11.3173
boy	-11.3173
thats	-11.3173
play	-11.3174
six	-11.3175
▁garde	-11.3176
worth	-11.3177
▁sauce	-11.3179
huh	-11.3179
think	-11.3179
book	-11.318
frank	-11.318
▁walt	-11.318
shell	-11.3181
maker	-11.3181
heard	-11.3182
lift	-11.3184
▁budge	-11.3185
saw	-11.3186
▁abort	-11.3188
▁bold	-11.3189
▁reform	-11.3191
▁darlin	-11.3192
▁movin	-11.3193
ountain	-11.3193
▁michel	-11.3193
▁recommend	-11.3194
▁dictat	-11.3194
▁suspend	-11.3194
scription	-11.3194
▁outrage	-11.3194
orrow	-11.3194
math	-11.3194
▁helm	-11.3194
scribed	-11.3194
▁waterski	-11.3195
▁execut	-11.3195
▁compli	-11.3195
▁equip	-11.3195
▁makin	-11.3195
izzy	-11.3195
laude	-11.3196
manship	-11.3196
▁orphan	-11.3196
▁were	-11.3196
▁atta	-11.3197
cension	-11.3197
harmon	-11.3198
▁snicker	-11.3198
▁trespass	-11.3198
activity	-11.3198
australia	-11.3198
misunderstanding	-11.3198
nsylvania	-11.3198
relevant	-11.3198
rogatory	-11.3198
satisfact	-11.3198
sraeli	-11.3198
▁academy	-11.3198
▁accommodations	-11.3198
▁acrophobia	-11.3198
▁activate	-11.3198
▁activities	-11.3198
▁adventurous	-11.3198
▁affirmative	-11.3198
▁aframe	-11.3198
▁aggressive	-11.3198
▁allegiance	-11.3198
▁allergic	-11.3198
▁allergy	-11.3198
▁alternate	-11.3198
▁amulet	-11.3198
▁anglocatholic	-11.3198
▁anonymous	-11.3198
▁antichrist	-11.3198
▁anyplace	-11.3198
▁archaeolog	-11.3198
▁archbishop	-11.3198
▁asbestos	-11.3198
▁assault	-11.3198
▁association	-11.3198
▁autonom	-11.3198
▁babbling	-11.3198
▁balcony	-11.3198
▁berries	-11.3198
▁bismarck	-11.3198
▁bizarre	-11.3198
▁blanchard	-11.3198
▁blasphemy	-11.3198
▁botanical	-11.3198
▁briefcase	-11.3198
▁brooklyn	-11.3198
▁buddha	-11.3198
▁bullshit	-11.3198
▁bunny	-11.3198
▁cafeteria	-11.3198
▁calculat	-11.3198
▁capturing	-11.3198
▁carpenter	-11.3198
▁catalina	-11.3198
▁cautious	-11.3198
▁certificate	-11.3198
▁chandelier	-11.3198
▁channel	-11.3198
▁circular	-11.3198
▁clarabelle	-11.3198
▁clergy	-11.3198
▁cloak	-11.3198
▁commitment	-11.3198
▁complications	-11.3198
▁compulsion	-11.3198
▁conscience	-11.3198
▁consequence	-11.3198
▁conversion	-11.3198
▁criminal	-11.3198
▁crocodil	-11.3198
▁cruci	-11.3198
▁cucumber	-11.3198
▁curiosity	-11.3198
▁dammit	-11.3198
▁dapplewood	-11.3198
▁dawson	-11.3198
▁dddear	-11.3198
▁delaware	-11.3198
▁demonstrat	-11.3198
▁denounc	-11.3198
▁dessert	-11.3198
▁diabolical	-11.3198
▁dijanna	-11.3198
▁dioxid	-11.3198
▁discredit	-11.3198
▁disease	-11.3198
▁dismiss	-11.3198
▁disrespect	-11.3198
▁elaborate	-11.3198
▁elegant	-11.3198
▁eloquen	-11.3198
▁emphatic	-11.3198
▁emptiness	-11.3198
▁encycl	-11.3198
▁ethereal	-11.3198
▁exaggerated	-11.3198
▁expulsion	-11.3198
▁exquisite	-11.3198
▁exterior	-11.3198
▁extrasensory	-11.3198
▁eyebright	-11.3198
▁fantasy	-11.3198
▁fermentation	-11.3198
▁ferret	-11.3198
▁fraulien	-11.3198
▁frequently	-11.3198
▁fundamental	-11.3198
▁ghoul	-11.3198
▁gleam	-11.3198
▁gloomy	-11.3198
▁groovy	-11.3198
▁gutteridge	-11.3198
▁gypsies	-11.3198
▁hampton	-11.3198
▁harvard	-11.3198
▁heirloom	-11.3198
▁heleoplankton	-11.3198
▁hidalgo	-11.3198
▁hilarious	-11.3198
▁holloway	-11.3198
▁homestead	-11.3198
▁hybrid	-11.3198
▁hypo	-11.3198
▁hypocri	-11.3198
▁hypso	-11.3198
▁iconic	-11.3198
▁ideology	-11.3198
▁industry	-11.3198
▁inexperience	-11.3198
▁insurance	-11.3198
▁intimate	-11.3198
▁invention	-11.3198
▁italian	-11.3198
▁jamaica	-11.3198
▁jennings	-11.3198
▁jeopardiz	-11.3198
▁juvenile	-11.3198
▁knuckle	-11.3198
▁legwarmers	-11.3198
▁lenore	-11.3198
▁lieutenant	-11.3198
▁livestock	-11.3198
▁lumpy	-11.3198
▁magnificence	-11.3198
▁maintained	-11.3198
▁manufacture	-11.3198
▁marathon	-11.3198
▁mechanism	-11.3198
▁millicent	-11.3198
▁minnesota	-11.3198
▁miraculous	-11.3198
▁monstrous	-11.3198
▁mortgage	-11.3198
▁motives	-11.3198
▁moustache	-11.3198
▁munchausen	-11.3198
▁mysteries	-11.3198
▁nairobi	-11.3198
▁neglected	-11.3198
▁nenana	-11.3198
▁nigga	-11.3198
▁nowadays	-11.3198
▁obsolete	-11.3198
▁occupation	-11.3198
▁offensive	-11.3198
▁offlimits	-11.3198
▁olympus	-11.3198
▁oratory	-11.3198
▁ordained	-11.3198
▁ordinat	-11.3198
▁orient	-11.3198
▁ornery	-11.3198
▁overthrow	-11.3198
▁patterns	-11.3198
▁persuasion	-11.3198
▁philomela	-11.3198
▁pomerania	-11.3198
▁portrait	-11.3198
▁predecessor	-11.3198
▁prejudice	-11.3198
▁preservation	-11.3198
▁presume	-11.3198
▁principal	-11.3198
▁propagand	-11.3198
▁propagate	-11.3198
▁prophecy	-11.3198
▁pufferfish	-11.3198
▁radioactive	-11.3198
▁rakerat	-11.3198
▁rataxes	-11.3198
▁recollect	-11.3198
▁recruit	-11.3198
▁redeemer	-11.3198
▁relocat	-11.3198
▁reptile	-11.3198
▁resources	-11.3198
▁rheumatism	-11.3198
▁rhode	-11.3198
▁riccardo	-11.3198
▁rodrigo	-11.3198
▁rugged	-11.3198
▁rustl	-11.3198
▁sacrosanct	-11.3198
▁sagalevitch	-11.3198
▁scarecrow	-11.3198
▁scaredycat	-11.3198
▁scavenger	-11.3198
▁scroung	-11.3198
▁sequence	-11.3198
▁serpent	-11.3198
▁shangrilarge	-11.3198
▁shaved	-11.3198
▁shillings	-11.3198
▁shovel	-11.3198
▁sizzling	-11.3198
▁slowpoke	-11.3198
▁smear	-11.3198
▁snuggle	-11.3198
▁solicitor	-11.3198
▁sombrero	-11.3198
▁strategy	-11.3198
▁stylish	-11.3198
▁subversive	-11.3198
▁suffrage	-11.3198
▁superduper	-11.3198
▁supreme	-11.3198
▁terrain	-11.3198
▁territorial	-11.3198
▁thampy	-11.3198
▁theatre	-11.3198
▁titanic	-11.3198
▁tldoublegeher	-11.3198
▁tranquil	-11.3198
▁unexpected	-11.3198
▁uttama	-11.3198
▁vitamin	-11.3198
▁waldenses	-11.3198
▁welcoming	-11.3198
▁wheelbarrow	-11.3198
▁winifred	-11.3198
▁wyckoff	-11.3198
▁yokomoto	-11.3198
▁amelia	-11.3198
▁conspirac	-11.3198
▁controversi	-11.3198
▁diploma	-11.3198
▁examination	-11.3198
▁fuzz	-11.3198
▁improve	-11.3198
▁jersey	-11.3198
▁medusa	-11.3198
▁popcorn	-11.3198
▁sanctuar	-11.3198
▁sinister	-11.3198
▁unaware	-11.3198
trophy	-11.3198
▁bunker	-11.3198
▁chemist	-11.3198
▁cherone	-11.3198
▁chunky	-11.3198
▁crikey	-11.3198
▁decline	-11.3198
▁dellinger	-11.3198
▁detach	-11.3198
▁division	-11.3198
▁endeavo	-11.3198
▁formidable	-11.3198
▁frog	-11.3198
▁harpies	-11.3198
▁humph	-11.3198
▁hyuh	-11.3198
▁mischie	-11.3198
▁novel	-11.3198
▁stamina	-11.3198
▁yonder	-11.3198
▁agenda	-11.3198
▁ahahah	-11.3198
▁allseeing	-11.3198
▁arnie	-11.3198
▁blackmail	-11.3198
▁bosworth	-11.3198
▁clientele	-11.3198
▁contend	-11.3198
▁flattened	-11.3198
▁flippers	-11.3198
▁gesture	-11.3198
▁holland	-11.3198
▁humanoid	-11.3198
▁immense	-11.3198
▁kingfisher	-11.3198
▁lobo	-11.3198
▁meek	-11.3198
▁nightfall	-11.3198
▁recreat	-11.3198
▁regress	-11.3198
▁rodent	-11.3198
▁soothe	-11.3198
▁undermine	-11.3198
▁authorship	-11.3198
▁clobber	-11.3198
▁pertain	-11.3198
▁sulf	-11.3198
▁aaron	-11.3198
▁braid	-11.3198
▁carousel	-11.3198
▁daniel	-11.3198
▁diaper	-11.3198
▁noisy	-11.3198
▁shush	-11.3198
▁studies	-11.3198
▁margin	-11.3198
▁nolan	-11.3198
▁shaman	-11.3198
drick	-11.3198
mmering	-11.3198
rbon	-11.3198
▁inventor	-11.3198
▁mmmwh	-11.3198
▁recovering	-11.3198
▁relation	-11.3198
▁arab	-11.3198
▁balance	-11.3198
▁epic	-11.3198
▁gene	-11.3198
▁retir	-11.3198
▁robbed	-11.3198
▁senate	-11.3198
▁clav	-11.3198
▁faint	-11.3198
▁hazard	-11.3198
▁loneli	-11.3198
▁serape	-11.3198
▁naacp	-11.3198
▁settling	-11.3198
▁visual	-11.3198
▁aroused	-11.3198
▁cramp	-11.3198
▁linebacker	-11.3198
▁mobiliz	-11.3198
onai	-11.3198
▁barrier	-11.3198
▁padre	-11.3198
▁exhausting	-11.3198
▁harvest	-11.3198
▁noticing	-11.3198
▁roommate	-11.3198
▁altar	-11.3198
▁illustr	-11.3198
▁lenny	-11.3198
▁bolt	-11.3198
▁confine	-11.3198
▁minnie	-11.3198
▁possum	-11.3198
▁session	-11.3198
▁tumor	-11.3198
▁whatsoever	-11.3198
▁pulpit	-11.3198
▁drake	-11.3198
▁gulp	-11.3198
▁conscious	-11.3198
▁chanting	-11.3198
▁flush	-11.3198
▁sharing	-11.3198
▁fisherman	-11.3198
▁susan	-11.3198
▁microphone	-11.3198
▁fireballs	-11.3198
qualities	-11.3198
▁dart	-11.3198
▁humiliating	-11.3198
▁ryan	-11.3198
▁bliss	-11.3198
▁blond	-11.3198
▁extenuat	-11.3198
perw	-11.3198
▁feminine	-11.3198
▁piggy	-11.3198
▁emerge	-11.3198
▁misery	-11.3198
▁zeal	-11.3198
▁vamo	-11.3198
▁ilyn	-11.3198
▁archives	-11.3198
mile	-11.3198
▁cuddl	-11.3198
▁rash	-11.3198
▁celesteville	-11.3198
▁stripedy	-11.3198
▁merce	-11.3198
▁blowtorch	-11.3198
▁consent	-11.3198
▁weee	-11.3198
▁earn	-11.3198
▁olsen	-11.3198
▁ruffle	-11.3198
▁defy	-11.3198
▁yowl	-11.3198
▁dissolved	-11.3198
▁centerpiece	-11.3198
▁plaza	-11.3198
▁whatcha	-11.3198
▁stags	-11.3198
collins	-11.3198
▁shelves	-11.3198
▁vague	-11.3199
▁stash	-11.3199
▁unfold	-11.3199
▁onboard	-11.3199
▁backyard	-11.3199
▁cropping	-11.3199
▁nerd	-11.3199
▁distractible	-11.3199
▁nodd	-11.3199
▁chateau	-11.3199
affy	-11.3199
sync	-11.3199
erbil	-11.3199
▁hush	-11.3199
▁slipper	-11.3199
▁gripper	-11.3199
▁cancer	-11.3199
▁troubling	-11.3199
boom	-11.3199
▁axe	-11.3199
▁riftia	-11.3199
▁prowl	-11.3199
▁lumber	-11.3199
▁pinata	-11.3199
▁tiger	-11.3199
▁pacifi	-11.3199
▁survivors	-11.3199
▁rumble	-11.3199
▁rosebud	-11.3199
▁spinning	-11.3199
▁ramble	-11.3199
▁jaws	-11.3199
▁flour	-11.3199
▁disrupt	-11.3199
▁jackass	-11.3199
▁grinning	-11.32
▁plead	-11.32
▁chuck	-11.32
▁statesmanship	-11.32
▁hippo	-11.32
▁forging	-11.32
▁plow	-11.32
▁caroline	-11.32
▁despise	-11.32
▁plumber	-11.32
▁henchmen	-11.32
▁vibra	-11.32
▁shopping	-11.32
▁trio	-11.32
hall	-11.32
▁liking	-11.32
▁designated	-11.32
▁lowlife	-11.32
▁bigot	-11.32
racu	-11.32
▁mushroom	-11.32
▁executive	-11.32
▁rooster	-11.32
▁assign	-11.3201
▁pursuit	-11.3201
▁infection	-11.3201
▁griev	-11.3201
▁interven	-11.3201
▁argh	-11.3201
▁jeep	-11.3201
▁independent	-11.3201
▁astrobiologist	-11.3201
▁forehead	-11.3201
▁helmet	-11.3201
▁comedian	-11.3201
▁invitation	-11.3201
▁cavi	-11.3201
▁sinned	-11.3201
▁whatll	-11.3201
▁electro	-11.3201
▁xvi	-11.3201
▁batter	-11.3202
▁germ	-11.3202
▁rache	-11.3202
▁popping	-11.3202
▁righteous	-11.3202
▁iole	-11.3202
▁sizzle	-11.3202
▁range	-11.3202
acles	-11.3202
▁drank	-11.3202
▁properties	-11.3202
▁loung	-11.3202
▁negotiator	-11.3202
▁dislike	-11.3202
▁digging	-11.3202
slation	-11.3202
▁lori	-11.3202
▁opti	-11.3202
▁salary	-11.3203
▁handicap	-11.3203
▁parley	-11.3203
▁tickling	-11.3203
cision	-11.3203
▁feat	-11.3203
▁recite	-11.3203
▁continuous	-11.3203
▁courthouse	-11.3203
▁massage	-11.3203
▁management	-11.3203
▁strive	-11.3203
▁jess	-11.3203
▁descent	-11.3203
iastic	-11.3204
▁socialist	-11.3204
▁strum	-11.3204
iters	-11.3204
▁vocali	-11.3204
▁lodo	-11.3204
▁incoming	-11.3204
▁junction	-11.3204
▁stabilize	-11.3204
▁wildfire	-11.3204
▁korea	-11.3204
▁pupil	-11.3204
▁graham	-11.3205
▁statesmen	-11.3205
▁clinic	-11.3205
▁mosquitoes	-11.3205
▁vocation	-11.3205
▁brutality	-11.3205
▁assist	-11.3205
▁trance	-11.3205
▁accidentally	-11.3205
▁poachers	-11.3205
▁wei	-11.3205
▁purse	-11.3205
▁lyn	-11.3206
▁scri	-11.3206
plankton	-11.3206
▁pow	-11.3206
▁clove	-11.3206
▁waah	-11.3206
▁guidance	-11.3206
▁documentary	-11.3206
▁paranoid	-11.3207
▁harri	-11.3207
nference	-11.3207
▁santo	-11.3207
▁phar	-11.3207
▁waking	-11.3207
▁uncover	-11.3208
▁festiv	-11.3208
▁disappointment	-11.3208
▁secondrate	-11.3209
▁nico	-11.3209
▁sew	-11.3209
▁poet	-11.3209
▁defendant	-11.3209
▁awhile	-11.3209
▁sensitive	-11.3209
▁dependent	-11.321
▁coca	-11.321
▁whoooo	-11.321
▁objective	-11.321
▁suv	-11.3211
▁imply	-11.3211
▁subtle	-11.3211
▁assembl	-11.3212
▁cease	-11.3212
▁truthfully	-11.3212
▁inhabited	-11.3212
▁strategi	-11.3212
▁halfback	-11.3212
▁interruption	-11.3212
▁hatred	-11.3212
▁pinch	-11.3213
ingama	-11.3213
▁finnish	-11.3213
itating	-11.3213
▁lama	-11.3214
▁linger	-11.3214
▁tutor	-11.3214
▁loyalty	-11.3215
ulge	-11.3215
sumption	-11.3215
▁overwhelming	-11.3215
▁chairman	-11.3215
▁teasing	-11.3216
▁babe	-11.3216
▁cycle	-11.3216
▁fashion	-11.3216
▁identified	-11.3216
▁priceless	-11.3216
▁stow	-11.3216
▁giddy	-11.3216
▁barons	-11.3217
▁bobby	-11.3217
▁kip	-11.3217
epha	-11.3217
▁lire	-11.3217
▁rupe	-11.3217
▁swab	-11.3217
▁dora	-11.3217
▁classic	-11.3217
▁celebrity	-11.3217
▁doodley	-11.3217
▁thirsty	-11.3217
▁hospitality	-11.3217
▁publicity	-11.3217
▁chow	-11.3218
actic	-11.3218
▁rice	-11.3218
▁frontrunner	-11.3218
▁treatment	-11.3218
▁fever	-11.3218
▁discoveries	-11.3218
stess	-11.3219
▁belt	-11.3219
▁latte	-11.3219
▁fizzy	-11.3219
▁sanger	-11.322
▁commandant	-11.322
robbing	-11.322
▁lala	-11.3221
▁machinery	-11.3221
▁cuz	-11.3222
▁rally	-11.3222
▁takin	-11.3222
▁sputter	-11.3222
eeding	-11.3223
▁cameraman	-11.3223
▁shack	-11.3223
▁schoolhouse	-11.3224
▁demo	-11.3224
▁flee	-11.3225
strial	-11.3225
▁pom	-11.3225
▁barge	-11.3225
▁env	-11.3225
▁energiz	-11.3226
▁constitutional	-11.3226
▁brat	-11.3226
▁juan	-11.3227
▁consideration	-11.3227
pressurize	-11.3228
▁chapm	-11.3228
▁sirens	-11.3229
▁prosecution	-11.3229
▁jimm	-11.3229
▁hhe	-11.323
▁faithful	-11.323
▁dice	-11.323
▁civilis	-11.3231
▁seventh	-11.3232
▁raisin	-11.3232
▁secretar	-11.3233
▁neo	-11.3235
evious	-11.3235
▁bouncers	-11.3235
▁shocker	-11.3235
▁snob	-11.3236
▁untied	-11.3236
▁haunted	-11.3236
▁amp	-11.3236
▁mathematical	-11.3236
▁hometown	-11.3237
▁fry	-11.3238
▁headline	-11.3239
▁skull	-11.3239
▁permanently	-11.3239
joy	-11.324
▁flit	-11.324
nuck	-11.3241
▁digest	-11.3242
▁inevitabl	-11.3242
▁controlling	-11.3242
▁potatoes	-11.3243
▁flown	-11.3243
▁blip	-11.3244
illian	-11.3244
▁nee	-11.3246
▁production	-11.3249
▁carol	-11.3249
verted	-11.325
▁achieved	-11.3251
▁fee	-11.3251
▁unlikely	-11.3251
▁struggled	-11.3252
▁extend	-11.3253
▁ticker	-11.3253
▁rega	-11.3253
▁sill	-11.3254
▁doze	-11.3254
▁duh	-11.3257
▁vii	-11.3258
▁inspire	-11.3259
▁luke	-11.3261
▁drawn	-11.3263
▁humanity	-11.3263
gency	-11.3263
ulu	-11.3264
▁ronaldo	-11.3264
▁pickup	-11.3264
▁vain	-11.3265
▁endure	-11.3266
▁investigated	-11.3266
▁skit	-11.3266
▁grabb	-11.3267
rotte	-11.3268
▁math	-11.327
▁sinkin	-11.327
vous	-11.3273
▁judg	-11.3274
ollis	-11.3274
▁reference	-11.3275
▁heresies	-11.3276
▁commy	-11.3276
▁preva	-11.3276
▁sur	-11.3276
gling	-11.3277
vat	-11.3277
▁conditioner	-11.3279
▁setup	-11.3279
▁league	-11.328
▁esca	-11.3281
▁will	-11.3283
cant	-11.3283
▁manipulated	-11.3286
eresa	-11.3287
▁uppi	-11.3293
▁jean	-11.3293
▁advocate	-11.3294
azy	-11.3295
▁kay	-11.3296
▁trooper	-11.3297
lement	-11.3298
▁bail	-11.33
▁rear	-11.3306
▁hog	-11.3307
▁idol	-11.3309
▁coaches	-11.3309
▁hous	-11.331
▁winch	-11.3315
▁ew	-11.3315
▁span	-11.3319
tour	-11.332
▁bellow	-11.3323
▁essen	-11.3328
▁junkie	-11.333
▁leak	-11.334
▁preacher	-11.334
▁geolog	-11.3341
code	-11.3343
▁of	-11.3345
▁postp	-11.3346
▁adore	-11.3348
▁shhh	-11.335
▁chin	-11.3359
▁hallow	-11.3365
rita	-11.3372
axi	-11.3377
▁edit	-11.338
▁sol	-11.3381
▁superhe	-11.3389
▁dut	-11.3396
▁publisher	-11.3406
jan	-11.343
▁drag	-11.3447
▁plott	-11.3454
▁microb	-11.3463
spotted	-11.3469
fuse	-11.3474
▁receiver	-11.3493
nova	-11.353
▁rube	-11.3538
▁prospecti	-11.3547
▁aug	-11.3575
▁pinn	-11.3579
ussie	-11.3602
ndable	-11.3616
▁cancell	-11.3642
▁plume	-11.3642
▁lure	-11.3643
▁thith	-11.3646
born	-11.3653
load	-11.3681
▁civiliz	-11.3714
▁martini	-11.3729
▁injur	-11.3827
ocks	-11.3833
true	-11.3846
▁inclusi	-11.3897
▁pun	-11.3911
▁magnifi	-11.3958
lette	-11.3977
lity	-11.3994
▁deli	-11.4038
devil	-11.4047
▁ame	-11.4059
▁hedge	-11.4185
▁birdie	-11.4188
▁receiv	-11.4206
▁nin	-11.4234
▁sli	-11.425
lipp	-11.4261
▁erase	-11.4297
affir	-11.4362
▁statu	-11.4364
▁prom	-11.4398
▁aren	-11.4421
▁desp	-11.4521
lead	-11.4555
▁pu	-11.4561
tentious	-11.4596
mmm	-11.4762
rmed	-11.4826
onies	-11.489
▁spr	-11.4912
hoohoo	-11.5014
▁cong	-11.5035
▁guid	-11.5061
▁mole	-11.5077
▁crosswor	-11.5092
▁tee	-11.5101
▁respir	-11.5139
olic	-11.5163
▁pursu	-11.5201
trapping	-11.5225
▁petit	-11.5231
▁volcanic	-11.524
von	-11.5262
polo	-11.5394
alleys	-11.5533
rivi	-11.5602
odys	-11.575
vast	-11.5858
protective	-11.5993
▁neuro	-11.6136
llaba	-11.6162
▁organiz	-11.6228
allel	-11.6289
ignified	-11.6355
sandal	-11.6402
▁damag	-11.6427
odor	-11.65
▁affi	-11.6542
ville	-11.6678
▁issu	-11.675
oose	-11.6767
ipping	-11.6793
pernic	-11.6947
errier	-11.7169
barb	-11.7208
writer	-11.7287
▁simpl	-11.7365
▁creat	-11.7414
▁orthodo	-11.7561
hangin	-11.76
skirts	-11.7603
ndle	-11.7646
arza	-11.7697
▁result	-11.7829
▁groan	-11.7841
▁unbeliev	-11.7856
▁neighbor	-11.7895
▁mussel	-11.7898
▁heretic	-11.7901
▁element	-11.7905
▁sardine	-11.7911
▁click	-11.7911
linch	-11.7924
▁rud	-11.793
keeper	-11.794
phon	-11.7965
▁inspir	-11.7982
minated	-11.7988
▁defens	-11.8022
▁hodg	-11.8026
tender	-11.8027
▁sacrific	-11.8034
▁advocat	-11.8043
▁believ	-11.805
▁petti	-11.8069
▁gigantic	-11.8074
giving	-11.8078
parent	-11.8088
crews	-11.809
changing	-11.8099
▁translat	-11.8104
▁promis	-11.8106
worldly	-11.8111
bag	-11.8113
usher	-11.8114
vinist	-11.8114
▁arriv	-11.8114
night	-11.812
▁declar	-11.8122
repre	-11.8123
friends	-11.8124
▁stammer	-11.8126
mpler	-11.8126
▁murmur	-11.8131
cakes	-11.8136
ouncy	-11.8136
▁enchant	-11.8138
▁offend	-11.8138
▁select	-11.8142
▁haunt	-11.8142
with	-11.8143
graceful	-11.8144
▁committ	-11.8145
ographer	-11.8147
dressed	-11.8147
▁neutral	-11.8151
secutions	-11.8155
▁devote	-11.8162
▁qualifie	-11.8162
▁gidd	-11.8165
arines	-11.8165
▁celebrit	-11.8166
▁doodle	-11.8166
▁fizz	-11.8166
▁wea	-11.8166
▁thirst	-11.8166
view	-11.8167
▁strawberr	-11.8167
▁ceremon	-11.8167
build	-11.8167
fashion	-11.8168
identified	-11.8168
cycle	-11.8168
juan	-11.8168
▁flak	-11.8168
paper	-11.8168
▁ugl	-11.8169
▁technolog	-11.8169
solved	-11.817
▁extraordinar	-11.817
phrase	-11.817
penny	-11.817
▁guilt	-11.817
worm	-11.817
nik	-11.8171
presence	-11.8171
quarter	-11.8171
standing	-11.8171
▁enforc	-11.8171
understood	-11.8171
squeak	-11.8171
wire	-11.8172
grown	-11.8172
responsible	-11.8172
grateful	-11.8172
legal	-11.8172
killer	-11.8172
grade	-11.8172
distance	-11.8172
bomb	-11.8172
▁spunk	-11.8172
catholic	-11.8172
teacher	-11.8172
charge	-11.8172
historic	-11.8172
sometimes	-11.8172
brother	-11.8172
point	-11.8172
boat	-11.8172
business	-11.8172
foot	-11.8172
plane	-11.8172
hound	-11.8172
minute	-11.8172
track	-11.8172
course	-11.8173
james	-11.8173
horse	-11.8173
food	-11.8173
speaking	-11.8173
▁summ	-11.8173
knowing	-11.8173
finish	-11.8173
stick	-11.8174
general	-11.8174
lord	-11.8175
semble	-11.8175
▁ceas	-11.8175
▁compute	-11.8175
style	-11.8175
▁schem	-11.8176
base	-11.8176
related	-11.8177
▁brib	-11.8177
road	-11.8178
▁pond	-11.8179
▁renovat	-11.8179
▁whoopdedoop	-11.8179
▁justifi	-11.8179
▁troub	-11.8179
▁equat	-11.8181
▁disast	-11.8181
chair	-11.8182
▁authorit	-11.8182
media	-11.8183
lthy	-11.8185
▁gato	-11.8185
ggin	-11.8186
▁mosquito	-11.8186
▁affect	-11.8187
▁exhal	-11.8188
▁negotiat	-11.8189
▁ancest	-11.819
▁significan	-11.819
peter	-11.819
wort	-11.8191
▁olympi	-11.8191
▁atti	-11.8191
cribe	-11.8192
▁homophobi	-11.8192
▁potentia	-11.8192
▁celebratin	-11.8192
▁cooperat	-11.8192
▁leavin	-11.8193
▁econom	-11.8193
▁congre	-11.8193
graph	-11.8193
▁constitut	-11.8193
▁assert	-11.8193
▁commiss	-11.8194
ccent	-11.8194
▁sittin	-11.8194
udge	-11.8194
▁runnin	-11.8194
▁marvel	-11.8194
hili	-11.8194
▁attenti	-11.8195
▁infect	-11.8195
▁refresh	-11.8195
▁inqui	-11.8195
▁opportun	-11.8195
▁bough	-11.8195
ports	-11.8195
▁august	-11.8195
▁acceler	-11.8195
▁puttin	-11.8196
▁eviden	-11.8196
▁dread	-11.8196
rrection	-11.8196
ateau	-11.8196
tastic	-11.8196
▁procla	-11.8196
▁favour	-11.8197
▁sculpt	-11.8197
racle	-11.8197
▁oba	-11.8197
huckle	-11.8197
▁padd	-11.8197
▁terror	-11.8197
▁humiliati	-11.8197
opolitan	-11.8197
azon	-11.8197
▁contemp	-11.8197
happies	-11.8197
▁succ	-11.8197
lague	-11.8197
▁disobe	-11.8197
▁candida	-11.8198
▁furni	-11.8198
anci	-11.8198
rggg	-11.8198
▁buddhis	-11.8198
▁oxid	-11.8198
▁pessimistic	-11.8198
▁pilgrim	-11.8198
▁psychiatr	-11.8198
▁uncertain	-11.8198
adequa	-11.8198
awbreaker	-11.8198
excellency	-11.8198
hibition	-11.8198
ohhohhoh	-11.8198
scending	-11.8198
▁abracadabra	-11.8198
▁abundant	-11.8198
▁adaptation	-11.8198
▁admission	-11.8198
▁advisory	-11.8198
▁affre	-11.8198
▁afloat	-11.8198
▁aggression	-11.8198
▁alejandro	-11.8198
▁ambassador	-11.8198
▁ambush	-11.8198
▁anticipat	-11.8198
▁antlers	-11.8198
▁anxiety	-11.8198
▁anxious	-11.8198
▁application	-11.8198
▁applies	-11.8198
▁arrowhead	-11.8198
▁ascot	-11.8198
▁ashtray	-11.8198
▁aspirin	-11.8198
▁associate	-11.8198
▁astronaut	-11.8198
▁attribute	-11.8198
▁autobiography	-11.8198
▁automobile	-11.8198
▁avalanche	-11.8198
▁bachelor	-11.8198
▁barbershop	-11.8198
▁bbbbut	-11.8198
▁bejesus	-11.8198
▁bewitching	-11.8198
▁blizzard	-11.8198
▁blotch	-11.8198
▁bludgeon	-11.8198
▁blueberries	-11.8198
▁boasts	-11.8198
▁boulevard	-11.8198
▁boychick	-11.8198
▁buckingham	-11.8198
▁butbut	-11.8198
▁bypass	-11.8198
▁cappuccino	-11.8198
▁caribou	-11.8198
▁cerebr	-11.8198
▁chaparral	-11.8198
▁chemosynthesis	-11.8198
▁chererat	-11.8198
▁coconspirator	-11.8198
▁comparison	-11.8198
▁compassion	-11.8198
▁compelled	-11.8198
▁compensation	-11.8198
▁compound	-11.8198
▁comprehend	-11.8198
▁comprende	-11.8198
▁condolences	-11.8198
▁confederacy	-11.8198
▁conform	-11.8198
▁congratulating	-11.8198
▁consequently	-11.8198
▁conserve	-11.8198
▁context	-11.8198
▁continent	-11.8198
▁contradict	-11.8198
▁corresponde	-11.8198
▁counterweight	-11.8198
▁cowgirl	-11.8198
▁craig	-11.8198
▁culprit	-11.8198
▁custody	-11.8198
▁cylinder	-11.8198
▁debacle	-11.8198
▁deceptive	-11.8198
▁decisive	-11.8198
▁deplorable	-11.8198
▁destructive	-11.8198
▁dilemma	-11.8198
▁diminish	-11.8198
▁diphtheria	-11.8198
▁disassemble	-11.8198
▁disciples	-11.8198
▁discriminat	-11.8198
▁disorganiz	-11.8198
▁distorted	-11.8198
▁doodledoo	-11.8198
▁doughnut	-11.8198
▁dungeon	-11.8198
▁dwarf	-11.8198
▁edwina	-11.8198
▁efficient	-11.8198
▁enchilada	-11.8198
▁enthusiastic	-11.8198
▁entitled	-11.8198
▁epicenter	-11.8198
▁epitaph	-11.8198
▁epitome	-11.8198
▁equable	-11.8198
▁euphemus	-11.8198
▁euphori	-11.8198
▁extremophiles	-11.8198
▁facsimile	-11.8198
▁fascinate	-11.8198
▁festivities	-11.8198
▁figgers	-11.8198
▁flank	-11.8198
▁flearidden	-11.8198
▁forbids	-11.8198
▁foresakes	-11.8198
▁fragile	-11.8198
▁frederick	-11.8198
▁frenzy	-11.8198
▁frequency	-11.8198
▁furthermore	-11.8198
▁gadget	-11.8198
▁generosity	-11.8198
▁gentile	-11.8198
▁glitter	-11.8198
▁goalonger	-11.8198
▁goodfornothing	-11.8198
▁grandchildren	-11.8198
▁guacamole	-11.8198
▁guiseppe	-11.8198
▁halfbreed	-11.8198
▁halfdozen	-11.8198
▁hallucinat	-11.8198
▁handkerchief	-11.8198
▁handwriting	-11.8198
▁hawaii	-11.8198
▁healthcare	-11.8198
▁hearteater	-11.8198
▁humiliate	-11.8198
▁hydraulic	-11.8198
▁hydrophyte	-11.8198
▁hygiene	-11.8198
▁hymeneal	-11.8198
▁idiosyncrasy	-11.8198
▁immoral	-11.8198
▁immortal	-11.8198
▁immune	-11.8198
▁imperative	-11.8198
▁implication	-11.8198
▁inauguration	-11.8198
▁incompetent	-11.8198
▁inconvenient	-11.8198
▁indignant	-11.8198
▁infallible	-11.8198
▁ingenious	-11.8198
▁innocence	-11.8198
▁install	-11.8198
▁integrate	-11.8198
▁integrity	-11.8198
▁intricate	-11.8198
▁invoke	-11.8198
▁irrational	-11.8198
▁irresistible	-11.8198
▁isidore	-11.8198
▁jahhuahua	-11.8198
▁janeiro	-11.8198
▁javelin	-11.8198
▁jeopardy	-11.8198
▁jethro	-11.8198
▁jockey	-11.8198
▁johann	-11.8198
▁khorosho	-11.8198
▁kiteflyer	-11.8198
▁kulkan	-11.8198
▁latooah	-11.8198
▁laudation	-11.8198
▁liverpool	-11.8198
▁lorath	-11.8198
▁lordsadler	-11.8198
▁lucifer	-11.8198
▁luggage	-11.8198
▁mariachis	-11.8198
▁mattock	-11.8198
▁maturity	-11.8198
▁mcarthur	-11.8198
▁meeeee	-11.8198
▁megawatts	-11.8198
▁memorize	-11.8198
▁merlot	-11.8198
▁miami	-11.8198
▁millennium	-11.8198
▁mitzvah	-11.8198
▁monchius	-11.8198
▁montreal	-11.8198
▁moorepark	-11.8198
▁mortimer	-11.8198
▁motorcycle	-11.8198
▁motorway	-11.8198
▁nassau	-11.8198
▁navarro	-11.8198
▁nehru	-11.8198
▁neptune	-11.8198
▁nervewracking	-11.8198
▁netherworld	-11.8198
▁nicotine	-11.8198
▁nightclubs	-11.8198
▁nogood	-11.8198
▁norpoth	-11.8198
▁northeast	-11.8198
▁nugget	-11.8198
▁oblivio	-11.8198
▁obtained	-11.8198
▁occupied	-11.8198
▁oligarchy	-11.8198
▁ooooh	-11.8198
▁oppressed	-11.8198
▁opsimath	-11.8198
▁ordinance	-11.8198
▁orisha	-11.8198
▁outnumber	-11.8198
▁paleontologist	-11.8198
▁parlour	-11.8198
▁pasadena	-11.8198
▁patriot	-11.8198
▁peddler	-11.8198
▁penthouse	-11.8198
▁perpetuate	-11.8198
▁perspective	-11.8198
▁phalerus	-11.8198
▁plessitora	-11.8198
▁plinkityplink	-11.8198
▁plunge	-11.8198
▁polydeuces	-11.8198
▁practise	-11.8198
▁prestochango	-11.8198
▁prosperity	-11.8198
▁protocol	-11.8198
▁provisions	-11.8198
▁quarrel	-11.8198
▁receipts	-11.8198
▁reckles	-11.8198
▁recognis	-11.8198
▁redemption	-11.8198
▁reelected	-11.8198
▁referee	-11.8198
▁regulat	-11.8198
▁reinforcements	-11.8198
▁relapse	-11.8198
▁relentless	-11.8198
▁reluctan	-11.8198
▁rensselaer	-11.8198
▁reprocess	-11.8198
▁retreat	-11.8198
▁revelation	-11.8198
▁revenue	-11.8198
▁rhyme	-11.8198
▁ricky	-11.8198
▁rimicaris	-11.8198
▁risotto	-11.8198
▁roadblock	-11.8198
▁rsvp	-11.8198
▁ruffians	-11.8198
▁safari	-11.8198
▁salvador	-11.8198
▁sarcastically	-11.8198
▁saturated	-11.8198
▁savvy	-11.8198
▁scoundrel	-11.8198
▁selfdestruction	-11.8198
▁selfgoverning	-11.8198
▁sharecrop	-11.8198
▁shiloh	-11.8198
▁shintoism	-11.8198
▁skeptic	-11.8198
▁slaslow	-11.8198
▁slaughter	-11.8198
▁slumber	-11.8198
▁somewhat	-11.8198
▁sorcer	-11.8198
▁southampton	-11.8198
▁steam	-11.8198
▁straddlers	-11.8198
▁strenuous	-11.8198
▁stubbins	-11.8198
▁subconsciously	-11.8198
▁subjugat	-11.8198
▁subsequent	-11.8198
▁substitute	-11.8198
▁sufficient	-11.8198
▁superintendent	-11.8198
▁supple	-11.8198
▁suspicion	-11.8198
▁sympathy	-11.8198
▁syndrome	-11.8198
▁tarnation	-11.8198
▁technique	-11.8198
▁telegram	-11.8198
▁terrene	-11.8198
▁terrified	-11.8198
▁thingamabob	-11.8198
▁thingamajig	-11.8198
▁thompson	-11.8198
▁throttle	-11.8198
▁ththththth	-11.8198
▁toddler	-11.8198
▁tonght	-11.8198
▁toodles	-11.8198
▁toucan	-11.8198
▁transferred	-11.8198
▁treachery	-11.8198
▁trembling	-11.8198
▁trinket	-11.8198
▁trixie	-11.8198
▁turbinado	-11.8198
▁turretin	-11.8198
▁ultimatum	-11.8198
▁ultraviolet	-11.8198
▁umbrella	-11.8198
▁underworld	-11.8198
▁unforgettable	-11.8198
▁unkstadder	-11.8198
▁unlawful	-11.8198
▁uranus	-11.8198
▁urchin	-11.8198
▁utilize	-11.8198
▁vegas	-11.8198
▁veloci	-11.8198
▁velvet	-11.8198
▁visibility	-11.8198
▁voltaire	-11.8198
▁voluntar	-11.8198
▁vulgar	-11.8198
▁waffle	-11.8198
▁walnuts	-11.8198
▁wardrobe	-11.8198
▁westminster	-11.8198
▁wiggly	-11.8198
▁withstand	-11.8198
▁woodchuck	-11.8198
▁wyoming	-11.8198
▁zombies	-11.8198
rrrrrrr	-11.8198
terdam	-11.8198
▁clothing	-11.8198
▁commodore	-11.8198
▁compress	-11.8198
▁goldarned	-11.8198
▁janitor	-11.8198
▁kendall	-11.8198
▁messenger	-11.8198
▁ounce	-11.8198
▁saturn	-11.8198
▁saxon	-11.8198
▁stumble	-11.8198
▁whawhat	-11.8198
q	-13.2588
