<unk>	0
<s>	0
</s>	0
s	-3.2976
▁im	-4.65876
▁dont	-4.70519
▁know	-4.73615
▁get	-4.89855
▁oh	-4.95837
▁go	-4.96386
▁well	-4.97325
▁like	-4.99062
▁come	-5.05088
ing	-5.07891
▁right	-5.08062
▁one	-5.18112
ed	-5.21486
▁youre	-5.22027
▁got	-5.24934
▁thats	-5.32271
▁see	-5.3418
▁good	-5.37488
▁yeah	-5.39305
▁want	-5.45989
d	-5.46279
▁think	-5.46297
▁yes	-5.55134
▁na	-5.55777
▁back	-5.63675
▁time	-5.64833
▁look	-5.6809
▁us	-5.69082
▁ill	-5.69669
▁going	-5.69905
▁okay	-5.71198
▁take	-5.73006
▁man	-5.76597
y	-5.77575
▁hey	-5.81451
▁cant	-5.83587
▁gon	-5.84324
▁would	-5.86435
▁hes	-5.86465
er	-5.90061
▁say	-5.93034
▁way	-5.93868
▁tell	-5.94812
▁little	-5.96188
▁could	-5.99424
▁really	-5.99868
▁never	-6.02426
▁make	-6.0274
▁l	-6.05475
▁love	-6.06566
▁something	-6.12024
▁need	-6.12794
▁let	-6.13599
▁lets	-6.1417
▁	-6.16785
e	-6.17932
▁mean	-6.18788
▁whats	-6.18916
▁didnt	-6.20035
in	-6.2074
▁thank	-6.21485
▁give	-6.21851
▁ive	-6.24691
ly	-6.26829
▁theres	-6.2767
▁two	-6.30599
▁mr	-6.31354
▁please	-6.31498
▁people	-6.32161
▁sure	-6.33539
a	-6.36126
▁help	-6.36484
t	-6.37608
▁sorry	-6.38214
r	-6.38225
▁day	-6.3929
▁said	-6.40642
▁sir	-6.41209
▁music	-6.41539
▁much	-6.41664
▁thing	-6.42545
▁must	-6.4391
▁first	-6.46622
▁uh	-6.47131
▁wait	-6.47856
▁even	-6.48638
▁find	-6.4868
▁great	-6.52464
▁home	-6.52554
n	-6.52575
▁life	-6.53637
o	-6.55666
es	-6.57635
▁new	-6.58567
▁work	-6.58742
i	-6.59194
▁theyre	-6.60067
▁shes	-6.60858
▁better	-6.61123
u	-6.61995
▁away	-6.62039
▁keep	-6.63437
▁still	-6.63539
▁nothing	-6.64229
▁stop	-6.6435
▁night	-6.64373
▁ever	-6.65205
▁god	-6.65966
p	-6.68766
▁big	-6.68983
▁maybe	-6.69248
▁boy	-6.69427
▁put	-6.69586
▁call	-6.69841
▁anything	-6.70066
▁thought	-6.70583
▁long	-6.71503
▁always	-6.72824
▁old	-6.73447
▁around	-6.76271
▁youll	-6.76384
▁talk	-6.77231
▁things	-6.77277
▁world	-6.77393
c	-6.78109
▁id	-6.78701
▁ta	-6.80207
▁wont	-6.80769
▁last	-6.8246
▁believe	-6.83546
▁place	-6.83709
al	-6.84417
▁told	-6.84869
▁everything	-6.85435
g	-6.85582
▁feel	-6.86087
▁leave	-6.86867
▁guys	-6.87292
▁nice	-6.8733
le	-6.87389
▁youve	-6.87576
▁name	-6.88138
▁every	-6.88504
▁made	-6.88513
b	-6.89756
▁hi	-6.90287
▁stay	-6.92499
▁lot	-6.92502
▁hear	-6.93308
▁show	-6.93967
▁fine	-6.9419
▁father	-6.94207
▁years	-6.94685
▁remember	-6.94742
▁girl	-6.95388
m	-6.95468
▁kind	-6.96647
▁three	-6.97255
▁hell	-6.97523
▁listen	-6.9797
▁money	-6.98707
▁huh	-6.9892
▁dad	-6.99273
en	-6.99966
▁course	-7.00179
▁hello	-7.01756
▁coming	-7.0181
▁enough	-7.02322
▁may	-7.02633
l	-7.03038
▁car	-7.03231
▁care	-7.03539
▁mother	-7.05823
▁doesnt	-7.06149
▁isnt	-7.06677
▁try	-7.06707
▁real	-7.07472
▁thanks	-7.07711
▁miss	-7.07976
▁another	-7.08043
▁left	-7.09042
w	-7.09526
▁mind	-7.09683
▁son	-7.10208
▁mom	-7.10959
▁hold	-7.11344
▁best	-7.11492
▁done	-7.11653
▁bad	-7.12041
▁might	-7.12597
or	-7.12864
▁la	-7.13454
▁men	-7.14085
▁today	-7.14684
▁ready	-7.14717
▁ok	-7.15079
▁house	-7.15281
▁came	-7.15781
▁wanted	-7.18116
▁move	-7.18211
k	-7.18223
▁getting	-7.18284
▁wan	-7.18331
▁wrong	-7.19454
▁ah	-7.19996
▁ha	-7.20094
▁understand	-7.21096
h	-7.21282
▁next	-7.21358
ic	-7.2136
on	-7.22573
▁together	-7.22943
▁hand	-7.23487
▁baby	-7.23741
▁morning	-7.24559
▁weve	-7.24644
▁live	-7.24662
▁woman	-7.25194
▁run	-7.25562
re	-7.25656
▁family	-7.26191
▁friend	-7.26814
▁ask	-7.26896
▁door	-7.27425
▁many	-7.27754
▁found	-7.28324
▁play	-7.28884
▁hope	-7.2954
▁without	-7.29833
▁seen	-7.30861
▁happened	-7.30961
▁else	-7.31085
▁someone	-7.31559
▁talking	-7.31939
▁trying	-7.32443
▁whole	-7.33033
▁water	-7.33725
▁beautiful	-7.34008
▁guy	-7.34201
ers	-7.34351
▁start	-7.34384
ch	-7.35342
▁guess	-7.35507
▁bring	-7.35656
▁matter	-7.36387
▁head	-7.36456
▁pretty	-7.36518
▁looking	-7.36846
▁saw	-7.36943
▁hard	-7.36946
▁room	-7.37567
▁young	-7.37668
▁whoa	-7.38184
▁school	-7.38889
▁eat	-7.39044
▁idea	-7.39173
▁job	-7.39215
it	-7.39717
▁aint	-7.41204
▁heart	-7.41292
▁playing	-7.41464
▁tomorrow	-7.41843
▁wouldnt	-7.42069
▁turn	-7.42188
▁went	-7.42611
▁heard	-7.4264
▁happy	-7.43034
▁far	-7.43549
▁de	-7.43706
▁end	-7.45375
▁excuse	-7.45378
▁em	-7.45634
▁tonight	-7.45669
el	-7.45983
▁knew	-7.46006
▁dead	-7.46025
▁worry	-7.46564
▁part	-7.46844
▁dog	-7.47193
▁alone	-7.47361
▁kill	-7.47619
ie	-7.47706
▁face	-7.47717
▁meet	-7.4858
v	-7.48894
f	-7.48981
▁watch	-7.49666
▁use	-7.49749
at	-7.49877
▁everybody	-7.49879
▁wasnt	-7.50228
▁laughing	-7.50641
▁open	-7.50746
▁dear	-7.51415
▁bit	-7.51417
▁yet	-7.51696
an	-7.51862
▁true	-7.51994
▁kids	-7.52367
▁in	-7.52441
▁everyone	-7.52614
ation	-7.5285
▁lost	-7.52855
▁un	-7.53604
▁um	-7.53849
ar	-7.54545
▁minute	-7.54819
▁since	-7.55133
▁actually	-7.56122
▁havent	-7.56485
ur	-7.56694
▁forget	-7.57002
▁friends	-7.57122
▁already	-7.57482
▁gone	-7.57879
▁die	-7.58278
▁sit	-7.58855
▁couldnt	-7.58994
▁used	-7.59062
▁fun	-7.59398
▁soon	-7.60055
▁year	-7.60143
▁easy	-7.60796
la	-7.60846
ra	-7.61049
▁cause	-7.61289
▁s	-7.61802
▁mine	-7.6257
▁brother	-7.62755
▁christmas	-7.6276
▁days	-7.62888
▁dr	-7.63237
▁change	-7.63288
▁kid	-7.63728
▁late	-7.64035
is	-7.64225
▁called	-7.64253
▁re	-7.64302
▁took	-7.64631
▁girls	-7.65091
▁king	-7.65577
▁youd	-7.65781
▁wish	-7.65851
est	-7.65915
▁fire	-7.6598
▁pay	-7.67096
▁stand	-7.67447
▁whos	-7.67685
▁moment	-7.67702
▁hurt	-7.68474
▁word	-7.68511
▁damn	-7.68631
▁eyes	-7.68867
▁check	-7.6907
▁town	-7.69192
▁close	-7.69336
▁hit	-7.6957
▁high	-7.70195
▁shall	-7.70606
▁rest	-7.70658
man	-7.70741
▁stuff	-7.7117
▁k	-7.71382
▁ago	-7.72249
▁four	-7.72308
▁light	-7.72357
▁later	-7.7271
▁sleep	-7.72884
ion	-7.7333
▁anyone	-7.73642
▁five	-7.73834
▁drink	-7.7407
▁business	-7.74085
▁doctor	-7.74089
▁also	-7.74236
▁looks	-7.74272
▁problem	-7.74375
▁walk	-7.75491
▁point	-7.762
▁black	-7.76334
▁ya	-7.76431
th	-7.76524
▁o	-7.76612
able	-7.76847
▁crazy	-7.76938
▁free	-7.7698
▁laughs	-7.77416
▁sighs	-7.77496
st	-7.77602
▁horse	-7.7811
▁set	-7.78418
▁read	-7.78461
▁chance	-7.78479
▁says	-7.78763
▁fight	-7.79131
il	-7.79231
▁hurry	-7.79249
ve	-7.79537
▁second	-7.79745
▁boys	-7.79793
z	-7.79814
us	-7.79834
ne	-7.79939
▁saying	-7.80183
▁co	-7.80463
▁trouble	-7.80504
▁shit	-7.80845
▁side	-7.81357
▁fuck	-7.81394
▁afraid	-7.81456
▁story	-7.81463
▁lady	-7.81555
▁important	-7.82095
▁honey	-7.82263
▁team	-7.82455
▁children	-7.82578
ity	-7.82861
▁y	-7.83007
▁lord	-7.83227
▁number	-7.8327
▁war	-7.83516
▁city	-7.83586
id	-7.84446
▁taking	-7.84727
▁win	-7.84952
▁line	-7.85058
▁dream	-7.85608
▁star	-7.85683
▁wife	-7.85854
▁sound	-7.85964
▁deal	-7.86017
ta	-7.86058
ies	-7.87145
▁arent	-7.87206
▁phone	-7.87548
▁somebody	-7.87703
▁different	-7.87705
▁quite	-7.878
▁cool	-7.87898
▁book	-7.88137
▁a	-7.88194
▁wheres	-7.88577
▁break	-7.88642
▁i	-7.88673
▁clear	-7.89153
▁probably	-7.89413
▁anyway	-7.90106
ri	-7.90484
▁thinking	-7.90596
▁least	-7.90804
▁full	-7.90852
▁hands	-7.909
▁mrs	-7.91016
li	-7.91251
▁cut	-7.91626
▁case	-7.91924
▁lm	-7.91974
▁dance	-7.92083
ma	-7.92446
▁chuckles	-7.9304
▁w	-7.93062
▁working	-7.93098
▁exactly	-7.93658
▁goes	-7.93795
▁country	-7.93847
▁welcome	-7.94185
co	-7.9428
▁inside	-7.94378
▁waiting	-7.94458
▁half	-7.94547
▁pick	-7.94707
▁special	-7.9473
ive	-7.94742
▁sweet	-7.94855
▁whatever	-7.94912
ment	-7.94932
▁mama	-7.9516
▁c	-7.95721
na	-7.95997
▁bed	-7.96124
▁along	-7.96196
▁nobody	-7.96337
▁captain	-7.96382
▁wow	-7.96562
▁brought	-7.96937
▁catch	-7.96987
▁met	-7.97116
▁bye	-7.97311
ro	-7.97519
▁food	-7.98063
▁gave	-7.98076
ist	-7.98132
▁hmm	-7.98145
▁shot	-7.98288
ling	-7.98352
▁almost	-7.98438
▁th	-7.98733
▁shut	-7.98791
▁happen	-7.99216
▁rock	-7.99434
ting	-7.9978
▁minutes	-8.00065
▁air	-8.00149
▁ooh	-8.00191
▁sea	-8.00564
ia	-8.00569
▁wonderful	-8.00592
▁making	-8.00928
▁land	-8.00941
▁princess	-8.0122
▁white	-8.02273
▁supposed	-8.02358
▁bet	-8.02531
▁promise	-8.03053
▁ahead	-8.03087
▁daddy	-8.03333
▁seems	-8.03499
▁hate	-8.03732
▁game	-8.04305
▁speak	-8.04317
x	-8.04362
▁ho	-8.0448
ll	-8.04533
te	-8.04594
▁death	-8.04671
▁follow	-8.04732
ul	-8.04876
▁speaking	-8.04878
▁reason	-8.0503
▁trust	-8.05075
▁ball	-8.05287
▁sun	-8.05502
▁gentlemen	-8.05683
▁jack	-8.05768
▁asked	-8.0584
▁week	-8.06157
▁stupid	-8.06292
up	-8.06311
▁started	-8.06795
▁person	-8.06804
ter	-8.06856
▁order	-8.06904
▁child	-8.0691
▁bear	-8.07382
▁hot	-8.07438
et	-8.07528
ine	-8.07545
▁gun	-8.07607
▁dinner	-8.07732
▁women	-8.07734
▁wants	-8.07903
▁perfect	-8.07959
ry	-8.08025
▁six	-8.08161
▁sister	-8.08336
▁anymore	-8.08356
▁uncle	-8.08356
▁step	-8.08561
▁goodbye	-8.09194
▁earth	-8.09204
▁though	-8.09442
▁crowd	-8.09934
▁red	-8.10314
▁party	-8.10407
▁makes	-8.10909
▁safe	-8.10949
▁daughter	-8.11104
▁ladies	-8.11115
▁fly	-8.11419
▁e	-8.116
▁behind	-8.11749
▁p	-8.12041
lo	-8.12344
▁sign	-8.12411
ful	-8.12471
▁theyll	-8.12616
less	-8.12802
▁fall	-8.12808
▁sometimes	-8.12912
▁b	-8.12916
▁send	-8.13331
▁anybody	-8.1349
▁glad	-8.13492
▁top	-8.13515
▁become	-8.1371
to	-8.13766
▁killed	-8.13865
▁answer	-8.13949
▁sort	-8.13995
▁hang	-8.14008
▁power	-8.14079
▁truth	-8.14151
▁sing	-8.14382
▁fact	-8.14787
▁save	-8.14805
▁wonder	-8.1481
▁question	-8.15003
▁funny	-8.15059
▁poor	-8.15094
▁boat	-8.15111
▁cold	-8.15495
▁married	-8.15715
▁luck	-8.15721
▁president	-8.1616
▁g	-8.17075
▁hours	-8.17083
▁heres	-8.17235
▁voice	-8.17518
▁front	-8.17765
▁shoot	-8.17917
▁st	-8.17946
▁learn	-8.17983
▁touch	-8.18001
▁bell	-8.1807
▁secret	-8.18193
ant	-8.18299
▁either	-8.18672
ate	-8.19315
▁al	-8.19506
▁lose	-8.19593
▁plan	-8.19857
▁body	-8.20322
▁ride	-8.20593
▁fast	-8.20717
▁gasps	-8.21297
▁fuckin	-8.2166
▁able	-8.21909
ck	-8.22282
ian	-8.22984
▁human	-8.2301
▁running	-8.23194
▁gold	-8.23335
▁perhaps	-8.23406
▁ass	-8.23648
▁wed	-8.23889
▁feet	-8.23921
▁alive	-8.23935
▁feeling	-8.24096
▁outside	-8.2414
▁wind	-8.24216
▁count	-8.24257
▁screaming	-8.24282
▁hair	-8.24446
▁strong	-8.24603
▁itll	-8.24632
▁cheering	-8.2478
be	-8.24795
▁dark	-8.24892
▁beat	-8.25435
▁buy	-8.25595
▁past	-8.25942
▁news	-8.2616
se	-8.26397
ha	-8.26839
▁prince	-8.26977
▁fish	-8.27066
▁john	-8.27509
ff	-8.27575
▁group	-8.27621
▁song	-8.27678
▁police	-8.2787
ho	-8.28035
ti	-8.28212
▁times	-8.28377
▁control	-8.28382
▁american	-8.28451
▁pull	-8.28519
▁max	-8.28652
ce	-8.28844
ca	-8.28846
▁sam	-8.28864
▁sounds	-8.28983
▁lead	-8.28994
um	-8.29092
▁return	-8.29122
▁scared	-8.29179
ty	-8.29403
▁bar	-8.29405
▁sick	-8.29444
▁hour	-8.29456
▁husband	-8.29917
▁blood	-8.30128
▁straight	-8.30176
▁ten	-8.30387
▁means	-8.30443
nt	-8.30666
▁small	-8.30685
▁living	-8.30969
ton	-8.31002
▁seem	-8.31183
▁tried	-8.31345
▁master	-8.31495
im	-8.31835
▁wake	-8.32032
▁train	-8.32172
▁months	-8.32279
ol	-8.32279
▁comes	-8.32586
▁bo	-8.32654
as	-8.32845
rs	-8.33008
ge	-8.33254
▁couple	-8.33347
▁fool	-8.33595
▁maam	-8.33618
son	-8.33726
sh	-8.33796
▁drive	-8.33854
▁write	-8.34005
▁drop	-8.34447
▁fucking	-8.3451
▁office	-8.34675
▁professor	-8.34686
▁cat	-8.3469
▁blue	-8.34773
▁worth	-8.34987
▁lives	-8.35122
▁ow	-8.35174
▁leaving	-8.35234
ig	-8.35426
▁quick	-8.35592
▁telling	-8.35647
▁pa	-8.35648
▁deep	-8.36005
ah	-8.3601
▁race	-8.36088
▁aah	-8.3609
ent	-8.3617
▁mark	-8.36253
▁lucky	-8.36429
mi	-8.36716
▁law	-8.36784
▁grunting	-8.36881
▁jesus	-8.36881
▁frank	-8.36917
per	-8.36958
▁act	-8.37207
▁vi	-8.37418
▁short	-8.37527
ard	-8.37686
ness	-8.37946
▁clean	-8.3795
▁alright	-8.38003
me	-8.38089
▁possible	-8.38559
▁sense	-8.3856
▁evening	-8.38669
do	-8.38678
▁d	-8.39087
▁somewhere	-8.39125
▁quiet	-8.39509
▁church	-8.39694
▁kiss	-8.39702
▁bill	-8.39907
▁continues	-8.39962
▁shouldnt	-8.3998
▁buddy	-8.40272
▁whoo	-8.40394
▁charlie	-8.40553
▁tree	-8.4071
▁boss	-8.40988
▁careful	-8.41348
▁forever	-8.41422
ous	-8.4147
▁per	-8.41542
▁j	-8.41649
▁amazing	-8.42003
▁so	-8.42228
de	-8.42566
▁fear	-8.42612
▁serious	-8.42694
▁gr	-8.42861
▁seven	-8.43184
▁stick	-8.43195
▁lovely	-8.43419
▁needs	-8.43462
▁parents	-8.43462
▁throw	-8.43621
▁majesty	-8.4377
▁till	-8.4412
▁mad	-8.44387
▁born	-8.44397
▁words	-8.44582
go	-8.44855
▁marry	-8.44984
ee	-8.45035
ir	-8.45132
▁felt	-8.45273
▁bird	-8.45289
▁plane	-8.454
▁band	-8.45427
▁singing	-8.45513
▁mary	-8.45594
▁film	-8.45642
▁trip	-8.45881
no	-8.46025
▁ice	-8.46361
▁warm	-8.46761
▁eye	-8.46879
▁con	-8.46887
▁se	-8.46896
▁wear	-8.47099
▁sent	-8.47174
▁street	-8.47189
▁pre	-8.47373
▁finally	-8.47536
▁suppose	-8.47598
▁r	-8.47628
▁theyve	-8.4771
▁darling	-8.47723
da	-8.48351
▁less	-8.48401
▁class	-8.48426
▁po	-8.48733
▁figure	-8.48848
op	-8.49863
▁simple	-8.49898
ure	-8.49947
▁slow	-8.50023
▁taken	-8.50154
▁fault	-8.50214
▁grunts	-8.50214
▁road	-8.50232
▁summer	-8.50533
▁shell	-8.50557
▁ship	-8.50581
▁join	-8.50741
▁died	-8.50829
▁giving	-8.50854
ad	-8.509
▁york	-8.5117
he	-8.51314
▁mar	-8.51506
om	-8.5155
▁bank	-8.5156
▁lie	-8.51571
▁da	-8.51615
▁picture	-8.51752
▁known	-8.5178
▁evil	-8.51812
ish	-8.51916
▁present	-8.52044
▁language	-8.52134
▁roll	-8.52234
dy	-8.52304
▁million	-8.52434
▁proud	-8.52458
▁rather	-8.52465
▁strange	-8.52467
▁mess	-8.52534
▁lts	-8.52636
▁clothes	-8.52819
ut	-8.52836
▁wild	-8.52869
▁explain	-8.53435
▁bag	-8.53739
▁honor	-8.5378
▁grow	-8.54004
▁imagine	-8.54092
ke	-8.5432
▁general	-8.54422
▁ground	-8.54428
▁visit	-8.54579
▁forgive	-8.54753
▁others	-8.54753
▁meeting	-8.54858
▁yo	-8.54937
▁camp	-8.55193
▁di	-8.55312
▁radio	-8.55432
ey	-8.55478
ill	-8.5552
po	-8.55541
▁longer	-8.55777
▁early	-8.56285
▁round	-8.5646
▁surprise	-8.5668
▁ab	-8.56702
▁across	-8.56765
▁hide	-8.56898
os	-8.56915
▁t	-8.56971
▁hows	-8.57041
▁lunch	-8.57102
▁billy	-8.57127
▁none	-8.5724
age	-8.57281
▁reach	-8.57285
▁date	-8.57315
▁teach	-8.57344
▁heaven	-8.5765
▁hed	-8.57808
▁movie	-8.57949
▁english	-8.5847
▁george	-8.5847
▁ra	-8.58811
▁choice	-8.58814
▁moving	-8.58833
▁finish	-8.58975
▁french	-8.59161
▁mouth	-8.59172
▁soul	-8.59196
▁ro	-8.59291
▁record	-8.5934
▁tom	-8.59465
▁animals	-8.59492
am	-8.59516
▁park	-8.59668
▁peter	-8.59673
▁f	-8.59743
▁river	-8.59856
▁fair	-8.60244
▁lll	-8.60279
di	-8.60351
▁attack	-8.6037
▁shh	-8.60528
▁no	-8.60601
▁worked	-8.60674
▁pass	-8.6078
▁dreams	-8.60781
ley	-8.60952
▁barking	-8.61084
▁calling	-8.61129
ip	-8.61216
▁do	-8.61271
▁dis	-8.61415
tic	-8.61495
▁el	-8.6188
▁pain	-8.62115
oo	-8.62435
▁ring	-8.62538
ance	-8.6258
▁middle	-8.62689
▁n	-8.6269
▁happens	-8.63013
un	-8.63061
▁mo	-8.63275
ated	-8.63402
▁chief	-8.63413
▁kidding	-8.63416
land	-8.63503
▁sell	-8.63601
▁weeks	-8.63658
▁loved	-8.63756
▁fr	-8.63781
▁tired	-8.63825
▁ba	-8.63984
▁future	-8.64135
▁near	-8.64335
ping	-8.64605
▁certain	-8.64675
ow	-8.64823
▁turned	-8.64847
▁state	-8.6486
▁green	-8.65234
▁sad	-8.65251
▁papa	-8.65341
ster	-8.65362
ber	-8.65365
▁miles	-8.65386
▁an	-8.65403
▁ar	-8.65766
▁rain	-8.65829
▁bitch	-8.65885
ary	-8.66006
pe	-8.66098
▁boo	-8.66109
bo	-8.66115
ot	-8.66274
▁expect	-8.66689
▁groans	-8.66719
▁hungry	-8.66728
▁snow	-8.66728
▁eight	-8.66731
▁ma	-8.66876
▁absolutely	-8.67121
▁bob	-8.67318
▁tough	-8.67478
▁quit	-8.67601
▁sh	-8.67603
▁given	-8.67655
▁idiot	-8.67847
▁court	-8.67847
▁charge	-8.67869
ted	-8.67922
▁report	-8.68117
▁age	-8.68124
▁taste	-8.68156
▁mountain	-8.68296
▁engine	-8.68373
▁busy	-8.6842
▁sc	-8.68462
▁over	-8.68965
▁spirit	-8.68986
▁track	-8.68996
mp	-8.69063
▁peace	-8.6924
▁test	-8.69246
▁hoo	-8.69444
▁crying	-8.69535
▁forgot	-8.69744
▁attention	-8.69754
▁queen	-8.69754
▁ii	-8.69851
▁changed	-8.69853
▁relax	-8.7014
▁company	-8.7014
▁mmm	-8.70268
▁joy	-8.70347
▁america	-8.70435
▁sp	-8.7051
▁du	-8.70516
▁santa	-8.70563
▁rich	-8.70578
ba	-8.70656
▁ohh	-8.70765
▁en	-8.70903
▁cover	-8.71176
▁hat	-8.71226
▁david	-8.71308
▁throat	-8.71308
▁worse	-8.71308
▁m	-8.71542
▁dress	-8.71611
▁dangerous	-8.71716
▁push	-8.71749
▁handle	-8.72028
▁folks	-8.72079
▁dan	-8.72087
▁coffee	-8.72094
▁harry	-8.7211
▁store	-8.72135
▁eh	-8.72182
▁box	-8.72416
▁horn	-8.72495
▁enjoy	-8.72526
ts	-8.7256
▁unless	-8.72586
▁laugh	-8.72655
▁certainly	-8.72695
▁birds	-8.72886
▁pleasure	-8.72886
▁smart	-8.73011
▁post	-8.73253
▁smell	-8.73273
▁north	-8.73284
▁table	-8.73405
▁asking	-8.73519
▁respect	-8.73684
▁yesterday	-8.73684
▁royal	-8.73685
▁piece	-8.73733
▁field	-8.73746
▁jump	-8.73962
▁window	-8.74116
▁pop	-8.74153
▁watching	-8.74187
▁blow	-8.74589
▁tv	-8.74591
▁wall	-8.74651
mon	-8.74798
▁super	-8.74907
▁entire	-8.75108
▁fix	-8.75188
▁protect	-8.75255
▁bright	-8.75269
▁werent	-8.753
▁joe	-8.75384
tor	-8.75399
pa	-8.75403
▁cook	-8.75431
▁spend	-8.7551
em	-8.75556
▁foot	-8.75727
▁looked	-8.75973
▁be	-8.7602
▁except	-8.76053
▁christ	-8.76168
▁br	-8.76469
▁history	-8.76531
▁ex	-8.76538
ga	-8.76738
▁camera	-8.76782
▁judge	-8.76943
▁magic	-8.76968
▁aw	-8.77147
▁cross	-8.77312
▁island	-8.77366
▁bomb	-8.77461
▁hundred	-8.77775
▁terrible	-8.77775
▁meant	-8.779
▁mike	-8.77901
▁fl	-8.77973
▁decided	-8.77981
▁machine	-8.78193
▁fell	-8.7823
▁ringing	-8.78494
▁doubt	-8.78613
▁smile	-8.78613
▁flowers	-8.78655
▁highness	-8.78682
▁cl	-8.78716
▁suit	-8.78851
▁paul	-8.78871
▁grand	-8.78876
▁tea	-8.789
▁service	-8.79035
▁worried	-8.79035
▁groaning	-8.79035
▁caught	-8.7904
▁brave	-8.79066
▁low	-8.7908
▁mu	-8.79108
▁ahh	-8.79161
▁hero	-8.79329
▁flight	-8.79477
▁calm	-8.79669
▁pig	-8.79679
and	-8.79832
▁station	-8.79995
▁west	-8.80112
▁bother	-8.80312
▁cry	-8.80399
▁shouting	-8.80511
▁double	-8.80741
▁elvis	-8.80741
▁realize	-8.80808
ka	-8.8091
▁mistake	-8.8103
▁sal	-8.81153
▁kept	-8.81172
▁club	-8.81178
▁cute	-8.81181
▁france	-8.81198
▁leg	-8.81278
▁quickly	-8.81473
▁teacher	-8.81911
▁board	-8.81989
▁officer	-8.8206
▁agree	-8.82446
▁south	-8.82476
▁sarah	-8.8248
▁form	-8.8278
▁swear	-8.82869
▁finished	-8.83157
▁ka	-8.83188
▁pro	-8.83252
▁chattering	-8.83309
▁spot	-8.83376
ner	-8.83404
▁horses	-8.83523
▁to	-8.83582
ally	-8.83748
ii	-8.83769
▁narrator	-8.83798
▁wedding	-8.83803
▁tight	-8.83808
▁happening	-8.83882
▁stone	-8.83945
hi	-8.83963
▁pack	-8.84186
▁guard	-8.84212
▁anywhere	-8.84242
▁afternoon	-8.84689
▁hospital	-8.84689
▁carry	-8.84714
▁li	-8.84732
▁san	-8.84829
▁z	-8.84876
▁final	-8.84986
ier	-8.85139
time	-8.85579
▁impossible	-8.85588
▁area	-8.85598
▁major	-8.85603
out	-8.86004
▁missed	-8.86037
▁college	-8.8604
▁mister	-8.86105
▁completely	-8.86177
▁lay	-8.86426
▁flying	-8.86427
▁ti	-8.86493
▁applause	-8.86495
▁animal	-8.86516
▁h	-8.86594
▁travel	-8.86796
▁ghost	-8.86951
▁garden	-8.86952
if	-8.86996
▁faster	-8.87033
▁key	-8.87112
▁besides	-8.87195
▁share	-8.87336
▁forward	-8.87412
▁position	-8.87438
▁letter	-8.87499
▁mi	-8.87525
▁dick	-8.87929
▁dogs	-8.88061
▁fat	-8.88202
▁paris	-8.88206
▁ja	-8.88212
▁fresh	-8.88334
▁upon	-8.88386
▁totally	-8.88416
▁art	-8.88424
▁burn	-8.88624
▁consider	-8.88729
▁instead	-8.88799
▁lonely	-8.88799
▁dancing	-8.888
▁laughter	-8.88836
▁me	-8.88852
io	-8.88876
led	-8.88886
▁he	-8.89027
▁scott	-8.89273
▁danny	-8.8928
▁joke	-8.89357
▁list	-8.89397
▁building	-8.89797
▁lt	-8.90015
▁broke	-8.90134
▁system	-8.90207
▁walking	-8.90234
ps	-8.90241
▁ga	-8.90273
way	-8.90287
▁seat	-8.90453
▁pat	-8.90559
▁offer	-8.90677
▁x	-8.90711
▁greatest	-8.90723
▁command	-8.90752
▁shoes	-8.90921
▁lo	-8.90935
▁bang	-8.91107
ial	-8.91142
▁color	-8.91158
▁brown	-8.91163
▁village	-8.91172
▁sake	-8.91202
▁wa	-8.91265
▁sky	-8.91286
▁am	-8.91303
▁angel	-8.91477
▁or	-8.91514
▁si	-8.91593
▁ran	-8.91657
▁wine	-8.91699
▁questions	-8.91719
▁hotel	-8.91767
▁yelling	-8.9191
▁seeing	-8.92109
▁kick	-8.92119
▁robert	-8.92122
▁grandpa	-8.92135
▁paid	-8.92186
we	-8.92237
▁monster	-8.92391
▁holy	-8.92573
▁difficult	-8.926
▁third	-8.926
▁truck	-8.92605
▁henry	-8.92612
▁sa	-8.92622
▁fit	-8.92626
▁chicken	-8.92647
▁promised	-8.92662
▁moon	-8.92749
▁grab	-8.92792
▁rat	-8.92925
▁sw	-8.92931
▁begin	-8.92991
kin	-8.93028
▁cave	-8.93131
ring	-8.93151
▁ad	-8.93162
▁le	-8.93298
▁needed	-8.93472
▁difference	-8.93573
▁beginning	-8.93582
▁chuckling	-8.93587
▁vou	-8.93639
▁dare	-8.93981
▁sergeant	-8.94063
▁weird	-8.94063
▁especially	-8.94556
▁gift	-8.94556
▁arms	-8.94596
tion	-8.94737
ac	-8.94798
▁screams	-8.94824
▁knock	-8.94891
ell	-8.94966
▁ac	-8.94991
one	-8.9502
▁silly	-8.95086
que	-8.95137
▁ben	-8.95165
che	-8.95337
▁indistinct	-8.95357
ism	-8.95518
▁saved	-8.95618
▁soft	-8.95859
ick	-8.95919
rr	-8.96042
▁spring	-8.96066
▁cake	-8.96084
wa	-8.96102
▁army	-8.96357
▁honest	-8.96374
▁personal	-8.9658
ise	-8.96753
▁cost	-8.97
▁interested	-8.97007
▁public	-8.97056
▁message	-8.97086
the	-8.97129
▁glass	-8.97424
▁space	-8.97581
▁belong	-8.98555
▁v	-8.98732
▁prove	-8.98751
▁rules	-8.98903
▁month	-8.99128
▁dude	-8.99155
▁forest	-8.9916
▁remind	-8.99171
▁merry	-8.99634
▁pray	-8.99757
▁wh	-8.99771
▁ri	-8.99849
▁arm	-8.99917
▁security	-9.00141
▁indeed	-9.00142
▁definitely	-9.00163
▁outta	-9.00181
▁nose	-9.00216
▁broken	-9.00298
▁dee	-9.00481
▁sex	-9.00542
▁became	-9.00665
▁decision	-9.00665
▁force	-9.00858
lin	-9.00896
▁pal	-9.01087
▁continue	-9.01129
▁within	-9.01191
▁floor	-9.01191
▁interesting	-9.01207
▁ne	-9.01397
▁ca	-9.01436
▁mission	-9.0157
▁missing	-9.01702
▁kate	-9.01704
▁speed	-9.01722
▁favorite	-9.02258
▁panting	-9.02278
▁coach	-9.0229
▁legs	-9.02436
▁search	-9.02711
▁sweetheart	-9.02787
▁colonel	-9.02794
▁richard	-9.02819
▁loud	-9.02882
od	-9.03133
▁rid	-9.03147
▁nervous	-9.03324
▁remain	-9.03325
▁rose	-9.03559
▁lived	-9.03663
▁build	-9.03795
▁bastard	-9.03865
▁bottom	-9.03865
▁swim	-9.03882
▁danger	-9.03919
▁fill	-9.04117
▁rule	-9.04394
▁nature	-9.0441
▁fa	-9.0445
▁sight	-9.04563
▁mm	-9.04764
▁out	-9.04887
▁accept	-9.04968
▁cash	-9.04983
▁allow	-9.04984
▁risk	-9.05054
▁starting	-9.05114
▁van	-9.052
▁practice	-9.05504
▁destroy	-9.05518
▁charles	-9.05522
▁stuck	-9.05536
▁yall	-9.05664
▁trick	-9.05688
men	-9.05779
▁single	-9.05853
▁chi	-9.0593
▁wrote	-9.06057
▁everywhere	-9.06071
ped	-9.06134
ler	-9.06179
▁ni	-9.06248
▁ver	-9.06359
▁aunt	-9.06509
▁tail	-9.06522
▁sha	-9.06587
▁wearing	-9.06607
▁marriage	-9.06612
▁milk	-9.06613
▁martin	-9.06616
▁wash	-9.06646
ina	-9.06677
ny	-9.06677
▁nine	-9.06801
ak	-9.06859
▁daisy	-9.07171
▁direction	-9.07215
ical	-9.07274
▁ju	-9.07282
▁stranger	-9.07717
▁deserve	-9.07733
▁uhhuh	-9.07733
▁price	-9.07739
▁standing	-9.07956
our	-9.08075
▁cap	-9.08118
ze	-9.08218
▁fighting	-9.08251
▁neither	-9.08298
▁brothers	-9.08317
▁owe	-9.08337
▁brand	-9.08505
ging	-9.08521
▁tour	-9.08823
▁treat	-9.0886
▁often	-9.08868
▁hasnt	-9.08872
▁extra	-9.08879
▁dirty	-9.08951
▁national	-9.0898
▁ought	-9.0926
▁card	-9.09335
▁private	-9.09437
▁situation	-9.09438
▁wolf	-9.09438
▁emma	-9.09627
▁lock	-9.09724
▁comp	-9.09833
▁east	-9.09976
▁inspector	-9.10016
▁bro	-9.10459
▁smoke	-9.1059
▁hole	-9.10593
▁ch	-9.10738
ass	-9.10978
▁mon	-9.11129
▁support	-9.11172
▁information	-9.11191
▁learned	-9.11365
iv	-9.11569
▁liked	-9.11584
▁stage	-9.11699
▁breathe	-9.11701
▁paper	-9.11748
▁gas	-9.11815
▁cock	-9.11846
▁awful	-9.12195
▁kitchen	-9.12345
▁account	-9.12347
▁mmhmm	-9.1239
▁cup	-9.12583
▁heh	-9.12623
▁walls	-9.12876
▁choose	-9.12936
▁taught	-9.1294
▁teeth	-9.12941
▁dumb	-9.12953
▁exist	-9.12976
ai	-9.12991
▁interest	-9.1302
▁sitting	-9.13099
▁all	-9.13505
▁steal	-9.13516
▁accident	-9.13531
▁drunk	-9.13546
▁experience	-9.13694
ang	-9.13867
▁doc	-9.13948
▁bi	-9.14111
▁thousand	-9.14115
▁driving	-9.14131
▁fellow	-9.14159
▁partner	-9.14217
▁winter	-9.14247
king	-9.14367
▁played	-9.14519
▁ray	-9.14668
ns	-9.14678
▁jail	-9.14789
▁stars	-9.14881
▁er	-9.14885
▁brain	-9.14938
tter	-9.1514
▁favor	-9.15331
▁congratulations	-9.15339
▁london	-9.15339
▁works	-9.15378
▁stopped	-9.15493
j	-9.15513
▁prison	-9.15608
▁sail	-9.1585
▁bought	-9.15949
▁scene	-9.1595
▁canyon	-9.15951
▁dramatic	-9.15954
▁government	-9.15955
▁pet	-9.16002
sa	-9.1616
▁faith	-9.16164
▁hall	-9.1619
▁crack	-9.16532
▁heavy	-9.16562
▁ye	-9.16567
▁draw	-9.16568
▁deliver	-9.16641
▁talent	-9.16651
of	-9.16676
▁cell	-9.16687
▁pe	-9.16706
▁staying	-9.16721
▁lf	-9.16884
▁bus	-9.16905
ship	-9.1695
▁va	-9.16986
▁shed	-9.1708
▁contact	-9.17179
▁feed	-9.17198
▁giant	-9.17203
vo	-9.17211
▁rome	-9.17221
▁te	-9.17225
▁agent	-9.17228
▁castle	-9.17251
▁gasping	-9.17426
▁whose	-9.17509
by	-9.17657
▁suggest	-9.17722
▁twice	-9.178
▁whether	-9.178
minous	-9.17805
▁block	-9.17815
▁bunch	-9.17824
red	-9.17969
▁german	-9.18275
bb	-9.18354
▁thunder	-9.18423
▁weather	-9.18425
▁battle	-9.18431
▁immediately	-9.18463
▁cor	-9.18484
▁rent	-9.18492
▁gods	-9.18651
▁complete	-9.18865
ize	-9.18995
▁allowed	-9.19041
▁strike	-9.19056
▁benny	-9.19069
▁famous	-9.19074
▁dig	-9.19293
▁rope	-9.19309
▁corner	-9.19334
▁sub	-9.19353
▁seriously	-9.19464
vi	-9.19508
▁eating	-9.19624
▁pen	-9.19685
▁beyond	-9.19687
▁plenty	-9.19687
▁lve	-9.20001
▁suck	-9.20125
mb	-9.20216
▁huge	-9.20249
▁patient	-9.20331
▁study	-9.20359
▁jean	-9.20362
▁crew	-9.20363
ious	-9.20691
▁perfectly	-9.20912
▁champ	-9.20913
▁grandfather	-9.20965
▁lieutenant	-9.20965
▁empty	-9.20965
▁rep	-9.20975
ec	-9.21031
▁can	-9.21078
▁tiny	-9.21151
ress	-9.21174
▁talked	-9.21242
▁press	-9.21274
▁takes	-9.21304
▁excellent	-9.2161
▁operation	-9.21614
▁yogi	-9.21621
▁lying	-9.2168
▁toy	-9.21693
▁breath	-9.21707
▁jo	-9.21723
▁sn	-9.21765
▁inter	-9.21844
▁grace	-9.21866
▁states	-9.21938
▁arrived	-9.21969
▁reading	-9.22223
▁breakfast	-9.2226
▁ocean	-9.2226
▁cheese	-9.2226
▁sheep	-9.22267
▁jason	-9.22297
ence	-9.22315
▁ash	-9.22381
▁figured	-9.22485
ble	-9.22568
▁fe	-9.22729
▁up	-9.22779
jo	-9.22836
▁chris	-9.22866
▁appreciate	-9.22913
▁condition	-9.22913
▁birthday	-9.22916
▁bible	-9.22944
▁cr	-9.23258
head	-9.23377
▁seconds	-9.23458
▁fingers	-9.23481
av	-9.23527
▁beauty	-9.23576
▁christian	-9.23614
▁spell	-9.23639
pl	-9.23744
▁action	-9.23792
▁chip	-9.24122
▁rings	-9.24125
▁wood	-9.24182
▁tires	-9.24232
▁pardon	-9.24234
▁upset	-9.24235
▁dying	-9.24241
▁winner	-9.24297
▁suddenly	-9.24359
▁gate	-9.24363
▁waste	-9.24477
lt	-9.24479
all	-9.24548
und	-9.24597
▁names	-9.24735
▁planet	-9.24765
▁asleep	-9.249
▁awesome	-9.249
▁foreign	-9.249
▁worst	-9.249
▁using	-9.2496
▁pi	-9.24968
▁player	-9.25047
rat	-9.25082
▁lights	-9.25083
▁sta	-9.25329
▁sand	-9.2533
▁fan	-9.25434
▁op	-9.25445
▁main	-9.25499
▁admit	-9.25552
▁lots	-9.25556
ev	-9.25609
▁james	-9.2564
fe	-9.25644
▁leader	-9.25734
▁guns	-9.25746
▁tony	-9.25777
▁serve	-9.25843
▁base	-9.26028
▁pu	-9.26034
▁bottle	-9.26247
▁angry	-9.26247
cy	-9.26315
▁ed	-9.26389
▁lu	-9.26482
▁passed	-9.26603
▁cow	-9.26649
▁putting	-9.267
▁audience	-9.26927
▁tommy	-9.26944
▁bra	-9.26953
▁shame	-9.26973
▁lift	-9.26977
▁chatter	-9.27021
ten	-9.27164
▁ms	-9.27239
▁kings	-9.27336
▁goodness	-9.27382
▁correct	-9.27443
▁listening	-9.27448
▁mountains	-9.27483
▁tape	-9.27611
▁built	-9.27612
▁ugh	-9.27617
▁following	-9.27635
▁named	-9.27683
▁bigger	-9.27691
▁matt	-9.27714
▁trail	-9.27749
for	-9.279
▁aye	-9.27904
▁hu	-9.27936
▁mac	-9.28151
▁howd	-9.28174
▁match	-9.28193
rt	-9.28236
▁closed	-9.28275
▁video	-9.28302
▁biggest	-9.28303
▁minister	-9.28308
▁loose	-9.28316
▁native	-9.28318
▁brian	-9.28379
▁rex	-9.28483
▁notice	-9.28578
▁orders	-9.28608
▁at	-9.2878
▁growing	-9.28895
▁smith	-9.29
▁enter	-9.29051
▁growling	-9.2907
▁maria	-9.29205
▁su	-9.29493
▁apart	-9.29631
▁restaurant	-9.29696
▁strength	-9.29696
▁beast	-9.29696
▁excited	-9.29736
▁type	-9.29833
▁hill	-9.29917
▁fred	-9.29979
▁meat	-9.30002
▁event	-9.30073
▁computer	-9.304
▁yellow	-9.30419
▁noise	-9.30426
▁problems	-9.30428
▁goin	-9.30438
▁surprised	-9.30574
▁where	-9.30725
▁madam	-9.30914
ned	-9.31102
▁cop	-9.31103
▁silver	-9.31109
▁devil	-9.31109
▁crime	-9.31109
▁add	-9.31231
▁books	-9.3126
▁fi	-9.31347
▁rise	-9.31404
▁vote	-9.31572
tra	-9.31659
you	-9.31682
▁discuss	-9.31708
▁guitar	-9.31823
▁cousin	-9.31824
▁kingdom	-9.31824
▁beach	-9.31846
▁neck	-9.31858
cr	-9.31863
▁incredible	-9.31863
▁involved	-9.31928
▁gu	-9.32019
▁andy	-9.32028
▁feels	-9.32035
▁dollars	-9.32244
▁bridge	-9.32364
▁fairy	-9.32453
▁del	-9.32461
▁male	-9.32478
▁among	-9.32505
▁happiness	-9.32543
▁hook	-9.32563
▁repeat	-9.32583
▁duty	-9.3259
▁yep	-9.32728
▁shake	-9.32831
▁starts	-9.32955
▁storm	-9.32959
ep	-9.32974
▁wondering	-9.33079
▁hardly	-9.33169
▁hunt	-9.33174
▁cinderella	-9.33267
▁view	-9.33268
▁sunday	-9.33284
▁parker	-9.33293
▁spent	-9.33311
▁fo	-9.33333
ug	-9.33385
▁bloody	-9.33401
ach	-9.33477
▁har	-9.33548
▁dry	-9.33571
▁gi	-9.33713
▁mor	-9.33741
▁cons	-9.33996
▁address	-9.34008
▁pete	-9.34051
▁pok	-9.34113
▁tall	-9.34146
▁whispers	-9.3428
▁bull	-9.34354
▁willing	-9.34441
▁ko	-9.34552
▁gl	-9.34559
▁painting	-9.34604
▁self	-9.34713
▁england	-9.34733
▁introduce	-9.34733
▁somehow	-9.34733
▁theyd	-9.34734
▁alex	-9.34755
▁sleeping	-9.34853
▁climb	-9.34856
▁mention	-9.35048
▁pan	-9.35097
▁nation	-9.35266
▁shop	-9.35456
▁pool	-9.35465
▁goddamn	-9.35473
▁boyfriend	-9.355
▁jim	-9.35529
▁weight	-9.3556
▁gosh	-9.35606
▁heat	-9.35646
▁dressed	-9.35746
ving	-9.35752
ions	-9.36022
ming	-9.36032
▁due	-9.36032
der	-9.3611
▁simply	-9.3622
▁monkey	-9.36229
▁handsome	-9.36256
▁farm	-9.36305
▁crap	-9.3651
ung	-9.36618
▁holding	-9.3673
ice	-9.36747
▁speaks	-9.36871
▁journey	-9.36971
▁memory	-9.36971
▁blind	-9.36972
▁pants	-9.37001
▁obviously	-9.37095
▁wheel	-9.37098
▁wise	-9.37115
og	-9.37203
▁sin	-9.37297
▁escape	-9.37305
▁seemed	-9.3744
ized	-9.37549
▁hanging	-9.37554
▁bat	-9.37599
▁female	-9.37729
▁friday	-9.37729
▁spanish	-9.37729
▁recognize	-9.3773
▁detective	-9.3774
back	-9.37806
▁pictures	-9.37884
▁mum	-9.3804
mm	-9.38466
▁sword	-9.38493
▁target	-9.38494
▁saint	-9.38494
▁inaudible	-9.38497
▁thatll	-9.38507
▁luna	-9.38516
▁sold	-9.38521
▁tim	-9.38537
▁champion	-9.3856
▁grant	-9.38566
ron	-9.38566
▁lee	-9.3861
▁page	-9.38674
▁murder	-9.38746
▁flat	-9.3875
ball	-9.38872
▁fellas	-9.38914
▁fore	-9.38943
▁hoping	-9.38949
bi	-9.38958
▁large	-9.39046
▁normal	-9.39069
▁mate	-9.3925
▁competition	-9.39262
▁fantastic	-9.39262
▁jungle	-9.39262
▁freak	-9.39262
▁truly	-9.39262
▁spread	-9.39269
▁cu	-9.39287
▁ph	-9.39298
▁russian	-9.39339
▁season	-9.39369
▁usually	-9.39405
▁crash	-9.39422
▁blame	-9.39446
▁training	-9.39499
mer	-9.39504
▁prepare	-9.39614
▁settle	-9.39645
light	-9.39795
▁dave	-9.39801
▁wouldve	-9.3989
▁perform	-9.40019
▁adventure	-9.40037
▁challenge	-9.40037
▁focus	-9.40037
▁stories	-9.4004
▁asshole	-9.40044
▁valley	-9.40052
▁fired	-9.40217
▁tigger	-9.4031
ez	-9.40332
▁luc	-9.40522
▁wet	-9.40599
▁weak	-9.40795
▁ridiculous	-9.40818
▁distance	-9.40818
▁writing	-9.40818
▁desert	-9.4082
▁level	-9.4084
▁score	-9.40855
▁rip	-9.40859
▁bee	-9.40869
▁closer	-9.40953
▁grandma	-9.41126
▁plant	-9.41127
cl	-9.41137
▁ear	-9.41155
▁united	-9.41198
qui	-9.41437
▁games	-9.41519
▁artist	-9.41589
▁conversation	-9.41605
▁upstairs	-9.41605
▁studio	-9.41607
▁sharp	-9.4161
▁punch	-9.41639
▁roof	-9.41659
▁whatd	-9.41783
▁trees	-9.41997
▁skin	-9.42204
▁gee	-9.4221
ya	-9.42395
▁afford	-9.42399
▁crystal	-9.42399
▁however	-9.42401
▁weekend	-9.42426
ik	-9.4248
▁students	-9.42608
▁tr	-9.42618
▁arrest	-9.42659
▁design	-9.42659
▁hearts	-9.42676
▁ticket	-9.42784
▁ruin	-9.42845
ments	-9.42877
▁health	-9.42907
▁prom	-9.42966
▁port	-9.42969
▁steve	-9.42992
▁bite	-9.43138
▁moved	-9.43158
▁beg	-9.43189
▁explosion	-9.43199
▁project	-9.43199
▁request	-9.43199
▁saturday	-9.43199
▁jacob	-9.43199
▁common	-9.43212
▁driver	-9.43371
▁lake	-9.43695
▁hank	-9.43711
▁march	-9.43754
ue	-9.43772
▁stole	-9.43898
▁cal	-9.43903
tu	-9.4394
▁rescue	-9.44006
▁freedom	-9.44006
▁claus	-9.44007
▁mile	-9.44077
▁hee	-9.44096
▁size	-9.44096
▁keeping	-9.44233
▁madame	-9.44277
▁fella	-9.44339
▁char	-9.44367
▁whistle	-9.44445
▁ears	-9.44445
uck	-9.44454
▁pie	-9.44584
▁cha	-9.44695
ex	-9.44705
▁melinda	-9.44819
▁contract	-9.44819
▁jenny	-9.44823
act	-9.44891
▁duck	-9.44897
▁style	-9.44921
▁code	-9.45
▁survive	-9.45212
ile	-9.45236
▁lou	-9.45245
▁raise	-9.45247
house	-9.45452
▁keys	-9.45464
▁ancient	-9.45638
▁nurse	-9.45639
▁boris	-9.45643
▁department	-9.45648
▁balto	-9.45651
▁map	-9.45652
▁director	-9.45709
▁you	-9.45766
▁mayor	-9.45814
▁center	-9.45947
ight	-9.46093
my	-9.46286
▁au	-9.46294
▁loves	-9.46318
▁brazil	-9.46438
▁miracle	-9.46465
▁possibly	-9.46465
▁sheriff	-9.46465
▁written	-9.46465
▁hyah	-9.46465
▁opinion	-9.46465
▁whale	-9.46534
▁market	-9.46653
▁screeching	-9.46815
nce	-9.46818
▁tie	-9.46859
▁kinda	-9.46883
ok	-9.47004
▁crow	-9.47056
▁spoke	-9.47156
uc	-9.47186
▁photo	-9.47244
▁cornelius	-9.47298
▁nonsense	-9.47298
▁scoffs	-9.47299
▁prefer	-9.47308
▁bravo	-9.47311
▁football	-9.47315
▁alice	-9.47342
▁gang	-9.4735
▁wide	-9.47362
▁mail	-9.47388
▁str	-9.47608
▁scar	-9.47695
▁losing	-9.47759
ries	-9.47836
▁ki	-9.47843
▁doll	-9.47856
ite	-9.47858
▁paint	-9.4791
side	-9.4791
▁harm	-9.47972
▁bu	-9.47997
▁bullshit	-9.48138
▁emergency	-9.48138
▁purpose	-9.48138
▁larry	-9.4814
▁rec	-9.48269
▁sweetie	-9.48402
ank	-9.48931
▁celebrate	-9.48986
▁necessary	-9.48986
▁steady	-9.48986
▁nowhere	-9.48989
▁alarm	-9.49004
▁rough	-9.49005
▁girlfriend	-9.49009
▁babe	-9.49072
▁mommy	-9.49077
▁ln	-9.49123
▁sat	-9.49328
▁siren	-9.49363
▁decide	-9.49418
▁gar	-9.49558
▁u	-9.4982
▁someday	-9.49841
▁whistling	-9.49841
▁chinese	-9.49841
▁chirping	-9.49841
▁hadnt	-9.49842
▁horrible	-9.49842
▁pressure	-9.4987
▁fathers	-9.49872
▁beer	-9.50117
▁killing	-9.5014
▁pr	-9.50207
▁row	-9.50234
▁mc	-9.50321
▁falling	-9.50524
▁gotten	-9.50532
▁picked	-9.50648
▁akita	-9.50703
▁coast	-9.50709
▁clock	-9.50728
ng	-9.5073
▁nick	-9.50776
▁ru	-9.51285
ong	-9.51299
▁heidi	-9.51573
▁ugly	-9.51573
▁chef	-9.51637
▁sisters	-9.51693
▁opening	-9.51716
▁meal	-9.51769
▁lad	-9.51791
▁butt	-9.51796
▁she	-9.5189
▁signal	-9.52002
▁wings	-9.5203
▁natural	-9.52258
▁midnight	-9.52449
▁example	-9.5245
▁enemy	-9.5245
▁demand	-9.52451
▁relationship	-9.52452
▁priest	-9.52453
▁rush	-9.52484
▁gentleman	-9.52485
▁bride	-9.52491
▁lena	-9.52522
▁yard	-9.52585
zz	-9.52607
ran	-9.52612
off	-9.52756
au	-9.52903
▁sally	-9.52946
ning	-9.53184
▁breathing	-9.53286
▁helping	-9.53302
▁giggling	-9.53334
▁holiday	-9.53334
▁opportunity	-9.53334
▁orchestra	-9.53334
▁rabbit	-9.53334
▁rainbow	-9.53334
▁duke	-9.53378
▁began	-9.53395
▁noble	-9.53413
▁nuts	-9.53482
▁coughing	-9.53502
▁barn	-9.53527
▁alan	-9.53578
down	-9.536
▁honking	-9.53604
▁copy	-9.53726
▁amen	-9.53756
▁med	-9.53815
▁create	-9.53822
▁boom	-9.53907
▁earl	-9.53957
▁che	-9.54081
▁snap	-9.54149
ust	-9.54193
▁chair	-9.54206
▁program	-9.54227
▁whenever	-9.54227
▁shirt	-9.54227
▁switch	-9.54227
▁dawn	-9.54228
▁gordy	-9.54231
▁romantic	-9.54238
▁cream	-9.54239
▁uhoh	-9.54383
▁spit	-9.54583
▁cast	-9.54649
gue	-9.54666
▁nearly	-9.54698
▁movies	-9.54699
▁harder	-9.54813
▁clicks	-9.54951
▁fort	-9.54954
ough	-9.55014
▁app	-9.55041
▁imp	-9.55088
▁suspect	-9.55128
▁morgan	-9.55128
▁gunshot	-9.55137
▁bringing	-9.55146
▁lips	-9.55197
▁button	-9.55204
▁according	-9.55243
▁steele	-9.55251
▁eric	-9.55272
com	-9.55589
▁boots	-9.55881
▁neighbor	-9.56033
▁onto	-9.56038
▁stanley	-9.56043
▁penny	-9.56054
▁shark	-9.56066
▁planned	-9.56077
▁ham	-9.56093
▁defend	-9.56097
▁je	-9.5612
▁realized	-9.56121
▁apple	-9.56142
▁riding	-9.56169
▁tor	-9.56216
▁shape	-9.56367
ities	-9.56547
▁path	-9.56576
▁cheers	-9.56755
ade	-9.56887
▁meaning	-9.56901
▁shouldve	-9.56955
▁claw	-9.56955
▁local	-9.56955
▁simon	-9.56987
▁opens	-9.57009
▁den	-9.57268
▁expected	-9.57356
▁arrive	-9.57368
▁tro	-9.57545
▁heads	-9.57679
▁drum	-9.57729
▁ty	-9.57752
▁locked	-9.57821
▁indian	-9.57878
▁gadget	-9.57881
▁johnny	-9.57923
line	-9.57926
▁tu	-9.5802
▁lesson	-9.58194
▁grown	-9.58307
▁bug	-9.58344
ett	-9.58401
▁turning	-9.58463
▁shooting	-9.58521
▁humans	-9.58579
▁fla	-9.58695
▁older	-9.58783
▁pilot	-9.58815
▁martha	-9.58815
▁wagon	-9.58815
▁insist	-9.58825
▁odd	-9.58828
▁flash	-9.58843
▁proof	-9.58879
▁pair	-9.58892
▁under	-9.58908
▁finger	-9.58953
▁scare	-9.59044
▁bike	-9.59065
▁plans	-9.59139
▁fans	-9.59196
▁noticed	-9.59388
▁thy	-9.59395
▁val	-9.59409
med	-9.59435
▁bucks	-9.59453
ham	-9.59462
tro	-9.59703
▁chick	-9.59732
oh	-9.59753
▁william	-9.59759
▁sobbing	-9.59759
▁comfortable	-9.59786
▁laura	-9.59793
▁comin	-9.59853
▁pot	-9.59857
▁her	-9.59938
▁soldier	-9.59943
▁down	-9.60007
▁claim	-9.60168
well	-9.60226
ire	-9.60308
ative	-9.60435
car	-9.60523
ify	-9.60624
▁louis	-9.60704
▁although	-9.60711
▁divorce	-9.60711
▁exciting	-9.60711
▁telephone	-9.60711
▁higher	-9.60713
▁jerk	-9.60713
▁roger	-9.60727
▁hiding	-9.6075
▁ruth	-9.60758
▁ram	-9.60784
▁shine	-9.60804
▁guards	-9.60822
▁manager	-9.60861
▁papers	-9.60906
▁walter	-9.6103
ide	-9.61113
▁tear	-9.6115
▁bud	-9.61162
▁cro	-9.61547
▁cheer	-9.61652
▁jealous	-9.61672
▁jordan	-9.61672
▁character	-9.61672
▁social	-9.61672
▁twenty	-9.61672
▁quarter	-9.6169
▁guide	-9.61693
▁product	-9.61777
▁fur	-9.61846
▁powerful	-9.61875
▁buck	-9.6202
▁buzz	-9.62036
▁golden	-9.62037
▁screw	-9.62105
▁followed	-9.62311
ford	-9.62358
▁who	-9.62427
ney	-9.62476
▁nothin	-9.62541
▁anna	-9.62584
▁marc	-9.6264
▁apologize	-9.62643
▁regret	-9.62643
▁responsible	-9.62643
▁servant	-9.62643
▁emperor	-9.62644
▁thief	-9.62644
▁julie	-9.62649
▁dump	-9.6265
▁lawyer	-9.62651
▁humming	-9.62651
▁fancy	-9.62658
▁forgotten	-9.62668
▁woof	-9.62688
▁molly	-9.62726
ction	-9.6273
gy	-9.62951
▁guest	-9.62988
▁bones	-9.63021
fa	-9.63242
▁pup	-9.63349
▁bless	-9.63589
▁coat	-9.63605
▁advice	-9.63624
▁knife	-9.63624
▁mexico	-9.63624
▁speech	-9.63624
▁subject	-9.63624
▁universe	-9.63624
▁cancer	-9.63625
▁monday	-9.63631
▁kat	-9.63633
▁community	-9.63641
▁hound	-9.63671
▁kelly	-9.63685
▁ski	-9.63713
▁cur	-9.63721
▁prize	-9.63722
▁whispering	-9.63853
▁ringle	-9.63909
▁snake	-9.63953
▁butter	-9.6396
gged	-9.63996
▁pretend	-9.63997
▁prayer	-9.64175
▁trap	-9.64206
▁slowly	-9.6422
ible	-9.64377
▁agreed	-9.64578
▁effort	-9.64614
▁rumbling	-9.64614
▁treasure	-9.64614
▁andrea	-9.64614
▁creaking	-9.64614
▁energy	-9.64614
▁stuart	-9.64614
▁goodnight	-9.64615
▁held	-9.64615
▁shock	-9.64626
▁annie	-9.64663
▁millions	-9.64727
▁com	-9.64765
▁for	-9.64821
▁lion	-9.64881
▁bears	-9.64885
▁mothers	-9.64955
▁dolly	-9.64979
▁concern	-9.65074
▁crown	-9.65107
▁prepared	-9.65158
▁arrange	-9.6519
▁log	-9.65375
old	-9.65452
▁lies	-9.65542
▁daniel	-9.65566
▁brilliant	-9.65614
▁shoulder	-9.65614
▁poison	-9.65614
▁document	-9.65614
▁roaring	-9.65615
▁jones	-9.65618
▁owner	-9.65674
▁note	-9.65825
▁goal	-9.65924
▁pure	-9.65954
▁bow	-9.65989
▁softly	-9.65998
▁actor	-9.66099
▁dean	-9.66114
▁don	-9.66165
▁commander	-9.66414
▁sudden	-9.66433
▁rap	-9.66444
▁soldiers	-9.66446
▁europe	-9.66569
ude	-9.66579
▁california	-9.66624
▁catholic	-9.66624
▁pocket	-9.66624
▁square	-9.66624
▁limit	-9.66625
▁desire	-9.66627
▁merlin	-9.66634
▁kitty	-9.66635
▁grass	-9.66665
▁feelings	-9.66716
▁mis	-9.66717
▁rob	-9.66751
▁inc	-9.66757
cha	-9.66855
▁records	-9.66859
▁original	-9.66906
chi	-9.6706
▁doin	-9.67114
end	-9.67118
▁rum	-9.67446
▁scream	-9.67505
▁innocent	-9.67644
▁matilda	-9.67644
▁represent	-9.67644
▁courage	-9.67644
▁hercules	-9.67644
▁piano	-9.67645
▁tower	-9.67646
▁pole	-9.67646
▁bathroom	-9.67649
▁teddy	-9.67657
▁equal	-9.67694
▁dust	-9.67705
▁es	-9.67711
▁guilty	-9.67719
▁frog	-9.67758
▁taxi	-9.67804
ja	-9.67855
ven	-9.67873
▁cops	-9.67933
▁dusty	-9.67956
▁awake	-9.67963
▁indistinctly	-9.68039
▁walked	-9.68209
▁breaking	-9.68223
▁cent	-9.68345
▁streets	-9.68356
▁will	-9.68386
board	-9.68456
▁usual	-9.685
▁letters	-9.68576
▁ken	-9.6859
▁calls	-9.68636
▁birth	-9.68671
▁chocolate	-9.68675
▁junior	-9.68675
▁diamond	-9.68675
▁wound	-9.68682
▁hm	-9.68701
▁stock	-9.68709
▁iron	-9.68728
▁soup	-9.68784
▁drinking	-9.68784
▁bath	-9.6886
▁pin	-9.68932
ram	-9.68963
▁spare	-9.69081
▁member	-9.69227
tt	-9.69347
▁rocks	-9.69369
▁oil	-9.69386
fu	-9.69539
ette	-9.69595
▁evidence	-9.69717
▁pizza	-9.69717
▁century	-9.69717
▁generation	-9.69717
▁knowledge	-9.69717
▁off	-9.6974
▁whip	-9.69794
▁tip	-9.69873
▁creatures	-9.69992
▁turns	-9.70054
▁invited	-9.70093
lit	-9.70141
▁customer	-9.70278
▁skate	-9.70326
▁exp	-9.70338
▁killer	-9.70543
her	-9.70593
▁africa	-9.70612
▁pope	-9.7075
▁michael	-9.7077
▁annabel	-9.7077
▁avoid	-9.7077
▁gamble	-9.7077
▁japanese	-9.7077
▁threw	-9.7077
▁jimmy	-9.70782
▁replace	-9.70786
▁towards	-9.70792
ju	-9.70806
▁warren	-9.7082
▁pink	-9.70889
▁shoe	-9.70952
▁ding	-9.71031
ef	-9.71147
▁leaves	-9.71164
▁tri	-9.7123
▁beeping	-9.71285
▁rem	-9.71327
▁legal	-9.71355
▁warning	-9.71391
▁pound	-9.715
▁bay	-9.7168
▁showed	-9.71731
▁heading	-9.71776
▁contest	-9.71805
▁destroyed	-9.71807
▁medicine	-9.71833
▁arthur	-9.71834
▁shadow	-9.71834
▁edward	-9.7184
▁meow	-9.71874
▁strip	-9.7189
▁announcer	-9.71922
▁returned	-9.71924
q	-9.71961
▁barry	-9.71965
▁metal	-9.7199
▁yell	-9.7201
▁surely	-9.72078
▁swing	-9.72086
▁rare	-9.7213
▁paying	-9.72283
▁rats	-9.7249
▁buzzing	-9.72512
ake	-9.72558
▁file	-9.72575
▁crashing	-9.72685
▁ban	-9.72698
▁collect	-9.72698
▁total	-9.72719
▁plays	-9.72849
▁believed	-9.72868
▁andrew	-9.72909
▁interview	-9.72909
▁joseph	-9.72909
▁military	-9.72909
▁understood	-9.72909
▁victim	-9.72909
▁credit	-9.7291
▁adult	-9.7291
▁issue	-9.7291
▁mercy	-9.72918
▁governor	-9.72931
▁belongs	-9.72938
▁planning	-9.72948
▁fu	-9.72978
▁bound	-9.73
▁bout	-9.73061
▁professional	-9.73077
▁hugo	-9.7308
▁ships	-9.7318
▁knowing	-9.73259
▁za	-9.73357
▁lately	-9.73372
▁heavens	-9.73382
ute	-9.73435
ino	-9.73452
tle	-9.7353
▁lap	-9.73641
▁image	-9.73774
but	-9.7381
▁wing	-9.7383
▁fought	-9.73996
▁result	-9.73996
▁vacation	-9.73996
▁text	-9.73996
▁fruit	-9.73997
▁aware	-9.74006
▁split	-9.74012
▁clue	-9.7402
▁desk	-9.74023
▁yay	-9.74032
▁winning	-9.74052
▁wire	-9.74058
▁pumpkin	-9.74093
▁pulled	-9.74104
▁sooner	-9.74117
▁plain	-9.74135
▁slam	-9.74188
▁mat	-9.74218
ou	-9.74235
▁acting	-9.74286
▁leo	-9.74304
▁flow	-9.74314
▁tara	-9.74314
▁paw	-9.74324
▁pounds	-9.7437
▁shower	-9.74372
▁tradition	-9.74422
▁qua	-9.74493
▁seal	-9.74508
▁mighty	-9.74887
▁cab	-9.74977
▁mei	-9.75026
bble	-9.75091
▁concert	-9.75095
▁murray	-9.75095
▁neecro	-9.75095
▁pregnant	-9.75095
▁science	-9.75095
▁british	-9.75095
▁insane	-9.75095
▁witness	-9.75095
▁washington	-9.75095
▁genius	-9.75097
▁iii	-9.75146
▁stayed	-9.75177
▁apartment	-9.75196
ub	-9.75197
ko	-9.75201
▁assure	-9.7528
▁unit	-9.75318
▁burning	-9.75451
▁brad	-9.75587
▁fate	-9.75677
▁eva	-9.7573
▁couldve	-9.7575
▁refuse	-9.75786
▁creature	-9.75913
▁student	-9.75914
ric	-9.76056
val	-9.76088
▁bone	-9.76153
▁gentle	-9.76155
▁theodore	-9.76206
▁whimpering	-9.76206
▁byebye	-9.76206
▁grew	-9.76207
▁damage	-9.76218
▁bobby	-9.76239
ever	-9.76255
▁howling	-9.76504
▁glasses	-9.76531
▁jane	-9.76675
▁concerned	-9.76809
▁dressing	-9.76831
▁bowl	-9.76899
▁reporter	-9.77017
▁success	-9.77142
▁bust	-9.772
▁bla	-9.7732
▁slip	-9.77327
▁easier	-9.77329
▁fashion	-9.77329
▁wednesday	-9.77329
▁greek	-9.77329
▁sneak	-9.77329
▁wherever	-9.7733
▁nightmare	-9.7733
▁davy	-9.7733
▁sugar	-9.77335
▁helen	-9.77335
▁earlier	-9.77348
▁dropped	-9.77381
▁habit	-9.77389
▁photograph	-9.77403
▁nobodys	-9.77597
▁chain	-9.77621
▁received	-9.77649
ied	-9.77698
▁nu	-9.77729
▁clears	-9.77791
▁scary	-9.77794
ana	-9.77866
▁nah	-9.77937
▁career	-9.78012
ium	-9.78323
▁intense	-9.78466
▁otherwise	-9.78466
▁groove	-9.78466
▁snoring	-9.78467
▁whoever	-9.78473
▁swimming	-9.78485
▁unh	-9.78495
▁proper	-9.78495
▁aboard	-9.78508
▁friendly	-9.7853
▁ber	-9.7858
▁hearing	-9.78616
▁fang	-9.78695
▁mule	-9.7874
▁cubs	-9.78828
▁ape	-9.78854
▁eggs	-9.7896
▁ordered	-9.79146
▁soo	-9.79168
▁direct	-9.79234
▁elephant	-9.7944
▁par	-9.7955
▁mud	-9.79587
▁advance	-9.79615
▁permission	-9.79615
▁research	-9.79615
▁giggles	-9.79615
▁albert	-9.79616
▁sterling	-9.79616
▁rotten	-9.79622
▁education	-9.7963
▁warn	-9.79634
▁drown	-9.79662
▁whore	-9.79703
▁sch	-9.79731
▁bullet	-9.79775
▁china	-9.79793
▁squealing	-9.79796
▁hans	-9.79849
▁belt	-9.79858
▁pitch	-9.79992
▁pee	-9.80034
▁appear	-9.80069
▁discovered	-9.80071
▁created	-9.80179
▁rev	-9.80255
own	-9.80445
▁obvious	-9.80587
over	-9.80588
▁hunting	-9.80596
hh	-9.80753
▁blanket	-9.80778
▁produce	-9.80778
▁university	-9.80778
▁joshua	-9.80778
▁intend	-9.80778
▁cancel	-9.80781
▁justice	-9.80784
▁bread	-9.80798
▁glow	-9.80807
▁loving	-9.80827
▁nope	-9.80832
what	-9.80878
▁liar	-9.80917
▁blast	-9.80972
▁pour	-9.8105
▁knocking	-9.81053
ose	-9.81059
nn	-9.81112
▁saving	-9.81131
▁buying	-9.81329
▁prime	-9.81428
▁hum	-9.81474
▁expecting	-9.81525
▁invite	-9.81531
▁nail	-9.81592
▁load	-9.81623
▁wee	-9.81763
▁hal	-9.81857
use	-9.81898
▁mount	-9.81954
▁affair	-9.81954
▁delicious	-9.81954
▁international	-9.81954
▁responsibility	-9.81954
▁terrific	-9.81954
▁plus	-9.81955
▁hollywood	-9.81957
▁silence	-9.81959
▁clever	-9.8197
▁disgusting	-9.82053
▁safety	-9.82097
▁piss	-9.82197
▁aii	-9.82202
istic	-9.82221
▁chase	-9.82267
▁places	-9.82312
▁tune	-9.82386
▁charming	-9.82445
▁signed	-9.82492
▁blowing	-9.82556
▁cars	-9.82619
▁carefully	-9.82796
▁hung	-9.82877
▁swan	-9.82973
▁disc	-9.83013
▁depends	-9.83054
▁bastian	-9.83145
▁exhales	-9.83145
▁magazine	-9.83145
▁regular	-9.83145
▁medical	-9.83161
▁plate	-9.83171
▁para	-9.83177
▁smells	-9.83177
▁maddy	-9.8323
▁woods	-9.83253
▁mag	-9.83348
▁trade	-9.83443
▁flower	-9.8345
▁bri	-9.83487
gh	-9.83492
▁tin	-9.83517
▁fixed	-9.83526
▁covered	-9.83591
▁seek	-9.8382
▁corn	-9.83869
▁zoo	-9.83879
▁blu	-9.83996
▁deed	-9.84015
pped	-9.84086
▁teaching	-9.84106
▁particular	-9.84157
▁pit	-9.84179
▁def	-9.84194
▁witch	-9.842
▁filled	-9.84341
▁attempt	-9.8435
▁familiar	-9.8435
▁footsteps	-9.8435
▁defeat	-9.8436
▁flag	-9.8439
▁jet	-9.84411
▁staff	-9.84466
▁vo	-9.84603
▁headed	-9.84604
han	-9.84672
▁gen	-9.84743
▁lookin	-9.84745
▁hop	-9.84769
ors	-9.84785
▁sucker	-9.84863
▁spin	-9.8491
▁itd	-9.84996
▁blessing	-9.85108
▁selling	-9.85192
▁everythings	-9.85246
▁gettin	-9.85296
▁ref	-9.8533
▁ven	-9.85387
▁blows	-9.85441
▁bum	-9.85445
▁dads	-9.85469
▁pieces	-9.85558
▁sacrifice	-9.85569
▁taylor	-9.85569
▁tischendorf	-9.85569
▁several	-9.85569
▁attend	-9.85569
▁glory	-9.8557
▁pleasant	-9.8557
▁cheap	-9.85571
▁feather	-9.85574
▁puppy	-9.85576
▁print	-9.85577
▁pride	-9.8558
▁jewish	-9.85583
▁property	-9.85597
▁candy	-9.8561
▁weapon	-9.85613
▁scout	-9.85616
▁hug	-9.85617
▁mer	-9.85625
▁emily	-9.85627
▁boring	-9.85639
▁salt	-9.85647
▁mal	-9.85742
▁chu	-9.85787
▁medal	-9.86045
▁lucy	-9.86053
▁personally	-9.86123
right	-9.86164
▁writer	-9.86206
ease	-9.86263
▁lily	-9.86317
▁sla	-9.8637
▁ruined	-9.864
work	-9.86524
▁tears	-9.8658
▁mood	-9.8662
ably	-9.86623
can	-9.86628
▁ends	-9.8665
▁object	-9.86661
▁helped	-9.86665
▁freeze	-9.86667
▁chuck	-9.86709
cent	-9.86775
▁bounce	-9.86804
▁experiment	-9.86804
▁interrupt	-9.86804
▁italian	-9.86804
▁monsieur	-9.86804
▁oclock	-9.86804
▁stretch	-9.86804
▁upbeat	-9.86804
▁regard	-9.86804
▁spoil	-9.86804
▁adopt	-9.86805
▁trans	-9.86807
▁bunny	-9.86808
▁magnet	-9.86809
▁tongue	-9.8681
▁cowboy	-9.8681
▁airport	-9.86837
▁unfortunately	-9.86876
▁depend	-9.86899
▁forge	-9.86911
gi	-9.87004
▁successful	-9.8701
▁stolen	-9.87022
▁temp	-9.87248
▁mid	-9.87408
▁closes	-9.87575
▁learning	-9.87624
▁release	-9.87627
▁shows	-9.87685
▁stink	-9.87753
▁younger	-9.87796
▁waves	-9.87799
▁official	-9.8786
▁los	-9.87907
lock	-9.87962
▁threat	-9.88053
▁available	-9.88054
▁desperate	-9.88054
▁grandmother	-9.88054
▁hidden	-9.88054
▁manuscript	-9.88054
▁stomach	-9.88054
▁whirring	-9.88054
▁album	-9.88054
▁material	-9.88054
▁ronnie	-9.88054
▁expert	-9.88055
▁precious	-9.88071
▁trash	-9.88077
▁performance	-9.88083
▁grade	-9.88084
▁suffer	-9.88155
ov	-9.88178
pen	-9.88181
▁thirsty	-9.88184
▁victory	-9.8827
▁ideas	-9.88521
ified	-9.88522
▁gain	-9.88694
▁bon	-9.88713
tain	-9.88731
▁pleased	-9.88798
▁rub	-9.88865
nder	-9.8902
wood	-9.89099
▁manner	-9.89103
▁anne	-9.89178
▁pol	-9.89209
▁is	-9.89314
▁easily	-9.89319
▁guarantee	-9.89319
▁invincible	-9.89319
▁popular	-9.8932
▁lodge	-9.8932
▁barely	-9.89323
▁expensive	-9.89326
▁circus	-9.89338
▁claire	-9.89438
▁cy	-9.89524
▁letting	-9.89526
▁sink	-9.89586
▁aim	-9.89761
tan	-9.89943
▁trumpet	-9.89999
ama	-9.90189
▁movement	-9.90306
▁tan	-9.9036
port	-9.90409
log	-9.90432
ack	-9.90512
▁amount	-9.90602
▁clouseau	-9.90602
▁palace	-9.90614
▁grain	-9.90642
▁assume	-9.90643
▁edge	-9.90656
▁heck	-9.90666
▁beck	-9.90681
▁nasty	-9.90684
▁darkness	-9.90723
▁murmuring	-9.90725
▁stronger	-9.90733
▁clearly	-9.90734
▁finding	-9.90766
▁spa	-9.90808
▁deck	-9.90906
▁dia	-9.90986
▁et	-9.91018
▁stu	-9.91234
▁jar	-9.91339
▁toys	-9.9135
▁served	-9.91413
▁ned	-9.91459
▁separate	-9.91473
▁passing	-9.91561
▁hay	-9.91591
▁lower	-9.91646
▁cloth	-9.91755
▁ren	-9.91778
▁apparently	-9.919
▁criminal	-9.919
▁source	-9.919
▁mostly	-9.91901
row	-9.91906
▁growls	-9.91913
▁title	-9.9192
▁thousands	-9.91934
▁stealing	-9.91936
▁jamie	-9.91963
▁trial	-9.92047
▁sonny	-9.92094
gger	-9.92274
▁beep	-9.92345
▁the	-9.92476
gie	-9.92512
za	-9.92515
▁pity	-9.9254
▁counting	-9.92549
nic	-9.9257
▁mole	-9.9265
▁shout	-9.92663
▁ant	-9.92932
▁express	-9.93115
▁wrap	-9.93205
▁citizen	-9.93216
▁equipment	-9.93216
▁scratch	-9.93216
▁presence	-9.93218
▁ivy	-9.93219
▁broadway	-9.93223
▁dish	-9.93233
▁trained	-9.93248
▁jeff	-9.93253
▁coins	-9.93276
▁levi	-9.93331
lle	-9.93369
▁hen	-9.93574
▁qui	-9.93619
▁lab	-9.93664
rit	-9.93846
ker	-9.9385
▁approach	-9.93932
▁cards	-9.93973
▁gay	-9.94056
▁fail	-9.94095
▁gal	-9.9417
▁tale	-9.94259
▁numbers	-9.94263
▁led	-9.94275
▁fin	-9.94281
room	-9.94383
▁organ	-9.94529
▁destiny	-9.94549
▁gorgeous	-9.94549
▁ignore	-9.94549
▁napoleon	-9.94549
▁occasion	-9.94549
▁nelson	-9.94549
▁period	-9.9455
▁blew	-9.9455
▁baron	-9.94568
▁argh	-9.94571
▁chop	-9.94616
▁hallie	-9.94674
▁changing	-9.94697
▁bean	-9.94724
ient	-9.94829
▁hunter	-9.94981
arm	-9.95048
▁gro	-9.95052
▁talkin	-9.95194
ace	-9.95456
▁ob	-9.95478
▁guests	-9.95512
▁root	-9.95546
▁backup	-9.95573
ily	-9.9558
ger	-9.95642
▁bark	-9.95651
ties	-9.9578
▁showing	-9.95882
▁caitlyn	-9.95901
▁celebi	-9.95901
▁humphrey	-9.95901
▁fortune	-9.95901
▁crumb	-9.95901
▁ryan	-9.95902
▁abby	-9.95945
▁wipe	-9.9596
▁task	-9.95975
▁recently	-9.9598
▁remove	-9.96015
▁presents	-9.96054
▁cheat	-9.96087
▁pip	-9.9625
ini	-9.96291
▁lifetime	-9.96344
▁term	-9.96416
▁honestly	-9.9642
▁discover	-9.96425
▁laid	-9.96575
▁robb	-9.96583
▁not	-9.96617
▁and	-9.96712
▁gather	-9.96745
cat	-9.96797
▁tiggers	-9.96801
▁mill	-9.96976
izing	-9.97229
▁civil	-9.97232
▁beloved	-9.97271
▁schedule	-9.97271
▁society	-9.97271
▁unusual	-9.97271
▁sunshine	-9.97271
▁julio	-9.97271
▁babies	-9.97271
▁botat	-9.97271
▁presley	-9.97274
▁virgil	-9.97282
▁moses	-9.97296
▁toby	-9.97305
▁route	-9.97311
▁tj	-9.97316
▁coward	-9.9735
▁passion	-9.97457
▁cage	-9.97505
▁dex	-9.97679
▁heroes	-9.97754
▁loser	-9.97813
▁yah	-9.97967
▁opened	-9.97989
▁attacked	-9.98005
▁sniff	-9.98042
tte	-9.98271
field	-9.98432
▁pump	-9.98569
▁beth	-9.98604
hood	-9.98647
▁claude	-9.98655
book	-9.98658
▁enemies	-9.98659
▁krasta	-9.98659
▁positive	-9.98659
▁knight	-9.9866
▁twist	-9.9866
▁wreck	-9.9866
▁forbidden	-9.9866
▁praise	-9.9866
▁shift	-9.9866
▁earn	-9.98663
▁brains	-9.9867
▁savage	-9.98672
▁clown	-9.98676
▁therell	-9.98682
▁authority	-9.98689
▁ai	-9.98695
▁legend	-9.987
▁maid	-9.98709
▁lauren	-9.9876
▁cre	-9.98763
▁cure	-9.98764
▁foolish	-9.98766
▁pur	-9.988
▁powers	-9.98823
▁flame	-9.99002
▁disappeared	-9.99165
▁dollar	-9.99365
▁sunk	-9.99369
▁reality	-9.99405
▁tickets	-9.9941
▁cape	-9.99498
bra	-9.99539
▁moo	-9.99616
away	-9.99707
▁tied	-9.99889
app	-9.99937
day	-10.0003
▁singer	-10.0006
▁cliff	-10.0007
▁behave	-10.0007
▁peanut	-10.0007
▁smoking	-10.0007
▁sponsor	-10.0007
▁therefore	-10.0007
▁current	-10.0007
▁false	-10.0007
▁donald	-10.0007
▁moaning	-10.0007
▁picnic	-10.0007
▁ethan	-10.0007
▁buried	-10.0008
▁junk	-10.0008
▁philip	-10.0009
▁parade	-10.0012
blank	-10.0014
▁chill	-10.0024
▁searching	-10.0027
▁marshal	-10.0043
▁woody	-10.0075
▁balls	-10.008
▁raised	-10.008
▁carol	-10.0085
▁panic	-10.0101
▁ol	-10.0106
▁provide	-10.0107
▁cigarettes	-10.011
▁shy	-10.0117
▁drag	-10.0126
sky	-10.0141
▁treated	-10.0142
▁harris	-10.0143
stone	-10.0145
▁channel	-10.015
▁modern	-10.015
▁quixote	-10.015
▁television	-10.015
▁whimpers	-10.015
▁oliver	-10.015
▁reveal	-10.015
▁manolo	-10.015
▁tiger	-10.0152
▁trapped	-10.0152
▁heavily	-10.0153
▁razz	-10.0153
▁thou	-10.0154
▁phil	-10.0157
▁screen	-10.0161
▁sighing	-10.019
maker	-10.0191
▁bur	-10.0196
▁ton	-10.0197
▁pulling	-10.0207
▁forth	-10.0224
aaa	-10.0224
▁woo	-10.0228
▁thin	-10.0229
▁screech	-10.0233
▁uhh	-10.0247
▁deeply	-10.025
▁casey	-10.0256
eth	-10.0265
▁sob	-10.0281
▁dancer	-10.0281
▁comfort	-10.029
▁net	-10.0293
▁appointment	-10.0295
▁borrow	-10.0295
▁defense	-10.0295
▁thirty	-10.0295
▁ashamed	-10.0295
▁launch	-10.0295
▁donkey	-10.0295
▁brief	-10.0295
▁flipper	-10.0296
▁value	-10.0297
▁unique	-10.0298
fish	-10.0299
leberry	-10.03
▁section	-10.0302
bit	-10.0303
▁cabin	-10.0318
▁songs	-10.0319
▁lamp	-10.0325
▁tense	-10.0343
▁gum	-10.0352
▁cart	-10.0352
▁sport	-10.0378
▁mix	-10.0398
▁require	-10.0399
▁barks	-10.0399
lon	-10.0404
▁spy	-10.0405
▁germans	-10.0409
▁non	-10.0416
▁somethin	-10.0431
ology	-10.0441
▁empire	-10.0442
▁measure	-10.0442
▁divine	-10.0442
▁caesar	-10.0442
▁capital	-10.0442
▁proceed	-10.0442
▁nerve	-10.0442
▁stroke	-10.0442
▁candle	-10.0442
▁toast	-10.0442
▁stood	-10.0442
▁latin	-10.0444
▁voiceover	-10.0445
▁shopping	-10.0445
▁rude	-10.0449
▁starving	-10.045
▁extremely	-10.0452
▁sanna	-10.0453
▁tra	-10.0458
▁knees	-10.0465
▁tank	-10.0473
▁naturally	-10.0474
like	-10.0478
rin	-10.0499
▁yells	-10.05
▁sec	-10.0505
▁lack	-10.0519
▁moral	-10.0525
rick	-10.0528
▁shoo	-10.0535
▁terms	-10.0535
▁disappear	-10.0537
▁arrested	-10.0542
▁receive	-10.0549
▁string	-10.0553
▁complain	-10.0558
▁rolling	-10.0575
▁jam	-10.0589
▁champagne	-10.0591
▁downstairs	-10.0591
▁families	-10.0591
▁including	-10.0591
▁isaac	-10.0591
▁museum	-10.0591
▁physical	-10.0591
▁principal	-10.0591
▁progress	-10.0591
▁raccoon	-10.0591
▁resign	-10.0591
▁scientist	-10.0591
▁suspense	-10.0591
▁norman	-10.0591
▁flesh	-10.0591
▁thud	-10.0591
▁propose	-10.0593
▁sentence	-10.0596
▁practically	-10.0597
▁alien	-10.0598
▁johnson	-10.0607
▁flu	-10.061
▁egg	-10.0615
▁robin	-10.0621
▁patch	-10.0622
iy	-10.0625
▁clouds	-10.0628
cious	-10.0663
▁germany	-10.0665
▁visitor	-10.0672
oi	-10.0675
▁mustnt	-10.0686
▁answers	-10.073
▁curse	-10.0739
▁audition	-10.0742
▁benefit	-10.0742
▁confidence	-10.0742
▁magnificent	-10.0742
▁olympic	-10.0742
▁piranha	-10.0742
▁tunnel	-10.0742
▁uniform	-10.0742
▁vehicle	-10.0742
▁agency	-10.0742
▁process	-10.0742
▁mirror	-10.0742
▁dozen	-10.0742
▁statue	-10.0742
▁supper	-10.0743
▁becoming	-10.0744
▁thrill	-10.0744
▁height	-10.0745
▁secure	-10.0745
▁option	-10.0745
▁chew	-10.0757
▁circle	-10.0759
▁youth	-10.0759
▁lean	-10.0762
▁offered	-10.0763
▁skip	-10.0765
▁ranch	-10.0769
that	-10.0777
▁charm	-10.0786
▁ap	-10.0796
▁chest	-10.0796
▁chap	-10.08
▁healthy	-10.0801
▁begins	-10.0808
▁farmer	-10.0812
▁manage	-10.0812
▁sometime	-10.0841
▁wand	-10.0845
▁wo	-10.0852
▁recording	-10.0857
▁chose	-10.0883
▁confess	-10.089
▁abigail	-10.0896
▁croatian	-10.0896
▁elizabeth	-10.0896
▁expedition	-10.0896
▁glorious	-10.0896
▁jeannette	-10.0896
▁fetch	-10.0896
▁cruel	-10.0896
▁drove	-10.0896
▁thudding	-10.0897
▁zero	-10.0897
▁marvelous	-10.0897
▁surface	-10.0897
▁brush	-10.0897
▁mask	-10.0899
▁theme	-10.0899
▁reward	-10.09
▁luke	-10.0901
▁impression	-10.0901
▁motor	-10.0903
▁sock	-10.0909
▁friendship	-10.0914
▁it	-10.0916
ito	-10.092
▁robbery	-10.0923
▁bored	-10.0926
▁ay	-10.093
▁disappointed	-10.0935
▁cookie	-10.0936
▁touched	-10.0948
▁vin	-10.0948
▁tax	-10.0958
▁cooking	-10.0974
▁bel	-10.0977
▁lied	-10.1008
▁ended	-10.1013
▁tum	-10.1027
▁details	-10.1038
▁nap	-10.1038
▁effect	-10.1049
▁afshin	-10.1052
▁chicago	-10.1052
▁describe	-10.1052
▁gertrude	-10.1052
▁mystery	-10.1052
▁newspaper	-10.1052
▁reputation	-10.1052
▁slept	-10.1052
▁assistant	-10.1053
▁gordon	-10.1053
▁paradise	-10.1053
▁disaster	-10.1053
▁farnaz	-10.1053
▁plum	-10.1053
▁license	-10.1053
▁alvin	-10.1053
▁attitude	-10.1053
▁trunk	-10.1053
▁honour	-10.1054
▁basically	-10.1054
▁wilson	-10.1054
▁recall	-10.1055
▁ashley	-10.1057
▁fox	-10.1059
▁charity	-10.106
▁pill	-10.1073
five	-10.108
▁dreamed	-10.1084
mate	-10.1084
▁fourth	-10.1098
▁banging	-10.1099
▁hood	-10.1103
ville	-10.1107
▁monsters	-10.1126
▁goose	-10.1144
ula	-10.116
▁grave	-10.1161
▁pigs	-10.1169
▁pla	-10.117
▁squeaks	-10.117
▁notes	-10.1172
▁sauce	-10.1176
▁tapes	-10.118
▁sending	-10.1181
▁inform	-10.1206
load	-10.1207
gen	-10.1207
▁breeze	-10.1211
▁extraordinary	-10.1211
▁individual	-10.1211
▁nephew	-10.1211
▁someplace	-10.1211
▁outfit	-10.1211
▁review	-10.1211
▁sensation	-10.1211
▁border	-10.1211
▁session	-10.1211
▁echo	-10.1211
▁float	-10.1211
▁region	-10.1211
▁distract	-10.1211
▁await	-10.1211
▁element	-10.1211
▁delay	-10.1212
▁firm	-10.1212
▁crush	-10.1212
▁recover	-10.1212
▁compete	-10.1213
▁juice	-10.1214
▁thick	-10.1222
▁wishes	-10.1225
▁roman	-10.1227
▁tar	-10.124
▁ser	-10.1243
run	-10.1256
▁fake	-10.1257
▁toss	-10.1261
▁eve	-10.1264
▁haul	-10.1273
▁badly	-10.1275
▁mel	-10.1281
▁deny	-10.1282
▁approaching	-10.1285
▁bush	-10.13
▁watched	-10.1305
▁just	-10.132
▁tricks	-10.1327
▁convince	-10.133
▁cloud	-10.1332
▁india	-10.1354
▁noon	-10.1354
point	-10.1357
▁magical	-10.1364
▁punish	-10.1368
▁eagle	-10.1373
▁library	-10.1373
▁political	-10.1373
▁vandergelder	-10.1373
▁toilet	-10.1373
▁simonides	-10.1373
▁funeral	-10.1373
▁shining	-10.1373
▁denny	-10.1375
▁republican	-10.1375
▁monty	-10.138
▁tool	-10.1381
▁ego	-10.1389
▁brandon	-10.1393
▁factory	-10.1394
▁african	-10.1397
▁landing	-10.1397
▁tinker	-10.1398
▁lili	-10.14
▁useless	-10.1415
▁clicking	-10.1422
▁nest	-10.1432
▁chat	-10.1435
▁sexy	-10.1439
▁ate	-10.1439
▁members	-10.1449
▁thrown	-10.1451
some	-10.1453
lv	-10.1467
top	-10.147
face	-10.148
▁cub	-10.1481
▁salad	-10.149
▁thr	-10.1495
▁melt	-10.1505
▁anti	-10.1507
▁eaten	-10.1516
▁spark	-10.1524
▁sean	-10.153
▁egypt	-10.1534
▁doug	-10.1535
▁beneath	-10.1536
▁charlotte	-10.1536
▁commercial	-10.1536
▁mysterious	-10.1536
▁scientific	-10.1536
▁volunteer	-10.1536
▁barbara	-10.1536
▁patience	-10.1536
▁smash	-10.1536
▁kevin	-10.1536
▁chloe	-10.1536
▁reckon	-10.1536
▁swearnet	-10.1537
▁closing	-10.1537
▁wailing	-10.1537
▁jelly	-10.1537
▁faint	-10.1537
▁excitement	-10.1537
▁vision	-10.1538
▁prop	-10.1545
▁collection	-10.1546
▁guardian	-10.1546
▁flies	-10.1553
▁stake	-10.1555
rie	-10.1555
▁standard	-10.1565
▁hills	-10.1578
▁dug	-10.1592
▁marie	-10.1599
▁hanky	-10.16
▁beating	-10.1616
▁angels	-10.1623
▁quietly	-10.1648
▁snakes	-10.1649
▁gasp	-10.1649
▁sum	-10.1674
▁slave	-10.1676
▁hire	-10.1677
▁forces	-10.1679
▁psych	-10.1681
▁lions	-10.17
▁basket	-10.1702
▁alfred	-10.1703
▁elevator	-10.1703
▁establish	-10.1703
▁sandwich	-10.1703
▁subtitle	-10.1703
▁surrender	-10.1703
▁throughout	-10.1703
▁eventually	-10.1703
▁relative	-10.1703
▁routine	-10.1703
▁tentrees	-10.1703
▁bonnie	-10.1703
▁theater	-10.1703
▁central	-10.1703
▁susan	-10.1704
▁wasting	-10.1704
▁bubble	-10.1704
▁accent	-10.1705
▁joking	-10.1706
▁silk	-10.1708
▁tooth	-10.171
▁decent	-10.1711
▁margo	-10.1716
▁coughs	-10.1724
ked	-10.1725
bed	-10.1736
▁ox	-10.1739
▁goats	-10.1739
▁knee	-10.1748
▁loss	-10.1752
▁miller	-10.1759
▁til	-10.1762
▁reached	-10.18
▁sur	-10.1804
▁monk	-10.1806
ache	-10.1816
tre	-10.1816
▁counter	-10.1816
▁pups	-10.1827
▁theo	-10.1828
▁carla	-10.1834
▁bernie	-10.1842
▁pipe	-10.1844
▁instrument	-10.185
▁ana	-10.1853
▁indians	-10.1858
▁dar	-10.1861
▁admiral	-10.1873
▁georgie	-10.1873
▁muffled	-10.1873
▁muscle	-10.1873
▁thomas	-10.1873
▁axel	-10.1873
▁traitor	-10.1873
▁sweep	-10.1873
▁improve	-10.1873
▁model	-10.1873
▁twin	-10.1873
▁roars	-10.1874
▁sunset	-10.1874
▁leon	-10.1876
▁howard	-10.1878
▁fence	-10.188
▁aside	-10.1881
▁trace	-10.1881
▁series	-10.1882
▁june	-10.1885
▁secretary	-10.1886
▁iike	-10.189
▁copper	-10.1892
▁dam	-10.1898
▁darn	-10.1906
▁impressed	-10.1907
▁angeles	-10.1925
ji	-10.1928
▁mass	-10.1934
▁arch	-10.1938
▁ger	-10.1942
▁fallen	-10.1944
▁loaded	-10.1951
▁entirely	-10.1953
▁sports	-10.1954
▁hip	-10.1958
▁screwed	-10.1968
▁bert	-10.1974
zi	-10.1984
▁sale	-10.2018
▁fantasy	-10.2045
▁garbage	-10.2045
▁mmmhmm	-10.2045
▁nikki	-10.2045
▁smooth	-10.2045
▁twelve	-10.2045
▁declare	-10.2045
▁rachel	-10.2045
▁rifle	-10.2045
▁weii	-10.2045
▁zeus	-10.2045
▁scrap	-10.2046
▁ut	-10.2046
▁curious	-10.2047
▁francisco	-10.2048
▁lousy	-10.2048
▁theory	-10.2048
▁diane	-10.2051
▁janie	-10.2052
▁lisa	-10.2052
▁complicated	-10.2058
▁burned	-10.2073
▁circumstances	-10.2081
▁inner	-10.2088
▁sailor	-10.209
hu	-10.2097
fo	-10.2098
read	-10.2104
▁host	-10.2105
▁picking	-10.2105
▁whistles	-10.2125
▁min	-10.2136
▁dive	-10.214
▁beard	-10.2159
▁based	-10.2164
coming	-10.2164
▁publish	-10.2166
▁emotional	-10.2167
▁mentioned	-10.2173
▁thee	-10.2175
▁solve	-10.2178
▁hon	-10.219
▁fully	-10.2198
▁bearing	-10.221
▁drawing	-10.2219
▁scholar	-10.2219
▁anxious	-10.222
▁cricket	-10.222
▁rebecca	-10.222
▁register	-10.222
▁rhythm	-10.222
▁skull	-10.222
▁technical	-10.222
▁whiskey	-10.222
▁committee	-10.222
▁explore	-10.222
▁doorbell	-10.2221
▁bodies	-10.2221
▁jesse	-10.2221
▁disease	-10.2223
▁obey	-10.2223
▁jenna	-10.2223
boat	-10.2225
ux	-10.2226
▁porn	-10.2227
▁nut	-10.223
▁mental	-10.2233
historic	-10.2242
▁squeaking	-10.2243
▁appears	-10.2243
▁instrumental	-10.2244
▁frankie	-10.2268
▁leading	-10.2289
▁stormy	-10.2296
▁classes	-10.2305
▁mutt	-10.2316
▁escaped	-10.232
ward	-10.233
looking	-10.2337
▁kay	-10.2351
▁checked	-10.2358
▁forced	-10.2363
▁victor	-10.2368
vie	-10.2379
▁spelling	-10.2387
▁weapons	-10.2393
▁toward	-10.2397
▁nathan	-10.2398
▁august	-10.2399
▁escort	-10.2399
▁floyd	-10.2399
▁jesuit	-10.2399
▁privilege	-10.2399
▁reservation	-10.2399
▁revolution	-10.2399
▁yussef	-10.2399
▁grateful	-10.2399
▁traffic	-10.2399
▁slice	-10.2399
▁otto	-10.2399
▁eddie	-10.2399
▁solid	-10.2399
▁thump	-10.24
▁banana	-10.24
▁revving	-10.24
▁clapping	-10.2401
▁mummy	-10.2401
▁client	-10.2401
▁musicians	-10.2404
▁preach	-10.2405
▁connection	-10.2406
▁randy	-10.2411
▁fuel	-10.2413
▁capable	-10.2413
▁award	-10.2413
▁swell	-10.2414
▁loan	-10.2419
▁rot	-10.2426
▁that	-10.2431
▁cutting	-10.2435
▁county	-10.2445
▁convinced	-10.2446
▁naked	-10.245
▁range	-10.2473
▁prisoner	-10.2475
▁passes	-10.2475
▁bend	-10.2479
▁prim	-10.2489
▁robber	-10.2501
hold	-10.2501
▁degrees	-10.2516
▁rank	-10.2525
▁lance	-10.2533
▁vet	-10.2542
iest	-10.2546
▁creep	-10.2551
▁seth	-10.256
▁lessons	-10.2563
▁branch	-10.2566
▁exam	-10.2571
▁accepted	-10.2578
▁akhoba	-10.2581
▁attorney	-10.2581
▁fascinating	-10.2581
▁ignacio	-10.2581
▁memories	-10.2581
▁recommend	-10.2581
▁sarafina	-10.2581
▁achieve	-10.2581
▁alexander	-10.2581
▁literally	-10.2581
▁shelter	-10.2581
▁steam	-10.2581
▁chanting	-10.2581
▁tammy	-10.2581
▁pussy	-10.2581
▁aaah	-10.2581
▁brooks	-10.2581
▁stairs	-10.2581
▁jew	-10.2581
▁crab	-10.2581
▁skateboard	-10.2582
▁hammer	-10.2583
▁blaring	-10.2583
▁fifty	-10.2585
▁bedroom	-10.2586
ulate	-10.2587
▁package	-10.2589
▁rita	-10.2595
▁dishes	-10.2602
▁prisoners	-10.2606
▁frightened	-10.2607
▁elephants	-10.2609
▁diego	-10.2612
▁caused	-10.2622
▁bitter	-10.2634
▁slap	-10.264
▁parties	-10.2648
▁stopping	-10.265
▁herd	-10.266
▁tally	-10.2667
▁sandy	-10.2675
▁tick	-10.2684
▁engineer	-10.2693
▁former	-10.2696
▁mack	-10.2697
ppy	-10.27
▁walt	-10.2708
▁rate	-10.271
▁gall	-10.2725
fully	-10.2726
tory	-10.2729
▁tuck	-10.2732
hand	-10.2732
▁skills	-10.2736
▁ted	-10.2758
▁orphan	-10.2764
▁basic	-10.2766
▁accomplish	-10.2766
▁concentrate	-10.2766
▁culture	-10.2766
▁elliot	-10.2766
▁include	-10.2766
▁intelligence	-10.2766
▁liquor	-10.2766
▁ralph	-10.2766
▁religion	-10.2766
▁smiling	-10.2766
▁access	-10.2766
▁smack	-10.2766
▁pirate	-10.2766
▁bamboo	-10.2766
▁drift	-10.2766
▁oksana	-10.2767
▁linh	-10.2767
▁throne	-10.2768
▁silent	-10.2768
▁babar	-10.2768
▁grayson	-10.2768
▁failure	-10.2769
▁argue	-10.277
▁tribe	-10.2771
▁leak	-10.2771
▁zone	-10.2772
▁unlike	-10.2773
▁logan	-10.2776
boo	-10.2782
▁nina	-10.2784
▁jewel	-10.2785
▁psycho	-10.279
▁skies	-10.2798
▁statement	-10.2805
▁nd	-10.2821
▁site	-10.2828
fer	-10.2831
town	-10.2833
▁latest	-10.2834
izz	-10.2836
▁jan	-10.2841
▁sniffing	-10.2849
▁spending	-10.2862
▁pretending	-10.2883
new	-10.2883
▁joined	-10.2894
▁sweat	-10.2903
▁tap	-10.2908
▁capture	-10.2912
▁tur	-10.2913
▁rosa	-10.2925
▁talented	-10.2931
▁rider	-10.294
just	-10.2942
▁papi	-10.2944
▁sharks	-10.295
▁author	-10.295
▁communication	-10.2955
▁crawl	-10.2955
▁darryl	-10.2955
▁exercise	-10.2955
▁nicole	-10.2955
▁rascal	-10.2955
▁struggle	-10.2955
▁terribly	-10.2955
▁unbelievable	-10.2955
▁underneath	-10.2955
▁unknown	-10.2955
▁urgent	-10.2955
▁violence	-10.2955
▁miami	-10.2955
▁repair	-10.2955
▁clara	-10.2955
▁generous	-10.2955
▁greg	-10.2955
▁influence	-10.2955
▁pearl	-10.2955
▁transport	-10.2956
▁uhuh	-10.2956
▁protestant	-10.2957
▁navy	-10.2957
▁starbird	-10.2957
▁select	-10.296
▁label	-10.2966
▁sparkle	-10.297
▁protection	-10.2976
▁kicked	-10.2977
▁detail	-10.2978
▁sled	-10.2979
▁deposit	-10.298
▁spoken	-10.2987
▁carl	-10.2994
▁zach	-10.2997
▁managed	-10.3008
▁oughta	-10.3014
▁fucked	-10.3021
▁bond	-10.3021
▁formula	-10.3022
▁carrying	-10.3026
▁fishing	-10.3037
▁hired	-10.3038
▁howdy	-10.3042
are	-10.3043
▁dun	-10.3054
▁guts	-10.3058
▁tend	-10.3068
▁ali	-10.3087
▁liz	-10.3125
▁murderer	-10.3141
▁sire	-10.3143
▁belief	-10.3147
▁celebration	-10.3147
▁district	-10.3147
▁higgins	-10.3147
▁investigation	-10.3147
▁jessica	-10.3147
▁pikachu	-10.3147
▁religious	-10.3147
▁splendid	-10.3147
▁territory	-10.3147
▁advantage	-10.3147
▁turkey	-10.3147
▁carriage	-10.3147
▁pathetic	-10.3147
▁anytime	-10.3147
▁instant	-10.3147
▁aussie	-10.3147
▁cardinal	-10.3147
▁slide	-10.3147
▁oscar	-10.3147
▁alert	-10.3148
▁haunt	-10.3148
▁clack	-10.3149
▁jazz	-10.315
▁q	-10.3153
▁groom	-10.3154
▁airline	-10.3155
▁ellen	-10.3158
▁armed	-10.3159
▁dragon	-10.316
▁alec	-10.3162
▁chosen	-10.3165
▁juan	-10.3166
▁yearold	-10.3166
▁cries	-10.3168
tail	-10.317
▁troops	-10.317
▁clattering	-10.3174
▁kissing	-10.3174
▁lend	-10.3176
▁considered	-10.3176
▁ew	-10.3178
▁allen	-10.3179
▁exception	-10.318
▁slaves	-10.3181
▁wha	-10.3182
▁yup	-10.3186
▁mall	-10.3198
ith	-10.3213
▁toes	-10.3213
▁meg	-10.3221
▁union	-10.3227
▁sales	-10.3236
▁angela	-10.3247
▁gim	-10.3251
cept	-10.3259
▁testing	-10.3265
▁fil	-10.327
▁aha	-10.3292
▁holly	-10.3343
▁confused	-10.3343
▁explanation	-10.3343
▁imagination	-10.3343
▁kabuna	-10.3343
▁kangaroo	-10.3343
▁potential	-10.3343
▁solution	-10.3343
▁tuesday	-10.3343
▁wealth	-10.3343
▁wolves	-10.3343
▁matthew	-10.3343
▁sergei	-10.3343
▁dummy	-10.3343
▁location	-10.3343
▁irena	-10.3343
▁wiii	-10.3343
▁admire	-10.3343
▁reject	-10.3343
▁derice	-10.3343
▁content	-10.3343
▁western	-10.3343
▁illusion	-10.3344
▁kyle	-10.3344
▁toot	-10.3344
▁trigger	-10.3344
▁crook	-10.3346
▁championship	-10.3346
▁patrol	-10.3346
▁rode	-10.3346
▁firing	-10.3347
▁ron	-10.3347
▁chorus	-10.3348
▁meter	-10.3351
▁diana	-10.3352
▁profit	-10.3353
▁rosie	-10.3355
▁flip	-10.3356
▁comment	-10.3358
bar	-10.3359
▁hooting	-10.3361
▁gram	-10.3364
▁gin	-10.3368
▁coop	-10.3371
▁heal	-10.3384
▁skill	-10.3384
▁delighted	-10.3385
ologist	-10.3387
▁goodman	-10.3397
▁hut	-10.3401
▁role	-10.3402
▁owl	-10.3408
▁highest	-10.341
▁tou	-10.3417
▁failed	-10.3424
unk	-10.3426
▁warned	-10.3449
▁pushing	-10.3454
made	-10.3455
▁bal	-10.3484
boy	-10.3486
▁hated	-10.3487
▁peppers	-10.3489
▁mikey	-10.349
▁honks	-10.3497
▁announce	-10.3515
worth	-10.3522
▁click	-10.3528
▁studying	-10.3535
▁absurd	-10.3543
▁comrade	-10.3543
▁frozen	-10.3543
▁georgina	-10.3543
▁insect	-10.3543
▁memphis	-10.3543
▁ordinary	-10.3543
▁peggy	-10.3543
▁principle	-10.3543
▁satellite	-10.3543
▁temperature	-10.3543
▁thompson	-10.3543
▁underground	-10.3543
▁explode	-10.3543
▁vietnamese	-10.3543
▁compliment	-10.3543
▁anabel	-10.3543
▁miserable	-10.3543
▁distant	-10.3543
▁hooray	-10.3543
▁caleb	-10.3543
▁invest	-10.3543
▁sexual	-10.3543
▁baseball	-10.3546
▁appearance	-10.3546
▁childhood	-10.3548
▁fbi	-10.3548
▁chasing	-10.3549
▁drama	-10.355
▁announcement	-10.3554
▁determined	-10.3557
▁engaged	-10.3559
▁dico	-10.3565
▁treatment	-10.3565
▁moron	-10.3569
▁surrounded	-10.3573
▁sue	-10.3578
▁math	-10.3579
▁praying	-10.358
▁ahem	-10.3583
fect	-10.3587
▁setting	-10.3589
▁how	-10.359
▁ruby	-10.3596
omber	-10.3604
▁wave	-10.3604
▁pam	-10.3604
▁traveling	-10.3612
▁mixed	-10.3617
▁fran	-10.3618
▁ann	-10.3634
▁fame	-10.3638
▁musketeers	-10.3647
▁settled	-10.3654
▁gotcha	-10.3657
▁dreaming	-10.3674
more	-10.3675
▁lit	-10.3677
▁touching	-10.3677
▁bump	-10.3685
▁disturb	-10.3691
▁bam	-10.3698
▁dirt	-10.3723
▁advertising	-10.3747
▁incident	-10.3747
▁passenger	-10.3747
▁reverend	-10.3747
▁surgery	-10.3747
▁survival	-10.3747
▁thursday	-10.3747
▁unhappy	-10.3747
▁filthy	-10.3747
▁revenge	-10.3747
▁worship	-10.3747
▁drummond	-10.3747
▁hawaii	-10.3747
▁insult	-10.3747
▁article	-10.3747
▁feast	-10.3747
▁remote	-10.3747
▁radar	-10.3747
▁strawberry	-10.3747
▁bobsled	-10.3747
▁honk	-10.3748
▁steer	-10.3748
▁oops	-10.3748
▁remarkable	-10.3749
▁teenage	-10.3749
▁item	-10.375
▁stella	-10.375
▁impressive	-10.375
▁virginia	-10.375
▁contain	-10.3751
▁slipper	-10.3752
▁invention	-10.3752
▁selfish	-10.3753
▁rafe	-10.3753
▁bucket	-10.3754
▁shore	-10.3755
▁kolo	-10.3756
▁lightning	-10.3759
▁tent	-10.376
▁mason	-10.3761
▁brick	-10.3763
▁vow	-10.3769
▁dating	-10.377
▁coke	-10.3772
▁data	-10.3773
▁rocket	-10.3778
▁chess	-10.378
▁gail	-10.3781
▁carried	-10.3783
▁bandit	-10.379
▁kim	-10.3802
▁von	-10.3802
▁pepper	-10.3803
▁doo	-10.3804
▁rod	-10.3807
▁emotion	-10.381
▁wool	-10.3821
▁refused	-10.3826
▁rear	-10.3837
spite	-10.3853
▁blessed	-10.3861
roll	-10.3884
▁fed	-10.3886
▁develop	-10.3894
▁boot	-10.3895
star	-10.3899
▁finest	-10.3906
▁clan	-10.3906
▁rag	-10.3949
▁godmother	-10.3956
▁insurance	-10.3956
▁intention	-10.3956
▁senior	-10.3956
▁structure	-10.3956
▁suicide	-10.3956
▁superhero	-10.3956
▁ultimate	-10.3956
▁reserve	-10.3956
▁flood	-10.3956
▁sanada	-10.3956
▁flew	-10.3956
▁resist	-10.3956
▁whyd	-10.3956
▁concept	-10.3958
▁electricity	-10.3959
▁anger	-10.3959
▁fever	-10.3959
▁virgin	-10.3961
▁link	-10.3962
▁panda	-10.3962
▁shove	-10.3963
▁hush	-10.3967
▁michele	-10.3979
▁betty	-10.3983
▁chor	-10.3984
▁teen	-10.3984
▁jacket	-10.3989
▁particularly	-10.3989
▁invented	-10.3994
▁directly	-10.3997
▁cigarette	-10.4014
▁gene	-10.4025
▁awfully	-10.4026
▁blown	-10.4029
▁peaceful	-10.4031
▁thev	-10.4031
▁boxes	-10.4035
▁there	-10.4038
▁hind	-10.406
▁lick	-10.4073
▁wasted	-10.4091
▁jen	-10.4092
▁gil	-10.4099
▁auto	-10.4113
▁disappoint	-10.4114
▁locker	-10.4123
thing	-10.4142
▁vent	-10.4165
▁ceremony	-10.4168
▁claudia	-10.4168
▁dakota	-10.4168
▁glauben	-10.4168
▁mexican	-10.4168
▁penguin	-10.4168
▁piccolo	-10.4168
▁vatican	-10.4168
▁complex	-10.4168
▁conduct	-10.4168
▁puppies	-10.4168
▁widow	-10.4168
▁grape	-10.4168
▁policy	-10.4168
▁allyson	-10.4168
▁ollie	-10.4168
▁gorgonite	-10.4168
▁spider	-10.4168
▁cathy	-10.4169
▁clay	-10.4169
▁garret	-10.4169
▁neighborhood	-10.4169
▁orange	-10.417
▁daily	-10.4172
▁begun	-10.4173
born	-10.4177
▁adore	-10.4178
▁stream	-10.418
▁jake	-10.4182
▁owns	-10.4183
gar	-10.4184
▁halfway	-10.4185
▁mam	-10.4185
▁swifty	-10.419
▁closet	-10.4192
▁rumor	-10.4196
▁embarrassing	-10.4204
▁packed	-10.4213
▁captured	-10.4217
▁bail	-10.4222
▁fade	-10.4226
▁july	-10.424
▁enjoyed	-10.4245
▁dove	-10.4263
▁ag	-10.4271
▁tone	-10.4283
▁drugs	-10.4284
▁staring	-10.4305
▁heath	-10.4312
▁bid	-10.4326
▁compare	-10.4345
▁hare	-10.4347
▁sigh	-10.4355
▁villa	-10.4379
▁alcohol	-10.4386
▁applauding	-10.4386
▁broadcast	-10.4386
▁dooyoung	-10.4386
▁pudding	-10.4386
▁rosebud	-10.4386
▁technology	-10.4386
▁baxter	-10.4386
▁combination	-10.4386
▁mumbling	-10.4386
▁powder	-10.4386
▁descend	-10.4386
▁device	-10.4386
▁voyage	-10.4386
▁anchor	-10.4386
▁divide	-10.4386
▁gently	-10.4386
▁kurt	-10.4386
▁costume	-10.4386
▁eerie	-10.4386
▁agnes	-10.4386
▁betray	-10.4386
▁doyle	-10.4386
▁sweden	-10.4386
▁mistress	-10.4386
▁fond	-10.4386
▁maggie	-10.4387
▁clark	-10.4387
▁committed	-10.4387
▁halloween	-10.439
▁robot	-10.439
▁cattle	-10.4391
▁pageant	-10.4394
▁josh	-10.4394
▁minor	-10.4397
▁stress	-10.4397
▁cochi	-10.4397
▁sav	-10.4398
▁throwing	-10.44
▁chart	-10.4406
▁kidnap	-10.441
▁yi	-10.4439
▁unto	-10.4452
▁ranger	-10.4456
mal	-10.4457
▁highly	-10.4461
▁degree	-10.4463
▁sho	-10.4482
▁chuckle	-10.4484
▁cheating	-10.4487
▁custom	-10.4489
ique	-10.4494
▁formal	-10.452
▁brat	-10.4541
▁murdered	-10.4541
▁palm	-10.4551
▁pm	-10.4552
burn	-10.4588
▁exact	-10.4593
▁mornin	-10.4598
▁commun	-10.46
▁democrat	-10.46
▁plea	-10.4608
▁ancestor	-10.4608
▁lincoln	-10.4608
▁succeed	-10.4608
▁swallow	-10.4608
▁charlene	-10.4608
▁studied	-10.4608
▁creek	-10.4608
▁gamma	-10.4608
▁twit	-10.4608
▁mortal	-10.4608
▁spear	-10.4608
▁wicked	-10.4608
▁whooshing	-10.4608
▁gear	-10.4608
▁duncan	-10.4609
▁quinn	-10.4609
▁tummy	-10.4609
▁clap	-10.461
▁percent	-10.4612
▁purse	-10.4614
▁wore	-10.4618
▁mini	-10.4632
▁bleating	-10.4634
▁exhausted	-10.4635
ook	-10.4641
▁bleeding	-10.4641
▁pace	-10.4641
▁cleaning	-10.4645
▁compared	-10.4652
▁comb	-10.4666
▁provided	-10.4675
▁now	-10.468
ius	-10.469
▁media	-10.4692
▁runt	-10.4694
▁sang	-10.4727
▁mir	-10.4742
▁shortly	-10.4763
▁mol	-10.4764
with	-10.4789
▁dip	-10.4792
▁climbing	-10.4797
▁speaker	-10.4803
▁weigh	-10.4809
▁ideal	-10.4811
ological	-10.4814
▁squeals	-10.4821
▁gray	-10.4833
▁argument	-10.4835
▁catherine	-10.4835
▁corporal	-10.4835
▁council	-10.4835
▁fifteen	-10.4835
▁fulfill	-10.4835
▁happily	-10.4835
▁jermaine	-10.4835
▁negative	-10.4835
▁phoenix	-10.4835
▁rehearsal	-10.4835
▁barnaby	-10.4835
▁mitchel	-10.4835
▁duggal	-10.4835
▁bruce	-10.4835
▁steak	-10.4835
▁cindy	-10.4835
▁clifford	-10.4835
▁irene	-10.4835
▁warrior	-10.4835
▁kathy	-10.4835
▁stephen	-10.4835
▁prevent	-10.4835
▁worn	-10.4835
▁lazy	-10.4836
▁whining	-10.4836
▁racing	-10.4836
▁instructions	-10.4836
▁curtain	-10.4836
▁kidnapped	-10.4836
▁hostage	-10.4838
▁hissing	-10.4838
▁wellington	-10.4839
▁react	-10.4842
▁sanka	-10.4843
▁sheet	-10.4844
▁betsy	-10.4848
▁glove	-10.4849
▁shawn	-10.4849
▁fork	-10.4853
▁knocked	-10.4855
▁hitler	-10.4856
▁sack	-10.4858
▁ike	-10.4863
▁suggestion	-10.4864
▁marine	-10.4866
▁shutter	-10.4876
▁thatd	-10.489
▁wig	-10.49
▁crossed	-10.4902
▁hopeless	-10.4908
▁ticking	-10.4912
▁kindness	-10.4914
▁boarding	-10.4931
▁pea	-10.4941
▁av	-10.4944
▁trumpeting	-10.4946
▁recorded	-10.4958
▁enjoying	-10.4962
they	-10.4964
▁here	-10.4972
agging	-10.4991
▁designed	-10.4991
▁boil	-10.4996
▁connect	-10.5004
aries	-10.5017
▁commission	-10.5027
▁fighter	-10.5036
▁commit	-10.506
▁cher	-10.506
▁employ	-10.5065
▁loyal	-10.5066
▁inn	-10.5067
▁behavior	-10.5068
▁breast	-10.5068
▁carnival	-10.5068
▁entrance	-10.5068
▁intelligent	-10.5068
▁invitation	-10.5068
▁opposite	-10.5068
▁politics	-10.5068
▁suitcase	-10.5068
▁gideon	-10.5068
▁farewell	-10.5068
▁flavor	-10.5068
▁jeannie	-10.5068
▁towel	-10.5068
▁callahan	-10.5068
▁advise	-10.5068
▁ouch	-10.5068
▁reflect	-10.5069
▁aircraft	-10.5069
▁timmy	-10.507
▁rubber	-10.5071
▁piggy	-10.5072
▁raven	-10.5072
▁rebel	-10.5075
▁motion	-10.5076
▁election	-10.5078
▁crackling	-10.5081
▁ability	-10.5081
▁of	-10.5081
▁wage	-10.5085
▁mock	-10.5085
▁temple	-10.5087
▁alley	-10.5095
▁bul	-10.5108
▁ease	-10.5109
▁nour	-10.511
▁oooh	-10.5134
▁offering	-10.5137
▁factor	-10.5141
▁kit	-10.5166
▁beside	-10.5183
▁dime	-10.5184
▁gig	-10.5237
▁fee	-10.5243
▁butch	-10.5255
▁drug	-10.5277
▁safely	-10.5281
▁actual	-10.5287
handed	-10.529
▁greet	-10.5304
▁squad	-10.5305
▁campaign	-10.5306
▁corrupt	-10.5306
▁fabulous	-10.5306
▁increase	-10.5306
▁ingredient	-10.5306
▁inhales	-10.5306
▁jeanclaude	-10.5306
▁meadow	-10.5306
▁squeeze	-10.5306
▁stubborn	-10.5306
▁suspicious	-10.5306
▁bloom	-10.5306
▁delicate	-10.5306
▁duchess	-10.5306
▁campbell	-10.5306
▁chittering	-10.5306
▁pablo	-10.5306
▁grief	-10.5306
▁sacred	-10.5306
▁torture	-10.5306
▁cheek	-10.5306
▁novel	-10.5306
▁mumbles	-10.5306
▁plastic	-10.5306
▁aggie	-10.5306
▁gym	-10.5307
▁roast	-10.5307
▁scripture	-10.5307
▁abbie	-10.5308
▁resistance	-10.5308
▁estate	-10.5308
▁jeez	-10.5308
▁struck	-10.5308
▁angie	-10.5309
▁confident	-10.5309
▁woke	-10.531
▁scale	-10.5312
▁cunt	-10.5314
▁brazilian	-10.5314
▁marrying	-10.5315
▁spill	-10.5317
▁poem	-10.5318
▁shade	-10.5324
▁christine	-10.5325
▁painful	-10.5327
▁jade	-10.5335
▁neat	-10.5335
▁ballet	-10.5344
▁properly	-10.5347
▁commissioner	-10.5347
zer	-10.535
▁matches	-10.5358
▁supplies	-10.5366
▁mattie	-10.5373
▁halt	-10.5394
▁bower	-10.5403
▁what	-10.5404
▁crop	-10.5409
▁hatch	-10.541
▁suffering	-10.5424
▁gut	-10.5433
▁wes	-10.5446
▁wil	-10.5456
▁tut	-10.5462
ograph	-10.5471
▁carrie	-10.5472
▁vice	-10.5476
▁awaken	-10.5477
▁haha	-10.5494
▁detect	-10.5497
▁mona	-10.5502
fire	-10.5545
▁francis	-10.5546
▁academy	-10.555
▁airplane	-10.555
▁appetite	-10.555
▁autograph	-10.555
▁caitlin	-10.555
▁centuries	-10.555
▁embrace	-10.555
▁godzilla	-10.555
▁grumpy	-10.555
▁gusteau	-10.555
▁inspire	-10.555
▁prefontaine	-10.555
▁sensitive	-10.555
▁supply	-10.555
▁vineyard	-10.555
▁retreat	-10.555
▁signature	-10.555
▁casual	-10.555
▁valuable	-10.555
▁background	-10.555
▁companion	-10.555
▁cycle	-10.555
▁identity	-10.555
▁jenkins	-10.555
▁slum	-10.555
▁fleet	-10.555
▁italy	-10.555
▁davis	-10.555
▁rusty	-10.555
▁howl	-10.555
▁sorrow	-10.555
▁jingle	-10.555
▁slappy	-10.555
▁network	-10.5551
▁barrel	-10.5551
▁ginny	-10.5551
▁clanging	-10.5551
▁hippo	-10.5553
▁slim	-10.5553
▁passport	-10.5553
▁filming	-10.5553
▁isabella	-10.5554
▁draft	-10.5554
▁static	-10.5557
▁sharing	-10.5557
▁nearby	-10.5557
▁punishment	-10.5558
▁bold	-10.5559
▁puff	-10.5559
▁smaller	-10.556
▁beam	-10.556
▁craft	-10.5562
foot	-10.5564
▁whooping	-10.5566
▁agreement	-10.5576
▁poet	-10.5579
▁rail	-10.5581
▁cia	-10.5583
▁lamb	-10.5585
▁opera	-10.559
not	-10.5592
▁mash	-10.5594
▁tickle	-10.5597
▁tries	-10.5601
▁nun	-10.5618
▁katy	-10.5621
how	-10.5622
▁ace	-10.563
▁operate	-10.5641
▁pastor	-10.5643
▁kite	-10.5647
▁arranged	-10.5655
stein	-10.5657
hoohoo	-10.5667
▁hah	-10.5674
▁hail	-10.5674
▁curl	-10.5689
▁payment	-10.5699
▁tod	-10.5733
▁gala	-10.5751
free	-10.5779
▁russia	-10.578
▁mmhm	-10.578
▁absolute	-10.5785
▁joint	-10.5789
▁maj	-10.5798
▁continent	-10.58
▁excellency	-10.58
▁helicopter	-10.58
▁joaquin	-10.58
▁supreme	-10.58
▁previous	-10.58
▁quality	-10.58
▁sheryl	-10.58
▁snorting	-10.58
▁snorts	-10.58
▁japan	-10.58
▁transform	-10.58
▁annoy	-10.58
▁permit	-10.58
▁southern	-10.58
▁strain	-10.58
▁goofy	-10.5801
▁breed	-10.5801
▁saddle	-10.5801
▁maintain	-10.5802
▁greetings	-10.5802
▁attractive	-10.5803
▁mouse	-10.5804
▁quint	-10.5805
▁digger	-10.5806
▁web	-10.5807
▁codex	-10.581
▁confession	-10.581
▁punk	-10.5812
▁robbie	-10.5816
▁poop	-10.5817
▁merely	-10.5819
▁beef	-10.5822
▁mush	-10.5827
▁homework	-10.583
▁shave	-10.5831
▁gage	-10.5834
tock	-10.5844
▁trainer	-10.5848
▁pom	-10.5849
▁fastest	-10.5852
▁mere	-10.5861
▁developed	-10.5865
▁steven	-10.5866
▁useful	-10.5867
▁required	-10.5873
▁restore	-10.5875
▁my	-10.5878
▁jumped	-10.5885
▁pushed	-10.5894
▁refer	-10.5907
this	-10.5924
▁jr	-10.595
ather	-10.5968
▁painted	-10.5977
▁demo	-10.5987
▁il	-10.5989
▁dope	-10.5991
▁christy	-10.6002
▁sto	-10.6016
▁michel	-10.6017
▁delivered	-10.6023
▁delight	-10.6024
▁feeding	-10.6056
▁assignment	-10.6056
▁dartagnan	-10.6056
▁discipline	-10.6056
▁environment	-10.6056
▁jacques	-10.6056
▁preserve	-10.6056
▁symbol	-10.6056
▁bishop	-10.6056
▁garcia	-10.6056
▁hammond	-10.6056
▁reeko	-10.6056
▁bruno	-10.6056
quot	-10.6056
▁approve	-10.6056
▁civilization	-10.6057
▁mushroom	-10.6057
▁drain	-10.6057
▁cried	-10.6059
▁vicki	-10.606
mine	-10.606
▁flock	-10.606
▁polish	-10.606
▁boob	-10.6062
▁quack	-10.6062
▁stamp	-10.6063
▁cease	-10.6064
▁countries	-10.6065
▁salary	-10.6067
▁ridge	-10.6069
▁reef	-10.6069
▁patty	-10.607
▁nome	-10.6073
▁grip	-10.6076
▁nto	-10.6079
▁kita	-10.6087
▁dora	-10.6094
▁continu	-10.6103
▁heir	-10.6106
▁tess	-10.6118
ending	-10.6123
▁fog	-10.6134
▁stab	-10.6152
▁whisper	-10.6156
▁robbed	-10.6161
▁dearest	-10.6163
▁ooo	-10.6175
▁clank	-10.6175
▁belly	-10.6177
▁roo	-10.6184
▁lang	-10.6185
▁outer	-10.6187
▁reporting	-10.6213
▁badge	-10.6238
▁scan	-10.6242
▁joey	-10.6264
▁pale	-10.6266
▁ahhh	-10.6269
yeah	-10.6298
▁attract	-10.6309
▁ambassador	-10.6319
▁anniversary	-10.6319
▁florida	-10.6319
▁inspiration	-10.6319
▁kantmiss	-10.6319
▁kimberly	-10.6319
▁lebraque	-10.6319
▁plethora	-10.6319
▁possibility	-10.6319
▁rimspoke	-10.6319
▁similar	-10.6319
▁socalled	-10.6319
▁vegas	-10.6319
▁vegetable	-10.6319
▁whinnies	-10.6319
▁winslow	-10.6319
▁average	-10.6319
▁bureau	-10.6319
▁illegal	-10.6319
▁milady	-10.6319
▁jersey	-10.6319
▁empress	-10.6319
▁bouncin	-10.6319
▁pattern	-10.6319
▁niece	-10.6319
▁depth	-10.6319
▁squawks	-10.6319
▁balloon	-10.632
▁convict	-10.632
▁stray	-10.632
▁susie	-10.632
▁moans	-10.6321
▁snack	-10.6322
▁wrapped	-10.6322
▁balance	-10.6322
▁tramp	-10.6323
▁shaking	-10.6325
▁garage	-10.6325
▁teii	-10.6326
▁counselor	-10.6326
▁affection	-10.6326
▁pinto	-10.6327
▁lemon	-10.6328
▁chapel	-10.6329
▁hopefully	-10.6329
▁belonged	-10.6331
▁polar	-10.6332
▁slightly	-10.6336
▁stew	-10.6337
▁labor	-10.6338
▁burst	-10.6339
▁joan	-10.6341
▁branches	-10.6341
▁fuss	-10.6353
rous	-10.6359
▁splashing	-10.6363
who	-10.6376
▁hitting	-10.6386
▁marco	-10.6392
▁earned	-10.6427
▁demon	-10.6442
▁jp	-10.6446
▁busted	-10.6456
▁mob	-10.6469
▁faithful	-10.6495
▁observe	-10.6501
▁sk	-10.651
aft	-10.651
▁impress	-10.6527
▁vour	-10.6565
▁constant	-10.6567
screen	-10.6568
piece	-10.6569
drop	-10.6574
▁electric	-10.6575
▁instruct	-10.6577
▁retire	-10.6587
▁entertain	-10.6588
▁straw	-10.6589
▁micro	-10.659
▁compromise	-10.659
▁contrary	-10.659
▁precisely	-10.659
▁pronounce	-10.659
▁protocol	-10.659
▁response	-10.659
▁shakespeare	-10.659
▁stephanie	-10.659
▁withdraw	-10.659
▁zarkorr	-10.659
▁chestnut	-10.659
▁dockerty	-10.659
▁fifth	-10.659
▁genuine	-10.659
▁granny	-10.659
▁havana	-10.659
▁offense	-10.659
▁permanent	-10.659
▁texas	-10.659
▁addition	-10.659
▁butler	-10.659
▁hudson	-10.659
▁studies	-10.659
▁weave	-10.659
▁headquarters	-10.659
▁whew	-10.659
▁soap	-10.659
▁worm	-10.659
▁copperfield	-10.659
▁apology	-10.659
▁destruction	-10.6591
▁knot	-10.6595
▁digging	-10.6595
▁commitment	-10.6597
▁broad	-10.6599
▁pony	-10.66
▁version	-10.66
▁cities	-10.6601
▁rising	-10.6601
▁dodg	-10.6603
▁flatter	-10.6604
▁largest	-10.6607
▁linda	-10.6607
▁pinch	-10.661
▁whee	-10.6611
▁mice	-10.6612
▁dull	-10.6614
▁highway	-10.6616
▁zip	-10.6617
▁stall	-10.6618
▁bah	-10.6618
▁jackson	-10.6626
▁driven	-10.6626
▁mv	-10.663
▁exit	-10.6631
▁glen	-10.6633
▁camel	-10.664
▁tender	-10.665
ggle	-10.6655
▁released	-10.6683
get	-10.6695
▁gathered	-10.6698
▁suffered	-10.6708
▁archer	-10.6713
▁bully	-10.6728
▁claimed	-10.6747
▁sip	-10.6766
▁smarter	-10.6779
▁shatter	-10.6811
▁proved	-10.6818
▁dot	-10.6822
▁steel	-10.683
▁dete	-10.6832
▁dine	-10.6843
▁cam	-10.6846
▁extreme	-10.6848
burg	-10.6848
▁potato	-10.6852
▁era	-10.6854
round	-10.6855
count	-10.6856
▁abbott	-10.6867
▁chisolm	-10.6867
▁disguise	-10.6867
▁django	-10.6867
▁eleanor	-10.6867
▁hebrew	-10.6867
▁independent	-10.6867
▁interpret	-10.6867
▁mechanic	-10.6867
▁misunderstand	-10.6867
▁sanchez	-10.6867
▁september	-10.6867
▁submarine	-10.6867
▁technique	-10.6867
▁tortoise	-10.6867
▁wisdom	-10.6867
▁advertise	-10.6867
▁afterwards	-10.6867
▁gracious	-10.6867
▁worries	-10.6867
▁adorable	-10.6867
▁sheila	-10.6867
▁mutant	-10.6867
▁federal	-10.6867
▁ditch	-10.6868
▁method	-10.6868
▁vault	-10.6868
▁warrant	-10.6868
▁plot	-10.6868
▁crane	-10.6868
▁phase	-10.6868
▁polite	-10.6869
▁wives	-10.6869
▁choke	-10.687
▁poetry	-10.6871
▁clinic	-10.6871
▁vicious	-10.6872
▁contestant	-10.6875
▁attic	-10.6875
▁development	-10.6877
▁hyp	-10.6879
▁daniella	-10.6881
▁clam	-10.6881
▁production	-10.6884
▁humor	-10.6889
▁surf	-10.6891
▁lori	-10.6891
▁expression	-10.6892
▁laney	-10.6892
▁gross	-10.6897
▁fairies	-10.69
▁sanders	-10.6901
▁reli	-10.6909
▁fig	-10.6909
berry	-10.6916
▁abandoned	-10.6917
▁jaw	-10.6918
▁runner	-10.6918
▁elle	-10.6934
▁hup	-10.6938
▁normally	-10.6938
ush	-10.694
guard	-10.6943
▁cel	-10.6953
▁drummin	-10.6969
▁beaten	-10.6973
▁sil	-10.7004
▁dial	-10.7012
▁porter	-10.7016
▁mata	-10.7025
▁stag	-10.7049
▁rape	-10.7055
▁sor	-10.7058
▁frankly	-10.7064
▁confirm	-10.7099
▁timing	-10.7102
▁wally	-10.7107
▁involve	-10.7111
dog	-10.7112
▁jamaica	-10.713
▁diver	-10.7134
▁whoohoo	-10.715
▁associate	-10.7153
▁australia	-10.7153
▁benjamin	-10.7153
▁buffalo	-10.7153
▁conclude	-10.7153
▁conference	-10.7153
▁disgrace	-10.7153
▁essential	-10.7153
▁exclaiming	-10.7153
▁instinct	-10.7153
▁sebastian	-10.7153
▁stepmother	-10.7153
▁typical	-10.7153
▁unfair	-10.7153
▁crisis	-10.7153
▁feature	-10.7153
▁mickey	-10.7153
▁baboon	-10.7153
▁constance	-10.7153
▁scrub	-10.7153
▁flicka	-10.7153
▁horace	-10.7153
▁initial	-10.7153
▁choking	-10.7153
▁dixie	-10.7153
▁evelyn	-10.7153
▁harbor	-10.7153
▁invade	-10.7153
▁muffy	-10.7153
▁canada	-10.7153
▁fifi	-10.7153
▁stiff	-10.7153
▁pouch	-10.7153
▁extend	-10.7153
▁superior	-10.7153
▁regan	-10.7153
▁pork	-10.7153
▁muttering	-10.7153
▁cantrell	-10.7154
▁pecos	-10.7154
▁downtown	-10.7154
▁babysitter	-10.7155
▁employee	-10.7156
▁species	-10.7157
▁fold	-10.7159
▁reduce	-10.716
▁tania	-10.7161
▁dining	-10.7162
▁upper	-10.7164
▁wholl	-10.7165
▁sar	-10.7166
▁roam	-10.7168
▁beings	-10.7169
▁kosh	-10.7169
▁ciao	-10.717
▁itch	-10.7172
▁personality	-10.7177
▁stir	-10.7184
bie	-10.7186
▁brightest	-10.7187
▁corey	-10.7189
▁russ	-10.7192
▁classical	-10.7193
▁drill	-10.7196
hole	-10.7202
▁spain	-10.7204
▁yum	-10.7207
▁iove	-10.7209
▁chin	-10.7211
▁seeds	-10.7214
▁connected	-10.722
▁laser	-10.7225
▁bunk	-10.7226
▁dresses	-10.7263
ooh	-10.7272
▁meantime	-10.7288
▁halo	-10.7294
▁survived	-10.7305
▁dock	-10.7347
▁mira	-10.7373
▁herb	-10.7375
▁invent	-10.7387
▁trailer	-10.7397
aught	-10.7399
▁lava	-10.7418
▁ach	-10.7418
break	-10.7426
▁protest	-10.7444
water	-10.7446
▁attached	-10.7447
▁celebrating	-10.7447
▁colleague	-10.7447
▁crusoe	-10.7447
▁dismissed	-10.7447
▁farooqi	-10.7447
▁humbug	-10.7447
▁jennifer	-10.7447
▁manhattan	-10.7447
▁melanchol	-10.7447
▁mohsen	-10.7447
▁moscow	-10.7447
▁motherfucker	-10.7447
▁nuclear	-10.7447
▁respond	-10.7447
▁surgeon	-10.7447
▁league	-10.7447
▁neecha	-10.7447
▁violent	-10.7447
▁zebra	-10.7447
▁zeena	-10.7447
▁puzzle	-10.7447
▁sweetmeat	-10.7447
▁zorro	-10.7447
▁chamber	-10.7447
▁rattling	-10.7447
▁internet	-10.7447
▁recipe	-10.7447
▁chalk	-10.7447
▁pulse	-10.7447
▁jolly	-10.7447
▁particle	-10.7447
▁pedro	-10.7448
▁sample	-10.7448
▁oui	-10.7448
▁freezing	-10.7448
▁canoe	-10.7448
ization	-10.7448
▁display	-10.7448
▁eternal	-10.745
▁humble	-10.745
box	-10.7451
▁whatll	-10.7451
▁miep	-10.7453
▁billboard	-10.7454
▁cabinet	-10.7454
▁editor	-10.7455
▁loco	-10.7456
▁henri	-10.7456
▁glue	-10.7459
▁headache	-10.7459
▁foul	-10.746
▁potatoes	-10.7463
▁baker	-10.7466
▁mayday	-10.7466
▁colony	-10.7469
▁solo	-10.7471
▁poole	-10.7473
▁clare	-10.7473
▁swearman	-10.7478
▁raid	-10.7483
▁embarrassed	-10.7491
▁fist	-10.75
▁dang	-10.7507
▁larger	-10.7512
▁shattering	-10.7513
▁raw	-10.752
▁stinky	-10.7521
▁bury	-10.7534
▁published	-10.754
▁pun	-10.7566
▁appeared	-10.7587
▁nazi	-10.7587
▁brandy	-10.7611
▁tempo	-10.7626
▁traditional	-10.7631
▁coal	-10.7649
▁mae	-10.765
keeper	-10.7663
▁abandon	-10.7696
▁aid	-10.7712
▁swift	-10.7719
bird	-10.7725
▁spec	-10.7731
▁isabel	-10.7735
place	-10.7738
▁elect	-10.7739
▁republic	-10.7745
▁slight	-10.7748
▁diploma	-10.775
▁arguing	-10.775
▁athlete	-10.775
▁brittany	-10.775
▁conflict	-10.775
▁judgment	-10.775
▁melissa	-10.775
▁necessarily	-10.775
▁olivia	-10.775
▁pacific	-10.775
▁resident	-10.775
▁sentimental	-10.775
▁thanksgiving	-10.775
▁udala	-10.775
▁assistance	-10.775
▁dreadful	-10.775
▁necklace	-10.775
▁perfume	-10.775
▁bargain	-10.775
▁expense	-10.775
▁importance	-10.775
▁buddies	-10.775
▁monitor	-10.775
▁appeal	-10.775
▁amigo	-10.775
▁leila	-10.775
▁phillip	-10.775
▁vocal	-10.775
▁conquer	-10.775
▁narrow	-10.775
▁status	-10.775
▁error	-10.775
▁skunk	-10.7751
▁predict	-10.7751
▁sniffles	-10.7751
▁leap	-10.7751
▁irv	-10.7751
▁mingle	-10.7751
▁edgar	-10.7752
▁scholarship	-10.7752
▁whens	-10.7752
▁operator	-10.7752
▁offend	-10.7753
▁iook	-10.7756
▁perrin	-10.7756
▁massive	-10.7757
▁blade	-10.7759
▁whatre	-10.776
▁reaction	-10.776
▁alike	-10.7761
▁peck	-10.7763
▁fedor	-10.7764
▁wax	-10.7771
▁dub	-10.7776
▁bore	-10.7778
▁missile	-10.7787
▁bind	-10.7803
▁discovery	-10.782
▁tucker	-10.7823
▁hack	-10.783
▁separated	-10.7851
▁mistaken	-10.7852
▁sore	-10.786
▁chased	-10.7869
▁bass	-10.788
▁jackie	-10.788
▁tube	-10.7894
ection	-10.79
▁tyr	-10.794
meter	-10.795
▁dori	-10.7979
▁lucia	-10.7988
▁disco	-10.8012
▁immediate	-10.8044
jack	-10.8052
▁affect	-10.8054
▁terror	-10.8059
▁triumph	-10.806
▁script	-10.8061
▁pap	-10.8063
▁condemn	-10.8063
▁ambulance	-10.8063
▁avocado	-10.8063
▁coordinate	-10.8063
▁dessert	-10.8063
▁disagree	-10.8063
▁division	-10.8063
▁eliminate	-10.8063
▁gorilla	-10.8063
▁humiliate	-10.8063
▁industry	-10.8063
▁injured	-10.8063
▁lecture	-10.8063
▁length	-10.8063
▁messenger	-10.8063
▁midvale	-10.8063
▁miguel	-10.8063
▁persuade	-10.8063
▁sinaiticus	-10.8063
▁tanamashu	-10.8063
▁tshirt	-10.8063
▁unexpected	-10.8063
▁hockey	-10.8063
▁population	-10.8063
▁senator	-10.8063
▁cruise	-10.8063
▁dammit	-10.8063
▁eleven	-10.8063
▁pistol	-10.8063
▁dillon	-10.8063
▁eliot	-10.8063
▁clamoring	-10.8063
▁colour	-10.8063
▁herbert	-10.8063
▁thumb	-10.8063
▁income	-10.8063
▁tomato	-10.8063
▁jerry	-10.8063
▁imperial	-10.8063
▁luther	-10.8063
▁facing	-10.8063
▁favourite	-10.8063
▁carrot	-10.8064
▁transmit	-10.8064
▁swiss	-10.8064
▁fiddle	-10.8064
▁gusta	-10.8065
▁aleu	-10.8065
▁debt	-10.8067
▁tasty	-10.8069
▁stunt	-10.8069
▁convention	-10.8069
▁manual	-10.807
▁promote	-10.807
▁riot	-10.8074
▁donna	-10.8074
▁amber	-10.8075
▁scooter	-10.8078
▁soak	-10.8078
▁gladys	-10.8079
▁babylon	-10.808
▁stepped	-10.8082
▁vast	-10.8088
▁marty	-10.8088
▁dante	-10.8089
▁cmon	-10.8092
▁kane	-10.8092
▁shaw	-10.8092
▁mansion	-10.8093
▁examine	-10.8093
▁coley	-10.81
▁cleo	-10.8101
▁lila	-10.8102
▁spur	-10.8105
▁classic	-10.8107
▁officially	-10.8112
▁elf	-10.8114
▁critical	-10.8116
▁armor	-10.8117
▁wandering	-10.8119
▁finn	-10.8127
▁reasonable	-10.8131
▁kel	-10.8131
▁pic	-10.8131
▁complaint	-10.8132
▁auntie	-10.8132
▁hunger	-10.8136
▁have	-10.8138
▁uk	-10.8143
▁coz	-10.8147
▁lame	-10.8163
four	-10.817
▁tub	-10.8172
▁hiya	-10.8182
▁torch	-10.8182
▁bait	-10.8207
▁momma	-10.8214
▁seize	-10.8251
▁crate	-10.8277
good	-10.8281
cular	-10.8284
▁reno	-10.8292
▁cough	-10.8296
▁stan	-10.831
▁troop	-10.8354
phone	-10.8365
▁unfortunate	-10.8366
mark	-10.837
▁bicycle	-10.8385
▁clarissa	-10.8385
▁conclusion	-10.8385
▁curiosity	-10.8385
▁exchange	-10.8385
▁geranium	-10.8385
▁happier	-10.8385
▁increasing	-10.8385
▁liberty	-10.8385
▁meanwhile	-10.8385
▁procedure	-10.8385
▁prophecy	-10.8385
▁rehearse	-10.8385
▁spectacular	-10.8385
▁switzerland	-10.8385
▁companies	-10.8385
▁ghoul	-10.8385
▁injury	-10.8385
▁naughty	-10.8385
▁stewart	-10.8385
▁tractor	-10.8385
▁cougar	-10.8385
▁crunch	-10.8385
▁enchant	-10.8385
▁muriel	-10.8385
▁violet	-10.8385
▁collar	-10.8385
▁liquid	-10.8385
▁klaus	-10.8385
▁guinea	-10.8385
▁sancho	-10.8385
▁cotton	-10.8385
▁threatened	-10.8385
▁tobin	-10.8385
▁hydro	-10.8386
▁shiny	-10.8386
▁spiritual	-10.8386
▁sewer	-10.8386
▁vital	-10.8386
▁juliette	-10.8387
▁basketball	-10.8387
▁recent	-10.8389
▁addict	-10.8389
▁entertainment	-10.839
▁tyler	-10.839
▁stacy	-10.839
▁erik	-10.839
▁existence	-10.8391
▁fried	-10.8392
▁diving	-10.8394
▁mandie	-10.8395
▁utter	-10.8396
▁elder	-10.8398
▁michelle	-10.8399
▁lowell	-10.84
▁canine	-10.8402
▁critic	-10.8403
▁european	-10.8403
▁basement	-10.8406
▁maiden	-10.8407
▁rice	-10.8411
▁wallet	-10.8411
▁jamaican	-10.8412
▁specific	-10.8413
▁clip	-10.8414
wise	-10.8417
▁fink	-10.8418
▁misty	-10.8422
▁katie	-10.8433
▁petal	-10.8444
▁confirmed	-10.8447
▁indiana	-10.8454
▁butcher	-10.8455
▁solved	-10.8465
▁stable	-10.8467
▁thus	-10.8467
▁bridget	-10.8469
▁disturbed	-10.8473
▁endless	-10.8474
rov	-10.8528
▁jab	-10.8557
ark	-10.8618
▁rig	-10.8628
▁trot	-10.8661
▁tink	-10.869
pensive	-10.869
▁pine	-10.8692
girl	-10.8698
▁oran	-10.8701
▁hooh	-10.8702
▁heave	-10.8703
▁runnin	-10.8709
▁educat	-10.8714
▁prior	-10.8715
▁relation	-10.8718
▁almighty	-10.8719
▁arrival	-10.8719
▁coincidence	-10.8719
▁collapse	-10.8719
▁congratulate	-10.8719
▁dispatch	-10.8719
▁earthquake	-10.8719
▁furniture	-10.8719
▁goreslimey	-10.8719
▁neighbour	-10.8719
▁neighing	-10.8719
▁surprising	-10.8719
▁suzette	-10.8719
▁vampire	-10.8719
▁whinnying	-10.8719
▁hannah	-10.8719
▁nixon	-10.8719
▁proctor	-10.8719
▁rubbish	-10.8719
▁samantha	-10.8719
▁cahill	-10.8719
▁tournament	-10.8719
▁harvest	-10.8719
▁holiness	-10.8719
▁yawns	-10.8719
▁communicate	-10.8719
▁hmph	-10.8719
▁slut	-10.8719
▁visual	-10.8719
▁klara	-10.8719
▁jasmine	-10.8719
▁acquire	-10.8719
▁spray	-10.8719
▁envy	-10.8719
▁spoon	-10.8719
▁alban	-10.8719
▁brutal	-10.8719
▁misery	-10.8719
▁plug	-10.8719
▁mild	-10.8719
▁shiver	-10.8719
▁squawking	-10.872
▁thunderbird	-10.872
▁quote	-10.872
▁russell	-10.872
▁creative	-10.872
▁leather	-10.872
▁adjust	-10.8721
▁spinning	-10.8721
▁webster	-10.8721
▁psst	-10.8722
▁reverse	-10.8722
▁racist	-10.8722
▁skirt	-10.8722
▁hahaha	-10.8722
▁locate	-10.8723
▁chrissy	-10.8725
▁thread	-10.8725
▁civilian	-10.8725
▁effective	-10.8726
▁flush	-10.8728
▁isabelle	-10.873
▁amos	-10.8736
▁tire	-10.8736
▁grover	-10.8737
▁commandant	-10.8739
▁peak	-10.874
▁scent	-10.8756
idge	-10.8757
shot	-10.8758
▁collector	-10.8766
▁volcano	-10.8777
▁bribe	-10.8783
▁tillie	-10.8784
▁mmmm	-10.8786
▁wowser	-10.8787
▁whit	-10.8791
▁circ	-10.8794
▁correction	-10.8803
▁bake	-10.8897
▁hike	-10.892
bag	-10.8937
▁bald	-10.8948
▁kai	-10.8952
ternal	-10.9001
position	-10.9006
friend	-10.902
long	-10.903
▁gale	-10.9031
▁possess	-10.9053
▁forbid	-10.9063
▁evolv	-10.9063
▁absalom	-10.9063
▁acknowledge	-10.9063
▁buffins	-10.9063
▁cereal	-10.9063
▁corporation	-10.9063
▁dinosaur	-10.9063
▁dulcinea	-10.9063
▁dynamite	-10.9063
▁executive	-10.9063
▁hoggett	-10.9063
▁install	-10.9063
▁jekyll	-10.9063
▁jonatan	-10.9063
▁mortville	-10.9063
▁oxygen	-10.9063
▁preparing	-10.9063
▁shepherd	-10.9063
▁shrieks	-10.9063
▁spectacle	-10.9063
▁stammering	-10.9063
▁strategy	-10.9063
▁thieves	-10.9063
▁tragedy	-10.9063
▁beware	-10.9063
▁circuit	-10.9063
▁encounter	-10.9063
▁fantasia	-10.9063
▁lonesome	-10.9063
▁promotion	-10.9063
▁proposal	-10.9063
▁relieved	-10.9063
▁scotch	-10.9063
▁sneeze	-10.9063
▁tattoo	-10.9063
▁birkin	-10.9063
▁congress	-10.9063
▁distinct	-10.9063
▁overcome	-10.9063
▁pokemon	-10.9063
▁soviet	-10.9063
▁breach	-10.9063
▁choir	-10.9063
▁razor	-10.9063
▁debate	-10.9064
▁undress	-10.9064
▁holler	-10.9064
▁occurred	-10.9064
▁squadron	-10.9065
▁inspection	-10.9065
▁ridgeway	-10.9065
▁onion	-10.9065
▁thorn	-10.9066
▁grind	-10.9066
▁spook	-10.9066
▁sermon	-10.9067
▁denise	-10.9068
▁severe	-10.9069
▁rover	-10.907
▁chapter	-10.9071
▁rudy	-10.9072
▁teammate	-10.9073
▁pepe	-10.9073
▁lurk	-10.9073
▁chaos	-10.9075
▁hypnotized	-10.9075
▁sammy	-10.9075
▁harsh	-10.9076
▁adam	-10.9077
▁accused	-10.9079
▁broom	-10.9083
▁chili	-10.9086
▁limb	-10.9088
▁doian	-10.909
▁organized	-10.9094
▁noo	-10.9101
▁potion	-10.9104
▁witches	-10.9107
▁astro	-10.9119
▁creepy	-10.9123
▁gap	-10.9127
▁wander	-10.9129
▁apply	-10.9139
ittie	-10.9165
▁billion	-10.9171
▁kent	-10.9182
▁sweater	-10.9184
▁trim	-10.919
eating	-10.92
▁robe	-10.9212
there	-10.9229
▁core	-10.9251
▁bun	-10.9251
▁vol	-10.9265
▁peel	-10.927
lift	-10.9286
▁pile	-10.9299
master	-10.9329
two	-10.9341
▁herc	-10.9346
▁surround	-10.9367
▁rang	-10.937
think	-10.9402
▁movin	-10.941
state	-10.9411
▁journal	-10.9417
▁trump	-10.9417
▁favour	-10.942
▁transfer	-10.9421
▁acquaintance	-10.9421
▁behalf	-10.9421
▁believing	-10.9421
▁bouncy	-10.9421
▁electronic	-10.9421
▁encourage	-10.9421
▁gandhi	-10.9421
▁graduate	-10.9421
▁hallelujah	-10.9421
▁oregon	-10.9421
▁pharaoh	-10.9421
▁politician	-10.9421
▁satisfied	-10.9421
▁struggling	-10.9421
▁telegram	-10.9421
▁underwear	-10.9421
▁cackling	-10.9421
▁identify	-10.9421
▁laundry	-10.9421
▁rustling	-10.9421
▁molloy	-10.9421
▁stadium	-10.9421
▁vodka	-10.9421
▁volume	-10.9421
▁april	-10.9421
▁slope	-10.9421
▁tragic	-10.9421
▁jorge	-10.9421
▁karell	-10.9421
▁giddy	-10.9421
▁related	-10.9421
▁armelle	-10.9421
▁decade	-10.9421
▁zira	-10.9421
▁burden	-10.9421
▁sherry	-10.9421
▁viva	-10.9421
▁bacon	-10.9421
▁presume	-10.9421
▁hughes	-10.9421
▁assuming	-10.9421
▁chinook	-10.9421
▁deaf	-10.9421
▁frost	-10.9421
▁relief	-10.9421
▁creating	-10.9422
▁translate	-10.9422
▁aisle	-10.9422
▁nagra	-10.9422
▁turtle	-10.9422
▁beggar	-10.9422
▁dragonball	-10.9422
▁tracy	-10.9423
▁shams	-10.9424
▁sarge	-10.9425
▁arrow	-10.9426
▁slot	-10.9426
▁elsewhere	-10.9427
▁frag	-10.943
▁waking	-10.943
▁bogue	-10.943
▁megan	-10.9431
▁possession	-10.9432
▁consent	-10.9434
▁lind	-10.9438
▁ardi	-10.9439
▁constantly	-10.9446
▁dough	-10.9446
▁combine	-10.9449
▁madness	-10.9449
front	-10.945
▁dash	-10.9459
▁jose	-10.9461
▁cue	-10.9479
▁discussion	-10.948
▁pele	-10.9481
▁presentation	-10.9482
▁kiddo	-10.9485
titude	-10.9487
▁nob	-10.9516
herz	-10.9531
▁bok	-10.9538
cens	-10.957
berg	-10.9598
cott	-10.961
▁vari	-10.9619
▁edit	-10.9661
▁embarrass	-10.9674
▁splash	-10.9729
▁profession	-10.9732
▁frighten	-10.9737
ability	-10.9769
▁incredibl	-10.977
lloween	-10.9783
▁cigar	-10.979
▁atmosphere	-10.9791
▁ceiling	-10.9791
▁column	-10.9791
▁cyclone	-10.9791
▁distribute	-10.9791
▁enormous	-10.9791
▁feminist	-10.9791
▁larrabee	-10.9791
▁maneuver	-10.9791
▁practicing	-10.9791
▁rambalcochet	-10.9791
▁resource	-10.9791
▁rochelle	-10.9791
▁rudolph	-10.9791
▁saknussem	-10.9791
▁snowflake	-10.9791
▁sophie	-10.9791
▁survivor	-10.9791
▁transmission	-10.9791
▁uncomfortable	-10.9791
▁capsule	-10.9791
▁identified	-10.9791
▁meredith	-10.9791
▁sketch	-10.9791
▁shrimp	-10.9791
▁assault	-10.9791
▁sinestro	-10.9791
▁stunned	-10.9791
▁debbie	-10.9791
▁heiio	-10.9791
▁instance	-10.9791
▁lawrence	-10.9791
▁pencil	-10.9791
▁wiggle	-10.9791
▁anderson	-10.9791
▁dignity	-10.9791
▁alpha	-10.9791
▁corpse	-10.9791
▁strangle	-10.9791
▁decree	-10.9791
▁skating	-10.9791
▁rappel	-10.9791
▁royce	-10.9791
▁battery	-10.9791
▁dawg	-10.9791
▁sustain	-10.9791
▁saloon	-10.9791
▁watergate	-10.9791
▁spindle	-10.9791
▁peasant	-10.9791
▁derek	-10.9791
▁gallery	-10.9791
▁backpack	-10.9791
▁grasp	-10.9791
▁ronald	-10.9791
▁cawing	-10.9791
▁chiru	-10.9791
▁fragile	-10.9792
▁budget	-10.9792
▁apache	-10.9792
▁reference	-10.9793
▁doomed	-10.9793
▁righteous	-10.9793
▁bingo	-10.9793
▁ahoy	-10.9793
▁inches	-10.9793
▁backwards	-10.9794
▁kidnapping	-10.9794
▁referee	-10.9794
▁summon	-10.9795
▁observation	-10.9795
▁impact	-10.9795
▁seattle	-10.9796
▁ladder	-10.9796
▁tusk	-10.9797
▁rattle	-10.9797
▁chiming	-10.9797
▁moonlight	-10.9798
▁julia	-10.9798
▁beau	-10.9798
▁dexter	-10.98
▁minus	-10.9802
▁weakness	-10.9802
▁untie	-10.9804
▁percy	-10.9804
▁folk	-10.9805
▁electrical	-10.9806
▁creation	-10.9806
▁strictly	-10.9808
▁herman	-10.9809
▁bolt	-10.9811
▁parent	-10.9813
most	-10.9814
▁stack	-10.9815
▁magician	-10.9816
▁grey	-10.9817
▁centre	-10.9817
▁fitting	-10.9819
▁oak	-10.9819
▁elsa	-10.982
▁bash	-10.982
▁barton	-10.9828
▁hayes	-10.9836
▁trish	-10.9837
▁rug	-10.984
▁agh	-10.9862
▁saucer	-10.9875
▁mist	-10.9889
▁skater	-10.9966
▁origin	-11.0067
year	-11.0071
ngel	-11.0136
▁squeal	-11.0139
▁thirst	-11.0145
▁prof	-11.0149
tech	-11.0159
▁reform	-11.0171
▁abilities	-11.0176
▁antarctica	-11.0176
▁apologies	-11.0176
▁awkward	-11.0176
▁caribou	-11.0176
▁cavalry	-11.0176
▁clumsy	-11.0176
▁competitor	-11.0176
▁conscience	-11.0176
▁dialogue	-11.0176
▁eternity	-11.0176
▁financial	-11.0176
▁fingerprint	-11.0176
▁honeymoon	-11.0176
▁jeffords	-11.0176
▁kruger	-11.0176
▁luggage	-11.0176
▁mademoiselle	-11.0176
▁motorcycle	-11.0176
▁murky	-11.0176
▁niflheim	-11.0176
▁platform	-11.0176
▁preparation	-11.0176
▁satisfy	-11.0176
▁scotland	-11.0176
▁sympath	-11.0176
▁welfare	-11.0176
▁reception	-11.0176
▁sioux	-11.0176
▁tahime	-11.0176
▁caravan	-11.0176
▁cunning	-11.0176
▁floud	-11.0176
▁salvation	-11.0176
▁merci	-11.0176
▁patrice	-11.0176
▁ernie	-11.0176
▁injun	-11.0176
▁wilderness	-11.0176
▁scrappy	-11.0176
▁rameses	-11.0176
▁tennis	-11.0176
▁harmony	-11.0176
▁irish	-11.0176
▁nyx	-11.0176
▁madeleine	-11.0176
▁after	-11.0176
▁dragged	-11.0176
▁microphone	-11.0176
▁bueno	-11.0176
▁whirl	-11.0176
▁clerk	-11.0176
▁email	-11.0176
▁insert	-11.0176
▁mankind	-11.0177
▁zaius	-11.0177
▁supervis	-11.0177
▁keen	-11.0177
▁proposition	-11.0177
▁basis	-11.0178
▁shush	-11.0178
▁behold	-11.0179
▁rolf	-11.0179
▁stomp	-11.0179
▁journalist	-11.0179
▁melba	-11.018
▁orphanage	-11.018
▁loyalty	-11.018
▁slipped	-11.018
▁engagement	-11.018
▁priority	-11.018
▁duties	-11.018
▁reformation	-11.0181
▁classroom	-11.0182
▁romance	-11.0182
▁lunatic	-11.0185
▁whack	-11.0185
▁frame	-11.0186
▁foster	-11.0186
▁patron	-11.0189
▁yank	-11.0193
▁popping	-11.0194
▁footage	-11.0194
▁passage	-11.0197
▁brent	-11.0198
▁umney	-11.0198
▁blah	-11.0201
▁tide	-11.0207
▁toll	-11.0208
▁brace	-11.0208
▁soda	-11.0211
▁kris	-11.022
brain	-11.0222
▁fianc	-11.0237
▁coup	-11.0245
▁bernier	-11.0246
▁johnston	-11.0282
▁kneel	-11.0405
▁undo	-11.0427
ellow	-11.0453
▁erase	-11.0551
stream	-11.0554
▁equa	-11.0556
▁convent	-11.0567
▁squaw	-11.0574
▁automatic	-11.0576
▁bizarre	-11.0576
▁blossom	-11.0576
▁cetera	-11.0576
▁challenging	-11.0576
▁cleveland	-11.0576
▁consequence	-11.0576
▁deploy	-11.0576
▁estimate	-11.0576
▁exhibit	-11.0576
▁habibeh	-11.0576
▁linguini	-11.0576
▁mousavi	-11.0576
▁obliged	-11.0576
▁penelope	-11.0576
▁physics	-11.0576
▁steerforth	-11.0576
▁suzanne	-11.0576
▁terrified	-11.0576
▁umbrella	-11.0576
▁wardrobe	-11.0576
▁yippee	-11.0576
▁abroad	-11.0576
▁aurora	-11.0576
▁brigadoon	-11.0576
▁commence	-11.0576
▁cuzco	-11.0576
▁global	-11.0576
▁gratitude	-11.0576
▁overnight	-11.0576
▁slaughter	-11.0576
▁swept	-11.0576
▁treason	-11.0576
▁gloria	-11.0576
▁racket	-11.0576
▁outdoor	-11.0576
▁veteran	-11.0576
▁deceive	-11.0576
▁sinbad	-11.0576
▁thisll	-11.0576
▁conceal	-11.0576
migration	-11.0576
▁investigate	-11.0576
▁mkan	-11.0576
▁testament	-11.0576
▁eager	-11.0576
▁hobby	-11.0576
▁refuge	-11.0576
▁missouri	-11.0576
▁online	-11.0576
▁pollen	-11.0576
▁cassie	-11.0576
▁kayera	-11.0576
▁wheat	-11.0576
▁motel	-11.0576
▁grumbl	-11.0576
▁rancor	-11.0576
▁elena	-11.0576
▁nancy	-11.0576
▁steep	-11.0576
▁drew	-11.0576
▁mourn	-11.0576
▁francs	-11.0576
▁queer	-11.0577
▁scalp	-11.0577
▁maniac	-11.0577
▁criticism	-11.0577
▁scheme	-11.0578
▁tapping	-11.058
▁upside	-11.058
▁inquir	-11.058
▁ginger	-11.058
▁skinny	-11.0582
▁fireplace	-11.0582
▁willard	-11.0585
▁ruff	-11.0588
▁cherie	-11.0588
▁borel	-11.0588
▁pooh	-11.0589
▁madrat	-11.0591
▁fortunately	-11.0592
▁amuse	-11.0593
▁instructor	-11.0593
▁glide	-11.0595
▁glenn	-11.0597
▁donation	-11.0598
▁drank	-11.0598
▁sadness	-11.0602
▁scum	-11.0603
▁dropping	-11.0604
▁eastman	-11.0608
▁satan	-11.0608
▁macon	-11.062
▁nava	-11.0675
▁blonde	-11.0677
where	-11.0724
▁marsh	-11.0817
▁bleed	-11.0932
ification	-11.095
▁guilt	-11.0961
▁colon	-11.0968
american	-11.0971
▁strict	-11.0973
▁livin	-11.0982
▁quest	-11.0987
bound	-11.0987
▁neglect	-11.0992
▁apollo	-11.0992
▁application	-11.0992
▁arriving	-11.0992
▁bullfight	-11.0992
▁cajella	-11.0992
▁chelsea	-11.0992
▁collision	-11.0992
▁description	-11.0992
▁footprint	-11.0992
▁geronimo	-11.0992
▁henrietta	-11.0992
▁jeanpaul	-11.0992
▁literature	-11.0992
▁pardeep	-11.0992
▁perspective	-11.0992
▁phantom	-11.0992
▁pheasant	-11.0992
▁qualified	-11.0992
▁rendezvous	-11.0992
▁tokyo	-11.0992
▁vessel	-11.0992
corporate	-11.0992
▁antonio	-11.0992
▁collins	-11.0992
▁kansas	-11.0992
▁primitive	-11.0992
▁snarling	-11.0992
▁wouid	-11.0992
▁faraday	-11.0992
▁tortoni	-11.0992
▁cinema	-11.0992
▁fierce	-11.0992
▁sardine	-11.0992
▁lambert	-11.0992
▁dentist	-11.0992
▁infant	-11.0992
▁elaine	-11.0992
▁sinister	-11.0992
▁timmie	-11.0992
▁marvin	-11.0992
▁gilbert	-11.0992
▁entry	-11.0992
▁consult	-11.0993
▁prophet	-11.0993
▁viren	-11.0993
▁nova	-11.0993
▁fireworks	-11.0993
▁decorati	-11.0993
▁trotwood	-11.0993
▁darius	-11.0993
▁funky	-11.0993
▁monstro	-11.0993
▁lemonade	-11.0993
▁gossip	-11.0993
▁specifically	-11.0994
▁fridge	-11.0994
▁serving	-11.0995
▁iceberg	-11.0995
▁remark	-11.0995
▁stalk	-11.0996
▁fiction	-11.0996
▁munchie	-11.0996
▁paperwork	-11.0996
▁appropriate	-11.0996
▁hesitate	-11.0997
▁pillow	-11.0997
▁crust	-11.0997
▁egyptian	-11.0999
▁babysit	-11.1
▁chopper	-11.1
▁slavery	-11.1
▁garland	-11.1001
▁attraction	-11.1003
▁ripped	-11.1004
▁chimp	-11.1005
▁cuff	-11.1006
▁multi	-11.1008
▁actress	-11.1008
▁alongside	-11.1011
▁wong	-11.1013
▁garth	-11.1014
▁harrison	-11.1014
▁chairman	-11.1014
▁yuck	-11.1015
▁copies	-11.1017
▁shack	-11.1019
▁hackl	-11.1019
▁grill	-11.1021
▁amongst	-11.1021
▁gravel	-11.1126
▁geez	-11.1138
about	-11.1146
hhhhh	-11.1182
▁pond	-11.1201
▁clatter	-11.1365
▁exhaust	-11.1373
three	-11.1406
▁depart	-11.142
▁interfere	-11.1427
▁amazed	-11.1427
▁arnaud	-11.1427
▁assemble	-11.1427
▁barcuna	-11.1427
▁cathedral	-11.1427
▁christopher	-11.1427
▁cultural	-11.1427
▁cummings	-11.1427
▁deputy	-11.1427
▁ernesto	-11.1427
▁exploring	-11.1427
▁furthermore	-11.1427
▁goetaborg	-11.1427
▁ieyasu	-11.1427
▁independence	-11.1427
▁integrity	-11.1427
▁lantern	-11.1427
▁micawber	-11.1427
▁nottingham	-11.1427
▁occupied	-11.1427
▁october	-11.1427
▁peggotty	-11.1427
▁pineapple	-11.1427
▁regulation	-11.1427
▁snickering	-11.1427
▁terrance	-11.1427
▁therapy	-11.1427
▁timberwolves	-11.1427
▁trembling	-11.1427
▁trophy	-11.1427
▁bernard	-11.1427
▁clawdeen	-11.1427
▁disrespect	-11.1427
▁mermaid	-11.1427
▁tarzan	-11.1427
▁cuando	-11.1427
▁devito	-11.1427
▁landscape	-11.1427
▁pancake	-11.1427
▁portrait	-11.1427
▁sesame	-11.1427
▁caution	-11.1427
▁celeste	-11.1427
▁decorate	-11.1427
▁montana	-11.1427
▁purchase	-11.1427
▁warwick	-11.1427
▁brenda	-11.1427
▁fossil	-11.1427
▁fraud	-11.1427
▁lobby	-11.1427
▁shortcut	-11.1427
▁monarch	-11.1427
▁purple	-11.1427
▁website	-11.1427
▁brooke	-11.1427
▁cheryl	-11.1427
▁colorado	-11.1427
▁gregory	-11.1427
▁nickname	-11.1427
▁nigel	-11.1427
▁cannon	-11.1427
▁eminence	-11.1427
▁interior	-11.1427
▁roxy	-11.1427
▁jessie	-11.1427
▁phew	-11.1427
▁gospel	-11.1427
▁regent	-11.1427
▁snoop	-11.1427
▁ankle	-11.1427
▁fisherman	-11.1427
▁pierre	-11.1427
▁canterville	-11.1427
▁causing	-11.1427
▁vitamin	-11.1427
▁modest	-11.1427
▁dispose	-11.1427
▁hollow	-11.1428
▁carpet	-11.1428
▁pursue	-11.1428
▁constitution	-11.1428
▁gulp	-11.1428
▁hustle	-11.1428
▁tourists	-11.1428
sensible	-11.1428
▁institution	-11.1429
▁winston	-11.143
▁yankee	-11.143
▁thornton	-11.143
▁gunfire	-11.1433
▁kandi	-11.1433
▁reliable	-11.1434
▁begging	-11.1434
▁myth	-11.1435
▁stove	-11.1435
▁blake	-11.1435
▁edition	-11.1436
▁caption	-11.1437
▁venture	-11.1437
▁luckily	-11.1438
▁combat	-11.1438
▁hogue	-11.1443
▁trent	-11.1443
▁management	-11.1443
▁litter	-11.1445
▁bonus	-11.1446
▁occur	-11.1449
▁flare	-11.1464
▁lime	-11.1467
▁lois	-11.1477
▁objection	-11.1478
▁annu	-11.1497
▁limo	-11.1532
▁brag	-11.1641
play	-11.1652
▁graceful	-11.1708
▁spun	-11.1712
▁senor	-11.1715
world	-11.186
yearold	-11.1861
▁definite	-11.1863
class	-11.1868
▁lovin	-11.1872
▁darlin	-11.1875
▁adapt	-11.1882
▁rebuild	-11.1882
▁alternative	-11.1882
▁ambition	-11.1882
▁arizona	-11.1882
▁bacteria	-11.1882
▁brinstead	-11.1882
▁christophene	-11.1882
▁columbia	-11.1882
▁december	-11.1882
▁depressed	-11.1882
▁despair	-11.1882
▁dolphin	-11.1882
▁economic	-11.1882
▁envelope	-11.1882
▁explosive	-11.1882
▁fanfare	-11.1882
▁hurray	-11.1882
▁innocence	-11.1882
▁jeiiystone	-11.1882
▁jerusalem	-11.1882
▁nascimento	-11.1882
▁orleans	-11.1882
▁outstanding	-11.1882
▁peculiar	-11.1882
▁scramble	-11.1882
▁shield	-11.1882
▁sophisticated	-11.1882
▁squirrel	-11.1882
▁tremendous	-11.1882
▁velrans	-11.1882
▁wickfield	-11.1882
▁wretched	-11.1882
▁yappasha	-11.1882
▁abortion	-11.1882
▁activity	-11.1882
▁cockroach	-11.1882
▁cuckoo	-11.1882
▁kennedy	-11.1882
▁merchant	-11.1882
▁phrase	-11.1882
▁quigley	-11.1882
▁gesture	-11.1882
▁indicate	-11.1882
ezvous	-11.1882
▁horror	-11.1882
▁lenore	-11.1882
▁pluto	-11.1882
▁weasel	-11.1882
▁bleep	-11.1882
▁critter	-11.1882
▁melvin	-11.1882
▁assassin	-11.1882
▁crump	-11.1882
▁elbow	-11.1882
▁ryker	-11.1882
▁warehouse	-11.1882
▁miranda	-11.1882
▁dalton	-11.1882
▁walsh	-11.1882
▁denver	-11.1882
▁parrot	-11.1882
▁bfg	-11.1882
▁paolo	-11.1882
▁whatsoever	-11.1882
▁dutch	-11.1882
▁ivan	-11.1882
▁jimmie	-11.1882
▁pigeon	-11.1882
▁antoinette	-11.1882
▁avenge	-11.1882
▁amusing	-11.1882
▁slug	-11.1882
▁connor	-11.1882
▁raising	-11.1882
▁blend	-11.1882
▁goddess	-11.1882
▁athos	-11.1882
▁chimes	-11.1882
▁riverhorse	-11.1883
▁olsen	-11.1883
▁oei	-11.1883
▁atwater	-11.1883
▁hawk	-11.1883
▁reyes	-11.1883
▁angle	-11.1884
▁medfield	-11.1884
▁icon	-11.1884
▁construction	-11.1885
▁hunk	-11.1885
▁raft	-11.1885
▁barbie	-11.1886
▁numer	-11.1886
▁furious	-11.1887
▁goku	-11.1887
▁rival	-11.1887
▁massage	-11.1887
▁tanner	-11.1887
▁dagger	-11.1889
▁banner	-11.1889
▁stroll	-11.1889
▁slightest	-11.1889
▁jewelry	-11.189
rquez	-11.189
▁mainland	-11.1894
▁fluid	-11.1894
▁admitted	-11.1895
▁dodgers	-11.1895
▁rosy	-11.1897
▁democratic	-11.1897
▁heip	-11.1899
▁exile	-11.1906
▁define	-11.1913
▁potter	-11.1913
▁fend	-11.1944
▁spica	-11.1967
▁condo	-11.2029
▁dj	-11.2207
▁accord	-11.2296
▁numb	-11.2329
craft	-11.2336
proof	-11.2336
▁fortunate	-11.2338
▁practical	-11.2339
▁inherit	-11.2356
▁grove	-11.2358
▁collaborat	-11.2358
▁aggressive	-11.2358
▁ambrose	-11.2358
▁andrada	-11.2358
▁anthony	-11.2358
▁blimey	-11.2358
▁bonjour	-11.2358
▁brooklyn	-11.2358
▁bullseye	-11.2358
▁cinderelly	-11.2358
▁clemons	-11.2358
▁coconut	-11.2358
▁coocoo	-11.2358
▁crockett	-11.2358
▁crocodile	-11.2358
▁embassy	-11.2358
▁execute	-11.2358
▁eyepoppers	-11.2358
▁festival	-11.2358
▁fountain	-11.2358
▁gadgetmobile	-11.2358
▁gambling	-11.2358
▁gonggil	-11.2358
▁granddaughter	-11.2358
▁horizon	-11.2358
▁hurricane	-11.2358
▁inevitable	-11.2358
▁intellectual	-11.2358
▁invisible	-11.2358
▁negotiate	-11.2358
▁opponent	-11.2358
▁refresh	-11.2358
▁rhyme	-11.2358
▁roosevelt	-11.2358
▁rottenmeier	-11.2358
▁satisfaction	-11.2358
▁seltzer	-11.2358
▁sophia	-11.2358
▁specimen	-11.2358
▁telegraph	-11.2358
▁vulture	-11.2358
▁alaska	-11.2358
▁anyhow	-11.2358
▁fleece	-11.2358
▁harriet	-11.2358
▁lloyd	-11.2358
▁marilyn	-11.2358
▁shrink	-11.2358
▁sultan	-11.2358
▁tweet	-11.2358
▁lyrics	-11.2358
▁resort	-11.2358
▁banquet	-11.2358
▁haircut	-11.2358
▁judging	-11.2358
▁hazard	-11.2358
▁minnie	-11.2358
▁onward	-11.2358
▁noodle	-11.2358
▁slick	-11.2358
▁lndian	-11.2358
▁theft	-11.2358
▁holmesburg	-11.2358
▁madison	-11.2358
▁creaks	-11.2358
▁hazel	-11.2358
▁wimp	-11.2358
▁heap	-11.2358
▁arena	-11.2358
▁adios	-11.2358
▁ransom	-11.2359
▁upsidedown	-11.2359
▁indige	-11.2359
▁preston	-11.2359
▁harmonica	-11.236
▁inheritance	-11.236
▁kitten	-11.236
▁plague	-11.236
▁burger	-11.236
▁jammed	-11.236
▁spike	-11.2361
▁nathanial	-11.2362
▁rooster	-11.2362
▁scroll	-11.2362
▁update	-11.2362
▁disturbance	-11.2362
▁grabbed	-11.2363
▁bugger	-11.2364
▁legendary	-11.2364
▁jojo	-11.2365
▁operating	-11.2365
▁duran	-11.2367
▁passionate	-11.2368
▁elite	-11.2368
▁slack	-11.2369
▁hallway	-11.2369
▁pimp	-11.237
▁grub	-11.237
▁liking	-11.2371
▁marble	-11.2373
▁curry	-11.2374
▁riley	-11.2375
▁dumpling	-11.2376
▁prick	-11.2376
▁blog	-11.2378
▁grrr	-11.2382
▁loop	-11.2386
▁abuse	-11.2387
▁squeak	-11.2422
orita	-11.254
cule	-11.2544
iddle	-11.2558
tella	-11.2589
▁ammo	-11.2678
ppers	-11.2816
flower	-11.2836
▁virg	-11.2836
school	-11.2836
woman	-11.2837
child	-11.2837
▁disobey	-11.2858
▁academic	-11.2858
▁advisor	-11.2858
▁amsterdam	-11.2858
▁anxiety	-11.2858
▁association	-11.2858
▁bdawg	-11.2858
▁bumblebee	-11.2858
▁cocksucker	-11.2858
▁conservative	-11.2858
▁convenient	-11.2858
▁coyote	-11.2858
▁daisuke	-11.2858
▁demonstrate	-11.2858
▁distorted	-11.2858
▁dorothy	-11.2858
▁eclipse	-11.2858
▁evolution	-11.2858
▁execution	-11.2858
▁explosiveskull	-11.2858
▁gypsy	-11.2858
▁heavyweight	-11.2858
▁incompetent	-11.2858
▁invasion	-11.2858
▁krinkle	-11.2858
▁mfundisi	-11.2858
▁nebuchadnezzar	-11.2858
▁neighs	-11.2858
▁november	-11.2858
▁obsession	-11.2858
▁possibilities	-11.2858
▁prosecutor	-11.2858
▁scrooge	-11.2858
▁skeleton	-11.2858
▁sleeve	-11.2858
▁sleigh	-11.2858
▁solemn	-11.2858
▁suspicion	-11.2858
▁throbbing	-11.2858
▁unconscious	-11.2858
▁velvet	-11.2858
▁verdict	-11.2858
▁voysey	-11.2858
▁vulgar	-11.2858
▁yonkers	-11.2858
▁austria	-11.2858
▁convert	-11.2858
▁desmond	-11.2858
▁fabric	-11.2858
▁fuzzy	-11.2858
▁grenade	-11.2858
▁guidance	-11.2858
▁ritual	-11.2858
▁samadhi	-11.2858
▁amateur	-11.2858
▁buckingham	-11.2858
▁cooperate	-11.2858
▁inviting	-11.2858
▁marcello	-11.2858
▁pledge	-11.2858
▁carbonate	-11.2858
▁saxon	-11.2858
▁sorrv	-11.2858
▁cackle	-11.2858
▁manchuria	-11.2858
▁reckless	-11.2858
▁sidney	-11.2858
▁predator	-11.2858
▁croft	-11.2858
▁globe	-11.2858
▁thrash	-11.2858
▁zelen	-11.2858
▁shirin	-11.2858
▁postcard	-11.2858
▁leaf	-11.2858
▁nursing	-11.2858
▁applied	-11.2858
▁couid	-11.2858
▁worid	-11.2858
▁scoop	-11.2858
▁hamlet	-11.2858
▁wrist	-11.2858
▁solar	-11.2858
▁ellie	-11.2858
▁couch	-11.2858
▁ricky	-11.2858
▁yuri	-11.2858
▁flirt	-11.2858
▁hawkins	-11.2859
▁enforc	-11.2859
▁sasha	-11.2859
▁lolly	-11.2859
▁lulu	-11.2859
▁zoe	-11.2859
▁spectra	-11.2859
▁plaza	-11.2859
▁departure	-11.286
▁riddle	-11.286
▁fading	-11.286
▁cocktail	-11.2861
▁civilized	-11.2861
▁shaft	-11.2861
▁triumphant	-11.2862
▁terrorist	-11.2863
▁constantine	-11.2864
▁andand	-11.2864
▁lizard	-11.2864
▁retirement	-11.2864
▁cherry	-11.2865
▁expand	-11.2866
▁communist	-11.2866
▁chitra	-11.2866
▁snapping	-11.2869
▁skipper	-11.2869
▁burke	-11.2873
▁chow	-11.2882
▁observ	-11.302
versus	-11.3043
▁blaze	-11.3115
aqua	-11.3149
▁whwh	-11.3171
▁calvin	-11.3241
▁multipl	-11.3274
▁golf	-11.3316
▁bleat	-11.3322
▁engage	-11.3335
▁organize	-11.3345
cross	-11.336
▁proclaim	-11.3384
▁tranquil	-11.3384
▁arrogant	-11.3384
▁aspirin	-11.3384
▁authentic	-11.3384
▁balcony	-11.3384
▁bonnelli	-11.3384
▁borotyn	-11.3384
▁briefcase	-11.3384
▁calculation	-11.3384
▁custody	-11.3384
▁depression	-11.3384
▁ensign	-11.3384
▁exclusive	-11.3384
▁feminine	-11.3384
▁gibbering	-11.3384
▁giuliano	-11.3384
▁giuseppe	-11.3384
▁happiest	-11.3384
▁helmet	-11.3384
▁introduction	-11.3384
▁kahuna	-11.3384
▁kumalo	-11.3384
▁lesbian	-11.3384
▁luxury	-11.3384
▁nowadays	-11.3384
▁penetrate	-11.3384
▁philosophy	-11.3384
▁poverty	-11.3384
▁privacy	-11.3384
▁pursuit	-11.3384
▁qualify	-11.3384
▁reaiiy	-11.3384
▁rosamaria	-11.3384
▁sabotage	-11.3384
▁shrieking	-11.3384
▁snarls	-11.3384
▁sutemaru	-11.3384
▁virtue	-11.3384
▁yoohoo	-11.3384
▁appointed	-11.3384
▁bloke	-11.3384
▁gravity	-11.3384
▁grumio	-11.3384
▁osaka	-11.3384
▁perimeter	-11.3384
▁rafael	-11.3384
▁temporary	-11.3384
▁zelda	-11.3384
▁chamberlain	-11.3384
▁kirby	-11.3384
▁paddle	-11.3384
▁serpent	-11.3384
▁yummies	-11.3384
▁aramis	-11.3384
▁maureen	-11.3384
▁stereo	-11.3384
▁variety	-11.3384
▁snatch	-11.3384
▁vienna	-11.3384
▁yield	-11.3384
▁clucking	-11.3384
▁devour	-11.3384
▁muffin	-11.3384
▁barlow	-11.3384
▁radical	-11.3384
▁sixteen	-11.3384
▁valerie	-11.3384
▁trench	-11.3384
▁coosh	-11.3384
▁phony	-11.3384
▁grady	-11.3384
▁barista	-11.3384
▁threatening	-11.3384
▁zora	-11.3384
▁dewey	-11.3384
▁piglet	-11.3384
▁frightful	-11.3384
jespah	-11.3384
▁revolt	-11.3384
▁racism	-11.3384
▁oath	-11.3384
▁restrain	-11.3384
▁altar	-11.3385
▁mmmmmm	-11.3385
▁porthos	-11.3385
▁barrier	-11.3385
▁organization	-11.3385
▁sondra	-11.3386
▁govern	-11.3386
▁ceo	-11.3386
▁profile	-11.3386
▁flea	-11.3386
▁boston	-11.3386
▁authorities	-11.3386
▁outrageous	-11.3386
▁backyard	-11.3386
▁britain	-11.3387
▁ufo	-11.3387
▁expectations	-11.3387
▁panties	-11.3388
▁spinach	-11.3388
▁carolina	-11.3389
▁kenny	-11.339
▁crank	-11.339
▁santos	-11.3391
▁youyou	-11.3391
▁snuck	-11.3391
▁nasties	-11.3395
▁whys	-11.3396
▁carlos	-11.34
▁dorm	-11.3402
▁compose	-11.3413
nfl	-11.3415
▁raci	-11.3452
▁horri	-11.3456
ovsky	-11.3472
urban	-11.3512
graphic	-11.3522
▁chang	-11.3755
▁styl	-11.3879
bury	-11.392
▁outrage	-11.3937
uppence	-11.3938
▁johannes	-11.3939
▁activities	-11.394
▁ahearn	-11.394
▁altogether	-11.394
▁biblical	-11.394
▁butterflies	-11.394
▁chipmunk	-11.394
▁choosing	-11.394
▁confined	-11.394
▁consciousness	-11.394
▁cripple	-11.394
▁crucial	-11.394
▁definition	-11.394
▁democracy	-11.394
▁demonstration	-11.394
▁destination	-11.394
▁doctrine	-11.394
▁electromagneti	-11.394
▁exploit	-11.394
▁exquisite	-11.394
▁ezekiel	-11.394
▁imbecile	-11.394
▁infinite	-11.394
▁institute	-11.394
▁kaguya	-11.394
▁karthik	-11.394
▁kungfu	-11.394
▁leprechaun	-11.394
▁maintenance	-11.394
▁morteza	-11.394
▁obsessed	-11.394
▁overlapping	-11.394
▁priscilla	-11.394
▁scoundrel	-11.394
▁sesemann	-11.394
▁soccer	-11.394
▁sprinkl	-11.394
▁squash	-11.394
▁stammers	-11.394
▁sydney	-11.394
▁vacuum	-11.394
▁veronica	-11.394
▁bubbly	-11.394
▁detention	-11.394
▁everlasting	-11.394
▁fundamental	-11.394
▁haldeman	-11.394
▁january	-11.394
▁massacre	-11.394
▁pervert	-11.394
▁prairie	-11.394
▁sausage	-11.394
▁stannis	-11.394
▁torpedo	-11.394
▁uriah	-11.394
▁brenner	-11.394
▁climate	-11.394
▁gashade	-11.394
▁hydra	-11.394
▁patriot	-11.394
▁rupees	-11.394
▁translation	-11.394
▁awhile	-11.394
▁bronze	-11.394
▁graveyard	-11.394
▁israel	-11.394
▁rutland	-11.394
▁valdez	-11.394
▁violation	-11.394
▁clutch	-11.394
▁distress	-11.394
▁outlaw	-11.394
▁puppet	-11.394
▁butterfly	-11.394
▁mutual	-11.394
▁possum	-11.394
▁blackmail	-11.394
▁ahchoo	-11.394
▁oniy	-11.394
▁sworn	-11.394
▁rufus	-11.394
▁ashore	-11.394
▁johannesburg	-11.394
▁fiona	-11.394
▁personnel	-11.394
▁postpone	-11.394
▁oome	-11.394
▁veil	-11.394
▁pringle	-11.394
▁mystic	-11.394
▁yacht	-11.394
▁blink	-11.394
▁psychological	-11.3941
▁cern	-11.3941
▁keg	-11.3941
▁underwater	-11.3941
▁oink	-11.3941
▁hanssen	-11.3941
▁tingle	-11.3941
▁transferred	-11.3941
▁claudette	-11.3942
▁tuppence	-11.3942
▁fuji	-11.3942
▁obtain	-11.3942
▁obama	-11.3942
▁thrust	-11.3943
▁charlon	-11.3943
▁resent	-11.3944
▁rye	-11.3944
▁bovs	-11.3945
▁homesick	-11.3946
▁goodwin	-11.3947
▁regime	-11.3955
▁clint	-11.3958
▁strap	-11.4003
ridden	-11.4068
▁overlook	-11.408
ooooo	-11.4269
▁blond	-11.4379
▁arab	-11.4449
▁determine	-11.4485
warren	-11.4506
walk	-11.451
▁seduc	-11.4515
▁construct	-11.4523
acquainted	-11.4528
▁accurate	-11.4528
▁anonymous	-11.4528
▁antitoxin	-11.4528
▁approximately	-11.4528
▁atlanta	-11.4528
▁attaboy	-11.4528
▁autumn	-11.4528
▁avenue	-11.4528
▁barbecue	-11.4528
▁certificate	-11.4528
▁cheyenne	-11.4528
▁cochiloco	-11.4528
▁colbert	-11.4528
▁compartment	-11.4528
▁confusing	-11.4528
▁cornwall	-11.4528
▁dalloway	-11.4528
▁daphne	-11.4528
▁deliberately	-11.4528
▁destined	-11.4528
▁discharge	-11.4528
▁distinguished	-11.4528
▁domestic	-11.4528
▁elegant	-11.4528
▁eunuch	-11.4528
▁evacuate	-11.4528
▁exposure	-11.4528
▁fathoms	-11.4528
▁fernando	-11.4528
▁fouquet	-11.4528
▁glimpse	-11.4528
▁gregorio	-11.4528
▁hitchcock	-11.4528
▁ingenious	-11.4528
▁katherine	-11.4528
▁kilometers	-11.4528
▁lindenbrook	-11.4528
▁mathematic	-11.4528
▁meerkat	-11.4528
▁merchandise	-11.4528
▁minnesota	-11.4528
▁mozart	-11.4528
▁obstacle	-11.4528
▁overwhelming	-11.4528
▁parkhurst	-11.4528
▁participate	-11.4528
▁pollinators	-11.4528
▁popcorn	-11.4528
▁qualities	-11.4528
▁recruit	-11.4528
▁refrigerator	-11.4528
▁satterfield	-11.4528
▁sigrid	-11.4528
▁squirt	-11.4528
▁supermarket	-11.4528
▁sylvester	-11.4528
▁telugu	-11.4528
▁throttle	-11.4528
▁wrinkle	-11.4528
▁yukimura	-11.4528
▁boatwright	-11.4528
▁brutus	-11.4528
▁caviar	-11.4528
▁chemical	-11.4528
▁downhill	-11.4528
▁hortens	-11.4528
▁intimate	-11.4528
▁thirteen	-11.4528
▁deception	-11.4528
▁enrique	-11.4528
▁gigante	-11.4528
▁gruberman	-11.4528
▁norwood	-11.4528
▁beverly	-11.4528
▁gymnast	-11.4528
▁harlene	-11.4528
▁liberal	-11.4528
▁melody	-11.4528
▁negro	-11.4528
▁fraction	-11.4528
▁francois	-11.4528
▁inventory	-11.4528
▁vivian	-11.4528
▁crisp	-11.4528
▁errand	-11.4528
▁marianne	-11.4528
▁resume	-11.4528
▁craving	-11.4528
▁holland	-11.4528
▁leash	-11.4528
▁siege	-11.4528
▁gigantic	-11.4528
▁retard	-11.4528
▁stitch	-11.4528
▁gwen	-11.4528
▁epic	-11.4528
▁reign	-11.4528
▁terry	-11.4528
▁mmmmmmmm	-11.4528
▁interference	-11.4529
▁boundaries	-11.4529
▁ensure	-11.453
▁josie	-11.453
▁cherries	-11.453
▁linus	-11.453
▁moines	-11.453
▁navid	-11.453
▁justify	-11.453
▁persist	-11.4531
ovich	-11.4533
▁stride	-11.4533
▁emerge	-11.4534
sphere	-11.4566
mooch	-11.4601
version	-11.5001
▁murmur	-11.5091
▁clair	-11.5093
mouth	-11.5131
▁munch	-11.5148
▁marvel	-11.5151
▁hypocri	-11.5153
▁reinforce	-11.5153
▁anastasia	-11.5153
▁apprentice	-11.5153
▁architect	-11.5153
▁artificial	-11.5153
▁aspect	-11.5153
▁behaving	-11.5153
▁berkshire	-11.5153
▁bethlehem	-11.5153
▁bibbidibobbidi	-11.5153
▁biscuit	-11.5153
▁bonanza	-11.5153
▁cheerleader	-11.5153
▁conspiracy	-11.5153
▁convincing	-11.5153
▁deborah	-11.5153
▁eligible	-11.5153
▁ephraim	-11.5153
▁exploration	-11.5153
▁fernfield	-11.5153
▁frequenc	-11.5153
▁frequently	-11.5153
▁generosity	-11.5153
▁gurgling	-11.5153
▁gypsies	-11.5153
▁hypnoray	-11.5153
▁identification	-11.5153
▁immortal	-11.5153
▁indulge	-11.5153
▁kelekian	-11.5153
▁khanoum	-11.5153
▁laboratory	-11.5153
▁loneliness	-11.5153
▁margaret	-11.5153
▁mcmurdo	-11.5153
▁memnet	-11.5153
▁metaphor	-11.5153
▁obligation	-11.5153
▁offensive	-11.5153
▁oldfashioned	-11.5153
▁opportunities	-11.5153
▁ouessant	-11.5153
▁overwhelmed	-11.5153
▁parliament	-11.5153
▁password	-11.5153
▁proclamation	-11.5153
▁recognise	-11.5153
▁registration	-11.5153
▁saizo	-11.5153
▁sasuke	-11.5153
▁schooner	-11.5153
▁snuffy	-11.5153
▁spaghetti	-11.5153
▁stingray	-11.5153
▁sundancer	-11.5153
▁supernatural	-11.5153
▁suppress	-11.5153
▁syracuse	-11.5153
▁toothpaste	-11.5153
▁trespass	-11.5153
▁varmint	-11.5153
▁winsiow	-11.5153
▁alyssa	-11.5153
▁chimney	-11.5153
▁compassion	-11.5153
▁hungarian	-11.5153
▁knives	-11.5153
▁phenomenal	-11.5153
▁ribbon	-11.5153
▁somewhat	-11.5153
▁trundle	-11.5153
▁bathtub	-11.5153
▁godfather	-11.5153
▁maximum	-11.5153
▁rekker	-11.5153
▁seminar	-11.5153
▁teresa	-11.5153
▁tissue	-11.5153
▁infection	-11.5153
▁rudder	-11.5153
▁aaaah	-11.5153
▁arctic	-11.5153
▁cyrus	-11.5153
▁essay	-11.5153
▁examination	-11.5153
▁fluffy	-11.5153
▁frederick	-11.5153
▁freight	-11.5153
▁hoffman	-11.5153
▁schooi	-11.5153
▁baggage	-11.5153
▁petition	-11.5153
▁reunion	-11.5153
▁unpack	-11.5153
▁convoy	-11.5153
▁dizzy	-11.5153
▁houston	-11.5153
▁buddha	-11.5153
▁savior	-11.5153
▁chakal	-11.5153
▁nevertheless	-11.5153
▁sunrise	-11.5153
▁hyde	-11.5153
▁blitz	-11.5153
▁chancellor	-11.5153
▁odette	-11.5153
▁motive	-11.5153
▁xray	-11.5153
hypnotic	-11.5153
▁stokes	-11.5153
▁juicy	-11.5153
▁noisy	-11.5153
▁dahl	-11.5153
▁gloom	-11.5153
▁scumbag	-11.5153
▁backstage	-11.5153
▁chemo	-11.5153
▁cramp	-11.5153
▁activate	-11.5153
▁absence	-11.5154
▁furlings	-11.5154
▁goblin	-11.5154
▁prosper	-11.5154
▁snob	-11.5155
▁manuel	-11.5155
▁morris	-11.5156
▁randal	-11.5169
▁gatlin	-11.5177
▁havin	-11.5198
▁experienc	-11.5634
▁scoot	-11.5787
famous	-11.5798
hearted	-11.5807
▁destruct	-11.5815
responsibilities	-11.582
▁accusation	-11.582
▁amazon	-11.582
▁analysis	-11.582
▁anticipation	-11.582
▁bradshaw	-11.582
▁brookhaven	-11.582
▁bulldozer	-11.582
▁calendar	-11.582
▁candidate	-11.582
▁carlotta	-11.582
▁chauvet	-11.582
▁cyclops	-11.582
▁dogtective	-11.582
▁dolores	-11.582
▁elegance	-11.582
▁enthusiasm	-11.582
▁enthusiast	-11.582
▁entitled	-11.582
▁eugene	-11.582
▁evident	-11.582
▁exploding	-11.582
▁extension	-11.582
▁flamethrower	-11.582
▁henderson	-11.582
▁hideyori	-11.582
▁hysterical	-11.582
▁loopdeloop	-11.582
▁loudspeaker	-11.582
▁marakeet	-11.582
▁marshmallow	-11.582
▁marvellous	-11.582
▁motherinlaw	-11.582
▁muslim	-11.582
▁nicholson	-11.582
▁offshore	-11.582
▁parachute	-11.582
▁pornography	-11.582
▁propaganda	-11.582
▁railroad	-11.582
▁rudolf	-11.582
▁salvatore	-11.582
▁scenario	-11.582
▁slurping	-11.582
▁sphinx	-11.582
▁steinberg	-11.582
▁suicune	-11.582
▁sylvia	-11.582
▁tavern	-11.582
▁tremble	-11.582
▁truffle	-11.582
▁underestimate	-11.582
▁unlimited	-11.582
▁unnecessary	-11.582
▁unpleasant	-11.582
▁worthwhile	-11.582
▁wrestling	-11.582
▁yonggary	-11.582
▁abraham	-11.582
▁astonish	-11.582
▁bounty	-11.582
▁dungeon	-11.582
▁furnace	-11.582
▁heritage	-11.582
▁lapporte	-11.582
▁minimum	-11.582
▁northeast	-11.582
▁rosita	-11.582
▁shillings	-11.582
▁tactics	-11.582
▁wildlife	-11.582
▁boulder	-11.582
▁cradle	-11.582
▁hamburger	-11.582
▁interaction	-11.582
▁mixture	-11.582
▁pelias	-11.582
▁plunge	-11.582
▁radiation	-11.582
▁literary	-11.582
▁raspy	-11.582
▁tardone	-11.582
▁yawning	-11.582
▁janitor	-11.582
▁temptation	-11.582
gorically	-11.582
▁survey	-11.582
▁whereabouts	-11.582
▁mollie	-11.582
▁worldwide	-11.582
▁ounce	-11.582
▁stumble	-11.582
▁dainty	-11.582
▁hunch	-11.582
▁muerte	-11.582
▁panther	-11.582
▁pendant	-11.582
▁sidewalks	-11.582
▁herald	-11.582
▁ardent	-11.582
▁izzy	-11.582
▁winnie	-11.582
▁bozo	-11.582
▁jingling	-11.582
▁visible	-11.582
▁laddie	-11.582
▁contend	-11.5821
▁redeem	-11.5821
▁mallinger	-11.5821
▁colossa	-11.5821
▁brigad	-11.5822
▁dazzl	-11.5823
▁deuce	-11.5824
▁restrict	-11.5824
▁harmoni	-11.5838
granddaddy	-11.5968
yuk	-11.602
▁musketeer	-11.6161
ezmoi	-11.6252
▁angu	-11.6285
blanc	-11.6343
minded	-11.638
▁disgust	-11.6472
▁complicat	-11.648
▁excite	-11.6488
posito	-11.6509
directly	-11.6512
wheel	-11.6512
▁counsel	-11.6515
▁woohoo	-11.6531
cogniz	-11.6533
▁vietnam	-11.6534
▁nectar	-11.6534
▁nikola	-11.6534
▁overflow	-11.6534
▁afghanistan	-11.6534
▁alligator	-11.6534
▁ambush	-11.6534
▁asylum	-11.6534
▁bartender	-11.6534
▁budapest	-11.6534
▁burglar	-11.6534
▁cautious	-11.6534
▁celebrity	-11.6534
▁charleshenri	-11.6534
▁chimpanzee	-11.6534
▁confusion	-11.6534
▁contempt	-11.6534
▁contribution	-11.6534
▁crusade	-11.6534
▁depressing	-11.6534
▁despise	-11.6534
▁dictionary	-11.6534
▁disconnect	-11.6534
▁driscoll	-11.6534
▁equipped	-11.6534
▁facility	-11.6534
▁fascinate	-11.6534
▁felicia	-11.6534
▁grizelda	-11.6534
▁halifax	-11.6534
▁horvath	-11.6534
▁humiliation	-11.6534
▁hyena	-11.6534
▁industrial	-11.6534
▁industries	-11.6534
▁injustice	-11.6534
▁isolated	-11.6534
▁jacqueline	-11.6534
▁kalahari	-11.6534
▁khaku	-11.6534
▁mammoth	-11.6534
▁manchukuo	-11.6534
▁merrinoe	-11.6534
▁michelangelo	-11.6534
▁miraculous	-11.6534
▁misfortune	-11.6534
▁murdoch	-11.6534
▁papoose	-11.6534
▁philadelphia	-11.6534
▁portuguese	-11.6534
▁psychiatrist	-11.6534
▁pyramid	-11.6534
▁quarrel	-11.6534
▁rattlesnake	-11.6534
▁receiving	-11.6534
▁reconsider	-11.6534
▁residence	-11.6534
▁shackelford	-11.6534
▁souvenir	-11.6534
▁stockholm	-11.6534
▁swirled	-11.6534
▁syrup	-11.6534
▁testimony	-11.6534
▁tokugawa	-11.6534
▁tumbleweed	-11.6534
▁vaslov	-11.6534
▁youtube	-11.6534
▁zombie	-11.6534
▁groovy	-11.6534
▁improving	-11.6534
▁mckible	-11.6534
▁panchos	-11.6534
▁paranoid	-11.6534
▁totoche	-11.6534
▁undercover	-11.6534
▁wrestle	-11.6534
▁analyze	-11.6534
▁compound	-11.6534
▁einstein	-11.6534
▁overseas	-11.6534
▁theatre	-11.6534
▁brodsky	-11.6534
▁neuros	-11.6534
▁penthouse	-11.6534
▁uncover	-11.6534
▁dearborne	-11.6534
▁effie	-11.6534
▁appalled	-11.6534
▁chariot	-11.6534
▁vesper	-11.6534
▁yelps	-11.6534
▁agenda	-11.6534
▁striking	-11.6534
▁vanilla	-11.6534
▁wharf	-11.6534
▁captive	-11.6534
▁nonstop	-11.6534
▁garlic	-11.6534
▁grouch	-11.6534
▁siwon	-11.6534
▁glaive	-11.6534
▁submit	-11.6534
▁tolerate	-11.6534
▁austin	-11.6534
▁coraz	-11.6534
▁onboard	-11.6534
▁crail	-11.6534
▁scorpi	-11.6534
▁violin	-11.6534
▁snail	-11.6534
▁stix	-11.6534
▁jackpot	-11.6534
▁endanger	-11.6534
▁ahyuck	-11.6534
▁relent	-11.6534
▁bandaid	-11.6534
▁vomit	-11.6534
▁ferry	-11.6534
▁lenny	-11.6534
▁doggone	-11.6534
▁spicy	-11.6534
▁knit	-11.6534
▁porch	-11.6534
▁conrad	-11.6534
▁mimic	-11.6535
▁omar	-11.6535
▁piay	-11.6535
▁violate	-11.6535
▁fratern	-11.6535
▁generate	-11.6536
▁swap	-11.6682
lestine	-11.6724
minute	-11.7282
course	-11.7282
▁leavin	-11.7293
level	-11.7301
▁lalala	-11.7303
▁affiliate	-11.7303
▁allergic	-11.7303
▁apostle	-11.7303
▁approval	-11.7303
▁arthritis	-11.7303
▁bachelor	-11.7303
▁belgium	-11.7303
▁blenac	-11.7303
▁cadillac	-11.7303
▁charmeleon	-11.7303
▁chauffeur	-11.7303
▁clermont	-11.7303
▁congregation	-11.7303
▁defensive	-11.7303
▁discouraged	-11.7303
▁distiller	-11.7303
▁donnybrook	-11.7303
▁duchannes	-11.7303
▁economy	-11.7303
▁efficient	-11.7303
▁encouraging	-11.7303
▁erasmus	-11.7303
▁faggot	-11.7303
▁fascist	-11.7303
▁february	-11.7303
▁fitzgerald	-11.7303
▁gabriel	-11.7303
▁handcuff	-11.7303
▁historian	-11.7303
▁homesteaders	-11.7303
▁humiliating	-11.7303
▁ignorant	-11.7303
▁immigrant	-11.7303
▁instagram	-11.7303
▁irritating	-11.7303
▁kumonga	-11.7303
▁lacrique	-11.7303
▁leprosy	-11.7303
▁mermoz	-11.7303
▁minstrel	-11.7303
▁misunderstood	-11.7303
▁munroe	-11.7303
▁nebraska	-11.7303
▁negotiations	-11.7303
▁onethird	-11.7303
▁pendragon	-11.7303
▁pocahontas	-11.7303
▁precaution	-11.7303
▁prettiest	-11.7303
▁producing	-11.7303
▁prosecution	-11.7303
▁reindeer	-11.7303
▁relevant	-11.7303
▁saemonnosuke	-11.7303
▁sarcastic	-11.7303
▁scattered	-11.7303
▁schuyler	-11.7303
▁scissors	-11.7303
▁substitute	-11.7303
▁supple	-11.7303
▁surveillance	-11.7303
▁tendency	-11.7303
▁terrain	-11.7303
▁tobacco	-11.7303
▁treacherous	-11.7303
▁troubling	-11.7303
▁typewriter	-11.7303
▁vulnerable	-11.7303
▁wilhelm	-11.7303
▁ascot	-11.7303
▁calamity	-11.7303
▁devotion	-11.7303
▁fingernail	-11.7303
▁halliwell	-11.7303
▁nuisance	-11.7303
▁radioactive	-11.7303
▁rearrange	-11.7303
▁simpson	-11.7303
▁sloppy	-11.7303
▁squat	-11.7303
▁tequila	-11.7303
▁yarmouth	-11.7303
obedience	-11.7303
▁anyplace	-11.7303
▁athens	-11.7303
▁burrito	-11.7303
▁cactus	-11.7303
▁discreet	-11.7303
▁gnome	-11.7303
▁peopie	-11.7303
▁shabbes	-11.7303
▁detroit	-11.7303
▁levinson	-11.7303
▁archaeolog	-11.7303
▁cortez	-11.7303
▁stuttering	-11.7303
▁geologist	-11.7303
▁katrina	-11.7303
▁lucifer	-11.7303
▁moonshine	-11.7303
▁pluck	-11.7303
▁coigne	-11.7303
▁graham	-11.7303
▁truce	-11.7303
▁nelda	-11.7303
dominant	-11.7303
▁alliance	-11.7303
▁dialect	-11.7303
▁expelled	-11.7303
▁ornament	-11.7303
▁boarst	-11.7303
▁bracelet	-11.7303
▁bruise	-11.7303
▁gurdy	-11.7303
▁nudge	-11.7303
▁dennis	-11.7303
▁ginnie	-11.7303
▁parlor	-11.7303
▁decline	-11.7303
▁probation	-11.7303
▁metallic	-11.7303
▁shelf	-11.7303
▁protein	-11.7303
▁ballerina	-11.7303
▁sikh	-11.7303
▁sauna	-11.7303
▁vava	-11.7303
▁kiwi	-11.7303
▁gfg	-11.7303
▁olaf	-11.7303
▁plow	-11.7303
anjar	-11.7303
▁catalog	-11.7303
▁exceed	-11.7303
▁maori	-11.7303
▁stork	-11.7303
▁convey	-11.7303
▁competing	-11.7303
▁northwest	-11.7303
▁urmi	-11.7303
▁bellowing	-11.7303
▁revolv	-11.7303
▁dork	-11.7304
▁bundle	-11.7304
▁noticing	-11.7304
▁algeria	-11.7304
▁freddie	-11.7304
▁tibet	-11.7305
▁prompt	-11.7306
▁overreac	-11.7306
▁doodle	-11.7307
▁crib	-11.7311
▁arouse	-11.734
horse	-11.735
pitched	-11.7912
dollar	-11.8115
thirsty	-11.8115
lookin	-11.8119
▁antoine	-11.8136
yayayaya	-11.8136
▁cannibal	-11.8136
▁pilgrim	-11.8136
▁advancing	-11.8136
▁antidote	-11.8136
▁apologizing	-11.8136
▁apprehend	-11.8136
▁artifact	-11.8136
▁assimilate	-11.8136
▁atlantic	-11.8136
▁avalanche	-11.8136
▁balthazar	-11.8136
▁bannister	-11.8136
▁behaviour	-11.8136
▁brainwash	-11.8136
▁bubbling	-11.8136
▁buongiorno	-11.8136
▁caballeros	-11.8136
▁carbonation	-11.8136
▁category	-11.8136
▁cemetery	-11.8136
▁chemistry	-11.8136
▁ciccio	-11.8136
▁colchis	-11.8136
▁concentration	-11.8136
▁condolences	-11.8136
▁courtmartial	-11.8136
▁credibility	-11.8136
▁desirable	-11.8136
▁dictate	-11.8136
▁dominique	-11.8136
▁easiest	-11.8136
▁emissary	-11.8136
▁emphasi	-11.8136
▁emptiness	-11.8136
▁epidemic	-11.8136
▁feihung	-11.8136
▁fletcher	-11.8136
▁fraulein	-11.8136
▁frustrated	-11.8136
▁frustrating	-11.8136
▁garrincha	-11.8136
▁genevieve	-11.8136
▁grandchildren	-11.8136
▁grazie	-11.8136
▁hackamaw	-11.8136
▁hidalgo	-11.8136
▁hilarious	-11.8136
▁holmsby	-11.8136
▁hurrah	-11.8136
▁inferior	-11.8136
▁infrared	-11.8136
▁injuries	-11.8136
▁inquisition	-11.8136
▁insomnia	-11.8136
▁kartik	-11.8136
▁knuckles	-11.8136
▁landlord	-11.8136
▁lollipop	-11.8136
▁loretta	-11.8136
▁manufacture	-11.8136
▁mcewen	-11.8136
▁mcgirk	-11.8136
▁mercedes	-11.8136
▁noctis	-11.8136
▁olympia	-11.8136
▁outnumber	-11.8136
▁periscope	-11.8136
▁precinct	-11.8136
▁premature	-11.8136
▁presidency	-11.8136
▁prettier	-11.8136
▁provision	-11.8136
▁quinceanera	-11.8136
▁reschedule	-11.8136
▁screwdriver	-11.8136
▁sheldon	-11.8136
▁smuggle	-11.8136
▁spenlow	-11.8136
▁spontaneous	-11.8136
▁submersible	-11.8136
▁sufficient	-11.8136
▁superstition	-11.8136
▁terlip	-11.8136
▁townspeople	-11.8136
▁treachery	-11.8136
▁treasury	-11.8136
▁tregelles	-11.8136
▁ungrateful	-11.8136
▁universal	-11.8136
▁whiskers	-11.8136
▁canadian	-11.8136
▁doughnut	-11.8136
▁gibbers	-11.8136
▁hossein	-11.8136
▁insanity	-11.8136
▁jerome	-11.8136
▁ministry	-11.8136
▁munich	-11.8136
▁rainforest	-11.8136
▁roadblock	-11.8136
▁slykes	-11.8136
▁squish	-11.8136
▁substance	-11.8136
▁trivial	-11.8136
▁zahara	-11.8136
▁cottage	-11.8136
▁dominate	-11.8136
▁harbour	-11.8136
▁leisure	-11.8136
▁monastery	-11.8136
▁omega	-11.8136
▁pursuing	-11.8136
▁shuffl	-11.8136
▁unfold	-11.8136
▁uptight	-11.8136
▁facial	-11.8136
▁hiphop	-11.8136
▁jotham	-11.8136
▁lobster	-11.8136
▁mathalon	-11.8136
▁tremor	-11.8136
▁ascend	-11.8136
▁funniest	-11.8136
▁goonches	-11.8136
▁stunning	-11.8136
▁whizzing	-11.8136
▁bunyan	-11.8136
▁cloak	-11.8136
▁millionaire	-11.8136
▁narrative	-11.8136
▁perceive	-11.8136
▁revoir	-11.8136
▁sprout	-11.8136
▁waffle	-11.8136
▁depriv	-11.8136
▁replica	-11.8136
▁trifle	-11.8136
▁anthem	-11.8136
▁cooperation	-11.8136
▁spunky	-11.8136
▁glurp	-11.8136
▁whiff	-11.8136
▁imminent	-11.8136
▁lucille	-11.8136
▁storage	-11.8136
▁hardware	-11.8136
▁monument	-11.8137
▁onlv	-11.8137
▁frolic	-11.8137
▁huerta	-11.8137
▁kettle	-11.8137
▁motto	-11.8137
▁scribe	-11.8137
▁hippie	-11.8137
▁token	-11.8137
▁regain	-11.8137
▁serene	-11.8137
▁pioneer	-11.8137
▁esther	-11.8137
▁squid	-11.8137
▁irina	-11.8137
▁gavin	-11.8137
▁slob	-11.8137
▁senate	-11.8137
▁trek	-11.8137
▁inflat	-11.8139
▁jiggl	-11.8139
▁alexandr	-11.814
▁swab	-11.8148
ohohoh	-11.8162
▁occu	-11.8996
▁accuse	-11.9003
fifty	-11.9024
record	-11.9024
married	-11.9024
believe	-11.9025
▁heavi	-11.9028
▁holmes	-11.9045
▁disrupt	-11.9045
▁prospect	-11.9045
▁reconstruct	-11.9045
▁squal	-11.9045
▁accompany	-11.9045
▁alphabatical	-11.9045
▁atlantis	-11.9045
▁barbarian	-11.9045
▁barbershop	-11.9045
▁barouche	-11.9045
▁benevolence	-11.9045
▁bouquet	-11.9045
▁brezhnev	-11.9045
▁brunette	-11.9045
▁bureaucrat	-11.9045
▁calculate	-11.9045
▁cambridge	-11.9045
▁catastrophe	-11.9045
▁celebrities	-11.9045
▁chihuahua	-11.9045
▁ciolino	-11.9045
▁clarinet	-11.9045
▁commodore	-11.9045
▁compensation	-11.9045
▁competitive	-11.9045
▁connolly	-11.9045
▁contemporary	-11.9045
▁diphtheria	-11.9045
▁distribution	-11.9045
▁elaborate	-11.9045
▁elixir	-11.9045
▁emmanuelle	-11.9045
▁entrancing	-11.9045
▁espresso	-11.9045
▁esteem	-11.9045
▁ethiopia	-11.9045
