<unk>	0
<s>	0
</s>	0
s	-3.00778
e	-4.10063
ing	-4.12911
a	-4.2108
d	-4.25624
▁	-4.26912
t	-4.37385
y	-4.47915
o	-4.51497
n	-4.53546
ed	-4.63971
i	-4.64509
r	-4.65649
er	-4.73937
l	-4.80542
▁im	-4.86499
g	-4.86814
c	-4.89894
b	-4.92107
u	-4.92335
p	-4.96146
▁know	-4.99479
▁l	-5.03594
▁dont	-5.05433
in	-5.08263
▁go	-5.15736
m	-5.16016
▁get	-5.22373
▁c	-5.25343
le	-5.25718
ar	-5.29667
or	-5.29699
▁right	-5.30713
▁s	-5.3334
▁na	-5.4027
▁like	-5.40759
▁oh	-5.41269
▁come	-5.41863
▁got	-5.42741
ll	-5.42947
▁yeah	-5.43767
▁youre	-5.47397
h	-5.47638
f	-5.50086
k	-5.52015
▁okay	-5.55235
al	-5.59687
re	-5.63306
it	-5.63868
▁thats	-5.63952
▁f	-5.64287
on	-5.68735
▁t	-5.70368
▁one	-5.70479
▁re	-5.71834
▁gon	-5.73238
w	-5.73544
▁g	-5.73668
▁see	-5.73692
ly	-5.76065
an	-5.76387
▁want	-5.78896
▁think	-5.79443
▁well	-5.79795
▁de	-5.80747
▁a	-5.81838
es	-5.83104
st	-5.83499
en	-5.83548
ur	-5.85591
▁look	-5.86286
▁good	-5.86382
ck	-5.87687
v	-5.87869
at	-5.87921
ve	-5.89969
th	-5.91159
▁hey	-5.92027
ce	-5.93439
▁man	-5.95518
▁be	-5.97445
▁st	-5.98959
▁co	-5.99357
ch	-6.01714
▁back	-6.0202
il	-6.02097
▁say	-6.02495
ter	-6.04474
▁e	-6.08278
z	-6.09179
▁time	-6.11174
un	-6.1196
▁take	-6.12909
▁w	-6.13741
▁yes	-6.14311
▁ro	-6.14768
▁going	-6.15423
▁pa	-6.1565
▁us	-6.16736
ie	-6.18013
▁o	-6.19248
ent	-6.20447
▁need	-6.20803
ow	-6.21127
▁ma	-6.21533
▁love	-6.22177
te	-6.22926
▁bo	-6.23476
ri	-6.24827
▁cant	-6.25587
ic	-6.26834
▁ill	-6.26905
▁in	-6.28884
▁tell	-6.29218
el	-6.30094
li	-6.31169
▁ch	-6.31537
x	-6.31578
ra	-6.31928
▁hes	-6.33833
is	-6.36392
▁make	-6.37207
▁way	-6.37223
▁mean	-6.37355
▁would	-6.38287
▁really	-6.3853
▁bu	-6.40453
ir	-6.40521
▁ha	-6.4064
▁ta	-6.41099
▁sp	-6.43038
▁thank	-6.43866
▁ho	-6.4413
▁k	-6.44529
▁let	-6.44927
lo	-6.45131
▁could	-6.45211
se	-6.46525
ion	-6.46951
▁sh	-6.4845
▁th	-6.49715
▁little	-6.50126
ate	-6.50382
sh	-6.5148
▁ba	-6.5161
am	-6.52228
▁lets	-6.52861
▁sorry	-6.5308
▁po	-6.53761
▁god	-6.54087
▁br	-6.54123
▁la	-6.5435
▁never	-6.54499
▁su	-6.54797
▁please	-6.55374
▁work	-6.56226
▁something	-6.56757
▁se	-6.57729
▁hi	-6.58974
ry	-6.59712
▁ra	-6.60043
▁whats	-6.61255
▁do	-6.61409
▁day	-6.61588
ke	-6.619
ver	-6.63015
▁wait	-6.63022
et	-6.65153
▁car	-6.65976
ro	-6.65983
us	-6.66101
ne	-6.67384
la	-6.67477
▁give	-6.67992
ff	-6.68946
▁un	-6.69147
▁theres	-6.69299
▁he	-6.69555
vi	-6.70381
▁ive	-6.71601
and	-6.72219
ge	-6.7253
de	-6.73183
▁didnt	-6.73386
▁dr	-6.73487
▁mo	-6.74386
▁stop	-6.74566
▁help	-6.75565
▁di	-6.76605
age	-6.77092
▁mi	-6.77376
ation	-6.77394
▁p	-6.77637
▁j	-6.77657
om	-6.78487
▁thing	-6.78793
me	-6.79361
▁con	-6.79997
▁people	-6.80189
id	-6.81057
▁great	-6.81558
▁said	-6.81956
▁two	-6.82807
▁call	-6.84659
ick	-6.84873
ul	-6.85084
▁le	-6.8531
▁feel	-6.85449
mp	-6.86268
▁ri	-6.87333
ies	-6.87645
▁even	-6.87655
▁life	-6.87935
nt	-6.88694
▁vi	-6.88814
tion	-6.89409
▁ex	-6.89516
ers	-6.89773
end	-6.90159
▁m	-6.91052
▁sure	-6.91483
▁cr	-6.91571
per	-6.92681
▁da	-6.92744
▁new	-6.92823
▁sa	-6.92931
▁so	-6.93204
▁theyre	-6.933
ant	-6.94268
▁guys	-6.94284
ive	-6.94974
ment	-6.95184
▁put	-6.95964
ight	-6.96598
▁me	-6.96772
▁bl	-6.97002
co	-6.9732
▁find	-6.97322
▁night	-6.97774
▁much	-6.97877
▁talk	-6.98439
est	-6.99015
▁nothing	-6.9972
▁mr	-6.99813
▁uh	-7.00587
▁te	-7.00589
ni	-7.00605
▁pro	-7.01202
▁shes	-7.01691
▁first	-7.02559
▁big	-7.02694
▁boy	-7.02941
▁kill	-7.03932
j	-7.04265
im	-7.04385
▁ja	-7.05527
▁keep	-7.05825
▁baby	-7.06541
▁still	-7.07787
▁home	-7.07831
▁hell	-7.08033
▁pe	-7.08509
ty	-7.09447
▁i	-7.09682
▁no	-7.1039
▁mar	-7.10704
▁je	-7.10748
▁an	-7.10955
▁ever	-7.11412
ting	-7.12144
▁hand	-7.12183
oo	-7.133
▁fi	-7.14838
▁du	-7.14861
ist	-7.14945
▁show	-7.15192
▁maybe	-7.15951
▁dad	-7.16146
▁hear	-7.16167
▁live	-7.16475
▁stay	-7.16587
mb	-7.16694
▁friend	-7.16722
▁long	-7.1694
ii	-7.17747
▁anything	-7.17898
▁fl	-7.18045
na	-7.18322
▁name	-7.18478
▁jo	-7.18836
▁wan	-7.18841
▁sir	-7.19143
▁move	-7.19208
é	-7.1949
ut	-7.19773
ot	-7.19784
pp	-7.20165
pe	-7.20315
ity	-7.2084
▁mom	-7.21034
▁ne	-7.21088
▁away	-7.21184
▁sc	-7.21194
ine	-7.21252
ta	-7.2134
▁nice	-7.22139
▁better	-7.22144
▁pi	-7.22279
▁around	-7.22546
▁start	-7.22816
ard	-7.22837
▁thought	-7.23156
▁girl	-7.23174
▁son	-7.23343
▁miss	-7.23366
▁everything	-7.24218
▁ask	-7.24518
▁last	-7.24542
▁li	-7.24888
▁guy	-7.26144
▁aint	-7.26163
▁kid	-7.26182
▁hold	-7.26365
up	-7.26488
▁pr	-7.26676
▁always	-7.26771
▁told	-7.28293
tch	-7.28503
▁world	-7.29172
▁place	-7.29245
▁every	-7.29575
▁done	-7.29927
▁years	-7.29959
▁real	-7.30343
▁play	-7.3053
▁lot	-7.30589
ake	-7.30664
▁ru	-7.30695
▁pre	-7.31589
mo	-7.31723
▁coming	-7.31819
▁ad	-7.32241
um	-7.32359
▁fine	-7.32553
▁for	-7.32639
▁dis	-7.32741
▁lm	-7.32914
▁jack	-7.32925
▁wa	-7.33278
▁kind	-7.35112
▁turn	-7.35349
▁believe	-7.36032
able	-7.36035
ia	-7.36213
ling	-7.36396
act	-7.36535
▁pu	-7.37008
▁id	-7.37275
▁sha	-7.37539
▁gra	-7.38859
▁hu	-7.38897
▁va	-7.39563
▁leave	-7.39655
ence	-7.39884
▁listen	-7.39897
▁youve	-7.40386
man	-7.40671
▁made	-7.40888
▁ti	-7.41474
▁wh	-7.42124
▁house	-7.429
▁old	-7.43439
▁en	-7.43623
▁hello	-7.43939
▁remember	-7.44164
▁cha	-7.44272
▁head	-7.44471
▁tri	-7.44926
▁wi	-7.45009
▁three	-7.45218
▁ok	-7.45251
▁watch	-7.45542
ag	-7.46068
▁qui	-7.4632
▁em	-7.46574
▁mon	-7.47017
out	-7.47125
▁bi	-7.47407
ted	-7.47854
ma	-7.48076
tic	-7.48119
▁try	-7.48182
▁care	-7.48275
▁must	-7.48362
op	-7.49022
▁minute	-7.49436
▁bad	-7.49541
▁ass	-7.49858
▁win	-7.5011
▁shit	-7.51037
ph	-7.51111
▁things	-7.51628
▁ready	-7.52023
▁al	-7.5211
▁father	-7.52458
▁came	-7.52557
▁men	-7.52901
ful	-7.53575
ance	-7.54136
▁fr	-7.54342
▁door	-7.54581
▁doesnt	-7.55002
▁left	-7.55299
▁wrong	-7.55574
▁thanks	-7.55705
▁war	-7.56098
▁today	-7.56154
▁speak	-7.56442
▁meet	-7.56451
▁comm	-7.56912
▁par	-7.57144
ach	-7.57207
▁sw	-7.57268
▁part	-7.57283
▁wont	-7.5734
▁fe	-7.57427
tra	-7.58134
▁youll	-7.582
ang	-7.58621
▁happen	-7.58677
▁fight	-7.58856
▁talking	-7.5965
▁another	-7.6059
▁getting	-7.60833
▁yöu	-7.61197
▁plan	-7.61433
ous	-7.61499
▁isnt	-7.6152
▁understand	-7.61808
cu	-7.62058
▁close	-7.62139
ug	-7.62439
▁end	-7.62552
▁tonight	-7.63355
▁eye	-7.63669
▁cause	-7.6429
▁tu	-7.65124
▁fire	-7.6521
▁open	-7.65893
▁second	-7.6619
▁woman	-7.66195
▁trying	-7.66215
one	-7.66324
▁money	-7.66538
▁best	-7.66737
▁dead	-7.67002
▁may	-7.67599
▁wanted	-7.67756
▁die	-7.68051
▁vo	-7.68298
▁someone	-7.68784
▁bar	-7.68908
▁au	-7.69454
▁actually	-7.69774
ook	-7.7019
▁laugh	-7.70197
▁phone	-7.70441
▁fun	-7.70786
▁walk	-7.70788
▁bring	-7.71204
▁huh	-7.71332
▁ya	-7.71684
▁mind	-7.72183
ish	-7.72414
▁mu	-7.73286
ize	-7.73405
▁hard	-7.73551
▁else	-7.73861
▁everybody	-7.74181
▁run	-7.74228
▁course	-7.74881
▁heart	-7.75152
▁ben	-7.75523
ton	-7.76052
▁might	-7.76541
ough	-7.78761
▁whole	-7.78801
▁gr	-7.7902
▁stand	-7.7923
he	-7.79422
▁guess	-7.79522
less	-7.79762
que	-7.8002
▁break	-7.80255
▁next	-7.80259
▁um	-7.80525
▁enough	-7.80693
ated	-7.80964
▁week	-7.80994
▁wasnt	-7.81749
▁game	-7.81795
▁job	-7.82369
▁app	-7.82387
▁music	-7.82514
▁cut	-7.82919
day	-7.82934
▁idea	-7.83059
▁room	-7.83104
▁morning	-7.83626
ise	-7.84141
ture	-7.84228
▁whos	-7.8488
▁scream	-7.85162
▁hit	-7.85472
▁hope	-7.85566
▁playing	-7.85624
▁family	-7.86329
▁without	-7.86329
ally	-7.86424
▁person	-7.86741
▁looking	-7.86799
▁ah	-7.86845
▁que	-7.86905
▁seen	-7.87234
▁pay	-7.87432
▁whi	-7.87466
ness	-7.88634
▁check	-7.88729
▁pretty	-7.89109
▁happened	-7.89263
▁found	-7.8951
▁excuse	-7.8951
▁many	-7.89727
▁dan	-7.89797
▁school	-7.91139
▁am	-7.91393
▁bit	-7.914
▁sound	-7.91559
▁per	-7.91797
▁hot	-7.91942
▁together	-7.91964
▁far	-7.92095
ide	-7.92244
▁saw	-7.92554
▁word	-7.92839
▁damn	-7.93231
▁everyone	-7.93325
ical	-7.93407
▁went	-7.93605
▁mother	-7.93645
▁eat	-7.93862
▁qu	-7.94107
▁where	-7.94766
▁change	-7.94982
▁arm	-7.95184
▁high	-7.95346
▁whoa	-7.9536
▁use	-7.95557
▁act	-7.96023
▁happy	-7.96197
▁matter	-7.96646
▁face	-7.96669
▁weve	-7.97964
▁brother	-7.98376
▁met	-7.98429
▁safe	-7.9844
▁heard	-7.99176
▁problem	-7.9971
▁sleep	-8.0061
tro	-8.00788
▁ring	-8.00805
▁question	-8.01068
▁took	-8.01077
▁used	-8.01255
▁crazy	-8.01972
▁read	-8.02906
▁sit	-8.03319
▁free	-8.03494
▁paint	-8.03636
▁honey	-8.03828
▁knew	-8.0429
▁year	-8.04503
▁lts	-8.05091
▁beautiful	-8.05228
▁clear	-8.05747
▁five	-8.06195
▁six	-8.06207
ign	-8.06265
▁mess	-8.06958
▁laughing	-8.07007
▁wonder	-8.07138
▁power	-8.0717
▁light	-8.07208
▁stuff	-8.07628
▁book	-8.08149
▁set	-8.08434
▁number	-8.08595
▁shut	-8.09034
▁sighs	-8.09084
▁four	-8.09121
▁sign	-8.0914
▁com	-8.09449
▁pass	-8.09513
▁deal	-8.0954
▁cool	-8.09674
▁tomorrow	-8.10072
▁inside	-8.10085
▁hurt	-8.10102
▁promise	-8.10571
▁called	-8.10625
▁since	-8.111
▁pick	-8.11225
▁anyone	-8.11574
▁bye	-8.11578
▁yet	-8.12158
▁they	-8.12306
▁somebody	-8.12584
ward	-8.12697
▁save	-8.12899
▁lost	-8.13202
▁party	-8.13215
▁nobody	-8.13608
▁business	-8.14123
▁alone	-8.14243
ship	-8.15197
▁water	-8.15253
▁worry	-8.16218
▁hang	-8.16798
▁fall	-8.169
▁drive	-8.17338
ade	-8.17523
▁art	-8.17628
▁welcome	-8.17808
▁follow	-8.18345
▁office	-8.18347
▁order	-8.18353
▁breath	-8.18886
▁luck	-8.18935
▁already	-8.19429
▁supposed	-8.19429
▁true	-8.19431
▁wouldnt	-8.1963
▁trust	-8.19976
▁serious	-8.21084
▁bon	-8.22126
▁chuckles	-8.22213
▁youd	-8.22763
▁mama	-8.23249
▁line	-8.23249
▁continue	-8.23319
▁drink	-8.2333
▁side	-8.23588
▁grunts	-8.23887
▁easy	-8.24466
▁different	-8.25033
▁daddy	-8.25081
▁human	-8.25184
▁ago	-8.25258
▁grand	-8.25301
▁havent	-8.25617
▁kiss	-8.25686
▁fast	-8.25738
press	-8.25932
▁point	-8.26846
▁perfect	-8.27365
▁blood	-8.2737
▁yo	-8.2797
▁exp	-8.28029
▁soon	-8.28295
▁touch	-8.28553
▁team	-8.28576
▁learn	-8.28583
▁dance	-8.29119
▁all	-8.30676
▁moment	-8.30834
▁wow	-8.31538
▁whatever	-8.31583
▁dream	-8.31595
▁couldnt	-8.31753
▁probably	-8.322
ious	-8.3286
▁cheer	-8.33005
▁george	-8.34075
▁cest	-8.34513
▁hate	-8.34636
▁fell	-8.34688
▁forget	-8.34716
▁wife	-8.34729
▁wish	-8.34937
qui	-8.35061
▁drop	-8.35228
▁lose	-8.35263
▁making	-8.35398
▁though	-8.35663
▁sweet	-8.35992
▁voice	-8.35999
▁air	-8.36274
▁chance	-8.36433
▁figure	-8.36633
▁finish	-8.36638
▁sister	-8.3667
▁full	-8.36827
▁president	-8.37281
▁doctor	-8.37281
▁gave	-8.3734
▁non	-8.37631
▁grow	-8.37703
▁later	-8.38461
▁america	-8.38593
▁gasps	-8.40593
▁secret	-8.40593
▁top	-8.41012
▁nu	-8.4112
▁throw	-8.41284
▁death	-8.41338
q	-8.41384
▁special	-8.41948
▁wear	-8.42713
▁anyway	-8.43324
▁exactly	-8.43324
▁ricky	-8.43339
▁pull	-8.43899
▁child	-8.44041
▁shot	-8.4468
▁answer	-8.44717
▁blue	-8.44792
▁heres	-8.44841
▁gene	-8.45151
▁step	-8.45167
▁att	-8.45763
▁buddy	-8.46132
▁ladies	-8.46142
▁taking	-8.46182
▁record	-8.46845
▁half	-8.46898
▁count	-8.47549
▁afraid	-8.48288
▁young	-8.4829
▁mmm	-8.48308
▁shoot	-8.48309
▁lock	-8.48418
▁mine	-8.4888
▁butt	-8.50484
▁almost	-8.50495
▁street	-8.50502
▁jesus	-8.50531
▁box	-8.50722
▁yell	-8.51252
▁hubie	-8.51999
▁story	-8.52088
▁sometimes	-8.5275
▁build	-8.5278
▁least	-8.5278
field	-8.5329
▁chuck	-8.53504
▁anybody	-8.53513
▁grunting	-8.53514
▁bitch	-8.54188
▁anymore	-8.54282
▁reason	-8.54287
▁john	-8.54299
▁daughter	-8.55058
▁brian	-8.55086
▁whoo	-8.55445
ease	-8.55849
▁class	-8.56636
▁feet	-8.571
▁front	-8.5744
▁food	-8.57444
▁moving	-8.57448
▁slow	-8.57479
▁report	-8.58226
▁behind	-8.59027
▁truth	-8.59027
▁stupid	-8.59841
▁write	-8.60023
▁white	-8.60315
▁black	-8.60681
▁key	-8.60938
way	-8.61236
▁gentlemen	-8.61486
▁living	-8.61505
▁hmm	-8.6232
▁picture	-8.62321
▁seven	-8.62363
▁also	-8.62502
▁alive	-8.62667
▁dinner	-8.6316
▁scared	-8.6403
▁clean	-8.64059
▁amazing	-8.65724
▁protect	-8.65725
▁brought	-8.65728
▁body	-8.65898
▁lord	-8.65999
▁teach	-8.66055
▁hurry	-8.66598
▁running	-8.66636
▁magic	-8.66648
▁important	-8.6747
▁ahead	-8.67471
▁smell	-8.67488
▁fair	-8.67547
▁pla	-8.67678
▁control	-8.68359
▁trans	-8.68362
▁horse	-8.69274
▁system	-8.70149
▁complete	-8.70149
▁couple	-8.70155
▁careful	-8.7034
▁outside	-8.71058
▁colonel	-8.71976
▁women	-8.7198
▁kidding	-8.72072
▁country	-8.72167
▁zoey	-8.72901
▁small	-8.72911
▁married	-8.72913
▁funny	-8.72935
▁christ	-8.73853
▁broke	-8.73855
▁under	-8.73954
▁trouble	-8.74779
▁police	-8.74784
▁teddy	-8.74785
▁children	-8.74789
▁case	-8.74898
▁freak	-8.75733
▁french	-8.75735
▁along	-8.75743
▁greg	-8.75827
▁knock	-8.76694
▁sense	-8.76759
▁calm	-8.76777
▁louise	-8.77664
▁favor	-8.77665
▁arent	-8.77801
▁hows	-8.77834
▁ooh	-8.78738
▁cap	-8.80133
down	-8.80525
▁honor	-8.80692
▁explain	-8.81646
▁straight	-8.8165
▁town	-8.81694
▁short	-8.81881
▁julia	-8.82666
▁foot	-8.82736
▁deep	-8.83106
▁either	-8.83697
▁strong	-8.83697
▁interest	-8.837
▁wedding	-8.84741
▁proud	-8.84802
▁ground	-8.85791
▁finally	-8.85799
▁york	-8.85801
▁mouth	-8.85812
▁twi	-8.86443
▁surprise	-8.86854
▁leaving	-8.86855
▁attack	-8.86861
▁green	-8.86899
time	-8.86983
▁tree	-8.87412
▁weird	-8.8793
▁captain	-8.8793
▁mistake	-8.87932
▁general	-8.87946
▁train	-8.88002
▁nine	-8.88053
▁gilbert	-8.89016
▁forever	-8.89027
▁honest	-8.89036
▁dark	-8.89054
▁lead	-8.89285
▁apart	-8.90116
▁husband	-8.91227
▁return	-8.91228
▁glad	-8.9128
▁hundred	-8.9235
▁enjoy	-8.9235
▁frank	-8.92356
▁crowd	-8.92374
▁security	-8.93486
▁somewhere	-8.93486
▁choice	-8.93487
▁become	-8.93489
▁goodbye	-8.9349
▁million	-8.93493
▁contact	-8.93495
▁decide	-8.93503
▁chatter	-8.93511
▁parents	-8.93527
▁expect	-8.94637
▁iike	-8.94658
▁arnie	-8.95802
▁charge	-8.95829
▁bank	-8.95847
▁piece	-8.97008
▁kevin	-8.98167
▁rachel	-8.98171
▁treat	-8.98278
▁birthday	-8.9937
▁certain	-8.99371
▁panting	-8.9944
▁charlie	-9.00591
▁absolutely	-9.01824
▁indistinct	-9.01824
▁destroy	-9.01825
▁track	-9.01858
▁fool	-9.0186
▁soft	-9.01882
▁entire	-9.03077
▁yep	-9.03089
▁worth	-9.031
▁soldier	-9.0434
▁service	-9.0434
▁zeus	-9.04341
▁future	-9.04349
▁bird	-9.04404
▁anywhere	-9.05622
▁shouldnt	-9.05622
▁totally	-9.05623
▁possible	-9.06921
▁radio	-9.06923
▁engine	-9.06925
▁relax	-9.06928
▁jump	-9.06936
▁agree	-9.06943
▁evil	-9.06957
▁perhaps	-9.08237
▁photo	-9.08237
▁victor	-9.08237
▁island	-9.08238
▁crawl	-9.08238
▁forgot	-9.08241
▁cross	-9.08279
▁bobby	-9.09571
▁faith	-9.09572
▁linda	-9.09579
▁hercules	-9.10922
▁katniss	-9.10922
▁toronto	-9.10922
▁weapon	-9.10922
▁company	-9.10922
▁survive	-9.10922
▁mountain	-9.12291
▁situation	-9.12294
▁direct	-9.12296
▁strange	-9.12303
▁murder	-9.13681
▁middle	-9.13681
▁gift	-9.13682
▁study	-9.13683
▁phil	-9.13718
board	-9.14819
▁imagine	-9.15096
▁guard	-9.15107
▁asshole	-9.16517
▁bernie	-9.16518
▁smart	-9.16522
▁definitely	-9.17967
▁history	-9.17967
▁thousand	-9.17968
▁foreman	-9.17973
▁sheiiey	-9.19437
▁truck	-9.19438
▁groans	-9.19439
▁animal	-9.19441
▁sebastian	-9.2093
▁except	-9.20932
▁machine	-9.20935
▁jules	-9.20937
▁screw	-9.2094
▁scott	-9.20958
▁kaulder	-9.22445
▁attention	-9.22446
▁charles	-9.22449
▁mmhmm	-9.23983
▁restaurant	-9.23983
▁marshal	-9.23991
▁appreciate	-9.25546
▁hospital	-9.25546
▁respect	-9.25546
▁computer	-9.25546
▁jimmy	-9.25546
▁goddamn	-9.25546
▁summer	-9.25547
▁sophie	-9.25547
▁beeping	-9.25551
▁prison	-9.25552
▁corner	-9.25553
▁burger	-9.27136
▁dangerous	-9.28746
ö	-10.603
