<unk>	0
<s>	0
</s>	0
s	-3.50822
▁im	-4.42597
▁know	-4.5574
▁dont	-4.56895
▁get	-4.76113
▁go	-4.81251
▁like	-4.83945
▁oh	-4.92046
▁right	-4.92098
▁youre	-5.00083
▁yeah	-5.00914
▁come	-5.01741
▁well	-5.06532
▁got	-5.07913
ing	-5.16464
▁one	-5.18391
▁want	-5.22902
▁thats	-5.27336
▁good	-5.28143
▁na	-5.28252
▁okay	-5.31256
▁think	-5.35747
▁see	-5.36211
ed	-5.38898
▁yes	-5.57305
▁gon	-5.58768
▁going	-5.59311
▁look	-5.61302
▁back	-5.62095
▁hey	-5.6326
▁time	-5.63784
▁man	-5.63863
▁us	-5.64697
▁cant	-5.73858
▁take	-5.74339
▁ill	-5.76795
d	-5.77391
▁hes	-5.80355
▁would	-5.81796
▁say	-5.84337
▁really	-5.84509
y	-5.85714
▁tell	-5.86991
▁never	-5.90953
▁need	-5.91058
▁love	-5.94455
▁could	-5.94887
▁way	-5.95338
▁something	-5.95831
▁lets	-5.96946
▁make	-5.98443
▁thank	-6.00298
▁didnt	-6.03675
▁little	-6.03781
▁let	-6.048
▁sorry	-6.08118
▁whats	-6.10041
▁give	-6.10502
▁people	-6.10586
▁mean	-6.1176
er	-6.11859
▁please	-6.14998
e	-6.17412
▁god	-6.18757
▁l	-6.22045
▁ive	-6.22789
▁theres	-6.23133
▁	-6.24014
▁sure	-6.2882
▁thing	-6.32326
▁much	-6.32604
▁shes	-6.3387
ly	-6.35627
▁said	-6.35767
▁day	-6.38556
▁two	-6.39189
▁even	-6.43792
▁life	-6.44291
▁still	-6.4526
▁first	-6.47044
▁help	-6.47471
▁uh	-6.48132
▁stop	-6.49004
▁mr	-6.4986
▁theyre	-6.50368
▁big	-6.50542
▁nothing	-6.51905
in	-6.52808
▁great	-6.52842
▁call	-6.52952
▁new	-6.52995
▁wait	-6.54725
▁sir	-6.54901
▁home	-6.5536
▁talk	-6.56015
▁hell	-6.56907
▁thought	-6.58865
▁ever	-6.5948
▁keep	-6.59565
r	-6.61201
▁maybe	-6.6126
▁work	-6.61954
▁put	-6.6295
▁away	-6.63165
▁guys	-6.634
▁hi	-6.63592
▁anything	-6.63927
▁always	-6.63927
▁ok	-6.64331
▁find	-6.65313
▁told	-6.67476
▁things	-6.67819
▁better	-6.68081
▁long	-6.69703
▁must	-6.7093
t	-6.71005
▁feel	-6.71749
▁night	-6.71928
▁old	-6.73908
▁id	-6.74178
▁last	-6.7608
▁years	-6.76694
▁nice	-6.77199
▁wan	-6.77405
▁every	-6.77475
▁fine	-6.77885
▁believe	-6.77959
▁name	-6.78796
▁around	-6.79165
▁everything	-6.79281
▁remember	-6.79843
▁girl	-6.80352
▁stay	-6.80413
▁listen	-6.80653
▁kind	-6.8132
▁leave	-6.81391
▁ta	-6.81744
es	-6.82514
a	-6.84476
▁wont	-6.8449
o	-6.8476
▁lot	-6.84839
p	-6.8517
▁world	-6.86413
▁move	-6.86775
▁baby	-6.8763
▁hear	-6.87918
▁show	-6.88319
▁thanks	-6.90468
▁youve	-6.90622
▁youll	-6.91129
▁wanted	-6.91539
▁doesnt	-6.91636
▁coming	-6.91937
▁place	-6.92132
▁today	-6.92663
▁car	-6.93261
▁boy	-6.94523
▁real	-6.95354
▁house	-6.96619
▁made	-6.96662
al	-6.96694
▁left	-6.9688
▁huh	-6.96884
▁woman	-6.99888
▁dad	-7.00167
▁ready	-7.00315
▁enough	-7.00442
▁mom	-7.00931
n	-7.0155
▁course	-7.01846
▁guy	-7.02634
▁hello	-7.02866
▁next	-7.03271
▁might	-7.04137
i	-7.04532
▁three	-7.05012
▁bad	-7.05386
▁mind	-7.05904
▁else	-7.06186
▁son	-7.0709
▁try	-7.07283
▁miss	-7.07396
▁mother	-7.08437
▁money	-7.08878
▁trying	-7.09152
▁wrong	-7.09486
▁shit	-7.09804
c	-7.09911
▁talking	-7.10154
▁kill	-7.10164
▁getting	-7.10993
▁together	-7.11959
▁men	-7.12001
▁best	-7.12294
▁ask	-7.12815
▁father	-7.13219
v	-7.14101
▁play	-7.14793
▁done	-7.15152
▁isnt	-7.16113
▁someone	-7.1653
▁whole	-7.171
▁hold	-7.1786
▁job	-7.18435
▁understand	-7.18507
▁another	-7.1943
▁came	-7.19747
▁live	-7.20436
▁guess	-7.20447
▁excuse	-7.20788
l	-7.21303
▁many	-7.21824
▁pretty	-7.22165
g	-7.22424
▁aint	-7.22513
▁dead	-7.22518
▁happened	-7.242
▁kids	-7.24224
m	-7.24907
▁care	-7.2524
▁music	-7.26015
▁door	-7.2682
▁head	-7.27069
▁family	-7.28238
▁without	-7.28238
▁um	-7.2831
▁morning	-7.28608
▁meet	-7.28781
▁friend	-7.28832
▁tomorrow	-7.29349
▁school	-7.29465
le	-7.29465
▁hand	-7.29472
▁went	-7.30483
▁em	-7.30643
▁damn	-7.3077
▁looking	-7.30913
▁beautiful	-7.31229
▁may	-7.31255
k	-7.31399
▁die	-7.32031
▁turn	-7.3206
▁wasnt	-7.32374
▁room	-7.32774
▁idea	-7.33412
▁saw	-7.34318
▁run	-7.35149
▁everybody	-7.3589
f	-7.3603
▁happy	-7.3629
▁actually	-7.36297
▁end	-7.36324
▁war	-7.36952
▁ah	-7.38145
▁tonight	-7.38305
▁playing	-7.38613
▁seen	-7.38967
▁weve	-7.39126
▁heard	-7.3923
▁cause	-7.39636
▁sit	-7.39871
▁eat	-7.4015
u	-7.40592
▁start	-7.40748
▁hard	-7.40824
▁hit	-7.41335
▁drink	-7.41469
en	-7.42743
b	-7.42757
▁dr	-7.43723
h	-7.44228
▁hope	-7.4442
or	-7.44724
▁knew	-7.45045
▁wouldnt	-7.45123
▁watch	-7.45325
▁took	-7.45481
▁true	-7.4636
▁doctor	-7.47474
▁face	-7.47504
▁found	-7.48072
▁matter	-7.48456
ers	-7.48992
▁since	-7.49003
▁yet	-7.49054
▁fire	-7.49191
▁called	-7.49319
▁used	-7.49939
▁already	-7.49956
▁late	-7.50593
▁young	-7.50654
▁crazy	-7.52271
▁use	-7.52587
▁worry	-7.5274
▁alone	-7.52748
▁fight	-7.52826
▁s	-7.53376
▁forget	-7.53686
▁ass	-7.53755
▁open	-7.54042
▁part	-7.54277
▁thinking	-7.5489
▁bit	-7.54918
▁dog	-7.55466
▁youd	-7.55643
▁bring	-7.56108
on	-7.56347
▁un	-7.56389
▁anyone	-7.56578
▁five	-7.56605
▁stuff	-7.5707
▁problem	-7.57104
▁walk	-7.57717
▁year	-7.58102
▁kid	-7.58436
▁havent	-7.58553
▁hurt	-7.58646
▁business	-7.59053
▁easy	-7.59053
▁change	-7.59279
▁sighs	-7.59322
▁different	-7.59558
ll	-7.60142
▁friends	-7.60513
▁christmas	-7.60568
▁mama	-7.60622
▁brother	-7.60708
▁town	-7.60879
▁wife	-7.61081
▁women	-7.61081
▁rest	-7.61142
▁la	-7.6153
▁laughing	-7.61762
▁says	-7.62085
an	-7.62087
▁whos	-7.62137
▁everyone	-7.62144
▁couldnt	-7.62189
▁re	-7.62592
▁fun	-7.62896
▁ago	-7.63154
▁lost	-7.63177
▁second	-7.63362
▁chuckles	-7.63439
▁laughs	-7.63522
▁girls	-7.63554
▁heart	-7.63564
▁honey	-7.63672
▁eyes	-7.63945
▁dance	-7.63962
st	-7.64249
▁read	-7.64407
ve	-7.64675
▁days	-7.64901
▁saying	-7.65504
▁four	-7.65776
▁dee	-7.65787
▁somebody	-7.66331
ic	-7.6634
ion	-7.66855
▁point	-7.66884
▁check	-7.66901
▁minute	-7.67768
▁phone	-7.6851
▁whoa	-7.68517
▁cool	-7.68518
▁boys	-7.68569
▁mine	-7.6857
est	-7.69101
▁happen	-7.69572
▁met	-7.69758
▁soon	-7.70006
▁whatever	-7.70176
▁story	-7.70183
▁country	-7.70188
▁probably	-7.7074
▁in	-7.7163
▁wants	-7.71785
▁gone	-7.72139
▁vou	-7.72917
▁children	-7.7302
▁inside	-7.73601
▁taking	-7.74209
▁minutes	-7.74385
▁break	-7.74778
▁moment	-7.74841
▁stand	-7.75351
▁supposed	-7.7546
▁also	-7.75943
▁death	-7.75944
▁looks	-7.76066
il	-7.76117
▁set	-7.76484
▁shut	-7.76506
▁welcome	-7.76536
ie	-7.76539
▁working	-7.77121
▁word	-7.77212
ch	-7.77345
ies	-7.77692
re	-7.77893
▁later	-7.77934
▁important	-7.78344
▁far	-7.78491
us	-7.78927
it	-7.79483
w	-7.79735
▁stupid	-7.80184
▁side	-7.80259
▁killed	-7.80479
▁wheres	-7.80625
▁lord	-7.80806
▁high	-7.80942
▁free	-7.81418
▁black	-7.81431
▁pay	-7.81496
▁full	-7.81854
▁blood	-7.82059
▁wish	-7.82063
ar	-7.82345
▁max	-7.82705
▁close	-7.82916
▁nobody	-7.82946
▁sister	-7.82948
▁daughter	-7.83329
▁bye	-7.83329
▁ha	-7.83467
▁person	-7.83868
▁elvis	-7.8397
▁exactly	-7.83985
▁king	-7.84738
▁hate	-7.84916
▁rock	-7.84946
▁light	-7.84983
▁chance	-7.85267
▁sleep	-7.857
▁shall	-7.86007
▁pick	-7.8618
▁de	-7.86357
▁deal	-7.86932
▁gun	-7.86974
▁line	-7.8712
▁anyway	-7.87238
▁hands	-7.87799
▁afraid	-7.87905
▁shot	-7.8791
▁game	-7.88336
▁anymore	-7.88576
▁least	-7.88585
▁half	-7.88588
▁sometimes	-7.88831
▁party	-7.88978
▁cut	-7.89216
▁jesus	-7.89252
▁a	-7.89257
▁week	-7.89715
▁number	-7.89738
▁gave	-7.90631
▁clear	-7.90948
▁song	-7.91302
▁married	-7.91306
▁water	-7.92026
▁city	-7.92057
▁hot	-7.92079
▁started	-7.92776
▁waiting	-7.9285
▁makes	-7.93091
▁star	-7.93201
z	-7.93512
▁c	-7.93975
▁anybody	-7.94113
▁reason	-7.94113
▁wow	-7.94119
▁luck	-7.94612
▁t	-7.94757
▁six	-7.94806
▁ooh	-7.94828
▁ladies	-7.94833
▁mrs	-7.95011
▁red	-7.95387
▁dear	-7.95541
▁though	-7.96187
▁special	-7.96245
▁sound	-7.96254
▁lm	-7.9701
▁daddy	-7.97025
▁fall	-7.97115
ation	-7.97363
▁goes	-7.97428
man	-7.97498
▁power	-7.97732
is	-7.9775
▁team	-7.97765
▁book	-7.97913
el	-7.98163
▁sick	-7.98476
▁president	-7.98478
▁th	-7.98898
▁asked	-7.99553
▁hair	-7.99704
▁ya	-7.99716
▁front	-7.9998
▁win	-8.00065
▁dream	-8.00381
▁an	-8.00448
▁majesty	-8.00733
▁case	-8.00758
▁movie	-8.00844
▁sweet	-8.01455
▁body	-8.01503
▁arent	-8.01508
▁air	-8.01544
▁b	-8.0173
▁write	-8.02114
▁months	-8.0223
▁control	-8.02247
▁beat	-8.02429
▁hurry	-8.03042
▁sort	-8.03044
▁news	-8.03583
▁making	-8.03829
▁white	-8.03832
▁step	-8.04052
▁sing	-8.04412
▁trouble	-8.04652
▁answer	-8.04841
▁truth	-8.05404
▁funny	-8.06213
te	-8.06404
▁hang	-8.06461
▁trust	-8.06542
▁husband	-8.0701
▁top	-8.07241
▁bed	-8.07537
▁general	-8.07823
▁shouldnt	-8.07824
▁office	-8.08428
▁scared	-8.08783
ity	-8.08799
▁p	-8.0933
▁speak	-8.09488
▁hours	-8.09753
▁sounds	-8.10331
▁buy	-8.10638
▁question	-8.10745
▁outside	-8.10813
▁straight	-8.11144
able	-8.1115
▁ahead	-8.11152
▁telling	-8.11411
▁send	-8.11452
▁promise	-8.11678
▁grunting	-8.1199
▁glad	-8.1199
▁order	-8.12001
th	-8.12112
▁ten	-8.12163
▁jack	-8.12587
▁drive	-8.1259
▁lose	-8.12597
▁touch	-8.12694
▁bitch	-8.12801
▁almost	-8.12845
▁lady	-8.12902
▁parents	-8.12936
▁screaming	-8.12969
▁m	-8.13396
▁behind	-8.13707
▁tried	-8.13766
▁quite	-8.13823
▁died	-8.14543
▁goodbye	-8.14577
▁gentlemen	-8.14577
▁shoot	-8.14911
▁hour	-8.15181
▁serious	-8.15279
▁couple	-8.15454
▁become	-8.15454
▁heres	-8.15652
▁test	-8.15832
▁itll	-8.16339
▁k	-8.16346
▁cold	-8.16347
▁push	-8.16355
▁walls	-8.16488
▁feeling	-8.16644
▁lives	-8.16848
▁ring	-8.16927
▁times	-8.17018
▁short	-8.17232
▁living	-8.17238
▁alive	-8.17251
▁boat	-8.17266
▁church	-8.1801
▁either	-8.18132
▁alex	-8.18133
▁g	-8.18335
x	-8.18691
▁fear	-8.19025
▁police	-8.19042
▁dick	-8.19057
▁peter	-8.19212
▁learn	-8.19838
▁child	-8.19955
▁felt	-8.19959
▁brought	-8.19959
▁dinner	-8.1996
▁american	-8.20781
li	-8.20806
▁perfect	-8.20882
▁al	-8.20885
la	-8.21445
▁follow	-8.21719
▁e	-8.21783
▁maam	-8.21828
▁hank	-8.2183
▁safe	-8.22416
▁captain	-8.22765
▁wear	-8.23178
ur	-8.23413
up	-8.23629
▁pull	-8.23645
▁st	-8.24293
ent	-8.24465
▁hmm	-8.24691
ri	-8.24774
▁voice	-8.2564
▁throw	-8.25963
▁marry	-8.2605
▁pain	-8.26238
ist	-8.26397
▁frank	-8.26462
▁mouth	-8.26635
▁seven	-8.26639
ting	-8.26859
▁sign	-8.2706
▁gasps	-8.27069
▁charles	-8.27618
▁soul	-8.27624
▁human	-8.27632
▁able	-8.27903
▁kiss	-8.2804
▁somewhere	-8.28618
▁theyll	-8.28618
▁running	-8.28624
▁kidding	-8.28625
▁brian	-8.28628
▁hows	-8.28963
▁count	-8.29303
▁burn	-8.29326
▁fact	-8.29461
▁security	-8.29628
▁food	-8.29628
▁bet	-8.30179
▁speaking	-8.30324
less	-8.30633
▁proud	-8.30652
▁ride	-8.31499
▁buddy	-8.31683
▁picture	-8.31854
▁comes	-8.31864
ness	-8.31985
▁seems	-8.32039
▁lucky	-8.32096
▁r	-8.32224
▁pop	-8.32414
▁uncle	-8.32726
▁leaving	-8.32726
▁d	-8.32751
▁eight	-8.32752
▁train	-8.32765
▁horse	-8.32919
▁drop	-8.32929
▁ball	-8.32973
▁weeks	-8.3304
▁past	-8.33749
▁ruth	-8.3379
▁wonderful	-8.33813
▁stage	-8.33832
id	-8.34326
▁surprise	-8.34525
▁bell	-8.34595
▁south	-8.34838
▁york	-8.34838
▁lie	-8.3494
▁blue	-8.35221
▁plan	-8.353
▁strong	-8.3569
▁fast	-8.35709
▁sense	-8.35921
▁clean	-8.35939
▁officer	-8.36197
▁agent	-8.36222
▁act	-8.36442
▁figure	-8.36688
▁peace	-8.36789
▁indistinct	-8.36824
▁hospital	-8.37
▁along	-8.37008
ra	-8.3702
▁kate	-8.37295
▁roll	-8.37579
▁cover	-8.3767
ful	-8.37775
▁save	-8.37908
▁pass	-8.38031
▁panting	-8.38106
se	-8.38158
▁taken	-8.38202
▁dark	-8.39196
▁small	-8.3921
▁wake	-8.39215
▁bo	-8.39271
▁sell	-8.39795
sh	-8.40015
▁art	-8.40251
ty	-8.41123
▁sad	-8.41299
▁rules	-8.41376
ry	-8.41777
▁crying	-8.41844
▁wed	-8.41886
▁changed	-8.42203
▁radio	-8.42619
▁colonel	-8.42622
▁club	-8.42627
▁stick	-8.42637
▁lucy	-8.42715
▁less	-8.42801
ta	-8.43116
▁eye	-8.43266
▁record	-8.43281
▁means	-8.43491
▁choice	-8.43782
▁sent	-8.4389
▁meeting	-8.44413
▁grunts	-8.44959
▁middle	-8.44959
▁master	-8.44984
▁poor	-8.44988
▁mo	-8.44998
▁n	-8.45432
▁bill	-8.4577
▁arm	-8.45812
▁fool	-8.4615
▁judy	-8.46152
▁goddamn	-8.46157
▁amazing	-8.46173
▁ow	-8.46182
▁cute	-8.46207
▁class	-8.46894
▁singing	-8.47029
▁rather	-8.47357
▁born	-8.4741
▁groans	-8.47521
▁needs	-8.4756
▁teach	-8.47876
ol	-8.48268
▁smart	-8.48348
▁entire	-8.48393
▁secret	-8.48555
▁future	-8.48573
▁lena	-8.4858
et	-8.48588
▁co	-8.48713
▁cheering	-8.48773
▁loved	-8.4881
▁street	-8.49323
▁fly	-8.49523
▁prison	-8.49523
▁pray	-8.49547
▁asking	-8.49563
▁drunk	-8.49795
▁enjoy	-8.49808
▁language	-8.49808
▁idiot	-8.49809
▁joe	-8.49913
▁dress	-8.49917
▁age	-8.50113
▁fish	-8.50531
▁attack	-8.50594
▁worth	-8.50756
▁sweetheart	-8.51058
▁fault	-8.51059
▁catch	-8.51153
ia	-8.51387
▁sun	-8.51485
▁kick	-8.51882
▁near	-8.52337
▁longer	-8.52415
▁finally	-8.52449
▁tv	-8.52465
▁bag	-8.52518
▁seem	-8.52583
ian	-8.52937
▁visit	-8.5296
▁wonder	-8.52983
▁quick	-8.53204
▁bar	-8.53235
▁over	-8.53293
▁strange	-8.53302
▁band	-8.53427
▁company	-8.53606
▁road	-8.53615
ro	-8.53761
▁trip	-8.53822
▁watching	-8.53998
▁land	-8.54169
▁ho	-8.54347
▁million	-8.5454
▁weird	-8.54905
▁others	-8.54905
▁swear	-8.54908
▁emma	-8.54961
▁hide	-8.55009
ton	-8.55015
ment	-8.554
▁liked	-8.55677
▁present	-8.55848
▁state	-8.56103
▁film	-8.5622
▁martha	-8.5622
▁relax	-8.5622
▁crowd	-8.56221
▁lunch	-8.56221
▁calm	-8.56221
▁meant	-8.56288
▁yall	-8.56313
▁rain	-8.56393
▁expect	-8.56499
▁known	-8.56975
ling	-8.57168
▁words	-8.57382
▁seat	-8.57421
▁forgot	-8.57554
▁french	-8.57554
▁till	-8.57574
▁prom	-8.57882
▁building	-8.57897
▁blow	-8.57971
ge	-8.5803
▁wall	-8.5845
▁heaven	-8.58649
▁darling	-8.58916
▁absolutely	-8.58928
▁camera	-8.58994
▁no	-8.59251
▁worked	-8.59428
▁mad	-8.5943
▁ma	-8.59556
▁mmm	-8.59861
▁anywhere	-8.60275
▁possible	-8.60275
▁spot	-8.60284
▁mmhmm	-8.60285
▁feet	-8.60302
ary	-8.60304
▁stone	-8.60327
▁whoo	-8.60549
▁sea	-8.60602
▁greatest	-8.60644
ne	-8.60721
▁missed	-8.61
▁merr	-8.61015
▁fair	-8.61375
▁minister	-8.61471
▁quiet	-8.61483
▁slow	-8.61486
▁emperor	-8.61664
▁imagine	-8.61664
▁perhaps	-8.61664
▁target	-8.61666
▁chuckling	-8.61667
▁danny	-8.61668
▁store	-8.61673
▁clothes	-8.61674
▁earth	-8.61674
▁aah	-8.61701
▁parker	-8.61835
▁simple	-8.61931
ine	-8.62032
▁ja	-8.6224
▁post	-8.62263
um	-8.62435
▁leg	-8.62626
tic	-8.6272
▁chris	-8.62817
▁attention	-8.63072
▁explain	-8.63072
▁terrible	-8.63072
▁moving	-8.63073
▁forever	-8.63074
▁alright	-8.63075
▁army	-8.63413
▁none	-8.63498
▁crap	-8.6392
▁hero	-8.6443
▁farnaz	-8.64501
▁group	-8.64506
▁bank	-8.6455
▁shh	-8.64554
▁lead	-8.64743
▁early	-8.64749
▁happens	-8.64859
▁calling	-8.64883
at	-8.65045
ant	-8.65414
▁shell	-8.65684
▁support	-8.6595
▁smile	-8.6595
▁government	-8.65951
▁flight	-8.65958
▁w	-8.65964
▁laughter	-8.65964
▁happening	-8.65979
▁totally	-8.66033
▁rose	-8.66106
▁shouting	-8.66181
▁sam	-8.66237
ah	-8.66386
na	-8.66637
▁doc	-8.67094
▁uhhuh	-8.67421
▁werent	-8.67421
▁brand	-8.67431
▁ground	-8.67431
▁law	-8.67464
led	-8.67728
▁date	-8.67805
▁continues	-8.67807
▁bomb	-8.68132
▁wind	-8.68188
▁breathe	-8.6848
▁plane	-8.68587
▁careful	-8.68831
▁john	-8.68865
▁giving	-8.68913
▁hundred	-8.68918
▁wedding	-8.68921
▁dangerous	-8.68922
▁dude	-8.68925
▁honor	-8.68925
▁snow	-8.68933
▁month	-8.68999
oo	-8.69033
▁soo	-8.69166
▁green	-8.69176
▁ben	-8.69282
ter	-8.69698
▁lay	-8.6976
▁chatter	-8.69855
age	-8.69927
▁handle	-8.69986
▁tour	-8.70139
▁christ	-8.70355
▁afshin	-8.70428
▁presley	-8.70429
▁bunny	-8.70429
▁chicken	-8.70455
▁princess	-8.70479
▁rex	-8.7051
▁alan	-8.70516
▁fell	-8.70574
▁vi	-8.70812
▁rule	-8.70895
▁engine	-8.71343
▁spend	-8.71385
▁finish	-8.71508
▁america	-8.71879
▁pro	-8.71887
nt	-8.71893
▁caitlyn	-8.71967
▁respect	-8.71967
▁lts	-8.71998
▁unless	-8.72046
▁completely	-8.72074
▁piece	-8.72109
to	-8.72254
▁out	-8.72577
ted	-8.72612
un	-8.72721
▁miles	-8.7281
▁grow	-8.72856
▁given	-8.73161
ce	-8.73379
▁quit	-8.73479
▁especially	-8.73529
▁henry	-8.73529
▁yussef	-8.73529
▁worse	-8.73529
▁gift	-8.73532
▁truck	-8.73534
▁evil	-8.7354
▁race	-8.7356
▁tired	-8.73572
ma	-8.73707
▁sh	-8.73972
▁li	-8.74283
▁evening	-8.74466
▁jump	-8.74652
▁ro	-8.7476
one	-8.75001
▁broke	-8.75078
▁jeannette	-8.75117
▁audience	-8.75118
▁brave	-8.75139
▁bus	-8.75238
▁fit	-8.75263
▁guard	-8.7533
▁figured	-8.75575
▁wine	-8.75813
▁yo	-8.76274
▁matt	-8.76567
bo	-8.76599
▁glass	-8.76612
▁protect	-8.7668
▁floor	-8.7673
▁isaac	-8.7673
▁favorite	-8.76736
▁hungry	-8.7674
▁join	-8.77129
▁ones	-8.77314
ate	-8.77616
▁offer	-8.78004
▁suppose	-8.78058
▁kat	-8.78259
▁standing	-8.78313
▁except	-8.78319
▁folks	-8.78369
▁nelson	-8.78369
▁theyve	-8.78369
▁jimmy	-8.78369
▁island	-8.78369
▁crumb	-8.7837
▁private	-8.7837
▁tough	-8.78371
▁toby	-8.78374
▁cell	-8.78387
▁duke	-8.78446
be	-8.78501
▁table	-8.78537
▁hed	-8.7881
▁seeing	-8.791
▁seconds	-8.79342
▁pre	-8.79749
▁pictures	-8.79753
▁forgive	-8.80009
▁asshole	-8.80036
▁coffee	-8.80036
▁yesterday	-8.80036
▁caught	-8.80039
▁sake	-8.80048
▁larry	-8.80054
▁code	-8.80068
▁mm	-8.80368
he	-8.80398
ck	-8.80416
▁mess	-8.80702
▁questions	-8.80833
ke	-8.81039
▁f	-8.81215
▁feels	-8.81264
▁lock	-8.81314
▁lovely	-8.81392
▁v	-8.81565
iz	-8.81609
▁laugh	-8.81627
▁piranha	-8.8173
▁personal	-8.81773
▁hotel	-8.81816
▁german	-8.81904
▁sally	-8.81918
▁ray	-8.81984
▁native	-8.82004
ba	-8.8205
▁ship	-8.82243
▁i	-8.82349
▁tom	-8.82379
▁report	-8.82751
▁return	-8.8298
▁screams	-8.8302
▁agree	-8.83106
▁accident	-8.83455
▁contact	-8.83455
▁spirit	-8.83455
▁system	-8.83455
▁difference	-8.83455
▁history	-8.83456
▁stuck	-8.83472
▁low	-8.83567
▁stopped	-8.83598
op	-8.83699
▁busy	-8.83772
▁states	-8.8385
▁smell	-8.83968
▁looked	-8.84279
ive	-8.8441
▁travel	-8.8462
▁reach	-8.84781
▁needed	-8.84895
▁sex	-8.84932
▁lived	-8.85052
▁prime	-8.85209
▁professor	-8.85209
▁service	-8.85209
▁birthday	-8.85211
▁round	-8.85216
▁nine	-8.85217
▁richard	-8.8522
▁spent	-8.85231
▁outta	-8.85234
▁pig	-8.85275
▁hat	-8.85436
▁mission	-8.85537
▁turned	-8.8554
▁per	-8.8556
▁seriously	-8.85562
▁tape	-8.85638
ick	-8.85761
▁station	-8.85845
▁knock	-8.85951
▁card	-8.86124
▁shoes	-8.86292
me	-8.86355
▁cry	-8.86557
▁fat	-8.86724
▁final	-8.86855
▁favor	-8.86988
▁david	-8.86995
▁driving	-8.86995
▁kept	-8.86995
▁nervous	-8.86995
▁super	-8.86999
▁jim	-8.87005
▁chief	-8.8702
▁decided	-8.87139
ous	-8.87294
▁awful	-8.87316
ha	-8.87326
ot	-8.8769
▁guns	-8.87758
▁deep	-8.87957
de	-8.87999
▁carry	-8.88391
mo	-8.88546
▁ar	-8.88753
▁english	-8.88813
▁summer	-8.88813
▁worried	-8.88813
▁third	-8.88813
▁paris	-8.88814
▁bullshit	-8.88815
▁idgie	-8.88832
▁paid	-8.88845
co	-8.88888
▁lou	-8.88915
▁boss	-8.88959
ir	-8.89112
▁books	-8.89427
▁fan	-8.89443
▁fix	-8.89614
▁fuck	-8.90104
ee	-8.9037
▁mike	-8.90385
▁certain	-8.90488
▁college	-8.90665
▁bunch	-8.90671
▁jean	-8.90677
▁trick	-8.90677
▁choose	-8.90724
▁field	-8.90753
▁fighting	-8.91061
▁list	-8.91175
▁cop	-8.91395
▁starting	-8.91414
▁played	-8.91434
▁tree	-8.9145
son	-8.91733
▁gold	-8.92529
▁court	-8.92546
ped	-8.92549
▁bottom	-8.92552
▁pleasure	-8.92552
▁definitely	-8.9257
▁area	-8.92576
▁holy	-8.92809
▁walking	-8.92847
▁breathing	-8.93059
▁con	-8.93249
▁thy	-8.93285
mi	-8.9366
rs	-8.93716
▁box	-8.93804
▁cross	-8.93998
▁accept	-8.94
▁owe	-8.94407
▁instead	-8.94475
▁public	-8.94475
▁claire	-8.94475
▁dancing	-8.94475
▁information	-8.94479
▁barry	-8.94513
▁creaking	-8.94525
▁reading	-8.94631
▁o	-8.95316
ts	-8.95552
▁du	-8.96043
▁command	-8.96044
▁normal	-8.96276
▁blind	-8.96435
▁charge	-8.96435
▁sergei	-8.96435
▁north	-8.96436
▁smoke	-8.96436
▁lonely	-8.96436
▁decision	-8.96439
▁yellow	-8.9644
▁highness	-8.96514
▁suit	-8.96523
▁broken	-8.96546
as	-8.9655
▁wild	-8.96623
ster	-8.96843
▁form	-8.97105
▁promised	-8.97166
▁warm	-8.97271
▁bastard	-8.97438
▁so	-8.97611
▁ringing	-8.97713
▁teacher	-8.97798
ure	-8.9789
ping	-8.97901
▁painting	-8.97958
im	-8.98031
ard	-8.98159
▁wrote	-8.98435
▁dying	-8.98439
▁thev	-8.98456
▁begin	-8.98532
time	-8.9862
▁tea	-8.9863
▁mary	-8.9871
▁grab	-8.98893
▁games	-8.99169
▁force	-8.9921
ul	-8.99507
▁training	-8.99544
▁ab	-8.9984
▁board	-9.00022
▁rich	-9.00325
▁admit	-9.00476
▁sarafina	-9.00476
▁throat	-9.00476
▁erik	-9.00476
▁tony	-9.00538
▁cost	-9.00614
▁legs	-9.00657
▁lesson	-9.00663
ac	-9.00807
▁da	-9.00996
▁ms	-9.01383
ass	-9.01504
▁patient	-9.01654
▁soldier	-9.01694
ow	-9.01807
▁letter	-9.01999
▁realize	-9.0232
▁ii	-9.02518
▁foot	-9.02549
▁double	-9.0256
▁enemy	-9.0256
▁strength	-9.0256
▁prove	-9.02697
▁action	-9.02701
▁beer	-9.02759
▁tally	-9.0279
▁sub	-9.02824
▁interesting	-9.03005
▁appreciate	-9.03032
▁boo	-9.03045
▁moved	-9.03152
▁ad	-9.03326
▁staying	-9.03611
▁mistake	-9.03743
▁product	-9.03778
▁weapon	-9.03882
▁ex	-9.04176
▁sp	-9.04273
▁sal	-9.04319
▁honest	-9.04524
▁sa	-9.04668
▁ethan	-9.04687
▁impossible	-9.04687
▁fresh	-9.04687
▁mountain	-9.04687
▁beginning	-9.04688
▁camp	-9.04688
▁forward	-9.0469
▁practice	-9.04694
▁france	-9.0471
▁breath	-9.04737
king	-9.04782
▁brad	-9.04823
▁sitting	-9.04825
▁united	-9.04864
▁quickly	-9.04981
▁putting	-9.04986
▁faster	-9.05138
▁whose	-9.05571
▁learned	-9.05762
▁sn	-9.05784
▁cook	-9.05814
▁records	-9.05827
▁takes	-9.05908
▁ra	-9.06018
▁remind	-9.06075
▁brain	-9.06154
▁taste	-9.06209
▁bother	-9.06279
▁students	-9.06373
tor	-9.06619
▁works	-9.06825
ca	-9.06832
▁fl	-9.06838
▁conversation	-9.06861
▁excited	-9.06861
▁lieutenant	-9.06861
▁machine	-9.06861
▁major	-9.06861
▁neither	-9.06861
▁jeannie	-9.06861
▁memory	-9.06867
▁cash	-9.06883
▁director	-9.06884
▁steal	-9.069
▁lu	-9.06901
▁shame	-9.0691
▁jail	-9.06927
▁shaw	-9.06949
ally	-9.07061
▁billy	-9.07393
▁saved	-9.07757
▁ohh	-9.08034
ble	-9.0814
▁window	-9.08327
▁hanging	-9.08436
▁cl	-9.08444
▁build	-9.08511
▁cr	-9.08667
▁share	-9.08786
▁health	-9.08795
▁pa	-9.08968
▁apart	-9.09055
▁aw	-9.09063
▁doubt	-9.09083
▁teeth	-9.09083
▁stories	-9.09083
▁laura	-9.09084
▁queen	-9.09084
▁interview	-9.09084
▁hasnt	-9.09085
▁mommy	-9.09085
▁sheryl	-9.09087
▁taught	-9.09088
▁boyfriend	-9.09096
▁exist	-9.09103
▁steele	-9.09122
▁groaning	-9.09143
▁medical	-9.09161
▁national	-9.09177
▁sweetie	-9.0921
▁gasping	-9.09288
▁earl	-9.09302
▁exhales	-9.09325
▁press	-9.09572
▁experience	-9.09601
ph	-9.098
am	-9.09833
▁arms	-9.1013
▁wearing	-9.10445
ho	-9.10643
▁tie	-9.10709
▁dan	-9.10781
▁cure	-9.11013
▁divorce	-9.11029
▁mark	-9.11107
▁extra	-9.11348
▁afternoon	-9.11356
▁concert	-9.11356
▁pilot	-9.11356
▁pregnant	-9.11356
▁scene	-9.11356
▁battle	-9.11356
▁quinn	-9.11356
▁rafe	-9.11356
▁grace	-9.11357
▁rachel	-9.11363
▁mister	-9.1141
▁michele	-9.11454
▁dirty	-9.11459
▁amen	-9.11464
▁moon	-9.11485
▁joy	-9.11522
▁single	-9.11558
▁van	-9.11847
▁nation	-9.11864
▁knocking	-9.12097
▁fo	-9.12311
per	-9.12349
ey	-9.12391
no	-9.12422
▁dare	-9.12478
▁lights	-9.12536
▁spit	-9.12658
▁en	-9.12662
▁wouldve	-9.12682
▁nobodys	-9.12743
▁joke	-9.13039
▁ba	-9.13054
▁russian	-9.13064
▁continue	-9.13073
▁freak	-9.13093
▁destroy	-9.13227
▁killing	-9.13346
way	-9.13366
▁bull	-9.13386
▁announce	-9.13662
▁dauntless	-9.13682
▁friday	-9.13682
▁george	-9.13682
▁writing	-9.13682
▁japanese	-9.13682
▁eric	-9.137
▁jungle	-9.137
▁punch	-9.13719
▁usually	-9.13783
▁sold	-9.13786
▁obviously	-9.13812
the	-9.13968
▁horn	-9.14166
ier	-9.14495
▁flowers	-9.14546
▁orders	-9.14743
▁bro	-9.15267
▁holding	-9.15395
▁names	-9.15498
▁cup	-9.15541
▁dreams	-9.15692
▁asleep	-9.16063
▁beauty	-9.16063
▁charlie	-9.16063
▁deserve	-9.16063
▁insane	-9.16063
▁marriage	-9.16063
▁whistle	-9.16063
▁situation	-9.16063
▁goodnight	-9.16063
▁bathroom	-9.16065
▁desk	-9.1607
▁vote	-9.16078
▁risk	-9.1608
▁everywhere	-9.16086
▁wash	-9.16169
▁huge	-9.16185
▁san	-9.16284
▁sight	-9.16306
go	-9.16342
land	-9.16445
▁interested	-9.16471
▁ca	-9.16692
▁cap	-9.16728
▁feelings	-9.16986
▁shed	-9.17042
▁wondering	-9.17145
▁dollars	-9.17285
▁talked	-9.1737
▁rid	-9.17412
▁color	-9.17502
▁sisters	-9.17517
ad	-9.17591
▁park	-9.17616
▁pet	-9.17856
▁pack	-9.17863
▁j	-9.17911
▁ed	-9.17996
▁arrest	-9.1804
by	-9.18064
▁ran	-9.18254
▁awesome	-9.18502
▁brown	-9.18502
▁difficult	-9.18502
▁mohsen	-9.18502
▁monster	-9.18502
▁ronnie	-9.18502
▁strike	-9.18502
▁video	-9.18502
▁worst	-9.18502
▁sobbing	-9.18503
▁cheap	-9.18505
▁truly	-9.18508
▁pageant	-9.18514
▁message	-9.18526
▁space	-9.18527
▁loud	-9.1853
▁christian	-9.18547
▁lying	-9.18553
ism	-9.18591
▁dig	-9.18728
▁stars	-9.18886
▁allowed	-9.18952
▁he	-9.19404
▁do	-9.19485
▁loves	-9.19522
▁kinda	-9.19663
▁leader	-9.19757
ut	-9.19802
▁screw	-9.1991
▁goin	-9.20026
▁prefer	-9.20032
▁shooting	-9.2013
▁relationship	-9.20499
▁position	-9.20517
▁thousand	-9.20535
ps	-9.20551
▁judge	-9.20564
▁fill	-9.20568
▁allow	-9.20576
▁due	-9.20626
os	-9.20634
▁sleeping	-9.20687
▁complete	-9.20827
▁danger	-9.20988
▁became	-9.21002
▁django	-9.21002
▁empire	-9.21002
▁introduce	-9.21002
▁necessary	-9.21002
▁twice	-9.21004
▁price	-9.21007
▁freedom	-9.21009
▁sparkle	-9.21039
▁upon	-9.21045
io	-9.21057
▁gate	-9.21077
ance	-9.21085
▁beth	-9.2116
▁consider	-9.2153
▁draw	-9.21681
▁surprised	-9.21747
▁paint	-9.21855
ious	-9.22508
ial	-9.22808
▁gosh	-9.22938
ina	-9.22985
▁waste	-9.23243
▁dumb	-9.23317
▁missing	-9.23339
▁papers	-9.23389
▁fr	-9.23449
▁discuss	-9.23457
▁plays	-9.23459
▁rob	-9.23491
▁bravo	-9.23566
▁distance	-9.23566
▁kantmiss	-9.23566
▁official	-9.23566
▁often	-9.23566
▁repeat	-9.23566
▁scoffs	-9.23566
▁upstairs	-9.23566
▁whether	-9.23566
▁upset	-9.23566
▁style	-9.23566
▁congratulations	-9.23566
▁gotten	-9.23573
▁evelyn	-9.23574
▁diane	-9.23574
▁pants	-9.23579
▁luke	-9.23584
▁girlfriend	-9.23593
▁yep	-9.236
▁freeze	-9.23617
▁eh	-9.23727
▁hoping	-9.23806
▁commander	-9.23922
▁mikey	-9.23969
▁cat	-9.24112
▁siren	-9.24465
ig	-9.24571
ka	-9.24665
▁closed	-9.24845
▁dis	-9.25084
▁gas	-9.25153
▁grand	-9.25381
▁wet	-9.25508
ng	-9.25602
▁focus	-9.25725
▁talent	-9.25746
▁animal	-9.2588
▁feed	-9.26077
▁prince	-9.26109
▁shake	-9.26185
▁across	-9.26197
▁beyond	-9.26197
▁commercial	-9.26197
▁europe	-9.26197
▁london	-9.26197
▁operation	-9.26197
▁tradition	-9.26197
▁detective	-9.26201
▁local	-9.26201
▁wellington	-9.26205
▁phil	-9.26205
▁guest	-9.26219
▁hiding	-9.26222
▁santa	-9.26222
▁duty	-9.26228
▁shop	-9.2623
▁involved	-9.26235
▁beach	-9.26289
▁silly	-9.26355
ish	-9.26445
▁vour	-9.26468
▁yelling	-9.26503
ize	-9.2659
▁copy	-9.26606
uck	-9.27284
▁besides	-9.27305
▁listening	-9.27518
▁cops	-9.27757
of	-9.27845
▁interest	-9.27889
tion	-9.27913
end	-9.28051
▁brothers	-9.28143
▁falling	-9.28298
out	-9.28504
▁butt	-9.28537
▁notice	-9.28584
▁base	-9.28608
▁ga	-9.28611
▁belong	-9.28655
▁match	-9.28798
tt	-9.28874
▁chisolm	-9.289
▁memphis	-9.289
▁mercy	-9.289
▁nikki	-9.289
▁possibly	-9.289
▁angry	-9.289
▁garden	-9.289
▁mandela	-9.289
▁helen	-9.28901
▁bought	-9.28904
▁philip	-9.28907
▁bottle	-9.28908
▁sunday	-9.28909
▁treatment	-9.2893
▁harry	-9.28935
▁tear	-9.28968
▁nose	-9.28971
and	-9.29013
▁nurse	-9.29031
▁suddenly	-9.29033
▁el	-9.29061
▁wood	-9.29096
▁beeping	-9.2916
▁sucker	-9.29306
ern	-9.2942
▁bearing	-9.29444
▁hill	-9.2964
▁driver	-9.29834
▁soldiers	-9.30051
▁flying	-9.30182
▁turning	-9.3025
▁bud	-9.30282
▁tou	-9.3035
▁pen	-9.30911
▁album	-9.31678
▁district	-9.31678
▁england	-9.31678
▁request	-9.31678
▁ugly	-9.31678
▁cancer	-9.31678
▁biggest	-9.31679
▁kitty	-9.31683
▁papa	-9.31685
▁neck	-9.31689
ber	-9.31726
▁incredible	-9.31739
ti	-9.31745
▁corey	-9.31772
ated	-9.31813
▁keeping	-9.31872
▁pool	-9.321
▁for	-9.32162
▁leavey	-9.32386
▁pi	-9.32401
▁finished	-9.32528
▁hunt	-9.32842
▁passed	-9.32855
da	-9.3327
▁lo	-9.33272
▁murder	-9.33359
▁treat	-9.33438
der	-9.33563
▁di	-9.3438
▁hook	-9.34384
▁mar	-9.34417
▁paul	-9.34437
▁africa	-9.34445
▁partner	-9.34506
▁chair	-9.34521
▁breakfast	-9.34535
▁channel	-9.34535
▁ghost	-9.34535
▁juliette	-9.34535
▁regular	-9.34535
▁responsible	-9.34535
▁opinion	-9.34535
▁program	-9.34535
▁bigger	-9.34538
▁shouldve	-9.34543
▁meat	-9.34549
▁famous	-9.34555
▁type	-9.34556
▁warren	-9.34574
▁weekend	-9.34575
▁sky	-9.34598
▁path	-9.34624
▁weight	-9.34657
▁bum	-9.34714
▁gay	-9.3489
▁tail	-9.35081
▁tires	-9.35227
▁pe	-9.35384
▁rings	-9.3543
▁lucas	-9.35494
▁hall	-9.35732
▁gorgonites	-9.35741
▁los	-9.3579
▁helping	-9.359
▁seemed	-9.35976
▁mi	-9.36477
▁sin	-9.36571
▁picked	-9.36578
▁movies	-9.37042
▁mention	-9.37092
▁sacrifice	-9.37146
▁problems	-9.37255
▁angel	-9.37361
▁starts	-9.37387
▁weak	-9.37455
▁holly	-9.37474
▁japan	-9.37476
▁advertising	-9.37476
▁clarissa	-9.37476
▁excellent	-9.37476
▁havana	-9.37476
▁melissa	-9.37476
▁senior	-9.37476
▁television	-9.37476
▁sugar	-9.37476
▁nature	-9.37477
▁chug	-9.37481
▁grady	-9.37482
▁teen	-9.37505
▁winner	-9.3751
▁powerful	-9.3757
▁sil	-9.37571
▁hole	-9.37636
▁lance	-9.37727
art	-9.37736
▁mv	-9.37756
▁file	-9.379
▁opening	-9.38069
▁losing	-9.38078
▁cab	-9.38116
▁nuts	-9.38398
ap	-9.38891
▁pulled	-9.3892
▁rip	-9.39153
▁ver	-9.39269
▁se	-9.39326
▁bear	-9.39707
ang	-9.40127
▁beg	-9.40255
▁howd	-9.40316
▁total	-9.40332
▁soft	-9.40342
▁clicks	-9.40393
▁keys	-9.40395
▁awake	-9.4041
though	-9.4041
▁birth	-9.405
▁condition	-9.40506
▁correct	-9.40506
▁fantastic	-9.40506
▁guitar	-9.40506
▁photo	-9.40506
▁project	-9.40506
▁studio	-9.40507
▁within	-9.40507
▁empty	-9.40507
▁tiger	-9.40507
▁peanut	-9.40508
▁loose	-9.4051
▁zach	-9.40511
▁angie	-9.40515
▁principal	-9.40516
▁bridge	-9.40518
▁cheese	-9.4052
▁large	-9.40523
▁tight	-9.40528
▁bible	-9.40537
▁milk	-9.40538
▁neighbor	-9.40556
ner	-9.40561
▁artist	-9.40578
▁click	-9.4064
▁pam	-9.40645
▁all	-9.40708
▁arrived	-9.40717
▁meg	-9.40742
▁key	-9.40833
▁tr	-9.40839
ak	-9.40935
▁indistinctly	-9.41005
▁pr	-9.41171
▁lab	-9.41374
▁showing	-9.41453
▁pal	-9.41463
▁chattering	-9.41679
▁eating	-9.41707
▁heads	-9.41749
tive	-9.41843
▁harder	-9.42157
▁following	-9.42406
▁birds	-9.42941
▁up	-9.42995
▁faith	-9.43183
▁pee	-9.43187
▁using	-9.43225
▁survive	-9.43311
▁serve	-9.43313
▁obvious	-9.43456
▁bu	-9.43515
▁aunt	-9.43588
▁airport	-9.43631
▁jorge	-9.43631
▁military	-9.43631
▁opportunity	-9.43631
▁research	-9.43631
▁rumbling	-9.43631
▁theater	-9.43631
▁crime	-9.43632
▁piano	-9.43632
▁mickey	-9.43634
▁juice	-9.43637
▁edward	-9.43638
▁hyah	-9.43642
▁address	-9.43644
▁thou	-9.43645
▁boring	-9.43651
▁whore	-9.43653
▁simply	-9.43683
▁block	-9.43692
▁ballet	-9.43696
▁older	-9.43743
▁willing	-9.43779
▁softly	-9.43814
▁dust	-9.43846
▁paper	-9.43879
▁lake	-9.43935
▁signal	-9.4394
▁cha	-9.44008
▁west	-9.44028
▁ice	-9.44051
▁gal	-9.44097
▁x	-9.44327
▁fa	-9.44449
▁drinking	-9.44784
ence	-9.44879
▁mu	-9.4512
▁goodness	-9.45217
▁lf	-9.4523
▁h	-9.45395
dy	-9.45419
em	-9.45474
▁fingers	-9.45539
▁toys	-9.45647
▁thunder	-9.45847
ell	-9.45852
▁dry	-9.45864
▁wa	-9.46147
▁recognize	-9.4653
▁damage	-9.46538
▁invite	-9.46541
head	-9.46623
▁levi	-9.46766
▁ought	-9.4677
▁abbott	-9.46857
▁abigail	-9.46857
▁issue	-9.46857
▁satellite	-9.46857
▁schedule	-9.46857
▁sergeant	-9.46857
▁weather	-9.46857
▁cream	-9.46857
▁split	-9.46857
▁albert	-9.46857
▁washington	-9.46857
▁cousin	-9.46858
▁indeed	-9.46858
▁review	-9.46865
▁department	-9.46865
▁earlier	-9.46874
▁abby	-9.46874
▁wire	-9.46875
▁pressure	-9.46876
for	-9.46878
▁coward	-9.46879
▁chorus	-9.46898
▁apartment	-9.46911
▁whispering	-9.46926
▁meal	-9.46943
▁blame	-9.46956
▁manager	-9.46965
▁swim	-9.47044
▁rent	-9.47048
▁barking	-9.47111
▁sean	-9.47119
▁fe	-9.47379
over	-9.47393
▁arrested	-9.47473
▁joey	-9.47633
we	-9.47675
▁main	-9.47755
▁pat	-9.4808
▁bust	-9.48889
▁magic	-9.49174
▁note	-9.49274
▁lt	-9.4933
▁pretend	-9.49609
▁roar	-9.49692
▁crack	-9.49708
▁claim	-9.4972
di	-9.49831
ev	-9.49865
ship	-9.49913
▁career	-9.49921
j	-9.50081
▁nothin	-9.50119
▁stole	-9.50133
▁ap	-9.50185
▁bastian	-9.5019
▁advice	-9.50191
▁dillon	-9.50191
▁horrible	-9.50191
▁shock	-9.50191
▁volunteer	-9.50191
▁center	-9.50191
▁rita	-9.50191
▁jerk	-9.50191
▁nagra	-9.50192
▁eliot	-9.50195
▁nowhere	-9.50196
▁poem	-9.50197
▁thatll	-9.50202
▁ardi	-9.50206
▁speed	-9.50209
▁babe	-9.50216
▁fellow	-9.50218
▁fran	-9.50223
▁gross	-9.5023
▁immediately	-9.5023
▁whatd	-9.50259
▁size	-9.50269
▁pitch	-9.50411
▁planes	-9.50468
▁hal	-9.50504
▁certainly	-9.50512
▁to	-9.5055
▁whispers	-9.50559
▁river	-9.50604
ze	-9.50639
▁ticket	-9.5064
▁moms	-9.50928
▁stranger	-9.50997
▁ld	-9.51054
▁writer	-9.512
▁fucking	-9.51245
cr	-9.51528
▁wh	-9.51814
▁ned	-9.51824
▁qu	-9.51865
▁selling	-9.51943
tin	-9.51955
▁east	-9.52026
line	-9.52317
▁she	-9.52602
lic	-9.52606
▁pu	-9.5263
▁ships	-9.52649
men	-9.52666
▁hoo	-9.52948
▁horses	-9.52979
wa	-9.53063
▁z	-9.53092
▁concern	-9.53175
▁tickets	-9.532
▁prepare	-9.53356
▁hung	-9.53382
board	-9.53403
▁skate	-9.53472
▁bright	-9.53598
▁pizza	-9.53639
▁social	-9.53639
▁understood	-9.53639
▁shirt	-9.53639
▁hadnt	-9.53639
▁medicine	-9.53644
▁macon	-9.5365
▁aware	-9.53656
▁level	-9.53657
▁view	-9.53671
▁cake	-9.537
▁james	-9.53713
▁oil	-9.53724
▁corner	-9.53726
▁cheer	-9.53729
▁dale	-9.53757
▁trade	-9.53939
▁seek	-9.53955
▁opens	-9.53964
▁lily	-9.54032
▁remain	-9.54125
▁ahh	-9.54144
▁page	-9.54455
▁clears	-9.54513
▁letting	-9.54515
▁shams	-9.54579
▁there	-9.54599
▁luc	-9.5494
▁trained	-9.55198
▁terms	-9.55214
▁chip	-9.55238
▁am	-9.55332
▁doctors	-9.55417
▁eggs	-9.55427
ov	-9.5555
▁helped	-9.56382
▁tap	-9.56386
▁self	-9.56387
▁me	-9.56611
▁shout	-9.5666
▁honk	-9.56662
▁cancel	-9.56727
▁hu	-9.56735
▁lies	-9.5676
ong	-9.56818
▁separate	-9.56886
▁lea	-9.57008
▁sudden	-9.57034
▁doll	-9.57099
▁breaking	-9.57129
▁collect	-9.57147
▁ju	-9.57178
▁account	-9.57193
▁agency	-9.5721
▁appointment	-9.5721
▁bennett	-9.5721
▁california	-9.5721
▁character	-9.5721
▁heavy	-9.5721
▁mmmhmm	-9.5721
▁nonsense	-9.5721
▁rough	-9.5721
▁somehow	-9.5721
▁surgery	-9.5721
▁suspect	-9.5721
▁threadgoode	-9.5721
▁babies	-9.5721
▁computer	-9.5721
▁purpose	-9.5721
▁source	-9.5721
▁apple	-9.5721
▁fleet	-9.5721
▁theyd	-9.5721
▁hannah	-9.57211
▁plus	-9.57211
▁attitude	-9.57212
▁ugh	-9.57213
work	-9.57215
▁nyx	-9.57219
▁performance	-9.5722
▁spell	-9.57224
▁johnny	-9.57226
▁edge	-9.57242
▁alice	-9.57242
▁began	-9.57269
▁lila	-9.57275
▁direction	-9.57293
▁boom	-9.57302
▁liar	-9.57303
▁bob	-9.57395
▁glasses	-9.57499
▁y	-9.5753
▁scare	-9.57675
▁heat	-9.57781
▁perfectly	-9.57903
▁closer	-9.57992
▁songs	-9.58099
med	-9.58314
▁hearing	-9.58412
▁wings	-9.5874
▁ne	-9.58885
ip	-9.58947
ile	-9.59025
▁closes	-9.59245
▁pie	-9.59568
▁br	-9.59596
▁sav	-9.59723
▁plans	-9.59954
▁ch	-9.60073
▁bowl	-9.60289
▁perform	-9.60298
▁showed	-9.60328
▁market	-9.60414
▁wound	-9.6044
▁release	-9.60588
▁ruin	-9.60592
down	-9.60666
ite	-9.60689
ized	-9.60814
▁according	-9.60914
▁chloe	-9.60914
▁easier	-9.60914
▁represent	-9.60914
▁saturday	-9.60914
▁stuart	-9.60914
▁thirty	-9.60914
▁whenever	-9.60914
▁novel	-9.60914
▁demand	-9.60915
▁nope	-9.60915
▁clap	-9.60915
▁saint	-9.60915
▁funeral	-9.60916
▁audition	-9.60917
▁british	-9.60917
▁stayed	-9.60925
▁scott	-9.60927
▁maria	-9.6094
▁hee	-9.60944
▁cabinet	-9.60944
▁steve	-9.60966
▁trap	-9.60978
▁mail	-9.61034
▁professional	-9.61035
▁loss	-9.61138
▁calls	-9.61175
▁student	-9.61757
▁bird	-9.61815
side	-9.61853
▁locked	-9.61941
▁fate	-9.61984
▁chase	-9.62077
▁reporter	-9.62311
ves	-9.62421
▁bucks	-9.62697
▁matters	-9.62718
▁acting	-9.62961
▁ru	-9.63049
▁stra	-9.63802
▁ear	-9.63945
ons	-9.64038
▁tip	-9.64063
▁le	-9.64115
▁search	-9.64156
act	-9.64232
▁publish	-9.64288
off	-9.64345
▁track	-9.64433
▁create	-9.64443
▁raise	-9.64444
▁decide	-9.64456
▁walked	-9.64484
▁escape	-9.64543
▁natural	-9.64629
▁chose	-9.64671
▁spy	-9.64707
▁twenty	-9.64735
▁wrap	-9.64746
▁village	-9.64748
▁afford	-9.6476
▁available	-9.6476
▁avocado	-9.6476
▁contract	-9.6476
▁guarantee	-9.6476
▁hawaii	-9.6476
▁insurance	-9.6476
▁madiba	-9.6476
▁rehearsal	-9.6476
▁society	-9.6476
▁vehicle	-9.6476
▁miami	-9.6476
▁built	-9.6476
▁wherever	-9.6476
▁roger	-9.64761
▁hollywood	-9.64763
▁valley	-9.64766
▁hostage	-9.64766
▁candy	-9.64767
▁vision	-9.6477
▁silence	-9.64771
▁positive	-9.64772
▁dramatic	-9.64773
▁nick	-9.6478
▁roof	-9.64784
▁plate	-9.64785
▁legend	-9.64786
▁tank	-9.64789
▁unfortunately	-9.64798
▁growling	-9.6481
▁china	-9.64816
▁chess	-9.64818
▁tick	-9.6482
▁johnston	-9.64829
lv	-9.6488
▁buffy	-9.6488
▁confused	-9.64897
▁rush	-9.64898
▁angeles	-9.64914
▁add	-9.65004
▁cia	-9.65053
▁male	-9.65166
▁scream	-9.65178
▁disappeared	-9.65189
▁sch	-9.65194
▁march	-9.65205
▁carla	-9.65296
▁hire	-9.65336
▁bringing	-9.65467
▁destroyed	-9.65535
▁tall	-9.65571
▁dads	-9.6579
▁med	-9.66112
ions	-9.66151
rate	-9.6616
▁higher	-9.66169
▁growing	-9.66218
▁dressed	-9.66262
▁cock	-9.66475
you	-9.66514
ft	-9.66544
▁shows	-9.66594
▁signed	-9.66602
▁mothers	-9.66635
▁couldve	-9.66766
▁kings	-9.66905
▁val	-9.67007
ition	-9.67037
ug	-9.67127
▁you	-9.67419
bu	-9.67788
▁bug	-9.67988
▁balls	-9.67997
▁enter	-9.68213
ming	-9.68334
tain	-9.68334
▁load	-9.68377
▁score	-9.68427
▁usual	-9.68588
▁flow	-9.68636
▁spoke	-9.68674
▁barbara	-9.6876
▁charlotte	-9.6876
▁faraday	-9.6876
▁footsteps	-9.6876
▁forbidden	-9.6876
▁jeffords	-9.6876
▁niflheim	-9.6876
▁plenty	-9.6876
▁regret	-9.6876
▁responsibility	-9.6876
▁tahime	-9.6876
▁university	-9.6876
▁whistling	-9.6876
▁blew	-9.6876
▁crew	-9.6876
▁presence	-9.68761
▁knowledge	-9.68761
▁noise	-9.68761
▁otherwise	-9.68762
▁coast	-9.68763
▁starving	-9.68763
▁rugby	-9.68763
▁joseph	-9.68764
▁apache	-9.68764
▁royal	-9.68765
▁monkey	-9.68767
▁written	-9.68773
▁gentleman	-9.68778
▁devil	-9.68779
▁defense	-9.68781
▁tune	-9.68783
▁johnson	-9.68801
▁player	-9.68809
▁dropped	-9.68814
▁solve	-9.68817
▁under	-9.68829
▁duck	-9.6883
▁successful	-9.68849
▁deck	-9.68852
▁laid	-9.68952
▁bleeding	-9.68986
▁flat	-9.69091
▁wha	-9.69091
▁honestly	-9.69097
▁snap	-9.69147
ko	-9.69166
▁coughs	-9.69217
▁noticed	-9.69233
▁animals	-9.69248
▁personally	-9.6926
▁yi	-9.69474
▁realized	-9.69484
que	-9.69492
vin	-9.69516
▁screwed	-9.69516
▁stronger	-9.69607
ther	-9.6966
▁gunshot	-9.69848
▁shoulder	-9.69907
▁offered	-9.69912
▁grandma	-9.69994
▁sha	-9.70299
▁where	-9.70332
▁coat	-9.70336
▁lately	-9.70342
▁streets	-9.70371
▁bite	-9.70434
▁spare	-9.71066
▁po	-9.71137
▁event	-9.71405
qui	-9.71501
▁her	-9.71569
kin	-9.71693
ni	-9.71798
ois	-9.71829
ric	-9.72085
▁cur	-9.72187
old	-9.72221
▁pan	-9.72253
▁and	-9.72454
▁disappear	-9.72464
▁com	-9.7247
▁refuse	-9.72602
▁doors	-9.72624
▁mis	-9.72668
town	-9.72724
field	-9.72727
▁russia	-9.72839
▁fi	-9.72845
▁contest	-9.72908
▁flash	-9.72926
▁applause	-9.72927
▁attend	-9.72927
▁delicious	-9.72927
▁ignore	-9.72927
▁mirror	-9.72927
▁mousavi	-9.72927
▁olivia	-9.72927
▁pardeep	-9.72927
▁ridiculous	-9.72927
▁screen	-9.72927
▁servant	-9.72927
▁subject	-9.72927
▁suicide	-9.72927
▁technology	-9.72927
▁pathetic	-9.72927
▁byebye	-9.72927
▁claus	-9.72927
▁itd	-9.72928
▁planning	-9.72929
▁dump	-9.72929
▁hogue	-9.7293
▁romantic	-9.72931
▁webster	-9.72931
▁theme	-9.72932
▁strip	-9.72933
▁rise	-9.72933
▁community	-9.72935
▁amber	-9.72938
▁wise	-9.72938
▁knife	-9.7294
▁wide	-9.7294
▁comfortable	-9.72944
▁property	-9.72945
▁muff	-9.72945
▁loving	-9.72951
▁alien	-9.72961
▁hughes	-9.72985
▁trial	-9.73001
▁archer	-9.73016
▁barely	-9.7302
▁skin	-9.73029
▁partners	-9.73046
▁coz	-9.73052
▁cutting	-9.73096
▁cow	-9.73111
▁useless	-9.73159
▁received	-9.73171
▁raised	-9.73271
ga	-9.73306
▁belongs	-9.73308
▁deeply	-9.73344
▁prepared	-9.73401
▁doin	-9.73535
▁math	-9.73556
▁sharp	-9.73556
ice	-9.73588
▁shape	-9.73672
▁fred	-9.73695
▁metal	-9.73711
▁shy	-9.73717
ny	-9.74007
▁bullet	-9.74161
ley	-9.74316
▁expected	-9.74418
▁bone	-9.74577
▁maps	-9.74614
▁bi	-9.74721
ea	-9.74807
ations	-9.74853
▁impress	-9.74995
▁everythings	-9.75011
ung	-9.75154
▁jo	-9.75383
▁sucks	-9.75486
▁fans	-9.75526
bi	-9.75666
▁fired	-9.75914
▁cards	-9.75938
▁schools	-9.75969
gg	-9.75973
▁germans	-9.76096
ud	-9.76284
▁singer	-9.76658
▁cast	-9.76659
▁bee	-9.7666
▁charm	-9.7668
▁study	-9.76686
oon	-9.76818
▁paying	-9.76921
▁settle	-9.76957
▁bal	-9.77015
▁threat	-9.77206
ets	-9.77232
▁bureau	-9.77274
▁apologize	-9.77275
▁borrow	-9.77275
▁clown	-9.77275
▁complicated	-9.77275
▁diamond	-9.77275
▁expensive	-9.77275
▁explosion	-9.77275
▁female	-9.77275
▁heavily	-9.77275
▁morgan	-9.77275
▁particular	-9.77275
▁restaurant	-9.77275
▁soviet	-9.77275
▁tongue	-9.77275
▁vacation	-9.77275
▁alarm	-9.77275
▁firm	-9.77275
▁generation	-9.77275
▁mount	-9.77275
▁roxy	-9.77275
▁shadow	-9.77275
▁sneak	-9.77275
▁process	-9.77275
▁rancor	-9.77275
▁duncan	-9.77276
▁molly	-9.77276
▁gordy	-9.77276
▁toast	-9.77277
▁whoever	-9.77277
▁clever	-9.77281
helm	-9.77286
▁selfish	-9.77287
▁bogue	-9.77287
▁port	-9.77291
▁lift	-9.77295
▁marco	-9.77296
▁dogs	-9.77297
▁raven	-9.77299
▁chrissy	-9.77302
▁handsome	-9.77307
▁coach	-9.77308
▁fake	-9.77311
▁trash	-9.77312
▁keeps	-9.77318
▁taxi	-9.77327
▁mona	-9.77342
▁secretary	-9.77344
▁indiana	-9.77353
▁bail	-9.77376
▁victory	-9.77418
▁winter	-9.77433
▁madame	-9.77459
▁amin	-9.77461
▁scary	-9.77519
▁kay	-9.77566
▁giggles	-9.77621
▁butter	-9.77639
▁invited	-9.77705
▁ka	-9.77792
▁based	-9.77816
▁concerned	-9.77866
▁germany	-9.7803
▁drawing	-9.78282
▁riding	-9.78331
▁legal	-9.78354
▁fella	-9.78381
▁headed	-9.78434
lie	-9.78672
▁magazine	-9.7874
▁sponsor	-9.78784
▁ac	-9.78926
▁lines	-9.79154
▁hardly	-9.79178
▁blowing	-9.79193
▁dancer	-9.79357
▁units	-9.79694
▁ordered	-9.79708
▁unh	-9.79829
▁lied	-9.79905
ring	-9.79983
rry	-9.801
▁bones	-9.80482
ire	-9.80518
ren	-9.80593
▁lack	-9.80722
▁pin	-9.80845
▁fur	-9.80903
▁hug	-9.81315
▁gra	-9.81465
▁lips	-9.81719
▁nu	-9.81759
▁spark	-9.81798
▁dozen	-9.8182
▁emergency	-9.8182
▁families	-9.8182
▁intense	-9.8182
▁jealous	-9.8182
▁jeff	-9.8182
▁jersey	-9.8182
▁newspaper	-9.8182
▁pardon	-9.8182
▁passport	-9.8182
▁rosalyn	-9.8182
▁sinestro	-9.8182
▁sophia	-9.8182
▁vegas	-9.8182
▁common	-9.8182
▁shirin	-9.8182
▁article	-9.8182
▁grandpa	-9.8182
▁tommy	-9.81821
▁drift	-9.81821
▁flag	-9.81821
▁however	-9.81822
▁mood	-9.81824
▁nathanial	-9.81825
▁insist	-9.81827
▁among	-9.8183
▁secure	-9.81831
▁elise	-9.81832
▁miracle	-9.81833
▁wilson	-9.81835
▁clock	-9.81839
▁admiral	-9.81839
▁wong	-9.81843
▁lousy	-9.81843
▁frozen	-9.81847
▁feminist	-9.81847
▁cassie	-9.81849
▁sever	-9.8186
▁chill	-9.81874
▁thee	-9.81908
ible	-9.81916
▁changing	-9.81945
▁tiny	-9.8195
▁harm	-9.82068
▁downing	-9.82214
▁gum	-9.82247
▁drag	-9.82261
▁faction	-9.82298
▁gi	-9.82351
▁sla	-9.82368
▁jar	-9.82463
▁curse	-9.82478
▁saving	-9.82544
▁pretending	-9.82623
lu	-9.82832
▁til	-9.82993
▁es	-9.83031
ron	-9.83192
ab	-9.83389
▁appear	-9.83505
▁covered	-9.83796
▁toy	-9.83975
▁details	-9.8407
▁su	-9.84209
▁lovell	-9.84353
▁mutants	-9.8451
ok	-9.84706
▁mate	-9.84766
▁sending	-9.85053
▁answers	-9.85168
▁carl	-9.85189
▁sniff	-9.85221
mate	-9.85324
▁loser	-9.854
▁tris	-9.85409
▁nd	-9.85442
our	-9.85522
▁piss	-9.85655
mm	-9.85713
▁crash	-9.86056
▁notes	-9.86057
▁bang	-9.86129
▁mix	-9.86173
▁convince	-9.8626
▁replace	-9.86346
▁chick	-9.86531
▁occasion	-9.86569
▁alcohol	-9.86582
▁chirping	-9.86582
▁chocolate	-9.86582
▁disease	-9.86582
▁downstairs	-9.86582
▁education	-9.86582
▁effort	-9.86582
▁fifteen	-9.86582
▁foreign	-9.86582
▁happiness	-9.86582
▁material	-9.86582
▁morteza	-9.86582
▁patrice	-9.86582
▁reservation	-9.86582
▁rifle	-9.86582
▁spread	-9.86582
▁universe	-9.86582
▁grew	-9.86582
▁mortal	-9.86582
▁outfit	-9.86582
▁percent	-9.86582
▁chalk	-9.86582
▁shark	-9.86582
▁element	-9.86582
▁radar	-9.86582
▁held	-9.86583
▁drove	-9.86583
▁crawl	-9.86583
▁maggie	-9.86583
▁oei	-9.86583
▁hayes	-9.86585
▁rope	-9.86587
▁hind	-9.86594
▁fancy	-9.86596
▁option	-9.86597
▁pocket	-9.86597
▁brake	-9.86597
▁prize	-9.86598
▁twist	-9.86599
▁giant	-9.86601
▁stink	-9.86604
▁navy	-9.86604
▁winning	-9.8661
▁annie	-9.86614
▁places	-9.86629
▁pair	-9.86631
▁jason	-9.86634
▁soup	-9.86649
▁disgusting	-9.86654
▁mack	-9.86665
▁shine	-9.86672
hu	-9.86687
▁yearold	-9.86709
▁stolen	-9.8671
▁sur	-9.86754
▁grown	-9.86863
▁actor	-9.86865
cho	-9.86874
▁screeching	-9.86882
▁gods	-9.86971
▁goat	-9.87057
▁farm	-9.87101
▁union	-9.87171
▁comp	-9.87362
▁treated	-9.87374
▁honking	-9.87376
▁ends	-9.8745
▁filled	-9.87484
lin	-9.87554
▁ate	-9.8759
▁manage	-9.87663
back	-9.87693
▁fixed	-9.87811
▁suck	-9.87979
▁yell	-9.88011
▁ideas	-9.8843
▁wheel	-9.885
▁spring	-9.88537
▁mistakes	-9.88543
▁knee	-9.88555
▁sooner	-9.88579
▁finger	-9.88581
ker	-9.88611
br	-9.88665
▁expecting	-9.88733
orn	-9.88789
▁drugs	-9.88819
beh	-9.88848
▁or	-9.88863
▁teaching	-9.88929
▁paintings	-9.88996
ach	-9.89068
▁passing	-9.89171
▁rats	-9.89303
ight	-9.89538
▁wil	-9.89557
▁buying	-9.90008
▁someones	-9.9017
▁fra	-9.90481
rt	-9.90501
▁lots	-9.9053
▁hurts	-9.90635
▁cars	-9.90803
▁deliver	-9.90806
▁approach	-9.90995
▁buzz	-9.90999
hand	-9.91135
▁photograph	-9.91157
▁finding	-9.91206
▁ni	-9.91302
light	-9.9135
room	-9.91376
▁habi	-9.9141
▁madam	-9.91415
▁doug	-9.9142
▁powers	-9.91457
▁can	-9.91461
▁moments	-9.91465
▁cy	-9.9152
▁ban	-9.9152
▁civil	-9.91553
▁virgin	-9.91561
ball	-9.91566
▁gym	-9.91573
▁adult	-9.91581
▁egypt	-9.91582
▁ambassador	-9.91582
▁apparently	-9.91582
▁avoid	-9.91582
▁companies	-9.91582
▁comrade	-9.91582
▁creature	-9.91582
▁culture	-9.91582
▁empress	-9.91582
▁equipment	-9.91582
▁exciting	-9.91582
▁extreme	-9.91582
▁hallelujah	-9.91582
▁harbor	-9.91582
▁italian	-9.91582
▁jordan	-9.91582
▁justice	-9.91582
▁literally	-9.91582
▁monsieur	-9.91582
▁nuclear	-9.91582
▁ocean	-9.91582
▁political	-9.91582
▁routine	-9.91582
▁someplace	-9.91582
▁sorrv	-9.91582
▁bread	-9.91582
▁chinese	-9.91582
▁jeez	-9.91582
▁vicki	-9.91582
▁expert	-9.91582
▁teddy	-9.91582
▁troops	-9.91582
▁belt	-9.91582
▁effect	-9.91582
▁kitchen	-9.91583
▁atwater	-9.91583
▁poison	-9.91585
▁arrange	-9.91585
▁tobin	-9.91587
▁bored	-9.91587
▁cliff	-9.91589
▁maintain	-9.91592
▁faint	-9.91594
▁switch	-9.91596
▁bike	-9.916
▁martin	-9.91602
▁wipe	-9.91604
▁howard	-9.91607
▁punk	-9.91607
▁decent	-9.91608
▁chili	-9.9161
▁fence	-9.91611
▁hm	-9.91614
▁trapped	-9.91618
▁fifty	-9.91619
▁stock	-9.91629
▁lori	-9.91634
▁min	-9.91637
▁season	-9.91641
▁auntie	-9.91653
▁jane	-9.91655
▁logan	-9.91657
▁pom	-9.91669
▁pink	-9.91684
▁jewel	-9.91686
▁coughing	-9.9169
▁inter	-9.91695
▁misty	-9.91711
ating	-9.91743
▁greeting	-9.91763
ack	-9.91828
▁assure	-9.91831
▁jp	-9.91845
▁watched	-9.91871
cy	-9.91884
▁non	-9.91925
▁embarrassing	-9.91957
▁created	-9.91999
▁lang	-9.92043
▁classes	-9.92083
▁lookin	-9.92099
▁buzzing	-9.92168
▁crashing	-9.92198
▁slowly	-9.92238
▁turns	-9.92398
▁shower	-9.9247
▁talented	-9.92483
▁thousands	-9.92533
▁hip	-9.92592
▁chi	-9.92816
▁ke	-9.92879
▁media	-9.9288
▁guardians	-9.92935
▁lover	-9.92944
▁nights	-9.9308
▁carrying	-9.93228
▁warn	-9.93319
▁kicked	-9.93476
▁log	-9.93532
▁bra	-9.93567
oh	-9.93606
▁result	-9.93798
▁cares	-9.93801
▁mutant	-9.93808
▁hy	-9.93877
▁chuckle	-9.939
▁faces	-9.93918
▁letters	-9.93979
▁cra	-9.94218
▁rolling	-9.94328
▁ste	-9.9441
▁bombs	-9.94619
▁be	-9.9476
ney	-9.94806
▁u	-9.94952
▁scar	-9.94957
▁ding	-9.95072
▁agents	-9.95382
▁hated	-9.95644
▁rev	-9.95714
ford	-9.95796
mb	-9.95827
▁talkin	-9.95855
▁grave	-9.96142
ade	-9.96229
▁pla	-9.96374
▁chest	-9.96548
▁desperate	-9.9666
▁success	-9.96727
▁proper	-9.968
▁ceremony	-9.96845
▁circus	-9.96845
▁combination	-9.96845
▁criminal	-9.96845
▁degree	-9.96845
▁depends	-9.96845
▁destiny	-9.96845
▁familiar	-9.96845
▁geronimo	-9.96845
▁inhales	-9.96845
▁interrupt	-9.96845
▁license	-9.96845
▁literature	-9.96845
▁maureen	-9.96845
▁midnight	-9.96845
▁sheriff	-9.96845
▁thomas	-9.96845
▁alexander	-9.96845
▁pearl	-9.96845
▁zeke	-9.96845
▁access	-9.96845
▁confidence	-9.96845
▁closing	-9.96846
▁forgotten	-9.96846
▁wailing	-9.96846
▁onto	-9.96846
▁stood	-9.96846
▁robbed	-9.96846
▁limit	-9.96846
▁uhuh	-9.96846
▁muscle	-9.96847
▁nerve	-9.96847
▁mills	-9.9685
▁champion	-9.96851
▁recover	-9.96851
▁unbelievable	-9.96852
▁pacific	-9.96852
▁section	-9.96852
▁resistance	-9.96853
▁swimming	-9.96857
▁bobby	-9.96861
▁physical	-9.96862
▁witness	-9.96862
▁kaos	-9.96863
▁impressive	-9.96864
▁grade	-9.96866
▁poetry	-9.96867
▁title	-9.96874
▁groom	-9.96876
▁zone	-9.96878
▁label	-9.96879
▁sailor	-9.96883
▁beast	-9.96885
▁trent	-9.96891
▁fuel	-9.96893
▁maid	-9.9694
▁bath	-9.96957
▁recently	-9.96966
▁chosen	-9.96968
▁gu	-9.97028
▁bitter	-9.97049
▁askey	-9.97049
▁role	-9.97081
▁ew	-9.97093
▁parts	-9.97173
▁passion	-9.97182
▁bush	-9.97235
▁warning	-9.97459
▁ruined	-9.97517
▁nap	-9.97585
▁den	-9.97596
▁tied	-9.97604
▁eaten	-9.97652
▁ended	-9.97665
▁sexy	-9.97745
▁roaring	-9.97783
com	-9.97871
yn	-9.97936
▁row	-9.98036
▁gil	-9.98074
ester	-9.98144
▁towards	-9.98281
▁sigh	-9.98291
▁closet	-9.98315
▁makeup	-9.98319
▁messed	-9.98341
▁greater	-9.98388
ical	-9.98598
▁uhh	-9.98778
▁brains	-9.98857
▁attacked	-9.98871
all	-9.9888
▁weapons	-9.98899
▁guts	-9.98968
▁backup	-9.98979
▁holiday	-9.99308
▁hearts	-9.99313
▁member	-9.9933
▁younger	-9.99505
tar	-9.9981
▁fu	-9.99923
▁burning	-9.99979
▁results	-9.99989
lon	-9.99997
▁fellas	-10.0053
▁unit	-10.0055
▁steps	-10.0088
▁prayer	-10.0089
▁mile	-10.0092
▁blu	-10.0103
▁jam	-10.0124
▁suggest	-10.0127
▁staring	-10.0138
▁fail	-10.014
▁chips	-10.0151
▁guards	-10.0158
stein	-10.0165
▁rat	-10.0165
▁picking	-10.0173
zel	-10.0176
▁lee	-10.0187
▁sweat	-10.0191
▁meaning	-10.0191
▁adopt	-10.0193
▁cheat	-10.0199
▁direct	-10.0204
▁robert	-10.0229
▁somethin	-10.0233
▁commit	-10.0234
▁iron	-10.0235
five	-10.0236
▁drama	-10.0238
▁disturb	-10.0239
▁text	-10.024
▁amount	-10.024
▁approve	-10.024
▁brilliant	-10.024
▁cheerleader	-10.024
▁division	-10.024
▁enemies	-10.024
▁escort	-10.024
▁evidence	-10.024
▁ezekiel	-10.024
▁genius	-10.024
▁giggling	-10.024
▁grandfather	-10.024
▁horvath	-10.024
▁including	-10.024
▁isabel	-10.024
▁monday	-10.024
▁orphan	-10.024
▁precious	-10.024
▁progress	-10.024
▁rabbit	-10.024
▁rekker	-10.024
▁reputation	-10.024
▁resign	-10.024
▁respond	-10.024
▁response	-10.024
▁rudolf	-10.024
▁slept	-10.024
▁stomach	-10.024
▁surrender	-10.024
▁therefore	-10.024
▁tuesday	-10.024
▁uniform	-10.024
▁voysey	-10.024
▁banana	-10.024
▁mollie	-10.024
▁buried	-10.024
▁anytime	-10.024
▁credit	-10.024
▁deaf	-10.024
▁bodies	-10.024
▁pounds	-10.024
▁float	-10.024
▁imperial	-10.024
▁fought	-10.024
▁righteous	-10.0241
▁despi	-10.0241
▁zero	-10.0241
▁basically	-10.0241
▁chanting	-10.0241
▁alert	-10.0241
▁dawn	-10.0241
ability	-10.0241
▁value	-10.0242
▁waves	-10.0242
▁contestant	-10.0243
▁brands	-10.0244
▁demo	-10.0245
▁yup	-10.0245
▁academy	-10.0246
▁megan	-10.0249
▁bound	-10.0251
▁poet	-10.0251
▁crown	-10.0254
away	-10.0259
▁gee	-10.0259
▁abc	-10.0263
▁hah	-10.0284
▁parties	-10.0293
▁customer	-10.03
▁beard	-10.0301
nn	-10.0306
▁bridesmaids	-10.032
▁we	-10.0341
▁agreed	-10.0345
▁heavens	-10.0348
tory	-10.0349
▁bow	-10.0368
▁colors	-10.0368
▁millions	-10.0401
han	-10.043
val	-10.0438
▁boots	-10.0456
▁shoe	-10.0467
▁har	-10.0467
▁sales	-10.0474
▁toe	-10.0491
▁burned	-10.0505
ches	-10.0517
▁lawyer	-10.0518
▁standard	-10.0533
▁dollar	-10.0537
▁mel	-10.0541
▁lad	-10.0569
▁waited	-10.0585
▁pulling	-10.0594
▁badly	-10.0594
▁walker	-10.061
ward	-10.061
▁vet	-10.0617
ik	-10.0623
pin	-10.0643
▁smells	-10.0651
▁pot	-10.0665
ue	-10.0698
ments	-10.0732
jo	-10.0752
▁rivers	-10.0757
▁pieces	-10.0779
▁defeat	-10.078
▁woo	-10.0786
house	-10.0809
▁blo	-10.0824
▁equal	-10.0825
▁journal	-10.0826
▁organ	-10.0828
▁transfer	-10.0828
rquez	-10.0828
▁attorney	-10.0828
▁barlow	-10.0828
▁compromise	-10.0828
▁december	-10.0828
▁detention	-10.0828
▁embassy	-10.0828
▁energy	-10.0828
▁gorgeous	-10.0828
▁grateful	-10.0828
▁international	-10.0828
▁jenkins	-10.0828
▁jennifer	-10.0828
▁kungfu	-10.0828
▁permission	-10.0828
▁spanish	-10.0828
▁telephone	-10.0828
▁thirsty	-10.0828
▁twelve	-10.0828
▁valdez	-10.0828
▁violence	-10.0828
▁violet	-10.0828
▁bruno	-10.0828
▁cowboy	-10.0828
▁example	-10.0828
▁hawkins	-10.0828
▁regard	-10.0828
▁beatrice	-10.0828
▁capital	-10.0828
▁gonggil	-10.0828
▁nightmare	-10.0828
▁wagon	-10.0828
▁madeleine	-10.0828
▁daniel	-10.0828
▁desert	-10.0828
▁launch	-10.0828
▁storm	-10.0828
▁walters	-10.0829
▁propose	-10.0829
▁piggy	-10.0829
▁jazz	-10.0829
▁fruit	-10.0829
▁joking	-10.083
▁static	-10.083
▁fbi	-10.0831
▁rude	-10.0831
▁sniffles	-10.0831
▁fortune	-10.0831
▁heck	-10.0832
▁bedroom	-10.0832
▁potter	-10.0832
▁string	-10.0833
▁owner	-10.0833
▁dj	-10.0833
▁reward	-10.0833
▁mere	-10.0836
▁becky	-10.0836
▁perry	-10.0837
▁guilty	-10.084
▁murmuring	-10.0841
▁arrive	-10.0842
▁crush	-10.0843
▁ramy	-10.0848
▁jacket	-10.0852
▁abandoned	-10.0858
▁drum	-10.086
▁designed	-10.0861
▁blown	-10.0868
tech	-10.0869
▁sat	-10.0872
▁del	-10.0873
▁placement	-10.0875
▁stopping	-10.0878
▁failed	-10.0878
con	-10.0879
▁pm	-10.0881
▁pity	-10.0884
gi	-10.0885
▁han	-10.0889
▁dia	-10.0904
▁marketing	-10.0923
▁kan	-10.0931
gging	-10.0947
▁blows	-10.0952
▁christy	-10.0956
▁cookie	-10.0959
▁damned	-10.0966
▁odd	-10.0974
▁flip	-10.0984
▁knocked	-10.0988
▁nah	-10.0988
▁naser	-10.0989
▁reached	-10.099
▁at	-10.103
▁whi	-10.1033
▁sand	-10.1039
ou	-10.105
fully	-10.1053
▁pills	-10.1067
bra	-10.1076
ef	-10.1081
▁believed	-10.1088
▁commandos	-10.1089
▁ira	-10.109
▁towns	-10.11
▁landing	-10.1105
▁forces	-10.1121
▁buck	-10.1135
▁rocks	-10.1136
▁affair	-10.1143
▁cigarette	-10.1144
▁detail	-10.1149
▁beep	-10.1156
▁speaks	-10.1163
ify	-10.1181
▁trees	-10.119
▁heading	-10.119
▁pol	-10.1194
▁throwing	-10.1196
ium	-10.1228
▁who	-10.1231
▁concentrate	-10.1234
▁ev	-10.1247
pped	-10.1284
▁gene	-10.1287
▁rate	-10.1297
za	-10.1307
▁nail	-10.1314
ndo	-10.1318
enne	-10.1323
fa	-10.1335
▁led	-10.1342
ette	-10.1342
▁suffer	-10.1346
▁che	-10.1347
rat	-10.1372
▁behave	-10.1377
hold	-10.1387
more	-10.1414
▁ears	-10.1419
▁brings	-10.142
▁dirt	-10.1426
▁robber	-10.1426
utti	-10.1433
▁opened	-10.1434
▁exam	-10.1441
▁louis	-10.1445
▁sid	-10.1446
just	-10.145
ified	-10.1451
▁revolution	-10.1451
▁courage	-10.1452
▁advantage	-10.1453
▁afghanistan	-10.1453
▁apollo	-10.1453
▁campbell	-10.1453
▁declare	-10.1453
▁exercise	-10.1453
▁glaive	-10.1453
▁halifax	-10.1453
▁hidden	-10.1453
▁insomnia	-10.1453
▁manchukuo	-10.1453
▁moscow	-10.1453
▁museum	-10.1453
▁november	-10.1453
▁oclock	-10.1453
▁offense	-10.1453
▁rainbow	-10.1453
▁recommend	-10.1453
▁scratch	-10.1453
▁smoking	-10.1453
▁thursday	-10.1453
▁client	-10.1453
▁distant	-10.1453
▁edgar	-10.1453
▁fetch	-10.1453
▁hanssen	-10.1453
▁period	-10.1453
▁republic	-10.1453
▁speech	-10.1453
▁strict	-10.1453
▁burke	-10.1453
▁dahl	-10.1453
▁palace	-10.1453
▁pride	-10.1453
▁shift	-10.1453
▁flood	-10.1453
▁flare	-10.1453
▁snoring	-10.1453
▁delay	-10.1453
▁hisham	-10.1454
▁navid	-10.1454
▁waffle	-10.1454
▁clinic	-10.1454
▁grandmother	-10.1454
▁becoming	-10.1454
▁winston	-10.1454
▁rosie	-10.1454
▁vince	-10.1454
▁cloud	-10.1454
▁hound	-10.1454
▁carolina	-10.1454
▁await	-10.1454
▁glory	-10.1455
▁terrorist	-10.1455
▁kingdom	-10.1455
▁betray	-10.1455
▁shaking	-10.1455
▁cycle	-10.1456
▁dugan	-10.1456
▁sentence	-10.1458
▁foul	-10.1458
▁mira	-10.1459
▁whooping	-10.146
▁motor	-10.146
▁mayday	-10.146
▁lucis	-10.146
▁mock	-10.1462
▁brighton	-10.1463
▁gail	-10.1463
▁pace	-10.1464
▁collection	-10.1464
▁bitsy	-10.1465
▁dating	-10.1465
▁exit	-10.1466
▁betty	-10.1468
▁toss	-10.1471
▁link	-10.1473
▁gim	-10.1473
▁wig	-10.1477
▁surrounded	-10.1479
▁aim	-10.148
▁cabin	-10.1481
▁confirmed	-10.1482
▁discovered	-10.1482
▁chain	-10.1484
▁brat	-10.1484
▁mall	-10.149
emp	-10.1497
day	-10.1498
coming	-10.15
▁dean	-10.1503
▁mil	-10.1505
▁bon	-10.1514
▁louder	-10.1516
▁tears	-10.1521
▁loaded	-10.1528
▁bam	-10.1547
ound	-10.1551
▁forced	-10.1555
▁cats	-10.1555
▁murdered	-10.1559
▁smarter	-10.1573
▁colored	-10.1577
▁tri	-10.1581
well	-10.1584
▁hunting	-10.1586
▁ln	-10.1594
▁comedy	-10.1607
▁clearly	-10.1622
▁county	-10.1642
▁numbers	-10.165
▁drip	-10.1665
▁site	-10.1674
▁pit	-10.1707
▁slams	-10.1707
▁sports	-10.1708
▁products	-10.1718
▁gae	-10.1719
▁drug	-10.1723
if	-10.1735
▁counter	-10.1745
▁planet	-10.1751
▁visiting	-10.1752
▁je	-10.176
▁friendly	-10.1768
gh	-10.177
▁dish	-10.1777
▁bastards	-10.1778
▁cart	-10.1789
▁gasp	-10.179
▁ol	-10.1798
▁snake	-10.181
▁ann	-10.1818
▁plant	-10.1818
▁term	-10.1825
▁springs	-10.1852
▁fund	-10.1857
▁author	-10.1875
▁touching	-10.1902
ffe	-10.1907
▁op	-10.1919
▁va	-10.193
▁tim	-10.1972
▁image	-10.1972
▁dam	-10.198
▁horne	-10.1981
▁drops	-10.1999
▁pages	-10.2018
bar	-10.2022
▁spa	-10.2023
gen	-10.2033
▁bless	-10.2036
▁chop	-10.2037
▁award	-10.208
▁bomber	-10.2083
▁engage	-10.2085
▁michel	-10.2091
▁teenage	-10.2094
▁bat	-10.2095
▁wolf	-10.2098
▁down	-10.2098
nal	-10.2112
▁julie	-10.2112
▁confess	-10.2115
▁indian	-10.2116
▁off	-10.2117
▁prior	-10.2117
fish	-10.2117
▁duk	-10.2117
▁monk	-10.2119
▁traffic	-10.212
▁abnegation	-10.212
▁ashamed	-10.212
▁barbecue	-10.212
▁beloved	-10.212
▁breast	-10.212
▁campaign	-10.212
▁challenge	-10.212
▁chicago	-10.212
▁colleague	-10.212
▁collins	-10.212
▁combat	-10.212
▁commission	-10.212
▁dalloway	-10.212
▁experiment	-10.212
▁fabulous	-10.212
▁intelligence	-10.212
▁invasion	-10.212
▁kelekian	-10.212
▁kenny	-10.212
▁library	-10.212
▁mexico	-10.212
▁mistress	-10.212
▁prophecy	-10.212
▁rattling	-10.212
▁relative	-10.212
▁revenge	-10.212
▁script	-10.212
▁september	-10.212
▁stretch	-10.212
▁victim	-10.212
▁yonggary	-10.212
▁brush	-10.212
▁complex	-10.212
▁corrupt	-10.212
▁dummy	-10.212
▁sheila	-10.212
▁crystal	-10.212
▁location	-10.212
▁scout	-10.212
▁session	-10.212
▁warrior	-10.212
▁flew	-10.212
▁wrist	-10.212
▁stress	-10.212
▁mostly	-10.212
▁facing	-10.212
▁fried	-10.212
▁subtitle	-10.212
▁slip	-10.212
▁urgent	-10.212
▁skirt	-10.212
▁jewish	-10.212
▁haunt	-10.2121
▁jerry	-10.2121
▁suitcase	-10.2121
▁plastic	-10.2121
▁georgia	-10.2121
▁aggressive	-10.2121
▁swing	-10.2121
▁skateboard	-10.2121
▁appearance	-10.2121
▁thrill	-10.2122
▁rebel	-10.2122
▁football	-10.2122
▁shove	-10.2122
▁childhood	-10.2122
▁status	-10.2122
▁anniversary	-10.2122
▁cruel	-10.2122
▁popular	-10.2122
▁grant	-10.2123
▁ammo	-10.2123
▁authority	-10.2123
▁election	-10.2123
▁shopping	-10.2124
▁begun	-10.2124
▁specific	-10.2124
▁package	-10.2125
▁assume	-10.2126
▁delight	-10.2126
▁para	-10.2126
▁task	-10.2126
▁aye	-10.2127
▁craft	-10.2127
▁raid	-10.2127
▁trace	-10.2128
▁poop	-10.2129
▁connection	-10.2129
▁whinnying	-10.213
▁iran	-10.213
▁barton	-10.2131
▁agreement	-10.2132
pleasant	-10.2133
▁rail	-10.2133
▁flies	-10.2134
▁allen	-10.2134
▁compared	-10.2134
uff	-10.2135
▁sec	-10.2135
▁whv	-10.2137
▁safety	-10.2137
▁bride	-10.2142
▁pure	-10.2145
▁lean	-10.2146
▁invented	-10.2151
▁critical	-10.2152
▁habit	-10.2153
ular	-10.2156
▁clattering	-10.2159
▁musician	-10.216
▁button	-10.216
▁richie	-10.2166
▁sonia	-10.2168
▁tone	-10.2171
▁twin	-10.2173
▁thrown	-10.2183
▁lili	-10.2185
▁visa	-10.2186
▁melt	-10.2194
▁trailer	-10.2194
▁reality	-10.2203
▁eve	-10.221
▁ven	-10.2221
▁mayor	-10.223
▁leak	-10.2234
▁springboks	-10.2239
▁om	-10.2249
▁positions	-10.2253
▁documents	-10.2261
▁exp	-10.2274
▁parking	-10.2286
▁hop	-10.2287
ja	-10.2294
▁gettin	-10.2297
▁presents	-10.2297
▁jokes	-10.2318
▁russians	-10.2318
▁joined	-10.232
ero	-10.2331
▁chap	-10.2341
▁evans	-10.2349
▁squeals	-10.235
▁windows	-10.2361
▁sue	-10.2369
▁vic	-10.2378
▁tale	-10.2384
▁tra	-10.2385
ave	-10.2408
▁bounc	-10.2421
▁fishing	-10.2447
▁dressing	-10.245
▁followed	-10.2469
▁recording	-10.2471
ula	-10.2473
▁teachers	-10.2503
▁gorgonite	-10.2533
▁beside	-10.2534
▁knees	-10.2543
▁painful	-10.2552
▁learning	-10.2568
▁commando	-10.2568
▁appears	-10.257
ably	-10.2578
▁stations	-10.2606
▁compete	-10.2617
▁tro	-10.2634
los	-10.2638
cal	-10.2648
▁prisoner	-10.2658
▁beating	-10.2659
▁rub	-10.2668
▁cheers	-10.2738
maker	-10.2743
▁ki	-10.2753
▁writers	-10.2765
ces	-10.2767
▁advance	-10.2802
▁root	-10.2811
what	-10.2813
top	-10.2813
point	-10.2814
▁exact	-10.2819
▁spec	-10.2824
▁express	-10.2824
▁advertise	-10.2827
▁comfort	-10.2831
▁holmes	-10.2834
▁deposit	-10.2834
▁fashion	-10.2834
▁ancient	-10.2834
▁broadcast	-10.2834
▁celebrate	-10.2834
▁circle	-10.2834
▁competition	-10.2834
▁corporal	-10.2834
▁dammit	-10.2834
▁describe	-10.2834
▁dominique	-10.2834
▁emotional	-10.2834
▁environment	-10.2834
▁explosive	-10.2834
▁feihung	-10.2834
▁gunfire	-10.2834
▁innocent	-10.2834
▁journey	-10.2834
▁khanoum	-10.2834
▁lantern	-10.2834
▁monitor	-10.2834
▁patrol	-10.2834
▁potential	-10.2834
▁praise	-10.2834
▁sandwich	-10.2834
▁senator	-10.2834
▁shriek	-10.2834
▁smiling	-10.2834
▁someday	-10.2834
▁square	-10.2834
▁terrific	-10.2834
▁ultimate	-10.2834
▁underneath	-10.2834
▁underwear	-10.2834
▁unhappy	-10.2834
▁houston	-10.2834
▁scrap	-10.2834
▁tattoo	-10.2834
▁anderson	-10.2834
▁attached	-10.2834
▁intend	-10.2834
▁mutation	-10.2834
▁policy	-10.2834
▁cuch	-10.2834
▁exhausted	-10.2834
▁cafe	-10.2834
▁proceed	-10.2834
▁route	-10.2834
▁hammer	-10.2834
▁original	-10.2834
▁smash	-10.2834
▁riot	-10.2834
▁flame	-10.2834
▁wore	-10.2834
▁brief	-10.2834
▁bugger	-10.2834
▁otis	-10.2834
▁resist	-10.2834
▁clay	-10.2834
▁whyd	-10.2834
▁holmesburg	-10.2835
▁humming	-10.2835
▁blaring	-10.2835
▁francisco	-10.2835
▁recall	-10.2835
▁neighborhood	-10.2835
▁downtown	-10.2835
▁melvin	-10.2835
▁inaudible	-10.2835
▁slim	-10.2835
▁garland	-10.2835
▁tits	-10.2836
▁garage	-10.2836
▁blackstone	-10.2836
▁lisa	-10.2836
▁assault	-10.2837
▁stiff	-10.2837
▁contain	-10.2837
▁wrapped	-10.2837
▁beggar	-10.2837
▁profit	-10.2837
▁pepper	-10.2837
▁chart	-10.2838
▁andrew	-10.2838
▁elite	-10.2838
▁mental	-10.2839
▁tool	-10.2839
▁leeman	-10.2839
▁trini	-10.2839
▁libera	-10.284
▁wax	-10.2841
▁gunny	-10.2841
▁gang	-10.2844
▁skies	-10.2846
▁flu	-10.2846
▁slap	-10.2848
▁roberto	-10.2848
▁sword	-10.2855
▁fist	-10.2857
▁mmmm	-10.2857
▁african	-10.2857
▁factory	-10.2857
▁stab	-10.2864
▁jet	-10.2866
▁ruby	-10.2866
▁preacher	-10.2868
▁robbery	-10.2868
rated	-10.2868
▁marie	-10.2871
▁shutter	-10.2876
▁fourth	-10.2877
▁deny	-10.2883
▁sincere	-10.2887
▁lifetime	-10.2895
▁wing	-10.2896
aging	-10.2902
▁suffering	-10.2903
▁carol	-10.2907
▁served	-10.2909
▁survived	-10.2909
▁approaching	-10.292
▁latest	-10.2922
▁hon	-10.2929
▁carefully	-10.2932
▁healthy	-10.2932
▁studying	-10.2933
ened	-10.2934
▁claimed	-10.2938
▁shared	-10.2941
▁bitches	-10.2945
▁missiles	-10.2963
▁anchor	-10.2963
▁bea	-10.2964
▁judges	-10.2964
▁frankly	-10.2971
▁americans	-10.2971
▁considered	-10.2972
▁badge	-10.2983
▁shelly	-10.2986
▁skip	-10.3011
▁curl	-10.3015
▁wally	-10.3017
▁rem	-10.3022
▁cups	-10.3025
▁quarters	-10.3033
▁belly	-10.3041
▁psych	-10.3057
▁surely	-10.307
▁reporting	-10.3086
run	-10.3099
▁tab	-10.31
▁landed	-10.3106
▁gar	-10.3111
▁spending	-10.312
ink	-10.3126
▁armed	-10.3131
▁spin	-10.3137
▁engineer	-10.3138
▁anti	-10.3146
▁gro	-10.316
▁sto	-10.3162
▁patients	-10.3165
istic	-10.3168
ache	-10.3192
ware	-10.3197
▁egg	-10.3212
▁mars	-10.3218
▁rec	-10.3234
▁members	-10.3247
▁touched	-10.3247
▁wit	-10.3284
▁sport	-10.3297
▁sometime	-10.3305
▁pill	-10.3311
▁slam	-10.3332
▁ob	-10.3338
▁tw	-10.3339
▁ali	-10.3375
▁map	-10.3379
aged	-10.3384
▁gut	-10.3387
▁ski	-10.3391
▁shoulders	-10.3395
itate	-10.34
▁din	-10.3409
▁nicely	-10.3455
▁ep	-10.3482
▁embarrass	-10.3498
▁psycho	-10.3512
shed	-10.3522
iver	-10.3522
▁admire	-10.3547
▁preach	-10.3569
▁require	-10.3571
▁earn	-10.3575
▁ge	-10.3578
qua	-10.3584
▁august	-10.3584
book	-10.3586
▁actual	-10.3586
▁artists	-10.3588
▁recent	-10.3589
▁dol	-10.3591
dle	-10.3591
▁affect	-10.3598
▁gentle	-10.3599
▁ambulance	-10.3603
▁argue	-10.3603
▁belief	-10.3603
▁benefit	-10.3603
▁charlene	-10.3603
▁charleshenri	-10.3603
▁climb	-10.3603
▁conference	-10.3603
▁creek	-10.3603
▁democracy	-10.3603
▁dovlatov	-10.3603
▁favour	-10.3603
▁gnarnia	-10.3603
▁humiliate	-10.3603
▁influence	-10.3603
▁lloyd	-10.3603
▁negative	-10.3603
▁paradise	-10.3603
▁resident	-10.3603
▁retreat	-10.3603
▁reverend	-10.3603
▁septimus	-10.3603
▁spectacular	-10.3603
▁staff	-10.3603
▁studies	-10.3603
▁survival	-10.3603
▁suspicious	-10.3603
▁texas	-10.3603
▁torture	-10.3603
▁zealand	-10.3603
▁aloha	-10.3603
▁defend	-10.3603
▁improve	-10.3603
▁instrument	-10.3603
▁mathalon	-10.3603
▁onao	-10.3603
▁toilet	-10.3603
▁threw	-10.3604
▁unlike	-10.3604
▁bonnie	-10.3604
▁thief	-10.3604
▁superior	-10.3604
▁fisherman	-10.3604
▁ease	-10.3604
▁silver	-10.3604
▁thump	-10.3604
▁erma	-10.3604
▁carpet	-10.3604
▁susan	-10.3604
▁sexual	-10.3604
▁apology	-10.3604
▁planned	-10.3604
▁version	-10.3604
▁network	-10.3604
▁intel	-10.3604
▁pipe	-10.3604
▁scholarship	-10.3604
burg	-10.3604
▁puppy	-10.3604
▁device	-10.3604
▁johan	-10.3604
▁gooz	-10.3604
▁choke	-10.3605
▁skinny	-10.3605
▁burt	-10.3605
▁fever	-10.3605
▁bovs	-10.3605
▁solid	-10.3606
▁stix	-10.3606
▁bucket	-10.3606
▁journalist	-10.3607
▁june	-10.3608
▁pike	-10.3608
▁gear	-10.3608
▁trina	-10.3608
▁branch	-10.3608
▁gabe	-10.3608
▁memo	-10.3608
▁magneto	-10.3609
▁boze	-10.3609
▁commitment	-10.361
▁youth	-10.361
▁blanket	-10.361
▁poker	-10.3611
▁hopefully	-10.3611
▁aside	-10.3612
▁entit	-10.3612
▁sanders	-10.3612
▁data	-10.3612
azz	-10.3613
▁katia	-10.3613
▁capable	-10.3614
▁swell	-10.3614
▁inner	-10.3616
▁forth	-10.3616
▁ranch	-10.3618
▁rare	-10.3619
▁tur	-10.362
▁friendship	-10.362
▁thatd	-10.3621
▁production	-10.3622
▁lame	-10.3622
▁dull	-10.3625
▁plain	-10.3626
▁era	-10.3627
▁uhoh	-10.3628
▁threatened	-10.3629
▁louise	-10.363
▁restore	-10.3636
▁required	-10.3636
▁pickup	-10.3637
▁matches	-10.3639
▁musical	-10.364
▁mass	-10.3641
▁visitor	-10.3641
▁ph	-10.3644
▁delivery	-10.365
▁embarrassed	-10.3651
▁boxes	-10.3653
▁goodlooking	-10.3654
▁convinced	-10.3656
▁haw	-10.3658
▁highest	-10.3665
▁lawn	-10.3665
inous	-10.367
▁blessing	-10.3673
▁kr	-10.3675
▁mud	-10.3686
▁gain	-10.369
▁seth	-10.3692
▁published	-10.3703
▁fry	-10.3707
▁quietly	-10.3707
▁ministers	-10.3716
ption	-10.3718
▁olive	-10.372
▁entirely	-10.3722
▁safer	-10.3722
ito	-10.3729
wasting	-10.373
▁caster	-10.3731
ttle	-10.3739
ddie	-10.3743
▁focused	-10.3746
▁ye	-10.3753
▁ham	-10.3763
▁kidnappers	-10.3768
▁yards	-10.3768
▁lower	-10.3775
▁wd	-10.3782
▁considering	-10.379
eight	-10.3803
▁freaking	-10.3806
▁communications	-10.382
ppy	-10.3822
▁movement	-10.3823
roll	-10.3827
ever	-10.3835
▁boot	-10.3848
▁messing	-10.3861
hop	-10.3869
▁traveling	-10.3874
uit	-10.392
iff	-10.3921
▁recorded	-10.393
▁ending	-10.3974
▁bare	-10.3986
▁prisoners	-10.3987
▁beeps	-10.4002
▁rank	-10.4011
▁standards	-10.4026
▁trusted	-10.408
▁marrying	-10.4095
looking	-10.4097
▁wheels	-10.4104
▁ani	-10.4121
▁how	-10.4125
can	-10.4129
atch	-10.4133
▁bark	-10.4133
▁magazines	-10.4156
poli	-10.4174
▁reports	-10.4182
▁flower	-10.4183
▁rankin	-10.4185
▁fart	-10.4191
▁fin	-10.4201
▁gunshots	-10.4209
▁understanding	-10.422
▁speaker	-10.4223
ters	-10.4252
▁gree	-10.4264
job	-10.428
▁fed	-10.4285
▁connect	-10.4317
▁checked	-10.4317
▁develop	-10.437
▁print	-10.4378
▁rap	-10.4382
▁disappoint	-10.4384
▁punish	-10.4386
▁spoil	-10.4388
▁design	-10.439
▁swi	-10.4394
▁suite	-10.4413
▁neighbors	-10.4422
▁current	-10.4422
▁distract	-10.4424
▁manchuria	-10.4427
▁religio	-10.4428
▁observ	-10.4431
▁moral	-10.4431
count	-10.4434
▁jung	-10.4435
▁scholar	-10.4436
▁basic	-10.4436
pack	-10.4436
▁corps	-10.4436
▁villa	-10.4437
▁slaughter	-10.4437
scrub	-10.4437
▁absurd	-10.4437
▁accus	-10.4437
▁adventure	-10.4437
▁alyssa	-10.4437
▁anthony	-10.4437
▁anxious	-10.4437
▁application	-10.4437
▁average	-10.4437
▁brodsky	-10.4437
▁century	-10.4437
▁certificate	-10.4437
▁cheerleading	-10.4437
▁debbie	-10.4437
▁disgrace	-10.4437
▁downhill	-10.4437
▁elevator	-10.4437
▁eleven	-10.4437
▁eugene	-10.4437
▁explode	-10.4437
▁extend	-10.4437
▁fiction	-10.4437
▁furniture	-10.4437
▁investigation	-10.4437
▁jacob	-10.4437
▁junior	-10.4437
▁kabul	-10.4437
▁keiying	-10.4437
▁kurtz	-10.4437
▁lesbian	-10.4437
▁lincoln	-10.4437
▁pellegrini	-10.4437
▁politics	-10.4437
▁puppet	-10.4437
▁puppies	-10.4437
▁rhythm	-10.4437
▁sabela	-10.4437
▁sheldon	-10.4437
▁shrimp	-10.4437
▁shrink	-10.4437
▁supreme	-10.4437
▁taafe	-10.4437
▁tetsuzo	-10.4437
▁throughout	-10.4437
▁tournament	-10.4437
▁towanda	-10.4437
▁velvet	-10.4437
▁vodka	-10.4437
▁wednesday	-10.4437
▁whinnies	-10.4437
▁whiskey	-10.4437
▁committee	-10.4437
▁creating	-10.4437
▁katrina	-10.4437
▁lyrics	-10.4437
▁prevent	-10.4437
▁radical	-10.4437
▁smack	-10.4437
▁steady	-10.4437
▁sweden	-10.4437
▁unique	-10.4437
▁butch	-10.4437
▁choking	-10.4437
▁dinesh	-10.4437
▁draft	-10.4437
▁reckon	-10.4437
▁canyon	-10.4437
▁lomu	-10.4437
▁modern	-10.4437
▁online	-10.4437
▁onlv	-10.4437
▁oblig	-10.4437
▁flesh	-10.4437
▁tammy	-10.4437
▁warrant	-10.4437
▁miller	-10.4437
▁stav	-10.4437
▁kelly	-10.4437
▁sensation	-10.4437
▁costume	-10.4437
▁couch	-10.4437
▁model	-10.4437
▁fond	-10.4437
▁mankind	-10.4437
▁wives	-10.4437
▁freezing	-10.4437
▁nickname	-10.4437
▁aslo	-10.4437
▁broadway	-10.4437
▁hugh	-10.4437
▁ravenwood	-10.4437
▁kasi	-10.4437
▁ashley	-10.4437
▁anger	-10.4437
▁emily	-10.4437
▁sobs	-10.4438
▁marcia	-10.4438
▁uncomfortable	-10.4438
▁eboat	-10.4438
▁gotcha	-10.4438
▁debt	-10.4438
▁woke	-10.4439
▁core	-10.4439
▁slice	-10.4439
▁formula	-10.4439
▁gatlin	-10.4439
▁committed	-10.444
▁western	-10.444
▁remark	-10.444
▁inspector	-10.444
▁margo	-10.444
urban	-10.444
▁aaah	-10.444
▁zoo	-10.4441
▁exchange	-10.4441
▁blast	-10.4442
▁practically	-10.4442
▁proof	-10.4442
▁paps	-10.4442
▁q	-10.4443
▁pawn	-10.4443
jar	-10.4444
▁satan	-10.4444
▁weakness	-10.4444
▁dip	-10.4447
▁ramp	-10.4447
▁fox	-10.4448
▁tender	-10.4448
▁chor	-10.4448
▁julien	-10.4448
▁barnes	-10.4448
▁moron	-10.4448
▁morales	-10.4449
▁dax	-10.4449
▁slave	-10.4449
▁sail	-10.4449
▁sew	-10.445
▁amma	-10.445
▁demon	-10.4451
▁stepped	-10.4453
▁aww	-10.4454
▁labor	-10.4456
▁bout	-10.4456
▁cul	-10.4457
▁oooh	-10.4458
▁satin	-10.4462
▁exclaiming	-10.4465
▁golden	-10.4466
▁shaken	-10.4466
▁complaint	-10.4468
▁frightened	-10.4468
▁heal	-10.4472
▁shipment	-10.4473
▁mini	-10.4475
▁lit	-10.4475
▁statement	-10.4475
▁july	-10.448
▁bond	-10.4481
▁willie	-10.4489
▁hunger	-10.4494
▁chat	-10.4496
beat	-10.4497
▁blessed	-10.4497
▁settled	-10.45
app	-10.4502
▁cryin	-10.4504
▁mustnt	-10.4504
▁coal	-10.4506
▁beaten	-10.4508
▁guide	-10.451
▁fallen	-10.4511
▁hired	-10.4512
▁billion	-10.4515
▁dresses	-10.4521
▁sweater	-10.4522
▁mixed	-10.4522
▁sale	-10.4522
▁bb	-10.4528
▁closest	-10.4541
▁fore	-10.456
▁entering	-10.4564
▁helpful	-10.4565
▁sink	-10.4571
▁mentioned	-10.4576
▁grav	-10.4578
▁fee	-10.4582
▁relationships	-10.4612
▁fairy	-10.4624
▁feeding	-10.4633
▁sol	-10.4643
▁murderer	-10.4653
▁socks	-10.4672
▁cooking	-10.4675
▁classic	-10.4692
▁heels	-10.47
▁elli	-10.4704
▁leni	-10.4707
▁reminds	-10.4754
wan	-10.476
▁range	-10.4761
▁hairy	-10.4785
ray	-10.4807
▁cleaned	-10.4823
iki	-10.4828
▁cigarettes	-10.487
bin	-10.4906
▁cleaning	-10.4922
▁holidays	-10.4926
▁panic	-10.4944
▁counting	-10.4956
▁rod	-10.4966
dding	-10.4966
▁yells	-10.4974
▁squeal	-10.4977
chi	-10.4983
come	-10.4984
▁booked	-10.5002
▁sponsors	-10.5028
▁ram	-10.5036
▁evan	-10.5046
▁victor	-10.5047
iy	-10.5049
▁tal	-10.5053
▁feelin	-10.5074
▁luca	-10.5078
▁bullets	-10.5086
▁anna	-10.5117
▁odds	-10.5122
▁tracks	-10.5136
sky	-10.5138
air	-10.5145
▁barb	-10.516
ix	-10.5163
▁bay	-10.5185
▁remains	-10.5215
▁disc	-10.5228
▁ut	-10.5241
▁trail	-10.5251
▁screech	-10.5275
▁wal	-10.5278
▁barn	-10.5284
▁abandon	-10.5299
▁weigh	-10.5309
lock	-10.5311
▁remove	-10.5313
place	-10.5321
▁buff	-10.5322
girl	-10.5326
cles	-10.5332
▁india	-10.5335
▁vin	-10.5336
▁mmhm	-10.5339
▁chuck	-10.5339
▁glo	-10.5344
▁nathan	-10.5345
titude	-10.5345
▁deploy	-10.5346
▁transform	-10.5346
▁trigger	-10.5346
▁ansarafina	-10.5346
▁assignment	-10.5346
▁associate	-10.5346
▁cadillac	-10.5346
▁celebration	-10.5346
▁celebrity	-10.5346
▁champagne	-10.5346
▁convention	-10.5346
▁corporation	-10.5346
▁dispatch	-10.5346
▁easily	-10.5346
▁elaheh	-10.5346
▁evolution	-10.5346
▁florida	-10.5346
▁gloomy	-10.5346
▁horror	-10.5346
▁hossein	-10.5346
▁independence	-10.5346
▁inspiration	-10.5346
▁instinct	-10.5346
▁integrity	-10.5346
▁jonathan	-10.5346
▁kennedy	-10.5346
▁knight	-10.5346
▁mysterious	-10.5346
▁nephew	-10.5346
▁noctis	-10.5346
▁october	-10.5346
▁priscilla	-10.5346
▁procedure	-10.5346
▁reflect	-10.5346
▁select	-10.5346
▁squeak	-10.5346
▁stadium	-10.5346
▁technique	-10.5346
▁terribly	-10.5346
▁tissue	-10.5346
▁tokyo	-10.5346
▁wealth	-10.5346
▁whimpers	-10.5346
▁assistant	-10.5346
▁cricket	-10.5346
▁disaster	-10.5346
▁graveyard	-10.5346
▁loretta	-10.5346
▁panama	-10.5346
▁promotion	-10.5346
▁relief	-10.5346
▁rotten	-10.5346
▁sikh	-10.5346
▁tragic	-10.5346
▁ulric	-10.5346
▁vienna	-10.5346
▁junk	-10.5346
▁pulse	-10.5346
▁supplie	-10.5346
▁budget	-10.5346
▁false	-10.5346
▁rumor	-10.5346
▁tully	-10.5346
▁stax	-10.5346
▁barrel	-10.5346
▁lemon	-10.5346
▁retard	-10.5346
▁revving	-10.5346
▁banned	-10.5346
▁apply	-10.5346
▁cathy	-10.5346
▁shore	-10.5346
▁daily	-10.5346
▁grey	-10.5346
▁pancake	-10.5346
▁kidnapped	-10.5346
▁invest	-10.5346
▁operate	-10.5346
▁canada	-10.5346
▁greg	-10.5346
▁sonnet	-10.5346
▁shining	-10.5346
▁priest	-10.5347
▁retirement	-10.5347
▁zazz	-10.5347
▁levinson	-10.5347
▁kevin	-10.5347
▁spray	-10.5347
▁firing	-10.5347
▁entertainment	-10.5348
▁communist	-10.5348
▁sharing	-10.5348
▁governor	-10.5348
▁diaper	-10.5348
▁pillow	-10.5348
▁clue	-10.5348
▁paperwork	-10.5348
▁wate	-10.5348
▁walsh	-10.5349
who	-10.5349
▁genetic	-10.5349
▁abilities	-10.5349
▁abortion	-10.5349
▁whatll	-10.5349
▁rattle	-10.5349
▁worn	-10.5349
▁nazi	-10.535
▁waking	-10.535
▁civilian	-10.535
▁sawyer	-10.535
▁mal	-10.535
▁hungary	-10.5351
▁cheek	-10.5352
▁jury	-10.5352
▁chew	-10.5352
▁motion	-10.5354
orna	-10.5354
▁balan	-10.5354
▁silent	-10.5355
▁pj	-10.5355
▁darn	-10.5355
▁ego	-10.5358
▁background	-10.5359
▁farmers	-10.5359
▁wales	-10.5359
▁carrier	-10.5359
▁appa	-10.5359
▁border	-10.536
▁gru	-10.536
▁castle	-10.5361
▁sins	-10.5361
▁coke	-10.5361
▁determined	-10.5363
▁grass	-10.5365
▁cries	-10.5365
▁provided	-10.5366
▁darkness	-10.5368
▁spoken	-10.537
▁roth	-10.537
▁producer	-10.5373
▁factor	-10.5374
▁tower	-10.5377
▁dougie	-10.5379
▁cove	-10.5379
▁impression	-10.538
▁pager	-10.5384
▁iii	-10.5386
▁negotiate	-10.5386
▁sharply	-10.5386
▁stable	-10.5387
▁cher	-10.5388
▁boil	-10.5388
lia	-10.5389
▁engaged	-10.5391
▁ash	-10.5392
▁coordinates	-10.5392
▁vampires	-10.5392
▁punished	-10.5398
▁sang	-10.54
▁palm	-10.54
▁pastor	-10.5401
▁witch	-10.5403
▁geez	-10.5407
▁bald	-10.5417
▁chester	-10.5421
▁checking	-10.5425
▁timing	-10.5428
▁separated	-10.5431
▁yah	-10.5436
▁pissed	-10.544
▁failing	-10.5446
▁former	-10.5456
omb	-10.5458
▁wasted	-10.5466
utton	-10.5473
▁atta	-10.5475
elle	-10.548
▁faithful	-10.5482
▁tracking	-10.5491
▁fighter	-10.5492
▁spying	-10.5492
▁net	-10.5492
▁busted	-10.5493
▁skills	-10.5513
▁cage	-10.5514
bit	-10.5532
▁peaceful	-10.5533
▁skaters	-10.5548
▁bend	-10.5564
▁bandy	-10.557
▁accepted	-10.5582
▁ace	-10.5593
▁rot	-10.5596
▁painter	-10.5598
▁daggers	-10.5605
▁returned	-10.561
▁boarding	-10.5625
▁citizens	-10.5635
▁tons	-10.5646
▁tag	-10.5659
▁tan	-10.568
▁pea	-10.5689
▁now	-10.5694
cia	-10.5714
ties	-10.572
▁hunter	-10.5723
ckey	-10.5776
▁fighters	-10.5791
▁snakes	-10.5791
▁killer	-10.5798
some	-10.5799
lan	-10.5801
▁affairs	-10.5823
▁tryin	-10.5834
▁glu	-10.5842
▁lawyers	-10.5854
▁kissing	-10.5924
ounce	-10.5926
▁prop	-10.5949
▁dreamed	-10.5952
▁testing	-10.6001
▁rider	-10.601
▁stall	-10.6025
▁citizen	-10.6035
cut	-10.6038
▁rag	-10.6064
▁rav	-10.6066
▁heel	-10.6071
lack	-10.6078
▁nut	-10.6081
▁cru	-10.6093
▁caused	-10.6154
oke	-10.6164
▁exception	-10.6174
▁rang	-10.6215
▁discover	-10.627
rous	-10.6272
▁mayer	-10.6273
▁clatter	-10.6287
▁bleed	-10.6289
▁invent	-10.6299
▁confirm	-10.6299
▁mob	-10.6299
▁complain	-10.6309
▁bla	-10.6311
q	-10.6314
▁libert	-10.6316
hood	-10.6316
▁plea	-10.6318
break	-10.6321
wood	-10.6324
▁whip	-10.6325
▁incredibl	-10.6325
bird	-10.6326
▁absolute	-10.6332
life	-10.634
▁brit	-10.6341
face	-10.6343
▁electric	-10.6343
▁livin	-10.6343
▁terror	-10.6343
▁detect	-10.6344
▁audi	-10.6345
yayayaya	-10.6346
▁accomplish	-10.6346
▁airplane	-10.6346
▁appeal	-10.6346
▁appetite	-10.6346
▁applaud	-10.6346
▁belgium	-10.6346
▁bertie	-10.6346
▁bizarre	-10.6346
▁budapest	-10.6346
▁burden	-10.6346
▁compassion	-10.6346
▁conscience	-10.6346
▁consort	-10.6346
▁consult	-10.6346
▁convict	-10.6346
▁convoy	-10.6346
▁custody	-10.6346
▁daemon	-10.6346
▁duchannes	-10.6346
▁dynamite	-10.6346
▁equikrom	-10.6346
▁erudite	-10.6346
▁eternity	-10.6346
▁eunuch	-10.6346
▁explanation	-10.6346
▁fernand	-10.6346
▁fortunate	-10.6346
▁illegal	-10.6346
▁individual	-10.6346
▁intelligent	-10.6346
▁intention	-10.6346
▁manhattan	-10.6346
▁massacre	-10.6346
▁measure	-10.6346
▁mehran	-10.6346
▁michael	-10.6346
▁microphone	-10.6346
▁mumbling	-10.6346
▁muttering	-10.6346
▁ordinary	-10.6346
▁powder	-10.6346
▁privilege	-10.6346
▁proposal	-10.6346
▁reconsider	-10.6346
▁refugee	-10.6346
▁regulation	-10.6346
▁roxeanne	-10.6346
▁sarafine	-10.6346
▁satisfaction	-10.6346
▁schwow	-10.6346
▁serving	-10.6346
▁smooth	-10.6346
▁sputter	-10.6346
▁stammers	-10.6346
▁stanley	-10.6346
▁struggle	-10.6346
▁survivor	-10.6346
▁switzerland	-10.6346
▁tehran	-10.6346
▁tenebrae	-10.6346
▁terrified	-10.6346
▁traitor	-10.6346
▁transmission	-10.6346
▁tshirt	-10.6346
▁typical	-10.6346
▁unusual	-10.6346
▁volume	-10.6346
▁vulgar	-10.6346
▁william	-10.6346
▁accent	-10.6346
▁battery	-10.6346
▁breach	-10.6346
▁darwin	-10.6346
▁hunch	-10.6346
▁memories	-10.6346
▁quality	-10.6346
▁struck	-10.6346
▁trunk	-10.6346
▁charity	-10.6346
▁cuba	-10.6346
▁motherfuck	-10.6346
▁shelter	-10.6346
▁skating	-10.6346
▁vernon	-10.6346
▁alpha	-10.6346
▁atkins	-10.6346
▁cuz	-10.6346
▁doorbell	-10.6346
▁pounding	-10.6346
▁tolerate	-10.6346
▁whew	-10.6346
conscious	-10.6346
▁theft	-10.6346
▁tux	-10.6346
▁spiritual	-10.6346
▁bodine	-10.6346
▁protest	-10.6346
▁awav	-10.6346
▁estate	-10.6346
▁ardent	-10.6346
▁doyle	-10.6346
▁drank	-10.6346
▁burst	-10.6346
▁sperm	-10.6346
▁reform	-10.6346
▁crowe	-10.6346
▁email	-10.6346
▁cease	-10.6346
▁gossip	-10.6346
▁lazy	-10.6346
▁flirt	-10.6346
▁confident	-10.6346
▁briefcase	-10.6346
▁series	-10.6346
▁generous	-10.6346
▁breed	-10.6347
▁tube	-10.6347
▁marvelous	-10.6347
▁sontee	-10.6347
▁multi	-10.6347
▁honour	-10.6347
▁theory	-10.6347
▁sunset	-10.6347
▁marshal	-10.6347
▁objective	-10.6347
▁duties	-10.6347
▁hitler	-10.6347
▁aircraft	-10.6348
▁ton	-10.6348
▁obey	-10.6348
▁skipper	-10.6348
▁digging	-10.6348
▁leather	-10.6348
▁regis	-10.6348
▁rasp	-10.6348
▁steam	-10.6348
▁failure	-10.6348
▁lurk	-10.6349
▁effective	-10.6349
▁diana	-10.6349
▁electricity	-10.6349
▁height	-10.6349
▁discipline	-10.6349
▁kansas	-10.6349
▁snapping	-10.6349
▁classified	-10.635
▁sentimental	-10.635
▁cruise	-10.635
▁maud	-10.635
▁stake	-10.6351
▁heartbreak	-10.6351
▁clam	-10.6352
▁sauce	-10.6352
▁blah	-10.6352
▁frick	-10.6353
▁possession	-10.6353
▁psychic	-10.6353
▁confession	-10.6353
▁bury	-10.6354
▁extraordinary	-10.6354
▁voiceover	-10.6355
▁react	-10.6356
▁airline	-10.6357
▁dose	-10.6359
▁ashes	-10.6359
▁pour	-10.6361
▁nasty	-10.6364
▁circumstances	-10.6365
▁everyday	-10.6366
▁jackson	-10.6366
▁semi	-10.6367
▁shave	-10.6368
▁currently	-10.6368
▁bean	-10.6369
▁norm	-10.637
▁andrey	-10.637
▁hush	-10.6374
▁graduate	-10.638
▁properly	-10.6382
▁prof	-10.6389
▁dug	-10.639
grad	-10.639
▁host	-10.6392
▁drowning	-10.6392
▁naturally	-10.6395
▁bucky	-10.6396
▁disappointed	-10.6404
arian	-10.6404
▁connected	-10.6404
▁earned	-10.6409
▁momma	-10.641
▁burr	-10.6411
▁kim	-10.6421
▁pep	-10.6423
▁suffered	-10.6425
▁refused	-10.6427
▁lend	-10.6427
▁wallet	-10.6427
▁photographer	-10.6434
▁adopted	-10.6434
▁heroes	-10.6435
▁suggested	-10.6435
▁released	-10.6437
▁shal	-10.6441
▁sis	-10.6442
▁packer	-10.6445
▁fade	-10.6453
▁escaped	-10.6462
▁mur	-10.6462
▁negotiations	-10.6464
nce	-10.6467
made	-10.6472
▁banging	-10.6476
▁charming	-10.6488
▁joint	-10.6491
▁homeless	-10.6501
▁bunk	-10.6524
▁arch	-10.6533
▁marker	-10.6541
feit	-10.6545
▁contin	-10.6548
▁kin	-10.6553
▁asia	-10.6557
▁marines	-10.6566
▁treating	-10.6567
▁screwing	-10.6599
▁stairs	-10.66
▁sau	-10.6605
▁crossed	-10.6608
▁eli	-10.6618
▁tin	-10.6622
▁begg	-10.6624
▁bothering	-10.6635
▁highly	-10.6658
▁vice	-10.6665
▁cle	-10.6672
▁coco	-10.6685
▁of	-10.67
▁diet	-10.6717
▁rely	-10.6721
▁sen	-10.6723
▁rape	-10.6724
▁shown	-10.6736
▁joining	-10.6737
▁fort	-10.6769
▁sham	-10.6781
▁leading	-10.6788
▁noon	-10.6804
ham	-10.6824
corn	-10.6833
▁sleepy	-10.6839
▁hiss	-10.6862
▁praying	-10.6864
cra	-10.688
▁siri	-10.6886
acy	-10.6891
▁mid	-10.6997
▁tease	-10.7011
▁aha	-10.7034
▁bak	-10.7036
city	-10.7087
inkle	-10.7121
▁dagger	-10.7146
▁communication	-10.7148
▁quarter	-10.7149
▁toward	-10.7154
▁sock	-10.7156
▁tire	-10.7159
▁guardian	-10.7169
guine	-10.7255
missary	-10.7325
iest	-10.7326
war	-10.7328
▁custom	-10.7334
▁dun	-10.7346
▁chee	-10.7349
▁hom	-10.7352
▁amy	-10.7354
▁critic	-10.7361
owing	-10.7385
▁bri	-10.7386
▁bio	-10.7393
▁swallow	-10.7408
▁surround	-10.741
▁medic	-10.7423
where	-10.7423
▁produce	-10.7424
▁corn	-10.7429
▁swor	-10.743
load	-10.7431
skull	-10.7436
know	-10.7437
walk	-10.7437
dog	-10.7438
burn	-10.744
▁object	-10.744
▁attract	-10.7445
▁blank	-10.7447
two	-10.7447
▁darlin	-10.745
▁iris	-10.7452
▁gorgon	-10.7456
ville	-10.7456
▁cigar	-10.7457
▁entertain	-10.7457
▁employ	-10.7457
▁amateur	-10.7457
▁instagram	-10.7457
▁interpret	-10.7457
▁almighty	-10.7457
▁appropriate	-10.7457
▁attempt	-10.7457
▁awkward	-10.7457
▁bleep	-10.7457
▁bolshevik	-10.7457
▁bonjour	-10.7457
▁cannon	-10.7457
▁central	-10.7457
▁cleaver	-10.7457
▁clifton	-10.7457
▁cognac	-10.7457
▁conduct	-10.7457
▁contrary	-10.7457
▁creative	-10.7457
▁deborah	-10.7457
▁destruction	-10.7457
▁dinosaur	-10.7457
▁diplomat	-10.7457
▁draisen	-10.7457
▁dreadful	-10.7457
▁elbow	-10.7457
▁eleanor	-10.7457
▁encounter	-10.7457
▁encourage	-10.7457
▁essential	-10.7457
▁eternal	-10.7457
▁eventually	-10.7457
▁exclusive	-10.7457
▁fantasy	-10.7457
▁fascinating	-10.7457
▁festival	-10.7457
▁filthy	-10.7457
▁fingerprint	-10.7457
▁fulfill	-10.7457
▁ghaffarian	-10.7457
▁gilbert	-10.7457
▁grammie	-10.7457
▁grenade	-10.7457
▁halberstrom	-10.7457
▁happier	-10.7457
▁headquarter	-10.7457
▁increas	-10.7457
▁industry	-10.7457
▁initiate	-10.7457
▁karoli	-10.7457
▁kenneth	-10.7457
▁laundry	-10.7457
▁loschek	-10.7457
▁lunafreya	-10.7457
▁manipulat	-10.7457
▁marilyn	-10.7457
▁mastronardi	-10.7457
▁mcdonald	-10.7457
▁messenger	-10.7457
▁minnesota	-10.7457
▁naughty	-10.7457
▁negro	-10.7457
▁nicholson	-10.7457
▁obsession	-10.7457
▁omega	-10.7457
▁orleans	-10.7457
▁parviz	-10.7457
▁perimeter	-10.7457
▁pilates	-10.7457
▁portrait	-10.7457
▁prescribe	-10.7457
▁rescue	-10.7457
▁scumbag	-10.7457
▁sensitive	-10.7457
▁seriozha	-10.7457
▁shakily	-10.7457
▁sheetz	-10.7457
▁siegfried	-10.7457
▁similar	-10.7457
▁socalled	-10.7457
▁sofoyan	-10.7457
▁solution	-10.7457
▁studied	-10.7457
▁surgeon	-10.7457
▁symbol	-10.7457
▁telepath	-10.7457
▁tennessee	-10.7457
▁thorough	-10.7457
▁tragedy	-10.7457
▁tumnus	-10.7457
▁unfair	-10.7457
▁vessel	-10.7457
▁violent	-10.7457
▁whimpering	-10.7457
▁adorable	-10.7457
▁afterwards	-10.7457
▁bokke	-10.7457
▁chilton	-10.7457
▁crisis	-10.7457
▁glamo	-10.7457
▁hazard	-10.7457
▁hobby	-10.7457
▁internet	-10.7457
▁matthew	-10.7457
▁plot	-10.7457
▁possibility	-10.7457
▁previous	-10.7457
▁scoop	-10.7457
▁turtle	-10.7457
▁vivian	-10.7457
▁worid	-10.7457
▁farewell	-10.7457
▁google	-10.7457
▁niece	-10.7457
▁phony	-10.7457
▁rival	-10.7457
▁adapt	-10.7457
▁debate	-10.7457
▁editor	-10.7457
▁pendant	-10.7457
▁precisely	-10.7457
▁squad	-10.7457
▁moira	-10.7457
▁permit	-10.7457
▁purse	-10.7457
▁scum	-10.7457
▁sipsey	-10.7457
▁assassin	-10.7457
▁wicked	-10.7457
▁shush	-10.7457
▁purp	-10.7457
▁krstic	-10.7457
▁pork	-10.7457
▁countries	-10.7457
▁throne	-10.7457
▁annoy	-10.7457
▁sheep	-10.7457
▁tramp	-10.7457
ogue	-10.7457
▁spider	-10.7457
▁roast	-10.7457
▁rib	-10.7457
▁aisle	-10.7457
▁statistic	-10.7457
▁underground	-10.7457
▁moaning	-10.7457
▁instructions	-10.7457
▁consum	-10.7457
▁jones	-10.7457
▁puzzle	-10.7458
▁whens	-10.7458
▁yardner	-10.7458
▁colorado	-10.7458
▁onion	-10.7458
▁ibs	-10.7458
▁harris	-10.7458
▁addict	-10.7458
▁facial	-10.7458
▁construction	-10.7459
▁economic	-10.7459
▁esther	-10.7459
▁chopper	-10.7459
▁chika	-10.7459
▁alike	-10.7459
▁blaze	-10.7459
▁jody	-10.7459
▁incompetent	-10.746
▁babysit	-10.746
▁howling	-10.746
▁curious	-10.746
▁compos	-10.7461
▁passionate	-10.7461
▁ouch	-10.7461
▁haircut	-10.7461
▁raising	-10.7461
▁virginia	-10.7462
▁amuse	-10.7462
▁chaos	-10.7463
▁priority	-10.7463
▁stream	-10.7463
▁brick	-10.7463
▁adam	-10.7464
▁crackling	-10.7464
▁clapping	-10.7464
▁marita	-10.7465
band	-10.7465
▁cue	-10.7465
▁pump	-10.7465
▁naked	-10.7466
▁showcase	-10.7467
▁chapter	-10.7467
new	-10.7467
▁foolish	-10.7467
▁yong	-10.7468
▁adore	-10.7468
▁advertisement	-10.7469
▁tug	-10.7469
▁lamb	-10.7469
▁religion	-10.7469
▁drunkard	-10.747
▁solo	-10.7472
▁rally	-10.7472
▁manual	-10.7473
▁distraction	-10.7474
▁clearance	-10.7475
▁mont	-10.7475
▁active	-10.7476
▁nora	-10.7477
▁flatter	-10.7478
▁freeway	-10.7479
▁highway	-10.7479
▁rach	-10.7482
▁bakery	-10.7484
▁captured	-10.7486
▁included	-10.7486
▁examin	-10.7487
▁presentation	-10.7489
▁tum	-10.7489
▁liberty	-10.7491
▁discovery	-10.7491
▁protection	-10.7493
▁partiz	-10.7495
▁sim	-10.7496
▁homework	-10.7506
▁advanced	-10.7509
▁gathering	-10.7511
▁poo	-10.7523
▁undress	-10.7526
▁boers	-10.7527
▁gen	-10.7531
▁squealing	-10.7534
▁gray	-10.7537
▁printing	-10.7539
▁dk	-10.754
ison	-10.7548
▁dorris	-10.7552
▁anne	-10.7557
ada	-10.7558
▁replaced	-10.7562
▁warned	-10.7567
▁normally	-10.7568
▁delivered	-10.7568
▁divin	-10.7574
▁howdy	-10.7574
▁recognized	-10.7575
▁damaged	-10.7576
▁backside	-10.7577
▁suggesting	-10.7582
▁cheating	-10.7583
▁kindness	-10.7589
▁trumps	-10.759
▁salad	-10.7591
▁receive	-10.7592
▁tax	-10.7592
▁cone	-10.76
▁ai	-10.7621
▁lace	-10.7622
▁cracked	-10.7625
▁divorced	-10.7626
▁bump	-10.7636
cca	-10.7648
▁don	-10.7648
▁hooked	-10.7654
▁tracker	-10.7657
▁quicker	-10.767
▁foundation	-10.7673
▁safely	-10.7688
▁wayne	-10.7692
▁dar	-10.7694
▁katie	-10.7719
▁diver	-10.7738
▁ku	-10.7739
▁pete	-10.774
▁formed	-10.7746
▁worthy	-10.7752
▁mag	-10.78
▁qua	-10.7801
▁cling	-10.7804
▁jumped	-10.7815
▁ny	-10.7822
▁boxing	-10.7828
▁fixing	-10.7844
▁kit	-10.7844
▁achieve	-10.7871
▁constant	-10.7904
▁ana	-10.7945
▁gram	-10.7967
▁thin	-10.7989
▁unto	-10.7999
idge	-10.8013
▁hum	-10.8035
▁dial	-10.8079
shit	-10.8091
▁bun	-10.81
▁sip	-10.8172
▁poster	-10.8182
▁manda	-10.8188
▁dealer	-10.8194
rows	-10.8218
llow	-10.8276
▁stair	-10.8399
▁sued	-10.8442
awn	-10.8458
vich	-10.852
itter	-10.8522
put	-10.8569
▁epi	-10.858
▁bv	-10.8585
alre	-10.8587
▁gather	-10.8601
teen	-10.8643
▁snarl	-10.8646
▁shatter	-10.8647
▁caus	-10.8651
▁confus	-10.8661
▁frighten	-10.8663
▁dom	-10.867
▁capture	-10.8674
▁include	-10.8676
plant	-10.8687
american	-10.8687
▁andre	-10.8687
school	-10.8687
three	-10.8687
child	-10.8688
free	-10.8689
▁jew	-10.869
mother	-10.8691
▁violat	-10.8698
▁goddam	-10.8699
anche	-10.8699
▁scan	-10.87
case	-10.8702
▁germ	-10.8702
oughs	-10.8703
▁bind	-10.8704
▁brenn	-10.8704
▁reception	-10.8704
▁trans	-10.8706
▁visual	-10.8706
▁casual	-10.8707
▁descend	-10.8707
▁vocal	-10.8707
▁adolescent	-10.8707
▁alabama	-10.8707
▁analyst	-10.8707
▁athens	-10.8707
▁australia	-10.8707
▁behalf	-10.8707
▁broomball	-10.8707
▁carnival	-10.8707
▁category	-10.8707
▁ceiling	-10.8707
▁chamberlain	-10.8707
▁compliment	-10.8707
▁credibility	-10.8707
▁defect	-10.8707
▁delicate	-10.8707
▁depressing	-10.8707
▁dessert	-10.8707
▁divergent	-10.8707
▁eagle	-10.8707
▁entrance	-10.8707
▁genevieve	-10.8707
▁gypsy	-10.8707
▁infrared	-10.8707
▁institution	-10.8707
▁intercept	-10.8707
▁introduction	-10.8707
▁invitation	-10.8707
▁janitor	-10.8707
▁judgment	-10.8707
▁kilowog	-10.8707
▁length	-10.8707
▁lonnie	-10.8707
▁luggage	-10.8707
▁maintenance	-10.8707
▁masembuko	-10.8707
▁mcbride	-10.8707
▁mcduff	-10.8707
▁mcnabb	-10.8707
▁mechanic	-10.8707
▁mehdi	-10.8707
▁merchandise	-10.8707
▁metaphor	-10.8707
▁mexican	-10.8707
▁mistletoe	-10.8707
▁narrow	-10.8707
▁neighing	-10.8707
▁orchestra	-10.8707
▁orlando	-10.8707
▁passengers	-10.8707
▁patience	-10.8707
▁philadelphia	-10.8707
▁pomegranate	-10.8707
▁primary	-10.8707
▁principle	-10.8707
▁proposition	-10.8707
▁protocol	-10.8707
▁refrigerator	-10.8707
▁regress	-10.8707
▁rehearse	-10.8707
▁reschedule	-10.8707
▁revival	-10.8707
▁scattered	-10.8707
▁scientist	-10.8707
▁skeleton	-10.8707
▁skunk	-10.8707
▁smuggl	-10.8707
▁sophisticated	-10.8707
▁spurlock	-10.8707
▁succeed	-10.8707
▁supple	-10.8707
▁surprising	-10.8707
▁taylor	-10.8707
▁temperature	-10.8707
▁thanksgiving	-10.8707
▁tremendous	-10.8707
▁triumph	-10.8707
▁tunnel	-10.8707
▁ursula	-10.8707
▁whirring	-10.8707
▁whitney	-10.8707
▁withdraw	-10.8707
▁activat	-10.8707
▁avenge	-10.8707
▁divide	-10.8707
▁fifth	-10.8707
▁grisha	-10.8707
▁overseas	-10.8707
▁seoul	-10.8707
▁turkey	-10.8707
▁walrus	-10.8707
▁wiggle	-10.8707
▁choir	-10.8707
▁cleanliness	-10.8707
▁instant	-10.8707
▁miserable	-10.8707
▁pattern	-10.8707
▁quote	-10.8707
▁robbie	-10.8707
▁sacred	-10.8707
▁shiro	-10.8707
▁shook	-10.8707
▁squat	-10.8707
▁storage	-10.8707
▁bandaid	-10.8707
▁collaborat	-10.8707
▁honeymoon	-10.8707
▁invade	-10.8707
▁italy	-10.8707
▁lambert	-10.8707
▁mummy	-10.8707
▁seduc	-10.8707
▁slightly	-10.8707
▁sorrow	-10.8707
▁spivey	-10.8707
▁hallowed	-10.8707
▁phase	-10.8707
▁after	-10.8707
▁mourn	-10.8707
▁bozo	-10.8707
▁occurred	-10.8707
▁ankle	-10.8707
▁creation	-10.8707
▁morris	-10.8707
▁presume	-10.8707
▁arena	-10.8707
▁clerk	-10.8707
▁tempt	-10.8707
▁pussy	-10.8707
▁bueno	-10.8707
▁churchill	-10.8707
▁frost	-10.8707
▁imitating	-10.8707
▁angle	-10.8707
▁cramp	-10.8707
▁strut	-10.8707
▁cootie	-10.8707
▁ellen	-10.8707
▁smith	-10.8707
▁karenin	-10.8707
▁courtesy	-10.8707
▁misery	-10.8707
▁tactic	-10.8707
▁desire	-10.8707
▁kidnapping	-10.8707
▁funky	-10.8708
▁iraq	-10.8708
▁spank	-10.8708
▁cried	-10.8708
▁consent	-10.8708
owski	-10.8708
▁beware	-10.8708
▁panties	-10.8708
▁hungarian	-10.8708
▁finley	-10.8708
▁collapse	-10.8708
▁cents	-10.8709
▁drones	-10.8709
▁rubber	-10.8709
▁growls	-10.8709
▁randle	-10.8709
▁golf	-10.8709
▁steak	-10.8709
▁polish	-10.8709
▁donne	-10.8709
▁massive	-10.871
▁banner	-10.871
▁seventeen	-10.871
▁slipped	-10.871
▁drill	-10.871
▁parade	-10.871
▁clink	-10.871
▁whatre	-10.8711
▁babysitter	-10.8711
▁poking	-10.8711
▁orson	-10.8711
▁supper	-10.8711
▁cherry	-10.8711
▁fluid	-10.8712
▁countess	-10.8712
▁comma	-10.8712
▁brennan	-10.8712
▁crane	-10.8712
▁juliana	-10.8712
▁tapping	-10.8712
▁goose	-10.8712
▁colla	-10.8712
▁manners	-10.8713
▁punishment	-10.8713
▁anthem	-10.8713
▁sober	-10.8714
▁humor	-10.8714
▁irish	-10.8714
▁identified	-10.8714
▁expectations	-10.8714
▁cuff	-10.8714
▁franklin	-10.8715
▁heartbeat	-10.8715
▁duper	-10.8715
▁affection	-10.8715
▁soda	-10.8716
right	-10.8716
▁observation	-10.8717
▁shade	-10.8717
▁territory	-10.8717
▁viper	-10.8718
▁suggestion	-10.8719
▁noble	-10.8719
▁loot	-10.8719
▁jeb	-10.8719
▁comment	-10.872
▁kidney	-10.8721
▁whoops	-10.8721
▁belcher	-10.8721
▁meanwhile	-10.8721
▁identity	-10.8721
▁injury	-10.8721
▁merrick	-10.8721
▁aboard	-10.8722
▁located	-10.8722
hunk	-10.8723
▁comic	-10.8723
▁breakdown	-10.8723
▁jose	-10.8723
▁replacement	-10.8723
▁chairman	-10.8724
▁surf	-10.8725
wept	-10.8725
▁constantly	-10.8727
▁keg	-10.8727
▁stain	-10.8728
acial	-10.8728
▁beef	-10.8729
▁adri	-10.8729
▁toll	-10.8729
▁dismissed	-10.873
▁injured	-10.873
▁quitting	-10.8731
▁glove	-10.8731
▁dragon	-10.8732
▁loan	-10.8732
▁ahem	-10.8735
▁mule	-10.8736
▁takin	-10.8736
▁artistic	-10.8737
chard	-10.8737
gie	-10.8738
▁tina	-10.874
▁corny	-10.8742
▁rug	-10.8744
▁comin	-10.8749
▁wolfe	-10.875
▁directly	-10.875
▁clanging	-10.8752
▁desperately	-10.8753
▁removed	-10.8753
▁forty	-10.8755
▁specialist	-10.8758
▁deeds	-10.876
▁rooty	-10.8762
▁discussion	-10.8763
▁milo	-10.8763
mine	-10.8766
▁heh	-10.8766
▁mum	-10.8767
▁shattering	-10.8768
▁web	-10.8769
▁baker	-10.8769
▁badass	-10.8769
▁setting	-10.877
▁wander	-10.877
▁metro	-10.8772
▁realise	-10.878
▁drain	-10.8785
▁defi	-10.8787
▁hopeless	-10.8788
▁developing	-10.8801
▁connecting	-10.8801
▁awarded	-10.8801
▁loudly	-10.8808
▁defeated	-10.8814
▁corpse	-10.8815
▁nailed	-10.8817
▁weed	-10.8818
▁takeoff	-10.8824
▁payment	-10.8833
▁gala	-10.8849
▁dolly	-10.885
▁sighing	-10.8854
▁sacrificed	-10.8855
▁passes	-10.8856
▁hood	-10.886
▁will	-10.8869
▁pole	-10.887
▁pissing	-10.8875
▁wounded	-10.888
▁bully	-10.8881
▁canceled	-10.8886
▁chin	-10.8888
▁churches	-10.8889
▁drown	-10.8894
▁tes	-10.8904
▁searching	-10.8915
▁performing	-10.8924
mature	-10.8954
▁packed	-10.8971
eem	-10.8988
▁fled	-10.9009
▁handler	-10.901
▁dock	-10.9048
▁robe	-10.9056
▁hump	-10.9084
▁mor	-10.9084
▁ou	-10.9104
▁lecture	-10.9117
nda	-10.9121
ggy	-10.9125
hair	-10.9149
▁content	-10.9176
vot	-10.9188
authorized	-10.9192
▁strap	-10.9199
▁mat	-10.9225
ij	-10.9228
▁outsider	-10.9249
▁beta	-10.9284
▁kar	-10.9301
▁peel	-10.9342
som	-10.9349
▁pun	-10.9388
▁inch	-10.9466
ological	-10.948
▁pale	-10.9527
▁transmitt	-10.9578
pow	-10.9657
▁mcc	-10.9721
dom	-10.976
take	-10.9782
ruce	-10.979
▁salt	-10.9817
▁document	-10.9826
▁kidnapper	-10.9827
▁marine	-10.9833
▁yard	-10.9833
▁bol	-10.984
▁sharpe	-10.9848
▁cord	-10.9856
▁that	-10.9869
ologist	-10.9874
▁receiv	-10.9876
▁skater	-10.9886
bound	-10.9895
rill	-10.9913
▁here	-10.9939
▁stat	-10.995
verse	-10.9952
▁thirteen	-10.9974
▁mist	-11.0014
egged	-11.002
▁threaten	-11.0049
▁inform	-11.0083
▁establish	-11.0087
▁choos	-11.0087
▁refer	-11.0089
▁provide	-11.0103
▁compare	-11.0104
▁guilt	-11.0106
▁colon	-11.0107
▁numb	-11.0109
mark	-11.011
▁definit	-11.0114
▁hack	-11.0114
yearold	-11.0115
natural	-11.0115
▁ferr	-11.0116
chief	-11.0117
seven	-11.0117
▁technical	-11.0117
▁immediate	-11.0118
attle	-11.0119
▁contemp	-11.0122
▁cloth	-11.0124
block	-11.0126
▁froze	-11.0127
▁commun	-11.0128
▁aaa	-11.013
▁abort	-11.0132
▁rocket	-11.0133
ruly	-11.0133
▁loyal	-11.0133
▁occur	-11.0136
precise	-11.0136
junction	-11.0136
significant	-11.0136
sufficient	-11.0136
▁acknowledge	-11.0136
▁aeroplane	-11.0136
▁alcazar	-11.0136
▁ancestors	-11.0136
▁applied	-11.0136
▁approval	-11.0136
▁arguing	-11.0136
▁assemble	-11.0136
▁bankrupt	-11.0136
▁bellefontaine	-11.0136
▁butler	-11.0136
▁catholic	-11.0136
▁cautious	-11.0136
▁caviar	-11.0136
▁celebrating	-11.0136
▁challenging	-11.0136
▁chateau	-11.0136
▁chemotherap	-11.0136
▁cocktail	-11.0136
▁columbia	-11.0136
▁cripple	-11.0136
▁crucial	-11.0136
▁cultural	-11.0136
▁deliberately	-11.0136
▁depression	-11.0136
▁distinct	-11.0136
▁dizzy	-11.0136
▁dmitrich	-11.0136
▁dunkirk	-11.0136
▁esteban	-11.0136
▁excitement	-11.0136
▁executive	-11.0136
▁exploit	-11.0136
▁exposure	-11.0136
▁extension	-11.0136
▁facility	-11.0136
▁formavale	-11.0136
▁fuzz	-11.0136
▁garbage	-11.0136
▁genuine	-11.0136
▁grief	-11.0136
▁guidance	-11.0136
▁habsburg	-11.0136
▁hokusai	-11.0136
▁hollister	-11.0136
▁identification	-11.0136
▁independent	-11.0136
▁kangaroo	-11.0136
▁kingsglaive	-11.0136
▁lrwin	-11.0136
▁magnificent	-11.0136
▁manuscript	-11.0136
▁margaret	-11.0136
▁maurice	-11.0136
▁melanchol	-11.0136
▁ministry	-11.0136
▁minstrels	-11.0136
▁mirhossein	-11.0136
▁montgomery	-11.0136
▁murdock	-11.0136
▁namaste	-11.0136
▁oldfashioned	-11.0136
▁operating	-11.0136
▁oppose	-11.0136
▁opposite	-11.0136
▁orinoco	-11.0136
▁oysters	-11.0136
▁parliament	-11.0136
▁patriot	-11.0136
▁perspective	-11.0136
▁pithons	-11.0136
▁pregnancy	-11.0136
▁primitive	-11.0136
▁regime	-11.0136
▁reuben	-11.0136
▁roosevelt	-11.0136
▁science	-11.0136
▁sermon	-11.0136
▁shakespeare	-11.0136
▁sholom	-11.0136
▁signature	-11.0136
▁squawk	-11.0136
▁squeeze	-11.0136
▁stammering	-11.0136
▁stiva	-11.0136
▁submarine	-11.0136
▁supply	-11.0136
▁suppress	-11.0136
▁transport	-11.0136
▁treasury	-11.0136
▁unexpected	-11.0136
▁vronsky	-11.0136
▁widow	-11.0136
▁wisdom	-11.0136
▁worship	-11.0136
▁yevtushenko	-11.0136
▁centuri	-11.0136
▁dolores	-11.0136
▁expense	-11.0136
▁explore	-11.0136
▁gallery	-11.0136
▁immortal	-11.0136
▁install	-11.0136
▁jocko	-11.0136
▁necklace	-11.0136
▁penalty	-11.0136
▁pineapple	-11.0136
▁reckless	-11.0136
▁slightest	-11.0136
▁stroke	-11.0136
▁stubborn	-11.0136
▁talbot	-11.0136
▁activit	-11.0136
▁assigned	-11.0136
▁cosmos	-11.0136
▁dignity	-11.0136
▁giddy	-11.0136
▁hallucinati	-11.0136
▁isolate	-11.0136
▁liquid	-11.0136
▁nashville	-11.0136
▁nitro	-11.0136
▁pelna	-11.0136
▁ralph	-11.0136
▁scoot	-11.0136
▁scrum	-11.0136
▁stutter	-11.0136
▁temple	-11.0136
▁vietnam	-11.0136
▁fossil	-11.0136
▁function	-11.0136
▁inventory	-11.0136
▁temper	-11.0136
▁cairo	-11.0136
▁caleb	-11.0136
▁denise	-11.0136
▁garsik	-11.0136
▁norway	-11.0136
▁related	-11.0136
▁satnin	-11.0136
▁veteran	-11.0136
▁basij	-11.0136
▁flaw	-11.0136
▁harvey	-11.0136
▁slug	-11.0136
▁thisll	-11.0136
▁whatsoever	-11.0136
▁actress	-11.0136
▁beaver	-11.0136
▁denver	-11.0136
▁employees	-11.0136
▁gennie	-11.0136
▁sausage	-11.0136
▁tackle	-11.0136
▁promoted	-11.0136
▁scam	-11.0136
▁method	-11.0136
▁motel	-11.0136
▁sweep	-11.0136
▁amusing	-11.0136
▁tucker	-11.0136
▁leslie	-11.0136
▁nancy	-11.0136
▁vital	-11.0136
▁concept	-11.0136
ndez	-11.0136
▁rico	-11.0136
▁denied	-11.0136
▁eighteen	-11.0136
▁pammie	-11.0136
▁bubbl	-11.0136
▁auto	-11.0136
▁casualties	-11.0136
▁assuming	-11.0136
▁oops	-11.0136
▁carrot	-11.0136
▁remote	-11.0136
▁inmates	-11.0136
▁tennis	-11.0136
▁impact	-11.0136
▁fiji	-11.0136
▁clark	-11.0136
▁hobbs	-11.0136
▁swaddl	-11.0136
▁interven	-11.0136
▁importance	-11.0136
▁spill	-11.0136
▁surface	-11.0136
▁reference	-11.0136
▁warden	-11.0136
▁salvation	-11.0136
▁fading	-11.0137
▁opium	-11.0137
▁seizure	-11.0137
▁orange	-11.0137
▁profile	-11.0137
▁random	-11.0137
▁splash	-11.0137
▁hahaha	-11.0137
▁translat	-11.0137
▁joanna	-11.0137
▁polite	-11.0137
▁harold	-11.0137
▁interior	-11.0137
▁gown	-11.0138
▁structure	-11.0138
▁viva	-11.0138
▁bingo	-11.0138
▁documentary	-11.0138
▁grip	-11.0138
▁ginger	-11.0138
satisf	-11.0138
▁loyalty	-11.0138
four	-11.0138
▁slipper	-11.0138
▁utter	-11.0139
▁disney	-11.0139
▁towel	-11.0139
▁upside	-11.0139
▁owns	-11.0139
▁penny	-11.0139
▁rudy	-11.0139
▁gavin	-11.0139
▁tribe	-11.0139
▁malta	-11.0139
▁vincent	-11.014
▁ridley	-11.014
▁beatles	-11.014
▁chico	-11.014
▁spoon	-11.014
▁tension	-11.014
▁pitts	-11.014
▁sequ	-11.014
▁percy	-11.0141
▁brid	-11.0141
▁arrival	-11.0141
▁existence	-11.0141
▁booze	-11.0142
▁dwell	-11.0142
▁cardboard	-11.0142
▁fold	-11.0143
▁glow	-11.0143
▁fame	-11.0143
▁accountant	-11.0144
▁labella	-11.0144
▁potatoes	-11.0144
▁raul	-11.0145
▁yum	-11.0145
▁booey	-11.0145
▁reverse	-11.0145
▁lucian	-11.0145
▁rice	-11.0145
▁selfless	-11.0147
▁tooth	-11.0147
▁basement	-11.0147
▁development	-11.0147
▁thud	-11.0148
that	-11.0148
▁greek	-11.0148
▁exposed	-11.0149
▁tori	-11.0149
▁graz	-11.0149
▁announcement	-11.0149
drop	-11.0149
▁anyou	-11.0149
▁shipping	-11.015
▁trembling	-11.015
▁salary	-11.015
▁nickel	-11.015
▁pinch	-11.0151
▁blonde	-11.0151
▁tomas	-11.0151
▁whine	-11.0151
▁diary	-11.0152
▁brace	-11.0152
▁childish	-11.0153
▁alley	-11.0153
▁screwup	-11.0153
▁technically	-11.0154
▁dropping	-11.0156
▁sealed	-11.0157
▁ninety	-11.0158
pierre	-11.0159
▁forgiveness	-11.016
khan	-11.016
▁vari	-11.016
▁blazin	-11.0161
▁creepy	-11.0162
▁doomed	-11.0162
▁elected	-11.0162
▁patch	-11.0163
▁fuss	-11.0163
▁skull	-11.0163
▁inspired	-11.0164
▁dna	-11.0165
▁standby	-11.0165
▁litter	-11.0165
▁raw	-11.0165
▁personality	-11.0166
▁colony	-11.0166
▁sack	-11.0167
▁rejected	-11.017
▁wrecked	-11.017
▁kess	-11.017
▁bolsh	-11.017
ssign	-11.017
▁devi	-11.017
▁cooper	-11.0171
▁tomar	-11.0173
▁louie	-11.0174
▁sincerely	-11.0175
▁crashes	-11.0175
▁cave	-11.0177
nuts	-11.0178
▁pta	-11.018
▁fearless	-11.018
▁levin	-11.0181
▁runway	-11.0181
▁messinger	-11.0181
▁established	-11.0185
▁informed	-11.0185
▁kent	-11.0189
▁sickness	-11.019
uerto	-11.0191
▁iv	-11.0192
▁gathered	-11.0193
▁hacking	-11.0197
▁threatening	-11.0197
▁paula	-11.0199
▁cit	-11.0199
▁swallowed	-11.02
▁teenager	-11.0202
▁mistaken	-11.0203
▁zu	-11.0206
▁snarling	-11.0207
▁setup	-11.021
▁armor	-11.0218
▁useful	-11.0218
▁showtime	-11.0219
▁spoiled	-11.0223
▁swe	-11.0227
▁jr	-11.0227
▁homeland	-11.0234
▁dearest	-11.0241
berg	-11.0248
▁dominate	-11.025
▁careless	-11.025
▁strain	-11.0253
▁cable	-11.0253
▁vouch	-11.0256
▁rear	-11.0261
▁scored	-11.0262
constructive	-11.0271
▁hint	-11.0273
▁edo	-11.029
▁willy	-11.03
▁anthe	-11.0311
drew	-11.0315
▁bold	-11.0316
▁mow	-11.032
▁spam	-11.0337
▁what	-11.0381
▁kai	-11.0396
▁hub	-11.0415
▁exceptional	-11.044
▁jackie	-11.0549
▁victoria	-11.059
▁fianc	-11.0633
crow	-11.0654
ipping	-11.0658
lapping	-11.067
awa	-11.0727
ament	-11.0731
▁eu	-11.0734
uda	-11.0735
▁glue	-11.0759
▁advise	-11.0887
lash	-11.0926
jan	-11.0939
ado	-11.0945
▁spar	-11.0946
▁annu	-11.0964
▁vil	-11.097
▁herm	-11.099
about	-11.1016
▁predict	-11.1016
▁dishe	-11.1022
▁scale	-11.1036
▁constantin	-11.1124
clip	-11.1248
master	-11.1277
▁simpl	-11.1309
▁baron	-11.1333
ridge	-11.1485
trivi	-11.1485
▁springbok	-11.1495
▁skill	-11.1507
▁missile	-11.154
this	-11.1554
owned	-11.1605
addle	-11.1635
▁domin	-11.1691
▁escap	-11.1705
keeper	-11.1713
logical	-11.1714
▁chan	-11.1739
▁exclaim	-11.1743
▁gradua	-11.1744
▁clang	-11.1749
home	-11.176
▁poke	-11.1767
▁should	-11.1769
▁inspire	-11.1769
ification	-11.1769
▁determine	-11.177
▁creep	-11.1772
▁dive	-11.1779
play	-11.1782
▁irre	-11.1783
yeah	-11.1783
▁unfortunate	-11.1785
▁rewrit	-11.1789
▁possess	-11.179
aught	-11.1795
▁adjust	-11.1795
▁inspect	-11.1796
▁leavin	-11.1798
ology	-11.18
▁francis	-11.1801
▁wretch	-11.1802
▁abroad	-11.1802
▁acquisition	-11.1802
▁analysis	-11.1802
▁archduke	-11.1802
▁argentina	-11.1802
▁argument	-11.1802
▁arizona	-11.1802
▁arrogant	-11.1802
▁authorities	-11.1802
▁autograph	-11.1802
▁beneath	-11.1802
▁bernard	-11.1802
▁blueberry	-11.1802
▁bumblebee	-11.1802
▁calendar	-11.1802
▁casbah	-11.1802
▁censor	-11.1802
▁chocki	-11.1802
▁cleveland	-11.1802
▁clutter	-11.1802
▁coincidence	-11.1802
▁condemn	-11.1802
▁context	-11.1802
▁contribution	-11.1802
▁crocodile	-11.1802
▁daphne	-11.1802
▁disagree	-11.1802
▁disguise	-11.1802
▁earthquake	-11.1802
▁educated	-11.1802
▁electronic	-11.1802
▁eliminate	-11.1802
▁enhance	-11.1802
▁enormous	-11.1802
▁evacuation	-11.1802
▁execute	-11.1802
▁exhibit	-11.1802
▁financial	-11.1802
▁flotilla	-11.1802
▁forecast	-11.1802
▁fundamental	-11.1802
▁furthermore	-11.1802
▁garrison	-11.1802
▁granddaughter	-11.1802
▁graphic	-11.1802
▁greenbrier	-11.1802
▁grind	-11.1802
▁guacamole	-11.1802
▁gurls	-11.1802
▁happily	-11.1802
▁homosexual	-11.1802
▁hukilau	-11.1802
▁humiliation	-11.1802
▁hutterite	-11.1802
▁ignora	-11.1802
▁imagination	-11.1802
▁infinite	-11.1802
▁interfere	-11.1802
▁intimate	-11.1802
▁intolera	-11.1802
▁isolation	-11.1802
▁judging	-11.1802
▁kebab	-11.1802
▁knives	-11.1802
▁league	-11.1802
▁lothario	-11.1802
▁lucrative	-11.1802
▁lunatic	-11.1802
▁luxury	-11.1802
▁mactaggert	-11.1802
▁malibu	-11.1802
▁mccawley	-11.1802
▁melody	-11.1802
▁microwave	-11.1802
▁misunderstood	-11.1802
▁monica	-11.1802
▁monroe	-11.1802
▁morphine	-11.1802
▁motivat	-11.1802
▁mozart	-11.1802
▁mutters	-11.1802
▁mystique	-11.1802
▁nikolai	-11.1802
▁nowadays	-11.1802
▁nympho	-11.1802
▁obedient	-11.1802
▁oconnor	-11.1802
▁onstage	-11.1802
▁opposition	-11.1802
▁oscar	-11.1802
▁ovarian	-11.1802
▁ovaries	-11.1802
▁pajamas	-11.1802
▁parachute	-11.1802
▁phyllis	-11.1802
▁picasso	-11.1802
▁pilgrim	-11.1802
▁radioactive	-11.1802
▁recruit	-11.1802
▁reinhardt	-11.1802
▁resources	-11.1802
▁revealed	-11.1802
▁ritual	-11.1802
▁riviera	-11.1802
▁rubbish	-11.1802
▁scotch	-11.1802
▁scotland	-11.1802
▁slurping	-11.1802
▁soccer	-11.1802
▁spritze	-11.1802
▁stranded	-11.1802
▁strategy	-11.1802
▁telegram	-11.1802
▁tempora	-11.1802
▁transaction	-11.1802
▁trolley	-11.1802
▁tucson	-11.1802
▁universal	-11.1802
▁uptight	-11.1802
▁vasquez	-11.1802
▁vomit	-11.1802
▁wardrobe	-11.1802
▁warrensmith	-11.1802
▁worries	-11.1802
▁yankees	-11.1802
▁youtube	-11.1802
indulge	-11.1802
tensive	-11.1802
▁bounty	-11.1802
▁brazil	-11.1802
▁buttanda	-11.1802
▁dispose	-11.1802
▁embrace	-11.1802
▁gesture	-11.1802
▁initial	-11.1802
▁jessie	-11.1802
▁jonah	-11.1802
▁kiwi	-11.1802
▁lonesome	-11.1802
▁mercedes	-11.1802
▁overnight	-11.1802
▁parole	-11.1802
▁resort	-11.1802
▁resume	-11.1802
▁robinson	-11.1802
▁runnerup	-11.1802
▁scientific	-11.1802
▁shelby	-11.1802
▁unknown	-11.1802
▁valuable	-11.1802
▁vartan	-11.1802
▁baggage	-11.1802
▁booboo	-11.1802
▁handcuff	-11.1802
▁holland	-11.1802
▁instance	-11.1802
▁marcus	-11.1802
▁metasta	-11.1802
▁neutr	-11.1802
▁pencil	-11.1802
▁probation	-11.1802
▁razor	-11.1802
▁troglo	-11.1802
▁gordon	-11.1802
▁investigate	-11.1802
▁soaked	-11.1802
▁stereo	-11.1802
▁tutor	-11.1802
▁infant	-11.1802
▁sync	-11.1802
▁bishop	-11.1802
▁frown	-11.1802
▁savior	-11.1802
▁thumb	-11.1802
migration	-11.1802
▁clamoring	-11.1802
▁echoing	-11.1802
▁gerard	-11.1802
▁gospel	-11.1802
▁kaylee	-11.1802
▁sarah	-11.1802
▁mansoor	-11.1802
▁slut	-11.1802
▁bicycle	-11.1802
▁competing	-11.1802
▁juror	-11.1802
▁rump	-11.1802
▁candor	-11.1802
▁decade	-11.1802
▁stabbed	-11.1802
▁stunt	-11.1802
▁confine	-11.1802
▁depth	-11.1802
▁betcha	-11.1802
▁knot	-11.1802
▁dodge	-11.1802
historic	-11.1802
▁indicat	-11.1802
▁roaches	-11.1802
▁lodge	-11.1802
▁allerg	-11.1802
▁bloom	-11.1802
▁grocer	-11.1802
▁sideburns	-11.1802
▁tahoe	-11.1802
▁thudding	-11.1802
▁snoop	-11.1803
▁burger	-11.1803
corporate	-11.1803
▁shuttle	-11.1803
▁waving	-11.1803
▁deteriorat	-11.1803
▁untie	-11.1803
▁crunch	-11.1803
▁persand	-11.1803
▁dialogue	-11.1803
▁vear	-11.1803
▁housing	-11.1803
▁alternative	-11.1803
▁rising	-11.1803
▁brenda	-11.1803
▁shiny	-11.1803
▁yelp	-11.1803
▁naomi	-11.1803
▁qualifie	-11.1803
▁substitute	-11.1803
▁susie	-11.1803
▁denmark	-11.1803
▁preparations	-11.1803
▁slayer	-11.1803
▁whining	-11.1803
▁conclude	-11.1803
▁shabb	-11.1803
▁antoine	-11.1803
▁hatred	-11.1803
▁grape	-11.1803
▁pumpkin	-11.1803
▁iceberg	-11.1803
▁display	-11.1803
▁masterpiece	-11.1803
▁twentytwo	-11.1803
▁scheme	-11.1803
▁domingo	-11.1804
▁communism	-11.1804
▁electro	-11.1804
▁preview	-11.1804
▁mobile	-11.1804
▁swift	-11.1804
▁ofem	-11.1804
phrase	-11.1804
▁compound	-11.1804
origin	-11.1804
▁stitch	-11.1804
▁involvement	-11.1804
▁jeanpierre	-11.1804
▁mamamama	-11.1804
▁tryouts	-11.1804
▁catherine	-11.1804
▁twentyfive	-11.1805
▁organized	-11.1805
▁finance	-11.1805
▁flashlight	-11.1805
▁tango	-11.1805
▁attractive	-11.1805
▁jammed	-11.1805
▁linda	-11.1805
▁championship	-11.1805
▁mask	-11.1805
▁agenda	-11.1805
▁register	-11.1805
▁addition	-11.1805
▁globo	-11.1805
name	-11.1806
▁sector	-11.1806
▁comedian	-11.1806
▁patron	-11.1806
▁blade	-11.1806
▁bacon	-11.1806
▁baseball	-11.1806
▁feedback	-11.1806
▁youyou	-11.1806
▁instructor	-11.1806
▁hmph	-11.1807
▁wench	-11.1807
▁greet	-11.1807
▁harass	-11.1807
▁truce	-11.1807
▁occasionally	-11.1807
▁courtney	-11.1807
▁swap	-11.1807
▁salud	-11.1807
cott	-11.1808
▁engagement	-11.1808
▁cities	-11.1808
▁icon	-11.1808
▁inevitable	-11.1809
▁participate	-11.1809
▁canine	-11.1809
hoohoo	-11.1809
ault	-11.181
▁alison	-11.1811
▁yea	-11.1811
▁reaction	-11.1811
▁graceland	-11.1811
▁definite	-11.1811
▁neat	-11.1812
▁chum	-11.1812
▁booby	-11.1812
▁equality	-11.1812
▁crust	-11.1812
▁factionless	-11.1813
▁robot	-11.1813
▁species	-11.1814
▁balance	-11.1814
▁scro	-11.1815
▁violation	-11.1815
▁loop	-11.1815
▁stove	-11.1815
▁equi	-11.1815
▁pushkin	-11.1815
▁cind	-11.1817
▁karp	-11.1817
▁footage	-11.1818
▁waist	-11.1818
▁burm	-11.1819
▁minus	-11.1819
▁imply	-11.1819
▁scalp	-11.182
cake	-11.182
▁headache	-11.1821
▁manchurian	-11.1822
▁joan	-11.1822
▁twink	-11.1822
▁wholl	-11.1825
▁dix	-11.1826
▁screeches	-11.1826
▁epic	-11.1827
▁cass	-11.1827
▁tore	-11.1828
▁rome	-11.1828
▁consideration	-11.1829
▁paw	-11.1829
▁rick	-11.183
▁carried	-11.1831
▁coverage	-11.1832
▁latin	-11.1832
▁josh	-11.1832
▁marion	-11.1834
▁mustache	-11.1834
▁fitting	-11.1835
▁fries	-11.1836
▁poked	-11.1836
▁foil	-11.1838
▁flush	-11.184
▁haul	-11.1841
▁roman	-11.1841
▁bait	-11.1842
▁ferry	-11.1842
▁rebe	-11.1843
▁jell	-11.1843
▁augusta	-11.1847
▁salva	-11.1848
▁copies	-11.1848
▁controlled	-11.1848
▁sore	-11.185
▁gig	-11.1858
▁awaken	-11.1859
▁generate	-11.1861
▁mamama	-11.1864
▁sixty	-11.1865
▁criticize	-11.1865
term	-11.1866
▁oughta	-11.1867
▁lane	-11.1875
▁booma	-11.1875
▁lust	-11.1876
▁ditch	-11.1877
▁haha	-11.1881
▁wanda	-11.1883
▁barf	-11.1899
▁bass	-11.1907
▁coma	-11.1912
stone	-11.1945
▁tow	-11.1948
▁wend	-11.195
cide	-11.1966
▁dumbass	-11.1982
▁jest	-11.2052
▁addie	-11.2068
ladder	-11.2069
oodle	-11.2083
▁pose	-11.2117
tobe	-11.215
oro	-11.2176
ji	-11.2197
chen	-11.2221
nsky	-11.2224
▁gap	-11.2225
▁peach	-11.2246
▁harp	-11.2297
▁mccl	-11.2315
▁magical	-11.2372
▁concentrat	-11.2447
coat	-11.2491
amma	-11.2565
▁wen	-11.2575
▁fog	-11.2595
▁easter	-11.268
rome	-11.2793
upper	-11.2806
▁hoop	-11.2836
udge	-11.2862
mobil	-11.2908
▁pile	-11.2988
track	-11.3145
▁stac	-11.3197
▁plum	-11.3225
frame	-11.338
bbing	-11.3417
▁groan	-11.346
▁bridesmaid	-11.3497
▁discre	-11.3568
▁chang	-11.3575
dressed	-11.3645
▁replac	-11.3697
ought	-11.37
▁nurs	-11.3709
▁prepar	-11.3734
▁profession	-11.3743
▁ruff	-11.3744
▁creak	-11.3745
▁reject	-11.3753
▁wreck	-11.3753
▁carrie	-11.3763
▁involve	-11.3769
▁ooo	-11.3771
acco	-11.3774
view	-11.3775
range	-11.3777
craft	-11.378
▁beck	-11.378
▁blond	-11.378
▁steel	-11.378
jump	-11.3781
▁belch	-11.3781
▁coop	-11.3781
minute	-11.3782
world	-11.3782
bearing	-11.3783
while	-11.3784
▁pape	-11.3787
▁potato	-11.379
jack	-11.3791
lalala	-11.3794
▁raisin	-11.3795
▁weddin	-11.3796
▁import	-11.38
▁retire	-11.38
▁marvel	-11.3801
▁relation	-11.3802
▁powwow	-11.3802
▁resembl	-11.3802
▁sketch	-11.3802
chemistry	-11.3802
evski	-11.3802
nclusive	-11.3802
responsibilities	-11.3802
▁accurate	-11.3802
▁acquire	-11.3802
▁aerobics	-11.3802
▁announcing	-11.3802
▁arcade	-11.3802
▁architect	-11.3802
▁artificial	-11.3802
▁aspect	-11.3802
▁atlanta	-11.3802
▁bazooka	-11.3802
▁benedict	-11.3802
▁benjamin	-11.3802
▁beverage	-11.3802
▁bodyguards	-11.3802
▁bofferd	-11.3802
▁bradshaw	-11.3802
▁brooklyn	-11.3802
▁bypass	-11.3802
▁cellphone	-11.3802
▁circuit	-11.3802
▁clumsy	-11.3802
▁cockroach	-11.3802
▁colada	-11.3802
▁competitor	-11.3802
▁comprende	-11.3802
▁conceive	-11.3802
▁concussion	-11.3802
▁conflict	-11.3802
▁consequence	-11.3802
▁counsel	-11.3802
▁crazier	-11.3802
▁cubes	-11.3802
▁deceased	-11.3802
▁decoration	-11.3802
▁demonstration	-11.3802
▁depressed	-11.3802
▁desperation	-11.3802
▁disconnect	-11.3802
▁distribution	-11.3802
▁doolittle	-11.3802
▁dottie	-11.3802
▁duguav	-11.3802
▁economy	-11.3802
▁effmann	-11.3802
▁enforcement	-11.3802
▁error	-11.3802
▁evervthing	-11.3802
▁fantasies	-11.3802
▁feature	-11.3802
▁fertilizer	-11.3802
▁figuring	-11.3802
▁fontaine	-11.3802
▁forbid	-11.3802
▁fountain	-11.3802
▁fragile	-11.3802
▁frequency	-11.3802
▁frequently	-11.3802
▁frustrated	-11.3802
▁gaijin	-11.3802
▁ganthet	-11.3802
▁gracious	-11.3802
▁hayride	-11.3802
▁hazelnuts	-11.3802
▁helicopter	-11.3802
▁henderson	-11.3802
▁hendry	-11.3802
▁hypocrit	-11.3802
▁imprison	-11.3802
▁incapable	-11.3802
▁ingredient	-11.3802
▁inspiring	-11.3802
▁intellectual	-11.3802
▁interstate	-11.3802
▁intimidating	-11.3802
▁invisible	-11.3802
▁irrelevant	-11.3802
▁ismay	-11.3802
▁jessica	-11.3802
▁jetblue	-11.3802
▁juilliard	-11.3802
▁kamata	-11.3802
▁kostya	-11.3802
▁kristine	-11.3802
▁larabee	-11.3802
▁larissa	-11.3802
▁liquor	-11.3802
▁lobby	-11.3802
▁loudspeaker	-11.3802
▁lutheran	-11.3802
▁mehrtens	-11.3802
▁miguel	-11.3802
▁mushroom	-11.3802
▁mystery	-11.3802
▁narcissist	-11.3802
▁necessarily	-11.3802
▁neighbour	-11.3802
▁neuromarketing	-11.3802
▁nielsen	-11.3802
▁nonetheless	-11.3802
▁northeast	-11.3802
▁occupie	-11.3802
▁odessa	-11.3802
▁oohwhee	-11.3802
▁operator	-11.3802
▁opportunities	-11.3802
▁ordnance	-11.3802
▁organization	-11.3802
▁palardis	-11.3802
▁pentagon	-11.3802
▁petunia	-11.3802
▁physician	-11.3802
▁pienaar	-11.3802
▁practicing	-11.3802
▁prevail	-11.3802
▁purchase	-11.3802
▁qualities	-11.3802
▁radiation	-11.3802
▁rafferty	-11.3802
▁ranakar	-11.3802
▁rehearsing	-11.3802
▁reinforce	-11.3802
▁resolve	-11.3802
▁rhyme	-11.3802
▁robicheaux	-11.3802
▁safaa	-11.3802
▁safeguard	-11.3802
▁santantonio	-11.3802
▁sebastian	-11.3802
▁secrecy	-11.3802
▁siblings	-11.3802
▁sleeve	-11.3802
▁snezhana	-11.3802
▁somewhat	-11.3802
▁sorokina	-11.3802
▁splendid	-11.3802
▁squash	-11.3802
▁starbucks	-11.3802
▁striptease	-11.3802
▁sullivan	-11.3802
▁superhero	-11.3802
▁suspicion	-11.3802
▁tamtam	-11.3802
▁teii	-11.3802
▁teresa	-11.3802
▁terranova	-11.3802
▁therapy	-11.3802
▁thrashed	-11.3802
▁titmarch	-11.3802
▁tobias	-11.3802
▁turmoil	-11.3802
▁ultrasound	-11.3802
▁uncharted	-11.3802
▁undercover	-11.3802
▁underestimate	-11.3802
▁valdosta	-11.3802
▁vitamin	-11.3802
▁vourself	-11.3802
▁warlord	-11.3802
▁worms	-11.3802
▁wrestle	-11.3802
▁xavier	-11.3802
▁yawpy	-11.3802
▁yoohoo	-11.3802
▁zenjirou	-11.3802
▁behavior	-11.3802
▁beyonc	-11.3802
▁boundaries	-11.3802
▁bruise	-11.3802
▁bullseye	-11.3802
▁bunnies	-11.3802
▁calculat	-11.3802
▁cloak	-11.3802
▁conquer	-11.3802
▁correspond	-11.3802
▁dallas	-11.3802
▁dubai	-11.3802
▁flavor	-11.3802
▁fluffy	-11.3802
▁francine	-11.3802
▁gasoline	-11.3802
▁identify	-11.3802
▁jenny	-11.3802
▁levade	-11.3802
▁lifestyle	-11.3802
▁merci	-11.3802
▁montana	-11.3802
▁overthrow	-11.3802
▁penthouse	-11.3802
▁plunge	-11.3802
▁population	-11.3802
▁quivering	-11.3802
▁refresh	-11.3802
▁repair	-11.3802
▁revolv	-11.3802
▁shield	-11.3802
▁souvenir	-11.3802
▁stanford	-11.3802
▁sunshine	-11.3802
▁tempest	-11.3802
▁trauma	-11.3802
▁upstage	-11.3802
▁virtu	-11.3802
▁whickers	-11.3802
▁wrath	-11.3802
▁beverly	-11.3802
▁bruton	-11.3802
▁caution	-11.3802
▁curator	-11.3802
▁erotic	-11.3802
▁esteem	-11.3802
▁insult	-11.3802
▁laptop	-11.3802
▁mizz	-11.3802
▁seminar	-11.3802
▁substance	-11.3802
▁arrow	-11.3802
▁bracelet	-11.3802
▁chute	-11.3802
▁imminent	-11.3802
▁kitten	-11.3802
▁venture	-11.3802
▁welch	-11.3802
▁yummy	-11.3802
▁bluff	-11.3802
▁distribute	-11.3802
▁perpet	-11.3802
▁brett	-11.3802
▁buddha	-11.3802
▁flutter	-11.3802
▁hamlet	-11.3802
▁harvest	-11.3802
▁lizard	-11.3802
▁pistol	-11.3802
▁reliable	-11.3802
▁shotgun	-11.3802
▁tummy	-11.3802
▁eager	-11.3802
▁irene	-11.3802
▁mccoy	-11.3802
▁pettinger	-11.3802
▁brute	-11.3802
▁cotton	-11.3802
▁pollute	-11.3802
▁rodeo	-11.3802
▁atom	-11.3802
▁jeep	-11.3802
▁raspberr	-11.3802
▁urine	-11.3802
▁brutal	-11.3802
▁crib	-11.3802
▁jingling	-11.3802
▁millionaire	-11.3802
▁pause	-11.3802
▁slick	-11.3802
▁sustain	-11.3802
▁swat	-11.3802
▁brigad	-11.3802
▁nipples	-11.3802
▁knit	-11.3802
▁decoy	-11.3802
▁entry	-11.3802
▁tanya	-11.3802
▁wiring	-11.3802
▁arise	-11.3802
▁personnel	-11.3802
▁emilia	-11.3802
▁gently	-11.3802
▁buddies	-11.3802
▁choreograph	-11.3802
▁dragged	-11.3802
▁weep	-11.3802
▁craving	-11.3802
▁odor	-11.3802
▁envy	-11.3803
▁micro	-11.3803
▁petersburg	-11.3803
▁serum	-11.3803
▁segu	-11.3803
▁pigeon	-11.3803
▁mouse	-11.3803
exhaust	-11.3803
▁grabbed	-11.3803
▁jingle	-11.3803
▁detonate	-11.3803
▁transferred	-11.3803
▁hippie	-11.3803
▁goddess	-11.3803
▁vows	-11.3803
inhabit	-11.3803
▁dyna	-11.3803
▁dosto	-11.3803
▁rowboat	-11.3803
▁incen	-11.3803
▁kyle	-11.3803
▁nausea	-11.3803
▁tendu	-11.3803
▁deedee	-11.3803
▁waitress	-11.3803
androvi	-11.3803
▁restrain	-11.3803
▁commandeer	-11.3803
▁josie	-11.3803
▁slit	-11.3803
▁exwife	-11.3803
▁scramble	-11.3803
▁yoshi	-11.3803
▁barrier	-11.3803
▁fright	-11.3803
tumbling	-11.3803
▁pimp	-11.3803
volunt	-11.3803
▁clank	-11.3803
▁departure	-11.3803
closure	-11.3803
▁clich	-11.3804
▁biological	-11.3804
▁wich	-11.3804
▁update	-11.3804
▁shuffl	-11.3804
▁annette	-11.3804
▁cooing	-11.3804
▁blaming	-11.3804
▁candle	-11.3804
▁hostile	-11.3804
▁polls	-11.3804
▁terminat	-11.3804
▁gogol	-11.3804
▁thinner	-11.3804
▁visualize	-11.3804
▁frisk	-11.3804
▁behold	-11.3804
▁lightning	-11.3804
▁manlio	-11.3804
▁pudding	-11.3804
exic	-11.3804
▁venice	-11.3804
▁romance	-11.3804
▁reich	-11.3805
▁apsa	-11.3805
▁jangl	-11.3805
▁todd	-11.3805
▁cooperate	-11.3805
▁bapti	-11.3805
▁inquiries	-11.3805
▁institute	-11.3805
▁offence	-11.3805
▁internal	-11.3805
▁raindrop	-11.3805
boat	-11.3805
obbs	-11.3805
▁civilized	-11.3806
▁paso	-11.3806
▁joko	-11.3806
▁offend	-11.3806
▁clippe	-11.3806
▁hiya	-11.3806
▁madison	-11.3806
▁flock	-11.3806
▁hamster	-11.3806
▁pond	-11.3806
wait	-11.3807
▁marlin	-11.3807
▁runnin	-11.3807
▁dickens	-11.3807
▁grill	-11.3807
▁receptionist	-11.3807
▁courageous	-11.3808
assurance	-11.3808
▁perfume	-11.3808
▁niff	-11.3809
▁sixteen	-11.3809
▁gaze	-11.3809
▁quack	-11.3809
▁revolutionary	-11.3809
water	-11.3809
▁leadership	-11.381
▁bebe	-11.381
▁beings	-11.381
▁battleship	-11.381
▁tasty	-11.3811
▁hallway	-11.3811
▁snip	-11.3812
▁broad	-11.3812
▁tomatoes	-11.3812
▁twentyone	-11.3812
▁harsh	-11.3812
aux	-11.3812
▁benny	-11.3812
susc	-11.3813
▁colin	-11.3813
clench	-11.3813
▁troublemaker	-11.3813
▁unload	-11.3813
▁prick	-11.3814
▁brotherhood	-11.3814
▁villagers	-11.3814
▁sunny	-11.3814
▁payroll	-11.3815
▁bindle	-11.3815
▁faun	-11.3815
▁merrell	-11.3815
▁chasing	-11.3815
▁meaningful	-11.3815
luxe	-11.3816
▁grownup	-11.3816
▁heir	-11.3816
▁perish	-11.3816
▁disappointment	-11.3816
▁grandson	-11.3816
▁alito	-11.3816
▁meaningless	-11.3816
▁romeo	-11.3817
▁overhead	-11.3817
▁baba	-11.3817
plicate	-11.3818
▁medication	-11.3818
▁pbr	-11.3818
▁bonus	-11.3819
▁incoming	-11.3819
▁lining	-11.382
▁highfive	-11.382
▁torn	-11.382
▁attraction	-11.3821
▁highlight	-11.3822
▁contempt	-11.3822
▁pakistani	-11.3822
▁betsy	-11.3823
enzy	-11.3825
▁stack	-11.3825
▁overtime	-11.3826
▁rig	-11.3827
▁ballad	-11.3827
▁keon	-11.3828
▁heist	-11.3828
▁ironic	-11.3828
▁tripping	-11.3829
alalala	-11.3829
oogum	-11.383
▁beam	-11.383
▁objection	-11.3831
▁scann	-11.3832
▁expression	-11.3833
▁recon	-11.384
daisy	-11.3841
ridden	-11.3842
hour	-11.3843
▁limo	-11.3846
tuna	-11.3851
▁wage	-11.3862
▁kasp	-11.387
▁wool	-11.3873
media	-11.3875
▁massage	-11.3877
mmel	-11.3885
woman	-11.3892
▁trim	-11.3898
eerie	-11.3927
▁vol	-11.3931
▁admir	-11.395
hooters	-11.3972
ehr	-11.398
aye	-11.402
▁torme	-11.4034
▁donate	-11.4041
▁behav	-11.4067
▁optimist	-11.4079
ushi	-11.4129
witch	-11.4137
rugged	-11.4146
▁dung	-11.4198
mpy	-11.4259
tribu	-11.4268
▁seiz	-11.4516
stallone	-11.4526
▁constitution	-11.4533
mmmmmm	-11.4541
itched	-11.4581
aribo	-11.4655
with	-11.4693
▁patti	-11.4725
▁scal	-11.4847
▁advis	-11.5045
rained	-11.5128
▁gallo	-11.5255
▁aff	-11.53
▁hype	-11.5351
▁persi	-11.5365
▁appreciat	-11.5687
ookie	-11.5736
▁psychologi	-11.5779
chorus	-11.5803
▁cough	-11.594
▁whisper	-11.5942
▁trump	-11.5988
▁negotiation	-11.5991
▁exhale	-11.6002
▁parent	-11.6004
▁arriv	-11.604
▁convert	-11.6091
▁injur	-11.6224
▁elect	-11.6236
ground	-11.6244
▁murmur	-11.6244
▁amaz	-11.6247
▁doom	-11.6254
rainin	-11.6254
▁dismiss	-11.6254
▁locate	-11.6269
▁identit	-11.6272
▁academ	-11.6273
▁bord	-11.6274
lookin	-11.6275
tooth	-11.6281
worthy	-11.6281
magneti	-11.6282
fifty	-11.6282
grown	-11.6282
glasses	-11.6282
patient	-11.6282
famous	-11.6282
club	-11.6282
mouth	-11.6283
color	-11.6283
letter	-11.6283
paid	-11.6283
drum	-11.6283
pump	-11.6283
final	-11.6284
wind	-11.6284
space	-11.6284
▁practical	-11.6284
forces	-11.6286
door	-11.6288
▁tomato	-11.629
▁julian	-11.6291
▁sentiment	-11.6293
▁curren	-11.6294
▁govern	-11.6295
▁instruct	-11.6295
▁champ	-11.6295
rhea	-11.6297
▁aggressi	-11.6297
▁depart	-11.6298
▁kiddin	-11.6298
▁whoohoo	-11.6299
unning	-11.6301
▁urge	-11.6301
▁congratulat	-11.6301
nghai	-11.6302
▁aspir	-11.6302
ographer	-11.6302
▁conspir	-11.6302
▁tyler	-11.6302
clamation	-11.6302
eprogramme	-11.6302
knockknock	-11.6302
▁acquaintance	-11.6302
▁afghan	-11.6302
▁airborne	-11.6302
▁aleks	-11.6302
▁amakasu	-11.6302
▁ambition	-11.6302
▁ambush	-11.6302
▁anticipation	-11.6302
▁antonito	-11.6302
▁anxiety	-11.6302
▁apartheid	-11.6302
▁appliance	-11.6302
▁apprais	-11.6302
▁apprehen	-11.6302
▁aristide	-11.6302
▁artiller	-11.6302
▁asylum	-11.6302
▁atmosphere	-11.6302
▁austria	-11.6302
▁berries	-11.6302
▁biscuits	-11.6302
▁blockbuster	-11.6302
▁boodikka	-11.6302
▁brainwashed	-11.6302
▁brezhnev	-11.6302
▁brotherinlaw	-11.6302
▁brunette	-11.6302
▁brussels	-11.6302
▁calorie	-11.6302
▁canterbury	-11.6302
▁cassandra	-11.6302
▁charging	-11.6302
▁chimney	-11.6302
▁chipmunk	-11.6302
▁chrissake	-11.6302
▁column	-11.6302
▁comprehend	-11.6302
▁conclusion	-11.6302
▁congrats	-11.6302
▁cosmetics	-11.6302
▁council	-11.6302
▁dakota	-11.6302
▁daughterinlaw	-11.6302
▁defensive	-11.6302
▁deflect	-11.6302
▁dependent	-11.6302
▁deputies	-11.6302
▁description	-11.6302
▁detroit	-11.6302
▁dictator	-11.6302
▁discharged	-11.6302
▁disinfect	-11.6302
▁disobey	-11.6302
▁disrespectful	-11.6302
▁dissolve	-11.6302
▁drautos	-11.6302
▁easiest	-11.6302
▁encryption	-11.6302
▁endorsement	-11.6302
▁enterprises	-11.6302
▁envelope	-11.6302
▁envoy	-11.6302
▁estimate	-11.6302
▁ethnohistorian	-11.6302
▁evacuate	-11.6302
▁evident	-11.6302
▁excellency	-11.6302
▁execution	-11.6302
▁exploding	-11.6302
▁faggot	-11.6302
▁feminine	-11.6302
▁fimple	-11.6302
▁forensic	-11.6302
▁forklift	-11.6302
▁frolov	-11.6302
▁frustrating	-11.6302
▁fundraiser	-11.6302
▁gadbaw	-11.6302
▁gestapo	-11.6302
▁grigori	-11.6302
▁gypsies	-11.6302
▁haemostat	-11.6302
▁hamburger	-11.6302
▁handwriting	-11.6302
▁harbour	-11.6302
▁heritage	-11.6302
▁hieroglyphics	-11.6302
▁hilarious	-11.6302
▁hulett	-11.6302
▁humiliating	-11.6302
▁hysterical	-11.6302
▁ignoring	-11.6302
▁imagining	-11.6302
▁imbecile	-11.6302
▁improper	-11.6302
▁improving	-11.6302
▁infection	-11.6302
▁infiltrate	-11.6302
▁infirmary	-11.6302
▁insanity	-11.6302
▁insect	-11.6302
▁insecure	-11.6302
▁insidious	-11.6302
▁internship	-11.6302
▁interrogate	-11.6302
▁intrude	-11.6302
▁investigator	-11.6302
▁inviting	-11.6302
▁islam	-11.6302
▁jorgito	-11.6302
▁kathleen	-11.6302
▁klerk	-11.6302
▁knuckles	-11.6302
▁kowtow	-11.6302
▁kuznetsov	-11.6302
▁kyeta	-11.6302
▁lettuce	-11.6302
▁licorice	-11.6302
▁lvovich	-11.6302
▁mademoiselle	-11.6302
▁malcolm	-11.6302
▁mandelstam	-11.6302
▁manufactur	-11.6302
▁mariepaule	-11.6302
▁marseille	-11.6302
▁mcansh	-11.6302
▁migraine	-11.6302
▁miraculous	-11.6302
▁moderate	-11.6302
▁momentarily	-11.6302
▁monobrow	-11.6302
▁montevideo	-11.6302
▁morgue	-11.6302
▁motorcycles	-11.6302
▁mujahideen	-11.6302
▁munitions	-11.6302
▁mussolini	-11.6302
▁mutual	-11.6302
▁napoleon	-11.6302
▁nominated	-11.6302
▁nomination	-11.6302
▁obituary	-11.6302
▁obsessed	-11.6302
▁offensive	-11.6302
▁oregon	-11.6302
▁outnumbered	-11.6302
▁outrageous	-11.6302
▁overflow	-11.6302
▁oxford	-11.6302
▁oxygen	-11.6302
▁paramedic	-11.6302
▁paranoid	-11.6302
▁pediatric	-11.6302
▁persuade	-11.6302
▁pharmaceutical	-11.6302
▁philosophy	-11.6302
▁physec	-11.6302
▁physics	-11.6302
▁pollution	-11.6302
▁prejudice	-11.6302
▁pristine	-11.6302
▁propaganda	-11.6302
▁providing	-11.6302
▁pulitzer	-11.6302
▁pursuit	-11.6302
▁radius	-11.6302
▁railroad	-11.6302
▁ramsay	-11.6302
▁raymond	-11.6302
▁reclaim	-11.6302
▁redemption	-11.6302
▁redundant	-11.6302
▁regional	-11.6302
▁remarque	-11.6302
▁resolution	-11.6302
▁retriev	-11.6302
▁rhodes	-11.6302
▁rosseter	-11.6302
▁sapien	-11.6302
▁schoolteacher	-11.6302
▁scottsdale	-11.6302
▁seventyfive	-11.6302
▁shepherd	-11.6302
▁simpson	-11.6302
▁simulation	-11.6302
▁sinatra	-11.6302
▁singlespaced	-11.6302
▁sisterinlaw	-11.6302
▁skeptical	-11.6302
▁sloven	-11.6302
▁solitary	-11.6302
▁soporific	-11.6302
▁spaghetti	-11.6302
▁specimen	-11.6302
▁struggling	-11.6302
▁submerged	-11.6302
▁supermarket	-11.6302
▁surveillance	-11.6302
▁sydney	-11.6302
▁sympath	-11.6302
▁syrup	-11.6302
▁tendency	-11.6302
▁tequila	-11.6302
▁toothpaste	-11.6302
▁toulouse	-11.6302
▁treasure	-11.6302
▁tyranny	-11.6302
▁unattended	-11.6302
▁unbearable	-11.6302
▁uprising	-11.6302
▁valentina	-11.6302
▁vetsera	-11.6302
▁vitamix	-11.6302
▁volkswagen	-11.6302
▁voyage	-11.6302
▁vulnerable	-11.6302
▁weasel	-11.6302
▁westminster	-11.6302
▁whickering	-11.6302
▁whitmore	-11.6302
▁wisconsin	-11.6302
▁yanked	-11.6302
▁zucchini	-11.6302
uccin	-11.6302
▁accompany	-11.6302
▁antonio	-11.6302
▁assessment	-11.6302
▁bullfight	-11.6302
▁calais	-11.6302
▁canvas	-11.6302
▁companion	-11.6302
▁consciousness	-11.6302
▁contradict	-11.6302
▁cottage	-11.6302
▁czech	-11.6302
▁destined	-11.6302
▁disorder	-11.6302
▁donkey	-11.6302
▁emphasi	-11.6302
▁erecti	-11.6302
▁firearms	-11.6302
▁footlong	-11.6302
▁goddammit	-11.6302
▁godspell	-11.6302
▁hector	-11.6302
▁herbert	-11.6302
▁hillbill	-11.6302
▁hombre	-11.6302
▁justify	-11.6302
▁kappa	-11.6302
▁lewis	-11.6302
▁midwest	-11.6302
▁minimum	-11.6302
▁mixture	-11.6302
▁molecul	-11.6302
▁natasha	-11.6302
▁ornament	-11.6302
▁pledge	-11.6302
▁prohibit	-11.6302
▁pursue	-11.6302
▁rachael	-11.6302
▁recipe	-11.6302
▁stalker	-11.6302
▁suffocat	-11.6302
▁thieves	-11.6302
▁toffee	-11.6302
▁unemploy	-11.6302
▁vacant	-11.6302
▁warfare	-11.6302
▁woohoo	-11.6302
animous	-11.6302
▁agricultur	-11.6302
▁alaska	-11.6302
▁assistance	-11.6302
▁cisco	-11.6302
▁clarus	-11.6302
▁defence	-11.6302
▁disqualif	-11.6302
▁feather	-11.6302
▁filter	-11.6302
▁gnome	-11.6302
▁granny	-11.6302
▁jumbo	-11.6302
▁lillian	-11.6302
▁multiple	-11.6302
▁pepperoni	-11.6302
▁postcard	-11.6302
▁rethink	-11.6302
▁sallyanne	-11.6302
▁sanctu	-11.6302
▁stimela	-11.6302
▁streak	-11.6302
▁tweak	-11.6302
▁unarmed	-11.6302
▁vicinity	-11.6302
▁bimbo	-11.6302
▁conceal	-11.6302
▁nixon	-11.6302
▁waltz	-11.6302
▁yadada	-11.6302
▁bleating	-11.6302
▁decaf	-11.6302
▁dylan	-11.6302
▁fierce	-11.6302
▁orient	-11.6302
▁remake	-11.6302
▁slide	-11.6302
▁smitt	-11.6302
▁stalking	-11.6302
▁suspen	-11.6302
▁taiwan	-11.6302
▁thigh	-11.6302
▁boobies	-11.6302
▁deidre	-11.6302
▁radley	-11.6302
▁retaliat	-11.6302
▁reunion	-11.6302
▁ricard	-11.6302
▁rouge	-11.6302
▁yaahh	-11.6302
▁bartende	-11.6302
▁carriage	-11.6302
▁flank	-11.6302
▁jackpot	-11.6302
▁knick	-11.6302
▁reign	-11.6302
▁rigged	-11.6302
▁website	-11.6302
▁bergen	-11.6302
▁coleman	-11.6302
▁grammy	-11.6302
▁gregory	-11.6302
▁nonstop	-11.6302
▁onward	-11.6302
▁premier	-11.6302
▁sopho	-11.6302
▁terminal	-11.6302
▁wmia	-11.6302
▁yacov	-11.6302
▁dalip	-11.6302
▁scandal	-11.6302
▁spectr	-11.6302
▁stirr	-11.6302
▁submit	-11.6302
▁token	-11.6302
▁violin	-11.6302
▁warehouse	-11.6302
▁willows	-11.6302
▁connie	-11.6302
▁crank	-11.6302
▁slot	-11.6302
▁techno	-11.6302
▁donald	-11.6302
▁galahd	-11.6302
▁gauge	-11.6302
▁gwend	-11.6302
▁hoyos	-11.6302
▁mattress	-11.6302
▁nascar	-11.6302
▁rehab	-11.6302
▁dutch	-11.6302
▁synd	-11.6302
▁claw	-11.6302
▁dennys	-11.6302
▁pulp	-11.6302
▁rooney	-11.6302
▁leona	-11.6302
▁retro	-11.6302
▁brew	-11.6302
▁canoe	-11.6302
▁nerine	-11.6302
▁paddles	-11.6302
▁bureaucrat	-11.6302
▁dutv	-11.6302
▁slum	-11.6302
▁excel	-11.6302
▁cmon	-11.6302
▁proverb	-11.6302
▁zeb	-11.6302
▁java	-11.6302
▁tornado	-11.6302
▁gambl	-11.6303
▁item	-11.6303
▁promoting	-11.6303
▁concede	-11.6303
▁superstar	-11.6303
▁canned	-11.6303
▁dork	-11.6303
▁tide	-11.6303
▁debri	-11.6303
▁klein	-11.6303
▁thatthat	-11.6303
▁dnr	-11.6303
▁diversion	-11.6303
▁disarm	-11.6303
▁donegan	-11.6303
▁linds	-11.6303
▁vandal	-11.6303
▁adios	-11.6303
▁limp	-11.6303
▁unstable	-11.6303
▁thru	-11.6303
andsee	-11.6303
▁crutch	-11.6303
▁gomez	-11.6303
communicate	-11.6303
▁boomboom	-11.6303
▁abnormal	-11.6303
▁historical	-11.6303
▁joust	-11.6303
▁illustr	-11.6303
▁greasy	-11.6303
▁probing	-11.6303
▁rusty	-11.6303
▁ryan	-11.6303
▁lottery	-11.6303
hsiu	-11.6303
▁compensati	-11.6303
▁aspirations	-11.6303
▁stamp	-11.6303
▁upwind	-11.6303
mperial	-11.6303
▁intro	-11.6303
▁download	-11.6303
▁acres	-11.6303
▁hostess	-11.6303
▁masha	-11.6303
▁thems	-11.6303
▁swag	-11.6303
▁confront	-11.6303
▁fortyfive	-11.6303
zheni	-11.6303
▁profound	-11.6303
▁janu	-11.6304
▁zipper	-11.6304
▁decode	-11.6304
▁consist	-11.6304
dispute	-11.6304
▁maniac	-11.6304
▁sarcastic	-11.6304
▁transition	-11.6304
▁tele	-11.6304
▁woochi	-11.6304
▁fdr	-11.6304
▁ashford	-11.6304
▁equat	-11.6304
▁filmore	-11.6304
▁textbook	-11.6304
▁glide	-11.6304
▁magnet	-11.6304
▁cupcake	-11.6304
▁neville	-11.6304
▁birthright	-11.6304
▁lamp	-11.6304
▁stash	-11.6304
▁dope	-11.6304
▁aching	-11.6304
▁grasp	-11.6304
▁portray	-11.6304
▁jumpjump	-11.6305
▁speculat	-11.6305
abeth	-11.6305
▁magda	-11.6305
▁venue	-11.6305
▁hairdo	-11.6305
▁menyal	-11.6305
▁goofy	-11.6305
▁criticism	-11.6305
▁estonia	-11.6305
▁forehead	-11.6305
▁xray	-11.6305
▁verbal	-11.6306
plies	-11.6306
▁finland	-11.6306
width	-11.6306
▁dried	-11.6307
▁sharon	-11.6307
▁lothos	-11.6307
▁resent	-11.6307
▁zip	-11.6307
▁sponsorship	-11.6308
▁disturbance	-11.6308
▁literar	-11.6308
▁swine	-11.6309
▁recreat	-11.6309
lastic	-11.631
▁sancti	-11.631
▁recite	-11.6312
partment	-11.6313
▁riddle	-11.6313
▁understa	-11.6313
▁hustl	-11.6314
sparag	-11.6314
credible	-11.6316
uhdu	-11.6319
▁adjustment	-11.6319
bulb	-11.6321
▁reproduc	-11.6323
▁emerge	-11.6325
▁rebellio	-11.6325
▁theo	-11.6329
▁natali	-11.633
stock	-11.6332
ethel	-11.6334
gorou	-11.6336
eltzer	-11.6337
ctable	-11.634
ounge	-11.6344
ready	-11.6356
logged	-11.639
hause	-11.641
uveni	-11.641
▁resona	-11.6417
▁unfi	-11.6421
▁chrom	-11.6433
ubbed	-11.6438
▁jeopardiz	-11.6481
▁targ	-11.6517
▁meditat	-11.6627
discretion	-11.6641
pstick	-11.6777
ubert	-11.6778
lipse	-11.6817
cordial	-11.6842
robbing	-11.6993
▁immigrant	-11.7005
risk	-11.7058
▁plumbe	-11.7095
▁sniffl	-11.7123
rnished	-11.7154
▁tinkl	-11.7258
ould	-11.7367
▁considerabl	-11.7382
▁humbl	-11.7431
ferred	-11.7558
rdin	-11.8012
seldo	-11.8277
▁achiev	-11.8357
tentious	-11.836
▁batteri	-11.8584
loud	-11.8655
migrants	-11.8733
jade	-11.8861
▁optim	-11.9161
▁construct	-11.9291
▁dorri	-11.9323
▁corp	-11.9325
▁giggle	-11.9333
▁karat	-11.948
writer	-11.9504
founded	-11.9538
▁whinny	-11.9577
▁disgust	-11.9578
▁pakistan	-11.96
▁expose	-11.9603
title	-11.9603
▁territor	-11.9605
▁extraordinar	-11.9606
▁clog	-11.9606
kill	-11.961
▁feminis	-11.9613
front	-11.9614
identified	-11.9615
wife	-11.9615
stream	-11.9615
exchange	-11.9615
boom	-11.9615
dollar	-11.9615
fortune	-11.9615
logan	-11.9615
winning	-11.9615
decent	-11.9615
defense	-11.9616
professional	-11.9616
christian	-11.9616
different	-11.9616
white	-11.9616
people	-11.9616
women	-11.9616
month	-11.9616
first	-11.9616
loving	-11.9616
death	-11.9616
speed	-11.9616
class	-11.9616
level	-11.9616
large	-11.9617
type	-11.9617
▁grea	-11.9618
doctor	-11.962
piece	-11.9622
▁mornin	-11.9629
stitute	-11.9629
terior	-11.9631
hello	-11.9632
clude	-11.9632
▁kidnap	-11.9632
culating	-11.9632
▁differ	-11.9632
▁priva	-11.9632
▁sarcas	-11.9634
ecision	-11.9634
mportant	-11.9634
therwise	-11.9634
▁inquir	-11.9634
▁scram	-11.9635
annah	-11.9635
ographic	-11.9635
sibility	-11.9636
▁advoca	-11.9636
▁misunderstand	-11.9636
deceptive	-11.9636
gnosis	-11.9636
imaginative	-11.9636
intellig	-11.9636
jakobson	-11.9636
▁abducted	-11.9636
▁abernathy	-11.9636
▁abomination	-11.9636
▁abstract	-11.9636
▁acknowledging	-11.9636
▁actionadventure	-11.9636
▁administ	-11.9636
▁agencies	-11.9636
▁agnes	-11.9636
▁ahmadinejad	-11.9636
▁aleluya	-11.9636
▁alfred	-11.9636
▁alimony	-11.9636
▁amnesia	-11.9636
▁antenna	-11.9636
▁anvthing	-11.9636
▁anyhow	-11.9636
▁applicable	-11.9636
▁applicants	-11.9636
▁approximat	-11.9636
▁arrogance	-11.9636
▁ashtray	-11.9636
▁association	-11.9636
▁astronom	-11.9636
▁auction	-11.9636
▁automatically	-11.9636
▁avenue	-11.9636
▁babbling	-11.9636
▁baccarat	-11.9636
▁barracks	-11.9636
▁befriend	-11.9636
▁belgian	-11.9636
▁bopaloobop	-11.9636
▁bourgeois	-11.9636
▁breeze	-11.9636
▁brilliance	-11.9636
▁broomstick	-11.9636
▁cafeteria	-11.9636
▁camouflage	-11.9636
▁canadian	-11.9636
▁candace	-11.9636
▁cannibalism	-11.9636
▁carefui	-11.9636
▁cavalry	-11.9636
▁celebrities	-11.9636
▁chainsaw	-11.9636
▁cheddar	-11.9636
▁chemical	-11.9636
▁cheoseon	-11.9636
▁chitchat	-11.9636
▁chubby	-11.9636
▁cincinnati	-11.9636
▁clemmie	-11.9636
▁colombia	-11.9636
▁combust	-11.9636
▁commotion	-11.9636
▁communicating	-11.9636
▁confiscat	-11.9636
▁congregation	-11.9636
▁console	-11.9636
▁controversy	-11.9636
▁convenience	-11.9636
▁convenient	-11.9636
▁convincing	-11.9636
▁coordinator	-11.9636
▁copromotion	-11.9636
▁crawfish	-11.9636
▁creator	-11.9636
▁credentials	-11.9636
▁curfew	-11.9636
▁database	-11.9636
▁deceiving	-11.9636
▁declarati	-11.9636
▁decoding	-11.9636
▁delinquent	-11.9636
▁delirious	-11.9636
▁deodorant	-11.9636
▁deprav	-11.9636
▁deprive	-11.9636
▁destination	-11.9636
▁diagnosed	-11.9636
▁dictionary	-11.9636
▁diplomacy	-11.9636
▁disapprove	-11.9636
▁disciple	-11.9636
▁discouraged	-11.9636
▁distorted	-11.9636
▁documentaries	-11.9636
▁donnahew	-11.9636
▁doorknob	-11.9636
▁dopamine	-11.9636
▁dunwoody	-11.9636
▁efficient	-11.9636
▁elephant	-11.9636
▁embalming	-11.9636
▁enchant	-11.9636
▁energirod	-11.9636
▁enthusiasm	-11.9636
▁eradicat	-11.9636
▁errands	-11.9636
▁espionage	-11.9636
▁evangelical	-11.9636
▁excessive	-11.9636
▁footprint	-11.9636
▁formalities	-11.9636
▁frivolous	-11.9636
▁gendarme	-11.9636
▁geometr	-11.9636
▁ghouls	-11.9636
▁glauca	-11.9636
▁glickman	-11.9636
▁goodwill	-11.9636
▁guilbert	-11.9636
▁halloween	-11.9636
▁hamstring	-11.9636
▁handicrafts	-11.9636
▁harmonica	-11.9636
▁hasbeen	-11.9636
▁hashtag	-11.9636
▁hawkeye	-11.9636
▁hellraiser	-11.9636
▁hemisphere	-11.9636
▁hendrix	-11.9636
▁homicide	-11.9636
▁honolulu	-11.9636
▁hsiaohsiu	-11.9636
▁humility	-11.9636
▁hurghada	-11.9636
▁immeasurable	-11.9636
▁implement	-11.9636
▁incarcerat	-11.9636
▁incomplete	-11.9636
▁initiation	-11.9636
▁innocence	-11.9636
▁inseminat	-11.9636
▁insubordinat	-11.9636
▁integration	-11.9636
▁interrogation	-11.9636
▁intrigue	-11.9636
▁investigating	-11.9636
▁invincible	-11.9636
▁irreversible	-11.9636
▁israel	-11.9636
▁jensen	-11.9636
▁kandinsky	-11.9636
▁kreemo	-11.9636
▁kuomintang	-11.9636
▁lchaim	-11.9636
▁lezignac	-11.9636
▁lidocaine	-11.9636
▁lorraine	-11.9636
▁maddogged	-11.9636
▁mahalo	-11.9636
▁martynov	-11.9636
▁marvellous	-11.9636
▁mashhad	-11.9636
▁maturity	-11.9636
▁mccarthy	-11.9636
▁mcclellan	-11.9636
▁microchip	-11.9636
▁monstrous	-11.9636
▁muslim	-11.9636
▁nabokov	-11.9636
▁navigate	-11.9636
▁navigator	-11.9636
▁neurosurge	-11.9636
▁nuisance	-11.9636
▁nureyev	-11.9636
▁nutrition	-11.9636
▁obscure	-11.9636
▁obstetric	-11.9636
▁olympic	-11.9636
▁opponent	-11.9636
▁outstanding	-11.9636
▁paradox	-11.9636
▁parched	-11.9636
▁parlor	-11.9636
▁pennsylvania	-11.9636
▁persistence	-11.9636
▁phenomenon	-11.9636
▁picnic	-11.9636
▁platform	-11.9636
▁pneumonia	-11.9636
▁polygraph	-11.9636
▁pompadour	-11.9636
▁practitioner	-11.9636
▁privy	-11.9636
▁psychiatri	-11.9636
▁psychopath	-11.9636
▁punctuati	-11.9636
▁pupils	-11.9636
▁pursuing	-11.9636
▁rattlesnake	-11.9636
▁receipt	-11.9636
▁recognise	-11.9636
▁redecorat	-11.9636
▁reenactment	-11.9636
▁relentless	-11.9636
▁reluctant	-11.9636
▁retching	-11.9636
▁retiring	-11.9636
▁roberino	-11.9636
▁romiski	-11.9636
▁rostova	-11.9636
▁sabotag	-11.9636
▁scenario	-11.9636
▁scissors	-11.9636
▁scorch	-11.9636
▁scribble	-11.9636
▁scroggins	-11.9636
▁scully	-11.9636
▁scusi	-11.9636
▁segregation	-11.9636
▁shareholders	-11.9636
▁shreveport	-11.9636
▁sicily	-11.9636
▁sizzle	-11.9636
▁sizzling	-11.9636
▁sklar	-11.9636
▁slob	-11.9636
▁slope	-11.9636
▁sloppy	-11.9636
▁smartypants	-11.9636
▁snowflakes	-11.9636
▁solemn	-11.9636
▁sorority	-11.9636
▁sorrier	-11.9636
▁soweto	-11.9636
▁spontane	-11.9636
▁spunky	-11.9636
▁steinbeck	-11.9636
▁stenwick	-11.9636
▁stimulat	-11.9636
▁stockholm	-11.9636
▁subjugate	-11.9636
▁summit	-11.9636
▁summon	-11.9636
▁syllabus	-11.9636
▁tampons	-11.9636
▁tarconi	-11.9636
▁telegraph	-11.9636
▁theatre	-11.9636
▁therapist	-11.9636
▁timberlake	-11.9636
▁tobacco	-11.9636
▁torpedoes	-11.9636
▁tranquility	-11.9636
▁treacher	-11.9636
▁trespass	-11.9636
▁tropical	-11.9636
▁turbulence	-11.9636
▁turquoise	-11.9636
▁twilight	-11.9636
▁ukiyoe	-11.9636
▁umbrella	-11.9636
▁uncompromising	-11.9636
▁unleash	-11.9636
▁unnecessary	-11.9636
▁unofficial	-11.9636
▁unsafe	-11.9636
▁utagawa	-11.9636
▁vegetable	-11.9636
▁vegetarian	-11.9636
▁verdict	-11.9636
▁vibrant	-11.9636
▁vocabulary	-11.9636
▁welfare	-11.9636
▁whitacker	-11.9636
▁wimps	-11.9636
▁wolves	-11.9636
▁wrangler	-11.9636
▁wrestling	-11.9636
▁yergushovo	-11.9636
▁yogurt	-11.9636
▁zindzi	-11.9636
▁astound	-11.9636
▁balcony	-11.9636
▁chitlin	-11.9636
▁clutch	-11.9636
▁deceive	-11.9636
▁deport	-11.9636
▁hampton	-11.9636
▁handshake	-11.9636
▁monument	-11.9636
