<unk>	0
<s>	0
</s>	0
s	-3.02912
e	-4.08928
ing	-4.20421
d	-4.36706
y	-4.39036
t	-4.42119
n	-4.46054
a	-4.48917
ed	-4.50091
▁im	-4.72925
er	-4.74719
u	-4.79992
▁dont	-4.88826
p	-4.88992
▁know	-4.8903
g	-4.89588
o	-4.91232
i	-4.94147
b	-4.98648
r	-5.01708
▁get	-5.08953
in	-5.09236
▁	-5.10184
▁go	-5.10968
▁yeah	-5.13309
m	-5.15221
c	-5.18516
▁right	-5.21779
▁f	-5.24565
▁like	-5.25676
▁got	-5.29147
▁oh	-5.31609
▁come	-5.34714
al	-5.3505
le	-5.35607
▁youre	-5.36356
l	-5.36479
▁na	-5.37825
or	-5.3817
▁s	-5.43828
ar	-5.44805
▁okay	-5.45638
v	-5.51264
ly	-5.52666
▁l	-5.55377
▁thats	-5.55661
w	-5.59722
▁want	-5.60641
▁well	-5.65627
▁think	-5.67523
▁man	-5.68653
it	-5.6917
es	-5.71946
re	-5.72449
▁gon	-5.72584
▁one	-5.72835
at	-5.73326
f	-5.74594
h	-5.75144
▁a	-5.79678
▁hey	-5.8077
▁see	-5.81369
▁good	-5.81381
▁look	-5.8173
▁w	-5.87119
th	-5.87222
▁re	-5.87759
▁fuck	-5.87878
an	-5.88374
▁g	-5.88777
▁us	-5.89697
en	-5.90983
▁b	-5.91471
k	-5.92212
st	-5.9239
ll	-5.93228
il	-5.93275
▁st	-5.95996
▁take	-5.97988
ck	-5.99521
▁going	-5.99971
▁back	-6.00058
ic	-6.01843
▁e	-6.02252
ra	-6.03149
ch	-6.04229
▁t	-6.04554
▁de	-6.05429
ri	-6.06982
on	-6.08688
ent	-6.0886
▁be	-6.09305
▁time	-6.11787
▁shit	-6.12215
▁say	-6.12441
▁ill	-6.12793
▁tell	-6.14777
▁pa	-6.1504
ter	-6.15454
▁hes	-6.18999
▁k	-6.19134
▁fucking	-6.19972
▁c	-6.20549
▁in	-6.22423
▁co	-6.23308
▁need	-6.2369
z	-6.23862
▁really	-6.23941
▁yes	-6.24787
ce	-6.24847
ie	-6.24895
▁mean	-6.24992
▁p	-6.25402
▁cant	-6.25553
ve	-6.26132
ur	-6.26737
ir	-6.27399
ne	-6.27422
▁ta	-6.27583
▁whats	-6.3151
▁love	-6.33431
▁ma	-6.33768
▁would	-6.34736
▁something	-6.35843
▁ro	-6.36118
▁bo	-6.36428
▁make	-6.37462
▁sorry	-6.37967
▁o	-6.38791
sh	-6.39361
el	-6.39805
▁bu	-6.40251
▁didnt	-6.40555
▁god	-6.41443
▁please	-6.41575
▁ho	-6.42568
▁let	-6.44838
▁lets	-6.45159
la	-6.4631
▁sh	-6.46596
▁way	-6.46761
▁car	-6.47413
▁ca	-6.50297
▁m	-6.50335
▁thank	-6.50414
te	-6.50455
ate	-6.50469
ro	-6.5075
▁give	-6.50794
ol	-6.50816
se	-6.52039
▁hi	-6.52063
▁su	-6.52283
▁work	-6.52595
am	-6.5305
▁could	-6.53314
li	-6.53386
ad	-6.54777
▁ha	-6.54933
▁little	-6.55695
x	-6.55924
▁cr	-6.56453
▁sp	-6.57615
▁ra	-6.57723
ion	-6.58647
▁wh	-6.5964
▁mo	-6.59759
▁th	-6.61177
▁la	-6.62029
▁lo	-6.62068
ke	-6.62257
▁people	-6.6252
▁call	-6.62956
▁wait	-6.636
▁tr	-6.64266
▁two	-6.64657
ow	-6.64748
▁theres	-6.65412
nt	-6.66099
▁never	-6.67009
im	-6.67256
et	-6.68219
ry	-6.68992
▁day	-6.69378
▁said	-6.70046
ation	-6.70217
▁thing	-6.70502
id	-6.71218
▁po	-6.72255
▁uh	-6.72511
is	-6.72803
▁ba	-6.73215
▁con	-6.73524
▁talk	-6.73701
▁ive	-6.74168
ver	-6.74426
lo	-6.74479
▁sure	-6.74697
▁fa	-6.7755
▁ex	-6.78559
▁shes	-6.7968
▁help	-6.80367
age	-6.80677
▁guys	-6.8129
▁stop	-6.8144
▁even	-6.81652
▁much	-6.81733
▁ri	-6.82479
▁put	-6.83507
and	-6.83582
▁di	-6.83858
▁do	-6.83889
▁jo	-6.84053
▁te	-6.85123
▁feel	-6.85418
▁to	-6.85603
ers	-6.87142
ul	-6.87188
▁gr	-6.87344
▁so	-6.87434
ff	-6.87456
us	-6.87575
▁da	-6.87753
▁maybe	-6.88231
▁theyre	-6.88635
▁name	-6.88714
▁hear	-6.88826
▁dr	-6.89068
de	-6.89875
▁new	-6.90003
mp	-6.9009
▁guy	-6.90973
ge	-6.90981
ell	-6.91501
ard	-6.92189
ive	-6.92498
▁great	-6.92553
end	-6.92564
▁home	-6.9314
▁hell	-6.93261
▁night	-6.94182
▁pro	-6.94589
ist	-6.94725
co	-6.94956
▁un	-6.95195
▁still	-6.9562
▁keep	-6.95873
tion	-6.96018
▁friend	-6.96169
▁girl	-6.96466
▁me	-6.96716
▁anything	-6.97355
▁se	-6.98756
▁boy	-6.99237
ick	-6.99323
▁le	-7.00131
▁mi	-7.00175
▁big	-7.00207
▁no	-7.00781
▁kill	-7.00792
ment	-7.01872
▁mar	-7.0188
▁nice	-7.02382
▁find	-7.03563
ip	-7.03589
▁hello	-7.03687
ine	-7.04744
▁first	-7.04799
ies	-7.0524
ting	-7.05275
▁life	-7.06101
▁ch	-7.08361
▁nothing	-7.08403
um	-7.08427
▁thought	-7.08467
▁r	-7.08497
▁he	-7.08595
▁real	-7.08631
ight	-7.09326
per	-7.09402
ig	-7.10448
▁sir	-7.11152
▁listen	-7.11278
▁around	-7.11317
▁wan	-7.11478
▁kind	-7.12159
ut	-7.12184
▁long	-7.12507
▁sc	-7.12516
▁stay	-7.12534
▁ass	-7.12707
me	-7.129
om	-7.13325
▁mr	-7.13587
▁ask	-7.13764
▁money	-7.13889
▁hand	-7.14369
ect	-7.14398
▁move	-7.14875
ty	-7.14913
▁better	-7.15134
pe	-7.15619
▁ru	-7.16087
ant	-7.16696
▁ever	-7.1756
man	-7.18154
▁cl	-7.18269
ugh	-7.18353
▁start	-7.18973
ian	-7.1901
▁lot	-7.19359
▁last	-7.19551
▁told	-7.19703
▁id	-7.19738
▁care	-7.20391
▁hold	-7.20641
▁baby	-7.20829
▁pu	-7.21142
ot	-7.21403
ia	-7.2208
▁part	-7.22897
na	-7.23115
able	-7.23839
▁everything	-7.24669
▁dis	-7.24864
j	-7.25069
▁v	-7.25494
▁ne	-7.25533
▁sa	-7.25569
▁away	-7.25748
▁show	-7.25756
ma	-7.26882
ach	-7.27146
▁believe	-7.2725
▁h	-7.27264
▁phone	-7.27452
▁play	-7.27986
▁minute	-7.28059
▁hu	-7.28658
▁watch	-7.28716
▁je	-7.28849
ca	-7.28872
▁house	-7.28885
▁al	-7.28898
▁things	-7.29057
▁coming	-7.29442
▁door	-7.30009
▁bad	-7.30017
est	-7.31361
▁three	-7.31375
▁son	-7.31431
ling	-7.3163
ok	-7.31678
op	-7.31701
▁place	-7.31783
▁leave	-7.31785
▁pre	-7.32073
▁talking	-7.32352
▁always	-7.32418
▁meet	-7.32449
▁pe	-7.33328
▁cha	-7.33583
▁pi	-7.33898
▁bl	-7.33919
▁youve	-7.34344
mo	-7.34451
▁doesnt	-7.34561
▁ja	-7.34657
act	-7.34657
ho	-7.34711
▁open	-7.35222
▁old	-7.35684
▁years	-7.36328
if	-7.36458
▁mom	-7.36534
▁huh	-7.36852
▁fine	-7.37223
▁ju	-7.37758
▁woman	-7.38092
▁laugh	-7.38485
▁ar	-7.38716
ure	-7.38928
ill	-7.39223
ta	-7.39351
▁remember	-7.39672
▁happen	-7.40134
▁thanks	-7.40225
▁wont	-7.41532
ful	-7.42559
▁live	-7.4257
▁li	-7.42891
▁understand	-7.43626
tch	-7.43723
no	-7.44059
ance	-7.44615
▁bitch	-7.44986
▁n	-7.45108
▁turn	-7.46036
▁vi	-7.46216
tic	-7.46371
ci	-7.46542
▁getting	-7.46696
▁head	-7.46737
▁every	-7.47667
▁made	-7.47888
▁happened	-7.47986
▁ad	-7.48018
▁must	-7.48275
▁ti	-7.48583
ph	-7.48965
▁win	-7.49651
ity	-7.49737
▁ni	-7.5063
▁um	-7.50763
▁room	-7.50766
▁else	-7.52227
▁try	-7.52508
▁an	-7.52519
▁someone	-7.52814
▁came	-7.53507
ha	-7.53654
▁ok	-7.53838
▁com	-7.54123
ize	-7.54503
▁wrong	-7.54651
▁close	-7.55206
▁youll	-7.55718
tr	-7.55778
ish	-7.56035
▁sl	-7.56323
▁sha	-7.5666
▁left	-7.56806
▁wanted	-7.57353
▁aint	-7.57932
▁done	-7.58049
▁tonight	-7.58159
▁might	-7.58408
▁shut	-7.58439
▁stu	-7.58642
▁trying	-7.5927
▁men	-7.59674
▁sit	-7.59901
▁miss	-7.59986
ber	-7.60043
▁end	-7.60065
ound	-7.60118
▁mind	-7.60145
▁dead	-7.60253
▁du	-7.6052
▁check	-7.60885
ise	-7.61175
▁isnt	-7.61223
ang	-7.61319
▁dude	-7.61348
▁cause	-7.61526
▁second	-7.62358
▁enough	-7.62359
ous	-7.62406
▁world	-7.62645
▁lm	-7.62765
son	-7.62797
▁ya	-7.62918
▁guess	-7.6351
▁cu	-7.63669
▁hot	-7.63704
▁em	-7.63786
▁mother	-7.63808
▁pretty	-7.64091
▁gun	-7.64762
▁another	-7.64967
▁pri	-7.65259
▁hard	-7.65353
▁run	-7.65564
ug	-7.66155
ack	-7.66367
▁music	-7.6737
▁may	-7.6756
▁damn	-7.6766
▁die	-7.68216
▁act	-7.68343
▁dad	-7.68359
▁en	-7.68526
▁today	-7.68555
▁app	-7.68631
▁cut	-7.68862
▁excuse	-7.69472
▁person	-7.69521
▁brother	-7.69784
▁jesus	-7.69791
▁mu	-7.69989
▁week	-7.70089
▁bro	-7.70229
▁looking	-7.70341
ak	-7.70373
▁drink	-7.71024
▁black	-7.71097
▁sw	-7.71299
ence	-7.72382
▁saying	-7.72443
ton	-7.72723
▁whos	-7.73719
▁job	-7.73924
▁sex	-7.74199
▁wa	-7.74252
▁che	-7.74316
▁actually	-7.74836
▁best	-7.7522
bo	-7.75773
▁whole	-7.76163
▁saw	-7.76173
▁ready	-7.76184
▁course	-7.76472
▁kid	-7.76885
▁problem	-7.77797
▁high	-7.77889
▁bar	-7.78411
▁war	-7.78721
▁next	-7.78807
▁stand	-7.78814
▁comp	-7.7898
▁kids	-7.79023
▁everybody	-7.7948
▁plan	-7.79542
▁met	-7.79753
▁christ	-7.7982
▁speak	-7.79824
ical	-7.8036
▁hour	-7.8059
▁wasnt	-7.80856
▁father	-7.81203
▁walk	-7.81204
▁together	-7.81539
▁bring	-7.81609
▁eye	-7.82005
▁sound	-7.82106
less	-7.82178
▁fire	-7.82229
▁honey	-7.82245
▁ah	-7.82717
▁el	-7.83244
▁number	-7.83287
▁pay	-7.83854
▁face	-7.83923
▁bit	-7.84128
▁matter	-7.84366
▁hit	-7.84411
que	-7.84506
▁wouldnt	-7.84631
▁found	-7.84665
▁fuckin	-7.84849
▁seen	-7.85026
▁hurt	-7.85089
▁went	-7.85285
▁school	-7.85426
▁eat	-7.85557
▁four	-7.8581
▁heard	-7.86052
▁j	-7.86931
▁called	-7.8718
▁police	-7.87245
▁crazy	-7.87612
▁frank	-7.87615
▁pick	-7.87788
▁movie	-7.88361
▁word	-7.88767
▁fun	-7.88795
▁cop	-7.89185
▁wife	-7.89481
▁point	-7.90259
▁cool	-7.90299
▁jake	-7.90475
▁young	-7.90998
▁sal	-7.9141
q	-7.91444
▁chi	-7.92491
▁probably	-7.92519
▁havent	-7.92523
▁anyway	-7.93296
▁dick	-7.93675
▁jack	-7.93805
▁stuff	-7.93842
▁somebody	-7.94078
▁break	-7.94473
▁six	-7.9488
▁cor	-7.95187
▁read	-7.95256
▁happy	-7.95264
ated	-7.95468
▁sleep	-7.95664
▁line	-7.95806
ness	-7.95984
▁morning	-7.96465
▁free	-7.96492
▁set	-7.96897
▁va	-7.96906
ank	-7.9734
▁idea	-7.97451
▁serious	-7.97683
▁paul	-7.97704
▁hope	-7.97832
▁shoot	-7.98091
▁five	-7.98403
▁drive	-7.98464
▁john	-7.98502
▁safe	-7.9854
▁am	-7.9856
▁supposed	-7.98747
▁white	-7.98941
▁bra	-7.99209
▁weve	-7.99348
▁took	-7.99545
▁whatever	-7.99737
port	-8
▁beautiful	-8.00153
▁forget	-8.00153
▁alone	-8.00167
▁family	-8.00572
▁seem	-8.01041
▁goddamn	-8.01837
▁ago	-8.01893
▁change	-8.02728
▁deal	-8.02739
▁tomorrow	-8.03119
▁easy	-8.03124
▁cla	-8.03402
▁far	-8.04431
▁fight	-8.04469
▁playing	-8.04586
▁sam	-8.04595
▁yet	-8.04889
▁per	-8.05054
▁wow	-8.05175
▁yo	-8.05227
▁question	-8.05293
▁killed	-8.05468
▁everyone	-8.05747
out	-8.06039
▁power	-8.06201
▁already	-8.06621
▁business	-8.06621
▁nobody	-8.07067
▁knew	-8.07072
▁sk	-8.0714
▁blood	-8.07516
▁water	-8.07894
▁youd	-8.07977
▁month	-8.07985
▁hang	-8.08141
▁breath	-8.08873
▁later	-8.09665
▁couldnt	-8.1001
▁without	-8.11177
▁light	-8.11339
▁wonder	-8.12116
▁late	-8.12566
▁asshole	-8.13061
▁whoa	-8.13104
▁year	-8.13496
form	-8.13533
▁inside	-8.13537
▁arm	-8.1382
▁america	-8.14015
▁story	-8.14555
▁shot	-8.15438
▁bye	-8.15834
▁street	-8.15956
▁true	-8.16018
▁sweet	-8.16446
▁air	-8.1652
▁though	-8.16734
▁har	-8.16759
▁motherfucker	-8.16934
▁children	-8.18431
▁luck	-8.18958
▁dog	-8.19236
unk	-8.19436
press	-8.19496
▁hate	-8.19842
▁game	-8.20508
▁ten	-8.20764
▁ball	-8.21693
▁anybody	-8.22519
▁worry	-8.22526
ious	-8.22545
▁half	-8.23055
▁sonny	-8.23179
▁taking	-8.23604
▁lost	-8.23637
▁book	-8.24523
▁continue	-8.25165
▁couple	-8.25165
▁since	-8.25187
▁rest	-8.25446
▁anyone	-8.26243
▁clear	-8.2628
▁side	-8.26315
▁screaming	-8.26385
▁making	-8.26819
▁pull	-8.2701
▁up	-8.27743
▁touch	-8.27891
▁dream	-8.28445
▁daddy	-8.28465
▁ow	-8.29636
▁q	-8.29746
▁soon	-8.30021
▁anymore	-8.30676
▁outside	-8.30676
▁save	-8.3114
nny	-8.31164
▁exactly	-8.31245
▁sometimes	-8.31816
▁funny	-8.31842
▁wear	-8.31895
▁bill	-8.32332
▁city	-8.32335
▁sign	-8.32411
▁trust	-8.32414
▁knock	-8.33551
▁mine	-8.33683
▁york	-8.34137
▁order	-8.34138
▁reason	-8.34143
▁alive	-8.34446
▁murder	-8.34723
▁town	-8.34757
▁promise	-8.35317
▁mmm	-8.35336
▁case	-8.35838
▁mike	-8.35877
▁answer	-8.3591
▁wish	-8.35973
▁women	-8.36512
▁arent	-8.36585
▁key	-8.36726
▁yell	-8.37751
▁suck	-8.38095
▁step	-8.3828
▁body	-8.3844
▁lock	-8.38585
▁mitch	-8.39821
▁different	-8.40179
▁special	-8.40179
▁also	-8.40293
▁charlie	-8.40804
▁sighs	-8.40804
▁child	-8.40821
▁sister	-8.40836
way	-8.416
▁husband	-8.42066
▁lts	-8.42458
▁sick	-8.4269
▁follow	-8.42703
▁gave	-8.42732
nder	-8.43291
▁wall	-8.43502
▁quit	-8.44642
▁clean	-8.44668
▁death	-8.44684
▁straight	-8.45294
▁ahead	-8.45296
▁voice	-8.4595
▁grow	-8.45978
▁kidding	-8.45988
▁drop	-8.46242
▁officer	-8.46399
▁scream	-8.4644
▁record	-8.46612
▁married	-8.46624
▁aah	-8.46664
▁hows	-8.46772
▁weird	-8.47279
▁important	-8.4728
▁dave	-8.4763
▁blow	-8.47706
▁welcome	-8.48625
▁dinner	-8.48626
▁food	-8.48627
▁super	-8.49302
▁report	-8.50466
▁behind	-8.5068
▁scared	-8.50701
▁dance	-8.50723
▁picture	-8.51375
▁front	-8.51381
▁afraid	-8.52074
▁bobby	-8.52074
▁figure	-8.52077
▁full	-8.5303
▁chance	-8.53039
pped	-8.53139
▁class	-8.53197
▁stupid	-8.5349
▁heres	-8.5358
▁bullshit	-8.54202
▁truth	-8.5422
▁deep	-8.54523
▁grand	-8.55516
▁wake	-8.56012
▁country	-8.57244
▁interest	-8.57854
▁tried	-8.57959
▁zo	-8.57994
▁trouble	-8.58598
▁almost	-8.58599
▁cold	-8.58681
▁perfect	-8.5935
▁daughter	-8.59351
▁finish	-8.5936
▁broke	-8.59787
▁radio	-8.60108
▁chuckles	-8.60122
▁piece	-8.60124
▁foot	-8.60126
▁lady	-8.60262
▁count	-8.60749
▁quick	-8.60872
▁daniel	-8.62415
▁learn	-8.62442
▁moving	-8.62461
▁burn	-8.6257
▁hmm	-8.6321
▁ooh	-8.63224
▁running	-8.63243
▁grunts	-8.63984
▁ii	-8.64193
▁quiet	-8.64778
▁annie	-8.64787
▁either	-8.65578
▁throw	-8.65589
▁least	-8.65598
▁kiss	-8.65668
▁prison	-8.66555
▁hurry	-8.67202
▁butt	-8.67229
▁trans	-8.67312
▁million	-8.68019
▁direct	-8.68022
▁sense	-8.69717
wood	-8.69754
▁grunting	-8.70517
▁nigga	-8.70517
▁coffee	-8.70517
▁parents	-8.70519
▁under	-8.71451
▁buddy	-8.72221
▁ladies	-8.73096
▁gay	-8.7419
▁shouldnt	-8.74828
▁doctor	-8.74828
▁brought	-8.7483
▁relax	-8.74832
▁mouth	-8.74851
▁seven	-8.76639
▁glad	-8.76654
ung	-8.77187
▁totally	-8.77507
▁dark	-8.77519
▁ringing	-8.77639
time	-8.78443
▁calm	-8.78476
▁honest	-8.79351
▁park	-8.79377
▁theyll	-8.81194
▁machine	-8.81198
▁whoo	-8.81442
▁along	-8.82146
▁enjoy	-8.83089
▁fix	-8.83125
▁short	-8.83239
▁lord	-8.83323
▁strange	-8.84057
▁surprise	-8.85022
▁secret	-8.85022
▁control	-8.85023
▁itll	-8.85059
▁office	-8.85334
▁strong	-8.86993
▁sort	-8.87242
▁ice	-8.87651
▁george	-8.87992
▁victor	-8.87992
▁alright	-8.87995
▁small	-8.88
▁uncle	-8.89022
▁living	-8.89029
▁train	-8.89107
▁worth	-8.91081
▁force	-8.91104
▁bird	-8.91105
▁favorite	-8.93148
▁explain	-8.93148
▁certain	-8.93148
▁middle	-8.93149
▁floor	-8.93171
▁gasps	-8.94212
▁horse	-8.94244
▁photo	-8.95287
▁amazing	-8.96374
▁attack	-8.96374
▁leaving	-8.96374
▁smart	-8.96377
▁company	-8.96386
▁mommy	-8.96408
▁mmhmm	-8.97473
▁somewhere	-8.97473
▁groans	-8.97474
▁protect	-8.97482
▁witch	-8.975
▁captain	-8.98584
▁weapon	-8.98584
▁bastard	-8.98587
▁agree	-8.98601
▁chattering	-8.99708
▁become	-9.00846
▁ghost	-9.00849
▁color	-9.00915
▁security	-9.01993
▁henry	-9.02007
▁absolutely	-9.03156
▁detective	-9.03156
▁glass	-9.03166
▁account	-9.04333
▁system	-9.04333
▁outta	-9.04335
▁christmas	-9.05537
▁offer	-9.0554
▁angel	-9.05563
▁girlfriend	-9.06728
▁mistake	-9.06728
▁lawyer	-9.06729
▁smell	-9.0676
▁birthday	-9.07947
▁charge	-9.07964
▁agent	-9.08005
▁english	-9.09182
▁except	-9.09183
▁others	-9.09189
▁smoke	-9.09191
▁video	-9.10437
▁write	-9.10909
▁forgot	-9.11698
▁psych	-9.11701
▁expect	-9.11704
▁jerry	-9.11708
▁theyve	-9.1298
▁whisper	-9.12982
▁goodbye	-9.12984
▁david	-9.12985
▁smile	-9.12988
▁swear	-9.13009
▁awesome	-9.14279
▁college	-9.14279
▁major	-9.14284
▁sweetheart	-9.15594
▁decide	-9.15613
▁guard	-9.15617
▁chuck	-9.16919
▁accident	-9.18279
▁possible	-9.18279
▁arrest	-9.1829
▁computer	-9.18291
▁allow	-9.18297
▁apolog	-9.19649
▁gentlemen	-9.19649
▁hundred	-9.19649
▁situation	-9.19654
▁fault	-9.19664
field	-9.1979
▁appreciate	-9.21038
▁across	-9.21038
▁choice	-9.21038
▁respect	-9.21039
▁freak	-9.21047
▁squa	-9.22447
▁kept	-9.2245
▁conversation	-9.23875
▁hungry	-9.23875
▁normal	-9.23875
▁groaning	-9.23875
▁return	-9.23876
▁definitely	-9.25324
▁attention	-9.26795
▁clothes	-9.26795
▁pizza	-9.28287
▁pleasure	-9.28287
▁relationship	-9.28287
▁gasping	-9.28287
▁entire	-9.28289
▁travel	-9.2829
▁bathroom	-9.29802
▁department	-9.29802
▁language	-9.29802
▁sergeant	-9.29802
▁yesterday	-9.29802
▁island	-9.29802
▁uhhuh	-9.29802
