<unk>	0
<s>	0
</s>	0
s	-3.9684
▁oh	-4.57085
▁dont	-4.6507
▁im	-4.67095
▁well	-4.84207
▁go	-4.87954
▁know	-4.91919
▁get	-4.9273
▁come	-4.95199
▁like	-5.08274
▁right	-5.11427
▁one	-5.1143
▁good	-5.20755
▁got	-5.21344
▁youre	-5.23113
▁thats	-5.27533
▁see	-5.31936
ing	-5.32775
▁	-5.33716
▁yes	-5.40111
▁look	-5.5378
▁yeah	-5.54092
▁time	-5.55025
▁ill	-5.56162
ed	-5.58008
▁think	-5.5826
▁hey	-5.59004
▁back	-5.63086
▁us	-5.68619
▁cant	-5.68642
▁want	-5.72392
▁hes	-5.73076
▁okay	-5.74195
▁take	-5.75243
▁say	-5.7743
▁little	-5.78079
▁going	-5.80345
▁na	-5.81995
▁tell	-5.83791
▁man	-5.8497
▁would	-5.89681
▁way	-5.90609
▁let	-5.90677
d	-5.9096
▁never	-5.91945
▁could	-5.9677
▁make	-6.03474
▁whats	-6.04434
▁gon	-6.05625
▁theres	-6.07852
▁help	-6.09433
▁ive	-6.09941
▁uh	-6.1093
▁please	-6.11118
y	-6.13006
▁something	-6.13108
▁give	-6.13673
▁really	-6.14257
▁wait	-6.15098
▁love	-6.15568
▁must	-6.17733
▁thank	-6.19864
▁mean	-6.20956
▁lets	-6.21294
▁didnt	-6.25767
ly	-6.29612
▁sure	-6.3297
▁sir	-6.33175
▁find	-6.34505
▁old	-6.34883
▁mr	-6.36233
▁need	-6.37553
▁miss	-6.38856
▁much	-6.38858
e	-6.40736
▁home	-6.41088
▁two	-6.41124
▁day	-6.41389
▁l	-6.42208
▁sorry	-6.42272
er	-6.42486
▁first	-6.42854
▁thing	-6.44403
▁life	-6.44613
▁great	-6.44974
▁nothing	-6.45214
▁boy	-6.4586
▁night	-6.45909
▁keep	-6.46269
▁shes	-6.47987
▁away	-6.48252
▁better	-6.49786
▁theyre	-6.50414
▁said	-6.51673
▁youve	-6.51674
▁youll	-6.52634
▁wont	-6.52954
▁stop	-6.54181
▁ever	-6.58722
▁long	-6.59637
▁anything	-6.59956
▁even	-6.60044
▁still	-6.60303
▁ah	-6.61993
▁always	-6.6205
▁people	-6.62407
▁work	-6.64183
▁may	-6.65203
▁id	-6.66574
▁girl	-6.66814
▁around	-6.6749
▁thought	-6.68485
▁world	-6.68747
▁every	-6.69978
▁call	-6.71444
▁big	-6.716
▁course	-6.73236
▁things	-6.77693
t	-6.77711
▁last	-6.7894
▁stay	-6.79245
▁talk	-6.7969
▁believe	-6.79905
▁dear	-6.8012
▁morning	-6.80183
▁leave	-6.80554
a	-6.81085
▁new	-6.81395
▁whoa	-6.82322
▁put	-6.82731
▁mother	-6.83606
▁father	-6.842
▁isnt	-6.84939
ll	-6.86241
▁might	-6.86278
▁nice	-6.87456
▁show	-6.87871
▁told	-6.89477
▁made	-6.89983
▁place	-6.90053
▁enough	-6.90407
▁huh	-6.90897
▁maybe	-6.92323
▁wouldnt	-6.92338
▁ta	-6.92739
▁done	-6.92783
▁care	-6.93495
▁aint	-6.93741
▁coming	-6.94756
▁hear	-6.94776
▁another	-6.95204
▁three	-6.97192
in	-6.97646
▁hold	-6.98738
▁bad	-6.99034
▁left	-6.99139
▁baby	-7.00247
▁everything	-7.01082
▁kind	-7.01091
▁mind	-7.01118
▁children	-7.01284
▁feel	-7.01555
▁king	-7.01607
▁house	-7.01841
▁remember	-7.02474
▁doesnt	-7.03393
▁captain	-7.04467
▁name	-7.04587
▁run	-7.049
▁try	-7.04994
▁listen	-7.05611
▁fine	-7.06289
▁de	-7.06837
▁understand	-7.08365
▁wrong	-7.08874
▁best	-7.08888
n	-7.09001
▁today	-7.09439
▁ready	-7.10076
▁seen	-7.10522
▁ooh	-7.10578
▁turn	-7.11319
es	-7.11325
▁thanks	-7.12721
▁men	-7.12811
▁bring	-7.13625
▁watch	-7.13692
▁looking	-7.15261
▁hello	-7.15311
▁beautiful	-7.16286
▁matter	-7.16541
▁bit	-7.1667
▁money	-7.1709
▁years	-7.17147
▁door	-7.17185
▁hope	-7.1744
▁start	-7.1757
▁shall	-7.17704
▁true	-7.18322
▁ik	-7.18726
▁live	-7.20514
▁real	-7.20791
▁without	-7.20828
▁town	-7.21014
▁je	-7.21384
▁friend	-7.21392
▁use	-7.21486
r	-7.21649
▁heart	-7.22421
▁die	-7.22546
▁em	-7.229
▁dad	-7.22991
▁scarlett	-7.23401
▁next	-7.23401
weve	-7.23427
▁head	-7.24028
▁road	-7.24266
en	-7.25044
▁god	-7.25079
▁alone	-7.26043
▁many	-7.28281
▁minute	-7.28335
▁eat	-7.28344
▁ya	-7.28617
▁ha	-7.28943
▁tomorrow	-7.29443
▁fly	-7.2992
▁goodbye	-7.30837
▁ask	-7.31388
▁heard	-7.32642
▁youd	-7.32981
▁second	-7.34065
▁far	-7.34374
▁found	-7.3441
▁whole	-7.35142
▁mrs	-7.35535
al	-7.35578
▁word	-7.36104
▁gone	-7.37167
▁face	-7.38634
▁lot	-7.38639
▁woman	-7.38873
▁happy	-7.38873
▁yet	-7.38878
▁hand	-7.39108
▁worry	-7.39793
▁whos	-7.40043
▁young	-7.40226
▁princess	-7.40318
▁saw	-7.40404
▁move	-7.40549
▁everyone	-7.40955
▁friends	-7.41027
▁else	-7.41179
▁came	-7.4191
▁lost	-7.41973
▁business	-7.42243
o	-7.42369
▁tonight	-7.42542
▁christmas	-7.42746
▁hmm	-7.4275
▁la	-7.42848
▁job	-7.43355
▁guys	-7.43382
▁havent	-7.4354
▁mom	-7.44157
▁family	-7.4434
▁getting	-7.44616
▁hurry	-7.45147
▁fire	-7.45684
▁wan	-7.45826
▁child	-7.4596
▁along	-7.45961
▁wish	-7.46206
▁together	-7.46785
▁water	-7.4698
▁um	-7.47127
▁everybody	-7.47606
▁buzz	-7.48685
▁looks	-7.49006
▁dead	-7.49096
▁knew	-7.4928
▁pretty	-7.50129
▁cause	-7.50711
▁year	-7.50932
▁room	-7.50933
▁poor	-7.52509
▁excuse	-7.52713
▁win	-7.52725
▁ball	-7.52765
▁quite	-7.5277
▁lady	-7.52792
▁talking	-7.52834
▁wanted	-7.53229
▁music	-7.53512
▁hi	-7.538
▁bed	-7.53892
▁kill	-7.54318
▁chuckles	-7.54532
▁stand	-7.54885
est	-7.55005
▁wasnt	-7.55368
▁afraid	-7.55369
▁sleep	-7.55536
▁goes	-7.55719
▁someone	-7.5628
ve	-7.56405
▁days	-7.56454
▁guess	-7.56662
▁soon	-7.57022
▁hell	-7.57141
▁story	-7.57183
▁human	-7.57217
▁ease	-7.58096
▁idea	-7.5826
▁happened	-7.58371
▁land	-7.59243
▁hard	-7.59374
▁cat	-7.59866
▁four	-7.5994
▁gentlemen	-7.59957
▁open	-7.60132
▁rest	-7.60244
▁car	-7.60312
▁ow	-7.60465
▁het	-7.60921
▁kid	-7.61009
▁sighs	-7.61048
▁son	-7.61084
▁late	-7.61948
▁dog	-7.63979
▁met	-7.64379
▁change	-7.64667
▁race	-7.64853
▁pay	-7.65228
▁mine	-7.65768
▁guy	-7.65966
▁rome	-7.66681
▁feet	-7.66757
▁en	-7.66878
▁caesar	-7.66927
▁shh	-7.67728
▁couldnt	-7.67842
▁bear	-7.68759
▁eyes	-7.68765
▁trouble	-7.68866
▁brother	-7.69042
▁trying	-7.697
▁says	-7.70423
▁bird	-7.71151
▁set	-7.71893
▁anyone	-7.7191
▁ashley	-7.71911
▁a	-7.72261
▁it	-7.73515
▁easy	-7.74062
▁part	-7.7505
▁perhaps	-7.7514
▁chance	-7.7553
▁un	-7.75716
▁point	-7.7666
▁een	-7.76712
▁quiet	-7.77145
l	-7.77314
▁save	-7.7821
▁light	-7.7825
▁hurt	-7.78422
▁forget	-7.78448
▁arent	-7.7847
▁five	-7.78532
▁used	-7.78579
▁till	-7.79097
▁fast	-7.79213
▁already	-7.79606
▁went	-7.79614
▁hachi	-7.79616
▁gasps	-7.79703
▁moment	-7.80091
▁meet	-7.80308
▁suppose	-7.80492
▁inside	-7.80759
▁since	-7.80763
▁wow	-7.8077
▁later	-7.80862
▁they	-7.81611
▁clear	-7.81889
▁marry	-7.8192
▁earth	-7.81939
▁miles	-7.82231
▁power	-7.82457
▁crazy	-7.83095
▁end	-7.83274
▁laughing	-7.83402
▁red	-7.83497
▁dr	-7.84104
h	-7.84178
▁six	-7.84282
▁niet	-7.84287
▁ahead	-7.84297
▁wheres	-7.84653
▁daughter	-7.84877
▁number	-7.84881
▁dat	-7.84913
▁somebody	-7.8549
▁almost	-7.85491
▁city	-7.85501
▁ponyo	-7.85502
▁fish	-7.85538
▁follow	-7.86223
▁safe	-7.86424
▁black	-7.86683
▁food	-7.8671
▁took	-7.86711
▁joel	-7.86727
▁taking	-7.86733
▁blue	-7.86924
▁hands	-7.87136
▁play	-7.87596
▁happen	-7.87657
▁sit	-7.87853
▁close	-7.8787
▁full	-7.88552
▁throw	-7.88694
▁side	-7.89831
▁hit	-7.90101
▁mike	-7.90231
▁makes	-7.90416
▁kiki	-7.90461
▁darling	-7.90471
▁wonderful	-7.90497
▁rain	-7.90499
▁free	-7.90505
▁speak	-7.90595
▁party	-7.90712
▁times	-7.90889
▁fun	-7.91115
▁rhett	-7.91743
▁air	-7.91783
▁hot	-7.91916
▁check	-7.92375
▁nobody	-7.92499
▁school	-7.92521
▁song	-7.92551
▁high	-7.92685
▁boys	-7.92934
▁welcome	-7.93045
▁alive	-7.93047
▁ago	-7.93062
▁fight	-7.93332
▁hate	-7.93611
▁t	-7.9419
▁important	-7.94361
▁send	-7.95203
▁girls	-7.95437
▁behind	-7.9569
▁actually	-7.95699
▁special	-7.96529
▁promise	-7.96776
▁half	-7.9704
g	-7.97401
▁break	-7.976
m	-7.9772
▁death	-7.97905
▁war	-7.98239
▁careful	-7.98274
▁shut	-7.98371
▁control	-7.98409
▁taylor	-7.98411
▁ok	-7.98417
▁lord	-7.98429
▁funny	-7.98431
▁seems	-7.98573
▁singing	-7.98881
▁laughs	-7.9976
▁walk	-7.99788
▁exactly	-7.99825
▁sun	-8.00735
▁cut	-8.00759
▁lovely	-8.00958
▁sweet	-8.01202
▁blood	-8.01209
▁moon	-8.0123
▁making	-8.01259
▁peter	-8.01268
▁wants	-8.0134
▁news	-8.01439
▁comes	-8.0145
▁pick	-8.01697
▁th	-8.02103
▁eh	-8.0223
▁stuff	-8.02249
▁glad	-8.02432
▁small	-8.02455
▁cold	-8.02484
▁sing	-8.02586
▁maria	-8.02639
▁running	-8.02641
▁heres	-8.02936
mon	-8.03105
▁drink	-8.03289
▁minutes	-8.0353
▁price	-8.0366
▁quick	-8.03732
▁s	-8.03824
▁kids	-8.0393
▁bell	-8.04987
▁catch	-8.05088
▁sister	-8.05203
▁dance	-8.05216
▁spirit	-8.05224
▁hour	-8.05271
▁perfect	-8.05371
▁re	-8.05437
▁called	-8.05497
▁anybody	-8.05557
▁least	-8.05557
▁probably	-8.05557
▁shell	-8.0557
▁fool	-8.05732
▁needs	-8.06153
▁feeling	-8.06595
▁lose	-8.06992
▁honey	-8.07053
▁wild	-8.07256
▁hours	-8.07381
▁flying	-8.08101
▁master	-8.08247
▁luck	-8.08375
▁horses	-8.08556
▁daphne	-8.08565
▁aye	-8.08565
▁flight	-8.08568
▁wife	-8.0858
▁roger	-8.0858
▁waiting	-8.08819
▁sign	-8.09088
▁b	-8.0951
▁knows	-8.10078
▁apollo	-8.10103
▁houston	-8.10103
▁horse	-8.10117
▁white	-8.10123
▁dream	-8.10437
▁bet	-8.10453
▁dan	-8.10535
▁learn	-8.10671
▁lead	-8.10885
▁means	-8.10918
st	-8.11008
▁trust	-8.1102
▁problem	-8.11427
▁sosuke	-8.11666
▁front	-8.11671
▁er	-8.11698
▁pok	-8.11708
▁boo	-8.1171
▁wake	-8.11891
▁in	-8.1212
▁touch	-8.12525
▁birds	-8.1282
▁deal	-8.12899
▁voice	-8.13001
▁different	-8.13046
▁dinner	-8.13246
▁cool	-8.13247
▁ramona	-8.13253
▁brought	-8.13253
▁maar	-8.13259
▁sort	-8.13267
▁dreams	-8.13501
▁sea	-8.13891
▁g	-8.14153
▁plan	-8.14202
▁line	-8.14432
▁seem	-8.14466
▁mcqueen	-8.14622
▁drive	-8.14628
▁book	-8.14771
▁though	-8.14845
▁jim	-8.14867
▁screaming	-8.15037
able	-8.15328
▁pull	-8.15631
▁ho	-8.15772
ic	-8.15977
▁shoot	-8.16108
▁ride	-8.16325
▁honor	-8.16484
▁flik	-8.16506
▁fault	-8.1651
▁scared	-8.168
▁wind	-8.17042
▁playing	-8.17145
▁return	-8.17275
▁near	-8.18165
▁papa	-8.18175
▁gave	-8.18185
te	-8.18299
▁grunts	-8.18312
ion	-8.18338
▁whoo	-8.18422
▁grow	-8.1913
▁reason	-8.19689
▁straight	-8.19722
▁street	-8.19748
▁aunt	-8.19856
▁alright	-8.19867
▁scrooge	-8.19867
▁bye	-8.19868
▁buddy	-8.19874
or	-8.20248
▁fact	-8.20501
▁c	-8.21299
▁strange	-8.21505
▁picture	-8.21525
▁fear	-8.21594
▁upon	-8.21594
▁toto	-8.21596
▁terrible	-8.21638
▁supposed	-8.22003
▁truth	-8.2211
▁buy	-8.22342
▁read	-8.22537
▁dark	-8.23307
us	-8.23314
▁whatever	-8.23346
▁stupid	-8.23346
▁maam	-8.23347
▁ten	-8.23349
▁gold	-8.2335
▁van	-8.23441
▁mei	-8.23476
▁star	-8.23532
▁wed	-8.23778
▁able	-8.23891
▁killed	-8.24092
▁words	-8.24096
ies	-8.24504
▁sound	-8.24712
▁thinking	-8.24777
▁beside	-8.25133
▁shot	-8.25134
▁living	-8.25153
▁woody	-8.25162
▁working	-8.25741
▁f	-8.25872
▁magic	-8.25901
▁top	-8.25959
▁expect	-8.26071
ar	-8.26211
▁velma	-8.2695
▁game	-8.26964
▁message	-8.26965
▁daddy	-8.26971
▁eye	-8.26981
▁certainly	-8.27076
▁folks	-8.27175
▁ship	-8.27575
▁step	-8.27714
▁wonder	-8.27738
▁laugh	-8.27807
▁seconds	-8.2782
▁taken	-8.2803
▁p	-8.28137
▁answer	-8.28391
▁ze	-8.28556
▁future	-8.28803
▁dc	-8.28819
▁billy	-8.28882
▁op	-8.28883
▁goin	-8.29575
ary	-8.29678
▁hang	-8.29813
▁rock	-8.30522
on	-8.3061
▁secret	-8.30668
▁others	-8.30688
▁shouldnt	-8.30689
▁boss	-8.30713
i	-8.30727
▁become	-8.30727
▁lm	-8.3083
▁lives	-8.32051
▁fix	-8.3223
▁short	-8.32231
▁eliza	-8.32612
▁rather	-8.32613
▁uhhuh	-8.32645
▁present	-8.3265
▁beast	-8.32655
▁pan	-8.32783
▁cub	-8.32856
▁w	-8.33071
▁belle	-8.3328
an	-8.33379
▁wear	-8.34184
▁fat	-8.34222
▁brave	-8.34545
▁charlie	-8.34573
▁round	-8.34577
▁sent	-8.34587
▁warm	-8.34592
▁ladies	-8.34593
▁tree	-8.34882
le	-8.34902
el	-8.35698
▁als	-8.36116
▁dare	-8.3631
▁order	-8.36356
▁anyway	-8.36572
▁professor	-8.36572
▁heighho	-8.36572
▁butler	-8.36572
▁queen	-8.36572
▁absolutely	-8.36596
▁doctor	-8.36674
▁meeting	-8.37427
▁asked	-8.37646
c	-8.37984
▁fair	-8.3838
▁sick	-8.38602
▁church	-8.38613
▁kenai	-8.38613
▁hair	-8.38624
▁married	-8.38628
▁main	-8.38654
▁also	-8.38677
▁sometimes	-8.38708
▁past	-8.38831
▁e	-8.38905
▁saying	-8.38909
▁hed	-8.39012
▁less	-8.39066
p	-8.39232
▁fall	-8.40302
▁surprise	-8.40646
▁higgins	-8.40696
▁forever	-8.40697
▁lina	-8.40739
▁drop	-8.40916
▁tea	-8.41022
▁blu	-8.41317
ting	-8.42398
▁st	-8.42719
▁except	-8.42795
▁report	-8.42811
▁snow	-8.42816
▁attention	-8.42824
▁hannah	-8.42824
▁possible	-8.42824
▁leaving	-8.42825
▁cj	-8.42828
▁judah	-8.4283
▁moving	-8.4283
▁share	-8.4283
▁melly	-8.43102
▁ghost	-8.43195
▁meant	-8.43857
▁kiss	-8.43994
ous	-8.44064
▁finish	-8.44624
▁bloom	-8.44946
▁mornin	-8.44963
▁danger	-8.4498
▁jonah	-8.44998
▁anymore	-8.44998
▁bread	-8.45004
▁finally	-8.45053
▁browne	-8.45091
▁speed	-8.45274
▁spell	-8.45359
k	-8.46047
▁rat	-8.46069
man	-8.46166
ce	-8.46419
▁r	-8.46424
▁command	-8.4651
▁carry	-8.4676
▁lay	-8.47044
▁suitcase	-8.4722
▁yep	-8.47225
▁forest	-8.47229
▁ones	-8.47278
▁stick	-8.47302
▁rose	-8.47647
less	-8.49172
▁worth	-8.49238
▁fell	-8.49361
▁telling	-8.49389
▁witch	-8.49403
▁prince	-8.4946
▁merry	-8.49492
▁jacob	-8.49493
▁launch	-8.49493
▁outside	-8.49495
▁tara	-8.49537
▁pictures	-8.49581
▁doc	-8.49725
▁cheering	-8.49781
▁team	-8.49867
▁finished	-8.49887
ment	-8.50093
▁lion	-8.50188
▁evening	-8.50391
▁pa	-8.5051
▁al	-8.50707
▁ge	-8.50983
▁dress	-8.51352
▁deep	-8.51465
▁ù	-8.51624
▁strong	-8.51651
▁forgive	-8.51704
▁engine	-8.51796
▁explain	-8.518
▁groans	-8.51818
▁somewhere	-8.51818
▁tried	-8.51818
▁sulley	-8.51818
▁crew	-8.51819
▁simple	-8.5182
▁coach	-8.5182
▁force	-8.5182
▁outta	-8.51822
▁body	-8.51826
▁sounds	-8.51831
▁born	-8.51871
▁tired	-8.51889
▁eli	-8.51943
▁west	-8.51945
re	-8.52069
▁lucky	-8.52159
▁smell	-8.52347
ow	-8.52433
▁teach	-8.53306
▁u	-8.53582
▁cry	-8.53664
▁madam	-8.54018
▁spot	-8.54177
▁either	-8.54199
▁werent	-8.54199
▁jimmy	-8.54199
▁ground	-8.542
▁hungry	-8.54202
▁mmhmm	-8.54211
▁jiji	-8.54213
▁none	-8.54245
▁track	-8.54247
▁mmm	-8.5428
▁pride	-8.54641
▁smile	-8.54685
▁field	-8.54753
▁penny	-8.54764
▁sam	-8.5477
▁stone	-8.54798
b	-8.54817
▁heavens	-8.55294
▁dig	-8.55396
▁continues	-8.55518
▁clean	-8.5557
▁wash	-8.55594
▁turned	-8.55765
▁join	-8.56029
▁arm	-8.56395
▁slow	-8.56485
▁space	-8.56549
▁wendy	-8.56638
▁jungle	-8.56639
▁chaney	-8.5664
▁smee	-8.56643
▁country	-8.56649
▁season	-8.5665
▁storm	-8.5667
▁foot	-8.5669
▁clothes	-8.56778
▁bo	-8.56819
▁lf	-8.56887
▁john	-8.5725
▁phone	-8.57258
▁cup	-8.57315
▁count	-8.57593
▁months	-8.57991
▁mana	-8.58348
▁pass	-8.58403
at	-8.58409
▁pal	-8.58427
▁nothin	-8.59104
▁london	-8.59138
▁mammy	-8.59138
▁merlin	-8.59138
▁pardon	-8.59138
▁worse	-8.59138
▁favorite	-8.5914
▁voor	-8.59141
▁throat	-8.59157
▁aah	-8.59181
▁planet	-8.59266
▁write	-8.59429
▁riding	-8.59547
▁m	-8.59639
▁simba	-8.59747
▁gift	-8.59794
▁million	-8.59868
▁lots	-8.60064
▁gun	-8.60287
▁fra	-8.60594
th	-8.60814
▁burn	-8.61426
▁serious	-8.61514
▁mad	-8.61609
▁thousand	-8.61702
▁bonnie	-8.61702
▁baloo	-8.61703
▁caught	-8.61704
▁seven	-8.61706
▁mama	-8.61707
▁paul	-8.61707
▁gaston	-8.61709
▁ganda	-8.61709
▁hij	-8.61713
▁giving	-8.61716
▁majesty	-8.61716
▁low	-8.61724
▁busy	-8.61774
▁rich	-8.61886
▁question	-8.61897
▁blow	-8.62021
▁lad	-8.62032
▁goodness	-8.62052
▁age	-8.62434
▁level	-8.62464
▁week	-8.625
▁chicken	-8.62509
▁person	-8.62533
▁known	-8.62589
▁lll	-8.62823
▁h	-8.63175
▁loves	-8.63888
▁peace	-8.63924
▁entire	-8.64137
▁certain	-8.6415
▁travel	-8.64302
▁royal	-8.64325
▁company	-8.64334
▁river	-8.64335
▁hows	-8.64336
▁birthday	-8.64336
▁sense	-8.64352
▁dangerous	-8.6436
▁theyve	-8.64455
▁george	-8.64505
▁z	-8.64538
▁looked	-8.64568
▁crowd	-8.65081
▁machine	-8.6515
▁window	-8.65172
▁fellow	-8.65174
▁missed	-8.65232
▁te	-8.65465
ful	-8.65607
up	-8.65679
▁quit	-8.65896
▁watching	-8.66531
▁mess	-8.66729
▁wilkes	-8.66924
▁hide	-8.67019
▁charles	-8.67035
▁melanie	-8.67037
▁indeed	-8.67037
▁sheriff	-8.67037
▁village	-8.67038
▁middle	-8.67038
▁lightning	-8.67041
▁steady	-8.67053
▁battle	-8.67062
▁charge	-8.67062
▁sky	-8.67074
▁unless	-8.67089
▁mark	-8.6729
▁greatest	-8.67527
▁saved	-8.67714
▁yankees	-8.67723
▁changed	-8.67791
▁riders	-8.67802
▁names	-8.67882
▁speaking	-8.68083
▁co	-8.6828
▁gets	-8.68297
▁d	-8.68674
▁started	-8.68731
▁v	-8.68754
▁beat	-8.69541
▁proud	-8.69598
▁uncle	-8.69783
▁forgot	-8.69807
▁craig	-8.69814
▁kuzco	-8.69814
▁mowgli	-8.69814
▁randall	-8.69814
▁forward	-8.69815
▁often	-8.69815
▁hasnt	-8.69815
▁beezus	-8.69815
▁trip	-8.69815
▁mouse	-8.69818
▁kidding	-8.69821
▁wel	-8.69842
▁spend	-8.69848
▁mouth	-8.69851
▁sad	-8.69911
▁act	-8.70107
▁gas	-8.70558
w	-8.70627
▁aan	-8.7072
▁needed	-8.70798
▁devil	-8.70809
ry	-8.71733
▁brothers	-8.71948
ish	-8.7212
▁beg	-8.72227
▁hook	-8.72294
▁english	-8.72504
▁prove	-8.72543
▁office	-8.72586
▁per	-8.72667
▁benji	-8.72671
▁beyond	-8.72671
▁history	-8.72671
▁worried	-8.72671
▁pleasure	-8.72672
▁felt	-8.72672
▁summer	-8.72674
▁zijn	-8.72676
▁floor	-8.72679
▁castle	-8.7268
▁german	-8.72684
▁ought	-8.72696
ant	-8.7271
▁broken	-8.72743
▁li	-8.72842
▁awful	-8.73237
▁crying	-8.7326
▁belong	-8.73372
▁station	-8.73669
▁sword	-8.7368
f	-8.73697
▁monster	-8.73779
▁happening	-8.73804
▁zo	-8.73862
▁happens	-8.73992
hana	-8.74475
▁attack	-8.74689
▁loud	-8.75456
▁wat	-8.75485
▁courage	-8.75585
▁doolittle	-8.75613
▁emperor	-8.75613
▁lunch	-8.75613
▁yesterday	-8.75613
▁area	-8.75613
▁women	-8.75614
▁north	-8.75615
▁beauty	-8.75636
lein	-8.75729
▁commander	-8.75839
▁tires	-8.76198
▁promised	-8.76218
▁loved	-8.76256
▁husband	-8.76708
▁case	-8.76721
▁da	-8.76833
▁paper	-8.76852
▁lived	-8.76896
▁jam	-8.76971
▁ring	-8.77081
▁weeks	-8.77701
▁bare	-8.77758
▁damn	-8.78256
na	-8.78275
▁ben	-8.78316
▁figure	-8.78379
▁radio	-8.78544
▁hospital	-8.78625
▁malcolm	-8.78643
▁stuck	-8.78644
▁barnier	-8.78645
▁highness	-8.7867
▁stories	-8.78677
▁paid	-8.78707
▁early	-8.78734
▁hunter	-8.7875
▁decided	-8.78756
▁ned	-8.7918
▁fit	-8.79907
▁position	-8.79932
▁brain	-8.80005
▁lights	-8.80527
▁rid	-8.8056
▁cross	-8.81345
▁mi	-8.81383
▁cubs	-8.81548
▁heb	-8.81661
▁governor	-8.81768
▁nineveh	-8.81768
▁simply	-8.81768
▁couple	-8.81769
▁max	-8.81772
▁grace	-8.81775
▁kay	-8.81804
▁hem	-8.81846
▁doubt	-8.81946
▁law	-8.82116
▁lift	-8.82292
▁theyd	-8.82511
▁jump	-8.82517
▁imagine	-8.82788
il	-8.82884
▁mistake	-8.82998
▁feels	-8.83022
▁rule	-8.83036
▁soul	-8.83125
▁toy	-8.83254
▁state	-8.83419
▁standing	-8.83567
se	-8.83567
▁enjoy	-8.84092
▁sell	-8.84385
▁over	-8.84629
▁police	-8.84971
▁south	-8.84987
▁evil	-8.84994
▁female	-8.84994
▁kapitein	-8.84994
▁kitchen	-8.84994
▁michael	-8.84994
▁grimm	-8.85
▁hah	-8.85065
▁hail	-8.85079
▁von	-8.85114
▁dust	-8.85206
▁shoo	-8.8545
▁i	-8.86054
ity	-8.86332
▁system	-8.86423
▁month	-8.86525
▁ray	-8.86526
▁flower	-8.86543
▁begin	-8.86568
▁continue	-8.86595
▁hole	-8.86847
▁lie	-8.86908
▁k	-8.86998
▁train	-8.87242
▁dogs	-8.87786
▁mara	-8.87974
▁waste	-8.88069
▁frank	-8.88135
▁afternoon	-8.88327
▁coffee	-8.88327
▁ridiculous	-8.88327
▁silver	-8.88327
▁matty	-8.88329
▁third	-8.88337
▁liesl	-8.88343
▁eight	-8.88343
▁stopped	-8.88359
▁doin	-8.88383
nt	-8.88407
▁dot	-8.88416
▁handle	-8.88442
▁mission	-8.88712
▁quickly	-8.88759
▁yo	-8.88911
▁ran	-8.88937
▁hier	-8.88966
▁ø	-8.89054
▁calling	-8.89148
▁offer	-8.89249
▁lts	-8.89355
▁takes	-8.89517
▁test	-8.89571
▁given	-8.89686
▁screams	-8.89691
▁duck	-8.89915
▁mountain	-8.89921
▁longer	-8.8994
▁spring	-8.89983
▁idiot	-8.90013
▁powers	-8.90154
▁fill	-8.90917
▁push	-8.91204
▁visit	-8.91227
▁march	-8.91259
▁works	-8.91351
▁box	-8.91378
▁trapp	-8.91388
▁escape	-8.91515
▁emelius	-8.91775
▁neither	-8.91775
▁truck	-8.91775
▁cheese	-8.91776
▁impossible	-8.91776
▁marvelous	-8.91776
▁brandnew	-8.91776
▁colonel	-8.91777
▁pickering	-8.91777
▁neil	-8.9178
▁weird	-8.91785
▁lisa	-8.91787
▁ridge	-8.91788
▁oil	-8.91791
▁green	-8.91803
▁totoro	-8.91804
▁panting	-8.91816
▁meowing	-8.91819
▁grunting	-8.91854
▁stage	-8.91876
▁mustnt	-8.91996
▁shame	-8.92017
▁out	-8.9214
▁books	-8.92164
▁hall	-8.92299
▁suit	-8.92994
ch	-8.93418
▁died	-8.93498
▁mo	-8.93544
▁monsters	-8.93974
▁bob	-8.94123
▁bother	-8.94404
▁pack	-8.94417
▁gods	-8.94557
▁agree	-8.95003
▁difficult	-8.95077
▁carrie	-8.95158
▁instead	-8.95347
▁genius	-8.95347
▁koda	-8.95347
▁palace	-8.95349
▁screen	-8.95357
▁soup	-8.95362
▁ahh	-8.95407
▁joy	-8.95455
▁joe	-8.95479
▁mothers	-8.95488
▁wing	-8.95536
▁picked	-8.96309
▁eggs	-8.97083
▁president	-8.97095
▁key	-8.97133
▁whistle	-8.97144
ers	-8.97212
▁piece	-8.97277
▁double	-8.97709
▁blows	-8.9791
▁heads	-8.98027
u	-8.9806
▁gee	-8.98371
▁deliver	-8.98492
▁realize	-8.98792
▁settle	-8.98814
▁proper	-8.98868
▁cute	-8.98912
▁glass	-8.98968
▁n	-8.99038
▁california	-8.9905
▁dorothy	-8.9905
▁morbius	-8.9905
▁nervous	-8.9905
▁sugar	-8.9905
▁meade	-8.99052
▁taught	-8.99054
▁baroness	-8.99054
▁tink	-8.99055
▁wack	-8.99056
▁freedom	-8.99057
▁sitka	-8.99059
▁amazing	-8.99061
▁gentleman	-8.99063
▁mack	-8.99065
▁tiny	-8.9909
▁grand	-8.99107
▁rescue	-8.99292
▁gosh	-8.99457
▁problems	-8.99626
▁cal	-8.99682
▁leg	-8.99786
▁learned	-8.99969
▁stars	-9.00149
▁bugs	-9.00274
▁ii	-9.00282
▁walking	-9.00368
▁cheer	-9.00652
▁pain	-9.00729
▁motorcycle	-9.00932
▁guard	-9.00959
▁scar	-9.0099
▁roman	-9.01014
▁egg	-9.0106
▁signal	-9.01114
▁building	-9.01221
▁player	-9.01496
▁draw	-9.01642
▁arms	-9.01878
▁search	-9.02004
▁ohh	-9.02226
do	-9.02379
▁bright	-9.02649
▁brown	-9.02741
▁thunder	-9.02895
▁anywhere	-9.02897
▁kathy	-9.02897
▁kelso	-9.02897
▁kitty	-9.02897
▁phillip	-9.02897
▁messala	-9.02897
▁rooster	-9.02897
▁spread	-9.02897
▁chair	-9.02899
▁stallion	-9.02899
▁indistinct	-9.02907
▁purpose	-9.02908
▁eagle	-9.02911
▁kali	-9.02913
▁tv	-9.02918
▁silly	-9.0292
▁agent	-9.02921
▁lonely	-9.02937
▁action	-9.02957
▁hotel	-9.02972
▁tail	-9.02985
▁table	-9.03024
▁tower	-9.03041
▁army	-9.03243
▁serve	-9.03262
▁shed	-9.03264
▁appreciate	-9.03325
▁bells	-9.03799
ling	-9.03942
ie	-9.03956
▁roll	-9.03992
▁record	-9.04082
▁fi	-9.0428
▁wine	-9.04343
▁wet	-9.04378
▁sake	-9.04883
▁andy	-9.05064
▁heaven	-9.05091
▁base	-9.05252
▁dis	-9.05302
▁fathers	-9.05576
▁hill	-9.05661
▁protect	-9.05828
ation	-9.06024
age	-9.06044
▁starting	-9.06073
▁honest	-9.06485
▁mater	-9.0651
▁sight	-9.06537
▁cover	-9.06602
▁raise	-9.0662
▁pray	-9.06707
▁smart	-9.06714
▁pocket	-9.06779
▁loose	-9.06795
▁admit	-9.06884
▁bottom	-9.06897
▁breakfast	-9.06897
▁choice	-9.06897
▁empty	-9.06897
▁enemy	-9.06897
▁especially	-9.06897
▁fresh	-9.06897
▁service	-9.06897
▁texas	-9.06897
▁vehicle	-9.06897
▁teddy	-9.06897
▁hadnt	-9.06897
▁spencer	-9.06903
▁racing	-9.06905
▁informant	-9.06905
▁broom	-9.06908
▁henry	-9.06908
▁plain	-9.06909
▁noble	-9.06915
▁everywhere	-9.0692
▁announcer	-9.06926
▁duty	-9.06937
▁camera	-9.06939
▁bigger	-9.06968
▁owls	-9.07469
▁naar	-9.07567
▁shoes	-9.078
over	-9.07943
▁ùù	-9.08459
ted	-9.08728
▁named	-9.09048
▁hundred	-9.09138
▁movie	-9.09138
▁corner	-9.09149
▁guest	-9.09152
ness	-9.09807
▁hat	-9.09871
▁missing	-9.09892
as	-9.10093
▁destroy	-9.10142
▁reach	-9.10208
▁bless	-9.10219
▁bea	-9.10492
▁allow	-9.10684
▁notice	-9.10787
▁applause	-9.11063
▁llama	-9.11063
▁tough	-9.11063
▁upstairs	-9.11063
▁within	-9.11063
▁island	-9.11064
▁mert	-9.11064
▁oscar	-9.11064
▁accident	-9.11066
▁beginning	-9.11066
▁lightyear	-9.11071
▁dancing	-9.11072
▁plenty	-9.11075
▁weather	-9.11077
▁common	-9.11077
▁blame	-9.11079
▁growling	-9.11093
▁chief	-9.11096
▁bite	-9.11099
▁single	-9.11135
▁dumb	-9.11145
▁lab	-9.1125
▁driver	-9.11294
▁note	-9.11306
▁breathing	-9.1131
▁scary	-9.11314
▁yelling	-9.11329
▁wart	-9.11571
▁du	-9.11727
ma	-9.11827
▁shop	-9.11844
▁so	-9.11874
▁ding	-9.12004
▁reading	-9.1225
▁moved	-9.1257
ian	-9.12621
▁tom	-9.12639
▁treat	-9.1269
▁ca	-9.12971
▁feed	-9.13497
▁ac	-9.14148
▁places	-9.14437
▁strike	-9.1493
▁desert	-9.14968
▁orders	-9.14973
▁event	-9.15005
▁georg	-9.15122
▁ideas	-9.15177
▁paint	-9.15234
▁direct	-9.15283
▁tight	-9.15341
▁somethin	-9.15376
▁egypt	-9.154
▁wiz	-9.15406
▁public	-9.15409
▁across	-9.15411
▁pizza	-9.15411
▁portobello	-9.15411
▁worst	-9.15411
▁thrust	-9.15411
▁kennedy	-9.15411
▁blind	-9.15412
▁piston	-9.15413
▁baseball	-9.15416
▁fancy	-9.15418
▁general	-9.15418
▁grab	-9.15421
▁therell	-9.15423
▁climb	-9.15424
▁forgotten	-9.15426
▁huge	-9.15428
▁pink	-9.15429
▁luna	-9.15442
▁linda	-9.15445
▁laughter	-9.15451
▁loverly	-9.15493
▁parents	-9.1555
▁sand	-9.15583
▁golden	-9.1559
▁interested	-9.1561
▁putting	-9.15645
▁grown	-9.15673
▁county	-9.15807
▁store	-9.15847
▁ver	-9.15909
▁harm	-9.15926
▁faster	-9.1606
▁om	-9.16189
▁owe	-9.16202
ter	-9.16217
▁spirits	-9.1642
▁ùø	-9.16669
um	-9.1682
▁fellas	-9.17062
▁following	-9.17196
▁guns	-9.1731
▁trick	-9.17581
▁jewel	-9.17604
▁scream	-9.17637
▁landing	-9.17747
▁clears	-9.17854
▁bank	-9.17991
▁finger	-9.18106
▁lesson	-9.18125
▁chances	-9.18315
▁ja	-9.1842
▁millions	-9.18637
▁øùù	-9.18782
▁ex	-9.1879
▁match	-9.19026
▁seat	-9.19098
▁ee	-9.19103
▁faith	-9.1945
▁weak	-9.19601
▁dirt	-9.19737
▁fetch	-9.19782
▁jij	-9.1993
▁bloodshy	-9.19957
▁schultz	-9.19957
▁selfdestruct	-9.19957
▁necessities	-9.19957
▁wedding	-9.1996
▁kurt	-9.1996
▁ohara	-9.1996
▁shouldve	-9.19963
ge	-9.19963
▁excited	-9.1997
▁court	-9.19974
▁supper	-9.19982
▁hopper	-9.19994
▁ice	-9.19995
▁iii	-9.2
▁thatll	-9.20008
▁center	-9.20016
▁plate	-9.20062
ten	-9.20095
▁be	-9.20129
▁scare	-9.20174
▁moet	-9.20204
▁interesting	-9.20224
▁judge	-9.20449
▁passed	-9.20674
▁dressed	-9.20711
▁ant	-9.20955
ive	-9.21062
▁sita	-9.2128
ur	-9.21353
▁fired	-9.21667
▁cheers	-9.22204
by	-9.22229
▁legs	-9.2223
▁remain	-9.22261
▁wings	-9.22324
▁computer	-9.227
▁brains	-9.22708
▁bug	-9.22873
▁officer	-9.22916
out	-9.22918
▁worlds	-9.22957
▁asking	-9.23208
▁leader	-9.23297
▁class	-9.23374
▁hearts	-9.23695
▁aw	-9.23707
▁kan	-9.23744
▁knock	-9.23802
▁bag	-9.23845
▁pitch	-9.23946
ts	-9.23989
om	-9.2402
▁card	-9.24152
▁j	-9.24153
▁super	-9.24235
▁relax	-9.24276
▁load	-9.24394
way	-9.24417
▁health	-9.24489
▁normal	-9.24493
▁nurse	-9.24702
▁program	-9.24717
▁archimedes	-9.24718
▁christian	-9.24718
▁diamond	-9.24718
▁exciting	-9.24718
▁kronk	-9.24718
▁morris	-9.24718
▁neck	-9.24718
▁science	-9.24718
▁smith	-9.24718
▁somehow	-9.24718
▁speech	-9.24718
▁tribune	-9.24718
▁smoke	-9.24719
▁alert	-9.24719
▁wildfire	-9.24719
▁graff	-9.24722
▁marley	-9.24722
▁immediately	-9.24724
▁pearce	-9.24724
▁pige	-9.24729
▁layla	-9.24732
▁darn	-9.24733
▁address	-9.24734
▁view	-9.24734
▁atlanta	-9.24738
▁kingdom	-9.24739
▁nose	-9.2474
▁baron	-9.24742
▁sunday	-9.24746
▁daar	-9.24762
▁suddenly	-9.24787
▁nine	-9.24803
▁whispering	-9.24946
▁dirty	-9.24949
▁locked	-9.24957
▁lower	-9.25028
▁surprised	-9.25353
▁fung	-9.2541
▁gotten	-9.2549
▁talkin	-9.25735
▁animals	-9.25772
▁wondering	-9.26014
▁soldiers	-9.2614
▁dreaming	-9.26252
▁nu	-9.27017
▁ends	-9.27336
▁pet	-9.27351
▁papers	-9.27711
▁language	-9.27768
▁points	-9.27812
▁belongs	-9.27815
▁lo	-9.27833
▁pie	-9.27852
▁fella	-9.2813
▁tee	-9.28298
▁crack	-9.28656
▁crash	-9.28705
▁rats	-9.28799
▁bringing	-9.28811
▁o	-9.29016
▁proceed	-9.29198
▁complete	-9.29251
▁pin	-9.29285
▁cats	-9.29345
▁enter	-9.29375
▁form	-9.29554
▁broke	-9.29634
▁atta	-9.29718
▁brigitta	-9.29718
▁cleopatra	-9.29718
▁kept	-9.29718
▁library	-9.29718
▁osterlich	-9.29718
▁rhythm	-9.29718
▁spacecraft	-9.29718
▁strength	-9.29718
▁major	-9.29719
▁practice	-9.29719
▁lawyer	-9.29719
▁situation	-9.29719
▁ouch	-9.2972
▁bravo	-9.2972
▁granny	-9.29723
▁parade	-9.29724
▁fence	-9.29726
▁gang	-9.29727
▁plus	-9.29727
▁dying	-9.29728
▁department	-9.29731
▁krell	-9.29732
▁bunch	-9.29733
▁difference	-9.29733
▁rudy	-9.29737
▁shoulder	-9.2975
▁calm	-9.29764
▁maid	-9.29765
▁mention	-9.29824
▁mary	-9.29888
▁tie	-9.29911
▁meaning	-9.29973
▁bugsy	-9.30019
▁moses	-9.30071
▁blessed	-9.30181
▁figured	-9.30189
▁doll	-9.30484
▁staying	-9.305
▁hardly	-9.30748
▁wearing	-9.31001
▁hanging	-9.31046
ster	-9.31104
ro	-9.31234
den	-9.31241
▁pounds	-9.31319
ford	-9.31394
to	-9.32023
▁doe	-9.3206
▁date	-9.32449
▁pure	-9.32467
▁rings	-9.32886
▁marshal	-9.3301
▁color	-9.33043
▁shadow	-9.33068
▁joke	-9.33073
▁believed	-9.33099
▁plane	-9.33312
▁ti	-9.33318
▁tale	-9.33343
▁bi	-9.33406
▁no	-9.33439
▁hop	-9.33829
▁cook	-9.33916
▁kom	-9.33972
▁dee	-9.34077
▁squeak	-9.34209
▁build	-9.34492
▁cars	-9.34529
▁trees	-9.34546
▁sail	-9.34828
▁milk	-9.34836
▁jail	-9.34845
▁natural	-9.34859
▁awake	-9.34887
▁stole	-9.34899
▁suggest	-9.34945
▁prefer	-9.34973
▁favor	-9.34979
▁armstrong	-9.34982
▁built	-9.34982
▁dinoco	-9.34982
▁giggling	-9.34982
▁heavy	-9.34982
▁mercy	-9.34982
▁nonsense	-9.34982
▁someday	-9.34982
▁truly	-9.34982
▁canoe	-9.34982
▁slippers	-9.34986
▁roof	-9.34986
▁champion	-9.34987
▁clock	-9.34989
▁handsome	-9.34994
▁responsible	-9.34995
▁fortune	-9.34997
▁schip	-9.34997
▁sixteen	-9.35003
▁male	-9.35011
▁copy	-9.35012
▁comfortable	-9.35014
▁began	-9.35028
▁crown	-9.35035
▁style	-9.35058
▁panic	-9.35066
▁held	-9.35092
▁ook	-9.35098
▁boat	-9.3511
▁usually	-9.35129
▁circus	-9.35135
▁parker	-9.35154
land	-9.35182
▁bath	-9.35185
▁shouting	-9.35185
▁charming	-9.3521
▁gettin	-9.35234
▁prepared	-9.35244
▁closer	-9.35311
▁map	-9.35354
▁swing	-9.35362
▁sh	-9.35364
op	-9.35511
▁plans	-9.35659
▁we	-9.35898
▁y	-9.35983
▁closed	-9.3618
de	-9.36223
▁jol	-9.36656
ig	-9.36951
▁fighting	-9.37047
▁ants	-9.37214
▁plays	-9.37486
▁taste	-9.38336
▁mum	-9.38406
▁personal	-9.38558
▁bomb	-9.38586
▁odd	-9.38636
▁wall	-9.38661
▁creature	-9.38666
▁surely	-9.38874
▁respect	-9.39009
▁cares	-9.39113
▁pad	-9.39241
▁engines	-9.39272
▁lions	-9.3936
et	-9.39431
▁showed	-9.39541
ra	-9.39707
▁borrow	-9.39999
▁account	-9.40018
▁chatter	-9.40047
▁repeat	-9.40128
▁accept	-9.40135
▁heat	-9.40156
ty	-9.40211
▁board	-9.40316
▁humans	-9.4035
▁virg	-9.40428
▁rise	-9.40449
▁drag	-9.40457
▁extra	-9.40537
▁circumstances	-9.40537
▁gregory	-9.40537
▁pepper	-9.40537
▁satsuki	-9.40537
▁senate	-9.40537
▁swear	-9.40537
▁whether	-9.40537
▁giggles	-9.40537
▁surface	-9.40537
▁journey	-9.40537
▁wilhelm	-9.40538
▁martin	-9.40539
▁alarm	-9.40539
▁ginger	-9.4054
▁twice	-9.4054
▁bought	-9.4054
▁permission	-9.4054
▁tiger	-9.40541
▁wherever	-9.40542
▁delicious	-9.40545
▁jongen	-9.40545
▁hiding	-9.40546
▁yellow	-9.40546
▁psst	-9.40547
▁duke	-9.40552
▁destiny	-9.40556
▁skipper	-9.40557
▁fantastic	-9.40563
end	-9.40575
▁sharp	-9.40581
▁tongue	-9.40581
▁scene	-9.40587
▁project	-9.40588
▁path	-9.40598
▁grass	-9.40604
▁powerful	-9.40624
▁rio	-9.4065
▁art	-9.40656
▁aaah	-9.40701
▁completely	-9.40747
▁arrived	-9.40752
▁rough	-9.40754
▁worked	-9.40779
▁pity	-9.4078
ily	-9.40853
▁hunting	-9.40964
▁deeply	-9.40994
▁nana	-9.41113
▁mustangs	-9.41136
co	-9.41144
▁teacher	-9.41194
ng	-9.41236
▁tall	-9.41539
▁fed	-9.41856
is	-9.4194
▁runs	-9.42077
▁tears	-9.42352
▁moves	-9.42355
ke	-9.42478
▁di	-9.42615
▁do	-9.43104
oo	-9.43566
▁where	-9.43681
▁wha	-9.44065
rs	-9.44082
▁older	-9.44091
▁pound	-9.44119
▁tear	-9.44286
▁boot	-9.4441
▁remind	-9.44413
▁official	-9.44428
▁choose	-9.44433
▁adventure	-9.44465
▁angel	-9.44488
▁dragon	-9.44544
▁nature	-9.44636
▁eating	-9.44702
▁pro	-9.45094
▁deserve	-9.45269
nog	-9.45283
▁listening	-9.45771
day	-9.45859
▁steal	-9.45929
▁chase	-9.461
▁rocks	-9.46175
▁howd	-9.46195
▁coward	-9.46212
▁soft	-9.46214
▁alta	-9.46298
▁pot	-9.46306
▁morg	-9.46324
▁ol	-9.46331
▁large	-9.46336
▁ships	-9.46343
▁sid	-9.46354
▁self	-9.46408
▁arrietty	-9.4642
▁brutus	-9.4642
▁cogburn	-9.4642
▁cratchit	-9.4642
▁denahi	-9.4642
▁england	-9.4642
▁extreme	-9.4642
▁magnificent	-9.4642
▁rizzo	-9.4642
▁sunshine	-9.4642
▁telephone	-9.4642
▁valley	-9.4642
▁wicke	-9.4642
▁driving	-9.4642
▁spain	-9.4642
▁upset	-9.4642
▁however	-9.4642
▁kick	-9.4642
▁david	-9.4642
▁hobart	-9.4642
▁festival	-9.46422
▁insist	-9.46422
▁desperate	-9.46422
▁marta	-9.46422
▁precious	-9.46423
▁bij	-9.46424
▁cash	-9.46427
▁tombo	-9.4643
▁hebben	-9.46438
▁comin	-9.46444
▁teeth	-9.46445
▁twist	-9.46457
▁uhoh	-9.46466
id	-9.46468
▁grade	-9.46473
▁vision	-9.46482
▁obviously	-9.46482
▁trash	-9.46498
▁meal	-9.46518
▁grateful	-9.46527
▁national	-9.46687
▁nation	-9.46724
▁singin	-9.46771
▁ch	-9.46791
▁wh	-9.46853
▁knocking	-9.47036
▁size	-9.4706
ley	-9.47072
▁higher	-9.4719
no	-9.47259
▁stays	-9.47396
▁sooner	-9.47522
▁glori	-9.47821
▁ear	-9.48164
▁partners	-9.48198
▁pleased	-9.48225
▁picking	-9.4852
▁fa	-9.48679
▁hills	-9.49238
▁liked	-9.49757
▁alle	-9.49806
ny	-9.50039
▁poison	-9.50235
▁skin	-9.50287
▁chick	-9.50614
▁circle	-9.50635
▁andromeda	-9.50681
▁cousin	-9.50681
▁refuse	-9.50715
▁soldier	-9.50825
▁partner	-9.50826
▁bill	-9.51138
▁who	-9.51546
▁races	-9.51566
time	-9.5163
▁wil	-9.51651
▁ph	-9.51762
▁pretend	-9.52151
▁camp	-9.5218
▁warn	-9.52192
▁holding	-9.5239
▁prepare	-9.5244
▁corn	-9.52582
▁mee	-9.52621
▁pony	-9.52631
▁games	-9.52638
▁gentle	-9.52642
▁layeeodl	-9.5266
▁park	-9.52661
▁advantage	-9.5267
▁became	-9.5267
▁blousey	-9.5267
▁carnival	-9.5267
▁contact	-9.5267
▁eglantine	-9.5267
▁french	-9.5267
▁guilty	-9.5267
▁haku	-9.5267
▁jullie	-9.5267
▁lieutenant	-9.5267
▁napaloni	-9.5267
▁oxygen	-9.5267
▁sullivan	-9.5267
▁waternoose	-9.5267
▁wazowski	-9.5267
▁whirring	-9.5267
▁tomainia	-9.5267
▁rope	-9.5267
▁mewtwo	-9.5267
▁ugly	-9.5267
▁lockwood	-9.5267
▁decision	-9.52672
▁dawn	-9.52672
▁leaf	-9.52672
▁louisa	-9.52674
▁beef	-9.52676
▁emergency	-9.52678
▁garden	-9.52681
▁famous	-9.52688
▁flag	-9.52688
▁lamont	-9.52688
▁descent	-9.5269
▁switch	-9.52694
▁rare	-9.52694
▁whale	-9.52695
▁teenie	-9.52715
▁incredible	-9.52719
▁jerk	-9.52722
▁flat	-9.52724
▁row	-9.52726
▁robby	-9.52736
▁involved	-9.52759
▁totally	-9.5279
▁slide	-9.52794
▁safety	-9.528
▁kindness	-9.52815
▁sw	-9.52865
▁band	-9.52871
▁yard	-9.52888
▁united	-9.52905
▁fate	-9.52966
▁musical	-9.53149
▁toe	-9.53204
▁astronauts	-9.53219
▁nuts	-9.53236
▁knees	-9.53472
▁training	-9.53619
▁bones	-9.53682
▁feelin	-9.5376
▁east	-9.53814
▁danced	-9.53882
▁not	-9.53928
▁pit	-9.54145
▁clouds	-9.54198
▁fan	-9.54423
ton	-9.54452
▁to	-9.54573
▁ln	-9.54647
▁deer	-9.54738
▁aha	-9.54821
son	-9.54909
▁va	-9.55025
dy	-9.55056
▁everythings	-9.55173
▁jewels	-9.55321
ne	-9.55533
▁lt	-9.55689
▁af	-9.5594
bout	-9.56137
▁toys	-9.56421
▁rules	-9.56423
▁ga	-9.56501
▁roar	-9.56934
▁hornet	-9.57211
▁professional	-9.57224
▁cage	-9.57316
▁pop	-9.57408
▁block	-9.5741
▁monkey	-9.57441
▁ranger	-9.57534
▁cups	-9.57546
▁helped	-9.57971
ii	-9.58023
▁mile	-9.58044
▁rider	-9.58177
▁turning	-9.5827
ium	-9.58581
▁seeing	-9.58608
ship	-9.58651
▁rever	-9.58659
▁hunt	-9.58719
▁discover	-9.58913
▁seed	-9.58982
▁rum	-9.59127
▁tow	-9.59144
▁terribl	-9.59173
▁hero	-9.59217
▁shake	-9.59247
▁someones	-9.59251
▁ro	-9.59265
▁object	-9.593
▁collect	-9.59301
▁messages	-9.59305
ndistinct	-9.59318
▁usual	-9.59334
▁temper	-9.59335
▁dallas	-9.59336
▁excellent	-9.59336
▁farewell	-9.59336
▁iggy	-9.59336
▁ingrid	-9.59336
▁matata	-9.59336
▁regret	-9.59336
▁sergeant	-9.59336
▁sweetheart	-9.59336
▁thick	-9.59336
▁tobias	-9.59336
▁border	-9.59336
▁congratulations	-9.59336
▁faint	-9.59336
▁haru	-9.59336
▁bound	-9.59337
▁heeft	-9.59337
▁wipe	-9.59338
▁happiness	-9.59338
▁ponies	-9.59338
▁nowhere	-9.59339
▁loving	-9.5934
▁nope	-9.59342
▁spent	-9.59342
▁information	-9.59343
▁twenty	-9.59345
▁whoohoo	-9.59345
▁saturn	-9.59345
▁hans	-9.59353
▁planned	-9.59356
ut	-9.59357
▁flint	-9.59358
▁pressure	-9.59358
▁angry	-9.5936
▁halt	-9.59365
▁winner	-9.59369
▁chosen	-9.59376
▁claim	-9.594
▁page	-9.5941
▁mister	-9.59441
▁dit	-9.5947
▁rocket	-9.59479
▁lying	-9.59486
▁clicks	-9.59536
▁sally	-9.59559
▁spy	-9.59563
▁tour	-9.59665
▁meows	-9.59666
▁losing	-9.59687
▁delivery	-9.59743
▁turns	-9.59752
v	-9.59756
▁noticed	-9.59788
▁grasshoppers	-9.59795
▁dollars	-9.59795
▁tune	-9.59932
▁chattering	-9.59936
king	-9.5998
▁winds	-9.60058
▁leaves	-9.60081
▁hatch	-9.60214
▁mud	-9.60366
▁ringing	-9.60472
ine	-9.6056
▁blowing	-9.60641
▁et	-9.60668
▁expected	-9.60796
▁returned	-9.60931
▁expecting	-9.61218
ally	-9.61391
▁carol	-9.61458
▁helping	-9.61512
▁hynkel	-9.61676
▁kings	-9.61872
▁cap	-9.62119
men	-9.62145
ring	-9.62317
gen	-9.63104
▁states	-9.63361
▁buzzing	-9.63464
▁he	-9.63888
it	-9.63942
ier	-9.64001
▁nights	-9.64057
▁chickens	-9.64296
▁experiment	-9.64341
▁miracle	-9.64342
▁club	-9.64457
▁horn	-9.64493
▁hoe	-9.6452
▁cost	-9.64566
▁heel	-9.6457
▁feather	-9.64599
▁yankee	-9.64648
ad	-9.64847
▁stranger	-9.64894
x	-9.6503
▁roses	-9.65103
▁wave	-9.65114
▁shows	-9.65178
▁post	-9.65339
▁reports	-9.65391
▁ma	-9.65513
▁consider	-9.65515
▁slip	-9.65636
house	-9.65999
▁lands	-9.66005
▁final	-9.66107
▁survive	-9.66195
▁decide	-9.66208
▁yea	-9.66232
▁fort	-9.66251
▁waar	-9.6631
▁apart	-9.66425
▁discuss	-9.66444
▁cell	-9.66454
▁range	-9.66472
▁inter	-9.66477
▁europe	-9.66479
▁whenever	-9.66479
▁aldrin	-9.66479
▁ancient	-9.66479
▁despereaux	-9.66479
▁dokter	-9.66479
▁ebenezer	-9.66479
▁elevator	-9.66479
▁heinrich	-9.66479
▁marriage	-9.66479
▁piedmont	-9.66479
▁practical	-9.66479
▁progress	-9.66479
▁smash	-9.66479
▁starvation	-9.66479
▁telegram	-9.66479
▁thumb	-9.66479
▁zazu	-9.66479
▁radar	-9.66479
▁antony	-9.66479
▁pleasant	-9.66479
▁route	-9.66479
▁friedrich	-9.6648
▁bernard	-9.6648
▁glory	-9.6648
▁greek	-9.6648
▁selden	-9.6648
▁threw	-9.66481
▁oz	-9.66484
▁silence	-9.66486
▁smooth	-9.66486
▁chuckling	-9.66487
▁horrible	-9.66487
▁prophet	-9.66488
▁energy	-9.66488
▁excellency	-9.66488
▁rice	-9.66489
▁recognize	-9.66489
▁innocent	-9.66492
▁ashamed	-9.665
▁confidence	-9.665
▁racecar	-9.66501
▁package	-9.66503
▁harvest	-9.66507
▁beach	-9.66508
▁aside	-9.66508
▁cake	-9.66508
▁ranch	-9.6651
▁whatll	-9.66516
itus	-9.66525
▁aid	-9.66537
▁knowledge	-9.66537
▁mim	-9.66541
▁snoops	-9.66557
▁status	-9.66562
▁whatd	-9.66565
▁winter	-9.66579
▁lick	-9.6661
▁disappeared	-9.6664
▁wie	-9.66701
▁sin	-9.66804
▁lips	-9.6687
ure	-9.66919
▁metal	-9.66978
▁raised	-9.66985
▁streets	-9.66999
▁manage	-9.67
▁seriously	-9.67019
▁knowing	-9.67085
▁spit	-9.67131
▁hoping	-9.67185
▁mac	-9.6719
▁nou	-9.67235
▁flyin	-9.67427
▁bigge	-9.67689
▁tryin	-9.67704
▁fur	-9.67707
▁acting	-9.67817
▁mis	-9.67913
▁wa	-9.67917
▁counting	-9.67958
▁fixed	-9.6796
▁sis	-9.68027
led	-9.68107
▁dry	-9.6813
▁falling	-9.68236
▁feelings	-9.68245
▁experience	-9.68504
▁walked	-9.68518
li	-9.68846
old	-9.68853
▁breathe	-9.68859
▁sal	-9.69154
la	-9.69157
▁the	-9.69321
▁thinks	-9.69441
▁fingers	-9.69524
▁se	-9.69588
ical	-9.69704
red	-9.69775
▁romans	-9.70102
▁paying	-9.70252
▁opening	-9.70413
▁mountains	-9.70508
un	-9.70573
▁begins	-9.70673
▁flowers	-9.70678
▁lock	-9.70795
▁bobb	-9.70971
▁sp	-9.71693
▁skill	-9.71739
ance	-9.71804
▁shine	-9.71844
▁yell	-9.71845
▁dictator	-9.72031
be	-9.7214
▁trap	-9.72149
▁condition	-9.72213
▁herd	-9.72258
▁neigh	-9.72265
▁bears	-9.7228
▁direction	-9.72286
▁toward	-9.72306
▁cloud	-9.7231
▁apple	-9.72353
▁prisoner	-9.72373
▁goed	-9.72391
▁hu	-9.72442
▁due	-9.7254
tic	-9.72553
▁inc	-9.72628
ern	-9.7267
▁indian	-9.72974
▁ghosts	-9.72981
▁bow	-9.73017
▁patti	-9.73145
▁tramp	-9.73224
▁starts	-9.73257
▁talked	-9.73384
ent	-9.73399
▁stayed	-9.7341
▁bus	-9.73541
▁murder	-9.73609
ist	-9.73626
▁herr	-9.73674
▁sew	-9.73677
▁cast	-9.73741
▁conquer	-9.73791
though	-9.73816
▁drunk	-9.73885
mm	-9.7392
▁jew	-9.73963
ak	-9.74126
▁robot	-9.7414
▁snap	-9.74169
▁advice	-9.74171
▁chinese	-9.74171
▁chorus	-9.74171
▁columbia	-9.74171
▁council	-9.74171
▁cricket	-9.74171
▁divine	-9.74171
▁exhaust	-9.74171
▁guidance	-9.74171
▁holiday	-9.74171
▁jacqueline	-9.74171
▁jeremy	-9.74171
▁lassie	-9.74171
▁medusa	-9.74171
▁monsieur	-9.74171
▁possibly	-9.74171
▁prissy	-9.74171
▁rolfe	-9.74171
▁scoop	-9.74171
▁security	-9.74171
▁someplace	-9.74171
▁stomach	-9.74171
▁tallulah	-9.74171
▁thief	-9.74171
▁tirzah	-9.74171
▁valuable	-9.74171
▁yzma	-9.74171
▁among	-9.74171
▁jenny	-9.74171
▁philippe	-9.74171
▁mattie	-9.74172
▁esther	-9.74172
▁guide	-9.74172
▁berlin	-9.74172
▁support	-9.74172
▁buried	-9.74172
▁kaart	-9.74173
▁written	-9.74173
▁closing	-9.74174
▁dersu	-9.74174
▁pierre	-9.74174
▁bagheera	-9.74175
▁ruth	-9.74175
▁clown	-9.74177
▁mansfield	-9.74177
▁whew	-9.74177
▁title	-9.74177
▁whoever	-9.74178
▁challenge	-9.74179
▁miserable	-9.74179
▁alvin	-9.7418
▁pacha	-9.7418
▁twelve	-9.74182
▁wizard	-9.74183
▁clever	-9.74183
▁grandpa	-9.74184
▁model	-9.74188
▁peasant	-9.74191
▁bianca	-9.74194
▁evinrude	-9.74194
▁saddle	-9.74196
▁lionesses	-9.74197
▁code	-9.74199
▁memory	-9.74199
▁necessary	-9.74216
▁victory	-9.74221
▁stickers	-9.74232
▁wide	-9.74234
▁precisely	-9.7424
▁uhuh	-9.74265
▁leak	-9.74266
▁log	-9.74301
▁miller	-9.74309
▁gray	-9.74312
▁lake	-9.74312
▁dave	-9.74325
▁fred	-9.74349
▁port	-9.74435
▁bent	-9.74532
▁mm	-9.74532
▁troops	-9.74552
▁properly	-9.74574
▁pt	-9.74689
▁finest	-9.74699
▁stealing	-9.7483
chi	-9.74858
▁legions	-9.7486
ard	-9.75016
▁holy	-9.75112
▁pur	-9.75141
▁searching	-9.75195
▁highly	-9.75339
▁picky	-9.75424
▁woo	-9.75538
ri	-9.75724
▁pirates	-9.75777
▁towards	-9.76083
▁bar	-9.76118
▁dreamed	-9.76154
▁ty	-9.76285
▁ears	-9.76594
▁pulling	-9.76613
▁played	-9.76668
▁boots	-9.76725
▁creatures	-9.76853
▁dor	-9.77688
tical	-9.78333
▁hoped	-9.78456
ba	-9.78648
▁po	-9.78679
▁ab	-9.78691
▁killing	-9.78713
am	-9.78794
ate	-9.78874
dee	-9.79172
▁keeping	-9.79173
eedle	-9.79222
▁breath	-9.79293
▁sire	-9.79348
▁øù	-9.7936
▁devils	-9.79498
▁interest	-9.7964
▁mans	-9.802
▁pig	-9.8032
▁bottle	-9.80371
▁cream	-9.80387
▁chap	-9.80464
▁credit	-9.80511
▁senator	-9.80511
▁ticket	-9.80519
▁smells	-9.80589
▁animal	-9.8066
▁spare	-9.80715
▁shoe	-9.80809
▁lap	-9.80982
▁letter	-9.8116
▁frighten	-9.8158
▁opens	-9.81762
▁float	-9.81906
▁pen	-9.81932
▁concern	-9.82112
▁dum	-9.82267
▁arrive	-9.82312
▁ash	-9.82343
▁trail	-9.82355
▁den	-9.82355
▁consul	-9.8238
▁austria	-9.82413
▁potato	-9.82413
▁cl	-9.8243
▁cab	-9.82458
▁steps	-9.82463
▁slim	-9.82487
▁electric	-9.82488
▁butt	-9.82489
▁here	-9.82492
▁amsterdam	-9.82505
▁assume	-9.82505
▁aurora	-9.82505
▁behave	-9.82505
▁bertrand	-9.82505
▁brick	-9.82505
▁cavalier	-9.82505
▁choir	-9.82505
▁contract	-9.82505
▁dungeon	-9.82505
▁focus	-9.82505
▁government	-9.82505
▁groaning	-9.82505
▁grumpy	-9.82505
▁guido	-9.82505
▁military	-9.82505
▁mufasa	-9.82505
▁ocean	-9.82505
▁osono	-9.82505
▁suellen	-9.82505
▁sweep	-9.82505
▁throne	-9.82505
▁throttle	-9.82505
▁toast	-9.82505
▁oops	-9.82505
▁swell	-9.82505
▁arrius	-9.82505
▁audience	-9.82505
▁sector	-9.82505
▁nephew	-9.82505
▁hubert	-9.82506
▁ordinary	-9.82506
▁ugh	-9.82506
▁carrots	-9.82506
▁ignition	-9.82506
▁whistling	-9.82506
▁jealous	-9.82507
▁capcom	-9.82507
▁foreign	-9.82507
▁prize	-9.82507
▁flew	-9.82508
▁wire	-9.82508
▁batteries	-9.82508
▁beware	-9.82508
▁section	-9.82509
▁meneer	-9.82509
▁study	-9.82509
▁fond	-9.8251
▁freak	-9.8251
▁simulation	-9.82511
▁solid	-9.82512
▁freddy	-9.82513
▁sample	-9.82513
▁soap	-9.82514
▁bang	-9.82515
▁opportunity	-9.82516
▁jerry	-9.82516
▁nasty	-9.82518
▁aware	-9.8252
▁firm	-9.8252
▁splash	-9.8252
▁iron	-9.82521
▁collar	-9.82521
▁youth	-9.82522
▁mere	-9.82522
▁chirping	-9.82529
▁gaat	-9.82529
▁familiar	-9.8253
▁dramatic	-9.82531
▁flies	-9.8254
▁skies	-9.8254
▁distance	-9.82542
▁pole	-9.82561
▁amen	-9.82563
▁rf	-9.8257
▁tolling	-9.82572
▁kachow	-9.82573
▁sweetie	-9.82581
▁goodnight	-9.82582
▁inches	-9.82595
▁saving	-9.82597
▁scoffs	-9.82598
▁bridge	-9.82618
▁inch	-9.82622
▁ahem	-9.82626
▁proof	-9.82667
▁fleet	-9.82701
▁salt	-9.82705
▁reasonable	-9.82726
bit	-9.82736
▁gotcha	-9.82765
▁james	-9.82772
▁alley	-9.82846
▁honking	-9.82881
▁niks	-9.82922
▁substituti	-9.82976
▁thin	-9.83161
▁slowly	-9.83176
▁settled	-9.83214
ron	-9.83259
▁ate	-9.8329
▁receive	-9.83295
▁cooking	-9.83325
he	-9.83337
▁helpless	-9.83406
▁pitching	-9.83406
▁fairy	-9.83451
▁prayers	-9.83451
▁allowed	-9.83473
▁cone	-9.83514
nder	-9.83528
▁filled	-9.83543
▁perfectly	-9.83626
▁rides	-9.83708
▁shouts	-9.83766
▁bat	-9.83773
▁burned	-9.83805
▁rode	-9.83912
uw	-9.83947
▁tot	-9.83956
▁hen	-9.84042
▁uhh	-9.84083
▁lee	-9.84155
▁stops	-9.84281
▁lied	-9.84443
▁fools	-9.84501
▁con	-9.84504
▁yells	-9.84593
▁hardy	-9.84603
▁feathers	-9.84758
po	-9.84859
▁bills	-9.8511
eve	-9.85309
▁ended	-9.85371
ta	-9.85771
der	-9.85811
▁ag	-9.85823
ver	-9.85896
▁rip	-9.85972
▁compassion	-9.85987
▁el	-9.86034
▁barn	-9.86099
▁calls	-9.86268
one	-9.86446
ious	-9.86528
elp	-9.86755
▁che	-9.86774
▁chan	-9.86852
▁pieces	-9.86956
▁bl	-9.86966
▁numbers	-9.87029
▁rays	-9.87458
▁le	-9.87496
cent	-9.88234
ite	-9.8832
▁score	-9.88817
▁questions	-9.8887
▁lads	-9.88944
▁sub	-9.89202
▁ku	-9.89358
▁tracks	-9.89375
▁photo	-9.89452
▁griffin	-9.89452
▁stink	-9.89473
▁legend	-9.89474
▁taxi	-9.89482
▁tire	-9.89524
▁heir	-9.89564
▁slave	-9.89595
▁triumph	-9.89635
▁pirate	-9.89652
▁sport	-9.89732
eral	-9.89797
▁that	-9.89809
ery	-9.89836
▁spells	-9.90047
ized	-9.901
▁mass	-9.90306
▁rate	-9.90592
ul	-9.90629
ee	-9.90769
▁blast	-9.90943
▁design	-9.9128
▁release	-9.91303
▁guarantee	-9.91304
▁require	-9.91307
▁curse	-9.91317
▁cheat	-9.91328
▁earn	-9.91344
▁whee	-9.91401
▁prison	-9.91414
nnen	-9.91418
▁grant	-9.91452
▁bush	-9.91543
▁automat	-9.91561
▁comfort	-9.91566
▁weg	-9.91588
▁turkey	-9.91596
▁available	-9.91596
▁bargain	-9.91596
▁brilliant	-9.91596
▁celia	-9.91596
▁codfish	-9.91596
▁college	-9.91596
▁crawl	-9.91596
▁dutton	-9.91596
▁equipment	-9.91596
▁extraordinary	-9.91596
▁greta	-9.91596
▁innovative	-9.91596
▁insult	-9.91596
▁mikayla	-9.91596
▁organism	-9.91596
▁otherwise	-9.91596
▁pompey	-9.91596
▁shape	-9.91596
▁spoil	-9.91596
▁transfer	-9.91596
▁tuesday	-9.91596
▁victim	-9.91596
▁invasion	-9.91596
▁orbit	-9.91596
▁skumps	-9.91596
▁uniform	-9.91596
▁drove	-9.91596
▁presence	-9.91596
▁local	-9.91597
▁reveal	-9.91597
▁reputation	-9.91597
▁bride	-9.91599
▁edge	-9.91599
▁group	-9.916
▁growls	-9.916
▁goose	-9.91601
▁gorgeous	-9.91601
▁verify	-9.91602
▁fiddle	-9.91602
▁nuhuh	-9.91603
▁giant	-9.91604
▁luiz	-9.91607
▁arrest	-9.91609
▁dropped	-9.9161
▁marcus	-9.9161
▁whooshes	-9.91611
▁flora	-9.91612
▁intelligent	-9.91613
▁rug	-9.91613
▁reward	-9.91613
▁tractor	-9.91614
ulous	-9.91617
▁frog	-9.91617
▁woodsman	-9.91618
▁slight	-9.91622
▁puppy	-9.91628
▁treatment	-9.91642
▁image	-9.91644
▁wheel	-9.91646
▁gather	-9.91651
▁darkness	-9.9166
▁toeses	-9.91661
▁grandfather	-9.9167
▁knob	-9.91671
▁mice	-9.91685
▁process	-9.91698
▁growth	-9.91704
▁stock	-9.91719
▁scan	-9.9172
▁dismissed	-9.91726
▁zeg	-9.91783
▁cower	-9.91817
▁bay	-9.91841
▁meer	-9.91846
▁string	-9.91892
▁softly	-9.91896
▁rent	-9.91905
▁sold	-9.91912
▁bloomin	-9.91914
▁received	-9.91926
▁naturally	-9.91932
▁latest	-9.91943
▁hebt	-9.91945
▁willing	-9.91949
▁ruler	-9.91985
▁yah	-9.9202
▁frightened	-9.92025
▁create	-9.92093
▁trials	-9.92237
▁locker	-9.92242
▁stronger	-9.92278
ior	-9.92395
▁warriors	-9.92419
▁escaped	-9.92491
▁lily	-9.92509
▁customers	-9.92613
▁type	-9.92685
ia	-9.92744
▁tied	-9.9286
▁closet	-9.92906
▁woods	-9.92927
▁carefully	-9.93032
ung	-9.93059
▁ken	-9.93275
▁zoe	-9.93418
▁burning	-9.93436
▁an	-9.93437
▁lately	-9.93508
▁patch	-9.93515
▁sams	-9.93653
▁younger	-9.93686
▁carrying	-9.93738
▁pulled	-9.93868
▁hon	-9.94031
▁ba	-9.94044
▁fo	-9.94254
▁fans	-9.94293
▁deze	-9.94321
▁siren	-9.94358
▁leading	-9.94674
▁cleared	-9.94779
▁tim	-9.95016
ho	-9.95056
▁breaking	-9.95098
ca	-9.95099
ives	-9.9516
▁sending	-9.95205
▁checking	-9.95305
ize	-9.95445
▁speaks	-9.95747
▁likely	-9.95811
ot	-9.95848
▁using	-9.9585
▁jou	-9.95979
▁records	-9.96159
▁cu	-9.96272
▁sa	-9.96301
▁net	-9.96589
ze	-9.96726
ey	-9.96798
▁zou	-9.9698
ble	-9.97212
▁souls	-9.97248
▁magical	-9.97361
▁positions	-9.97438
cy	-9.97775
▁parts	-9.98083
▁slap	-9.98105
▁til	-9.98117
▁lies	-9.98249
hhh	-9.98362
rine	-9.98479
ons	-9.98498
▁levels	-9.98574
▁lookin	-9.98973
▁chain	-9.99192
▁troubles	-9.99253
ade	-9.99426
▁mirror	-9.99451
▁regard	-9.99451
▁caesars	-9.99478
▁circuit	-9.99482
▁cow	-9.99484
▁bike	-9.99487
▁rabbit	-9.99549
ap	-9.99631
sp	-9.99705
▁fang	-9.99731
ir	-9.9995
▁inf	-10.0001
away	-10.0033
▁paw	-10.0037
▁permit	-10.0047
▁matters	-10.0057
▁india	-10.006
▁sons	-10.0065
▁add	-10.0067
▁lover	-10.007
▁flip	-10.0088
je	-10.0104
ball	-10.011
▁whisper	-10.0111
▁spin	-10.0112
▁crook	-10.0119
que	-10.0124
▁square	-10.0125
▁remove	-10.0128
ullen	-10.0129
▁schedule	-10.013
▁invite	-10.0132
▁introduce	-10.0133
▁brings	-10.0136
▁correct	-10.0137
▁nee	-10.0139
▁rust	-10.0139
▁mooi	-10.014
▁exact	-10.0141
oon	-10.0144
▁jun	-10.0147
▁judea	-10.0148
▁total	-10.0149
▁spoke	-10.0151
▁mij	-10.0151
▁announce	-10.0152
▁livin	-10.0157
ors	-10.0158
▁odlay	-10.0159
▁alexandria	-10.016
▁babies	-10.016
▁beneath	-10.016
▁bernadette	-10.016
▁capsule	-10.016
▁cbts	-10.016
▁century	-10.016
▁collins	-10.016
▁effort	-10.016
▁empire	-10.016
▁expert	-10.016
▁explanation	-10.016
▁feast	-10.016
▁fowler	-10.016
▁grammar	-10.016
▁hudson	-10.016
▁kachicka	-10.016
▁knife	-10.016
▁koichi	-10.016
▁liberty	-10.016
▁luigi	-10.016
▁maleficent	-10.016
▁maneuver	-10.016
▁mekoides	-10.016
▁modern	-10.016
▁montana	-10.016
▁pumbaa	-10.016
▁ragsdale	-10.016
▁rookie	-10.016
▁roscuro	-10.016
▁sacrifice	-10.016
▁splendid	-10.016
▁stefan	-10.016
▁treguna	-10.016
▁unbelievable	-10.016
▁wiedersehen	-10.016
▁worries	-10.016
▁deck	-10.016
▁deputy	-10.016
▁descend	-10.016
▁hooray	-10.016
▁license	-10.016
▁succeed	-10.016
▁wailing	-10.016
▁bonjour	-10.016
▁apologize	-10.016
▁sweat	-10.016
▁colette	-10.016
▁invitation	-10.016
▁orphanage	-10.016
▁target	-10.016
▁zeller	-10.016
▁quincy	-10.016
▁sheep	-10.016
▁alaska	-10.016
▁barber	-10.016
▁wagon	-10.016
▁medal	-10.016
▁asleep	-10.016
▁tweedy	-10.016
▁babs	-10.016
▁locomotion	-10.016
ogee	-10.016
▁cheap	-10.016
▁jackson	-10.016
▁anthill	-10.016
▁guts	-10.016
▁planning	-10.016
▁compare	-10.0161
▁module	-10.0161
▁winning	-10.0161
▁unload	-10.0161
▁punch	-10.0161
▁exhales	-10.0161
▁quinn	-10.0161
▁doorbell	-10.0162
▁childhood	-10.0162
▁samba	-10.0163
▁whimpering	-10.0163
▁alleluia	-10.0163
▁amount	-10.0163
▁happily	-10.0163
▁sensitive	-10.0163
▁basket	-10.0163
▁grandma	-10.0163
▁raf	-10.0163
▁responsibility	-10.0163
▁society	-10.0163
▁material	-10.0163
▁freeze	-10.0164
▁aboard	-10.0164
▁bedroom	-10.0164
▁bunk	-10.0164
▁humble	-10.0165
▁loan	-10.0165
▁solve	-10.0165
▁selfish	-10.0166
▁doomed	-10.0166
▁bold	-10.0166
▁murmuring	-10.0168
▁sol	-10.0169
▁hearing	-10.017
▁needle	-10.0171
▁bully	-10.0171
▁foolish	-10.0171
▁spoken	-10.0172
▁fade	-10.0172
▁delighted	-10.0178
▁honorable	-10.0179
▁applauding	-10.0183
▁shining	-10.0185
▁dim	-10.0186
▁coat	-10.0187
▁farm	-10.0188
▁invited	-10.019
▁øøø	-10.0192
▁khan	-10.0192
▁fallen	-10.0196
▁personally	-10.0199
▁howdy	-10.0199
▁approaching	-10.0199
▁chime	-10.0202
▁designed	-10.0203
▁nala	-10.0203
▁shy	-10.0204
▁aim	-10.0208
▁nest	-10.0208
▁tide	-10.0209
▁degrees	-10.0211
▁los	-10.0215
▁considered	-10.0216
▁poisoned	-10.0225
▁herring	-10.0226
▁warned	-10.0227
▁citizens	-10.023
▁showing	-10.024
▁carried	-10.0241
▁ni	-10.0251
rk	-10.0254
▁destroyed	-10.0257
▁squeaking	-10.026
▁recorded	-10.0263
▁curls	-10.027
▁delivered	-10.0271
uf	-10.0272
▁appears	-10.0292
▁manners	-10.0293
▁scaring	-10.0297
▁frame	-10.0302
▁tense	-10.0309
▁marked	-10.0309
▁pushing	-10.0312
off	-10.0316
▁tend	-10.0323
▁success	-10.0327
lf	-10.0331
▁flop	-10.0335
ping	-10.0348
og	-10.035
▁harder	-10.0351
bed	-10.0355
▁jews	-10.0402
▁bars	-10.0408
▁sisters	-10.0417
▁sleepy	-10.0426
▁nah	-10.0428
▁stuffed	-10.0449
▁deed	-10.0452
▁monkeys	-10.0456
▁rangers	-10.0457
▁ap	-10.0479
▁strip	-10.0482
▁mar	-10.049
▁learning	-10.0503
▁jess	-10.0515
zal	-10.0525
▁tales	-10.0548
▁grave	-10.055
▁brew	-10.0567
▁pies	-10.0584
▁throwing	-10.0588
fully	-10.0588
di	-10.0589
▁lessons	-10.0603
▁ignore	-10.0607
▁com	-10.0619
▁andys	-10.0663
▁ùøù	-10.0698
▁led	-10.0705
▁boom	-10.0723
▁keeps	-10.0738
▁pre	-10.0774
▁cc	-10.0788
ably	-10.0802
▁sayin	-10.0806
ator	-10.0821
▁hurts	-10.0822
▁whip	-10.0841
▁sla	-10.0849
iss	-10.0853
da	-10.0889
ill	-10.0909
ned	-10.0922
▁ne	-10.0939
▁ages	-10.0952
ko	-10.0952
you	-10.0957
ew	-10.096
▁remembered	-10.0963
pa	-10.0968
me	-10.0978
weet	-10.0982
▁heading	-10.0987
tion	-10.0995
of	-10.1005
ner	-10.1013
we	-10.1021
ina	-10.1022
▁bud	-10.1028
▁risk	-10.1031
▁patient	-10.1041
▁charm	-10.1046
▁brute	-10.1056
▁chip	-10.1056
▁finding	-10.1058
▁noise	-10.106
▁claw	-10.1068
▁flea	-10.1071
▁servant	-10.1072
▁sigh	-10.1073
▁snake	-10.1074
▁tank	-10.1076
▁operation	-10.1077
sh	-10.108
▁changes	-10.1082
▁exist	-10.1085
▁beep	-10.1109
▁occasion	-10.1117
▁fab	-10.1123
▁bid	-10.1127
▁hou	-10.1129
▁trans	-10.1133
▁falls	-10.1134
▁file	-10.1148
▁tub	-10.1157
side	-10.1162
▁she	-10.1194
▁chuck	-10.1199
▁singer	-10.1212
▁toad	-10.1212
free	-10.1221
▁honk	-10.1228
▁but	-10.1229
▁develop	-10.123
▁disturb	-10.123
▁lean	-10.123
▁connect	-10.123
▁confirm	-10.1234
▁disgrace	-10.1237
▁suffer	-10.1241
ac	-10.1244
▁photograph	-10.1245
board	-10.1246
▁dash	-10.1248
try	-10.1249
▁robert	-10.1258
▁scratch	-10.1259
▁governess	-10.1259
▁mijn	-10.1259
▁america	-10.1262
▁satis	-10.1265
▁tech	-10.1267
▁ùùù	-10.1269
▁birth	-10.127
▁broad	-10.127
▁francis	-10.127
▁character	-10.1271
▁wealth	-10.1271
belerephon	-10.1271
▁anytime	-10.1271
▁awesome	-10.1271
▁beatrice	-10.1271
▁benhur	-10.1271
▁cafeteria	-10.1271
▁concert	-10.1271
▁device	-10.1271
▁divorce	-10.1271
▁example	-10.1271
▁fbi	-10.1271
▁footsteps	-10.1271
▁goldfish	-10.1271
▁gretl	-10.1271
▁helicopter	-10.1271
▁hollywood	-10.1271
▁jerusalem	-10.1271
▁leavitt	-10.1271
▁meacham	-10.1271
▁mexico	-10.1271
▁phyllis	-10.1271
▁ptolemy	-10.1271
▁racket	-10.1271
▁rhyme	-10.1271
▁roosevelt	-10.1271
▁sheenan	-10.1271
▁squire	-10.1271
▁television	-10.1271
▁thunderclap	-10.1271
▁trecorum	-10.1271
▁tremendous	-10.1271
▁twippo	-10.1271
▁unusual	-10.1271
▁zelda	-10.1271
▁film	-10.1271
▁recently	-10.1271
▁jock	-10.1271
▁kyle	-10.1271
▁saint	-10.1271
▁sneak	-10.1271
▁gracious	-10.1271
▁hidden	-10.1271
▁assure	-10.1271
▁midnight	-10.1271
▁negative	-10.1271
▁melody	-10.1271
▁neighborhood	-10.1271
▁vicious	-10.1271
▁compete	-10.1271
▁strawberries	-10.1271
▁fashion	-10.1271
▁greed	-10.1271
▁howie	-10.1271
▁dignity	-10.1271
▁print	-10.1271
▁amuse	-10.1271
▁googley	-10.1271
▁knight	-10.1271
▁performance	-10.1271
▁humming	-10.1271
▁briny	-10.1271
▁earlier	-10.1271
▁secure	-10.1271
▁clue	-10.1271
▁whack	-10.1271
▁duties	-10.1271
▁centuries	-10.1271
▁communication	-10.1271
▁appointment	-10.1271
▁babe	-10.1271
▁species	-10.1271
▁joking	-10.1272
▁heap	-10.1272
▁imagination	-10.1272
▁totem	-10.1272
▁whatre	-10.1272
▁maintain	-10.1272
▁foul	-10.1272
▁schat	-10.1272
▁zeggen	-10.1272
▁hurray	-10.1272
▁clumsy	-10.1272
▁countdown	-10.1272
▁plum	-10.1272
▁isis	-10.1272
▁headmaster	-10.1273
▁minor	-10.1273
▁trace	-10.1274
▁steel	-10.1274
▁ultimate	-10.1274
▁widow	-10.1274
▁carriage	-10.1274
▁slink	-10.1274
▁changing	-10.1274
▁meat	-10.1274
▁publicity	-10.1275
▁fifty	-10.1275
▁receiving	-10.1275
▁hush	-10.1275
▁original	-10.1275
▁item	-10.1275
▁lamp	-10.1276
▁sneezing	-10.1276
▁drone	-10.1276
▁dip	-10.1277
▁dandy	-10.1277
▁ross	-10.1277
▁biological	-10.1277
▁factory	-10.1277
▁piper	-10.1278
▁motion	-10.1279
and	-10.1279
▁determined	-10.1279
▁according	-10.128
▁physical	-10.1281
▁pool	-10.1281
▁romero	-10.1282
▁mankind	-10.1283
▁hup	-10.1283
▁friendship	-10.1284
▁colony	-10.1284
▁arranged	-10.1286
▁writing	-10.1286
▁chop	-10.1287
▁minus	-10.1287
▁operate	-10.129
▁navy	-10.1294
▁actor	-10.1296
▁murderer	-10.1296
▁komen	-10.1296
▁altair	-10.1298
▁brush	-10.1304
▁bump	-10.1304
▁restore	-10.1305
▁sl	-10.1305
▁squeals	-10.1306
▁dull	-10.1306
▁ruined	-10.1306
▁forty	-10.1307
▁lend	-10.1308
▁bury	-10.1309
corpora	-10.1316
▁survived	-10.1316
▁kisses	-10.132
▁earned	-10.1324
▁concerned	-10.1324
▁hyenas	-10.1328
▁murdered	-10.1329
▁bur	-10.1333
▁completed	-10.1336
▁pest	-10.1338
▁discovered	-10.1338
▁haha	-10.1343
▁down	-10.1345
cht	-10.1354
▁roaring	-10.1359
▁loaded	-10.1366
▁boarding	-10.1374
▁celebrate	-10.1388
▁praise	-10.1392
▁finds	-10.1393
▁noon	-10.14
▁quicker	-10.1408
▁students	-10.1419
▁conversations	-10.1419
▁rolling	-10.1421
▁nau	-10.1421
▁scot	-10.1422
▁lines	-10.1436
▁depends	-10.1446
▁safely	-10.1457
▁mayor	-10.1458
▁clearly	-10.1465
▁beating	-10.1491
len	-10.1491
▁ordered	-10.15
▁ons	-10.1507
▁passing	-10.1509
▁sports	-10.151
sun	-10.152
▁si	-10.1529
▁slippe	-10.1545
▁strangers	-10.1587
▁paris	-10.1588
▁spark	-10.1598
em	-10.1599
▁sneeze	-10.1608
▁growing	-10.1625
▁shooting	-10.1645
▁dragons	-10.1652
▁odds	-10.1674
▁career	-10.1688
▁faces	-10.1701
▁badly	-10.1723
▁you	-10.1727
▁bone	-10.1727
▁ra	-10.175
▁hay	-10.1761
▁landed	-10.1773
tch	-10.1795
▁invade	-10.1814
br	-10.1819
z	-10.1852
▁hum	-10.189
▁daughters	-10.1895
▁mann	-10.1896
▁sho	-10.1911
▁idiots	-10.1931
▁springs	-10.1933
▁greater	-10.1959
▁ad	-10.1959
▁me	-10.1982
▁sc	-10.1986
▁depend	-10.2037
j	-10.2078
mans	-10.2094
ga	-10.2095
les	-10.2106
head	-10.2116
▁fellows	-10.2123
▁machines	-10.2123
▁rub	-10.2135
▁ki	-10.2151
▁thinkin	-10.2154
ven	-10.2155
▁dads	-10.2157
ou	-10.2157
work	-10.2182
ile	-10.2211
▁shout	-10.2241
room	-10.2242
▁slam	-10.2245
▁flap	-10.2247
▁organ	-10.2251
lic	-10.2264
ah	-10.2268
unty	-10.2271
▁bolt	-10.2273
▁ruin	-10.2284
▁doors	-10.2292
▁nightmare	-10.2306
▁dozen	-10.231
▁beau	-10.2315
▁squirrel	-10.2316
▁american	-10.2316
▁treasure	-10.2317
▁roam	-10.2317
▁tony	-10.232
▁laser	-10.2321
▁subject	-10.2324
▁member	-10.2327
ùùùø	-10.2331
▁bond	-10.2344
ual	-10.2349
▁cancel	-10.2358
io	-10.236
▁flam	-10.2365
tle	-10.2368
▁radi	-10.2374
▁ls	-10.2382
▁defend	-10.2384
▁era	-10.2386
▁mill	-10.2396
▁owl	-10.24
huh	-10.2415
▁racer	-10.2433
su	-10.2454
▁greet	-10.2456
▁flatter	-10.246
▁weed	-10.2466
rough	-10.247
class	-10.247
▁approach	-10.2472
▁suspect	-10.2476
▁intend	-10.2476
▁inform	-10.2477
▁flo	-10.2479
▁disappoint	-10.2481
sis	-10.2486
▁cock	-10.2493
ov	-10.2497
▁creep	-10.2498
▁particular	-10.2501
▁sudden	-10.2502
▁custom	-10.2503
league	-10.2505
▁slick	-10.2505
▁hyp	-10.2509
▁recommend	-10.2511
▁measure	-10.2514
gged	-10.2515
▁germ	-10.2516
▁takin	-10.2517
▁juda	-10.2517
▁politic	-10.252
▁loyal	-10.252
▁dick	-10.2521
cular	-10.2521
▁adorable	-10.2521
▁alexander	-10.2521
▁apparently	-10.2521
▁arthur	-10.2521
▁banana	-10.2521
▁beloved	-10.2521
▁crunch	-10.2521
▁cuckoo	-10.2521
▁doobee	-10.2521
▁duchess	-10.2521
▁eager	-10.2521
▁elephant	-10.2521
▁evidence	-10.2521
▁excitement	-10.2521
▁filigree	-10.2521
▁garbitsch	-10.2521
▁groove	-10.2521
▁gypsy	-10.2521
▁hamilton	-10.2521
▁iedereen	-10.2521
▁incident	-10.2521
▁infinity	-10.2521
▁insane	-10.2521
▁inspiration	-10.2521
▁interstate	-10.2521
▁merciful	-10.2521
▁motocross	-10.2521
▁peculiar	-10.2521
▁positive	-10.2521
▁rainbow	-10.2521
▁reference	-10.2521
▁research	-10.2521
▁shelter	-10.2521
▁structure	-10.2521
▁studio	-10.2521
▁subtitle	-10.2521
▁surgeon	-10.2521
▁tarshish	-10.2521
▁witchcraft	-10.2521
▁wrote	-10.2521
▁attend	-10.2521
▁attitude	-10.2521
▁byebye	-10.2521
▁dietrich	-10.2521
▁ector	-10.2521
▁mound	-10.2521
▁urgent	-10.2521
▁cobbler	-10.2521
▁conference	-10.2521
▁weave	-10.2521
▁worn	-10.2521
▁element	-10.2521
▁gently	-10.2521
▁hammer	-10.2521
▁valve	-10.2521
▁fifteen	-10.2521
▁philip	-10.2521
▁lggins	-10.2521
▁staff	-10.2521
▁torn	-10.2521
▁bracket	-10.2521
▁simpson	-10.2521
▁crime	-10.2521
▁lumber	-10.2521
▁balance	-10.2521
▁thread	-10.2521
▁dickens	-10.2521
▁mommy	-10.2521
▁whining	-10.2521
▁dirigible	-10.2521
▁enormous	-10.2521
▁opposite	-10.2521
▁cloak	-10.2521
▁novak	-10.2521
▁terminated	-10.2521
▁marvin	-10.2521
▁graham	-10.2521
▁jessica	-10.2521
▁cliff	-10.2521
▁occurred	-10.2521
▁motor	-10.2521
▁behold	-10.2521
▁private	-10.2521
▁split	-10.2521
▁impressive	-10.2521
▁seventeen	-10.2521
▁generous	-10.2521
▁arrow	-10.2521
▁garage	-10.2521
▁robertson	-10.2522
▁bathroom	-10.2522
▁copies	-10.2522
▁dood	-10.2522
▁propose	-10.2522
▁altitude	-10.2522
▁social	-10.2522
▁broadway	-10.2522
▁mag	-10.2522
custome	-10.2522
▁bloke	-10.2522
▁onto	-10.2522
▁york	-10.2522
▁laundry	-10.2522
▁facility	-10.2522
▁afford	-10.2523
▁fuel	-10.2523
▁dummy	-10.2523
▁percent	-10.2523
▁quest	-10.2523
▁creation	-10.2523
▁marcel	-10.2523
▁romantic	-10.2523
▁gravy	-10.2523
▁repair	-10.2523
▁chiu	-10.2523
▁enchanted	-10.2524
▁mood	-10.2525
▁expensive	-10.2525
▁mistress	-10.2525
▁mew	-10.2525
▁troopers	-10.2525
▁abbey	-10.2525
wij	-10.2526
▁dong	-10.2526
▁jaw	-10.2526
▁gruber	-10.2526
▁weight	-10.2528
▁cda	-10.2528
▁trade	-10.2529
▁thieves	-10.2529
▁easily	-10.2529
▁beak	-10.253
▁jeff	-10.253
▁standard	-10.253
▁mc	-10.253
▁protection	-10.253
▁halfway	-10.2531
▁wax	-10.2531
▁flirting	-10.2531
▁bonus	-10.2531
▁ket	-10.2531
▁sonny	-10.2531
▁dish	-10.2532
▁jelly	-10.2532
▁crate	-10.2532
▁liar	-10.2533
▁timon	-10.2533
▁tut	-10.2534
▁scout	-10.2534
▁banished	-10.2534
▁potatoes	-10.2535
▁kaa	-10.2535
▁brooks	-10.2535
▁whimpers	-10.2535
▁uit	-10.2535
▁armies	-10.2536
▁gear	-10.2536
▁manager	-10.2536
▁under	-10.2537
▁øùøù	-10.2538
▁cave	-10.2538
▁stopping	-10.2539
▁kiddo	-10.2539
▁birdie	-10.2541
▁seni	-10.2541
ken	-10.2541
▁creepy	-10.2544
▁cutting	-10.2544
▁bleeding	-10.2545
▁hired	-10.2545
▁frightful	-10.2545
▁barking	-10.2546
▁booster	-10.2546
▁zero	-10.2546
▁bitter	-10.2547
ummy	-10.2548
▁matches	-10.2548
▁wise	-10.2548
▁effect	-10.2549
▁backyard	-10.255
▁hawke	-10.255
▁butter	-10.255
▁director	-10.255
▁clanging	-10.2551
▁sink	-10.2557
▁mustard	-10.2558
▁ditch	-10.2559
▁tender	-10.256
▁galleys	-10.256
▁oaks	-10.256
▁whiskers	-10.256
▁disappointed	-10.256
▁wolves	-10.256
▁doen	-10.2561
emand	-10.2562
▁heer	-10.2563
▁killer	-10.2563
▁wee	-10.2564
▁starve	-10.2564
▁gate	-10.2564
▁goede	-10.2566
▁san	-10.2568
get	-10.2569
▁coin	-10.257
▁unh	-10.2573
▁witches	-10.2574
▁hac	-10.2578
▁hood	-10.2578
▁deny	-10.2585
▁oars	-10.2586
▁weapons	-10.2586
▁wood	-10.2586
▁cheating	-10.2593
▁driven	-10.2595
▁core	-10.26
▁pi	-10.2608
▁knuckles	-10.2612
▁x	-10.2615
▁thankful	-10.2627
▁warning	-10.2628
▁jer	-10.2631
▁served	-10.2632
hyd	-10.2633
▁øùø	-10.2635
▁sex	-10.2649
cial	-10.2652
▁data	-10.2653
▁crashing	-10.2655
▁searched	-10.2657
▁missus	-10.266
▁peas	-10.266
▁quarters	-10.2665
▁dragg	-10.2666
▁wishes	-10.2671
▁enjoyed	-10.2683
▁can	-10.2692
▁damned	-10.2694
▁jamie	-10.2697
▁belonged	-10.2701
▁visiting	-10.2716
adiator	-10.2722
▁tick	-10.2725
▁racers	-10.273
▁voices	-10.2733
▁counted	-10.2733
▁rot	-10.2742
▁will	-10.2764
▁on	-10.277
mp	-10.2772
▁justi	-10.2779
▁buck	-10.2787
the	-10.2796
▁hoo	-10.2818
▁letters	-10.2823
▁pigs	-10.2823
▁deadly	-10.2832
▁ye	-10.2835
▁kissing	-10.2836
here	-10.2836
▁gra	-10.2841
▁neighs	-10.2847
▁herds	-10.2849
▁apples	-10.285
▁instrument	-10.2851
▁touched	-10.286
▁waves	-10.2872
eval	-10.2873
rted	-10.2889
▁roars	-10.2903
▁nap	-10.2907
▁toes	-10.2922
▁beautifully	-10.2955
ord	-10.2968
▁minds	-10.2969
▁yesm	-10.2972
▁tastes	-10.2983
▁cr	-10.2995
▁prime	-10.2996
▁jokes	-10.3008
▁shadows	-10.3008
▁tis	-10.3018
▁fl	-10.3032
▁skinn	-10.3043
urge	-10.3054
▁dus	-10.3074
▁opened	-10.3091
ther	-10.3095
▁wit	-10.3099
▁nicely	-10.3103
▁ending	-10.3116
▁hurting	-10.3135
▁upa	-10.3143
ated	-10.3152
▁closes	-10.3176
ress	-10.3183
▁gene	-10.3193
▁tape	-10.3204
▁players	-10.3214
▁sle	-10.3216
▁snort	-10.3222
▁whistles	-10.3224
▁par	-10.3229
▁suits	-10.3242
ating	-10.3244
ue	-10.3256
▁ducks	-10.3274
▁all	-10.3298
▁ju	-10.33
▁systems	-10.3306
▁holes	-10.332
ren	-10.3325
▁mistakes	-10.3334
▁moments	-10.334
▁jo	-10.3348
ments	-10.3355
▁seal	-10.3363
▁ham	-10.338
nd	-10.3387
▁nucle	-10.3391
▁headed	-10.3398
nce	-10.3408
▁useful	-10.3426
▁worrying	-10.3437
▁tack	-10.3458
▁ber	-10.3474
cat	-10.3491
nc	-10.3496
▁windows	-10.3498
ture	-10.3504
▁qu	-10.3511
stone	-10.3512
af	-10.3514
ps	-10.3527
▁sher	-10.3533
▁waited	-10.354
lly	-10.3543
▁zee	-10.3549
headed	-10.3571
zing	-10.3572
▁mor	-10.363
▁shower	-10.3643
▁knee	-10.3651
ella	-10.3674
wa	-10.3675
▁waters	-10.3697
▁await	-10.3709
▁crow	-10.3712
▁appear	-10.3717
▁watling	-10.3741
▁list	-10.3742
▁summon	-10.3746
▁volunteer	-10.3749
▁criminal	-10.3753
▁conversation	-10.3759
▁student	-10.3759
▁bin	-10.376
▁jack	-10.3765
▁folk	-10.3766
port	-10.3772
▁farmer	-10.3774
▁mak	-10.3779
tte	-10.3798
▁uncha	-10.3805
▁manner	-10.3818
ber	-10.3821
▁dancer	-10.3825
▁stu	-10.3857
▁bel	-10.3869
▁gal	-10.3873
down	-10.3876
▁stretch	-10.3887
coming	-10.3889
hill	-10.3898
face	-10.39
town	-10.39
val	-10.3902
▁pour	-10.3902
back	-10.3902
national	-10.3904
law	-10.3906
▁draft	-10.3908
▁observe	-10.3914
▁hung	-10.3919
▁rush	-10.3919
▁provide	-10.3921
▁absolute	-10.3932
▁hee	-10.3939
▁chose	-10.394
▁heave	-10.3941
▁ohhh	-10.3941
▁spr	-10.3943
▁mysteri	-10.3945
▁harv	-10.3946
▁givin	-10.3946
▁mmhm	-10.3946
▁invent	-10.3946
▁favour	-10.3949
kuro	-10.3949
▁adieu	-10.3949
▁advance	-10.3949
▁aldana	-10.3949
▁anxious	-10.3949
▁apollodorus	-10.3949
▁assault	-10.3949
▁assistant	-10.3949
▁atmosphere	-10.3949
▁attempt	-10.3949
▁banner	-10.3949
▁bessie	-10.3949
▁blossom	-10.3949
▁capital	-10.3949
▁cetera	-10.3949
▁charizard	-10.3949
▁conclusion	-10.3949
▁conflict	-10.3949
▁corridor	-10.3949
▁cosmo	-10.3949
▁despise	-10.3949
▁dessert	-10.3949
▁disaster	-10.3949
▁doublecross	-10.3949
▁downstairs	-10.3949
▁enemies	-10.3949
▁escort	-10.3949
▁ghetto	-10.3949
▁grief	-10.3949
▁heck	-10.3949
▁hmph	-10.3949
▁inferior	-10.3949
▁initial	-10.3949
▁instance	-10.3949
▁kurosuke	-10.3949
▁looney	-10.3949
▁manuscript	-10.3949
▁maurice	-10.3949
▁nigel	-10.3949
▁nuisance	-10.3949
▁ostrich	-10.3949
▁relief	-10.3949
▁rendezvous	-10.3949
▁sandwich	-10.3949
▁scientific	-10.3949
▁squish	-10.3949
▁strife	-10.3949
▁tranquility	-10.3949
▁tulio	-10.3949
▁understood	-10.3949
▁velocity	-10.3949
▁vooruit	-10.3949
▁worship	-10.3949
▁affirmative	-10.3949
▁altra	-10.3949
▁ellie	-10.3949
▁pledge	-10.3949
▁recall	-10.3949
▁steak	-10.3949
▁terrain	-10.3949
▁terug	-10.3949
▁tiara	-10.3949
▁toilet	-10.3949
▁tradition	-10.3949
▁wretch	-10.3949
▁limb	-10.3949
▁coast	-10.3949
▁confound	-10.3949
▁loony	-10.3949
▁mittens	-10.3949
▁prettier	-10.3949
▁hawkins	-10.3949
▁milady	-10.3949
▁despair	-10.3949
▁chimney	-10.3949
▁curtain	-10.3949
▁mmmhmm	-10.3949
▁merryweather	-10.3949
▁content	-10.3949
▁independent	-10.3949
▁librarian	-10.3949
▁motto	-10.3949
▁glue	-10.3949
▁blimey	-10.395
▁juliet	-10.395
▁horseshoe	-10.395
▁spir	-10.395
▁sarah	-10.395
▁flair	-10.395
▁apology	-10.395
▁soso	-10.395
▁kettle	-10.395
▁glance	-10.395
▁limit	-10.395
▁bacon	-10.395
▁cruel	-10.395
▁crisis	-10.395
▁appearance	-10.395
▁hyah	-10.395
▁rubber	-10.395
▁series	-10.395
▁revolution	-10.395
▁youyou	-10.395
▁roz	-10.395
▁reliable	-10.395
▁affection	-10.395
▁foam	-10.395
▁swim	-10.395
▁awhile	-10.395
▁psychic	-10.395
▁porch	-10.3951
▁alfie	-10.3951
▁oof	-10.3951
▁edel	-10.3951
▁wwhat	-10.3951
▁georgia	-10.3951
▁wore	-10.3951
▁shade	-10.3951
▁lsland	-10.3951
▁movin	-10.3951
▁iets	-10.3952
▁wilson	-10.3952
▁stew	-10.3952
▁starving	-10.3952
▁kanta	-10.3952
▁chef	-10.3952
▁football	-10.3952
▁error	-10.3952
▁begun	-10.3953
▁delta	-10.3953
▁dwell	-10.3953
▁toch	-10.3953
▁fuss	-10.3953
▁tegen	-10.3953
▁alike	-10.3953
▁fake	-10.3954
▁dropping	-10.3954
▁tunnel	-10.3954
▁tijd	-10.3954
▁worm	-10.3954
▁universe	-10.3954
▁fruit	-10.3954
▁zien	-10.3954
▁gim	-10.3954
▁shift	-10.3954
▁shant	-10.3954
▁laboratory	-10.3955
▁household	-10.3955
▁nursery	-10.3955
▁witness	-10.3955
▁button	-10.3955
▁buggy	-10.3955
▁sever	-10.3955
▁scur	-10.3956
▁argue	-10.3956
ries	-10.3957
▁passage	-10.3957
▁statue	-10.3957
▁peg	-10.3957
▁tax	-10.3957
▁profit	-10.3957
▁respectable	-10.3958
▁chew	-10.3958
▁sickness	-10.3958
▁agreement	-10.3958
▁juice	-10.3959
▁bake	-10.396
▁dishes	-10.3961
▁clanking	-10.3961
▁sixty	-10.3961
▁flow	-10.3962
▁lala	-10.3962
▁stripes	-10.3962
▁bravery	-10.3963
▁cabin	-10.3965
▁confused	-10.3965
▁austrian	-10.3965
▁alf	-10.3966
▁technicians	-10.3966
▁generations	-10.3966
▁heh	-10.3967
▁hm	-10.3968
▁stands	-10.3968
▁shutter	-10.3968
zy	-10.3968
▁wandering	-10.3969
▁laid	-10.397
▁exception	-10.3971
eyed	-10.3971
▁particularly	-10.3972
ished	-10.3973
▁separated	-10.3974
▁daring	-10.3975
▁wounded	-10.3977
▁mixed	-10.3978
▁hitting	-10.3978
▁provided	-10.3978
▁rear	-10.3978
▁scraping	-10.3979
met	-10.398
▁surrounded	-10.3983
▁berries	-10.3986
traffic	-10.3987
▁mount	-10.3987
▁gasping	-10.3988
▁vind	-10.3988
▁boxes	-10.399
▁cable	-10.3992
▁tighten	-10.3994
▁candles	-10.3995
▁fame	-10.3996
▁required	-10.3996
▁gown	-10.3998
▁mask	-10.4
▁former	-10.4
▁rumor	-10.4001
▁meantime	-10.4001
▁confirmed	-10.4002
▁shots	-10.4003
▁pod	-10.4006
▁ohoh	-10.4006
▁passes	-10.4006
▁zei	-10.401
▁fore	-10.4011
▁ve	-10.4014
▁blasted	-10.4014
▁healthy	-10.4022
▁honestly	-10.4023
▁mate	-10.4025
▁cutest	-10.4025
▁neighbors	-10.4025
▁relations	-10.4025
▁cents	-10.4026
▁conquered	-10.4026
▁created	-10.403
▁treaty	-10.4031
▁louder	-10.4038
▁frankly	-10.4039
▁bla	-10.4055
▁considering	-10.4057
▁grip	-10.4061
▁agreed	-10.4072
▁vote	-10.4072
tha	-10.4074
▁cad	-10.4076
lousy	-10.4079
▁successful	-10.4079
▁joint	-10.408
▁realized	-10.4081
▁eve	-10.4082
▁reasons	-10.4083
▁lag	-10.4085
▁beans	-10.4086
▁reached	-10.4095
▁rooms	-10.4098
▁covered	-10.4101
▁cracking	-10.4105
▁bend	-10.4105
▁shortly	-10.4106
▁superb	-10.4109
▁wherea	-10.4111
▁worthy	-10.4117
▁ranks	-10.4117
blijf	-10.4126
▁bee	-10.4131
▁flame	-10.4135
▁rocky	-10.4136
▁awaits	-10.4147
tin	-10.4151
▁ther	-10.4164
quality	-10.4167
gram	-10.4176
▁testing	-10.418
▁mist	-10.4181
ssy	-10.4185
▁peaceful	-10.419
▁enjoying	-10.4194
▁wordt	-10.4199
▁spl	-10.42
▁contr	-10.4202
▁washed	-10.4203
▁operations	-10.4208
illa	-10.4215
▁fangs	-10.4239
▁don	-10.4295
▁hur	-10.43
ger	-10.4312
uine	-10.4315
▁moms	-10.4316
▁para	-10.4318
▁prisoners	-10.4334
▁goat	-10.4339
ita	-10.4345
ea	-10.4352
go	-10.4352
▁prov	-10.4375
▁posts	-10.4378
▁admir	-10.4381
▁unit	-10.4385
▁blocks	-10.4392
▁distan	-10.4406
▁tu	-10.4413
▁everyones	-10.4421
▁non	-10.4428
▁friendly	-10.4428
▁returning	-10.4432
▁gu	-10.4445
vy	-10.4452
▁deserves	-10.4452
▁angels	-10.4457
aving	-10.4467
▁yay	-10.4476
▁wars	-10.4479
▁up	-10.449
▁teen	-10.449
▁caused	-10.4513
othe	-10.4537
▁kindly	-10.4541
▁bags	-10.4571
▁and	-10.4572
nie	-10.4573
▁officers	-10.4587
▁leaders	-10.4596
▁advise	-10.46
▁songs	-10.4608
▁schools	-10.4609
▁nobodys	-10.4609
▁hates	-10.4619
▁guests	-10.4676
▁movies	-10.4676
▁hundreds	-10.4676
▁pat	-10.468
▁events	-10.4695
▁pic	-10.4701
ped	-10.4709
▁comment	-10.4709
▁mat	-10.4723
▁rog	-10.4733
▁duel	-10.4771
netic	-10.4781
▁blues	-10.479
▁au	-10.4796
▁cor	-10.48
use	-10.4805
ppy	-10.4827
▁vi	-10.4832
stly	-10.4832
▁sleeping	-10.4858
▁maple	-10.4861
tten	-10.4866
ka	-10.4904
▁wishing	-10.4952
con	-10.4958
tro	-10.497
ole	-10.4983
▁hynkels	-10.5025
▁watched	-10.5029
▁roads	-10.5053
addle	-10.5075
▁gen	-10.5086
▁ùùø	-10.5087
umbling	-10.5103
im	-10.5136
▁emba	-10.5142
▁plot	-10.5161
▁fu	-10.518
▁rob	-10.5195
lt	-10.5199
▁mel	-10.5206
▁includ	-10.5211
▁pennys	-10.5224
ify	-10.5228
▁bucks	-10.5231
light	-10.5245
▁pu	-10.5256
▁cur	-10.5262
pair	-10.5271
▁pr	-10.5276
▁ways	-10.5279
air	-10.5287
▁tra	-10.5302
▁disappear	-10.5308
▁str	-10.5329
med	-10.5332
yard	-10.5346
▁mustang	-10.5346
ever	-10.5349
▁øøùù	-10.5364
shes	-10.5371
▁detail	-10.5379
▁talent	-10.538
▁rank	-10.5393
▁franc	-10.5401
▁rascal	-10.5401
▁monday	-10.5401
▁affair	-10.5411
▁chocolate	-10.5411
▁classic	-10.5412
▁glove	-10.5416
▁scientist	-10.5419
▁brat	-10.5423
▁creat	-10.5423
▁surprises	-10.5426
▁quarter	-10.5435
▁twin	-10.5438
▁understanding	-10.5445
▁brit	-10.5449
▁customer	-10.545
ti	-10.5458
▁typ	-10.5464
▁pea	-10.5467
▁complain	-10.5476
▁kidnap	-10.5476
ology	-10.5494
▁prayer	-10.5504
ame	-10.5514
▁thrill	-10.5519
iest	-10.5521
▁indicate	-10.5538
ijf	-10.5549
▁shock	-10.5551
▁fr	-10.5552
bag	-10.5552
rus	-10.5556
like	-10.5557
▁burst	-10.556
▁resist	-10.556
field	-10.5561
▁howl	-10.5563
ol	-10.5563
sticks	-10.5564
▁demand	-10.5565
ward	-10.5565
▁defeat	-10.5567
▁screw	-10.5567
▁embarrass	-10.5569
band	-10.557
▁monitor	-10.5574
▁request	-10.5576
▁surround	-10.5576
ham	-10.5577
made	-10.5578
▁improve	-10.5583
▁fail	-10.5584
▁convince	-10.5586
▁separate	-10.5587
▁capture	-10.5588
▁brand	-10.5591
▁becomes	-10.5593
▁curl	-10.5595
▁instant	-10.5596
▁hangs	-10.5597
▁thump	-10.5597
▁obvious	-10.5597
▁breng	-10.5601
▁centr	-10.5602
▁joyful	-10.5604
▁wo	-10.5607
▁profession	-10.5609
▁myst	-10.561
▁racin	-10.5612
▁dancin	-10.5612
▁runnin	-10.5613
▁grim	-10.5613
▁retire	-10.5613
▁squaw	-10.5613
izzy	-10.5614
▁regula	-10.5615
▁occur	-10.5615
ctus	-10.5615
▁cannon	-10.5615
▁wrap	-10.5616
▁represent	-10.5616
▁unexpected	-10.5616
aphat	-10.5616
▁antioch	-10.5616
▁asparagus	-10.5616
▁barbecue	-10.5616
▁believing	-10.5616
▁benefit	-10.5616
▁betrothed	-10.5616
▁buffalo	-10.5616
▁champagne	-10.5616
▁competition	-10.5616
▁confess	-10.5616
▁decontamination	-10.5616
▁despite	-10.5616
▁disagree	-10.5616
▁discipline	-10.5616
▁disease	-10.5616
▁district	-10.5616
▁entrance	-10.5616
▁epstein	-10.5616
▁evillene	-10.5616
▁families	-10.5616
▁fanfare	-10.5616
▁fauna	-10.5616
▁fozziwig	-10.5616
▁friday	-10.5616
▁gyarados	-10.5616
▁happier	-10.5616
▁haunted	-10.5616
▁headquarters	-10.5616
▁hofstedder	-10.5616
▁humbug	-10.5616
▁hynky	-10.5616
▁intense	-10.5616
▁interview	-10.5616
▁irresistible	-10.5616
▁khalil	-10.5616
▁landmark	-10.5616
▁ludwig	-10.5616
▁mademoiselle	-10.5616
▁malone	-10.5616
▁manchek	-10.5616
▁merchant	-10.5616
▁merriwether	-10.5616
▁narrow	-10.5616
▁nazareth	-10.5616
▁outfit	-10.5616
▁paradise	-10.5616
▁patience	-10.5616
▁pikachu	-10.5616
▁pilot	-10.5616
▁popular	-10.5616
▁pothinus	-10.5616
▁preacher	-10.5616
▁remote	-10.5616
▁rufio	-10.5616
▁rufus	-10.5616
▁schraeder	-10.5616
▁shriek	-10.5616
▁shrimp	-10.5616
▁smiling	-10.5616
▁smoking	-10.5616
▁socalled	-10.5616
▁strict	-10.5616
▁subconscious	-10.5616
▁substation	-10.5616
▁swift	-10.5616
▁swinburne	-10.5616
▁symbol	-10.5616
▁texan	-10.5616
▁utter	-10.5616
▁value	-10.5616
▁vendor	-10.5616
▁vengeance	-10.5616
▁vlug	-10.5616
▁voyage	-10.5616
▁vriend	-10.5616
▁warfare	-10.5616
▁yikes	-10.5616
▁ahchoo	-10.5616
▁antares	-10.5616
▁carpet	-10.5616
▁cotton	-10.5616
▁drapes	-10.5616
▁instructions	-10.5616
▁lorri	-10.5616
▁nevertheless	-10.5616
▁piano	-10.5616
▁propeller	-10.5616
▁raspberr	-10.5616
▁rutt	-10.5616
▁schmoopsiepoo	-10.5616
▁tanana	-10.5616
▁headache	-10.5616
▁irish	-10.5616
▁niece	-10.5616
▁sentiment	-10.5616
▁steam	-10.5616
▁surter	-10.5616
▁tampa	-10.5616
▁betray	-10.5616
▁casual	-10.5616
▁monstro	-10.5616
▁sensation	-10.5616
▁misunderstand	-10.5616
▁occupied	-10.5616
▁stood	-10.5616
▁achter	-10.5616
▁bodies	-10.5616
▁harry	-10.5616
▁rattles	-10.5616
▁estate	-10.5616
▁garbage	-10.5616
▁scramble	-10.5616
▁whisky	-10.5616
▁carlyle	-10.5616
▁copper	-10.5616
▁virginia	-10.5616
▁drift	-10.5616
▁unhappy	-10.5616
▁goatherd	-10.5616
▁mock	-10.5616
▁transmission	-10.5616
▁snack	-10.5616
▁pathetic	-10.5616
▁ribbon	-10.5616
▁squash	-10.5616
▁inheritance	-10.5616
▁angle	-10.5616
▁lemonade	-10.5616
▁molecul	-10.5616
▁celebration	-10.5616
▁display	-10.5616
▁achillas	-10.5616
▁salute	-10.5616
▁leather	-10.5616
▁pump	-10.5616
▁stairs	-10.5616
▁grew	-10.5616
▁digging	-10.5616
▁stossel	-10.5616
▁violent	-10.5616
▁spinning	-10.5616
▁tsk	-10.5617
▁specta	-10.5617
▁failure	-10.5617
▁jazz	-10.5617
▁grit	-10.5617
▁studie	-10.5617
▁dreadful	-10.5617
ville	-10.5617
▁tuck	-10.5617
▁zorg	-10.5617
▁susan	-10.5617
▁sunset	-10.5617
▁eww	-10.5617
▁misery	-10.5617
▁delightful	-10.5617
▁ùùùù	-10.5618
▁relative	-10.5618
▁bayou	-10.5618
▁speakeasy	-10.5618
▁jehos	-10.5618
cise	-10.5618
▁ellen	-10.5618
▁rox	-10.5618
▁bakery	-10.5618
▁theater	-10.5618
▁barge	-10.5618
▁paperwork	-10.5618
▁territory	-10.5618
▁dacht	-10.5619
▁corona	-10.5619
▁nero	-10.5619
▁accused	-10.5619
▁analyze	-10.5619
▁principal	-10.5619
▁acid	-10.5619
▁zeker	-10.562
▁fro	-10.562
▁girlfriend	-10.562
▁mail	-10.562
▁egyptian	-10.5621
▁geven	-10.5621
▁chat	-10.5621
▁junk	-10.5621
▁thou	-10.5621
▁defense	-10.5621
▁praten	-10.5621
▁technically	-10.5621
▁electronic	-10.5622
▁commission	-10.5622
▁envy	-10.5622
▁boring	-10.5622
▁admitted	-10.5622
▁dude	-10.5622
▁attractive	-10.5622
▁powder	-10.5622
▁cutoff	-10.5622
▁celebrating	-10.5622
▁soil	-10.5622
▁loyalty	-10.5623
▁cellar	-10.5623
▁cattle	-10.5623
▁rally	-10.5623
▁vice	-10.5623
▁lazy	-10.5624
▁bald	-10.5624
▁considerable	-10.5624
▁pear	-10.5624
▁market	-10.5625
▁unfortunately	-10.5625
▁drown	-10.5625
▁luke	-10.5625
▁satisfy	-10.5625
▁cries	-10.5626
▁leven	-10.5626
▁media	-10.5626
▁modest	-10.5626
▁fungus	-10.5627
▁mysteries	-10.5627
▁breed	-10.5627
▁mooing	-10.5627
▁forth	-10.5627
▁deaf	-10.5628
▁chemistry	-10.5628
▁cared	-10.5628
▁policeman	-10.5629
▁located	-10.5629
▁losin	-10.563
▁auntie	-10.563
▁haze	-10.563
▁wreck	-10.5631
▁redden	-10.5631
▁alaka	-10.5632
▁squeeze	-10.5632
urt	-10.5632
▁web	-10.5633
▁lack	-10.5634
▁apartment	-10.5634
▁expenses	-10.5636
▁rhodes	-10.5636
▁tada	-10.5636
▁lane	-10.5636
stc	-10.5637
▁gap	-10.5637
▁lone	-10.5637
▁grain	-10.5638
▁slicker	-10.564
▁hyper	-10.564
▁staging	-10.564
▁fuse	-10.5642
▁domin	-10.5643
▁micro	-10.5643
▁shore	-10.5643
▁nin	-10.5644
▁captured	-10.5645
▁june	-10.5648
aking	-10.5648
▁pickle	-10.5649
▁caus	-10.5649
▁booth	-10.5651
▁tailor	-10.5652
▁trailer	-10.5653
▁deca	-10.5653
▁bein	-10.5655
▁requested	-10.5656
▁menu	-10.5657
▁mayday	-10.5658
▁straining	-10.5659
▁grove	-10.5659
▁impressed	-10.566
▁caper	-10.5661
▁sow	-10.5661
▁glasses	-10.5661
▁parties	-10.5665
▁lifetime	-10.5665
▁fireman	-10.5668
▁mistaken	-10.5668
▁dearie	-10.5671
▁guaranteed	-10.5672
▁colts	-10.5672
▁anders	-10.5673
chasing	-10.5675
▁blaster	-10.5677
▁pouring	-10.5678
lapping	-10.5678
▁connected	-10.5679
gy	-10.568
▁leap	-10.5681
▁butch	-10.5683
fied	-10.5685
zam	-10.5688
▁chained	-10.5692
ney	-10.5693
▁poster	-10.5694
▁beer	-10.5697
▁terms	-10.5706
▁onions	-10.5707
▁backwards	-10.5707
▁skilled	-10.571
▁tells	-10.5713
▁br	-10.5719
hia	-10.5722
▁fin	-10.5723
▁touches	-10.5723
▁pott	-10.5724
rail	-10.5727
art	-10.5728
ack	-10.5733
▁manny	-10.5738
▁lit	-10.5738
▁zwar	-10.5741
▁ere	-10.5743
▁patterns	-10.5743
▁accepted	-10.5745
▁zon	-10.5749
▁entirely	-10.5752
▁clones	-10.5757
▁entered	-10.576
▁crashed	-10.5761
▁pretending	-10.5763
▁camping	-10.5764
▁straighten	-10.5773
iff	-10.5775
▁pounding	-10.5775
▁warmer	-10.5777
▁cheetahs	-10.578
▁bras	-10.5782
▁accounting	-10.5783
▁painted	-10.5787
▁seldo	-10.5789
▁sailing	-10.5791
▁proceeding	-10.5802
▁this	-10.5814
▁faithful	-10.5816
▁scientists	-10.5816
▁chum	-10.5816
▁talents	-10.5817
▁details	-10.5817
▁bothered	-10.5821
▁packed	-10.5821
▁chest	-10.5828
▁trapped	-10.5828
berry	-10.5834
ja	-10.5841
▁counter	-10.5842
ernal	-10.5844
▁painting	-10.5846
nip	-10.5847
▁trained	-10.5851
▁criminals	-10.5853
acres	-10.5854
▁crows	-10.5854
▁liver	-10.5857
yee	-10.5857
▁attacked	-10.5865
rising	-10.5868
▁mig	-10.587
▁packing	-10.5881
ome	-10.5882
▁members	-10.5888
▁bonds	-10.589
▁subjects	-10.589
▁flaps	-10.5892
▁mcqueens	-10.5893
▁gall	-10.59
▁dared	-10.5907
▁movement	-10.5907
▁jumping	-10.5912
▁armed	-10.5915
▁turnin	-10.5916
▁bust	-10.5917
dig	-10.5919
▁bowl	-10.5921
herefore	-10.5923
▁snakes	-10.5927
▁buds	-10.5928
▁il	-10.5932
▁belly	-10.5932
▁boos	-10.5933
unk	-10.5933
aaah	-10.5938
notic	-10.5941
▁singers	-10.5946
rich	-10.5947
▁desire	-10.5953
▁rudd	-10.5953
▁marc	-10.5953
▁mikey	-10.5954
▁paws	-10.5961
▁struggle	-10.597
▁sat	-10.5974
▁triumphs	-10.6001
▁wondered	-10.6018
▁masters	-10.6029
line	-10.6045
▁kun	-10.6072
▁indians	-10.6072
▁conditions	-10.6075
▁directions	-10.6075
▁jobs	-10.6075
take	-10.6077
▁heels	-10.6112
▁cart	-10.6124
▁prices	-10.6134
▁pops	-10.6151
▁vac	-10.6162
cha	-10.6164
ial	-10.6181
▁handy	-10.6181
▁fir	-10.6181
sey	-10.6182
▁cuts	-10.6207
▁noo	-10.6209
zo	-10.6213
titi	-10.6222
▁adventures	-10.6225
▁natures	-10.6225
▁walls	-10.6262
▁ri	-10.6268
▁breaks	-10.6272
▁catching	-10.6277
▁cathe	-10.6311
▁zoo	-10.6334
▁languages	-10.6338
▁mas	-10.635
ats	-10.6356
tries	-10.6366
▁gr	-10.6381
vin	-10.6385
▁gl	-10.6386
let	-10.6406
▁tricks	-10.6417
alities	-10.6417
▁rude	-10.6419
▁goal	-10.6422
upper	-10.6422
ug	-10.6436
▁ble	-10.6438
▁eart	-10.6449
▁treats	-10.6458
▁tent	-10.646
▁pill	-10.6484
▁seek	-10.6485
▁notes	-10.6499
iv	-10.6509
ple	-10.6516
▁gunn	-10.6524
▁rolls	-10.6537
▁fe	-10.6557
▁whi	-10.6564
▁guards	-10.6567
▁signals	-10.6572
oi	-10.6637
oc	-10.6639
ence	-10.6645
tel	-10.665
▁caring	-10.666
maker	-10.667
▁tests	-10.6675
pid	-10.6686
▁ka	-10.6689
▁guessing	-10.67
▁sides	-10.6729
ki	-10.6737
▁stepp	-10.6749
▁comp	-10.6754
new	-10.6765
ets	-10.6768
▁flyer	-10.678
▁gar	-10.6786
doo	-10.6792
▁ster	-10.6805
▁fits	-10.6808
ise	-10.6831
▁husbands	-10.6839
▁cases	-10.6839
pu	-10.684
rd	-10.6859
▁eens	-10.687
▁sittin	-10.6875
▁swords	-10.6879
bs	-10.6892
shot	-10.6914
its	-10.6918
als	-10.6937
▁marks	-10.6964
vel	-10.6976
▁øøøø	-10.7019
▁bull	-10.7025
res	-10.7066
dog	-10.7067
ùø	-10.707
▁gifts	-10.7076
▁mala	-10.7077
▁towns	-10.7084
▁phones	-10.7116
▁bio	-10.7121
▁rev	-10.7145
▁hip	-10.7148
▁stones	-10.7156
▁mob	-10.7166
ach	-10.7178
▁fac	-10.7178
ff	-10.718
ations	-10.7196
▁shovin	-10.7198
▁medi	-10.7224
▁easter	-10.7233
dual	-10.7239
lar	-10.7251
raag	-10.7255
ùù	-10.7266
dom	-10.7277
aki	-10.729
▁sch	-10.7292
▁muff	-10.7301
ler	-10.7325
▁sticks	-10.7347
▁crystal	-10.7347
▁mellys	-10.7357
▁hiss	-10.736
▁rod	-10.7365
▁bum	-10.7373
▁grunt	-10.7385
▁historic	-10.7387
gal	-10.7401
▁helmet	-10.7401
▁gasp	-10.7403
▁rag	-10.7407
▁spider	-10.7411
▁aryan	-10.7411
een	-10.7414
▁crumb	-10.7414
▁instinct	-10.7416
▁privilege	-10.7416
▁ambition	-10.7417
▁cheetah	-10.7419
▁warrior	-10.7427
▁astronaut	-10.743
▁belt	-10.743
eek	-10.7442
▁drops	-10.7442
▁legion	-10.7448
▁villa	-10.7452
if	-10.7458
▁bil	-10.7481
mma	-10.7482
▁bean	-10.7484
▁skip	-10.7492
▁snor	-10.75
▁hob	-10.7503
▁shin	-10.7505
▁perform	-10.7505
▁nut	-10.7505
minded	-10.7514
▁flash	-10.7515
▁strap	-10.7523
▁sings	-10.753
rate	-10.7533
▁brief	-10.7553
foot	-10.7554
▁glow	-10.7556
▁presents	-10.7559
▁gleam	-10.7559
▁register	-10.7559
joy	-10.7561
ability	-10.7563
year	-10.7563
▁screech	-10.7563
berries	-10.7564
▁clang	-10.7565
▁applaud	-10.7566
burn	-10.7566
piece	-10.7566
book	-10.7566
born	-10.7566
▁flee	-10.7567
life	-10.7567
▁interrupt	-10.7567
▁hawk	-10.7567
▁crush	-10.7567
human	-10.7569
ghost	-10.757
▁ramm	-10.7571
▁impress	-10.7571
more	-10.7572
▁drill	-10.7572
beat	-10.7572
▁strain	-10.7573
▁stack	-10.7575
▁wound	-10.7576
▁arrange	-10.7578
▁mix	-10.7578
▁wast	-10.7582
hood	-10.7582
▁adore	-10.7585
▁delight	-10.7587
shop	-10.7587
▁declare	-10.7588
▁activate	-10.7588
▁passion	-10.7588
say	-10.7589
chan	-10.7589
▁ref	-10.759
standing	-10.7596
▁krijg	-10.7596
▁precise	-10.7599
latin	-10.7599
▁incredibl	-10.7599
▁ùøø	-10.76
▁spill	-10.7602
▁hel	-10.7608
▁wacht	-10.7609
unny	-10.7612
▁mode	-10.7612
▁nick	-10.7613
▁author	-10.7614
orrow	-10.7615
▁baghee	-10.7615
ckel	-10.7615
hearted	-10.7615
▁intellect	-10.7615
▁confident	-10.7616
▁electro	-10.7616
▁current	-10.7616
▁forbid	-10.7616
▁academy	-10.7616
▁ambassador	-10.7616
▁analysis	-10.7616
▁ascot	-10.7616
▁astoroth	-10.7616
▁athens	-10.7616
▁awkward	-10.7616
▁baggage	-10.7616
▁ballpark	-10.7616
▁balthasar	-10.7616
▁behavior	-10.7616
▁bermuda	-10.7616
▁ceiling	-10.7616
▁ceremony	-10.7616
▁charlotte	-10.7616
▁christine	-10.7616
▁conduct	-10.7616
▁confedera	-10.7616
▁cottage	-10.7616
▁coughing	-10.7616
▁coughs	-10.7616
▁cradle	-10.7616
▁demerits	-10.7616
▁demonstration	-10.7616
▁describe	-10.7616
▁dinosaur	-10.7616
▁disguise	-10.7616
▁downrange	-10.7616
▁dummies	-10.7616
▁elsinore	-10.7616
▁encourage	-10.7616
▁explosive	-10.7616
▁eyelashes	-10.7616
▁flavius	-10.7616
▁francois	-10.7616
▁furlough	-10.7616
▁germaine	-10.7616
▁ghastly	-10.7616
▁gloom	-10.7616
▁grandchildren	-10.7616
▁guitar	-10.7616
▁hulot	-10.7616
▁jettison	-10.7616
▁klaar	-10.7616
▁kusakabe	-10.7616
▁layeeo	-10.7616
▁lincoln	-10.7616
▁lngrid	-10.7616
▁louie	-10.7616
▁maatje	-10.7616
▁magazine	-10.7616
▁meself	-10.7616
▁mexican	-10.7616
▁mithradates	-10.7616
▁mortgage	-10.7616
▁mourn	-10.7616
▁muzzle	-10.7616
▁naboombu	-10.7616
▁npdvindoheroes	-10.7616
▁oldfashioned	-10.7616
▁olentiev	-10.7616
▁olivia	-10.7616
▁orchestra	-10.7616
▁pajamas	-10.7616
▁pawprint	-10.7616
▁pedigree	-10.7616
▁petticoat	-10.7616
▁policy	-10.7616
▁prussia	-10.7616
▁quacking	-10.7616
▁quimby	-10.7616
▁razor	-10.7616
▁remark	-10.7616
▁reservation	-10.7616
▁rheinburg	-10.7616
▁routine	-10.7616
▁satellite	-10.7616
▁scarecrow	-10.7616
▁scoundrel	-10.7616
▁shepherd	-10.7616
▁shipshape	-10.7616
▁shortcut	-10.7616
▁sneads	-10.7616
▁snowflake	-10.7616
▁spanish	-10.7616
▁sponge	-10.7616
▁stammers	-10.7616
▁strategy	-10.7616
▁superstar	-10.7616
▁surveillance	-10.7616
▁sushi	-10.7616
▁suspicious	-10.7616
▁tweettweet	-10.7616
▁umpire	-10.7616
▁unfair	-10.7616
▁unpleasant	-10.7616
▁vlag	-10.7616
▁wilkerson	-10.7616
▁wisdom	-10.7616
▁bruzzie	-10.7616
▁curiosity	-10.7616
▁dexter	-10.7616
▁evermean	-10.7616
▁fafa	-10.7616
▁hazard	-10.7616
▁klop	-10.7616
▁lepers	-10.7616
▁parlor	-10.7616
▁period	-10.7616
▁plastic	-10.7616
▁rattling	-10.7616
▁riddance	-10.7616
▁shawl	-10.7616
▁shirt	-10.7616
▁silk	-10.7616
▁wheat	-10.7616
▁arena	-10.7616
▁chariot	-10.7616
▁civilization	-10.7616
▁conceal	-10.7616
▁gossip	-10.7616
▁internal	-10.7616
▁phony	-10.7616
▁cigar	-10.7616
▁ferry	-10.7616
▁laydeeodlay	-10.7616
▁lumiere	-10.7616
▁shave	-10.7616
▁fierce	-10.7616
▁opinion	-10.7616
▁cease	-10.7616
▁leroy	-10.7616
▁monument	-10.7616
▁molest	-10.7616
▁pedro	-10.7616
▁resume	-10.7616
▁install	-10.7616
▁operator	-10.7616
▁rosie	-10.7616
phrase	-10.7616
▁peanut	-10.7616
▁wimp	-10.7616
▁savvy	-10.7616
▁yipe	-10.7616
▁prospect	-10.7616
▁stamp	-10.7616
▁skunk	-10.7616
▁bungl	-10.7616
▁asia	-10.7616
▁margaretta	-10.7616
▁trim	-10.7616
▁puddle	-10.7616
▁smack	-10.7616
▁behalf	-10.7616
▁laydeeodlee	-10.7616
▁breeze	-10.7616
▁hurricane	-10.7616
▁coils	-10.7616
▁cowboy	-10.7616
▁medicine	-10.7616
▁strawberry	-10.7616
▁israel	-10.7616
▁insert	-10.7616
▁donnie	-10.7616
▁temperature	-10.7616
▁jones	-10.7616
▁bruce	-10.7616
▁injection	-10.7616
▁literally	-10.7616
▁knot	-10.7616
▁tread	-10.7616
▁proposition	-10.7616
▁pupil	-10.7616
▁disgusting	-10.7616
▁barbershop	-10.7616
▁minister	-10.7616
▁kelly	-10.7616
▁shovel	-10.7616
▁debt	-10.7616
▁hilltop	-10.7616
▁stroke	-10.7616
▁katie	-10.7616
▁kidnapping	-10.7616
▁shilling	-10.7616
▁savage	-10.7617
▁dowry	-10.7617
▁matchmouth	-10.7617
▁ignorant	-10.7617
▁lyyal	-10.7617
▁anger	-10.7617
▁mystery	-10.7617
▁wallpaper	-10.7617
▁formula	-10.7617
▁lungs	-10.7617
▁detect	-10.7617
▁straw	-10.7617
▁sterno	-10.7617
▁ahoy	-10.7617
▁memories	-10.7617
▁exotic	-10.7617
▁fought	-10.7617
▁rapid	-10.7617
▁tasty	-10.7617
▁vechten	-10.7617
▁poem	-10.7617
▁guv	-10.7617
▁outrageous	-10.7617
▁saloon	-10.7617
▁spoon	-10.7617
▁millionaire	-10.7617
▁decade	-10.7617
▁authority	-10.7617
▁leagues	-10.7618
▁desk	-10.7618
▁rumble	-10.7618
▁voil	-10.7618
▁stip	-10.7618
▁habitat	-10.7618
▁crust	-10.7618
▁salad	-10.7618
▁pork	-10.7618
▁flick	-10.7618
▁brace	-10.7618
▁concentration	-10.7618
▁snel	-10.7618
▁production	-10.7618
▁unwind	-10.7619
▁mmmmmm	-10.7619
▁socks	-10.7619
▁indivi	-10.7619
▁hart	-10.7619
▁reform	-10.7619
▁silen	-10.7619
▁blend	-10.7619
▁stiff	-10.7619
▁filthy	-10.7619
▁bluff	-10.7619
▁gravity	-10.7619
eously	-10.7619
▁liftoff	-10.7619
▁molly	-10.7619
▁lndia	-10.7619
▁dodger	-10.762
▁contaminated	-10.762
▁obliged	-10.762
▁creative	-10.762
ooey	-10.762
▁hatred	-10.762
▁cupboard	-10.762
▁hitler	-10.762
▁cam	-10.762
▁bullet	-10.7621
▁southern	-10.7621
▁punk	-10.7621
▁denk	-10.7621
▁donation	-10.7621
▁property	-10.7622
▁boyfriend	-10.7622
actic	-10.7622
▁investigate	-10.7622
▁auto	-10.7622
▁freezing	-10.7622
▁jeez	-10.7622
▁harbor	-10.7622
▁charleston	-10.7622
▁hack	-10.7622
▁abc	-10.7622
▁aircraft	-10.7623
▁equipped	-10.7623
▁sequence	-10.7623
▁flesh	-10.7623
▁soaked	-10.7623
▁deliberately	-10.7623
▁selected	-10.7623
▁spaceship	-10.7623
▁culture	-10.7623
▁stream	-10.7623
▁division	-10.7623
▁quint	-10.7623
oever	-10.7624
▁wist	-10.7624
▁significant	-10.7624
abili	-10.7625
▁enchanting	-10.7625
▁caw	-10.7625
▁beaver	-10.7626
▁mimi	-10.7626
▁owner	-10.7626
▁atom	-10.7626
▁zeeman	-10.7627
▁eerst	-10.7627
▁genoeg	-10.7627
▁cheerful	-10.7627
▁vinden	-10.7627
▁geese	-10.7627
▁dinnertime	-10.7627
▁harmless	-10.7627
▁forgiveness	-10.7628
▁krijgt	-10.7628
▁schieten	-10.7629
innies	-10.7629
▁taxes	-10.763
▁vast	-10.763
▁presentation	-10.763
▁dover	-10.763
▁pow	-10.763
▁alas	-10.763
▁chart	-10.7631
▁dna	-10.7632
▁vial	-10.7632
▁mannen	-10.7632
▁engaged	-10.7633
▁inspired	-10.7633
▁habit	-10.7633
▁lovelies	-10.7633
▁buzzard	-10.7633
▁stray	-10.7634
▁spiller	-10.7634
▁humiliating	-10.7634
▁clicking	-10.7634
▁squealing	-10.7634
▁definitely	-10.7634
▁recovery	-10.7634
▁moral	-10.7634
▁peer	-10.7635
▁mares	-10.7636
▁ladder	-10.7636
▁fitting	-10.7636
▁piraten	-10.7638
▁daylight	-10.7639
▁roberta	-10.7639
▁possessed	-10.7639
▁punished	-10.7639
▁centre	-10.7639
▁garn	-10.764
▁instantly	-10.7641
▁commercials	-10.7641
▁lever	-10.7641
▁shiny	-10.7641
▁sec	-10.7642
▁flowr	-10.7643
▁gaan	-10.7645
▁sales	-10.7645
▁creaking	-10.7646
nsible	-10.7646
▁skull	-10.7646
▁pudding	-10.7647
▁owie	-10.7647
▁boiling	-10.7647
▁crater	-10.7647
▁robbie	-10.7648
▁poll	-10.7648
▁cocka	-10.7649
▁zone	-10.765
▁wwe	-10.765
▁absen	-10.7652
isle	-10.7652
▁convinced	-10.7652
▁plank	-10.7654
▁humanity	-10.7654
▁stolen	-10.7655
▁boost	-10.7656
▁pigeon	-10.7656
▁setup	-10.7656
▁performed	-10.7657
▁scope	-10.7658
▁correctly	-10.7659
▁easi	-10.7659
▁wilt	-10.7659
▁badge	-10.7661
▁forgetting	-10.7663
▁fourth	-10.7664
▁hunger	-10.7666
solving	-10.7666
▁thrilled	-10.7667
▁setting	-10.7667
▁busted	-10.7668
▁eternal	-10.7668
▁failed	-10.7668
▁screeching	-10.7669
▁jar	-10.767
▁shod	-10.767
▁reality	-10.7671
▁hog	-10.7673
▁imitat	-10.7674
▁pants	-10.7677
▁scheduled	-10.7679
▁ability	-10.7679
ead	-10.7681
▁howling	-10.7681
▁lui	-10.7681
▁baa	-10.7684
▁tolls	-10.7685
▁informed	-10.7685
▁runners	-10.7685
▁released	-10.7685
▁inhales	-10.7686
▁cursed	-10.7686
▁perf	-10.7688
▁sung	-10.7688
▁dump	-10.7689
▁beth	-10.769
▁jailer	-10.769
▁dew	-10.7693
▁farman	-10.7694
▁disturbed	-10.7694
▁developed	-10.7694
▁heartless	-10.7695
ving	-10.7699
▁naam	-10.7703
▁crooked	-10.7703
▁added	-10.7704
▁greeting	-10.7706
▁expos	-10.7713
▁granted	-10.7713
▁off	-10.7713
▁wearin	-10.7723
▁press	-10.7724
lock	-10.7725
▁aiming	-10.7726
elling	-10.7726
▁mcalesters	-10.7729
▁passengers	-10.7729
▁results	-10.7729
▁youngsters	-10.7729
▁thoughtful	-10.773
▁ew	-10.7734
▁timing	-10.7735
▁barr	-10.7736
▁trainers	-10.774
▁melt	-10.7741
▁pace	-10.7741
▁honesty	-10.7746
where	-10.7746
▁eer	-10.7749
▁robb	-10.7751
▁floating	-10.7755
▁meis	-10.7762
▁unite	-10.7762
▁difficulty	-10.7762
▁romeo	-10.7764
▁walkin	-10.7768
ified	-10.7768
▁crocodiles	-10.7775
▁muscles	-10.7775
▁gutters	-10.7776
▁cooked	-10.7787
▁nail	-10.7789
▁bubble	-10.7792
▁din	-10.7793
▁pale	-10.7801
▁ohio	-10.7805
▁golly	-10.7816
▁rags	-10.7818
▁ambitions	-10.782
▁instincts	-10.782
▁privileges	-10.782
elijk	-10.782
▁helpful	-10.7823
▁borrowing	-10.7823
▁skippe	-10.783
▁critic	-10.7832
▁boxer	-10.7833
▁mid	-10.7837
▁tube	-10.7838
▁stare	-10.7844
▁wasted	-10.7854
▁gain	-10.7856
▁bored	-10.7863
▁gloves	-10.7865
▁tools	-10.7866
▁brats	-10.7866
▁workers	-10.787
▁buzzin	-10.7873
enry	-10.7876
▁princesses	-10.7893
▁cancell	-10.7893
▁reaching	-10.7897
▁destroying	-10.7897
▁blessing	-10.7897
▁volunteers	-10.7911
▁lid	-10.7913
▁farmers	-10.7915
ory	-10.7916
▁rely	-10.7927
▁gladly	-10.7932
pit	-10.7938
▁sting	-10.7939
▁mills	-10.7946
▁touchy	-10.7951
▁messed	-10.7954
▁trusty	-10.7956
▁marching	-10.7957
▁ruins	-10.7958
▁bolts	-10.7959
▁site	-10.7959
▁offering	-10.7962
▁reporter	-10.7966
ipped	-10.7967
▁hisse	-10.7974
emer	-10.7977
eal	-10.7986
talk	-10.7986
ess	-10.799
▁geef	-10.7995
▁sn	-10.7997
▁exists	-10.8003
▁fleas	-10.8003
▁tanks	-10.8003
▁servants	-10.8003
gu	-10.8005
▁pas	-10.8011
▁seiz	-10.8012
▁attacking	-10.8017
▁quietly	-10.8024
▁kissed	-10.8041
▁chains	-10.8051
▁lined	-10.8079
▁torture	-10.8086
▁loss	-10.8095
▁bounc	-10.81
ember	-10.8102
▁cleaning	-10.8114
▁devot	-10.8114
▁decen	-10.8114
▁answered	-10.8115
ort	-10.8118
medical	-10.8128
▁sounded	-10.8132
lijk	-10.8133
▁kinga	-10.814
▁credits	-10.8142
▁senators	-10.8142
▁tickets	-10.8143
▁laps	-10.8151
tive	-10.816
uh	-10.8165
▁rec	-10.8175
▁kap	-10.8179
▁vo	-10.8185
▁hoor	-10.8186
▁contain	-10.8188
▁rates	-10.819
▁fal	-10.8192
▁traps	-10.8197
▁interfere	-10.8202
▁trusted	-10.821
lier	-10.8218
▁workin	-10.8219
▁ax	-10.822
▁signed	-10.8221
▁horns	-10.8236
▁dedicat	-10.825
ud	-10.8259
▁drinks	-10.8275
ction	-10.8285
antic	-10.8289
▁tid	-10.8292
▁apr	-10.8302
▁cloth	-10.8311
pence	-10.8317
▁refuses	-10.833
▁cousins	-10.833
▁andromedas	-10.833
timate	-10.833
▁chicks	-10.833
▁checked	-10.8338
▁suns	-10.835
▁bron	-10.8353
eel	-10.8366
rif	-10.837
▁cons	-10.8374
▁chooses	-10.8377
▁walks	-10.8384
che	-10.8413
▁bombs	-10.8424
▁pee	-10.8429
▁thoughts	-10.8432
rang	-10.8433
▁marshals	-10.8472
▁colors	-10.8473
▁scor	-10.8482
▁what	-10.8482
▁hut	-10.8484
▁ko	-10.8485
▁batt	-10.8495
visible	-10.8501
place	-10.8505
▁checker	-10.8535
qu	-10.8538
▁kans	-10.8554
▁fights	-10.8562
▁cards	-10.8569
ark	-10.8574
▁intr	-10.8611
▁banks	-10.8616
▁ton	-10.8634
▁checks	-10.8637
▁explore	-10.8647
witte	-10.8654
▁engineer	-10.8671
▁der	-10.8674
▁øùùù	-10.8683
▁lighting	-10.8697
arious	-10.8707
▁longing	-10.8712
▁dia	-10.8727
ip	-10.8745
ities	-10.8746
▁ùøùø	-10.875
▁bases	-10.8753
min	-10.8784
▁motorcycles	-10.8813
▁host	-10.8834
tig	-10.8855
bel	-10.8867
tri	-10.8872
▁imperi	-10.8894
rby	-10.8925
▁øøù	-10.8972
▁ooo	-10.8996
▁jumps	-10.9051
our	-10.9068
▁app	-10.9117
▁shi	-10.9147
▁reck	-10.915
ties	-10.9177
▁latch	-10.9178
ware	-10.919
fth	-10.9193
▁if	-10.9201
▁stations	-10.9209
mee	-10.9212
uff	-10.9223
trophy	-10.927
▁acts	-10.9275
▁admira	-10.9286
ero	-10.931
▁bon	-10.9329
▁yyou	-10.9335
sure	-10.934
▁for	-10.936
▁mu	-10.9389
mate	-10.9392
▁burns	-10.9425
com	-10.9432
ù	-10.9439
▁instrumental	-10.9446
▁simbas	-10.9458
most	-10.9458
▁billion	-10.9489
per	-10.9495
▁cos	-10.9501
▁scrap	-10.9502
allowed	-10.9556
▁fields	-10.956
▁smiles	-10.9561
hoo	-10.9562
▁irr	-10.9562
ching	-10.9568
rawny	-10.9573
▁stee	-10.9575
iler	-10.9576
sions	-10.9577
hold	-10.959
▁pl	-10.9611
▁commit	-10.9611
ld	-10.9615
▁ke	-10.9619
▁explains	-10.9619
nic	-10.9633
▁beta	-10.9645
▁tip	-10.9655
ically	-10.9661
▁bits	-10.9701
just	-10.9702
▁twee	-10.9704
ada	-10.9709
tur	-10.9764
▁speeds	-10.9766
▁beaut	-10.9767
wish	-10.9768
lac	-10.9774
bu	-10.9776
hauling	-10.9816
eg	-10.9823
ign	-10.9838
ini	-10.9862
▁suck	-10.9866
▁compliment	-10.9901
▁turtle	-10.9901
▁bubbl	-10.9902
▁bucket	-10.9904
▁sheet	-10.9904
▁talks	-10.9907
▁chamber	-10.991
▁mortal	-10.991
▁nerve	-10.9911
▁injun	-10.9915
▁crocodile	-10.9916
▁muscle	-10.9916
tain	-10.9917
▁gutter	-10.9917
▁trumpet	-10.9918
▁pattern	-10.992
▁ave	-10.9921
▁knuckle	-10.9924
▁trial	-10.9927
▁citizen	-10.9928
▁grasshopper	-10.993
ello	-10.9931
ather	-10.9931
dest	-10.9936
▁dollar	-10.9945
▁gig	-10.9946
nk	-10.9953
▁mose	-10.9962
▁tin	-10.9971
▁fig	-10.9972
▁doctors	-10.9975
▁hig	-10.998
▁drug	-10.9983
▁stati	-10.9986
▁chim	-10.999
▁rebel	-10.9999
▁clone	-11.0001
pi	-11.0003
hen	-11.0013
rama	-11.0016
brain	-11.0028
itude	-11.005
▁col	-11.0051
hem	-11.0051
▁approv	-11.0053
ddling	-11.0053
form	-11.0061
▁escap	-11.0061
paper	-11.0061
scope	-11.0062
luck	-11.0062
what	-11.0063
shock	-11.0063
long	-11.0063
▁express	-11.0064
▁affect	-11.0064
pants	-11.0065
proof	-11.0065
water	-11.0065
grateful	-11.0066
wise	-11.0066
phone	-11.0067
school	-11.0067
paid	-11.0068
rain	-11.0069
▁slop	-11.0072
▁raw	-11.0073
ential	-11.0076
▁dismiss	-11.0077
▁camel	-11.0079
▁bark	-11.008
▁decree	-11.0081
▁kijk	-11.0086
gum	-11.0087
dont	-11.009
▁replace	-11.009
▁spook	-11.0091
▁prick	-11.0094
▁fianc	-11.0095
▁recover	-11.0095
drops	-11.0097
▁yahoo	-11.0097
▁quart	-11.0098
birds	-11.01
▁brag	-11.01
▁adjust	-11.0101
▁actual	-11.0102
▁approve	-11.0103
▁budge	-11.0105
▁atlant	-11.0105
▁juic	-11.0105
▁chuckle	-11.0106
▁grin	-11.0106
ilis	-11.0106
▁plant	-11.0107
▁thiev	-11.0107
▁cruise	-11.0108
▁schiet	-11.0108
▁addition	-11.0108
▁mechanic	-11.0108
▁anker	-11.011
▁zie	-11.0111
▁depart	-11.0112
▁lioness	-11.0112
▁lightnin	-11.0113
▁concentrat	-11.0113
▁contest	-11.0113
▁champ	-11.0113
▁spittin	-11.0113
▁resent	-11.0114
▁origin	-11.0115
elcom	-11.0115
▁tempt	-11.0115
azz	-11.0115
▁basic	-11.0115
▁prior	-11.0115
eau	-11.0115
▁fittin	-11.0115
▁japan	-11.0116
▁tooth	-11.0116
izzard	-11.0116
▁abominable	-11.0116
▁absurd	-11.0116
▁accompan	-11.0116
▁africa	-11.0116
▁allergy	-11.0116
▁amateur	-11.0116
▁ancestors	-11.0116
▁antelope	-11.0116
▁anyhow	-11.0116
▁anyplace	-11.0116
▁appropriate	-11.0116
▁aroma	-11.0116
▁artillery	-11.0116
▁attorney	-11.0116
▁autopsy	-11.0116
▁autumn	-11.0116
▁average	-11.0116
▁avoid	-11.0116
▁balcony	-11.0116
▁bathtub	-11.0116
▁bemanning	-11.0116
▁blackguard	-11.0116
▁branch	-11.0116
▁broomstick	-11.0116
▁campaign	-11.0116
▁cannibal	-11.0116
▁caterpillar	-11.0116
▁cavalry	-11.0116
▁certificate	-11.0116
▁chandler	-11.0116
▁cicero	-11.0116
▁cigarette	-11.0116
▁cogsworth	-11.0116
▁columbus	-11.0116
▁combination	-11.0116
▁competitive	-11.0116
▁complicated	-11.0116
▁conceited	-11.0116
▁conscious	-11.0116
▁constant	-11.0116
▁conviction	-11.0116
▁damascus	-11.0116
▁daydream	-11.0116
▁delicate	-11.0116
▁dictate	-11.0116
▁dubois	-11.0116
▁dynamite	-11.0116
▁eigenaar	-11.0116
▁embrace	-11.0116
▁energetic	-11.0116
▁enslave	-11.0116
▁expedition	-11.0116
▁explosion	-11.0116
▁eynsfordhill	-11.0116
▁ferrari	-11.0116
▁forecast	-11.0116
▁fortunate	-11.0116
▁frequency	-11.0116
▁fulfill	-11.0116
▁galaxy	-11.0116
▁geheim	-11.0116
▁gehoord	-11.0116
▁giddyap	-11.0116
▁greece	-11.0116
▁griffiths	-11.0116
▁hallelujah	-11.0116
▁happiest	-11.0116
▁harris	-11.0116
▁honeymoon	-11.0116
▁hoodlum	-11.0116
▁horsepower	-11.0116
▁incompetent	-11.0116
▁increase	-11.0116
▁influence	-11.0116
▁influenza	-11.0116
▁ladybug	-11.0116
▁length	-11.0116
▁manufacture	-11.0116
▁mechanism	-11.0116
▁minnesota	-11.0116
▁miriam	-11.0116
▁monarch	-11.0116
▁mwah	-11.0116
▁napkin	-11.0116
▁nowadays	-11.0116
▁oclock	-11.0116
▁octavian	-11.0116
▁offense	-11.0116
▁oregon	-11.0116
▁pellinore	-11.0116
▁permanent	-11.0116
▁phenomenon	-11.0116
▁pimple	-11.0116
▁pingpong	-11.0116
▁poetry	-11.0116
▁pompous	-11.0116
▁poppycock	-11.0116
▁practicing	-11.0116
▁pumpkin	-11.0116
▁rattlesnake	-11.0116
▁residence	-11.0116
▁resource	-11.0116
▁rusteze	-11.0116
▁scheepsmakkers	-11.0116
▁scholar	-11.0116
▁scissors	-11.0116
▁shrink	-11.0116
▁shudder	-11.0116
▁slattery	-11.0116
▁snifter	-11.0116
▁solitary	-11.0116
▁sparrow	-11.0116
▁specimen	-11.0116
▁spectators	-11.0116
▁stammering	-11.0116
▁sulfur	-11.0116
▁surplus	-11.0116
▁survivor	-11.0116
▁swept	-11.0116
▁swollen	-11.0116
▁symptom	-11.0116
▁terror	-11.0116
▁thursday	-11.0116
▁timothy	-11.0116
▁trajectory	-11.0116
▁trunk	-11.0116
▁tulip	-11.0116
▁unafraid	-11.0116
▁underneath	-11.0116
▁vantino	-11.0116
▁vector	-11.0116
▁veiligheid	-11.0116
▁vienna	-11.0116
▁welfare	-11.0116
▁wharton	-11.0116
▁williams	-11.0116
▁wondrous	-11.0116
▁wristwatch	-11.0116
▁yeehaw	-11.0116
▁yorkshire	-11.0116
▁zeelui	-11.0116
▁ùøaøøøø	-11.0116
▁adult	-11.0116
▁amusing	-11.0116
▁article	-11.0116
▁butterfly	-11.0116
▁clara	-11.0116
▁gedaan	-11.0116
▁preserve	-11.0116
▁recipe	-11.0116
▁shaft	-11.0116
▁shucks	-11.0116
▁sworn	-11.0116
rmint	-11.0116
▁austin	-11.0116
▁gemaakt	-11.0116
▁harold	-11.0116
▁howre	-11.0116
▁octo	-11.0116
▁refresh	-11.0116
▁sausage	-11.0116
▁utah	-11.0116
▁bridle	-11.0116
▁reserve	-11.0116
▁roei	-11.0116
▁extend	-11.0116
▁gloat	-11.0116
▁hathi	-11.0116
▁lamb	-11.0116
▁recruit	-11.0116
rnia	-11.0116
▁harness	-11.0116
▁vowels	-11.0116
▁wilderness	-11.0116
ligible	-11.0116
▁pittypat	-11.0116
▁rifle	-11.0116
▁britches	-11.0116
▁spurs	-11.0116
▁democracy	-11.0116
▁merit	-11.0116
▁chestnut	-11.0116
▁grocer	-11.0116
▁illegal	-11.0116
▁volume	-11.0116
▁dienst	-11.0116
▁yodel	-11.0116
▁slumber	-11.0116
▁autograph	-11.0116
▁prowl	-11.0116
▁butbutbut	-11.0116
▁feature	-11.0116
▁nazi	-11.0116
▁bullpen	-11.0116
▁violence	-11.0116
▁velia	-11.0116
▁lizard	-11.0116
▁frown	-11.0116
▁butbut	-11.0116
▁blond	-11.0116
▁diaper	-11.0116
▁plug	-11.0116
▁snivel	-11.0116
▁microphone	-11.0116
▁amigo	-11.0116
▁eerlijk	-11.0116
▁community	-11.0116
▁extract	-11.0116
▁internet	-11.0116
▁heartache	-11.0116
▁handkerchief	-11.0116
▁pretties	-11.0116
▁haynes	-11.0116
▁altijd	-11.0116
▁committee	-11.0116
▁entertainment	-11.0116
▁robinson	-11.0116
▁auction	-11.0116
▁console	-11.0116
▁gidd	-11.0116
▁tragic	-11.0116
arnished	-11.0116
▁franz	-11.0116
▁yuck	-11.0116
▁importance	-11.0116
▁continent	-11.0116
▁creek	-11.0116
▁barbarian	-11.0116
▁intellectual	-11.0116
▁archives	-11.0116
▁priest	-11.0116
▁damage	-11.0116
▁destination	-11.0116
▁choke	-11.0116
▁online	-11.0116
▁odlayeeee	-11.0117
▁initiate	-11.0117
▁darlin	-11.0117
▁crosscount	-11.0117
▁raising	-11.0117
▁brazil	-11.0117
▁masseur	-11.0117
▁colour	-11.0117
▁elsa	-11.0117
▁snug	-11.0117
▁upside	-11.0117
▁injury	-11.0117
▁advisor	-11.0117
▁acorn	-11.0117
▁plaster	-11.0117
▁hiya	-11.0117
▁iq	-11.0117
▁purple	-11.0117
▁theory	-11.0117
▁cooperation	-11.0117
▁conscience	-11.0117
▁crap	-11.0117
▁odlayee	-11.0117
▁accelerat	-11.0117
▁grey	-11.0117
▁judgment	-11.0117
▁plicht	-11.0117
▁shelf	-11.0117
▁hound	-11.0117
▁offend	-11.0117
▁revolver	-11.0117
▁audition	-11.0117
▁liquor	-11.0117
▁marble	-11.0117
▁anchor	-11.0117
alfi	-11.0117
atyahoocom	-11.0117
▁virtue	-11.0118
▁couch	-11.0118
▁donut	-11.0118
▁moonbeam	-11.0118
▁frozen	-11.0118
▁shack	-11.0118
▁hardboiled	-11.0118
▁rigel	-11.0118
▁signature	-11.0118
▁bellissima	-11.0118
▁stale	-11.0118
▁dentist	-11.0118
▁pike	-11.0118
▁stunt	-11.0118
▁washington	-11.0118
▁destruction	-11.0118
▁cordon	-11.0118
▁raid	-11.0118
▁blockade	-11.0118
▁cabinet	-11.0118
▁translation	-11.0118
▁violin	-11.0118
▁seattle	-11.0118
▁oven	-11.0118
▁politician	-11.0118
▁radiation	-11.0118
▁obs	-11.0119
▁education	-11.0119
▁oppose	-11.0119
▁bait	-11.0119
▁firewood	-11.0119
▁reinforcement	-11.0119
▁hags	-11.0119
▁biz	-11.0119
▁pluck	-11.0119
lighters	-11.0119
▁expression	-11.0119
kita	-11.0119
▁scurry	-11.0119
▁dizzy	-11.0119
▁partnership	-11.0119
▁twig	-11.0119
▁ponti	-11.0119
▁rustling	-11.0119
▁teenager	-11.012
▁unknown	-11.012
▁flock	-11.012
▁popping	-11.012
▁cuttin	-11.012
▁crocke	-11.012
rogen	-11.012
▁reel	-11.012
▁cooperate	-11.012
▁pitty	-11.012
▁unkind	-11.0121
▁ripped	-11.0121
▁aberg	-11.0121
▁blade	-11.0121
▁rita	-11.0121
▁ama	-11.0121
▁boohoo	-11.0121
▁allema	-11.0121
▁logical	-11.0122
▁bible	-11.0122
▁hocke	-11.0122
▁peddler	-11.0122
▁neat	-11.0122
scale	-11.0122
▁glitter	-11.0122
▁cmp	-11.0122
▁woolen	-11.0122
▁aqua	-11.0123
▁contestant	-11.0123
▁eliminated	-11.0123
▁evolved	-11.0123
▁scattered	-11.0123
▁mature	-11.0123
▁humor	-11.0123
▁fiend	-11.0123
▁zap	-11.0123
▁waltzes	-11.0123
uffle	-11.0123
▁lena	-11.0123
▁zelf	-11.0124
▁blunder	-11.0124
▁transmitter	-11.0124
▁weakness	-11.0124
▁sack	-11.0124
▁protective	-11.0124
▁epi	-11.0124
▁liever	-11.0124
▁serene	-11.0124
▁cruiser	-11.0124
▁jeep	-11.0124
▁threaten	-11.0124
▁mcg	-11.0124
▁correction	-11.0125
▁horror	-11.0125
▁slept	-11.0125
▁wiring	-11.0125
▁immensely	-11.0125
▁struck	-11.0125
▁bulb	-11.0125
▁convenien	-11.0125
▁bleed	-11.0125
▁borrowers	-11.0125
▁shinin	-11.0125
▁satisfied	-11.0126
▁emmie	-11.0126
antom	-11.0126
▁steer	-11.0126
manship	-11.0126
▁krijgen	-11.0126
▁sue	-11.0126
▁anna	-11.0127
▁anne	-11.0127
cture	-11.0127
stron	-11.0127
▁pistol	-11.0127
▁neem	-11.0127
▁wachten	-11.0127
ixie	-11.0128
▁cargo	-11.0128
▁ramp	-11.0128
▁sour	-11.0128
▁chill	-11.0129
▁morgan	-11.0129
▁lemon	-11.0129
▁teasing	-11.0129
▁reuni	-11.013
▁clot	-11.013
▁wallop	-11.013
▁thoroughly	-11.0131
▁balloon	-11.0131
ika	-11.0132
▁ink	-11.0132
▁rap	-11.0132
▁solo	-11.0132
▁stil	-11.0132
▁clearance	-11.0132
▁jove	-11.0132
▁disc	-11.0133
▁dopey	-11.0133
noid	-11.0133
▁kanon	-11.0133
▁secrets	-11.0134
▁jaar	-11.0134
▁related	-11.0134
▁accomplished	-11.0134
▁consideration	-11.0134
▁magician	-11.0135
▁reis	-11.0136
▁travelers	-11.0136
▁halen	-11.0136
▁kust	-11.0136
▁soar	-11.0136
▁puttin	-11.0137
▁bah	-11.0139
▁fascinating	-11.014
▁echoing	-11.014
▁git	-11.014
▁rehearsing	-11.014
▁squad	-11.014
▁explode	-11.014
▁obscure	-11.014
▁fraud	-11.014
▁makin	-11.014
▁peach	-11.0141
▁ingen	-11.0141
lined	-11.0141
▁thirsty	-11.0142
▁bedtime	-11.0143
▁flapping	-11.0144
▁gil	-11.0144
▁sentenced	-11.0145
▁exit	-11.0145
ume	-11.0147
▁vow	-11.0147
▁alan	-11.0149
▁aliens	-11.0149
▁bygones	-11.0149
▁techniques	-11.0149
▁docking	-11.0149
ational	-11.0149
▁regulations	-11.0149
▁plea	-11.015
▁aut	-11.0151
enne	-11.0151
▁sum	-11.0152
▁litera	-11.0153
▁fastball	-11.0153
▁replaced	-11.0153
▁panel	-11.0154
thin	-11.0155
▁surfing	-11.0155
▁grinding	-11.0155
▁larger	-11.0155
▁inning	-11.0156
▁ashes	-11.0156
▁nasa	-11.0156
▁heroes	-11.0156
▁ie	-11.0157
▁consult	-11.0157
▁begged	-11.0158
▁emily	-11.0158
▁mow	-11.0158
▁bail	-11.0159
▁stable	-11.0159
▁rage	-11.016
▁hire	-11.016
▁alm	-11.0161
▁infect	-11.0161
▁hom	-11.0162
▁activated	-11.0162
▁declared	-11.0162
▁oat	-11.0164
▁misty	-11.0166
▁squeakin	-11.0166
▁fold	-11.0168
tite	-11.0168
▁revert	-11.0168
▁awaken	-11.017
lick	-11.017
▁clac	-11.017
▁crashes	-11.0171
▁legal	-11.0171
▁funk	-11.0172
▁nailed	-11.0172
▁buster	-11.0173
titude	-11.018
▁cory	-11.018
▁petal	-11.0181
▁rusty	-11.0182
▁monitored	-11.0182
▁admired	-11.0183
▁statement	-11.0183
▁drilling	-11.0186
iness	-11.0188
▁neer	-11.0191
▁ado	-11.0194
▁oi	-11.0194
▁drafted	-11.0194
▁appeared	-11.0196
▁union	-11.0199
atches	-11.0199
▁tones	-11.0199
▁doodle	-11.02
▁demanding	-11.0202
▁shocking	-11.0202
▁complaining	-11.0202
▁reminder	-11.0203
▁divide	-11.0205
▁introduced	-11.0206
▁adams	-11.0207
▁controllers	-11.0207
▁swamps	-11.0207
▁sable	-11.0208
▁comb	-11.0209
▁visitors	-11.0211
▁ahha	-11.0214
ius	-11.0218
▁suffered	-11.0218
odder	-11.0219
▁gay	-11.0219
haha	-11.022
how	-11.0221
▁pitcher	-11.0224
▁hopeless	-11.0225
▁losers	-11.0229
▁adopt	-11.0231
bred	-11.0233
phi	-11.0235
▁mash	-11.0236
▁dresses	-11.0236
ewer	-11.0238
▁indicat	-11.024
pot	-11.024
▁him	-11.0241
▁smarter	-11.0244
chsi	-11.0246
▁mustanger	-11.0249
▁lame	-11.025
ect	-11.0252
ndo	-11.0253
▁careless	-11.0255
▁carl	-11.0255
▁burnt	-11.0258
▁lure	-11.0259
▁of	-11.0263
▁brakes	-11.0266
▁intentions	-11.0266
▁juggl	-11.0266
▁macaws	-11.0266
▁vegetables	-11.0266
▁taco	-11.0268
▁kok	-11.0268
ossed	-11.0269
▁sniffs	-11.0273
▁tasted	-11.0273
biology	-11.0274
▁pipes	-11.0282
▁scarers	-11.0283
▁realm	-11.0283
▁lmp	-11.0289
▁decim	-11.0291
▁charit	-11.0291
▁blink	-11.0295
▁frightening	-11.0296
▁babbl	-11.0297
▁uno	-11.0304
▁sewing	-11.0311
▁demon	-11.0312
▁safer	-11.0312
▁del	-11.0317
▁sucks	-11.0324
ep	-11.0324
▁appe	-11.0325
▁obey	-11.0325
▁nerves	-11.0325
▁injuns	-11.0325
▁trumpets	-11.0325
▁kneel	-11.0326
▁repeated	-11.0329
▁respected	-11.0331
▁villain	-11.0332
▁goof	-11.0334
▁hobb	-11.034
▁transform	-11.034
▁deeper	-11.034
▁madame	-11.0341
▁phila	-11.0347
▁plants	-11.0348
▁finer	-11.0354
▁cracked	-11.0354
▁tips	-11.0363
▁sau	-11.0364
▁knocked	-11.0366
▁remained	-11.0369
resolved	-11.0372
▁tricked	-11.0382
▁aryans	-11.0386
▁spiders	-11.0386
▁crumbs	-11.0386
▁stings	-11.0386
ica	-11.0386
▁bums	-11.0387
▁vir	-11.0388
▁belts	-11.0388
▁tearing	-11.0389
▁lookout	-11.0392
▁begg	-11.04
▁reverse	-11.0401
▁payin	-11.0404
▁qui	-11.0409
▁hips	-11.0409
▁historical	-11.0417
▁sighted	-11.0418
▁worden	-11.0423
▁protected	-11.0426
▁sticky	-11.0428
▁twins	-11.0446
▁affairs	-11.0446
▁chocolates	-11.0446
▁grat	-11.0446
uc	-11.0449
▁disappears	-11.0449
▁armor	-11.0451
gle	-11.0467
▁slo	-11.0468
reign	-11.047
▁smaller	-11.0483
▁aven	-11.0489
▁differently	-11.0491
▁flipp	-11.0495
▁crossed	-11.0502
▁units	-11.0503
▁livesy	-11.0505
▁summons	-11.0507
▁fares	-11.0508
▁recording	-11.051
▁drawing	-11.0522
▁dancers	-11.0527
▁haul	-11.0533
▁hooked	-11.0539
fraction	-11.0551
▁bothering	-11.0553
hu	-11.0558
▁ape	-11.0559
▁gates	-11.0559
▁weeds	-11.0563
▁flos	-11.0566
digit	-11.0566
▁sept	-11.0567
▁roams	-11.0567
▁squirrels	-11.0568
▁lasers	-11.0569
▁treasures	-11.0569
pile	-11.0574
▁pres	-11.0583
rel	-11.0583
▁startin	-11.0587
with	-11.0589
▁lous	-11.0594
▁closely	-11.0599
duction	-11.0607
▁selling	-11.0609
▁mes	-11.0615
▁joined	-11.0615
▁cleaned	-11.0617
ckle	-11.0623
▁beeps	-11.0626
▁claws	-11.0629
▁bids	-11.0629
ez	-11.063
pped	-11.063
▁patients	-11.063
▁becom	-11.0647
ency	-11.0658
▁ascen	-11.0681
▁permits	-11.0684
▁cate	-11.0688
▁vanda	-11.0688
▁rabbits	-11.0691
▁cows	-11.0692
▁slaps	-11.0703
ggle	-11.0705
▁sto	-11.0705
leg	-11.0706
▁mens	-11.0729
▁arch	-11.0731
▁spar	-11.0735
▁sm	-11.0739
▁heirs	-11.0752
▁slaves	-11.0753
▁tracking	-11.0771
▁yuk	-11.0775
grave	-11.0781
▁sly	-11.0785
▁teaching	-11.0788
▁elk	-11.0789
pose	-11.0807
▁poorly	-11.0814
▁overhea	-11.0814
▁chaps	-11.0814
▁interests	-11.082
gon	-11.0823
▁commanding	-11.0828
ying	-11.0837
your	-11.0862
▁hor	-11.0865
▁plott	-11.0873
▁bacteria	-11.0875
▁tonights	-11.088
▁skills	-11.088
reach	-11.0881
▁drinker	-11.0883
▁shines	-11.0894
scent	-11.0895
▁fated	-11.0896
▁bulldo	-11.09
▁locks	-11.0903
▁bou	-11.093
knit	-11.0933
▁clubs	-11.094
▁suff	-11.0945
▁fooled	-11.0949
err	-11.0952
rumbling	-11.0966
▁prima	-11.098
▁kn	-11.1
▁beard	-11.1003
▁staring	-11.1017
▁min	-11.1028
ijven	-11.1029
hot	-11.1033
erman	-11.1035
▁buying	-11.1035
ake	-11.1044
twe	-11.1056
▁circles	-11.1068
▁poisons	-11.107
qua	-11.107
▁wal	-11.1085
▁coo	-11.1103
last	-11.1113
▁funn	-11.1116
▁quitt	-11.1125
▁officials	-11.113
▁dent	-11.1133
▁dealing	-11.1136
aria	-11.1138
for	-11.1138
▁clin	-11.1161
▁signing	-11.1161
▁hated	-11.1163
clear	-11.1186
▁fooling	-11.1201
kind	-11.1217
lves	-11.1221
▁maps	-11.1224
▁legi	-11.1227
▁deaths	-11.1228
▁specials	-11.1256
▁forms	-11.1288
berg	-11.1295
ders	-11.13
ories	-11.1303
▁hy	-11.1319
shing	-11.1329
outs	-11.1337
▁nob	-11.1373
oud	-11.1381
▁ram	-11.1386
▁computers	-11.1388
▁painful	-11.139
but	-11.139
▁remains	-11.1392
▁stra	-11.1399
ùøøù	-11.1405
▁bri	-11.1405
▁worker	-11.1411
oki	-11.1416
▁nov	-11.1429
▁planes	-11.145
▁seats	-11.1455
ants	-11.147
mag	-11.1492
▁jamm	-11.1514
▁feeds	-11.1517
øùøù	-11.1545
▁sk	-11.1548
▁exc	-11.1554
ako	-11.156
▁tilling	-11.1569
▁mutt	-11.1575
▁corners	-11.1587
▁rabb	-11.1589
▁pete	-11.1634
▁neg	-11.1648
▁produce	-11.1649
▁sakes	-11.165
▁kare	-11.1677
▁educat	-11.1692
▁bu	-11.1717
▁buildings	-11.1717
▁nor	-11.1727
▁wes	-11.1734
cation	-11.1741
▁commentar	-11.1752
etje	-11.1756
▁keys	-11.1781
▁presidents	-11.1782
▁patrol	-11.1804
▁cris	-11.1809
▁scu	-11.181
▁mos	-11.1813
ight	-11.182
▁resting	-11.1896
pin	-11.1902
▁jan	-11.1902
ashi	-11.1914
poo	-11.1914
▁offers	-11.1926
▁tellin	-11.1935
ula	-11.1955
▁calv	-11.196
ott	-11.1994
nter	-11.2019
▁ripe	-11.2042
▁clothe	-11.2057
▁øùøø	-11.2058
ened	-11.207
roll	-11.207
rous	-11.2072
▁boil	-11.2104
dic	-11.2105
ied	-11.2118
udent	-11.2139
▁kar	-11.2144
mi	-11.2158
any	-11.2185
▁cts	-11.2203
▁sabotag	-11.2207
icu	-11.221
▁bert	-11.222
▁ami	-11.223
▁disp	-11.2254
uke	-11.2261
▁sull	-11.2261
▁deli	-11.2271
rep	-11.2305
▁erg	-11.2312
aries	-11.2322
▁carolin	-11.2326
anta	-11.2341
▁bro	-11.2381
urg	-11.239
▁jessi	-11.2413
▁nes	-11.2423
ltan	-11.2425
isp	-11.2444
▁maak	-11.245
▁tomb	-11.2466
ailed	-11.2467
▁crowds	-11.2467
▁dedicate	-11.2469
come	-11.2478
▁pla	-11.2485
▁diagnose	-11.2488
aire	-11.2489
uffr	-11.2501
▁lip	-11.2504
contained	-11.2517
tor	-11.2597
uki	-11.2601
put	-11.2607
hh	-11.2608
▁hagg	-11.2636
orious	-11.2643
too	-11.2656
fe	-11.2659
▁swin	-11.2668
▁vari	-11.269
▁mop	-11.2699
uch	-11.2704
ael	-11.2707
mical	-11.2714
ddle	-11.273
▁serv	-11.2735
even	-11.274
▁sniff	-11.2743
▁dar	-11.2747
▁prides	-11.2751
pm	-11.2761
hr	-11.2765
▁stead	-11.2773
▁upp	-11.2776
▁ùøùù	-11.2795
rv	-11.2805
ik	-11.2807
ira	-11.2807
nto	-11.2814
▁aar	-11.2843
lp	-11.2849
tions	-11.2866
ssen	-11.2872
▁sep	-11.2875
tled	-11.2882
▁teams	-11.2896
▁ùùøù	-11.2914
wn	-11.2917
▁anti	-11.2937
ative	-11.2938
aan	-11.2938
xed	-11.2954
bra	-11.2971
▁clo	-11.298
▁tre	-11.298
breaker	-11.2989
eater	-11.2994
mber	-11.2995
▁writ	-11.3001
▁tool	-11.3022
zer	-11.3041
▁alli	-11.3079
aah	-11.3082
▁ww	-11.3104
eth	-11.3111
ashed	-11.3112
▁aspirin	-11.3122
oh	-11.3129
▁phil	-11.3146
▁cd	-11.3161
obeyed	-11.3192
aviar	-11.3198
cher	-11.3218
▁meow	-11.322
▁gauge	-11.3235
▁mermaid	-11.3235
▁employee	-11.3235
▁insect	-11.3237
▁cheek	-11.3237
▁illustr	-11.3237
▁token	-11.3238
▁mule	-11.3239
▁function	-11.3241
▁invention	-11.3243
▁vegetable	-11.3245
▁cookie	-11.3245
▁macaw	-11.3246
▁term	-11.3248
▁mcalester	-11.325
▁result	-11.325
▁passenger	-11.3251
▁stir	-11.3252
▁neighbor	-11.3256
▁pipe	-11.3256
▁relation	-11.3257
▁intention	-11.3257
▁weapon	-11.3258
▁brake	-11.3259
▁hyena	-11.3259
▁degree	-11.326
▁civil	-11.3261
▁troop	-11.3262
▁blinkin	-11.3263
▁onion	-11.3263
▁sometime	-11.3267
▁beam	-11.3268
▁seein	-11.327
▁illusion	-11.3271
▁nik	-11.3272
▁cop	-11.3275
▁wanne	-11.3279
▁oar	-11.3282
▁bore	-11.3304
▁indu	-11.3304
▁youngster	-11.3305
ancy	-11.3313
iny	-11.3326
ification	-11.3327
▁stag	-11.3336
bell	-11.3338
▁backward	-11.3344
itz	-11.3351
▁easie	-11.3351
inous	-11.3354
▁preci	-11.336
stand	-11.3361
▁etern	-11.3362
▁ùøøø	-11.3373
▁slid	-11.3377
crumpet	-11.3385
mother	-11.3387
▁clutch	-11.3387
▁gambl	-11.3387
▁involv	-11.339
▁geld	-11.3392
load	-11.3393
wind	-11.3394
boy	-11.3394
vis	-11.3394
▁plumb	-11.3394
▁surf	-11.3395
skull	-11.3395
pudding	-11.3396
▁stall	-11.3396
mission	-11.3397
posts	-11.3398
stock	-11.3398
pound	-11.3398
mouth	-11.3399
position	-11.3399
wait	-11.3399
safety	-11.3399
trash	-11.3399
storm	-11.3399
natural	-11.3399
boat	-11.3399
grown	-11.3399
▁creak	-11.34
feeling	-11.34
job	-11.34
earth	-11.34
space	-11.34
bury	-11.3401
walk	-11.3401
▁delay	-11.3401
slow	-11.3401
rock	-11.3402
plate	-11.3402
check	-11.3402
think	-11.3404
master	-11.3404
around	-11.3404
minus	-11.3404
▁engage	-11.3405
sub	-11.3406
rab	-11.3407
▁punish	-11.3407
zero	-11.3408
ùøùø	-11.3408
▁possess	-11.3409
bridge	-11.3409
▁banish	-11.341
fold	-11.341
▁squawk	-11.3411
lin	-11.3411
chop	-11.3412
hour	-11.3413
▁isolate	-11.3414
▁wrinkle	-11.3414
five	-11.3416
▁pip	-11.3416
▁victori	-11.3418
▁should	-11.3419
▁flour	-11.3419
▁inspire	-11.342
etti	-11.342
▁squa	-11.3421
▁determine	-11.3421
▁cana	-11.3422
▁prop	-11.3422
▁argu	-11.3423
anni	-11.3426
▁mental	-11.3427
▁necessar	-11.3427
▁thirst	-11.3427
▁majest	-11.3428
▁swimming	-11.3428
▁counsel	-11.3429
▁sentence	-11.3429
▁thorough	-11.3429
▁unfortunate	-11.343
▁hahaha	-11.343
▁dispos	-11.343
▁grub	-11.3432
▁quot	-11.3432
▁numb	-11.3433
▁assembl	-11.3434
frlend	-11.3435
▁profi	-11.3435
▁wander	-11.3435
rijp	-11.3437
▁humbl	-11.3438
enses	-11.3438
aught	-11.3438
▁frau	-11.3439
▁grind	-11.3439
▁waltz	-11.344
▁neutr	-11.3441
▁defens	-11.3442
shore	-11.3442
▁victor	-11.3445
▁shakin	-11.3445
▁posse	-11.3445
▁destruct	-11.3446
▁charl	-11.3446
▁twel	-11.3447
kies	-11.3447
▁kiddin	-11.3447
▁outrage	-11.3447
nhales	-11.3447
▁edit	-11.3448
▁brow	-11.3448
▁stubborn	-11.3448
▁joseph	-11.3448
▁exterminat	-11.3449
▁inherit	-11.3449
bbin	-11.3449
nounce	-11.3449
ferna	-11.3449
▁audio	-11.3449
▁attract	-11.3449
▁congratulat	-11.3449
▁psych	-11.3449
▁interpret	-11.3449
astroph	-11.3449
quisition	-11.3449
shaped	-11.3449
ùùùùùùùùùùùùùù	-11.3449
▁aggressive	-11.3449
▁aldebaran	-11.3449
▁apprentice	-11.3449
▁approximately	-11.3449
▁arlington	-11.3449
▁artificial	-11.3449
▁assistance	-11.3449
▁assoc	-11.3449
▁astonished	-11.3449
▁averaging	-11.3449
▁bachelor	-11.3449
▁background	-11.3449
▁bastard	-11.3449
▁befuddling	-11.3449
▁boeien	-11.3449
▁bourbon	-11.3449
▁brunhilde	-11.3449
▁brutal	-11.3449
▁buccaneer	-11.3449
▁buiten	-11.3449
▁bulbasaur	-11.3449
▁canidius	-11.3449
▁capacity	-11.3449
▁caravan	-11.3449
▁catullus	-11.3449
▁charlesworth	-11.3449
▁chiquita	-11.3449
▁clattering	-11.3449
▁cobweb	-11.3449
▁coconut	-11.3449
▁coincidence	-11.3449
▁commence	-11.3449
▁companies	-11.3449
▁companion	-11.3449
▁comrades	-11.3449
▁contraption	-11.3449
▁convincing	-11.3449
▁cosmic	-11.3449
▁daggett	-11.3449
▁december	-11.3449
▁diabolical	-11.3449
▁discomboomerati	-11.3449
▁disconnect	-11.3449
▁dough	-11.3449
▁elizabeth	-11.3449
▁emphasis	-11.3449
▁environment	-11.3449
▁escorial	-11.3449
▁exhibit	-11.3449
▁ferocious	-11.3449
▁fiddledeedee	-11.3449
▁fountain	-11.3449
▁frequently	-11.3449
▁gaspargo	-11.3449
▁gazelle	-11.3449
▁gebruiken	-11.3449
▁gegeven	-11.3449
▁genteel	-11.3449
▁gesundheit	-11.3449
▁gijzelaar	-11.3449
▁glacier	-11.3449
▁grazie	-11.3449
▁haircut	-11.3449
▁heavily	-11.3449
▁hebrew	-11.3449
▁heimlich	-11.3449
▁henderson	-11.3449
▁hillbilly	-11.3449
▁horizon	-11.3449
▁immune	-11.3449
▁impatient	-11.3449
▁infinite	-11.3449
▁jaguar	-11.3449
▁jiffy	-11.3449
▁joppa	-11.3449
▁juvenile	-11.3449
▁karpathy	-11.3449
▁kumiko	-11.3449
▁leash	-11.3449
▁lefou	-11.3449
▁lmagine	-11.3449
▁luggage	-11.3449
▁macdougall	-11.3449
▁maggie	-11.3449
▁microscan	-11.3449
▁microsecond	-11.3449
▁miguel	-11.3449
▁mishap	-11.3449
▁munchkin	-11.3449
▁museum	-11.3449
▁nitrogen	-11.3449
▁nitwit	-11.3449
▁nominal	-11.3449
▁norwegian	-11.3449
▁nutrient	-11.3449
▁obligation	-11.3449
▁odreary	-11.3449
▁outlook	-11.3449
▁overeind	-11.3449
▁overflowin	-11.3449
▁override	-11.3449
▁participate	-11.3449
▁pencil	-11.3449
▁perimeter	-11.3449
▁polite	-11.3449
▁polycron	-11.3449
▁porcupine	-11.3449
▁postulants	-11.3449
▁poysanally	-11.3449
▁prancing	-11.3449
▁precinct	-11.3449
▁pregnant	-11.3449
▁presumptuous	-11.3449
▁propellant	-11.3449
▁quantrell	-11.3449
▁reacquire	-11.3449
▁receipt	-11.3449
▁referee	-11.3449
▁reginald	-11.3449
▁religion	-11.3449
▁resident	-11.3449
▁restaurant	-11.3449
▁review	-11.3449
▁revolting	-11.3449
▁righteousness	-11.3449
▁rouge	-11.3449
▁roxanne	-11.3449
▁rubbish	-11.3449
▁sacramento	-11.3449
▁salami	-11.3449
▁schmidt	-11.3449
▁schnitzel	-11.3449
▁scrub	-11.3449
▁seasick	-11.3449
▁separation	-11.3449
▁serpentine	-11.3449
▁shakespeare	-11.3449
▁shotgun	-11.3449
▁simulator	-11.3449
▁sizzle	-11.3449
▁smollett	-11.3449
▁somewhat	-11.3449
▁sponsor	-11.3449
▁stadium	-11.3449
▁striking	-11.3449
▁strudel	-11.3449
▁suicide	-11.3449
▁surrender	-11.3449
▁survival	-11.3449
▁susuatari	-11.3449
▁symphon	-11.3449
▁telemetry	-11.3449
▁theodo	-11.3449
▁tikotako	-11.3449
▁tokyo	-11.3449
▁tomatoes	-11.3449
▁tragedy	-11.3449
▁transylvania	-11.3449
▁treason	-11.3449
▁trixie	-11.3449
▁tumble	-11.3449
▁uncertain	-11.3449
▁underwear	-11.3449
▁undeservin	-11.3449
▁undisputed	-11.3449
▁unprepared	-11.3449
▁vuur	-11.3449
▁warthog	-11.3449
▁weasel	-11.3449
▁wetherby	-11.3449
▁yvonne	-11.3449
▁access	-11.3449
▁buddha	-11.3449
▁encounter	-11.3449
▁polish	-11.3449
▁pulse	-11.3449
▁retrieve	-11.3449
▁surpass	-11.3449
▁survey	-11.3449
▁undock	-11.3449
▁wrist	-11.3449
nevada	-11.3449
▁ankle	-11.3449
▁antenna	-11.3449
▁contrast	-11.3449
▁coonhunt	-11.3449
▁dangling	-11.3449
▁disintegrat	-11.3449
▁disrespect	-11.3449
▁eileen	-11.3449
▁eventually	-11.3449
▁filter	-11.3449
▁motivation	-11.3449
▁motorbus	-11.3449
▁proposal	-11.3449
▁reaction	-11.3449
▁restraint	-11.3449
▁ronnie	-11.3449
▁sextus	-11.3449
▁skirt	-11.3449
▁snob	-11.3449
▁southwest	-11.3449
▁tattoo	-11.3449
▁terrace	-11.3449
▁traitor	-11.3449
▁tribe	-11.3449
▁whitewall	-11.3449
▁zombi	-11.3449
▁crafts	-11.3449
▁goldenrod	-11.3449
▁hoofer	-11.3449
▁italian	-11.3449
▁japanese	-11.3449
▁legacy	-11.3449
▁lounging	-11.3449
▁muller	-11.3449
▁mural	-11.3449
▁muske	-11.3449
▁omni	-11.3449
▁tyrant	-11.3449
▁allergi	-11.3449
▁boilils	-11.3449
▁downsized	-11.3449
▁drusus	-11.3449
▁edwin	-11.3449
▁evacuat	-11.3449
▁frustrat	-11.3449
▁oohooh	-11.3449
▁philologist	-11.3449
▁postpone	-11.3449
▁scalp	-11.3449
▁superstitio	-11.3449
▁attached	-11.3449
▁bridesmaid	-11.3449
▁dumplings	-11.3449
▁forgiving	-11.3449
▁gerald	-11.3449
▁landheer	-11.3449
▁ostr	-11.3449
▁swore	-11.3449
▁taffy	-11.3449
▁zeerover	-11.3449
▁captn	-11.3449
▁converg	-11.3449
▁griev	-11.3449
▁harmony	-11.3449
▁slice	-11.3449
▁tooting	-11.3449
▁variety	-11.3449
▁slither	-11.3449
▁stacett	-11.3449
▁phoe	-11.3449
▁scoot	-11.3449
yaya	-11.3449
▁carreen	-11.3449
▁insight	-11.3449
▁refined	-11.3449
▁disarm	-11.3449
▁domesticated	-11.3449
▁emerald	-11.3449
▁goddess	-11.3449
▁swagger	-11.3449
▁venus	-11.3449
▁acquired	-11.3449
▁crazie	-11.3449
▁mitt	-11.3449
▁arabians	-11.3449
▁bonnet	-11.3449
▁freight	-11.3449
▁ohohohoh	-11.3449
▁refund	-11.3449
▁casca	-11.3449
▁daniel	-11.3449
▁harp	-11.3449
▁ambush	-11.3449
▁edgar	-11.3449
▁extinct	-11.3449
▁gibberish	-11.3449
▁climate	-11.3449
▁enthusiastic	-11.3449
▁intrude	-11.3449
▁nightingale	-11.3449
▁platform	-11.3449
▁suspen	-11.3449
▁laura	-11.3449
▁overall	-11.3449
▁shivers	-11.3449
▁phonetics	-11.3449
▁ligt	-11.3449
▁brink	-11.3449
▁gym	-11.3449
▁reply	-11.3449
▁shield	-11.3449
▁exclusive	-11.345
▁executive	-11.345
▁sloep	-11.345
clos	-11.345
▁characteristic	-11.345
▁rewing	-11.345
▁contemp	-11.345
▁disrupt	-11.345
▁pilate	-11.345
▁blimp	-11.345
▁grape	-11.345
▁asap	-11.345
▁grindstone	-11.345
▁regions	-11.345
▁microns	-11.345
▁sanct	-11.345
▁beneden	-11.345
▁hilda	-11.345
▁lekker	-11.345
▁bashful	-11.345
▁authorities	-11.345
▁download	-11.345
incense	-11.345
▁edward	-11.345
▁paranoid	-11.345
▁trifl	-11.345
▁hampshire	-11.345
▁compound	-11.345
▁stuurman	-11.345
▁bypass	-11.345
▁flux	-11.345
▁plaque	-11.345
▁blazes	-11.345
▁sideways	-11.345
▁hesitate	-11.345
▁paleface	-11.345
▁patricia	-11.345
▁vanavond	-11.345
▁eleven	-11.345
▁executor	-11.345
▁pedal	-11.345
▁reflection	-11.345
▁cramp	-11.345
▁upward	-11.345
▁intercept	-11.345
▁alkaline	-11.345
▁ramone	-11.345
▁wrapped	-11.345
▁moeder	-11.345
▁chore	-11.345
▁garlic	-11.345
▁moose	-11.345
▁yowling	-11.345
▁horri	-11.345
▁pussy	-11.345
▁swindle	-11.345
▁boast	-11.345
▁mush	-11.345
▁trouser	-11.345
▁imposter	-11.345
▁widowmaker	-11.345
▁injured	-11.345
▁chaperon	-11.345
▁savannah	-11.345
▁departure	-11.345
▁hunch	-11.345
▁robbery	-11.345
▁shimm	-11.345
▁ails	-11.345
▁gorge	-11.345
▁liza	-11.345
▁thorn	-11.345
▁cannonball	-11.345
stride	-11.345
▁chopped	-11.345
siderab	-11.345
▁decency	-11.345
▁uhuhuh	-11.345
▁transport	-11.3451
▁pacific	-11.3451
laydeeo	-11.3451
▁measurements	-11.3451
▁whwhat	-11.3451
▁tarts	-11.3451
▁stubbornness	-11.3451
chaam	-11.3451
▁patron	-11.3451
▁thunderstorm	-11.3451
▁drank	-11.3451
▁chalk	-11.3451
▁barrier	-11.3451
ashima	-11.3451
cept	-11.3451
▁nuns	-11.3451
▁strut	-11.3451
▁italy	-11.3451
▁kong	-11.3451
▁brent	-11.3451
▁candlelight	-11.3451
▁strand	-11.3451
▁affectionate	-11.3451
▁flyswatter	-11.3451
▁sobbing	-11.3451
▁temptation	-11.3451
▁delegat	-11.3451
▁persecution	-11.3451
▁puck	-11.3451
▁inspection	-11.3451
▁sleeve	-11.3451
▁detective	-11.3451
▁staat	-11.3451
▁rash	-11.3451
▁stork	-11.3451
▁meowth	-11.3451
▁apologies	-11.3452
▁battling	-11.3452
▁depressed	-11.3452
▁priority	-11.3452
▁notebook	-11.3452
▁pavement	-11.3452
▁erva	-11.3452
▁medium	-11.3452
▁squirtle	-11.3452
▁traction	-11.3452
▁snowstorm	-11.3452
▁candy	-11.3452
▁programmed	-11.3452
▁litter	-11.3452
▁slit	-11.3452
▁tiber	-11.3452
▁fox	-11.3452
▁interior	-11.3452
▁nemen	-11.3452
carbon	-11.3453
▁zebra	-11.3453
▁which	-11.3453
▁comple	-11.3453
▁blake	-11.3453
▁source	-11.3453
▁peep	-11.3453
▁robbers	-11.3453
▁drain	-11.3453
▁commitment	-11.3453
▁rational	-11.3453
▁burden	-11.3453
▁vandaan	-11.3453
▁sissy	-11.3453
▁timid	-11.3453
▁waist	-11.3453
▁rewind	-11.3453
▁drool	-11.3453
▁olives	-11.3453
▁eighteen	-11.3453
▁rumpus	-11.3453
▁theatre	-11.3454
▁inevitable	-11.3454
▁lubricate	-11.3454
▁merchandise	-11.3454
▁puzzle	-11.3454
▁diver	-11.3454
▁ideals	-11.3454
▁consum	-11.3454
▁adoption	-11.3454
▁sup	-11.3454
▁arrival	-11.3454
▁funding	-11.3454
▁terrifical	-11.3454
▁superior	-11.3454
▁tolera	-11.3454
▁lolly	-11.3454
▁seawater	-11.3454
good	-11.3454
▁tyke	-11.3454
teen	-11.3454
▁waco	-11.3455
▁overseer	-11.3455
▁puff	-11.3455
▁hopping	-11.3455
▁damp	-11.3455
▁solomon	-11.3455
▁karate	-11.3455
▁fork	-11.3455
▁countries	-11.3455
▁divinity	-11.3455
▁barrel	-11.3455
▁layeeodloo	-11.3455
▁impression	-11.3455
▁talon	-11.3455
▁shred	-11.3455
▁achievement	-11.3455
▁stonehill	-11.3455
▁zim	-11.3455
▁philosophy	-11.3455
▁cuff	-11.3455
▁verder	-11.3455
▁yappin	-11.3455
rix	-11.3456
▁cities	-11.3456
▁shaking	-11.3456
▁dread	-11.3456
▁housekeeper	-11.3456
▁preparation	-11.3456
▁tripping	-11.3456
▁vul	-11.3456
▁peak	-11.3456
▁smooch	-11.3456
▁hunk	-11.3456
▁keel	-11.3456
▁assignment	-11.3457
▁civilized	-11.3457
▁loot	-11.3457
▁electricity	-11.3457
▁flori	-11.3457
▁zwe	-11.3457
▁sixfoot	-11.3458
▁welsh	-11.3458
▁goldstone	-11.3458
▁fever	-11.3458
▁sunlight	-11.3458
▁slimme	-11.3458
▁øùøøù	-11.3459
igh	-11.3459
▁whim	-11.3459
▁vai	-11.3459
▁mmmmm	-11.3459
▁purse	-11.3459
▁abandoned	-11.3459
▁intimidated	-11.3459
▁argument	-11.3459
▁gewe	-11.3459
▁beings	-11.3459
▁tutor	-11.3459
▁geze	-11.3459
▁hairball	-11.346
▁enti	-11.346
▁additional	-11.346
▁mechanical	-11.346
▁canary	-11.346
▁appel	-11.346
▁twitch	-11.346
▁gunfighter	-11.346
▁yank	-11.346
▁zit	-11.346
▁liking	-11.3461
▁airport	-11.3461
▁dame	-11.3461
▁blush	-11.3461
▁yoshie	-11.3461
▁recon	-11.3461
▁waking	-11.3461
▁wasteland	-11.3461
▁employ	-11.3462
▁entertaining	-11.3462
▁zeke	-11.3462
▁victoria	-11.3462
▁poop	-11.3462
▁automatic	-11.3462
▁rugged	-11.3462
▁inspiring	-11.3462
▁toxic	-11.3462
▁supply	-11.3462
▁partially	-11.3462
▁fried	-11.3462
▁rejoice	-11.3462
greatgrandmother	-11.3463
▁blah	-11.3463
▁scenery	-11.3463
▁booze	-11.3463
▁equally	-11.3463
▁totus	-11.3464
▁cent	-11.3464
▁identify	-11.3464
▁girlfrlend	-11.3464
▁nile	-11.3464
▁tipo	-11.3465
▁amp	-11.3465
▁activity	-11.3465
▁heartbeat	-11.3465
▁morality	-11.3465
▁china	-11.3466
▁robotic	-11.3466
▁barren	-11.3466
▁rim	-11.3466
▁denken	-11.3466
▁jewelry	-11.3466
▁whoaoh	-11.3466
▁johnson	-11.3466
▁toro	-11.3466
▁rib	-11.3467
▁massage	-11.3467
▁arrangement	-11.3467
▁kre	-11.3467
▁funeral	-11.3467
itat	-11.3468
▁bass	-11.3468
▁ziet	-11.3468
▁allo	-11.3468
escription	-11.3468
▁sadness	-11.3468
▁solution	-11.3468
▁uur	-11.3468
▁spitting	-11.3469
▁agh	-11.3469
ori	-11.3469
▁travelling	-11.347
▁bemu	-11.347
▁myr	-11.347
▁rex	-11.347
▁ivy	-11.347
▁rig	-11.347
▁dispose	-11.347
▁prevent	-11.3471
▁swimmingly	-11.3471
▁chic	-11.3471
▁alter	-11.3472
▁product	-11.3472
▁klein	-11.3473
quel	-11.3473
▁trainer	-11.3473
▁moat	-11.3474
▁endure	-11.3474
▁romance	-11.3474
citation	-11.3475
▁onder	-11.3475
▁yacht	-11.3476
▁betty	-11.3476
▁evicted	-11.3476
▁flooded	-11.3476
▁triggered	-11.3476
▁werk	-11.3476
▁joyous	-11.3477
▁nearby	-11.3477
▁q	-11.3477
▁wands	-11.3477
▁terrifi	-11.3478
▁vein	-11.3478
rius	-11.3479
▁prickly	-11.3479
▁brighton	-11.348
▁rump	-11.348
▁protector	-11.3481
▁parttime	-11.3481
▁quote	-11.3482
▁active	-11.3482
▁sunny	-11.3483
▁annoying	-11.3484
▁dazzling	-11.3484
▁trembling	-11.3484
▁flourish	-11.3484
▁hardship	-11.3484
idge	-11.3484
▁difficulties	-11.3484
▁spooky	-11.3485
ssion	-11.3486
▁cockroach	-11.3486
▁agreeable	-11.3487
▁rosy	-11.3487
▁madman	-11.3488
yahoocom	-11.3488
▁organized	-11.3489
monu	-11.3489
▁woord	-11.3489
rical	-11.349
▁gross	-11.349
▁thumper	-11.3491
▁drunken	-11.3491
▁sill	-11.3491
▁worthless	-11.3492
▁dug	-11.3492
▁bigleague	-11.3492
▁bushes	-11.3492
▁sitter	-11.3493
▁sway	-11.3493
▁floatin	-11.3494
▁stup	-11.3494
▁enig	-11.3495
▁blackie	-11.3495
heen	-11.3495
▁lionel	-11.3495
▁liable	-11.3496
▁snowman	-11.3496
▁spotlight	-11.3496
▁notion	-11.3497
▁psycholog	-11.3497
▁brunettes	-11.3498
▁carpetbaggers	-11.3498
▁columns	-11.3498
▁competitors	-11.3498
▁dialects	-11.3498
▁mammoths	-11.3498
▁pancakes	-11.3498
▁emotions	-11.3498
▁orphans	-11.3498
▁blankets	-11.3498
▁hose	-11.3499
bitt	-11.3499
▁cinder	-11.3499
ito	-11.35
▁jackal	-11.3501
▁joyfully	-11.3504
▁presum	-11.3504
▁drum	-11.3504
▁brandy	-11.3505
▁chin	-11.3505
▁musician	-11.3505
mobile	-11.3506
fty	-11.3507
▁squawking	-11.3508
▁transformed	-11.3508
▁abso	-11.3508
uced	-11.3509
ocks	-11.351
▁fairies	-11.3511
▁warnin	-11.3511
▁hateful	-11.3512
eff	-11.3512
▁bellow	-11.3513
journe	-11.3513
▁scarer	-11.3513
▁jin	-11.3513
▁wiles	-11.3513
▁budgin	-11.3514
▁kent	-11.3516
▁arr	-11.3516
▁priceless	-11.3516
▁matey	-11.3516
▁etch	-11.3517
▁spec	-11.3517
▁sucker	-11.3518
▁translat	-11.3518
▁risen	-11.352
▁role	-11.352
▁darkies	-11.3521
▁twi	-11.3522
▁mooie	-11.3523
dispens	-11.3523
▁overlook	-11.3524
▁shutting	-11.3524
▁bucky	-11.3525
pus	-11.3526
▁gem	-11.3528
▁sunk	-11.3528
▁spine	-11.3528
▁stacked	-11.3528
▁swede	-11.3529
▁flashed	-11.3529
▁bravest	-11.353
tail	-11.353
▁complaint	-11.3531
▁oww	-11.3532
▁endless	-11.3532
▁torme	-11.3532
▁cord	-11.3534
▁pitches	-11.3534
▁cove	-11.3535
chtig	-11.3535
▁contin	-11.3535
▁photography	-11.3536
▁ahhh	-11.3537
▁risky	-11.3537
gency	-11.3537
▁kal	-11.3537
lopen	-11.3538
▁gum	-11.3538
▁scoring	-11.3541
▁morgen	-11.3541
jack	-11.3542
▁weep	-11.3542
▁clothing	-11.3544
▁ez	-11.3544
▁decorat	-11.3545
▁payment	-11.3546
▁embarrassed	-11.3546
▁shocked	-11.3547
▁wages	-11.3547
▁talented	-11.3548
▁loosen	-11.3548
▁cau	-11.3548
▁detailed	-11.3549
▁mango	-11.3551
volgen	-11.3551
▁gleaming	-11.3552
▁registering	-11.3552
▁flashing	-11.3552
▁issue	-11.3553
▁approved	-11.3556
▁melting	-11.3556
mat	-11.356
▁kin	-11.3562
▁minim	-11.3563
▁pave	-11.3569
▁removed	-11.357
working	-11.3572
▁resisting	-11.3574
▁thrilling	-11.3575
▁sus	-11.3575
▁distin	-11.3575
▁pocketa	-11.3577
▁rotate	-11.3577
▁businessman	-11.3578
▁caesarion	-11.3579
wash	-11.3579
▁cali	-11.358
▁shatters	-11.3581
▁doorknobs	-11.3582
▁hallways	-11.3582
▁kittens	-11.3582
▁methods	-11.3582
▁procedures	-11.3582
▁beggars	-11.3582
▁intended	-11.3582
▁suspected	-11.3582
▁threats	-11.3582
▁heights	-11.3582
▁startup	-11.3583
▁asse	-11.3584
▁shouted	-11.3584
▁ranking	-11.3586
▁nip	-11.3586
▁vol	-11.3586
▁squeaker	-11.3591
▁cowardly	-11.3592
▁homeland	-11.3593
ardy	-11.3594
▁yak	-11.3595
▁physics	-11.3596
date	-11.36
nows	-11.3602
dem	-11.3606
platter	-11.3609
▁alaba	-11.361
▁kog	-11.3613
▁fetcher	-11.3613
ooooh	-11.3617
▁washes	-11.3618
▁forgiven	-11.3621
▁sic	-11.3621
▁defending	-11.3622
▁spaceman	-11.3625
▁fist	-11.3625
▁jean	-11.3626
▁clt	-11.3627
fal	-11.3627
enon	-11.3629
pal	-11.363
▁leaning	-11.3643
ante	-11.3643
▁slamm	-11.3648
gues	-11.3652
▁fling	-11.3659
▁chased	-11.366
▁waard	-11.3661
coat	-11.3665
▁beams	-11.3666
▁tho	-11.3667
▁insects	-11.3668
▁tokens	-11.3668
▁cheeks	-11.3668
▁gauges	-11.3668
▁mermaids	-11.3668
▁employees	-11.3668
▁inventions	-11.3668
▁functions	-11.3668
▁illusions	-11.3669
▁mules	-11.3669
▁brightly	-11.3671
▁cops	-11.3672
engt	-11.3679
ained	-11.3686
▁defender	-11.369
▁cookies	-11.3692
▁laughin	-11.3693
▁strapp	-11.3693
▁prey	-11.3696
▁cul	-11.3699
▁tally	-11.3703
▁distinct	-11.3704
mega	-11.3707
▁cruci	-11.3707
▁avia	-11.371
ingles	-11.372
cho	-11.3723
stop	-11.3723
▁inn	-11.3725
▁marker	-11.3726
▁casting	-11.3735
▁tw	-11.3741
ication	-11.3742
▁import	-11.3743
▁locking	-11.3743
▁dope	-11.3744
▁scrape	-11.3746
ivalry	-11.3748
uses	-11.375
▁camels	-11.3756
▁chambers	-11.3756
▁mortals	-11.3756
▁turtles	-11.3756
▁compliments	-11.3756
▁buckets	-11.3757
▁sheets	-11.3757
▁dunn	-11.3757
▁kidnappe	-11.3759
change	-11.3759
▁proudly	-11.3759
nough	-11.3766
▁pun	-11.3779
esture	-11.3784
▁homeless	-11.3796
bble	-11.3797
ington	-11.3799
pen	-11.3814
▁hoke	-11.3815
▁relaxed	-11.3815
▁steril	-11.382
rb	-11.3821
▁getta	-11.3828
▁hiph	-11.3829
lights	-11.3833
▁helmets	-11.3845
▁shorter	-11.3846
▁deserted	-11.3851
▁pend	-11.3853
emp	-11.3853
▁jeweler	-11.3876
▁dime	-11.3878
▁restin	-11.3893
▁rolled	-11.3897
▁perish	-11.3897
▁hoist	-11.3898
▁graduat	-11.3898
stries	-11.3899
▁penn	-11.3906
▁bile	-11.3906
chri	-11.3911
▁lump	-11.3913
iggle	-11.3929
lets	-11.393
▁trample	-11.3932
▁mondays	-11.3934
▁rascals	-11.3934
▁classics	-11.3934
houden	-11.3938
mmen	-11.3943
jacket	-11.3946
after	-11.3958
gity	-11.396
▁gran	-11.3967
rewd	-11.3972
▁sniffl	-11.3978
▁occasional	-11.3982
varen	-11.3982
▁comedy	-11.3988
▁colder	-11.3989
▁worryin	-11.3996
▁coi	-11.3997
▁formal	-11.3997
▁treating	-11.4018
▁tipp	-11.4019
▁protecting	-11.4021
▁watlings	-11.4024
▁hipp	-11.4034
▁tap	-11.4035
▁ski	-11.4042
▁lists	-11.4048
▁dearest	-11.4051
works	-11.4058
honour	-11.4062
▁gi	-11.4063
▁scul	-11.4064
▁muffle	-11.4069
acco	-11.407
zicht	-11.4074
▁sooth	-11.4084
▁backup	-11.41
▁lefthand	-11.4113
▁dozens	-11.4114
▁americans	-11.4115
▁nightmares	-11.4115
▁tonys	-11.4115
▁filling	-11.4117
▁slams	-11.412
akken	-11.4121
plication	-11.4131
▁lighter	-11.4136
▁liven	-11.4137
ented	-11.4137
ecom	-11.4145
▁hating	-11.4155
▁mars	-11.4165
▁watches	-11.4167
uria	-11.4178
▁subtl	-11.4182
▁killers	-11.4194
▁charms	-11.42
▁kenn	-11.42
▁files	-11.4202
▁chips	-11.4206
▁brutes	-11.4206
▁risks	-11.4207
ncy	-11.4207
▁noises	-11.4212
▁committ	-11.4224
bric	-11.4225
▁respectful	-11.4226
▁explained	-11.423
▁corr	-11.4243
▁gro	-11.4244
▁organiz	-11.4252
▁brawn	-11.4257
▁partly	-11.4264
eft	-11.4274
trait	-11.4275
▁fasten	-11.4281
tically	-11.4285
▁bikes	-11.4297
▁regards	-11.4298
▁mirrors	-11.4298
▁circuits	-11.4298
▁zip	-11.4304
▁plat	-11.4325
▁slappe	-11.433
ggs	-11.4332
▁questioning	-11.4348
▁flu	-11.4355
▁rese	-11.4356
rrespon	-11.4374
ists	-11.4378
▁stinks	-11.4382
usion	-11.4389
▁photos	-11.439
▁griffins	-11.4391
▁legends	-11.4391
▁include	-11.4393
▁taxis	-11.4394
▁images	-11.4397
▁whoop	-11.4409
▁hanged	-11.4412
▁washing	-11.4413
▁bree	-11.4425
▁laughed	-11.4433
reak	-11.444
▁bottles	-11.4484
▁creams	-11.4484
▁redhead	-11.4488
▁diddl	-11.4504
gue	-11.4512
▁mini	-11.4546
bstone	-11.4559
▁eu	-11.4564
▁buyer	-11.4566
▁vocali	-11.4578
▁dictators	-11.4578
▁digest	-11.4579
▁dom	-11.4588
▁nag	-11.4594
yde	-11.4613
cdr	-11.4614
ranny	-11.4633
▁there	-11.4645
▁tan	-11.4658
▁costs	-11.4671
dence	-11.4673
▁experiments	-11.4673
▁miracles	-11.4673
rious	-11.4695
▁bli	-11.4731
▁pac	-11.4736
▁vis	-11.4736
past	-11.4753
▁troph	-11.4758
▁cages	-11.4768
▁professionals	-11.477
▁hornets	-11.4771
▁cont	-11.4785
erie	-11.4799
rom	-11.4829
▁keepin	-11.4863
▁lodge	-11.4915
▁glide	-11.4916
▁conde	-11.4917
▁zul	-11.4931
▁stat	-11.4933
▁reminds	-11.4937
lus	-11.4976
uz	-11.498
▁doubled	-11.4983
iti	-11.4989
yo	-11.5045
ook	-11.5046
arn	-11.505
pane	-11.5055
acles	-11.5071
▁stai	-11.5078
axe	-11.5082
▁øùøøø	-11.5085
oke	-11.5085
▁fli	-11.5174
oul	-11.5199
agging	-11.5213
ario	-11.5222
sson	-11.5258
mes	-11.5291
▁assign	-11.5326
vant	-11.5328
osi	-11.5332
▁sta	-11.5341
vers	-11.5377
aaa	-11.5398
leton	-11.5418
ames	-11.5424
▁grea	-11.5452
affe	-11.5463
▁zout	-11.5468
▁comic	-11.5473
ison	-11.5491
▁za	-11.5504
mal	-11.5531
▁pon	-11.5533
▁wool	-11.5544
gging	-11.5562
▁stre	-11.5607
▁produc	-11.5608
▁imper	-11.5653
▁abe	-11.5721
▁bot	-11.5722
utters	-11.5733
easy	-11.5776
chanting	-11.5824
gade	-11.5835
▁por	-11.5843
arre	-11.5891
ax	-11.5909
fore	-11.5922
▁explor	-11.5931
ende	-11.5933
holes	-11.595
ature	-11.5951
▁reli	-11.5963
nes	-11.5988
lace	-11.6017
▁øøùøø	-11.6021
▁communicat	-11.6026
ool	-11.6034
▁ignor	-11.6063
▁imagin	-11.6095
eur	-11.6098
▁meter	-11.6119
oord	-11.612
patter	-11.6125
▁stro	-11.6148
tified	-11.6207
ext	-11.6247
▁invisib	-11.6257
▁gener	-11.6293
appy	-11.6293
left	-11.63
eria	-11.6305
▁factor	-11.6309
iste	-11.6311
passionate	-11.6314
▁blij	-11.6316
▁sprinkle	-11.6415
ado	-11.6427
eehee	-11.6443
▁cran	-11.6474
fy	-11.648
ude	-11.6481
▁cri	-11.6485
▁kat	-11.6489
▁multi	-11.6489
øùù	-11.6498
iggity	-11.652
oro	-11.6532
▁dialog	-11.654
hole	-11.6556
▁øøøøù	-11.6557
ijk	-11.6569
tuous	-11.6588
▁intima	-11.6616
▁tar	-11.6637
▁cath	-11.6642
▁truthful	-11.6643
fulness	-11.6653
lev	-11.6666
fying	-11.6682
▁dist	-11.6687
▁bra	-11.6687
oude	-11.6725
▁communicate	-11.6765
chen	-11.6825
za	-11.6852
ø	-11.6925
▁scen	-11.6927
▁roo	-11.6952
raff	-11.7003
▁øùøùø	-11.7043
cold	-11.7068
ben	-11.7092
fraid	-11.7101
rill	-11.7102
▁bounce	-11.7113
gai	-11.7143
▁devo	-11.7146
list	-11.7148
orr	-11.7159
▁mug	-11.7171
mus	-11.7175
inch	-11.7184
▁øùøùù	-11.7207
late	-11.7251
oohoo	-11.7266
wan	-11.7281
▁deservin	-11.7294
auce	-11.7321
tll	-11.7334
raak	-11.7334
stice	-11.7358
▁univers	-11.7362
gne	-11.7369
handed	-11.7376
▁ru	-11.7391
achy	-11.7392
sional	-11.741
▁ul	-11.7418
gre	-11.7424
▁replica	-11.7425
mit	-11.7449
▁acomin	-11.7464
ggin	-11.747
▁lava	-11.7473
▁øùùøùø	-11.7473
▁erro	-11.7528
▁pak	-11.7535
top	-11.7549
ensive	-11.756
▁equal	-11.7562
▁farthe	-11.7574
▁arab	-11.7618
waken	-11.7623
▁medic	-11.7626
▁sel	-11.7648
▁nami	-11.766
meters	-11.7684
▁patt	-11.7687
pickin	-11.7694
▁reduc	-11.7699
▁kies	-11.7721
advised	-11.7738
▁enc	-11.7758
▁dishon	-11.776
opping	-11.7761
▁uni	-11.7763
▁hil	-11.7767
▁pe	-11.7775
inf	-11.7776
ought	-11.7783
▁judg	-11.7787
▁sni	-11.7789
▁gezi	-11.7818
▁kwa	-11.7821
▁stor	-11.7856
bre	-11.7858
▁char	-11.7859
▁impos	-11.7946
rec	-11.7946
ube	-11.7988
orch	-11.7996
▁deci	-11.8003
▁sham	-11.8008
▁ci	-11.801
▁inco	-11.8024
▁aaa	-11.8036
sible	-11.8037
warming	-11.8049
▁rud	-11.8049
unned	-11.8055
isted	-11.8066
lean	-11.8077
▁gelo	-11.808
ele	-11.8083
pending	-11.8089
▁croc	-11.8107
▁coordinat	-11.8124
▁dun	-11.8126
flat	-11.8142
▁constructi	-11.8144
fel	-11.8147
▁inva	-11.8155
aha	-11.8162
▁unv	-11.8174
▁physic	-11.8185
▁lu	-11.8194
lph	-11.8198
▁riches	-11.8201
▁clap	-11.8207
▁squeal	-11.8208
looking	-11.8214
▁threat	-11.8219
▁click	-11.822
▁leapin	-11.8225
▁procedure	-11.8237
▁method	-11.8237
▁shatter	-11.8238
▁kitten	-11.8239
tracted	-11.824
▁swamp	-11.8245
▁beggar	-11.8246
▁doorknob	-11.8247
divided	-11.825
▁adam	-11.8251
▁inhale	-11.8252
ggen	-11.8254
▁height	-11.8255
animat	-11.8256
▁candle	-11.8256
nix	-11.8257
▁whisker	-11.8259
▁wolve	-11.8259
▁hallway	-11.826
▁controller	-11.826
▁galley	-11.8266
▁flippin	-11.8266
▁circu	-11.8267
▁oak	-11.8269
▁haulin	-11.827
▁parent	-11.8271
▁backsta	-11.8274
▁infra	-11.8282
▁caf	-11.8283
▁idio	-11.829
▁colt	-11.8296
▁gaul	-11.8297
▁hug	-11.8303
▁snoo	-11.8304
weed	-11.8305
▁runner	-11.831
▁visitor	-11.8311
tious	-11.832
qualifi	-11.832
▁fright	-11.8325
oodles	-11.834
▁sav	-11.8342
▁toll	-11.8342
▁arriv	-11.8348
▁dow	-11.8352
▁soot	-11.8352
blin	-11.8354
▁prepar	-11.8355
treat	-11.8358
▁corp	-11.8358
ameter	-11.8361
night	-11.8362
ody	-11.8363
bbling	-11.8365
friend	-11.837
net	-11.8375
verance	-11.8376
▁lum	-11.8378
▁bookkeep	-11.838
▁satisfact	-11.8381
hall	-11.8382
rheu	-11.8383
q	-11.8384
uck	-11.8384
▁psy	-11.8385
zij	-11.8386
rank	-11.8387
bore	-11.8387
▁rehears	-11.8387
▁twirl	-11.8388
▁cind	-11.8388
knob	-11.8389
▁confus	-11.8389
øøøøù	-11.8391
wood	-11.8391
cars	-11.8391
drive	-11.8392
morgen	-11.8392
broken	-11.8392
▁trembl	-11.8393
beam	-11.8393
▁annoy	-11.8393
▁dazzl	-11.8393
woord	-11.8394
plant	-11.8394
fastball	-11.8394
ucky	-11.8394
known	-11.8396
definitely	-11.8396
▁fascinat	-11.8396
▁inspect	-11.8396
tips	-11.8397
clones	-11.8397
wreck	-11.8397
waard	-11.8397
trained	-11.8397
buster	-11.8397
▁humiliat	-11.8397
worthy	-11.8397
colony	-11.8398
claim	-11.8399
▁clank	-11.8399
grandfather	-11.8399
type	-11.8399
bloomin	-11.8399
filled	-11.8399
▁settl	-11.8399
kachow	-11.8399
nowed	-11.8399
wide	-11.8399
▁flirt	-11.8399
play	-11.8399
knowledge	-11.8399
▁accord	-11.8399
color	-11.8399
girl	-11.84
official	-11.84
teacher	-11.84
sharp	-11.84
squeak	-11.84
▁murmur	-11.84
grade	-11.84
fighting	-11.84
▁echo	-11.84
chief	-11.84
box	-11.84
flower	-11.84
two	-11.84
track	-11.84
point	-11.84
charge	-11.8401
daughter	-11.8401
minute	-11.8401
style	-11.8401
duty	-11.8401
throat	-11.8401
together	-11.8401
married	-11.8401
believe	-11.8401
people	-11.8401
six	-11.8401
yeah	-11.8401
gift	-11.8402
penny	-11.8402
ected	-11.8402
hopper	-11.8402
cedo	-11.8402
held	-11.8402
reasonable	-11.8402
vision	-11.8403
whoa	-11.8403
wanted	-11.8403
komen	-11.8403
▁peek	-11.8403
living	-11.8403
▁unlock	-11.8404
pleased	-11.8404
▁overload	-11.8404
linda	-11.8405
teller	-11.8405
▁sacr	-11.8405
▁evict	-11.8406
▁trigger	-11.8406
▁flood	-11.8406
hol	-11.8407
▁opera	-11.8407
▁accomplish	-11.8408
grant	-11.8408
strip	-11.8408
teken	-11.8409
lap	-11.8409
driver	-11.841
green	-11.841
baby	-11.8411
fired	-11.8413
sky	-11.8414
design	-11.8414
▁deceive	-11.8415
pool	-11.8415
▁lettin	-11.8415
▁wif	-11.8416
▁criticize	-11.8416
cub	-11.8418
dust	-11.8418
▁styl	-11.8419
rosy	-11.842
▁locate	-11.8421
▁examine	-11.8422
▁colo	-11.8423
▁motorcycl	-11.8424
rip	-11.8424
▁memor	-11.8424
▁activit	-11.8425
ocket	-11.8426
ethel	-11.8426
▁cordial	-11.8426
▁chemistr	-11.8426
pix	-11.8426
▁responsibilit	-11.8427
▁societ	-11.8427
hac	-11.8427
▁gib	-11.8428
▁investigat	-11.8428
▁destin	-11.8428
abberi	-11.8428
▁publish	-11.8429
nature	-11.8429
semble	-11.8429
▁immense	-11.8429
▁deliberate	-11.8429
▁doom	-11.843
▁massag	-11.843
▁plung	-11.843
▁sof	-11.843
▁technical	-11.8431
▁incor	-11.8431
▁laborator	-11.8431
▁yoshi	-11.8431
oka	-11.8432
▁ultimat	-11.8432
▁gag	-11.8433
▁rejoic	-11.8433
▁tract	-11.8433
woon	-11.8434
▁establish	-11.8435
▁abbe	-11.8435
▁heigh	-11.8435
▁seren	-11.8435
mpre	-11.8437
▁princip	-11.8437
pher	-11.8437
▁inju	-11.8437
script	-11.8437
▁nois	-11.8438
▁intelligen	-11.8438
▁innocen	-11.8438
looms	-11.8438
ssels	-11.8439
▁specia	-11.8439
▁accu	-11.8439
▁achieve	-11.844
▁troupe	-11.844
▁weigh	-11.844
▁abilit	-11.844
▁nigh	-11.844
▁demo	-11.844
▁conque	-11.844
▁exhal	-11.844
▁tou	-11.844
▁jonge	-11.8441
▁oversee	-11.8441
▁recogni	-11.8441
▁confuse	-11.8442
riding	-11.8442
opportun	-11.8442
▁rejoi	-11.8444
licious	-11.8444
doodle	-11.8444
▁garde	-11.8444
icky	-11.8444
while	-11.8445
simpl	-11.8445
trod	-11.8445
tongue	-11.8445
angled	-11.8445
dramati	-11.8445
▁appoint	-11.8446
▁anythin	-11.8446
volution	-11.8446
▁beginnin	-11.8446
▁boog	-11.8446
▁plannin	-11.8446
graph	-11.8446
▁physi	-11.8446
▁winnin	-11.8446
achers	-11.8446
▁priva	-11.8446
▁satur	-11.8446
tivate	-11.8446
▁compass	-11.8446
▁locomoti	-11.8447
▁teenage	-11.8447
venting	-11.8447
avor	-11.8447
ordinate	-11.8447
nkers	-11.8447
laborat	-11.8447
▁audit	-11.8447
▁ggo	-11.8447
shio	-11.8447
▁despera	-11.8447
secution	-11.8447
▁tob	-11.8447
▁terrific	-11.8448
▁obli	-11.8448
▁cleve	-11.8448
gonz	-11.8448
▁blank	-11.8448
▁custo	-11.8448
▁olay	-11.8448
raft	-11.8448
▁barbar	-11.8448
rigible	-11.8448
▁eva	-11.8448
▁daph	-11.8448
▁margaret	-11.8449
▁conscien	-11.8449
▁invest	-11.8449
logram	-11.8449
▁andre	-11.8449
kokuyama	-11.8449
cover	-11.8449
▁occup	-11.8449
ttier	-11.8449
rhaps	-11.8449
▁convers	-11.8449
lutely	-11.8449
hounds	-11.8449
▁alpha	-11.8449
▁instruct	-11.8449
▁npdv	-11.8449
lyyallyyallyya	-11.8449
ngels	-11.8449
▁configur	-11.8449
▁ecsta	-11.8449
▁exquisite	-11.8449
▁fundamental	-11.8449
▁giftwrap	-11.8449
▁hyperventilat	-11.8449
▁infatuat	-11.8449
▁inquir	-11.8449
▁institut	-11.8449
▁neighbour	-11.8449
▁rectangular	-11.8449
▁respirat	-11.8449
▁surprising	-11.8449
arctic	-11.8449
boek	-11.8449
comprehensi	-11.8449
conspicuous	-11.8449
dadadadadada	-11.8449
extraterrestrial	-11.8449
gevonden	-11.8449
nanimous	-11.8449
ripides	-11.8449
sibility	-11.8449
sylv	-11.8449
sylvania	-11.8449
vlucht	-11.8449
▁accommodate	-11.8449
▁administer	-11.8449
▁aeroplane	-11.8449
▁afschuwelijk	-11.8449
▁afterwards	-11.8449
▁albatross	-11.8449
▁alibi	-11.8449
▁almighty	-11.8449
▁ammunition	-11.8449
▁analyzing	-11.8449
▁annihilation	-11.8449
▁anschluss	-11.8449
▁anvil	-11.8449
▁apostle	-11.8449
▁apparatus	-11.8449
▁araara	-11.8449
▁aristotle	-11.8449
▁arizona	-11.8449
▁arrogance	-11.8449
▁artifacts	-11.8449
▁asomething	-11.8449
▁assuming	-11.8449
▁astrogator	-11.8449
▁asylum	-11.8449
▁ayeaye	-11.8449
▁bandanna	-11.8449
▁barbos	-11.8449
▁benevolen	-11.8449
▁bewitch	-11.8449
▁bicycle	-11.8449
▁blastoise	-11.8449
▁blueprint	-11.8449
▁boekanier	-11.8449
▁bremerhaven	-11.8449
▁broccoli	-11.8449
▁bruteroot	-11.8449
▁buffet	-11.8449
▁bundle	-11.8449
▁butterflies	-11.8449
▁byob	-11.8449
▁cackling	-11.8449
▁caitlin	-11.8449
▁cartridge	-11.8449
▁celery	-11.8449
▁chipmunk	-11.8449
▁chiseler	-11.8449
▁chitchat	-11.8449
▁christen	-11.8449
▁confetti	-11.8449
▁confucius	-11.8449
▁congeal	-11.8449
▁contamination	-11.8449
▁convicts	-11.8449
▁copilot	-11.8449
▁daarvan	-11.8449
▁daffodil	-11.8449
▁dastardly	-11.8449
▁deceased	-11.8449
▁deliberation	-11.8449
▁demonstrate	-11.8449
▁dempsey	-11.8449
▁dextrose	-11.8449
▁dividing	-11.8449
▁doeuvre	-11.8449
▁donnelly	-11.8449
▁dorothea	-11.8449
▁droopy	-11.8449
▁eccentric	-11.8449
▁elbow	-11.8449
▁elevation	-11.8449
▁elixir	-11.8449
▁embedded	-11.8449
▁encouraging	-11.8449
▁endurance	-11.8449
▁epileptic	-11.8449
▁equivalent	-11.8449
▁eruitzien	-11.8449
▁etcetera	-11.8449
▁expelled	-11.8449
▁fiddlefaddle	-11.8449
▁flank	-11.8449
▁fortunetelling	-11.8449
▁frequencies	-11.8449
▁futile	-11.8449
▁gadzooks	-11.8449
▁gallegher	-11.8449
▁gerbil	-11.8449
▁gettysburg	-11.8449
▁gevraagd	-11.8449
▁ghibli	-11.8449
▁gillespie	-11.8449
▁globe	-11.8449
▁handmaiden	-11.8449
▁hashtag	-11.8449
▁haversack	-11.8449
▁heavie	-11.8449
▁heritage	-11.8449
▁hicks	-11.8449
▁himalayas	-11.8449
▁hodlayee	-11.8449
▁hoofprint	-11.8449
▁hungarian	-11.8449
▁hypocri	-11.8449
▁imbecile	-11.8449
▁immunization	-11.8449
▁impact	-11.8449
▁impulse	-11.8449
▁inaudible	-11.8449
▁increasing	-11.8449
▁intact	-11.8449
▁intolera	-11.8449
▁invincible	-11.8449
▁iobk	-11.8449
▁isotope	-11.8449
▁jiggling	-11.8449
▁jongetje	-11.8449
▁joshua	-11.8449
▁jugular	-11.8449
▁ketchup	-11.8449
▁kindergarten	-11.8449
▁koppori	-11.8449
▁kuzcotopia	-11.8449
▁lawwill	-11.8449
▁lummox	-11.8449
▁maestro	-11.8449
▁manufacturing	-11.8449
▁marelli	-11.8449
▁marvellous	-11.8449
▁mccandless	-11.8449
▁minstrel	-11.8449
▁misjudged	-11.8449
▁mitchans	-11.8449
▁mmhmmhmmhmm	-11.8449
▁moeilijk	-11.8449
▁monopol	-11.8449
▁mozart	-11.8449
▁napoleon	-11.8449
▁nickname	-11.8449
▁ninevites	-11.8449
▁northeast	-11.8449
▁nostalgi	-11.8449
▁observation	-11.8449
▁obtain	-11.8449
▁olympic	-11.8449
▁onderneming	-11.8449
▁ontsnap	-11.8449
▁opgesloten	-11.8449
▁outcast	-11.8449
▁overthrow	-11.8449
▁pamphlet	-11.8449
▁pantalets	-11.8449
▁pantomime	-11.8449
▁peck	-11.8449
▁penalty	-11.8449
▁penguins	-11.8449
▁peninsula	-11.8449
▁pharsalia	-11.8449
▁pistachio	-11.8449
▁playground	-11.8449
▁plunder	-11.8449
▁population	-11.8449
▁potpie	-11.8449
▁prejudice	-11.8449
▁prescribe	-11.8449
▁pressurization	-11.8449
▁promote	-11.8449
▁propulsion	-11.8449
▁protege	-11.8449
▁quaint	-11.8449
▁quarantine	-11.8449
▁railroad	-11.8449
▁reactor	-11.8449
▁rebuil	-11.8449
▁reception	-11.8449
▁recollect	-11.8449
▁redruth	-11.8449
▁refurbish	-11.8449
▁registration	-11.8449
▁relieved	-11.8449
▁renegade	-11.8449
▁reproduce	-11.8449
▁reschedule	-11.8449
▁response	-11.8449
▁restrict	-11.8449
▁retaliation	-11.8449
▁retiring	-11.8449
▁revenge	-11.8449
▁revoir	-11.8449
▁rhyhorn	-11.8449
▁roasting	-11.8449
▁ruffneck	-11.8449
▁ruzie	-11.8449
▁safeguard	-11.8449
▁salzburg	-11.8449
▁sawhorse	-11.8449
▁schateiland	-11.8449
▁scheepsdokter	-11.8449
▁scheepsjongen	-11.8449
▁schmoo	-11.8449
▁secondincommand	-11.8449
▁semester	-11.8449
▁shhshhshh	-11.8449
▁shshsh	-11.8449
▁smallpox	-11.8449
▁smitten	-11.8449
▁smugglers	-11.8449
▁snick	-11.8449
▁soccer	-11.8449
▁souvenir	-11.8449
▁spaghetti	-11.8449
▁spasms	-11.8449
▁sputter	-11.8449
▁stagecoach	-11.8449
▁strangle	-11.8449
▁stumble	-11.8449
▁suave	-11.8449
▁substance	-11.8449
▁sufficient	-11.8449
▁supplies	-11.8449
▁swabs	-11.8449
▁swipe	-11.8449
▁synthetic	-11.8449
▁tadpoles	-11.8449
▁tarantula	-11.8449
▁tarnation	-11.8449
▁tattletale	-11.8449
▁teaspoon	-11.8449
▁temple	-11.8449
▁thethethe	-11.8449
▁thisthis	-11.8449
▁ticktock	-11.8449
▁tractortippin	-11.8449
▁trampoline	-11.8449
▁tsunami	-11.8449
▁tsungping	-11.8449
▁tuppence	-11.8449
▁turbo	-11.8449
▁ugliness	-11.8449
▁ulcer	-11.8449
▁unconscious	-11.8449
▁underestimate	-11.8449
▁underground	-11.8449
▁undersigned	-11.8449
▁unloved	-11.8449
▁unnecessary	-11.8449
▁uptempo	-11.8449
▁urchin	-11.8449
▁vertrouwen	-11.8449
▁video	-11.8449
▁vingerboom	-11.8449
▁vloeken	-11.8449
▁vocabulary	-11.8449
▁vodka	-11.8449
▁waterfall	-11.8449
▁wheelchair	-11.8449
▁whippersnapper	-11.8449
▁whiskey	-11.8449
▁whoawhoawhoa	-11.8449
▁wildebeest	-11.8449
▁winifred	-11.8449
▁woodcarvers	-11.8449
▁wreath	-11.8449
▁wrenching	-11.8449
▁wuzzle	-11.8449
▁yarnell	-11.8449
▁ùùøaøø	-11.8449
▁crowbar	-11.8449
▁handmedown	-11.8449
▁promenade	-11.8449
▁salutation	-11.8449
nonny	-11.8449
▁abolish	-11.8449
▁atalkin	-11.8449
▁atroci	-11.8449
▁blackmail	-11.8449
▁brrrrr	-11.8449
▁bulk	-11.8449
▁carburet	-11.8449
▁channel	-11.8449
▁clamoring	-11.8449
▁constitution	-11.8449
▁cretin	-11.8449
▁curtsy	-11.8449
▁daffy	-11.8449
▁eiland	-11.8449
▁engeland	-11.8449
▁exhilarati	-11.8449
▁external	-11.8449
▁fifi	-11.8449
▁gehad	-11.8449
▁gehoorza	-11.8449
▁geregeld	-11.8449
▁hutchy	-11.8449
▁livid	-11.8449
▁lucas	-11.8449
▁lulu	-11.8449
▁manipulat	-11.8449
▁metalworker	-11.8449
▁moneylender	-11.8449
▁moronic	-11.8449
▁munch	-11.8449
▁neglect	-11.8449
▁ounce	-11.8449
▁particles	-11.8449
▁predator	-11.8449
▁prodigy	-11.8449
▁rhone	-11.8449
▁sabbat	-11.8449
▁saecul	-11.8449
▁samuel	-11.8449
▁shivering	-11.8449
▁sidetracked	-11.8449
▁spoof	-11.8449
▁stereo	-11.8449
▁swoop	-11.8449
▁theodotus	-11.8449
▁ultra	-11.8449
▁unaware	-11.8449
▁whoaohhohh	-11.8449
▁whwhwh	-11.8449
▁withdraw	-11.8449
warf	-11.8449
▁ammo	-11.8449
▁athlet	-11.8449
▁ciao	-11.8449
▁codger	-11.8449
▁delicac	-11.8449
▁deplo	-11.8449
▁discourag	-11.8449
▁eigen	-11.8449
▁enhance	-11.8449
▁errand	-11.8449
▁flab	-11.8449
▁follies	-11.8449
▁ghosthunt	-11.8449
▁landscap	-11.8449
▁mellow	-11.8449
▁midgets	-11.8449
▁naartoe	-11.8449
▁navigation	-11.8449
▁sarge	-11.8449
▁seclusion	-11.8449
▁shoteka	-11.8449
▁verbal	-11.8449
invoke	-11.8449
▁binky	-11.8449
▁canyon	-11.8449
▁doggone	-11.8449
▁duivel	-11.8449
▁firstbase	-11.8449
▁hocus	-11.8449
▁inlever	-11.8449
▁israelites	-11.8449
▁medcom	-11.8449
▁nourish	-11.8449
▁persisten	-11.8449
▁realizing	-11.8449
▁spek	-11.8449
▁succu	-11.8449
▁unlikely	-11.8449
▁venture	-11.8449
oobydoo	-11.8449
panio	-11.8449
▁adios	-11.8449
▁alternative	-11.8449
▁babysitt	-11.8449
▁brood	-11.8449
▁crave	-11.8449
▁hanky	-11.8449
▁hmmmmm	-11.8449
▁mobilize	-11.8449
▁nullus	-11.8449
▁phase	-11.8449
▁rustlers	-11.8449
▁specific	-11.8449
▁surging	-11.8449
▁testament	-11.8449
▁vital	-11.8449
▁wept	-11.8449
patriot	-11.8449
▁cherish	-11.8449
▁depth	-11.8449
▁intervals	-11.8449
▁mutations	-11.8449
▁orville	-11.8449
▁prompt	-11.8449
▁wallingford	-11.8449
▁wench	-11.8449
▁geiten	-11.8449
▁orange	-11.8449
▁plek	-11.8449
▁russians	-11.8449
▁siesta	-11.8449
▁toothbrush	-11.8449
▁undress	-11.8449
▁wilmer	-11.8449
miere	-11.8449
polis	-11.8449
janitor	-11.8449
▁alphabet	-11.8449
▁gramps	-11.8449
▁parsley	-11.8449
▁reich	-11.8449
▁speculat	-11.8449
▁visual	-11.8449
▁antiquities	-11.8449
▁conservatory	-11.8449
▁geometr	-11.8449
▁harsh	-11.8449
▁mackerel	-11.8449
▁patterson	-11.8449
▁blaming	-11.8449
▁maniac	-11.8449
▁pinched	-11.8449
▁repay	-11.8449
bert	-11.8449
▁detaining	-11.8449
▁envi	-11.8449
▁laddie	-11.8449
▁nnno	-11.8449
▁vault	-11.8449
▁viscount	-11.8449
▁maddening	-11.8449
▁paranormal	-11.8449
▁trio	-11.8449
▁gasket	-11.8449
▁indications	-11.8449
eeeeehoooo	-11.8449
▁indoor	-11.8449
▁swampmobile	-11.8449
▁bapti	-11.8449
▁niya	-11.8449
▁extort	-11.8449
▁multitud	-11.8449
▁protons	-11.8449
▁trespasse	-11.8449
▁chamberlain	-11.8449
▁gabb	-11.8449
▁sneer	-11.8449
novation	-11.8449
▁smearin	-11.8449
▁fearsome	-11.8449
▁mustache	-11.8449
▁stampede	-11.8449
▁vaporized	-11.8449
▁adapt	-11.8449
▁itchy	-11.8449
▁meteorite	-11.8449
dagger	-11.845
hoohoohoo	-11.845
▁eyre	-11.845
▁shortcomings	-11.845
▁assassinate	-11.845
▁bandages	-11.845
▁drips	-11.845
▁alkali	-11.845
▁busybody	-11.845
▁guvnor	-11.845
▁larry	-11.845
▁oost	-11.845
▁yawns	-11.845
zuid	-11.845
▁firefly	-11.845
▁tabin	-11.845
insideoutside	-11.845
▁arbor	-11.845
▁spitfire	-11.845
▁convert	-11.845
▁decorations	-11.845
▁frenz	-11.845
▁edison	-11.845
▁litteken	-11.845
▁nanny	-11.845
▁popcorn	-11.845
▁erewoord	-11.845
lukt	-11.845
▁earbobs	-11.845
▁rambl	-11.845
umpkins	-11.845
▁audiocom	-11.845
▁hugger	-11.845
▁greer	-11.845
lobber	-11.845
▁consarn	-11.845
▁venice	-11.845
▁øùøøùøø	-11.845
▁whirl	-11.845
▁calculating	-11.845
▁fujim	-11.845
▁refuge	-11.845
▁mutat	-11.845
▁yellowbellied	-11.845
gelaten	-11.845
▁kilogram	-11.845
▁snij	-11.845
▁muddle	-11.845
▁vertrek	-11.845
▁øùøùùùù	-11.845
▁tweak	-11.845
▁ùøaøø	-11.845
▁dappl	-11.845
▁headlines	-11.845
▁cunning	-11.845
▁damas	-11.845
▁orna	-11.845
▁flinch	-11.845
▁fragile	-11.845
▁visualize	-11.845
▁streken	-11.845
▁ohohoh	-11.845
▁investors	-11.845
▁kazu	-11.845
▁wrangl	-11.845
▁vulture	-11.845
euwe	-11.845
aneous	-11.845
▁uitvaren	-11.845
weensy	-11.845
▁oror	-11.845
▁milton	-11.845
▁pngs	-11.845
▁sedan	-11.845
catcher	-11.845
▁odor	-11.845
▁moderate	-11.845
▁ticklin	-11.845
▁holler	-11.845
▁humph	-11.845
▁ingrate	-11.845
▁florida	-11.845
uillot	-11.845
▁tunic	-11.845
▁conceiv	-11.845
hum	-11.845
▁monte	-11.845
▁enforcement	-11.845
pocus	-11.845
▁enchantment	-11.845
▁pneum	-11.845
▁proclaim	-11.845
▁provision	-11.845
▁gurgl	-11.845
▁pried	-11.845
▁mattel	-11.845
▁sheik	-11.845
▁stanley	-11.845
▁stomp	-11.845
hyn	-11.845
▁application	-11.845
▁detest	-11.845
▁continuous	-11.845
▁eruit	-11.845
▁exterminators	-11.845
▁horsewoman	-11.845
▁confidential	-11.845
▁spike	-11.845
▁attagirl	-11.845
▁indigestion	-11.845
▁attic	-11.845
▁fuzz	-11.845
▁mixture	-11.845
▁hostess	-11.845
▁fluid	-11.8451
▁nutritious	-11.8451
▁blitz	-11.8451
▁frostbit	-11.8451
▁overestimat	-11.8451
▁cumberland	-11.8451
cussion	-11.8451
▁belinda	-11.8451
▁sinuses	-11.8451
▁fuj	-11.8451
▁øùùøaù	-11.8451
▁relationship	-11.8451
▁downhearted	-11.8451
▁dependence	-11.8451
▁reincarnate	-11.8451
▁undertake	-11.8451
kker	-11.8451
▁ugliest	-11.8451
▁uphill	-11.8451
▁mineral	-11.8451
▁zwaa	-11.8451
▁existence	-11.8451
▁denied	-11.8451
▁motivate	-11.8451
▁bertha	-11.8451
▁trend	-11.8451
▁angr	-11.8451
lease	-11.8451
▁langs	-11.8451
▁recite	-11.8451
▁bluebird	-11.8451
▁dobell	-11.8451
drivin	-11.8451
▁overnight	-11.8451
▁slappers	-11.8451
▁theore	-11.8451
▁zitten	-11.8451
▁whines	-11.8451
▁cylinders	-11.8451
▁josephine	-11.8451
▁stuntmen	-11.8451
▁teensy	-11.8451
▁coronation	-11.8451
▁kidnappers	-11.8451
▁graveyard	-11.8451
▁frill	-11.8451
▁basically	-11.8451
▁dugout	-11.8451
cage	-11.8451
▁allison	-11.8451
▁compose	-11.8451
▁shush	-11.8451
▁beez	-11.8451
▁downhill	-11.8451
▁fluke	-11.8451
▁marries	-11.8451
▁ruling	-11.8451
▁calibrat	-11.8451
▁spud	-11.8452
▁inscripti	-11.8452
▁chrom	-11.8452
▁clipped	-11.8452
ittle	-11.8452
▁hippie	-11.8452
bbert	-11.8452
▁gallons	-11.8452
▁therap	-11.8452
▁liqu	-11.8452
spelen	-11.8452
▁tickles	-11.8452
▁doublezero	-11.8452
▁nonpo	-11.8452
odious	-11.8452
sota	-11.8452
▁lurk	-11.8452
▁naught	-11.8452
▁muite	-11.8452
▁furni	-11.8452
shaw	-11.8452
▁persua	-11.8452
▁slechte	-11.8452
▁slayton	-11.8452
▁maroon	-11.8452
▁automatically	-11.8452
▁willfully	-11.8452
▁snapped	-11.8452
▁polecat	-11.8452
treating	-11.8453
placement	-11.8453
▁steward	-11.8453
▁plantation	-11.8453
▁astro	-11.8453
▁fraulein	-11.8453
hoho	-11.8453
▁fringe	-11.8453
▁prank	-11.8453
▁stardust	-11.8453
▁lalala	-11.8453
▁confrontation	-11.8453
▁frillies	-11.8453
▁inspector	-11.8453
▁investigation	-11.8453
▁detonation	-11.8453
▁farrell	-11.8453
▁overcome	-11.8453
▁dishonor	-11.8453
▁midway	-11.8453
loqu	-11.8453
pions	-11.8453
▁seagulls	-11.8453
▁slash	-11.8453
▁fiinal	-11.8453
▁goggles	-11.8453
▁balm	-11.8453
▁awoke	-11.8453
▁libya	-11.8453
▁cheque	-11.8453
▁chopping	-11.8453
▁aura	-11.8453
istol	-11.8453
▁juli	-11.8454
▁predic	-11.8454
▁punishment	-11.8454
▁judy	-11.8454
▁bambo	-11.8454
▁yurt	-11.8454
▁achill	-11.8454
▁forge	-11.8454
▁manuel	-11.8454
▁relat	-11.8454
▁boardinghouse	-11.8454
▁exalt	-11.8454
▁blockhead	-11.8454
▁tangled	-11.8454
▁upro	-11.8454
▁spullen	-11.8454
▁ssss	-11.8454
matics	-11.8454
▁schem	-11.8454
▁maim	-11.8454
▁rumpel	-11.8454
▁detonat	-11.8454
▁curious	-11.8454
▁naked	-11.8454
▁ripping	-11.8454
▁verstopt	-11.8455
▁motel	-11.8455
etrouw	-11.8455
▁tempora	-11.8455
▁align	-11.8455
▁quin	-11.8455
▁popped	-11.8455
osity	-11.8455
▁edition	-11.8455
▁barefoot	-11.8455
▁colon	-11.8455
▁francisco	-11.8455
▁parson	-11.8455
▁resentment	-11.8455
▁capri	-11.8455
▁twitter	-11.8455
▁burke	-11.8455
▁possession	-11.8455
▁outward	-11.8455
▁drunkard	-11.8456
▁grill	-11.8456
▁whooshing	-11.8456
▁porti	-11.8456
▁mixup	-11.8456
▁defective	-11.8456
emption	-11.8456
podg	-11.8456
▁overru	-11.8456
heid	-11.8456
▁spindle	-11.8456
▁slum	-11.8456
▁tourist	-11.8456
▁sanity	-11.8456
▁busier	-11.8457
jaag	-11.8457
▁jesus	-11.8457
▁conven	-11.8457
▁schoolboy	-11.8457
▁louise	-11.8457
▁permissie	-11.8457
▁involve	-11.8457
▁rapidfire	-11.8457
▁lijn	-11.8457
▁charities	-11.8457
▁grasp	-11.8457
▁shipmate	-11.8457
▁rehearsal	-11.8457
regel	-11.8457
▁elsing	-11.8458
▁bevel	-11.8458
achten	-11.8458
pstick	-11.8458
▁aos	-11.8458
dience	-11.8458
tobe	-11.8458
ummer	-11.8458
livered	-11.8458
▁pub	-11.8458
▁cluck	-11.8458
▁troll	-11.8458
olent	-11.8459
▁retirement	-11.8459
▁embarrassment	-11.8459
▁heartbroken	-11.8459
▁spence	-11.8459
▁jury	-11.8459
▁actress	-11.8459
▁defenseless	-11.8459
▁grumbling	-11.8459
▁adnt	-11.8459
▁reput	-11.8459
meal	-11.8459
▁trouper	-11.8459
▁outof	-11.8459
▁drama	-11.8459
▁lowdown	-11.8459
rechten	-11.8459
▁replacement	-11.8459
▁celebrity	-11.8459
▁epilepsy	-11.8459
▁fluffy	-11.8459
▁sympathy	-11.8459
▁nickel	-11.8459
▁marie	-11.846
omme	-11.846
▁newspaper	-11.846
▁hun	-11.846
▁spaceport	-11.846
▁tinge	-11.846
▁slippery	-11.846
▁text	-11.8461
▁dried	-11.8461
▁sherman	-11.8461
▁imitation	-11.8461
▁vessel	-11.8461
▁midst	-11.8461
▁preferred	-11.8461
▁nook	-11.8461
▁willow	-11.8461
▁slats	-11.8461
▁tonic	-11.8461
▁sank	-11.8461
▁intel	-11.8462
▁brewers	-11.8462
▁yeow	-11.8462
▁beloofd	-11.8462
▁expand	-11.8462
▁dusk	-11.8462
▁neutral	-11.8463
▁pline	-11.8463
sneden	-11.8463
▁variation	-11.8463
vallen	-11.8463
▁countryside	-11.8463
▁hideaway	-11.8463
▁natuurlijk	-11.8463
▁infield	-11.8463
▁accidentally	-11.8463
▁frost	-11.8463
▁commandments	-11.8463
▁woodc	-11.8464
▁loco	-11.8464
▁blurr	-11.8464
▁luckiest	-11.8464
stressed	-11.8464
▁chern	-11.8464
▁thunk	-11.8464
▁establishment	-11.8464
reme	-11.8464
▁lull	-11.8465
▁moist	-11.8465
▁termina	-11.8465
▁scum	-11.8465
▁burp	-11.8465
▁lyin	-11.8465
▁touchdown	-11.8466
monger	-11.8466
▁afoot	-11.8466
▁incoming	-11.8467
▁schee	-11.8467
▁tumbling	-11.8467
eith	-11.8467
▁blueberry	-11.8467
▁combo	-11.8467
▁imprisoned	-11.8467
▁carlo	-11.8467
▁springtime	-11.8467
▁sundown	-11.8468
rived	-11.8468
istic	-11.8468
▁distressed	-11.8468
irst	-11.8468
▁shutdown	-11.8468
▁blo	-11.8468
▁breakdown	-11.8468
▁madder	-11.8468
▁afge	-11.8469
▁aero	-11.8469
▁reple	-11.8469
▁option	-11.8469
▁swingin	-11.8469
▁appeal	-11.8469
▁combine	-11.8469
▁qualify	-11.847
▁warren	-11.847
▁partial	-11.847
▁dock	-11.847
▁eyeball	-11.847
▁hamlet	-11.847
▁pints	-11.847
▁ankeren	-11.847
▁plunger	-11.847
▁publisher	-11.847
▁doggy	-11.847
▁vrij	-11.847
▁rowers	-11.8471
labber	-11.8471
▁relish	-11.8471
▁vra	-11.8471
▁karp	-11.8471
ishpo	-11.8471
▁mic	-11.8471
▁yoke	-11.8471
▁chil	-11.8472
▁squeakity	-11.8472
bach	-11.8472
▁logic	-11.8472
▁gator	-11.8472
▁advertising	-11.8472
▁misleading	-11.8472
▁restart	-11.8472
▁laydeeodl	-11.8472
▁debut	-11.8472
▁sync	-11.8473
▁breast	-11.8473
▁dynamic	-11.8473
▁forsaken	-11.8473
▁spreken	-11.8473
▁tribute	-11.8473
▁lamour	-11.8473
▁protein	-11.8473
▁cordially	-11.8473
▁courageously	-11.8473
▁artist	-11.8473
▁shikokuyama	-11.8473
▁vile	-11.8473
▁hysteric	-11.8473
▁trading	-11.8473
▁continuing	-11.8473
▁slapping	-11.8474
▁engagement	-11.8474
▁biomedical	-11.8474
▁øaù	-11.8474
imulation	-11.8474
▁slurp	-11.8474
▁bacterian	-11.8474
▁ladylike	-11.8475
▁attaboy	-11.8475
▁sorcerer	-11.8475
▁peel	-11.8476
▁curve	-11.8477
▁weekend	-11.8477
▁vine	-11.8477
▁stake	-11.8477
▁colorful	-11.8477
▁royalty	-11.8477
mned	-11.8478
▁lust	-11.8479
arcel	-11.8479
tender	-11.8479
▁warble	-11.848
▁hideout	-11.8481
▁kijken	-11.8481
▁funds	-11.8481
▁notary	-11.8481
▁tug	-11.8482
▁quant	-11.8482
▁bidder	-11.8482
endous	-11.8482
▁discoveries	-11.8482
▁discussion	-11.8482
▁grownup	-11.8483
▁collector	-11.8483
▁chimp	-11.8483
▁counselor	-11.8483
▁objection	-11.8483
▁adjustment	-11.8483
onkeys	-11.8483
▁heroic	-11.8484
ility	-11.8484
igue	-11.8484
▁deceived	-11.8484
▁sass	-11.8484
scheur	-11.8485
▁budget	-11.8485
▁stow	-11.8485
▁criticized	-11.8486
gaan	-11.8486
▁courageous	-11.8486
zen	-11.8487
▁scat	-11.8487
▁kijke	-11.8487
▁jabber	-11.8487
shion	-11.8487
▁dune	-11.8487
▁ann	-11.8488
▁meaningless	-11.8488
▁chitter	-11.8488
▁mentally	-11.8488
▁geeup	-11.8488
arrell	-11.8489
▁hospitality	-11.8489
nut	-11.8489
▁admires	-11.849
▁dung	-11.849
▁confine	-11.849
niversa	-11.849
▁toby	-11.8491
▁shameful	-11.8491
key	-11.8492
▁zil	-11.8492
▁suggestion	-11.8493
▁robin	-11.8493
appiness	-11.8494
▁secretive	-11.8494
▁scarce	-11.8495
▁assembly	-11.8495
▁recommendation	-11.8495
▁stirred	-11.8496
resses	-11.8497
▁noodle	-11.8497
▁sacred	-11.8497
▁supp	-11.8497
▁overloaded	-11.8497
▁inspected	-11.8497
▁stowed	-11.8498
iation	-11.8498
▁perse	-11.85
▁andr	-11.85
▁classifies	-11.85
arling	-11.8501
▁coup	-11.8501
▁rover	-11.8501
odlee	-11.8501
dood	-11.8501
▁brengt	-11.8502
▁examined	-11.8502
▁greetin	-11.8502
nice	-11.8502
▁labor	-11.8503
▁keer	-11.8503
▁truthfully	-11.8504
▁dustman	-11.8504
▁zij	-11.8505
airn	-11.8505
▁portion	-11.8506
▁isolated	-11.8507
▁wrinkled	-11.8507
roni	-11.8507
▁douse	-11.8508
▁coolness	-11.851
▁techn	-11.851
▁gill	-11.851
▁baro	-11.8511
▁unlocking	-11.8511
▁lice	-11.8511
▁governesses	-11.8511
▁twirling	-11.8511
▁voer	-11.8511
ouncing	-11.8512
▁peeking	-11.8513
▁inky	-11.8513
▁scratchin	-11.8513
▁showroom	-11.8516
▁tec	-11.8516
chus	-11.8516
▁portal	-11.8516
▁colla	-11.8517
uwen	-11.8517
▁repe	-11.8518
▁judean	-11.8518
▁satisfactor	-11.8518
▁lug	-11.8519
▁blackout	-11.8519
▁unclean	-11.8521
▁bookkeeper	-11.8521
▁bugger	-11.8521
▁øaø	-11.8521
▁lunk	-11.8522
▁yow	-11.8523
▁wegen	-11.8523
▁diner	-11.8524
▁goodlooking	-11.8524
▁teken	-11.8524
▁glen	-11.8524
ishi	-11.8526
urdlin	-11.8526
umming	-11.8526
▁dul	-11.8527
▁precede	-11.8528
mpson	-11.8528
▁delayed	-11.8529
▁decreed	-11.8529
▁coop	-11.8529
▁hideous	-11.8531
▁orderli	-11.8531
helm	-11.8531
alled	-11.8532
center	-11.8532
▁stan	-11.8533
ooking	-11.8533
▁generate	-11.8534
▁workroom	-11.8534
▁marine	-11.8534
utin	-11.8534
▁fiance	-11.8534
▁beamed	-11.8535
▁chilly	-11.8536
▁potion	-11.8536
▁astounds	-11.8537
▁beetles	-11.8537
▁footprints	-11.8537
▁knickknacks	-11.8537
▁outdoors	-11.8537
▁parasites	-11.8537
▁suspicions	-11.8537
▁dine	-11.8538
▁pret	-11.8538
▁stutters	-11.8541
▁tata	-11.8541
erson	-11.8542
▁heal	-11.8543
▁vic	-11.8544
rsche	-11.8544
eeeee	-11.8545
▁soften	-11.8548
ymore	-11.8549
▁goblin	-11.8549
ffin	-11.855
▁undo	-11.855
▁strikeout	-11.855
▁shal	-11.8551
▁gambling	-11.8551
▁gelding	-11.8552
▁stalling	-11.8552
▁clutching	-11.8552
▁plumbing	-11.8552
▁adored	-11.8554
▁reent	-11.8554
▁shaken	-11.8554
▁july	-11.8555
▁frag	-11.8555
▁crumpet	-11.8555
▁serving	-11.8556
▁homework	-11.8557
anderin	-11.8558
▁crank	-11.856
▁wapens	-11.856
▁affected	-11.856
▁reeled	-11.8561
▁expressed	-11.8561
brained	-11.8561
▁regi	-11.8562
▁chal	-11.8562
▁mmmm	-11.8564
yah	-11.8567
schijn	-11.8567
▁tomo	-11.8568
shus	-11.8568
▁shshe	-11.8568
isa	-11.8569
▁revv	-11.8569
▁gale	-11.857
bage	-11.8573
▁mijne	-11.8574
▁bern	-11.8574
orry	-11.8574
▁trou	-11.8575
▁obeying	-11.8577
▁identif	-11.8577
▁num	-11.8579
▁virgin	-11.8581
▁patiently	-11.8584
▁doorway	-11.8584
▁cole	-11.8585
▁thea	-11.8585
▁cookin	-11.8586
elected	-11.8588
lson	-11.859
▁crushed	-11.8592
▁interrupted	-11.8592
▁rammed	-11.8593
▁improved	-11.8593
▁steering	-11.8594
ssenger	-11.8594
▁inci	-11.8595
▁bugg	-11.8596
▁vain	-11.8596
elsford	-11.8596
ggering	-11.8597
▁observed	-11.8598
▁precision	-11.8598
▁yau	-11.86
carved	-11.86
unge	-11.8601
wauke	-11.8607
▁restful	-11.8607
▁quitter	-11.8607
▁engineering	-11.8608
▁tryout	-11.8608
▁wedge	-11.861
▁brib	-11.8611
▁hint	-11.8611
▁trouw	-11.8614
▁maca	-11.8615
▁pressed	-11.8617
▁iv	-11.8619
▁measured	-11.862
▁drunker	-11.8621
▁butte	-11.8622
▁janie	-11.8623
iggly	-11.8624
▁planted	-11.8624
▁screwed	-11.8624
▁complained	-11.8626
tiful	-11.8626
▁rang	-11.8626
▁bouncing	-11.8627
gar	-11.8629
arded	-11.8631
▁updat	-11.8633
▁glowing	-11.8634
▁briefing	-11.8634
gulls	-11.8635
▁rollin	-11.8635
▁budd	-11.8636
▁finale	-11.8638
fin	-11.8639
▁jall	-11.8643
▁handful	-11.8643
facade	-11.8645
▁poly	-11.8646
▁anima	-11.8648
▁defeated	-11.8648
inkle	-11.8649
▁milkman	-11.8651
▁manual	-11.8651
▁mich	-11.8652
▁award	-11.8653
▁braz	-11.8654
▁performer	-11.8658
precedent	-11.8659
▁stinger	-11.8659
▁your	-11.866
▁lance	-11.8661
▁distract	-11.8661
▁pushin	-11.8662
▁disgraced	-11.8663
▁transmitt	-11.8665
anton	-11.8667
▁squared	-11.8669
vergn	-11.8673
▁bursting	-11.8674
isty	-11.8676
▁sellin	-11.8677
▁penitent	-11.8679
▁disappearing	-11.868
▁awaited	-11.8682
▁digni	-11.8684
▁listed	-11.8685
▁radioactiv	-11.8689
month	-11.869
▁bolted	-11.8692
▁kope	-11.8693
xon	-11.8693
▁ringin	-11.8696
▁sailor	-11.8698
▁philosophic	-11.8698
nor	-11.87
▁vermo	-11.87
▁tyrann	-11.8712
erland	-11.8712
blaze	-11.8713
▁pier	-11.8714
▁roy	-11.8714
▁backside	-11.8715
▁stretching	-11.8717
▁rushing	-11.8717
▁ùùøø	-11.8718
▁actin	-11.8719
▁wilkeses	-11.8719
▁cracker	-11.8719
▁nash	-11.8722
▁dashed	-11.8725
mann	-11.8728
thering	-11.8731
canned	-11.8735
▁rebell	-11.8739
zed	-11.8747
▁stirr	-11.8748
▁countin	-11.8749
▁vel	-11.8751
session	-11.8752
▁cleanin	-11.8755
▁bestow	-11.8757
main	-11.8758
▁flattering	-11.8759
▁cryin	-11.8762
▁teachin	-11.8762
▁construct	-11.8763
rian	-11.8764
probable	-11.8767
▁normally	-11.8772
▁carte	-11.8772
race	-11.8778
ocat	-11.878
▁shhh	-11.878
▁greatness	-11.8781
▁depending	-11.8784
▁toady	-11.8786
▁coordinate	-11.8787
▁pouch	-11.8801
▁loser	-11.8801
croche	-11.8802
▁fallin	-11.8806
ustrate	-11.8807
▁slay	-11.8814
▁englishman	-11.8828
▁gad	-11.8829
loos	-11.8835
▁tout	-11.8841
▁rele	-11.8843
▁wonderin	-11.8855
alibu	-11.8867
▁nara	-11.8872
▁readin	-11.8878
▁growin	-11.8892
▁shined	-11.8893
▁willie	-11.8898
▁manto	-11.8916
▁drivein	-11.8918
▁batter	-11.8924
▁flapp	-11.8929
▁dreamin	-11.8931
▁leadin	-11.8931
▁learnin	-11.8932
being	-11.8936
▁weaken	-11.8945
▁gin	-11.8948
erk	-11.8958
tie	-11.898
sterous	-11.899
▁primari	-11.8996
▁aspirine	-11.9007
anning	-11.9029
▁suburb	-11.9036
▁speakin	-11.904
▁hiro	-11.9054
▁happenin	-11.9058
▁tipto	-11.906
▁striker	-11.9067
▁aristocrat	-11.9078
brac	-11.9105
rance	-11.9121
▁reu	-11.9129
plow	-11.9147
▁kwam	-11.9152
hai	-11.9156
zech	-11.9168
▁migrati	-11.9197
▁pupp	-11.9212
arcas	-11.9234
▁darl	-11.9235
▁koud	-11.9245
onizing	-11.9282
▁stitch	-11.9298
bony	-11.9301
▁geez	-11.9307
▁medit	-11.9339
▁certifi	-11.9345
noord	-11.9354
▁arabia	-11.9367
▁scr	-11.9383
izen	-11.9411
vacu	-11.9419
▁troublemak	-11.9439
▁pup	-11.9457
cylinder	-11.9458
vroom	-11.947
etch	-11.9478
staan	-11.9484
ringe	-11.9488
▁verli	-11.949
phew	-11.9543
vage	-11.9545
shoot	-11.9552
pulsive	-11.9585
ety	-11.9588
▁mil	-11.9594
wed	-11.9605
visor	-11.961
▁thre	-11.9611
lain	-11.9618
melon	-11.9622
▁steadi	-11.9624
nning	-11.9624
▁universit	-11.9645
▁clip	-11.9645
lak	-11.966
▁drawer	-11.9695
▁fee	-11.9695
▁matchmak	-11.9716
count	-11.9736
▁hallowe	-11.9745
▁robe	-11.9751
▁dol	-11.9763
nomen	-11.9764
