<unk>	0
<s>	0
</s>	0
s	-4.30812
▁oh	-4.55821
▁dont	-4.63651
▁im	-4.66613
▁well	-4.83949
▁go	-4.86387
▁get	-4.92769
▁know	-4.93771
▁come	-4.94791
▁like	-5.06287
▁right	-5.1299
▁one	-5.15538
▁got	-5.16648
▁youre	-5.18864
▁good	-5.19871
▁	-5.21714
▁thats	-5.27698
▁see	-5.3508
▁yes	-5.37324
ing	-5.46495
▁yeah	-5.52749
▁look	-5.54994
▁time	-5.55789
▁hey	-5.56584
▁ill	-5.56877
▁think	-5.58505
▁back	-5.6042
▁cant	-5.61507
▁us	-5.64112
▁hes	-5.70309
▁want	-5.72058
▁little	-5.72095
ed	-5.72476
▁take	-5.73183
▁going	-5.7664
▁okay	-5.77159
▁say	-5.80962
▁na	-5.81362
▁man	-5.85786
▁tell	-5.86226
▁could	-5.91083
▁never	-5.91598
▁let	-5.92956
▁would	-5.93559
▁way	-5.93774
▁make	-6.00256
▁whats	-6.00296
▁ive	-6.02789
▁uh	-6.05338
▁gon	-6.06596
▁please	-6.10113
▁help	-6.11148
▁theres	-6.11258
▁love	-6.11515
▁wait	-6.12176
▁really	-6.13662
▁something	-6.13832
d	-6.15477
▁mean	-6.15816
▁didnt	-6.16529
▁give	-6.17259
▁thank	-6.1943
▁lets	-6.19896
▁must	-6.21838
▁mr	-6.30231
▁sir	-6.31321
▁sure	-6.32653
▁two	-6.33807
▁find	-6.36017
y	-6.3738
▁day	-6.37517
▁much	-6.37628
▁old	-6.37699
▁miss	-6.38384
▁boy	-6.39458
▁home	-6.40817
▁sorry	-6.41334
▁l	-6.42221
▁need	-6.43018
▁great	-6.43323
▁thing	-6.43853
▁better	-6.44588
▁life	-6.44792
▁nothing	-6.44984
▁shes	-6.459
▁first	-6.46706
▁night	-6.46722
▁youll	-6.49501
▁said	-6.49818
▁keep	-6.49823
e	-6.50713
ly	-6.51155
▁wont	-6.52381
▁ever	-6.5262
▁theyre	-6.53355
▁away	-6.53739
▁stop	-6.54464
▁still	-6.55007
▁long	-6.56344
▁youve	-6.57025
▁anything	-6.58728
▁even	-6.5983
▁big	-6.63784
▁people	-6.64434
▁around	-6.64444
▁ah	-6.65264
▁may	-6.65275
▁always	-6.65885
▁girl	-6.65994
▁thought	-6.6688
▁world	-6.67154
▁work	-6.68295
▁course	-6.68525
er	-6.69817
▁every	-6.69854
▁id	-6.72755
▁stay	-6.73183
▁things	-6.7492
▁new	-6.74944
▁believe	-6.77015
▁call	-6.77634
▁talk	-6.78236
▁leave	-6.78829
▁whoa	-6.80767
▁put	-6.81119
▁last	-6.82155
▁dear	-6.82283
▁told	-6.82412
▁nice	-6.82419
▁aint	-6.86003
▁show	-6.86535
▁father	-6.86538
▁maybe	-6.87509
▁hear	-6.87637
▁wouldnt	-6.88322
▁huh	-6.88325
▁isnt	-6.88718
▁coming	-6.88859
▁place	-6.88869
▁mother	-6.89171
▁morning	-6.8945
▁care	-6.91587
▁done	-6.92625
▁hold	-6.92803
▁mind	-6.93054
▁ta	-6.9386
▁another	-6.94467
▁children	-6.9447
▁might	-6.94784
▁three	-6.95235
▁kind	-6.95939
▁made	-6.9611
▁bad	-6.96957
t	-6.97401
▁enough	-6.97985
▁doesnt	-6.98497
▁everything	-6.98548
▁run	-6.98593
▁remember	-7.01172
▁house	-7.01194
▁feel	-7.0181
▁try	-7.01826
▁left	-7.02129
▁baby	-7.02302
▁name	-7.04228
a	-7.04452
▁best	-7.04519
▁turn	-7.047
▁king	-7.04959
▁captain	-7.0514
▁thanks	-7.06152
▁fine	-7.06261
▁ooh	-7.06545
▁ready	-7.07155
▁shall	-7.08223
▁de	-7.08681
▁door	-7.08817
▁je	-7.09041
▁seen	-7.09153
▁men	-7.10174
▁listen	-7.10388
▁wrong	-7.1108
▁understand	-7.11324
▁hello	-7.11721
▁bring	-7.12676
▁today	-7.12847
▁ik	-7.14455
▁money	-7.15248
▁matter	-7.17335
▁bit	-7.17489
▁looking	-7.17561
▁years	-7.1834
▁hope	-7.19008
▁fly	-7.19524
▁next	-7.19594
▁weve	-7.19622
▁em	-7.20668
n	-7.2083
▁real	-7.21402
▁beautiful	-7.21405
▁without	-7.2152
▁friend	-7.21748
▁start	-7.22018
▁watch	-7.2268
▁heart	-7.2352
▁head	-7.24316
▁live	-7.24528
▁true	-7.24829
▁use	-7.25044
▁dad	-7.25548
▁scarlett	-7.26156
▁goodbye	-7.26167
▁god	-7.26928
▁lot	-7.27821
▁yet	-7.28284
▁die	-7.28582
▁heard	-7.28611
▁town	-7.28675
▁ya	-7.28688
▁many	-7.29002
▁young	-7.29475
▁second	-7.29995
▁eat	-7.30086
▁road	-7.3012
▁alone	-7.30329
▁happy	-7.30329
▁youd	-7.30365
es	-7.31339
▁ha	-7.32187
▁havent	-7.32452
▁tomorrow	-7.32452
▁gone	-7.32512
▁hand	-7.3269
▁la	-7.3317
▁came	-7.33647
▁found	-7.34659
▁woman	-7.3467
▁hmm	-7.35021
▁whos	-7.35187
▁guys	-7.35406
en	-7.35465
▁word	-7.3555
▁minute	-7.35904
▁far	-7.35977
▁tonight	-7.36665
▁whole	-7.36897
▁friends	-7.3733
▁mrs	-7.38192
▁child	-7.39173
▁job	-7.39808
▁business	-7.40315
▁getting	-7.40929
▁worry	-7.41882
▁everyone	-7.42155
▁ask	-7.42232
▁pretty	-7.42323
ll	-7.42779
▁dead	-7.42884
▁princess	-7.43001
▁wanted	-7.43691
▁christmas	-7.44727
▁family	-7.44729
▁hurry	-7.44746
▁along	-7.45552
▁lost	-7.45615
▁car	-7.45999
▁poor	-7.46216
▁else	-7.46419
▁open	-7.46471
▁wan	-7.46486
▁four	-7.47258
▁saw	-7.48009
▁together	-7.48066
▁looks	-7.48108
▁happened	-7.48195
r	-7.48339
▁um	-7.49141
▁buzz	-7.49341
▁move	-7.49344
▁face	-7.49751
▁wish	-7.50078
▁mom	-7.50472
▁everybody	-7.50625
▁someone	-7.5134
▁talking	-7.52178
▁room	-7.52377
▁chuckles	-7.52392
▁win	-7.52687
▁ow	-7.53104
▁hi	-7.53235
▁knew	-7.53241
▁lady	-7.53315
▁ball	-7.53374
▁sleep	-7.53548
▁water	-7.53752
al	-7.54007
▁quite	-7.5428
▁days	-7.54658
▁idea	-7.54803
▁goes	-7.54998
▁excuse	-7.55623
▁story	-7.56903
o	-7.57684
▁wasnt	-7.57787
▁het	-7.58364
▁hard	-7.58404
▁afraid	-7.58724
▁feet	-7.58742
▁land	-7.58898
▁says	-7.58973
▁soon	-7.59569
▁music	-7.5959
▁kid	-7.59638
▁son	-7.60274
▁rome	-7.60533
▁shh	-7.60681
▁sighs	-7.61646
▁kill	-7.61736
▁trying	-7.62183
▁hell	-7.62458
▁bear	-7.62534
▁guess	-7.6291
▁eyes	-7.63074
▁cause	-7.63253
▁guy	-7.63506
▁met	-7.63695
▁couldnt	-7.637
▁human	-7.63932
▁stand	-7.64179
▁fire	-7.64182
▁year	-7.64674
▁ease	-7.65746
▁change	-7.66277
▁cat	-7.66321
▁brother	-7.66555
▁wow	-7.66616
▁trouble	-7.66909
▁en	-7.66943
▁late	-7.67195
▁race	-7.67454
▁chance	-7.67559
▁een	-7.68063
▁bed	-7.68616
▁set	-7.6902
▁dog	-7.69278
in	-7.69397
▁anyone	-7.69624
▁caesar	-7.6963
▁hands	-7.69974
▁pay	-7.70449
▁arent	-7.7069
▁daughter	-7.70714
▁rest	-7.71202
▁meet	-7.71462
▁till	-7.71608
▁gentlemen	-7.71741
▁perhaps	-7.71762
▁ashley	-7.72814
▁suppose	-7.73642
▁bird	-7.74005
est	-7.74479
▁check	-7.74539
▁s	-7.74858
▁mine	-7.74925
▁niet	-7.75015
▁mike	-7.76156
▁fast	-7.76956
▁already	-7.77235
▁marry	-7.77295
▁forget	-7.7732
ve	-7.77949
▁fun	-7.78143
▁clear	-7.78236
▁inside	-7.78374
▁end	-7.78475
▁used	-7.78576
▁five	-7.78852
▁red	-7.7931
▁save	-7.79336
▁hurt	-7.79356
▁point	-7.79391
▁crazy	-7.79521
▁dat	-7.79529
▁ago	-7.79617
▁makes	-7.79704
▁air	-7.8021
▁moment	-7.80849
▁earth	-7.81036
▁t	-7.81536
▁wants	-7.8192
▁gasps	-7.81922
▁part	-7.8195
▁miles	-7.82021
▁minutes	-7.82291
▁follow	-7.82944
▁somebody	-7.8305
▁almost	-7.83074
▁ahead	-7.83093
▁easy	-7.83138
▁nobody	-7.83224
▁later	-7.83233
▁news	-7.83591
▁alive	-7.84269
▁high	-7.84568
▁c	-7.84627
▁fish	-7.851
▁since	-7.85418
▁half	-7.85465
▁important	-7.85476
▁food	-7.85486
▁perfect	-7.855
▁welcome	-7.85514
▁free	-7.85613
▁price	-7.85664
▁wheres	-7.85713
▁joel	-7.86757
▁knows	-7.86967
▁school	-7.87017
▁six	-7.87075
▁play	-7.87195
▁side	-7.87488
▁walk	-7.87497
▁un	-7.87618
▁safe	-7.87707
▁send	-7.87844
▁control	-7.87955
▁darling	-7.87961
▁laughing	-7.88169
▁hit	-7.88171
▁close	-7.88409
▁lovely	-7.88594
on	-7.88645
▁quiet	-7.89113
▁light	-7.89126
▁kiki	-7.89221
▁they	-7.89225
▁wonderful	-7.89232
▁song	-7.89416
▁hot	-7.89459
▁number	-7.89476
▁power	-7.89509
▁heres	-7.89647
▁called	-7.89973
▁throw	-7.90327
▁peter	-7.9055
▁kids	-7.90596
▁taking	-7.90601
▁a	-7.91113
▁girls	-7.91419
▁sit	-7.91694
▁exactly	-7.91814
▁maria	-7.91816
▁ponyo	-7.91823
▁took	-7.91834
▁comes	-7.92061
▁times	-7.93108
▁stuff	-7.93148
▁cut	-7.93153
▁city	-7.93182
▁white	-7.93219
▁special	-7.9359
▁blue	-7.93638
▁boys	-7.93998
▁glad	-7.94344
▁went	-7.94509
▁fool	-7.95418
mon	-7.95799
▁luck	-7.95814
▁lead	-7.96052
▁party	-7.96344
▁laughs	-7.96498
▁break	-7.96721
▁rain	-7.97175
▁hachi	-7.97179
▁death	-7.97205
▁master	-7.97233
▁g	-7.97899
▁speak	-7.98497
▁behind	-7.98561
▁actually	-7.98567
▁fight	-7.98785
▁singing	-7.98869
▁pick	-7.99068
▁happen	-7.99653
▁promise	-7.99778
▁taylor	-7.9997
▁rhett	-7.9997
▁sun	-8.00369
▁sister	-8.00374
▁wild	-8.00528
▁dream	-8.00877
▁dr	-8.00982
▁flight	-8.0142
▁voice	-8.01809
▁pok	-8.02233
▁different	-8.02727
▁funny	-8.02865
▁lose	-8.02932
▁full	-8.02992
▁means	-8.03482
▁flying	-8.03621
▁quick	-8.04104
▁small	-8.04205
▁careful	-8.04268
▁b	-8.04294
▁black	-8.04334
▁least	-8.04337
▁scared	-8.04593
▁moon	-8.04911
▁grow	-8.05154
▁seems	-8.05188
▁war	-8.05368
▁eh	-8.05509
▁deal	-8.05534
▁feeling	-8.0581
▁toto	-8.05819
l	-8.05897
▁maar	-8.05923
▁making	-8.05962
▁shut	-8.0705
▁sing	-8.071
▁sweet	-8.07224
▁anybody	-8.07326
▁ramona	-8.07327
▁front	-8.07354
▁aye	-8.07426
▁plan	-8.07651
▁star	-8.07906
▁catch	-8.08565
▁itll	-8.08875
▁running	-8.08879
▁grunts	-8.08946
▁hate	-8.09249
▁ho	-8.0965
▁sea	-8.10113
▁p	-8.10116
▁dinner	-8.10413
▁probably	-8.10427
▁terrible	-8.10542
st	-8.10641
▁horses	-8.1081
▁dan	-8.11264
▁waiting	-8.11319
▁hours	-8.1138
▁return	-8.11405
▁trust	-8.11676
▁honey	-8.12016
▁flik	-8.12018
▁wind	-8.12035
▁bell	-8.12052
▁screaming	-8.12112
▁buy	-8.12235
▁ze	-8.12352
▁fact	-8.12555
▁problem	-8.1259
▁needs	-8.12605
▁touch	-8.12637
▁ride	-8.12746
▁honor	-8.13286
▁pull	-8.13402
▁birds	-8.13546
▁answer	-8.13625
▁upon	-8.13632
▁cool	-8.13701
▁ok	-8.1402
▁playing	-8.14063
▁words	-8.14207
▁street	-8.1423
▁whoo	-8.14297
▁spirit	-8.15057
▁blood	-8.15195
▁apollo	-8.15265
▁horse	-8.1533
us	-8.15826
▁hour	-8.16041
▁lives	-8.16304
▁ones	-8.16386
▁drive	-8.16657
▁lord	-8.16773
▁sosuke	-8.16931
▁houston	-8.16932
▁maam	-8.16943
▁jim	-8.16946
▁shoot	-8.17074
ies	-8.17171
▁sort	-8.17224
▁re	-8.17419
▁seconds	-8.1768
▁dreams	-8.18146
▁wife	-8.18657
▁brought	-8.18663
▁cold	-8.1867
▁dance	-8.1871
▁saying	-8.18723
▁sign	-8.19333
▁truth	-8.19513
▁thinking	-8.1963
▁working	-8.20239
▁daphne	-8.20351
▁roger	-8.20361
▁fault	-8.20385
▁uhhuh	-8.20388
▁gave	-8.20395
▁shell	-8.2041
▁though	-8.20445
▁round	-8.20708
▁wake	-8.20714
▁whatever	-8.21022
▁secret	-8.21062
▁read	-8.21938
h	-8.22019
▁seem	-8.22019
▁buddy	-8.22118
▁van	-8.2217
▁killed	-8.22618
▁message	-8.22855
▁line	-8.22878
▁top	-8.23238
▁book	-8.23332
▁straight	-8.23729
▁learn	-8.2381
▁eliza	-8.23889
▁drink	-8.23892
▁alright	-8.239
▁wonder	-8.23961
▁goin	-8.24019
▁rock	-8.24348
▁become	-8.24673
▁game	-8.24728
▁brave	-8.24763
▁mei	-8.25469
▁velma	-8.25707
▁papa	-8.25734
▁certainly	-8.25773
▁fair	-8.25811
▁folks	-8.25819
▁eli	-8.25976
▁doctor	-8.265
▁expect	-8.26966
▁boo	-8.27458
▁able	-8.27498
▁higgins	-8.2756
▁professor	-8.2756
▁aunt	-8.27566
▁rather	-8.27569
▁daddy	-8.27581
▁doc	-8.27592
▁also	-8.27642
▁billy	-8.27695
▁taken	-8.27788
▁supposed	-8.28004
▁sound	-8.28188
▁lm	-8.28248
▁picture	-8.28413
▁m	-8.28861
▁fix	-8.29198
▁ù	-8.29202
▁hair	-8.29272
▁strange	-8.29362
▁forever	-8.29448
▁ladies	-8.29466
▁bet	-8.2966
▁f	-8.29731
▁gold	-8.29856
▁pa	-8.30632
g	-8.30712
▁w	-8.31044
▁except	-8.31345
▁jonah	-8.31368
▁charlie	-8.3137
▁stupid	-8.3137
▁bye	-8.31531
▁dc	-8.31551
▁mad	-8.31668
▁fall	-8.31879
▁ship	-8.31916
▁mcqueen	-8.32264
▁eye	-8.32298
▁cub	-8.32422
▁h	-8.32604
▁fear	-8.32644
▁phone	-8.32841
▁wear	-8.3297
▁church	-8.33329
▁butler	-8.33329
▁woody	-8.33369
able	-8.33525
▁co	-8.33678
▁main	-8.33957
▁beast	-8.34274
▁drop	-8.34303
▁dark	-8.34526
▁magic	-8.34655
▁carry	-8.34957
▁in	-8.35013
▁er	-8.35203
▁mornin	-8.35263
▁scrooge	-8.35329
▁others	-8.35417
▁order	-8.3571
▁hang	-8.35851
▁asked	-8.35955
▁belle	-8.36531
▁op	-8.36542
▁shot	-8.36594
▁als	-8.36791
▁ten	-8.368
▁shouldnt	-8.37372
▁future	-8.37377
▁married	-8.37455
▁share	-8.37637
▁laugh	-8.37656
▁sent	-8.37737
▁months	-8.37976
▁spell	-8.38443
▁step	-8.38896
▁outside	-8.39455
▁absolutely	-8.39467
▁possible	-8.39475
▁moving	-8.39482
▁finally	-8.39495
▁evening	-8.39509
▁wed	-8.39554
▁living	-8.39575
le	-8.39586
▁surprise	-8.40232
▁lion	-8.40885
▁th	-8.40998
▁tree	-8.41004
▁less	-8.4101
▁gets	-8.41274
▁cry	-8.41328
▁forgive	-8.41389
▁dare	-8.41392
▁reason	-8.41407
▁coach	-8.41947
▁stick	-8.42305
▁pan	-8.42307
▁spot	-8.42432
▁anyway	-8.42682
man	-8.43008
▁present	-8.43127
▁mmm	-8.4323
▁telling	-8.43629
▁jacob	-8.43752
▁suitcase	-8.43754
▁somewhere	-8.43754
▁judah	-8.43763
▁tried	-8.4382
▁lucky	-8.44063
▁blu	-8.44456
▁rat	-8.44621
▁pride	-8.44885
▁sounds	-8.44952
▁country	-8.45137
▁ghost	-8.45322
▁command	-8.45324
▁simple	-8.45862
▁tea	-8.45965
▁kenai	-8.45975
▁heighho	-8.45976
▁attention	-8.45976
▁leaving	-8.46002
▁sick	-8.46057
▁boss	-8.46073
▁browne	-8.46204
▁u	-8.4656
▁fra	-8.4698
▁speed	-8.47184
▁week	-8.4721
▁short	-8.47656
▁worth	-8.48044
▁wilkes	-8.48133
▁witch	-8.4821
▁hannah	-8.48248
▁outta	-8.48251
▁history	-8.48251
▁danger	-8.48324
▁peace	-8.48359
▁cheering	-8.48427
▁foot	-8.48495
▁born	-8.48593
▁stone	-8.48693
▁aan	-8.48834
▁pass	-8.49114
▁strong	-8.49212
▁space	-8.49441
▁river	-8.49489
▁tara	-8.49506
m	-8.496
▁penny	-8.49609
▁smile	-8.49665
▁ge	-8.49764
▁wash	-8.49847
▁cup	-8.50041
▁quit	-8.50203
▁voor	-8.50573
▁cj	-8.50576
▁merry	-8.50578
▁either	-8.50596
▁lina	-8.50661
▁mmhmm	-8.50668
▁sometimes	-8.50689
▁hed	-8.50842
▁dig	-8.51332
ion	-8.51462
▁queen	-8.51617
▁turned	-8.51701
i	-8.51722
▁crew	-8.51807
c	-8.51872
▁ground	-8.51921
▁bloom	-8.52174
▁kiss	-8.52225
or	-8.52328
▁finish	-8.52721
▁bread	-8.5297
▁smee	-8.52982
▁yep	-8.52987
▁ganda	-8.53001
▁forest	-8.53021
▁clothes	-8.53045
▁throat	-8.53061
▁aah	-8.53158
▁meant	-8.53201
▁rich	-8.53368
▁changed	-8.53575
▁mark	-8.53931
▁question	-8.53978
▁pictures	-8.54278
▁prince	-8.5476
▁missed	-8.5508
▁mana	-8.55095
▁nothin	-8.55326
▁simba	-8.55391
▁merlin	-8.55392
▁pardon	-8.55393
▁jimmy	-8.55394
▁hungry	-8.55396
▁worse	-8.55408
▁dangerous	-8.55409
▁season	-8.55412
▁snow	-8.55446
▁dress	-8.55537
▁greatest	-8.55651
▁finished	-8.55698
▁riders	-8.55857
te	-8.56126
▁lf	-8.5616
▁lots	-8.56331
▁lay	-8.56566
▁gift	-8.56867
▁wel	-8.56905
▁fat	-8.57032
▁rose	-8.57044
▁clean	-8.57178
▁fell	-8.57267
▁meeting	-8.5756
▁forgot	-8.5789
▁london	-8.57892
▁sulley	-8.57894
▁wendy	-8.57895
▁castle	-8.57901
▁hij	-8.57985
▁mouth	-8.58001
▁none	-8.58129
▁d	-8.58173
▁saved	-8.58459
ic	-8.58526
▁past	-8.59134
▁travel	-8.59194
▁chicken	-8.59428
▁fellow	-8.59431
▁window	-8.59431
▁ca	-8.59622
▁john	-8.59751
▁st	-8.59772
▁teach	-8.59787
▁track	-8.60116
▁sam	-8.60172
▁slow	-8.60297
▁west	-8.6041
▁english	-8.60456
▁beezus	-8.60456
▁uncle	-8.60456
▁sheriff	-8.60457
▁anymore	-8.60457
▁mammy	-8.60461
▁company	-8.60475
▁women	-8.60481
▁near	-8.6055
▁decided	-8.6056
▁theyve	-8.60563
▁tired	-8.6058
lein	-8.60604
▁warm	-8.6068
▁besides	-8.60691
▁goodness	-8.60763
▁riding	-8.60773
▁write	-8.6088
▁body	-8.60902
▁heavens	-8.61202
▁madam	-8.61259
▁force	-8.61633
▁deep	-8.61675
ment	-8.61795
▁mistake	-8.61818
el	-8.6187
▁machine	-8.62029
▁team	-8.62046
▁count	-8.62162
less	-8.6268
▁lights	-8.62793
▁proud	-8.62957
▁lad	-8.6299
▁courage	-8.63083
▁emperor	-8.63087
▁chaney	-8.6309
▁launch	-8.6309
▁bonnie	-8.63091
▁gaston	-8.63091
▁floor	-8.63143
▁hows	-8.63168
▁busy	-8.63174
▁cross	-8.63373
▁engine	-8.63517
▁age	-8.63528
▁seven	-8.63895
▁low	-8.64202
▁charge	-8.64329
▁explain	-8.64393
▁favorite	-8.64656
▁lll	-8.64661
▁gods	-8.64677
▁smell	-8.64805
▁field	-8.64995
▁toy	-8.65095
▁z	-8.65147
▁serious	-8.65687
▁mowgli	-8.65789
▁stuck	-8.65792
▁caught	-8.65796
▁majesty	-8.65806
▁groans	-8.65814
▁jiji	-8.65882
▁sky	-8.65946
▁dot	-8.66046
▁arm	-8.66082
▁act	-8.66102
ous	-8.66129
▁hook	-8.66141
▁tires	-8.66413
▁al	-8.66609
▁started	-8.66857
▁zo	-8.67
▁watching	-8.67192
▁birthday	-8.67376
▁ring	-8.67462
▁husband	-8.67478
▁mountain	-8.67522
▁million	-8.67532
▁heb	-8.67564
▁offer	-8.67612
▁known	-8.67674
▁battle	-8.67736
ar	-8.67747
▁hide	-8.68222
▁pal	-8.68349
▁paul	-8.68567
▁craig	-8.68567
▁randall	-8.68567
▁village	-8.68569
▁often	-8.68572
▁hasnt	-8.68574
▁charles	-8.68578
▁lunch	-8.68579
▁lightning	-8.68583
▁green	-8.6867
▁yankees	-8.6891
▁burn	-8.6961
▁mighty	-8.69655
▁weeks	-8.69849
▁area	-8.70149
▁loves	-8.70315
▁report	-8.70351
▁devil	-8.7039
▁heads	-8.70403
▁george	-8.70532
▁person	-8.70717
▁melanie	-8.71424
▁lie	-8.71432
▁e	-8.71434
▁unless	-8.71455
▁melly	-8.71477
▁hunter	-8.71539
▁continues	-8.72022
▁loved	-8.72199
▁awful	-8.72655
▁jump	-8.72872
▁gun	-8.72959
▁law	-8.72992
▁blow	-8.73171
▁bless	-8.73189
▁self	-8.73195
p	-8.73308
▁sense	-8.73446
▁state	-8.7373
▁names	-8.73972
▁be	-8.73991
▁r	-8.74081
▁office	-8.74232
▁werent	-8.74357
▁zijn	-8.74364
▁forward	-8.74365
▁brandnew	-8.74365
▁weird	-8.74368
▁beauty	-8.74369
▁mess	-8.74378
▁liesl	-8.74381
▁totoro	-8.74382
▁broken	-8.74663
▁hill	-8.74694
▁grace	-8.74708
▁case	-8.74757
▁crying	-8.74813
▁ought	-8.74864
▁promised	-8.74922
▁happening	-8.75091
▁planet	-8.75095
▁speaking	-8.75134
ow	-8.75268
▁gas	-8.75468
▁join	-8.75578
ary	-8.75749
▁jungle	-8.76183
▁sword	-8.76213
▁trip	-8.76257
▁given	-8.7654
th	-8.76669
▁needed	-8.76854
▁search	-8.77201
▁lift	-8.77217
▁fit	-8.77252
▁entire	-8.77271
▁beyond	-8.77385
▁kuzco	-8.77385
▁nineveh	-8.77385
▁benji	-8.77385
▁barnier	-8.77386
▁middle	-8.77393
▁kapitein	-8.77395
▁matty	-8.77401
▁cheese	-8.77406
▁kidding	-8.77406
▁rid	-8.77417
▁i	-8.77459
▁beat	-8.77792
▁per	-8.77891
▁max	-8.78138
▁cute	-8.7829
▁hem	-8.78445
ful	-8.78689
▁jam	-8.78701
▁mi	-8.78918
▁cubs	-8.78968
▁prove	-8.79148
▁sell	-8.79348
▁crowd	-8.79473
▁ben	-8.79701
▁da	-8.79822
▁paper	-8.79951
▁waste	-8.80246
▁te	-8.80326
▁certain	-8.8041
▁brothers	-8.80497
▁royal	-8.80501
▁baloo	-8.80512
▁dorothy	-8.80514
▁indeed	-8.80515
▁gentleman	-8.80521
▁grimm	-8.80523
▁highness	-8.80535
▁mama	-8.80552
▁silly	-8.80555
▁loose	-8.80637
▁storm	-8.80678
▁handle	-8.80757
▁army	-8.80778
▁beg	-8.80826
▁port	-8.81307
up	-8.81554
▁train	-8.81637
▁longer	-8.81665
an	-8.81806
▁attack	-8.81931
▁frank	-8.82014
▁thousand	-8.82669
▁system	-8.8267
▁level	-8.82771
▁loud	-8.82784
▁yo	-8.82794
▁sake	-8.82827
▁bare	-8.82976
at	-8.83005
▁enjoy	-8.83122
▁pack	-8.8319
▁box	-8.83221
▁visit	-8.83275
▁looked	-8.83697
▁kitchen	-8.83736
▁yesterday	-8.83736
▁doolittle	-8.83737
▁neither	-8.83737
▁koda	-8.8374
▁simply	-8.8375
▁steady	-8.83757
▁panting	-8.83769
▁giving	-8.83877
▁paid	-8.8399
▁picked	-8.84327
▁oil	-8.84581
▁lts	-8.84672
▁brain	-8.8489
▁standing	-8.85124
▁imagine	-8.85231
ers	-8.85238
▁takes	-8.85602
re	-8.85682
▁joe	-8.8572
▁choice	-8.85852
▁rule	-8.85885
▁purpose	-8.85927
ce	-8.85988
▁works	-8.86034
et	-8.86152
▁happens	-8.86233
▁egypt	-8.87069
▁michael	-8.87069
▁relax	-8.87069
▁south	-8.87071
▁palace	-8.87076
▁strike	-8.87086
▁stopped	-8.87098
▁third	-8.87102
▁glass	-8.87124
▁hotel	-8.87161
▁ridge	-8.87179
▁commander	-8.87313
▁owls	-8.87419
▁wat	-8.87558
▁hier	-8.8757
▁learned	-8.87619
▁scare	-8.87663
▁push	-8.87747
▁v	-8.87917
▁ned	-8.88213
▁hall	-8.88694
▁pain	-8.88857
▁begin	-8.89134
▁stars	-8.89215
▁hospital	-8.89275
▁pleasure	-8.89296
▁motorcycle	-8.8941
▁monster	-8.89479
▁doubt	-8.89489
▁egg	-8.89504
▁flower	-8.89597
▁bob	-8.89726
▁ray	-8.89759
▁calling	-8.89775
▁powers	-8.89813
▁pocket	-8.89818
▁sad	-8.89992
▁station	-8.90062
▁agree	-8.90217
▁police	-8.90491
▁kelso	-8.90518
▁nervous	-8.90518
▁ridiculous	-8.90518
▁genius	-8.90518
▁worried	-8.90518
▁stallion	-8.90524
▁felt	-8.90528
▁mouse	-8.90533
▁racing	-8.90551
▁service	-8.90589
▁guard	-8.90682
▁serve	-8.90731
▁von	-8.90835
▁mustnt	-8.90969
▁mission	-8.91236
▁walking	-8.91543
▁eggs	-8.91559
▁shoo	-8.91869
▁scar	-8.92021
▁died	-8.92201
▁li	-8.92293
▁problems	-8.92785
▁german	-8.92881
▁truck	-8.92928
▁summer	-8.92936
▁heaven	-8.92952
▁idiot	-8.93003
▁position	-8.93048
ch	-8.93054
▁ohh	-8.93083
▁lesson	-8.9312
▁over	-8.93127
▁month	-8.93141
▁feed	-8.93164
▁k	-8.93494
▁feels	-8.93746
▁brown	-8.93754
▁honest	-8.93873
▁damn	-8.93903
▁proper	-8.93977
▁figure	-8.94051
▁california	-8.94089
▁female	-8.94089
▁amazing	-8.94089
▁marvelous	-8.9409
▁governor	-8.9409
▁across	-8.94091
▁silver	-8.94092
▁sitka	-8.94095
▁somethin	-8.94095
▁stories	-8.94113
▁spend	-8.94115
▁announcer	-8.94136
▁soft	-8.94174
▁tv	-8.94187
▁climb	-8.94199
▁early	-8.94213
▁noble	-8.94319
▁doin	-8.9437
▁ahh	-8.94435
▁mara	-8.94451
▁grown	-8.94699
▁screams	-8.94789
k	-8.9509
▁ran	-8.95123
▁harm	-8.95195
▁wing	-8.95379
▁kay	-8.95529
▁lived	-8.95533
ting	-8.95863
▁ant	-8.95895
▁øùù	-8.96014
▁ø	-8.96128
▁roman	-8.96165
▁belong	-8.96494
▁fathers	-8.9679
▁leg	-8.96811
▁n	-8.96941
▁player	-8.97109
▁tink	-8.97328
▁kan	-8.97438
▁dogs	-8.97505
▁realize	-8.97539
▁march	-8.97583
w	-8.97589
hana	-8.97731
▁carrie	-8.97732
▁radio	-8.97746
▁afternoon	-8.97793
▁emelius	-8.97793
▁anywhere	-8.97793
▁coffee	-8.97793
▁general	-8.97799
▁rudy	-8.97816
▁impossible	-8.97818
▁soup	-8.97818
▁dancing	-8.97823
▁lisa	-8.97843
▁tiny	-8.97845
▁evil	-8.97848
▁within	-8.97873
▁quickly	-8.98079
▁stage	-8.98339
▁mothers	-8.98349
▁theyd	-8.98593
▁store	-8.98648
▁naar	-8.98696
▁wings	-8.9879
▁fi	-8.98799
▁mater	-8.99209
ness	-8.99243
▁north	-9.00012
▁broom	-9.00407
▁soul	-9.00765
▁andy	-9.00797
▁escape	-9.01404
▁trapp	-9.01411
▁applause	-9.01639
▁morbius	-9.01639
▁chief	-9.01639
▁kitty	-9.01639
▁fresh	-9.0164
▁everywhere	-9.01644
▁informant	-9.01645
▁beginning	-9.01648
▁spencer	-9.01659
▁neil	-9.01663
▁pickering	-9.01668
▁rescue	-9.01669
▁meowing	-9.01676
▁grunting	-9.01707
▁wack	-9.01746
▁interesting	-9.01772
▁eight	-9.01837
▁pink	-9.01871
f	-9.01909
▁hah	-9.02055
▁hardly	-9.02101
▁hole	-9.02126
nt	-9.02309
▁gosh	-9.02475
over	-9.0253
▁moved	-9.02853
▁blows	-9.02969
▁suit	-9.02999
▁ùù	-9.03238
▁dust	-9.03568
▁orders	-9.03614
▁spirits	-9.04095
ple	-9.04096
▁bells	-9.04098
▁duck	-9.04384
▁sugar	-9.04403
▁base	-9.04478
▁difference	-9.04539
▁movie	-9.0454
▁guest	-9.04598
▁plain	-9.04619
▁joy	-9.05012
▁draw	-9.05085
▁bother	-9.05124
▁deliver	-9.05187
▁clears	-9.05192
▁he	-9.05232
▁spread	-9.05268
▁raise	-9.05385
▁dirt	-9.05457
▁bea	-9.05521
▁kronk	-9.05639
▁malcolm	-9.05639
▁instead	-9.05639
▁kathy	-9.05639
▁phillip	-9.05639
▁freedom	-9.0564
▁island	-9.0564
▁alert	-9.05641
▁teddy	-9.05641
▁breakfast	-9.05642
▁screen	-9.05642
▁blind	-9.05648
▁fancy	-9.05649
▁wedding	-9.05656
▁huge	-9.05661
▁kali	-9.05674
▁thatll	-9.05699
▁eagle	-9.05722
▁blame	-9.05767
▁nearly	-9.05799
▁tight	-9.05815
▁parents	-9.05834
▁match	-9.0585
▁sight	-9.0603
▁hopper	-9.06088
▁driver	-9.06119
▁lab	-9.06202
▁shame	-9.06206
▁fa	-9.06209
▁missing	-9.06321
▁fellas	-9.06517
▁test	-9.06991
▁millions	-9.07168
ry	-9.0722
▁named	-9.07742
ation	-9.08298
▁chair	-9.08554
▁jewel	-9.08574
▁weather	-9.08645
▁hundred	-9.08676
▁president	-9.08722
▁key	-9.08736
▁whistle	-9.08831
▁spring	-9.08885
▁cheer	-9.09039
▁piece	-9.09058
▁destroy	-9.09166
▁thunder	-9.0938
▁cal	-9.0941
▁appreciate	-9.0956
▁difficult	-9.09565
▁view	-9.0965
▁jij	-9.09744
▁gregory	-9.09805
▁strength	-9.09805
▁rooster	-9.09806
▁kept	-9.09807
▁baroness	-9.0981
▁lightyear	-9.09815
▁lonely	-9.09821
▁henry	-9.09824
▁indistinct	-9.09833
▁therell	-9.09836
▁nose	-9.0988
▁double	-9.09881
▁iii	-9.09916
▁built	-9.09917
son	-9.09922
▁dumb	-9.09955
▁bugsy	-9.10002
▁daar	-9.10022
▁tower	-9.10113
▁table	-9.10283
▁dressed	-9.10355
▁thinks	-9.10529
▁bugs	-9.10536
▁bo	-9.10545
▁cheers	-9.10862
▁monsters	-9.11084
▁gee	-9.11372
ish	-9.11526
▁action	-9.11576
ter	-9.11603
▁trees	-9.11784
▁o	-9.11837
▁books	-9.12187
▁officer	-9.13268
▁building	-9.13299
▁corner	-9.13432
▁complete	-9.13798
▁broke	-9.13996
▁reach	-9.14118
▁public	-9.14144
▁upstairs	-9.14153
▁wilhelm	-9.14153
▁speech	-9.14154
▁kennedy	-9.14154
▁morris	-9.14154
▁colonel	-9.14154
▁mercy	-9.14155
▁especially	-9.14156
▁oscar	-9.14156
▁twice	-9.14158
▁wildfire	-9.14159
▁immediately	-9.14161
▁wiz	-9.14163
▁exciting	-9.14164
▁graff	-9.14167
▁grab	-9.14175
▁layla	-9.14176
▁sunday	-9.14188
▁common	-9.14214
▁ohara	-9.14218
▁growling	-9.14225
▁mert	-9.14291
▁responsible	-9.14299
▁crown	-9.14311
▁linda	-9.14329
▁center	-9.14377
▁shoes	-9.14488
▁surprised	-9.14714
▁passed	-9.14768
▁gotten	-9.14786
▁moves	-9.14999
▁shed	-9.15582
▁fired	-9.15614
▁wh	-9.15796
▁arms	-9.1587
▁wet	-9.15872
destruct	-9.15993
▁cou	-9.16089
▁ook	-9.16247
▁rats	-9.16372
▁wall	-9.16615
▁hearts	-9.16762
▁grand	-9.16871
▁paint	-9.16915
▁record	-9.17089
▁maid	-9.17154
▁sita	-9.17279
▁admit	-9.17422
▁super	-9.17447
▁bottom	-9.17457
ate	-9.1747
▁shop	-9.17858
▁pie	-9.1792
▁ùø	-9.17963
▁pitch	-9.1811
id	-9.184
▁build	-9.18444
▁knock	-9.18466
▁j	-9.1851
▁notice	-9.18569
▁smart	-9.1864
▁chances	-9.18671
▁cogburn	-9.18699
▁pearce	-9.18701
▁hadnt	-9.18703
▁texas	-9.18712
▁taught	-9.18719
▁load	-9.18746
▁duty	-9.18802
▁laughter	-9.18803
▁mack	-9.18828
▁humans	-9.1883
▁golden	-9.1887
▁natural	-9.18871
▁putting	-9.18881
▁prepared	-9.18896
▁plate	-9.18974
▁scary	-9.19001
ity	-9.19075
▁mary	-9.1913
▁locked	-9.19171
▁wearing	-9.19432
▁atta	-9.19587
▁legs	-9.19943
na	-9.19952
▁following	-9.19983
▁papers	-9.20255
▁note	-9.2037
▁ice	-9.20458
▁event	-9.20504
▁ga	-9.20641
▁asking	-9.20679
ian	-9.20978
▁we	-9.20987
▁me	-9.21116
ted	-9.2113
▁tough	-9.21145
ant	-9.21217
▁treat	-9.21549
▁hat	-9.21723
▁roll	-9.2194
▁remain	-9.22082
▁faith	-9.22334
▁camera	-9.22351
▁odd	-9.2245
▁agent	-9.22515
▁color	-9.2261
▁bug	-9.22784
▁aw	-9.22855
▁pretend	-9.23005
▁seat	-9.23119
▁weak	-9.23335
▁fetch	-9.23364
ford	-9.23386
▁bright	-9.23399
▁plays	-9.23429
▁brigitta	-9.23461
▁cleopatra	-9.23461
▁jullie	-9.23461
▁pizza	-9.23461
▁schultz	-9.23461
▁spacecraft	-9.23461
▁somehow	-9.23461
▁david	-9.23461
▁thrust	-9.23462
▁pepper	-9.23463
▁kurt	-9.23465
▁bloodshy	-9.23466
▁granny	-9.23469
▁mansfield	-9.23469
▁swear	-9.23476
▁forgotten	-9.23477
ng	-9.23483
▁garden	-9.23486
▁roof	-9.23493
▁loverly	-9.2351
▁darn	-9.2353
▁comin	-9.2355
▁bigger	-9.2355
▁accident	-9.23552
▁normal	-9.23555
▁moses	-9.23561
▁bunch	-9.23566
▁completely	-9.23583
▁calm	-9.23641
▁gettin	-9.23664
▁dirty	-9.2369
▁fella	-9.23704
▁cats	-9.23979
▁faster	-9.24018
▁ideas	-9.24059
▁bravo	-9.2408
▁bag	-9.24152
▁pure	-9.2416
▁ln	-9.24232
▁hail	-9.24239
ling	-9.24265
▁hanging	-9.24323
▁georg	-9.2458
▁dreaming	-9.24657
▁insist	-9.24894
▁mans	-9.24909
▁rules	-9.24988
ts	-9.25234
▁wart	-9.25311
▁moet	-9.25365
▁appear	-9.25502
▁out	-9.25757
▁starting	-9.26041
▁owe	-9.26206
▁listening	-9.263
▁map	-9.26352
▁meaning	-9.26411
▁worlds	-9.26426
▁taste	-9.27196
▁situation	-9.27198
▁marshal	-9.27368
▁shadow	-9.27389
▁joke	-9.27426
▁protect	-9.27439
▁continue	-9.27459
▁signal	-9.2753
▁staying	-9.27586
ive	-9.27604
▁crash	-9.27717
▁ti	-9.27797
om	-9.27984
▁cover	-9.28119
▁desert	-9.28193
▁ba	-9.28247
▁wine	-9.28277
▁settle	-9.28279
▁sand	-9.28281
▁fill	-9.28374
▁suggest	-9.2843
▁dee	-9.28442
▁ear	-9.28454
▁library	-9.28461
▁lieutenant	-9.28461
▁necessities	-9.28461
▁tomainia	-9.28461
▁messala	-9.28461
▁hakuna	-9.28461
▁lockwood	-9.28461
▁someday	-9.28461
▁however	-9.28462
▁whether	-9.28462
▁piston	-9.28462
▁delicious	-9.28463
▁kingdom	-9.28465
▁court	-9.28483
▁truly	-9.28485
▁bought	-9.28496
▁slippers	-9.28499
▁comfortable	-9.28558
▁nog	-9.28566
▁ma	-9.28577
▁interested	-9.2859
▁yelling	-9.28638
▁alta	-9.28648
▁ouch	-9.28754
▁clock	-9.28852
▁plus	-9.28875
▁blessed	-9.28903
▁tom	-9.28955
▁lower	-9.28969
end	-9.29085
▁soldiers	-9.29089
▁counting	-9.29117
▁places	-9.29148
▁animals	-9.29194
▁lake	-9.29205
▁upset	-9.29431
▁ii	-9.29494
▁reading	-9.29639
▁prefer	-9.30073
▁park	-9.30337
▁nu	-9.30486
▁pray	-9.30568
▁landing	-9.30774
▁cares	-9.31032
▁lions	-9.31096
by	-9.31146
▁dis	-9.31389
▁worked	-9.31975
▁respect	-9.32185
▁coward	-9.32304
▁yellow	-9.32471
▁extra	-9.32602
▁condition	-9.32636
▁scene	-9.32837
▁luna	-9.33014
▁uhoh	-9.33123
▁nation	-9.33154
▁proceed	-9.33212
▁east	-9.3328
▁runs	-9.33327
ior	-9.33527
▁stole	-9.33582
▁sail	-9.33645
▁despereaux	-9.33724
▁giggling	-9.33724
▁matata	-9.33724
▁dallas	-9.33724
▁empty	-9.33725
▁major	-9.33727
▁krell	-9.3373
▁senate	-9.33731
▁marta	-9.33736
▁alarm	-9.33748
▁spain	-9.33749
▁spent	-9.33754
▁meade	-9.33759
▁suddenly	-9.33764
▁powerful	-9.33772
▁duke	-9.33774
▁supper	-9.33782
▁baron	-9.33791
▁incredible	-9.33799
▁excited	-9.33825
▁journey	-9.33825
▁tiger	-9.33832
▁tail	-9.33839
▁mice	-9.33853
▁rise	-9.33899
▁official	-9.33948
▁range	-9.33987
▁sally	-9.34034
▁nine	-9.34055
▁block	-9.3406
▁doll	-9.34134
▁aaah	-9.34139
▁grasshoppers	-9.3416
▁consider	-9.34185
▁virg	-9.3422
▁partners	-9.3444
▁gang	-9.3449
▁ja	-9.34517
▁smith	-9.34533
▁talkin	-9.34544
▁falling	-9.34643
▁no	-9.34708
▁card	-9.34875
▁jewels	-9.35062
▁mo	-9.3512
um	-9.35243
ty	-9.35365
▁crack	-9.35367
▁ants	-9.35644
▁guns	-9.35731
▁roses	-9.35943
▁surely	-9.35995
▁va	-9.3608
rs	-9.36125
▁older	-9.36214
▁di	-9.36676
▁bank	-9.36788
▁games	-9.36806
▁cars	-9.36813
▁drag	-9.36824
▁bringing	-9.36849
▁jack	-9.37071
▁believed	-9.37274
▁brains	-9.37651
▁scream	-9.3776
▁allow	-9.37889
▁andromeda	-9.38162
▁language	-9.38163
▁diamond	-9.38163
▁cousin	-9.38208
▁creature	-9.38222
▁turns	-9.38302
▁hop	-9.38352
▁plane	-9.38388
▁morg	-9.38519
▁sh	-9.3867
▁du	-9.38976
▁milk	-9.38989
▁accept	-9.39015
▁layeeodl	-9.39112
▁judge	-9.39114
▁jail	-9.39151
▁favor	-9.39278
▁arrietty	-9.39279
▁dinoco	-9.39279
▁dokter	-9.39279
▁jacqueline	-9.39279
▁mufasa	-9.39279
▁oxygen	-9.39279
▁practice	-9.39279
▁llama	-9.39279
▁christian	-9.3928
▁choose	-9.39281
▁surface	-9.39281
▁department	-9.39281
▁champion	-9.39282
▁patti	-9.39283
▁marley	-9.3929
▁teeth	-9.39299
▁circus	-9.39303
▁teenie	-9.3931
▁copy	-9.39313
▁totally	-9.39331
▁iggy	-9.39348
▁plenty	-9.39382
▁sixteen	-9.39382
▁wazowski	-9.39385
▁pige	-9.39405
▁whispering	-9.3942
▁deserve	-9.39448
▁singin	-9.39458
▁breathing	-9.39579
do	-9.39654
▁county	-9.39706
▁tongue	-9.39755
▁harvest	-9.39767
▁figured	-9.39769
out	-9.3986
▁closer	-9.39879
▁training	-9.39896
▁mention	-9.39947
▁seeing	-9.3999
▁herd	-9.40339
▁walked	-9.40428
▁closed	-9.40533
▁pet	-9.40698
▁fighting	-9.40717
▁belongs	-9.40884
▁sid	-9.40997
▁hills	-9.41322
▁permissi	-9.41323
ial	-9.41455
▁engines	-9.41527
▁adventure	-9.41567
▁date	-9.42134
ily	-9.42156
▁rum	-9.42226
▁showed	-9.42423
▁rocks	-9.42634
▁it	-9.4298
▁kom	-9.43138
▁pin	-9.43713
▁pot	-9.43785
▁vehicle	-9.43888
▁extreme	-9.43888
▁french	-9.43943
▁fortune	-9.44075
▁path	-9.4419
▁finger	-9.44212
▁af	-9.44219
▁cage	-9.44354
▁final	-9.44416
▁rider	-9.44833
▁where	-9.44905
▁howd	-9.44994
ally	-9.45045
▁warn	-9.4514
▁louisa	-9.45162
▁nonsense	-9.45162
▁osterlich	-9.45162
▁piedmont	-9.45162
▁rizzo	-9.45162
▁sunshine	-9.45162
▁sullivan	-9.45162
▁confidence	-9.45162
▁contact	-9.45162
▁nowhere	-9.45163
▁whirring	-9.45163
▁valley	-9.45167
▁martin	-9.45167
▁canoe	-9.45168
▁baseball	-9.45169
▁races	-9.45173
▁shouldve	-9.45174
▁angry	-9.45175
▁chuckling	-9.45176
▁whistling	-9.45178
▁psst	-9.45179
▁destiny	-9.45179
▁wicked	-9.45184
▁leader	-9.45194
▁atlanta	-9.45195
▁giggles	-9.45202
▁panic	-9.4521
▁shoulder	-9.45212
▁parade	-9.45219
▁rabbit	-9.45226
▁began	-9.45226
▁pop	-9.45238
▁dying	-9.45261
▁temper	-9.45269
▁usually	-9.4527
▁lamont	-9.45273
▁shouting	-9.45338
▁who	-9.45359
▁grass	-9.45385
▁mustangs	-9.45419
▁charming	-9.45431
▁form	-9.45467
▁drunk	-9.4547
▁losing	-9.45483
▁hunting	-9.45494
▁held	-9.45541
▁lo	-9.45552
▁knocking	-9.45576
▁hoping	-9.45597
▁tour	-9.45634
▁trash	-9.45683
▁boat	-9.45901
▁sooner	-9.45947
▁teacher	-9.4597
▁do	-9.46069
▁boots	-9.46104
▁pounds	-9.46128
▁picky	-9.46142
▁ol	-9.46193
▁y	-9.46236
▁expecting	-9.46269
▁wondering	-9.4631
▁personal	-9.46857
▁address	-9.47027
▁deer	-9.47051
▁pleased	-9.47093
▁so	-9.47398
▁mountains	-9.4745
▁heat	-9.4757
▁con	-9.47806
▁bite	-9.47992
time	-9.48069
▁jo	-9.48236
as	-9.48291
▁eating	-9.48297
▁alle	-9.48428
▁doe	-9.48479
▁whoohoo	-9.48692
▁rough	-9.48698
▁yard	-9.49048
▁rides	-9.49473
▁sa	-9.49647
▁bus	-9.49981
▁kings	-9.5009
▁trick	-9.50146
▁fence	-9.50206
▁trap	-9.50214
▁circle	-9.50279
▁rope	-9.50311
▁neck	-9.50342
▁dragon	-9.50428
▁nature	-9.50432
▁nurse	-9.50461
▁points	-9.50602
▁everythings	-9.50979
▁goed	-9.50997
▁herr	-9.51146
▁steal	-9.51167
▁health	-9.51211
▁lock	-9.51213
ne	-9.51316
▁camp	-9.5132
▁large	-9.51338
▁ancient	-9.51412
▁archimedes	-9.51412
▁blousey	-9.51412
▁cratchit	-9.51412
▁excellent	-9.51412
▁napaloni	-9.51412
▁science	-9.51412
▁tribune	-9.51412
▁bernard	-9.51412
▁armstrong	-9.51412
▁farewell	-9.51412
▁congratulations	-9.51412
▁england	-9.51412
▁brutus	-9.51413
▁whenever	-9.51413
▁mewtwo	-9.51413
▁program	-9.51413
▁bagheera	-9.51415
▁telephone	-9.51415
▁group	-9.51415
▁dictator	-9.51416
▁heavy	-9.51418
▁sweetheart	-9.51418
ndistinct	-9.51419
▁wherever	-9.51422
▁ginger	-9.51422
▁ingrid	-9.51422
▁winner	-9.51431
▁energy	-9.51434
▁flint	-9.51436
▁nasty	-9.51439
▁francis	-9.51439
▁victory	-9.51445
▁clever	-9.51452
▁planned	-9.51455
▁schip	-9.51495
▁desperate	-9.51511
▁leaf	-9.51522
▁amen	-9.51541
▁alvin	-9.51549
▁single	-9.51558
▁uhuh	-9.51618
▁parker	-9.51641
▁jerk	-9.51663
▁deeply	-9.51667
▁knowledge	-9.51673
▁pity	-9.51701
▁style	-9.51723
▁delivery	-9.51725
▁faint	-9.51835
▁rice	-9.51853
▁page	-9.51869
▁spy	-9.51919
▁ends	-9.51962
▁cook	-9.5198
▁higher	-9.52067
▁tryin	-9.52163
▁nana	-9.52164
▁feelin	-9.52175
▁se	-9.522
▁acting	-9.52203
▁clouds	-9.52265
way	-9.5228
▁returned	-9.52446
▁vision	-9.52563
▁le	-9.52729
▁rio	-9.53148
▁size	-9.53423
▁tie	-9.53424
▁monkey	-9.53481
▁slim	-9.53579
▁dry	-9.53863
old	-9.54279
▁ears	-9.54281
▁stays	-9.54475
▁ghosts	-9.5452
▁glori	-9.54745
▁hynkel	-9.54768
▁mee	-9.55056
▁messages	-9.55224
▁talked	-9.55318
▁matters	-9.55425
▁turning	-9.55498
▁om	-9.5555
ke	-9.55562
▁holding	-9.55872
▁bomb	-9.55978
▁tee	-9.56351
it	-9.56387
▁computer	-9.56415
▁tramp	-9.56422
▁poison	-9.56499
▁ver	-9.56622
▁pound	-9.56718
▁lawyer	-9.56797
▁smoke	-9.56809
▁shake	-9.56911
▁awake	-9.56911
▁flag	-9.56925
▁senator	-9.56977
▁toward	-9.57025
▁øù	-9.57075
▁stranger	-9.57445
▁tear	-9.5747
▁tall	-9.57512
▁terribl	-9.57716
▁tale	-9.5781
▁direct	-9.5789
▁squeak	-9.57892
▁smooth	-9.57975
▁breath	-9.58012
▁robot	-9.58065
▁usual	-9.58074
▁circumstances	-9.58078
▁magnificent	-9.58078
▁rhythm	-9.58078
▁enemy	-9.58079
▁guidance	-9.58079
▁hobart	-9.5808
▁handsome	-9.5808
▁heinrich	-9.5808
▁celia	-9.5808
▁silence	-9.58081
▁possibly	-9.58083
▁byebye	-9.58083
▁became	-9.58085
▁pleasant	-9.58086
▁dropped	-9.58086
▁heeft	-9.58088
▁flew	-9.58091
▁threw	-9.58094
▁buried	-9.58098
▁whoever	-9.58099
▁woo	-9.58101
▁skies	-9.58102
▁meneer	-9.58104
▁jenny	-9.58107
▁route	-9.58109
▁slide	-9.58117
▁tombo	-9.5812
▁whale	-9.5812
▁skipper	-9.58121
▁to	-9.58121
▁status	-9.58124
▁carrots	-9.58127
▁obviously	-9.5813
▁fantastic	-9.5813
▁bij	-9.58139
▁stickers	-9.58142
▁whatll	-9.58143
▁worst	-9.58162
▁clicks	-9.58204
▁cash	-9.58208
▁kindness	-9.58218
▁arrived	-9.58246
▁whatd	-9.58315
▁oz	-9.58332
▁famous	-9.58337
▁fort	-9.58365
▁chattering	-9.58397
▁sharp	-9.5841
▁noticed	-9.58598
▁class	-9.58628
▁fans	-9.58722
▁swing	-9.58756
▁mim	-9.58896
▁ringing	-9.5894
▁charm	-9.59045
▁board	-9.59062
▁nuts	-9.59078
▁bent	-9.5909
▁fingers	-9.59295
▁pulling	-9.59469
▁male	-9.59675
▁cake	-9.59691
▁fung	-9.5982
▁spit	-9.59928
▁rays	-9.60035
▁begins	-9.60234
is	-9.60339
▁rings	-9.60581
▁ne	-9.60583
▁bay	-9.60713
lly	-9.60837
▁wil	-9.60881
▁ee	-9.61068
▁aha	-9.61149
▁lands	-9.61203
▁snap	-9.61437
▁bath	-9.61532
▁knowing	-9.61702
▁corn	-9.61897
▁due	-9.62488
▁zou	-9.62705
red	-9.62713
ma	-9.62731
▁plans	-9.63015
▁ty	-9.63103
il	-9.63121
▁lt	-9.63319
▁fools	-9.63407
▁boot	-9.63424
▁remind	-9.63669
▁jongen	-9.6396
▁roar	-9.63965
▁wizard	-9.64039
▁peasant	-9.64042
▁club	-9.64083
▁animal	-9.64176
▁slave	-9.64197
▁india	-9.6422
▁mud	-9.64252
▁fur	-9.64316
▁heel	-9.64628
▁smash	-9.64736
▁rever	-9.64759
▁murder	-9.64832
se	-9.64859
▁chatter	-9.64893
▁repeat	-9.64944
▁decide	-9.64953
▁object	-9.64954
▁pony	-9.65131
▁add	-9.65149
▁gentle	-9.65191
▁discuss	-9.65201
▁lips	-9.65204
▁advantage	-9.65221
▁council	-9.65221
▁ebenezer	-9.65221
▁elevator	-9.65221
▁festival	-9.65221
▁guilty	-9.65221
▁medusa	-9.65221
▁precious	-9.65221
▁tobias	-9.65221
▁yzma	-9.65221
▁century	-9.65221
▁rolfe	-9.65222
▁friedrich	-9.65222
▁prissy	-9.65222
▁waternoose	-9.65222
▁thief	-9.65222
▁prepare	-9.65224
▁scoop	-9.65225
▁chorus	-9.65226
▁twelve	-9.65226
▁decision	-9.65227
▁ugly	-9.65227
▁title	-9.65229
▁emergency	-9.6523
▁gently	-9.65231
▁antony	-9.65234
▁lionesses	-9.65234
▁governess	-9.65241
▁haru	-9.65245
▁nope	-9.65247
▁collar	-9.65247
▁innocent	-9.6525
▁brick	-9.65253
▁local	-9.65253
▁precisely	-9.65259
▁jerry	-9.65265
▁whooshes	-9.65268
▁racecar	-9.65269
▁switch	-9.65269
▁closing	-9.65272
▁driving	-9.6528
▁insult	-9.65285
▁chirping	-9.65285
▁package	-9.65297
▁happiness	-9.6531
▁flies	-9.65316
▁sew	-9.65326
▁wise	-9.65326
▁familiar	-9.6535
▁troops	-9.65354
▁hiding	-9.65377
▁concerned	-9.65403
▁gotcha	-9.65419
▁wide	-9.65491
▁cost	-9.65501
▁loving	-9.65549
▁astronauts	-9.65583
▁oops	-9.65584
▁komen	-9.65587
ine	-9.6559
▁cooking	-9.65592
▁farm	-9.65634
▁wa	-9.65659
▁legions	-9.65668
▁dave	-9.6568
▁musical	-9.65686
▁raised	-9.65705
▁pitching	-9.65764
▁saddle	-9.65775
▁grateful	-9.65825
den	-9.65865
▁metal	-9.65881
▁guide	-9.65883
▁burned	-9.6589
▁carefully	-9.65898
▁yea	-9.65963
▁finest	-9.66022
▁scaring	-9.66037
▁blowing	-9.66055
▁wipe	-9.6608
▁skill	-9.66119
▁fixed	-9.66212
▁expected	-9.66244
▁gives	-9.66261
▁wheel	-9.66267
age	-9.66278
▁splash	-9.66365
▁bl	-9.66383
▁danced	-9.66384
▁tears	-9.66388
▁ac	-9.66394
u	-9.6651
▁thick	-9.66569
▁creatures	-9.6661
▁electric	-9.66706
▁dit	-9.66723
▁wire	-9.66971
▁nou	-9.66993
▁picking	-9.67043
▁butt	-9.67253
▁rent	-9.67263
▁band	-9.67449
de	-9.67526
▁leaves	-9.67656
▁bi	-9.67713
▁waar	-9.6774
▁states	-9.67774
▁using	-9.6785
▁buzzing	-9.68211
▁chickens	-9.68274
▁lap	-9.68282
fully	-9.68336
▁cups	-9.68453
▁unit	-9.68493
▁ships	-9.69199
▁bang	-9.69513
▁mum	-9.6955
▁pig	-9.69804
▁stayed	-9.6988
▁liked	-9.69914
▁hans	-9.69985
▁wha	-9.70288
ig	-9.70572
▁feelings	-9.70624
▁sisters	-9.70723
ze	-9.70939
▁tire	-9.71024
▁art	-9.71053
go	-9.71228
hill	-9.7137
▁chan	-9.71564
▁coup	-9.71598
▁dungeon	-9.71621
▁professional	-9.71753
▁experiment	-9.71764
▁noise	-9.71778
▁miracle	-9.71792
▁hornet	-9.71799
▁partner	-9.71863
▁cloud	-9.71882
▁slap	-9.71906
▁stops	-9.71948
▁direction	-9.71961
▁slip	-9.72055
▁bill	-9.72087
ious	-9.7213
▁seed	-9.72185
▁toe	-9.72233
▁zoe	-9.72341
▁bar	-9.72412
▁mile	-9.72451
▁wave	-9.72488
▁blast	-9.72563
▁square	-9.7258
▁austria	-9.726
▁discover	-9.72625
▁buck	-9.72637
▁chase	-9.72667
▁caesars	-9.72715
▁firm	-9.72749
▁not	-9.72855
▁apart	-9.72883
▁tow	-9.7289
▁beneath	-9.72914
▁eglantine	-9.72914
▁holiday	-9.72914
▁kunnen	-9.72914
▁marriage	-9.72914
▁ragsdale	-9.72914
▁security	-9.72914
▁tirzah	-9.72914
▁advice	-9.72914
▁aldrin	-9.72914
▁denahi	-9.72914
▁progress	-9.72914
▁expensive	-9.72914
▁miserable	-9.72914
▁knife	-9.72914
▁arrius	-9.72915
▁colette	-9.72915
▁ordinary	-9.72915
▁among	-9.72915
▁uniform	-9.72915
▁philippe	-9.72916
▁telegram	-9.72917
▁indian	-9.72918
▁dersu	-9.72918
▁pierre	-9.72919
▁society	-9.72925
▁selden	-9.72926
▁puppy	-9.72934
▁necessary	-9.72935
▁dawn	-9.72938
▁woodsman	-9.72939
▁ruth	-9.72941
▁focus	-9.72943
▁beef	-9.72944
▁ranch	-9.72946
▁abbey	-9.72948
▁snoops	-9.72964
▁beach	-9.72965
▁drove	-9.72967
▁howie	-9.72974
▁glory	-9.72975
▁involved	-9.72979
▁flo	-9.7299
▁mister	-9.72999
▁kaart	-9.73021
▁disappeared	-9.73024
▁confirm	-9.73034
▁bianca	-9.73049
▁organism	-9.73049
▁legend	-9.73054
land	-9.73064
▁aim	-9.73089
▁frightened	-9.7309
▁naturally	-9.7311
▁dollars	-9.73137
▁stink	-9.73144
▁sweat	-9.73145
▁toast	-9.73147
▁pressure	-9.73192
▁enter	-9.73213
▁seriously	-9.73248
▁bears	-9.73275
▁safety	-9.73281
▁settled	-9.73325
▁minus	-9.73351
▁cell	-9.73407
▁knees	-9.73461
▁helpless	-9.73484
▁customers	-9.73485
▁flat	-9.73505
▁goose	-9.73533
men	-9.73618
▁sold	-9.73621
▁woods	-9.73654
▁shouts	-9.73658
▁manage	-9.73702
▁jews	-9.73724
▁bones	-9.73741
▁ph	-9.73748
▁proof	-9.73769
▁burning	-9.73883
▁lily	-9.73925
▁helped	-9.73945
▁you	-9.74037
▁uit	-9.74054
▁someones	-9.74202
▁rode	-9.74231
▁vi	-9.74262
▁kick	-9.7427
dy	-9.74392
▁ding	-9.74718
▁hardy	-9.74739
▁springs	-9.74909
▁sub	-9.74941
▁post	-9.74973
▁contract	-9.75277
▁pro	-9.75278
▁flowers	-9.75441
▁lied	-9.75627
▁toys	-9.75863
▁smells	-9.75911
▁weg	-9.76048
▁ch	-9.7634
▁questions	-9.76411
▁ages	-9.7642
▁lads	-9.76584
sitting	-9.76609
▁sp	-9.76786
▁bigge	-9.77003
▁helping	-9.7701
▁rare	-9.77392
▁skin	-9.77441
ill	-9.7751
▁sis	-9.7779
▁sc	-9.77795
▁carol	-9.77852
▁experience	-9.78036
▁that	-9.78119
▁aid	-9.78207
▁score	-9.78597
▁depend	-9.78842
▁ash	-9.79023
▁sweep	-9.79786
▁refuse	-9.79852
▁patient	-9.79984
▁photo	-9.80025
itus	-9.80079
▁border	-9.80109
▁pirate	-9.80113
ta	-9.80124
▁grade	-9.8013
▁ticket	-9.80173
▁feather	-9.80186
▁bolt	-9.80192
▁soldier	-9.80194
▁yankee	-9.80198
▁horn	-9.80261
▁mm	-9.80263
to	-9.80306
▁inc	-9.80369
▁trail	-9.80465
▁pad	-9.80577
ball	-9.80589
▁ro	-9.80738
▁dor	-9.80775
▁release	-9.80917
▁bike	-9.80936
▁letter	-9.80976
▁gather	-9.80977
▁curse	-9.81001
▁intend	-9.81009
im	-9.8102
▁fl	-9.81072
▁mij	-9.81078
▁barn	-9.81142
▁meal	-9.81143
▁livin	-9.81211
▁brilliant	-9.81247
▁cavalier	-9.81247
▁college	-9.81247
▁divine	-9.81247
▁effort	-9.81247
▁equipment	-9.81247
▁hollywood	-9.81247
▁jeremy	-9.81247
▁pumbaa	-9.81247
▁satsuki	-9.81247
▁sergeant	-9.81247
▁stomach	-9.81247
▁codfish	-9.81247
▁chinese	-9.81247
▁starvation	-9.81247
▁zazu	-9.81247
▁nephew	-9.81247
▁sneak	-9.81247
▁berlin	-9.81248
▁kyle	-9.81248
▁suellen	-9.81248
▁hooray	-9.81248
▁zeller	-9.81248
▁mattie	-9.81248
▁jealous	-9.81249
▁radar	-9.8125
▁verify	-9.81251
▁reveal	-9.81258
▁luiz	-9.81259
▁judea	-9.81262
▁beware	-9.81263
▁crawl	-9.81263
▁whimpering	-9.81267
▁excellency	-9.81271
▁soap	-9.81272
▁pacha	-9.81278
▁totem	-9.81283
▁robby	-9.81289
▁tolling	-9.81296
▁giant	-9.81312
▁edge	-9.81334
ge	-9.81343
▁deze	-9.81354
▁winning	-9.81355
▁scoffs	-9.8139
▁bush	-9.81396
▁aboard	-9.814
▁material	-9.8141
▁button	-9.81427
▁pool	-9.81428
▁ahem	-9.81438
▁claim	-9.81477
▁hyenas	-9.81487
▁properly	-9.81518
▁alley	-9.81535
▁miller	-9.81582
▁nights	-9.81597
▁prayers	-9.81607
▁cheat	-9.81625
▁halt	-9.81638
▁roaring	-9.81645
▁herring	-9.81687
▁stealing	-9.81689
▁paw	-9.81842
▁steve	-9.81924
▁hebt	-9.81955
▁string	-9.81971
▁under	-9.81994
▁khan	-9.82004
▁salt	-9.82036
▁flyin	-9.82125
▁hunt	-9.82135
▁babe	-9.82158
▁somethings	-9.82213
▁collect	-9.82234
ten	-9.82273
▁type	-9.82277
▁waited	-9.82339
▁pirates	-9.82343
▁lying	-9.82347
▁flap	-9.82423
head	-9.82443
▁shows	-9.82528
▁winter	-9.82556
▁cab	-9.82597
▁towards	-9.82609
▁tricks	-9.82684
▁dragons	-9.82701
▁carrying	-9.82753
▁hum	-9.8277
▁jou	-9.82784
▁meer	-9.82856
▁unite	-9.82909
▁cast	-9.8292
▁played	-9.83069
ie	-9.83093
▁opens	-9.831
ad	-9.83101
▁odds	-9.83127
▁likes	-9.83324
▁iron	-9.83353
▁sending	-9.83539
▁po	-9.83708
▁romans	-9.83746
▁flea	-9.83769
▁positions	-9.83812
▁che	-9.83968
▁levels	-9.84061
▁paying	-9.84256
▁apple	-9.8432
▁killing	-9.8434
▁devils	-9.84406
▁calls	-9.84418
▁finds	-9.84443
▁tune	-9.8461
▁bow	-9.84653
▁closet	-9.84686
▁row	-9.84929
▁mere	-9.85008
▁com	-9.85143
▁mis	-9.85172
▁here	-9.8544
▁lookin	-9.85943
▁hoe	-9.85967
▁uhh	-9.86059
▁wie	-9.86078
▁tub	-9.86664
▁streets	-9.8689
ur	-9.87223
▁character	-9.87463
ley	-9.87491
day	-9.8753
▁winds	-9.87818
ld	-9.87864
ist	-9.88034
tical	-9.88073
▁consul	-9.88197
ah	-9.8831
▁numbers	-9.88491
bloomin	-9.88717
headed	-9.8877
▁closes	-9.88947
▁account	-9.88964
▁led	-9.89036
▁chick	-9.89052
▁angel	-9.89137
▁mirror	-9.89139
▁credit	-9.89156
▁shape	-9.89181
▁squirrel	-9.89185
▁triumph	-9.89229
▁prisoner	-9.89318
ier	-9.89511
▁tack	-9.89582
▁ye	-9.89601
eedle	-9.89637
we	-9.89684
▁parts	-9.89696
▁chuck	-9.89709
▁conquer	-9.89898
▁breathe	-9.89941
▁file	-9.89972
▁arrest	-9.90027
▁remove	-9.90037
▁require	-9.90054
▁europe	-9.90099
▁schedule	-9.90186
▁han	-9.90199
▁survive	-9.90202
▁announce	-9.90214
▁receive	-9.90219
▁cow	-9.90295
▁si	-9.90303
▁dum	-9.90322
▁alexandria	-9.90338
▁aurora	-9.90338
▁awesome	-9.90338
▁capsule	-9.90338
▁invasion	-9.90338
▁invitation	-9.90338
▁kachow	-9.90338
▁merciful	-9.90338
▁monsieur	-9.90338
▁motocross	-9.90338
▁project	-9.90338
▁stefan	-9.90338
▁wiedersehen	-9.90338
▁evidence	-9.90338
▁hudson	-9.90338
▁negative	-9.90338
▁osono	-9.90338
▁disgrace	-9.90338
▁turkey	-9.90338
▁cobbler	-9.90338
▁gracious	-9.90339
▁hubert	-9.90339
▁government	-9.90339
▁regular	-9.9034
▁ponies	-9.9034
▁carnival	-9.90341
▁thumb	-9.90341
▁esther	-9.90342
▁information	-9.90344
▁prize	-9.90345
▁saturn	-9.90345
▁descent	-9.90346
▁grandpa	-9.90347
▁guido	-9.90347
▁freddy	-9.90349
▁tweedy	-9.90353
▁bessie	-9.90354
▁asleep	-9.90354
▁greek	-9.90356
▁module	-9.90358
▁original	-9.90358
▁samba	-9.90359
▁isis	-9.90364
▁whew	-9.90368
▁intelligent	-9.9037
▁solid	-9.90372
▁stood	-9.90381
▁snake	-9.90381
▁coast	-9.90382
▁darkness	-9.90385
▁horrible	-9.90396
▁sector	-9.90396
▁exhales	-9.90405
▁dramatic	-9.90408
▁foolish	-9.9041
▁amount	-9.90411
▁toeses	-9.90415
▁friendship	-9.90417
▁decent	-9.90428
▁aside	-9.90432
▁chosen	-9.90453
▁definitely	-9.90467
▁niks	-9.90476
▁saving	-9.9048
▁shining	-9.90491
▁hebben	-9.90496
▁positive	-9.90506
▁mail	-9.9051
▁approaching	-9.90532
▁roam	-9.90534
▁romero	-9.9054
▁personally	-9.90544
▁twenty	-9.90549
▁bout	-9.90556
▁slight	-9.9056
▁code	-9.90564
▁hero	-9.90589
▁meows	-9.90642
▁james	-9.90686
▁liar	-9.907
▁degrees	-9.90702
▁blaster	-9.90704
▁slowly	-9.90747
▁warned	-9.9076
▁goodnight	-9.90802
▁regret	-9.90854
▁fallen	-9.90859
berry	-9.909
▁completed	-9.9093
▁escaped	-9.91009
▁manners	-9.9102
▁log	-9.9104
▁swell	-9.91089
ster	-9.9122
▁gate	-9.91384
▁rocket	-9.91393
▁rocky	-9.91398
▁feathers	-9.91518
▁highly	-9.9152
▁create	-9.9154
▁wishes	-9.91647
▁roars	-9.91706
op	-9.91816
▁dreamed	-9.9207
▁øøø	-9.92115
▁ex	-9.92243
bello	-9.92249
▁cone	-9.92258
▁badly	-9.92459
▁cleared	-9.92472
▁ham	-9.92475
ring	-9.92485
cy	-9.92525
▁punch	-9.926
▁frame	-9.92698
▁bat	-9.92764
▁breaking	-9.92767
▁ducks	-9.92819
▁tot	-9.92962
▁coat	-9.93022
▁rate	-9.9306
▁cap	-9.93577
▁thy	-9.93624
▁reports	-9.93759
co	-9.93821
▁hu	-9.9391
▁chap	-9.93957
▁tracks	-9.93959
▁hatch	-9.94005
ton	-9.94108
▁list	-9.94153
▁nee	-9.9418
ship	-9.9466
b	-9.94683
▁leak	-9.94783
▁bu	-9.94799
▁fate	-9.94871
▁spells	-9.95102
one	-9.95145
▁ad	-9.95186
ium	-9.95194
▁steps	-9.95222
▁heading	-9.95239
ational	-9.95463
▁twist	-9.95939
▁lies	-9.96141
▁bone	-9.96762
▁ab	-9.97023
▁troubles	-9.97033
ssie	-9.97127
▁showing	-9.97541
here	-9.97552
▁bobb	-9.9781
lijk	-9.97822
down	-9.9809
▁wound	-9.98154
▁success	-9.98183
ther	-9.98213
▁interest	-9.98274
▁permit	-9.98416
oo	-9.98528
iss	-9.98635
▁concern	-9.98711
▁neigh	-9.98801
how	-9.98993
▁crow	-9.99014
▁cream	-9.99075
ade	-9.99077
▁yell	-9.99166
▁circuit	-9.99178
▁prophet	-9.99179
am	-9.99197
▁bottle	-9.99208
▁alf	-9.99323
▁radiat	-9.99352
▁borrow	-9.99493
▁toad	-9.99493
▁ranger	-9.99565
▁fang	-9.99627
▁tank	-9.99635
▁mooi	-9.99878
▁sport	-9.9988
▁daughters	-9.99963
▁mijn	-10.0006
▁arrive	-10.001
▁correct	-10.0011
▁spare	-10.0014
▁crook	-10.0014
gen	-10.0017
▁spoke	-10.0018
▁introduce	-10.0018
▁physical	-10.0021
▁creep	-10.0022
▁potato	-10.0022
▁satis	-10.0025
▁comfort	-10.0032
▁bernadette	-10.0034
▁centuries	-10.0034
▁cuckoo	-10.0034
▁elephant	-10.0034
▁fabulous	-10.0034
▁fowler	-10.0034
▁iedereen	-10.0034
▁ignition	-10.0034
▁koichi	-10.0034
▁maleficent	-10.0034
▁maneuver	-10.0034
▁monitor	-10.0034
▁peculiar	-10.0034
▁relief	-10.0034
▁roosevelt	-10.0034
▁tallulah	-10.0034
▁unbelievable	-10.0034
▁cbts	-10.0034
▁deputy	-10.0034
▁dietrich	-10.0034
▁empire	-10.0034
▁leavitt	-10.0034
▁ocean	-10.0034
▁audience	-10.0034
▁license	-10.0034
▁trecorum	-10.0034
▁valuable	-10.0034
▁strawberries	-10.0034
▁luigi	-10.0034
▁throttle	-10.0034
▁columbia	-10.0034
▁midnight	-10.0034
▁dreadful	-10.0034
▁mostly	-10.0034
▁choir	-10.0034
▁marvin	-10.0034
▁gretl	-10.0034
▁support	-10.0034
▁foreign	-10.0034
▁seventeen	-10.0034
▁private	-10.0034
▁written	-10.0034
▁bathroom	-10.0034
▁beloved	-10.0034
▁device	-10.0034
▁revolution	-10.0034
▁military	-10.0034
▁balance	-10.0034
▁landmark	-10.0034
▁batteries	-10.0034
▁porch	-10.0035
▁recognize	-10.0035
▁babies	-10.0035
▁countdown	-10.0035
▁altair	-10.0035
▁automat	-10.0036
▁challenge	-10.0036
▁including	-10.0036
▁fbi	-10.0036
▁film	-10.0037
▁anthill	-10.0037
▁cricket	-10.0037
▁quinn	-10.0037
▁groaning	-10.0037
▁treatment	-10.0037
▁ambition	-10.0037
▁enchanted	-10.0037
▁memory	-10.0037
▁study	-10.0038
▁section	-10.0038
▁edel	-10.0039
▁navy	-10.0039
▁freeze	-10.0039
▁doomed	-10.0039
▁grandma	-10.004
▁according	-10.004
▁evinrude	-10.0041
▁piper	-10.0041
▁banished	-10.0044
▁knight	-10.0046
▁applauding	-10.0046
▁delighted	-10.0046
▁process	-10.0047
▁oaks	-10.0049
▁unload	-10.0049
▁mistress	-10.005
▁fuss	-10.005
▁spoken	-10.005
▁ashamed	-10.005
▁fruit	-10.0051
▁distance	-10.0051
▁basket	-10.0051
▁whiskers	-10.0052
▁honking	-10.0052
▁murderer	-10.0052
▁bully	-10.0055
▁writing	-10.0055
▁invited	-10.0057
▁dude	-10.006
▁timon	-10.0062
▁guts	-10.0064
▁growth	-10.0065
▁lamp	-10.0065
▁received	-10.0066
▁growls	-10.007
▁hup	-10.0071
▁murdered	-10.0071
▁pen	-10.0073
▁wee	-10.0073
▁poisoned	-10.0074
▁warriors	-10.0074
▁earn	-10.0075
▁gray	-10.0076
▁curls	-10.008
▁kisses	-10.0084
▁zeg	-10.0084
▁dood	-10.0088
▁witches	-10.0088
▁needle	-10.0089
▁inch	-10.0092
▁mew	-10.0098
▁delivered	-10.0103
▁loan	-10.0108
▁carried	-10.0109
▁loaded	-10.0113
▁lane	-10.0122
▁filled	-10.0123
▁babs	-10.0125
▁substituti	-10.0128
▁lee	-10.013
▁sports	-10.0131
▁safely	-10.0131
▁fairy	-10.014
▁rangers	-10.0144
▁yells	-10.0144
▁ruler	-10.0149
▁beating	-10.0151
▁fo	-10.0154
▁bold	-10.0157
▁ordered	-10.0165
▁doen	-10.0166
▁beau	-10.0166
▁depends	-10.0166
ro	-10.0172
▁locker	-10.0173
▁hood	-10.0175
▁heir	-10.0178
▁melt	-10.018
▁harder	-10.0181
▁data	-10.0186
▁stock	-10.019
▁passing	-10.0192
▁rf	-10.0205
▁pour	-10.021
▁bound	-10.0214
sa	-10.0218
▁pit	-10.0228
▁net	-10.0229
▁younger	-10.0229
ives	-10.0235
▁walls	-10.0237
▁learning	-10.0238
▁nest	-10.0243
▁stuffed	-10.0252
▁shooting	-10.0255
▁dish	-10.0258
▁pt	-10.0274
▁records	-10.0279
▁ken	-10.0279
▁willing	-10.0281
▁shine	-10.0284
▁souls	-10.0287
▁sons	-10.0287
▁meat	-10.0315
▁pieces	-10.032
▁noon	-10.0321
▁everyones	-10.0321
▁career	-10.0321
▁andys	-10.0322
▁birdie	-10.0327
ance	-10.0337
▁players	-10.0351
▁fashion	-10.0363
▁loyal	-10.0363
▁gear	-10.0366
▁all	-10.0368
king	-10.0385
sh	-10.0386
▁pies	-10.0386
▁on	-10.0392
▁the	-10.04
▁tractor	-10.0404
▁bud	-10.0413
▁transfer	-10.0445
▁sleeping	-10.0445
▁machines	-10.0463
▁likely	-10.0465
ra	-10.049
▁ons	-10.0494
▁hoped	-10.0556
▁mc	-10.0558
▁ugh	-10.0573
▁an	-10.0573
▁mann	-10.0574
▁thinkin	-10.061
▁up	-10.0648
▁waters	-10.0655
▁lick	-10.0657
▁starts	-10.0664
▁ways	-10.0671
▁wrap	-10.0673
led	-10.0676
▁whip	-10.0678
▁sire	-10.0692
▁lines	-10.0694
▁hon	-10.0724
ny	-10.0745
house	-10.0757
▁monkeys	-10.0779
ap	-10.0789
▁yesm	-10.0813
▁mag	-10.0837
▁speaks	-10.0855
▁sin	-10.086
me	-10.088
▁hearing	-10.0894
ats	-10.0903
▁sla	-10.0912
▁instant	-10.0925
ak	-10.094
ko	-10.0947
ors	-10.0963
though	-10.0972
▁nobodys	-10.0975
tion	-10.0976
▁shout	-10.0979
▁bon	-10.099
▁complain	-10.0994
▁par	-10.0994
▁moments	-10.1
board	-10.1012
▁treasure	-10.1017
▁kaa	-10.1024
▁brute	-10.1026
▁regard	-10.1026
▁ruin	-10.1026
▁chip	-10.1027
▁chain	-10.1028
▁tony	-10.1033
▁dozen	-10.1035
▁spin	-10.1039
▁chime	-10.1039
▁beside	-10.1045
▁detail	-10.1045
▁laser	-10.1049
▁rug	-10.1051
▁ra	-10.1057
len	-10.1067
▁frighten	-10.1084
▁jew	-10.1085
ving	-10.1101
ical	-10.1104
▁ri	-10.1105
▁bridge	-10.1114
▁guarantee	-10.1116
▁spoil	-10.1117
▁krijg	-10.1119
▁jun	-10.112
▁invite	-10.112
▁singer	-10.1129
▁mode	-10.113
▁scratch	-10.1137
▁ùøø	-10.1137
▁rev	-10.1138
▁motor	-10.1142
ee	-10.1143
▁givin	-10.1143
▁escort	-10.1145
▁advance	-10.1145
▁amsterdam	-10.1145
▁apparently	-10.1145
▁available	-10.1145
▁benhur	-10.1145
▁bertrand	-10.1145
▁champagne	-10.1145
▁filigree	-10.1145
▁grumpy	-10.1145
▁gypsy	-10.1145
▁hofstedder	-10.1145
▁infinity	-10.1145
▁innovative	-10.1145
▁meacham	-10.1145
▁mikayla	-10.1145
▁opportunity	-10.1145
▁otherwise	-10.1145
▁phyllis	-10.1145
▁squeeze	-10.1145
▁tarshish	-10.1145
▁bonjour	-10.1145
▁humbug	-10.1145
▁sheenan	-10.1145
▁adorable	-10.1145
▁neighborhood	-10.1145
▁succeed	-10.1145
▁insane	-10.1145
▁someplace	-10.1145
▁earlier	-10.1145
▁collins	-10.1145
▁terug	-10.1145
▁orbit	-10.1145
▁opposite	-10.1145
▁grammar	-10.1145
▁novak	-10.1145
▁dowry	-10.1145
▁beatrice	-10.1145
▁compassion	-10.1145
▁target	-10.1145
▁googley	-10.1145
▁dickens	-10.1145
▁graham	-10.1145
▁reliable	-10.1145
▁occurred	-10.1145
▁capcom	-10.1145
▁lggins	-10.1145
▁copies	-10.1146
▁duties	-10.1146
▁stossel	-10.1146
▁modern	-10.1146
▁social	-10.1146
▁cruel	-10.1146
▁nuhuh	-10.1146
▁crime	-10.1146
▁dignity	-10.1146
▁liberty	-10.1146
▁pledge	-10.1146
▁simulation	-10.1146
▁digging	-10.1146
▁impressive	-10.1146
▁cheap	-10.1147
▁gutter	-10.1147
▁factory	-10.1147
▁item	-10.1147
▁medal	-10.1147
▁melody	-10.1147
▁mommy	-10.1148
▁pikachu	-10.1148
▁ignore	-10.1148
▁cabin	-10.1149
▁minor	-10.1149
▁protection	-10.1149
▁planning	-10.1149
▁expert	-10.115
▁clanking	-10.115
▁steel	-10.115
▁joking	-10.115
▁whatre	-10.115
▁weave	-10.115
▁iets	-10.1151
▁torn	-10.1151
▁peaceful	-10.1151
▁happily	-10.1151
▁gruber	-10.1151
▁dummy	-10.1152
▁takin	-10.1152
▁sweetie	-10.1152
▁ultimate	-10.1152
▁sonny	-10.1153
▁dandy	-10.1153
▁zelda	-10.1153
▁toch	-10.1153
▁wilson	-10.1154
▁exhausted	-10.1154
▁tells	-10.1154
▁dinnertime	-10.1155
▁universe	-10.1155
▁gaat	-10.1156
▁disappointed	-10.1156
▁humble	-10.1156
▁stairs	-10.1157
▁kiddo	-10.1158
▁inches	-10.1159
▁youth	-10.1159
▁vast	-10.1159
▁assistant	-10.1161
▁dishes	-10.1162
▁broad	-10.1163
▁directly	-10.1165
▁galleys	-10.1165
▁gasping	-10.1167
▁hush	-10.1168
▁ruined	-10.117
▁honorable	-10.1173
and	-10.1174
▁stands	-10.1176
▁fleet	-10.1176
▁neighbors	-10.1178
▁motion	-10.1179
▁foul	-10.1179
▁survived	-10.118
▁matches	-10.1181
▁reasonable	-10.1181
▁whack	-10.1181
▁troopers	-10.1183
▁howdy	-10.1184
▁dick	-10.1185
▁ector	-10.1185
▁june	-10.1186
▁colony	-10.1187
▁wood	-10.1188
▁greed	-10.1193
▁keeping	-10.1199
▁girlfriend	-10.1202
▁earned	-10.1202
▁biological	-10.1204
▁knob	-10.1204
▁quarters	-10.1204
▁stronger	-10.121
▁assume	-10.1212
▁trials	-10.1215
▁nala	-10.1217
▁content	-10.1217
▁latest	-10.122
▁mayor	-10.1228
▁compete	-10.1233
▁allowed	-10.1236
▁flash	-10.1238
▁searched	-10.124
▁testing	-10.1241
▁grant	-10.1244
▁cower	-10.1258
▁behave	-10.1262
▁backyard	-10.1263
▁visiting	-10.1269
▁neighs	-10.127
through	-10.1279
▁lately	-10.128
▁lordy	-10.1283
mans	-10.1289
▁tickets	-10.1293
▁washed	-10.1295
▁centr	-10.1296
▁straighten	-10.13
▁tense	-10.13
▁holy	-10.1304
▁bills	-10.1312
▁tied	-10.1313
▁deck	-10.1314
▁deadly	-10.1314
▁actor	-10.1314
▁gra	-10.1319
▁angle	-10.1322
ss	-10.1323
▁el	-10.1334
▁heh	-10.1336
▁jamie	-10.1339
▁haal	-10.134
▁american	-10.1341
▁jaw	-10.135
▁beautifully	-10.1356
▁friendly	-10.1357
▁romantic	-10.1372
▁faces	-10.1378
▁thee	-10.138
▁bump	-10.1381
▁jokes	-10.1392
▁shadows	-10.1395
▁historic	-10.1397
▁raf	-10.1412
▁ended	-10.1412
▁mac	-10.1426
▁paris	-10.1433
▁growing	-10.1437
▁deed	-10.1441
▁nau	-10.1444
▁throwing	-10.1447
▁scan	-10.1466
▁suits	-10.1471
▁lessons	-10.1501
▁systems	-10.1537
▁thousands	-10.1537
▁heer	-10.1543
▁ki	-10.1548
▁peg	-10.1556
ff	-10.158
▁fond	-10.1595
res	-10.1597
▁pest	-10.1601
▁weed	-10.1606
▁sen	-10.1626
▁fellows	-10.1639
▁useful	-10.1645
▁beer	-10.1646
▁windows	-10.1648
▁worrying	-10.1665
ga	-10.1683
ummy	-10.1701
work	-10.1725
back	-10.1732
▁reasons	-10.1733
▁remembered	-10.174
z	-10.1741
mm	-10.1762
uf	-10.1775
▁meis	-10.1812
ven	-10.1836
▁gene	-10.1844
▁drinks	-10.1846
illa	-10.1851
▁rip	-10.1859
▁sams	-10.1889
ey	-10.1923
▁comment	-10.1944
▁doors	-10.1948
▁brings	-10.1952
▁cancel	-10.1953
▁sw	-10.1985
ides	-10.1988
▁hip	-10.2017
▁voices	-10.2023
tional	-10.2044
▁bid	-10.2047
▁bars	-10.2067
▁america	-10.2077
▁fan	-10.2081
▁cu	-10.2089
▁nucle	-10.209
▁breaks	-10.2091
side	-10.2109
ities	-10.2146
▁ka	-10.2147
▁tim	-10.217
▁swim	-10.2172
ogee	-10.2201
eval	-10.2229
▁hurts	-10.2242
▁southern	-10.2248
▁exist	-10.2253
▁griffin	-10.2266
▁standard	-10.227
▁rainbow	-10.2274
▁clown	-10.2275
▁chocolate	-10.2279
▁whee	-10.2279
▁subject	-10.2283
▁scientist	-10.2284
▁communication	-10.2284
▁grasshopper	-10.2289
▁los	-10.2289
▁hung	-10.23
ard	-10.2304
▁sho	-10.2333
▁greet	-10.2344
obell	-10.2351
▁eens	-10.2352
▁minds	-10.2356
▁tr	-10.2361
▁whisper	-10.2363
een	-10.2365
▁operation	-10.2366
▁observe	-10.2367
▁accus	-10.2367
▁request	-10.2368
▁surround	-10.2368
▁draft	-10.2373
▁activate	-10.2374
▁secure	-10.2376
ons	-10.2381
▁chose	-10.2382
▁prison	-10.2384
▁exact	-10.2384
▁dancer	-10.2385
▁profession	-10.2388
▁thrill	-10.2393
▁slink	-10.2393
▁dessert	-10.2395
▁downstairs	-10.2395
▁duchess	-10.2395
▁example	-10.2395
▁exercise	-10.2395
▁extraordinary	-10.2395
▁footsteps	-10.2395
▁fozziwig	-10.2395
▁hamilton	-10.2395
▁headquarters	-10.2395
▁helicopter	-10.2395
▁jerusalem	-10.2395
▁laundry	-10.2395
▁mademoiselle	-10.2395
▁mexico	-10.2395
▁nevertheless	-10.2395
▁ptolemy	-10.2395
▁rendezvous	-10.2395
▁rhyme	-10.2395
▁roscuro	-10.2395
▁sacrifice	-10.2395
▁scientific	-10.2395
▁sensitive	-10.2395
▁thunderclap	-10.2395
▁tradition	-10.2395
▁tranquility	-10.2395
▁unusual	-10.2395
▁montana	-10.2395
▁victim	-10.2395
▁aldana	-10.2395
▁wealth	-10.2395
▁bargain	-10.2395
▁tanana	-10.2395
▁wisdom	-10.2395
▁pompey	-10.2395
▁rookie	-10.2395
▁squeals	-10.2395
▁concert	-10.2395
▁jessica	-10.2395
▁nigel	-10.2395
▁lorri	-10.2395
▁enormous	-10.2395
▁doublecross	-10.2395
▁sentiment	-10.2395
▁crunch	-10.2395
▁strife	-10.2395
▁disaster	-10.2395
▁presence	-10.2395
▁literally	-10.2395
▁cloak	-10.2395
▁preacher	-10.2395
▁tiara	-10.2395
▁grandfather	-10.2395
▁worries	-10.2395
▁bosun	-10.2395
▁percent	-10.2395
▁altra	-10.2396
▁attend	-10.2396
▁alaska	-10.2396
▁behalf	-10.2396
▁worship	-10.2396
▁altitude	-10.2396
▁alfie	-10.2396
▁locomotion	-10.2396
▁unhappy	-10.2396
▁staff	-10.2396
▁cowboy	-10.2396
▁clumsy	-10.2396
▁afford	-10.2396
▁appearance	-10.2396
▁broadway	-10.2397
▁lumber	-10.2397
▁humming	-10.2397
▁studio	-10.2397
▁spiller	-10.2397
▁confess	-10.2397
▁assure	-10.2397
▁aware	-10.2397
▁technically	-10.2397
▁childhood	-10.2397
▁dropping	-10.2398
▁publicity	-10.2398
▁easily	-10.2399
▁wagon	-10.2399
▁behold	-10.2399
▁nursery	-10.2399
▁selfish	-10.24
▁feast	-10.24
▁receiving	-10.24
▁cattle	-10.24
▁celebrating	-10.24
▁steak	-10.2401
▁responsibility	-10.2402
▁flirting	-10.2402
▁fifty	-10.2402
▁hou	-10.2403
▁squire	-10.2403
▁bride	-10.2404
▁practically	-10.2405
▁confused	-10.2405
▁reward	-10.2406
▁dismissed	-10.2407
▁birth	-10.2407
▁stopping	-10.2408
▁bleeding	-10.241
▁tunnel	-10.2411
▁halfway	-10.2411
▁arranged	-10.2411
▁provide	-10.2413
▁culture	-10.2413
tomed	-10.2414
▁cutting	-10.2414
▁carriage	-10.2415
▁clanging	-10.2416
▁breed	-10.2416
▁arrow	-10.2417
▁witness	-10.2417
▁citizens	-10.2418
▁creepy	-10.2418
▁oars	-10.242
▁hitting	-10.2423
▁parties	-10.2424
▁booth	-10.2425
▁flora	-10.2426
▁tech	-10.2427
traffic	-10.2429
▁smack	-10.2429
▁forth	-10.2429
▁nap	-10.243
▁weight	-10.2432
▁saint	-10.2433
▁forty	-10.2433
▁mill	-10.2433
▁solve	-10.2436
▁movin	-10.2437
eyed	-10.2439
▁borrowing	-10.244
▁dwell	-10.244
▁louder	-10.2443
▁daring	-10.2444
▁juda	-10.2444
▁weapons	-10.2447
▁zien	-10.245
▁changes	-10.2451
vision	-10.2453
▁wi	-10.2461
▁passes	-10.2464
▁boxes	-10.2464
▁covered	-10.2466
▁squeaking	-10.2467
▁thread	-10.2469
▁warning	-10.2474
▁conversations	-10.2476
▁zon	-10.2476
▁killer	-10.2479
▁mistaken	-10.248
▁peas	-10.2482
▁bury	-10.2483
▁rolling	-10.2489
▁realized	-10.2496
▁anger	-10.2498
▁ross	-10.2499
je	-10.2502
▁enjoyed	-10.2503
▁trapped	-10.2511
▁quietly	-10.2517
blijf	-10.2521
▁fail	-10.2521
away	-10.2525
▁counted	-10.2529
▁hac	-10.2531
▁armed	-10.2533
▁trade	-10.2537
▁lend	-10.2538
▁marked	-10.2539
▁crows	-10.2561
▁cable	-10.2561
▁nick	-10.2563
▁toes	-10.2575
▁admira	-10.2582
ure	-10.2587
▁dong	-10.259
▁painting	-10.2594
x	-10.2601
▁rooms	-10.2608
▁manager	-10.2621
▁blocks	-10.2622
▁posts	-10.2629
▁fade	-10.2641
▁ùùø	-10.2648
▁vote	-10.2672
▁gim	-10.2681
▁sample	-10.269
▁bags	-10.2693
ery	-10.2694
ent	-10.2698
▁tu	-10.2699
▁sleepy	-10.27
▁maple	-10.2701
▁spark	-10.2707
▁howl	-10.2708
▁bri	-10.2719
▁officers	-10.2731
▁scot	-10.2731
coming	-10.275
▁dus	-10.2785
▁guards	-10.2785
▁ls	-10.2795
▁idiots	-10.2798
▁bel	-10.2801
▁await	-10.2838
enry	-10.2847
▁mate	-10.2874
▁thin	-10.2874
iler	-10.2878
▁brin	-10.2881
ite	-10.2894
ably	-10.2897
▁ohoh	-10.2902
▁lit	-10.2905
▁scrap	-10.2908
▁image	-10.2921
▁instrumental	-10.2921
▁pr	-10.2923
▁operate	-10.2941
▁ap	-10.295
▁opening	-10.2956
ying	-10.2961
▁ditch	-10.2968
▁towns	-10.2969
▁sayin	-10.2974
▁gr	-10.2997
stone	-10.302
▁pace	-10.3027
ullen	-10.3036
▁greater	-10.3045
ever	-10.307
▁hangs	-10.3081
▁mar	-10.3094
▁au	-10.3125
▁falls	-10.3136
the	-10.3147
face	-10.315
▁flam	-10.3181
▁lover	-10.3187
▁twin	-10.3199
▁understanding	-10.3212
▁maintain	-10.3253
▁ber	-10.329
ated	-10.3316
▁total	-10.3339
ize	-10.3352
▁bull	-10.3355
off	-10.3363
▁goat	-10.3365
▁wit	-10.3365
▁tend	-10.3391
▁pe	-10.3399
use	-10.3432
li	-10.3437
▁fed	-10.3443
v	-10.3446
room	-10.3446
▁dim	-10.3462
▁knee	-10.3471
▁nah	-10.3475
huh	-10.3477
▁sol	-10.3493
als	-10.3505
ii	-10.3506
▁sal	-10.351
yard	-10.3515
▁cuts	-10.3517
▁grave	-10.352
tin	-10.3544
▁wars	-10.3547
ham	-10.356
▁mak	-10.3561
▁zul	-10.3575
▁pu	-10.3577
▁bur	-10.3586
ut	-10.3587
paper	-10.3594
▁jer	-10.3605
▁defend	-10.3618
les	-10.3632
▁can	-10.3635
▁sle	-10.3637
cal	-10.3648
let	-10.3671
▁alexander	-10.3692
▁snack	-10.3693
▁bedroom	-10.3697
▁sl	-10.3703
▁helmet	-10.3704
▁servant	-10.3713
▁bla	-10.3719
▁claw	-10.3722
▁customer	-10.3729
▁farmer	-10.3742
▁manner	-10.3748
▁she	-10.3755
▁sneeze	-10.3758
▁brat	-10.3776
▁dash	-10.3779
▁shock	-10.378
▁gleam	-10.3786
▁attempt	-10.3791
▁resist	-10.3792
▁suspect	-10.3794
▁flatter	-10.3794
▁screw	-10.3794
▁capture	-10.3796
▁fu	-10.3801
▁float	-10.3805
▁tremendous	-10.381
▁practical	-10.3812
▁particular	-10.3812
▁obvious	-10.3812
▁sudden	-10.3813
▁express	-10.3816
▁mmhm	-10.3817
▁dancin	-10.3818
▁replace	-10.3821
zy	-10.3822
▁philip	-10.3823
▁affirmative	-10.3823
▁analysis	-10.3823
▁assault	-10.3823
▁autumn	-10.3823
▁buffalo	-10.3823
▁cetera	-10.3823
▁chandler	-10.3823
▁conflict	-10.3823
▁descend	-10.3823
▁disguise	-10.3823
▁divorce	-10.3823
▁explanation	-10.3823
▁flavius	-10.3823
▁garbage	-10.3823
▁germaine	-10.3823
▁initial	-10.3823
▁interview	-10.3823
▁jaeckel	-10.3823
▁kachicka	-10.3823
▁khalil	-10.3823
▁kurosuke	-10.3823
▁librarian	-10.3823
▁lumiere	-10.3823
▁sandwich	-10.3823
▁satellite	-10.3823
▁shrimp	-10.3823
▁subtitle	-10.3823
▁timothy	-10.3823
▁umbrella	-10.3823
▁understood	-10.3823
▁witchcraft	-10.3823
▁despair	-10.3823
▁grief	-10.3823
▁vendor	-10.3823
▁ostrich	-10.3823
▁savvy	-10.3823
▁structure	-10.3823
▁tampa	-10.3823
▁tulio	-10.3823
▁wrote	-10.3823
▁apologize	-10.3824
▁occupied	-10.3824
▁outfit	-10.3824
▁orphanage	-10.3824
▁praise	-10.3824
▁rufio	-10.3824
▁attitude	-10.3824
▁groove	-10.3824
▁conference	-10.3824
▁mystery	-10.3824
▁christine	-10.3824
▁apology	-10.3824
▁affair	-10.3824
▁inheritance	-10.3824
▁research	-10.3824
▁anxious	-10.3824
▁chamber	-10.3824
▁scramble	-10.3824
▁socalled	-10.3824
▁conclusion	-10.3824
▁fifteen	-10.3824
▁louie	-10.3824
▁racket	-10.3824
▁entrance	-10.3824
▁element	-10.3824
▁widow	-10.3824
▁bracket	-10.3824
▁gorgeous	-10.3824
▁stroke	-10.3824
▁repair	-10.3824
▁achillas	-10.3824
▁niece	-10.3824
▁contrary	-10.3824
▁looney	-10.3824
▁hawkins	-10.3824
▁generous	-10.3824
▁cliff	-10.3824
▁hmph	-10.3824
▁appointment	-10.3824
▁lepers	-10.3824
▁rutt	-10.3824
kuro	-10.3824
▁hurray	-10.3824
▁judgment	-10.3824
▁simpson	-10.3824
▁dutton	-10.3824
▁robertson	-10.3824
▁capital	-10.3824
▁sneezing	-10.3824
▁barber	-10.3824
▁custom	-10.3825
▁entertainment	-10.3825
▁oldfashioned	-10.3825
▁milady	-10.3825
▁susan	-10.3825
▁sheep	-10.3825
▁urgent	-10.3825
▁anytime	-10.3825
▁facility	-10.3825
▁greta	-10.3825
▁marcel	-10.3825
▁unknown	-10.3826
▁flair	-10.3826
▁york	-10.3826
▁foam	-10.3826
▁auto	-10.3826
▁quest	-10.3826
▁monday	-10.3826
▁doorbell	-10.3826
▁whining	-10.3827
▁imagination	-10.3827
▁throne	-10.3827
▁fiddle	-10.3827
▁straw	-10.3827
▁hyah	-10.3827
▁leather	-10.3827
▁purse	-10.3827
▁mmmhmm	-10.3827
▁denk	-10.3827
▁silk	-10.3827
▁socks	-10.3828
▁sunset	-10.3828
▁terminated	-10.3828
▁frown	-10.3828
▁junk	-10.3828
▁malone	-10.3828
▁onto	-10.3828
▁hammer	-10.3828
▁hidden	-10.3828
▁laboratory	-10.3828
▁series	-10.3828
▁smoking	-10.3829
▁cellar	-10.3829
▁bonus	-10.3829
▁creation	-10.3829
▁jeep	-10.383
▁pathetic	-10.383
▁mills	-10.383
▁agreement	-10.383
▁kanta	-10.383
▁rising	-10.3831
▁limb	-10.3831
▁auntie	-10.3831
▁grew	-10.3832
▁heave	-10.3832
▁narrow	-10.3832
▁inspired	-10.3833
belerephon	-10.3833
▁expenses	-10.3833
▁lazy	-10.3833
▁results	-10.3833
▁rhodes	-10.3833
▁generations	-10.3834
▁achter	-10.3835
▁roberta	-10.3835
▁particularly	-10.3835
▁patch	-10.3836
▁recovery	-10.3836
▁cries	-10.3836
▁tegen	-10.3836
▁jess	-10.3837
▁armies	-10.3837
▁propose	-10.3838
▁media	-10.3838
▁cuff	-10.3839
▁bravery	-10.384
▁sequence	-10.3841
▁mixed	-10.3841
▁ladder	-10.3841
▁intention	-10.3841
▁fuel	-10.3843
▁developed	-10.3844
▁juice	-10.3845
▁mankind	-10.3845
▁wolves	-10.3846
▁rumbling	-10.3846
▁impressed	-10.3846
herefore	-10.3847
▁lala	-10.3848
▁thieves	-10.3848
▁howling	-10.3848
▁tijd	-10.3848
▁market	-10.3848
▁flesh	-10.3849
▁risk	-10.3849
▁technicians	-10.385
▁alas	-10.3851
▁jelly	-10.3852
▁stripes	-10.3852
▁former	-10.3853
▁brand	-10.3855
▁profit	-10.3857
▁household	-10.3857
▁grim	-10.3858
▁hur	-10.3859
▁mustard	-10.386
▁passage	-10.386
▁shant	-10.3863
▁booster	-10.3863
▁centre	-10.3864
carbon	-10.3865
▁knuckles	-10.3867
▁designed	-10.3868
▁setting	-10.387
▁chained	-10.3871
▁created	-10.3872
▁refused	-10.3873
▁honestly	-10.3873
▁tender	-10.3874
▁pole	-10.3875
▁cheating	-10.3878
▁glasses	-10.3878
▁brew	-10.3881
▁accounting	-10.3882
▁entirely	-10.3883
▁pudding	-10.3883
▁pur	-10.3884
▁losers	-10.3884
▁berries	-10.3884
▁brooks	-10.3886
▁discovered	-10.3887
▁deny	-10.3888
▁treaty	-10.3888
▁zero	-10.3889
▁changing	-10.389
▁trainers	-10.3893
▁trailer	-10.3894
▁healthy	-10.3895
▁accepted	-10.3895
▁ohhh	-10.3901
▁privileges	-10.3901
▁mood	-10.3902
▁wilt	-10.3903
▁pounding	-10.3903
▁dull	-10.3903
▁treated	-10.3908
▁sensation	-10.391
▁wax	-10.391
▁awaits	-10.3911
▁dresses	-10.3911
▁recorded	-10.3912
▁beeps	-10.3912
▁tele	-10.3912
▁bein	-10.3915
▁hart	-10.3915
▁students	-10.3918
▁destroyed	-10.392
▁pat	-10.3927
▁laid	-10.3928
▁crashing	-10.3931
▁pretending	-10.3934
▁relations	-10.3941
▁ability	-10.3941
▁leven	-10.3944
▁agreed	-10.3944
▁operations	-10.3949
▁clue	-10.3949
▁exists	-10.3952
▁butch	-10.3955
▁beep	-10.3957
▁chains	-10.3959
▁quicker	-10.3963
▁fake	-10.3964
ned	-10.3966
▁photograph	-10.3968
▁ket	-10.3969
▁honk	-10.397
▁pushing	-10.3975
▁clearly	-10.398
▁cl	-10.3981
▁cc	-10.3981
▁driven	-10.3987
▁øøùù	-10.3989
▁slick	-10.3996
▁bond	-10.401
▁turnin	-10.4023
iest	-10.4026
ished	-10.4032
▁pigs	-10.4032
▁letters	-10.4037
▁directions	-10.4038
▁dip	-10.404
▁reporter	-10.4046
▁kissing	-10.4049
▁packing	-10.4049
ens	-10.4051
▁mound	-10.4054
▁starve	-10.4056
▁salute	-10.4057
▁rust	-10.4059
▁splend	-10.4066
▁yah	-10.4074
▁flow	-10.4079
▁trusted	-10.408
▁core	-10.4082
nder	-10.4083
▁celebrate	-10.4086
▁missus	-10.4086
der	-10.409
▁balls	-10.4092
▁shy	-10.4111
▁tales	-10.4118
▁cousins	-10.4118
bs	-10.4121
▁pi	-10.4131
▁den	-10.4134
▁cave	-10.4137
▁cards	-10.4138
▁conditions	-10.414
▁steer	-10.4142
ho	-10.4148
▁colors	-10.4154
▁shower	-10.4154
▁kn	-10.4158
ble	-10.4166
▁tide	-10.4175
▁nail	-10.4187
nd	-10.419
▁pile	-10.4191
of	-10.4193
▁kindly	-10.4198
ki	-10.4199
ings	-10.42
▁effect	-10.422
▁guests	-10.4234
boord	-10.4244
▁notes	-10.4246
▁lip	-10.4251
ia	-10.4252
▁desire	-10.4266
▁ending	-10.4272
▁caused	-10.4289
weet	-10.431
▁landed	-10.4316
▁opened	-10.4316
▁et	-10.4318
io	-10.4335
▁ther	-10.4348
ppy	-10.4375
▁radi	-10.4408
▁fred	-10.4434
os	-10.4436
▁øùøù	-10.4447
nc	-10.445
▁watched	-10.4451
▁tube	-10.4461
dig	-10.4462
▁fame	-10.4468
▁rush	-10.4468
▁camel	-10.4477
▁sta	-10.4479
ome	-10.4499
▁compare	-10.4509
▁stretch	-10.4509
▁rude	-10.4516
▁marks	-10.4527
com	-10.4531
▁pennys	-10.4547
lf	-10.4552
▁cr	-10.4555
▁invade	-10.4576
▁thoughts	-10.4582
▁basic	-10.4594
▁heck	-10.4602
▁dads	-10.4618
▁swin	-10.4623
▁surprises	-10.4646
▁occasion	-10.4655
ise	-10.4659
▁sings	-10.4671
▁øùø	-10.4687
la	-10.4692
▁sever	-10.4711
ew	-10.4714
▁sticks	-10.473
▁approach	-10.4742
chi	-10.4778
▁magical	-10.4778
▁adventures	-10.4797
tle	-10.4797
▁babys	-10.4798
more	-10.4799
▁bits	-10.4813
rine	-10.484
▁tape	-10.4857
▁wretch	-10.4862
ul	-10.487
bit	-10.4874
▁til	-10.4874
all	-10.4884
▁pea	-10.4894
sis	-10.4911
cat	-10.4926
our	-10.495
▁inter	-10.4952
air	-10.4958
▁gl	-10.4959
▁trace	-10.4962
▁candles	-10.4972
▁hoo	-10.4978
emand	-10.4991
▁medi	-10.5005
league	-10.5016
▁zee	-10.5024
▁br	-10.5029
▁rog	-10.504
▁shoe	-10.5054
▁duel	-10.5062
▁siren	-10.5069
▁inf	-10.5071
▁spir	-10.5072
ha	-10.5081
ina	-10.5089
unty	-10.5116
▁ve	-10.5139
▁slam	-10.5146
be	-10.5149
ating	-10.515
place	-10.5153
▁fac	-10.5161
▁bust	-10.5165
ions	-10.5176
▁scrub	-10.5182
▁wo	-10.5183
ùùùø	-10.5186
▁unh	-10.5187
▁zei	-10.5194
▁admir	-10.5198
ac	-10.5201
no	-10.5235
born	-10.5249
▁sigh	-10.5255
▁ellen	-10.527
▁deca	-10.5279
free	-10.529
class	-10.5292
onder	-10.5295
▁hawk	-10.5298
federa	-10.5302
▁houses	-10.5302
ot	-10.5304
▁disappear	-10.5305
you	-10.5307
▁flip	-10.5307
▁lid	-10.5329
▁tis	-10.5351
ay	-10.5357
▁substation	-10.5358
▁director	-10.5365
▁rascal	-10.5369
▁nightmare	-10.5374
▁strip	-10.5375
▁demand	-10.5375
▁watling	-10.5376
▁curtain	-10.5377
▁shutter	-10.5378
▁cheetah	-10.5379
▁folk	-10.538
▁conversation	-10.5381
▁summon	-10.5382
▁student	-10.5382
year	-10.5382
▁mortal	-10.5383
▁taxi	-10.5388
▁trial	-10.5391
▁legion	-10.5392
▁classic	-10.5401
▁kijk	-10.5429
▁longing	-10.5446
▁rod	-10.5451
▁psych	-10.5451
▁mon	-10.5454
▁develop	-10.5459
▁impress	-10.546
▁embarrass	-10.546
▁convince	-10.5462
▁separate	-10.5463
▁breng	-10.5464
line	-10.5467
▁thump	-10.5476
▁rub	-10.5479
▁absolute	-10.5483
▁threat	-10.5484
▁racin	-10.5486
▁pl	-10.5486
▁improve	-10.5487
▁tax	-10.5489
▁cannon	-10.5489
▁adieu	-10.549
▁apollodorus	-10.549
▁astoroth	-10.549
▁atmosphere	-10.549
▁betrothed	-10.549
▁ceremony	-10.549
▁chimney	-10.549
▁conduct	-10.549
▁demonstration	-10.549
▁district	-10.549
▁enemies	-10.549
▁expedition	-10.549
▁fanfare	-10.549
▁garbitsch	-10.549
▁ghetto	-10.549
▁gyarados	-10.549
▁hungarian	-10.549
▁irresistible	-10.549
▁kindergarten	-10.549
▁manchek	-10.549
▁manuscript	-10.549
▁maurice	-10.549
▁mechanism	-10.549
▁nazareth	-10.549
▁nuisance	-10.549
▁scarecrow	-10.549
▁schraeder	-10.549
▁strategy	-10.549
▁surplus	-10.549
▁tragedy	-10.549
▁vlag	-10.549
▁wilkerson	-10.549
▁delicate	-10.549
▁klaar	-10.549
▁evillene	-10.549
▁happiest	-10.549
▁mysterious	-10.549
▁quimby	-10.549
▁rattling	-10.549
▁skumps	-10.549
▁leroy	-10.549
▁interstate	-10.549
▁swift	-10.549
▁toilet	-10.549
▁embrace	-10.549
▁yikes	-10.549
▁carlyle	-10.549
▁cottage	-10.549
▁garlic	-10.549
▁plastic	-10.549
▁violence	-10.549
▁inspiration	-10.549
▁katie	-10.549
▁reputation	-10.549
▁whisky	-10.549
▁cosmo	-10.549
▁instance	-10.549
▁vicious	-10.549
▁lemonade	-10.549
▁dirigible	-10.549
▁drift	-10.549
▁brief	-10.549
▁quincy	-10.549
▁sarah	-10.549
▁shirt	-10.549
▁honeymoon	-10.549
▁banner	-10.549
▁display	-10.549
▁friday	-10.549
▁drapes	-10.549
▁medicine	-10.5491
▁performance	-10.5491
▁plaque	-10.5491
▁ignorant	-10.5491
▁blimey	-10.5491
▁education	-10.5491
▁bakery	-10.5491
▁mexican	-10.5491
▁terrain	-10.5491
▁goldfish	-10.5491
▁species	-10.5491
▁odlayee	-10.5491
▁layeeo	-10.5491
▁lsland	-10.5491
▁copper	-10.5491
▁upside	-10.5491
▁headache	-10.5491
▁surgeon	-10.5491
▁misery	-10.5491
▁meself	-10.5491
▁confound	-10.5491
▁elsewhere	-10.5491
▁vooruit	-10.5491
▁disease	-10.5492
▁prettier	-10.5492
▁wailing	-10.5492
▁liftoff	-10.5492
▁kelly	-10.5492
▁glance	-10.5492
▁motto	-10.5492
▁ferry	-10.5492
▁hitler	-10.5492
▁carpet	-10.5493
▁savage	-10.5493
▁horseshoe	-10.5493
▁contaminated	-10.5493
▁recently	-10.5493
▁recall	-10.5493
▁spaceship	-10.5493
▁paperwork	-10.5494
▁headmaster	-10.5494
▁gravity	-10.5494
▁murmuring	-10.5494
▁cutoff	-10.5494
▁chiu	-10.5495
▁football	-10.5495
▁awhile	-10.5495
▁disgusting	-10.5495
▁plum	-10.5495
▁marcus	-10.5495
▁ahoy	-10.5495
▁hilltop	-10.5495
▁jock	-10.5496
▁territory	-10.5496
▁texan	-10.5496
▁jewish	-10.5496
▁bayou	-10.5497
▁starving	-10.5497
▁shift	-10.5497
▁flock	-10.5498
▁geese	-10.5498
▁engaged	-10.5498
▁sickness	-10.5499
▁value	-10.5499
▁internal	-10.5499
▁apartment	-10.5499
▁gravy	-10.55
▁beaver	-10.55
▁begun	-10.55
▁error	-10.5501
▁reference	-10.5501
▁theater	-10.5501
▁analyze	-10.5501
▁robbie	-10.5502
minded	-10.5502
▁alms	-10.5503
▁taxes	-10.5503
▁determined	-10.5503
▁policeman	-10.5504
▁jazz	-10.5504
▁harry	-10.5504
▁shiny	-10.5505
▁bullet	-10.5505
▁alleluia	-10.5505
▁bloke	-10.5506
▁straining	-10.5506
▁connected	-10.5506
▁makin	-10.5506
▁shrieking	-10.5507
▁purple	-10.5507
▁moonbeam	-10.5507
▁rusty	-10.5508
▁coughs	-10.5508
▁cease	-10.551
▁setup	-10.551
▁potatoes	-10.5511
▁wreck	-10.5512
▁surter	-10.5513
▁author	-10.5513
▁atomi	-10.5514
▁stream	-10.5514
▁tooth	-10.5514
▁sealed	-10.5514
▁shield	-10.5515
▁france	-10.5516
▁geven	-10.5516
▁billion	-10.5516
▁forgetting	-10.5517
▁attractive	-10.5517
▁busted	-10.5518
▁drown	-10.5518
▁convinced	-10.5518
▁praten	-10.5518
▁laydeeodl	-10.5519
▁tada	-10.5519
▁division	-10.552
▁thrilled	-10.552
▁tolls	-10.5521
▁granted	-10.5521
▁riches	-10.5521
▁cda	-10.5521
▁caper	-10.5522
▁provided	-10.5526
▁zorg	-10.5526
▁stable	-10.553
▁drone	-10.553
▁hired	-10.5531
▁crooked	-10.5532
▁tools	-10.5533
teria	-10.5535
▁fireman	-10.5538
▁useless	-10.554
▁oof	-10.554
▁grove	-10.554
▁alike	-10.5542
▁bitter	-10.5543
▁drill	-10.5544
▁legal	-10.5545
▁pigeon	-10.5548
▁dank	-10.5549
▁added	-10.555
▁scent	-10.555
▁backwards	-10.5551
▁blasted	-10.5551
▁dover	-10.5553
▁politic	-10.5553
▁shade	-10.5554
▁owl	-10.5554
▁plank	-10.5558
▁tones	-10.5559
▁schat	-10.556
▁austrian	-10.5562
▁inhale	-10.5564
▁curl	-10.5566
▁frightful	-10.557
▁ranks	-10.5573
▁mount	-10.5573
▁gaan	-10.5576
▁leagues	-10.5579
▁pow	-10.5579
▁dna	-10.5581
▁flowr	-10.5582
▁split	-10.5582
▁boarding	-10.5583
▁cents	-10.5585
▁haha	-10.5586
▁crashed	-10.5587
▁twisty	-10.5588
▁eve	-10.5588
▁bonds	-10.5592
▁honesty	-10.5594
▁clones	-10.5596
▁shore	-10.5597
▁chin	-10.5599
▁cheetahs	-10.5603
▁counter	-10.5603
▁non	-10.5606
▁thus	-10.5611
field	-10.5613
▁glow	-10.5613
▁boom	-10.562
▁hyper	-10.562
▁belonged	-10.5621
▁worn	-10.5621
▁claws	-10.5621
▁rumor	-10.5623
▁servants	-10.5623
▁damned	-10.5623
▁scor	-10.5624
▁fold	-10.5626
▁reaching	-10.5626
▁farmers	-10.5628
▁touches	-10.5629
▁stunt	-10.563
▁manny	-10.563
▁poster	-10.5635
▁soak	-10.5636
▁served	-10.5637
▁scientists	-10.5643
▁communications	-10.5644
▁timing	-10.565
▁hooked	-10.5651
ren	-10.5652
▁goede	-10.5656
▁pants	-10.5659
ailed	-10.566
▁chew	-10.5664
▁proceeding	-10.5664
▁longest	-10.5669
▁scholar	-10.567
▁amuse	-10.5672
▁stag	-10.5678
▁hawke	-10.5685
lousy	-10.5689
▁enjoying	-10.5691
▁reel	-10.5691
▁blink	-10.5705
▁triumphs	-10.5705
▁prisoners	-10.5707
▁reporting	-10.5709
▁waves	-10.5711
▁dew	-10.5712
▁apples	-10.5714
▁buds	-10.5717
▁worthy	-10.5719
▁retire	-10.5722
quality	-10.5726
▁trusty	-10.5727
▁refuses	-10.5729
▁horns	-10.5739
▁any	-10.574
▁indians	-10.5743
▁dame	-10.5749
▁beak	-10.577
▁laps	-10.5772
▁pre	-10.5784
▁pulled	-10.5784
▁senators	-10.5786
▁chop	-10.5795
ress	-10.5797
▁anders	-10.5799
▁strangers	-10.5801
▁marc	-10.5807
tch	-10.581
▁signed	-10.5811
▁keeps	-10.5811
▁touched	-10.5821
▁finding	-10.5837
▁workin	-10.5838
▁banks	-10.5845
▁commission	-10.5857
▁corners	-10.5859
▁moms	-10.5861
▁nut	-10.5862
▁teaching	-10.5864
▁torture	-10.5865
▁successful	-10.5873
▁ag	-10.5876
▁flos	-10.588
▁rolls	-10.5885
▁tastes	-10.5885
▁lack	-10.5886
▁marshals	-10.5888
innies	-10.5894
▁laten	-10.5899
▁returning	-10.5903
▁remains	-10.5908
▁restore	-10.5912
▁catching	-10.5919
▁treats	-10.5922
▁tent	-10.5927
▁grain	-10.5935
▁owner	-10.5942
ame	-10.5944
▁easter	-10.5947
▁checked	-10.5953
▁skinn	-10.5956
netic	-10.5962
▁whistles	-10.5962
▁rank	-10.5964
▁measure	-10.5964
rate	-10.5977
▁jobs	-10.5977
▁sink	-10.5983
▁investigat	-10.599
ps	-10.5992
▁pas	-10.5996
▁phr	-10.6028
▁hen	-10.6036
▁seal	-10.6036
▁mor	-10.6047
▁worker	-10.6071
▁tilling	-10.6073
▁talks	-10.6075
▁interfere	-10.6079
▁wij	-10.6081
▁hog	-10.6082
▁events	-10.6085
roz	-10.6089
▁dealing	-10.6097
▁prime	-10.6104
ag	-10.6115
▁yay	-10.6117
▁fits	-10.6138
▁web	-10.6147
▁guessing	-10.6155
▁charl	-10.6159
▁coin	-10.616
rk	-10.6172
▁produce	-10.6181
▁wordt	-10.6192
fe	-10.6193
▁mig	-10.6236
▁cock	-10.6241
▁micro	-10.6244
lapping	-10.6255
▁sour	-10.6265
▁gal	-10.6271
uine	-10.6279
▁distan	-10.6307
lic	-10.6325
▁ju	-10.6326
elp	-10.6336
▁comb	-10.6336
like	-10.6354
▁suffer	-10.6355
▁slippe	-10.6366
▁chi	-10.6375
▁gen	-10.6376
▁boos	-10.6379
ssy	-10.6384
▁fro	-10.6394
▁bro	-10.6396
rious	-10.6403
▁sat	-10.6403
▁sow	-10.6407
▁hynkels	-10.6417
▁snor	-10.6422
▁anyways	-10.6423
▁fe	-10.6443
▁øøù	-10.6469
▁bee	-10.647
▁insert	-10.6472
▁rear	-10.6482
▁shots	-10.6486
▁site	-10.6495
appears	-10.6521
▁mcqueens	-10.6522
▁what	-10.6527
▁hay	-10.653
▁instrument	-10.6536
▁ere	-10.6546
▁ùùù	-10.6559
ture	-10.6568
▁ble	-10.6572
▁doctors	-10.6584
gal	-10.6602
▁suck	-10.661
▁becomes	-10.6611
▁stu	-10.6622
▁organ	-10.664
▁rely	-10.6647
▁drops	-10.6676
▁don	-10.6683
eth	-10.6721
em	-10.6722
▁advise	-10.6725
▁crystal	-10.6735
▁bowl	-10.674
ck	-10.6745
▁crust	-10.6746
▁suns	-10.6763
ory	-10.6769
▁ram	-10.678
tten	-10.6789
▁print	-10.6801
visible	-10.6806
ber	-10.6849
tic	-10.6851
▁hates	-10.6852
tting	-10.6861
aaah	-10.6867
▁chat	-10.6905
▁col	-10.6906
▁wor	-10.6913
ase	-10.6916
▁rob	-10.6977
▁cor	-10.6981
▁shin	-10.6994
cha	-10.7008
he	-10.7021
entry	-10.7042
▁baa	-10.7054
life	-10.7079
▁grip	-10.7083
friend	-10.7093
▁bum	-10.7093
rawny	-10.7094
▁wes	-10.7103
▁lun	-10.7112
▁schools	-10.7116
neously	-10.712
▁considerabl	-10.714
▁design	-10.7154
▁prices	-10.7161
▁ni	-10.7165
▁odlay	-10.7176
ello	-10.7192
▁seldo	-10.7202
ern	-10.7203
made	-10.7207
nce	-10.7211
▁muff	-10.7223
▁kinds	-10.7223
foot	-10.7238
book	-10.725
▁cts	-10.7252
▁frog	-10.7256
▁strap	-10.7258
proof	-10.7259
▁hel	-10.728
wall	-10.7287
eek	-10.729
▁mob	-10.7304
▁era	-10.7316
▁will	-10.7316
▁disturb	-10.7327
▁jol	-10.7332
▁grunt	-10.7337
▁talent	-10.7356
▁remark	-10.7359
eko	-10.7361
▁gasp	-10.7361
▁skip	-10.7365
▁incident	-10.7366
▁bucket	-10.7368
▁emba	-10.7369
▁banana	-10.7369
▁ribbon	-10.7374
▁volunteer	-10.7377
▁instinct	-10.7377
▁spider	-10.7378
▁nerve	-10.7379
▁privilege	-10.738
▁x	-10.738
▁astronaut	-10.7383
▁sometime	-10.7383
elling	-10.7385
▁quarter	-10.7393
▁glove	-10.741
lights	-10.7413
▁model	-10.7417
po	-10.742
law	-10.7427
▁inform	-10.7438
▁perform	-10.7438
▁haunt	-10.7442
▁blossom	-10.7447
sen	-10.7451
bed	-10.7454
▁screech	-10.7458
▁clang	-10.746
▁villa	-10.7461
▁arrange	-10.7461
▁interrupt	-10.7462
▁approve	-10.7462
▁surf	-10.7472
▁punish	-10.7473
▁robert	-10.7473
▁delight	-10.7477
▁yahoo	-10.7477
▁mix	-10.7478
ken	-10.7479
▁precise	-10.7479
▁grub	-10.748
▁erro	-10.7483
▁germ	-10.7483
elcom	-10.7484
▁joyful	-10.7484
▁anker	-10.7485
▁fittin	-10.7485
▁runnin	-10.7485
▁squaw	-10.7487
▁entertain	-10.7489
▁shinin	-10.7489
▁kidnap	-10.749
▁abominable	-10.749
▁academy	-10.749
▁achieve	-10.749
▁approval	-10.749
▁arthur	-10.749
▁autopsy	-10.749
▁avoid	-10.749
▁awkward	-10.749
▁ballpark	-10.749
▁balthasar	-10.749
▁barbecue	-10.749
▁bemanning	-10.749
▁bermuda	-10.749
▁bruzzie	-10.749
▁buccaneer	-10.749
▁campaign	-10.749
▁charizard	-10.749
▁cogsworth	-10.749
▁competitive	-10.749
▁contraption	-10.749
▁corridor	-10.749
▁discipline	-10.749
▁dummies	-10.749
▁epstein	-10.749
▁eynsfordhill	-10.749
▁fernando	-10.749
▁ferrari	-10.749
▁furlough	-10.749
▁ghastly	-10.749
▁hydrogen	-10.749
▁influence	-10.749
▁ludwig	-10.749
▁masseur	-10.749
▁merchant	-10.749
▁minnesota	-10.749
▁miriam	-10.749
▁mithradates	-10.749
▁muzzle	-10.749
▁naboombu	-10.749
▁olivia	-10.749
▁orchestra	-10.749
▁patience	-10.749
▁peddler	-10.749
▁pedigree	-10.749
▁perfume	-10.749
▁pothinus	-10.749
▁practicing	-10.749
▁precies	-10.749
▁prospect	-10.749
▁razor	-10.749
▁recollect	-10.749
▁scissors	-10.749
▁snowflake	-10.749
▁spanish	-10.749
▁spectacular	-10.749
▁spectators	-10.749
▁subconscious	-10.749
▁tuesday	-10.749
▁tweettweet	-10.749
▁umpire	-10.749
▁underneath	-10.749
▁unprepared	-10.749
▁velocity	-10.749
▁vengeance	-10.749
▁vienna	-10.749
▁volume	-10.749
▁voyage	-10.749
▁antenna	-10.749
▁competition	-10.749
▁hazard	-10.749
▁immune	-10.749
▁mysteries	-10.749
▁remote	-10.749
▁squealing	-10.749
▁symbol	-10.749
▁twippo	-10.749
▁cigarette	-10.749
▁piano	-10.749
▁akita	-10.749
▁athens	-10.749
▁cotton	-10.749
▁fierce	-10.749
▁paradise	-10.749
▁residence	-10.749
▁rusteze	-10.749
▁virginia	-10.749
▁behavior	-10.749
▁canyon	-10.749
▁gossip	-10.749
▁happier	-10.749
▁opinion	-10.749
▁intercept	-10.749
▁advisor	-10.749
▁current	-10.749
▁terror	-10.749
▁swept	-10.749
▁breeze	-10.749
▁chivalry	-10.749
▁stadium	-10.749
▁margaretta	-10.749
▁italy	-10.749
▁period	-10.749
▁rifle	-10.749
▁saloon	-10.749
▁transmission	-10.749
▁yipe	-10.749
▁formula	-10.749
▁inferior	-10.749
▁vanavond	-10.749
▁eager	-10.749
▁chariot	-10.749
▁departure	-10.749
▁cradle	-10.749
▁broomstick	-10.749
▁despise	-10.749
▁intense	-10.749
▁destination	-10.7491
▁brazil	-10.7491
▁goatherd	-10.7491
▁bodies	-10.7491
▁ellie	-10.7491
▁satisfied	-10.7491
▁polite	-10.7491
▁shelter	-10.7491
▁merryweather	-10.7491
▁branch	-10.7491
▁pupil	-10.7491
▁kidnapping	-10.7491
▁gym	-10.7491
▁strawberry	-10.7491
▁pilot	-10.7491
▁celebration	-10.7491
▁shortcut	-10.7491
▁grandchildren	-10.7491
▁har	-10.7491
▁haircut	-10.7491
▁zeggen	-10.7491
▁horsepower	-10.7491
▁washington	-10.7491
▁length	-10.7491
▁fauna	-10.7491
▁preserve	-10.7491
▁hampshire	-10.7491
▁hurricane	-10.7491
▁garage	-10.7491
▁fulfill	-10.7491
▁iq	-10.7491
▁sworn	-10.7491
▁autograph	-10.7491
▁delightful	-10.7491
▁eleven	-10.7491
▁irish	-10.7491
enoid	-10.7491
▁harmony	-10.7491
▁coils	-10.7491
▁puddle	-10.7492
▁coordinate	-10.7492
▁juliet	-10.7492
▁spinning	-10.7492
▁vulture	-10.7492
▁online	-10.7492
▁shelf	-10.7492
▁mermaid	-10.7492
▁unwind	-10.7492
▁vind	-10.7492
▁lungs	-10.7492
▁committee	-10.7492
▁impression	-10.7492
▁vechten	-10.7492
▁lndia	-10.7492
▁lyyal	-10.7492
▁frequency	-10.7493
▁rotten	-10.7493
▁schieten	-10.7493
▁rebel	-10.7493
▁balloon	-10.7493
▁hynky	-10.7493
▁laydeeodlay	-10.7493
▁explosive	-10.7493
▁declare	-10.7493
▁speakeasy	-10.7493
▁habitat	-10.7493
▁loony	-10.7493
▁arena	-10.7493
▁freak	-10.7493
▁begged	-10.7493
▁complicated	-10.7494
▁rosie	-10.7494
▁buggy	-10.7494
▁cupboard	-10.7494
▁allema	-10.7494
▁unkind	-10.7494
▁daresay	-10.7495
▁drank	-10.7495
▁statue	-10.7495
▁principal	-10.7495
▁radiation	-10.7495
▁authority	-10.7495
▁poem	-10.7496
▁creaking	-10.7496
manship	-10.7496
▁selected	-10.7496
▁limit	-10.7497
▁rubber	-10.7497
▁wachten	-10.7497
▁tasty	-10.7497
▁dizzy	-10.7497
▁equally	-10.7497
▁soso	-10.7497
▁violin	-10.7497
▁recover	-10.7498
▁strict	-10.7498
▁teasing	-10.7498
inore	-10.7498
▁bacon	-10.7498
▁blend	-10.7498
▁genoeg	-10.7498
▁admitted	-10.7498
▁blake	-10.7499
▁popular	-10.7499
▁puny	-10.7499
▁pork	-10.7499
▁zeker	-10.75
▁shovel	-10.75
▁nero	-10.75
▁expression	-10.7502
▁fought	-10.7502
▁confident	-10.7502
▁chef	-10.7503
▁molest	-10.7503
▁deaf	-10.7503
▁oven	-10.7504
▁clicking	-10.7504
▁rattles	-10.7504
▁squad	-10.7504
▁williams	-10.7505
▁larry	-10.7505
▁phony	-10.7505
▁losin	-10.7506
▁whimpers	-10.7507
▁zeeman	-10.7508
▁mannen	-10.7508
▁borrowers	-10.7509
▁tread	-10.7511
▁humanity	-10.7511
▁soil	-10.7511
▁logical	-10.7512
▁halen	-10.7513
▁emmie	-10.7513
your	-10.7513
▁reaction	-10.7513
▁daylight	-10.7514
▁instantly	-10.7514
▁wandering	-10.7515
▁sixty	-10.7515
hearted	-10.7516
▁correctly	-10.7516
▁punished	-10.7517
▁couch	-10.7517
▁stil	-10.7517
▁wiring	-10.7518
▁disturbed	-10.7518
▁approved	-10.7518
▁performed	-10.7518
▁mooing	-10.7518
▁potent	-10.7519
justice	-10.7519
▁liever	-10.752
▁matey	-10.7521
▁threaten	-10.7521
▁scope	-10.7522
▁believing	-10.7523
▁separated	-10.7523
▁neem	-10.7525
▁colts	-10.7527
▁caesarion	-10.7527
▁liqu	-10.7527
▁loyalty	-10.7527
▁pluck	-10.7528
▁mcalesters	-10.7529
▁controllers	-10.753
▁rally	-10.753
▁jove	-10.7531
▁youngsters	-10.7531
▁captured	-10.7531
▁accused	-10.7531
▁shocked	-10.7532
▁beeping	-10.7534
▁pouring	-10.7534
▁bait	-10.7535
▁requested	-10.7535
▁surrounded	-10.7535
▁failed	-10.7536
▁anchor	-10.7536
▁agh	-10.7538
▁scraping	-10.7539
▁krijgt	-10.7539
▁modest	-10.754
▁declared	-10.754
reign	-10.7541
▁betray	-10.7541
▁dashing	-10.7542
▁vice	-10.7542
▁heartless	-10.7543
▁guaranteed	-10.7544
▁lui	-10.7546
ctus	-10.7547
▁stiff	-10.7547
▁staat	-10.7548
▁significant	-10.7548
▁cam	-10.7549
ov	-10.7549
▁critic	-10.7549
▁constant	-10.7552
▁conquered	-10.7553
▁smarter	-10.7553
▁passengers	-10.7554
▁crocodiles	-10.7554
▁inventions	-10.7555
▁habit	-10.7556
▁required	-10.7557
▁beans	-10.7558
▁wearin	-10.7558
▁bored	-10.756
▁frightening	-10.756
▁stolen	-10.7561
▁thoughtful	-10.7565
▁sec	-10.7568
▁careless	-10.7569
▁stamp	-10.757
▁cooked	-10.7572
▁sheets	-10.7574
▁trumpets	-10.7574
▁scarers	-10.7574
▁brakes	-10.7577
▁patterns	-10.7579
▁sewing	-10.7579
▁woord	-10.758
▁menu	-10.7582
ied	-10.7584
▁qu	-10.7585
▁tricked	-10.7585
▁chemistry	-10.7588
▁bunk	-10.7588
▁scheduled	-10.759
▁lifetime	-10.7591
▁jessie	-10.7592
▁deliberate	-10.7594
▁gloves	-10.7595
▁shortly	-10.7599
▁difficulty	-10.7601
▁sailing	-10.7603
▁warmer	-10.7605
▁instincts	-10.7605
▁volunteers	-10.7605
▁spiders	-10.7605
▁tearing	-10.7612
shot	-10.762
▁reached	-10.7621
hood	-10.7624
▁luke	-10.7626
▁summons	-10.7626
▁sack	-10.7627
▁bothered	-10.7628
▁meantime	-10.7629
▁shave	-10.763
▁curtains	-10.763
uke	-10.7632
▁painted	-10.7632
▁racers	-10.7638
▁gain	-10.7639
▁appreciated	-10.7644
▁protecting	-10.7654
▁slaps	-10.766
▁samples	-10.7663
▁brush	-10.7673
rich	-10.7675
▁hunger	-10.7677
▁subjects	-10.7678
▁attacked	-10.7679
▁drawing	-10.7687
▁racer	-10.769
▁off	-10.7691
▁raid	-10.7692
▁smaller	-10.7696
▁americans	-10.7697
▁marching	-10.7698
▁jehos	-10.7699
▁mala	-10.7699
▁messed	-10.7702
▁fangs	-10.7703
▁leaders	-10.7704
▁lasers	-10.7705
▁dozens	-10.7705
any	-10.7706
▁closely	-10.7707
▁lifted	-10.7709
▁permits	-10.7711
▁sung	-10.7715
▁merit	-10.7721
▁tanks	-10.7722
▁alan	-10.7736
▁encourage	-10.774
▁attacking	-10.7743
▁els	-10.7744
▁selling	-10.7748
▁rains	-10.7751
▁romeo	-10.7751
▁victoria	-10.7754
▁trained	-10.7757
▁angels	-10.7758
▁quint	-10.7759
uw	-10.776
▁hm	-10.7761
▁jumping	-10.7763
▁cows	-10.7764
▁bolts	-10.7774
▁chicks	-10.7781
▁patients	-10.7781
▁wring	-10.7784
▁units	-10.7787
▁touchy	-10.7788
▁drug	-10.7802
▁miracles	-10.7808
▁cleaning	-10.781
▁oppose	-10.7815
▁sounded	-10.782
▁questioning	-10.7825
▁pond	-10.7826
▁slaves	-10.7827
▁chum	-10.7833
▁instruct	-10.7834
▁reminds	-10.7835
▁increase	-10.7835
▁princesses	-10.7837
▁gap	-10.784
▁tragic	-10.7854
▁rates	-10.7859
▁boxer	-10.7864
▁bombs	-10.7864
▁intern	-10.7871
▁dared	-10.7872
▁necks	-10.7876
▁belly	-10.7877
▁am	-10.7883
▁natures	-10.7896
▁leap	-10.7902
met	-10.7902
fied	-10.7905
▁prey	-10.791
▁deserves	-10.7913
ile	-10.7922
▁diamonds	-10.7935
▁languages	-10.7935
▁andromedas	-10.7935
▁reform	-10.7937
ence	-10.7942
▁traps	-10.7945
▁jean	-10.795
▁signing	-10.7967
▁wist	-10.7972
obeyed	-10.7976
pped	-10.7987
▁signals	-10.7988
▁golly	-10.7996
▁dictate	-10.8008
▁sca	-10.8009
▁ideal	-10.8014
tig	-10.8015
ooey	-10.8017
▁batt	-10.8017
▁lone	-10.8029
▁tests	-10.804
uh	-10.804
stern	-10.8041
cation	-10.8042
its	-10.8048
▁bases	-10.8049
▁faithful	-10.8052
▁fears	-10.8056
contained	-10.806
▁boost	-10.8078
ator	-10.809
▁cheerful	-10.8098
▁pla	-10.8099
▁raining	-10.8105
▁movies	-10.8116
ess	-10.8131
▁asks	-10.8151
ù	-10.8151
▁feeds	-10.8157
▁val	-10.816
▁shack	-10.8162
▁tighten	-10.8162
▁gown	-10.8163
▁budge	-10.8165
▁tremble	-10.8173
▁holes	-10.8175
▁delay	-10.818
ual	-10.8191
▁member	-10.8191
▁hurting	-10.8191
▁anti	-10.8192
▁brawn	-10.8198
▁finer	-10.8198
▁zie	-10.8198
ba	-10.82
▁planes	-10.8224
ipped	-10.8245
▁teen	-10.8255
elijk	-10.8268
▁blessing	-10.8269
▁sex	-10.8279
▁lean	-10.8292
▁kans	-10.8298
aria	-10.8298
▁resting	-10.8314
▁bites	-10.8316
▁cancell	-10.8321
what	-10.8327
wa	-10.8333
▁gar	-10.8334
▁fore	-10.8335
▁down	-10.8376
▁øùøø	-10.8387
▁dedicate	-10.8391
▁husbands	-10.8392
▁spa	-10.8397
ping	-10.84
▁tre	-10.8418
▁wins	-10.8422
izzy	-10.8422
▁tellin	-10.843
▁burns	-10.8432
light	-10.8436
▁cul	-10.8439
just	-10.8443
rely	-10.8448
sticks	-10.8452
▁tuck	-10.8452
ake	-10.8458
▁mistakes	-10.8459
▁bras	-10.8462
if	-10.8468
▁chest	-10.847
art	-10.8475
▁quart	-10.8484
▁mop	-10.8487
▁gifts	-10.8488
ack	-10.85
▁loss	-10.8522
▁ùùùù	-10.8542
ered	-10.8545
trophy	-10.8554
ook	-10.8567
▁gu	-10.8581
▁wimp	-10.8589
▁presents	-10.8608
jacket	-10.8608
▁smiles	-10.8626
ped	-10.8641
▁litter	-10.865
ca	-10.8656
que	-10.8657
▁bend	-10.8663
nows	-10.8672
▁dump	-10.8713
▁superst	-10.8727
ere	-10.874
▁cathe	-10.8742
▁tin	-10.8744
▁mass	-10.8752
▁phones	-10.8769
▁fir	-10.8773
▁wal	-10.8781
▁pers	-10.8788
ittering	-10.8795
▁cad	-10.8804
▁ùøù	-10.8817
▁stare	-10.8822
port	-10.8824
med	-10.8836
▁hopes	-10.8844
▁sm	-10.8845
▁havin	-10.8857
get	-10.8883
▁ko	-10.889
mission	-10.8895
▁plot	-10.8907
▁imperi	-10.8917
▁caring	-10.892
▁secrets	-10.892
▁goud	-10.8924
▁famili	-10.8946
ark	-10.8947
▁dinosaur	-10.8951
thin	-10.8987
ijf	-10.8997
▁honors	-10.9004
▁ave	-10.9004
eater	-10.9005
▁signs	-10.9016
sure	-10.9018
▁mmmmmm	-10.9021
pi	-10.9049
▁il	-10.9064
▁brit	-10.907
▁cate	-10.9077
ms	-10.9082
▁bert	-10.9089
▁wherea	-10.9094
▁flyer	-10.9101
mp	-10.9104
ka	-10.911
▁medica	-10.9132
▁para	-10.9154
addle	-10.9162
▁bra	-10.9169
▁tip	-10.9172
▁madame	-10.9177
▁su	-10.9179
▁seein	-10.919
think	-10.9208
▁sittin	-10.9214
come	-10.9229
▁members	-10.9239
▁ùøùø	-10.9261
ddling	-10.9263
▁provinc	-10.9267
des	-10.9272
hhh	-10.9303
▁harv	-10.9306
▁specials	-10.931
▁slop	-10.9337
▁cough	-10.937
▁harness	-10.9407
▁øùùù	-10.9454
mate	-10.9466
ashi	-10.9486
ir	-10.9488
tled	-10.949
rail	-10.9495
▁brag	-10.9499
otte	-10.9502
▁why	-10.9505
▁zap	-10.9517
▁stew	-10.9523
▁bal	-10.9527
▁flu	-10.9531
▁blues	-10.9553
▁por	-10.9556
nes	-10.9558
coat	-10.956
phone	-10.956
heap	-10.9565
girl	-10.9573
around	-10.9576
▁cart	-10.9581
mal	-10.9591
ds	-10.9601
ghost	-10.9604
burg	-10.9606
af	-10.9611
▁yyou	-10.9636
mus	-10.9642
▁ooo	-10.9649
su	-10.9666
▁cos	-10.9671
▁gall	-10.9672
joy	-10.9674
job	-10.9675
water	-10.9676
llen	-10.9677
maker	-10.9678
some	-10.9681
▁mustang	-10.9681
▁holds	-10.9691
ind	-10.9696
human	-10.9696
skull	-10.974
▁checks	-10.9749
wise	-10.9749
bridge	-10.9754
school	-10.9757
sp	-10.9758
grateful	-10.9762
trash	-10.9766
▁astro	-10.9775
▁smil	-10.9777
▁if	-10.9779
gum	-10.9782
ability	-10.979
urt	-10.98
piece	-10.9801
snip	-10.9803
gu	-10.9806
▁øøùø	-10.9811
aphat	-10.9817
drops	-10.9817
chan	-10.9841
hem	-10.9842
▁affection	-10.9849
▁source	-10.9857
▁temperature	-10.9857
▁compliment	-10.9868
▁benefit	-10.9868
▁muscle	-10.9869
▁region	-10.987
▁criminal	-10.9874
▁turtle	-10.9875
▁injun	-10.9875
▁employee	-10.9876
ked	-10.9876
▁pattern	-10.9878
▁acid	-10.9879
▁weapon	-10.988
russia	-10.9881
▁warrior	-10.9882
▁degree	-10.9882
dden	-10.9884
ls	-10.9884
▁ke	-10.989
ology	-10.9894
oude	-10.9901
▁whi	-10.9901
▁exception	-10.9902
▁sheet	-10.9904
▁disappoint	-10.9912
▁hob	-10.9912
▁flame	-10.9917
▁easie	-10.9922
ves	-10.9924
▁declar	-10.9925
ville	-10.9928
ik	-10.9929
▁brake	-10.9932
▁fianc	-10.994
▁mmmmm	-10.9945
▁pip	-10.9948
▁prayer	-10.995
▁incredibl	-10.9951
▁combine	-10.9958
▁applaud	-10.9958
▁defeat	-10.9959
ward	-10.9959
▁crush	-10.996
▁dismiss	-10.9965
▁burst	-10.9969
regu	-10.997
▁atlant	-10.9975
▁spook	-10.9976
▁recommend	-10.9979
▁geld	-10.998
▁vriend	-10.9981
▁adjust	-10.9981
▁prick	-10.9983
▁addition	-10.9983
while	-10.9983
▁cruise	-10.9983
▁lightnin	-10.9983
▁spittin	-10.9984
▁affect	-10.9988
▁concentrat	-10.9989
▁frau	-10.9989
▁occur	-10.9989
▁stubborn	-10.9989
ngrid	-10.9989
▁baghee	-10.999
▁liza	-10.999
▁intellect	-10.999
▁butbut	-10.999
▁favour	-10.999
▁africa	-10.999
▁amateur	-10.999
▁ambassador	-10.999
▁ancestors	-10.999
▁antioch	-10.999
▁appropriate	-10.999
▁approximately	-10.999
▁artillery	-10.999
▁asparagus	-10.999
▁attorney	-10.999
▁avenue	-10.999
▁bachelor	-10.999
▁balcony	-10.999
▁bashful	-10.999
▁bathtub	-10.999
▁binnen	-10.999
▁blackguard	-10.999
▁brunettes	-10.999
▁capacity	-10.999
▁cobweb	-10.999
▁combination	-10.999
▁community	-10.999
▁condemn	-10.999
▁curiosity	-10.999
▁daffodil	-10.999
▁damascus	-10.999
▁dialects	-10.999
▁dynamite	-10.999
▁enslave	-10.999
▁ferocious	-10.999
▁galaxy	-10.999
▁gesundheit	-10.999
▁griffiths	-10.999
▁hologram	-10.999
▁jaguars	-10.999
▁jettison	-10.999
▁karpathy	-10.999
▁kuzcotopia	-10.999
▁lincoln	-10.999
▁maatje	-10.999
▁merriwether	-10.999
▁mortgage	-10.999
▁nitwit	-10.999
▁nowadays	-10.999
▁octavian	-10.999
▁olentiev	-10.999
▁paranoid	-10.999
▁perimeter	-10.999
▁phenomenon	-10.999
▁pingpong	-10.999
▁porcupine	-10.999
▁postpone	-10.999
▁procedure	-10.999
▁restaurant	-10.999
▁revolver	-10.999
▁rheinburg	-10.999
▁righteousness	-10.999
▁salzburg	-10.999
▁saturday	-10.999
▁scheepsmakkers	-10.999
▁schmidt	-10.999
▁smollett	-10.999
▁souvenir	-10.999
▁surveillance	-10.999
▁suspicious	-10.999
▁telemetry	-10.999
▁unexpected	-10.999
▁unpleasant	-10.999
▁veiligheid	-10.999
▁welfare	-10.999
▁willothewisp	-10.999
▁withdraw	-10.999
equipped	-10.999
▁fountain	-10.999
▁francois	-10.999
▁joseph	-10.999
▁oregon	-10.999
▁participate	-10.999
▁rattlesnake	-10.999
▁schmoopsiepoo	-10.999
▁shudder	-10.999
▁sneads	-10.999
▁sponsor	-10.999
▁ahchoo	-10.999
▁alphabet	-10.999
▁ammunition	-10.999
▁ceiling	-10.999
▁civilization	-10.999
▁december	-10.999
▁emerald	-10.999
▁intrude	-10.999
▁poetry	-10.999
▁revenge	-10.999
▁undeservin	-10.999
▁democra	-10.999
▁dentist	-10.999
▁mwah	-10.999
▁skunk	-10.999
▁wilderness	-10.999
▁wristwatch	-10.999
▁commence	-10.999
▁disagree	-10.999
▁hoodlum	-10.999
▁warthog	-10.999
▁antiquities	-10.999
▁neutr	-10.999
▁routine	-10.999
▁weasel	-10.999
▁npdvindoheroes	-10.999
▁viscount	-10.999
▁acidosis	-10.999
▁butterfly	-10.999
▁downrange	-10.999
▁pumpkin	-10.999
▁policy	-10.999
▁somewhat	-10.999
▁crisis	-10.999
▁parlor	-10.999
▁pedro	-10.999
▁poultry	-10.999
▁gibberish	-10.999
▁lefou	-10.999
▁refresh	-10.999
▁antares	-10.999
▁slumber	-10.999
▁southwest	-10.999
▁adult	-10.999
▁almighty	-10.999
▁grocer	-10.999
▁barbershop	-10.999
▁eerlijk	-10.999
▁independent	-10.999
▁resume	-10.999
▁venture	-10.999
▁pawprint	-10.999
▁shrink	-10.999
▁widowmaker	-10.999
▁intellectual	-10.999
▁aroma	-10.999
▁transport	-10.999
▁initiate	-10.999
▁enchantment	-10.999
▁eventually	-10.999
▁exotic	-10.999
▁quacking	-10.999
▁kidnapped	-10.999
▁pavement	-10.999
▁microphone	-10.999
▁slept	-10.999
▁reich	-10.999
▁mittens	-10.9991
▁shipshape	-10.9991
▁haynes	-10.9991
▁injection	-10.9991
▁bullpen	-10.9991
▁playground	-10.9991
▁humiliating	-10.9991
▁milton	-10.9991
▁graveyard	-10.9991
▁jiminy	-10.9991
▁despite	-10.9991
▁dienst	-10.9991
▁audition	-10.9991
▁niya	-10.9991
▁average	-10.9991
▁britches	-10.9991
▁geweest	-10.9991
▁eww	-10.9991
▁persecution	-10.9991
▁bridle	-10.9991
▁conscience	-10.9991
▁zitten	-10.9991
▁swindle	-10.9991
▁chiming	-10.9991
▁creek	-10.9991
▁continent	-10.9991
▁griev	-10.9991
▁confedera	-10.9991
▁refund	-10.9991
▁false	-10.9991
▁diaper	-10.9991
▁powder	-10.9991
▁franz	-10.9991
▁oclock	-10.9991
▁greece	-10.9991
▁audio	-10.9991
▁contest	-10.9991
▁burden	-10.9991
▁freezing	-10.9991
▁minister	-10.9991
▁failure	-10.9991
▁unafraid	-10.9991
nevada	-10.9992
frlend	-10.9992
▁interior	-10.9992
▁pimple	-10.9992
▁coronary	-10.9992
▁clutch	-10.9992
▁peanut	-10.9992
▁concentration	-10.9992
▁apologies	-10.9992
▁donnie	-10.9992
▁jasper	-10.9992
▁alkaline	-10.9992
▁violent	-10.9992
▁hippo	-10.9992
▁sparrow	-10.9992
▁adore	-10.9992
▁conceal	-10.9992
▁estate	-10.9992
▁plaster	-10.9992
▁howre	-10.9992
▁envy	-10.9992
▁meowth	-10.9992
▁decree	-10.9992
▁tutor	-10.9992
▁acorn	-10.9992
▁firewood	-10.9992
▁hypnoti	-10.9992
▁thunk	-10.9992
▁countries	-10.9992
▁customary	-10.9993
▁engagement	-10.9993
▁trunk	-10.9993
▁infant	-10.9993
▁gloom	-10.9993
▁bingo	-10.9993
▁delta	-10.9993
▁hardboiled	-10.9993
▁sushi	-10.9993
▁connect	-10.9993
▁casca	-10.9993
▁relative	-10.9993
▁georgia	-10.9993
▁traction	-10.9993
▁raising	-10.9993
▁fluffy	-10.9994
▁sissy	-10.9994
▁internet	-10.9994
▁doorknob	-10.9994
▁kettle	-10.9994
▁vul	-10.9994
▁automatic	-10.9994
▁guv	-10.9994
▁bonnet	-10.9994
▁theory	-10.9994
▁asia	-10.9994
▁reply	-10.9994
▁identify	-10.9994
▁philosophy	-10.9994
▁polar	-10.9995
▁mechanical	-10.9995
▁boohoo	-10.9995
▁charleston	-10.9995
▁cordon	-10.9996
▁priest	-10.9996
▁wallop	-10.9996
▁soaring	-10.9996
▁thoroughly	-10.9996
lighters	-10.9996
▁aberg	-10.9996
▁captn	-10.9996
▁install	-10.9996
▁lizard	-10.9996
▁savannah	-10.9996
▁dispose	-10.9996
▁boiling	-10.9996
▁weakness	-10.9996
▁amusing	-10.9996
▁transferring	-10.9996
▁layeeodloo	-10.9996
▁wrapped	-10.9996
▁rehearsing	-10.9996
▁brutal	-10.9997
▁virtue	-10.9997
▁jones	-10.9997
▁unfortunately	-10.9997
▁valve	-10.9997
▁blunder	-10.9998
▁sadness	-10.9998
▁dopey	-10.9998
▁bluff	-10.9998
▁gangway	-10.9998
actic	-10.9998
▁property	-10.9998
▁barrel	-10.9998
▁enchanting	-10.9998
▁colour	-10.9998
▁stowed	-10.9998
▁trainer	-10.9998
umental	-10.9999
▁petti	-10.9999
▁obliged	-10.9999
▁filthy	-10.9999
▁flapping	-10.9999
▁laydeeodlee	-10.9999
▁rapid	-10.9999
▁oohooh	-11
▁ins	-11
▁vinden	-11
▁outrageous	-11
▁possessed	-11
▁activity	-11
▁eerst	-11
▁directive	-11
▁meaningless	-11
jah	-11
▁superb	-11.0001
▁wander	-11.0001
▁flourish	-11.0001
▁respectable	-11.0001
▁extend	-11.0002
▁teenager	-11.0002
junction	-11.0002
▁ooooh	-11.0002
▁scattered	-11.0002
▁oooh	-11.0003
▁adopted	-11.0003
▁disarm	-11.0003
▁blimp	-11.0004
zicht	-11.0004
▁timid	-11.0004
▁devon	-11.0004
▁tipo	-11.0004
▁mature	-11.0004
▁monstro	-11.0005
▁sincerely	-11.0005
▁jewelry	-11.0005
▁adams	-11.0005
▁bleed	-11.0005
▁presentation	-11.0005
▁romance	-11.0005
▁assign	-11.0005
▁trumpet	-11.0005
▁thou	-11.0005
▁stammering	-11.0005
▁forgiveness	-11.0005
▁ponti	-11.0006
▁cruiser	-11.0006
▁ramone	-11.0006
▁menace	-11.0007
▁lamb	-11.0007
▁spoon	-11.0007
▁creaks	-11.0007
▁discourag	-11.0008
▁fungus	-11.0009
▁argue	-11.0009
▁motel	-11.0009
▁bygones	-11.0009
▁regulations	-11.0009
▁techniques	-11.0009
▁vegetables	-11.0009
corpora	-11.0009
▁puttin	-11.001
▁measurements	-11.001
▁juic	-11.001
▁microns	-11.001
▁creative	-11.001
▁accomplished	-11.001
▁brow	-11.001
▁kijken	-11.001
▁suitable	-11.001
▁archive	-11.001
▁blond	-11.001
▁squash	-11.0011
▁slicker	-11.0011
▁joyfully	-11.0012
▁fig	-11.0012
yahoocom	-11.0012
▁bible	-11.0013
▁stutters	-11.0013
▁rewind	-11.0013
▁dodger	-11.0014
▁clearance	-11.0014
▁fiend	-11.0014
▁echoing	-11.0014
▁terms	-11.0014
dee	-11.0015
▁china	-11.0015
▁leaning	-11.0015
▁squeakin	-11.0015
▁rex	-11.0016
▁sentenced	-11.0016
▁octo	-11.0016
▁grinding	-11.0016
▁heartache	-11.0016
▁mitt	-11.0017
▁consideration	-11.0017
▁passion	-11.0018
▁barking	-11.0018
▁presum	-11.0018
▁pickup	-11.0018
▁offend	-11.0019
▁undock	-11.0019
▁grit	-11.0019
▁stall	-11.002
▁sunny	-11.002
▁drain	-11.0021
▁dried	-11.0021
▁correction	-11.0021
▁fraud	-11.0021
▁illustr	-11.0022
▁panel	-11.0022
▁suffered	-11.0023
▁satisfy	-11.0024
▁sobbing	-11.0025
ez	-11.0025
▁rugged	-11.0025
▁respond	-11.0025
▁indicate	-11.0025
▁bedtime	-11.0025
▁banish	-11.0026
▁stead	-11.0026
standing	-11.0026
egun	-11.0026
▁interrupted	-11.0026
▁angeles	-11.0028
▁enti	-11.0028
▁curve	-11.0029
▁horror	-11.0029
▁financ	-11.003
▁fitting	-11.0031
▁related	-11.0031
▁sizzle	-11.0031
▁disc	-11.0032
▁pistol	-11.0033
▁slit	-11.0033
▁elsa	-11.0033
▁reality	-11.0033
▁aircraft	-11.0034
▁screeching	-11.0034
▁embarrassed	-11.0034
dest	-11.0034
▁located	-11.0036
▁cocka	-11.0036
▁dexter	-11.0037
▁mysti	-11.0039
▁runners	-11.0039
▁mens	-11.004
▁kittens	-11.0041
▁methods	-11.0041
▁mammoths	-11.0041
▁drilling	-11.0041
▁commercials	-11.0042
▁snel	-11.0042
▁buzzards	-11.0043
▁visitors	-11.0045
▁scout	-11.0046
▁loop	-11.0047
▁replaced	-11.0048
ole	-11.005
▁translation	-11.0051
▁piraten	-11.0051
▁defense	-11.0051
stand	-11.0051
▁homeland	-11.0053
▁tailor	-11.0053
▁fried	-11.0055
▁whirl	-11.0055
▁dearie	-11.0056
▁q	-11.0057
ako	-11.0058
▁crater	-11.0058
▁grey	-11.0059
▁gleaming	-11.006
▁towel	-11.006
▁badge	-11.0061
▁represent	-11.0061
▁uncha	-11.0061
▁shocking	-11.0063
▁crashes	-11.0063
▁hopeless	-11.0064
▁crank	-11.0064
▁nailed	-11.0065
▁travelers	-11.0065
▁activated	-11.0065
▁irr	-11.0066
▁borrowed	-11.0067
▁floating	-11.0067
▁bucky	-11.0068
▁mules	-11.0068
▁raw	-11.007
▁indicat	-11.0071
▁sighing	-11.0071
▁cheeks	-11.0072
▁union	-11.0073
▁revert	-11.0073
▁marbles	-11.0074
▁zoo	-11.0075
▁functions	-11.0076
▁fork	-11.0076
▁active	-11.0076
▁stings	-11.0077
ixie	-11.0077
tel	-11.008
▁cursed	-11.0081
▁entered	-11.0082
▁gig	-11.0083
▁complaining	-11.0083
▁spared	-11.0085
▁zwar	-11.0085
▁donation	-11.0088
▁reminder	-11.0088
▁burp	-11.0089
▁crumbs	-11.009
▁dacht	-11.0091
▁businessman	-11.0095
▁hack	-11.0096
▁chased	-11.0096
▁ahhh	-11.0098
▁sniffs	-11.0098
▁plants	-11.01
▁repeated	-11.0101
▁potion	-11.0102
▁rump	-11.0102
▁petal	-11.0106
▁injuns	-11.0106
▁turtles	-11.0107
▁anna	-11.0107
▁criminals	-11.0108
cht	-11.011
▁farman	-11.0111
▁hig	-11.0111
▁domin	-11.0112
▁drum	-11.0112
▁laden	-11.0113
▁exceptions	-11.0113
▁aryans	-11.0117
▁repay	-11.0117
▁vow	-11.0117
▁bounc	-11.0118
▁butter	-11.0119
▁barge	-11.0121
▁payment	-11.0126
ification	-11.0129
▁mares	-11.0129
▁survey	-11.0131
▁eart	-11.0131
▁nerves	-11.0135
▁writ	-11.0136
▁appeared	-11.0139
▁models	-11.0139
▁kwam	-11.014
▁press	-11.014
▁bums	-11.0141
▁ribbons	-11.0141
▁talents	-11.0143
▁camping	-11.0144
▁polish	-11.0146
▁aiming	-11.0146
▁anne	-11.0147
▁thankful	-11.0148
▁snort	-11.0149
▁clone	-11.0149
logged	-11.015
▁homeless	-11.015
▁protected	-11.0152
▁evermean	-11.0152
heen	-11.0154
▁walkin	-11.0155
▁shaw	-11.0156
▁helpful	-11.016
▁lookout	-11.0161
▁ego	-11.0162
▁cory	-11.0162
▁naam	-11.0164
▁digest	-11.0167
▁bass	-11.0168
▁hoof	-11.0168
▁cracking	-11.017
▁seated	-11.0173
▁nightmares	-11.0175
▁erg	-11.0176
▁tasted	-11.0176
▁considering	-11.0181
▁payin	-11.0182
▁mu	-11.0184
▁slams	-11.0184
▁brats	-11.019
▁sneezes	-11.0195
ties	-11.021
▁tut	-11.0211
ler	-11.0213
titude	-11.0216
shes	-11.0219
▁recording	-11.0223
▁crap	-11.0226
▁differently	-11.0232
▁allerg	-11.0234
▁packed	-11.0237
▁buzzin	-11.0239
oh	-11.0241
▁chocolates	-11.0242
▁destroying	-11.0244
▁batter	-11.0246
▁sly	-11.0247
▁skull	-11.0247
▁stake	-11.0251
▁gladly	-11.0252
bred	-11.0252
sk	-11.0253
▁spreading	-11.0253
▁pic	-11.0253
▁caus	-11.0256
▁chimes	-11.0257
antom	-11.0259
▁ohio	-11.026
▁sill	-11.0262
ver	-11.0263
▁ruins	-11.0264
▁dancers	-11.0266
▁details	-11.0267
▁complaint	-11.0271
▁wasted	-11.0271
▁sher	-11.0274
ized	-11.0278
▁hunk	-11.0279
▁crossed	-11.0282
rmint	-11.0287
▁punk	-11.0288
▁chuckle	-11.029
▁burnt	-11.0292
▁hating	-11.0297
▁tips	-11.0298
▁bubble	-11.0298
▁singers	-11.0312
▁crumb	-11.0312
▁knot	-11.0315
tha	-11.0318
▁worm	-11.032
▁startin	-11.0322
▁bikes	-11.0324
▁paws	-11.0324
▁rage	-11.0325
eau	-11.0325
▁kissed	-11.0327
clear	-11.0331
pit	-11.0334
wij	-11.0335
con	-11.0336
ots	-11.0339
▁squirrels	-11.0342
▁bulldo	-11.0343
▁safer	-11.0344
▁accounts	-11.0348
▁bacteria	-11.0348
▁sway	-11.0352
▁shatter	-11.0356
▁gates	-11.0358
▁manufacture	-11.0358
▁mow	-11.0359
▁bean	-11.0359
▁imitation	-11.0361
▁heet	-11.0362
▁worden	-11.0364
▁skills	-11.0373
▁strand	-11.0375
▁borders	-11.0376
▁pits	-11.0379
▁san	-11.0383
ney	-11.0384
iti	-11.0389
▁heels	-11.0391
▁feared	-11.0404
iness	-11.0407
▁experiments	-11.0409
▁hornets	-11.041
ye	-11.0413
▁mourn	-11.0428
▁realm	-11.0431
▁carl	-11.0431
▁charms	-11.0436
▁snaps	-11.0438
▁clubs	-11.044
▁and	-11.0451
▁strut	-11.0453
▁struggle	-11.0455
▁vocali	-11.0455
▁silen	-11.0459
ries	-11.046
▁fated	-11.047
▁absen	-11.0472
▁workers	-11.0472
▁ru	-11.0473
▁youyou	-11.0476
▁commanding	-11.0477
▁rumble	-11.0478
lies	-11.0503
▁this	-11.0506
vel	-11.0507
▁circles	-11.0509
▁cages	-11.0513
▁deader	-11.0514
▁fog	-11.0516
j	-11.0517
▁kneel	-11.0521
pence	-11.0522
▁lively	-11.0523
▁mes	-11.0523
▁host	-11.0525
fection	-11.0528
easy	-11.0536
▁pops	-11.0541
▁fares	-11.0543
▁bail	-11.0548
▁shi	-11.055
▁fires	-11.0552
▁voil	-11.0553
▁pretties	-11.0558
▁onder	-11.0561
stop	-11.0563
▁fasten	-11.0563
ung	-11.0564
▁wei	-11.0564
▁goof	-11.0565
▁dolls	-11.0567
▁fooled	-11.0574
▁donut	-11.0574
ching	-11.0576
sey	-11.0582
etti	-11.0583
▁watches	-11.0588
▁locks	-11.0589
▁exhaust	-11.0591
fa	-11.0595
▁extract	-11.0598
▁vanda	-11.0601
▁mist	-11.0639
▁beth	-11.0644
▁garn	-11.065
▁app	-11.0657
▁consult	-11.0659
▁trusting	-11.0662
▁blar	-11.0663
▁lined	-11.0669
roque	-11.0681
▁funn	-11.0682
▁hid	-11.0683
▁dragg	-11.0689
rted	-11.071
▁lang	-11.0722
aint	-11.0725
nal	-11.0735
▁wwhat	-11.0739
rasp	-11.0747
▁kok	-11.0755
▁paints	-11.0758
agging	-11.0758
▁sins	-11.0759
▁keys	-11.0774
▁hundreds	-11.0778
ea	-11.0784
hold	-11.0788
new	-11.0794
▁fooling	-11.0796
▁seats	-11.0805
twe	-11.0812
delen	-11.0815
▁haze	-11.0823
▁tonights	-11.0837
ilis	-11.0846
eet	-11.0856
vo	-11.0861
jack	-11.0861
▁hobb	-11.0861
▁hoist	-11.088
▁tro	-11.09
▁lame	-11.0907
▁qui	-11.091
utters	-11.091
▁doubts	-11.0912
▁stations	-11.0935
▁rag	-11.0939
▁gunn	-11.0949
▁motorcycles	-11.0958
▁clothe	-11.0964
▁peer	-11.0972
inch	-11.0981
stc	-11.0989
▁carolin	-11.0989
ron	-11.0997
ou	-11.1
▁cre	-11.1001
▁crate	-11.101
▁harbo	-11.1011
aren	-11.1014
aving	-11.1018
ding	-11.102
put	-11.1021
▁sakes	-11.1034
▁explore	-11.1036
▁bin	-11.1037
▁heal	-11.1041
▁roads	-11.105
▁whoop	-11.105
uddy	-11.1055
val	-11.1079
▁geef	-11.1094
▁of	-11.1099
ube	-11.11
▁jumps	-11.1104
abili	-11.1126
▁lever	-11.1132
▁rox	-11.1144
▁øùøùø	-11.1149
▁accelerat	-11.115
nto	-11.1171
▁cove	-11.1176
▁imp	-11.1185
isle	-11.1194
▁tote	-11.1199
▁moron	-11.1203
▁caf	-11.1211
ns	-11.1218
▁explains	-11.1219
▁beta	-11.1225
▁sno	-11.1226
▁seize	-11.1231
pen	-11.1235
alakaz	-11.124
did	-11.1246
raag	-11.1261
▁wishing	-11.1268
eel	-11.1268
▁bor	-11.1273
▁infect	-11.1274
▁ado	-11.13
ijven	-11.1308
ify	-11.1312
▁humbl	-11.1322
rain	-11.1331
eaten	-11.1333
but	-11.1334
▁vo	-11.1337
min	-11.1348
▁meetings	-11.1349
▁flipp	-11.1352
▁grounds	-11.1353
right	-11.1359
▁sch	-11.136
ded	-11.1383
▁recruit	-11.1386
▁rec	-11.1386
▁hiss	-11.1394
hoo	-11.1395
▁imagin	-11.1396
▁tomb	-11.1416
▁taco	-11.1418
▁ramm	-11.1419
band	-11.1422
▁twi	-11.1424
▁din	-11.1427
▁lu	-11.1432
misunderstanding	-11.1439
▁speeds	-11.1442
▁wool	-11.1469
mer	-11.1471
▁ec	-11.1472
ggle	-11.1487
▁prides	-11.1493
lt	-11.1501
itz	-11.1503
rge	-11.1509
car	-11.1529
▁commands	-11.1543
road	-11.1578
▁helps	-11.1587
di	-11.1589
▁lau	-11.159
hap	-11.1591
▁thi	-11.161
ody	-11.1614
ssen	-11.1625
▁noo	-11.1626
▁prima	-11.1641
rous	-11.1648
▁joint	-11.1656
athe	-11.1658
▁subtl	-11.1672
▁chill	-11.1682
▁alter	-11.1692
tes	-11.1715
my	-11.1718
▁øaø	-11.174
obbing	-11.1746
rel	-11.1748
lve	-11.175
ks	-11.176
▁ref	-11.1764
▁gut	-11.1767
vy	-11.1798
▁alaka	-11.1808
▁stra	-11.1829
mes	-11.1855
ins	-11.1861
udent	-11.1864
bbering	-11.1895
gged	-11.1899
▁stirr	-11.19
hi	-11.1911
sing	-11.192
▁str	-11.192
chie	-11.1952
▁deli	-11.1954
engt	-11.1963
bel	-11.1987
▁involv	-11.2003
øùø	-11.2006
tain	-11.2014
▁meter	-11.2019
▁divide	-11.2028
▁hut	-11.2039
▁plug	-11.2043
take	-11.2047
tries	-11.2048
thi	-11.2077
▁patrol	-11.2087
▁placed	-11.2095
talk	-11.2096
▁unch	-11.2098
fth	-11.2141
▁reduc	-11.2152
ùø	-11.2165
▁barr	-11.217
▁clot	-11.2181
ckle	-11.2182
looking	-11.2185
▁øùøøù	-11.219
▁fift	-11.2192
umbling	-11.2194
▁nothings	-11.2218
▁skippe	-11.2218
▁prior	-11.2236
storm	-11.2244
ograph	-11.2245
berg	-11.2278
ories	-11.2297
da	-11.23
▁slo	-11.2305
iff	-11.2344
▁shod	-11.2345
mma	-11.2346
▁ahha	-11.2376
▁mat	-11.2381
ddle	-11.2386
stage	-11.2389
▁sniff	-11.2397
▁gi	-11.2399
▁fights	-11.2402
lock	-11.2404
unny	-11.2406
▁aspirin	-11.2417
zo	-11.2422
ockety	-11.2444
▁kun	-11.2445
ner	-11.2447
eren	-11.2452
▁popula	-11.2461
ort	-11.2464
▁sn	-11.2469
aki	-11.2472
▁stray	-11.2474
▁as	-11.25
▁radia	-11.2536
▁lens	-11.2548
long	-11.256
▁pm	-11.2566
▁stir	-11.2592
tte	-11.2592
▁fin	-11.2612
was	-11.2613
zer	-11.2615
tuous	-11.2621
pa	-11.2622
so	-11.2671
▁sto	-11.2675
▁latch	-11.2678
zoek	-11.2692
▁vai	-11.27
▁uni	-11.271
▁judg	-11.2713
▁stepp	-11.2717
ug	-11.2722
▁mang	-11.2727
arted	-11.2756
▁suff	-11.2762
▁bos	-11.2764
▁scur	-11.2769
ri	-11.278
etje	-11.278
tro	-11.2784
lets	-11.2787
eer	-11.2797
even	-11.2819
▁eva	-11.282
▁gangs	-11.2824
lacking	-11.2826
▁walks	-11.2828
▁ink	-11.2831
ained	-11.2836
oose	-11.2839
▁mush	-11.2843
▁bubbl	-11.2866
▁mutt	-11.2868
ets	-11.2881
▁dar	-11.2882
▁maak	-11.2883
▁strak	-11.2883
▁dom	-11.2886
gram	-11.2893
▁fla	-11.2893
▁sting	-11.2895
▁victor	-11.2918
inker	-11.2921
urdy	-11.2923
▁neer	-11.2924
▁clt	-11.2931
fire	-11.2937
▁blinkin	-11.2937
antic	-11.2939
kind	-11.2941
burn	-11.2942
zen	-11.2943
minute	-11.2945
name	-11.2948
▁rig	-11.2949
▁ax	-11.2956
ight	-11.2958
town	-11.2958
▁elk	-11.296
▁bore	-11.2961
▁seek	-11.2964
▁sul	-11.2984
▁oi	-11.2986
lain	-11.2988
▁equal	-11.299
with	-11.2995
▁beds	-11.2999
▁sull	-11.3023
▁relation	-11.303
ction	-11.303
country	-11.3049
▁spr	-11.3054
▁creat	-11.3055
lthough	-11.3056
ini	-11.3057
raff	-11.3061
chen	-11.3064
five	-11.3066
broken	-11.3067
lar	-11.3069
nic	-11.3074
ùù	-11.3082
natural	-11.3083
grown	-11.3085
squeak	-11.3085
feeling	-11.3086
sta	-11.3091
pants	-11.3092
▁deci	-11.31
▁expos	-11.3104
▁pale	-11.3108
posts	-11.3111
▁sup	-11.3115
fur	-11.3131
▁prepar	-11.314
chop	-11.3147
▁hun	-11.3171
▁plumb	-11.3181
working	-11.3182
▁spl	-11.3184
▁cigar	-11.3187
▁reservation	-11.319
▁slattery	-11.319
▁cannibal	-11.3192
▁alli	-11.3192
▁decade	-11.3194
▁sleeve	-11.3201
▁gauge	-11.3203
▁strain	-11.3203
▁arrangement	-11.3205
▁hallway	-11.3205
▁blade	-11.3206
▁aryan	-11.3209
rian	-11.3209
▁crocodile	-11.321
eten	-11.321
▁invention	-11.3212
▁neighbor	-11.3212
▁knuckle	-11.3213
▁passenger	-11.3213
▁marble	-11.3213
▁cheek	-11.3214
term	-11.3214
▁hyena	-11.3215
▁magician	-11.3216
▁notion	-11.3217
rius	-11.3222
▁parent	-11.3231
▁fee	-11.3236
bre	-11.3241
▁dollar	-11.3242
▁meow	-11.325
▁tool	-11.3251
▁sha	-11.3254
▁mule	-11.3257
▁flee	-11.3258
▁electro	-11.326
▁bot	-11.3264
▁franc	-11.3267
▁backward	-11.327
▁function	-11.3272
elope	-11.3278
▁movement	-11.3279
▁register	-11.3285
▁annoy	-11.3285
▁mask	-11.3286
▁shriek	-11.3288
▁chirp	-11.329
▁isolate	-11.329
▁echo	-11.3294
▁determine	-11.3296
▁accomplish	-11.3296
▁grind	-11.3296
▁snoo	-11.3297
▁utter	-11.3297
▁invent	-11.33
▁inspire	-11.3301
▁majest	-11.3301
▁iv	-11.3301
qu	-11.3302
▁posse	-11.3303
▁responsibilit	-11.3303
▁troupe	-11.3308
▁thirst	-11.3308
▁sentence	-11.3309
▁waltz	-11.3312
tobe	-11.3315
looms	-11.3315
▁savanna	-11.3315
▁chart	-11.3316
▁establish	-11.3317
▁mechanic	-11.3317
▁terrific	-11.3319
▁swimming	-11.332
▁corona	-11.3321
ave	-11.3322
▁snif	-11.3322
▁inherit	-11.3323
▁columb	-11.3323
▁npdv	-11.3323
▁champ	-11.3323
▁disintegrat	-11.3323
▁accurate	-11.3323
▁aggressive	-11.3323
▁albatross	-11.3323
▁apprentice	-11.3323
▁artificial	-11.3323
▁baggage	-11.3323
▁befuddling	-11.3323
▁brunhilde	-11.3323
▁bruteroot	-11.3323
▁bulbasaur	-11.3323
▁caitlin	-11.3323
▁canidius	-11.3323
▁caterpillar	-11.3323
▁cavalry	-11.3323
▁chiquita	-11.3323
▁cleveland	-11.3323
▁conquest	-11.3323
▁convincing	-11.3323
▁dempsey	-11.3323
▁diabolical	-11.3323
▁diagnos	-11.3323
▁dioxide	-11.3323
▁dubois	-11.3323
▁escorial	-11.3323
▁eyelashes	-11.3323
▁fiddledeedee	-11.3323
▁flyswatter	-11.3323
▁forsaken	-11.3323
▁frequently	-11.3323
▁gebruiken	-11.3323
▁gehoord	-11.3323
▁gemaakt	-11.3323
▁giorno	-11.3323
▁heimlich	-11.3323
▁heritage	-11.3323
▁impatient	-11.3323
▁influenza	-11.3323
▁injury	-11.3323
▁interpret	-11.3323
▁joppa	-11.3323
▁ketchup	-11.3323
▁kumiko	-11.3323
▁kusakabe	-11.3323
▁libraries	-11.3323
▁luggage	-11.3323
▁magazine	-11.3323
▁melanchol	-11.3323
▁miguel	-11.3323
▁minimum	-11.3323
▁muiterij	-11.3323
▁ninevites	-11.3323
▁nominal	-11.3323
▁norwegian	-11.3323
▁nutrient	-11.3323
▁odreary	-11.3323
▁orleans	-11.3323
▁pantalets	-11.3323
▁permanent	-11.3323
▁philologist	-11.3323
▁polycron	-11.3323
▁poppycock	-11.3323
▁possibility	-11.3323
▁prancing	-11.3323
▁precinct	-11.3323
▁precision	-11.3323
▁prestidigitoni	-11.3323
▁primitive	-11.3323
▁reacquire	-11.3323
▁receipt	-11.3323
▁reginald	-11.3323
▁relieved	-11.3323
▁religion	-11.3323
▁review	-11.3323
▁revolting	-11.3323
▁scheepsjongen	-11.3323
▁schnitzel	-11.3323
▁scoundrel	-11.3323
▁september	-11.3323
▁serpentine	-11.3323
▁shakespeare	-11.3323
▁shanghai	-11.3323
▁shshsh	-11.3323
▁soccer	-11.3323
▁succulent	-11.3323
▁suicide	-11.3323
▁surrender	-11.3323
▁susuatari	-11.3323
▁swagger	-11.3323
▁synthetic	-11.3323
▁taxpayers	-11.3323
▁thursday	-11.3323
▁trajectory	-11.3323
▁trelawney	-11.3323
▁tuppence	-11.3323
▁undisputed	-11.3323
▁vlug	-11.3323
▁vuur	-11.3323
▁wheelchair	-11.3323
▁winifred	-11.3323
▁yeehaw	-11.3323
▁yvonne	-11.3323
▁coconut	-11.3323
▁retrieve	-11.3323
▁zeerovers	-11.3323
▁adios	-11.3323
▁annihilat	-11.3323
▁arriving	-11.3323
▁boeien	-11.3323
▁cabbage	-11.3323
▁lubricat	-11.3323
▁marvellous	-11.3323
▁overeind	-11.3323
▁quantrell	-11.3323
▁recipe	-11.3323
▁refuel	-11.3323
▁roxanne	-11.3323
▁rpms	-11.3323
▁sarabi	-11.3323
▁schmoozing	-11.3323
▁tattoo	-11.3323
▁warfare	-11.3323
▁zwemmen	-11.3323
▁bastard	-11.3323
▁demonstrate	-11.3323
▁kirke	-11.3323
▁pistool	-11.3323
▁symphon	-11.3323
▁averaging	-11.3323
▁conceited	-11.3323
▁doobee	-11.3323
▁dumplings	-11.3323
▁eileen	-11.3323
▁excitement	-11.3323
▁frustrat	-11.3323
▁gedaan	-11.3323
▁goldenrod	-11.3323
▁intolera	-11.3323
▁overflowin	-11.3323
▁pittypat	-11.3323
▁platform	-11.3323
▁traitor	-11.3323
▁alternative	-11.3324
▁guvnor	-11.3324
▁parcel	-11.3324
▁proposition	-11.3324
▁variety	-11.3324
▁ascot	-11.3324
▁illusions	-11.3324
▁japanese	-11.3324
▁wondrous	-11.3324
▁enhance	-11.3324
▁enthusiastic	-11.3324
▁fodder	-11.3324
▁pregnant	-11.3324
▁prescribe	-11.3324
▁publishe	-11.3324
▁swollen	-11.3324
▁telescope	-11.3324
▁underground	-11.3324
▁encounter	-11.3324
▁representative	-11.3324
▁tournament	-11.3324
▁wrath	-11.3324
▁construction	-11.3324
▁coonhunt	-11.3324
▁gerald	-11.3324
▁orville	-11.3324
▁proposal	-11.3324
▁salami	-11.3324
▁rubbish	-11.3324
▁civilized	-11.3324
▁marelli	-11.3324
▁underwear	-11.3324
▁wetherby	-11.3324
▁offense	-11.3324
▁opposition	-11.3324
▁propeller	-11.3324
▁console	-11.3324
▁eigenaar	-11.3324
▁hisself	-11.3324
▁moneylender	-11.3324
▁muller	-11.3324
▁cindy	-11.3324
▁microsecond	-11.3324
▁prompt	-11.3324
▁specimen	-11.3324
▁aquatic	-11.3324
▁shucks	-11.3324
▁industr	-11.3324
▁theodo	-11.3324
▁headlines	-11.3324
▁outcast	-11.3324
▁motorbus	-11.3324
▁philanderin	-11.3324
▁uncertain	-11.3324
▁flooded	-11.3324
▁pebble	-11.3324
▁sloep	-11.3324
▁charlesworth	-11.3324
▁edgar	-11.3324
▁nightingale	-11.3324
▁utah	-11.3324
▁exclusive	-11.3324
▁grindstone	-11.3324
▁inquir	-11.3324
▁comrade	-11.3324
▁yarnell	-11.3324
▁tooting	-11.3324
▁rabble	-11.3324
▁forbidden	-11.3324
▁goddess	-11.3324
▁hostess	-11.3324
▁reflection	-11.3324
stron	-11.3324
▁eigen	-11.3324
▁feature	-11.3324
▁rouge	-11.3324
▁isolation	-11.3324
▁millionaire	-11.3324
▁extinct	-11.3324
▁bilious	-11.3324
▁granddaughter	-11.3324
▁obedien	-11.3324
▁typical	-11.3324
▁cosmic	-11.3324
▁eliminated	-11.3324
▁blazes	-11.3324
▁fascinating	-11.3324
▁gadget	-11.3324
▁israel	-11.3324
▁riddance	-11.3324
▁patron	-11.3324
▁donald	-11.3324
▁stanley	-11.3324
▁confederacy	-11.3324
▁omni	-11.3324
▁demerits	-11.3324
▁importance	-11.3324
▁polecat	-11.3324
▁venus	-11.3324
▁lawwill	-11.3324
▁imposter	-11.3324
▁injured	-11.3324
▁klop	-11.3324
▁steeple	-11.3324
▁sensible	-11.3324
▁bijbel	-11.3324
▁redruth	-11.3324
▁japan	-11.3324
▁hilda	-11.3324
▁existence	-11.3324
▁access	-11.3324
▁buddha	-11.3324
rnament	-11.3324
▁obtain	-11.3324
▁thunderstorm	-11.3324
▁plunder	-11.3325
▁sanity	-11.3325
▁bruce	-11.3325
▁pilate	-11.3325
▁adoption	-11.3325
▁chalk	-11.3325
▁commitment	-11.3325
▁congratulat	-11.3325
▁lekker	-11.3325
▁outward	-11.3325
▁hulot	-11.3325
▁boardinghouse	-11.3325
▁resistance	-11.3325
▁describe	-11.3325
▁phase	-11.3325
▁politician	-11.3325
▁heavily	-11.3325
▁chestnut	-11.3325
▁contrast	-11.3325
▁decontamination	-11.3325
▁laura	-11.3325
▁patricia	-11.3325
▁obligation	-11.3325
▁absence	-11.3325
▁homily	-11.3325
▁detection	-11.3325
▁insect	-11.3325
▁inspection	-11.3325
▁solomon	-11.3325
▁stubbornness	-11.3325
▁austin	-11.3325
▁executor	-11.3325
ashima	-11.3325
▁enlist	-11.3325
▁plicht	-11.3325
▁dangling	-11.3325
▁pedal	-11.3325
▁ticklin	-11.3325
▁operator	-11.3325
▁handkerchief	-11.3325
▁memories	-11.3325
▁stardust	-11.3325
▁mural	-11.3326
▁fraulein	-11.3326
▁automatically	-11.3326
▁bungl	-11.3326
▁scurry	-11.3326
▁denver	-11.3326
▁daph	-11.3326
▁programmed	-11.3326
▁destruction	-11.3326
chaam	-11.3326
▁artist	-11.3326
quisition	-11.3326
▁affectionate	-11.3326
▁divinity	-11.3326
▁breach	-11.3326
▁treason	-11.3326
▁survival	-11.3326
siderab	-11.3326
▁sterno	-11.3326
bric	-11.3326
▁decorating	-11.3326
▁oror	-11.3326
▁reinforcement	-11.3326
▁chopped	-11.3326
▁wench	-11.3326
▁plantation	-11.3326
▁pussy	-11.3326
▁rescuing	-11.3326
▁tomatoes	-11.3326
▁laddie	-11.3326
▁humph	-11.3326
▁yowling	-11.3326
▁stuur	-11.3326
▁spence	-11.3326
bbin	-11.3326
▁bookshop	-11.3327
▁stepmother	-11.3327
▁beauties	-11.3327
▁pacifier	-11.3327
▁sedan	-11.3327
▁salary	-11.3327
▁outlook	-11.3327
▁insight	-11.3327
▁tulip	-11.3327
▁yuck	-11.3327
▁courthouse	-11.3327
▁inspect	-11.3327
▁edwina	-11.3327
▁olives	-11.3328
▁roei	-11.3328
▁cooperati	-11.3328
▁uhuhuh	-11.3328
▁shopping	-11.3328
▁overnight	-11.3328
atyahoocom	-11.3328
▁squish	-11.3328
▁frozen	-11.3328
▁medium	-11.3328
▁holler	-11.3328
▁naughty	-11.3328
▁timber	-11.3328
▁foreman	-11.3328
▁snarl	-11.3328
▁dazzling	-11.3328
▁electricity	-11.3328
▁tabin	-11.3328
▁which	-11.3329
rhaps	-11.3329
▁salad	-11.3329
▁motivation	-11.3329
▁harsh	-11.3329
cent	-11.3329
▁rumpus	-11.3329
▁tripping	-11.3329
▁cuttin	-11.333
▁begging	-11.333
▁abbe	-11.333
▁spindle	-11.333
▁intimidated	-11.333
▁establishment	-11.333
▁robbery	-11.333
▁sponge	-11.333
▁terrifical	-11.3331
▁squirtle	-11.3331
▁popping	-11.3331
▁problemfree	-11.3331
▁gurgling	-11.3331
▁candlelight	-11.3331
▁settling	-11.3331
▁barbarian	-11.3331
▁shush	-11.3331
▁barren	-11.3331
▁explode	-11.3331
▁verder	-11.3331
▁sideways	-11.3331
▁immensely	-11.3331
▁rigel	-11.3331
▁rustling	-11.3331
▁wasteland	-11.3332
▁partially	-11.3332
▁vandaan	-11.3332
▁striking	-11.3332
▁sixfoot	-11.3332
▁moonlight	-11.3332
▁assignment	-11.3332
▁gizzard	-11.3332
▁muske	-11.3332
▁cockroach	-11.3332
▁puzzle	-11.3333
▁trembling	-11.3333
▁depressed	-11.3333
▁unlocking	-11.3333
▁slice	-11.3333
▁zelf	-11.3333
▁quiver	-11.3333
▁merchandise	-11.3334
▁afge	-11.3334
▁courageous	-11.3334
▁collector	-11.3334
▁sacred	-11.3334
▁edition	-11.3334
▁slither	-11.3334
▁diversion	-11.3334
▁incoming	-11.3334
▁hiya	-11.3334
▁bombom	-11.3335
▁august	-11.3335
▁jeez	-11.3335
▁robotic	-11.3335
▁stork	-11.3335
▁sundown	-11.3335
▁allowance	-11.3335
▁employer	-11.3336
▁compound	-11.3336
▁swimmingly	-11.3336
▁waltzes	-11.3336
▁hairball	-11.3337
▁argh	-11.3337
▁abra	-11.3337
▁peep	-11.3337
▁bleach	-11.3337
▁hospitality	-11.3337
▁breakdown	-11.3337
▁aphi	-11.3337
livered	-11.3337
▁floatin	-11.3337
▁assembly	-11.3337
▁frost	-11.3337
▁development	-11.3338
▁soda	-11.3338
▁links	-11.3338
▁cabinet	-11.3338
▁distraction	-11.3338
▁stip	-11.3338
▁cooperate	-11.3338
▁shimmer	-11.3339
▁hopping	-11.3339
▁edward	-11.3339
▁calluses	-11.3339
▁joyous	-11.3339
▁grownup	-11.3339
▁ptc	-11.3339
▁preparation	-11.3339
▁cramp	-11.334
▁kong	-11.334
▁upward	-11.334
▁detect	-11.334
▁prickly	-11.3341
▁cinder	-11.3341
▁hicks	-11.3341
▁triggered	-11.3341
▁abandoned	-11.3341
▁brink	-11.3342
▁evict	-11.3342
▁organized	-11.3342
volgen	-11.3343
meal	-11.3343
▁pitty	-11.3343
▁juli	-11.3343
▁blackout	-11.3344
▁purchas	-11.3344
▁protective	-11.3344
▁harp	-11.3344
▁caption	-11.3344
▁glue	-11.3345
▁gunfighter	-11.3345
▁burke	-11.3345
▁denken	-11.3345
▁nazi	-11.3345
▁spitting	-11.3345
▁idiotic	-11.3346
▁stacked	-11.3346
▁satisfact	-11.3346
▁vowel	-11.3346
▁totus	-11.3346
▁abc	-11.3346
▁peeking	-11.3347
▁toxic	-11.3347
▁smooch	-11.3347
▁moans	-11.3347
▁pumping	-11.3347
▁download	-11.3347
▁wheat	-11.3347
▁damaged	-11.3348
▁departing	-11.3348
▁restart	-11.3348
▁actual	-11.3348
▁recon	-11.3349
▁bacterian	-11.3349
▁agreeable	-11.3349
▁weekend	-11.3349
▁blush	-11.3349
▁woolen	-11.335
▁difficulties	-11.335
▁columns	-11.335
▁dustman	-11.335
▁shafts	-11.3351
▁arabians	-11.3351
▁pajamas	-11.3351
▁hotdogs	-11.3351
▁blackie	-11.3352
▁squawk	-11.3352
▁gallons	-11.3352
▁hunch	-11.3352
▁brace	-11.3352
▁worthless	-11.3353
▁wrinkles	-11.3353
▁scarce	-11.3353
▁molly	-11.3353
▁waist	-11.3354
ssenger	-11.3354
▁expand	-11.3354
▁spooky	-11.3354
▁eyeballs	-11.3354
▁brent	-11.3354
▁thumper	-11.3355
▁zeke	-11.3355
▁hometown	-11.3355
▁novel	-11.3356
▁cities	-11.3356
▁shaking	-11.3357
pose	-11.3357
▁tremendously	-11.3357
for	-11.3358
▁stonehill	-11.3358
▁undertake	-11.3359
▁bucks	-11.3359
▁willow	-11.336
▁torme	-11.336
▁reactor	-11.336
▁hesitate	-11.3361
▁shred	-11.3361
▁pear	-11.3362
▁annoying	-11.3362
▁nono	-11.3362
▁registering	-11.3363
▁surpass	-11.3363
▁jake	-11.3363
▁cmp	-11.3363
▁keel	-11.3363
▁tinge	-11.3364
hor	-11.3364
▁july	-11.3365
▁masterpiece	-11.3365
▁waco	-11.3365
▁squawking	-11.3366
▁emily	-11.3366
▁klein	-11.3366
▁jaar	-11.3367
▁heroes	-11.3367
houden	-11.3367
▁heartbeat	-11.3367
ord	-11.3368
▁snowman	-11.3368
▁uur	-11.3368
▁rejoic	-11.3368
▁warnin	-11.3368
master	-11.3369
▁consum	-11.337
▁mimi	-11.337
▁bubbling	-11.3371
▁misty	-11.3371
▁ripping	-11.3372
▁vial	-11.3372
▁blah	-11.3373
▁parttime	-11.3374
ral	-11.3374
▁inspiring	-11.3374
▁brighton	-11.3375
▁torch	-11.3375
ltan	-11.3375
▁ruthless	-11.3375
▁asset	-11.3376
burne	-11.3377
greatgrandfather	-11.3377
▁talented	-11.3377
▁dough	-11.3377
▁baked	-11.3378
▁tolera	-11.3378
▁rollin	-11.3378
▁brood	-11.3379
▁priceless	-11.3379
▁spurs	-11.3379
▁villain	-11.3379
▁disappointing	-11.338
▁betty	-11.338
▁informed	-11.338
▁drunken	-11.3381
▁kust	-11.3381
▁distract	-11.3382
▁shotgun	-11.3382
▁nuns	-11.3383
▁lodge	-11.3383
reme	-11.3383
▁madman	-11.3383
▁inning	-11.3383
▁glowing	-11.3384
▁morality	-11.3384
▁strikeout	-11.3384
▁electronic	-11.3386
▁wapens	-11.3386
▁shikokuyama	-11.3387
▁crab	-11.3387
▁shutting	-11.3388
▁musician	-11.3388
▁lemon	-11.3389
▁zit	-11.3389
▁zim	-11.3389
▁slinky	-11.339
▁doom	-11.3391
luck	-11.3392
▁restrain	-11.3393
▁bushes	-11.3395
▁conqueror	-11.3396
▁shivers	-11.3396
space	-11.3396
▁smoothly	-11.3397
▁emotions	-11.3398
▁gib	-11.3398
▁amigos	-11.3398
▁beggars	-11.3398
▁competitors	-11.3398
▁carpetbaggers	-11.3398
▁onions	-11.3399
▁suspected	-11.3399
▁pearl	-11.3401
rical	-11.3401
▁macaws	-11.3401
▁inky	-11.3404
▁flashed	-11.3404
▁twitch	-11.3404
▁darkies	-11.3404
▁thirsty	-11.3405
▁rover	-11.3406
▁johnson	-11.3407
▁dashed	-11.3407
▁flicker	-11.3408
▁disappearing	-11.3409
▁psycholog	-11.341
▁cookies	-11.341
▁drafted	-11.3411
▁startup	-11.3412
▁stale	-11.3412
▁statement	-11.3412
▁rational	-11.3412
▁ivy	-11.3412
▁larger	-11.3412
monu	-11.3413
▁meets	-11.3414
▁quote	-11.3415
▁werk	-11.3415
▁product	-11.3416
▁cowardly	-11.342
▁spoiled	-11.342
▁sailor	-11.342
▁observed	-11.3421
▁flattering	-11.3422
▁resisting	-11.3422
izzard	-11.3423
▁jailer	-11.3426
▁lurk	-11.3427
▁struck	-11.3427
litary	-11.3428
▁plumber	-11.3428
▁ome	-11.3428
▁beams	-11.3428
▁sco	-11.3429
▁belts	-11.343
grave	-11.3431
▁exit	-11.3433
▁bellow	-11.3434
▁ton	-11.3435
▁cent	-11.3438
▁eternal	-11.3442
▁sank	-11.3442
▁pitches	-11.3444
▁rosy	-11.3445
▁gauges	-11.3446
paid	-11.3446
▁introduced	-11.3447
▁magicians	-11.3447
▁arrangements	-11.3447
▁sucker	-11.3449
▁cord	-11.3449
▁pitcher	-11.345
▁removed	-11.3451
▁sunk	-11.3452
▁allo	-11.3453
resolved	-11.3454
▁cryin	-11.3454
▁movements	-11.3454
▁risen	-11.3455
▁wiles	-11.3455
ligible	-11.3455
▁tec	-11.3455
▁intended	-11.3456
▁classy	-11.3456
▁cargo	-11.3457
▁dug	-11.3457
▁laughin	-11.3461
▁mole	-11.3461
▁trio	-11.3462
▁mental	-11.3462
▁stack	-11.3462
▁cops	-11.3462
▁belt	-11.3466
▁labor	-11.3468
▁growl	-11.3471
▁twel	-11.3474
▁explosi	-11.3475
▁patches	-11.3476
silico	-11.3476
▁sales	-11.3477
▁trend	-11.3478
▁snorts	-11.3478
▁bake	-11.3482
▁buster	-11.3482
▁greatness	-11.3483
▁urge	-11.3483
▁grape	-11.3484
▁gathering	-11.3484
▁waard	-11.3485
▁docking	-11.3487
▁wacht	-11.349
▁oww	-11.349
▁mooie	-11.3491
▁reminded	-11.3492
▁whoaoh	-11.3494
▁muscles	-11.3494
▁acids	-11.3494
▁regions	-11.3495
▁benefits	-11.3495
▁ghosthunt	-11.3495
▁compliments	-11.3495
▁employees	-11.3496
ippety	-11.3497
foggi	-11.3499
aan	-11.3502
nel	-11.3503
▁mose	-11.3505
▁flames	-11.3507
▁oar	-11.3507
▁ashes	-11.3508
▁ohhhh	-11.3509
▁casting	-11.3509
▁yau	-11.3512
▁whoosh	-11.3513
rrespon	-11.3514
makers	-11.3516
▁proudly	-11.3518
▁cracked	-11.3521
▁bounce	-11.3521
azz	-11.3522
got	-11.3525
▁hire	-11.3525
▁backside	-11.3525
urd	-11.3526
hales	-11.3526
ynch	-11.3528
▁lovelies	-11.3528
▁risks	-11.3531
▁memor	-11.3531
▁smashing	-11.3533
▁wands	-11.3535
▁rang	-11.3536
▁respected	-11.3537
▁res	-11.3538
▁happenin	-11.3539
▁morgen	-11.354
▁bananas	-11.3543
▁sale	-11.3545
▁import	-11.3546
▁sighted	-11.3548
▁ed	-11.3552
▁wilkeses	-11.3553
▁ducky	-11.3554
▁clap	-11.3558
ending	-11.3559
▁phoe	-11.3559
▁digit	-11.3559
▁supp	-11.3561
▁midst	-11.3562
▁remained	-11.3563
▁marie	-11.3563
▁swede	-11.3565
▁addressing	-11.357
upper	-11.3573
▁bark	-11.3576
▁shorter	-11.3577
ified	-11.3578
▁marker	-11.3578
▁edit	-11.3581
▁twins	-11.3582
▁taxis	-11.3583
▁ingen	-11.3585
▁crazie	-11.359
▁watlings	-11.3591
pus	-11.3591
▁classics	-11.3592
▁instruments	-11.3592
▁rascals	-11.3592
▁geez	-11.3594
▁disappears	-11.3597
▁scarer	-11.3599
▁demon	-11.3602
uffr	-11.3602
▁filling	-11.3605
▁puls	-11.3607
▁zoom	-11.3609
▁weaken	-11.3614
▁lighten	-11.3616
works	-11.3617
▁welsh	-11.3623
eating	-11.3633
▁tw	-11.3635
▁pier	-11.3638
▁helmets	-11.3638
dence	-11.3639
balls	-11.3642
▁alaba	-11.3642
fty	-11.3643
about	-11.3646
vis	-11.3646
▁bids	-11.3652
▁flick	-11.3653
yah	-11.3654
▁quot	-11.3654
▁sum	-11.3654
hauling	-11.3663
▁greeting	-11.3664
▁vein	-11.3666
▁colder	-11.3667
▁forgiven	-11.367
▁sue	-11.3672
lopen	-11.368
▁bothering	-11.3681
inous	-11.3682
▁endless	-11.3683
▁loser	-11.3685
▁clowns	-11.3688
▁rainbows	-11.369
airn	-11.3692
houses	-11.3693
▁joined	-11.3696
▁rugs	-11.3703
▁hound	-11.3705
ering	-11.3711
▁reis	-11.3714
▁sor	-11.3714
▁reverse	-11.3717
▁gil	-11.3717
▁heirs	-11.3718
▁takeoff	-11.3722
▁acr	-11.3727
▁companion	-11.373
▁deeds	-11.3731
arded	-11.3732
▁regards	-11.3737
ged	-11.3737
▁brutes	-11.3742
▁whit	-11.3748
▁doodle	-11.375
▁explained	-11.3751
▁portion	-11.3751
ika	-11.3751
ride	-11.3754
achers	-11.3756
bell	-11.3757
▁treating	-11.3758
youre	-11.3769
tics	-11.3773
▁bottles	-11.3775
▁killers	-11.3775
▁chaps	-11.3777
▁cleaned	-11.3778
▁issue	-11.378
▁transform	-11.3782
▁fled	-11.3782
▁arr	-11.3786
▁prophets	-11.3789
eal	-11.3794
▁hairy	-11.3798
elui	-11.3799
anton	-11.3804
▁stinks	-11.3807
▁weary	-11.3807
▁hens	-11.381
▁shines	-11.381
▁geze	-11.3812
▁tempt	-11.3825
▁overhea	-11.3826
▁severe	-11.3829
▁credits	-11.3836
▁thorn	-11.3836
▁mirrors	-11.3837
solving	-11.3841
▁costs	-11.3844
▁vir	-11.3846
▁kog	-11.3851
▁interests	-11.3853
top	-11.3863
▁lighter	-11.3873
alfi	-11.3876
▁pete	-11.389
▁trans	-11.3894
▁photos	-11.3896
▁gum	-11.39
▁chore	-11.3901
▁ass	-11.3901
orious	-11.3905
▁cruci	-11.392
▁whine	-11.3921
▁comedy	-11.3923
▁noises	-11.3925
▁laughed	-11.3933
hel	-11.3933
▁professionals	-11.3937
▁sinus	-11.3938
ured	-11.3947
leagues	-11.3957
▁slamm	-11.3963
▁grill	-11.3964
▁peel	-11.3965
▁reck	-11.3975
▁uno	-11.3979
oever	-11.3983
▁peasants	-11.3984
▁wizards	-11.3984
▁mango	-11.3995
▁hocke	-11.4001
▁cones	-11.4001
▁alkali	-11.4004
ica	-11.4011
▁downs	-11.4013
▁dreamy	-11.4014
ameter	-11.4018
▁litera	-11.4032
▁awaken	-11.4035
▁fujim	-11.4035
▁geva	-11.4037
▁heller	-11.4038
▁computers	-11.4038
ull	-11.404
boiled	-11.4044
▁sauc	-11.4049
beat	-11.4053
workers	-11.4061
▁doubled	-11.4073
▁paths	-11.4082
▁kaz	-11.4095
▁ordering	-11.4102
▁easi	-11.4121
anni	-11.4134
▁vers	-11.4136
▁amp	-11.4137
▁fortunes	-11.4138
▁sitter	-11.4139
igh	-11.4151
rass	-11.4152
▁judges	-11.4154
mpson	-11.4172
nemen	-11.4179
rby	-11.4182
▁sniffl	-11.4183
▁employ	-11.4184
▁text	-11.42
▁myr	-11.4206
▁hom	-11.4209
▁weep	-11.4212
▁dynamic	-11.4219
gh	-11.4219
▁burg	-11.4238
▁covers	-11.4239
riff	-11.4251
ather	-11.4255
▁him	-11.4271
laat	-11.4282
▁beaut	-11.4283
▁min	-11.4295
▁buying	-11.4295
mega	-11.43
▁neg	-11.431
aught	-11.4311
▁touching	-11.4312
nieuw	-11.4314
▁agents	-11.432
▁lmp	-11.432
gee	-11.4326
wer	-11.4329
▁cameras	-11.4329
▁shops	-11.434
▁robe	-11.4363
jes	-11.438
▁toss	-11.4394
fold	-11.4407
fuse	-11.4408
▁disrespect	-11.441
▁but	-11.4424
▁zu	-11.4429
▁nola	-11.4433
▁buildings	-11.4438
▁devot	-11.4443
rnia	-11.4452
▁there	-11.4455
kings	-11.446
▁presidents	-11.4479
▁rustle	-11.4481
dom	-11.4483
▁evacuate	-11.4485
▁examine	-11.4489
▁neds	-11.4502
▁guessed	-11.4514
▁kwa	-11.4523
etic	-11.4523
▁profi	-11.4527
resses	-11.4528
▁differences	-11.453
▁educat	-11.4538
▁rubbe	-11.4548
zal	-11.4551
▁priorit	-11.4552
▁joys	-11.4556
chanting	-11.4566
sual	-11.457
▁hea	-11.4571
▁candle	-11.4577
hh	-11.4585
▁chil	-11.4587
▁newly	-11.4595
shore	-11.4606
▁turner	-11.4609
▁mal	-11.4614
▁char	-11.4622
▁der	-11.4629
▁cha	-11.4636
▁hated	-11.464
ste	-11.4641
▁lighting	-11.4646
wan	-11.4672
kker	-11.4674
▁summers	-11.4674
mat	-11.4675
▁laying	-11.4683
▁ster	-11.4688
▁pockets	-11.4707
▁ama	-11.471
▁poop	-11.471
▁bib	-11.4712
▁brig	-11.4714
tor	-11.4717
▁auction	-11.4718
▁gloat	-11.4725
▁getta	-11.4728
experienced	-11.4732
▁patrollin	-11.4734
err	-11.4735
▁snick	-11.4736
staan	-11.4745
▁role	-11.4745
▁arab	-11.475
▁dope	-11.4754
▁excused	-11.4754
▁snivel	-11.4757
tions	-11.4761
▁cru	-11.477
▁var	-11.4785
divided	-11.481
▁cur	-11.4818
poo	-11.4818
lined	-11.4822
▁boast	-11.4828
▁ar	-11.4829
▁crystalli	-11.4829
▁primar	-11.4843
▁fund	-11.4846
▁handy	-11.485
▁indivi	-11.4853
chasing	-11.486
▁commentar	-11.4863
▁crowds	-11.4865
▁mars	-11.4868
▁loung	-11.4871
▁blueberr	-11.4874
▁housekeep	-11.4875
▁schr	-11.4878
▁ùøùù	-11.4884
dings	-11.4886
▁ports	-11.4888
▁defy	-11.4889
▁medic	-11.4916
emer	-11.4932
▁swamps	-11.4933
▁tapes	-11.4938
gy	-11.4938
osis	-11.4939
ws	-11.494
▁dazzle	-11.4948
▁skipp	-11.4949
▁schem	-11.4958
▁ami	-11.4959
ved	-11.496
▁specialize	-11.4962
▁offers	-11.4967
▁scu	-11.4968
uffle	-11.4974
dual	-11.4977
unt	-11.4978
▁maids	-11.498
▁charit	-11.4983
▁budd	-11.4987
gs	-11.4988
▁quin	-11.4989
▁swords	-11.4993
sylv	-11.4995
▁senses	-11.4995
▁colo	-11.5002
▁distin	-11.5005
▁clam	-11.5009
zam	-11.5038
ada	-11.5045
▁include	-11.5059
rd	-11.5062
lev	-11.5078
▁zout	-11.5081
ernal	-11.5094
▁bah	-11.51
▁root	-11.5103
ckling	-11.5111
øaù	-11.5114
▁favorites	-11.512
▁tid	-11.5145
ius	-11.5161
▁fields	-11.5162
▁hears	-11.5176
▁fr	-11.518
sion	-11.5188
▁sling	-11.5204
▁coop	-11.5209
▁drinker	-11.5215
nual	-11.5236
ughing	-11.5238
▁teams	-11.5241
▁comp	-11.5245
▁snug	-11.5255
ock	-11.5255
greatgrandmother	-11.5272
lea	-11.5284
▁pets	-11.5285
hara	-11.529
▁trou	-11.5316
▁painful	-11.5336
▁listened	-11.5344
▁puck	-11.5354
aked	-11.5362
ger	-11.5379
roni	-11.538
▁tone	-11.5386
▁graduat	-11.5393
gon	-11.5393
▁rein	-11.5396
▁bile	-11.5396
▁truthful	-11.5399
native	-11.5405
▁patri	-11.5407
llow	-11.5407
øùùø	-11.5412
aaa	-11.5414
▁rivers	-11.5416
tender	-11.5418
øùù	-11.5422
vide	-11.5423
ancy	-11.5424
▁wand	-11.543
sy	-11.5431
▁dele	-11.5438
cture	-11.5442
▁pres	-11.5451
▁gay	-11.546
cant	-11.546
▁meta	-11.5471
▁unn	-11.5489
uc	-11.553
▁sufferin	-11.5531
▁joes	-11.5532
▁curb	-11.5537
▁hag	-11.554
tto	-11.5579
▁keeper	-11.5597
od	-11.5597
nny	-11.5603
aza	-11.5608
ncy	-11.5619
ope	-11.5639
▁misunderstand	-11.5641
▁mock	-11.5643
▁blij	-11.5644
sting	-11.5658
▁ext	-11.5663
▁justi	-11.5665
iggle	-11.5679
ore	-11.568
▁dime	-11.5685
▁dubl	-11.5687
most	-11.5695
doo	-11.5698
▁gin	-11.5711
ranny	-11.5712
▁rehearse	-11.5733
▁infer	-11.5739
whats	-11.5741
rie	-11.5742
▁plead	-11.5744
pal	-11.5746
▁zw	-11.5751
▁vari	-11.5756
▁horri	-11.5759
▁bart	-11.5771
▁jan	-11.5774
▁trim	-11.5778
▁unfai	-11.5779
perish	-11.5786
verse	-11.5796
halt	-11.5796
▁øùøøùø	-11.5797
ab	-11.5799
leg	-11.5812
▁roast	-11.5813
sible	-11.5819
bury	-11.5834
▁glor	-11.5855
▁sme	-11.5868
tur	-11.5876
▁babbl	-11.5877
cule	-11.5879
▁geheim	-11.5889
yards	-11.5902
orrow	-11.5912
timate	-11.5923
ael	-11.5932
urge	-11.5936
sted	-11.5943
▁vis	-11.5948
▁ascen	-11.5958
lsey	-11.5959
berries	-11.5975
▁imper	-11.5988
ago	-11.5992
ically	-11.5999
▁rudd	-11.6003
tell	-11.6009
▁cop	-11.6012
▁ruf	-11.6019
▁hallelu	-11.6019
pid	-11.6027
ide	-11.6032
ula	-11.6042
▁liver	-11.6044
rell	-11.6064
enon	-11.6065
▁tosh	-11.6067
mo	-11.6069
▁ple	-11.6079
▁whatevers	-11.6108
▁verse	-11.6116
▁yappin	-11.6117
▁hypo	-11.6123
▁slid	-11.6129
▁math	-11.613
▁swamp	-11.6142
▁moons	-11.6142
▁za	-11.6164
eat	-11.6165
▁mel	-11.6171
▁dwar	-11.6206
itation	-11.6209
row	-11.621
▁provo	-11.6214
cking	-11.6214
sia	-11.6223
▁gravel	-11.6249
▁cloth	-11.6277
saur	-11.628
ace	-11.6282
pho	-11.6288
atherin	-11.6295
crumpet	-11.6295
▁oo	-11.6313
rrell	-11.6314
▁univers	-11.6314
▁sof	-11.6324
eff	-11.6352
▁pod	-11.6354
▁associat	-11.6406
nkers	-11.6411
iddle	-11.6424
▁haya	-11.6425
ments	-11.6431
▁identifi	-11.6436
per	-11.6448
▁croc	-11.645
▁ste	-11.645
▁øùøùøø	-11.645
yder	-11.6459
icy	-11.6461
erman	-11.6462
ùøùø	-11.6463
▁rim	-11.6464
▁sprinkle	-11.6467
lo	-11.6483
idge	-11.6495
▁grav	-11.6502
mi	-11.6504
ext	-11.6506
▁tap	-11.6511
▁hee	-11.6541
aking	-11.6552
uki	-11.6556
ison	-11.6597
▁bio	-11.6599
dd	-11.6601
▁thud	-11.6614
▁ripe	-11.6631
▁crocke	-11.6635
▁seiz	-11.6637
▁wonders	-11.6641
▁parting	-11.6644
itting	-11.6646
awful	-11.666
▁nun	-11.6661
ector	-11.6694
sort	-11.6697
yeah	-11.6703
▁jin	-11.6704
▁fist	-11.6714
▁explor	-11.6727
mor	-11.6741
ute	-11.6751
▁mash	-11.6767
▁homes	-11.6786
▁hor	-11.6798
▁for	-11.6801
▁plea	-11.6805
▁commit	-11.6811
▁sham	-11.6819
▁devo	-11.6819
ijn	-11.6826
▁cana	-11.6826
▁cla	-11.6827
▁rot	-11.6837
now	-11.684
oon	-11.685
sions	-11.686
etting	-11.687
ya	-11.6875
ti	-11.6877
aviar	-11.6886
ario	-11.6896
▁thiev	-11.6907
tious	-11.6908
gonz	-11.6913
▁kap	-11.6921
▁twee	-11.6937
low	-11.6949
▁vac	-11.6955
▁squa	-11.6955
▁leads	-11.6961
pe	-11.6965
▁det	-11.6981
ways	-11.7
ands	-11.7
un	-11.7003
▁gestu	-11.7004
▁wwe	-11.7012
sma	-11.7015
▁exhausti	-11.7031
snt	-11.7036
▁historical	-11.704
gity	-11.7055
aar	-11.7059
▁rom	-11.7075
▁housework	-11.7085
▁beard	-11.7088
ep	-11.709
▁verb	-11.7097
tter	-11.7105
▁øùøøø	-11.7115
ations	-11.7119
▁pend	-11.7137
▁destruct	-11.7139
llage	-11.7145
onden	-11.7148
ecom	-11.7152
▁glo	-11.7154
ingham	-11.7154
▁thingy	-11.7161
▁deservin	-11.7174
▁sic	-11.7178
▁inn	-11.7181
cial	-11.7186
▁magn	-11.72
chemistry	-11.7203
ants	-11.7214
▁hahaha	-11.7218
oki	-11.7239
▁oat	-11.7243
ative	-11.7243
▁lin	-11.7246
dog	-11.725
boy	-11.7254
wei	-11.728
ax	-11.7281
▁tho	-11.7281
ph	-11.7315
erie	-11.7329
kins	-11.7332
pin	-11.7334
▁expo	-11.7337
tus	-11.7338
ssion	-11.7343
▁emb	-11.7347
▁zombi	-11.7348
▁interna	-11.7356
▁erva	-11.7366
thank	-11.7369
hole	-11.7369
tive	-11.737
▁obey	-11.7372
ores	-11.7373
ire	-11.738
ously	-11.7397
▁gaul	-11.7398
▁ske	-11.7413
▁lefthand	-11.7423
▁lava	-11.7424
▁freight	-11.7437
▁mobs	-11.7439
▁øøøøù	-11.7441
▁earths	-11.7449
▁squ	-11.7451
lac	-11.7452
▁swi	-11.7456
closure	-11.7458
nix	-11.747
rained	-11.7472
▁upa	-11.7486
▁travell	-11.7487
stationed	-11.7491
ys	-11.7498
shed	-11.7499
▁bli	-11.7504
▁follows	-11.7505
cks	-11.7516
change	-11.7517
▁git	-11.7539
lps	-11.7544
lp	-11.7555
ria	-11.7561
acks	-11.7571
▁zip	-11.7582
print	-11.7608
cold	-11.7613
gest	-11.7616
▁øùøùù	-11.7626
▁fortunate	-11.7638
assy	-11.7643
uffed	-11.7647
▁leapin	-11.7652
sive	-11.7659
ub	-11.766
two	-11.7661
visor	-11.7663
ames	-11.7663
ces	-11.7665
great	-11.7672
whoa	-11.7691
hey	-11.7692
eil	-11.7697
hall	-11.77
cing	-11.7701
▁cons	-11.7714
▁phon	-11.7714
▁dedicat	-11.7722
▁las	-11.7732
▁poll	-11.7734
▁studie	-11.7736
wing	-11.7765
▁forgets	-11.7768
▁gener	-11.7781
last	-11.7786
eckon	-11.7788
▁robbe	-11.779
▁transmitt	-11.7793
▁funk	-11.7794
rash	-11.7796
bby	-11.7797
ol	-11.7817
▁abe	-11.7818
ouncing	-11.7826
▁dek	-11.7834
eight	-11.7835
▁dec	-11.7839
lady	-11.7856
oline	-11.7856
rris	-11.7869
hounds	-11.7885
▁bou	-11.7887
urg	-11.7897
horse	-11.7899
▁sche	-11.7912
▁sau	-11.7914
▁prowle	-11.7919
bag	-11.7921
▁scen	-11.7923
mitted	-11.7925
ible	-11.7935
▁digni	-11.7943
arse	-11.7947
youyou	-11.7951
mb	-11.7952
nter	-11.7953
wanted	-11.7956
lace	-11.7958
▁nag	-11.796
earth	-11.7968
wed	-11.7969
fast	-11.7977
worm	-11.7979
sket	-11.7983
▁shovin	-11.7983
itude	-11.7986
▁robin	-11.7988
promise	-11.799
rock	-11.8003
sky	-11.8003
billy	-11.801
oc	-11.8016
▁readin	-11.8017
laydeeo	-11.8018
egal	-11.8018
ngels	-11.8018
married	-11.8018
mouth	-11.8023
load	-11.8025
track	-11.8027
fool	-11.8027
▁haul	-11.8027
penny	-11.803
gown	-11.8031
box	-11.8035
knob	-11.8038
rama	-11.8038
▁figur	-11.8043
▁stud	-11.8043
▁swingin	-11.8043
glass	-11.8055
wacht	-11.8057
brush	-11.8059
iles	-11.8059
official	-11.8061
hour	-11.8063
aring	-11.8063
sharp	-11.8063
race	-11.8064
living	-11.8064
rid	-11.8065
beth	-11.8065
morgen	-11.8067
stock	-11.8068
filled	-11.8068
wash	-11.8069
nut	-11.807
plate	-11.807
▁communicat	-11.807
teacher	-11.8071
type	-11.8074
after	-11.8074
cup	-11.8076
style	-11.8078
cover	-11.8078
safety	-11.8079
pudding	-11.808
changing	-11.8081
linda	-11.8082
grant	-11.8083
center	-11.8083
knowledge	-11.8084
woord	-11.8084
trait	-11.8085
▁brook	-11.8086
tips	-11.8086
famous	-11.8087
worthy	-11.8089
wheel	-11.8092
driver	-11.8093
oodles	-11.8094
six	-11.8098
maar	-11.8099
minus	-11.8101
komen	-11.8103
colony	-11.8105
zero	-11.8106
movin	-11.8112
count	-11.8113
▁luk	-11.8117
clones	-11.8119
schat	-11.8122
self	-11.8122
guns	-11.8126
▁prop	-11.8133
▁backsta	-11.8134
wood	-11.8138
cult	-11.814
▁engage	-11.8144
▁fright	-11.8146
allowed	-11.8146
fired	-11.8148
▁riv	-11.8151
▁fisher	-11.8155
significant	-11.8157
printer	-11.8159
▁linin	-11.816
witch	-11.8165
responsible	-11.8166
buster	-11.8168
gai	-11.8168
isted	-11.817
doodle	-11.817
pie	-11.8171
yee	-11.8173
notes	-11.8175
▁click	-11.8183
▁beam	-11.8186
fraid	-11.8188
rose	-11.8189
cedo	-11.8189
▁wharton	-11.8191
▁guitar	-11.8191
▁bookkeep	-11.8191
▁napkin	-11.8192
▁signature	-11.8193
▁cannonball	-11.8193
▁troop	-11.8194
▁haulin	-11.8194
▁fri	-11.8195
▁contestant	-11.8195
▁blanket	-11.8195
▁partnership	-11.8197
▁doo	-11.8199
icu	-11.82
▁macaw	-11.82
▁carpetbagger	-11.8202
▁competitor	-11.8203
▁physic	-11.8203
▁beggar	-11.8204
▁norm	-11.8204
▁amigo	-11.8205
tracted	-11.8206
▁commercial	-11.8208
▁mammoth	-11.8208
▁method	-11.8209
▁continu	-11.8209
kom	-11.821
gaan	-11.821
▁mcalester	-11.821
salm	-11.821
▁shiver	-11.8211
▁kitten	-11.8212
▁nnot	-11.8212
▁technician	-11.8213
▁citizen	-11.8213
▁your	-11.8214
▁whisker	-11.8215
▁cookie	-11.8217
▁controller	-11.8222
▁token	-11.8222
▁moral	-11.8223
agent	-11.8224
▁scoff	-11.8225
pair	-11.8226
▁stow	-11.8227
rist	-11.8227
▁emotion	-11.823
lance	-11.823
▁trooper	-11.8231
▁wolve	-11.8234
▁specia	-11.8235
▁hagg	-11.8236
hac	-11.8237
▁runner	-11.8238
▁assistan	-11.8239
▁galley	-11.8242
▁onion	-11.8247
inary	-11.8248
known	-11.8255
▁rabbi	-11.8256
▁buzzard	-11.8258
▁connecti	-11.8263
▁confus	-11.8263
stitute	-11.8264
▁should	-11.8265
pleased	-11.8265
▁visitor	-11.8268
▁pipe	-11.8268
▁youngster	-11.8268
▁reg	-11.8269
▁argu	-11.8272
▁obli	-11.8273
▁gambl	-11.8273
arcas	-11.8274
▁nigh	-11.8275
▁oak	-11.828
▁ultimat	-11.8284
trak	-11.8285
▁accord	-11.8285
▁massag	-11.8286
rish	-11.8286
▁activat	-11.8286
▁stammer	-11.829
▁flirt	-11.829
▁proclaim	-11.8292
▁beloof	-11.8292
▁overload	-11.8293
▁bulb	-11.8294
▁adopt	-11.8294
▁abandon	-11.8295
▁pump	-11.8295
▁trigger	-11.8295
▁motorcycl	-11.8295
▁horribl	-11.8295
▁gidd	-11.8296
▁counsel	-11.8296
▁prophe	-11.8297
▁innocen	-11.8299
▁scatter	-11.8299
▁garde	-11.8301
pix	-11.8302
▁outrage	-11.8302
▁territor	-11.8303
▁assembl	-11.8304
▁ùøøø	-11.8306
▁necessar	-11.8306
her	-11.8306
▁filth	-11.8306
▁excellenc	-11.8306
▁laborator	-11.8306
▁jonge	-11.8307
øøøøù	-11.8307
▁winnin	-11.8308
▁peek	-11.8308
▁princip	-11.8308
▁damage	-11.8309
▁cordial	-11.831
▁immense	-11.8311
▁unfortunate	-11.8311
▁thorough	-11.8311
▁technical	-11.8312
▁immediate	-11.8312
▁greetin	-11.8313
▁anythin	-11.8313
▁numb	-11.8313
cable	-11.8314
dramati	-11.8314
▁recogni	-11.8316
▁schiet	-11.8316
▁beginnin	-11.8316
▁physi	-11.8316
▁darlin	-11.8316
ssels	-11.8317
▁destin	-11.8317
rijp	-11.8318
▁kiddin	-11.8318
▁flour	-11.8319
▁victori	-11.8319
ordinate	-11.8319
▁whistlin	-11.832
▁execut	-11.8321
▁congrat	-11.8321
▁recent	-11.8321
secution	-11.8322
▁depart	-11.8322
▁locomoti	-11.8322
polis	-11.8322
▁priva	-11.8322
▁forbid	-11.8323
kokuyama	-11.8323
indoheroes	-11.8323
▁civi	-11.8323
ointment	-11.8323
▁conservat	-11.8323
▁abnormal	-11.8323
▁constitu	-11.8323
▁oorlog	-11.8323
extraterrestrial	-11.8323
vlucht	-11.8323
▁accommodate	-11.8323
▁administer	-11.8323
▁agrippa	-11.8323
▁aldebaran	-11.8323
▁anschluss	-11.8323
▁anthonio	-11.8323
▁apparatus	-11.8323
▁apprehen	-11.8323
▁aqualitus	-11.8323
▁aristocrat	-11.8323
▁arizona	-11.8323
▁arlington	-11.8323
▁arrival	-11.8323
▁arrogance	-11.8323
▁article	-11.8323
▁astonished	-11.8323
▁asylum	-11.8323
▁bataille	-11.8323
▁bedchamber	-11.8323
▁benevolen	-11.8323
▁benzino	-11.8323
▁bicycle	-11.8323
▁blastoise	-11.8323
▁bourbon	-11.8323
▁bremerhaven	-11.8323
▁bububu	-11.8323
▁butterflies	-11.8323
▁buttermilk	-11.8323
▁calculating	-11.8323
▁calculation	-11.8323
▁carburet	-11.8323
▁chipmunk	-11.8323
▁chiseler	-11.8323
▁classifies	-11.8323
▁confucius	-11.8323
▁conviction	-11.8323
▁convicts	-11.8323
▁copilot	-11.8323
▁cumberland	-11.8323
▁daggett	-11.8323
▁dastardly	-11.8323
▁deployment	-11.8323
▁diplomat	-11.8323
▁disconnect	-11.8323
▁dividing	-11.8323
▁doobahdeedoo	-11.8323
▁elevation	-11.8323
▁elixir	-11.8323
▁environment	-11.8323
▁epilepsy	-11.8323
▁epileptic	-11.8323
▁etcetera	-11.8323
▁exquisite	-11.8323
▁fascinated	-11.8323
▁fatigue	-11.8323
▁fiddlefaddle	-11.8323
▁fireflies	-11.8323
▁florida	-11.8323
▁forfeit	-11.8323
▁fundamental	-11.8323
▁gadzooks	-11.8323
▁gaspargo	-11.8323
▁gehoorza	-11.8323
▁geregeld	-11.8323
▁giftwrap	-11.8323
▁gijzel	-11.8323
▁gillespie	-11.8323
▁glacier	-11.8323
▁grazie	-11.8323
▁handmaiden	-11.8323
▁hankypanky	-11.8323
▁haversack	-11.8323
▁hocuspocus	-11.8323
▁horizon	-11.8323
▁hornbills	-11.8323
▁humiliated	-11.8323
▁immunization	-11.8323
▁imprisoned	-11.8323
▁indispensable	-11.8323
▁inexpensive	-11.8323
▁injuries	-11.8323
▁intrigu	-11.8323
▁investment	-11.8323
▁investors	-11.8323
▁invincible	-11.8323
▁iobk	-11.8323
▁irregular	-11.8323
▁isotope	-11.8323
▁italian	-11.8323
▁jeopard	-11.8323
▁jiggling	-11.8323
▁joshua	-11.8323
▁jukebox	-11.8323
▁koppori	-11.8323
▁lizzie	-11.8323
▁lmagine	-11.8323
▁lummox	-11.8323
▁macdougall	-11.8323
▁majordomo	-11.8323
▁matrimony	-11.8323
▁meteorite	-11.8323
▁mischief	-11.8323
▁mitchans	-11.8323
▁miyazaki	-11.8323
▁mmhmmhmmhmm	-11.8323
▁mongrel	-11.8323
▁natuur	-11.8323
▁noriko	-11.8323
▁nostalgi	-11.8323
▁nutritious	-11.8323
▁obsolete	-11.8323
▁obstacle	-11.8323
▁olympic	-11.8323
▁onderneming	-11.8323
▁opgesloten	-11.8323
▁pamphlet	-11.8323
▁paranormal	-11.8323
▁peeeuu	-11.8323
▁pellinore	-11.8323
▁penalty	-11.8323
▁penguins	-11.8323
▁peninsula	-11.8323
▁pharsalia	-11.8323
▁poysanally	-11.8323
▁practising	-11.8323
▁praktijk	-11.8323
▁premiere	-11.8323
▁propellant	-11.8323
▁propulsion	-11.8323
▁psyduck	-11.8323
▁quarantine	-11.8323
▁reconsider	-11.8323
▁redecorate	-11.8323
▁registration	-11.8323
▁renegade	-11.8323
▁reproduce	-11.8323
▁retaliation	-11.8323
▁revoir	-11.8323
▁rheumatism	-11.8323
▁rhyhorn	-11.8323
▁ruffneck	-11.8323
▁ruzie	-11.8323
▁sacramento	-11.8323
▁safeguard	-11.8323
▁salvation	-11.8323
▁scheepsdokter	-11.8323
▁secondincommand	-11.8323
▁shepherd	-11.8323
▁simonides	-11.8323
▁skinflint	-11.8323
▁slimmerik	-11.8323
▁smallpox	-11.8323
▁sosigenes	-11.8323
▁substance	-11.8323
▁sufficient	-11.8323
▁suspicion	-11.8323
▁synchroniz	-11.8323
▁teaspoon	-11.8323
▁ticktock	-11.8323
▁tissue	-11.8323
▁tsunami	-11.8323
▁tsungping	-11.8323
▁ulcer	-11.8323
▁unaware	-11.8323
▁unconscious	-11.8323
▁unnecessary	-11.8323
▁unprotected	-11.8323
▁uptempo	-11.8323
▁urchin	-11.8323
▁vloeken	-11.8323
▁vocabulary	-11.8323
▁vodka	-11.8323
▁voorzorg	-11.8323
▁wednesday	-11.8323
▁whoaohhohh	-11.8323
▁whoawhoawhoa	-11.8323
▁wildebeest	-11.8323
▁woodcarvers	-11.8323
▁wuzzle	-11.8323
▁yorkshire	-11.8323
▁caravan	-11.8323
comprehensi	-11.8323
maatregel	-11.8323
nanimous	-11.8323
▁blackmail	-11.8323
▁boilils	-11.8323
▁brrrrr	-11.8323
▁catastroph	-11.8323
▁certificate	-11.8323
▁compartment	-11.8323
▁concoct	-11.8323
▁conscious	-11.8323
▁costumes	-11.8323
▁curtsy	-11.8323
▁discomboomerati	-11.8323
▁donnelly	-11.8323
▁droopy	-11.8323
▁engeland	-11.8323
▁flimflamm	-11.8323
▁gegeven	-11.8323
▁gevraagd	-11.8323
▁hypocrit	-11.8323
▁incinerate	-11.8323
▁indulg	-11.8323
▁intervals	-11.8323
▁israelites	-11.8323
▁jongetje	-11.8323
▁manipulat	-11.8323
▁neighbour	-11.8323
▁outsmart	-11.8323
▁pencil	-11.8323
▁saecul	-11.8323
▁samuel	-11.8323
▁sausage	-11.8323
▁separation	-11.8323
▁stamina	-11.8323
▁tabernacle	-11.8323
▁teagler	-11.8323
▁tiberius	-11.8323
▁utiliz	-11.8323
▁vantino	-11.8323
▁vroeg	-11.8323
▁yoshie	-11.8323
▁atalkin	-11.8323
▁distressed	-11.8323
▁fresno	-11.8323
▁germanicus	-11.8323
▁ontsnap	-11.8323
▁shoteka	-11.8323
▁confetti	-11.8323
▁expelled	-11.8323
▁furnace	-11.8323
▁handmedown	-11.8323
▁pneum	-11.8323
▁reptile	-11.8323
▁sabbat	-11.8323
▁semester	-11.8323
▁testament	-11.8323
▁litteken	-11.8324
▁refuge	-11.8324
øaøøø	-11.8324
▁aristo	-11.8324
▁atroci	-11.8324
▁cicero	-11.8324
▁congress	-11.8324
▁crafts	-11.8324
▁decorations	-11.8324
▁errand	-11.8324
▁museum	-11.8324
▁strudel	-11.8324
▁torrent	-11.8324
▁vertrouwen	-11.8324
▁absurd	-11.8324
▁ciao	-11.8324
▁delicac	-11.8324
▁minstrel	-11.8324
▁smitten	-11.8324
▁swampmobile	-11.8324
▁tokyo	-11.8324
eeeeehoooo	-11.8324
oobydoo	-11.8324
tribute	-11.8324
▁afterwards	-11.8324
▁codger	-11.8324
▁eruitzien	-11.8324
▁promote	-11.8324
▁protons	-11.8324
▁schateiland	-11.8324
▁unlikely	-11.8324
▁vertrek	-11.8324
▁halibut	-11.8324
▁sputter	-11.8324
▁follies	-11.8324
▁futile	-11.8324
▁hyperventilat	-11.8324
▁vaporized	-11.8324
▁amazed	-11.8324
▁erewoord	-11.8324
▁forecast	-11.8324
▁mantoman	-11.8324
▁cartridge	-11.8324
▁detaining	-11.8324
▁drusus	-11.8324
▁jugular	-11.8324
▁nitrogen	-11.8324
▁prosper	-11.8324
▁duivel	-11.8324
▁sheesh	-11.8324
▁navigat	-11.8324
▁parsley	-11.8324
▁persuasion	-11.8324
▁rebellion	-11.8324
▁genteel	-11.8324
▁shortcomings	-11.8324
▁characteristic	-11.8324
▁intact	-11.8324
▁bundle	-11.8324
▁precede	-11.8324
▁theodotus	-11.8324
▁therapist	-11.8324
▁magnification	-11.8324
▁acquaintance	-11.8324
▁ohhoho	-11.8324
▁application	-11.8324
▁rhone	-11.8324
▁wwwait	-11.8324
▁athlet	-11.8324
▁foxx	-11.8324
▁streken	-11.8324
rheu	-11.8324
uwelijk	-11.8324
▁disrupt	-11.8324
▁external	-11.8324
▁fortunetelling	-11.8324
▁stagecoach	-11.8324
▁solitude	-11.8324
▁butbutbut	-11.8324
▁celery	-11.8324
▁giddyap	-11.8324
▁stampede	-11.8324
▁greatgreatgreat	-11.8324
▁snij	-11.8324
▁toothbrush	-11.8324
▁vegas	-11.8324
▁kidnappers	-11.8324
▁barbos	-11.8324
▁dispute	-11.8324
▁dooche	-11.8324
▁tactics	-11.8324
▁mutations	-11.8324
▁promenade	-11.8324
▁shakin	-11.8324
▁smuggle	-11.8324
▁arnie	-11.8324
▁adapt	-11.8324
▁lulu	-11.8324
▁siesta	-11.8324
▁visualize	-11.8324
▁singlehanded	-11.8324
▁corporal	-11.8324
▁exterminators	-11.8324
▁popcorn	-11.8324
▁predator	-11.8324
▁disorder	-11.8324
▁turbo	-11.8324
▁louise	-11.8324
▁russians	-11.8324
▁outnumber	-11.8324
▁specifically	-11.8324
▁pressurization	-11.8324
▁stooge	-11.8324
▁biomed	-11.8324
gelaten	-11.8324
▁medcom	-11.8324
urban	-11.8324
▁climate	-11.8324
▁exterminat	-11.8324
▁yellowbellied	-11.8324
▁downhearted	-11.8324
▁impact	-11.8324
▁swoop	-11.8324
▁coroner	-11.8324
▁infatuat	-11.8324
▁meadow	-11.8324
▁cherish	-11.8324
▁pinstripin	-11.8324
▁seasick	-11.8324
▁aerodynamic	-11.8324
▁øùøùùùù	-11.8324
▁indigestion	-11.8324
▁barrier	-11.8324
▁enforcement	-11.8324
▁gradually	-11.8324
▁downtown	-11.8324
▁frillies	-11.8324
▁distort	-11.8324
▁inconspicuous	-11.8324
▁legacy	-11.8324
▁hippie	-11.8324
alibu	-11.8324
▁matron	-11.8324
▁convenien	-11.8324
▁stumble	-11.8324
▁formalities	-11.8324
▁nourish	-11.8324
▁sheii	-11.8324
▁dugout	-11.8324
▁particles	-11.8324
▁caution	-11.8324
▁frostbit	-11.8324
▁indications	-11.8324
▁velia	-11.8324
▁cylinders	-11.8324
▁twentythree	-11.8324
▁swipe	-11.8324
▁sophi	-11.8324
▁edgy	-11.8324
▁edison	-11.8324
▁acquired	-11.8324
▁prevent	-11.8324
▁repent	-11.8324
equiv	-11.8325
▁sidetracked	-11.8325
▁protege	-11.8325
▁fuzz	-11.8325
▁recite	-11.8325
▁resentment	-11.8325
▁trespasse	-11.8325
▁lmpossible	-11.8325
▁seagulls	-11.8325
▁visual	-11.8325
angled	-11.8325
▁coronation	-11.8325
▁gramps	-11.8325
▁qualify	-11.8325
▁identity	-11.8325
▁altijd	-11.8325
▁bernice	-11.8325
▁geraakt	-11.8325
▁citizenship	-11.8325
▁civilian	-11.8325
▁spoof	-11.8325
▁doublezero	-11.8325
▁denied	-11.8325
▁moeder	-11.8325
▁slappers	-11.8325
▁blank	-11.8325
▁robinson	-11.8325
▁venice	-11.8325
▁bulk	-11.8325
▁reception	-11.8325
▁moderate	-11.8325
▁detonat	-11.8325
▁munchkin	-11.8325
▁fringe	-11.8325
▁realizing	-11.8325
▁ninny	-11.8325
▁matchmouth	-11.8325
▁scalp	-11.8325
▁ugliest	-11.8325
▁apron	-11.8325
▁plowing	-11.8325
▁possession	-11.8325
▁globe	-11.8325
▁khanka	-11.8325
▁henderson	-11.8325
▁wrestl	-11.8325
weensy	-11.8325
▁ohohohoh	-11.8325
▁detonation	-11.8325
▁midway	-11.8325
▁goggles	-11.8326
▁malicious	-11.8326
▁mackerel	-11.8326
lutely	-11.8326
▁chopping	-11.8326
▁cooch	-11.8326
▁trixie	-11.8326
▁willfully	-11.8326
▁wilmer	-11.8326
▁moralist	-11.8326
▁flinch	-11.8326
▁spunk	-11.8326
▁daffy	-11.8326
▁dependence	-11.8326
▁tribe	-11.8326
▁insulin	-11.8326
▁manuel	-11.8326
▁vital	-11.8326
▁unimportant	-11.8326
▁notified	-11.8326
▁quaint	-11.8326
▁microscan	-11.8326
▁cherie	-11.8326
▁pacific	-11.8326
▁flatlin	-11.8326
▁depot	-11.8326
▁snapped	-11.8326
▁decency	-11.8326
▁patterson	-11.8326
▁realistic	-11.8326
▁trifl	-11.8326
▁camden	-11.8326
▁exalt	-11.8326
▁aqua	-11.8326
mination	-11.8326
▁rehearsal	-11.8326
matics	-11.8326
▁persua	-11.8326
▁attraction	-11.8326
▁abso	-11.8326
▁sneezy	-11.8326
▁huntsman	-11.8326
▁bertha	-11.8326
▁spullen	-11.8327
▁drips	-11.8327
▁disposal	-11.8327
▁waterfall	-11.8327
▁unloved	-11.8327
▁chaperon	-11.8327
▁compass	-11.8327
▁gehad	-11.8327
▁notebook	-11.8327
pickin	-11.8327
▁eruit	-11.8327
▁carreen	-11.8327
▁gesch	-11.8327
▁detective	-11.8327
▁doeuvre	-11.8327
▁confrontation	-11.8327
▁tickles	-11.8327
▁landheer	-11.8327
▁strangle	-11.8328
▁blueprint	-11.8328
▁prank	-11.8328
▁buiten	-11.8328
▁provision	-11.8328
clusive	-11.8328
▁production	-11.8328
▁mixup	-11.8328
▁inspector	-11.8328
▁lalala	-11.8328
▁zebra	-11.8328
▁tumble	-11.8328
▁marries	-11.8328
key	-11.8328
▁curious	-11.8328
▁conscien	-11.8328
daisy	-11.8328
▁stuntmen	-11.8328
▁nonpo	-11.8328
▁altogether	-11.8328
▁skirt	-11.8329
▁attic	-11.8329
▁bluebird	-11.8329
▁surging	-11.8329
▁terrace	-11.8329
▁fluke	-11.8329
▁belinda	-11.8329
▁commandments	-11.8329
▁behal	-11.8329
▁attagirl	-11.8329
▁cobb	-11.8329
▁funeral	-11.8329
▁binky	-11.8329
gglers	-11.8329
▁overseer	-11.8329
▁consarn	-11.833
▁retirement	-11.833
▁vrij	-11.833
▁firefly	-11.833
▁muddle	-11.833
▁achill	-11.833
▁assuming	-11.833
▁horsewoman	-11.833
▁energ	-11.833
▁primaries	-11.833
▁catfish	-11.833
▁embarrassment	-11.833
▁halfhour	-11.833
▁busybody	-11.833
▁emerge	-11.833
▁cedar	-11.8331
▁civil	-11.8331
▁bellissima	-11.8331
▁gunshot	-11.8331
▁ounce	-11.8331
▁slayton	-11.8331
▁superior	-11.8331
▁sixpence	-11.8331
▁injustice	-11.8331
▁envi	-11.8331
▁checkpoint	-11.8331
▁yurt	-11.8331
▁mutat	-11.8331
▁furious	-11.8331
▁ohohoh	-11.8331
▁drool	-11.8332
▁trouser	-11.8332
▁defective	-11.8332
▁doggone	-11.8332
▁lioness	-11.8332
▁griff	-11.8332
▁hinting	-11.8332
▁yodel	-11.8332
▁aero	-11.8332
▁downhill	-11.8332
▁scarier	-11.8332
▁brewers	-11.8333
▁appeal	-11.8333
▁manufacturing	-11.8333
▁moaning	-11.8333
▁snail	-11.8333
▁popped	-11.8333
▁taffy	-11.8333
▁domestic	-11.8334
▁infield	-11.8334
▁background	-11.8334
▁relish	-11.8334
▁theft	-11.8334
▁spotlight	-11.8334
incense	-11.8334
▁squeakity	-11.8334
▁crowbar	-11.8334
▁tangled	-11.8334
▁custo	-11.8334
▁luckiest	-11.8334
▁goldstone	-11.8334
▁argument	-11.8334
▁doggy	-11.8334
▁tyke	-11.8334
▁mobilize	-11.8334
▁munch	-11.8334
▁sheik	-11.8334
▁wager	-11.8334
▁encouraging	-11.8335
▁seawater	-11.8335
▁heroic	-11.8335
▁wahoo	-11.8335
▁pinched	-11.8335
▁seattle	-11.8335
▁wireless	-11.8335
▁refurbished	-11.8335
▁nik	-11.8335
▁serval	-11.8335
▁lucas	-11.8335
▁forgiving	-11.8335
▁variation	-11.8335
▁personality	-11.8335
arctic	-11.8336
▁misjudged	-11.8336
▁swore	-11.8336
▁maximu	-11.8336
▁wakin	-11.8336
▁criticized	-11.8336
▁wrinkled	-11.8337
▁possess	-11.8337
▁critter	-11.8337
▁serene	-11.8338
▁clipped	-11.8338
▁cordially	-11.8338
▁wept	-11.8338
▁increasing	-11.8338
▁jury	-11.8338
▁eighteen	-11.8338
ishpo	-11.8338
▁geeup	-11.8338
▁sunlight	-11.8339
bay	-11.8339
▁hideaway	-11.8339
▁wrist	-11.8339
▁advertising	-11.8339
▁confuse	-11.8339
escription	-11.8339
▁toege	-11.8339
▁airport	-11.834
▁canary	-11.834
breaker	-11.834
▁sinned	-11.834
▁spek	-11.834
▁misleading	-11.834
▁teken	-11.834
▁chapel	-11.834
▁emanat	-11.834
▁additional	-11.834
▁rewing	-11.834
▁mentally	-11.834
▁bapti	-11.834
dagger	-11.8341
▁deliberation	-11.8341
▁hatred	-11.8341
qualif	-11.8341
▁puffed	-11.8341
▁marsh	-11.8341
▁frying	-11.8341
▁inevitable	-11.8341
▁basis	-11.8341
▁appointed	-11.8341
▁discussion	-11.8341
▁slippery	-11.8341
▁hideout	-11.8342
▁rapidfire	-11.8342
▁colorful	-11.8342
▁origin	-11.8342
rawlin	-11.8343
▁schoolboy	-11.8343
▁wockety	-11.8343
▁quadra	-11.8343
▁scuttl	-11.8343
mobile	-11.8343
olent	-11.8344
▁preferred	-11.8344
▁doubling	-11.8344
niversa	-11.8344
▁ambush	-11.8344
▁touchdown	-11.8344
▁sneer	-11.8344
▁vrienden	-11.8345
▁vessel	-11.8345
▁ww	-11.8345
landed	-11.8345
▁myth	-11.8345
▁shameful	-11.8345
▁dusk	-11.8345
▁resent	-11.8347
▁dears	-11.8347
▁teensy	-11.8347
▁stirred	-11.8347
▁adjustment	-11.8347
▁vibration	-11.8347
▁royalty	-11.8348
▁recommendation	-11.8348
▁overcome	-11.8348
osity	-11.8348
▁marshes	-11.8348
▁ankeren	-11.8349
▁discoveries	-11.8349
▁disappointment	-11.8349
▁rammed	-11.8349
▁courageously	-11.8349
▁debts	-11.835
▁booze	-11.835
▁sterf	-11.835
▁trouper	-11.835
emption	-11.835
trained	-11.835
▁chemistr	-11.8351
▁counselor	-11.8351
▁slurp	-11.8351
▁madder	-11.8351
▁supply	-11.8352
▁technological	-11.8352
▁beamed	-11.8352
▁pooped	-11.8352
▁potts	-11.8353
▁clank	-11.8353
▁dunn	-11.8353
▁bevel	-11.8354
agenda	-11.8354
▁ankle	-11.8355
acco	-11.8355
▁woodc	-11.8355
▁proclaimed	-11.8355
▁uneven	-11.8356
▁overloaded	-11.8356
▁folly	-11.8356
▁toev	-11.8356
▁filter	-11.8357
▁beloofd	-11.8357
pions	-11.8357
▁shipmate	-11.8357
▁daydreams	-11.8357
▁stup	-11.8357
▁slats	-11.8357
▁identi	-11.8358
▁bartel	-11.8358
▁nip	-11.8358
▁warble	-11.8359
▁evicted	-11.8359
avor	-11.8359
▁brainless	-11.8359
▁tel	-11.8359
▁christen	-11.8359
▁alien	-11.836
▁zag	-11.836
▁ligt	-11.836
▁updat	-11.836
nderhande	-11.836
▁twig	-11.836
bach	-11.8361
▁orange	-11.8362
▁toby	-11.8362
▁milli	-11.8362
▁lyin	-11.8362
▁inventor	-11.8362
brained	-11.8363
▁residents	-11.8363
▁detest	-11.8363
yaya	-11.8364
▁transformed	-11.8365
▁pub	-11.8365
▁bullies	-11.8365
▁engineering	-11.8365
▁astounds	-11.8365
▁schm	-11.8366
ctful	-11.8367
▁lecture	-11.8367
▁bandage	-11.8367
▁judy	-11.8367
▁gambling	-11.8367
▁bidder	-11.8367
▁diner	-11.8368
▁slum	-11.8368
▁yank	-11.8368
geslagen	-11.8369
▁climbers	-11.8369
▁temporar	-11.8369
arnished	-11.837
endous	-11.837
▁organize	-11.837
▁cheatin	-11.8371
▁ùøaù	-11.8371
▁obeying	-11.8372
▁indoors	-11.8372
▁beetles	-11.8372
▁shillings	-11.8372
▁coolness	-11.8372
▁gaskets	-11.8373
▁jade	-11.8373
▁midgets	-11.8373
▁scratchin	-11.8373
▁massage	-11.8373
▁outdoors	-11.8373
▁gewo	-11.8373
▁resources	-11.8373
▁symptoms	-11.8373
▁pancakes	-11.8373
▁sapphires	-11.8373
▁parasites	-11.8373
▁postulants	-11.8373
▁footprints	-11.8373
▁knickknacks	-11.8373
▁bigfoot	-11.8375
▁attaboy	-11.8375
▁geldings	-11.8375
▁informer	-11.8375
▁dobell	-11.8375
▁twirl	-11.8376
▁chern	-11.8376
▁sorcerer	-11.8376
▁leaned	-11.8377
▁pulse	-11.8377
▁isolated	-11.8378
▁murmurs	-11.8378
▁tyrant	-11.8378
▁implication	-11.8378
▁suggestions	-11.8378
▁talon	-11.8379
idity	-11.8379
▁performers	-11.8379
▁truthfully	-11.838
▁robbers	-11.838
▁pline	-11.8381
▁lunk	-11.8381
▁abilit	-11.8381
▁continuing	-11.8381
▁consist	-11.8381
▁latches	-11.8382
▁solution	-11.8382
▁babysitting	-11.8383
▁geval	-11.8383
▁krui	-11.8384
irst	-11.8385
▁colt	-11.8386
rif	-11.8386
shop	-11.8386
▁starring	-11.8388
▁blueberry	-11.8388
▁zij	-11.8388
▁oui	-11.8388
▁dragged	-11.8388
▁delayed	-11.8388
▁makebelieve	-11.8389
▁endure	-11.839
itch	-11.839
▁tweak	-11.8391
▁adored	-11.8391
nders	-11.8391
▁clothing	-11.8392
▁layers	-11.8393
▁handsomest	-11.8393
woo	-11.8394
▁arbor	-11.8394
▁moping	-11.8395
▁driveway	-11.8395
weed	-11.8395
▁asomething	-11.8396
▁granit	-11.8396
▁crushed	-11.8396
ania	-11.8396
baar	-11.8396
▁myst	-11.8397
▁plumbing	-11.8397
outs	-11.8397
▁pressed	-11.8398
▁barefoot	-11.84
▁rotate	-11.84
▁combined	-11.84
vraag	-11.84
▁ripped	-11.84
sota	-11.8403
ooking	-11.8403
ggs	-11.8403
ripides	-11.8403
▁toro	-11.8403
▁stride	-11.8404
▁owie	-11.8404
heid	-11.8405
rechten	-11.8405
▁apes	-11.8407
▁serving	-11.8408
ning	-11.8408
▁parson	-11.8409
▁tenor	-11.8409
iffel	-11.8409
▁workroom	-11.8409
▁jewelers	-11.841
▁runaway	-11.8411
▁sooth	-11.8413
▁physically	-11.8413
▁heights	-11.8415
▁nanny	-11.8416
▁brandy	-11.8417
▁photography	-11.8417
▁bursting	-11.8417
cile	-11.8417
odlee	-11.8418
▁lamour	-11.8418
▁convenience	-11.8418
▁summar	-11.8419
▁tenth	-11.842
▁lolly	-11.8421
mber	-11.8421
▁solo	-11.8422
▁tryout	-11.8424
audi	-11.8425
▁saiy	-11.8425
▁configur	-11.8425
▁galle	-11.8426
▁attached	-11.8426
▁gnight	-11.8427
▁brengt	-11.8427
monger	-11.8427
▁multipl	-11.8427
▁monte	-11.8427
▁estimate	-11.8428
▁yoke	-11.8428
▁dung	-11.8429
▁ladylike	-11.8429
▁pointless	-11.8429
▁secretive	-11.8429
▁probable	-11.843
▁lorry	-11.8431
▁patiently	-11.8431
▁maniac	-11.8432
▁defeated	-11.8432
▁spreken	-11.8433
scheur	-11.8433
crease	-11.8433
▁contains	-11.8434
▁epit	-11.8436
▁stalling	-11.8436
▁trading	-11.8438
▁partial	-11.8438
▁radioactiv	-11.8439
bli	-11.8439
biology	-11.8439
zelle	-11.8439
vergn	-11.8439
▁hacked	-11.844
▁surfing	-11.844
▁woke	-11.8441
▁refined	-11.8441
▁pints	-11.8444
▁loco	-11.8444
▁reno	-11.8446
venting	-11.8446
▁static	-11.8446
ient	-11.8447
▁derail	-11.8447
patches	-11.8448
▁breakers	-11.8449
▁chills	-11.8449
▁blossoming	-11.845
▁pact	-11.845
▁tokens	-11.8451
▁screwed	-11.8454
▁taller	-11.8454
▁accuse	-11.8455
▁accompan	-11.8455
▁electron	-11.8456
▁dune	-11.8458
▁guitars	-11.8458
▁napkins	-11.8458
▁whartons	-11.8458
▁signatures	-11.8458
▁blankets	-11.8458
▁contestants	-11.8458
▁cannonballs	-11.8459
▁portal	-11.8459
▁partnerships	-11.8459
▁morals	-11.8459
▁bulbs	-11.846
▁attempted	-11.846
▁splu	-11.846
▁dodo	-11.846
▁fiance	-11.846
▁fiigure	-11.8461
▁stretching	-11.8461
▁muffler	-11.8462
▁kies	-11.8463
▁suspende	-11.8465
▁dun	-11.8465
▁translat	-11.8468
▁whoaho	-11.8469
▁bookkeeper	-11.8469
▁dire	-11.8471
▁engages	-11.8471
▁pushin	-11.8472
▁pff	-11.8473
▁sellin	-11.8473
gues	-11.8474
▁pried	-11.8476
▁xs	-11.8476
▁secured	-11.8477
▁vine	-11.8477
▁skat	-11.8478
▁squeaker	-11.8479
▁masks	-11.848
▁improved	-11.8481
▁ails	-11.8483
▁nook	-11.8483
▁gator	-11.8483
▁rambl	-11.8484
▁existed	-11.8486
▁european	-11.8487
pher	-11.8487
▁hardship	-11.8489
▁janie	-11.8489
gher	-11.8489
▁elder	-11.8489
habit	-11.8491
podg	-11.8492
▁chapman	-11.8493
shion	-11.8493
▁toll	-11.8494
▁height	-11.8497
▁brightly	-11.8498
▁theat	-11.8498
▁kijke	-11.8499
▁blowin	-11.85
▁soften	-11.8501
▁pipes	-11.8502
ition	-11.8502
▁aos	-11.8502
▁cracker	-11.8503
ymore	-11.8505
▁hamlet	-11.8506
▁jumpin	-11.8507
▁charts	-11.8507
▁shouted	-11.8508
▁suspens	-11.851
▁innings	-11.851
nowed	-11.8512
▁defending	-11.8512
journe	-11.8514
▁angr	-11.8515
catcher	-11.8516
mping	-11.8516
▁collected	-11.8517
▁unalter	-11.8517
▁actin	-11.8522
▁shaken	-11.8525
▁greer	-11.8525
▁countin	-11.8526
▁terrifi	-11.8526
▁admires	-11.8527
▁pike	-11.8528
▁teachin	-11.853
▁gorge	-11.8532
▁fetcher	-11.8534
▁sleeves	-11.8535
eevinrude	-11.8537
▁cali	-11.8537
▁strains	-11.8538
▁enig	-11.8539
▁zuid	-11.8539
▁cleanin	-11.854
▁awaited	-11.8541
▁blades	-11.8541
▁hors	-11.8542
▁arrested	-11.8543
▁ladybug	-11.8544
▁slatterys	-11.8545
▁cannibals	-11.8545
▁reservations	-11.8545
▁imitati	-11.8545
▁decades	-11.8545
▁notions	-11.8546
▁mas	-11.8547
▁girlie	-11.8548
spelen	-11.8548
▁herb	-11.8549
too	-11.855
▁naked	-11.855
▁cigars	-11.855
▁hallways	-11.855
grams	-11.8551
isty	-11.8553
▁physics	-11.8554
▁sucks	-11.8554
▁tick	-11.8557
▁objection	-11.8559
eeeee	-11.8561
▁stan	-11.8561
▁lug	-11.8561
oooohoo	-11.8561
▁jall	-11.8563
▁nami	-11.8564
dabra	-11.8564
ticking	-11.8564
haus	-11.8565
▁waking	-11.8566
pane	-11.8567
aries	-11.8568
▁viewer	-11.8569
▁fatal	-11.857
bec	-11.8571
▁yeow	-11.8573
▁maroon	-11.8574
▁goodlooking	-11.8574
▁released	-11.8576
▁hysteric	-11.8576
▁sherman	-11.8579
▁philosophic	-11.858
▁impulse	-11.8582
▁heavenly	-11.8584
▁ramp	-11.8586
loqu	-11.8586
duce	-11.8587
vacu	-11.859
▁contr	-11.8591
▁carryin	-11.8595
ok	-11.8598
▁molt	-11.8599
▁courte	-11.8599
▁desk	-11.8599
▁traveler	-11.86
rosy	-11.8602
▁fli	-11.8602
▁ups	-11.8602
ington	-11.8603
▁squared	-11.8604
▁neighing	-11.8604
▁sens	-11.8609
▁sanct	-11.8609
▁bravest	-11.8609
▁dissen	-11.8611
▁causes	-11.8611
gulls	-11.8616
▁struggles	-11.8617
holes	-11.8623
▁after	-11.8624
xed	-11.8627
sneden	-11.8628
▁itit	-11.863
▁temperatures	-11.8633
▁learnin	-11.8633
▁øaù	-11.8635
▁jabber	-11.8636
▁sources	-11.8637
▁zin	-11.8638
▁admire	-11.8641
▁thr	-11.8642
ffel	-11.8643
▁trailing	-11.8646
ank	-11.8649
pated	-11.8649
▁fever	-11.8652
▁affections	-11.8654
▁mijne	-11.8655
▁moest	-11.8656
▁shootout	-11.8657
ose	-11.8657
alogue	-11.8657
▁shootin	-11.8657
▁milkman	-11.8664
▁ander	-11.8665
▁minst	-11.8667
▁clin	-11.8671
▁teens	-11.8675
icted	-11.8676
▁mellow	-11.8677
▁drawn	-11.8678
▁obscure	-11.8678
▁pint	-11.8682
gging	-11.8685
▁suffers	-11.8687
▁asp	-11.8687
▁incidents	-11.8695
▁ballet	-11.8696
▁speakin	-11.87
hy	-11.8701
ssed	-11.8702
▁growin	-11.8703
▁keer	-11.8703
▁dreamin	-11.8709
▁drivein	-11.8713
▁amuses	-11.8715
▁conceiv	-11.8715
▁scamp	-11.8716
▁deserted	-11.8716
▁bbb	-11.8717
▁stinger	-11.8718
▁remarks	-11.8718
▁nearer	-11.872
arden	-11.872
▁prob	-11.8721
▁sep	-11.8723
▁buckets	-11.8725
achten	-11.8726
▁disturbs	-11.873
▁audit	-11.8732
▁protector	-11.8732
▁jackal	-11.8734
ockets	-11.8736
▁spill	-11.8739
▁tob	-11.8741
▁sarge	-11.8742
enne	-11.8743
ishi	-11.8744
▁fles	-11.8745
▁refere	-11.8747
saddle	-11.875
▁bamb	-11.8754
treating	-11.8755
ink	-11.8755
▁gale	-11.8758
▁designs	-11.8759
▁glide	-11.8763
▁infinite	-11.8764
umpty	-11.8765
▁ranking	-11.8766
▁timeout	-11.8769
▁verge	-11.877
bbert	-11.8772
▁computerize	-11.8775
sphere	-11.8777
▁hugger	-11.8778
▁demands	-11.8781
ully	-11.8783
ram	-11.8787
▁loo	-11.8788
mee	-11.8793
▁slower	-11.8795
net	-11.8798
▁eer	-11.8798
boek	-11.8798
▁mortals	-11.8805
▁keyed	-11.8805
▁substations	-11.8809
▁directors	-11.8812
▁eu	-11.8812
▁vree	-11.8813
clusion	-11.8816
▁soot	-11.8817
▁pantomime	-11.8824
▁lice	-11.8824
▁shutters	-11.8831
▁dusted	-11.8831
▁roy	-11.8832
▁dul	-11.8835
nning	-11.8839
sford	-11.8842
uiz	-11.8842
ike	-11.8844
rus	-11.8845
lattering	-11.8846
ware	-11.8848
▁pupp	-11.8849
eling	-11.8849
▁archi	-11.885
▁washes	-11.8851
▁blo	-11.8851
▁bestow	-11.8852
▁rolled	-11.8853
▁contain	-11.8858
uggers	-11.8859
▁defens	-11.886
▁grat	-11.8861
▁vermo	-11.8863
▁ew	-11.8866
ettes	-11.887
aron	-11.887
▁makeup	-11.887
▁deceive	-11.8872
▁occasions	-11.8873
▁mustanger	-11.8879
▁simpler	-11.889
▁snacks	-11.8895
▁alexanders	-11.8897
▁salon	-11.8899
▁bedrooms	-11.89
▁restin	-11.8902
digadi	-11.8904
ticipat	-11.8908
iated	-11.8911
fy	-11.8914
▁trouw	-11.8915
▁select	-11.8917
▁designer	-11.8917
ocking	-11.8917
zed	-11.8917
▁pach	-11.8923
▁sparks	-11.8926
▁harmoni	-11.8931
▁endings	-11.8942
▁shhh	-11.8945
▁blubber	-11.8948
▁carte	-11.8949
▁wanne	-11.8954
flat	-11.8954
▁kent	-11.8957
▁roams	-11.8958
▁vra	-11.896
thering	-11.896
▁sleepin	-11.8961
▁dep	-11.8961
liver	-11.8979
▁signa	-11.8979
▁griffins	-11.8981
▁weigh	-11.8981
heehee	-11.8982
▁nort	-11.8985
▁behaves	-11.8989
shoving	-11.899
▁buts	-11.899
▁standards	-11.899
abs	-11.8993
ency	-11.8995
▁thundering	-11.8995
chute	-11.8999
▁askin	-11.9014
citation	-11.9018
udic	-11.903
▁looksee	-11.9032
elsford	-11.9032
cement	-11.9034
▁worryin	-11.9039
bbling	-11.9041
witz	-11.9041
▁lance	-11.9041
▁tonys	-11.9044
▁begint	-11.9046
fac	-11.9048
▁getaway	-11.9049
derm	-11.9051
▁activit	-11.9051
▁dine	-11.9053
▁helper	-11.9053
fortunately	-11.9055
dr	-11.9058
▁chips	-11.9059
▁defender	-11.9059
ado	-11.906
▁phila	-11.9063
▁bounds	-11.9063
▁ostr	-11.9065
▁prov	-11.9066
▁narr	-11.9069
▁southerner	-11.907
inciden	-11.9071
▁bridges	-11.9073
▁theore	-11.9074
gne	-11.9077
▁treasures	-11.9078
▁muffle	-11.9081
ree	-11.9081
▁thea	-11.9082
▁finale	-11.9084
▁sweeter	-11.9085
▁epi	-11.9087
ult	-11.9093
▁chemi	-11.9096
▁kre	-11.9097
▁gelo	-11.9102
frogs	-11.9105
ould	-11.9106
being	-11.9107
▁sixes	-11.9111
▁wast	-11.9111
▁needing	-11.9113
samir	-11.912
iz	-11.9121
rows	-11.9124
▁kaas	-11.9126
slow	-11.9126
▁jay	-11.9126
▁recharge	-11.9127
▁watchin	-11.9128
yton	-11.9129
del	-11.9137
uillot	-11.9137
▁soothe	-11.914
▁winging	-11.9141
intus	-11.9145
▁partly	-11.9147
▁maakt	-11.915
▁wis	-11.9153
hopper	-11.9156
▁circuits	-11.9162
▁rib	-11.9162
▁koud	-11.9165
▁utters	-11.9166
▁robb	-11.9174
▁seeding	-11.9176
dust	-11.9179
▁meals	-11.9181
vallen	-11.9186
▁whooa	-11.9188
▁intelligen	-11.9199
▁rive	-11.9201
▁spaceman	-11.9202
waken	-11.9205
wind	-11.9208
▁concerns	-11.9209
▁authoriz	-11.9209
shus	-11.921
▁pause	-11.9211
▁cau	-11.9217
▁spec	-11.922
fulness	-11.9232
lands	-11.9233
▁toady	-11.9236
▁shapes	-11.924
uz	-11.9241
nine	-11.9243
▁gru	-11.9245
engineered	-11.9245
▁moei	-11.9249
cept	-11.9256
gle	-11.9257
left	-11.9259
nonny	-11.928
▁gabbin	-11.9282
every	-11.9286
ùøøù	-11.9289
▁emp	-11.9289
sub	-11.929
▁compar	-11.9293
▁certifi	-11.9295
weten	-11.9298
umming	-11.9301
▁creams	-11.9303
▁haa	-11.9308
▁pads	-11.9312
▁nerd	-11.9315
▁ellende	-11.9319
ials	-11.933
▁quitter	-11.9332
▁murk	-11.9339
▁cuddl	-11.9339
▁decorate	-11.934
oto	-11.9341
pec	-11.9343
▁grades	-11.9347
▁rep	-11.9349
fi	-11.9353
▁mid	-11.9354
▁jar	-11.9361
▁carols	-11.9362
▁reput	-11.9363
ane	-11.9364
▁hunts	-11.9366
▁showers	-11.9366
▁bombing	-11.9367
erely	-11.9369
iled	-11.937
▁foreclos	-11.9372
▁experiences	-11.9376
▁peri	-11.9382
▁naps	-11.9384
▁frill	-11.9385
makker	-11.939
▁braz	-11.9391
▁zombie	-11.9403
communicate	-11.9407
▁fiinal	-11.9417
trip	-11.9419
motive	-11.9423
▁zet	-11.9424
elf	-11.9425
▁hips	-11.9428
▁dungeons	-11.943
loft	-11.9431
lson	-11.9437
▁apo	-11.9438
reserve	-11.9445
lak	-11.9446
▁evolv	-11.9453
hol	-11.946
cked	-11.9463
▁volt	-11.9467
▁pill	-11.9479
ough	-11.9492
▁tun	-11.9496
▁washing	-11.9496
gue	-11.95
▁scrubb	-11.95
▁num	-11.9505
▁troll	-11.951
▁jongens	-11.9513
bye	-11.9526
▁damp	-11.9535
cky	-11.9541
▁carlo	-11.9542
▁notif	-11.9545
uff	-11.9551
taneously	-11.9554
team	-11.9554
lier	-11.9561
ters	-11.9567
▁aone	-11.9569
fineries	-11.9572
▁sorted	-11.9574
igger	-11.9586
oming	-11.9586
▁flags	-11.9587
▁rud	-11.959
aged	-11.9591
▁ropes	-11.9605
▁lawyers	-11.9608
▁lure	-11.9609
▁od	-11.9618
▁smokes	-11.9625
▁exhibit	-11.9629
▁hustle	-11.9638
▁businesses	-11.9642
▁migrati	-11.9645
takes	-11.9649
▁poisons	-11.9655
▁generat	-11.9657
▁chitter	-11.9661
▁hideous	-11.9662
▁biss	-11.9664
ggin	-11.9665
▁undress	-11.9665
▁penitent	-11.9667
ely	-11.9671
ggie	-11.9672
▁andr	-11.9674
▁willie	-11.9675
▁sticking	-11.9676
▁cas	-11.9677
▁overlook	-11.9689
▁stayin	-11.9691
▁poorer	-11.9692
▁occup	-11.9696
▁becom	-11.9697
▁convert	-11.9698
▁fences	-11.9701
▁eyre	-11.9709
aye	-11.9709
▁kal	-11.9721
▁sweeps	-11.9725
▁nurses	-11.9729
eral	-11.9735
▁pitt	-11.9735
▁verbal	-11.9738
▁gre	-11.9741
dle	-11.9742
▁picker	-11.975
▁douse	-11.9754
month	-11.9765
▁cath	-11.9775
▁extremes	-11.9787
▁vehicles	-11.9787
schijn	-11.9792
▁beter	-11.98
▁nin	-11.9805
▁snippe	-11.981
▁hanged	-11.981
ttier	-11.9824
hose	-11.9828
liable	-11.9831
▁rippl	-11.9836
▁plant	-11.9838
operation	-11.9841
unge	-11.9845
▁zeil	-11.9866
▁mari	-11.9867
▁calv	-11.9873
▁slosh	-11.9877
▁pois	-11.9895
▁thatthat	-11.9898
▁tipto	-11.9905
øøøùù	-11.9915
rity	-11.9915
▁allows	-11.9918
mag	-11.9927
uch	-11.9933
▁sabe	-11.9934
▁dub	-11.9935
mida	-11.9938
rewd	-11.9939
pu	-11.9941
▁scenes	-11.9947
▁stewar	-11.995
▁bil	-11.9954
axe	-11.9958
erberg	-11.996
▁respects	-11.9969
ittle	-11.997
iggity	-11.9975
▁yow	-11.9993
bobble	-11.9996
▁getup	-11.9999
▁aspirine	-12.0002
▁kin	-12.0006
pole	-12.001
zech	-12.0022
▁cowards	-12.0027
ain	-12.0031
lfde	-12.0031
▁trample	-12.0032
▁spar	-12.0039
rench	-12.0041
▁tweet	-12.0047
▁prowl	-12.005
▁situations	-12.0061
▁stove	-12.0063
ev	-12.0076
▁lovers	-12.0079
store	-12.008
▁dishonor	-12.0082
▁ter	-12.0084
tiful	-12.0087
▁liking	-12.009
▁tra	-12.0093
aiming	-12.0095
emakers	-12.0096
▁quitt	-12.012
tivate	-12.013
abberi	-12.0138
▁nov	-12.0148
▁keepin	-12.016
chsi	-12.0164
▁lump	-12.0179
▁pave	-12.0189
not	-12.0199
▁wedge	-12.0224
▁bottoms	-12.0231
▁pup	-12.0235
▁hiro	-12.0238
zel	-12.024
▁spike	-12.0244
xon	-12.0248
▁dow	-12.0248
▁spe	-12.0248
▁stro	-12.0251
▁overru	-12.0258
fus	-12.026
▁excl	-12.0262
struck	-12.0262
mper	-12.0268
arleton	-12.0271
▁admits	-12.0276
wish	-12.0282
▁maps	-12.0286
affe	-12.0301
tures	-12.0302
▁stor	-12.0307
nishing	-12.0313
rsche	-12.032
▁pointed	-12.0328
siege	-12.0332
▁legi	-12.034
omp	-12.0348
▁compose	-12.0362
core	-12.0366
enses	-12.0376
ash	-12.0381
▁mmmm	-12.0385
ids	-12.0387
under	-12.0391
canned	-12.0394
ared	-12.0398
eld	-12.0406
▁hiph	-12.0413
▁hutch	-12.0417
▁checker	-12.042
leface	-12.0421
ingles	-12.0422
▁gewe	-12.0425
▁plains	-12.0426
onia	-12.0431
▁pouch	-12.0434
▁fling	-12.0444
▁weathers	-12.0449
▁spi	-12.0455
▁chairs	-12.046
ajanitor	-12.046
øøù	-12.0464
▁banker	-12.0465
horus	-12.0474
▁viole	-12.0478
▁kenn	-12.049
▁del	-12.0493
koi	-12.05
▁sugars	-12.0504
honour	-12.0507
rving	-12.0515
▁characteriz	-12.0517
▁propa	-12.052
▁engineer	-12.0521
▁outing	-12.0522
▁findin	-12.0524
▁gad	-12.053
▁gag	-12.0533
▁dearly	-12.0534
▁aaa	-12.0545
breast	-12.0548
die	-12.0552
▁doorway	-12.0566
▁waitin	-12.0572
▁crumble	-12.0578
▁dread	-12.0581
▁medicat	-12.0584
▁sprinkl	-12.0591
wards	-12.0593
clara	-12.0595
croche	-12.0598
very	-12.0604
protein	-12.0605
▁appe	-12.0615
▁gem	-12.062
ip	-12.0625
▁cro	-12.0643
oggy	-12.0644
▁goal	-12.0653
▁sabotage	-12.0678
▁associati	-12.0683
▁messi	-12.0683
▁spine	-12.0698
melon	-12.0703
petra	-12.0711
aming	-12.0712
▁dia	-12.0721
ety	-12.0723
▁wwh	-12.0737
▁shshe	-12.0744
leerd	-12.0746
▁universit	-12.0756
▁hippe	-12.0775
▁trucks	-12.0775
▁germans	-12.0784
▁respons	-12.0785
▁vel	-12.0786
▁mos	-12.0789
ening	-12.0796
▁licht	-12.081
alvin	-12.0814
unk	-12.0823
agged	-12.0829
▁timeshar	-12.0834
▁poo	-12.0835
▁ul	-12.0835
aah	-12.087
rig	-12.0871
ct	-12.0874
▁pleasures	-12.0879
▁hospitals	-12.0899
▁diddl	-12.092
hip	-12.0928
advised	-12.0947
▁purposes	-12.0964
▁choices	-12.0965
uce	-12.0966
ronic	-12.0974
▁cared	-12.0978
umb	-12.0989
▁overal	-12.0995
anta	-12.0996
iting	-12.101
lin	-12.1014
leave	-12.1018
▁lifes	-12.102
▁cran	-12.1035
pping	-12.1038
tan	-12.1053
bang	-12.1057
▁converge	-12.1061
ena	-12.1065
▁maca	-12.1081
uses	-12.1087
▁goo	-12.1093
▁battles	-12.1099
▁hyp	-12.1106
lling	-12.1125
▁imma	-12.1128
ratify	-12.113
ushing	-12.1131
tractors	-12.1132
▁sells	-12.1138
auce	-12.1148
maintained	-12.1151
▁attacks	-12.1154
dont	-12.1156
▁dinosaurs	-12.1167
ans	-12.1202
ori	-12.1203
vio	-12.1213
bele	-12.1214
rage	-12.1223
▁jungles	-12.1232
ents	-12.1251
▁colla	-12.1254
▁stai	-12.1257
▁occasional	-12.127
past	-12.1274
▁tenaci	-12.1275
shio	-12.1278
scope	-12.1292
▁deem	-12.1327
▁plott	-12.1362
▁approache	-12.1362
inking	-12.1371
▁spaces	-12.1376
will	-12.1385
▁is	-12.1389
thats	-12.1389
▁gedra	-12.1419
ana	-12.142
▁wrapp	-12.1425
sons	-12.1428
ugh	-12.1428
ming	-12.1436
▁reincarnate	-12.1451
▁bir	-12.1456
▁reli	-12.1478
main	-12.1489
lever	-12.1502
▁plat	-12.1508
▁bearing	-12.1516
▁geheime	-12.1518
▁birthdays	-12.1518
▁prude	-12.153
qui	-12.1532
▁shorts	-12.1534
▁trains	-12.1541
anning	-12.1551
▁by	-12.1552
▁schee	-12.1553
run	-12.1555
rated	-12.1558
whoo	-12.1563
▁organi	-12.1576
▁lea	-12.1577
▁gro	-12.1605
ury	-12.1614
enzi	-12.1617
ization	-12.1618
▁nipp	-12.1625
▁zil	-12.1626
▁kenne	-12.1646
cating	-12.1663
usband	-12.1663
▁areas	-12.1672
brew	-12.1678
dar	-12.1687
ique	-12.1704
hahaha	-12.1711
▁peac	-12.1721
ensive	-12.1729
▁tran	-12.1746
▁ead	-12.1773
ue	-12.1774
▁mornings	-12.1779
ita	-12.1786
▁rebuil	-12.1789
hines	-12.1796
▁calibrat	-12.1797
▁desperat	-12.1803
▁depress	-12.1807
arn	-12.181
toe	-12.1823
▁whe	-12.1823
ice	-12.1824
other	-12.1824
▁bern	-12.1829
rix	-12.1831
anny	-12.1833
int	-12.1842
kies	-12.1845
ezo	-12.185
▁clott	-12.1857
▁clar	-12.1871
øø	-12.1887
uiten	-12.1897
hitter	-12.1919
hr	-12.1922
veral	-12.1937
script	-12.1949
øùùùø	-12.1951
ffy	-12.1963
zing	-12.1977
rison	-12.1983
mmhmm	-12.1988
oarse	-12.1989
charged	-12.1989
fore	-12.199
▁demo	-12.1993
ought	-12.2002
tie	-12.2008
▁boog	-12.2018
urely	-12.2023
▁huggin	-12.2025
▁crews	-12.2041
nig	-12.2065
tful	-12.2066
tarts	-12.2075
▁bru	-12.2077
atic	-12.2091
▁tri	-12.2092
zien	-12.2097
▁embar	-12.2113
lm	-12.2124
good	-12.2128
▁version	-12.2136
▁jet	-12.2141
erable	-12.2147
etch	-12.215
rry	-12.2153
▁barbar	-12.2159
▁refer	-12.216
inkle	-12.2185
▁taras	-12.2186
eft	-12.2187
danger	-12.2187
legate	-12.2189
▁barbari	-12.2197
▁syl	-12.2209
▁frag	-12.2211
▁repuls	-12.2215
etzel	-12.2217
▁nooo	-12.2229
gator	-12.2231
▁tur	-12.2238
hmm	-12.2249
▁rival	-12.2265
▁pun	-12.2286
anders	-12.2313
▁blooms	-12.2341
pulsive	-12.2345
▁cont	-12.2348
▁wage	-12.2357
øù	-12.2368
▁captains	-12.2375
▁caller	-12.2392
chte	-12.2398
▁pret	-12.2409
zz	-12.2448
▁dumps	-12.2476
▁farthe	-12.2486
▁frankl	-12.2499
eros	-12.251
▁her	-12.2545
▁hy	-12.2552
els	-12.2577
▁bloods	-12.2578
▁parla	-12.2578
▁øaøø	-12.2585
sent	-12.2597
▁whoowh	-12.2601
▁ann	-12.2602
▁scuff	-12.2607
ashed	-12.2612
aire	-12.2614
ippin	-12.2616
waiting	-12.2619
▁sable	-12.263
uced	-12.2638
▁mic	-12.2642
▁bugg	-12.2661
mino	-12.2677
▁beasts	-12.2685
▁moo	-12.2686
azing	-12.2686
▁apr	-12.2688
▁bab	-12.2724
liding	-12.274
▁bats	-12.275
▁respirat	-12.2751
▁unsur	-12.2772
agile	-12.2778
▁squat	-12.2794
rmament	-12.2808
▁rail	-12.2818
vin	-12.2825
▁forc	-12.2832
▁øø	-12.285
▁greatgreatgrand	-12.2855
ach	-12.2859
hoohoohoo	-12.2874
▁whwh	-12.2879
gre	-12.288
▁hil	-12.2883
trance	-12.2889
▁prim	-12.2894
liness	-12.2901
▁peak	-12.2902
▁wah	-12.2907
utch	-12.292
kken	-12.2921
ende	-12.2922
▁nobili	-12.2929
tier	-12.2942
øøøa	-12.2945
▁inge	-12.2945
ote	-12.2948
▁with	-12.2952
▁heavie	-12.2952
mical	-12.2966
▁alb	-12.2972
▁reincarnat	-12.2979
ays	-12.2989
▁reasonabl	-12.2997
leton	-12.2999
oons	-12.3004
bo	-12.3004
▁tidb	-12.3014
etwe	-12.3018
oni	-12.3019
▁flak	-12.3025
ool	-12.3052
▁farth	-12.3064
▁bemu	-12.3092
rec	-12.3093
hene	-12.311
dot	-12.3111
rusted	-12.3115
sed	-12.3136
▁stun	-12.3137
sin	-12.314
ui	-12.3153
rots	-12.3155
▁cris	-12.3156
▁exten	-12.3158
ease	-12.3168
▁fil	-12.3169
▁bree	-12.3178
ef	-12.3183
cracks	-12.3189
rty	-12.3191
▁atroph	-12.3222
▁ei	-12.3229
aw	-12.3235
ni	-12.324
▁pens	-12.3247
pri	-12.3249
duction	-12.3257
akken	-12.328
▁colon	-12.3289
lipped	-12.329
▁produc	-12.33
▁mil	-12.3314
▁scr	-12.3337
▁ted	-12.3371
▁lum	-12.3382
▁replica	-12.3384
▁align	-12.3395
ored	-12.3402
ewer	-12.3405
▁phar	-12.3408
loods	-12.3412
rep	-12.3418
▁glen	-12.3423
lay	-12.3433
rrow	-12.3442
▁fer	-12.3443
cyclo	-12.3443
rvis	-12.3456
▁gam	-12.3466
keeper	-12.3474
▁tou	-12.3481
helm	-12.3482
▁hhh	-12.3484
allig	-12.351
▁desolat	-12.3512
acking	-12.3522
ella	-12.3524
▁appl	-12.3529
rance	-12.3535
▁carrol	-12.354
immed	-12.3547
▁hos	-12.356
bi	-12.3569
deer	-12.357
▁converg	-12.3571
trod	-12.3589
▁replicat	-12.3595
▁earl	-12.3601
eon	-12.3609
lew	-12.3629
▁nam	-12.3631
cap	-12.3637
ckles	-12.3645
▁symp	-12.3645
▁ops	-12.3663
▁humane	-12.3668
can	-12.367
▁spru	-12.3671
hed	-12.3676
ocht	-12.368
▁ugli	-12.3682
▁exp	-12.3685
▁quo	-12.3698
sita	-12.373
trapped	-12.3739
ocus	-12.3755
cco	-12.3761
rable	-12.3765
tified	-12.3766
▁committ	-12.3781
rt	-12.3785
van	-12.3791
sel	-12.3802
ob	-12.3809
▁whippe	-12.3817
▁snivelin	-12.3819
crates	-12.3822
opping	-12.3833
ined	-12.3843
bee	-12.3849
neden	-12.3854
ession	-12.3875
nx	-12.3878
ris	-12.3884
othes	-12.3885
øùùù	-12.3899
▁webs	-12.3899
▁learns	-12.3901
▁stimulat	-12.3906
▁auctione	-12.3912
usting	-12.3921
ining	-12.3948
mmy	-12.3948
pee	-12.3949
▁armor	-12.3957
uria	-12.3974
ulation	-12.3975
og	-12.3976
▁manual	-12.3984
rot	-12.3988
ocks	-12.399
▁slee	-12.4005
▁buyer	-12.4013
ante	-12.4014
aph	-12.4027
phi	-12.4033
gel	-12.4037
vant	-12.4049
staat	-12.405
▁shoots	-12.4063
edication	-12.4087
test	-12.4094
echt	-12.4096
shing	-12.4104
gun	-12.4108
▁intima	-12.4115
ero	-12.4123
py	-12.4123
▁sparkl	-12.4135
▁entr	-12.4138
hes	-12.4146
▁nob	-12.4152
▁trusts	-12.416
ega	-12.4161
▁urg	-12.4192
ky	-12.4199
▁rela	-12.4206
roughly	-12.4206
yo	-12.421
▁dist	-12.4212
elen	-12.4218
▁sorts	-12.423
▁ros	-12.4231
▁facts	-12.4234
rgon	-12.4236
ferring	-12.4247
▁pac	-12.4248
janitor	-12.4251
▁viol	-12.4258
▁contemp	-12.4275
▁furni	-12.4282
▁appoint	-12.4294
rf	-12.4311
claim	-12.4335
▁budgin	-12.4343
ead	-12.4353
▁educate	-12.4408
erial	-12.4423
udy	-12.4431
▁conc	-12.4445
▁lis	-12.4456
▁pred	-12.4467
sson	-12.4469
▁ie	-12.447
▁bess	-12.4485
itches	-12.4486
▁sampl	-12.4488
flush	-12.4489
▁fuj	-12.4492
▁evacuat	-12.4497
▁dominan	-12.4503
▁chal	-12.4508
oxy	-12.4515
▁ind	-12.4516
nde	-12.4522
ttle	-12.4528
ouchy	-12.4531
ert	-12.4544
▁horrif	-12.4556
▁gez	-12.456
uk	-12.457
▁waitress	-12.4581
plication	-12.4582
eard	-12.4592
▁zi	-12.4598
vies	-12.46
▁typ	-12.4603
hats	-12.4607
▁wilde	-12.462
eg	-12.4623
▁spina	-12.4626
▁examin	-12.4634
lls	-12.4648
osed	-12.4673
▁invad	-12.4679
raging	-12.468
ense	-12.4683
rive	-12.4683
eading	-12.4687
pan	-12.4704
ric	-12.4706
▁dances	-12.4708
▁shapin	-12.4722
▁cra	-12.4723
tuned	-12.4724
fence	-12.4725
atin	-12.4733
measures	-12.4753
lle	-12.4765
▁birdieb	-12.4772
▁legit	-12.4775
ei	-12.4781
effects	-12.4791
night	-12.4793
gleg	-12.481
lium	-12.4812
ati	-12.4816
▁lag	-12.4826
▁lasts	-12.484
erson	-12.4841
vage	-12.4843
▁stur	-12.4869
acher	-12.4883
▁sabotagin	-12.4885
wait	-12.4889
haha	-12.4902
▁sides	-12.4903
▁sass	-12.4915
▁desir	-12.4928
eken	-12.493
ocked	-12.4933
inned	-12.4935
▁cling	-12.4938
kay	-12.4961
ime	-12.4962
mint	-12.4965
▁dism	-12.4974
rang	-12.4986
▁gezi	-12.4992
ener	-12.4994
orum	-12.4994
ags	-12.4998
ngs	-12.4998
ading	-12.5001
aat	-12.5014
ept	-12.5026
▁drugs	-12.5026
▁sy	-12.5026
▁ald	-12.5038
recht	-12.5051
ightening	-12.5053
▁rand	-12.5067
pro	-12.5071
▁partys	-12.5071
sie	-12.5087
▁fre	-12.509
▁strapp	-12.5108
▁cooperat	-12.5111
▁amb	-12.5116
tiff	-12.5119
▁hei	-12.5119
eech	-12.512
▁cho	-12.5121
lick	-12.5154
dressed	-12.5175
tches	-12.5176
making	-12.5193
▁whiz	-12.5212
▁buri	-12.5219
iful	-12.5243
▁astr	-12.5248
tile	-12.5249
asco	-12.5257
▁aar	-12.5263
▁capit	-12.5266
▁bun	-12.5268
▁poc	-12.5277
▁stuffs	-12.5284
sco	-12.5285
andal	-12.5288
▁avia	-12.5289
icing	-12.5293
yde	-12.5297
bron	-12.5297
ower	-12.5304
nvaders	-12.5315
▁waarsch	-12.5331
hot	-12.5339
▁planne	-12.535
rad	-12.5351
▁struggl	-12.5381
▁pol	-12.5386
▁tex	-12.5391
▁tortur	-12.5403
locked	-12.5407
ater	-12.5409
going	-12.5414
umped	-12.5415
shrew	-12.5427
mic	-12.5427
hat	-12.543
▁lij	-12.5432
operating	-12.5449
▁fighter	-12.5458
deren	-12.5462
nnies	-12.5464
alize	-12.5465
aid	-12.5472
▁operat	-12.548
lux	-12.5482
▁stripe	-12.549
thing	-12.5497
▁peniten	-12.5504
imate	-12.5507
▁buti	-12.552
rl	-12.5521
erving	-12.5532
▁coo	-12.5541
roll	-12.5542
late	-12.5549
hibition	-12.5568
oken	-12.5569
ø	-12.5591
▁gehe	-12.5591
bu	-12.5593
▁andre	-12.5609
eugen	-12.562
▁att	-12.5628
may	-12.5646
ear	-12.5647
rops	-12.5648
▁plu	-12.5651
oves	-12.5653
something	-12.5658
▁explo	-12.566
▁øùùø	-12.5672
his	-12.5683
▁reed	-12.5687
▁clu	-12.5691
▁inco	-12.5695
▁def	-12.5701
amber	-12.5712
iggly	-12.5715
▁impos	-12.5719
knit	-12.5721
pat	-12.5727
harmed	-12.5755
▁vic	-12.5764
marine	-12.5767
ood	-12.5768
▁upsettin	-12.5772
▁seren	-12.5789
idate	-12.5801
ound	-12.5802
ears	-12.5803
umps	-12.5811
▁celebrat	-12.5822
nned	-12.5832
▁øøùøø	-12.5834
arade	-12.5834
meyer	-12.5838
▁kant	-12.585
▁ration	-12.5859
gi	-12.5869
▁alkal	-12.5878
winder	-12.5889
▁johnn	-12.589
finement	-12.589
▁zak	-12.5895
eep	-12.5907
infectio	-12.5915
rit	-12.5934
▁vocal	-12.5965
lying	-12.5968
lobber	-12.5968
▁choc	-12.5989
orde	-12.6015
shock	-12.6025
hen	-12.6041
getrouw	-12.6041
▁splen	-12.6043
▁iti	-12.6052
▁geloo	-12.6053
arily	-12.6057
wd	-12.6063
rew	-12.607
▁tok	-12.608
▁slay	-12.6094
▁das	-12.6094
▁abo	-12.6102
▁salut	-12.6106
allow	-12.6106
▁smiths	-12.6108
▁brav	-12.6116
▁hoor	-12.6116
tag	-12.6129
▁yyour	-12.6132
▁chari	-12.6134
seen	-12.6134
▁authorit	-12.6138
didnt	-12.6146
sc	-12.6156
theres	-12.6164
bb	-12.6165
▁dra	-12.6167
hum	-12.6172
dge	-12.6181
otto	-12.6182
▁ware	-12.6206
▁terri	-12.6207
ented	-12.6214
arsa	-12.6245
▁rai	-12.6253
etched	-12.6258
make	-12.6265
ud	-12.6265
▁collecti	-12.6267
nn	-12.6273
scott	-12.6288
ick	-12.6289
▁mini	-12.6294
▁hails	-12.6295
ibb	-12.6299
mount	-12.6304
amba	-12.6305
pr	-12.6306
▁fal	-12.6306
ocation	-12.6307
▁rap	-12.6311
apping	-12.6321
▁serv	-12.6347
iber	-12.6348
▁intellig	-12.6352
▁cus	-12.6355
▁sus	-12.6357
▁mea	-12.6363
▁bacteri	-12.6365
▁conven	-12.6391
bypa	-12.6392
▁spri	-12.6403
▁transmit	-12.6412
mming	-12.6417
▁bewa	-12.6435
cuss	-12.6437
tumbling	-12.6456
dressing	-12.6457
tchy	-12.6464
say	-12.6464
oops	-12.6472
acles	-12.6492
▁sti	-12.6498
hens	-12.6499
▁ùùøù	-12.6501
rooms	-12.6504
▁hisse	-12.6504
communica	-12.6505
▁certifie	-12.6513
lease	-12.6514
unted	-12.6521
walk	-12.6524
better	-12.6538
acht	-12.6541
▁bak	-12.6545
neer	-12.6549
blin	-12.6551
iso	-12.6553
istol	-12.6563
▁pollin	-12.6572
hyd	-12.658
▁exc	-12.658
▁dol	-12.6594
ang	-12.6597
▁retir	-12.6597
▁issu	-12.6608
▁experienc	-12.6608
first	-12.6609
anie	-12.6609
▁yu	-12.6613
nk	-12.6614
ùøùù	-12.6616
nie	-12.6621
rick	-12.6623
mas	-12.6626
▁phil	-12.6653
reak	-12.6659
▁oppos	-12.6669
handed	-12.6674
oi	-12.6677
▁mira	-12.6689
ssive	-12.669
▁chops	-12.6702
hooks	-12.6715
care	-12.6731
▁kar	-12.6734
▁chu	-12.6738
anger	-12.6755
wont	-12.6761
▁companions	-12.678
ods	-12.6788
nothing	-12.6791
latin	-12.6794
people	-12.6808
▁scholars	-12.6814
brain	-12.6816
▁reache	-12.6821
▁unti	-12.6822
▁at	-12.6824
▁wif	-12.6827
course	-12.6857
rill	-12.6883
▁escapin	-12.6894
zzled	-12.6896
▁flun	-12.6908
infect	-12.6908
▁rega	-12.6921
bearer	-12.6921
cher	-12.6922
ips	-12.6925
▁ci	-12.693
jo	-12.693
▁ùøùøù	-12.6932
thought	-12.6936
▁knowin	-12.6942
plane	-12.6954
mmer	-12.6967
ooh	-12.6976
▁pillo	-12.6979
▁lou	-12.6985
ont	-12.6997
▁deno	-12.6997
spani	-12.7001
solution	-12.7004
▁allergi	-12.701
migrat	-12.7023
ckerel	-12.703
infe	-12.7037
angling	-12.7048
▁sabotag	-12.7058
ugged	-12.7059
tery	-12.7066
▁grin	-12.7067
lts	-12.707
▁substitut	-12.708
rice	-12.7104
bra	-12.7116
heart	-12.7121
▁simul	-12.7129
lash	-12.7132
▁alab	-12.7134
than	-12.7135
hu	-12.7136
▁liv	-12.7138
▁pantomim	-12.7142
▁bootj	-12.715
obble	-12.7157
stay	-12.716
friends	-12.7169
▁compet	-12.7174
stimulate	-12.7182
nice	-12.7195
isnt	-12.7195
nate	-12.7197
▁øùùøù	-12.7204
phoned	-12.7204
▁chasin	-12.7205
▁opti	-12.721
captain	-12.7214
una	-12.7217
opter	-12.7218
warming	-12.722
ses	-12.7231
laying	-12.7241
▁pul	-12.7242
bles	-12.7255
▁prote	-12.7262
ouch	-12.7264
baby	-12.727
▁absol	-12.7275
tention	-12.728
▁disobe	-12.7289
onomic	-12.7301
appiness	-12.7307
▁impe	-12.7316
oro	-12.7323
door	-12.733
base	-12.733
angles	-12.7332
▁avi	-12.7333
session	-12.7342
ouse	-12.7344
paying	-12.7347
▁jeho	-12.7351
▁troph	-12.7357
hoppers	-12.7359
tegra	-12.7359
bad	-12.736
nted	-12.7363
ility	-12.7379
ures	-12.7386
▁dam	-12.7389
happy	-12.7396
▁bumbl	-12.7398
▁sque	-12.7409
hips	-12.7412
obby	-12.7417
yed	-12.7424
scaping	-12.7429
story	-12.7431
▁øùùùø	-12.744
came	-12.7443
▁borin	-12.7445
racht	-12.7445
ja	-12.745
bugs	-12.745
deli	-12.7454
▁fainte	-12.7455
traps	-12.7458
business	-12.7466
▁regrett	-12.7468
▁obscur	-12.7468
▁lous	-12.7469
true	-12.7472
va	-12.7473
▁troublemak	-12.7474
luc	-12.7475
bird	-12.7477
together	-12.7483
▁memo	-12.7491
ota	-12.7494
city	-12.7509
▁dialog	-12.7516
ffle	-12.7517
pretty	-12.7521
▁biologic	-12.7531
▁deliberat	-12.7537
▁surveyin	-12.7543
throat	-12.7545
told	-12.7547
▁termina	-12.7547
hurry	-12.7548
▁ji	-12.7556
tongues	-12.7563
point	-12.7564
buzz	-12.7583
▁allie	-12.7588
drop	-12.7595
▁blockin	-12.7603
formation	-12.7611
pstick	-12.7612
▁opera	-12.7612
boo	-12.7613
▁øøøø	-12.7613
fish	-12.7629
▁pou	-12.763
▁sarc	-12.7634
▁arch	-12.7641
tors	-12.7644
▁nurs	-12.7646
lost	-12.7646
insince	-12.7647
cause	-12.765
perhaps	-12.7651
olished	-12.7655
ised	-12.7657
▁peopl	-12.7661
▁aro	-12.7662
queen	-12.7664
beam	-12.767
▁philosoph	-12.7671
sleep	-12.7674
eering	-12.7675
boats	-12.7679
▁suckin	-12.7682
form	-12.7683
break	-12.7685
▁roach	-12.7685
▁stinkin	-12.769
nations	-12.7694
▁stea	-12.7699
ean	-12.7705
perfect	-12.7706
ppet	-12.7709
erland	-12.7709
loaded	-12.7711
▁hysteri	-12.7712
▁poi	-12.7716
welcome	-12.7718
almost	-12.7718
tary	-12.7721
passed	-12.7724
▁clip	-12.7725
tta	-12.7727
▁stee	-12.773
▁jj	-12.7738
▁coll	-12.7738
stan	-12.774
tters	-12.7741
▁ùùøø	-12.7741
▁pss	-12.7742
▁acomin	-12.7748
play	-12.775
active	-12.7758
imber	-12.7759
urn	-12.7759
bino	-12.7761
flower	-12.7762
white	-12.7768
tongue	-12.7771
inter	-12.7774
ramp	-12.7781
death	-12.7785
boat	-12.7787
▁simpl	-12.779
uts	-12.7795
black	-12.7797
ran	-12.7798
quick	-12.7799
high	-12.7799
▁resolve	-12.78
und	-12.7801
upid	-12.7804
careful	-12.7807
▁sama	-12.781
▁brushin	-12.7812
range	-12.7813
▁sel	-12.7817
terrible	-12.7822
▁seclu	-12.7827
eem	-12.7827
izen	-12.7827
brought	-12.7828
▁charg	-12.7829
lessly	-12.7829
▁pleas	-12.783
drive	-12.7831
safe	-12.7847
rise	-12.7849
secret	-12.7849
▁deb	-12.7851
nis	-12.7852
▁mai	-12.7859
rb	-12.7859
▁disse	-12.786
front	-12.7861
▁etern	-12.7864
licht	-12.7869
pull	-12.7871
▁stev	-12.7871
blood	-12.7872
ell	-12.7875
lap	-12.7875
▁ravi	-12.788
ridge	-12.7881
fault	-12.7882
▁missionar	-12.7882
▁notic	-12.7888
aur	-12.7888
▁baba	-12.789
q	-12.7891
earned	-12.7895
▁lettin	-12.7896
barb	-12.7908
volution	-12.7909
ahead	-12.7916
turned	-12.7916
▁nor	-12.7919
quant	-12.7922
ganda	-12.7926
finished	-12.7933
gift	-12.7935
dress	-12.7938
▁certif	-12.7939
handle	-12.7939
mark	-12.794
▁snortin	-12.7944
ker	-12.7947
forest	-12.7948
jiji	-12.795
▁transl	-12.7952
fu	-12.7954
▁hug	-12.7963
purpose	-12.7965
▁odl	-12.7965
bert	-12.7967
person	-12.7969
pocket	-12.7971
figure	-12.7973
weather	-12.7974
urry	-12.7975
attack	-12.7976
▁receiv	-12.798
dians	-12.7981
somethin	-12.7982
▁deserv	-12.7982
climb	-12.7983
▁ancho	-12.7989
president	-12.7991
signed	-12.7993
parents	-12.7993
service	-12.7993
eagle	-12.7995
bus	-12.7996
▁hijs	-12.7996
▁supervis	-12.7996
green	-12.7999
minste	-12.7999
mposing	-12.8001
▁testif	-12.8002
learned	-12.8003
damn	-12.8004
circl	-12.8005
tual	-12.8006
record	-12.8011
bur	-12.8011
loose	-12.8016
alities	-12.8018
bunch	-12.802
accident	-12.8021
duty	-12.8022
clock	-12.8022
wazowski	-12.8023
court	-12.8024
level	-12.8028
maids	-12.8028
hunting	-12.8028
zuid	-12.803
inning	-12.803
birds	-12.8031
fortune	-12.8033
lamont	-12.8035
appy	-12.8036
sixteen	-12.8039
beams	-12.804
pressure	-12.804
▁cli	-12.8041
▁dishon	-12.8041
address	-12.8042
▁multi	-12.8044
▁aca	-12.8044
difference	-12.8045
comfortable	-12.8047
giving	-12.8048
physics	-12.8048
frame	-12.8048
organism	-12.8048
noticed	-12.8049
excited	-12.805
plenty	-12.805
bianca	-12.805
rooning	-12.805
spreken	-12.805
journey	-12.805
snortin	-12.8051
maniac	-12.8052
schedule	-12.8053
▁surviv	-12.8055
drunk	-12.8055
familiar	-12.8056
hush	-12.8056
shaw	-12.8056
niet	-12.8057
hebben	-12.8058
awaited	-12.8058
bulb	-12.8059
tijd	-12.806
positive	-12.806
refined	-12.806
material	-12.806
fruit	-12.8061
fort	-12.8062
basket	-12.8062
account	-12.8062
spring	-12.8063
distance	-12.8063
oodled	-12.8063
▁soli	-12.8064
witness	-12.8064
▁improv	-12.8064
shikokuyama	-12.8065
painting	-12.8066
trading	-12.8066
grass	-12.8066
grade	-12.8067
horses	-12.8068
attached	-12.8068
fighting	-12.8068
thirsty	-12.8068
fail	-12.8068
wapens	-12.8068
dexter	-12.8069
oohoo	-12.8069
quote	-12.8069
spil	-12.807
american	-12.807
grove	-12.807
squawk	-12.8071
walking	-12.8072
troopers	-12.8072
commander	-12.8072
direction	-12.8072
electronic	-12.8072
romantic	-12.8073
aircraft	-12.8073
flesh	-12.8073
praten	-12.8073
iii	-12.8074
cloth	-12.8074
function	-12.8074
roman	-12.8074
loyalty	-12.8075
▁shar	-12.8075
blast	-12.8075
▁disma	-12.8075
reminder	-12.8075
orgen	-12.8076
tried	-12.8076
▁bre	-12.8077
morality	-12.8077
▁introduc	-12.8078
thieves	-12.8078
laydeeodl	-12.8079
static	-12.8079
fallen	-12.8079
pirate	-12.8079
slink	-12.8079
confirm	-12.808
▁replac	-12.808
anna	-12.8081
mistress	-12.8082
speaking	-12.8082
ashamed	-12.8082
carriage	-12.8083
bound	-12.8083
attractive	-12.8085
healthy	-12.8085
crab	-12.8086
probable	-12.8087
reasonable	-12.8087
▁sole	-12.8089
lamour	-12.8089
pistol	-12.809
bomb	-12.809
located	-12.809
convenience	-12.8091
division	-12.8091
partial	-12.8091
plank	-12.8091
cho	-12.8092
ruler	-12.8092
double	-12.8093
▁sav	-12.8096
brake	-12.8096
fried	-12.8097
faithful	-12.8098
circuit	-12.8099
istic	-12.8099
horror	-12.8099
tiger	-12.81
spurs	-12.81
lifted	-12.81
classic	-12.81
growth	-12.8102
float	-12.8103
kickin	-12.8103
graph	-12.8104
related	-12.8104
aryans	-12.8105
mortal	-12.8108
chew	-12.8108
designed	-12.8108
shield	-12.8111
ussy	-12.8111
drum	-12.8111
gaggin	-12.8113
growl	-12.8113
▁cans	-12.8114
amed	-12.8114
vij	-12.8114
inspiring	-12.8114
estimate	-12.8116
boom	-12.8116
color	-12.8116
hardy	-12.8116
examine	-12.8117
schip	-12.812
writer	-12.8121
scheduled	-12.8122
stream	-12.8122
boxes	-12.8123
killer	-12.8125
showers	-12.8125
▁proces	-12.8126
øaùøù	-12.8126
units	-12.8126
tunnel	-12.8126
zij	-12.8126
bars	-12.8127
touched	-12.8128
loving	-12.8129
apore	-12.813
▁slug	-12.813
corn	-12.813
tooth	-12.8131
ictorian	-12.8131
pool	-12.8133
birdie	-12.8137
▁promis	-12.8138
▁appreciat	-12.8138
seem	-12.814
rolled	-12.814
▁bustin	-12.8141
nip	-12.8141
sequence	-12.8141
torch	-12.8142
▁gust	-12.8142
wreck	-12.8143
worden	-12.8144
she	-12.8146
▁scam	-12.8147
▁groan	-12.8149
modest	-12.8149
design	-12.8149
▁murmur	-12.815
▁wou	-12.815
loved	-12.8156
wide	-12.8156
checked	-12.8156
▁whimper	-12.816
forth	-12.8162
▁woooo	-12.8165
nough	-12.8166
taste	-12.8166
perating	-12.8166
▁wrinkle	-12.817
weight	-12.8171
model	-12.8171
page	-12.8174
flag	-12.8175
▁dri	-12.8176
▁kickin	-12.8178
kust	-12.8178
ature	-12.8182
discovered	-12.8182
finger	-12.8182
washed	-12.8183
▁surpris	-12.8184
wiring	-12.8187
▁ignor	-12.819
definitely	-12.8191
sweet	-12.8191
▁sorcer	-12.8193
stuffed	-12.8194
aneous	-12.8194
▁fasci	-12.8194
▁enchant	-12.8194
bin	-12.8195
ache	-12.8197
▁knickknack	-12.8198
▁postulant	-12.8198
▁parasite	-12.8198
▁sapphire	-12.8198
▁resource	-12.8198
▁symptom	-12.8198
▁indic	-12.8199
▁dodge	-12.82
▁smoo	-12.82
▁pancake	-12.82
cage	-12.82
▁plac	-12.8201
patch	-12.8203
▁verl	-12.8204
rritati	-12.8204
▁beetle	-12.8204
▁outdoor	-12.8204
▁midget	-12.8205
lov	-12.8205
▁footprint	-12.8205
alm	-12.8206
▁chri	-12.8206
raft	-12.8207
▁gasket	-12.8207
sync	-12.8207
▁pajama	-12.8208
lities	-12.8209
tically	-12.8209
deep	-12.8212
▁column	-12.8212
▁technique	-12.8213
▁regulation	-12.8213
▁shaft	-12.8213
▁bygone	-12.8213
▁vegetable	-12.8213
tale	-12.8214
union	-12.8215
▁william	-12.8216
attaboy	-12.8216
werk	-12.8216
▁rhode	-12.8217
▁fantasti	-12.8217
suffer	-12.8217
▁result	-12.8218
▁stutter	-12.8219
▁shilling	-12.8219
▁indoor	-12.8219
addled	-12.822
▁broo	-12.822
▁expense	-12.8221
luk	-12.8221
▁resident	-12.8224
remembered	-12.8224
▁generation	-12.8225
wha	-12.8226
toxic	-12.8226
▁melo	-12.8227
▁scal	-12.8229
sir	-12.8229
laughter	-12.8231
sional	-12.8232
leaf	-12.8232
▁measurement	-12.8233
▁hotdog	-12.8233
dramatic	-12.8235
alyzed	-12.8235
defeated	-12.8235
happily	-12.8236
growing	-12.8237
▁gunfight	-12.8238
assis	-12.824
▁arabian	-12.8241
▁secre	-12.8244
shoe	-12.8244
øaøù	-12.8247
logy	-12.8247
▁astound	-12.8249
▁carrot	-12.8253
▁technolog	-12.8254
motion	-12.8255
simpl	-12.8256
mater	-12.8259
▁sentenc	-12.8259
emmie	-12.8259
▁giggle	-12.8259
▁exhale	-12.826
educat	-12.8261
▁gallon	-12.8262
▁incor	-12.8262
▁excit	-12.8262
▁comple	-12.8262
▁teenage	-12.8262
▁observ	-12.8264
▁rattle	-12.8265
▁treasur	-12.8265
amori	-12.8266
oegen	-12.8266
ditch	-12.8266
▁futur	-12.8266
▁adam	-12.8267
øaøùù	-12.8269
▁ridd	-12.8269
nail	-12.8269
▁christ	-12.827
cast	-12.827
▁ambitio	-12.8273
zier	-12.8273
state	-12.8276
▁exhal	-12.8276
▁sacr	-12.8276
▁inevitabl	-12.8278
▁rapidfir	-12.8278
▁craz	-12.8278
worker	-12.828
▁pikach	-12.828
▁dab	-12.8281
▁merchandis	-12.8282
▁cruis	-12.8282
▁robber	-12.8283
▁challeng	-12.8283
▁celebr	-12.8283
▁advertis	-12.8283
▁slur	-12.8284
▁disgus	-12.8285
▁mislead	-12.8285
▁suggestion	-12.8285
▁puzzl	-12.8286
bond	-12.8286
▁eyeball	-12.8287
wave	-12.8287
▁unv	-12.8288
shad	-12.8288
▁modul	-12.8289
culture	-12.829
smilin	-12.829
▁traff	-12.8291
▁damag	-12.8292
▁misjudge	-12.8292
propos	-12.8294
▁refurbish	-12.8294
▁ambu	-12.8294
descript	-12.8294
thetic	-12.8294
▁dishono	-12.8296
▁criticize	-12.8296
▁intimidat	-12.8296
▁rememb	-12.8296
▁complicate	-12.8297
▁gurgl	-12.8297
etrouw	-12.8297
▁contaminate	-12.8298
▁brothe	-12.8298
▁melod	-12.8299
sticated	-12.8299
lass	-12.8299
▁credi	-12.83
▁societ	-12.83
▁hynk	-12.83
▁crick	-12.8301
▁vibrat	-12.8301
▁defect	-12.8303
uths	-12.8304
▁locate	-12.8304
pavin	-12.8304
▁bellissim	-12.8305
▁frequenc	-12.8305
▁scuf	-12.8305
▁emergenc	-12.8306
bunk	-12.8307
iterate	-12.8307
▁clums	-12.8307
▁gav	-12.8307
scient	-12.8308
glue	-12.8309
rushin	-12.831
hypno	-12.831
▁lyya	-12.8311
▁attracti	-12.8311
▁tomato	-12.8312
tore	-12.8312
▁reinforce	-12.8312
▁edwin	-12.8312
meltin	-12.8313
▁apologi	-12.8313
▁shillin	-12.8313
oeuvre	-12.8314
▁gravit	-12.8314
▁anima	-12.8314
▁acqui	-12.8315
▁squirt	-12.8315
▁fluff	-12.8315
▁froze	-12.8315
ilized	-12.8315
ospitality	-12.8316
▁smok	-12.8316
urricane	-12.8316
▁fea	-12.8316
▁arabia	-12.8316
▁disgust	-12.8316
andkerchief	-12.8316
ajor	-12.8316
▁divinit	-12.8316
ampshire	-12.8316
▁augu	-12.8316
▁doroth	-12.8316
eadache	-12.8317
▁goodlookin	-12.8317
▁confront	-12.8317
lyyallyyallyya	-12.8317
annibal	-12.8317
▁pacifi	-12.8318
atricia	-12.8318
▁carniv	-12.8318
scribe	-12.8318
▁terra	-12.8318
licious	-12.8319
exican	-12.8319
incarnate	-12.8319
ncredible	-12.832
▁libert	-12.832
loc	-12.832
nvite	-12.832
gheera	-12.8321
▁assoc	-12.8321
njured	-12.8321
icular	-12.8321
contamination	-12.8321
▁cylind	-12.8321
▁humiliati	-12.8321
øøøaùø	-12.8321
conspicuous	-12.8322
funct	-12.8322
cycling	-12.8322
▁succ	-12.8322
▁specific	-12.8322
▁margaret	-12.8322
▁conclu	-12.8322
ranz	-12.8323
▁enorm	-12.8323
oohoohoohooh	-12.8323
rrection	-12.8323
▁vegeta	-12.8323
celerate	-12.8323
avond	-12.8323
▁orphan	-12.8323
▁acquaint	-12.8323
propelle	-12.8323
lackja	-12.8323
▁misunderst	-12.8323
▁disappe	-12.8323
▁enthusias	-12.8323
drivin	-12.8323
▁intro	-12.8323
▁schmoopsie	-12.8323
blaze	-12.8323
julie	-12.8323
thethethe	-12.8323
▁alpha	-12.8323
posite	-12.8323
puhpuhpuh	-12.8323
dadadadadada	-12.8323
eeeeeeeeeeeeeee	-12.8323
lalalalala	-12.8323
opportun	-12.8323
gular	-12.8323
chivalr	-12.8323
mistak	-12.8324
somethinsomethin	-12.8324
lasting	-12.8324
ventilat	-12.8324
hicka	-12.8324
owowow	-12.8324
shhshh	-12.8324
▁nois	-12.8324
▁unlock	-12.8324
▁yeeeeeh	-12.8324
▁whinin	-12.8324
nounce	-12.8324
uterize	-12.8324
sifies	-12.8324
utton	-12.8324
deedoo	-12.8324
forfor	-12.8324
▁pheno	-12.8324
bellied	-12.8324
▁scheeps	-12.8325
▁reflect	-12.8325
▁enforce	-12.8325
tricity	-12.8325
oogley	-12.8325
▁commerc	-12.8325
ception	-12.8325
▁ratio	-12.8325
rrupted	-12.8325
plore	-12.8326
lects	-12.8326
dacht	-12.8326
jection	-12.8326
ormant	-12.8326
throats	-12.8326
▁constr	-12.8327
rupt	-12.8327
▁conspi	-12.8327
▁marvel	-12.8327
▁smug	-12.8327
hopped	-12.8327
▁darkie	-12.8327
▁scroo	-12.8327
cussion	-12.8327
munition	-12.8327
▁creakin	-12.8327
esloten	-12.8327
▁basil	-12.8328
nonono	-12.8328
▁deplo	-12.8328
napper	-12.8328
▁bibl	-12.8328
dience	-12.8328
▁anxi	-12.8328
▁disgustin	-12.8328
▁karp	-12.8329
bing	-12.8329
lyyallyyallyyal	-12.833
owski	-12.833
pedia	-12.833
ùøaøø	-12.833
▁swimmin	-12.833
▁plannin	-12.8331
▁isra	-12.8331
▁circum	-12.8332
minator	-12.8332
▁downto	-12.8332
cuits	-12.8332
▁despi	-12.8333
▁heigh	-12.8333
▁smokin	-12.8333
rigible	-12.8333
▁matt	-12.8333
ndition	-12.8333
utifully	-12.8333
▁droppin	-12.8333
▁seq	-12.8333
tegen	-12.8334
cumen	-12.8334
articula	-12.8334
dopted	-12.8334
▁yellowbell	-12.8334
▁nitro	-12.8335
▁scram	-12.8336
ijker	-12.8337
schrif	-12.8337
▁therap	-12.8338
▁cotta	-12.8338
▁forgo	-12.8339
ounger	-12.8339
udge	-12.8339
▁langu	-12.834
▁dyin	-12.834
▁sacre	-12.8341
▁hocus	-12.8341
▁react	-12.8341
anq	-12.8342
raakt	-12.8342
axis	-12.8342
brid	-12.8343
xious	-12.8344
elected	-12.8344
▁extrac	-12.8344
▁gamblin	-12.8344
ltitud	-12.8345
itiate	-12.8345
▁drama	-12.8345
▁austr	-12.8345
▁haku	-12.8346
rrito	-12.8346
easant	-12.8346
▁unpl	-12.8348
rific	-12.8349
▁schul	-12.8349
ictor	-12.8349
oozing	-12.835
▁terminate	-12.835
spel	-12.835
petal	-12.8351
▁raisin	-12.8351
▁smol	-12.8351
phic	-12.8351
istence	-12.8351
▁ordina	-12.8352
▁oversee	-12.8352
vations	-12.8354
ruly	-12.8354
▁billi	-12.8354
▁logic	-12.8354
▁fox	-12.8355
onnie	-12.8355
nspired	-12.8355
gnoran	-12.8357
▁dwel	-12.8357
▁hanky	-12.8357
lasses	-12.8357
iform	-12.8358
▁pedi	-12.8358
atgr	-12.8358
▁oblige	-12.8359
▁merri	-12.8359
runk	-12.8359
▁beez	-12.836
▁osc	-12.836
brewin	-12.8361
achma	-12.8362
▁enchante	-12.8362
honest	-12.8363
bow	-12.8365
wee	-12.8365
▁performer	-12.8365
▁compa	-12.8366
brains	-12.8367
ove	-12.8367
tech	-12.8368
raak	-12.8368
boys	-12.8369
▁belie	-12.837
▁confer	-12.8371
eerder	-12.8371
▁leavin	-12.8371
equent	-12.8372
oure	-12.8372
lips	-12.8373
▁pomp	-12.8373
▁twent	-12.8374
▁servin	-12.8374
timin	-12.8376
▁brack	-12.8376
itory	-12.8377
bebe	-12.8377
camp	-12.8379
grandmother	-12.8379
treatin	-12.8382
planes	-12.8382
▁ava	-12.8382
▁creak	-12.8383
▁presti	-12.8383
▁persi	-12.8383
ictory	-12.8383
cake	-12.8385
alents	-12.8385
membered	-12.8385
▁slimme	-12.8386
▁kl	-12.8386
candles	-12.8387
flowers	-12.8387
▁spun	-12.8388
jour	-12.8389
radian	-12.839
▁dext	-12.8392
ritan	-12.8392
tsuk	-12.8392
▁oblig	-12.8394
▁pinch	-12.8395
racy	-12.8395
enient	-12.8396
▁perfe	-12.8396
▁writin	-12.8397
mand	-12.8398
▁confi	-12.8398
▁govern	-12.8398
▁willin	-12.8399
nature	-12.8399
ippe	-12.84
▁everythin	-12.84
versati	-12.84
▁giddy	-12.8403
alled	-12.8404
▁facilit	-12.8405
▁minist	-12.8405
pt	-12.8405
▁shko	-12.8405
▁ignora	-12.8406
ield	-12.8409
bul	-12.8409
ucky	-12.8409
▁presid	-12.841
▁greatgreat	-12.8411
▁weir	-12.8412
azies	-12.8413
obar	-12.8414
hicke	-12.8416
tronic	-12.8416
ama	-12.8417
▁tyin	-12.842
▁micron	-12.8421
emble	-12.8422
odloo	-12.8422
rouser	-12.8423
avita	-12.8423
muff	-12.8424
▁insp	-12.8426
▁doze	-12.8426
▁expan	-12.8426
▁morn	-12.843
reath	-12.843
▁jag	-12.8431
antine	-12.8431
▁styl	-12.8432
▁tiber	-12.8434
energ	-12.8435
eyes	-12.8435
▁bran	-12.8436
ragi	-12.8436
▁graf	-12.8436
▁matur	-12.8436
klin	-12.8436
eiland	-12.8437
quent	-12.8438
card	-12.8438
▁stair	-12.8439
▁yarn	-12.844
arva	-12.8441
▁monk	-12.8441
▁anot	-12.8442
tales	-12.8443
ecie	-12.8444
▁bask	-12.8447
▁parke	-12.8449
ohh	-12.8449
third	-12.845
▁chris	-12.8452
oen	-12.8454
▁fascinati	-12.8454
▁pressuriz	-12.8455
▁tar	-12.8455
▁glas	-12.8455
easonable	-12.8457
ecting	-12.8459
▁now	-12.8459
▁wond	-12.8459
uble	-12.846
▁resu	-12.846
▁spyin	-12.8461
inations	-12.8462
zame	-12.8464
rafted	-12.8466
▁ramo	-12.8467
▁hahah	-12.8467
▁alv	-12.8467
oili	-12.8469
lusion	-12.847
▁gelding	-12.8472
horn	-12.8473
▁ox	-12.8474
angr	-12.8477
▁tweed	-12.8477
lker	-12.8477
sty	-12.848
▁battl	-12.848
▁optr	-12.848
▁info	-12.8481
▁arro	-12.8482
rvan	-12.8483
icles	-12.8483
▁pap	-12.8484
▁buff	-12.8485
▁stupe	-12.8485
▁layee	-12.8485
▁fantas	-12.8487
plow	-12.8489
▁yellin	-12.8491
origin	-12.8493
woman	-12.8494
bian	-12.8494
▁interestin	-12.8495
jud	-12.8496
▁zeld	-12.8497
▁gath	-12.8499
within	-12.8499
excelle	-12.8499
▁wether	-12.85
ulate	-12.8502
bia	-12.8504
▁rol	-12.8505
uwen	-12.8507
▁muf	-12.851
keren	-12.8512
▁corr	-12.8513
treat	-12.8513
graphs	-12.8516
▁huntin	-12.8517
ythi	-12.8517
tible	-12.8517
▁vechte	-12.8518
▁patters	-12.8518
mixe	-12.8519
bags	-12.8522
rett	-12.8525
▁stark	-12.8526
ex	-12.8527
▁olay	-12.8528
▁toge	-12.853
afra	-12.8531
non	-12.8531
▁vapor	-12.8531
▁mumbl	-12.8531
gnant	-12.8532
▁laydeel	-12.8533
▁mex	-12.8535
ucius	-12.8535
▁endur	-12.8537
alia	-12.8537
▁excel	-12.8541
▁unto	-12.8543
layton	-12.8544
▁spendin	-12.8546
▁castin	-12.8546
▁borrower	-12.8547
▁excuses	-12.8549
▁jug	-12.855
mental	-12.8551
rnin	-12.8552
▁naught	-12.8554
▁surge	-12.8555
▁unknow	-12.856
▁idio	-12.8563
[...]
