<unk>	0
<s>	0
</s>	0
s	-4.18571
▁im	-4.66059
▁dont	-4.68195
▁oh	-4.72293
▁well	-4.8023
▁get	-4.86496
▁know	-4.89259
▁come	-4.99202
▁go	-5.01889
▁right	-5.01976
▁like	-5.05188
▁got	-5.17627
▁one	-5.19307
▁youre	-5.23918
ing	-5.24625
▁see	-5.26736
▁thats	-5.28523
▁good	-5.3192
▁	-5.42304
▁back	-5.46346
▁yes	-5.5118
▁think	-5.55622
▁yeah	-5.56052
▁time	-5.58385
▁na	-5.62193
▁ill	-5.68215
▁want	-5.68368
▁hey	-5.7121
▁look	-5.71275
▁take	-5.73926
▁hes	-5.74011
▁going	-5.74156
▁us	-5.74344
▁cant	-5.77262
▁little	-5.81224
ed	-5.83639
▁would	-5.83964
▁gon	-5.85713
▁make	-5.87515
▁say	-5.88127
▁way	-5.8848
▁could	-5.94841
▁man	-5.95944
▁tell	-5.98815
▁mr	-5.99577
▁lets	-5.99891
▁really	-6.04137
▁okay	-6.07868
▁whats	-6.09575
▁never	-6.11124
y	-6.12162
▁two	-6.13298
▁theres	-6.14675
▁mean	-6.15887
▁give	-6.18083
▁let	-6.18524
▁ive	-6.19108
▁love	-6.19858
▁l	-6.20158
▁something	-6.2146
d	-6.22869
▁sure	-6.23589
▁please	-6.24924
▁first	-6.25177
▁world	-6.25967
▁help	-6.26275
▁sir	-6.27483
▁thank	-6.28191
▁must	-6.28252
▁need	-6.28796
▁la	-6.29949
▁didnt	-6.32766
▁great	-6.37758
▁find	-6.38374
▁wait	-6.38856
▁uh	-6.38998
▁christmas	-6.3923
▁ha	-6.42672
▁people	-6.4368
ve	-6.44194
▁boy	-6.44457
▁day	-6.44478
▁much	-6.44598
▁away	-6.44643
e	-6.45416
▁sorry	-6.45836
ly	-6.46822
▁thing	-6.47732
▁big	-6.49948
▁new	-6.52566
▁better	-6.539
▁home	-6.54573
▁even	-6.54622
▁theyre	-6.55256
▁still	-6.5526
▁night	-6.55718
▁music	-6.56128
▁put	-6.5701
▁maybe	-6.58023
▁keep	-6.58639
▁dad	-6.6003
▁youll	-6.61293
▁ever	-6.6252
▁huh	-6.63058
▁around	-6.63796
▁work	-6.64097
▁stop	-6.6422
▁life	-6.6467
▁said	-6.64909
▁things	-6.69703
▁shes	-6.708
▁wont	-6.72302
▁old	-6.7275
▁everything	-6.74782
▁long	-6.751
▁always	-6.75583
▁ta	-6.76231
▁whoa	-6.7644
▁nothing	-6.77279
▁nice	-6.78316
▁you	-6.7851
▁call	-6.78798
▁last	-6.79069
▁hello	-6.79452
▁thought	-6.79738
▁ah	-6.79915
▁thanks	-6.82672
▁every	-6.82701
▁miss	-6.82834
▁fine	-6.83356
▁course	-6.83396
▁anything	-6.84303
▁id	-6.85261
▁believe	-6.85662
er	-6.85911
▁place	-6.86015
▁made	-6.86296
▁isnt	-6.86613
▁doesnt	-6.88488
▁bad	-6.90998
▁may	-6.91923
▁girl	-6.94213
▁show	-6.94834
▁lot	-6.94923
▁three	-6.95136
▁hear	-6.95566
▁hand	-6.9572
▁another	-6.96393
▁remember	-6.97022
▁mom	-6.97363
▁weve	-6.98501
▁care	-6.98638
▁stay	-6.98904
▁might	-6.99311
▁heart	-6.99517
▁father	-6.99569
▁kind	-7.00416
▁talk	-7.00419
▁name	-7.00932
▁car	-7.00984
▁enough	-7.01671
▁coming	-7.02343
▁next	-7.04438
▁mother	-7.05008
▁told	-7.05562
▁try	-7.05716
▁hold	-7.08752
▁together	-7.0899
▁dear	-7.09467
▁ready	-7.10432
▁listen	-7.10718
▁water	-7.11044
▁son	-7.1112
▁leave	-7.13271
▁mind	-7.13399
ll	-7.13541
t	-7.13853
es	-7.14235
▁minute	-7.15134
▁years	-7.15165
▁money	-7.15607
▁feel	-7.15884
▁hi	-7.17239
▁getting	-7.17378
▁today	-7.17524
▁guess	-7.17539
▁dog	-7.18067
▁turn	-7.18775
▁without	-7.18783
▁kid	-7.19113
▁ok	-7.20185
▁far	-7.20278
▁best	-7.20511
▁came	-7.20694
▁friend	-7.20807
▁guys	-7.20933
▁done	-7.21551
▁looks	-7.21793
▁real	-7.2312
▁wrong	-7.23376
▁happened	-7.23489
▁alone	-7.24745
▁easy	-7.24752
▁laughing	-7.24823
▁team	-7.25006
▁young	-7.25449
▁wouldnt	-7.25551
▁worry	-7.25704
▁start	-7.25948
▁understand	-7.26026
▁number	-7.26337
▁seen	-7.26412
▁run	-7.26806
▁morning	-7.2822
▁king	-7.29594
▁charlie	-7.29812
▁head	-7.29993
▁wan	-7.3056
▁looking	-7.30967
▁yet	-7.31144
▁door	-7.31473
▁happy	-7.31804
▁left	-7.31808
▁excuse	-7.32225
▁house	-7.33066
▁soon	-7.33237
▁wanted	-7.33675
▁jack	-7.34217
▁move	-7.34971
▁idea	-7.35062
▁someone	-7.35961
▁school	-7.35993
▁tomorrow	-7.36729
▁hope	-7.36817
▁late	-7.38353
▁trouble	-7.38588
▁job	-7.39089
▁fly	-7.39148
▁found	-7.39248
▁pretty	-7.39409
▁pig	-7.39867
▁matter	-7.39909
▁hell	-7.40253
▁wish	-7.40316
▁aint	-7.41035
▁forget	-7.41502
▁trying	-7.4157
▁ask	-7.41937
▁watch	-7.41987
▁ball	-7.42727
▁live	-7.45449
▁fun	-7.45548
▁knew	-7.45941
▁ooh	-7.46209
▁gone	-7.46265
▁dr	-7.46377
▁meet	-7.47246
▁cold	-7.47705
▁guy	-7.48264
▁whole	-7.48528
▁true	-7.48538
▁hurt	-7.48713
▁em	-7.4872
▁continues	-7.48878
est	-7.48891
▁kids	-7.49228
▁princess	-7.49455
▁un	-7.49511
▁warm	-7.49867
▁hard	-7.50144
▁perfect	-7.50188
▁everybody	-7.50258
▁year	-7.5044
i	-7.50642
al	-7.5103
▁use	-7.5109
▁beautiful	-7.51146
▁barking	-7.51195
▁baby	-7.51915
▁gentlemen	-7.52032
▁havent	-7.52049
▁many	-7.53077
a	-7.53703
▁ya	-7.54256
▁talking	-7.54546
▁room	-7.54666
▁woman	-7.54781
▁quite	-7.54917
▁bird	-7.55362
▁boys	-7.55446
▁else	-7.5557
▁already	-7.55684
▁crowd	-7.55699
▁hurry	-7.5651
▁second	-7.56601
▁afraid	-7.56618
▁ringle	-7.56648
▁heard	-7.57075
▁problem	-7.57368
▁everyone	-7.57452
▁play	-7.57579
r	-7.57816
▁whos	-7.58191
▁end	-7.58234
▁bright	-7.584
▁open	-7.58491
▁family	-7.58515
▁chuckles	-7.58549
▁girls	-7.58854
▁men	-7.58956
▁high	-7.59451
▁uncle	-7.59476
n	-7.59619
▁dream	-7.59623
▁bring	-7.59903
▁chance	-7.60295
▁cheering	-7.60493
▁couldnt	-7.60617
▁important	-7.61307
▁matilda	-7.6145
▁lost	-7.61489
▁sleep	-7.61841
▁called	-7.61965
▁gadget	-7.62278
▁bit	-7.6267
▁waiting	-7.628
▁free	-7.6314
▁tree	-7.63333
▁four	-7.63475
▁stand	-7.63767
▁since	-7.6412
▁goes	-7.6432
▁ho	-7.64427
▁race	-7.64766
▁aah	-7.64963
▁full	-7.64973
▁saw	-7.65479
▁sound	-7.65713
▁god	-7.6601
▁eat	-7.66299
st	-7.66465
▁boss	-7.66529
▁sing	-7.66603
▁eyes	-7.66944
▁business	-7.67383
▁prince	-7.67404
▁arent	-7.67554
▁honey	-7.67562
▁comes	-7.67852
▁lovely	-7.68003
▁youd	-7.68115
▁beat	-7.68129
▁days	-7.68226
▁cause	-7.68401
▁lead	-7.68576
▁hmm	-7.68709
▁s	-7.68878
▁mine	-7.69497
▁andrea	-7.69637
▁fight	-7.70084
▁close	-7.70098
▁buddy	-7.70686
▁along	-7.70714
▁air	-7.70814
▁gasps	-7.70827
▁dance	-7.7136
▁face	-7.71558
▁hercules	-7.71812
▁working	-7.7188
▁fall	-7.72431
▁light	-7.726
▁merlin	-7.72896
▁tonight	-7.72898
▁bye	-7.72932
▁game	-7.72946
▁part	-7.73449
▁promise	-7.73785
▁summer	-7.74011
▁seems	-7.74875
▁story	-7.75192
▁flight	-7.75204
▁sweet	-7.75204
▁later	-7.75343
▁pay	-7.75887
▁earth	-7.75946
▁top	-7.76067
▁voice	-7.76273
▁check	-7.77077
▁friends	-7.77101
▁took	-7.77428
▁star	-7.77472
▁speak	-7.78053
▁fire	-7.78061
▁c	-7.78129
▁used	-7.7825
▁brown	-7.78585
▁nobody	-7.78597
▁says	-7.79026
▁i	-7.79114
▁hit	-7.79675
▁sit	-7.80012
▁g	-7.80037
▁gold	-7.80054
▁catch	-7.80468
▁line	-7.80937
▁stupid	-7.80945
▁wasnt	-7.80947
▁crazy	-7.80949
▁theodore	-7.80973
▁moment	-7.81037
▁shall	-7.82139
▁poor	-7.8218
▁taking	-7.82293
▁rock	-7.82938
▁captain	-7.8337
▁sterling	-7.83398
▁grunts	-7.83403
▁word	-7.83454
▁sun	-7.83512
▁hours	-7.84232
▁went	-7.84659
▁wow	-7.84745
▁wonderful	-7.84767
▁food	-7.84784
▁feet	-7.85879
▁five	-7.86006
▁thinking	-7.86059
▁saying	-7.86194
le	-7.86472
▁they	-7.8675
▁gordy	-7.87128
▁heres	-7.872
▁lm	-7.87604
▁bob	-7.87667
▁save	-7.88356
▁safe	-7.88795
▁win	-7.88973
▁j	-7.89197
▁somebody	-7.89701
▁become	-7.89856
▁wheres	-7.89864
▁ra	-7.90218
on	-7.90588
▁a	-7.90677
▁person	-7.90811
▁set	-7.90859
▁point	-7.90879
▁child	-7.91018
▁anyone	-7.91028
▁santa	-7.91199
able	-7.91422
▁wants	-7.91956
▁claw	-7.91978
▁change	-7.92306
▁started	-7.92789
▁throw	-7.92882
l	-7.92913
▁ohh	-7.92979
▁happen	-7.93147
▁act	-7.93254
▁answer	-7.93477
▁almost	-7.937
▁actually	-7.93719
▁forest	-7.93745
▁bet	-7.94827
▁stanley	-7.9507
▁dinner	-7.95073
▁luck	-7.95986
▁probably	-7.9646
▁exactly	-7.9649
▁asked	-7.96839
▁six	-7.97554
▁ow	-7.97814
▁whatever	-7.97893
▁book	-7.98092
▁follow	-7.98835
▁minutes	-7.99065
▁careful	-7.9908
o	-7.9917
▁means	-7.99203
▁fast	-7.99261
▁professor	-7.99296
▁least	-7.99316
▁sounds	-7.99453
▁plane	-7.99558
▁town	-7.99646
▁wonder	-8.00145
▁knows	-8.0051
▁children	-8.00747
▁lady	-8.00829
▁white	-8.01052
▁brother	-8.01436
▁cool	-8.01581
▁grand	-8.01813
▁ago	-8.0211
▁stuff	-8.02215
▁anybody	-8.02215
▁danny	-8.02217
▁goodbye	-8.02226
▁ahead	-8.02228
▁perhaps	-8.02244
▁human	-8.02453
▁case	-8.02829
▁side	-8.0287
▁plan	-8.02899
▁rest	-8.0338
▁re	-8.03806
▁dreams	-8.03982
▁lucky	-8.0404
▁laughs	-8.04345
▁playing	-8.0437
▁e	-8.04812
▁dogs	-8.04848
▁special	-8.04871
▁stuart	-8.05223
▁half	-8.05226
▁making	-8.05332
▁hands	-8.05513
▁hot	-8.05652
▁times	-8.05943
▁walk	-8.06455
▁sign	-8.06542
▁feeling	-8.0662
▁coffee	-8.0676
▁sighs	-8.06947
▁b	-8.07087
▁canyon	-8.07155
▁horse	-8.07351
▁flying	-8.07594
▁learn	-8.07618
▁seem	-8.07941
▁quick	-8.08214
▁funny	-8.08341
▁possible	-8.08354
▁power	-8.08541
▁land	-8.08588
▁able	-8.08846
▁fact	-8.09643
▁somewhere	-8.09911
▁penny	-8.09917
▁ladies	-8.09923
▁behind	-8.09941
▁born	-8.10028
▁send	-8.10085
▁celebi	-8.10388
▁hour	-8.10426
▁um	-8.1067
▁bell	-8.10891
in	-8.11123
▁met	-8.11162
▁return	-8.11274
▁darling	-8.11526
▁gets	-8.11878
▁doctor	-8.11991
▁deal	-8.12564
▁p	-8.12704
▁read	-8.12787
▁mrs	-8.12975
▁dark	-8.13121
berry	-8.13157
▁also	-8.13162
▁either	-8.13176
▁wed	-8.13528
▁anyway	-8.13649
▁li	-8.137
▁makes	-8.137
▁champion	-8.13737
▁die	-8.14314
zzle	-8.14531
us	-8.14734
▁break	-8.14819
▁dead	-8.14848
▁dancing	-8.14851
en	-8.14861
ies	-8.14889
▁ride	-8.1494
▁city	-8.15004
▁supposed	-8.15101
▁board	-8.15215
▁step	-8.15391
▁bank	-8.15407
▁million	-8.15409
▁cut	-8.16066
▁bed	-8.16368
▁different	-8.16432
▁clear	-8.16456
▁majesty	-8.16531
ion	-8.16543
▁phone	-8.1698
▁lose	-8.17091
▁snow	-8.17919
▁kill	-8.17919
▁crystal	-8.18248
▁lonely	-8.18249
▁merry	-8.18286
▁small	-8.18468
▁reason	-8.18726
▁flowers	-8.18754
▁alvin	-8.1881
▁pick	-8.19402
▁pull	-8.1948
▁trust	-8.19795
▁gordon	-8.20002
▁inside	-8.20005
▁mister	-8.2001
▁company	-8.20043
▁though	-8.20058
▁coins	-8.2015
▁dressing	-8.20187
▁order	-8.20481
▁beast	-8.20512
▁magic	-8.20851
▁ring	-8.20982
▁it	-8.21424
▁welcome	-8.21819
▁groans	-8.21835
▁telling	-8.21844
▁theyve	-8.22015
▁drink	-8.22017
▁woof	-8.22175
▁wind	-8.22353
▁lord	-8.2281
▁m	-8.22834
▁knowing	-8.23526
▁bastian	-8.23605
▁death	-8.23609
▁hanky	-8.23629
▁certainly	-8.23686
▁folks	-8.23727
▁body	-8.23971
▁question	-8.24295
▁whoo	-8.24328
▁reach	-8.24404
▁animals	-8.24477
h	-8.2452
▁song	-8.24601
▁glad	-8.25335
▁floyd	-8.25456
▁outside	-8.25459
▁virgil	-8.25459
▁chattering	-8.25487
▁gave	-8.25507
▁giving	-8.25511
▁strong	-8.26005
▁college	-8.26139
▁shot	-8.26267
▁train	-8.26897
▁straight	-8.27144
▁richard	-8.27349
▁brought	-8.27352
▁groaning	-8.27361
▁wife	-8.27411
▁sometimes	-8.27539
▁party	-8.27789
▁news	-8.27943
▁honor	-8.27979
▁radio	-8.28048
▁daughter	-8.28129
▁round	-8.28138
▁cake	-8.28142
▁ty	-8.28205
ous	-8.28232
▁mmm	-8.28637
▁quiet	-8.29152
▁janie	-8.29275
▁front	-8.29314
▁buy	-8.29549
▁ten	-8.296
▁shoes	-8.29601
▁needs	-8.29688
▁birds	-8.29919
▁master	-8.30104
▁pass	-8.30767
▁marry	-8.30796
▁road	-8.30881
▁suppose	-8.3092
▁blue	-8.31089
▁kabuna	-8.31226
▁shouldnt	-8.3124
▁running	-8.31248
▁chief	-8.31266
▁country	-8.31278
▁sort	-8.31349
m	-8.3146
▁figure	-8.31815
▁eh	-8.31961
▁hate	-8.32053
▁goin	-8.32141
▁secret	-8.32142
▁hang	-8.3244
▁foot	-8.32452
▁yo	-8.32883
▁past	-8.33187
▁drummond	-8.33227
▁cinderella	-8.33229
▁chuckling	-8.33234
▁maam	-8.33257
▁planet	-8.33791
▁list	-8.3398
▁quit	-8.34647
▁canyons	-8.3474
mon	-8.35159
▁narrator	-8.35267
▁zeus	-8.35271
▁drive	-8.35274
▁hugo	-8.35304
▁blood	-8.35455
▁mission	-8.35478
▁green	-8.36
▁judge	-8.36434
▁class	-8.36777
▁santas	-8.37063
▁ii	-8.37067
▁taken	-8.37168
▁grayson	-8.37351
▁clothes	-8.37385
▁scared	-8.37426
▁fang	-8.3746
▁speed	-8.37475
▁fingers	-8.38032
▁roll	-8.38058
ity	-8.38072
▁d	-8.39292
▁sand	-8.3937
▁taylor	-8.39477
▁anymore	-8.39478
▁across	-8.3948
▁football	-8.39483
▁forever	-8.39485
▁hungry	-8.39521
▁north	-8.39829
▁pok	-8.3991
▁f	-8.40038
▁walking	-8.40083
▁speaking	-8.40225
▁hundred	-8.40541
▁h	-8.406
▁pa	-8.40774
▁cute	-8.40908
▁millions	-8.40956
ers	-8.40988
▁slow	-8.41083
▁t	-8.4113
▁dangerous	-8.4154
▁words	-8.41609
▁major	-8.4165
▁impossible	-8.41685
▁parents	-8.41756
▁yall	-8.41881
▁blessing	-8.41959
▁till	-8.42009
▁evening	-8.42094
▁attack	-8.42181
▁present	-8.42652
▁queen	-8.42672
▁future	-8.42673
▁machine	-8.42697
▁control	-8.43175
▁touch	-8.43232
▁shoot	-8.43419
▁miles	-8.43506
▁shut	-8.43674
▁steve	-8.43741
▁broadway	-8.43875
▁rosebud	-8.43877
▁sheep	-8.4388
▁alive	-8.439
▁cash	-8.43905
▁living	-8.43908
▁parker	-8.43992
▁sent	-8.44258
▁cross	-8.44405
▁heh	-8.44549
ment	-8.44964
▁deep	-8.45121
▁lt	-8.45598
▁leaves	-8.45825
▁mad	-8.45918
▁calling	-8.4602
▁wild	-8.46041
▁n	-8.46064
▁sarah	-8.46145
▁glorious	-8.46148
▁laughter	-8.46163
▁space	-8.46165
▁tried	-8.46177
▁screaming	-8.46221
▁finally	-8.46249
▁tight	-8.46303
▁record	-8.46472
▁lake	-8.46499
▁fool	-8.46524
▁american	-8.46565
▁report	-8.46751
▁wake	-8.47182
▁x	-8.47225
▁smile	-8.4734
▁winner	-8.47351
▁th	-8.47501
▁brain	-8.47753
▁expect	-8.47815
▁state	-8.47876
▁in	-8.48117
▁teach	-8.48205
▁ice	-8.48241
▁damn	-8.48282
▁except	-8.48318
▁stick	-8.48319
▁serious	-8.48361
▁english	-8.48471
▁simple	-8.48553
▁mail	-8.48611
▁r	-8.48661
ful	-8.48682
▁bear	-8.48726
▁mei	-8.49397
▁pat	-8.49525
▁double	-8.49685
▁drop	-8.49753
▁rain	-8.49894
▁strange	-8.50302
man	-8.50566
▁lili	-8.5072
▁baxter	-8.50851
▁boris	-8.50852
▁jungle	-8.50852
▁beauty	-8.50852
▁applause	-8.50854
▁leaving	-8.50878
▁others	-8.50886
▁explain	-8.50893
▁kidding	-8.50897
▁evil	-8.50903
▁moving	-8.50907
▁sell	-8.51344
▁handle	-8.51932
▁truth	-8.51979
▁operation	-8.52121
▁sister	-8.52139
▁animal	-8.52143
▁fell	-8.53028
▁awful	-8.53126
▁gee	-8.53214
▁reeko	-8.5329
▁language	-8.53291
▁attention	-8.53291
▁married	-8.53298
▁castle	-8.53303
▁hotel	-8.53304
▁twice	-8.53305
▁rather	-8.53306
▁busy	-8.534
▁hair	-8.53472
or	-8.54051
▁blow	-8.54053
▁kick	-8.54381
▁red	-8.54414
▁blanket	-8.54593
▁spend	-8.54866
▁de	-8.55213
▁finish	-8.55416
▁grain	-8.55688
▁plenty	-8.5579
▁dockerty	-8.55791
▁amazing	-8.55796
▁jelly	-8.55797
▁growling	-8.55827
▁engine	-8.55946
▁join	-8.56524
▁offer	-8.56684
▁office	-8.56866
▁whistle	-8.57194
▁spirit	-8.57195
▁general	-8.57235
▁lll	-8.57378
▁spin	-8.57388
▁sense	-8.57478
▁mu	-8.57576
▁enjoy	-8.57697
▁hill	-8.57731
▁eye	-8.58113
▁certain	-8.58331
▁planned	-8.58408
▁daddy	-8.58417
▁tv	-8.58419
▁jane	-8.58481
▁faster	-8.58533
▁mama	-8.58534
▁lve	-8.58534
▁seven	-8.58955
▁hero	-8.59156
▁alan	-8.5919
▁known	-8.59273
▁singing	-8.5928
▁ship	-8.60029
▁final	-8.60282
▁bottom	-8.60985
▁thousand	-8.60985
▁rimspoke	-8.60985
▁forgot	-8.60986
▁terrible	-8.60986
▁sword	-8.61006
▁grunting	-8.61011
▁valley	-8.61039
▁celebrate	-8.61298
▁aii	-8.6131
▁finished	-8.6132
▁count	-8.61776
▁lives	-8.6192
▁cat	-8.62113
▁strike	-8.62358
▁ground	-8.6239
▁rascal	-8.62486
▁sky	-8.62607
▁park	-8.6287
▁ones	-8.63009
▁continue	-8.63021
▁missing	-8.63405
▁arthur	-8.63687
▁higgins	-8.63688
▁andrew	-8.63688
▁marriage	-8.63688
▁felt	-8.6369
▁pleasant	-8.63691
▁alright	-8.63699
▁silly	-8.63722
▁third	-8.63738
▁peace	-8.6377
▁shit	-8.63776
▁hows	-8.63851
▁dis	-8.63864
▁tail	-8.63903
▁none	-8.63912
▁unh	-8.64017
▁bag	-8.64018
kept	-8.64093
ie	-8.64505
▁creatures	-8.64547
▁shine	-8.64919
▁looked	-8.65043
▁mountain	-8.6518
▁message	-8.65213
▁moon	-8.65439
▁boat	-8.65526
▁k	-8.6561
▁clean	-8.65756
▁le	-8.65766
▁worth	-8.66239
▁forgive	-8.66312
▁max	-8.66406
▁near	-8.66426
▁beach	-8.66464
▁rescue	-8.66465
▁midvale	-8.66465
▁worried	-8.66465
▁afternoon	-8.66467
▁winter	-8.66511
▁takes	-8.66723
▁fair	-8.66801
▁grandma	-8.66909
▁jump	-8.67051
▁short	-8.67196
▁police	-8.67241
▁tin	-8.67274
▁standing	-8.67787
▁station	-8.68095
▁dare	-8.68226
▁rope	-8.68229
▁law	-8.68262
▁wood	-8.68309
▁piece	-8.68372
▁field	-8.68507
▁knock	-8.68655
▁kiss	-8.68698
▁wear	-8.68995
▁stars	-8.69103
▁fresh	-8.69221
▁proud	-8.69314
▁caught	-8.69317
▁ridiculous	-8.69323
▁couple	-8.69326
ness	-8.69338
▁highness	-8.69359
im	-8.6946
▁be	-8.69514
▁quickly	-8.6953
▁sam	-8.69687
▁greatest	-8.69722
▁rings	-8.6988
▁picture	-8.69892
▁tough	-8.6998
▁died	-8.70025
nt	-8.70222
▁practice	-8.70394
▁fix	-8.70481
▁lords	-8.70642
▁adventure	-8.71041
▁island	-8.71048
▁copper	-8.71083
▁doubt	-8.71778
▁consider	-8.7196
▁cow	-8.71976
▁super	-8.72127
▁among	-8.72186
▁john	-8.72241
▁system	-8.72255
▁hammond	-8.72255
▁royal	-8.7226
▁smell	-8.72264
▁immediately	-8.72275
▁form	-8.72282
▁absolutely	-8.72285
▁tired	-8.72288
▁flash	-8.72311
▁besides	-8.72314
▁strength	-8.7235
▁forward	-8.72379
▁coach	-8.72397
▁fred	-8.72402
▁science	-8.72404
▁fat	-8.72472
▁ahh	-8.72509
▁eight	-8.72511
▁names	-8.72575
▁perfectly	-8.72648
▁gosh	-8.72841
▁longer	-8.72963
▁matt	-8.73018
▁grow	-8.73765
▁pleasure	-8.74057
▁fault	-8.74089
▁monster	-8.74138
▁guard	-8.74202
▁relax	-8.74383
▁butch	-8.74656
▁clack	-8.74783
▁hen	-8.74812
▁honest	-8.74965
▁realize	-8.75095
▁shh	-8.752
▁inspector	-8.75285
▁thompson	-8.75285
▁competition	-8.75285
▁thunder	-8.75285
▁someday	-8.75286
▁mingle	-8.7529
▁black	-8.7529
▁doian	-8.75291
▁lunch	-8.75293
▁women	-8.75294
▁pepe	-8.75306
▁native	-8.75321
▁claus	-8.75324
▁director	-8.75331
▁angela	-8.75354
▁works	-8.7536
▁decided	-8.75395
▁dean	-8.75406
▁nose	-8.75474
▁woody	-8.75533
▁ought	-8.75555
▁mm	-8.75725
▁ringing	-8.75994
▁happening	-8.76294
▁brains	-8.76534
▁meeting	-8.76791
▁click	-8.76826
▁presents	-8.76876
▁less	-8.77098
▁worked	-8.77135
▁throat	-8.77187
▁kangaroo	-8.77205
▁week	-8.77295
▁tom	-8.77444
▁hed	-8.77502
▁frog	-8.77709
▁kate	-8.77974
▁happens	-8.78052
▁difficult	-8.78133
▁suggest	-8.78227
▁visit	-8.78305
▁heat	-8.78338
▁kitchen	-8.78408
▁outta	-8.78413
▁bernie	-8.78413
▁choice	-8.78416
▁idiot	-8.78417
▁nasty	-8.78428
▁wedding	-8.78431
▁miller	-8.78436
▁tammy	-8.78442
▁lowell	-8.78448
▁silver	-8.78474
▁shouting	-8.78478
▁babe	-8.78598
▁trip	-8.78879
▁promised	-8.7909
▁sad	-8.79154
▁sick	-8.79195
▁treat	-8.79354
▁laugh	-8.79434
▁turned	-8.79529
▁theo	-8.79599
▁pigs	-8.79778
▁pack	-8.79813
one	-8.79894
▁asking	-8.80009
▁computer	-8.8037
g	-8.80458
▁spot	-8.80492
▁w	-8.80861
ts	-8.80868
ic	-8.81112
ry	-8.815
▁entire	-8.81519
▁crusoe	-8.81636
▁formula	-8.81636
▁goreslimey	-8.81636
▁indistinct	-8.81636
▁base	-8.81636
▁middle	-8.81636
▁steady	-8.81637
▁cereal	-8.81637
▁nervous	-8.81639
▁hoggett	-8.81641
▁danger	-8.81642
▁history	-8.81642
▁rich	-8.81647
▁sensation	-8.81648
▁snorting	-8.81659
▁upon	-8.81661
▁simon	-8.81664
▁shell	-8.81721
▁cars	-8.81738
▁baron	-8.81741
▁andy	-8.81782
▁challenge	-8.81838
▁seconds	-8.81843
▁screams	-8.81947
▁mmhmm	-8.81967
▁crown	-8.81983
▁nature	-8.82022
▁trees	-8.82028
less	-8.82097
▁smart	-8.82098
▁legs	-8.8263
▁track	-8.83122
▁missed	-8.8329
▁forge	-8.83429
▁charge	-8.83469
▁co	-8.8347
▁aw	-8.83483
an	-8.8349
▁mistake	-8.83598
▁bill	-8.83618
▁extra	-8.8363
▁street	-8.8369
▁hide	-8.83933
▁fellow	-8.8394
▁fear	-8.83947
▁fella	-8.83969
▁crash	-8.84341
up	-8.84624
▁prove	-8.84836
▁husband	-8.84969
▁anywhere	-8.84969
▁suzette	-8.84969
▁zira	-8.84969
▁leila	-8.8497
▁balto	-8.84971
▁beginning	-8.84972
▁rip	-8.84982
▁henry	-8.8499
▁totally	-8.85013
▁afford	-8.85015
▁band	-8.85113
▁soft	-8.85121
▁dave	-8.85155
▁interested	-8.85168
▁leon	-8.85312
▁st	-8.85606
▁carry	-8.85746
▁announce	-8.85995
▁ears	-8.86302
▁blows	-8.86592
▁surprise	-8.86824
▁garden	-8.87052
▁favorite	-8.87073
▁president	-8.87138
▁service	-8.87205
▁decision	-8.87226
▁remain	-8.87226
▁listening	-8.87286
▁monkey	-8.87297
▁corner	-8.87305
▁feels	-8.87776
▁wings	-8.87797
▁river	-8.87798
▁elle	-8.87844
▁needed	-8.87845
▁no	-8.88093
▁howd	-8.88226
▁branch	-8.88284
▁tea	-8.88284
▁broke	-8.88293
▁junior	-8.88417
▁vacation	-8.88419
▁irena	-8.88422
▁indeed	-8.88425
▁jones	-8.88426
▁stuck	-8.88427
▁robin	-8.88463
▁piggy	-8.8849
▁group	-8.88555
▁fairy	-8.88695
▁pounds	-8.89274
▁bar	-8.89803
▁low	-8.89968
▁fit	-8.90034
▁leg	-8.90146
blank	-8.90205
um	-8.90313
▁starting	-8.90512
▁taste	-8.90541
▁situation	-8.90636
▁kingdom	-8.90639
▁ash	-8.90781
▁finger	-8.90902
▁apple	-8.90995
▁test	-8.91372
▁farm	-8.91375
▁travel	-8.91408
▁rob	-8.91502
▁uhh	-8.91536
▁waste	-8.9181
ally	-8.91945
▁orphan	-8.9198
▁penelope	-8.91989
▁tanamashu	-8.91989
▁tarzan	-8.91989
▁instead	-8.91989
▁humbug	-8.91989
▁royce	-8.91991
▁pollen	-8.91991
▁werent	-8.91992
▁contract	-8.91992
▁ridgeway	-8.91996
▁international	-8.91997
▁hasnt	-8.92011
▁worse	-8.92016
▁nicole	-8.92028
▁rex	-8.9203
▁unless	-8.92035
▁al	-8.92037
▁flag	-8.92037
▁amos	-8.92055
▁force	-8.92068
▁sharks	-8.924
▁clouds	-8.92485
▁cheers	-8.92517
▁deliver	-8.92521
▁barks	-8.92522
▁killed	-8.92707
▁fellas	-8.93265
se	-8.93726
b	-8.93766
▁rule	-8.94351
▁orders	-8.94359
▁cousin	-8.94383
▁spring	-8.9445
▁gift	-8.9445
▁creature	-8.94523
▁date	-8.94705
▁sea	-8.9474
▁climb	-8.94829
▁weather	-8.94877
▁milk	-8.95017
▁ba	-8.95204
▁meant	-8.95496
▁enter	-8.95592
▁appear	-8.95598
▁program	-8.95609
▁dexter	-8.9567
▁sergeant	-8.95692
▁ralph	-8.95692
▁yesterday	-8.95692
▁bruce	-8.95693
▁neither	-8.95694
▁pouch	-8.95702
▁desert	-8.95704
▁pudding	-8.95711
▁bee	-8.95726
▁bigger	-8.95802
▁early	-8.95935
ive	-8.95945
▁key	-8.95952
▁push	-8.95985
▁mac	-8.96027
▁billy	-8.96148
▁wall	-8.96173
▁wearing	-8.96183
▁teacher	-8.96278
▁pray	-8.96279
▁tod	-8.96309
▁rules	-8.96928
▁ben	-8.97307
▁named	-8.97521
▁interest	-8.97552
▁gives	-8.97999
▁ski	-8.98094
▁pain	-8.98152
▁emperor	-8.98282
▁position	-8.98342
▁arm	-8.98507
▁mess	-8.98587
▁rid	-8.98637
▁write	-8.98743
▁hat	-8.9886
▁paper	-8.99354
▁lift	-8.99474
▁cry	-8.99515
▁congratulations	-8.99539
▁cornelius	-8.99539
▁giggling	-8.9954
▁carface	-8.99546
▁wagon	-8.9955
▁definitely	-8.99551
▁panting	-8.99565
▁brandon	-8.99567
▁often	-8.99576
▁project	-8.99578
▁season	-8.99579
▁erik	-8.99582
▁seeing	-8.99582
▁lights	-8.99608
▁von	-8.99615
▁snorts	-8.99622
▁talent	-8.9963
▁mule	-8.99648
▁accord	-8.99671
ii	-8.99693
▁army	-8.99748
▁national	-8.99816
▁cave	-9.00004
▁hardly	-9.00035
▁climbing	-9.0004
▁iii	-9.00116
p	-9.00206
▁changed	-9.00305
▁madam	-9.00333
▁arms	-9.00631
▁personal	-9.00633
▁aunt	-9.00951
▁single	-9.00975
▁sire	-9.01041
▁cover	-9.0108
▁ugh	-9.01281
▁cook	-9.01384
ce	-9.01898
▁tortoise	-9.0217
▁se	-9.02336
▁window	-9.0236
▁barry	-9.02404
▁flower	-9.02419
▁humans	-9.02603
▁sight	-9.02717
▁bless	-9.02811
▁feed	-9.03074
▁steal	-9.03186
▁calm	-9.03434
▁excellent	-9.03539
▁nonsense	-9.03539
▁timmie	-9.03539
▁zaius	-9.03539
▁private	-9.03539
▁tortoni	-9.03539
▁department	-9.03541
▁jail	-9.0355
▁built	-9.03555
▁bother	-9.03559
▁sonny	-9.03579
▁imagine	-9.0362
▁honking	-9.03636
▁soup	-9.03643
▁paid	-9.03646
▁shining	-9.03651
▁flies	-9.03661
▁putting	-9.03709
at	-9.03742
▁match	-9.03756
▁simians	-9.03762
▁comin	-9.03765
▁meat	-9.03796
▁o	-9.0381
▁chen	-9.0382
▁passed	-9.04003
▁lying	-9.04018
▁level	-9.04021
▁mike	-9.04099
▁fired	-9.04415
ary	-9.04502
▁plays	-9.04514
▁wondering	-9.0469
▁wh	-9.04844
▁guards	-9.05108
▁weeks	-9.05137
▁refere	-9.05609
▁lee	-9.05745
▁spell	-9.06014
▁lock	-9.06279
▁risk	-9.06312
▁cup	-9.06431
▁thunderbird	-9.06465
▁teddy	-9.06469
▁trick	-9.06477
▁spindle	-9.0654
▁horses	-9.06574
▁month	-9.06624
▁horn	-9.06638
▁so	-9.06723
▁dress	-9.06991
▁search	-9.07048
▁grab	-9.07279
▁study	-9.07375
▁proper	-9.07586
▁admit	-9.07694
▁fish	-9.07699
▁derek	-9.07705
▁george	-9.07705
▁godzilla	-9.07705
▁emergency	-9.07705
▁exciting	-9.07705
▁squealing	-9.07705
▁timberwolves	-9.07706
▁fruit	-9.07706
▁account	-9.07706
▁whistling	-9.07712
▁york	-9.07713
▁dumb	-9.07715
▁simply	-9.07717
▁glenn	-9.07718
▁contest	-9.07722
▁everywhere	-9.07723
▁paul	-9.07724
▁canyoneering	-9.07757
▁completely	-9.07761
▁elf	-9.07777
▁weii	-9.0784
▁natural	-9.07858
▁gasping	-9.07871
▁uhoh	-9.07905
▁over	-9.07964
▁brave	-9.07983
▁slipper	-9.08028
▁share	-9.08137
▁crying	-9.08212
▁figured	-9.08302
▁oil	-9.08423
▁ran	-9.08532
▁ab	-9.08606
▁dado	-9.09119
▁fighting	-9.09359
▁places	-9.09365
ting	-9.09393
▁woods	-9.09518
▁wise	-9.09663
▁watching	-9.09843
▁par	-9.10084
▁fantasia	-9.10424
▁helping	-9.10478
▁movie	-9.10635
▁starts	-9.10684
▁crime	-9.10837
▁manager	-9.10875
▁beg	-9.10956
▁turns	-9.1102
▁wheel	-9.11087
▁ne	-9.11097
▁ann	-9.11236
▁correct	-9.11417
▁manage	-9.11818
▁faith	-9.11848
▁mention	-9.11859
▁yah	-9.11877
▁harriet	-9.12053
▁larrabee	-9.12053
▁scrooge	-9.12053
▁respect	-9.12054
▁kandi	-9.12054
▁teeth	-9.12054
▁information	-9.12055
▁zero	-9.12056
▁upset	-9.12056
▁evilia	-9.12058
▁cinderelly	-9.12059
▁johnny	-9.12062
▁jenny	-9.12063
▁slice	-9.12068
▁jingle	-9.12068
▁victory	-9.12076
▁handsome	-9.12086
▁nine	-9.12109
▁difference	-9.1211
▁alarm	-9.12154
▁oran	-9.12156
▁dollars	-9.12245
▁whispering	-9.12257
▁storm	-9.12267
▁tiny	-9.12306
▁stage	-9.1231
▁interesting	-9.1253
▁gammas	-9.12715
▁hare	-9.12754
▁blowing	-9.12809
▁thr	-9.12957
▁problems	-9.12965
c	-9.13119
▁main	-9.13181
▁heavens	-9.13512
▁tall	-9.13555
▁eating	-9.13983
▁using	-9.14315
id	-9.1471
▁calls	-9.14719
▁given	-9.14786
▁questions	-9.14877
▁mo	-9.14996
▁sport	-9.15004
▁pe	-9.1515
▁female	-9.15215
▁add	-9.15304
▁fashion	-9.15335
▁prize	-9.15377
▁robert	-9.15409
▁joy	-9.1541
▁lesson	-9.15481
▁seat	-9.15522
▁leader	-9.15857
▁pal	-9.15863
▁pound	-9.15926
▁charli	-9.15964
ch	-9.16015
▁duck	-9.16244
▁whe	-9.16377
▁escape	-9.16401
▁prepare	-9.16436
▁allow	-9.16529
▁barcuna	-9.16599
▁england	-9.16599
▁necessary	-9.16599
▁however	-9.16599
▁chittering	-9.166
▁forbidden	-9.166
▁fancy	-9.16606
▁duke	-9.16606
▁humming	-9.16608
▁contact	-9.16616
▁central	-9.16623
▁tanner	-9.16635
▁aboard	-9.16639
▁driving	-9.16643
▁garth	-9.1667
▁tires	-9.16693
▁smith	-9.16758
▁he	-9.16805
▁yelling	-9.16812
▁losing	-9.16835
▁broken	-9.16856
▁goofy	-9.16864
▁leo	-9.16895
▁hunter	-9.16901
▁closer	-9.17094
▁angels	-9.17143
▁goodness	-9.17207
▁lots	-9.17413
▁saved	-9.17448
▁gun	-9.17775
▁learning	-9.17822
▁hay	-9.17848
▁months	-9.17884
th	-9.18477
▁who	-9.18497
▁ma	-9.18891
ne	-9.19018
▁table	-9.19291
▁heaven	-9.19689
time	-9.20004
▁area	-9.20151
ist	-9.20244
▁lo	-9.20274
▁lf	-9.20309
▁letter	-9.20438
▁war	-9.20632
▁tim	-9.20686
re	-9.20747
▁store	-9.20847
▁smoke	-9.20891
▁papa	-9.21118
▁raise	-9.21174
▁chuck	-9.21273
▁henrietta	-9.2136
▁krinkle	-9.2136
▁nottingham	-9.2136
▁purpose	-9.2136
▁wednesday	-9.2136
▁security	-9.21361
▁willard	-9.21361
▁herc	-9.21361
▁chitra	-9.21362
▁chimp	-9.21362
▁birthday	-9.21362
▁within	-9.21364
▁asleep	-9.21365
▁gusta	-9.21367
▁snoring	-9.21372
▁nova	-9.21376
▁zone	-9.21377
▁winning	-9.21379
▁giant	-9.21386
▁unusual	-9.2139
▁stella	-9.21392
▁direction	-9.21392
▁age	-9.21398
▁pretend	-9.21399
▁iike	-9.21408
▁puppy	-9.21409
▁darn	-9.21414
▁common	-9.21455
▁court	-9.21464
▁loud	-9.21465
▁coughing	-9.21472
▁loose	-9.21491
▁provide	-9.21496
▁nearly	-9.2155
▁agreed	-9.21592
▁studio	-9.21642
▁building	-9.21842
▁growing	-9.22019
▁opens	-9.22293
▁played	-9.22536
▁fill	-9.22645
▁press	-9.22649
out	-9.22666
▁owl	-9.22669
▁misses	-9.22801
▁agree	-9.23185
▁sue	-9.23211
▁port	-9.23502
▁loves	-9.24154
specially	-9.24549
▁pot	-9.24938
▁protect	-9.25038
▁flat	-9.25056
▁bomb	-9.25175
▁begin	-9.25177
▁shake	-9.25238
▁thinks	-9.25274
▁america	-9.25521
▁loser	-9.25585
▁fort	-9.25596
▁goof	-9.25648
ine	-9.25834
▁spread	-9.25888
▁player	-9.25898
▁build	-9.25933
▁accept	-9.26085
▁german	-9.26113
▁destroy	-9.26128
▁should	-9.26205
▁cream	-9.26218
▁large	-9.26233
▁favor	-9.26347
▁barista	-9.2636
▁bonnelli	-9.2636
▁cummings	-9.2636
▁jesus	-9.26361
▁journey	-9.26361
▁gadgetmobile	-9.26362
▁miracle	-9.26362
▁wolf	-9.26362
▁cheese	-9.26363
▁famous	-9.26364
▁bridge	-9.26373
▁hidden	-9.26373
▁sweetheart	-9.26373
▁jesse	-9.26379
▁pardon	-9.26379
▁james	-9.26384
▁friendship	-9.26413
me	-9.26418
▁africa	-9.26438
▁arrived	-9.26442
▁whimpering	-9.2645
▁floor	-9.26466
▁public	-9.26474
▁block	-9.26475
▁games	-9.26489
▁goose	-9.26602
▁interns	-9.26611
▁applaud	-9.26711
▁surprised	-9.26716
pensive	-9.26829
▁attacked	-9.26887
▁ai	-9.26963
▁glass	-9.26999
▁sooner	-9.27034
▁south	-9.27179
▁brings	-9.2719
▁card	-9.27323
▁recording	-9.27353
▁shows	-9.27408
▁apart	-9.27596
▁hood	-9.27609
▁fans	-9.27723
▁due	-9.27883
w	-9.28005
ng	-9.2803
▁shoo	-9.28088
▁falling	-9.28247
▁out	-9.28449
▁bringing	-9.2849
▁event	-9.28516
▁mountains	-9.28568
▁cap	-9.28634
▁tape	-9.28689
▁cha	-9.28783
▁hop	-9.29362
▁ac	-9.29386
▁ways	-9.29435
▁drum	-9.29599
▁experiment	-9.29842
▁clears	-9.29871
▁holding	-9.29938
▁cost	-9.30033
age	-9.30294
▁basic	-9.30331
▁clue	-9.30351
▁brothers	-9.30365
▁norman	-9.30398
▁condition	-9.30506
▁kit	-9.30619
▁hee	-9.30801
▁repeat	-9.31014
▁patient	-9.3148
▁doll	-9.3159
▁accident	-9.31624
▁bibbidibobbidi	-9.31624
▁brittany	-9.31624
▁eyepoppers	-9.31624
▁scientific	-9.31624
▁chloe	-9.31624
▁medfield	-9.31624
▁genius	-9.31624
▁paolo	-9.31624
▁milady	-9.31624
▁village	-9.31624
▁william	-9.31624
▁zora	-9.31624
▁connor	-9.31625
▁pizza	-9.31625
▁byebye	-9.31627
▁destiny	-9.31629
▁jerk	-9.31634
▁motor	-9.31637
▁planning	-9.31638
▁robot	-9.31647
▁italian	-9.3165
▁kom	-9.31653
▁uhhuh	-9.31669
▁suddenly	-9.31708
▁thief	-9.31711
▁allen	-9.31739
▁scott	-9.3174
▁neck	-9.31752
▁thatll	-9.3177
▁invited	-9.31793
▁rome	-9.31839
▁dari	-9.31854
▁screeching	-9.31898
▁size	-9.31901
▁burn	-9.31941
▁blown	-9.31982
▁boxing	-9.3199
▁wally	-9.32146
▁lean	-9.32267
▁weight	-9.323
▁ordered	-9.32302
▁students	-9.32369
▁seemed	-9.32548
▁belongs	-9.32661
▁dolls	-9.32737
▁passing	-9.32773
ar	-9.3288
▁per	-9.3294
▁following	-9.33181
▁bigge	-9.33663
▁survive	-9.33696
▁coppers	-9.33789
▁surely	-9.34085
▁doors	-9.34514
▁gas	-9.34676
▁bo	-9.34743
▁pure	-9.34802
▁numbers	-9.35028
▁proceed	-9.35213
▁pop	-9.3552
▁bus	-9.35582
▁do	-9.35701
▁meaning	-9.35701
▁view	-9.35711
▁doc	-9.35966
▁ticket	-9.35976
▁prayer	-9.35983
▁scout	-9.36017
▁pet	-9.36164
iy	-9.36173
▁note	-9.36235
▁snap	-9.36337
▁type	-9.36403
▁warn	-9.36815
▁cheat	-9.36824
▁notice	-9.36969
▁chris	-9.36999
▁settle	-9.37037
▁speaks	-9.37163
▁awesome	-9.37179
▁brilliant	-9.37179
▁claudia	-9.37179
▁otherwise	-9.37179
▁whimpers	-9.37179
▁chirp	-9.3718
▁jeff	-9.3718
▁choose	-9.37181
▁breakfast	-9.37182
▁clark	-9.37182
▁opportunity	-9.37187
▁appreciate	-9.3719
▁pony	-9.37191
▁championship	-9.37193
▁bonnie	-9.37194
▁telephone	-9.37195
▁snowbell	-9.37195
▁teammate	-9.37199
▁yellow	-9.37199
▁nasties	-9.37207
▁unfortunately	-9.37209
▁energy	-9.37217
▁vow	-9.3723
▁worst	-9.37268
▁keys	-9.37271
▁bat	-9.37318
▁peck	-9.37338
ation	-9.3734
▁racing	-9.37356
▁hunting	-9.37368
▁discuss	-9.37371
▁mate	-9.37371
▁dying	-9.37374
▁prefer	-9.37469
▁stocking	-9.3751
▁grass	-9.37561
▁waves	-9.37706
▁mary	-9.37722
▁attacker	-9.37741
▁maxie	-9.37787
▁harder	-9.37823
▁keeping	-9.37904
▁can	-9.3794
▁learned	-9.38007
▁hearts	-9.38031
▁counting	-9.38061
▁airlines	-9.38174
▁eve	-9.3828
▁lips	-9.38326
f	-9.38449
▁fantastic	-9.38558
▁switch	-9.39188
▁introduce	-9.39275
led	-9.39302
ent	-9.39327
ual	-9.39597
▁pieces	-9.39629
▁gui	-9.39649
et	-9.39758
▁map	-9.39777
▁whistles	-9.39791
▁swim	-9.39939
▁gettin	-9.40043
▁lie	-9.40302
▁mark	-9.4044
▁sh	-9.40541
boo	-9.40702
tion	-9.40882
▁finds	-9.40997
▁heads	-9.41481
▁snowflake	-9.41738
▁candle	-9.41789
▁club	-9.41796
▁partner	-9.41831
▁dude	-9.41856
▁holiday	-9.41865
▁ghost	-9.41869
▁tour	-9.42399
▁stone	-9.42424
▁teii	-9.4264
▁woo	-9.4268
▁butt	-9.42692
▁apologize	-9.43061
▁attempt	-9.43061
▁audience	-9.43061
▁berkshire	-9.43061
▁beyond	-9.43061
▁mumbai	-9.43061
▁sundancer	-9.43061
▁excited	-9.43062
▁jacob	-9.43062
▁jessica	-9.43062
▁siwon	-9.43062
▁colonel	-9.43062
▁obey	-9.43062
▁permission	-9.43062
▁evidence	-9.43062
▁ugly	-9.43065
▁amount	-9.43065
▁bravo	-9.43065
▁french	-9.43067
▁purse	-9.43068
▁sunset	-9.43071
▁blind	-9.43075
▁launch	-9.43076
▁incredible	-9.43077
▁crew	-9.43078
▁dixie	-9.43098
▁murmuring	-9.431
▁truly	-9.43102
▁carol	-9.43111
▁lap	-9.43124
▁taxi	-9.4313
▁bert	-9.43138
▁yep	-9.4314
▁kane	-9.43142
uppence	-9.43158
▁charming	-9.43188
▁pinky	-9.4321
▁whatd	-9.43213
▁soul	-9.4322
▁nuts	-9.43347
▁di	-9.43354
▁deck	-9.43364
▁killer	-9.43409
▁toy	-9.43417
▁weak	-9.43447
▁warning	-9.43487
▁tempo	-9.43496
▁tied	-9.4358
▁wa	-9.43722
▁ear	-9.43834
▁maa	-9.43834
▁picked	-9.43836
ending	-9.43837
▁vi	-9.43856
▁talks	-9.43862
▁returned	-9.43906
▁skills	-9.43973
ant	-9.44012
▁intern	-9.44253
▁theyd	-9.44301
▁scouts	-9.44314
▁militar	-9.44317
▁gang	-9.44663
▁mans	-9.44886
▁chase	-9.45107
as	-9.45149
ay	-9.45263
place	-9.45266
▁frank	-9.45371
k	-9.45828
▁opening	-9.46175
ance	-9.46238
▁u	-9.46789
▁belong	-9.46935
▁mar	-9.47301
▁breath	-9.47534
▁score	-9.47827
▁indian	-9.47973
▁saxon	-9.48078
▁pilot	-9.48102
▁snake	-9.48117
▁chicken	-9.48127
▁battle	-9.48161
▁boo	-9.48207
▁ape	-9.48424
▁member	-9.48553
▁grace	-9.48688
▁draw	-9.48754
men	-9.48824
▁sneak	-9.48915
▁market	-9.48926
▁ru	-9.48943
▁moments	-9.49034
▁wins	-9.49061
▁fuel	-9.4908
▁box	-9.49197
▁anastasia	-9.49311
▁familiar	-9.49311
▁gigante	-9.49311
▁karthik	-9.49311
▁klaus	-9.49311
▁library	-9.49311
▁magnificent	-9.49311
▁marianne	-9.49311
▁merrinoe	-9.49311
▁oclock	-9.49311
▁quigley	-9.49311
▁sophie	-9.49311
▁stomach	-9.49311
▁responsibility	-9.49312
▁conversation	-9.49312
▁gibbering	-9.49312
▁upsidedown	-9.49312
▁ahyuck	-9.49312
▁precious	-9.49313
▁angry	-9.49313
▁divine	-9.49314
▁dawn	-9.49317
▁foster	-9.49317
▁forgotten	-9.49319
▁duty	-9.4932
▁threw	-9.4932
▁charity	-9.49323
▁taught	-9.49329
▁clever	-9.49331
▁champ	-9.49333
▁wiii	-9.49339
▁corporal	-9.49344
▁bought	-9.49345
▁invention	-9.4935
▁bride	-9.49366
▁universe	-9.49369
▁obviously	-9.49375
▁onto	-9.49375
▁video	-9.49392
▁dadda	-9.49429
▁jake	-9.4947
▁aaah	-9.49474
▁mice	-9.4948
▁plus	-9.49491
▁emotional	-9.49498
▁il	-9.49499
▁jim	-9.49505
▁growls	-9.49531
▁dads	-9.49534
▁approaching	-9.49539
▁toward	-9.49541
▁dig	-9.49551
ble	-9.49576
▁collect	-9.49585
and	-9.49618
▁locked	-9.49631
▁slowly	-9.49637
▁clock	-9.49648
▁virg	-9.49685
▁allowed	-9.49692
▁dressed	-9.49789
▁y	-9.49875
▁noble	-9.49894
▁bucks	-9.49907
▁mouth	-9.49992
▁riding	-9.50041
▁stealing	-9.50164
▁rin	-9.50229
▁walt	-9.50342
▁shooter	-9.50367
▁lit	-9.50407
▁members	-9.50415
▁apes	-9.50434
ter	-9.50516
▁bite	-9.50705
▁training	-9.50706
▁pulling	-9.50804
▁guns	-9.50826
▁plant	-9.51015
came	-9.51078
▁wing	-9.51147
▁serve	-9.51157
▁reading	-9.51166
▁fa	-9.51217
▁fits	-9.51233
▁hole	-9.5131
▁trap	-9.51538
▁bud	-9.51655
▁tuck	-9.51701
▁clicks	-9.51757
▁beating	-9.51801
▁sleeping	-9.51995
▁ships	-9.52121
▁mighty	-9.522
▁unit	-9.52364
▁iove	-9.52474
▁shop	-9.52476
▁ideas	-9.52533
▁suit	-9.52747
▁up	-9.52772
ure	-9.52789
▁heading	-9.52986
▁beep	-9.53163
▁siren	-9.53339
te	-9.53487
▁steps	-9.53614
▁owe	-9.5379
▁sp	-9.54159
▁explosion	-9.54746
▁fan	-9.54769
▁raccoon	-9.54778
▁wowser	-9.54788
▁slot	-9.54808
▁airline	-9.54812
▁hearing	-9.54882
▁guest	-9.54919
▁rocket	-9.54922
▁officer	-9.5505
▁pr	-9.55277
▁bound	-9.55279
▁grav	-9.55486
▁driver	-9.5556
▁decide	-9.5576
▁rough	-9.55765
▁experience	-9.55797
▁rush	-9.55823
▁march	-9.55843
▁murder	-9.55875
▁nothin	-9.55918
▁tower	-9.55928
▁auto	-9.55952
▁cloth	-9.5596
▁rappel	-9.55967
▁ancient	-9.55978
▁mckible	-9.55978
▁murray	-9.55978
▁opinion	-9.55978
▁telugu	-9.55978
▁silence	-9.55978
▁butterflies	-9.55978
▁happiness	-9.55978
▁regret	-9.55978
▁squeals	-9.55978
▁dewey	-9.55979
▁skunk	-9.5598
▁heavyweight	-9.5598
▁spinach	-9.5598
▁donkey	-9.55983
▁aircraft	-9.55986
▁hooray	-9.55987
▁memory	-9.55987
▁split	-9.55992
▁minister	-9.55992
▁tiger	-9.55993
▁possibly	-9.55997
▁comfortable	-9.56007
▁spoil	-9.56011
▁bunch	-9.56011
▁fi	-9.56014
▁aban	-9.5603
▁address	-9.56075
▁fetch	-9.5608
▁tuppence	-9.5609
▁fe	-9.56093
▁capable	-9.56101
▁stolen	-9.56101
▁iam	-9.56137
▁discovered	-9.56219
▁faces	-9.56281
▁jar	-9.56491
▁route	-9.56549
▁spelling	-9.56634
▁bend	-9.56859
▁pulled	-9.56861
neas	-9.56886
▁self	-9.57012
▁friendly	-9.57192
▁liver	-9.5729
▁gods	-9.57293
▁sail	-9.57562
▁slip	-9.57644
▁lied	-9.58337
▁jen	-9.58346
▁bath	-9.58505
▁lookin	-9.5858
▁wide	-9.58593
▁pie	-9.58652
▁all	-9.58667
▁ex	-9.59023
ah	-9.5906
▁showed	-9.59087
rs	-9.5919
▁states	-9.59317
▁depend	-9.59932
▁doin	-9.59941
▁lies	-9.59998
▁practical	-9.60113
▁runs	-9.60147
nce	-9.60221
▁turning	-9.60432
▁ad	-9.608
ily	-9.60842
ways	-9.61374
▁remind	-9.61493
▁singer	-9.61596
▁pitch	-9.61648
▁marakeet	-9.61686
▁books	-9.61713
▁monty	-9.61714
▁shirt	-9.61787
▁subject	-9.61865
▁stops	-9.61951
▁local	-9.61963
▁helped	-9.62102
▁bi	-9.62106
▁skull	-9.6211
▁plans	-9.62122
▁signal	-9.62242
▁sake	-9.62315
▁shoe	-9.62493
▁marshal	-9.62716
▁focus	-9.62886
▁blame	-9.62914
▁sudden	-9.63005
▁stock	-9.6302
▁stole	-9.63028
▁grandpa	-9.63062
▁success	-9.63105
▁barouche	-9.63121
▁eleanor	-9.63121
▁excitement	-9.63121
▁lieutenant	-9.63121
▁ocean	-9.63121
▁odette	-9.63121
▁schuyler	-9.63121
▁sentimental	-9.63121
▁terlip	-9.63121
▁hitchcock	-9.63121
▁kartik	-9.63121
▁century	-9.63122
▁turkey	-9.63122
▁eagle	-9.63122
▁yawns	-9.63122
▁mallinger	-9.63122
▁midnight	-9.63123
▁empress	-9.63123
▁example	-9.63125
▁brutus	-9.63127
▁khan	-9.63127
▁palace	-9.63128
▁dietz	-9.63128
▁wherever	-9.63132
▁pringle	-9.63133
▁spinning	-9.63133
▁stories	-9.63136
▁recall	-9.63136
▁mercy	-9.63137
▁commandant	-9.63138
▁robby	-9.63139
▁keeps	-9.63143
▁heavy	-9.63153
lts	-9.63154
▁whalen	-9.63158
▁dozen	-9.63169
▁pollinators	-9.63177
▁fairies	-9.63183
▁usually	-9.63185
▁support	-9.63199
▁saving	-9.63204
▁linus	-9.63207
▁clare	-9.63217
▁spoke	-9.63218
▁factory	-9.63224
▁halt	-9.63228
▁gotcha	-9.63231
▁corn	-9.63232
▁swan	-9.63234
▁david	-9.63238
▁heels	-9.63238
▁sweetie	-9.63243
▁skill	-9.63269
▁plain	-9.63278
▁section	-9.63289
▁setting	-9.63298
▁squeaking	-9.63324
▁created	-9.63334
▁sharp	-9.63363
▁honestly	-9.634
▁howling	-9.63422
▁yum	-9.63426
▁sighing	-9.6344
▁fathers	-9.63533
▁treated	-9.63591
▁heck	-9.63602
▁loved	-9.63665
lly	-9.63671
▁shadows	-9.63706
by	-9.63778
tll	-9.6379
▁fighter	-9.63805
▁talkin	-9.63852
▁lay	-9.63895
▁tears	-9.63902
na	-9.63936
▁bush	-9.64049
▁moms	-9.64062
▁skin	-9.642
▁west	-9.64206
▁cage	-9.64235
▁nurse	-9.6427
▁wishes	-9.64355
▁zoo	-9.64425
▁breathe	-9.64493
▁hanging	-9.64507
▁chickens	-9.64507
▁spy	-9.64578
the	-9.64589
▁v	-9.64831
▁mile	-9.64875
▁begins	-9.64905
▁ki	-9.64916
▁action	-9.64966
▁players	-9.65127
▁spark	-9.65243
ate	-9.65533
tic	-9.65666
▁cows	-9.65747
▁bees	-9.66156
son	-9.66367
▁magical	-9.66387
inous	-9.66493
▁hippo	-9.66568
▁refuse	-9.66753
ling	-9.66855
ley	-9.67854
▁beasts	-9.68004
ther	-9.6801
▁guessing	-9.68015
▁suspense	-9.68033
▁deserve	-9.68041
▁tie	-9.68952
▁staying	-9.68956
▁lands	-9.69108
▁tank	-9.69273
▁root	-9.69431
▁truck	-9.69516
▁servant	-9.69576
▁anchor	-9.69588
▁noise	-9.69592
▁victim	-9.69615
▁gamma	-9.69636
▁camera	-9.69646
▁rose	-9.69711
▁bobs	-9.69779
▁string	-9.69886
▁josh	-9.69922
▁slide	-9.69937
▁glor	-9.69976
▁shape	-9.70055
ty	-9.70266
un	-9.70279
▁command	-9.70352
land	-9.70409
▁screech	-9.70421
el	-9.70563
▁concern	-9.70621
▁mothers	-9.70629
▁ruin	-9.70659
▁cy	-9.70663
▁gather	-9.70685
ted	-9.70753
▁si	-9.70764
▁equipment	-9.70813
▁twelve	-9.70813
▁whinnying	-9.70813
▁oska	-9.70813
▁ransom	-9.70814
▁satterfield	-9.70814
▁spanish	-9.70814
▁parkhurst	-9.70814
▁medicine	-9.70814
▁unique	-9.70814
▁upstairs	-9.70814
▁education	-9.70815
▁rabbit	-9.70815
▁generation	-9.70816
▁thudding	-9.70816
▁ryan	-9.70816
▁memories	-9.70816
▁dumpling	-9.70817
▁fiddle	-9.70817
▁desire	-9.70817
▁luke	-9.70817
▁nowhere	-9.70818
▁failure	-9.70819
▁ciao	-9.7082
▁interrupt	-9.70823
▁empty	-9.70823
▁huey	-9.70826
▁riverton	-9.70826
▁thread	-9.70827
▁flew	-9.70827
▁chiid	-9.70829
▁barely	-9.7083
▁successful	-9.7083
▁cheap	-9.70836
▁solid	-9.70837
▁lightning	-9.7084
▁tingle	-9.70849
▁unknown	-9.7085
▁stopped	-9.70854
▁naught	-9.70864
▁brent	-9.70867
▁henri	-9.70869
▁swear	-9.70878
▁agent	-9.70885
▁powerful	-9.70891
▁chasing	-9.70896
▁woolly	-9.70899
▁gina	-9.70902
▁advantage	-9.70914
▁pressure	-9.70937
▁owner	-9.70942
▁bash	-9.7095
▁useless	-9.70951
▁price	-9.7096
▁ancestors	-9.70966
▁sitting	-9.70975
▁funky	-9.70984
▁dramatic	-9.70986
▁flock	-9.70986
▁buzzing	-9.71067
▁thrill	-9.71068
▁received	-9.71088
▁dirty	-9.71109
▁barn	-9.71142
▁grant	-9.71191
is	-9.71284
▁bubble	-9.71317
▁pin	-9.71335
▁shore	-9.71439
ile	-9.71466
▁electric	-9.71602
▁county	-9.71656
▁iook	-9.71765
co	-9.718
sh	-9.71803
ring	-9.71926
▁landed	-9.71963
▁farmers	-9.71979
▁gu	-9.71998
▁depends	-9.72065
▁followed	-9.72089
▁rats	-9.72113
▁roma	-9.72304
▁ghosts	-9.7241
▁cards	-9.72735
▁wet	-9.72867
ow	-9.73032
▁claws	-9.73231
▁yay	-9.73259
▁lived	-9.73318
ious	-9.73426
▁headed	-9.73747
▁defeat	-9.73871
go	-9.74438
▁chap	-9.74525
▁sisters	-9.74901
ma	-9.7533
de	-9.75382
▁bow	-9.75486
▁cats	-9.75535
lon	-9.75558
▁worrying	-9.75629
no	-9.75707
▁itch	-9.76098
ions	-9.76532
la	-9.76544
ong	-9.76791
ules	-9.76963
▁fur	-9.76993
▁bro	-9.77334
▁showing	-9.77457
▁goal	-9.7756
to	-9.77685
▁pocket	-9.77697
▁period	-9.77703
▁weekend	-9.77719
▁en	-9.77799
▁center	-9.77814
▁nightmare	-9.77855
▁com	-9.77894
▁timmy	-9.77896
▁weapon	-9.77903
▁diamond	-9.77941
▁student	-9.7796
▁cloud	-9.77975
▁height	-9.78144
▁bon	-9.78189
▁scene	-9.78198
▁fab	-9.78198
▁farmer	-9.78213
▁sale	-9.78281
▁joke	-9.78294
ball	-9.78366
▁foreign	-9.78441
▁planes	-9.78489
▁stray	-9.78534
▁range	-9.78547
▁whisper	-9.78763
▁suffer	-9.78816
▁receive	-9.78851
▁release	-9.78899
▁complete	-9.78913
▁hug	-9.78955
▁official	-9.79025
▁prison	-9.79047
▁con	-9.79073
▁actual	-9.79078
▁recognize	-9.79089
▁monstro	-9.79101
▁harm	-9.79102
▁pi	-9.79127
▁donnybrook	-9.79147
▁jennifer	-9.79147
▁melanchol	-9.79147
▁mermoz	-9.79147
▁ribbit	-9.79147
▁suicune	-9.79147
▁smooth	-9.79147
▁beloved	-9.79147
▁slykes	-9.79147
▁stemming	-9.79147
▁kodi	-9.79147
▁throbbing	-9.79147
▁avoid	-9.79147
▁horrible	-9.79147
▁easily	-9.79148
▁bradley	-9.79148
▁terrific	-9.79148
▁farewell	-9.79148
▁pumpkin	-9.79148
▁interference	-9.7915
▁oscar	-9.7915
▁church	-9.7915
▁delicious	-9.7915
▁distance	-9.79151
▁hadnt	-9.79151
▁seattle	-9.79153
▁rodan	-9.79153
▁generous	-9.79154
▁gorgeous	-9.79156
▁east	-9.79156
▁grandmother	-9.79156
▁license	-9.79156
▁barbara	-9.79158
▁crumply	-9.7916
▁matson	-9.7916
▁muffled	-9.79163
▁square	-9.79166
▁breeze	-9.79167
▁mumbling	-9.79169
▁scare	-9.7917
▁schooi	-9.79174
▁candy	-9.79175
▁tracy	-9.79178
▁martin	-9.79181
▁understood	-9.79186
▁mouse	-9.79197
▁canoe	-9.792
▁tasty	-9.792
▁bobby	-9.79203
▁involved	-9.7921
▁hissing	-9.7922
▁impressed	-9.79225
▁pair	-9.79236
▁jaw	-9.79259
▁brush	-9.79294
▁bout	-9.79311
▁baboons	-9.79313
▁tries	-9.79327
▁gentle	-9.79327
▁includ	-9.79329
▁bull	-9.79334
▁feast	-9.79341
▁ruined	-9.79389
▁piay	-9.79437
▁swing	-9.79438
sky	-9.79439
▁entirely	-9.79456
▁eaten	-9.79457
▁upper	-9.79532
▁huge	-9.79553
▁served	-9.79564
▁ken	-9.79578
▁stronger	-9.79615
▁goblins	-9.79625
▁quietly	-9.79667
▁loaded	-9.79718
berate	-9.79721
▁gotten	-9.79724
▁instant	-9.79745
▁papers	-9.79753
▁cheating	-9.79762
▁burning	-9.79782
▁gates	-9.79782
▁staff	-9.79823
▁dust	-9.79833
▁parts	-9.79873
▁realized	-9.79891
▁eggs	-9.79927
▁studying	-9.8
▁grown	-9.80032
▁higher	-9.80046
▁mis	-9.8007
▁wire	-9.80108
▁credits	-9.80254
▁art	-9.8039
▁victims	-9.80465
▁traveling	-9.80466
▁nest	-9.80562
▁closes	-9.80671
▁wowsers	-9.8068
▁code	-9.80729
▁shooting	-9.80764
all	-9.80777
▁health	-9.80881
▁holidays	-9.80889
▁fate	-9.80943
▁meg	-9.81094
▁thirsty	-9.81112
▁post	-9.81181
▁closed	-9.81189
▁caused	-9.81197
lle	-9.81402
▁kite	-9.81405
▁roberts	-9.81411
▁hoo	-9.81444
▁ohoh	-9.81573
▁barrys	-9.81689
▁moved	-9.82061
▁jobs	-9.82753
like	-9.82852
▁inter	-9.83051
▁dreaming	-9.83081
▁puff	-9.83084
▁non	-9.83173
▁someones	-9.83237
repe	-9.83425
▁winners	-9.83608
▁total	-9.83677
▁machines	-9.83831
board	-9.83912
▁cheer	-9.84692
▁dry	-9.85057
▁rounds	-9.85624
▁jet	-9.85801
▁bark	-9.85983
▁drag	-9.86021
thirsty	-9.8614
▁likes	-9.86159
▁om	-9.86253
▁yell	-9.86643
▁mud	-9.86733
▁character	-9.86783
▁answers	-9.8679
ish	-9.86794
▁assistant	-9.86795
res	-9.86977
▁insist	-9.87006
▁mortal	-9.87025
▁riverhorse	-9.87033
▁cookie	-9.87043
▁credit	-9.87045
▁prisoner	-9.87084
▁illusion	-9.87119
▁shoulder	-9.87138
▁blast	-9.8725
▁worlds	-9.87393
▁express	-9.87412
▁rocks	-9.87652
▁rise	-9.87655
▁plate	-9.87678
▁discover	-9.87743
▁balloon	-9.87797
▁cab	-9.87823
▁kings	-9.87902
▁advance	-9.87987
▁photo	-9.8799
▁assure	-9.87996
▁arrest	-9.88005
▁witness	-9.88013
▁solve	-9.88055
▁create	-9.88075
▁regular	-9.88177
▁fifty	-9.88205
▁hospital	-9.88217
▁nectar	-9.88237
▁balthazar	-9.88238
▁british	-9.88238
▁charlotte	-9.88238
▁expedition	-9.88238
▁fernfield	-9.88238
▁footsteps	-9.88238
▁gibbers	-9.88238
▁heechul	-9.88238
▁kumonga	-9.88238
▁rupees	-9.88238
▁weird	-9.88238
▁dearborne	-9.88238
▁tunnel	-9.88238
▁written	-9.88238
▁television	-9.88238
▁effort	-9.88238
▁fanfare	-9.88238
▁lambert	-9.88238
▁chinese	-9.88238
▁furniture	-9.88238
▁adorable	-9.88238
▁somehow	-9.88238
▁pollination	-9.88238
▁london	-9.88239
▁hockey	-9.8824
▁poison	-9.8824
▁trumpet	-9.8824
▁greetings	-9.8824
▁target	-9.88241
▁easier	-9.88241
▁lionel	-9.88241
▁lmpossible	-9.88242
▁flicky	-9.88242
▁christine	-9.88244
▁happily	-9.88244
▁fuji	-9.88244
▁kidnapped	-9.88245
▁sobbing	-9.88246
▁electro	-9.88246
▁promotion	-9.88247
▁fatso	-9.88247
▁mostly	-9.88249
▁snuffy	-9.88251
▁baseball	-9.88251
▁eventually	-9.88253
▁grazie	-9.88253
▁noon	-9.88255
▁steam	-9.88257
▁swimming	-9.88258
▁roof	-9.8826
▁luti	-9.88261
▁joking	-9.88262
▁motherinlaw	-9.8827
▁advisor	-9.88271
▁hiya	-9.88272
▁smiling	-9.88272
▁girlfriend	-9.88273
▁produce	-9.88274
▁colony	-9.8829
▁scary	-9.88292
▁vp	-9.88301
▁louie	-9.88304
▁gear	-9.88305
▁zion	-9.88309
▁viciously	-9.8831
▁began	-9.88314
▁safety	-9.88316
▁paint	-9.8832
▁sleigh	-9.88325
▁laser	-9.88327
▁sunny	-9.88334
▁dating	-9.88338
▁willing	-9.88338
▁june	-9.88338
▁culture	-9.88345
▁stopping	-9.88346
▁greek	-9.8835
▁confidence	-9.88354
▁harry	-9.88358
▁tony	-9.88368
▁trailer	-9.88369
▁failed	-9.88375
▁popular	-9.88381
▁clucking	-9.88381
▁wandering	-9.88395
▁legend	-9.88413
▁giggles	-9.88415
▁bored	-9.88418
▁delay	-9.88419
▁invent	-9.88422
▁designed	-9.88445
▁oooh	-9.88494
▁neal	-9.88502
▁load	-9.88527
▁style	-9.88554
▁oughta	-9.8857
▁skies	-9.88576
▁sniffing	-9.88579
▁proof	-9.8858
▁liar	-9.88641
▁pen	-9.88647
▁muscles	-9.88648
▁tipp	-9.8871
▁pork	-9.88737
▁escaped	-9.88755
▁toes	-9.88778
▁pants	-9.88783
▁classes	-9.88833
▁coughs	-9.88884
▁claim	-9.88921
▁packed	-9.88923
▁degrees	-9.88994
▁knowledge	-9.89084
▁lifting	-9.89114
▁carefully	-9.89126
▁page	-9.89134
▁concentrate	-9.89161
▁searching	-9.89166
u	-9.89202
never	-9.89289
▁regents	-9.89332
▁soldiers	-9.89344
▁crashing	-9.89408
▁bike	-9.89451
▁mayor	-9.89479
▁plates	-9.89484
▁diamonds	-9.89574
▁knocking	-9.89594
▁nap	-9.8961
▁guests	-9.89846
▁raccoons	-9.89918
▁drivers	-9.89976
▁everyones	-9.90137
▁lower	-9.90266
▁notes	-9.90328
▁tear	-9.90363
▁uno	-9.90397
▁drinking	-9.90446
▁ducks	-9.90519
▁killing	-9.90541
▁older	-9.90719
▁trainer	-9.90775
▁cock	-9.90807
▁landing	-9.90834
▁mix	-9.90987
▁liked	-9.91084
z	-9.91107
▁whites	-9.91178
ship	-9.9122
▁legal	-9.91263
▁den	-9.91339
▁ends	-9.91388
▁male	-9.91426
x	-9.91523
▁monkeys	-9.91535
▁sports	-9.91692
▁nation	-9.91881
▁crack	-9.92192
▁matters	-9.92234
▁operat	-9.92377
▁severa	-9.92724
▁suspect	-9.92828
▁rare	-9.93029
▁herd	-9.93244
▁coat	-9.93362
ton	-9.94044
zvous	-9.94115
▁songs	-9.94157
▁daughters	-9.94182
▁jud	-9.94224
▁there	-9.94385
▁teams	-9.94467
▁hum	-9.94496
▁ooo	-9.9488
▁mere	-9.94967
▁wash	-9.95209
▁anim	-9.95338
▁walks	-9.9581
▁feelings	-9.95815
ether	-9.95837
▁pro	-9.96047
over	-9.96131
ors	-9.96152
▁sigh	-9.9632
▁wrap	-9.96478
hood	-9.96484
▁whi	-9.96746
▁whobble	-9.96782
▁salad	-9.96823
▁current	-9.96857
▁tip	-9.97015
▁soldier	-9.97032
▁regent	-9.97054
ey	-9.97109
▁shark	-9.97118
▁ro	-9.97168
▁saint	-9.97173
ery	-9.97779
ensible	-9.97789
▁capture	-9.97964
▁curse	-9.97993
▁dirt	-9.98021
▁sink	-9.98066
▁technical	-9.98091
▁guide	-9.98158
▁kinds	-9.98185
▁alphabatical	-9.98238
▁anxious	-9.98238
▁bishop	-9.98238
▁coiiins	-9.98238
▁enemies	-9.98238
▁fifth	-9.98238
▁hepworth	-9.98238
▁holmsby	-9.98238
▁instrument	-9.98238
▁jeanette	-9.98238
▁jorma	-9.98238
▁phillips	-9.98238
▁restaurant	-9.98238
▁swirled	-9.98238
▁grief	-9.98238
▁imperial	-9.98238
▁jinnie	-9.98238
▁advice	-9.98238
▁anderson	-9.98238
▁deposit	-9.98238
▁folger	-9.98238
▁method	-9.98238
▁therefore	-9.98238
▁arriving	-9.98238
▁superior	-9.98238
▁tongue	-9.98238
▁alert	-9.98239
▁carriage	-9.98239
▁expelled	-9.98239
▁surgery	-9.98239
▁freedom	-9.9824
▁savage	-9.9824
▁someplace	-9.98241
▁intelligence	-9.98242
▁succeed	-9.98242
▁admiral	-9.98242
▁carnival	-9.98242
▁available	-9.98243
▁subtitle	-9.98245
▁suspicious	-9.9825
▁ceremony	-9.98252
▁fowler	-9.98254
▁barney	-9.98255
▁cattle	-9.98255
▁nearby	-9.98255
▁whoohoo	-9.98258
▁grew	-9.98258
▁static	-9.98258
▁stakeout	-9.98259
▁sipes	-9.9826
▁psst	-9.98261
▁freeze	-9.98265
▁gentleman	-9.98266
▁nights	-9.98269
▁lazy	-9.98273
▁publicity	-9.98274
▁starving	-9.98276
▁guilty	-9.98276
▁spunn	-9.98287
▁diana	-9.98287
▁ruby	-9.98289
▁kang	-9.98291
▁frost	-9.98325
▁connection	-9.98331
▁disappointed	-9.98341
▁whatll	-9.98349
▁reward	-9.98349
▁believing	-9.98356
▁screen	-9.9837
▁grateful	-9.98382
▁cries	-9.98386
▁fortune	-9.98389
▁chocolate	-9.98391
▁fox	-9.98398
▁punch	-9.98409
▁clattering	-9.98416
▁nome	-9.98426
back	-9.98435
▁chipmunks	-9.98439
▁ceo	-9.98452
▁freeman	-9.98479
▁boots	-9.98509
▁tale	-9.9853
▁sunday	-9.98536
▁bully	-9.98538
▁completed	-9.98553
▁competitors	-9.98565
erary	-9.98592
▁faint	-9.98607
▁fallen	-9.98633
▁cracking	-9.9869
▁destroyed	-9.98715
▁stack	-9.98754
ture	-9.98754
▁sweep	-9.98781
▁worn	-9.98792
▁warned	-9.98806
▁manson	-9.98825
▁sold	-9.98905
▁spill	-9.98919
▁clearly	-9.9895
▁honks	-9.98954
▁dings	-9.98992
▁nerve	-9.99033
▁flame	-9.99042
▁knocked	-9.9907
▁filled	-9.99267
▁await	-9.99281
▁recorded	-9.99305
▁brand	-9.99329
▁details	-9.99335
▁cares	-9.99355
▁riverhorses	-9.99594
▁bones	-9.99599
dy	-9.9964
▁clicking	-9.99654
▁units	-9.99724
▁float	-9.99725
rattling	-9.99795
▁expected	-9.99847
▁bang	-9.99924
▁heresy	-10.0005
ody	-10.0011
▁stranger	-10.0019
fully	-10.0023
▁plants	-10.0027
▁host	-10.0031
▁cast	-10.0039
▁rent	-10.0055
▁conditions	-10.0062
▁princey	-10.007
▁pine	-10.0076
▁dreamed	-10.0077
▁siva	-10.0085
▁breaking	-10.0092
▁trade	-10.0096
▁ease	-10.0097
▁sew	-10.0099
▁walls	-10.0102
▁rips	-10.0141
▁pup	-10.0166
owwow	-10.0187
▁model	-10.0193
▁refer	-10.0199
rightfully	-10.02
▁finding	-10.0211
▁me	-10.0223
▁dodge	-10.0234
▁bags	-10.0243
▁ropes	-10.0253
▁rot	-10.0258
▁fields	-10.0263
em	-10.0269
am	-10.0284
▁ca	-10.0285
▁talked	-10.0285
ward	-10.0287
▁aha	-10.0312
▁spirits	-10.0312
▁ci	-10.0317
amas	-10.0326
▁counts	-10.0328
▁operations	-10.0344
▁nana	-10.0353
our	-10.0358
way	-10.0385
ny	-10.0388
▁net	-10.0426
▁tr	-10.0429
ice	-10.044
▁ye	-10.0442
it	-10.0475
▁bets	-10.0476
v	-10.0501
▁where	-10.0507
▁wast	-10.052
▁min	-10.0534
▁gen	-10.0555
oo	-10.0556
chat	-10.056
▁design	-10.0583
ized	-10.0603
ue	-10.0607
▁wool	-10.0607
▁powers	-10.0615
cy	-10.0637
▁sis	-10.0648
king	-10.0678
▁pictures	-10.0707
▁sta	-10.0727
though	-10.0734
▁bah	-10.0753
▁angel	-10.0758
▁gasp	-10.0769
▁cent	-10.0781
▁complain	-10.0783
▁detail	-10.0786
▁audition	-10.0788
▁outfit	-10.0789
▁sheepdog	-10.079
▁tradition	-10.0792
▁towel	-10.0798
▁blockhead	-10.08
▁adult	-10.0805
▁feather	-10.0807
▁chimpanzee	-10.0808
▁instructor	-10.0809
▁gorilla	-10.081
▁sultan	-10.081
off	-10.0812
▁trial	-10.0813
▁sometime	-10.0816
mber	-10.0817
▁wel	-10.0819
▁devil	-10.082
▁pool	-10.0837
omin	-10.0849
▁distribute	-10.0849
▁bum	-10.0867
▁weigh	-10.0868
▁fo	-10.0869
▁color	-10.0869
▁skate	-10.0878
▁drown	-10.0883
▁pul	-10.0886
▁passion	-10.089
▁smash	-10.089
▁sniff	-10.0891
▁meal	-10.0891
▁film	-10.0892
▁cycl	-10.0893
▁quack	-10.0893
▁approach	-10.0894
▁breed	-10.0896
▁regard	-10.0909
▁wipe	-10.0917
▁pink	-10.092
▁obvious	-10.0923
▁bowl	-10.0927
▁helen	-10.0927
▁voices	-10.0928
mois	-10.0933
▁che	-10.0933
▁site	-10.0934
▁achieve	-10.0935
▁artichoke	-10.0935
▁asterbilt	-10.0935
▁barnsworth	-10.0935
▁benjamin	-10.0935
▁blossom	-10.0935
▁california	-10.0935
▁chariot	-10.0935
▁column	-10.0935
▁commentator	-10.0935
▁enemy	-10.0935
▁entrance	-10.0935
▁espresso	-10.0935
▁extreme	-10.0935
▁ingenious	-10.0935
▁lucifer	-10.0935
▁mercury	-10.0935
▁saeko	-10.0935
▁shrieks	-10.0935
▁sorcerer	-10.0935
▁uberta	-10.0935
▁whinnies	-10.0935
▁wisdom	-10.0935
▁senior	-10.0935
▁stubborn	-10.0935
▁sydney	-10.0935
▁beneath	-10.0935
▁broadcast	-10.0935
▁meadow	-10.0935
▁particular	-10.0935
▁specimen	-10.0935
▁japanese	-10.0935
▁falkor	-10.0935
▁creek	-10.0935
▁hansen	-10.0935
▁combination	-10.0935
▁chiidren	-10.0935
▁temperature	-10.0935
▁necklace	-10.0935
▁reckon	-10.0935
▁ashamed	-10.0935
▁mysterious	-10.0935
▁clarise	-10.0935
▁routine	-10.0935
▁western	-10.0935
▁susie	-10.0935
▁government	-10.0935
▁carruthers	-10.0935
▁hyah	-10.0935
▁honour	-10.0935
▁appointment	-10.0935
▁granny	-10.0935
▁thanksgiving	-10.0935
▁ensure	-10.0936
▁kenny	-10.0936
▁behave	-10.0936
▁tootall	-10.0936
▁glitches	-10.0936
▁cruel	-10.0936
while	-10.0936
▁performance	-10.0936
▁dropped	-10.0936
▁extraordinary	-10.0936
▁earlier	-10.0936
▁heiio	-10.0936
▁bedroom	-10.0937
▁agency	-10.0937
▁friday	-10.0937
▁navy	-10.0937
▁trash	-10.0937
▁urgent	-10.0937
ordinary	-10.0937
▁chanting	-10.0937
▁jamal	-10.0937
▁survival	-10.0937
▁communication	-10.0938
▁actress	-10.0938
▁campus	-10.0938
▁somethings	-10.0938
▁injury	-10.094
▁defense	-10.094
▁label	-10.094
▁ernie	-10.094
▁randy	-10.0941
▁pride	-10.0941
▁squad	-10.0941
▁lodge	-10.0942
▁misty	-10.0943
▁scoffs	-10.0943
▁objection	-10.0944
▁darkness	-10.0944
▁orange	-10.0944
▁marvelous	-10.0944
▁convinced	-10.0945
▁arranged	-10.0945
▁helena	-10.0946
▁directly	-10.0946
▁manpowered	-10.0946
▁pump	-10.0947
▁attract	-10.0947
▁delighted	-10.0947
▁solution	-10.0948
▁valuable	-10.095
▁joan	-10.0951
▁dragon	-10.0951
▁medical	-10.0951
▁carried	-10.0951
▁foal	-10.0951
▁luc	-10.0952
▁millie	-10.0953
▁original	-10.0953
▁uhuh	-10.0954
ck	-10.0956
▁crops	-10.0956
▁froze	-10.0957
▁motion	-10.0957
▁calculations	-10.0958
▁hush	-10.0958
▁pleased	-10.0961
▁rumbling	-10.0965
▁concerned	-10.0968
▁insects	-10.0971
▁tribes	-10.0975
▁cargo	-10.0976
▁challenger	-10.0976
▁crush	-10.0977
▁aware	-10.0977
▁miii	-10.0979
▁landon	-10.098
▁shame	-10.0981
▁romantic	-10.0982
▁washing	-10.0984
▁wilder	-10.0986
▁shades	-10.0988
▁mood	-10.0989
▁defend	-10.0998
▁carl	-10.1001
▁marching	-10.1002
magne	-10.1003
▁oid	-10.1004
elle	-10.1004
▁oof	-10.1005
▁conduct	-10.1006
▁outdoors	-10.101
▁cops	-10.101
▁stu	-10.1012
▁treasure	-10.1014
▁howdy	-10.1015
▁signor	-10.1015
▁anger	-10.1018
ibul	-10.1026
▁howl	-10.1026
▁yards	-10.103
▁grades	-10.1036
▁hunt	-10.1039
▁replace	-10.1042
▁leprechauns	-10.1044
▁exists	-10.1045
▁gr	-10.1047
▁flow	-10.1048
▁exams	-10.1048
▁soc	-10.1054
ame	-10.106
▁saints	-10.1061
▁seeds	-10.1065
▁stands	-10.1072
▁mi	-10.1074
▁buck	-10.1078
▁laid	-10.1085
▁bl	-10.1089
▁sneeze	-10.1089
▁hound	-10.1092
▁crows	-10.1096
through	-10.1096
▁junk	-10.1103
▁shy	-10.1118
▁hippos	-10.1119
▁enjoying	-10.1128
▁expecting	-10.1148
▁indians	-10.1162
▁rocky	-10.1165
ied	-10.1177
anche	-10.1178
▁signed	-10.1178
▁nu	-10.1182
▁tickets	-10.1188
▁fore	-10.1192
▁pole	-10.121
▁bombs	-10.1213
▁stink	-10.1231
▁picking	-10.1233
▁print	-10.1234
▁ol	-10.1234
house	-10.1243
▁deed	-10.1248
▁lessons	-10.1252
▁wheels	-10.1258
▁tricks	-10.1264
▁fame	-10.1285
▁positions	-10.1302
eat	-10.1303
▁ch	-10.1309
▁shower	-10.1322
▁apples	-10.1323
tock	-10.1326
▁chitt	-10.1333
▁creak	-10.1345
▁decisions	-10.1346
▁catching	-10.1354
▁knot	-10.1368
ide	-10.1373
ul	-10.1386
line	-10.1403
os	-10.1414
he	-10.1444
bell	-10.1457
▁tomorrows	-10.1463
▁trace	-10.1469
▁err	-10.1505
▁handy	-10.1517
▁wha	-10.1528
made	-10.1531
▁metal	-10.1536
▁fed	-10.1545
very	-10.1551
▁whoop	-10.1559
▁compare	-10.1564
▁records	-10.1568
▁latte	-10.1575
boy	-10.1581
ated	-10.1603
▁why	-10.1603
▁believed	-10.1604
ick	-10.1607
▁exam	-10.1627
▁chop	-10.1683
▁toss	-10.1692
▁fri	-10.1695
▁sa	-10.1699
▁wishing	-10.1705
nis	-10.1723
▁drinks	-10.1727
end	-10.1727
addin	-10.1763
▁frightful	-10.1767
▁mid	-10.1768
ster	-10.1774
▁banks	-10.179
▁breaks	-10.1796
▁rende	-10.1835
uel	-10.1841
otten	-10.1841
ory	-10.1843
▁fle	-10.1862
▁su	-10.1872
shed	-10.1885
▁hatch	-10.1886
▁ze	-10.1915
▁panic	-10.1925
▁coin	-10.1937
il	-10.1947
▁pre	-10.1949
fire	-10.1956
▁waters	-10.1964
▁cons	-10.1972
ee	-10.1982
caf	-10.1985
▁she	-10.1999
▁buzz	-10.2
▁muc	-10.2011
▁dot	-10.2011
▁scream	-10.2019
▁ending	-10.2027
▁orchid	-10.2038
▁exist	-10.2039
▁balance	-10.2042
▁airplane	-10.205
▁slap	-10.2051
▁quarter	-10.2052
▁roger	-10.2056
▁device	-10.2058
▁employee	-10.2061
▁tap	-10.2061
▁leprechaun	-10.2063
▁egg	-10.2067
▁hea	-10.2067
ver	-10.207
what	-10.208
uine	-10.2086
▁ge	-10.2089
▁when	-10.21
▁intend	-10.21
▁lad	-10.2124
▁direct	-10.213
▁silk	-10.2157
▁limit	-10.2157
▁volunteer	-10.2159
▁disturb	-10.216
▁sponsor	-10.216
▁disappear	-10.2163
▁cell	-10.2167
▁speech	-10.2168
▁grade	-10.217
▁permanent	-10.2172
▁normal	-10.2175
▁fuss	-10.2176
▁puddin	-10.2179
▁mmhm	-10.2179
▁tune	-10.2181
▁progress	-10.2182
▁percent	-10.2182
▁eliminate	-10.2184
▁arrival	-10.2185
▁assimilate	-10.2185
▁benevolence	-10.2185
▁buongiorno	-10.2185
▁chipettes	-10.2185
▁colorado	-10.2185
▁cratchit	-10.2185
▁ebeneezer	-10.2185
▁ferdinand	-10.2185
▁fountain	-10.2185
▁fuzzy	-10.2185
▁hiccups	-10.2185
▁inherit	-10.2185
▁minerva	-10.2185
▁pandora	-10.2185
▁petersen	-10.2185
▁phoenix	-10.2185
▁potential	-10.2185
▁pretzi	-10.2185
▁riverfoal	-10.2185
▁sacrifice	-10.2185
▁saturday	-10.2185
▁shakespeare	-10.2185
▁vehicle	-10.2185
▁withdraw	-10.2185
▁yawning	-10.2185
▁aruna	-10.2185
▁invade	-10.2185
▁opposite	-10.2185
▁stoutheart	-10.2185
▁sylvia	-10.2185
▁infraso	-10.2185
▁macante	-10.2185
▁responsible	-10.2185
▁voyage	-10.2185
▁fabulous	-10.2185
▁aggie	-10.2185
▁hmph	-10.2185
▁favourite	-10.2185
▁sugar	-10.2185
▁squadron	-10.2185
▁underground	-10.2185
▁ursus	-10.2185
▁jensen	-10.2185
▁paradise	-10.2185
▁sandwich	-10.2185
▁pluto	-10.2185
▁definiteiy	-10.2185
▁lawyer	-10.2185
▁amuse	-10.2185
▁courage	-10.2185
▁plastic	-10.2185
▁distant	-10.2185
▁carlton	-10.2185
▁washington	-10.2185
▁swiss	-10.2185
▁rewind	-10.2185
▁stiff	-10.2185
▁chicago	-10.2185
▁community	-10.2185
▁butterfly	-10.2186
▁resort	-10.2186
▁convention	-10.2186
▁terribly	-10.2186
▁divorce	-10.2186
▁supplies	-10.2186
▁colour	-10.2186
▁justice	-10.2186
▁unhappy	-10.2186
▁professional	-10.2186
▁stepmother	-10.2186
▁assignment	-10.2186
▁blew	-10.2186
▁silent	-10.2186
▁conner	-10.2186
▁governor	-10.2187
▁wrapped	-10.2187
▁toast	-10.2187
▁expensive	-10.2187
▁drunk	-10.2187
▁clapping	-10.2187
▁curious	-10.2187
▁allowance	-10.2187
▁skyship	-10.2187
▁sheikh	-10.2187
▁medal	-10.2187
▁behold	-10.2187
▁foolish	-10.2188
▁pinchcliffe	-10.2188
▁fascinating	-10.2188
▁false	-10.2188
▁expert	-10.2188
▁soap	-10.2189
▁witch	-10.2189
▁whatre	-10.2189
▁freezing	-10.219
▁register	-10.219
▁strategy	-10.219
▁brock	-10.219
▁beef	-10.219
▁inches	-10.219
▁committee	-10.2191
▁announcement	-10.2191
▁gulps	-10.2192
▁nope	-10.2192
▁arno	-10.2192
▁exhausted	-10.2193
▁cabin	-10.2193
▁blokes	-10.2194
▁vast	-10.2195
▁rumbles	-10.2195
▁assist	-10.2195
▁changing	-10.2195
▁closing	-10.2195
▁halfway	-10.2196
▁accused	-10.2196
▁bucket	-10.2196
▁buzzer	-10.2196
▁cutting	-10.2197
▁mutt	-10.2197
▁rode	-10.2198
▁controlling	-10.2198
▁funk	-10.22
▁supper	-10.2201
▁grip	-10.2201
▁wave	-10.2202
▁nono	-10.2202
▁damage	-10.2203
▁pikachu	-10.2204
▁bodies	-10.2204
▁under	-10.2205
▁mild	-10.2205
▁alley	-10.2205
▁becoming	-10.2208
▁paws	-10.2209
▁homework	-10.2209
▁whines	-10.221
▁fireworks	-10.2211
▁louder	-10.2211
▁chest	-10.2216
▁itchy	-10.2218
▁sitter	-10.2218
▁banging	-10.2219
ns	-10.2219
▁properly	-10.2222
▁hooting	-10.2222
▁produced	-10.2223
▁bold	-10.2224
▁vision	-10.2225
▁beck	-10.2225
▁intentions	-10.2227
▁fourth	-10.2227
▁pace	-10.2228
▁usual	-10.2231
▁schedule	-10.2231
▁strict	-10.2234
▁beans	-10.2234
▁bandit	-10.2235
▁jami	-10.2235
▁feder	-10.2236
▁branches	-10.2236
▁hiding	-10.224
▁mistaken	-10.2241
▁personally	-10.2242
▁maria	-10.2242
▁shock	-10.2244
▁deeper	-10.2245
▁da	-10.2248
▁on	-10.225
tary	-10.2251
▁confident	-10.2251
red	-10.2255
▁cooked	-10.226
▁joe	-10.2265
▁stairs	-10.2276
▁ln	-10.2287
▁considered	-10.2287
▁fold	-10.2292
▁squeaks	-10.2294
▁troubles	-10.2303
▁covered	-10.2304
▁hog	-10.2305
▁safely	-10.2305
▁enjoyed	-10.2306
▁eman	-10.2316
▁hopeless	-10.2345
away	-10.2346
ttie	-10.2349
▁butter	-10.2354
ress	-10.2357
▁propose	-10.2362
▁ruler	-10.2376
▁pri	-10.2386
▁walked	-10.2388
▁costs	-10.2401
▁joining	-10.2403
▁offering	-10.2416
▁manner	-10.2418
▁toys	-10.2418
▁image	-10.2421
ever	-10.2425
▁don	-10.2426
▁amen	-10.2437
▁pilots	-10.244
▁adopt	-10.2443
▁aim	-10.2451
▁narrow	-10.2455
▁kindly	-10.2473
▁loan	-10.2479
▁constant	-10.2484
▁danced	-10.2501
▁concept	-10.2501
▁slight	-10.2503
▁ka	-10.2508
▁losers	-10.2513
▁opened	-10.2514
▁improve	-10.2515
com	-10.2534
▁hol	-10.2545
▁belle	-10.2551
▁moral	-10.2554
▁tow	-10.2597
awfully	-10.2601
▁nicer	-10.2608
iling	-10.2632
▁van	-10.2664
ro	-10.2665
▁source	-10.2669
you	-10.2672
▁gaw	-10.2675
▁checking	-10.2678
▁hoped	-10.2682
ap	-10.2685
▁paying	-10.2694
▁jacks	-10.2715
▁faults	-10.272
▁wand	-10.2759
▁tag	-10.2801
▁va	-10.281
▁bu	-10.2824
▁sub	-10.2828
▁yea	-10.2849
▁moves	-10.2862
erald	-10.2865
▁bears	-10.2867
▁drops	-10.2871
ra	-10.2875
▁sore	-10.2893
▁judges	-10.2955
▁rum	-10.2961
qui	-10.2964
side	-10.2971
▁spare	-10.2999
▁secrets	-10.3003
▁shin	-10.3007
▁very	-10.3008
▁fl	-10.3017
ade	-10.3021
▁ri	-10.3034
ses	-10.3035
▁cath	-10.3039
▁hu	-10.304
▁nonf	-10.3043
▁lifes	-10.3046
▁cos	-10.3077
ho	-10.3092
▁resist	-10.3105
▁ant	-10.3145
foot	-10.3148
▁rights	-10.3177
▁log	-10.3179
▁loses	-10.3193
ooh	-10.3199
pped	-10.3236
▁spen	-10.3245
ept	-10.3246
do	-10.3248
▁pete	-10.325
▁ohhh	-10.3253
▁minds	-10.3257
▁mental	-10.3261
op	-10.3263
▁char	-10.3267
ier	-10.3285
dog	-10.3286
zing	-10.3309
looking	-10.3327
down	-10.3367
book	-10.3384
let	-10.3396
▁path	-10.3409
▁gar	-10.3419
▁arrive	-10.3423
▁changes	-10.3431
▁guarantee	-10.3436
▁squeak	-10.3452
ot	-10.3463
▁chair	-10.3465
▁autograph	-10.3466
▁instinct	-10.3466
▁basket	-10.3467
▁fence	-10.3477
▁artist	-10.348
▁technique	-10.3483
▁title	-10.3484
▁relationship	-10.3486
▁wunko	-10.3486
▁puts	-10.3487
▁guidebook	-10.3489
▁acts	-10.3491
▁neighbor	-10.3492
▁degree	-10.3493
▁er	-10.3493
▁shadow	-10.3494
▁dang	-10.3496
▁clown	-10.3499
yard	-10.3499
▁hitch	-10.3517
▁hoot	-10.3532
▁chain	-10.3534
▁guardian	-10.3538
▁scratch	-10.3546
▁gate	-10.3552
▁hook	-10.3555
▁shopp	-10.3555
▁unite	-10.3556
▁rating	-10.3556
▁outs	-10.3558
ched	-10.356
▁cu	-10.3574
▁camp	-10.358
ying	-10.3583
▁punish	-10.3585
▁jealous	-10.3586
▁require	-10.3588
▁demonstrate	-10.3593
▁invite	-10.3593
believ	-10.3593
▁to	-10.36
▁positive	-10.36
ard	-10.3602
▁vicious	-10.3602
▁absolute	-10.3602
▁marvel	-10.3602
▁somethin	-10.3605
▁checks	-10.3605
talian	-10.3606
▁habit	-10.3606
▁fires	-10.3608
▁hawaii	-10.361
▁recommend	-10.3612
ford	-10.3613
▁birth	-10.3613
▁anabelle	-10.3613
▁cackling	-10.3613
▁citizen	-10.3613
▁desperados	-10.3613
▁dulcey	-10.3613
▁duvalle	-10.3613
▁innocent	-10.3613
▁inspection	-10.3613
▁intelligent	-10.3613
▁lawgiver	-10.3613
▁mcallister	-10.3613
▁mexico	-10.3613
▁milkweed	-10.3613
▁namikawa	-10.3613
▁nemesis	-10.3613
▁occasion	-10.3613
▁olympus	-10.3613
▁orchestra	-10.3613
▁passengers	-10.3613
▁poirier	-10.3613
▁primitive	-10.3613
▁rustling	-10.3613
▁scientist	-10.3613
▁shatterpated	-10.3613
▁sheriff	-10.3613
▁splendid	-10.3613
▁tetsuo	-10.3613
▁tribunal	-10.3613
▁rudolph	-10.3613
▁squeeze	-10.3613
▁terrance	-10.3613
▁twenty	-10.3613
▁belladonna	-10.3613
▁brief	-10.3613
▁terrain	-10.3613
▁personnel	-10.3613
▁traitor	-10.3614
▁ninth	-10.3614
▁phew	-10.3614
▁rainbow	-10.3614
▁ofcourse	-10.3614
▁shiva	-10.3614
▁picnic	-10.3614
▁barbie	-10.3614
▁cliff	-10.3614
▁patience	-10.3614
▁crisp	-10.3614
▁jimmy	-10.3614
▁kraus	-10.3614
▁knife	-10.3614
▁remarkable	-10.3614
▁powder	-10.3614
▁elmer	-10.3614
▁probation	-10.3614
▁tropic	-10.3614
▁circuit	-10.3614
▁harvest	-10.3614
▁torture	-10.3614
▁disaster	-10.3614
▁eleven	-10.3614
▁entertainment	-10.3614
▁kurds	-10.3614
▁almighty	-10.3614
▁almond	-10.3614
▁jenkins	-10.3614
▁muttering	-10.3614
▁financial	-10.3614
▁buried	-10.3614
▁imagination	-10.3614
▁bathroom	-10.3614
▁centuries	-10.3614
▁martha	-10.3614
▁catherine	-10.3614
▁creative	-10.3614
▁hahaha	-10.3614
▁gym	-10.3614
▁status	-10.3615
▁bottle	-10.3615
▁cider	-10.3615
▁furthe	-10.3615
▁accent	-10.3615
▁vote	-10.3615
▁wilderness	-10.3615
▁punishment	-10.3615
▁threat	-10.3615
▁nevertheless	-10.3615
▁territory	-10.3616
▁riley	-10.3616
▁solar	-10.3616
▁housekeeper	-10.3616
▁rappelling	-10.3616
▁daily	-10.3617
▁veil	-10.3617
▁choi	-10.3617
▁iady	-10.3617
▁directive	-10.3617
▁miserable	-10.3617
▁wives	-10.3618
▁mutters	-10.3618
▁slave	-10.3618
▁qualified	-10.3618
▁whoever	-10.3618
▁impression	-10.3618
▁shelter	-10.3618
▁commissioner	-10.3618
▁persuade	-10.3619
▁megan	-10.3619
▁collection	-10.3619
▁gently	-10.3619
▁crackling	-10.362
▁benefit	-10.3621
▁sketches	-10.3621
▁challenging	-10.3621
▁coast	-10.3621
▁secretary	-10.3621
▁thirty	-10.3622
▁whip	-10.3622
▁blog	-10.3622
▁boyfriend	-10.3623
▁personality	-10.3624
▁minor	-10.3625
▁instructions	-10.3625
▁sunlight	-10.3625
▁circus	-10.3626
▁merely	-10.3627
▁cooing	-10.3627
▁wailing	-10.3627
▁aside	-10.3627
▁dough	-10.3627
▁takin	-10.3628
▁item	-10.3628
▁sailor	-10.3629
▁annoying	-10.3629
▁argue	-10.363
wolves	-10.3631
for	-10.3632
▁establish	-10.3632
▁reveal	-10.3633
▁switzerland	-10.3634
▁commander	-10.3634
▁maiden	-10.3634
▁reno	-10.3634
▁scent	-10.3635
▁unlike	-10.3637
▁reverse	-10.3637
▁adopted	-10.3638
▁writing	-10.3638
▁ei	-10.3638
▁boring	-10.3639
▁toot	-10.3639
▁julie	-10.3639
▁missile	-10.364
▁perse	-10.364
▁patrol	-10.3641
▁ahhh	-10.3641
▁haha	-10.3642
▁mount	-10.3643
▁vegetables	-10.3643
▁lemon	-10.3645
▁lucy	-10.3648
▁boxes	-10.365
▁replaced	-10.3651
▁arrested	-10.3652
▁advanced	-10.3654
▁camping	-10.3654
▁naturally	-10.3657
▁ls	-10.3658
▁shutter	-10.3658
▁element	-10.3659
▁affairs	-10.3662
▁focused	-10.3663
▁bread	-10.3668
▁whooping	-10.3669
▁quacking	-10.367
▁bowling	-10.3671
▁duet	-10.3673
▁shortly	-10.3674
kins	-10.3678
▁pipe	-10.3678
▁experienced	-10.3679
▁payment	-10.3682
▁shift	-10.3684
▁accepted	-10.3685
▁yard	-10.3686
▁tools	-10.369
▁bugs	-10.3691
ass	-10.3691
▁seriously	-10.3692
gh	-10.3698
▁varmints	-10.3701
▁cowboys	-10.3701
▁trails	-10.3702
▁flood	-10.3704
▁chips	-10.3707
▁noticed	-10.3708
▁budget	-10.3709
▁entered	-10.371
▁lair	-10.3711
▁fights	-10.3713
▁deadly	-10.3719
▁crashed	-10.3721
▁breathing	-10.3723
▁prepared	-10.3725
▁proved	-10.3727
▁lifetime	-10.373
▁armed	-10.3731
rsh	-10.3734
▁wasted	-10.3737
▁fixed	-10.3737
▁kissed	-10.3738
▁hoots	-10.3739
▁weary	-10.374
▁ouch	-10.3741
da	-10.3741
▁letting	-10.3743
▁owns	-10.3746
▁based	-10.3748
▁colors	-10.376
▁fishing	-10.3761
crust	-10.3766
▁testing	-10.377
▁prey	-10.3779
▁cents	-10.3779
▁drawing	-10.3781
▁gum	-10.3783
▁puck	-10.3784
▁cure	-10.3784
▁bone	-10.3786
▁designs	-10.3789
▁highly	-10.3798
▁fail	-10.3799
▁fling	-10.3801
les	-10.3815
▁stake	-10.3816
▁businesses	-10.3816
▁reached	-10.3817
▁include	-10.3818
▁trained	-10.3828
▁kissing	-10.3839
▁naps	-10.3848
▁dispose	-10.3856
ping	-10.3856
▁chances	-10.386
▁deserves	-10.3861
▁vet	-10.3864
▁roses	-10.3869
▁signals	-10.387
▁led	-10.3878
▁equal	-10.3878
▁reporting	-10.3895
▁lame	-10.3906
▁los	-10.3917
▁waitin	-10.3918
▁tax	-10.3918
▁loss	-10.392
▁rolling	-10.3923
▁partners	-10.3929
▁snakes	-10.3931
work	-10.3931
▁checked	-10.3932
▁laps	-10.3939
▁pose	-10.3952
▁seal	-10.3954
▁for	-10.396
und	-10.3989
▁melt	-10.3997
rrender	-10.4
▁letters	-10.4006
▁roman	-10.4007
▁confess	-10.401
▁prime	-10.4011
day	-10.4027
▁engage	-10.4037
▁karat	-10.4041
▁cough	-10.4047
▁tone	-10.4047
▁hurts	-10.4053
▁sw	-10.4077
ill	-10.4092
ha	-10.4143
▁moo	-10.416
ered	-10.4168
▁reserve	-10.4178
▁events	-10.4179
▁sex	-10.4186
▁ass	-10.4191
sis	-10.4193
▁packs	-10.4208
▁ja	-10.4217
▁kangaroos	-10.4218
ack	-10.4235
▁kidnap	-10.4239
sgus	-10.425
▁gain	-10.4258
bit	-10.4261
▁shouid	-10.4272
▁stayed	-10.4291
▁cancel	-10.4306
▁strikes	-10.4319
▁slo	-10.4334
▁hopes	-10.4343
▁tend	-10.4346
▁carrie	-10.4351
▁presen	-10.4365
▁engines	-10.4374
▁hall	-10.4377
▁corporat	-10.4379
erries	-10.4387
▁terror	-10.4388
be	-10.4401
▁ace	-10.4404
hark	-10.4412
ial	-10.4417
▁fools	-10.4431
sy	-10.4452
▁iot	-10.4456
▁nail	-10.4463
▁row	-10.4485
▁mini	-10.4495
hand	-10.4502
gged	-10.4509
ern	-10.451
▁practic	-10.452
▁z	-10.4559
▁drives	-10.4571
iitti	-10.4574
▁lion	-10.4576
ipped	-10.4588
but	-10.4608
▁ward	-10.463
hes	-10.4664
▁crunch	-10.4691
▁baker	-10.4695
▁reasons	-10.4701
ian	-10.4721
ge	-10.4726
▁bells	-10.4728
ia	-10.4739
▁eric	-10.4744
ations	-10.4757
owning	-10.4765
state	-10.4775
▁tri	-10.4782
▁cuts	-10.4793
▁wo	-10.48
gram	-10.4808
▁ana	-10.4817
▁facts	-10.4818
▁canter	-10.4833
▁supp	-10.4845
ical	-10.4882
▁cases	-10.4887
light	-10.4895
cial	-10.4925
ticky	-10.4928
▁sides	-10.4941
gel	-10.4957
rous	-10.496
▁grave	-10.4972
slick	-10.4981
▁ste	-10.4981
▁unto	-10.4987
ades	-10.5004
charlie	-10.5013
ur	-10.5025
phone	-10.5035
▁ni	-10.5044
▁points	-10.5057
▁earl	-10.5078
▁jean	-10.509
▁perform	-10.5094
ld	-10.5102
▁skateboard	-10.5119
▁magazine	-10.5132
▁shout	-10.5134
▁invitation	-10.5136
▁slope	-10.5136
▁incident	-10.5141
▁yuck	-10.5142
▁trunk	-10.5146
pe	-10.515
▁material	-10.515
▁contestant	-10.5159
▁folk	-10.516
ding	-10.5163
▁visitor	-10.5164
▁oni	-10.5168
▁glove	-10.5188
▁fade	-10.5191
▁movement	-10.5192
▁modern	-10.5202
▁develop	-10.5208
▁dan	-10.5209
▁stretch	-10.5235
▁represent	-10.5245
▁monitor	-10.5254
▁abolish	-10.5254
▁request	-10.5255
▁praise	-10.5257
ible	-10.5258
▁borrow	-10.5261
▁physical	-10.5266
▁twist	-10.5268
▁desperate	-10.5268
▁rapid	-10.527
▁comfort	-10.527
▁awake	-10.5271
▁spa	-10.5272
▁chose	-10.5272
▁effect	-10.5277
▁detect	-10.5278
▁region	-10.5278
▁delight	-10.5278
▁affection	-10.5279
▁aerodynamic	-10.528
▁abilities	-10.528
▁ambrose	-10.528
▁anxiety	-10.528
▁appropriate	-10.528
▁athletes	-10.528
▁bonanza	-10.528
▁cactus	-10.528
▁celsius	-10.528
▁cheetah	-10.528
▁cockpit	-10.528
▁covington	-10.528
▁disguise	-10.528
▁elizabeth	-10.528
▁enrico	-10.528
▁gassolini	-10.528
▁hobby	-10.528
▁hooggho	-10.528
▁innocence	-10.528
▁insecure	-10.528
▁insurance	-10.528
▁kathleen	-10.528
▁krugman	-10.528
▁loudspeaker	-10.528
▁omaha	-10.528
▁pennypacker	-10.528
▁perceive	-10.528
▁rhyme	-10.528
▁ribbon	-10.528
▁richthofen	-10.528
▁ruthybelle	-10.528
▁scaffold	-10.528
▁schnell	-10.528
▁society	-10.528
▁thorensen	-10.528
▁thumpclank	-10.528
▁tragedy	-10.528
▁umbrella	-10.528
▁unnecessary	-10.528
▁variety	-10.528
▁xiliens	-10.528
▁attitude	-10.528
▁brenda	-10.528
▁contraption	-10.528
▁devito	-10.528
▁examination	-10.528
▁hollywood	-10.528
▁hurray	-10.528
▁length	-10.528
▁obtain	-10.528
▁possum	-10.528
▁principal	-10.528
▁snarling	-10.528
▁apparently	-10.528
▁beckett	-10.528
▁harmonica	-10.528
▁chancellor	-10.528
▁exhibit	-10.528
▁mesmeri	-10.528
▁museum	-10.528
▁commotion	-10.528
▁framm	-10.528
▁civilization	-10.528
▁throttle	-10.528
▁stammering	-10.528
▁gaskill	-10.528
▁peopie	-10.528
▁conference	-10.528
▁critter	-10.528
▁leisure	-10.528
▁eager	-10.528
▁civilized	-10.528
▁warehouse	-10.528
▁accessible	-10.528
▁literally	-10.528
▁italy	-10.528
▁reverend	-10.528
rmore	-10.528
▁fulton	-10.528
▁importance	-10.528
▁descent	-10.528
▁granddaddy	-10.528
▁heidi	-10.5281
▁aspen	-10.5281
▁invisible	-10.5281
▁value	-10.5281
▁maximum	-10.5281
▁freak	-10.5281
▁loaf	-10.5281
▁investigation	-10.5281
▁caliba	-10.5281
▁susan	-10.5281
▁codebook	-10.5281
▁ashram	-10.5281
▁species	-10.5281
▁bicycle	-10.5281
▁fantasy	-10.5281
▁dipsy	-10.5281
▁shortcut	-10.5281
▁electronic	-10.5281
▁behalf	-10.5281
▁embrace	-10.5281
▁attic	-10.5281
▁industries	-10.5281
▁precisely	-10.5281
▁editor	-10.5281
▁swallow	-10.5281
▁theft	-10.5281
▁lecroix	-10.5281
▁content	-10.5281
▁sniffles	-10.5281
▁surrender	-10.5281
▁russian	-10.5282
▁zack	-10.5282
▁onward	-10.5282
▁compensation	-10.5282
▁rooster	-10.5282
▁album	-10.5282
▁argument	-10.5282
▁criminal	-10.5282
▁decent	-10.5282
▁opry	-10.5282
▁whirl	-10.5282
▁capsule	-10.5282
▁sunshine	-10.5283
▁cellar	-10.5283
▁braying	-10.5283
▁noisy	-10.5283
▁mommy	-10.5283
▁godmother	-10.5283
▁bleeding	-10.5283
▁hindi	-10.5283
▁authority	-10.5283
▁robbed	-10.5283
▁airport	-10.5284
▁gracious	-10.5284
▁frame	-10.5284
▁border	-10.5284
▁yarn	-10.5284
▁grasp	-10.5285
▁surround	-10.5285
▁giddy	-10.5286
▁wicked	-10.5286
▁flesh	-10.5286
▁childhood	-10.5286
▁maintain	-10.5286
▁crap	-10.5286
▁finch	-10.5286
▁tattered	-10.5286
▁internet	-10.5286
▁margad	-10.5286
▁earned	-10.5287
▁agreement	-10.5287
▁skipper	-10.5287
▁obliged	-10.5287
▁collar	-10.5288
▁expand	-10.5288
▁bacon	-10.5289
▁stunt	-10.5289
▁storyland	-10.5289
▁frightened	-10.5289
▁tiring	-10.529
▁ewe	-10.529
▁snoopy	-10.529
▁shaking	-10.529
▁punk	-10.5291
▁ellie	-10.5292
▁demand	-10.5292
▁desperately	-10.5292
▁baroness	-10.5293
▁brakes	-10.5293
▁specialty	-10.5293
zug	-10.5294
▁respond	-10.5294
▁entry	-10.5295
▁sustained	-10.5295
▁beau	-10.5296
▁bern	-10.5296
▁harsh	-10.5296
▁pour	-10.5296
▁aione	-10.5296
▁drove	-10.5297
▁louis	-10.5297
▁solo	-10.5297
▁kn	-10.5299
▁overhead	-10.5299
▁sweat	-10.53
▁loyal	-10.53
▁specifica	-10.5301
▁sammy	-10.5301
▁determined	-10.5301
▁escort	-10.5301
▁response	-10.5302
ell	-10.5302
▁paris	-10.5302
▁iisten	-10.5302
▁neighing	-10.5302
▁borrowed	-10.5303
▁hits	-10.5304
▁angeles	-10.5305
▁efficient	-10.5305
▁research	-10.5305
▁skiers	-10.5305
▁officially	-10.5306
▁theory	-10.5307
▁croaks	-10.5309
▁nearest	-10.5309
▁apply	-10.5311
▁disappeared	-10.5311
▁edge	-10.5312
▁saucer	-10.5313
▁emotions	-10.5313
▁idol	-10.5313
▁existed	-10.5314
▁xray	-10.5315
▁youngun	-10.5315
▁frankly	-10.5316
▁tragic	-10.5317
free	-10.5318
▁ahem	-10.5319
▁mixed	-10.532
▁bonus	-10.532
▁breach	-10.5321
▁throne	-10.5321
▁parties	-10.5323
▁hiking	-10.5323
▁amongst	-10.5323
▁sacred	-10.5325
▁kindness	-10.5326
▁heavenly	-10.5326
▁dusty	-10.5326
▁hip	-10.5326
her	-10.5328
▁naked	-10.5328
▁gathered	-10.5331
▁poise	-10.5332
▁meter	-10.5332
▁scratching	-10.5332
▁troops	-10.5332
▁released	-10.5332
▁reality	-10.5333
▁assured	-10.5335
▁repairs	-10.5337
ries	-10.5337
▁penguins	-10.5338
▁ce	-10.5339
▁blooms	-10.534
▁fever	-10.5343
▁rice	-10.5343
▁northeast	-10.5345
▁carla	-10.5348
▁appeal	-10.5349
▁leads	-10.5349
▁crowing	-10.5349
▁compliment	-10.535
▁beaten	-10.5353
▁lori	-10.5356
▁crabs	-10.5357
▁falls	-10.5358
ez	-10.536
▁results	-10.5361
▁monarchs	-10.5361
▁held	-10.5363
▁goodnight	-10.5363
▁odd	-10.5364
▁angle	-10.5366
▁suffering	-10.5367
▁dancer	-10.5373
▁helpless	-10.5374
▁cmon	-10.5377
▁fong	-10.5377
▁text	-10.5377
▁triple	-10.5378
▁youth	-10.5379
▁reporters	-10.5381
▁easter	-10.5384
▁secure	-10.5388
▁delivered	-10.539
▁aj	-10.5391
▁jackson	-10.5391
▁dial	-10.5393
▁delivery	-10.5394
▁irene	-10.5395
▁vital	-10.5397
▁mentioned	-10.5404
▁belts	-10.5405
lawful	-10.5407
▁meantime	-10.5407
▁stream	-10.5408
▁increase	-10.5409
▁circle	-10.5412
▁pard	-10.5414
▁difficulty	-10.5423
▁neighbors	-10.5426
▁maid	-10.5426
▁guidebooks	-10.543
▁gil	-10.5433
ache	-10.5435
▁joint	-10.5439
▁lab	-10.5441
▁feelin	-10.5444
▁gi	-10.5445
▁lovers	-10.5456
▁cracker	-10.5457
▁hm	-10.5466
▁rear	-10.5468
▁deer	-10.547
▁pushing	-10.5473
▁mush	-10.5475
▁sultans	-10.5476
▁lightest	-10.5476
▁gorillas	-10.5476
▁posts	-10.5478
▁feathers	-10.5482
▁touched	-10.5482
▁ar	-10.5482
▁closely	-10.5484
▁approve	-10.5485
▁cooking	-10.5485
▁skiing	-10.549
▁career	-10.5502
▁boom	-10.5507
▁iive	-10.5509
▁bleat	-10.5514
▁hike	-10.5517
▁stall	-10.5525
▁complaint	-10.5527
▁packing	-10.5529
▁jokes	-10.5531
▁cookies	-10.5531
▁gadgets	-10.5534
ded	-10.5534
▁crossed	-10.5534
▁lively	-10.5542
▁weapons	-10.5545
▁cord	-10.5556
▁gorge	-10.5561
▁inform	-10.5562
▁servants	-10.5567
cal	-10.5577
▁shhh	-10.5585
▁beats	-10.5587
▁mel	-10.5591
▁slips	-10.5593
istic	-10.5595
▁bounds	-10.5604
▁link	-10.5606
▁proto	-10.5606
▁explosions	-10.5613
▁officers	-10.5622
▁suck	-10.5634
▁separate	-10.5634
▁saxons	-10.5636
old	-10.5649
▁cor	-10.5655
▁snaps	-10.566
▁marks	-10.5672
der	-10.5675
▁gal	-10.568
ke	-10.5684
▁author	-10.5685
zi	-10.5685
▁ga	-10.569
▁term	-10.5694
▁honk	-10.5702
▁sounded	-10.5708
▁grande	-10.5715
▁mus	-10.5716
▁meow	-10.5736
▁hawk	-10.5743
▁clearing	-10.5745
rick	-10.5755
▁ages	-10.5765
▁tables	-10.5768
▁beam	-10.5773
▁pupp	-10.5783
▁horns	-10.5783
ood	-10.5801
inlaw	-10.5808
▁christop	-10.5811
▁era	-10.5815
▁upb	-10.5815
oke	-10.582
▁oo	-10.5822
▁compete	-10.5826
▁rate	-10.5837
aval	-10.5839
▁bump	-10.5844
▁wished	-10.5844
▁windows	-10.5845
owned	-10.5853
ada	-10.5867
▁iron	-10.5873
▁belch	-10.5881
▁singers	-10.589
lo	-10.5912
dar	-10.5919
▁remains	-10.5925
▁thoughts	-10.5934
▁issue	-10.594
▁dock	-10.5951
▁cru	-10.5953
▁guessed	-10.5966
▁mistakes	-10.5967
▁mon	-10.599
▁wore	-10.5993
▁mam	-10.6007
▁ele	-10.6014
▁listened	-10.6016
▁monsters	-10.6026
▁qu	-10.6029
ezvous	-10.6033
per	-10.6039
▁schools	-10.6067
wing	-10.6081
▁factor	-10.6094
lets	-10.6103
▁laws	-10.6105
▁thinkin	-10.611
▁bestow	-10.6112
▁br	-10.6117
eyed	-10.6125
▁bubbl	-10.613
ner	-10.6145
beat	-10.6147
▁blankets	-10.6184
▁but	-10.6201
▁sum	-10.6211
sta	-10.6216
▁bla	-10.6258
▁truthful	-10.6301
▁queens	-10.6311
▁hundreds	-10.6323
ify	-10.6377
▁du	-10.6377
ating	-10.6381
owed	-10.6404
ingly	-10.6411
▁figures	-10.6421
▁neat	-10.6423
▁announc	-10.6426
▁tooth	-10.6434
▁cr	-10.6443
▁mall	-10.6443
▁mass	-10.6507
▁til	-10.6508
ature	-10.6534
nd	-10.6537
rite	-10.654
▁down	-10.6548
▁dongh	-10.6563
▁trains	-10.6564
▁tent	-10.6577
▁aid	-10.6601
obbles	-10.6614
▁ding	-10.6624
espite	-10.6644
mer	-10.6656
▁clip	-10.6656
▁rep	-10.6661
▁doctors	-10.6664
▁of	-10.6664
ess	-10.6699
ability	-10.6699
▁clove	-10.6719
head	-10.6723
ig	-10.6726
ank	-10.674
aid	-10.6762
▁whoops	-10.6771
▁sat	-10.6774
tense	-10.6791
▁trans	-10.6821
come	-10.6823
▁hid	-10.6851
tar	-10.6855
ink	-10.6859
j	-10.6871
▁theor	-10.6881
▁file	-10.6895
tting	-10.6911
▁yup	-10.6922
▁tur	-10.6932
ware	-10.6939
mmy	-10.6971
cer	-10.6982
▁flee	-10.6991
▁despi	-10.7005
▁skip	-10.7014
ings	-10.7025
horse	-10.7033
▁misunderstand	-10.7034
clear	-10.7046
▁encourage	-10.7047
▁couid	-10.705
▁ref	-10.7054
chop	-10.7064
om	-10.7067
▁foods	-10.7068
▁here	-10.7095
placed	-10.7125
▁trail	-10.7127
▁league	-10.713
▁fingernail	-10.7131
▁bigg	-10.7137
▁chip	-10.7138
▁interview	-10.7144
▁react	-10.7147
▁feature	-10.7154
▁theme	-10.7158
▁goblin	-10.7159
▁cowboy	-10.7159
▁exclaim	-10.7163
▁donation	-10.7165
▁knee	-10.7167
▁ti	-10.7167
▁chin	-10.717
▁emi	-10.7175
ans	-10.7177
oh	-10.718
▁product	-10.7185
▁varmint	-10.7186
▁gus	-10.7187
▁award	-10.7188
▁simian	-10.7189
▁tool	-10.7191
▁disease	-10.7194
ute	-10.7194
▁we	-10.7202
▁fake	-10.7203
▁dam	-10.7219
▁via	-10.7226
▁drama	-10.7235
▁oops	-10.7235
▁clatter	-10.7248
▁distract	-10.7251
▁bore	-10.7252
▁retire	-10.7252
▁wealth	-10.7253
▁determine	-10.7255
▁felon	-10.7258
▁inventor	-10.7258
▁remove	-10.7259
▁restore	-10.726
▁pasta	-10.7261
▁numb	-10.7264
▁clam	-10.7264
▁po	-10.7265
▁burst	-10.7265
▁ram	-10.7265
▁potato	-10.7266
▁disappoint	-10.7267
▁brook	-10.7267
▁unfortunate	-10.7269
▁instruct	-10.7274
ischer	-10.7274
▁assume	-10.7275
▁frag	-10.7275
▁europe	-10.7277
▁somewh	-10.7278
▁lalala	-10.7279
▁interfere	-10.7279
▁kiddin	-10.728
▁emerge	-10.728
▁academy	-10.728
▁apollo	-10.728
▁appetite	-10.728
▁application	-10.728
▁asyium	-10.728
▁caterpillar	-10.728
▁champagne	-10.728
▁circumstances	-10.728
▁congratulate	-10.728
▁curiosity	-10.728
▁custody	-10.728
▁dabbett	-10.728
▁dessert	-10.728
▁eggnog	-10.728
▁exhales	-10.728
▁fandango	-10.728
▁fifteen	-10.728
▁furukawa	-10.728
▁glimpse	-10.728
▁handbag	-10.728
▁headquarters	-10.728
▁hencoop	-10.728
▁hydrogen	-10.728
▁kaclick	-10.728
▁katarina	-10.728
▁kirby	-10.728
▁krunch	-10.728
▁marshmallow	-10.728
▁matsumiya	-10.728
▁oxygen	-10.728
▁pacific	-10.728
▁perfume	-10.728
▁platform	-10.728
▁ravencroft	-10.728
▁repossessed	-10.728
▁reputation	-10.728
▁rhiannon	-10.728
▁sakurai	-10.728
▁scholarship	-10.728
▁shrieking	-10.728
▁sisterscousins	-10.728
▁spectacular	-10.728
▁supreme	-10.728
▁tokyo	-10.728
▁traffic	-10.728
▁ultimate	-10.728
▁uncomfortable	-10.728
▁verdict	-10.728
▁zanzar	-10.728
▁calliope	-10.728
▁chimney	-10.728
▁empire	-10.728
▁estimate	-10.728
▁fierce	-10.728
▁khurissan	-10.728
▁phantom	-10.728
▁website	-10.728
▁yahhoohoohoo	-10.728
▁zhl	-10.728
▁cacti	-10.728
▁divinity	-10.728
▁mouris	-10.728
socsoc	-10.728
▁adapt	-10.728
▁bastard	-10.728
▁families	-10.728
▁lonesome	-10.728
▁prototype	-10.728
▁squint	-10.728
▁tolerate	-10.728
▁dismissed	-10.728
▁everlasting	-10.728
▁approximately	-10.728
▁courtmartial	-10.728
▁envy	-10.728
▁gnome	-10.728
▁opponent	-10.728
▁pursuit	-10.728
▁utah	-10.728
▁maintenance	-10.728
▁waterfalls	-10.728
▁aigoo	-10.728
▁downtown	-10.728
▁exploring	-10.728
▁fratern	-10.728
▁population	-10.728
▁splash	-10.728
▁transmission	-10.728
▁triumph	-10.728
▁wardrobe	-10.728
▁olaf	-10.728
▁duties	-10.728
▁nyah	-10.728
▁micro	-10.728
▁pronounce	-10.728
▁branson	-10.728
▁kruger	-10.728
▁orbit	-10.728
▁insane	-10.728
fahr	-10.728
▁conscious	-10.728
▁jammed	-10.728
▁disgrace	-10.728
▁oppa	-10.728
▁francis	-10.728
▁haywood	-10.728
▁association	-10.728
▁lucius	-10.728
▁surface	-10.728
▁stewart	-10.728
▁friction	-10.728
▁kerjarquat	-10.728
▁yacht	-10.728
▁happier	-10.728
▁mutant	-10.728
▁fridge	-10.728
▁pattern	-10.728
▁executive	-10.7281
▁rusty	-10.7281
▁dreadful	-10.7281
▁morio	-10.7281
▁dispatch	-10.7281
▁destruction	-10.7281
▁pillow	-10.7281
▁cooperation	-10.7281
▁doomed	-10.7281
▁presto	-10.7281
▁greaves	-10.7281
▁ribs	-10.7281
▁qualify	-10.7281
▁pathetic	-10.7281
▁conclusion	-10.7281
▁shaving	-10.7281
▁psychologist	-10.7281
▁anytime	-10.7281
▁theater	-10.7281
▁whiff	-10.7281
▁reaiiy	-10.7281
▁migration	-10.7281
▁bastion	-10.7281
▁abandon	-10.7281
▁display	-10.7281
▁password	-10.7281
▁sample	-10.7281
▁soaring	-10.7281
▁wrote	-10.7282
▁ooty	-10.7282
▁selfish	-10.7282
▁whining	-10.7282
▁widow	-10.7282
▁treason	-10.7282
▁shaii	-10.7282
▁merit	-10.7282
▁overnight	-10.7282
▁underway	-10.7282
▁movin	-10.7282
▁hummingbird	-10.7282
▁portland	-10.7282
▁blaring	-10.7282
▁civilised	-10.7282
▁offense	-10.7282
▁marley	-10.7282
▁jerry	-10.7282
▁development	-10.7282
▁donford	-10.7282
▁client	-10.7282
▁skinny	-10.7282
▁overboard	-10.7283
▁organic	-10.7283
▁chamber	-10.7283
▁cult	-10.7283
▁givin	-10.7283
▁mailroom	-10.7283
▁impressive	-10.7283
▁moonlight	-10.7283
▁prix	-10.7283
▁astronomy	-10.7283
▁moaning	-10.7283
▁bedford	-10.7283
▁hyper	-10.7283
▁dedicate	-10.7283
▁slimy	-10.7283
▁flour	-10.7284
▁european	-10.7284
▁robbery	-10.7284
▁wouidnt	-10.7284
▁convey	-10.7284
▁dropoff	-10.7284
▁scrambling	-10.7284
▁attached	-10.7284
▁herman	-10.7284
▁spaceship	-10.7284
▁modest	-10.7285
▁leaf	-10.7285
▁airfield	-10.7285
▁reference	-10.7285
▁massive	-10.7285
▁access	-10.7285
▁popping	-10.7285
▁grownup	-10.7285
▁process	-10.7285
▁shattered	-10.7285
▁explored	-10.7285
▁cricket	-10.7286
▁rental	-10.7286
▁property	-10.7286
▁ambush	-10.7286
▁dumpster	-10.7286
▁juice	-10.7286
▁sorrow	-10.7286
▁straightaway	-10.7287
▁fischer	-10.7287
▁photography	-10.7287
▁regional	-10.7287
▁sector	-10.7287
▁nobleman	-10.7288
▁oak	-10.7289
▁fought	-10.729
greatgrandmother	-10.729
▁quest	-10.7291
▁realise	-10.7291
▁tomatoes	-10.7291
dium	-10.7291
▁traditional	-10.7291
▁evolved	-10.7291
▁tolling	-10.7292
▁provid	-10.7292
▁etc	-10.7293
▁woodsman	-10.7294
▁attaboy	-10.7294
▁brinks	-10.7295
▁whew	-10.7295
▁dumped	-10.7295
▁curly	-10.7296
▁finance	-10.7296
▁trapped	-10.7296
▁knight	-10.7296
▁andes	-10.7297
▁daniels	-10.7297
▁honeybees	-10.7297
▁offend	-10.7297
▁hallway	-10.7297
▁airways	-10.7297
▁fitting	-10.7297
▁chosen	-10.7297
▁rising	-10.7298
▁cupid	-10.7299
▁weeping	-10.7299
▁thump	-10.73
▁error	-10.7301
▁sharing	-10.7302
▁san	-10.7303
▁task	-10.7303
▁shushing	-10.7305
ca	-10.7305
▁venus	-10.7305
▁removed	-10.7306
▁waitress	-10.7308
▁channel	-10.7311
▁mirror	-10.7311
▁dick	-10.7312
▁punches	-10.7312
▁barker	-10.7313
▁waking	-10.7313
▁jab	-10.7313
▁jessie	-10.7313
▁murderer	-10.7313
▁walter	-10.7314
▁flip	-10.7314
▁canceled	-10.7315
kos	-10.7315
▁everyday	-10.7315
▁location	-10.7316
ardo	-10.7317
▁photographer	-10.7317
▁deny	-10.7317
▁spies	-10.7318
▁assumed	-10.7318
▁dining	-10.7319
▁vice	-10.7323
▁clap	-10.7324
▁studies	-10.7324
▁scrolls	-10.7324
▁paran	-10.7324
▁lankoms	-10.7324
▁twerps	-10.7324
▁pioneers	-10.7324
▁packages	-10.7324
▁footprints	-10.7325
▁customs	-10.7325
▁fulfill	-10.7325
▁suckers	-10.7326
▁birdie	-10.7327
▁toid	-10.7327
▁posted	-10.7327
▁highlands	-10.7327
▁scales	-10.7327
▁social	-10.7328
▁nut	-10.7328
▁dime	-10.7329
▁role	-10.733
▁drowned	-10.733
▁marble	-10.7332
▁choke	-10.7332
▁palm	-10.7332
▁photos	-10.7335
▁developing	-10.7335
▁reid	-10.7338
▁earthling	-10.734
▁lamp	-10.7341
▁brace	-10.7341
▁takeoff	-10.7342
▁correctly	-10.7343
▁apost	-10.7343
▁tide	-10.7343
▁fastest	-10.7346
▁moron	-10.7349
▁bug	-10.735
▁newspapers	-10.7353
forced	-10.7353
▁scrap	-10.7354
▁collectors	-10.7354
▁hoohoo	-10.7355
▁defending	-10.7356
▁hank	-10.7356
▁weighing	-10.7356
▁temper	-10.7358
▁reign	-10.7361
▁messes	-10.7363
▁burry	-10.7366
▁homeless	-10.7367
▁belonged	-10.7369
▁designing	-10.7371
▁marked	-10.7373
▁giri	-10.7373
▁dresses	-10.7373
▁counter	-10.7375
▁gray	-10.7377
▁glasses	-10.7381
▁vitamins	-10.7381
▁bananas	-10.7381
▁appearances	-10.7381
▁striker	-10.7381
▁loving	-10.7384
▁mmmmmm	-10.7385
▁lines	-10.7385
▁squawk	-10.7387
▁painting	-10.7388
rubber	-10.7388
▁litter	-10.7388
▁germany	-10.7389
▁sour	-10.7392
▁added	-10.7395
▁au	-10.7398
▁wax	-10.7399
ization	-10.7403
▁wander	-10.7403
▁tricked	-10.7405
▁reliable	-10.7406
▁commanding	-10.7407
▁butbut	-10.7408
▁diseases	-10.7408
▁features	-10.7409
▁donations	-10.7409
ons	-10.7411
▁equals	-10.7412
▁woke	-10.7412
▁sailing	-10.7412
▁moose	-10.7416
▁mechanic	-10.7417
▁roam	-10.7418
▁knees	-10.7423
▁pays	-10.7424
▁ban	-10.7425
▁fatal	-10.7427
▁gloves	-10.7431
▁raised	-10.7435
▁contestants	-10.7438
▁tender	-10.7438
▁teiiing	-10.7441
▁copy	-10.7444
▁cells	-10.7444
▁hustle	-10.7444
▁fries	-10.7445
▁newman	-10.7446
▁firing	-10.7449
▁tele	-10.7455
▁aca	-10.7456
▁meters	-10.7462
▁sang	-10.7462
nity	-10.7464
▁dances	-10.7466
▁wunkos	-10.7466
▁relationships	-10.7467
▁holler	-10.7468
▁ability	-10.747
▁meals	-10.7471
▁tunes	-10.7472
▁foundation	-10.7472
▁adding	-10.7493
▁kicked	-10.7493
▁devices	-10.7495
▁employees	-10.7495
▁coal	-10.7497
ology	-10.7502
▁damned	-10.751
▁fooled	-10.7511
▁sneezes	-10.7512
▁unload	-10.7512
▁devils	-10.7519
▁groov	-10.7521
▁chimpanzees	-10.7524
▁instructors	-10.7524
▁del	-10.753
▁ignore	-10.7536
▁ruff	-10.7538
▁cal	-10.7542
▁honored	-10.7547
▁permit	-10.756
▁coup	-10.7563
iks	-10.7568
▁at	-10.7568
▁mortals	-10.7579
▁acid	-10.7585
▁prisoners	-10.7587
▁wee	-10.7588
liant	-10.7595
▁yells	-10.7596
▁timmys	-10.7607
▁races	-10.7609
▁drain	-10.7616
▁cleaning	-10.7627
▁bella	-10.7634
▁noises	-10.7636
▁cameras	-10.7637
not	-10.7642
▁younger	-10.7654
▁exceptional	-10.7655
venue	-10.7655
▁tales	-10.7656
▁cub	-10.7665
▁subjects	-10.7666
ze	-10.7666
▁graces	-10.7669
just	-10.7675
▁parking	-10.7677
▁musical	-10.7678
▁slots	-10.7691
▁goals	-10.7694
omic	-10.7697
▁goro	-10.7704
▁bearing	-10.7707
▁reduce	-10.7707
▁rooms	-10.7713
▁scramble	-10.772
▁sym	-10.7725
▁scores	-10.773
▁rivers	-10.7733
▁dudes	-10.775
val	-10.7765
ri	-10.7787
mmhmm	-10.7792
▁reaching	-10.7798
▁kar	-10.7798
▁normans	-10.7805
▁eats	-10.7808
▁suppl	-10.7817
▁pets	-10.7819
ence	-10.7834
tch	-10.7834
▁spit	-10.7845
▁sling	-10.7848
othy	-10.7903
vi	-10.7913
ledge	-10.7913
▁nicely	-10.7916
▁crimes	-10.7921
▁accus	-10.7927
▁faced	-10.7933
▁risks	-10.7933
bo	-10.7948
▁tellin	-10.7949
▁teddys	-10.795
▁spindles	-10.7951
▁thunderbirds	-10.7952
▁watched	-10.7955
▁ware	-10.7958
▁organ	-10.7961
▁scrub	-10.7985
▁lane	-10.7989
▁stress	-10.7993
▁repre	-10.8006
▁answering	-10.8008
inky	-10.8019
iii	-10.8027
▁clem	-10.8039
▁patch	-10.805
▁infinite	-10.8052
inner	-10.8055
▁ham	-10.8066
ub	-10.8066
▁tastes	-10.8067
▁gardens	-10.8096
▁sells	-10.8117
▁bills	-10.8136
▁spots	-10.8137
ath	-10.814
▁fantasian	-10.8146
▁oohooh	-10.8149
▁salt	-10.8156
▁sal	-10.8168
▁this	-10.8178
hole	-10.8181
▁plum	-10.8193
▁brighte	-10.8206
▁tw	-10.8235
▁adventures	-10.8236
▁seri	-10.824
▁cart	-10.826
▁islands	-10.8266
▁thick	-10.827
ight	-10.828
driven	-10.8282
▁boa	-10.8283
field	-10.8294
▁budd	-10.83
▁tu	-10.8302
▁din	-10.8302
neer	-10.8311
▁grounds	-10.8318
▁boats	-10.833
▁bur	-10.8336
▁hyun	-10.8349
▁engineer	-10.8356
▁sid	-10.836
▁rat	-10.8363
roll	-10.8372
▁joins	-10.8386
▁bust	-10.8392
▁pm	-10.8395
▁hem	-10.84
▁cas	-10.8405
wick	-10.8406
▁hurting	-10.8415
▁specially	-10.8416
▁devote	-10.8441
test	-10.8463
si	-10.8471
▁vari	-10.8479
bble	-10.848
brain	-10.8481
tangled	-10.8481
▁reports	-10.8498
ber	-10.851
ps	-10.8512
▁mat	-10.8512
zen	-10.8513
ition	-10.8515
▁controls	-10.8526
▁and	-10.8529
▁parad	-10.8534
ten	-10.8551
▁futures	-10.8558
▁gunk	-10.8578
bellie	-10.8605
▁attacks	-10.8605
lined	-10.8608
▁bars	-10.8644
den	-10.8657
standing	-10.8661
▁wor	-10.8666
its	-10.8668
hoo	-10.8683
▁honors	-10.8691
▁toad	-10.8697
phant	-10.8699
▁travell	-10.8704
▁je	-10.8704
▁tor	-10.871
▁ju	-10.8727
▁reader	-10.8734
ith	-10.8735
▁understanding	-10.8736
ta	-10.8737
▁tro	-10.874
▁radios	-10.8747
▁cakes	-10.8773
▁woe	-10.8808
▁racer	-10.8863
uary	-10.8871
aaagh	-10.888
▁goat	-10.8881
car	-10.8895
▁ego	-10.8908
▁sack	-10.8914
ax	-10.8924
▁twi	-10.8929
▁dong	-10.8936
▁rhythm	-10.8946
▁dash	-10.8954
▁occur	-10.8966
asting	-10.8967
ens	-10.897
▁anyways	-10.898
thats	-10.899
▁ditch	-10.8997
▁goner	-10.8998
talk	-10.9017
ler	-10.9024
chi	-10.904
▁returns	-10.9045
▁aaa	-10.9088
▁beer	-10.9111
▁swed	-10.9118
▁holds	-10.9142
iness	-10.9144
▁forty	-10.9148
▁rug	-10.9148
▁utter	-10.9166
ammy	-10.9174
▁comp	-10.9178
med	-10.9183
que	-10.9191
ky	-10.9202
▁haul	-10.9208
▁seek	-10.9211
▁throws	-10.9221
ise	-10.9244
▁fr	-10.9254
▁princes	-10.9257
▁conc	-10.926
ockadiddledoodle	-10.9317
▁pu	-10.9326
▁charm	-10.9332
act	-10.9351
okay	-10.9369
▁forbid	-10.9394
▁cra	-10.9398
piece	-10.9409
▁abdu	-10.9424
▁defen	-10.9427
father	-10.9434
room	-10.9438
can	-10.9439
▁mart	-10.9441
nic	-10.9441
▁norm	-10.9441
lock	-10.9447
▁that	-10.945
where	-10.9451
minute	-10.946
ol	-10.9466
ugh	-10.9472
▁thin	-10.9473
▁vo	-10.9475
ane	-10.9499
▁cop	-10.9503
ski	-10.9509
▁christ	-10.9513
▁wret	-10.9522
▁web	-10.9525
bury	-10.9537
class	-10.9541
weight	-10.9546
cycle	-10.9551
ff	-10.9553
boat	-10.9555
ast	-10.956
▁rattle	-10.9561
box	-10.9569
knowledge	-10.9574
▁trem	-10.9583
▁poop	-10.9584
▁outdoor	-10.9603
▁usurper	-10.9631
▁uniform	-10.9631
▁lizard	-10.9632
▁glider	-10.9642
▁whale	-10.9643
▁explode	-10.9649
▁spectacle	-10.9649
▁statue	-10.9651
▁vitamin	-10.9652
▁demon	-10.9652
▁relative	-10.9652
▁steak	-10.9653
▁monarch	-10.9655
▁result	-10.9655
▁appearance	-10.9658
▁muscle	-10.9659
▁mask	-10.966
▁astronaut	-10.9662
▁crab	-10.9666
▁dollar	-10.9672
▁cheek	-10.9672
gan	-10.9673
▁sec	-10.9681
▁dee	-10.9682
▁jig	-10.9685
▁banana	-10.9689
▁shade	-10.9692
▁circl	-10.9695
ished	-10.9705
▁embarrass	-10.9708
▁bloom	-10.9709
▁connect	-10.9711
▁sees	-10.9715
▁roo	-10.9715
▁sting	-10.9719
▁chill	-10.9721
▁chunk	-10.9724
▁grub	-10.9725
▁rehears	-10.9735
▁shiver	-10.9737
▁complex	-10.974
▁jan	-10.9741
wear	-10.9746
▁smack	-10.9748
gas	-10.9751
▁describe	-10.9752
▁admire	-10.9753
▁arrange	-10.9753
▁convince	-10.9755
▁sustain	-10.9756
▁glow	-10.9758
▁function	-10.976
▁dart	-10.9765
▁thorough	-10.9766
▁tomato	-10.9766
emic	-10.9767
▁demi	-10.9767
▁cluck	-10.9767
▁sketch	-10.9768
▁immediate	-10.9769
▁leak	-10.977
▁screw	-10.977
▁kur	-10.9774
polis	-10.9774
▁spun	-10.9775
▁runnin	-10.9777
▁dancin	-10.9778
▁select	-10.9778
scope	-10.9779
▁leavin	-10.9779
▁automatic	-10.9779
▁industrial	-10.9779
▁transport	-10.9779
▁scram	-10.978
acquainted	-10.978
ometric	-10.978
▁acquaintance	-10.978
▁activities	-10.978
▁adamant	-10.978
▁adrenaline	-10.978
▁alternative	-10.978
▁anniversary	-10.978
▁apprehend	-10.978
▁argentina	-10.978
▁arizona	-10.978
▁arrogant	-10.978
▁artifacts	-10.978
▁artificial	-10.978
▁australia	-10.978
▁barbecue	-10.978
▁behaving	-10.978
▁behavior	-10.978
▁bickerstaff	-10.978
▁britewell	-10.978
▁carjackers	-10.978
▁caution	-10.978
▁charlemagne	-10.978
▁chauffeur	-10.978
▁cockadoodledo	-10.978
▁colleague	-10.978
▁coreander	-10.978
▁cyclerepairer	-10.978
▁disrespect	-10.978
▁dizzy	-10.978
▁dungeon	-10.978
▁elevator	-10.978
▁exercise	-10.978
▁explanation	-10.978
▁exquisite	-10.978
▁fluffy	-10.978
▁fortynine	-10.978
▁froglib	-10.978
▁ghidorah	-10.978
▁gimmick	-10.978
▁gladiator	-10.978
▁harvard	-10.978
▁helicopter	-10.978
▁hurrah	-10.978
▁hurricane	-10.978
▁identify	-10.978
▁iguana	-10.978
▁illuzor	-10.978
▁incompetent	-10.978
▁indispensable	-10.978
▁infinity	-10.978
▁ingredients	-10.978
▁kaukau	-10.978
▁korkona	-10.978
▁limerick	-10.978
▁lindbergh	-10.978
▁lobby	-10.978
▁marpole	-10.978
▁marsupial	-10.978
▁masalva	-10.978
▁mcgreevy	-10.978
▁mongrel	-10.978
▁necessarily	-10.978
▁negative	-10.978
▁nimara	-10.978
▁nourish	-10.978
▁ogelvie	-10.978
▁panzius	-10.978
▁paxton	-10.978
▁postcard	-10.978
▁preposterous	-10.978
▁prettier	-10.978
▁principles	-10.978
▁proclamation	-10.978
▁relief	-10.978
▁rollsroyce	-10.978
▁roquefort	-10.978
▁sabotage	-10.978
▁santiago	-10.978
▁sasquatch	-10.978
▁shattuck	-10.978
▁shuddering	-10.978
▁skulduggery	-10.978
▁smirkle	-10.978
▁snarls	-10.978
▁sphinx	-10.978
▁tuesday	-10.978
▁underneath	-10.978
▁waziya	-10.978
▁zombie	-10.978
▁disastrous	-10.978
▁gilbert	-10.978
▁hehhehheh	-10.978
▁illinois	-10.978
▁japan	-10.978
▁jinx	-10.978
▁joseph	-10.978
▁nelson	-10.978
▁rupert	-10.978
▁vinegar	-10.978
▁delicate	-10.978
▁entrancing	-10.978
▁fossil	-10.978
▁haruno	-10.978
▁maisie	-10.978
▁maldue	-10.978
▁paradox	-10.978
▁sungmin	-10.978
▁commence	-10.978
▁flavius	-10.978
▁aweigh	-10.978
▁bullseye	-10.978
▁duchess	-10.978
▁alaska	-10.978
▁backpack	-10.978
▁cotton	-10.978
▁disqualified	-10.978
▁lynx	-10.978
▁supersede	-10.978
▁cigar	-10.978
▁satisfied	-10.978
▁extend	-10.978
▁luggage	-10.978
▁slinkys	-10.978
▁neighbourhood	-10.978
▁vinnie	-10.978
▁sidney	-10.978
▁beagle	-10.978
▁scorpi	-10.978
▁briefcase	-10.978
▁extinguish	-10.978
▁irritating	-10.978
▁rejoice	-10.978
▁reconsider	-10.978
▁costume	-10.978
▁disposition	-10.978
▁eyelash	-10.978
▁crisis	-10.978
▁milord	-10.978
▁charities	-10.978
▁helga	-10.978
▁julius	-10.978
▁remote	-10.978
▁aviation	-10.978
▁strangled	-10.978
▁econom	-10.978
▁sworn	-10.9781
▁destructor	-10.9781
▁judgment	-10.9781
▁sasha	-10.9781
▁vanished	-10.9781
▁ignorance	-10.9781
▁dickens	-10.9781
▁donuts	-10.9781
▁existence	-10.9781
▁kurdy	-10.9781
▁flush	-10.9781
▁greece	-10.9781
▁index	-10.9781
▁ballpark	-10.9781
▁chopped	-10.9781
▁inquisitive	-10.9781
▁bannerman	-10.9781
▁crosscountry	-10.9781
▁fairytale	-10.9781
▁commitment	-10.9781
▁southern	-10.9781
▁gunshot	-10.9781
▁critical	-10.9781
▁bluebird	-10.9781
▁lalalalala	-10.9781
▁refraction	-10.9781
▁labour	-10.9781
▁rap	-10.9781
▁addition	-10.9781
▁pedal	-10.9781
▁wkla	-10.9781
▁garage	-10.9781
▁mantis	-10.9781
▁louvre	-10.9781
▁customers	-10.9781
▁slept	-10.9781
▁singsong	-10.9781
▁generator	-10.9781
▁magoo	-10.9781
▁meowth	-10.9781
▁celebration	-10.9782
▁greenhill	-10.9782
▁assess	-10.9782
▁fundraiser	-10.9782
▁ethic	-10.9782
▁recommendation	-10.9782
▁groceries	-10.9782
▁sandstone	-10.9782
▁burger	-10.9782
▁casual	-10.9782
▁harley	-10.9782
▁disused	-10.9782
▁unveil	-10.9782
▁echo	-10.9782
▁vander	-10.9782
▁doggie	-10.9782
▁upside	-10.9782
▁bugging	-10.9782
▁fungus	-10.9783
▁literary	-10.9783
▁panel	-10.9783
▁ridge	-10.9783
▁iunch	-10.9783
▁slaughter	-10.9783
▁online	-10.9783
▁truce	-10.9783
▁banished	-10.9783
▁jazz	-10.9783
▁sniffling	-10.9783
▁companion	-10.9783
▁incidentally	-10.9783
▁hayley	-10.9783
randall	-10.9783
▁defenseless	-10.9783
gratitude	-10.9784
▁desk	-10.9784
▁jester	-10.9784
▁spunk	-10.9784
▁dragged	-10.9784
▁granger	-10.9784
▁saddle	-10.9784
▁session	-10.9784
▁copies	-10.9784
▁wrestling	-10.9784
▁transmitted	-10.9784
▁kidnapping	-10.9784
▁clumsy	-10.9784
▁popped	-10.9784
▁classroom	-10.9784
▁detective	-10.9784
▁scu	-10.9784
▁drift	-10.9784
▁anatomy	-10.9784
▁satisfy	-10.9784
▁checkmate	-10.9784
▁dotty	-10.9784
▁peaceful	-10.9784
▁slamming	-10.9785
▁frustrated	-10.9785
▁detonate	-10.9785
▁munic	-10.9785
▁poem	-10.9785
▁mystery	-10.9785
▁relentless	-10.9785
▁roast	-10.9785
▁coverage	-10.9785
▁recently	-10.9786
▁caroline	-10.9786
▁panda	-10.9786
▁plumb	-10.9786
▁chitters	-10.9786
▁grease	-10.9786
▁straw	-10.9786
▁etern	-10.9786
▁mario	-10.9787
▁spicy	-10.9787
▁hiram	-10.9787
▁feedback	-10.9787
▁conquest	-10.9787
▁waik	-10.9787
▁hawaiian	-10.9787
▁orphanage	-10.9787
▁decade	-10.9787
▁lu	-10.9787
▁refreshing	-10.9787
▁reporter	-10.9787
▁dropping	-10.9788
▁mummy	-10.9788
▁flaming	-10.9788
▁overcome	-10.9788
▁surgeon	-10.9788
▁compound	-10.9788
▁chef	-10.9788
▁psyched	-10.9789
▁wager	-10.9789
▁violation	-10.9789
▁roaring	-10.9789
▁admitted	-10.9789
▁chaos	-10.9789
▁kitty	-10.9789
▁johnson	-10.9789
▁rival	-10.9789
▁mamma	-10.979
▁invitational	-10.979
▁advertising	-10.979
▁ballroom	-10.979
▁hisses	-10.979
▁vase	-10.979
▁renew	-10.979
▁data	-10.979
▁rail	-10.979
▁noodle	-10.979
▁leash	-10.9791
▁wrecked	-10.9791
▁maki	-10.9791
▁bench	-10.9791
▁rosy	-10.9791
▁occurred	-10.9791
▁conceal	-10.9792
▁laundr	-10.9792
▁noah	-10.9792
▁naomi	-10.9792
▁typical	-10.9792
▁injured	-10.9793
▁grover	-10.9793
endous	-10.9793
▁selfre	-10.9794
▁alongside	-10.9794
▁worthless	-10.9794
▁vertical	-10.9794
▁moth	-10.9794
▁distress	-10.9794
▁obsess	-10.9794
▁babies	-10.9795
▁protection	-10.9795
▁surprising	-10.9795
▁luckily	-10.9795
▁creep	-10.9795
▁dishes	-10.9796
berg	-10.9796
▁cocoa	-10.9796
▁yelp	-10.9796
▁china	-10.9798
▁income	-10.9798
▁observe	-10.9798
flutter	-10.9798
▁atmosphere	-10.9798
▁geez	-10.9798
▁causing	-10.9799
▁potatoes	-10.9799
▁patron	-10.9799
▁protesting	-10.98
▁straining	-10.98
▁chatter	-10.98
▁baseman	-10.9801
▁paree	-10.9801
▁wiggins	-10.9801
▁soil	-10.9801
▁tourists	-10.9802
▁afterwards	-10.9802
▁rumors	-10.9802
zzing	-10.9802
▁relations	-10.9802
▁seize	-10.9803
▁awaken	-10.9803
▁thud	-10.9803
▁tapping	-10.9803
▁boop	-10.9804
▁socks	-10.9804
▁superman	-10.9804
▁brady	-10.9804
▁biii	-10.9805
▁ranks	-10.9805
▁bedtime	-10.9805
▁spoon	-10.9805
▁freshman	-10.9805
▁connected	-10.9806
▁july	-10.9807
▁dome	-10.9807
▁preparing	-10.9808
▁cleaners	-10.9808
▁sac	-10.9809
▁busted	-10.9809
▁struggle	-10.9809
▁matilde	-10.9809
▁draft	-10.9809
▁slipping	-10.981
▁torn	-10.981
▁designer	-10.9811
▁lisa	-10.9811
▁earning	-10.9811
▁waahoo	-10.9812
▁caii	-10.9812
▁consistent	-10.9813
▁stuttering	-10.9813
▁prank	-10.9814
▁bleating	-10.9816
▁fabric	-10.9817
▁shant	-10.9818
▁altitude	-10.9819
▁editing	-10.9819
▁requested	-10.9819
▁kansas	-10.982
▁emma	-10.982
▁habitat	-10.982
▁developed	-10.982
▁kerchief	-10.982
▁repay	-10.9822
▁rude	-10.9822
▁tension	-10.9823
upiter	-10.9824
▁bugged	-10.9824
▁larry	-10.9824
▁drug	-10.9825
▁shivering	-10.9825
▁deaf	-10.9825
▁praised	-10.9825
▁rehearsing	-10.9826
▁brooke	-10.9826
▁betty	-10.9826
▁embarrassing	-10.9826
▁required	-10.9828
▁quant	-10.9829
▁airship	-10.983
▁sieep	-10.983
▁guaranteed	-10.983
▁grill	-10.9831
▁beak	-10.9831
▁fleas	-10.9833
▁tshirt	-10.9834
▁comic	-10.9834
▁neigh	-10.9834
▁sponsored	-10.9834
▁disturbed	-10.9834
▁shipment	-10.9834
▁tubes	-10.9836
etically	-10.9837
▁pouring	-10.9837
▁oink	-10.9837
hi	-10.9838
▁an	-10.9839
▁resources	-10.9839
▁dinging	-10.9839
▁directed	-10.984
▁taller	-10.984
▁logical	-10.984
▁shovel	-10.984
▁hence	-10.984
▁shave	-10.9841
▁eliminated	-10.9842
▁badge	-10.9843
▁lamb	-10.9843
▁prevent	-10.9843
▁representing	-10.9844
▁bolts	-10.9844
▁actor	-10.9845
▁stutter	-10.9845
▁resent	-10.9846
rus	-10.9847
▁grind	-10.9848
▁tickle	-10.9848
▁possibility	-10.9849
▁cursed	-10.985
▁suspected	-10.985
▁stretching	-10.985
▁prosper	-10.9851
▁reasonable	-10.9852
▁ticking	-10.9853
▁washed	-10.9854
▁saris	-10.9854
▁profit	-10.9856
▁guided	-10.9858
iers	-10.9858
stood	-10.9859
▁motive	-10.9859
▁yelled	-10.986
▁handling	-10.986
▁brad	-10.9861
nstein	-10.9864
▁carter	-10.9867
▁transform	-10.9867
▁imbecile	-10.9869
▁rig	-10.987
▁buddys	-10.987
▁flares	-10.9873
▁useful	-10.9874
▁agh	-10.9875
▁aero	-10.9875
▁peanuts	-10.9875
▁bumblebees	-10.9875
▁commercials	-10.9875
memorial	-10.9877
▁bullets	-10.9878
▁barky	-10.9879
▁rushed	-10.988
▁included	-10.988
▁presume	-10.9881
▁softly	-10.9881
▁bean	-10.9881
▁breeding	-10.9882
▁cease	-10.9883
▁liqu	-10.9883
▁crawl	-10.9884
▁suited	-10.9885
▁bugle	-10.9885
▁chicks	-10.9886
▁strand	-10.9886
▁ideals	-10.9886
▁programmed	-10.9887
▁formation	-10.9889
▁ollie	-10.9889
▁rang	-10.9889
▁expression	-10.9889
▁filming	-10.9889
▁canyoneers	-10.989
▁darts	-10.9894
des	-10.9894
▁wimp	-10.9894
▁cheeks	-10.9897
ize	-10.9901
▁hup	-10.9905
▁sinking	-10.9906
▁scored	-10.9906
▁festiv	-10.9907
▁settled	-10.9911
▁statues	-10.9911
▁riches	-10.9911
▁spectacles	-10.9913
▁peak	-10.9916
▁relaxes	-10.9916
▁assign	-10.9917
▁phil	-10.992
▁froth	-10.9921
ker	-10.9921
▁mechanics	-10.9923
▁whales	-10.9924
▁flaw	-10.9925
▁heroes	-10.9926
▁bigtime	-10.9926
ssary	-10.9931
▁prick	-10.9936
▁pelt	-10.9936
▁ruining	-10.9938
▁numberone	-10.994
▁pity	-10.9942
▁temporar	-10.9943
▁coward	-10.9945
▁dangerously	-10.9946
▁suggestion	-10.9946
▁seated	-10.9946
▁terms	-10.9947
▁searched	-10.9948
▁edit	-10.9949
▁wig	-10.9953
▁anti	-10.9955
▁liana	-10.9956
▁finishes	-10.9957
▁pic	-10.9959
▁gap	-10.9961
▁blessed	-10.9962
option	-10.9963
▁defy	-10.9963
wise	-10.9968
▁merge	-10.9968
▁fork	-10.9971
▁messed	-10.9972
▁helpful	-10.9974
▁halls	-10.9974
▁logs	-10.9974
piace	-10.9977
▁mare	-10.9978
▁marketing	-10.9978
▁materials	-10.9988
▁sob	-10.9988
▁cooler	-10.9991
tender	-10.9992
▁filling	-10.9992
▁visitors	-10.9992
▁movements	-10.9994
▁seii	-10.9998
equenc	-10.9999
▁passes	-11.0009
▁foreigner	-11.0014
▁install	-11.0016
▁wound	-11.0018
▁clowns	-11.0019
▁tasted	-11.002
▁dancers	-11.0022
▁techniques	-11.0026
handed	-11.0028
▁laughed	-11.003
▁cleaned	-11.0032
▁virtue	-11.0033
▁what	-11.0035
ddy	-11.0035
▁awfui	-11.0044
▁bri	-11.0045
▁docker	-11.0049
▁stable	-11.005
▁workers	-11.0051
▁catcher	-11.0051
▁titles	-11.0052
▁bein	-11.0053
▁worm	-11.0056
▁parked	-11.0057
▁ox	-11.0058
▁tryin	-11.006
▁rogers	-11.0062
eers	-11.0063
▁div	-11.0068
▁quarters	-11.0069
▁ieave	-11.0075
▁disagree	-11.0076
▁ton	-11.0076
▁commission	-11.0078
▁hips	-11.0081
rent	-11.0085
▁bait	-11.0085
▁trials	-11.0093
▁recover	-11.0094
▁greet	-11.0098
▁adults	-11.01
▁safer	-11.0102
gue	-11.0107
well	-11.0108
▁sl	-11.0113
▁rea	-11.0116
▁cue	-11.0122
icy	-11.0134
▁iand	-11.0137
▁pups	-11.014
▁welcom	-11.0142
▁brands	-11.0144
sion	-11.0154
▁ses	-11.0156
▁tips	-11.0157
▁mole	-11.016
▁strays	-11.0162
▁insists	-11.0163
▁heights	-11.0171
▁illusions	-11.0177
▁shoulders	-11.019
▁amp	-11.0192
▁retreat	-11.0197
bound	-11.0199
▁scenes	-11.0201
▁belonging	-11.0202
vation	-11.0205
lar	-11.0206
stream	-11.0209
▁nightmares	-11.0214
▁roots	-11.0221
ough	-11.0225
▁tang	-11.0225
cadi	-11.0227
▁associate	-11.0228
▁deli	-11.0228
ram	-11.0231
▁ramp	-11.024
▁dun	-11.0247
rious	-11.0254
▁trusted	-11.0254
▁sakes	-11.0255
▁tyran	-11.0272
▁tinkl	-11.0277
enti	-11.031
▁yang	-11.0311
tran	-11.0313
▁tran	-11.0321
▁clu	-11.0324
venge	-11.0325
▁stitch	-11.0326
▁fooling	-11.0354
▁rockets	-11.0369
▁stones	-11.038
▁mor	-11.0387
ya	-11.0387
▁soak	-11.039
▁waits	-11.0392
▁justi	-11.0394
▁sole	-11.0397
▁clubs	-11.0397
▁candles	-11.0399
page	-11.0402
▁rad	-11.0419
▁holes	-11.043
▁types	-11.0431
▁marrying	-11.0441
▁needle	-11.0448
▁heir	-11.045
ins	-11.0451
izing	-11.0471
▁ithe	-11.0471
ving	-11.0473
▁experiments	-11.0475
ni	-11.0478
▁app	-11.0479
▁mumble	-11.0487
▁nick	-11.0513
▁heavi	-11.0514
▁summ	-11.0529
▁flats	-11.053
▁iit	-11.0531
awa	-11.0546
ened	-11.0557
protective	-11.0571
ms	-11.0577
▁stunn	-11.0577
▁feeds	-11.0581
▁fashions	-11.0588
▁beard	-11.0593
yahoo	-11.0596
▁mock	-11.0617
▁firm	-11.0636
night	-11.064
▁crud	-11.0644
▁timber	-11.0665
eez	-11.0666
▁finer	-11.0676
ome	-11.0677
▁imp	-11.0679
▁crib	-11.0682
▁roads	-11.0697
ust	-11.0704
▁fellows	-11.0716
▁beave	-11.0717
▁sayin	-11.0726
▁seats	-11.0727
▁bites	-11.0732
▁emperors	-11.074
▁iong	-11.0743
good	-11.0747
heart	-11.0749
▁dame	-11.0752
▁exhaust	-11.0772
▁gifts	-11.0772
▁relieve	-11.0777
▁phon	-11.0812
donna	-11.0822
▁interests	-11.0829
▁pies	-11.0838
▁corners	-11.0844
epid	-11.0848
▁advertise	-11.0891
▁shown	-11.0893
▁tracks	-11.0899
bles	-11.0903
▁vip	-11.0905
▁skis	-11.0913
▁bra	-11.0915
ellis	-11.0916
▁ins	-11.0917
ai	-11.0919
▁limp	-11.0921
▁boil	-11.093
▁pas	-11.0938
▁object	-11.094
▁trips	-11.0942
bra	-11.0944
ana	-11.0945
tin	-11.096
▁tabi	-11.096
▁just	-11.0979
▁ithat	-11.0981
▁bal	-11.0982
pping	-11.1003
▁lip	-11.1022
ester	-11.1024
▁pleasures	-11.1028
ex	-11.1029
▁bats	-11.1034
▁sri	-11.1055
▁excuses	-11.1068
▁bake	-11.1088
▁bail	-11.109
▁gin	-11.1101
▁houses	-11.1106
eau	-11.1132
▁will	-11.114
▁stations	-11.1145
rays	-11.1153
itched	-11.1179
▁hills	-11.1179
▁sounding	-11.1183
yuk	-11.1198
▁dares	-11.122
▁athe	-11.1235
rians	-11.1254
▁kicks	-11.1262
▁energ	-11.1278
▁sow	-11.1279
unny	-11.128
▁heater	-11.1288
▁bay	-11.1315
▁doo	-11.1334
▁understands	-11.1339
bing	-11.1344
lance	-11.1353
cent	-11.1353
▁corpora	-11.136
▁am	-11.1375
oring	-11.1389
rass	-11.139
za	-11.1392
sting	-11.14
▁av	-11.1418
▁smiles	-11.1418
▁el	-11.1434
li	-11.1437
▁hopeful	-11.146
▁forc	-11.1467
▁pope	-11.1485
▁pear	-11.1498
ina	-11.1503
ja	-11.1509
ency	-11.1519
top	-11.1523
anc	-11.1533
▁spe	-11.1541
▁snatch	-11.1547
itti	-11.1549
mma	-11.1553
▁inn	-11.1554
▁wr	-11.1555
▁cho	-11.1569
etic	-11.1572
▁doublecross	-11.1575
▁operate	-11.1585
▁gall	-11.1585
▁missy	-11.1614
▁ate	-11.1615
▁def	-11.1624
wart	-11.1626
▁cre	-11.1636
▁fin	-11.1647
anada	-11.1648
ucks	-11.1649
gging	-11.1652
▁scal	-11.1665
▁radi	-11.1671
itting	-11.1688
stone	-11.1689
▁runt	-11.169
full	-11.1697
▁surviv	-11.1709
ou	-11.1723
apped	-11.1729
ening	-11.1755
▁tra	-11.1772
▁introduc	-11.1772
▁sol	-11.1782
▁sho	-11.1785
▁greener	-11.182
▁shots	-11.1824
▁the	-11.1836
unk	-11.185
mate	-11.1864
▁ve	-11.1866
▁feller	-11.1876
▁civil	-11.1883
kl	-11.1888
▁jo	-11.189
▁quits	-11.1896
▁dodg	-11.1903
▁morti	-11.192
lin	-11.1923
slipped	-11.1925
ncible	-11.1926
▁prem	-11.1936
▁calculat	-11.1948
▁hung	-11.1948
▁as	-11.1978
▁more	-11.1985
omination	-11.1991
▁hail	-11.1993
▁str	-11.1999
▁celebis	-11.2009
cu	-11.2018
▁ph	-11.2035
▁desp	-11.205
▁wis	-11.2061
used	-11.207
cat	-11.209
▁bab	-11.2095
nes	-11.2118
ran	-11.2122
put	-11.2147
▁kills	-11.2175
▁pl	-11.2178
als	-11.2186
▁checker	-11.2188
ool	-11.2189
▁sc	-11.221
anda	-11.2222
phony	-11.224
▁bel	-11.2265
▁suns	-11.2282
▁organiz	-11.2295
▁fund	-11.23
ments	-11.2308
▁slam	-11.231
unning	-11.2322
claim	-11.2323
oran	-11.2344
▁not	-11.2355
nny	-11.2379
▁fright	-11.2387
▁fla	-11.2387
▁hive	-11.2392
▁crumb	-11.2402
▁continu	-11.2416
▁activate	-11.2419
▁op	-11.2433
action	-11.2434
rts	-11.2435
▁maniac	-11.2438
long	-11.245
hee	-11.2457
bbing	-11.2458
erol	-11.2468
▁follows	-11.2475
erature	-11.2485
world	-11.2506
uch	-11.2536
don	-11.2569
bed	-11.2601
▁oohoohooh	-11.2608
sa	-11.2618
pid	-11.2627
▁ssh	-11.2632
▁reel	-11.2639
▁chit	-11.2643
flight	-11.2659
▁wil	-11.2661
▁caf	-11.2687
ense	-11.2693
choo	-11.2717
dible	-11.272
believe	-11.2721
▁syn	-11.2722
this	-11.2725
thesis	-11.2728
▁chatt	-11.2735
▁bong	-11.2736
▁ravage	-11.2738
▁concentrat	-11.2739
▁voi	-11.274
city	-11.274
▁wonders	-11.2755
dder	-11.2756
rd	-11.2764
forth	-11.2768
cut	-11.278
hold	-11.2796
▁predict	-11.2801
second	-11.2803
perfect	-11.2809
▁beca	-11.2814
josh	-11.2815
cause	-11.2824
part	-11.2824
▁jam	-11.2826
born	-11.2831
loo	-11.2834
graph	-11.2835
range	-11.2835
ground	-11.2844
ified	-11.2844
minent	-11.2859
fall	-11.2861
filled	-11.2866
▁sham	-11.2867
secret	-11.2874
▁gir	-11.2874
lucky	-11.2875
signed	-11.2875
human	-11.2878
▁soo	-11.2878
▁stays	-11.2878
ently	-11.2881
bald	-11.2884
done	-11.2888
▁zip	-11.2891
budget	-11.2892
skull	-11.2893
ose	-11.2894
ouve	-11.2895
reliable	-11.2895
driver	-11.2903
▁que	-11.2907
grown	-11.2907
expected	-11.2908
wards	-11.2911
▁skipp	-11.2914
key	-11.2914
science	-11.2919
▁canyoneer	-11.2922
wheel	-11.2934
dust	-11.2949
▁dump	-11.2953
confident	-11.2958
▁prob	-11.2963
▁discus	-11.2966
▁digging	-11.2968
headed	-11.297
▁festival	-11.2971
ail	-11.2972
known	-11.2973
▁chick	-11.2976
▁cylinder	-11.2977
▁recruit	-11.2977
▁curtain	-11.2977
▁tribe	-11.2982
▁commercial	-11.2982
▁bumblebee	-11.2982
▁peanut	-11.2983
▁bullet	-11.2984
aged	-11.2985
▁newspaper	-11.2986
▁measure	-11.2987
▁penguin	-11.2988
▁affair	-11.2989
▁intention	-11.299
▁button	-11.2991
▁competitor	-11.2991
▁insect	-11.2992
▁repair	-11.2992
▁archer	-11.2999
▁collector	-11.3001
elders	-11.3002
▁flare	-11.3003
▁arg	-11.3006
mine	-11.301
▁stair	-11.301
acy	-11.3012
▁billion	-11.3014
▁chuckle	-11.3018
▁disco	-11.302
self	-11.3034
▁capital	-11.3036
▁boxer	-11.3038
▁receiv	-11.3039
▁snoo	-11.3043
▁sauce	-11.3045
▁victori	-11.3048
▁threaten	-11.3048
▁experienc	-11.3049
tha	-11.3051
▁milli	-11.3054
▁sari	-11.3055
▁dared	-11.3056
pic	-11.3056
▁assum	-11.3059
ttle	-11.3066
▁disgust	-11.3068
▁flights	-11.3069
▁archi	-11.3069
▁argu	-11.307
▁reproduc	-11.3071
▁struggl	-11.3073
posed	-11.3073
▁annoy	-11.3075
ora	-11.3077
▁troop	-11.3077
▁shush	-11.3078
▁collapse	-11.3083
▁update	-11.3086
▁treacher	-11.3087
▁hai	-11.309
▁expose	-11.3091
run	-11.3092
▁racket	-11.3094
▁groom	-11.3094
▁phase	-11.3097
▁steer	-11.3098
▁impress	-11.3099
meter	-11.3099
▁execution	-11.3101
▁exact	-11.3104
▁buckle	-11.3104
nternational	-11.3106
▁india	-11.3107
▁glide	-11.3108
▁wouid	-11.311
▁definite	-11.3111
▁grocer	-11.3111
▁drivin	-11.3113
▁mcqu	-11.3113
▁auction	-11.3113
▁fog	-11.3113
▁attend	-11.3113
▁favour	-11.3113
▁deraccoonif	-11.3113
cultivate	-11.3113
lepidoptera	-11.3113
▁abigail	-11.3113
▁adjourn	-11.3113
▁ambassador	-11.3113
▁anonymous	-11.3113
▁argentine	-11.3113
▁arrivederci	-11.3113
▁astrochimp	-11.3113
▁asylum	-11.3113
▁autumn	-11.3113
▁bayleef	-11.3113
▁berklee	-11.3113
▁burglar	-11.3113
▁cabbage	-11.3113
▁campaign	-11.3113
▁catastrophe	-11.3113
▁caviar	-11.3113
▁cetera	-11.3113
▁cheyenne	-11.3113
▁chigunk	-11.3113
▁coliseum	-11.3113
▁confucius	-11.3113
▁coocoo	-11.3113
▁copilot	-11.3113
▁curtis	-11.3113
▁discipline	-11.3113
▁endeavor	-11.3113
▁engywook	-11.3113
▁enterprise	-11.3113
▁entourage	-11.3113
▁envelope	-11.3113
▁evolution	-11.3113
▁forfeit	-11.3113
▁fujisaki	-11.3113
▁gesundheit	-11.3113
▁haiieiujah	-11.3113
▁hasslein	-11.3113
▁horizon	-11.3113
▁identical	-11.3113
▁impresario	-11.3113
▁initially	-11.3113
▁interfering	-11.3113
▁ippon	-11.3113
▁jaguar	-11.3113
▁jeremiah	-11.3113
▁kazuo	-11.3113
▁kilimanjaro	-11.3113
▁kokoyaki	-11.3113
▁ludovic	-11.3113
▁magnolia	-11.3113
▁malfunction	-11.3113
▁michigan	-11.3113
▁nephew	-11.3113
▁nowadays	-11.3113
▁obnoxious	-11.3113
▁obstacle	-11.3113
▁offspring	-11.3113
▁oldfashion	-11.3113
▁olivia	-11.3113
▁orchard	-11.3113
▁outsmart	-11.3113
▁pedigreed	-11.3113
▁peppermint	-11.3113
▁persontoperson	-11.3113
▁poverty	-11.3113
▁privilege	-11.3113
▁procedure	-11.3113
▁provisions	-11.3113
▁pyramid	-11.3113
▁rawlinson	-11.3113
▁recreation	-11.3113
▁refrigerat	-11.3113
▁review	-11.3113
▁scandal	-11.3113
▁schmidt	-11.3113
▁schroeder	-11.3113
▁simpson	-11.3113
▁skrimshank	-11.3113
▁speculation	-11.3113
▁sreekanth	-11.3113
▁stammers	-11.3113
▁submarine	-11.3113
▁supermarket	-11.3113
▁teppet	-11.3113
▁thursday	-11.3113
▁turbulence	-11.3113
▁tussle	-11.3113
▁tympani	-11.3113
▁unacceptable	-11.3113
▁unconscious	-11.3113
▁unravel	-11.3113
▁unreasonable	-11.3113
▁voorhees	-11.3113
▁worldfamous	-11.3113
▁yoohoo	-11.3113
▁yorkshire	-11.3113
▁disobe	-11.3113
▁enormous	-11.3113
▁faucet	-11.3113
▁flagpole	-11.3113
▁fracture	-11.3113
▁maneuver	-11.3113
▁protein	-11.3113
▁alexander	-11.3113
▁analysis	-11.3113
▁average	-11.3113
▁ballerina	-11.3113
▁bouncing	-11.3113
▁bouquet	-11.3113
▁capito	-11.3113
▁deceit	-11.3113
▁distinct	-11.3113
▁eccentric	-11.3113
▁frederick	-11.3113
▁generosity	-11.3113
▁historic	-11.3113
▁honeymoon	-11.3113
▁pitiful	-11.3113
▁revolt	-11.3113
▁rhody	-11.3113
▁serpent	-11.3113
▁syrup	-11.3113
▁tarnation	-11.3113
▁wyoming	-11.3113
▁ahjussi	-11.3113
▁bamboo	-11.3113
▁ferdie	-11.3113
▁haystack	-11.3113
▁identity	-11.3113
▁inhabitants	-11.3113
▁predicament	-11.3113
▁proposition	-11.3113
▁scrumptious	-11.3113
▁teresa	-11.3113
transistor	-11.3113
▁guerre	-11.3113
▁nutritio	-11.3113
▁porch	-11.3113
▁quivering	-11.3113
▁random	-11.3113
▁savanna	-11.3113
▁ultra	-11.3113
▁carburet	-11.3113
▁laboratory	-11.3113
▁lumberjack	-11.3113
▁amusing	-11.3113
▁influence	-11.3113
▁macklin	-11.3113
▁swayne	-11.3113
▁upbringing	-11.3113
▁gigantic	-11.3113
▁babcock	-11.3114
▁nashville	-11.3114
▁rosier	-11.3114
▁unwilling	-11.3114
rrupt	-11.3114
▁debate	-11.3114
▁glamor	-11.3114
▁huffs	-11.3114
▁ingenu	-11.3114
▁yadda	-11.3114
diggity	-11.3114
▁essential	-11.3114
▁intuiti	-11.3114
▁tyranitar	-11.3114
▁weasel	-11.3114
▁annette	-11.3114
▁conflict	-11.3114
▁confined	-11.3114
▁galvani	-11.3114
▁downstairs	-11.3114
▁hehheh	-11.3114
▁misdemeanor	-11.3114
▁numeric	-11.3114
▁outrage	-11.3114
▁pedro	-11.3114
▁trademark	-11.3114
▁tavern	-11.3114
▁turlip	-11.3114
▁courtmagician	-11.3114
▁downloaded	-11.3114
▁hoofer	-11.3114
▁intercept	-11.3114
▁marvellous	-11.3114
▁utili	-11.3114
▁intellectual	-11.3114
▁rubbish	-11.3114
▁violence	-11.3114
▁bruno	-11.3114
▁deductions	-11.3114
▁saloon	-11.3114
▁raspberr	-11.3114
▁spurt	-11.3114
▁atlas	-11.3114
▁destination	-11.3114
▁goodwill	-11.3114
▁imaginary	-11.3114
▁representative	-11.3114
▁shreds	-11.3114
▁chica	-11.3114
▁prompt	-11.3114
▁trifle	-11.3114
▁waska	-11.3114
▁choosing	-11.3114
▁seduction	-11.3114
▁irish	-11.3114
▁recognition	-11.3114
▁gallows	-11.3114
▁technolog	-11.3114
▁chorus	-11.3114
▁snooze	-11.3114
▁inflict	-11.3114
▁despair	-11.3114
▁wizard	-11.3114
▁chronic	-11.3114
▁swift	-11.3114
▁abbey	-11.3114
▁dispute	-11.3114
▁notify	-11.3114
▁confusing	-11.3114
▁sausage	-11.3114
▁peacock	-11.3114
▁beiieve	-11.3114
▁cinch	-11.3114
▁endowment	-11.3114
▁bumpkin	-11.3114
▁version	-11.3114
▁description	-11.3114
▁eddie	-11.3114
▁scarlet	-11.3114
▁ritual	-11.3114
▁stench	-11.3114
▁kyung	-11.3114
▁duckworth	-11.3114
▁snowmobile	-11.3114
▁pussy	-11.3114
▁bogeyman	-11.3114
▁yeehaw	-11.3114
▁keenan	-11.3114
▁armani	-11.3114
▁mcquick	-11.3114
▁robberies	-11.3114
▁instance	-11.3114
▁violent	-11.3114
▁olympic	-11.3114
▁woofshi	-11.3114
▁guidance	-11.3114
▁llamas	-11.3114
▁maximus	-11.3114
▁goddess	-11.3114
▁snickering	-11.3114
▁captive	-11.3114
▁compromise	-11.3114
▁contender	-11.3114
▁courtiers	-11.3114
▁duct	-11.3114
▁riddle	-11.3114
▁stimulating	-11.3114
▁devastating	-11.3114
acious	-11.3114
▁overpower	-11.3114
▁burps	-11.3114
▁volu	-11.3114
▁cramp	-11.3114
▁concho	-11.3115
▁tanya	-11.3115
▁resident	-11.3115
▁myth	-11.3115
▁injunction	-11.3115
▁lalalala	-11.3115
▁multi	-11.3115
ohohohohoh	-11.3115
▁ignorant	-11.3115
▁translator	-11.3115
▁attendant	-11.3115
▁rifle	-11.3115
▁tweed	-11.3115
▁transportation	-11.3115
▁butterball	-11.3115
▁goober	-11.3115
▁gettinbetter	-11.3115
▁construction	-11.3115
▁spider	-11.3115
▁frail	-11.3115
whal	-11.3115
▁devise	-11.3115
▁elegan	-11.3115
▁chores	-11.3115
▁unfur	-11.3115
▁slade	-11.3115
▁skinner	-11.3115
▁midday	-11.3115
▁whatwhat	-11.3116
▁politician	-11.3116
▁cozy	-11.3116
▁funeral	-11.3116
▁altogether	-11.3116
▁kibble	-11.3116
▁wilson	-11.3116
▁nickel	-11.3116
▁choking	-11.3116
▁recipe	-11.3116
▁unfair	-11.3116
▁freeload	-11.3116
▁proposal	-11.3116
navigati	-11.3116
▁fluid	-11.3116
▁flung	-11.3116
▁loyalty	-11.3116
▁tumtum	-11.3116
▁curl	-11.3116
▁irritated	-11.3116
▁policy	-11.3116
▁fleece	-11.3116
▁salesman	-11.3116
▁assistance	-11.3116
▁deception	-11.3116
ville	-11.3116
▁jello	-11.3116
▁ahju	-11.3116
▁treasury	-11.3116
▁spooky	-11.3116
uptight	-11.3117
▁giddyup	-11.3117
▁ladyguard	-11.3117
▁snapping	-11.3117
▁sofa	-11.3117
▁measly	-11.3117
▁vermin	-11.3117
▁precede	-11.3117
▁barrel	-11.3117
▁depth	-11.3117
▁inspirational	-11.3117
▁stamp	-11.3117
▁razor	-11.3117
▁dopey	-11.3117
▁hypo	-11.3118
▁negotiat	-11.3118
▁raisin	-11.3118
▁rational	-11.3118
▁enchanted	-11.3118
▁homesick	-11.3118
▁countdown	-11.3118
▁reservation	-11.3118
▁charles	-11.3118
▁betrayed	-11.3118
▁nobu	-11.3118
▁worries	-11.3118
▁deploy	-11.3118
▁establishment	-11.3119
▁discouraged	-11.3119
▁signature	-11.3119
▁wobbly	-11.3119
▁ieft	-11.3119
▁rejected	-11.3119
▁snuggly	-11.3119
▁galaxy	-11.3119
▁grizzly	-11.3119
▁inspired	-11.3119
▁excellency	-11.312
▁exceed	-11.312
▁stumbled	-11.312
▁tummy	-11.312
▁harmless	-11.312
▁revised	-11.312
▁effective	-11.312
▁gagging	-11.312
▁edition	-11.312
▁temple	-11.312
▁sheik	-11.312
▁innovation	-11.312
▁chairman	-11.312
ye	-11.312
▁alise	-11.312
▁heavier	-11.312
▁pigtail	-11.3121
▁polite	-11.3121
▁assembly	-11.3121
▁proposing	-11.3121
▁weenie	-11.3121
▁defuse	-11.3121
▁denied	-11.3121
▁confide	-11.3121
▁upright	-11.3121
▁skillful	-11.3121
▁competent	-11.3121
▁lindy	-11.3121
▁twinkl	-11.3122
▁opposed	-11.3122
▁tweat	-11.3122
▁sputtering	-11.3122
▁hospitality	-11.3122
▁outcome	-11.3122
▁hostage	-11.3122
▁tonic	-11.3122
▁imagining	-11.3123
croix	-11.3123
▁fiber	-11.3123
▁belt	-11.3123
▁consumer	-11.3123
▁crooked	-11.3123
▁refund	-11.3123
▁memorize	-11.3123
▁obligation	-11.3123
▁splatter	-11.3123
▁standstill	-11.3123
▁decorating	-11.3123
▁gesture	-11.3123
▁kidney	-11.3124
▁menacing	-11.3124
▁countryside	-11.3124
▁humor	-11.3124
▁pawn	-11.3124
▁henchm	-11.3124
▁robinson	-11.3125
▁snob	-11.3125
▁labor	-11.3125
▁thorn	-11.3125
▁suds	-11.3125
▁curve	-11.3125
▁hasty	-11.3126
▁wildflower	-11.3126
▁basis	-11.3126
▁assembled	-11.3127
▁weakling	-11.3127
imaginable	-11.3127
▁overtime	-11.3127
▁raising	-11.3127
▁educated	-11.3127
most	-11.3127
▁worldwide	-11.3127
▁indication	-11.3127
▁educating	-11.3127
▁trophy	-11.3127
▁blake	-11.3128
▁cawing	-11.3128
▁margo	-11.3128
▁overhea	-11.3128
▁hometown	-11.3128
▁household	-11.3128
▁published	-11.3129
▁honorious	-11.3129
▁gassed	-11.3129
ailing	-11.3129
▁avenge	-11.3129
▁horseshoe	-11.3129
▁compa	-11.3129
adjustment	-11.3129
rilo	-11.3129
▁accomplished	-11.3129
▁philosophy	-11.313
▁confused	-11.313
▁rigor	-11.313
▁examined	-11.313
▁antique	-11.3131
▁exit	-11.3131
▁flap	-11.3132
▁itii	-11.3132
▁curts	-11.3133
ggage	-11.3134
▁clanking	-11.3134
hill	-11.3134
▁monstrous	-11.3134
▁neely	-11.3135
▁investigate	-11.3136
▁basement	-11.3136
▁valve	-11.3137
▁groovy	-11.3137
▁pencil	-11.3137
▁schem	-11.3138
▁croco	-11.3138
▁growth	-11.3139
▁increasing	-11.3139
▁ashman	-11.3139
▁debt	-11.314
▁taiking	-11.314
▁treachery	-11.314
▁peacefully	-11.314
▁beginner	-11.3141
▁grove	-11.3141
▁updated	-11.3141
▁yyes	-11.3142
▁telescop	-11.3142
▁inch	-11.3142
▁overwhelming	-11.3142
▁descending	-11.3142
▁buckled	-11.3143
▁plot	-11.3144
▁kurt	-11.3144
▁blah	-11.3144
▁teamwork	-11.3144
▁stewards	-11.3144
▁screwed	-11.3144
▁wond	-11.3145
▁brig	-11.3145
▁mathematics	-11.3145
▁applicants	-11.3145
▁fallout	-11.3145
▁ohhhh	-11.3145
▁pancakes	-11.3145
▁semifinals	-11.3145
▁precautions	-11.3145
▁contributions	-11.3145
▁severe	-11.3145
▁statement	-11.3145
▁creepy	-11.3146
▁geek	-11.3146
▁za	-11.3147
▁moley	-11.3147
▁deter	-11.3147
▁leftovers	-11.3148
▁difficulties	-11.3148
▁outlets	-11.3149
▁robbers	-11.3149
▁railway	-11.3149
▁cried	-11.315
▁embarrassed	-11.315
bol	-11.315
▁parent	-11.3151
▁admired	-11.3151
▁reactor	-11.3151
▁warrant	-11.3152
▁described	-11.3153
▁sensitive	-11.3153
▁permanently	-11.3153
▁iodi	-11.3153
▁batch	-11.3154
▁proceedings	-11.3154
▁hahahaha	-11.3154
▁slug	-11.3154
▁dep	-11.3155
▁fraction	-11.3155
▁normally	-11.3156
▁imitating	-11.3156
▁steamer	-11.3156
▁psychological	-11.3156
▁reproduce	-11.3156
▁selected	-11.3156
shape	-11.3158
▁alleg	-11.3159
▁carcass	-11.3159
▁brat	-11.316
▁beings	-11.316
▁disgusting	-11.316
▁monks	-11.316
▁wrinkle	-11.3161
▁peasant	-11.3163
▁dandelions	-11.3163
▁retired	-11.3164
▁inventory	-11.3164
▁exterminate	-11.3165
▁wealthy	-11.3165
▁daylight	-11.3165
▁livin	-11.3166
inister	-11.3168
▁background	-11.3169
▁cinders	-11.3169
▁restored	-11.317
▁shove	-11.317
▁chemistry	-11.317
▁oxide	-11.317
▁smacking	-11.3171
▁abolished	-11.3171
▁monitored	-11.3171
eep	-11.3171
anthrop	-11.3171
▁residenc	-11.3172
▁quot	-11.3172
▁unlock	-11.3172
▁tidy	-11.3172
sphere	-11.3173
▁chow	-11.3173
▁guts	-11.3173
▁intr	-11.3174
▁gents	-11.3174
▁broad	-11.3175
▁producer	-11.3175
▁explorer	-11.3175
▁hooked	-11.3175
▁greed	-11.3176
▁flown	-11.3176
▁puncture	-11.3177
▁media	-11.3178
▁functioning	-11.3178
▁smoking	-11.3178
▁langur	-11.3179
▁knack	-11.318
▁shocked	-11.318
▁revert	-11.3181
▁steering	-11.3181
▁favorabl	-11.3181
▁punished	-11.3182
▁ke	-11.3182
▁injection	-11.3182
▁clink	-11.3182
▁hardship	-11.3183
▁diction	-11.3183
▁scratched	-11.3183
uh	-11.3183
count	-11.3183
▁jealousy	-11.3184
▁foam	-11.3184
▁roughly	-11.3185
▁hitter	-11.3186
▁conver	-11.3187
▁fussy	-11.3188
▁attractive	-11.3188
▁doorway	-11.3188
▁begging	-11.3188
▁foul	-11.3189
▁receiver	-11.3189
chipper	-11.319
▁sn	-11.3191
▁volunteered	-11.3192
▁feei	-11.3193
▁snoop	-11.3194
▁merri	-11.3196
▁boulders	-11.3197
▁scoundrels	-11.3198
▁arrangements	-11.3198
lap	-11.3198
aaa	-11.3199
▁polar	-11.3199
▁bushes	-11.3199
▁conque	-11.3199
▁shallow	-11.32
▁regarded	-11.3201
▁leaking	-11.3205
▁indiana	-11.3205
▁positively	-11.3206
▁builder	-11.3206
▁surgical	-11.3207
▁theatr	-11.3208
boys	-11.3208
▁workout	-11.3209
▁apri	-11.3211
god	-11.3211
▁facing	-11.3212
▁damaged	-11.3213
▁mustard	-11.3214
▁larger	-11.3215
▁pond	-11.3217
▁threatening	-11.3217
▁organized	-11.3218
got	-11.3219
▁wisely	-11.3219
▁clank	-11.3219
▁heartless	-11.322
▁stove	-11.3221
▁cracked	-11.3221
▁coco	-11.3222
▁foolin	-11.3224
▁frighten	-11.3225
▁cann	-11.3226
▁brats	-11.3226
▁adore	-11.3229
▁arth	-11.3232
▁har	-11.3234
▁crank	-11.3234
▁domes	-11.3235
▁moor	-11.3236
▁inau	-11.3237
▁preserve	-11.3238
▁wounds	-11.3239
▁funnie	-11.324
▁bribe	-11.3241
▁versa	-11.3242
ptic	-11.3243
▁hesitate	-11.3244
▁involve	-11.3244
▁measures	-11.3244
robbin	-11.3244
▁novel	-11.3247
psy	-11.3247
▁mountaineer	-11.3248
▁dumps	-11.325
▁dearie	-11.3251
▁overload	-11.3251
▁curtains	-11.3252
▁recruits	-11.3252
▁cylinders	-11.3252
▁mute	-11.3252
▁clang	-11.3255
▁smarter	-11.3255
▁buttons	-11.3257
▁recognized	-11.3258
ieve	-11.3258
▁billions	-11.326
▁squire	-11.3261
▁clams	-11.3262
▁matches	-11.3262
▁equipped	-11.3263
quisitions	-11.3264
▁blamed	-11.3264
▁sophisticated	-11.3265
▁creaks	-11.3266
▁nah	-11.3266
▁lecture	-11.3267
▁smashing	-11.3269
▁circum	-11.327
wright	-11.327
▁jacket	-11.327
▁heave	-11.327
wig	-11.3271
▁sneaky	-11.3271
uras	-11.3271
▁squa	-11.3272
▁fueled	-11.3272
▁kiddo	-11.3272
▁grape	-11.3272
▁mmmm	-11.3272
pelled	-11.3274
▁beii	-11.3274
▁consideration	-11.3276
▁vein	-11.3277
▁thoughtful	-11.3279
▁wahwah	-11.3282
▁drowning	-11.3282
▁lining	-11.3289
▁followin	-11.3289
▁stump	-11.3292
▁switched	-11.3292
tow	-11.3292
▁relatives	-11.3295
▁alike	-11.3296
▁steaks	-11.3297
▁pits	-11.3298
▁happenin	-11.3302
▁demons	-11.3302
▁chord	-11.3303
▁doodle	-11.3304
▁haig	-11.3306
▁explodes	-11.3307
▁advise	-11.3308
▁creamy	-11.3308
▁blocked	-11.3308
tinguishe	-11.331
▁ballooning	-11.3311
▁expressing	-11.3314
itty	-11.3315
▁charmer	-11.332
▁rake	-11.3322
even	-11.3326
enja	-11.3326
icable	-11.3327
soon	-11.3328
▁youngster	-11.3332
▁crate	-11.3334
▁papad	-11.3335
▁brut	-11.3337
▁deeply	-11.334
lousy	-11.3341
ung	-11.3349
▁lala	-11.3352
▁too	-11.3353
▁poet	-11.3354
▁hick	-11.3354
▁exclaims	-11.3357
orice	-11.3359
▁madly	-11.3359
▁interviews	-11.3362
owing	-11.3367
▁sleepin	-11.337
▁risky	-11.3371
▁bunk	-11.3372
▁dariing	-11.3372
▁dork	-11.3374
ore	-11.3375
▁submit	-11.3376
▁fades	-11.3381
▁prominen	-11.3386
▁possibi	-11.3386
ballgame	-11.3387
▁rebel	-11.3389
▁sheet	-11.3389
▁standard	-11.3391
▁rod	-11.3392
▁gladly	-11.3394
anto	-11.3395
▁sneaking	-11.3395
▁rott	-11.3396
▁croak	-11.3397
▁roy	-11.3398
nkers	-11.3403
▁ahha	-11.3404
▁potion	-11.3408
▁physi	-11.3408
▁distribut	-11.3408
▁heip	-11.3412
▁trunks	-11.3414
shine	-11.3414
▁stinks	-11.3416
▁unknow	-11.3416
▁incidents	-11.342
▁invitations	-11.3421
▁vine	-11.3421
▁jeans	-11.3423
▁tracked	-11.3425
▁vent	-11.3432
▁toots	-11.3432
▁shouts	-11.3434
▁bea	-11.3434
▁trembl	-11.3444
▁gradual	-11.3445
▁turnip	-11.3446
▁makeup	-11.3448
▁planted	-11.3448
▁hooks	-11.3456
lick	-11.3457
▁yippi	-11.3458
tail	-11.3461
▁artists	-11.3469
ked	-11.3469
▁passionate	-11.3469
▁honesty	-11.3471
▁brutal	-11.3485
lands	-11.349
▁replay	-11.3491
▁grounded	-11.3492
▁tis	-11.3494
▁inc	-11.3497
▁babys	-11.3501
▁charged	-11.3503
▁rio	-11.3506
storm	-11.3509
honda	-11.351
fed	-11.3512
▁injur	-11.3517
▁airplanes	-11.3526
▁cam	-11.3529
▁umi	-11.3536
▁weep	-11.3537
▁bald	-11.3547
▁bury	-11.3548
▁sicken	-11.3549
▁pools	-11.3549
devi	-11.3554
armac	-11.3557
▁gull	-11.3558
▁announced	-11.3559
▁speaker	-11.356
▁supervis	-11.3562
▁longest	-11.3563
▁sleeps	-11.3569
▁cou	-11.3572
ven	-11.3577
▁sled	-11.3579
▁correction	-11.3579
▁blockheads	-11.3582
▁presented	-11.3583
▁plead	-11.3584
▁cycle	-11.3585
▁ber	-11.3585
▁traditions	-11.3588
igger	-11.359
ds	-11.3595
▁wit	-11.3605
▁sticky	-11.3607
▁hideous	-11.3609
▁helpers	-11.3616
▁ideal	-11.3618
▁troll	-11.3625
▁backup	-11.3626
▁somb	-11.3631
lightest	-11.3653
gent	-11.3654
▁wires	-11.3654
▁rises	-11.3656
▁cri	-11.3659
▁reassur	-11.366
match	-11.3665
dication	-11.3677
▁rider	-11.3678
▁messing	-11.3679
▁stirr	-11.3679
▁her	-11.368
gest	-11.3685
▁goody	-11.3686
upper	-11.3687
▁ag	-11.3691
▁tracking	-11.3692
▁deliri	-11.3702
bones	-11.3704
▁riot	-11.3713
▁slee	-11.3714
▁sales	-11.3722
rouch	-11.3722
▁cleared	-11.3725
mish	-11.3725
▁biess	-11.373
▁boot	-11.3735
▁relaxing	-11.3737
▁nelli	-11.3741
▁rung	-11.3741
opy	-11.3742
▁workin	-11.3743
▁cracks	-11.3748
gos	-11.375
matic	-11.3755
▁founder	-11.3763
▁strings	-11.377
▁dip	-11.3772
▁slides	-11.3774
▁anchors	-11.3777
powered	-11.3779
▁participate	-11.3787
ki	-11.3795
ception	-11.3802
▁ruins	-11.3806
died	-11.3807
▁pamper	-11.3809
▁moi	-11.3817
▁harmon	-11.3822
bone	-11.3837
▁maniacal	-11.3838
▁mag	-11.3841
holic	-11.385
▁vis	-11.3851
▁styl	-11.3856
▁shad	-11.3859
▁compass	-11.3859
▁hind	-11.3869
▁wat	-11.387
▁sons	-11.3882
▁shirts	-11.3888
▁lighten	-11.3889
▁luxuri	-11.3895
ere	-11.3895
table	-11.3899
▁recit	-11.3911
▁tons	-11.3913
▁fried	-11.3917
▁acted	-11.3917
▁cared	-11.3924
etti	-11.393
▁ver	-11.3932
▁pan	-11.3946
▁wes	-11.3953
▁fisher	-11.3964
rbing	-11.3966
▁liking	-11.3966
▁dug	-11.397
bru	-11.397
jack	-11.397
▁panick	-11.3971
tched	-11.3974
od	-11.3977
ole	-11.3977
tics	-11.3977
nker	-11.3981
▁participa	-11.3982
reaction	-11.3984
faddle	-11.3997
▁fax	-11.3997
▁lace	-11.4004
rift	-11.4019
ised	-11.402
▁snowflakes	-11.4022
minded	-11.4031
▁universit	-11.4033
▁mines	-11.4035
▁sha	-11.4036
rise	-11.4037
▁weed	-11.4038
▁cheerful	-11.4038
▁lack	-11.4039
corn	-11.4047
pulse	-11.4051
ibal	-11.4059
▁globe	-11.406
▁writer	-11.4062
▁sets	-11.4075
▁proceeds	-11.4084
ality	-11.4089
▁reins	-11.4092
▁mamm	-11.4096
▁illustrati	-11.4096
▁prayers	-11.41
▁fu	-11.4108
elimina	-11.4115
▁pieas	-11.4116
▁han	-11.4121
▁sixt	-11.4128
cast	-11.4136
▁sco	-11.414
▁cro	-11.4149
tle	-11.415
spite	-11.415
ami	-11.4156
▁strain	-11.4156
▁satter	-11.4163
▁col	-11.4166
ament	-11.4168
▁clues	-11.417
▁buds	-11.4175
ngrily	-11.418
▁pots	-11.4186
▁areas	-11.4188
▁diet	-11.419
▁craft	-11.4191
▁accommodat	-11.4192
▁para	-11.4192
▁pops	-11.4199
ook	-11.4201
rist	-11.4201
▁gown	-11.4203
lic	-11.4209
▁slack	-11.4212
▁beautifui	-11.4218
▁abs	-11.4223
▁winding	-11.423
▁traverse	-11.424
▁thu	-11.4248
ates	-11.4252
▁agrees	-11.426
ison	-11.4261
▁att	-11.4265
▁cater	-11.427
rnament	-11.4271
ir	-11.4272
▁io	-11.4279
▁prizes	-11.4292
▁ruffi	-11.4303
▁returning	-11.4307
▁resume	-11.4323
▁graz	-11.4329
▁drat	-11.433
▁hon	-11.4347
▁cling	-11.4349
pers	-11.4363
lu	-11.4372
▁managers	-11.4379
▁fli	-11.4386
▁rhythmic	-11.4403
ys	-11.4419
music	-11.4422
illa	-11.4425
gun	-11.4426
▁growl	-11.4426
ration	-11.4427
▁batter	-11.443
▁anne	-11.4431
ances	-11.4431
▁sincere	-11.4431
postal	-11.4434
▁yi	-11.4435
▁penci	-11.4436
▁tha	-11.4448
▁cola	-11.4449
inary	-11.445
gie	-11.4453
idden	-11.4453
cool	-11.4464
ncy	-11.4465
▁contra	-11.4466
shore	-11.4471
▁cups	-11.4476
timer	-11.4486
ral	-11.4488
▁hah	-11.4513
struck	-11.4536
▁leap	-11.4539
▁whee	-11.4546
▁tempt	-11.4551
crunching	-11.4557
cumul	-11.4559
▁gra	-11.4559
▁pointing	-11.456
▁springs	-11.456
▁trot	-11.4584
▁cousins	-11.4597
▁flan	-11.4617
enched	-11.4618
case	-11.4622
erang	-11.4634
astic	-11.4634
▁nooo	-11.464
▁dated	-11.4651
▁caller	-11.4659
▁rom	-11.4667
▁onion	-11.4673
win	-11.4675
▁presidents	-11.4678
▁compani	-11.4679
▁services	-11.468
▁cable	-11.4681
▁mia	-11.4687
sistance	-11.47
▁manag	-11.4704
▁combine	-11.4707
hunt	-11.4711
▁evacuat	-11.4723
tler	-11.4725
▁intens	-11.4726
▁fears	-11.4728
▁chi	-11.4729
▁streets	-11.4737
▁freed	-11.4742
▁charges	-11.4742
▁suspens	-11.4765
aud	-11.4767
▁computers	-11.4783
au	-11.4783
▁surprises	-11.4788
▁gay	-11.4791
ieves	-11.4795
▁carlo	-11.4795
raids	-11.4804
pati	-11.4809
▁frogs	-11.4819
bum	-11.4821
▁prima	-11.4822
▁displace	-11.4828
▁ap	-11.4828
▁furs	-11.4837
nical	-11.4844
▁bond	-11.4848
aah	-11.4856
▁wanting	-11.4862
▁jumps	-11.4864
▁throats	-11.4865
row	-11.4875
rk	-11.4889
▁wiggl	-11.49
rot	-11.4903
▁doubts	-11.4908
▁valentine	-11.4926
weez	-11.4943
bi	-11.4948
▁foe	-11.4963
▁ecc	-11.4968
ggle	-11.4975
▁fran	-11.4982
ois	-11.4994
▁heal	-11.4996
eared	-11.5001
size	-11.5002
ped	-11.5008
tor	-11.5041
▁nar	-11.5057
ouch	-11.5065
▁messages	-11.5066
cede	-11.5066
▁burr	-11.507
▁donate	-11.5071
nal	-11.5073
▁shatter	-11.5097
▁generals	-11.5111
▁loop	-11.5117
▁ev	-11.5121
▁poach	-11.5131
▁ports	-11.5134
▁pha	-11.514
tly	-11.5163
zag	-11.5172
▁gla	-11.5181
▁fir	-11.5196
▁wi	-11.5216
▁fil	-11.5217
teen	-11.522
if	-11.522
▁suite	-11.5229
cious	-11.523
gly	-11.5235
▁rut	-11.5236
▁rag	-11.527
▁ads	-11.5271
nder	-11.5274
▁finals	-11.5286
▁repl	-11.529
hu	-11.5293
right	-11.5295
▁forth	-11.5313
▁blo	-11.5315
suspecting	-11.5338
rry	-11.5342
▁by	-11.5348
ounce	-11.5355
ko	-11.5366
ches	-11.5366
stage	-11.5393
▁earn	-11.5397
core	-11.5399
perative	-11.54
▁migrat	-11.5403
ouidnt	-11.5414
▁enforce	-11.5421
itar	-11.5428
▁dangl	-11.5477
cade	-11.5485
▁sur	-11.5494
ba	-11.5508
▁pier	-11.5508
▁mal	-11.5527
lowing	-11.5536
iate	-11.5557
▁stri	-11.5558
▁nob	-11.557
erior	-11.5574
▁rev	-11.5575
▁delegat	-11.5576
▁elli	-11.5576
dded	-11.5595
▁cancell	-11.5599
▁pea	-11.5604
tc	-11.5623
▁myst	-11.5623
tten	-11.5628
▁lasted	-11.563
▁siight	-11.5647
cities	-11.5648
ium	-11.5676
▁baili	-11.5684
▁format	-11.5689
▁miser	-11.5699
ikes	-11.5708
▁qua	-11.5718
ase	-11.5743
▁classic	-11.5746
tom	-11.5756
hen	-11.5765
ife	-11.5793
ride	-11.5793
q	-11.5801
▁rec	-11.5806
ace	-11.5808
ecu	-11.5813
▁aur	-11.582
▁dive	-11.5823
▁sni	-11.5844
ulch	-11.5865
▁hangs	-11.5869
▁migrate	-11.5874
▁wage	-11.588
▁masters	-11.5926
▁rely	-11.5945
▁communicat	-11.5948
ct	-11.595
▁trou	-11.5952
ngs	-11.5956
ip	-11.596
maid	-11.5961
nows	-11.5962
▁dec	-11.5979
▁nno	-11.5991
▁colleges	-11.6
ross	-11.6001
▁probabi	-11.6023
▁snowba	-11.6039
▁gru	-11.604
point	-11.6052
▁hens	-11.6054
issues	-11.6064
ned	-11.6065
ged	-11.6065
ron	-11.607
▁pia	-11.6086
bank	-11.6089
▁champions	-11.6101
uge	-11.6105
hey	-11.6109
▁heroic	-11.6113
ought	-11.6119
ney	-11.6124
iiy	-11.6136
▁minu	-11.6165
ient	-11.6178
some	-11.619
ple	-11.6202
resumes	-11.6211
cked	-11.6212
tale	-11.6215
▁did	-11.6216
ud	-11.6225
garet	-11.6225
▁humiliat	-11.624
planted	-11.626
ona	-11.6267
▁cli	-11.6275
ad	-11.6288
▁transmit	-11.6305
▁sever	-11.6324
sity	-11.6327
opo	-11.6335
zard	-11.6344
dies	-11.6361
▁int	-11.6364
ella	-11.6374
br	-11.639
▁qui	-11.6391
▁shun	-11.6417
▁gli	-11.6433
ph	-11.6448
io	-11.6455
▁watering	-11.6459
▁menu	-11.646
con	-11.6533
abl	-11.6535
▁tangle	-11.6538
▁fre	-11.654
round	-11.6566
▁nighty	-11.6567
ities	-11.6574
▁engag	-11.6579
▁slidin	-11.658
▁blea	-11.6597
ger	-11.6609
ative	-11.6614
doubted	-11.6638
port	-11.6649
▁flake	-11.665
▁appoint	-11.6666
▁gl	-11.6667
▁aspirin	-11.6671
mb	-11.6678
yeah	-11.6688
▁studi	-11.6693
havin	-11.67
sters	-11.6714
▁univers	-11.672
▁specials	-11.6723
▁cance	-11.6725
▁af	-11.6731
▁ec	-11.6739
▁brandne	-11.675
▁illustr	-11.6755
illy	-11.676
folded	-11.6794
untie	-11.6794
west	-11.68
▁sap	-11.6825
▁sends	-11.6828
tz	-11.6842
▁salar	-11.6851
master	-11.6864
ears	-11.6881
▁remembers	-11.6894
▁loo	-11.6902
yes	-11.6908
rang	-11.6908
▁humiliate	-11.6912
butter	-11.6923
get	-11.6937
anny	-11.6939
cha	-11.6953
kon	-11.6955
we	-11.6959
▁includin	-11.6967
stic	-11.6967
▁scatt	-11.6972
eligi	-11.6979
welling	-11.6979
▁fins	-11.6981
gy	-11.6989
llies	-11.699
▁aa	-11.7004
▁pit	-11.7009
loaded	-11.7017
veni	-11.7029
ancer	-11.7031
▁indi	-11.7037
▁pun	-11.7038
ain	-11.704
kin	-11.704
tos	-11.7048
▁yu	-11.7064
zation	-11.7064
▁tame	-11.7074
▁ramble	-11.7074
▁fisherm	-11.7074
dong	-11.7077
urd	-11.7083
▁unc	-11.7088
▁prop	-11.7088
bility	-11.7105
sent	-11.7122
ok	-11.7123
▁communicate	-11.7132
▁organi	-11.7136
▁flo	-11.7146
anni	-11.7148
▁fro	-11.7151
mama	-11.7169
tty	-11.717
water	-11.7215
ters	-11.7215
▁tick	-11.7227
lit	-11.723
▁translat	-11.7253
rable	-11.7253
pa	-11.7255
▁cer	-11.726
wait	-11.7273
min	-11.7305
reaking	-11.7312
rains	-11.7312
▁pur	-11.7313
snt	-11.7317
▁rub	-11.733
erced	-11.7335
▁winds	-11.7335
hol	-11.7336
bul	-11.7353
▁simi	-11.7362
▁commit	-11.7363
bu	-11.7364
▁te	-11.7366
nut	-11.737
make	-11.7372
oid	-11.7374
ani	-11.7376
▁demonstrati	-11.7378
▁celebrat	-11.7389
▁ignor	-11.7399
nesses	-11.74
▁vali	-11.741
bite	-11.7414
lot	-11.7414
ump	-11.7416
mail	-11.7418
▁equa	-11.7443
▁squaw	-11.7465
rie	-11.747
▁transfer	-11.747
ically	-11.7472
mu	-11.7474
eating	-11.7474
hhhh	-11.7481
life	-11.7481
▁plac	-11.7499
iet	-11.7499
▁fee	-11.7517
embe	-11.7519
▁stir	-11.753
▁conce	-11.7531
mac	-11.7538
tted	-11.7547
▁chil	-11.756
▁nobles	-11.7561
▁brai	-11.7562
are	-11.7563
friend	-11.7564
sland	-11.7565
enburg	-11.757
▁spi	-11.7574
▁persons	-11.7576
▁dra	-11.7578
▁tru	-11.7584
▁now	-11.7591
naw	-11.7599
▁eeri	-11.7604
how	-11.7612
bic	-11.7622
▁smi	-11.7624
▁mimic	-11.7627
next	-11.7633
▁wine	-11.7637
era	-11.7638
owl	-11.7643
cable	-11.7644
cky	-11.7645
egal	-11.7647
lodging	-11.7652
today	-11.7652
▁decor	-11.7676
▁keeper	-11.7679
ological	-11.768
▁rains	-11.7681
play	-11.7689
▁deni	-11.7701
sive	-11.7702
▁irre	-11.7702
leave	-11.7704
ug	-11.7709
crossed	-11.7715
tically	-11.772
▁holder	-11.772
▁crop	-11.7725
▁pale	-11.7729
▁lei	-11.773
▁dele	-11.7731
poke	-11.7742
▁promote	-11.7752
sweet	-11.7764
break	-11.7771
bad	-11.7774
ssip	-11.7774
▁bustin	-11.7776
bob	-11.7778
profile	-11.7785
power	-11.7786
azz	-11.7787
▁exception	-11.7791
walk	-11.7801
ooks	-11.7803
▁oohhoo	-11.7805
precise	-11.7811
usion	-11.7813
▁peri	-11.7818
knowing	-11.7824
aa	-11.783
fax	-11.7831
laughs	-11.7832
order	-11.7834
hundred	-11.7836
except	-11.7838
float	-11.7848
distancing	-11.7849
coup	-11.785
▁woohoo	-11.7854
forward	-11.7854
town	-11.7854
▁mas	-11.7856
wide	-11.7858
pass	-11.7859
drop	-11.7859
weather	-11.7861
finished	-11.7863
ladi	-11.7865
track	-11.7866
stairs	-11.7867
certain	-11.7869
different	-11.787
group	-11.7871
equipped	-11.7875
speed	-11.7875
apple	-11.7876
stroke	-11.7877
▁damag	-11.7878
keeper	-11.7879
sophisticated	-11.788
build	-11.7881
ib	-11.7881
limited	-11.7882
▁ji	-11.7882
ape	-11.7884
eeting	-11.7887
proof	-11.7887
tempo	-11.7888
northeast	-11.7888
voir	-11.7888
fantastic	-11.7889
traveling	-11.789
pants	-11.7891
▁grunt	-11.7892
schedule	-11.7892
▁groan	-11.7893
stealing	-11.7895
crows	-11.7896
stitution	-11.7897
beam	-11.7899
belts	-11.79
collect	-11.7902
sk	-11.7904
▁prepar	-11.7904
ification	-11.7907
strength	-11.7909
burry	-11.7911
programmed	-11.7913
squire	-11.7914
gal	-11.7915
gs	-11.7923
company	-11.7925
zzi	-11.7928
fuiiy	-11.7936
▁limb	-11.7938
bread	-11.794
tape	-11.795
faced	-11.7951
ologist	-11.7953
▁recogniz	-11.7954
▁majest	-11.7955
▁bolt	-11.7962
possibility	-11.7962
▁warrior	-11.7964
▁hormone	-11.7964
▁mushroom	-11.7965
▁bundle	-11.7965
▁toilet	-11.7965
▁niece	-11.7965
▁lounge	-11.7966
sacred	-11.7966
▁saf	-11.7966
luc	-11.7967
▁jewel	-11.7968
▁primate	-11.797
▁awaitin	-11.7972
▁theodor	-11.7974
▁sentence	-11.7974
▁celeb	-11.7977
▁scoundrel	-11.7977
▁boulder	-11.7978
▁custom	-11.7982
▁arrangement	-11.7982
thro	-11.7983
▁resource	-11.7983
▁tens	-11.7983
▁footprint	-11.7986
▁pioneer	-11.7986
▁twerp	-11.7986
▁scroll	-11.7989
▁lankom	-11.7989
trusted	-11.7989
▁tube	-11.799
▁vegetable	-11.799
▁chipmunk	-11.799
▁ancestor	-11.7991
▁baboon	-11.7991
ab	-11.7993
▁giggle	-11.7997
▁politic	-11.8001
shot	-11.8002
shake	-11.8004
▁package	-11.8005
solved	-11.8006
▁minim	-11.801
▁psych	-11.8012
that	-11.8012
▁sucker	-11.8013
▁beside	-11.8014
aw	-11.8017
▁firework	-11.8018
code	-11.8019
sisters	-11.8024
▁highland	-11.8028
lair	-11.8029
▁snort	-11.803
▁expense	-11.8031
sanity	-11.8037
▁figur	-11.8038
▁descend	-11.8039
▁consisten	-11.8041
▁iyiyiyi	-11.8041
exceptions	-11.8042
▁mmmmm	-11.8043
▁scale	-11.8044
▁abra	-11.8049
▁consum	-11.8056
▁practi	-11.8064
▁whine	-11.8066
▁overwhelm	-11.8066
▁sinc	-11.8071
▁notic	-11.8071
▁atmospher	-11.8072
▁murmur	-11.8072
▁observ	-11.8072
▁protest	-11.8074
▁seiz	-11.8075
▁investigat	-11.8075
▁accomplish	-11.8077
▁helps	-11.8078
▁squir	-11.8078
▁gag	-11.8081
ador	-11.8083
▁declare	-11.8084
▁locate	-11.8084
▁condemn	-11.8085
ntern	-11.8086
▁confirm	-11.8086
▁philosoph	-11.8087
▁confuse	-11.8087
▁calculation	-11.8088
▁oblige	-11.8089
▁publish	-11.8089
▁strateg	-11.8089
▁guilt	-11.8091
▁troph	-11.8091
▁gidd	-11.8092
▁overlook	-11.8092
billy	-11.8093
▁teenage	-11.8093
▁imitat	-11.8093
col	-11.8094
▁coordinat	-11.8097
▁fortunate	-11.8098
▁taik	-11.8098
▁accurate	-11.8099
▁invest	-11.81
▁consent	-11.81
lini	-11.8101
▁flav	-11.8101
zza	-11.8102
▁evolve	-11.8103
▁archaeologi	-11.8105
▁relent	-11.8105
▁dix	-11.8107
▁flea	-11.8107
▁inspiration	-11.8107
▁atta	-11.8108
▁darlin	-11.8108
▁profession	-11.8108
▁humbl	-11.811
▁extensi	-11.811
▁hire	-11.811
▁reflect	-11.8111
uvre	-11.8111
▁possess	-11.8111
▁cleve	-11.8111
▁script	-11.8111
▁greatgrand	-11.8111
▁vegeta	-11.8112
▁govern	-11.8112
▁entertain	-11.8112
abolis	-11.8113
▁necess	-11.8113
▁neighbour	-11.8113
▁terrif	-11.8113
▁timberwol	-11.8113
▁brough	-11.8113
▁diagnos	-11.8113
▁weightlift	-11.8113
cognit	-11.8113
mburger	-11.8113
milliondollar	-11.8113
responsibilities	-11.8113
▁abruptly	-11.8113
▁accomplice	-11.8113
▁alcatraz	-11.8113
▁antennae	-11.8113
▁apologies	-11.8113
▁apologizing	-11.8113
▁arithmetic	-11.8113
▁automated	-11.8113
▁awkward	-11.8113
▁ayuadame	-11.8113
▁babbling	-11.8113
▁bachelor	-11.8113
▁bambina	-11.8113
▁barcelona	-11.8113
▁bargain	-11.8113
▁benefactor	-11.8113
▁boogeyman	-11.8113
▁boopboopboop	-11.8113
▁bridetobe	-11.8113
▁bubalochov	-11.8113
▁bygones	-11.8113
▁calcium	-11.8113
▁cantaloupe	-11.8113
▁captivated	-11.8113
▁cauliflower	-11.8113
▁charlatan	-11.8113
▁chubby	-11.8113
▁cockandbu	-11.8113
▁collision	-11.8113
▁commerce	-11.8113
▁contempt	-11.8113
▁continent	-11.8113
▁crenshaw	-11.8113
▁cripple	-11.8113
▁dapplenag	-11.8113
▁diploma	-11.8113
▁discontent	-11.8113
▁dissect	-11.8113
▁doughnuts	-11.8113
▁earthquake	-11.8113
▁eeeya	-11.8113
▁efficiency	-11.8113
▁egypt	-11.8113
▁embroidery	-11.8113
▁encounter	-11.8113
▁enslave	-11.8113
▁enthusiast	-11.8113
▁environment	-11.8113
▁exclusive	-11.8113
▁exotic	-11.8113
▁expenditure	-11.8113
▁extravagant	-11.8113
▁fahrenheit	-11.8113
▁ferrari	-11.8113
▁foiiow	-11.8113
▁foreclosure	-11.8113
▁fugitive	-11.8113
▁fundamental	-11.8113
▁goodfornothing	-11.8113
▁hibernate	-11.8113
▁hippopotamus	-11.8113
▁hydraulic	-11.8113
▁idiocy	-11.8113
▁incarceration	-11.8113
▁infiuence	-11.8113
▁inhaling	-11.8113
▁initiative	-11.8113
▁insufferable	-11.8113
▁intermediate	-11.8113
▁interrogate	-11.8113
▁invincible	-11.8113
▁irresistible	-11.8113
▁irresponsibl	-11.8113
▁jettison	-11.8113
▁kirwood	-11.8113
▁kleptomaniac	-11.8113
▁kuagigake	-11.8113
▁labyrinth	-11.8113
▁librarian	-11.8113
▁loneliness	-11.8113
▁lullaby	-11.8113
▁lunatic	-11.8113
▁manescue	-11.8113
▁matrimony	-11.8113
▁mediumrare	-11.8113
▁memorabilia	-11.8113
▁mexican	-11.8113
▁michelangelo	-11.8113
▁minnesota	-11.8113
▁monsieur	-11.8113
▁mosquito	-11.8113
▁napoleon	-11.8113
▁neglect	-11.8113
▁nimbostratus	-11.8113
▁nuisance	-11.8113
▁oblivio	-11.8113
▁outgunned	-11.8113
▁parasites	-11.8113
▁pembroke	-11.8113
▁perfetto	-11.8113
▁pilgrim	-11.8113
▁pittsburgh	-11.8113
▁porcupine	-11.8113
▁predator	-11.8113
▁prestige	-11.8113
▁pretzel	-11.8113
▁proprietor	-11.8113
▁prosecutor	-11.8113
▁psychiatrist	-11.8113
▁pugilis	-11.8113
▁qualifications	-11.8113
▁rearranging	-11.8113
▁recipient	-11.8113
▁refinement	-11.8113
▁revolution	-11.8113
▁ricocheting	-11.8113
▁sacrificial	-11.8113
▁sandbagging	-11.8113
▁seagulls	-11.8113
▁shickedanz	-11.8113
▁sidekicks	-11.8113
▁significan	-11.8113
▁sorcery	-11.8113
▁spectrum	-11.8113
▁steadily	-11.8113
▁stupendous	-11.8113
▁supremo	-11.8113
▁sussex	-11.8113
▁swatura	-11.8113
▁sybil	-11.8113
▁tattoo	-11.8113
▁technician	-11.8113
▁thirdquarter	-11.8113
▁threequarters	-11.8113
▁thunderbolts	-11.8113
▁tippytippyt	-11.8113
▁toenail	-11.8113
▁twelfth	-11.8113
▁unconventional	-11.8113
▁underestimate	-11.8113
▁vaccine	-11.8113
▁vibrant	-11.8113
▁volkswagen	-11.8113
▁watermelons	-11.8113
▁wfpo	-11.8113
▁whereabouts	-11.8113
▁whippoorwill	-11.8113
▁twentynine	-11.8113
mlzu	-11.8113
▁aggressive	-11.8113
▁alpha	-11.8113
▁antoine	-11.8113
▁architect	-11.8113
▁bagpipe	-11.8113
▁bockser	-11.8113
▁cinema	-11.8113
▁coyote	-11.8113
▁culprit	-11.8113
▁enlighten	-11.8113
▁fleetwood	-11.8113
▁icicle	-11.8113
▁incorporat	-11.8113
▁infectious	-11.8113
▁injustice	-11.8113
▁kelsey	-11.8113
▁longdistance	-11.8113
▁marauder	-11.8113
▁pistol	-11.8113
▁releasing	-11.8113
▁shoshone	-11.8113
▁starrett	-11.8113
▁stephanie	-11.8113
▁strenuous	-11.8113
▁teiephon	-11.8113
▁toothpaste	-11.8113
▁yield	-11.8113
▁agatha	-11.8113
▁athletic	-11.8113
▁cavities	-11.8113
▁jersey	-11.8113
▁pyrid	-11.8113
▁reggie	-11.8113
▁sleazy	-11.8113
▁smooch	-11.8113
▁superstition	-11.8113
whatshername	-11.8113
▁ayyiyiyi	-11.8113
▁cigarette	-11.8113
▁deceive	-11.8113
▁feisty	-11.8113
▁headlamp	-11.8113
▁munching	-11.8113
▁ninja	-11.8113
▁norwood	-11.8113
▁pgds	-11.8113
▁toledo	-11.8113
▁vigilan	-11.8113
▁wahwahwah	-11.8113
▁seashell	-11.8113
▁tundra	-11.8113
appityp	-11.8113
▁airborne	-11.8113
▁analyze	-11.8113
▁intrusion	-11.8113
▁midafternoon	-11.8113
▁skedaddl	-11.8113
▁tallyho	-11.8113
▁vermont	-11.8113
▁elbow	-11.8113
▁assumption	-11.8114
▁chrysa	-11.8114
▁countermand	-11.8114
▁detour	-11.8114
▁messenger	-11.8114
▁vendor	-11.8114
▁aeroplane	-11.8114
▁brainwash	-11.8114
▁haunted	-11.8114
▁prosecution	-11.8114
▁mickey	-11.8114
▁motivated	-11.8114
▁stacey	-11.8114
▁terminal	-11.8114
▁whwhwh	-11.8114
▁cecilia	-11.8114
▁incubati	-11.8114
▁temperament	-11.8114
▁imprison	-11.8114
▁tribute	-11.8114
▁yourseif	-11.8114
▁oppress	-11.8114
ocratic	-11.8114
▁peeled	-11.8114
▁accelerat	-11.8114
▁audio	-11.8114
▁exonerat	-11.8114
▁monument	-11.8114
▁scrump	-11.8114
▁selfdestruct	-11.8114
▁certif	-11.8114
▁subsonic	-11.8114
▁astray	-11.8114
▁catalog	-11.8114
▁gogetter	-11.8114
▁pillar	-11.8114
▁caboose	-11.8114
▁clinch	-11.8114
▁erratic	-11.8114
▁java	-11.8114
▁meddling	-11.8114
▁intruder	-11.8114
▁garbage	-11.8114
▁convictions	-11.8114
▁marciano	-11.8114
▁telegram	-11.8114
▁pollut	-11.8114
▁squirrel	-11.8114
▁horror	-11.8114
▁yesssss	-11.8114
▁brawn	-11.8114
▁dissolve	-11.8114
▁janitor	-11.8114
▁celebrities	-11.8114
▁yippee	-11.8114
▁abarth	-11.8114
▁hangnail	-11.8114
▁graduation	-11.8114
▁fanatic	-11.8114
▁recent	-11.8114
▁fondue	-11.8114
▁comfy	-11.8114
▁snicke	-11.8114
▁stagger	-11.8114
▁outreach	-11.8114
▁nitro	-11.8114
▁outdid	-11.8114
▁terrified	-11.8114
▁troopmaster	-11.8114
▁vulture	-11.8114
▁olsen	-11.8114
▁kenneth	-11.8114
▁spiral	-11.8114
▁torrent	-11.8114
▁inconvenience	-11.8114
▁extort	-11.8114
▁corwin	-11.8114
▁apron	-11.8114
▁appreciation	-11.8114
▁solving	-11.8114
▁accusations	-11.8114
▁salaam	-11.8114
▁siege	-11.8114
▁chowder	-11.8114
▁poiice	-11.8114
▁foremost	-11.8114
osaur	-11.8114
▁atlantic	-11.8114
▁hungarian	-11.8114
▁meddle	-11.8114
adpole	-11.8114
▁homesite	-11.8114
▁iegs	-11.8114
▁snuck	-11.8114
▁apology	-11.8114
▁unpleasant	-11.8114
▁mirage	-11.8114
▁complement	-11.8114
▁pintsize	-11.8114
▁involuntarily	-11.8114
▁mvp	-11.8114
▁determination	-11.8114
▁decline	-11.8114
▁gushy	-11.8114
▁separation	-11.8114
▁doughboys	-11.8114
gnol	-11.8114
▁confront	-11.8114
▁prerace	-11.8114
▁unmarried	-11.8114
▁stevie	-11.8114
eactivati	-11.8114
▁fioor	-11.8114
▁thumb	-11.8114
▁asshole	-11.8114
▁canopy	-11.8114
▁offhand	-11.8114
▁glen	-11.8114
▁slump	-11.8114
▁fiji	-11.8115
▁downward	-11.8115
▁plague	-11.8115
▁eviction	-11.8115
▁madras	-11.8115
▁quaint	-11.8115
▁beanery	-11.8115
▁sarge	-11.8115
ritis	-11.8115
▁albright	-11.8115
▁cutbacks	-11.8115
▁fiesta	-11.8115
▁hammock	-11.8115
uglies	-11.8115
▁ruthie	-11.8115
▁vague	-11.8115
▁fritz	-11.8115
▁plaque	-11.8115
▁bickle	-11.8115
▁jolt	-11.8115
▁accessory	-11.8115
▁pauper	-11.8115
▁popcorn	-11.8115
▁poppy	-11.8115
▁clawfulness	-11.8115
▁sparrow	-11.8115
▁bonehead	-11.8115
▁eldon	-11.8115
▁robbie	-11.8115
▁ordeal	-11.8115
▁falcon	-11.8115
▁grandchildren	-11.8115
lurred	-11.8115
▁defect	-11.8115
▁helmet	-11.8115
▁bummed	-11.8115
▁patties	-11.8115
▁lemonade	-11.8115
▁testified	-11.8115
▁choco	-11.8115
▁slither	-11.8115
▁combat	-11.8115
▁devour	-11.8115
▁temporarily	-11.8115
▁liberal	-11.8115
▁buggy	-11.8115
▁religio	-11.8115
▁frills	-11.8115
▁wellington	-11.8115
▁avail	-11.8115
▁cheque	-11.8116
▁underworld	-11.8116
▁bummer	-11.8116
▁poult	-11.8116
▁suddently	-11.8116
udence	-11.8116
valent	-11.8116
▁purring	-11.8116
delphi	-11.8116
▁quiz	-11.8116
▁rehire	-11.8116
▁wheeze	-11.8116
▁malice	-11.8116
▁cherish	-11.8116
▁cornfield	-11.8116
▁registration	-11.8116
▁spiff	-11.8116
▁earpiece	-11.8116
▁scripture	-11.8116
▁subtle	-11.8116
▁tusk	-11.8116
▁gamble	-11.8116
▁merriment	-11.8116
▁poetry	-11.8116
▁bliss	-11.8116
▁scarf	-11.8116
▁yoshl	-11.8116
about	-11.8116
▁myojin	-11.8116
▁assault	-11.8116
▁buffet	-11.8116
▁possession	-11.8116
▁waytoo	-11.8116
▁cyber	-11.8116
▁radioactivity	-11.8116
ligent	-11.8116
▁shoreline	-11.8116
▁allez	-11.8116
▁floppy	-11.8116
▁garda	-11.8116
▁oliver	-11.8116
▁reflection	-11.8116
▁psycholog	-11.8116
▁batteries	-11.8116
▁winwood	-11.8116
▁kwit	-11.8117
batic	-11.8117
▁outrun	-11.8117
▁recharge	-11.8117
▁oooooh	-11.8117
▁libert	-11.8117
▁simpleminded	-11.8117
▁vicky	-11.8117
▁perkins	-11.8117
▁auctioneer	-11.8117
▁felipe	-11.8117
▁distorti	-11.8117
▁bellhop	-11.8117
▁exploit	-11.8117
▁persist	-11.8117
▁buoy	-11.8117
▁meteor	-11.8117
▁goodygood	-11.8117
▁sympath	-11.8117
▁kitchenware	-11.8118
▁neuro	-11.8118
▁misplaced	-11.8118
▁rolloll	-11.8118
▁sisterinlaw	-11.8118
▁afore	-11.8118
▁industrialist	-11.8118
▁scoid	-11.8118
▁privet	-11.8118
▁cashier	-11.8118
▁undertaken	-11.8118
▁dragging	-11.8118
▁beetle	-11.8118
▁automatically	-11.8118
▁affectionate	-11.8118
▁northwest	-11.8118
▁budge	-11.8119
▁sunrise	-11.8119
▁schwar	-11.8119
ines	-11.8119
▁coloss	-11.8119
▁crooning	-11.8119
▁calluses	-11.8119
▁again	-11.8119
▁fowl	-11.812
▁mahdjin	-11.812
▁extension	-11.812
▁whoohoohoo	-11.812
▁whipping	-11.812
▁ali	-11.812
▁subsid	-11.812
▁domestic	-11.812
▁recycl	-11.812
▁allerton	-11.812
▁obscure	-11.812
▁babysitter	-11.812
▁midway	-11.812
▁pollinated	-11.812
hibi	-11.8121
ooga	-11.8121
▁infield	-11.8121
▁psycho	-11.8121
▁diaper	-11.8121
▁infant	-11.8121
▁medium	-11.8121
▁flattened	-11.8121
bbie	-11.8121
▁ioop	-11.8121
▁aspects	-11.8121
▁banned	-11.8121
▁nuys	-11.8121
▁brew	-11.8121
▁reinforce	-11.8121
▁hmmph	-11.8122
▁placid	-11.8122
▁eexcuse	-11.8122
▁stevenson	-11.8122
▁aiready	-11.8122
▁archaeologist	-11.8122
▁flapping	-11.8122
▁luxury	-11.8122
▁console	-11.8122
▁crusade	-11.8122
▁transferred	-11.8123
▁dread	-11.8123
▁endanger	-11.8123
▁powerboat	-11.8123
▁specialize	-11.8123
▁sprinkl	-11.8123
▁roster	-11.8123
citation	-11.8123
▁hodie	-11.8123
▁linda	-11.8123
▁optimist	-11.8123
▁reinforcement	-11.8123
▁salmon	-11.8123
▁accomplishment	-11.8123
▁vanity	-11.8124
▁renu	-11.8124
▁mayfly	-11.8124
malaya	-11.8124
▁convicted	-11.8124
▁kelly	-11.8124
junction	-11.8124
▁temptation	-11.8124
▁entomology	-11.8124
▁livestock	-11.8124
▁hikers	-11.8124
▁wholesome	-11.8125
▁whipped	-11.8125
▁itits	-11.8125
scous	-11.8125
▁harness	-11.8125
▁debut	-11.8125
▁expectations	-11.8125
▁bunion	-11.8125
▁breast	-11.8125
analys	-11.8125
▁beads	-11.8125
▁production	-11.8126
▁vibration	-11.8126
▁bulletin	-11.8126
▁jolly	-11.8126
▁raja	-11.8126
▁trench	-11.8126
▁explosi	-11.8126
▁dwelling	-11.8127
▁buff	-11.8127
graphic	-11.8127
▁motto	-11.8127
▁progression	-11.8127
▁percentage	-11.8127
▁jeez	-11.8127
▁uni	-11.8127
▁fender	-11.8128
▁hardware	-11.8128
▁manhours	-11.8128
▁accurately	-11.8128
▁crease	-11.8128
▁fertile	-11.8128
▁musicians	-11.8128
▁decreasing	-11.8129
▁alps	-11.8129
▁fortunately	-11.8129
▁knuckle	-11.8129
▁wiring	-11.8129
▁motivation	-11.8129
▁lefthanded	-11.8129
▁restrain	-11.8129
▁coordinates	-11.813
▁soninlaw	-11.813
▁wowhoo	-11.813
▁torches	-11.813
▁taient	-11.813
▁sittin	-11.8131
umquat	-11.8131
emer	-11.8132
egory	-11.8132
▁bub	-11.8132
rived	-11.8133
▁insure	-11.8133
▁chiming	-11.8133
▁decisi	-11.8133
▁executioner	-11.8134
▁carrot	-11.8134
▁stepping	-11.8134
▁decreed	-11.8134
kie	-11.8134
▁hq	-11.8134
arch	-11.8135
▁nurtured	-11.8135
▁quint	-11.8135
▁rodent	-11.8135
▁fiery	-11.8136
▁garland	-11.8136
▁upro	-11.8136
▁fatten	-11.8136
▁flattered	-11.8136
▁severely	-11.8136
breaker	-11.8137
▁eew	-11.8137
▁depart	-11.8137
ipal	-11.8138
▁headache	-11.8138
▁dreaded	-11.8138
▁raven	-11.8138
semble	-11.8138
▁gusts	-11.8138
▁checkbook	-11.8139
▁freshmen	-11.8139
animous	-11.8139
▁blowout	-11.8139
racious	-11.814
tti	-11.814
▁stew	-11.8141
▁combo	-11.8141
▁confirmed	-11.8141
▁elimination	-11.8141
▁consented	-11.8142
▁iif	-11.8142
▁descended	-11.8142
▁fragran	-11.8142
▁condemned	-11.8142
▁overlooked	-11.8142
▁scam	-11.8142
called	-11.8143
▁villa	-11.8143
▁withstand	-11.8143
▁battery	-11.8143
▁judging	-11.8143
▁hunger	-11.8143
▁france	-11.8144
▁declared	-11.8144
▁breakdance	-11.8144
▁partnership	-11.8144
▁driz	-11.8144
versus	-11.8144
▁defendant	-11.8144
▁arctic	-11.8145
▁located	-11.8145
▁preten	-11.8145
▁superstar	-11.8145
▁drew	-11.8145
▁suitable	-11.8145
▁considerate	-11.8146
▁chuckie	-11.8146
dest	-11.8146
▁lovin	-11.8146
▁rackettail	-11.8147
▁thoroughly	-11.8147
▁discussion	-11.8147
tailed	-11.8147
▁volcano	-11.8147
▁kneel	-11.8147
▁sidearm	-11.8147
▁obstina	-11.8148
▁intimate	-11.8148
meaning	-11.8148
▁puzzle	-11.8149
▁blastin	-11.8149
▁lumino	-11.8149
▁snowcat	-11.815
lusions	-11.8151
▁trigg	-11.8151
▁tinker	-11.8151
▁equi	-11.8152
▁dexterity	-11.8152
▁management	-11.8152
▁gruel	-11.8152
▁greedy	-11.8152
essons	-11.8152
ckle	-11.8153
▁spears	-11.8153
▁sadness	-11.8153
▁escaping	-11.8154
yeyed	-11.8154
▁sweater	-11.8154
▁sideways	-11.8154
▁dopes	-11.8155
▁divide	-11.8155
▁rapper	-11.8155
lko	-11.8155
offre	-11.8155
spects	-11.8156
combusti	-11.8156
▁booty	-11.8157
avan	-11.8157
▁fond	-11.8157
pregna	-11.8158
▁theyretheyre	-11.8158
▁soda	-11.8158
licious	-11.8159
dient	-11.816
ading	-11.816
▁mankind	-11.8161
▁yyou	-11.8161
▁threatened	-11.8162
▁buttoned	-11.8162
▁cuffs	-11.8162
▁overall	-11.8162
▁beliefs	-11.8163
▁daint	-11.8163
▁heartbeat	-11.8163
▁dogg	-11.8163
▁collapsed	-11.8164
▁phased	-11.8164
▁acceptable	-11.8164
▁rapidly	-11.8165
▁seventh	-11.8165
▁abide	-11.8165
▁slurps	-11.8166
▁assets	-11.8167
▁physically	-11.8167
▁setback	-11.8167
▁suspicions	-11.8168
▁vibe	-11.8168
arbor	-11.8169
▁beggars	-11.8169
▁pajamas	-11.8169
▁suitcases	-11.8169
▁pigeons	-11.8169
▁pediatrics	-11.8169
▁kilometers	-11.8169
aware	-11.817
▁reptiles	-11.817
▁improvements	-11.817
▁swamp	-11.8171
▁teenagers	-11.8171
▁enrich	-11.8172
▁exposed	-11.8173
▁jabber	-11.8173
▁graduate	-11.8175
▁allan	-11.8175
fur	-11.8177
otto	-11.8177
▁drizzle	-11.8177
▁elves	-11.8178
▁competing	-11.8179
▁streamline	-11.8179
▁mattie	-11.8179
▁blazes	-11.818
ponent	-11.818
▁nagging	-11.818
▁maxman	-11.818
ulky	-11.8181
▁posters	-11.8181
▁setup	-11.8181
ounced	-11.8182
rtoni	-11.8182
▁taj	-11.8182
▁organize	-11.8182
▁knockout	-11.8183
▁indulge	-11.8183
aking	-11.8184
▁seul	-11.8184
rench	-11.8185
▁iife	-11.8185
▁lunge	-11.8185
ammo	-11.8185
▁finalist	-11.8185
hanks	-11.8186
▁scratches	-11.8186
▁torch	-11.8186
▁corps	-11.8187
yiyiyiyi	-11.8187
▁contain	-11.8187
▁tenth	-11.8187
▁archie	-11.8188
▁victor	-11.8188
▁licking	-11.8189
▁ooooh	-11.8189
▁heii	-11.8189
▁wreck	-11.8189
eenie	-11.8189
▁greatgreat	-11.819
▁puttin	-11.819
▁grinding	-11.8191
▁examine	-11.8191
▁waddle	-11.8191
▁grooming	-11.8191
▁aston	-11.8191
arcas	-11.8191
▁facilit	-11.8192
▁craz	-11.8192
▁bumped	-11.8192
cooperative	-11.8193
▁paw	-11.8193
▁climber	-11.8193
▁foreseen	-11.8194
zip	-11.8194
▁felony	-11.8194
▁proving	-11.8194
▁speeches	-11.8194
▁signora	-11.8196
▁teeter	-11.8197
▁arcad	-11.8197
▁blink	-11.8198
▁confessed	-11.8198
▁secondary	-11.8198
▁distracted	-11.8198
▁patched	-11.8198
▁attach	-11.8198
▁sirree	-11.8199
pour	-11.82
blood	-11.8202
▁stoo	-11.8203
▁penn	-11.8203
▁sleeve	-11.8203
▁technically	-11.8204
▁flexible	-11.8204
▁gallon	-11.8204
▁complexion	-11.8205
▁outwit	-11.8206
▁daisy	-11.8207
zmo	-11.8207
squat	-11.8209
tien	-11.8209
▁skating	-11.821
udder	-11.8212
wood	-11.8212
▁turnout	-11.8212
lightly	-11.8213
▁regularly	-11.8213
▁twisted	-11.8213
▁occupied	-11.8214
▁prejudice	-11.8214
▁landslide	-11.8214
▁highway	-11.8215
▁columbus	-11.8215
▁cafe	-11.8216
▁parallel	-11.8216
▁trigger	-11.8217
▁mc	-11.8217
▁radioactiv	-11.8218
▁berth	-11.8218
plaus	-11.8218
▁heel	-11.8218
▁flavor	-11.8219
▁bask	-11.8221
peas	-11.8221
▁pff	-11.8221
▁performed	-11.8221
▁merci	-11.8224
▁atro	-11.8224
▁wail	-11.8224
▁hur	-11.8227
▁smarten	-11.8227
▁prophet	-11.8228
▁gardeners	-11.8229
▁programme	-11.8229
▁duds	-11.8229
▁inject	-11.823
strung	-11.823
▁boid	-11.823
▁limo	-11.8231
▁moos	-11.8231
▁frequen	-11.8232
▁indict	-11.8232
▁nailed	-11.8234
▁hahaaa	-11.8234
▁invested	-11.8234
▁canvass	-11.8236
▁slugg	-11.8237
▁politics	-11.8238
▁merler	-11.8238
▁plug	-11.8238
▁cured	-11.8239
▁ivan	-11.8239
oodle	-11.8239
▁sloth	-11.8241
▁bolted	-11.8241
▁allies	-11.8241
▁gps	-11.8241
▁fend	-11.8243
toxic	-11.8243
▁slash	-11.8245
▁washi	-11.8247
▁violat	-11.8247
▁capitalize	-11.8247
▁sanity	-11.8247
▁wearin	-11.825
▁glowing	-11.825
ifications	-11.8251
around	-11.8251
▁penta	-11.8252
game	-11.8252
▁silky	-11.8252
▁tramp	-11.8253
▁runway	-11.8255
▁intended	-11.8255
atory	-11.8256
▁dew	-11.8256
▁flatter	-11.8257
▁slay	-11.8257
ull	-11.8257
wife	-11.8258
hearted	-11.8259
▁whirs	-11.826
▁expenses	-11.826
▁raft	-11.8261
eft	-11.8261
▁jewels	-11.8261
▁cia	-11.8262
▁counters	-11.8262
▁sentences	-11.8263
▁lounges	-11.8264
▁nieces	-11.8264
▁disposed	-11.8264
▁bundles	-11.8264
▁bursting	-11.8264
▁primates	-11.8265
▁hormones	-11.8265
▁warriors	-11.8265
▁mushrooms	-11.8265
▁toilets	-11.8265
sman	-11.8265
sed	-11.8266
▁dual	-11.8267
▁freshen	-11.8267
▁breathless	-11.8269
▁inf	-11.8269
▁arrow	-11.827
▁ohhhhh	-11.8271
▁managing	-11.8271
▁okey	-11.8271
▁demonstrated	-11.8275
▁willy	-11.8275
▁wiped	-11.8275
▁gargl	-11.8277
▁detailed	-11.8279
acin	-11.8281
▁santy	-11.8282
nze	-11.8282
▁rewarded	-11.8283
▁geared	-11.8283
▁flirtatio	-11.8285
style	-11.8285
▁concert	-11.8285
▁trek	-11.8287
▁swe	-11.8289
▁integr	-11.829
▁blush	-11.829
▁stevens	-11.8291
eight	-11.8292
jacks	-11.8293
▁lawns	-11.8294
▁fido	-11.8295
▁regula	-11.8299
▁enth	-11.8303
unts	-11.8304
▁crook	-11.8304
▁nod	-11.8305
▁hiss	-11.8306
▁twin	-11.8306
▁rack	-11.8308
▁exa	-11.8308
▁archers	-11.8308
ira	-11.8309
▁squash	-11.831
▁darkest	-11.831
▁careless	-11.8312
▁captured	-11.8315
▁giveaway	-11.8315
▁climbers	-11.8316
▁petition	-11.8317
▁thor	-11.8318
▁beckon	-11.8319
realis	-11.832
▁dull	-11.8321
▁peril	-11.8324
▁grey	-11.8325
▁frolick	-11.8326
▁scraping	-11.8329
ligan	-11.833
aloha	-11.8331
▁banner	-11.8331
▁canceling	-11.8332
public	-11.8333
transl	-11.8334
mir	-11.8337
▁reasonabl	-11.8339
▁knox	-11.834
yeow	-11.8341
verge	-11.8341
udge	-11.8348
▁chunks	-11.8349
▁fig	-11.835
▁vane	-11.835
▁senor	-11.8351
▁blaz	-11.8355
▁some	-11.8356
▁montag	-11.8359
▁diggings	-11.8361
▁hel	-11.8362
▁stroke	-11.8363
found	-11.8363
▁festivals	-11.8363
▁slams	-11.8365
▁reminded	-11.8366
▁veg	-11.8366
▁ahold	-11.8369
▁hors	-11.8371
ov	-11.8371
ont	-11.8371
▁patiently	-11.8372
visible	-11.8372
▁caper	-11.8373
▁ku	-11.8375
▁union	-11.8377
kety	-11.8377
▁regain	-11.838
▁distancing	-11.8385
▁wah	-11.8386
▁lawn	-11.8386
▁holly	-11.8388
▁whatside	-11.8389
▁boxers	-11.839
▁ballet	-11.8392
▁flank	-11.8397
▁modernize	-11.8398
have	-11.84
▁learnin	-11.8401
▁sunk	-11.8404
sonic	-11.8405
▁cruis	-11.8405
anaka	-11.8406
▁faki	-11.8407
itudin	-11.8409
▁boos	-11.841
eph	-11.8411
▁scr	-11.8411
▁beards	-11.8413
anca	-11.8416
▁objects	-11.8417
▁anni	-11.842
▁tickles	-11.8421
staked	-11.8424
▁masks	-11.8427
▁betting	-11.843
▁blasting	-11.8432
fe	-11.8433
▁acquir	-11.8434
rown	-11.8435
▁scar	-11.8436
▁bbe	-11.8436
ats	-11.8438
▁aand	-11.8439
▁snee	-11.8442
▁collate	-11.8447
▁swinging	-11.8447
▁flute	-11.8447
aire	-11.8449
▁aaagh	-11.845
▁cel	-11.8451
▁subs	-11.8453
oever	-11.846
▁lizards	-11.8461
▁uniforms	-11.8461
▁usurpers	-11.8461
▁astronauts	-11.8461
▁fret	-11.8462
▁teen	-11.8462
▁gliders	-11.8463
▁goodlooking	-11.8464
▁discovering	-11.8465
▁stomp	-11.8468
▁dubi	-11.8469
▁sede	-11.8469
bscene	-11.8474
▁marshall	-11.8474
pone	-11.8474
▁toll	-11.8475
activated	-11.8478
glued	-11.8479
heads	-11.848
▁conjur	-11.8481
▁sasa	-11.8483
▁squawks	-11.8486
▁barri	-11.8486
rote	-11.8486
▁axe	-11.8487
verted	-11.8488
▁refu	-11.8489
vision	-11.8489
▁funds	-11.8489
▁occurs	-11.8489
▁limited	-11.8491
▁disc	-11.8491
trates	-11.8492
▁links	-11.8492
scot	-11.8493
▁singin	-11.8494
▁premi	-11.8496
▁hardest	-11.8497
▁themes	-11.8501
▁jams	-11.8502
▁steven	-11.8502
▁fakes	-11.8504
▁awards	-11.8504
▁any	-11.8511
▁strangely	-11.8512
mi	-11.8512
▁organs	-11.8513
▁eatin	-11.8516
▁solved	-11.8517
▁recorder	-11.8519
dise	-11.8519
▁rooting	-11.852
▁pint	-11.8523
▁bog	-11.8526
▁sonic	-11.8527
vacu	-11.8529
▁swam	-11.8532
▁standin	-11.8538
▁soid	-11.8539
▁charms	-11.8541
▁shackl	-11.8541
affected	-11.8545
▁canine	-11.8548
▁profile	-11.8551
▁iovee	-11.8551
▁towering	-11.8552
tive	-11.8553
▁lilies	-11.8555
chl	-11.8557
▁pierc	-11.8558
▁decree	-11.8561
guard	-11.8562
▁fingernails	-11.8562
▁keen	-11.8565
▁leagues	-11.8565
▁lookout	-11.8566
▁lund	-11.8573
radle	-11.8575
▁rage	-11.8575
ingham	-11.8584
▁noone	-11.8587
tter	-11.8588
▁roughing	-11.8589
erous	-11.8589
uhh	-11.8592
▁appeared	-11.8594
▁math	-11.8597
urman	-11.8598
▁ric	-11.8599
plica	-11.8601
leon	-11.8603
lapping	-11.8604
shaw	-11.8607
tri	-11.8607
▁hom	-11.8612
▁filter	-11.8613
▁trend	-11.8617
▁ion	-11.8617
▁alas	-11.8619
▁mimick	-11.8626
▁cl	-11.8626
▁climbed	-11.8629
▁enabl	-11.8634
▁beastly	-11.864
▁yucks	-11.8643
▁superb	-11.8644
▁slopes	-11.8648
tone	-11.8651
▁cardin	-11.8659
▁magazines	-11.866
▁glob	-11.8664
▁disap	-11.8665
insert	-11.8666
▁mum	-11.8666
▁differently	-11.8668
ric	-11.867
rr	-11.8677
▁rattled	-11.8677
beats	-11.868
▁uhu	-11.8682
regr	-11.8684
load	-11.8686
▁performs	-11.8686
▁nerd	-11.8688
mp	-11.8693
cant	-11.8696
▁defin	-11.8697
▁romans	-11.8702
▁stem	-11.8708
▁skateboarder	-11.871
▁gam	-11.8713
ss	-11.8721
▁ratings	-11.8721
▁mv	-11.8722
▁roar	-11.8724
▁caste	-11.8732
iest	-11.8732
▁conspir	-11.8735
▁relaxed	-11.8736
▁fences	-11.8742
thy	-11.8747
▁experimenting	-11.8753
onal	-11.8754
▁repeating	-11.8755
▁baskets	-11.8756
▁instincts	-11.8758
▁autographs	-11.8759
▁ravag	-11.8764
▁bonne	-11.8766
story	-11.8766
recede	-11.8768
▁guarantees	-11.8773
▁chairs	-11.8774
▁hypnoti	-11.878
▁spreading	-11.8782
▁goofing	-11.8783
▁pinch	-11.8786
ire	-11.8789
▁surve	-11.8793
▁lattes	-11.8796
▁predictabl	-11.8805
▁bac	-11.8806
ditty	-11.8808
sation	-11.8808
scott	-11.8809
▁butthe	-11.8815
▁willi	-11.8818
▁prover	-11.882
▁encourag	-11.8824
▁aiien	-11.8825
▁polish	-11.8827
llow	-11.8829
wo	-11.8835
erry	-11.8836
▁dri	-11.8837
▁arrives	-11.8844
▁goggle	-11.8844
hoho	-11.8854
▁orchids	-11.8857
ars	-11.886
roke	-11.8862
▁balances	-11.8863
▁sequ	-11.8865
misunderstanding	-11.8867
mond	-11.8868
▁shi	-11.8874
di	-11.8876
nch	-11.8885
▁thrust	-11.8888
scar	-11.8892
▁worthy	-11.8899
hit	-11.89
▁spr	-11.8903
▁skates	-11.8907
▁conf	-11.8911
▁designate	-11.8912
▁towels	-11.8912
▁demonstrat	-11.892
▁moons	-11.8927
ovi	-11.8927
▁chins	-11.8934
▁irrit	-11.8934
ishing	-11.894
▁elses	-11.894
▁dim	-11.8941
ecision	-11.8942
itude	-11.8944
▁mill	-11.8944
rall	-11.8946
▁missus	-11.895
▁outfits	-11.8954
of	-11.8955
▁auditions	-11.8958
▁sheepdogs	-11.8961
▁colon	-11.8967
▁robe	-11.8968
▁abe	-11.8982
llen	-11.8985
▁plea	-11.8987
▁sparr	-11.8993
▁dispos	-11.8993
▁stayin	-11.8995
▁blasts	-11.9005
oohoohooh	-11.9009
strict	-11.9015
hyd	-11.9022
▁currents	-11.9023
ga	-11.9025
▁kindle	-11.9025
▁struc	-11.9028
dam	-11.9031
▁lazi	-11.904
▁salads	-11.9046
▁val	-11.905
twit	-11.9056
plate	-11.9057
▁glo	-11.9058
▁pursue	-11.9058
piration	-11.906
▁careers	-11.9062
▁whobbles	-11.9065
▁nash	-11.9069
neck	-11.9071
▁ups	-11.9071
▁procla	-11.9078
▁serv	-11.9078
▁pai	-11.9078
▁importantly	-11.9079
unces	-11.9089
▁sto	-11.909
caption	-11.9092
lthy	-11.9098
nium	-11.9112
▁callin	-11.9118
▁plow	-11.9122
▁sna	-11.9126
▁mig	-11.9132
▁tire	-11.9144
charted	-11.9145
▁assistants	-11.9156
▁characters	-11.9157
▁mod	-11.9167
sandra	-11.9168
▁illogic	-11.9174
sounding	-11.9185
▁wre	-11.9186
ak	-11.9197
▁everest	-11.9199
rumbling	-11.9211
▁sin	-11.9214
▁hint	-11.922
eeeeee	-11.9225
▁vacat	-11.9233
▁stan	-11.9234
▁centers	-11.9238
▁thy	-11.9239
▁fled	-11.9241
ming	-11.9244
▁clacking	-11.9246
rdy	-11.9246
▁periods	-11.9254
▁pockets	-11.9258
▁weekends	-11.9261
▁coi	-11.9269
▁inquir	-11.9271
rambler	-11.9275
▁pap	-11.9276
pugna	-11.9281
hip	-11.9286
▁coun	-11.9286
eesh	-11.9296
smokers	-11.9298
▁isle	-11.9303
layers	-11.9306
▁shapes	-11.9319
▁tou	-11.9325
▁merce	-11.9342
▁locals	-11.9343
▁trucks	-11.9351
▁pastor	-11.9365
▁ballo	-11.9365
inciden	-11.9398
rancing	-11.94
met	-11.9404
▁reminds	-11.9405
▁doze	-11.9408
▁joshs	-11.9409
▁hyp	-11.941
▁youse	-11.9425
▁hover	-11.9428
ef	-11.9431
fying	-11.9431
▁zippe	-11.9433
▁committe	-11.9436
tsm	-11.9444
▁deserved	-11.9444
ls	-11.9445
▁skulls	-11.9446
▁montys	-11.9448
▁touche	-11.9456
▁marakeets	-11.9456
uffin	-11.9457
▁gim	-11.9458
▁inde	-11.9459
▁turb	-11.9467
▁booked	-11.948
▁mous	-11.9483
▁conv	-11.9487
▁abb	-11.9488
umber	-11.9489
▁bind	-11.9493
▁qualifie	-11.9494
ave	-11.9498
▁bitter	-11.9501
aka	-11.9515
ncer	-11.9515
▁aaaaaa	-11.9526
ime	-11.9531
▁iti	-11.9532
omed	-11.9537
▁lucked	-11.9543
ite	-11.9556
▁zan	-11.9559
mented	-11.9574
▁washer	-11.9577
dly	-11.9581
▁abduct	-11.9583
ips	-11.9586
▁merchan	-11.9601
tal	-11.9614
list	-11.9617
▁stor	-11.962
▁battles	-11.9621
njo	-11.9626
▁unfold	-11.9627
ermon	-11.9628
rich	-11.9642
mo	-11.9644
▁tanks	-11.9645
▁rube	-11.9647
▁pitcher	-11.9657
uff	-11.9658
ays	-11.9675
tto	-11.9677
▁manet	-11.9687
▁gig	-11.969
▁reelect	-11.9693
rated	-11.9697
dated	-11.9712
▁interna	-11.9721
use	-11.9723
▁referr	-11.9729
oogie	-11.9735
▁chas	-11.9749
▁foil	-11.975
▁occurre	-11.9773
▁marking	-11.9776
kona	-11.978
ang	-11.9781
hauled	-11.9781
illion	-11.9784
lute	-11.9785
▁photograph	-11.979
▁creat	-11.9796
▁tar	-11.9797
appointed	-11.9797
▁horri	-11.9802
oly	-11.9803
▁aspir	-11.9804
▁grit	-11.9809
ady	-11.981
▁ps	-11.9813
▁nos	-11.9824
▁comb	-11.9824
urning	-11.9833
wling	-11.9861
▁slowing	-11.9863
▁spook	-11.9865
▁pers	-11.9866
oohoohoo	-11.987
▁spic	-11.9882
▁drip	-11.9889
ials	-11.9899
▁panthe	-11.9909
▁earthy	-11.9914
▁sally	-11.9914
parent	-11.992
shing	-11.9922
olent	-11.9926
▁reache	-11.9927
elling	-11.9933
gio	-11.9934
▁execute	-11.9934
▁shakes	-11.9936
▁viewer	-11.9938
▁swipe	-11.9939
▁burns	-11.9947
points	-11.9952
▁bir	-11.9954
▁studie	-11.996
▁russ	-12
ippin	-12.0007
eopard	-12.0012
▁alla	-12.0015
brian	-12.002
educed	-12.0024
pool	-12.0031
▁bling	-12.004
▁leaders	-12.0047
▁streak	-12.0067
iiing	-12.0079
▁texa	-12.0081
sing	-12.0087
▁setti	-12.0088
▁ayear	-12.0091
tyfour	-12.0098
▁irrem	-12.0106
▁steph	-12.0108
▁pant	-12.0118
aaaaaah	-12.0135
▁aaaa	-12.0136
▁slopp	-12.014
▁tast	-12.0154
▁hy	-12.0156
hou	-12.0159
▁replant	-12.016
▁repri	-12.0161
nice	-12.0167
fest	-12.0173
▁retain	-12.0173
▁provoke	-12.0174
esme	-12.02
yu	-12.0206
stein	-12.0209
▁joys	-12.0229
▁repe	-12.023
ka	-12.0231
▁ruth	-12.0234
▁wea	-12.0234
▁inso	-12.0239
▁perch	-12.024
▁snowing	-12.025
▁females	-12.0256
ama	-12.0263
▁shri	-12.0264
▁magn	-12.0276
dge	-12.0281
ru	-12.0299
▁bb	-12.0299
▁musics	-12.0311
ano	-12.0311
▁overt	-12.0314
weii	-12.0316
▁camel	-12.0321
▁dealing	-12.033
▁gior	-12.0347
▁dum	-12.0348
▁calculate	-12.0355
gon	-12.0355
▁wai	-12.0359
laine	-12.0376
dos	-12.038
▁dealer	-12.0384
here	-12.0393
gust	-12.0396
iss	-12.0398
▁gy	-12.0401
▁narc	-12.0405
mm	-12.0406
▁gro	-12.0408
▁diminish	-12.0411
reat	-12.0416
inde	-12.0422
▁wrestle	-12.0426
ummy	-12.0438
▁worker	-12.044
roth	-12.0443
▁clutch	-12.0454
▁movies	-12.0456
▁cooling	-12.0461
▁anc	-12.0462
▁pent	-12.0466
▁is	-12.0468
umble	-12.0476
cold	-12.0477
ater	-12.048
ipping	-12.0483
orse	-12.0496
▁lick	-12.0498
▁telly	-12.0499
▁urge	-12.052
fiction	-12.0521
▁institut	-12.0521
▁dit	-12.0534
replace	-12.0538
nia	-12.0541
▁marrie	-12.0556
urity	-12.0558
communicated	-12.0559
▁tortoises	-12.056
erica	-12.056
▁ruck	-12.0563
▁ava	-12.0563
che	-12.0563
blime	-12.0566
▁off	-12.0566
▁offsho	-12.0576
▁jackal	-12.0583
lamb	-12.0587
revi	-12.0598
thetic	-12.0601
formed	-12.0609
▁scul	-12.0612
▁dies	-12.0615
mas	-12.0615
▁undertak	-12.0616
▁alter	-12.0621
hlro	-12.0649
▁vaca	-12.0655
▁was	-12.0661
▁geo	-12.0669
▁orn	-12.0672
▁goo	-12.0677
▁tablet	-12.0684
nts	-12.0721
eeeeeee	-12.0722
▁fudg	-12.0729
ecede	-12.0729
lto	-12.0734
▁rightfully	-12.0734
rest	-12.0735
▁marc	-12.0749
ttered	-12.0794
oney	-12.0799
lated	-12.0799
taiis	-12.0808
mitten	-12.0839
▁retr	-12.0846
▁surre	-12.0852
▁kingdoms	-12.0858
▁whir	-12.086
die	-12.0861
▁situations	-12.0865
▁forces	-12.0868
quat	-12.0869
ear	-12.0876
asta	-12.0876
▁plunge	-12.0877
▁employ	-12.0885
▁speller	-12.0891
▁const	-12.0894
▁immerse	-12.0905
ove	-12.0906
▁rein	-12.093
▁fami	-12.0942
▁ble	-12.0946
easy	-12.096
▁favorites	-12.0963
angled	-12.0966
▁tyr	-12.0968
▁pains	-12.0975
▁busi	-12.099
mise	-12.0995
akl	-12.0998
▁vocali	-12.1003
▁lined	-12.1008
▁farms	-12.1015
owling	-12.1036
▁fable	-12.1057
▁salu	-12.1059
cott	-12.1064
▁fenn	-12.1075
vals	-12.1076
▁chim	-12.1084
ibut	-12.1086
bal	-12.1086
start	-12.1089
▁compl	-12.1099
▁ie	-12.1112
▁und	-12.1112
▁drill	-12.1126
vin	-12.1128
rries	-12.1144
▁doubled	-12.1148
▁parch	-12.1149
▁esse	-12.1155
icky	-12.1157
non	-12.117
▁nei	-12.1185
▁sen	-12.1185
phy	-12.1189
tie	-12.1192
▁anticipate	-12.1203
so	-12.1209
▁manufacture	-12.1212
▁mer	-12.1215
tte	-12.1246
▁amo	-12.1258
▁inflate	-12.1273
rowing	-12.1274
eased	-12.1276
▁hides	-12.1278
icated	-12.1291
▁piglet	-12.1293
▁allie	-12.1304
▁defens	-12.1306
▁bid	-12.1313
ories	-12.1313
▁ay	-12.132
oni	-12.1346
ddly	-12.1355
▁clar	-12.1376
tooti	-12.1381
nah	-12.1385
▁concei	-12.1389
▁traveler	-12.1393
orni	-12.1395
▁moan	-12.1407
▁jal	-12.1414
▁hammer	-12.1414
ret	-12.1425
▁snatche	-12.1436
ooper	-12.1439
▁ren	-12.1444
▁drumm	-12.1457
sie	-12.1474
ku	-12.1492
▁alls	-12.1496
een	-12.1501
▁overse	-12.1514
eful	-12.1519
owel	-12.1519
plicate	-12.1522
▁regi	-12.153
▁imm	-12.1533
taking	-12.1548
▁doublecrosse	-12.1554
lucking	-12.156
▁authoriz	-12.158
daft	-12.1593
know	-12.1603
▁pol	-12.1604
trick	-12.1612
▁cere	-12.1622
▁dependabl	-12.1624
ash	-12.1627
▁fra	-12.1649
▁gala	-12.165
▁tre	-12.1659
bbed	-12.1678
▁tan	-12.1678
munity	-12.169
bang	-12.1707
slime	-12.1718
▁prim	-12.1719
▁owed	-12.1749
▁personifie	-12.176
mperative	-12.1773
▁thi	-12.1784
ellini	-12.1786
tho	-12.1791
▁sch	-12.1811
ism	-12.1841
▁tease	-12.1857
▁tog	-12.1879
inall	-12.1904
▁pres	-12.1907
dont	-12.1907
mage	-12.1935
▁blank	-12.1935
oof	-12.1945
▁bubb	-12.1958
ren	-12.1963
lses	-12.1971
▁reactivate	-12.1972
▁truff	-12.1972
lipping	-12.1976
hue	-12.1976
crouch	-12.1998
▁senses	-12.2004
▁aller	-12.2008
baum	-12.2012
▁justif	-12.2016
tache	-12.2022
gic	-12.2027
▁dud	-12.2042
▁depo	-12.2044
gather	-12.2052
ord	-12.2057
▁hei	-12.2064
cking	-12.2065
ucking	-12.2076
▁gratif	-12.2078
staffed	-12.2093
pull	-12.2103
▁terrori	-12.2111
▁adi	-12.2126
▁pike	-12.215
flow	-12.2152
▁cla	-12.2155
▁warming	-12.2155
ggy	-12.2157
ittering	-12.2169
▁sav	-12.217
▁perp	-12.2177
ces	-12.2178
iger	-12.2181
▁gene	-12.22
▁poo	-12.2203
▁sno	-12.2204
coming	-12.2215
▁tam	-12.2233
treating	-12.2237
lk	-12.2245
ach	-12.2271
▁vau	-12.2278
ollen	-12.2283
ofthe	-12.2291
▁interce	-12.2296
doii	-12.2314
wa	-12.2356
▁donor	-12.2372
ellent	-12.2379
rald	-12.2384
▁rolls	-12.2395
ves	-12.2396
▁offices	-12.2424
▁pil	-12.2441
cella	-12.2442
▁hairs	-12.245
▁med	-12.2469
hattering	-12.2478
fif	-12.2486
atch	-12.2491
▁refus	-12.2493
▁chart	-12.2498
lity	-12.2506
itch	-12.2544
ronto	-12.2546
▁translate	-12.2553
▁memorab	-12.2559
▁fairs	-12.2565
gna	-12.2589
lac	-12.2591
▁ranger	-12.2595
ging	-12.2598
nda	-12.26
▁fopp	-12.26
▁waiter	-12.2607
▁shuts	-12.2629
▁acut	-12.2648
sun	-12.2656
iday	-12.2658
sp	-12.2662
▁expel	-12.2668
▁belli	-12.2669
rai	-12.2681
tches	-12.2683
wed	-12.2687
▁industr	-12.2688
▁chu	-12.269
asis	-12.2692
road	-12.2716
sible	-12.2728
▁fare	-12.2747
unch	-12.2748
istress	-12.275
▁valentin	-12.2754
inning	-12.2757
was	-12.2771
▁pastri	-12.2777
▁mich	-12.2788
cra	-12.28
▁manufactur	-12.28
ft	-12.2805
etons	-12.2807
▁anticipat	-12.2811
oozy	-12.282
acting	-12.282
eon	-12.2821
wee	-12.283
▁sk	-12.2833
▁athat	-12.2848
aaaah	-12.2862
▁flu	-12.2871
chin	-12.2879
ush	-12.2883
osh	-12.2895
uffles	-12.2898
▁wakes	-12.29
chess	-12.2904
oul	-12.2908
capacit	-12.2909
▁inflat	-12.2914
▁sne	-12.2948
▁kib	-12.2957
▁impuls	-12.2958
▁relat	-12.2967
▁ther	-12.2977
▁lat	-12.2985
ac	-12.2987
▁rever	-12.3001
aring	-12.3039
nvoy	-12.3044
front	-12.3067
ously	-12.3078
eling	-12.3085
ope	-12.3087
hattan	-12.309
▁lice	-12.3092
▁rav	-12.311
pu	-12.3125
▁frustrat	-12.3132
mmering	-12.3133
tray	-12.3135
▁vocal	-12.3137
▁skys	-12.3139
oes	-12.3167
▁evacuate	-12.3196
▁offere	-12.3203
▁ov	-12.3204
▁bawlin	-12.321
▁temp	-12.322
hopper	-12.3222
ancy	-12.3222
▁vs	-12.3233
▁dears	-12.3234
▁reactivat	-12.3237
▁downs	-12.3241
▁penal	-12.3248
defeated	-12.3256
ior	-12.3256
▁combin	-12.3259
▁spar	-12.3259
belli	-12.3267
▁immers	-12.327
▁intensi	-12.3283
▁chur	-12.3291
▁skippe	-12.3295
ag	-12.3308
oping	-12.3318
ale	-12.3319
▁yearn	-12.3321
tell	-12.334
ister	-12.3348
uard	-12.3349
▁plung	-12.3352
▁mur	-12.3353
▁hock	-12.3355
ort	-12.3368
eave	-12.3373
under	-12.3393
national	-12.3394
rize	-12.3399
thisthis	-12.3403
gen	-12.3414
negotia	-12.342
verse	-12.3423
▁fol	-12.344
▁gass	-12.3454
lf	-12.3456
▁hoop	-12.3464
cc	-12.347
▁pari	-12.3472
▁dono	-12.3482
▁spo	-12.3506
etting	-12.3543
modeling	-12.357
iots	-12.358
▁bei	-12.3606
nk	-12.3636
mulate	-12.3644
str	-12.3645
▁devo	-12.3649
▁ignit	-12.365
▁spro	-12.3675
▁urg	-12.3675
▁hij	-12.3705
acks	-12.371
pt	-12.3711
itating	-12.3716
hel	-12.3718
▁compli	-12.3738
▁porter	-12.375
▁acce	-12.3762
▁alvins	-12.3773
▁ret	-12.3777
four	-12.3785
acada	-12.3798
▁dura	-12.3803
deer	-12.3808
▁diminishe	-12.3815
grable	-12.3826
sang	-12.3827
▁exp	-12.3866
cated	-12.3869
crucia	-12.3871
ths	-12.3874
▁os	-12.3881
ark	-12.3888
ippity	-12.3911
▁clutche	-12.3932
▁rippin	-12.3947
ibble	-12.3963
raging	-12.3971
ston	-12.3974
▁quitt	-12.3985
prehen	-12.3992
▁compet	-12.3994
▁minis	-12.3995
▁handi	-12.4001
ifying	-12.4009
urious	-12.401
ppies	-12.402
evi	-12.404
▁institu	-12.4044
ficial	-12.4047
▁deno	-12.4071
ained	-12.4073
▁hates	-12.4077
▁hopin	-12.4086
▁lover	-12.4088
covered	-12.4089
oy	-12.4101
▁ia	-12.4113
iller	-12.4122
▁crow	-12.4136
mping	-12.417
phe	-12.419
sm	-12.4203
erie	-12.4216
mortal	-12.4227
live	-12.4243
ils	-12.4252
▁mono	-12.4276
▁mee	-12.4285
chil	-12.4292
fors	-12.4311
▁alc	-12.433
▁glori	-12.4339
ovan	-12.4361
now	-12.4364
nrich	-12.4365
coat	-12.4372
five	-12.438
itz	-12.4387
oon	-12.4402
▁travers	-12.4402
▁deliveri	-12.4414
py	-12.442
depend	-12.4443
▁gle	-12.4463
▁righthand	-12.4481
▁revere	-12.4489
rsity	-12.4498
ign	-12.4506
▁comment	-12.4523
ced	-12.4559
sel	-12.456
▁cris	-12.4585
▁mari	-12.4586
▁slim	-12.4589
mat	-12.4593
▁leop	-12.4593
xy	-12.4624
hawks	-12.4627
▁spon	-12.4629
▁gangs	-12.4633
jo	-12.4642
ltered	-12.4647
▁mut	-12.4696
tip	-12.4696
yo	-12.4698
▁dingd	-12.4702
▁improv	-12.4719
sure	-12.4728
▁dunde	-12.4732
rieve	-12.4732
xes	-12.4734
las	-12.4749
hrill	-12.4757
oc	-12.4765
ction	-12.4765
▁provok	-12.4768
shorten	-12.4769
▁dries	-12.4779
ssy	-12.4785
nies	-12.4786
alling	-12.481
synthe	-12.4818
onger	-12.482
▁piea	-12.4834
partment	-12.4841
▁wag	-12.4848
ounding	-12.4849
lacking	-12.4853
▁sneez	-12.4856
anned	-12.4875
rence	-12.4897
laying	-12.4898
elected	-12.4914
▁or	-12.4938
▁uncoo	-12.4941
look	-12.4941
eye	-12.4956
▁hoc	-12.4971
ctica	-12.4976
▁earli	-12.4986
burner	-12.5
tious	-12.5007
▁lone	-12.501
riving	-12.5015
▁accuse	-12.5015
ut	-12.502
pig	-12.5043
xup	-12.5044
irring	-12.5044
merchant	-12.505
assy	-12.5054
▁prom	-12.507
ooing	-12.5087
sia	-12.5089
▁myster	-12.5091
arr	-12.512
▁controll	-12.5141
▁alli	-12.5148
orms	-12.5153
ning	-12.5156
hy	-12.5171
▁ou	-12.5173
idable	-12.5177
hoohoo	-12.5178
▁fantastical	-12.5181
▁zee	-12.5182
oft	-12.5183
▁swip	-12.5194
iti	-12.5206
ets	-12.5219
▁whit	-12.5231
prints	-12.5244
▁lic	-12.5247
lain	-12.5266
eatgreatgreatgr	-12.5285
fr	-12.5296
▁symp	-12.5297
rm	-12.5327
▁quad	-12.5331
▁nasti	-12.5333
▁hier	-12.5342
▁towns	-12.5345
rag	-12.5348
olation	-12.535
onies	-12.5365
▁cape	-12.5367
▁dealers	-12.5375
▁lou	-12.5383
enomen	-12.5418
▁quee	-12.5432
little	-12.5453
aaah	-12.5456
olic	-12.5499
owns	-12.5511
▁ic	-12.5523
nama	-12.5525
minate	-12.5534
going	-12.5554
ntac	-12.556
wink	-12.5565
mmuni	-12.5566
ologists	-12.5569
poo	-12.5575
▁mitt	-12.5582
ingers	-12.5584
illed	-12.5593
▁defe	-12.5599
ann	-12.5608
▁prof	-12.5617
set	-12.5634
coats	-12.5636
▁swa	-12.5651
lli	-12.5653
arl	-12.5663
oma	-12.5679
itze	-12.5679
▁ir	-12.5681
eeling	-12.5687
hell	-12.5696
bb	-12.5699
ely	-12.571
▁rem	-12.5711
▁formal	-12.5714
tro	-12.5717
oss	-12.5718
▁fus	-12.5723
mobile	-12.5729
ties	-12.5731
▁lists	-12.5735
nders	-12.5739
▁scor	-12.5741
▁devot	-12.5742
▁bene	-12.5748
uve	-12.5749
▁rac	-12.5757
ners	-12.5775
▁christi	-12.5777
▁rank	-12.5783
ouse	-12.5785
▁mirac	-12.5796
ugging	-12.5805
▁funn	-12.5816
▁thatta	-12.5836
ainly	-12.5836
aaaaah	-12.5851
anger	-12.5854
▁seventy	-12.5855
▁assembl	-12.5861
ulous	-12.5878
imum	-12.5882
oe	-12.5891
▁soli	-12.5891
▁reduc	-12.5892
liar	-12.5904
▁emb	-12.5906
ari	-12.591
star	-12.592
liable	-12.5928
▁pos	-12.5932
▁tab	-12.594
pong	-12.5948
ampu	-12.5951
pp	-12.5983
hae	-12.5995
po	-12.6003
hop	-12.6005
mont	-12.6013
▁ko	-12.6019
▁hideou	-12.6037
mbone	-12.6046
▁nurs	-12.6049
net	-12.606
▁gorg	-12.6062
▁clo	-12.6077
▁zap	-12.6094
▁furb	-12.6115
▁fizz	-12.6118
▁nosh	-12.6125
▁bou	-12.614
▁gaze	-12.6142
unkies	-12.6156
▁tippy	-12.616
▁adopti	-12.6172
oned	-12.6178
flex	-12.6182
lling	-12.6188
lp	-12.6207
ersfield	-12.6212
▁foll	-12.6243
iquet	-12.6248
▁thru	-12.6255
idity	-12.6271
▁migra	-12.628
tu	-12.6289
▁sou	-12.6299
pul	-12.6309
first	-12.6315
atic	-12.633
▁hange	-12.6331
▁sli	-12.6336
levels	-12.6338
killed	-12.6351
▁ascen	-12.6354
comin	-12.6354
huh	-12.6358
assurance	-12.6367
footed	-12.6372
▁awe	-12.6383
▁approv	-12.6413
please	-12.6415
▁wid	-12.6418
▁mechani	-12.6421
vable	-12.6422
▁astro	-12.6424
sco	-12.6427
▁ration	-12.6449
logical	-12.6461
ound	-12.6465
lake	-12.6469
▁swo	-12.6475
wit	-12.6484
pity	-12.6506
shoot	-12.6507
▁repel	-12.6509
ones	-12.6514
tsy	-12.652
turn	-12.6524
consi	-12.6535
igu	-12.6564
▁hyu	-12.6566
▁hypno	-12.658
fui	-12.6588
▁exc	-12.6591
lyn	-12.6594
iting	-12.6594
▁leapin	-12.6595
mates	-12.6607
lip	-12.6613
fish	-12.6628
won	-12.6661
rad	-12.6662
judged	-12.6664
sorry	-12.6666
osing	-12.6668
lay	-12.6691
vie	-12.6697
nto	-12.6701
ham	-12.6705
▁tingl	-12.6719
▁infl	-12.6729
van	-12.673
▁uhwe	-12.6733
▁kara	-12.6736
▁pra	-12.6742
looded	-12.6742
ready	-12.6755
maybe	-12.6756
▁expi	-12.6758
burn	-12.6768
▁span	-12.6783
big	-12.6784
▁frie	-12.6803
alo	-12.6812
▁ree	-12.6821
honey	-12.6821
door	-12.6821
▁smok	-12.6828
gger	-12.683
▁hollerin	-12.6831
hear	-12.6835
litary	-12.6843
▁disapp	-12.685
two	-12.6861
everything	-12.6876
stand	-12.6877
laho	-12.6878
spect	-12.6879
▁instal	-12.6886
▁nerv	-12.6932
▁webb	-12.6934
▁physio	-12.6941
oozie	-12.6942
rock	-12.6943
▁acu	-12.6947
▁mea	-12.6953
▁domin	-12.6954
holes	-12.6958
care	-12.6965
inational	-12.6969
cks	-12.6976
whoa	-12.6982
▁hustl	-12.6982
▁wwwh	-12.6984
hhhhhhhhhhhhh	-12.6988
▁venu	-12.699
▁reviv	-12.699
ovic	-12.6998
▁possib	-12.7
orks	-12.7007
your	-12.7011
ibu	-12.7014
cted	-12.7015
▁produc	-12.7024
wers	-12.7042
mind	-12.7053
▁tak	-12.7055
mother	-12.7055
og	-12.7063
tory	-12.7064
elly	-12.7067
itted	-12.7068
erate	-12.7069
ocus	-12.7069
▁floatin	-12.7083
▁affect	-12.7083
dad	-12.7098
gling	-12.7103
lda	-12.7111
▁whis	-12.7113
ero	-12.7115
remember	-12.7117
loppy	-12.7123
girl	-12.7128
three	-12.714
team	-12.7142
together	-12.7154
more	-12.7157
rary	-12.7162
tons	-12.7168
stop	-12.7182
▁shack	-12.7184
▁rout	-12.7201
▁var	-12.7203
ti	-12.7205
amp	-12.7208
thanks	-12.7213
ugged	-12.723
▁glue	-12.7241
ancing	-12.7247
oopside	-12.7249
fty	-12.725
without	-12.7261
▁monog	-12.7268
face	-12.7271
oxin	-12.7272
▁advis	-12.7286
▁communica	-12.7289
▁babysit	-12.7289
rmative	-12.7292
▁colo	-12.7296
▁flas	-12.7298
uld	-12.7299
▁mist	-12.7301
morning	-12.7302
▁mol	-12.7304
ease	-12.7308
member	-12.7323
help	-12.7326
▁deca	-12.7329
▁colic	-12.7332
vv	-12.7333
luck	-12.7333
▁peta	-12.734
ene	-12.734
▁begg	-12.734
nking	-12.7341
blem	-12.7342
kind	-12.7342
dys	-12.7351
someone	-12.7353
hard	-12.7355
word	-12.7357
law	-12.7359
trude	-12.7361
▁provo	-12.7363
school	-12.7368
polo	-12.7369
▁emotion	-12.737
▁dea	-12.7375
▁trad	-12.7378
nin	-12.7383
▁ser	-12.7384
egr	-12.7386
▁virtu	-12.7393
left	-12.7394
▁nor	-12.7405
rammed	-12.7419
after	-12.7421
tique	-12.7422
tually	-12.7428
aiiy	-12.7429
issi	-12.7433
nothing	-12.7433
itrate	-12.7439
havent	-12.7447
xen	-12.7459
▁involv	-12.7471
menti	-12.7472
matilda	-12.7474
▁memo	-12.7474
true	-12.7476
woman	-12.7479
important	-12.7482
▁pla	-12.7482
isnt	-12.7493
stay	-12.7493
▁lectur	-12.7498
▁groovin	-12.7502
rody	-12.7503
prince	-12.7512
who	-12.7519
▁poke	-12.7526
▁how	-12.7528
zie	-12.753
special	-12.7531
told	-12.7532
nu	-12.7537
tinguish	-12.7554
▁sept	-12.7557
egation	-12.7557
▁gre	-12.7557
homa	-12.7564
▁troubl	-12.7571
sterling	-12.7573
tta	-12.7576
grain	-12.7577
▁asc	-12.7583
week	-12.7585
▁frolic	-12.7592
year	-12.7598
worth	-12.7605
▁ofj	-12.7609
▁reserv	-12.7611
▁stud	-12.7611
oop	-12.7612
fast	-12.7613
exactly	-12.7614
▁imbecil	-12.7615
▁scen	-12.7617
petition	-12.7617
safe	-12.7617
poor	-12.762
ather	-12.762
▁nava	-12.7621
food	-12.7622
white	-12.7625
perhaps	-12.7625
claw	-12.7629
nobody	-12.7634
deal	-12.7637
cris	-12.7641
ew	-12.7641
anne	-12.7644
trust	-12.765
behind	-12.7653
▁mik	-12.7664
inger	-12.7672
imentary	-12.7673
▁phi	-12.7677
player	-12.7678
▁sti	-12.7678
mmemorial	-12.7678
integrat	-12.7679
craft	-12.7682
country	-12.7683
small	-12.7689
served	-12.7689
▁flirt	-12.769
chief	-12.7693
▁wahwa	-12.7694
tim	-12.7702
forest	-12.7706
lapped	-12.7706
▁amb	-12.7706
flying	-12.7706
▁ache	-12.7706
▁stinkin	-12.7708
sign	-12.7712
feeling	-12.7713
magic	-12.7714
making	-12.7714
daughter	-12.7717
cule	-12.7718
▁buti	-12.7719
loom	-12.7719
▁acqui	-12.7721
hungry	-12.7722
merry	-12.7727
ean	-12.773
planet	-12.7731
cr	-12.7734
ohoh	-12.7739
record	-12.774
▁dar	-12.7742
employ	-12.7748
american	-12.7748
plow	-12.7749
winner	-12.7751
cken	-12.7752
planned	-12.7754
grape	-12.7758
flies	-12.7759
▁hmmm	-12.7759
charge	-12.7761
fair	-12.7763
▁plu	-12.7764
valley	-12.7764
▁fourt	-12.7766
armed	-12.7767
office	-12.7768
explain	-12.7769
rocket	-12.7771
jecting	-12.7772
step	-12.7773
third	-12.7775
dressed	-12.7776
damn	-12.7778
cake	-12.7779
coach	-12.778
heep	-12.7781
peace	-12.7781
whoo	-12.7782
dance	-12.7783
silver	-12.7787
force	-12.7788
heard	-12.7789
latte	-12.7789
reptile	-12.779
aria	-12.7791
space	-12.7792
▁craw	-12.7795
service	-12.7796
glitch	-12.7797
impy	-12.7799
ratio	-12.78
garden	-12.7801
butt	-12.7802
handle	-12.7803
yd	-12.7805
post	-12.7805
monster	-12.7807
climbing	-12.7808
monkey	-12.7809
mission	-12.7809
▁haird	-12.7809
glass	-12.7809
▁eliminat	-12.781
milk	-12.7811
fried	-12.7811
finger	-12.7811
throat	-12.7812
diction	-12.7814
tters	-12.7815
sylv	-12.7817
polar	-12.7817
▁dy	-12.782
honest	-12.7821
miles	-12.7823
natural	-12.7823
feller	-12.7824
angle	-12.7824
▁explore	-12.7825
▁escap	-12.7826
giorno	-12.7826
▁bakin	-12.7826
smith	-12.7829
writer	-12.7829
▁prophe	-12.7829
teacher	-12.7829
whimpering	-12.783
figured	-12.7833
walking	-12.7833
doodle	-12.7833
ifies	-12.7833
pitcher	-12.7835
broken	-12.7836
spindle	-12.7837
▁sca	-12.7839
floor	-12.7839
ks	-12.7842
▁fulfil	-12.7844
hush	-12.7844
paper	-12.7846
block	-12.7848
brake	-12.7848
study	-12.7849
wahwah	-12.785
thief	-12.7851
alarm	-12.7853
appear	-12.7853
hunter	-12.7856
▁origin	-12.7857
grass	-12.7857
location	-12.7857
cock	-12.7858
parallel	-12.7859
columbus	-12.7859
racing	-12.7859
ntless	-12.7859
landslide	-12.786
prejudice	-12.786
occupied	-12.7861
▁attracti	-12.7862
▁jun	-12.7862
max	-12.7863
challenge	-12.7863
mount	-12.7864
condition	-12.7864
wreck	-12.7865
tan	-12.7865
slipper	-12.7865
witness	-12.7865
brush	-12.7867
invested	-12.7867
dirty	-12.7868
popular	-12.7868
examine	-12.7869
foam	-12.7869
objectiv	-12.787
bolted	-12.787
happening	-12.7871
mark	-12.7872
▁brads	-12.7872
frequen	-12.7873
puncture	-12.7874
loose	-12.7874
brows	-12.7874
calculation	-12.7875
invited	-12.7876
chocolate	-12.7876
positively	-12.7876
david	-12.7876
▁anthro	-12.7877
six	-12.7878
warned	-12.7878
pikachu	-12.7879
illusion	-12.7879
canvas	-12.7879
command	-12.7879
begging	-12.788
africa	-12.7881
favor	-12.7881
chemistry	-12.7881
fortune	-12.7881
wonderin	-12.7881
writing	-12.7883
lous	-12.7883
kerchief	-12.7883
▁inex	-12.7883
prepared	-12.7884
oxide	-12.7884
payment	-12.7884
mirror	-12.7885
raised	-12.7885
noticed	-12.7886
flexible	-12.7886
mentioned	-12.7886
research	-12.7887
kansas	-12.7887
bonus	-12.7888
fficient	-12.7888
attractive	-12.7888
threatening	-12.7888
route	-12.7889
bodies	-12.7889
channel	-12.7889
varmint	-12.7889
sitter	-12.789
fourth	-12.789
altitude	-12.7891
nurse	-12.7891
grateful	-12.7892
scratch	-12.7892
knees	-12.7892
establish	-12.7893
injection	-12.7894
pressure	-12.7894
cracks	-12.7894
snakes	-12.7894
▁cinder	-12.7895
flip	-12.7897
tension	-12.7898
announced	-12.7898
switzerland	-12.7899
simian	-12.7901
flavor	-12.7903
authoriz	-12.7903
thatll	-12.7904
airship	-12.7904
burst	-12.7905
banana	-12.7905
patiently	-12.7905
fabric	-12.7905
akam	-12.7906
complete	-12.7906
direct	-12.7906
ference	-12.7906
deaf	-12.7907
advantage	-12.7908
dandelions	-12.7908
type	-12.7908
valuable	-12.7908
chen	-12.7909
fighting	-12.791
skating	-12.791
torch	-12.7911
▁supervi	-12.7912
livin	-12.7912
easants	-12.7913
foreseen	-12.7913
organized	-12.7914
daisy	-12.7915
▁trappe	-12.7915
terminated	-12.7916
wrinkle	-12.7916
section	-12.7916
confidence	-12.7917
capable	-12.7917
ility	-12.7918
loving	-12.7918
video	-12.792
screen	-12.792
communica	-12.792
rivers	-12.7921
▁chang	-12.7921
cular	-12.7921
▁collectin	-12.7922
glasses	-12.7922
reveal	-12.7922
sque	-12.7923
loyal	-12.7923
grab	-12.7923
throne	-12.7926
trained	-12.7927
▁hails	-12.7927
▁hercule	-12.7927
▁cont	-12.7928
solution	-12.7928
escort	-12.7928
standard	-12.793
▁mara	-12.7931
astronaut	-12.7932
jection	-12.7933
discovered	-12.7935
claimed	-12.7935
maiden	-12.7936
▁donat	-12.7936
bearing	-12.7937
▁viol	-12.7937
indulge	-12.7938
hahahaha	-12.7938
▁stati	-12.7939
ighter	-12.7939
rison	-12.7943
oletti	-12.7943
▁educat	-12.7944
support	-12.7945
sensitive	-12.795
reign	-12.795
greek	-12.7951
charged	-12.7953
smoking	-12.7953
warrant	-12.7953
▁courte	-12.7954
draft	-12.7954
expense	-12.7954
mike	-12.7957
worthy	-12.7957
▁corp	-12.7958
quisition	-12.7959
▁fractio	-12.796
calling	-12.796
path	-12.7962
firing	-12.7963
form	-12.7963
legend	-12.7965
islands	-12.7966
month	-12.7966
waves	-12.7967
organiz	-12.797
▁kilometer	-12.7972
▁pediatric	-12.7972
▁pajama	-12.7972
jean	-12.7973
plus	-12.7974
thinking	-12.7975
graduate	-12.7976
▁suitcase	-12.7976
▁clau	-12.7976
bugged	-12.7976
▁suspicion	-12.7977
titles	-12.7977
lis	-12.7978
select	-12.7978
▁beggar	-12.7978
▁ancho	-12.7979
bbering	-12.7979
ahhaha	-12.7979
active	-12.798
prize	-12.798
▁slurp	-12.7981
eaves	-12.7981
visor	-12.7982
▁robber	-12.7982
budd	-12.7983
fer	-12.7983
▁precaution	-12.7984
▁semifinal	-12.7984
tchery	-12.7984
▁voca	-12.7984
▁pancake	-12.7984
▁applicant	-12.7984
▁mathematic	-12.7984
cry	-12.7985
▁convenien	-12.7985
dreaming	-12.7986
▁contribution	-12.7987
inflate	-12.7988
ju	-12.7989
▁afterward	-12.7989
lifetime	-12.799
with	-12.799
allowed	-12.7991
▁daniel	-12.7991
▁honeybee	-12.7992
named	-12.7992
▁wiggin	-12.7993
regular	-12.7993
▁pollinator	-12.7993
▁belief	-12.7993
▁monk	-12.7994
▁with	-12.7995
▁assis	-12.7995
icul	-12.7996
picking	-12.7996
▁tart	-12.7996
jam	-12.8001
ggets	-12.8001
▁steward	-12.8002
elves	-12.8004
olated	-12.8004
▁pigeon	-12.8005
▁improvement	-12.8005
constructi	-12.8008
mbly	-12.8009
▁scoff	-12.8009
▁outlet	-12.801
▁relation	-12.8012
▁strap	-12.8013
▁bloke	-12.8015
▁unusua	-12.8015
zy	-12.8015
wheres	-12.8017
▁airs	-12.8018
▁instruction	-12.802
▁teenager	-12.8021
▁cooperat	-12.8021
crying	-12.8023
beak	-12.8024
▁tourist	-12.8025
▁sits	-12.8025
common	-12.8026
▁whooo	-12.8027
▁nurtur	-12.8027
▁volcan	-12.8028
▁rumble	-12.8029
prey	-12.803
stinate	-12.803
▁rumor	-12.803
bar	-12.8031
▁asset	-12.8031
▁coy	-12.8032
▁recogni	-12.8033
notes	-12.8036
blown	-12.8036
▁futur	-12.8037
pepper	-12.804
temper	-12.8043
▁cuff	-12.8043
▁canvas	-12.8043
▁replac	-12.8044
▁reside	-12.8044
▁brink	-12.8045
dresses	-12.8045
▁spiri	-12.8046
parents	-12.8046
▁captur	-12.8047
contest	-12.8047
▁gulp	-12.8048
cross	-12.8051
fever	-12.8052
ointment	-12.8054
▁evolv	-12.8056
chae	-12.8056
holder	-12.8057
▁persua	-12.8059
pleasures	-12.8059
sequen	-12.806
pur	-12.8062
▁suff	-12.8063
eatgrandmother	-12.8063
alists	-12.8065
unches	-12.8066
longed	-12.8068
weeks	-12.8068
promot	-12.8068
▁squea	-12.807
▁impossibl	-12.807
▁telephon	-12.807
▁importan	-12.807
▁incredibl	-12.807
▁snag	-12.8071
enrich	-12.8071
hows	-12.8071
▁fascinat	-12.8073
▁pinchcliff	-12.8074
▁obligat	-12.8074
▁intim	-12.8074
▁gestur	-12.8075
▁refresh	-12.8075
▁fertil	-12.8075
chau	-12.8076
▁invit	-12.8077
▁splat	-12.8077
▁undo	-12.8078
▁surge	-12.808
▁jess	-12.808
▁definit	-12.8081
▁apprecia	-12.8081
▁dem	-12.8082
▁miserabl	-12.8082
▁oppos	-12.8083
files	-12.8084
▁breez	-12.8084
aahaa	-12.8085
▁complet	-12.8086
▁innovati	-12.8086
combe	-12.8086
▁convict	-12.8086
▁entomolog	-12.8086
▁expos	-12.8087
▁vibrati	-12.8087
▁inspire	-12.8088
▁grizzl	-12.8088
▁satisf	-12.8088
▁excellenc	-12.8089
▁optimis	-12.8089
▁ohhhhhhhhhhhhh	-12.8089
▁revise	-12.8089
▁snuggl	-12.8089
▁reject	-12.8089
▁crumpl	-12.8089
▁sophisticat	-12.809
▁ambu	-12.809
▁blaze	-12.809
▁wobbl	-12.809
▁discourag	-12.809
▁flyer	-12.809
▁astronom	-12.809
▁territor	-12.8091
▁opportunit	-12.8091
▁pollinat	-12.8092
▁punctu	-12.8092
▁amaz	-12.8092
▁snuff	-12.8092
▁adjust	-12.8093
rid	-12.8093
▁galax	-12.8093
uspicious	-12.8095
▁tosse	-12.8095
rupted	-12.8096
▁anatom	-12.8096
▁ceremon	-12.8096
▁terrib	-12.8097
▁enchant	-12.8097
▁agenc	-12.8097
▁clums	-12.8097
▁fanta	-12.8097
▁mahdji	-12.8098
▁thirst	-12.8098
▁compensati	-12.8098
▁rosebu	-12.8099
▁obscur	-12.81
▁russia	-12.8101
▁capita	-12.8101
▁expan	-12.8101
lived	-12.8101
color	-12.8102
▁schwa	-12.8102
phic	-12.8103
▁fundrais	-12.8103
▁anythin	-12.8103
▁troub	-12.8103
▁ob	-12.8104
▁natura	-12.8104
▁adju	-12.8104
plates	-12.8105
▁vermi	-12.8106
▁carniv	-12.8106
ntelligence	-12.8106
mpressive	-12.8106
rgling	-12.8107
▁myoj	-12.8107
egger	-12.8107
▁mornin	-12.8107
▁refracti	-12.8108
ymph	-12.8108
▁fuj	-12.8108
omania	-12.8108
▁stumble	-12.8108
▁financi	-12.8109
▁sugg	-12.8109
▁devastati	-12.8109
escribed	-12.811
▁diggin	-12.811
▁contribut	-12.811
nvas	-12.811
▁olympi	-12.811
nuku	-12.811
▁destruct	-12.8111
▁flywh	-12.8111
▁yiyiyi	-12.8111
rcules	-12.8111
▁evict	-12.8111
▁kerjarqu	-12.8111
voluntarily	-12.8111
esigner	-12.8111
▁ohohohoh	-12.8111
scription	-12.8111
▁aviat	-12.8112
▁atlant	-12.8112
▁deplo	-12.8112
▁critic	-12.8112
▁stimulati	-12.8112
▁techno	-12.8112
struction	-12.8112
ficient	-12.8112
hide	-12.8112
bondi	-12.8112
orably	-12.8112
▁oppose	-12.8113
ogey	-12.8113
solut	-12.8113
▁deducti	-12.8113
▁intellect	-12.8113
udging	-12.8113
▁disqualif	-12.8113
▁approximat	-12.8113
▁cecil	-12.8113
▁stouthea	-12.8113
hurst	-12.8113
preciation	-12.8113
quer	-12.8113
ponsibility	-12.8113
dynamic	-12.8113
▁inhabit	-12.8113
▁ayyiyi	-12.8113
hospita	-12.8113
amba	-12.8113
yesyesyesyes	-12.8113
bebebe	-12.8113
hidihidihi	-12.8113
neeneenee	-12.8113
deedeedeed	-12.8113
dootdoot	-12.8113
ddddd	-12.8113
demeanor	-12.8113
eyieyie	-12.8113
ggett	-12.8113
ollolloll	-12.8113
adiddle	-12.8113
indicati	-12.8113
shhshh	-12.8114
▁marcia	-12.8114
advert	-12.8114
ography	-12.8114
▁yeeha	-12.8114
centric	-12.8114
ographers	-12.8114
rambling	-12.8114
▁afri	-12.8114
kanth	-12.8114
bobobo	-12.8114
▁detonat	-12.8114
crimina	-12.8114
▁alrig	-12.8114
▁freezin	-12.8114
▁advent	-12.8114
proxim	-12.8114
▁possibilit	-12.8114
profe	-12.8114
▁irresis	-12.8114
▁occup	-12.8115
ecutive	-12.8115
uggly	-12.8115
players	-12.8115
slaught	-12.8115
efficient	-12.8115
▁writin	-12.8115
xili	-12.8115
curit	-12.8115
guessing	-12.8115
kura	-12.8116
▁indisp	-12.8116
bilt	-12.8116
▁disgra	-12.8116
▁ohhhhhhh	-12.8116
rumpet	-12.8116
laborat	-12.8116
termination	-12.8116
unuku	-12.8117
akawa	-12.8117
rawl	-12.8117
rniture	-12.8117
▁rudol	-12.8117
▁destin	-12.8117
▁compute	-12.8117
▁twea	-12.8118
vinci	-12.8118
▁audit	-12.8118
▁journ	-12.8118
▁albu	-12.8118
entials	-12.8119
cinating	-12.8119
▁stubb	-12.8119
▁influ	-12.8119
▁excel	-12.812
wich	-12.812
torio	-12.812
anhour	-12.812
▁reneg	-12.812
ecta	-12.812
artik	-12.8121
▁britt	-12.8121
avora	-12.8121
activity	-12.8121
gnifi	-12.8121
ometers	-12.8122
omaniac	-12.8122
▁crimin	-12.8122
▁ludo	-12.8123
▁beggin	-12.8123
▁prais	-12.8123
▁priva	-12.8123
culty	-12.8123
▁bogey	-12.8124
▁germ	-12.8124
pasto	-12.8124
krau	-12.8125
atherine	-12.8125
▁bicker	-12.8126
claud	-12.8126
heigh	-12.8126
vivi	-12.8126
▁slink	-12.8126
jour	-12.8126
gestion	-12.8127
erendi	-12.8127
▁shakin	-12.8127
▁flatten	-12.8128
viole	-12.8128
sound	-12.8128
fect	-12.8128
▁demo	-12.8128
signment	-12.8129
▁yahhoo	-12.8129
▁occ	-12.813
ubbo	-12.813
▁congr	-12.8131
lida	-12.8131
▁injun	-12.8131
change	-12.8131
mazi	-12.8132
nnell	-12.8132
▁physic	-12.8132
vail	-12.8133
tably	-12.8133
ciate	-12.8133
▁extin	-12.8133
▁centuri	-12.8133
flict	-12.8134
ibbe	-12.8134
iamo	-12.8134
aaahaa	-12.8135
hahahahah	-12.8135
▁balth	-12.8136
rockets	-12.8136
tangle	-12.8136
rope	-12.8136
minut	-12.8136
▁alex	-12.8136
▁belie	-12.8137
▁curr	-12.8137
▁comfortabl	-12.8137
scaping	-12.8138
shootin	-12.8138
▁leftover	-12.8138
solute	-12.8138
▁slippin	-12.8139
▁calib	-12.814
▁magnifi	-12.8141
▁garb	-12.8141
▁convent	-12.8142
▁presid	-12.8143
▁telep	-12.8143
edict	-12.8143
joyed	-12.8143
▁transf	-12.8144
▁borro	-12.8144
secution	-12.8144
ruthers	-12.8145
culture	-12.8145
olence	-12.8145
assiv	-12.8145
▁nurture	-12.8145
▁absol	-12.8146
ichne	-12.8147
ucket	-12.8147
robat	-12.8147
▁decreas	-12.8147
▁loadin	-12.8147
strum	-12.8147
▁suppos	-12.8147
▁remark	-12.8148
▁diff	-12.8148
▁appar	-12.8148
theless	-12.8149
▁granddad	-12.8149
▁wadd	-12.8151
▁sterl	-12.8152
▁franc	-12.8154
▁conta	-12.8154
▁guida	-12.8155
specting	-12.8156
▁barbar	-12.8156
▁surf	-12.8156
uit	-12.8156
▁crick	-12.8158
tenance	-12.8158
itab	-12.8158
▁sunda	-12.8158
▁siz	-12.8159
▁indicat	-12.8159
▁assemble	-12.8161
kels	-12.8161
seif	-12.8161
ilian	-12.8162
▁mostl	-12.8162
pops	-12.8164
▁jui	-12.8165
alize	-12.8166
articula	-12.8166
sumi	-12.8167
▁vul	-12.8167
▁pamp	-12.8167
toget	-12.8167
▁educate	-12.8168
pan	-12.8168
▁crim	-12.817
dingding	-12.8171
ccord	-12.8171
sleigh	-12.8172
terina	-12.8172
ruff	-12.8172
ockey	-12.8172
tippin	-12.8172
▁confer	-12.8172
ietz	-12.8175
▁preca	-12.8175
uffer	-12.8176
▁frien	-12.8179
▁dwel	-12.8179
▁incon	-12.818
quot	-12.8181
▁stupe	-12.8181
piggy	-12.8182
▁housekeep	-12.8182
▁automati	-12.8182
▁fema	-12.8183
linus	-12.8184
livered	-12.8185
ruly	-12.8185
ario	-12.8185
▁ahhhhh	-12.8187
▁defus	-12.8188
terran	-12.8189
rative	-12.8189
airie	-12.8189
▁simo	-12.819
pff	-12.8192
▁settin	-12.8194
▁emoti	-12.8194
morr	-12.8197
adios	-12.8199
manding	-12.8199
ddling	-12.82
▁ibu	-12.8201
▁thou	-12.8201
▁suz	-12.8202
▁promis	-12.8202
▁imaginati	-12.8205
appa	-12.8205
fie	-12.8207
pital	-12.8207
▁exhi	-12.8207
▁empt	-12.8208
trap	-12.8208
▁donny	-12.8209
▁bathro	-12.8209
kla	-12.821
zine	-12.8211
▁grange	-12.8211
licity	-12.8211
mantic	-12.8213
pture	-12.8214
▁phila	-12.8215
▁lumber	-12.8216
▁hahah	-12.8217
▁toil	-12.8217
winter	-12.8217
▁dict	-12.8218
▁connecti	-12.8219
▁abso	-12.8219
fare	-12.8219
dying	-12.8219
ticu	-12.8219
mad	-12.822
dians	-12.8221
▁constructi	-12.8222
pigs	-12.8224
bourin	-12.8224
▁cul	-12.8226
amous	-12.8226
venti	-12.8229
▁calcu	-12.8231
▁balanc	-12.8231
eas	-12.8231
udged	-12.8232
▁humm	-12.8233
nega	-12.8236
▁irritate	-12.8239
vious	-12.8241
sam	-12.8244
▁apo	-12.8245
▁ahhah	-12.8245
▁boardin	-12.8248
syto	-12.8248
pho	-12.825
▁barkin	-12.825
▁hidin	-12.825
▁culp	-12.825
▁mode	-12.825
itious	-12.8252
▁asp	-12.8252
icate	-12.8253
orious	-12.8254
they	-12.8255
osity	-12.8255
atro	-12.8257
▁iv	-12.8258
▁interv	-12.8259
lasses	-12.8259
convenience	-12.826
▁insi	-12.8261
▁lyin	-12.8261
▁andr	-12.8262
▁desper	-12.8262
▁throwin	-12.8264
ffling	-12.8266
vices	-12.8268
▁hoora	-12.8268
▁jingl	-12.827
ooooooo	-12.8271
fulness	-12.8273
lig	-12.8273
ixi	-12.8274
▁swall	-12.8274
umming	-12.8277
▁spacesh	-12.8278
venture	-12.828
▁obst	-12.828
gle	-12.8282
arently	-12.8283
eve	-12.8284
dum	-12.8284
▁bettin	-12.8285
▁ios	-12.8286
chill	-12.8286
▁pep	-12.8289
achero	-12.8289
▁ahhhh	-12.8291
chore	-12.8292
▁jose	-12.8297
▁reptile	-12.8299
agers	-12.83
▁spear	-12.8301
cob	-12.8301
udgeme	-12.8302
▁poster	-12.8303
pup	-12.8304
destructi	-12.8305
▁thom	-12.8308
racking	-12.8311
▁washin	-12.8311
ania	-12.8311
▁decid	-12.8312
culars	-12.8312
were	-12.8315
▁nood	-12.8316
article	-12.8316
▁dope	-12.8317
eviden	-12.8318
dition	-12.832
▁marchin	-12.8324
vate	-12.8324
▁sputter	-12.833
▁lanko	-12.8331
usage	-12.8331
uation	-12.8332
▁waah	-12.8335
peting	-12.8336
▁kum	-12.8337
▁toge	-12.8338
lty	-12.8338
alty	-12.8339
axe	-12.834
difference	-12.834
kok	-12.834
▁moro	-12.834
pine	-12.8341
▁sprin	-12.8344
▁cele	-12.8345
▁flop	-12.8346
▁hogget	-12.8346
itzer	-12.8349
▁ahhaha	-12.835
▁brake	-12.8351
▁cour	-12.8351
ember	-12.8351
▁sneakin	-12.8352
sort	-12.8353
ience	-12.8359
lita	-12.8359
▁explod	-12.836
ooo	-12.8362
▁rejoi	-12.8363
icates	-12.8364
ppi	-12.8365
▁cheatin	-12.8369
changed	-12.837
clare	-12.8371
▁ohohoh	-12.8372
▁makin	-12.8373
aucer	-12.8373
▁fiftyfi	-12.8373
▁pepper	-12.8377
stations	-12.8377
ji	-12.8377
atsu	-12.8379
▁burnin	-12.838
excus	-12.8381
▁banish	-12.8382
spin	-12.8383
idate	-12.8394
rvan	-12.8395
iva	-12.8396
▁sant	-12.8399
allet	-12.8399
▁celebrit	-12.8399
▁nois	-12.8404
lias	-12.8404
bber	-12.8409
rowl	-12.8409
meda	-12.8409
ookies	-12.841
▁withs	-12.8411
oose	-12.8411
actl	-12.8412
▁poi	-12.8413
▁tabl	-12.8413
▁repeatin	-12.8418
▁ea	-12.8419
▁teie	-12.842
▁sylv	-12.842
ngiorno	-12.8421
▁suic	-12.8423
▁consume	-12.8424
▁mic	-12.8426
pint	-12.8427
▁glitch	-12.8428
▁thatl	-12.8429
endar	-12.8432
tub	-12.8432
rds	-12.8432
isks	-12.8435
inated	-12.844
▁ratio	-12.844
incess	-12.8441
iace	-12.8442
▁hidi	-12.8444
▁whereve	-12.8445
ives	-12.8446
▁itchi	-12.8448
▁syd	-12.845
▁q	-12.8452
cus	-12.8453
▁majesti	-12.8453
quet	-12.8454
▁grubs	-12.8455
elic	-12.8455
▁brid	-12.8455
▁liftin	-12.8458
otti	-12.8459
garth	-12.8461
throw	-12.8462
▁dais	-12.8465
▁jung	-12.8466
lion	-12.8468
▁sax	-12.8469
▁canc	-12.847
▁obt	-12.8471
doors	-12.8471
sperate	-12.8476
▁muffle	-12.8477
▁hoi	-12.8477
aut	-12.8478
▁wilde	-12.8483
▁rema	-12.8484
linger	-12.8487
mbi	-12.8487
enna	-12.8489
roken	-12.849
▁tort	-12.8491
▁hono	-12.8491
iaying	-12.8491
berts	-12.8492
▁buc	-12.8494
istine	-12.8494
▁kenne	-12.8498
gum	-12.8499
▁mcwh	-12.8499
▁leadin	-12.8501
▁bran	-12.8502
▁disre	-12.8502
pas	-12.8504
ika	-12.8506
laid	-12.8514
embers	-12.8516
mys	-12.8517
guns	-12.8518
▁tourn	-12.852
psided	-12.8522
▁prog	-12.8522
addled	-12.8526
tcher	-12.8527
illi	-12.853
▁milkin	-12.8532
▁measl	-12.8537
▁ridin	-12.8541
emb	-12.8543
risons	-12.8544
▁travelin	-12.8547
smar	-12.8547
▁blueb	-12.8548
▁dau	-12.8549
▁croon	-12.8549
entry	-12.8549
dex	-12.855
▁after	-12.855
akin	-12.8552
fore	-12.856
▁joh	-12.8561
▁bleed	-12.8561
ument	-12.8561
ethe	-12.8563
▁buon	-12.8564
▁obs	-12.8565
art	-12.8566
soup	-12.8566
zo	-12.8568
eeks	-12.8569
icent	-12.8571
lam	-12.8574
▁snak	-12.8577
efully	-12.858
iped	-12.8581
waddle	-12.8582
mela	-12.8586
▁visitin	-12.8592
adies	-12.8593
lum	-12.8595
▁clan	-12.8596
hea	-12.8596
entist	-12.86
▁messin	-12.8605
roads	-12.8605
ketch	-12.8614
▁throb	-12.8622
atest	-12.8622
mbles	-12.8625
▁ult	-12.8626
▁maxim	-12.8627
umtum	-12.8628
usine	-12.8629
jos	-12.8631
ead	-12.8631
▁pow	-12.8634
clap	-12.8638
rassing	-12.8639
passing	-12.864
▁vici	-12.8643
▁tamper	-12.8644
▁sorr	-12.8646
ighs	-12.8647
urry	-12.8647
▁avo	-12.8647
late	-12.8651
tyle	-12.8653
stical	-12.8656
dding	-12.8656
▁ange	-12.8658
abel	-12.8661
▁remin	-12.8663
dogs	-12.8665
kat	-12.8666
▁eng	-12.8668
▁daw	-12.868
abies	-12.8681
▁endow	-12.8685
ndra	-12.8686
▁countin	-12.8688
rteen	-12.8694
▁succ	-12.8698
sult	-12.8699
▁charme	-12.8699
cture	-12.87
hohoho	-12.87
▁fals	-12.8703
aught	-12.8708
ctors	-12.8708
ggin	-12.8708
▁calmi	-12.8714
war	-12.8714
lowe	-12.8716
hands	-12.8724
mill	-12.8724
▁skier	-12.8726
▁ruf	-12.8728
ssue	-12.8729
▁furni	-12.873
▁chant	-12.8734
lations	-12.8734
joshs	-12.8735
harme	-12.8736
ouri	-12.874
ykes	-12.8746
iveness	-12.8747
pieces	-12.8754
bus	-12.8756
pop	-12.8757
mrs	-12.8759
oved	-12.8761
▁fib	-12.8764
▁confi	-12.8766
▁marve	-12.877
ris	-12.8774
▁tomo	-12.8776
cher	-12.8781
▁gardener	-12.8784
▁rollin	-12.879
▁compe	-12.8795
▁caress	-12.8795
rdrobe	-12.8803
▁witnesse	-12.8808
▁hangin	-12.8809
jing	-12.8809
slau	-12.8813
▁jeane	-12.8824
▁pars	-12.8826
lights	-12.8827
zio	-12.8828
arity	-12.8828
bor	-12.883
tra	-12.8831
▁lull	-12.8834
tur	-12.8846
martial	-12.8855
▁intende	-12.8856
whatever	-12.8856
▁sings	-12.886
mble	-12.8861
ange	-12.8874
▁conven	-12.8879
▁wonderfu	-12.8881
million	-12.8885
ertons	-12.8893
▁noi	-12.8895
rit	-12.8897
irs	-12.8897
istan	-12.8904
▁faithfu	-12.8914
▁precise	-12.8916
▁aok	-12.892
impos	-12.892
▁oft	-12.8921
hist	-12.8922
pus	-12.8927
▁bodi	-12.8931
cuba	-12.8934
▁blues	-12.8944
intrude	-12.8953
▁glid	-12.8956
pulat	-12.8957
doo	-12.897
fies	-12.8972
seeing	-12.8974
▁guardians	-12.8975
toms	-12.8977
▁falk	-12.898
turns	-12.8981
▁mont	-12.8984
▁grin	-12.8985
acts	-12.8986
▁doubletal	-12.8987
stice	-12.8989
abo	-12.8989
gar	-12.8993
mmi	-12.9005
sib	-12.9007
ogrammed	-12.901
▁hesita	-12.901
pute	-12.9013
▁liste	-12.9014
andi	-12.9021
▁bala	-12.9026
aching	-12.9026
▁killin	-12.9028
▁walkin	-12.903
wishing	-12.9036
▁offs	-12.9039
iff	-12.9042
▁centra	-12.9044
▁aff	-12.9053
▁doodl	-12.9058
▁conspi	-12.9064
▁chr	-12.9065
▁forgiven	-12.9067
lanch	-12.9073
gu	-12.9081
▁nee	-12.9085
bon	-12.9086
▁oop	-12.9094
waters	-12.9096
nary	-12.9097
rling	-12.9097
mary	-12.9115
limey	-12.9115
vid	-12.9115
close	-12.9118
▁fern	-12.9125
tune	-12.9128
cle	-12.9128
▁orp	-12.913
bear	-12.9136
stock	-12.9137
mme	-12.9139
fifty	-12.9142
ev	-12.9179
ino	-12.9188
▁producti	-12.9197
▁partic	-12.92
▁juic	-12.9204
▁reck	-12.9207
▁prese	-12.9208
▁highp	-12.9209
ashing	-12.9209
tible	-12.9211
▁fest	-12.9213
▁sau	-12.9216
ork	-12.9218
▁nove	-12.9221
meat	-12.9231
▁sainte	-12.9232
prove	-12.9234
cho	-12.9234
▁rubb	-12.9239
aggi	-12.9243
due	-12.9245
▁aud	-12.9246
erson	-12.9248
asses	-12.9259
gives	-12.9265
▁missis	-12.9265
versed	-12.9272
▁grun	-12.9272
fisher	-12.9284
aken	-12.9291
lize	-12.9292
nix	-12.9295
▁promot	-12.9299
▁decorat	-12.93
hicke	-12.9305
rever	-12.9309
▁coolin	-12.9316
rating	-12.9316
graphs	-12.9318
ornia	-12.9322
bs	-12.9323
sail	-12.9324
▁dwell	-12.9332
▁strip	-12.9336
nner	-12.9341
▁whim	-12.9345
vies	-12.9346
▁embar	-12.9347
▁oldf	-12.935
▁easie	-12.9351
ected	-12.9359
▁fer	-12.9362
oser	-12.9363
▁fantasi	-12.9365
tterly	-12.9368
▁consen	-12.9375
▁massi	-12.9383
lanted	-12.9383
ians	-12.9386
▁wonderin	-12.9387
hhhhhhhhhhhhhh	-12.9391
rnia	-12.94
rden	-12.9401
psi	-12.9402
ovation	-12.9407
mmph	-12.9418
nest	-12.9418
▁pub	-12.9418
▁dish	-12.9431
▁confusi	-12.9447
▁num	-12.9448
eech	-12.9453
▁fightin	-12.9454
▁sm	-12.946
▁fallin	-12.9461
aft	-12.9476
▁raw	-12.9481
ppers	-12.9485
emi	-12.9487
tes	-12.9491
▁gras	-12.9496
▁chains	-12.9498
meo	-12.95
▁hoho	-12.95
controll	-12.9505
wer	-12.9512
iie	-12.953
▁brow	-12.9534
went	-12.9534
barking	-12.9536
▁toxi	-12.9538
▁vit	-12.9541
▁beatin	-12.9546
[...]
