<unk>	0
<s>	0
</s>	0
s	-3.71832
▁im	-4.33713
▁dont	-4.44111
▁know	-4.47512
▁get	-4.73974
▁like	-4.80788
▁right	-4.84625
▁go	-4.87564
▁yeah	-4.92045
▁youre	-4.92445
▁got	-4.94564
▁oh	-4.97564
▁come	-5.00996
▁na	-5.04884
▁thats	-5.14476
▁okay	-5.16229
▁want	-5.2215
▁well	-5.23273
▁one	-5.26321
▁think	-5.30092
ing	-5.30309
▁gon	-5.32411
▁good	-5.36945
▁see	-5.44654
▁man	-5.47895
▁hey	-5.48256
ed	-5.53225
▁look	-5.60876
▁yes	-5.62188
▁take	-5.64236
▁back	-5.65011
▁going	-5.66356
▁ill	-5.669
▁hes	-5.67322
▁time	-5.6903
▁us	-5.74458
▁cant	-5.75641
▁need	-5.75706
▁fuck	-5.76845
▁tell	-5.79414
▁would	-5.80403
▁say	-5.8052
d	-5.83184
▁really	-5.89967
▁please	-5.90453
▁fucking	-5.9057
▁didnt	-5.91731
▁shit	-5.92356
▁something	-5.95807
▁make	-5.99768
▁let	-6.00998
▁love	-6.03663
▁sorry	-6.04486
▁god	-6.04661
▁thank	-6.05534
▁little	-6.06586
▁way	-6.07805
▁could	-6.07858
▁whats	-6.08461
▁never	-6.09028
▁mean	-6.10489
▁uh	-6.11897
▁lets	-6.12272
y	-6.13705
▁give	-6.15021
▁l	-6.15061
▁people	-6.18743
▁theres	-6.19867
▁said	-6.21995
▁ive	-6.22243
▁stop	-6.25353
▁much	-6.26366
▁	-6.26622
▁help	-6.30262
e	-6.30767
▁thing	-6.31184
▁two	-6.32302
▁shes	-6.32979
▁sure	-6.35087
er	-6.3753
▁call	-6.38209
▁talk	-6.40135
▁home	-6.4089
▁theyre	-6.45343
▁wait	-6.45892
▁mr	-6.48295
▁find	-6.49809
▁anything	-6.49847
in	-6.50273
▁even	-6.51695
▁put	-6.52168
▁work	-6.53264
▁keep	-6.54233
▁maybe	-6.55196
▁night	-6.55298
ly	-6.56473
▁music	-6.5686
▁around	-6.59029
▁day	-6.59054
▁wan	-6.59534
▁thought	-6.6087
▁ever	-6.61126
▁money	-6.61338
▁ta	-6.62617
▁great	-6.6302
▁first	-6.6319
▁life	-6.63357
▁nothing	-6.64733
▁hell	-6.65515
▁better	-6.66826
▁last	-6.67904
▁still	-6.68053
▁told	-6.6896
▁feel	-6.70822
▁sir	-6.70937
▁baby	-6.71697
▁name	-6.71831
▁long	-6.72094
▁listen	-6.72514
▁leave	-6.72604
▁hi	-6.72807
▁guys	-6.72871
▁guy	-6.73137
▁ok	-6.73964
▁girl	-6.74703
▁stay	-6.75806
▁kill	-6.76917
▁everything	-6.78142
▁hear	-6.78172
▁doesnt	-6.78788
▁understand	-6.78788
▁nice	-6.79103
▁car	-6.79416
a	-6.79578
▁things	-6.79922
▁away	-6.80798
▁door	-6.82261
▁hello	-6.83136
▁place	-6.83227
▁years	-6.8338
▁remember	-6.85567
▁phone	-6.85833
▁id	-6.85889
▁new	-6.8624
▁every	-6.86258
▁coming	-6.86439
t	-6.86513
▁lot	-6.86667
▁woman	-6.86853
▁um	-6.87715
▁always	-6.88152
▁wont	-6.89027
▁old	-6.89088
▁fine	-6.89234
▁house	-6.89261
▁youll	-6.90135
▁bad	-6.91703
▁huh	-6.91931
▁talking	-6.92304
▁father	-6.94777
▁happened	-6.94846
▁three	-6.94921
▁youve	-6.94921
▁boy	-6.94982
▁hold	-6.95136
▁done	-6.95861
▁must	-6.96088
▁kind	-6.96936
▁made	-6.99007
n	-6.99389
▁big	-6.99646
r	-6.99906
▁real	-7.00227
▁world	-7.0118
▁son	-7.01475
▁wrong	-7.02427
▁someone	-7.02492
▁trying	-7.03401
▁believe	-7.03912
▁dad	-7.04264
▁move	-7.0436
▁show	-7.04699
▁thanks	-7.05227
▁left	-7.06015
▁aint	-7.06275
▁else	-7.07062
▁ask	-7.07239
▁mother	-7.07248
▁dead	-7.0746
▁try	-7.08024
▁enough	-7.08121
▁room	-7.08397
▁another	-7.10003
▁next	-7.10274
▁isnt	-7.10547
▁head	-7.10985
▁might	-7.11095
▁care	-7.11936
▁wanted	-7.12848
▁course	-7.13596
es	-7.14022
▁mind	-7.14367
▁playing	-7.14502
▁looking	-7.15288
▁found	-7.16084
▁today	-7.16738
▁job	-7.18644
▁saw	-7.18793
▁morning	-7.19088
▁cause	-7.19386
▁friend	-7.20543
▁wife	-7.20886
▁best	-7.21817
▁mom	-7.22295
▁getting	-7.23227
o	-7.23236
▁came	-7.23314
ve	-7.2548
▁tonight	-7.25849
al	-7.26863
▁live	-7.27529
▁wasnt	-7.27775
▁guess	-7.28753
▁run	-7.28861
▁whole	-7.29742
▁may	-7.29992
▁hard	-7.31094
▁meet	-7.32265
▁knew	-7.32419
▁ready	-7.32568
▁called	-7.33077
▁family	-7.331
▁pretty	-7.331
▁went	-7.33103
▁ass	-7.33716
▁open	-7.33737
▁ah	-7.33938
▁seen	-7.34048
▁face	-7.34721
i	-7.34734
▁bit	-7.34785
▁end	-7.34992
▁miss	-7.36117
▁actually	-7.37653
▁wouldnt	-7.40637
▁shut	-7.40904
p	-7.41577
▁many	-7.41655
▁five	-7.41676
▁school	-7.4209
▁men	-7.43057
▁weve	-7.44307
▁problem	-7.44315
▁second	-7.45496
▁heard	-7.45642
▁together	-7.45847
▁hand	-7.46099
▁crazy	-7.46234
▁em	-7.46446
▁whos	-7.46692
m	-7.46881
▁everybody	-7.47133
▁damn	-7.4741
▁die	-7.47475
▁hurt	-7.47837
▁police	-7.48172
g	-7.48968
▁water	-7.49003
▁play	-7.49068
▁sit	-7.49628
▁beautiful	-7.49806
▁watch	-7.50873
▁story	-7.51026
▁matter	-7.51252
▁brother	-7.51353
▁bitch	-7.51785
▁four	-7.52247
▁start	-7.52511
▁fuckin	-7.52643
l	-7.52693
▁ya	-7.5302
▁anyone	-7.53091
▁excuse	-7.53091
▁easy	-7.5351
▁idea	-7.54157
▁gun	-7.54179
▁use	-7.54371
▁hope	-7.54888
▁alone	-7.55209
▁tomorrow	-7.55628
▁business	-7.56026
▁jesus	-7.56489
▁everyone	-7.56502
▁turn	-7.56808
▁six	-7.57323
▁alright	-7.57358
▁days	-7.57384
▁youd	-7.57715
c	-7.58295
▁hit	-7.58517
▁happy	-7.58674
▁took	-7.59115
▁chuckles	-7.59236
▁bring	-7.59481
▁point	-7.60015
▁kids	-7.60156
▁eat	-7.60844
▁minutes	-7.61382
▁check	-7.61383
▁close	-7.61762
▁saying	-7.6206
▁minute	-7.62247
▁since	-7.62272
▁true	-7.62287
▁whatever	-7.62727
▁gone	-7.62929
▁wheres	-7.63897
▁nobody	-7.64175
▁pay	-7.6458
▁used	-7.64679
▁ago	-7.65057
▁heart	-7.65196
▁yet	-7.65539
▁stuff	-7.65998
▁supposed	-7.66072
▁couldnt	-7.66082
▁ha	-7.66169
▁already	-7.66474
▁havent	-7.66474
▁without	-7.66474
▁friends	-7.66782
▁read	-7.6771
▁mrs	-7.67733
▁worry	-7.67893
▁trust	-7.68002
▁walk	-7.68011
▁high	-7.68073
▁kid	-7.68225
▁killed	-7.68397
▁daddy	-7.68576
▁grunts	-7.68699
▁sighs	-7.69002
▁fun	-7.69568
▁probably	-7.69874
▁case	-7.70375
▁says	-7.70438
▁deal	-7.7064
▁fire	-7.70776
▁inside	-7.7137
▁exactly	-7.71382
▁hands	-7.71613
▁part	-7.71954
▁year	-7.72104
▁late	-7.72168
▁hmm	-7.72827
▁later	-7.73144
▁bye	-7.73391
▁goddamn	-7.73394
▁fight	-7.73422
▁looks	-7.73468
ion	-7.73653
▁eyes	-7.73917
▁soon	-7.74261
▁cut	-7.7428
▁grunting	-7.74485
▁bed	-7.74674
▁set	-7.75155
▁whoa	-7.75474
▁continues	-7.75987
▁dr	-7.76041
▁rest	-7.76202
▁lost	-7.77073
▁sleep	-7.77077
▁working	-7.77654
▁buy	-7.78158
▁free	-7.7833
▁truth	-7.78642
▁change	-7.79345
▁question	-7.79601
▁somebody	-7.79646
▁drink	-7.79676
▁honey	-7.79728
▁stand	-7.79805
▁week	-7.80148
▁pick	-7.80173
▁gave	-7.80272
▁re	-7.80288
▁thinking	-7.8072
▁joe	-7.81211
▁break	-7.8136
▁different	-7.81781
est	-7.81829
▁couple	-7.81929
▁un	-7.81955
▁line	-7.82012
▁happen	-7.82101
u	-7.82158
▁hate	-7.82785
▁doctor	-7.83027
▁wow	-7.83053
▁person	-7.83544
▁word	-7.83575
▁book	-7.84001
▁death	-7.84186
or	-7.8456
▁sister	-7.84761
▁white	-7.84768
▁nick	-7.85093
▁times	-7.85129
▁jack	-7.85298
▁tv	-7.85332
▁sound	-7.8534
▁dog	-7.85358
▁far	-7.85484
▁number	-7.85954
ic	-7.86173
▁light	-7.86194
▁women	-7.86489
▁also	-7.87074
b	-7.87365
▁mine	-7.87738
▁laughing	-7.87894
▁wants	-7.88001
▁anymore	-7.88253
f	-7.88255
ie	-7.88368
▁means	-7.88536
▁christ	-7.88613
▁making	-7.88851
▁body	-7.88855
▁shot	-7.88864
▁important	-7.89447
▁p	-7.89731
▁town	-7.90068
▁side	-7.90094
▁c	-7.90245
▁waiting	-7.90307
en	-7.90565
▁taking	-7.90685
▁husband	-7.90816
h	-7.90988
▁clear	-7.91326
▁full	-7.91659
▁answer	-7.91783
▁outside	-7.92144
▁girls	-7.92494
▁child	-7.93122
▁send	-7.93253
▁daughter	-7.93322
▁cool	-7.93572
▁young	-7.93575
▁afraid	-7.93742
▁hours	-7.94446
▁ben	-7.94626
▁blood	-7.94788
▁though	-7.94917
▁party	-7.95281
▁touch	-7.95289
▁news	-7.95459
▁perfect	-7.96138
on	-7.96148
▁anybody	-7.96282
ll	-7.96742
▁boys	-7.96813
▁stupid	-7.9685
▁makes	-7.9687
▁john	-7.96891
▁hot	-7.96965
▁screaming	-7.9702
re	-7.97405
▁emily	-7.9759
▁scared	-7.98311
▁half	-7.98884
▁welcome	-7.9955
▁trouble	-7.99592
▁safe	-7.9995
▁michael	-8.00888
▁shoot	-8.01472
▁forget	-8.01552
▁asked	-8.01884
▁laughs	-8.02154
k	-8.0234
▁met	-8.02645
▁telling	-8.02672
▁dinner	-8.02929
▁promise	-8.03326
▁mike	-8.04097
▁anyway	-8.04118
z	-8.0426
▁power	-8.04845
▁game	-8.05534
▁behind	-8.05717
▁married	-8.05723
▁drive	-8.05894
▁started	-8.06382
▁law	-8.06385
▁red	-8.065
▁reason	-8.06969
▁chance	-8.06998
▁black	-8.0714
▁food	-8.07142
▁hair	-8.0715
▁moment	-8.07765
▁children	-8.0786
▁arent	-8.07865
▁de	-8.08296
▁ahead	-8.09321
▁lady	-8.09337
▁city	-8.09342
▁ten	-8.09677
▁in	-8.09727
▁speak	-8.10007
an	-8.10065
▁hour	-8.10718
▁million	-8.10746
▁sounds	-8.10794
▁hang	-8.11061
▁order	-8.111
▁th	-8.11186
▁months	-8.11259
▁sick	-8.11524
▁feeling	-8.11939
▁pain	-8.1251
▁goes	-8.12911
w	-8.1296
▁buddy	-8.13047
▁funny	-8.13057
▁front	-8.13801
▁hurry	-8.13809
▁officer	-8.13899
man	-8.13917
▁breathing	-8.14022
▁lm	-8.14205
▁sometimes	-8.14239
▁street	-8.14596
▁tried	-8.14619
▁clean	-8.15222
▁office	-8.15244
▁least	-8.15354
▁groans	-8.15475
▁wish	-8.16053
able	-8.16111
▁calm	-8.16135
▁mouth	-8.16149
it	-8.16578
▁plan	-8.16862
▁leaving	-8.16926
▁died	-8.17641
▁theyll	-8.17733
le	-8.18027
ies	-8.18058
▁yo	-8.18337
▁serious	-8.18374
ers	-8.18377
▁almost	-8.18517
▁running	-8.18535
ation	-8.19211
▁control	-8.19302
▁company	-8.19322
▁sam	-8.19345
▁war	-8.19707
▁ooh	-8.20135
▁either	-8.20135
▁panting	-8.2014
▁la	-8.20193
▁parents	-8.2034
▁top	-8.20399
▁art	-8.20652
▁wake	-8.20958
▁living	-8.20958
▁alive	-8.20973
▁drop	-8.21127
▁sweet	-8.21747
▁james	-8.21795
▁hows	-8.21928
▁voice	-8.21977
▁piece	-8.21987
▁amy	-8.22013
▁ding	-8.22272
▁save	-8.22443
▁mary	-8.2268
▁speaking	-8.2317
▁dance	-8.23186
▁a	-8.23292
▁pull	-8.23411
▁church	-8.2345
▁dear	-8.23451
▁seven	-8.24292
▁lord	-8.24304
▁motherfucker	-8.24554
▁s	-8.24697
▁screams	-8.24885
▁sex	-8.25011
▁bill	-8.25777
▁fear	-8.26019
▁dude	-8.26023
▁air	-8.26032
st	-8.26051
▁quite	-8.26101
▁g	-8.26207
▁asshole	-8.26324
▁crying	-8.26403
▁dick	-8.26886
▁brought	-8.26889
▁bullshit	-8.2689
▁ride	-8.26921
▁fucked	-8.27189
▁king	-8.27555
▁e	-8.28067
▁fall	-8.28517
▁relax	-8.29136
▁al	-8.29347
▁softly	-8.29608
▁st	-8.30334
▁hospital	-8.30421
▁follow	-8.30424
▁shall	-8.30454
▁bet	-8.30475
▁holy	-8.30525
▁lucky	-8.30633
▁gasps	-8.30651
▁special	-8.31052
▁calling	-8.31055
▁frank	-8.31995
▁cross	-8.3228
▁till	-8.32284
▁dress	-8.32292
▁figure	-8.32903
▁pass	-8.33145
▁explain	-8.33197
▁grace	-8.33197
▁goodbye	-8.33198
▁moving	-8.33202
▁sent	-8.33212
▁murder	-8.33241
▁charlie	-8.34132
▁radio	-8.34137
▁lives	-8.34214
el	-8.34918
▁david	-8.35075
▁kidding	-8.35089
▁loved	-8.35149
▁b	-8.35213
▁n	-8.35474
us	-8.35861
▁blue	-8.36025
▁itll	-8.36028
▁ladies	-8.3603
▁mistake	-8.36895
ment	-8.36902
▁sign	-8.3708
▁throw	-8.37367
▁asking	-8.37821
▁road	-8.37963
▁past	-8.3799
ce	-8.38668
▁lose	-8.38872
▁absolutely	-8.38949
▁happens	-8.39064
▁bar	-8.39687
▁write	-8.39708
▁truck	-8.39932
▁groaning	-8.39963
▁fred	-8.39991
▁mm	-8.40057
ar	-8.40268
less	-8.40351
▁fact	-8.40577
▁picture	-8.40616
▁choice	-8.40622
▁worth	-8.40679
▁fast	-8.40779
▁court	-8.40935
▁catch	-8.40966
▁questions	-8.4116
▁state	-8.41586
▁mommy	-8.41663
▁caught	-8.41941
▁country	-8.41953
▁sad	-8.41994
▁weeks	-8.42162
up	-8.42271
▁missing	-8.42342
▁straight	-8.42924
▁shouldnt	-8.42962
▁beat	-8.43493
▁needs	-8.43692
▁comes	-8.43709
▁luck	-8.43835
▁quiet	-8.4385
▁dream	-8.43872
▁collins	-8.43992
▁finally	-8.4406
▁yall	-8.44081
▁tom	-8.44106
▁strong	-8.44865
▁weird	-8.44901
▁jake	-8.45036
▁sort	-8.45037
▁whoo	-8.45088
ity	-8.45469
▁wall	-8.45652
▁engine	-8.45723
▁prison	-8.45881
▁swear	-8.46086
▁team	-8.46121
▁kiss	-8.46161
▁words	-8.46167
ist	-8.46434
ra	-8.46441
is	-8.46501
▁finish	-8.4676
▁rick	-8.46953
▁lawyer	-8.46966
▁happening	-8.47016
▁kate	-8.47165
▁poor	-8.47171
▁hotel	-8.47188
▁song	-8.47209
▁none	-8.47251
▁lie	-8.47283
▁able	-8.47424
▁careful	-8.4816
▁english	-8.48225
▁along	-8.48231
▁shell	-8.48231
▁rock	-8.48334
▁hed	-8.48656
▁ow	-8.49143
▁report	-8.49168
▁amazing	-8.49312
▁french	-8.49312
▁birthday	-8.49314
▁beach	-8.49316
▁become	-8.49419
▁class	-8.49464
▁wind	-8.49601
▁small	-8.50239
ch	-8.50336
▁sense	-8.50343
▁mad	-8.50401
▁an	-8.50411
▁mmm	-8.50415
▁taken	-8.50901
▁cry	-8.51115
ful	-8.5137
▁bank	-8.51453
▁forever	-8.51524
▁maam	-8.51528
▁paul	-8.51529
▁glad	-8.5153
▁heres	-8.51657
▁smell	-8.52583
▁somewhere	-8.52646
▁andy	-8.52683
▁sophie	-8.52707
▁learn	-8.52886
▁building	-8.52945
▁roll	-8.53302
▁da	-8.53374
▁eye	-8.53752
▁dark	-8.53766
▁floor	-8.53781
▁rather	-8.53785
▁felt	-8.53801
▁bag	-8.53892
ri	-8.54072
▁blow	-8.54322
te	-8.54777
▁indistinct	-8.5479
▁accident	-8.54932
▁coffee	-8.54932
▁mama	-8.54946
▁human	-8.54959
▁mmhmm	-8.54962
▁con	-8.5549
▁quick	-8.55778
ive	-8.55784
▁aii	-8.56236
▁needed	-8.56567
▁less	-8.56808
▁harry	-8.57271
▁worse	-8.57271
▁werent	-8.57271
▁bobby	-8.57279
ness	-8.5749
▁seems	-8.58205
▁longer	-8.58352
▁gentlemen	-8.58463
▁meant	-8.58483
▁adam	-8.58531
▁paper	-8.5854
▁train	-8.58808
▁tough	-8.59666
▁fault	-8.59667
▁apartment	-8.59681
▁boss	-8.59689
▁step	-8.59948
▁honor	-8.60492
▁act	-8.60647
th	-8.60651
▁rich	-8.60855
▁system	-8.60886
▁edward	-8.60889
▁wonderful	-8.60919
▁gods	-8.60955
▁bro	-8.61053
▁tape	-8.61709
▁laugh	-8.61779
▁er	-8.61934
▁handle	-8.61937
▁heavy	-8.6212
▁lunch	-8.62135
▁lying	-8.62145
▁ray	-8.62258
▁key	-8.62381
▁ted	-8.62409
at	-8.62583
et	-8.62587
▁slow	-8.63048
▁eight	-8.63367
▁possible	-8.6337
▁yesterday	-8.6337
▁favorite	-8.63375
▁feet	-8.63396
▁carl	-8.63473
▁enjoy	-8.63725
▁expect	-8.63739
▁changed	-8.64045
▁return	-8.64236
▁f	-8.64465
▁land	-8.64472
▁cute	-8.64506
▁earth	-8.6465
▁cop	-8.64894
▁date	-8.64939
▁shed	-8.65011
▁win	-8.6515
▁box	-8.65525
▁bell	-8.65862
▁cell	-8.6591
▁south	-8.65918
▁barbara	-8.65918
▁vanessa	-8.65918
▁smoke	-8.65918
▁babe	-8.65922
▁meeting	-8.66724
il	-8.66773
▁present	-8.66778
▁imagine	-8.66933
▁smart	-8.67024
▁york	-8.67066
▁karen	-8.67217
▁giving	-8.67224
▁hide	-8.67265
▁count	-8.67481
▁evening	-8.67518
▁movie	-8.67521
▁stick	-8.67525
▁message	-8.67576
▁mate	-8.67821
▁fix	-8.68147
▁fat	-8.68332
▁honest	-8.68405
▁shh	-8.68525
▁future	-8.68533
▁alice	-8.68533
▁smile	-8.68533
▁gift	-8.68546
ate	-8.68632
▁seem	-8.68704
▁hundred	-8.68851
▁beer	-8.68931
▁sell	-8.69391
▁martin	-8.69421
▁uncle	-8.69866
▁belt	-8.69866
▁davis	-8.69866
▁conversation	-8.69868
▁nobby	-8.6987
▁boat	-8.69886
▁doin	-8.69931
ter	-8.6996
co	-8.7051
▁dollars	-8.70558
ty	-8.70669
▁plane	-8.70732
▁treat	-8.70804
▁deep	-8.70903
▁lock	-8.70903
▁offer	-8.70911
▁talked	-8.71035
▁definitely	-8.71236
▁sitting	-8.71278
▁copy	-8.71445
v	-8.71447
▁secret	-8.71458
▁idiot	-8.71611
ur	-8.72063
▁protect	-8.72142
▁phil	-8.72585
▁computer	-8.72587
▁correct	-8.72587
▁others	-8.72587
▁across	-8.72589
▁store	-8.72592
▁kept	-8.72594
▁walking	-8.72599
▁dean	-8.72665
▁surprise	-8.72711
▁cheering	-8.72744
nt	-8.72768
▁service	-8.73024
▁arm	-8.73074
ne	-8.732
▁known	-8.73343
rs	-8.73483
▁broke	-8.73668
▁grand	-8.73747
▁strange	-8.73869
▁sun	-8.73897
▁distance	-8.73976
▁president	-8.73976
▁captain	-8.73978
▁ground	-8.7398
▁station	-8.74043
▁cold	-8.74066
▁join	-8.7424
▁wed	-8.7432
▁sing	-8.74459
▁ball	-8.74547
ting	-8.74595
▁works	-8.746
ia	-8.74702
▁ex	-8.74754
▁respect	-8.74795
▁wonder	-8.7485
to	-8.74959
▁form	-8.75298
▁aah	-8.7541
▁unless	-8.75443
▁share	-8.75492
▁carter	-8.75498
▁seat	-8.75646
▁sake	-8.75891
▁month	-8.75924
▁american	-8.75991
▁wear	-8.7641
▁public	-8.76814
▁grab	-8.76821
▁missed	-8.76966
▁short	-8.77026
▁sy	-8.77251
ish	-8.77477
▁star	-8.77796
ant	-8.77877
▁mindy	-8.77905
▁fly	-8.77977
▁given	-8.78066
▁howd	-8.78214
▁terrible	-8.78262
▁katie	-8.78263
▁brandon	-8.7827
▁outta	-8.7827
▁table	-8.7832
▁gasping	-8.78338
▁bob	-8.78357
▁charge	-8.78572
▁ringing	-8.78707
ro	-8.78922
▁fair	-8.79364
▁kick	-8.79468
▁dying	-8.79736
▁bought	-8.79737
▁boyfriend	-8.79742
▁single	-8.79772
▁rain	-8.7981
▁early	-8.79839
ry	-8.79913
▁sea	-8.80338
▁teach	-8.80359
▁guns	-8.80377
▁age	-8.8049
ian	-8.80556
▁cops	-8.80943
▁glass	-8.81151
▁anywhere	-8.81226
▁worst	-8.81226
▁address	-8.81226
▁heavily	-8.81229
▁green	-8.81236
▁security	-8.81236
▁press	-8.81251
▁tense	-8.81263
▁broken	-8.81326
▁yelling	-8.81389
▁peter	-8.81412
▁cover	-8.81543
▁m	-8.8171
▁knows	-8.8191
▁where	-8.81972
▁reach	-8.82137
▁gets	-8.82448
▁near	-8.82601
▁america	-8.82649
▁upstairs	-8.82741
▁jail	-8.82747
▁richard	-8.82748
▁spot	-8.8275
▁crowd	-8.8277
▁judge	-8.82825
▁killer	-8.83223
▁push	-8.83384
▁pro	-8.8339
▁killing	-8.8352
▁he	-8.83902
▁co	-8.84018
▁normal	-8.84144
▁upset	-8.8428
▁cash	-8.84286
▁personal	-8.84304
▁super	-8.84305
ton	-8.84416
▁ran	-8.8445
▁k	-8.84861
▁grow	-8.84953
▁camera	-8.8516
▁soul	-8.85189
▁chatter	-8.85353
▁jump	-8.85444
▁except	-8.85797
▁stig	-8.85825
▁forgot	-8.85842
▁afternoon	-8.85842
▁attention	-8.85842
▁sweetheart	-8.85842
▁throat	-8.85842
▁drunk	-8.85845
▁walter	-8.85873
▁lead	-8.859
▁names	-8.86008
▁sh	-8.86166
age	-8.86188
▁bart	-8.86414
▁so	-8.86448
▁ones	-8.86512
▁file	-8.86517
▁cook	-8.8652
▁caesar	-8.87429
▁department	-8.87431
▁born	-8.87455
▁dirty	-8.87493
▁tired	-8.87502
▁busy	-8.87557
ta	-8.87649
ally	-8.87788
▁teacher	-8.87819
▁val	-8.87846
▁van	-8.87876
▁warm	-8.87899
▁wearing	-8.87982
▁machine	-8.88313
▁window	-8.88329
▁pop	-8.88608
▁goin	-8.88843
▁turned	-8.88871
▁charles	-8.89042
▁area	-8.89043
▁driving	-8.89045
▁information	-8.89048
▁proud	-8.8905
▁paid	-8.89052
▁code	-8.89072
▁board	-8.89104
▁ring	-8.89117
▁mess	-8.89167
na	-8.8927
un	-8.89597
▁vi	-8.89736
no	-8.89762
se	-8.89839
▁worked	-8.89861
▁girlfriend	-8.89985
▁cat	-8.90334
▁pal	-8.90402
▁they	-8.90402
▁loud	-8.90549
▁r	-8.90551
▁papers	-8.90577
▁favor	-8.90674
▁brown	-8.90682
▁dottie	-8.90682
▁middle	-8.90683
▁texas	-8.90683
▁clothes	-8.90687
▁cup	-8.90806
▁ice	-8.90816
im	-8.90877
▁indistinctly	-8.90884
▁seriously	-8.90974
▁mark	-8.91269
▁finished	-8.91301
um	-8.91369
▁suit	-8.91669
▁ed	-8.91671
▁demon	-8.91698
▁burn	-8.91994
▁entire	-8.922
▁master	-8.92229
▁lay	-8.92278
▁admit	-8.92337
▁knife	-8.92348
▁island	-8.92349
▁bottle	-8.9235
▁hungry	-8.92353
▁whatd	-8.924
▁sal	-8.92414
x	-8.92483
▁breathe	-8.92515
▁watching	-8.92691
▁per	-8.93397
▁film	-8.93415
▁i	-8.93477
▁hole	-8.9351
la	-8.93605
▁using	-8.93882
▁fool	-8.94031
▁history	-8.94043
▁kathy	-8.94043
▁pleasure	-8.94043
▁spanish	-8.94043
▁christmas	-8.94043
▁aaron	-8.94044
▁hasnt	-8.94044
▁flight	-8.94048
▁cunt	-8.94048
▁language	-8.94048
▁oliver	-8.94054
▁gena	-8.94054
▁alarm	-8.9406
ling	-8.94494
▁lovely	-8.94901
out	-8.9499
▁fish	-8.95107
▁listening	-8.95117
the	-8.95187
▁trip	-8.95342
▁screw	-8.95368
▁letter	-8.95465
▁keys	-8.95537
▁seconds	-8.95603
▁chair	-8.95741
▁scene	-8.95762
▁north	-8.95763
▁kitchen	-8.95767
▁situation	-8.95767
▁worried	-8.95767
▁bathroom	-8.95769
▁river	-8.95771
▁yep	-8.95798
▁chucky	-8.95803
▁joke	-8.95818
▁nah	-8.95835
▁hall	-8.95863
▁shouting	-8.95877
▁totally	-8.95879
▁completely	-8.95882
ass	-8.96012
▁takes	-8.96109
▁whose	-8.96583
▁clicks	-8.96585
▁d	-8.96779
▁picked	-8.97014
▁attack	-8.97124
me	-8.97129
▁breath	-8.97279
son	-8.97308
▁wild	-8.97358
▁creaking	-8.97521
▁lewis	-8.97521
▁wrote	-8.97521
▁uhhuh	-8.97522
▁angry	-8.97524
▁dramatic	-8.97525
▁pa	-8.97567
▁hiding	-8.97582
▁fit	-8.97649
▁record	-8.97672
▁appreciate	-8.97814
▁seeing	-8.97959
ous	-8.98019
▁nat	-8.98775
▁agent	-8.98784
▁spend	-8.98821
▁certain	-8.99146
▁lights	-8.99191
▁general	-8.99307
▁forgive	-8.99307
▁difference	-8.99307
▁instead	-8.99311
▁bunch	-8.99314
▁mister	-8.99332
▁upon	-8.9934
▁corner	-8.99416
ts	-8.99694
▁owe	-8.99712
▁park	-9.00465
▁account	-9.0058
▁bastard	-9.00612
▁card	-9.00623
▁problems	-9.01069
▁dogs	-9.011
▁faith	-9.01105
▁evil	-9.01125
▁major	-9.01125
▁perhaps	-9.01125
▁darling	-9.01132
▁rings	-9.01172
▁bud	-9.0122
▁ig	-9.01291
▁mission	-9.01349
▁ca	-9.01411
▁whispers	-9.01413
▁list	-9.01473
▁pictures	-9.01702
▁track	-9.01985
▁miles	-9.01998
▁opens	-9.02244
▁build	-9.02484
▁brad	-9.02713
▁w	-9.02915
▁gold	-9.02937
▁suck	-9.02939
▁apart	-9.02954
▁wedding	-9.02986
▁nine	-9.0299
▁excited	-9.02991
▁round	-9.03002
▁crack	-9.03244
▁exhales	-9.03271
▁looked	-9.03362
ent	-9.03924
ol	-9.04076
▁dis	-9.04207
▁chris	-9.04374
▁horse	-9.04391
▁agree	-9.04544
▁notice	-9.04568
▁nervous	-9.04713
▁tight	-9.04828
▁gas	-9.04862
▁albert	-9.04864
▁doubt	-9.04864
▁simple	-9.04864
▁maggie	-9.04865
▁stuck	-9.04869
▁wash	-9.04885
▁fingers	-9.05073
▁moved	-9.05115
ac	-9.05719
▁ends	-9.05826
▁deserve	-9.06064
▁h	-9.06119
▁visit	-9.06228
▁marry	-9.06274
▁heaven	-9.06342
▁contract	-9.0639
▁noise	-9.06392
▁allow	-9.06396
▁ma	-9.06549
▁fell	-9.06689
▁fighting	-9.06717
▁quit	-9.06763
▁within	-9.06787
▁scoffs	-9.06787
▁warren	-9.06787
▁claire	-9.06788
▁third	-9.06793
▁everywhere	-9.06798
▁low	-9.06807
▁risk	-9.0682
▁shake	-9.06865
▁sl	-9.06884
▁text	-9.06899
io	-9.07002
▁ls	-9.07284
▁bloody	-9.0745
▁mo	-9.0746
▁promised	-9.07614
▁san	-9.0786
▁up	-9.08061
▁sheriff	-9.0836
▁hook	-9.0847
▁o	-9.08507
▁soft	-9.08607
▁evidence	-9.08748
▁marriage	-9.08748
▁private	-9.08748
▁impossible	-9.08748
▁west	-9.08749
▁fresh	-9.0875
▁jim	-9.08762
▁porter	-9.0883
▁usually	-9.08834
▁decided	-9.09024
▁ii	-9.09084
▁folks	-9.09245
ot	-9.09261
▁pray	-9.09632
▁ship	-9.09735
▁cheers	-9.0983
▁wine	-9.0984
and	-9.10238
▁bless	-9.10286
▁peace	-9.10293
▁crime	-9.10393
▁weapon	-9.10421
▁priest	-9.10434
▁brain	-9.10478
▁sleeping	-9.10603
▁legs	-9.10676
▁emergency	-9.10748
▁footsteps	-9.10748
▁pregnant	-9.10748
▁relationship	-9.10748
▁video	-9.10748
▁somehow	-9.10748
▁bunny	-9.10749
▁papa	-9.10759
▁stock	-9.1076
▁reading	-9.10771
▁beeping	-9.10887
▁rules	-9.10922
▁awful	-9.10941
▁feels	-9.10944
▁tie	-9.10996
ary	-9.11005
▁interesting	-9.11075
▁matt	-9.11229
▁ar	-9.11284
▁singing	-9.11468
▁ro	-9.11522
lo	-9.11547
▁starts	-9.11766
▁du	-9.11792
▁rid	-9.11926
▁ho	-9.12017
▁balls	-9.12057
ck	-9.12271
ine	-9.12466
▁color	-9.12497
▁suppose	-9.12509
▁realize	-9.12532
▁drug	-9.12679
ii	-9.12725
▁gordon	-9.12789
▁martha	-9.12789
▁twice	-9.12789
▁dangerous	-9.12793
▁gang	-9.12795
▁pants	-9.128
▁band	-9.12803
▁bigger	-9.12813
▁weak	-9.12819
▁amen	-9.12925
▁buzzing	-9.12969
▁knocking	-9.13267
▁pack	-9.13291
▁locked	-9.13382
▁east	-9.13446
▁calls	-9.13672
ul	-9.13698
▁ms	-9.14144
▁bother	-9.14358
▁decide	-9.14581
▁victims	-9.14604
▁birds	-9.14612
▁tree	-9.14616
▁client	-9.14626
▁finger	-9.14643
li	-9.14759
▁extra	-9.1476
▁paris	-9.14784
▁somethin	-9.14817
▁mmhm	-9.14817
▁dig	-9.14855
▁antonio	-9.14872
▁quentin	-9.14872
▁tongue	-9.14872
▁vioiet	-9.14872
▁dawn	-9.14872
▁romantic	-9.14873
▁elizabeth	-9.14874
▁common	-9.1488
▁meat	-9.14894
▁whore	-9.14914
▁cos	-9.15183
▁comet	-9.15501
go	-9.15805
▁cost	-9.15831
▁search	-9.16083
▁knock	-9.16098
id	-9.16465
▁force	-9.1649
▁arrest	-9.16604
▁fill	-9.16636
▁cock	-9.1679
▁thousand	-9.168
▁guest	-9.16805
▁complete	-9.16858
▁match	-9.16926
▁rule	-9.16975
▁frost	-9.17
▁terry	-9.17
▁hadnt	-9.17
▁johnnie	-9.17
▁forward	-9.17001
▁contact	-9.17001
▁summer	-9.17002
▁henry	-9.17002
▁senator	-9.17004
▁jessie	-9.17007
▁julia	-9.17047
▁taste	-9.17102
▁ty	-9.17272
▁neo	-9.17339
you	-9.17432
▁dreams	-9.17507
▁everythings	-9.17594
▁chattering	-9.17681
▁tea	-9.17722
▁books	-9.17791
▁test	-9.18094
▁om	-9.18411
▁couldve	-9.18589
▁carry	-9.18837
▁club	-9.18984
▁weekend	-9.19013
▁total	-9.19034
▁final	-9.19085
▁witness	-9.19089
▁choose	-9.19173
▁criminal	-9.19173
▁downstairs	-9.19173
▁insane	-9.19173
▁sobbing	-9.19173
draic	-9.19174
▁earlier	-9.19175
▁space	-9.19181
▁johnny	-9.19198
▁guilty	-9.19219
ma	-9.19263
▁certainly	-9.19347
▁prove	-9.19379
▁turns	-9.19733
▁mothers	-9.19833
▁passed	-9.20102
▁stops	-9.20337
▁fathers	-9.20514
▁bang	-9.20944
▁consider	-9.20996
▁base	-9.21163
▁standing	-9.21184
▁whether	-9.21396
▁chief	-9.21396
▁boston	-9.21396
▁rachel	-9.21397
▁group	-9.21398
▁abby	-9.21399
▁spent	-9.21406
▁beauty	-9.21424
▁trial	-9.2143
▁robby	-9.2143
▁obviously	-9.21487
▁sweetie	-9.21499
ut	-9.21502
▁army	-9.21748
▁liked	-9.21802
▁starting	-9.21826
do	-9.22074
▁besides	-9.2218
▁opening	-9.22349
land	-9.22621
▁arms	-9.22901
▁accept	-9.23221
per	-9.23223
▁blame	-9.234
▁steve	-9.23609
▁roger	-9.23616
▁decision	-9.23668
▁experience	-9.23668
▁murdoch	-9.23668
▁rufus	-9.23668
▁lonely	-9.23669
▁access	-9.23669
▁itd	-9.2367
▁iike	-9.23674
▁devil	-9.23675
▁becky	-9.23711
▁nose	-9.23764
j	-9.23819
▁di	-9.24189
▁billy	-9.24245
▁lied	-9.24303
▁bugs	-9.24374
▁dressed	-9.24657
▁continue	-9.24886
ure	-9.25016
▁plays	-9.25138
ance	-9.25362
▁pre	-9.25624
▁feed	-9.25634
▁stole	-9.25908
▁price	-9.25964
▁difficult	-9.25994
▁gekko	-9.25994
▁mmmhmm	-9.25994
▁neither	-9.25994
▁opportunity	-9.25994
▁rebecca	-9.25994
▁matrix	-9.25995
▁silence	-9.25995
▁switch	-9.25995
▁nowhere	-9.25995
▁archbishop	-9.25997
▁congratulations	-9.25997
▁detective	-9.25999
▁chef	-9.26008
▁cake	-9.26013
▁arne	-9.26013
▁involved	-9.26032
▁pussy	-9.26058
▁sky	-9.26078
▁over	-9.26134
▁aw	-9.26185
▁putting	-9.26249
▁eating	-9.26266
▁speaks	-9.26283
▁priests	-9.26363
▁unit	-9.26426
▁allowed	-9.26473
ge	-9.27032
▁harder	-9.27192
▁lt	-9.27338
▁mention	-9.28031
ee	-9.28057
▁angel	-9.28173
▁comin	-9.28371
▁arthur	-9.28375
▁byebye	-9.28375
▁especially	-9.28375
▁bodies	-9.28375
▁zain	-9.28375
▁toast	-9.28376
▁dumb	-9.28404
▁incredible	-9.28418
▁buck	-9.28429
▁lake	-9.28443
▁type	-9.28489
▁deeply	-9.28628
▁main	-9.28628
▁drugs	-9.28696
▁leg	-9.28874
ted	-9.2904
▁learned	-9.2922
▁kinda	-9.29536
▁staying	-9.29661
▁bi	-9.29912
tic	-9.30297
▁fan	-9.30417
▁doll	-9.30593
▁bucks	-9.30726
▁attorney	-9.30814
▁college	-9.30814
▁veronica	-9.30814
▁writing	-9.30814
▁local	-9.30816
▁nature	-9.30829
▁size	-9.30836
▁connection	-9.30837
▁laughter	-9.30846
▁whispering	-9.30895
▁partner	-9.30909
▁eh	-9.3091
▁angela	-9.3094
▁stopped	-9.30969
▁interested	-9.31132
▁lts	-9.31132
▁tear	-9.31193
▁united	-9.31223
▁shoes	-9.31496
▁fucker	-9.31628
am	-9.31657
▁cora	-9.31752
▁showed	-9.32069
▁prefer	-9.324
▁piss	-9.32426
▁tires	-9.32575
▁states	-9.3281
▁steal	-9.32839
▁bear	-9.3319
▁el	-9.33274
▁aunt	-9.33304
▁fenton	-9.33314
▁sebastian	-9.33314
▁whoever	-9.33314
▁regular	-9.33316
▁aware	-9.33317
▁memory	-9.33317
▁willing	-9.33319
▁teeth	-9.33319
▁punch	-9.33319
▁ch	-9.33321
▁neck	-9.33322
▁kitty	-9.33323
▁view	-9.33327
▁foot	-9.33332
▁armand	-9.33338
▁map	-9.3334
▁level	-9.33342
▁stage	-9.33371
▁wa	-9.33373
ff	-9.33376
▁out	-9.33416
▁spirit	-9.33461
▁animal	-9.33511
▁guard	-9.33516
inous	-9.33521
▁begin	-9.33579
▁double	-9.33595
▁paint	-9.33698
▁painting	-9.33865
▁clearly	-9.33904
▁v	-9.33959
▁sp	-9.34186
▁en	-9.34225
▁pulled	-9.34496
▁iii	-9.34517
▁po	-9.34587
▁closed	-9.34944
men	-9.35133
▁mum	-9.35756
▁twenty	-9.35877
▁awesome	-9.35878
▁tattoo	-9.35878
▁gerty	-9.35878
▁merrin	-9.35878
▁vivian	-9.35879
▁humming	-9.3588
▁shame	-9.35885
▁jason	-9.35887
▁shift	-9.35895
▁anna	-9.3591
▁loose	-9.35916
▁field	-9.35916
▁jackson	-9.35945
▁sight	-9.36041
▁target	-9.36102
▁belong	-9.36111
▁parker	-9.36122
▁rose	-9.36134
▁bringing	-9.36147
▁feelings	-9.36238
▁can	-9.36242
▁bite	-9.36247
▁faster	-9.36324
▁there	-9.36425
vi	-9.36497
▁saved	-9.36873
▁ba	-9.36992
▁yells	-9.37233
▁named	-9.37374
as	-9.37576
ving	-9.37633
ah	-9.37825
head	-9.37953
▁pretend	-9.37995
▁discuss	-9.38052
▁destroy	-9.38108
▁lee	-9.38488
▁became	-9.3851
▁bottom	-9.3851
▁however	-9.3851
▁ought	-9.3851
▁village	-9.3851
▁program	-9.3851
▁regan	-9.3851
▁split	-9.3851
▁misery	-9.3851
▁suspect	-9.38511
▁bravo	-9.38512
▁orange	-9.38514
▁innocent	-9.38525
▁chirping	-9.38543
▁liar	-9.38555
▁tony	-9.38587
▁medical	-9.38619
▁talkin	-9.3871
▁hired	-9.38812
▁gunshot	-9.38824
▁victim	-9.3885
▁brothers	-9.39044
▁closer	-9.39054
▁doc	-9.39274
▁records	-9.39346
▁beeps	-9.39378
▁travel	-9.39388
▁wood	-9.39459
▁acting	-9.39596
off	-9.39918
▁post	-9.39977
▁freak	-9.40137
if	-9.40304
▁vo	-9.40404
line	-9.40427
pe	-9.40701
▁bus	-9.40711
ver	-9.40804
▁concern	-9.40816
▁checked	-9.40834
▁no	-9.40907
▁lived	-9.40939
▁suggest	-9.41168
▁briony	-9.41212
▁elevator	-9.41212
▁energy	-9.41212
▁lieutenant	-9.41212
▁military	-9.41212
▁morgan	-9.41212
▁project	-9.41212
▁regret	-9.41212
▁stories	-9.41212
▁thomas	-9.41212
▁whistling	-9.41212
▁nino	-9.41213
▁subtitles	-9.41213
▁papi	-9.41213
▁cady	-9.41213
▁large	-9.41214
▁asleep	-9.41214
▁vail	-9.41225
▁marty	-9.41226
▁clock	-9.41226
▁famous	-9.41236
▁circle	-9.4124
▁exist	-9.41248
▁huge	-9.41299
▁hoping	-9.41365
▁dare	-9.41416
▁pete	-9.41442
▁holding	-9.41487
▁quickly	-9.41548
▁orlean	-9.41589
▁photo	-9.41605
▁keeping	-9.41614
▁bomb	-9.41641
▁manage	-9.41704
▁ra	-9.42033
▁note	-9.42102
▁wondering	-9.42178
▁lf	-9.4223
▁pig	-9.42289
▁nuts	-9.42302
▁rat	-9.42355
▁pat	-9.42815
▁dan	-9.4321
▁bo	-9.43278
▁sending	-9.43409
▁repeat	-9.43466
▁support	-9.43466
▁farm	-9.43511
▁waste	-9.43675
▁raise	-9.43699
▁mu	-9.43701
▁fort	-9.4379
▁susan	-9.43958
▁george	-9.4399
▁shirt	-9.4399
▁ridiculous	-9.43991
▁nancy	-9.43991
▁familiar	-9.43992
▁buried	-9.43992
▁jenny	-9.43992
▁yellow	-9.43994
▁annie	-9.43996
▁morse	-9.43996
▁crackling	-9.44011
▁grandma	-9.44011
▁fake	-9.44014
▁nurse	-9.44032
▁thas	-9.44033
▁cole	-9.44105
▁player	-9.44111
▁bird	-9.4437
▁chicken	-9.44464
▁scout	-9.44491
ho	-9.4454
tion	-9.44599
▁bow	-9.44728
da	-9.44742
▁figured	-9.44886
ki	-9.44906
▁boots	-9.44935
▁murdered	-9.45184
he	-9.4523
ir	-9.45465
di	-9.46074
▁movies	-9.46176
▁deliver	-9.46224
▁suffer	-9.46345
▁focus	-9.46437
▁fi	-9.46463
▁breaking	-9.46524
▁settle	-9.46529
▁drinking	-9.46567
▁sexual	-9.46725
▁speech	-9.46755
ig	-9.46776
▁camp	-9.4683
▁abilene	-9.46847
▁apologize	-9.46847
▁easier	-9.46847
▁often	-9.46847
▁patient	-9.46847
▁position	-9.46847
▁renfield	-9.46847
▁strength	-9.46847
▁kelly	-9.46847
▁blind	-9.46848
▁garden	-9.46848
▁monday	-9.4685
▁staff	-9.4685
▁desk	-9.4685
▁chuckling	-9.46851
▁sarah	-9.46854
▁empty	-9.46856
▁nope	-9.46857
▁tommy	-9.4686
▁plus	-9.46861
▁pressure	-9.46875
▁ear	-9.46878
▁market	-9.46881
de	-9.46902
▁safety	-9.4692
▁paying	-9.47003
ily	-9.47219
▁horn	-9.47267
▁theyd	-9.47367
▁surprised	-9.47463
ped	-9.47554
▁moms	-9.47778
▁cares	-9.48165
▁lies	-9.48189
ze	-9.48204
▁hearing	-9.48254
▁following	-9.48446
bo	-9.48468
▁lou	-9.48643
▁t	-9.4868
▁bat	-9.48738
▁assholes	-9.48784
▁sat	-9.48815
▁shooting	-9.48987
be	-9.49133
king	-9.49177
end	-9.49178
▁cars	-9.49263
▁spread	-9.49272
ning	-9.49285
▁survive	-9.49488
pa	-9.49699
▁chose	-9.49703
▁jud	-9.49714
▁audience	-9.49788
▁augie	-9.49788
▁government	-9.49788
▁pablo	-9.49788
▁vegas	-9.49788
▁alpha	-9.49789
▁cousin	-9.49789
▁whyd	-9.49789
▁cancer	-9.49789
▁memories	-9.49789
▁trash	-9.49789
▁blade	-9.49792
▁coast	-9.49793
▁beginning	-9.49798
▁bright	-9.49798
▁brie	-9.49817
▁plate	-9.49821
▁bedroom	-9.49822
▁thatll	-9.49824
▁mental	-9.49846
▁fecking	-9.49852
▁mall	-9.49852
▁rent	-9.49872
▁jacket	-9.49901
▁se	-9.50037
▁turning	-9.50187
▁tip	-9.5034
▁gate	-9.50433
▁trick	-9.50461
▁do	-9.50563
▁freeze	-9.50626
▁letters	-9.50844
▁that	-9.51216
▁j	-9.51238
▁matters	-9.51441
▁falling	-9.51459
ping	-9.51724
▁interest	-9.51951
time	-9.52097
▁cap	-9.52417
▁hat	-9.52442
▁crap	-9.52445
▁closes	-9.52616
▁create	-9.5281
▁alejandro	-9.52819
▁beyond	-9.52819
▁bishop	-9.52819
▁built	-9.52819
▁meredith	-9.52819
▁ocean	-9.52819
▁recognize	-9.52819
▁rescue	-9.52819
▁saturday	-9.52819
▁sergeant	-9.52819
▁taught	-9.52819
▁taylor	-9.52819
▁theseus	-9.52819
▁crawl	-9.52819
▁interview	-9.52819
▁held	-9.52819
▁extreme	-9.52819
▁gay	-9.5282
▁written	-9.52822
▁gotten	-9.52824
▁shop	-9.52824
▁milk	-9.52826
▁roof	-9.52828
▁shouldve	-9.52831
▁value	-9.52838
▁crown	-9.52839
▁laid	-9.52859
ba	-9.53293
▁losing	-9.53322
▁yea	-9.53341
▁writer	-9.53512
▁monster	-9.53542
▁lately	-9.53692
▁bust	-9.53778
ud	-9.53867
▁pan	-9.54012
▁los	-9.54111
ell	-9.5417
▁be	-9.54198
▁loss	-9.5513
side	-9.55211
▁older	-9.55222
▁walked	-9.5532
ca	-9.55438
▁assume	-9.55642
▁butt	-9.55668
▁animals	-9.55698
▁legal	-9.55885
▁nothin	-9.55889
▁applause	-9.55944
▁whirring	-9.55944
▁ugly	-9.55944
▁effort	-9.55944
▁purpose	-9.55944
▁funeral	-9.55945
▁trigger	-9.55945
▁merger	-9.55945
▁ugh	-9.55945
▁breakfast	-9.5595
▁mask	-9.55954
▁society	-9.55954
▁score	-9.55956
▁fox	-9.55959
▁tune	-9.5596
▁smoking	-9.55966
▁tori	-9.55974
▁center	-9.55997
▁commander	-9.5609
▁oil	-9.56097
▁heat	-9.56146
iy	-9.56166
▁jet	-9.56239
▁pills	-9.5629
ny	-9.56319
▁remind	-9.56354
▁believed	-9.56406
mo	-9.56466
▁sec	-9.56476
▁boo	-9.56498
▁sand	-9.56561
▁remain	-9.56793
▁pee	-9.56904
bi	-9.56948
ap	-9.57039
▁casey	-9.57332
▁wrap	-9.57382
▁event	-9.57423
ai	-9.57576
les	-9.57786
▁sin	-9.57797
▁doors	-9.58109
ler	-9.58242
▁je	-9.58398
▁hero	-9.58528
▁wha	-9.58709
▁load	-9.58873
▁scott	-9.58945
▁health	-9.58955
▁spoke	-9.59079
▁usual	-9.5912
▁sub	-9.59138
▁chocolate	-9.5917
▁majesty	-9.5917
▁subject	-9.5917
▁larry	-9.5917
▁awake	-9.59174
▁swim	-9.59174
▁sever	-9.59182
▁sunday	-9.59182
▁kano	-9.59182
▁miri	-9.59184
▁stayed	-9.59188
▁dj	-9.59191
▁duty	-9.59196
▁colm	-9.59197
▁rub	-9.59237
▁prepared	-9.59427
▁page	-9.59453
▁approaching	-9.59457
▁tone	-9.59543
▁wet	-9.59632
ier	-9.59705
▁menu	-9.5978
▁add	-9.59783
os	-9.59795
▁mar	-9.5995
▁ye	-9.5998
▁aye	-9.60015
▁ghost	-9.60086
▁las	-9.60086
▁cigarette	-9.60092
ng	-9.60124
▁queen	-9.60134
▁mikey	-9.60199
▁fella	-9.60316
▁nicky	-9.60413
ring	-9.60572
▁ge	-9.6073
▁murderer	-9.60879
▁pin	-9.60994
▁magic	-9.61212
▁draw	-9.61364
▁daughters	-9.61401
ating	-9.61533
▁stan	-9.6162
▁nobodys	-9.62077
mon	-9.62092
ship	-9.62227
▁shower	-9.62247
▁beg	-9.6236
▁helping	-9.62418
ons	-9.6243
▁sisters	-9.62475
▁provide	-9.62499
▁champagne	-9.62503
▁enemy	-9.62503
▁england	-9.62503
▁fabietto	-9.62503
▁florida	-9.62503
▁junior	-9.62503
▁routine	-9.62503
▁stevie	-9.62503
▁threw	-9.62503
▁tunnel	-9.62503
▁beverly	-9.62503
▁firm	-9.62503
▁pardon	-9.62503
▁raymond	-9.62503
▁proceed	-9.62503
▁clark	-9.62505
▁joking	-9.62507
▁fellow	-9.62515
▁brilliant	-9.62515
▁naked	-9.62516
▁prick	-9.62519
▁dropped	-9.62541
▁loves	-9.62552
▁prime	-9.62558
▁anger	-9.62568
▁sold	-9.62621
▁saving	-9.62636
▁original	-9.62654
▁signal	-9.6275
▁manager	-9.62822
▁clicking	-9.6284
▁planet	-9.62844
▁failed	-9.62859
▁screeching	-9.62868
ley	-9.62936
▁noticed	-9.63031
▁scream	-9.63099
▁due	-9.63789
▁le	-9.64068
bb	-9.64092
▁souls	-9.64182
▁trap	-9.64403
▁pen	-9.64549
▁rev	-9.64836
▁woods	-9.64961
po	-9.65057
▁pieces	-9.65168
▁bull	-9.65366
▁study	-9.65445
que	-9.65494
▁dump	-9.65528
▁escape	-9.65656
▁german	-9.65731
though	-9.65758
▁obvious	-9.6581
ence	-9.65841
▁skin	-9.65913
▁expert	-9.65944
▁background	-9.65951
▁closing	-9.65951
▁fantastic	-9.65951
▁foreign	-9.65951
▁inspector	-9.65951
▁percent	-9.65951
▁pocket	-9.65951
▁rough	-9.65951
▁social	-9.65951
▁suicide	-9.65951
▁suspense	-9.65951
▁whenever	-9.65951
▁teii	-9.65951
▁drove	-9.65952
▁horrible	-9.65952
▁linda	-9.65952
▁freedom	-9.65956
▁media	-9.65958
▁zero	-9.65958
▁firing	-9.6596
▁gino	-9.65963
▁hammer	-9.65969
▁sentence	-9.65975
▁smith	-9.65978
▁barnes	-9.66001
▁tower	-9.66006
ni	-9.6601
▁bury	-9.66048
▁gosh	-9.66053
▁suddenly	-9.66064
▁pure	-9.66077
ick	-9.66098
▁invited	-9.66141
▁barking	-9.66215
▁trade	-9.66248
▁nearly	-9.66281
▁hire	-9.66314
▁honestly	-9.66331
▁metal	-9.66331
ja	-9.66362
▁louis	-9.66375
▁brave	-9.66557
▁arrested	-9.666
▁abuse	-9.6661
▁drinks	-9.66612
▁pit	-9.66866
let	-9.67005
ey	-9.67159
▁artist	-9.67166
▁higher	-9.67193
▁au	-9.67247
▁va	-9.67338
▁towards	-9.67356
▁driver	-9.67389
▁training	-9.67413
▁headed	-9.67423
▁hardly	-9.67457
erie	-9.67469
▁passing	-9.67839
▁ne	-9.6835
▁crash	-9.68623
iv	-9.68744
▁hon	-9.68923
▁bum	-9.68935
▁stab	-9.68976
▁enter	-9.69132
▁lift	-9.69144
▁sayin	-9.69315
▁particular	-9.69373
▁watched	-9.69374
▁natural	-9.69379
▁played	-9.6941
▁snow	-9.69491
▁affair	-9.69523
▁afford	-9.69523
▁alfredo	-9.69523
▁distant	-9.69523
▁excellent	-9.69523
▁exciting	-9.69523
▁globe	-9.69523
▁heimish	-9.69523
▁mirror	-9.69523
▁responsible	-9.69523
▁trinity	-9.69523
▁credit	-9.69523
▁quarter	-9.69523
▁biggest	-9.69523
▁speed	-9.69524
▁review	-9.69526
▁grade	-9.69526
▁kevin	-9.69527
▁ellie	-9.69527
▁robbie	-9.6953
▁minister	-9.69531
▁bluestar	-9.69533
▁coward	-9.69536
▁self	-9.69548
▁pair	-9.69553
▁march	-9.69556
▁jean	-9.69556
▁capable	-9.69557
▁weight	-9.69574
▁shape	-9.69594
▁male	-9.69596
▁cha	-9.69601
▁tour	-9.69605
▁dh	-9.69605
▁johnson	-9.69613
▁uhoh	-9.69631
▁chill	-9.69641
▁glasses	-9.69728
▁lick	-9.69743
▁union	-9.69805
tt	-9.69807
way	-9.69831
▁pearl	-9.69893
▁rob	-9.69927
ated	-9.69932
ose	-9.70005
▁forced	-9.70023
▁quietly	-9.70027
▁created	-9.7004
▁who	-9.70282
▁searching	-9.70375
▁sexy	-9.70449
▁games	-9.70471
▁fa	-9.70568
▁thy	-9.70589
▁heh	-9.7061
▁expected	-9.70664
cy	-9.70708
▁ticket	-9.7084
▁student	-9.70846
▁bullet	-9.70863
ow	-9.71045
of	-9.71095
▁bone	-9.71371
▁graves	-9.71867
one	-9.71881
uck	-9.71917
▁hanging	-9.71968
▁fog	-9.72022
▁bra	-9.72055
ad	-9.72069
ied	-9.72708
▁career	-9.72817
▁fail	-9.72838
▁prepare	-9.72931
▁curse	-9.72939
house	-9.73007
▁numbers	-9.73019
▁flat	-9.7304
ade	-9.73134
▁pet	-9.7318
▁advice	-9.73226
▁agador	-9.73226
▁british	-9.73226
▁california	-9.73226
▁channel	-9.73226
▁lorraine	-9.73226
▁necessary	-9.73226
▁possibly	-9.73226
▁restaurant	-9.73226
▁terrific	-9.73226
▁wouid	-9.73226
▁sugar	-9.73226
▁clue	-9.73227
▁ansel	-9.73228
▁basic	-9.73228
▁square	-9.73229
▁crush	-9.73232
▁apparently	-9.73235
▁condition	-9.73238
▁cream	-9.7324
▁brush	-9.73242
▁jerk	-9.73248
▁static	-9.73251
▁silly	-9.73254
▁birth	-9.73287
▁bound	-9.73297
▁leon	-9.73311
▁stone	-9.73315
▁bay	-9.73499
▁aim	-9.7357
▁emotional	-9.73803
▁agreed	-9.73815
▁seek	-9.73816
▁pissed	-9.73821
▁leader	-9.73841
▁bath	-9.73884
▁coughs	-9.73916
ized	-9.74015
▁grunt	-9.74222
▁strip	-9.74371
▁iitti	-9.7438
ide	-9.74462
▁soldier	-9.74701
▁ke	-9.74995
▁files	-9.75028
▁cases	-9.75437
▁soldiers	-9.7557
we	-9.75628
▁si	-9.75859
▁ai	-9.75914
▁motherfuckers	-9.75923
ise	-9.76233
▁showing	-9.76693
ard	-9.76693
▁release	-9.7677
▁buying	-9.76777
▁lo	-9.76828
▁swing	-9.76887
▁cheap	-9.76898
▁daniel	-9.76929
▁bridge	-9.76961
▁threat	-9.76997
▁drag	-9.77017
▁among	-9.77047
▁chick	-9.77055
▁beiieve	-9.77072
▁borrow	-9.77072
▁celebrate	-9.77072
▁keeley	-9.77072
▁lisbeth	-9.77072
▁mickey	-9.77072
▁otherwise	-9.77072
▁screen	-9.77072
▁slept	-9.77072
▁traffic	-9.77072
▁desert	-9.77073
▁perfume	-9.77073
▁sacrifice	-9.77073
▁chimes	-9.77073
▁daesu	-9.77073
▁kyle	-9.77073
▁wheel	-9.77074
▁friday	-9.77074
▁operation	-9.77077
▁internet	-9.77078
▁football	-9.77079
▁saul	-9.77079
▁bike	-9.7708
▁crew	-9.7708
▁genius	-9.7708
▁stripper	-9.77083
▁trapped	-9.77084
▁rushman	-9.77093
▁wherever	-9.77094
▁storm	-9.77098
▁truly	-9.77102
▁spring	-9.77108
▁immediately	-9.77109
▁barely	-9.77115
▁handsome	-9.77117
▁pour	-9.77117
▁complicated	-9.77125
▁blows	-9.77144
▁golden	-9.77149
▁chest	-9.77159
▁ofthe	-9.77193
▁gary	-9.77196
▁exit	-9.77217
▁discovered	-9.77268
▁joy	-9.77281
▁sc	-9.77308
ack	-9.77341
▁arrived	-9.77367
▁brings	-9.7739
▁raised	-9.77486
▁depends	-9.77507
▁weapons	-9.7771
▁county	-9.77724
▁gee	-9.77766
▁cia	-9.77854
▁ace	-9.78016
ations	-9.78075
▁covered	-9.78097
▁finding	-9.7818
ens	-9.78247
▁seemed	-9.78267
tra	-9.78271
▁bump	-9.78306
▁ad	-9.78314
her	-9.78329
ney	-9.7856
▁apple	-9.78657
▁egg	-9.78684
▁odd	-9.7878
▁details	-9.7883
ang	-9.78909
▁jobs	-9.79085
▁announc	-9.79085
▁plant	-9.79231
▁whistles	-9.79319
▁fired	-9.79413
ged	-9.79591
▁students	-9.79607
▁walks	-9.79675
ank	-9.797
▁hurts	-9.7977
▁someones	-9.80023
ab	-9.80106
▁mi	-9.80249
▁picking	-9.80687
▁gut	-9.80755
▁divorce	-9.80765
▁li	-9.80938
▁exact	-9.80941
▁process	-9.81032
▁gettin	-9.81042
▁thirty	-9.8107
▁ambulance	-9.81072
▁assistant	-9.81072
▁avoid	-9.81072
▁cecilia	-9.81072
▁desperate	-9.81072
▁dunne	-9.81072
▁garvin	-9.81072
▁geoghan	-9.81072
▁gideon	-9.81072
▁justice	-9.81072
▁lindy	-9.81072
▁schedule	-9.81072
▁strike	-9.81072
▁twelve	-9.81072
▁location	-9.81073
▁opinion	-9.81073
▁warrant	-9.81073
▁oclock	-9.81073
▁piano	-9.81073
▁beast	-9.81075
▁violet	-9.81076
▁karate	-9.81076
▁online	-9.8108
▁boring	-9.81083
▁property	-9.81083
▁elias	-9.81084
▁pilot	-9.81085
▁rattling	-9.81085
▁desire	-9.81085
▁onto	-9.81087
▁therapy	-9.81107
▁planning	-9.81113
▁axel	-9.81118
▁winter	-9.81125
▁maria	-9.81127
▁rome	-9.81135
▁kimi	-9.81155
▁cast	-9.81166
▁path	-9.81169
▁gim	-9.81192
▁steven	-9.81237
just	-9.81242
▁spit	-9.81301
▁reality	-9.81437
▁rip	-9.81466
▁opened	-9.81613
▁letting	-9.81813
▁deb	-9.81837
▁tall	-9.81934
▁burned	-9.82034
▁counter	-9.82096
▁ja	-9.82152
▁bastards	-9.82225
▁burning	-9.82289
▁options	-9.82414
pro	-9.8249
▁signs	-9.82608
▁ken	-9.82609
▁whistle	-9.82858
▁knee	-9.82864
▁sometime	-9.82886
▁windows	-9.8291
▁action	-9.82959
▁pot	-9.83102
▁customers	-9.83313
▁ab	-9.83469
▁you	-9.83777
▁ko	-9.83877
tal	-9.8424
▁trans	-9.84433
▁sons	-9.8448
▁scouts	-9.84502
day	-9.8462
▁serve	-9.8462
▁log	-9.84669
▁plans	-9.84827
▁defend	-9.84854
▁success	-9.84965
▁wire	-9.84974
back	-9.85041
▁issue	-9.85054
▁kris	-9.85225
▁favour	-9.85239
▁garbage	-9.85239
▁godfrey	-9.85239
▁insurance	-9.85239
▁literally	-9.85239
▁margaret	-9.85239
▁melody	-9.85239
▁monsieur	-9.85239
▁mulwray	-9.85239
▁oglethorpe	-9.85239
▁paige	-9.85239
▁policy	-9.85239
▁responsibility	-9.85239
▁stomach	-9.85239
▁trevor	-9.85239
▁changing	-9.85239
▁intensifie	-9.85239
▁jeez	-9.85239
▁period	-9.85239
▁juice	-9.85239
▁washington	-9.85239
▁creaks	-9.8524
▁inez	-9.8524
▁blaring	-9.85241
▁muffled	-9.85241
▁alex	-9.85242
▁robert	-9.85242
▁television	-9.85242
▁sharon	-9.85243
▁philippe	-9.85243
▁nadine	-9.85243
▁magazine	-9.85244
▁practice	-9.85244
▁email	-9.85245
▁baseball	-9.85247
▁director	-9.85248
▁scum	-9.85251
▁salad	-9.85255
▁proof	-9.85256
▁weii	-9.85257
▁stake	-9.85258
▁airport	-9.85261
▁loan	-9.85272
▁season	-9.85285
▁dani	-9.85287
▁kab	-9.85324
▁officers	-9.85342
▁angeles	-9.8539
▁weston	-9.85395
▁heads	-9.85427
▁erm	-9.85435
▁ewing	-9.85443
by	-9.8555
▁lesson	-9.85602
ya	-9.85741
▁ended	-9.85742
▁chase	-9.85873
▁op	-9.86
▁walls	-9.8609
▁sucks	-9.86305
▁flowers	-9.86439
▁lighter	-9.8649
▁thuds	-9.86535
wa	-9.86598
▁hip	-9.86631
▁ohh	-9.86764
▁cheer	-9.8685
▁loser	-9.86882
ster	-9.86891
▁result	-9.87145
lic	-9.87152
▁member	-9.87195
▁customer	-9.87204
▁kissing	-9.87259
▁prints	-9.87443
▁prom	-9.87611
▁knees	-9.87674
▁bullets	-9.87996
▁whi	-9.88078
der	-9.8819
▁everybodys	-9.88306
▁mis	-9.88582
▁horns	-9.88749
ial	-9.88855
▁sha	-9.88902
▁gi	-9.88919
▁photos	-9.88953
▁introduce	-9.89305
▁cr	-9.8942
▁sudden	-9.89444
brew	-9.8951
▁perform	-9.89585
▁cindy	-9.89587
▁dracula	-9.89587
▁explosion	-9.89587
▁fifty	-9.89587
▁guarantee	-9.89587
▁interrupt	-9.89587
▁plenty	-9.89587
▁progress	-9.89587
▁smiling	-9.89587
▁stadium	-9.89587
▁tutar	-9.89587
▁vehicle	-9.89587
▁weather	-9.89587
▁whimpering	-9.89587
▁fortune	-9.89587
▁illegal	-9.89587
▁revenge	-9.89587
▁style	-9.89588
▁midnight	-9.89588
▁silver	-9.89589
▁teddy	-9.89589
▁silent	-9.8959
▁operator	-9.8959
▁guide	-9.89591
▁route	-9.89593
▁diana	-9.89593
▁dancing	-9.89594
▁investigation	-9.89594
▁virus	-9.89595
▁defense	-9.89599
▁failure	-9.89599
▁victoria	-9.89599
▁understood	-9.896
▁moral	-9.89603
▁positive	-9.89608
▁border	-9.89614
▁comfortable	-9.8962
▁race	-9.89623
▁model	-9.89624
▁aside	-9.89626
▁highway	-9.89644
▁nasty	-9.89645
▁buzzes	-9.89654
▁national	-9.89655
▁stars	-9.89661
▁wallet	-9.89666
▁woke	-9.89668
▁yearold	-9.8967
ke	-9.89673
▁chanting	-9.89688
▁professional	-9.8971
▁powerful	-9.89717
▁gum	-9.89741
▁victory	-9.89758
▁stolen	-9.89763
▁cape	-9.89873
▁likely	-9.89875
▁confirmed	-9.89897
▁echoing	-9.89912
▁boom	-9.89965
▁lines	-9.89996
▁thrown	-9.90013
▁bleeding	-9.90013
▁sally	-9.90059
▁crashed	-9.90077
▁eli	-9.90144
▁beans	-9.90178
▁concerned	-9.90233
▁mentioned	-9.90324
▁realized	-9.90339
com	-9.90416
▁ti	-9.90465
▁tra	-9.9057
▁hurting	-9.90685
▁pushed	-9.90738
▁spending	-9.90833
▁fixed	-9.90928
▁viva	-9.90999
▁flying	-9.91127
▁flie	-9.91241
▁ri	-9.91272
▁yell	-9.91304
▁pie	-9.91333
▁kit	-9.91337
▁expecting	-9.91358
▁rec	-9.91447
▁off	-9.91481
▁dry	-9.91487
ism	-9.91523
▁followed	-9.91546
▁official	-9.91583
red	-9.91618
▁appear	-9.91724
▁beating	-9.91778
▁swan	-9.91779
▁salt	-9.91804
▁on	-9.91824
▁chain	-9.9189
▁dollar	-9.91897
▁includ	-9.91994
▁stranger	-9.92037
▁dads	-9.92098
▁seq	-9.92187
▁ju	-9.92346
ious	-9.92376
▁to	-9.92485
▁daddys	-9.925
▁print	-9.9268
ker	-9.92733
use	-9.9327
▁screech	-9.93633
▁ln	-9.93668
▁connect	-9.9368
▁sweat	-9.93886
▁sharp	-9.93987
▁cure	-9.94015
▁z	-9.94016
▁marshal	-9.94074
▁sneak	-9.94095
▁hill	-9.94097
▁drama	-9.94124
▁thou	-9.94129
▁catherine	-9.94132
▁experiment	-9.94132
▁granny	-9.94132
▁jealous	-9.94132
▁rabbit	-9.94132
▁temple	-9.94132
▁twitter	-9.94132
▁unfortunate	-9.94132
▁violent	-9.94132
▁blew	-9.94133
▁clyde	-9.94133
▁lucie	-9.94133
▁indeed	-9.94133
▁mostly	-9.94133
▁cardinal	-9.94133
▁snake	-9.94133
▁candy	-9.94134
▁owner	-9.94134
▁stampler	-9.94135
▁courage	-9.94135
▁quote	-9.94136
▁honour	-9.94136
▁mitchell	-9.94137
▁navy	-9.94137
▁corky	-9.94137
▁driss	-9.94137
▁thunder	-9.94139
▁honking	-9.94142
▁version	-9.94146
▁russell	-9.9415
▁valley	-9.94153
▁reverend	-9.94153
▁inhales	-9.94154
▁steel	-9.94162
▁tank	-9.94163
▁labor	-9.94166
▁penis	-9.94175
▁sanders	-9.94186
▁dragon	-9.94205
▁rare	-9.94211
▁dating	-9.94219
▁wise	-9.94225
▁cabin	-9.94226
▁bout	-9.94237
▁statement	-9.94242
▁wailing	-9.94262
▁protection	-9.94285
▁diner	-9.94297
▁received	-9.94311
▁earn	-9.94315
▁doctors	-9.94328
▁charming	-9.94355
▁smash	-9.94364
▁dale	-9.94436
▁policeman	-9.94483
▁chat	-9.9455
▁thousands	-9.94565
▁me	-9.94565
▁pm	-9.94569
▁the	-9.94596
▁dust	-9.94604
ical	-9.94715
▁helped	-9.94785
▁stronger	-9.94899
▁suffering	-9.94943
▁drives	-9.95253
▁commit	-9.95254
▁oi	-9.95266
tter	-9.9541
ding	-9.95412
▁younger	-9.95415
ize	-9.95447
▁wi	-9.95492
▁growing	-9.95629
▁nation	-9.95667
▁gives	-9.95674
▁tits	-9.96061
ill	-9.96123
▁su	-9.96397
▁photograph	-9.96455
▁matthew	-9.965
▁sirens	-9.96509
ber	-9.96514
▁adult	-9.96558
▁cookie	-9.96595
▁ordered	-9.96612
ha	-9.96625
▁charges	-9.96925
▁sue	-9.97033
▁touched	-9.97055
▁tickets	-9.97154
tor	-9.97229
▁chi	-9.97253
▁queens	-9.9751
▁aa	-9.97684
▁rep	-9.97813
▁ears	-9.97979
tro	-9.98236
ities	-9.98413
▁separate	-9.9859
▁streets	-9.98783
▁accent	-9.98894
▁babies	-9.98894
▁blonde	-9.98894
▁challenge	-9.98894
▁community	-9.98894
▁eventually	-9.98894
▁explosiveskull	-9.98894
▁grenouille	-9.98894
▁katia	-9.98894
▁london	-9.98894
▁miami	-9.98894
▁stretch	-9.98894
▁uncomfortable	-9.98894
▁wreck	-9.98894
▁austin	-9.98894
▁cherry	-9.98894
▁international	-9.98894
▁laura	-9.98894
▁saverio	-9.98895
▁eddie	-9.98895
▁sarge	-9.98895
▁winner	-9.98895
▁current	-9.98896
▁katrin	-9.98896
▁sniffles	-9.98896
▁wolf	-9.98896
▁chicago	-9.98896
▁device	-9.98899
▁garage	-9.989
▁isa	-9.989
▁fancy	-9.98907
▁dope	-9.98908
▁assault	-9.98912
▁andrew	-9.98914
▁gentleman	-9.98914
▁mood	-9.98914
▁rope	-9.98916
▁secure	-9.98916
▁flip	-9.98916
▁grew	-9.98918
▁twist	-9.98924
▁bash	-9.9893
▁string	-9.98932
▁pool	-9.98933
▁lean	-9.98941
▁princess	-9.98941
▁robbery	-9.98953
▁disgusting	-9.98956
▁darkness	-9.98977
▁hm	-9.98986
▁thin	-9.99018
▁rise	-9.99029
▁trailer	-9.99057
▁coughing	-9.99082
▁palm	-9.99085
▁scary	-9.9911
▁grown	-9.99193
▁ka	-9.99232
aw	-9.99241
▁disappeared	-9.99275
▁escaped	-9.99312
▁checking	-9.99347
▁x	-9.99441
▁slowly	-9.99456
▁clients	-9.99467
▁wilder	-9.99534
▁based	-9.9956
▁flag	-9.99809
▁slave	-10.0009
▁ste	-10.0013
led	-10.0028
▁hu	-10.0029
▁agents	-10.004
▁cooking	-10.0045
▁cl	-10.0047
bh	-10.0049
▁cards	-10.005
▁sooner	-10.0053
ph	-10.0055
▁block	-10.0057
▁grave	-10.0068
▁carrie	-10.0086
ix	-10.0087
▁click	-10.0103
▁ward	-10.0114
▁william	-10.0146
▁claim	-10.0146
▁shoulder	-10.015
▁airline	-10.0151
▁dealer	-10.0166
▁pr	-10.0173
ble	-10.0187
▁mile	-10.0189
hole	-10.0194
▁am	-10.0226
▁fund	-10.0232
▁mc	-10.0236
▁siren	-10.025
▁speaker	-10.0263
▁led	-10.0289
▁fo	-10.029
▁answering	-10.029
▁sio	-10.03
▁fee	-10.0314
tch	-10.0319
▁disappear	-10.0349
port	-10.0354
▁damage	-10.0359
▁ruin	-10.0361
▁grass	-10.0372
uc	-10.0372
▁margo	-10.038
▁fighter	-10.0383
od	-10.0383
▁object	-10.0385
▁kim	-10.0385
▁les	-10.0385
▁august	-10.0389
▁available	-10.0389
▁blanchard	-10.0389
▁climb	-10.0389
▁compliment	-10.0389
▁darnell	-10.0389
▁dripping	-10.0389
▁escort	-10.0389
▁intense	-10.0389
▁maradona	-10.0389
▁mexico	-10.0389
▁offense	-10.0389
▁pathetic	-10.0389
▁portuguese	-10.0389
▁randall	-10.0389
▁rumbling	-10.0389
▁science	-10.0389
▁session	-10.0389
▁shadow	-10.0389
▁uniform	-10.0389
▁violence	-10.0389
▁lgby	-10.0389
▁presence	-10.0389
▁potential	-10.0389
▁japanese	-10.039
▁waitress	-10.039
▁piease	-10.039
▁example	-10.039
▁grandmother	-10.039
▁urgent	-10.039
▁monkey	-10.039
▁launch	-10.039
val	-10.0391
▁counselor	-10.0391
▁jury	-10.0391
▁attractive	-10.0392
▁chopper	-10.0393
▁doorbell	-10.0394
▁coleman	-10.0395
wood	-10.0395
▁passage	-10.0397
▁france	-10.0399
▁meal	-10.0399
▁moaning	-10.0399
▁puffy	-10.0399
▁christine	-10.0399
▁moon	-10.04
▁host	-10.0402
▁maid	-10.0404
▁cage	-10.0405
ung	-10.0406
ile	-10.0408
▁ap	-10.0411
▁orders	-10.0423
▁of	-10.0425
▁loudly	-10.0434
▁lower	-10.0435
nc	-10.044
▁eric	-10.0443
▁raped	-10.0443
▁inc	-10.045
▁personally	-10.045
▁lips	-10.0465
▁wide	-10.0477
▁reasons	-10.0492
▁chances	-10.0494
top	-10.0505
▁attacked	-10.0506
▁praying	-10.0519
▁kicked	-10.0527
▁parking	-10.0531
my	-10.0542
▁frankie	-10.0545
▁port	-10.0546
▁facts	-10.055
▁ideas	-10.0553
▁character	-10.0559
▁jew	-10.0559
▁trained	-10.056
min	-10.0563
▁nights	-10.0566
▁staring	-10.0567
▁all	-10.0568
▁terms	-10.0572
▁anne	-10.0572
▁goal	-10.0577
▁suits	-10.0588
ative	-10.0592
▁nail	-10.0592
▁demons	-10.0597
▁signed	-10.06
▁ways	-10.0613
▁rolling	-10.0617
▁learning	-10.0618
fu	-10.0627
▁matthews	-10.0647
▁electronic	-10.0672
▁detail	-10.0678
▁yard	-10.0682
ina	-10.0697
▁non	-10.0724
▁bones	-10.0727
bs	-10.0734
▁answers	-10.0756
pped	-10.0787
▁punish	-10.0805
▁shock	-10.0822
▁image	-10.0825
▁dec	-10.0834
▁anti	-10.0836
▁hearts	-10.0836
▁pigs	-10.084
▁tim	-10.0845
▁bleed	-10.0849
▁ahh	-10.0854
▁attend	-10.0862
▁ext	-10.0865
▁hung	-10.0866
▁gather	-10.0876
rate	-10.0886
board	-10.0891
▁command	-10.0891
▁dirt	-10.0894
room	-10.0901
▁europe	-10.0912
▁roy	-10.0913
▁danger	-10.0915
▁appointment	-10.0916
▁attempt	-10.0916
▁bennett	-10.0916
▁garabedian	-10.0916
▁gorgeous	-10.0916
▁joanna	-10.0916
▁miracle	-10.0916
▁patrol	-10.0916
▁professor	-10.0916
▁rhonda	-10.0916
▁sheiiy	-10.0916
▁vagina	-10.0916
▁favourite	-10.0916
▁fourteen	-10.0916
▁laurie	-10.0916
▁conference	-10.0916
▁pervert	-10.0916
▁ivy	-10.0916
▁karl	-10.0916
▁disease	-10.0916
▁vacation	-10.0916
▁thudding	-10.0916
▁expensive	-10.0916
▁resist	-10.0916
▁decent	-10.0917
▁talent	-10.0917
▁existence	-10.0917
▁owns	-10.0917
▁shopping	-10.0917
▁max	-10.0917
▁jax	-10.0918
▁defendant	-10.0918
▁percy	-10.0918
▁upper	-10.0919
▁fbi	-10.0919
▁firework	-10.0919
▁basement	-10.0921
▁data	-10.0922
▁forth	-10.0924
▁mercy	-10.0925
▁treatment	-10.0925
▁rex	-10.093
▁justin	-10.0934
▁mail	-10.0936
qu	-10.0941
▁jam	-10.0942
tone	-10.0943
▁smells	-10.0946
▁cf	-10.0951
▁represent	-10.0954
▁meantime	-10.0956
▁den	-10.0958
lin	-10.0964
▁dominic	-10.0965
▁settled	-10.0973
down	-10.0974
▁deeper	-10.0985
▁ag	-10.1003
▁freaking	-10.1019
▁shitty	-10.1026
▁scare	-10.1029
▁pl	-10.1034
ible	-10.1038
▁screwed	-10.1041
▁tied	-10.1042
▁squ	-10.1062
▁recording	-10.1069
▁treated	-10.1075
▁choices	-10.1085
▁engineer	-10.1103
▁goodness	-10.1136
▁breathes	-10.1154
▁announce	-10.1182
▁nun	-10.1235
▁pulling	-10.1241
▁scar	-10.1246
ache	-10.1259
▁sw	-10.1276
▁lab	-10.1291
▁services	-10.1292
▁fellas	-10.1312
▁comfort	-10.1323
hala	-10.1366
▁buzz	-10.1395
▁lack	-10.1406
▁approach	-10.1412
ire	-10.1413
▁rush	-10.1417
▁confirm	-10.1429
▁bored	-10.1433
ium	-10.1437
▁victor	-10.1448
ward	-10.1452
ball	-10.1453
life	-10.1454
▁express	-10.1467
▁iron	-10.1469
▁cooper	-10.1469
▁tech	-10.1471
▁advance	-10.1471
▁butcher	-10.1471
▁division	-10.1471
▁fought	-10.1471
▁helicopter	-10.1471
▁intelligence	-10.1471
▁macleish	-10.1471
▁morpheus	-10.1471
▁pacific	-10.1471
▁shakily	-10.1471
▁wolverton	-10.1471
▁jerry	-10.1471
▁motive	-10.1471
▁pookie	-10.1471
▁woogie	-10.1471
▁altar	-10.1471
▁natalie	-10.1471
▁studie	-10.1471
▁practical	-10.1471
▁impact	-10.1471
▁clinic	-10.1471
▁whiskey	-10.1472
▁spider	-10.1472
▁saint	-10.1472
▁bride	-10.1472
▁bread	-10.1472
▁blast	-10.1472
▁cheese	-10.1473
▁incident	-10.1473
▁wiii	-10.1473
▁status	-10.1473
▁flash	-10.1473
▁scent	-10.1473
▁electricity	-10.1473
▁license	-10.1473
▁myers	-10.1473
▁brax	-10.1473
▁brian	-10.1474
▁gross	-10.1474
▁unlike	-10.1474
▁logue	-10.1474
▁unlock	-10.1474
▁ease	-10.1474
▁bible	-10.1475
▁peg	-10.1476
▁mobile	-10.1477
▁corn	-10.148
▁recently	-10.1481
▁duh	-10.1482
▁rape	-10.1484
▁brandi	-10.1485
▁classic	-10.1485
▁rogers	-10.1485
▁grind	-10.1486
▁entry	-10.1486
▁chosen	-10.1489
▁article	-10.149
▁daniela	-10.1491
▁bass	-10.1491
▁lifetime	-10.1497
boy	-10.1497
▁assure	-10.1498
ville	-10.1503
▁butter	-10.1513
▁respond	-10.1516
▁earned	-10.1522
▁movement	-10.1524
▁royal	-10.1534
ttle	-10.1537
▁driven	-10.1546
▁crashing	-10.1551
▁carefully	-10.1552
▁pe	-10.1555
▁drawing	-10.1558
▁smaller	-10.1561
▁moments	-10.1573
▁tit	-10.1578
▁pea	-10.158
iest	-10.158
▁fu	-10.1582
▁drawer	-10.1584
▁noises	-10.1596
▁banging	-10.16
▁closet	-10.1602
▁horses	-10.1616
▁jumped	-10.1617
▁documents	-10.1619
▁cur	-10.1626
▁fishing	-10.1639
▁offered	-10.164
ming	-10.1645
op	-10.1657
▁pushing	-10.166
▁scan	-10.1664
▁kicking	-10.1666
▁faces	-10.1674
▁peoples	-10.1676
▁pink	-10.1678
▁backup	-10.1678
hol	-10.1694
▁math	-10.1716
▁badge	-10.174
▁equal	-10.1743
▁fires	-10.1774
▁members	-10.1788
▁inter	-10.1791
▁ol	-10.1792
▁tryin	-10.1793
▁chop	-10.1805
▁vision	-10.1814
▁nightmare	-10.1815
▁eggs	-10.1816
▁sport	-10.182
▁toward	-10.1822
▁min	-10.1829
▁fl	-10.1833
▁nut	-10.1855
▁hated	-10.1868
▁tr	-10.1884
▁committe	-10.1894
▁husbands	-10.1901
▁pipe	-10.1903
▁sins	-10.1903
▁reporter	-10.1905
▁bowl	-10.1912
▁joint	-10.1914
ub	-10.1931
▁tu	-10.1935
▁hunt	-10.1977
▁notes	-10.1981
rn	-10.1988
▁cu	-10.1996
▁gr	-10.1997
▁becom	-10.2002
▁ove	-10.2002
▁belongs	-10.2003
▁gre	-10.2008
▁journal	-10.201
ron	-10.2013
▁creep	-10.2037
what	-10.2039
▁jones	-10.2043
▁physical	-10.2045
▁collect	-10.2048
▁sandwich	-10.2051
▁prince	-10.2052
▁hum	-10.2053
▁product	-10.2055
▁transfer	-10.2059
▁aaahhh	-10.206
▁ashamed	-10.206
▁avenue	-10.206
▁benefit	-10.206
▁burmese	-10.206
▁choking	-10.206
▁clever	-10.206
▁cocaine	-10.206
▁creek	-10.206
▁dallas	-10.206
▁dibiasky	-10.206
▁duncan	-10.206
▁easily	-10.206
▁flesh	-10.206
▁gittes	-10.206
▁grateful	-10.206
▁hollywood	-10.206
▁jennifer	-10.206
▁mexican	-10.206
▁multiple	-10.206
▁orchestra	-10.206
▁paradise	-10.206
▁pizza	-10.206
▁political	-10.206
▁research	-10.206
▁shaughnessy	-10.206
▁shelter	-10.206
▁thompson	-10.206
▁tuesday	-10.206
▁vetlesen	-10.206
▁circumstances	-10.206
▁dispatch	-10.206
▁iady	-10.206
▁novel	-10.206
▁gallery	-10.206
▁hidden	-10.206
▁yosille	-10.206
▁instance	-10.206
▁ticking	-10.206
▁chinese	-10.206
▁coach	-10.206
▁telephone	-10.206
▁heip	-10.206
▁neighborhood	-10.206
▁forgotten	-10.206
▁stammer	-10.206
▁quince	-10.206
▁planned	-10.206
▁random	-10.206
▁theory	-10.206
▁specific	-10.206
▁foster	-10.206
▁pride	-10.206
▁rude	-10.206
▁denny	-10.206
▁medicine	-10.206
▁convention	-10.206
▁bush	-10.206
▁ripley	-10.2061
▁spotlight	-10.2061
▁paperwork	-10.2061
▁blah	-10.2061
▁jewish	-10.2061
▁leigh	-10.2061
▁mimi	-10.2062
▁brick	-10.2062
▁dealing	-10.2062
▁fuel	-10.2062
▁motion	-10.2062
▁gunfire	-10.2063
▁ts	-10.2063
▁gear	-10.2064
▁minor	-10.2064
▁package	-10.2064
▁award	-10.2064
▁carlos	-10.2065
▁duck	-10.2065
▁began	-10.2065
▁standard	-10.2066
ust	-10.2067
▁china	-10.2067
▁coat	-10.2067
▁stood	-10.2067
▁civil	-10.2067
▁lightning	-10.2069
▁mmmm	-10.2069
▁cow	-10.207
▁according	-10.2073
▁bugger	-10.2075
▁prize	-10.2075
▁tiny	-10.2078
▁july	-10.2079
▁under	-10.2079
▁momma	-10.208
▁disappointed	-10.2083
▁spare	-10.2083
▁bond	-10.2084
▁dea	-10.2084
▁rear	-10.2084
▁fourth	-10.2087
▁chamber	-10.2089
▁billion	-10.2091
▁liz	-10.2094
▁que	-10.2096
▁rae	-10.2097
▁breaks	-10.2111
▁hunting	-10.2113
▁reports	-10.2133
▁che	-10.2134
▁painful	-10.2141
▁deserved	-10.2156
▁changes	-10.216
▁considered	-10.2168
oon	-10.2172
▁stripes	-10.219
▁carrying	-10.22
▁makeup	-10.2214
▁hug	-10.2223
▁barn	-10.2229
▁fre	-10.223
▁not	-10.2239
▁marking	-10.2244
▁messing	-10.2248
▁prisoners	-10.2249
▁breaths	-10.226
▁trauma	-10.2263
fa	-10.2276
▁lookin	-10.2278
▁selling	-10.229
▁behave	-10.2302
▁uhh	-10.2306
▁seal	-10.2309
▁edge	-10.2313
bu	-10.2324
▁barb	-10.2325
av	-10.2337
▁cab	-10.2349
cho	-10.2353
▁blocks	-10.2353
con	-10.2369
▁throwing	-10.2378
▁strangers	-10.2389
▁est	-10.2393
▁arrive	-10.2401
▁pitch	-10.2412
tain	-10.2421
▁lover	-10.2434
▁contain	-10.2441
▁ru	-10.2444
▁kings	-10.2447
▁americans	-10.2454
▁hood	-10.2459
▁ob	-10.2467
▁critic	-10.2483
hi	-10.2486
▁sale	-10.2487
▁cuff	-10.2491
▁cor	-10.2518
ette	-10.2524
▁bio	-10.253
▁col	-10.2533
▁ver	-10.2536
▁voices	-10.2536
▁meaning	-10.254
▁slip	-10.257
▁she	-10.2574
▁ic	-10.2575
▁cro	-10.26
▁kiii	-10.2613
▁tap	-10.2617
▁lots	-10.2619
▁scratch	-10.2632
▁leak	-10.2632
▁confess	-10.2641
▁poison	-10.2643
▁caii	-10.2647
load	-10.2657
▁panic	-10.2657
▁fore	-10.2666
beat	-10.2667
▁warn	-10.2668
▁faint	-10.267
▁mini	-10.267
▁refuse	-10.2672
▁gain	-10.2675
▁potato	-10.2676
▁psychopath	-10.268
▁effect	-10.2683
▁insist	-10.2684
▁liquid	-10.2685
▁approximately	-10.2685
▁capture	-10.2685
▁confused	-10.2685
▁dillon	-10.2685
▁gemini	-10.2685
▁governor	-10.2685
▁harvard	-10.2685
▁nonsense	-10.2685
▁oracle	-10.2685
▁pamela	-10.2685
▁penalty	-10.2685
▁quarantine	-10.2685
▁reputation	-10.2685
▁retail	-10.2685
▁senior	-10.2685
▁simply	-10.2685
▁skull	-10.2685
▁torture	-10.2685
▁tragedy	-10.2685
▁underwear	-10.2685
▁unusual	-10.2685
▁editor	-10.2685
▁eternal	-10.2685
▁pattern	-10.2685
▁rifle	-10.2685
▁spray	-10.2685
▁thrill	-10.2685
▁wrist	-10.2685
▁estimate	-10.2685
▁knowledge	-10.2685
▁reckon	-10.2685
▁trudy	-10.2685
▁trunk	-10.2685
▁downtown	-10.2685
▁recall	-10.2685
▁surgery	-10.2685
▁toilet	-10.2685
▁link	-10.2685
▁cowboy	-10.2685
▁rustling	-10.2685
▁turkey	-10.2685
▁haunt	-10.2685
▁oleg	-10.2685
▁oak	-10.2685
▁battle	-10.2686
▁abortion	-10.2686
▁howard	-10.2686
▁spell	-10.2686
▁lola	-10.2687
▁legend	-10.2687
▁comment	-10.2687
▁whatre	-10.2687
▁monk	-10.2687
▁russian	-10.2687
▁slut	-10.2688
▁bertie	-10.2688
▁commitment	-10.2688
▁kang	-10.2688
▁proper	-10.2688
▁remove	-10.2689
▁medication	-10.2689
▁heii	-10.269
▁moron	-10.2691
▁barry	-10.2695
▁becker	-10.2698
▁plain	-10.2699
▁copies	-10.27
▁eden	-10.2701
▁spoken	-10.2703
▁rene	-10.2705
▁io	-10.2705
▁cutting	-10.2705
▁chip	-10.2706
▁sca	-10.2711
▁sixth	-10.2712
▁title	-10.2723
▁fireman	-10.2723
▁warned	-10.2725
▁germany	-10.2725
▁stopping	-10.2727
▁served	-10.273
▁gathered	-10.2733
▁row	-10.2737
▁sa	-10.2738
▁hells	-10.274
▁ac	-10.2744
▁tail	-10.2745
▁indian	-10.2745
▁virgin	-10.2745
▁timing	-10.2746
hand	-10.2757
▁woo	-10.2758
▁for	-10.276
▁loaded	-10.2764
▁mayor	-10.2772
▁manny	-10.2774
▁studying	-10.2778
▁arch	-10.2783
▁places	-10.2786
▁perfectly	-10.2831
▁skills	-10.2833
ug	-10.2834
▁fades	-10.2836
▁vote	-10.2836
▁baron	-10.2841
▁tire	-10.2852
ight	-10.2885
▁pos	-10.2896
▁fianc	-10.2896
▁wounds	-10.29
oo	-10.2909
▁shows	-10.2913
▁pounds	-10.2915
hoo	-10.2918
▁reported	-10.2921
▁mon	-10.2926
▁aid	-10.2928
mal	-10.2942
ov	-10.2964
cha	-10.2971
▁mat	-10.3
▁and	-10.3003
gh	-10.3005
▁cameras	-10.3012
tie	-10.302
▁app	-10.3021
▁we	-10.3043
act	-10.3053
ways	-10.307
▁pound	-10.311
▁beside	-10.3116
▁term	-10.3118
▁opera	-10.3128
▁runs	-10.3138
▁waited	-10.3141
▁ld	-10.3158
▁amys	-10.3192
▁messages	-10.3201
ham	-10.3245
▁request	-10.3259
▁pla	-10.3261
▁cheat	-10.3262
▁echo	-10.3304
▁guards	-10.3304
▁develop	-10.331
▁tears	-10.3322
▁jo	-10.3327
ong	-10.333
▁smooth	-10.3336
▁axe	-10.3346
▁psycho	-10.3348
▁mer	-10.3349
▁amount	-10.3351
▁anacott	-10.3351
▁anniversary	-10.3351
▁arcamax	-10.3351
▁architect	-10.3351
▁broadcast	-10.3351
▁cherokee	-10.3351
▁clamoring	-10.3351
▁declan	-10.3351
▁diamond	-10.3351
▁female	-10.3351
▁fifteen	-10.3351
▁fruit	-10.3351
▁generous	-10.3351
▁happiness	-10.3351
▁ieave	-10.3351
▁museum	-10.3351
▁mysterious	-10.3351
▁nathaniel	-10.3351
▁perimeter	-10.3351
▁prescription	-10.3351
▁prevent	-10.3351
▁reservation	-10.3351
▁saviano	-10.3351
▁scotch	-10.3351
▁servant	-10.3351
▁sheldon	-10.3351
▁signature	-10.3351
▁stewart	-10.3351
▁struggle	-10.3351
▁teldar	-10.3351
▁terribly	-10.3351
▁volunteer	-10.3351
▁afterwards	-10.3351
▁false	-10.3351
▁insult	-10.3351
▁magua	-10.3351
▁miserable	-10.3351
▁outfit	-10.3351
▁dennis	-10.3351
▁falk	-10.3351
▁theater	-10.3351
▁luke	-10.3351
▁habit	-10.3351
▁stairs	-10.3351
▁alien	-10.3351
▁giggling	-10.3351
▁worm	-10.3351
▁infirmary	-10.3351
▁nerve	-10.3351
▁epi	-10.3351
▁exercise	-10.3351
▁trump	-10.3351
▁whitney	-10.3351
▁drain	-10.3351
▁ollie	-10.3351
▁hoghead	-10.3352
▁snack	-10.3352
▁impressive	-10.3352
▁alert	-10.3352
▁glow	-10.3352
▁curious	-10.3352
▁fetch	-10.3352
▁squad	-10.3352
▁creature	-10.3352
▁sword	-10.3352
▁chapter	-10.3352
▁spoon	-10.3352
▁brent	-10.3352
▁families	-10.3353
▁possession	-10.3353
▁theme	-10.3353
▁june	-10.3354
▁chew	-10.3354
▁yup	-10.3355
▁tallis	-10.3355
▁effective	-10.3355
▁shelley	-10.3356
▁worship	-10.3356
▁castle	-10.3356
▁technically	-10.3359
▁cameron	-10.336
▁ranch	-10.336
▁slit	-10.3361
▁frightened	-10.3361
▁squeaking	-10.3367
▁homework	-10.3367
▁rank	-10.3369
▁gage	-10.337
▁healy	-10.337
▁fist	-10.3371
▁clattering	-10.3371
▁sharply	-10.3373
▁creepy	-10.3376
oc	-10.338
▁parties	-10.3393
▁pancakes	-10.3394
▁golf	-10.3395
▁sean	-10.3402
▁ham	-10.3402
▁punished	-10.3402
▁when	-10.3407
▁eaten	-10.3407
▁spy	-10.3412
▁ditch	-10.3415
▁passes	-10.3415
▁survived	-10.3421
▁sum	-10.3434
▁forest	-10.3434
▁toes	-10.3435
▁fingerprints	-10.3445
▁rocks	-10.3445
▁delivered	-10.3447
▁somebodys	-10.3452
▁ate	-10.3461
▁mac	-10.3464
▁tw	-10.3464
▁lawyers	-10.3471
▁waves	-10.3479
▁filled	-10.3481
▁contracts	-10.3493
▁lads	-10.3497
▁deserves	-10.3504
ik	-10.3505
▁toys	-10.3514
▁ram	-10.3516
▁bl	-10.352
▁boot	-10.3565
▁shouts	-10.3565
▁dancer	-10.3587
▁deer	-10.3587
▁wig	-10.3592
▁prob	-10.3596
▁drum	-10.3612
mer	-10.3617
▁counting	-10.3618
▁gl	-10.3623
its	-10.3628
▁snap	-10.3634
ok	-10.3634
▁rot	-10.3647
▁ny	-10.3656
▁blowing	-10.3657
pit	-10.3657
▁rem	-10.3671
▁tend	-10.368
▁prop	-10.368
▁cra	-10.3709
▁officials	-10.372
▁chains	-10.3721
▁falls	-10.3761
▁guts	-10.3762
▁wound	-10.3783
cal	-10.3816
▁motorcycle	-10.3817
▁source	-10.3819
▁mountain	-10.382
▁generation	-10.3822
▁degree	-10.3823
▁artists	-10.3824
▁option	-10.3828
▁design	-10.3844
ex	-10.3845
▁ph	-10.3846
▁beep	-10.3854
▁secrets	-10.3855
▁remains	-10.387
▁prayer	-10.3884
▁cla	-10.3907
▁ze	-10.3943
spect	-10.3966
▁drown	-10.3974
ote	-10.3976
face	-10.3983
while	-10.3989
▁fart	-10.3991
▁regard	-10.4013
▁howl	-10.4016
▁sink	-10.402
▁brand	-10.4022
▁inform	-10.4023
▁grant	-10.4027
work	-10.4031
▁update	-10.4038
▁bark	-10.4041
book	-10.4042
tan	-10.4044
▁numb	-10.4048
▁webb	-10.405
▁wipe	-10.405
town	-10.4051
▁types	-10.4051
▁actual	-10.4053
▁rate	-10.4056
▁invite	-10.406
range	-10.4061
▁gentle	-10.4063
▁yank	-10.4064
▁survival	-10.4065
▁abbey	-10.4065
▁allegations	-10.4065
▁argument	-10.4065
▁cavendish	-10.4065
▁ceremony	-10.4065
▁coakley	-10.4065
▁harold	-10.4065
▁homicide	-10.4065
▁inject	-10.4065
▁insects	-10.4065
▁instinct	-10.4065
▁investigator	-10.4065
▁journey	-10.4065
▁lynn	-10.4065
▁mankind	-10.4065
▁munro	-10.4065
▁northcott	-10.4065
▁popular	-10.4065
▁promotion	-10.4065
▁purchase	-10.4065
▁racist	-10.4065
▁response	-10.4065
▁select	-10.4065
▁squeeze	-10.4065
▁suspicious	-10.4065
▁svenning	-10.4065
▁syndicate	-10.4065
▁technique	-10.4065
▁thursday	-10.4065
▁treasure	-10.4065
▁unexpected	-10.4065
▁universe	-10.4065
▁whimpers	-10.4065
▁irene	-10.4066
▁measure	-10.4066
▁profit	-10.4066
▁thief	-10.4066
▁sweep	-10.4066
▁connie	-10.4066
▁pleasant	-10.4066
▁stabbed	-10.4066
▁lazy	-10.4066
▁mathias	-10.4066
▁central	-10.4066
▁float	-10.4066
▁mystery	-10.4066
▁plague	-10.4066
▁clink	-10.4066
▁yonas	-10.4066
▁eliza	-10.4066
▁unbelievable	-10.4066
▁technolog	-10.4066
▁allison	-10.4066
▁tiger	-10.4066
▁cheque	-10.4066
▁chart	-10.4066
▁loyalty	-10.4066
▁clone	-10.4066
▁hyperion	-10.4067
▁mitch	-10.4067
▁lousy	-10.4067
▁duke	-10.4067
▁wrapped	-10.4067
▁jimmy	-10.4067
▁tanner	-10.4068
▁selfish	-10.4069
▁sonmi	-10.4069
▁punk	-10.4069
▁fork	-10.4069
▁facility	-10.407
▁grandpa	-10.407
▁inches	-10.4071
▁expression	-10.4071
▁dna	-10.4072
▁accountant	-10.4072
▁shine	-10.4072
▁foolish	-10.4072
▁weakness	-10.4073
▁peterson	-10.4073
▁slide	-10.4074
▁cmon	-10.4074
▁pub	-10.4074
▁button	-10.4079
▁solo	-10.4079
▁tucker	-10.4082
▁factory	-10.4084
▁adopted	-10.4085
▁bags	-10.4086
▁lapd	-10.4087
▁bam	-10.4088
vo	-10.4095
▁highness	-10.4095
▁hates	-10.4098
▁dearest	-10.4102
▁coke	-10.4112
▁shattering	-10.4113
▁sealed	-10.4116
▁yale	-10.4116
▁ruined	-10.4124
▁tests	-10.4125
▁journalist	-10.4127
▁warning	-10.4131
▁carson	-10.4135
▁patch	-10.4141
▁trees	-10.4157
▁leaves	-10.4158
▁electric	-10.4159
▁towels	-10.4166
▁destroyed	-10.4178
▁od	-10.4183
▁fate	-10.4183
▁uns	-10.4196
▁gal	-10.4198
form	-10.4211
▁bitches	-10.4222
▁para	-10.4223
▁melt	-10.4224
▁recorded	-10.4233
▁kin	-10.4247
▁messed	-10.4249
ana	-10.4255
▁mont	-10.4265
▁tracking	-10.4268
▁or	-10.4272
▁anyways	-10.4275
▁neighbors	-10.4277
▁accounts	-10.4282
▁armed	-10.4286
▁tri	-10.4294
▁chips	-10.4342
▁cuts	-10.4346
▁clap	-10.4353
▁holes	-10.4362
uk	-10.4363
▁joey	-10.4366
▁bon	-10.4385
▁cats	-10.4386
▁girlfriends	-10.4389
▁yards	-10.4407
bag	-10.4407
▁tan	-10.441
reader	-10.4441
▁tin	-10.4448
▁cookies	-10.4458
▁swans	-10.4462
▁wh	-10.4477
oh	-10.4526
eight	-10.4537
▁shout	-10.455
▁badly	-10.4552
▁bug	-10.4568
ement	-10.457
▁rap	-10.457
▁mob	-10.4575
▁sol	-10.4587
▁flame	-10.4588
▁zombie	-10.4588
▁shark	-10.4588
▁direction	-10.459
▁rumor	-10.4591
▁thud	-10.4603
▁lit	-10.4604
▁idiots	-10.4606
▁wil	-10.4609
▁twin	-10.4616
▁stays	-10.4621
she	-10.4631
ern	-10.4649
▁cultur	-10.4649
▁monsters	-10.465
our	-10.4655
lock	-10.468
cu	-10.4685
over	-10.469
▁hahaha	-10.4691
▁ven	-10.4718
▁orleans	-10.4726
▁schools	-10.4729
urg	-10.4736
▁discover	-10.4772
▁shatter	-10.4785
▁noon	-10.4787
▁stress	-10.4792
▁invent	-10.4793
▁medic	-10.4795
▁heal	-10.4796
▁fla	-10.4798
▁mix	-10.4799
▁ignore	-10.4803
▁trace	-10.4807
▁produce	-10.4809
▁del	-10.4811
▁stink	-10.4812
power	-10.4815
▁puss	-10.4819
right	-10.4819
▁tuck	-10.4821
type	-10.4821
▁persons	-10.4822
box	-10.4823
how	-10.4826
▁couid	-10.4833
ologist	-10.4834
▁replace	-10.4835
▁shouid	-10.4835
▁analyst	-10.4835
▁applauding	-10.4835
▁argue	-10.4835
▁barclay	-10.4835
▁breach	-10.4835
▁cocktail	-10.4835
▁corridor	-10.4835
▁council	-10.4835
▁dessert	-10.4835
▁district	-10.4835
▁empire	-10.4835
▁erika	-10.4835
▁exchange	-10.4835
▁fabulous	-10.4835
▁grandfather	-10.4835
▁grimsby	-10.4835
▁imprint	-10.4835
▁jeanbaptiste	-10.4835
▁katherine	-10.4835
▁litvenko	-10.4835
▁lobster	-10.4835
▁negative	-10.4835
▁nuclear	-10.4835
▁paranoid	-10.4835
▁patrizia	-10.4835
▁permission	-10.4835
▁principle	-10.4835
▁quincy	-10.4835
▁soccer	-10.4835
▁spartan	-10.4835
▁sylvia	-10.4835
▁temperature	-10.4835
▁temporary	-10.4835
▁tiffany	-10.4835
▁wednesday	-10.4835
▁balance	-10.4835
▁bronson	-10.4835
▁chayim	-10.4835
▁communicate	-10.4835
▁education	-10.4835
▁gavin	-10.4835
▁niece	-10.4835
▁occasion	-10.4835
▁sarnt	-10.4835
▁traitor	-10.4835
▁chord	-10.4835
▁lorna	-10.4835
▁method	-10.4835
▁panties	-10.4835
▁jasper	-10.4835
▁database	-10.4835
▁digging	-10.4835
▁bolt	-10.4835
▁todd	-10.4835
▁brakes	-10.4835
▁clown	-10.4835
▁pillow	-10.4835
▁sahar	-10.4835
▁remote	-10.4835
▁agency	-10.4835
▁kmart	-10.4835
▁birt	-10.4835
▁wives	-10.4835
▁bowden	-10.4835
▁individual	-10.4835
▁password	-10.4835
▁plug	-10.4835
▁inaudible	-10.4836
▁concept	-10.4836
▁prosecution	-10.4836
▁choke	-10.4836
▁rafto	-10.4836
▁lottery	-10.4836
▁bacon	-10.4836
▁cruel	-10.4836
▁reception	-10.4836
▁myth	-10.4836
▁huron	-10.4836
▁shotgun	-10.4836
▁after	-10.4837
▁breast	-10.4837
▁sobs	-10.4837
▁chatting	-10.4838
▁megan	-10.4838
▁iong	-10.4838
▁sensitive	-10.4838
▁ital	-10.4838
▁beef	-10.4838
▁task	-10.4838
▁lemon	-10.4839
▁broad	-10.4839
▁loving	-10.4839
▁judgment	-10.4839
▁stream	-10.4839
▁merk	-10.4839
▁bail	-10.4839
▁boil	-10.484
▁mill	-10.4841
star	-10.4841
▁section	-10.4841
▁dishes	-10.4841
▁settlement	-10.4841
▁meg	-10.4842
▁identified	-10.4842
▁raiden	-10.4842
▁dropping	-10.4842
▁condor	-10.4842
▁embarrassed	-10.4843
▁leila	-10.4844
▁vow	-10.4845
▁goldman	-10.4848
▁lame	-10.4848
▁soup	-10.4848
▁apply	-10.4852
oul	-10.4855
▁emma	-10.4856
▁uhuh	-10.4857
▁bri	-10.4858
▁officially	-10.486
▁waitin	-10.4861
▁ton	-10.4864
▁witnesses	-10.4866
▁matches	-10.4867
▁fallen	-10.4868
nce	-10.4872
▁andie	-10.4875
▁deny	-10.4876
▁sato	-10.4877
▁related	-10.4879
▁wounded	-10.4879
▁debt	-10.488
luca	-10.4882
▁cheated	-10.4883
▁jesse	-10.4884
▁hunter	-10.4884
▁refused	-10.4887
▁millions	-10.4888
▁healthy	-10.4889
post	-10.4892
▁mid	-10.4892
▁cheating	-10.4896
▁released	-10.4897
▁introduced	-10.4897
▁arse	-10.4898
▁her	-10.4899
▁kisses	-10.49
▁cursed	-10.49
▁assumed	-10.4911
▁guests	-10.4912
▁forces	-10.4918
▁graduate	-10.4921
for	-10.4939
rus	-10.4952
▁quicker	-10.4955
▁brains	-10.4974
▁comp	-10.4978
lar	-10.4983
▁bu	-10.4985
▁impression	-10.4992
▁sheriffs	-10.4993
▁sur	-10.4999
▁mayo	-10.5004
▁fur	-10.5006
▁jon	-10.5006
▁wally	-10.501
ency	-10.5012
▁realm	-10.5019
▁workers	-10.5023
gram	-10.5031
▁taik	-10.504
▁moves	-10.5053
▁joined	-10.5066
▁protected	-10.5071
istic	-10.5071
light	-10.5087
▁returned	-10.5091
▁enjoyed	-10.5092
▁relat	-10.5111
▁riva	-10.5112
▁embrace	-10.5118
ple	-10.5121
▁sis	-10.5128
▁films	-10.5137
▁kissed	-10.5142
▁marks	-10.5157
▁enjoying	-10.516
aging	-10.5179
▁parts	-10.518
▁machines	-10.5207
▁site	-10.5218
▁friendly	-10.5226
▁ci	-10.5248
▁mel	-10.5261
▁appears	-10.5261
▁minds	-10.5292
ids	-10.5328
▁bend	-10.5333
▁psyche	-10.5361
▁cleared	-10.5371
▁seats	-10.5373
▁easter	-10.5398
▁sta	-10.5399
ox	-10.5408
▁dam	-10.5421
▁material	-10.5423
▁neighbor	-10.5426
uh	-10.5426
▁cigarettes	-10.5428
▁shoe	-10.5432
▁chuckle	-10.5435
▁flower	-10.5439
▁reminds	-10.5445
▁q	-10.5462
▁dings	-10.5465
ole	-10.547
▁obs	-10.5473
cut	-10.548
▁phones	-10.5488
▁exam	-10.5531
▁chickens	-10.5532
▁bombs	-10.5545
▁prisoner	-10.5569
▁gunshots	-10.5572
▁steps	-10.5581
▁india	-10.559
▁bee	-10.5607
▁bargain	-10.5616
▁adams	-10.5619
amo	-10.5624
▁cancel	-10.5626
▁iook	-10.5627
che	-10.563
▁determine	-10.5636
▁frame	-10.5637
▁direct	-10.5642
▁shove	-10.5643
ability	-10.5649
▁entr	-10.5651
shot	-10.5653
▁recommend	-10.5653
▁recent	-10.5656
▁madam	-10.5657
▁weigh	-10.5658
▁realise	-10.5658
▁porn	-10.5662
▁exhibit	-10.5663
▁invest	-10.5666
▁guitar	-10.5668
▁abbess	-10.5668
▁anderson	-10.5668
▁autopsy	-10.5668
▁average	-10.5668
▁behavior	-10.5668
▁bleep	-10.5668
▁bubble	-10.5668
▁caitlyn	-10.5668
▁campaign	-10.5668
▁capital	-10.5668
▁cemetery	-10.5668
▁communication	-10.5668
▁disaster	-10.5668
▁explanation	-10.5668
▁explode	-10.5668
▁extraordinary	-10.5668
▁ferguson	-10.5668
▁fifth	-10.5668
▁fizel	-10.5668
▁fridge	-10.5668
▁goddammit	-10.5668
▁headquarters	-10.5668
▁instrument	-10.5668
▁karras	-10.5668
▁kendall	-10.5668
▁mohawk	-10.5668
▁morahan	-10.5668
▁ordinary	-10.5668
▁orphan	-10.5668
▁peopie	-10.5668
▁podcast	-10.5668
▁polite	-10.5668
▁protocol	-10.5668
▁rakel	-10.5668
▁rezendes	-10.5668
▁satellite	-10.5668
▁scenario	-10.5668
▁scope	-10.5668
▁solara	-10.5668
▁stereo	-10.5668
▁sunshine	-10.5668
▁temper	-10.5668
▁toothpicks	-10.5668
▁tragic	-10.5668
▁trespass	-10.5668
▁typical	-10.5668
▁unhappy	-10.5668
▁unknown	-10.5668
▁vocalizing	-10.5668
▁dunno	-10.5668
▁eurostream	-10.5668
▁struck	-10.5668
▁warrior	-10.5668
▁assaad	-10.5668
▁defeat	-10.5668
▁jodie	-10.5668
▁debbie	-10.5668
▁lutz	-10.5668
▁duties	-10.5668
▁serving	-10.5668
▁pickett	-10.5668
▁hesitate	-10.5668
▁distort	-10.5668
▁elvis	-10.5668
▁modal	-10.5668
▁coincidence	-10.5668
▁lucy	-10.5668
▁casper	-10.5668
▁costume	-10.5668
▁crystal	-10.5668
▁ankle	-10.5668
▁donkey	-10.5668
▁scholarship	-10.5668
▁overmeyer	-10.5668
▁weep	-10.5668
▁network	-10.5668
▁conservative	-10.5668
▁structure	-10.5668
▁kungfu	-10.5668
▁blake	-10.5669
▁sacha	-10.5669
▁ruddy	-10.5669
▁francoise	-10.5669
▁testify	-10.5669
▁tess	-10.5669
▁kingdom	-10.5669
▁denial	-10.5669
▁invitation	-10.5669
▁series	-10.5669
▁organization	-10.5669
▁arrangement	-10.5669
▁bingo	-10.5669
▁jonas	-10.5669
▁arrival	-10.567
▁reaction	-10.567
▁creat	-10.567
▁couidnt	-10.567
▁childhood	-10.567
▁mag	-10.567
▁mouse	-10.567
▁jeff	-10.567
▁investment	-10.567
▁pump	-10.5671
▁admiral	-10.5671
▁toto	-10.5671
▁quality	-10.5672
▁zone	-10.5672
▁biii	-10.5672
▁aboard	-10.5673
▁conley	-10.5673
▁starving	-10.5673
▁redwood	-10.5674
▁salary	-10.5674
▁franco	-10.5674
▁motherfucking	-10.5675
▁reduce	-10.5675
itating	-10.5675
▁santa	-10.5675
▁century	-10.5676
▁sew	-10.5677
▁agh	-10.5678
▁marshall	-10.5679
▁potatoes	-10.568
ran	-10.5681
▁rice	-10.5682
▁impressed	-10.5684
▁shave	-10.5684
▁visitor	-10.5686
▁robbed	-10.5688
▁u	-10.569
make	-10.569
▁threatened	-10.5691
▁tur	-10.5694
▁advised	-10.5696
▁setting	-10.5696
▁suite	-10.5697
▁threatening	-10.5697
▁roaring	-10.5698
▁growling	-10.57
▁ross	-10.5701
▁down	-10.5701
▁greed	-10.5703
▁robin	-10.5705
▁spin	-10.5705
▁naturally	-10.5706
▁parish	-10.5708
▁sighing	-10.5712
mark	-10.5715
▁designed	-10.5716
▁useless	-10.5717
▁requested	-10.572
▁handcuffs	-10.5722
▁jude	-10.5724
▁cave	-10.5731
▁booge	-10.5734
▁horny	-10.5735
▁banks	-10.5739
▁blown	-10.574
onies	-10.5747
▁com	-10.575
▁normally	-10.5752
some	-10.5756
▁tube	-10.5758
▁louder	-10.5762
ju	-10.5764
▁passengers	-10.5766
▁dumped	-10.5769
▁hy	-10.5771
gon	-10.5779
▁growls	-10.5785
▁clatters	-10.5788
obby	-10.5801
▁songs	-10.5822
▁rippers	-10.5831
▁heroin	-10.5835
jo	-10.5843
▁stealing	-10.5846
▁ricky	-10.5851
▁grey	-10.5856
lacking	-10.5862
▁hills	-10.5864
▁gu	-10.5865
▁pu	-10.5869
▁riding	-10.5888
▁powers	-10.5892
erv	-10.592
▁painter	-10.593
▁wo	-10.5931
▁highly	-10.5933
mber	-10.6021
▁burns	-10.6023
shit	-10.6038
▁tale	-10.605
▁pleased	-10.6082
▁pow	-10.6145
▁covers	-10.6149
night	-10.6159
▁shorts	-10.623
berg	-10.623
solid	-10.6233
▁flats	-10.6236
▁bun	-10.6248
▁demand	-10.6274
▁bru	-10.6297
▁ghosts	-10.6316
▁clip	-10.633
▁document	-10.6337
ima	-10.6337
▁parent	-10.6344
▁folk	-10.6344
▁oni	-10.6345
gger	-10.6346
▁dot	-10.6349
▁slam	-10.635
▁hundreds	-10.6358
ood	-10.6364
▁touching	-10.6382
▁what	-10.639
row	-10.639
gged	-10.6398
umm	-10.6409
▁meetings	-10.6422
▁pi	-10.6433
oke	-10.6448
ski	-10.6461
▁mul	-10.6464
▁gall	-10.6468
▁der	-10.6472
▁acts	-10.6486
▁fashion	-10.6487
ius	-10.6491
fore	-10.6494
▁roses	-10.6497
▁stare	-10.6504
ppy	-10.6506
fuck	-10.6517
▁spa	-10.6518
▁despi	-10.6521
izz	-10.6523
▁bunk	-10.6532
▁defen	-10.6533
▁partners	-10.6541
▁describe	-10.6545
▁convince	-10.6547
▁advise	-10.6547
like	-10.6553
fire	-10.656
point	-10.6561
icles	-10.6563
▁harm	-10.657
▁norm	-10.6571
▁earl	-10.6574
▁detect	-10.6575
▁caused	-10.6575
▁refer	-10.6576
cient	-10.6577
▁jazz	-10.6577
▁academy	-10.6577
▁adorable	-10.6577
▁alvarez	-10.6577
▁ambush	-10.6577
▁apologies	-10.6577
▁arcana	-10.6577
▁authorities	-10.6577
▁authority	-10.6577
▁belief	-10.6577
▁brett	-10.6577
▁candidate	-10.6577
▁catholic	-10.6577
▁chorus	-10.6577
▁colonel	-10.6577
▁companies	-10.6577
▁confidence	-10.6577
▁delicious	-10.6577
▁eagle	-10.6577
▁elliott	-10.6577
▁essential	-10.6577
▁fantasy	-10.6577
▁holiday	-10.6577
▁institution	-10.6577
▁jersey	-10.6577
▁kersek	-10.6577
▁library	-10.6577
▁magnus	-10.6577
▁misunderstand	-10.6577
▁muscle	-10.6577
▁naughty	-10.6577
▁noelle	-10.6577
▁patience	-10.6577
▁platform	-10.6577
▁politician	-10.6577
▁prophet	-10.6577
▁puzzle	-10.6577
▁relief	-10.6577
▁relieved	-10.6577
▁sidewalk	-10.6577
▁solution	-10.6577
▁strict	-10.6577
▁studio	-10.6577
▁surrender	-10.6577
▁throughout	-10.6577
▁ultimate	-10.6577
▁underneath	-10.6577
▁vietnam	-10.6577
▁adapt	-10.6577
▁anyhow	-10.6577
▁bachelor	-10.6577
▁charity	-10.6577
▁clements	-10.6577
▁grief	-10.6577
▁tobin	-10.6577
▁turtle	-10.6577
▁unique	-10.6577
▁violin	-10.6577
▁wilkes	-10.6577
▁borat	-10.6577
▁chloe	-10.6577
▁marchino	-10.6577
▁titties	-10.6577
▁avery	-10.6577
▁buddies	-10.6577
▁connor	-10.6577
▁faggot	-10.6577
▁peasant	-10.6577
▁delay	-10.6577
▁lionel	-10.6577
▁brodie	-10.6577
▁hollis	-10.6577
▁cartoon	-10.6577
▁concert	-10.6577
▁residence	-10.6577
▁breed	-10.6577
▁briefcase	-10.6577
▁peanut	-10.6577
▁someday	-10.6577
▁freezing	-10.6577
▁modern	-10.6577
▁glory	-10.6578
▁smack	-10.6578
▁instant	-10.6578
▁financial	-10.6578
▁parole	-10.6578
▁eloise	-10.6578
▁brutal	-10.6578
▁prosecutor	-10.6578
▁concentrate	-10.6578
▁advantage	-10.6578
▁function	-10.6578
▁arrow	-10.6578
▁swimming	-10.6578
▁sixsmith	-10.6578
▁crank	-10.6579
▁cried	-10.6579
▁abide	-10.6579
▁mummy	-10.6579
▁appearance	-10.6579
▁feedback	-10.6579
▁wiley	-10.6579
▁reflection	-10.6579
▁seattle	-10.658
▁stitch	-10.658
▁titty	-10.658
▁chasing	-10.658
▁darian	-10.658
▁philip	-10.658
▁michelle	-10.658
▁monet	-10.658
▁noah	-10.658
▁university	-10.658
▁bonus	-10.658
▁sample	-10.6581
▁nearby	-10.6581
▁upside	-10.6581
▁wore	-10.6581
▁soap	-10.6581
▁begun	-10.6582
▁announcement	-10.6582
▁supper	-10.6584
▁flush	-10.6584
▁rodeo	-10.6584
▁danielle	-10.6584
▁mason	-10.6584
▁secretary	-10.6585
▁bruno	-10.6585
▁management	-10.6586
▁alley	-10.6586
▁pile	-10.6588
▁cries	-10.6588
▁agreement	-10.6589
▁brief	-10.6589
▁baked	-10.659
▁faithful	-10.6591
▁molly	-10.6591
▁native	-10.6593
▁dull	-10.6594
▁tart	-10.6594
▁stigman	-10.6596
▁tee	-10.6596
▁lane	-10.6597
▁deck	-10.6598
▁presentation	-10.6598
▁clothing	-10.6599
▁dye	-10.66
▁backyard	-10.6604
▁fuckedup	-10.6604
ory	-10.6607
▁iet	-10.6608
▁straining	-10.6609
▁limb	-10.661
▁entertainer	-10.661
▁straighten	-10.6612
▁reasonable	-10.6616
▁sail	-10.6618
▁manual	-10.662
▁ize	-10.6623
drew	-10.6623
▁useful	-10.6625
▁thee	-10.6626
▁granted	-10.663
▁clas	-10.6633
▁dieter	-10.6633
onald	-10.6636
▁separated	-10.6637
▁dolphins	-10.6637
▁confessed	-10.6637
▁cable	-10.6641
▁sandy	-10.6644
▁rig	-10.6645
▁requesting	-10.6649
▁judy	-10.6649
▁delivery	-10.6651
▁moans	-10.6661
▁scaring	-10.6665
▁mistaken	-10.6671
▁coin	-10.6677
▁cocks	-10.6678
ger	-10.6681
▁gook	-10.6682
▁citizens	-10.6684
▁pod	-10.669
▁yorkin	-10.669
name	-10.6693
▁lao	-10.6699
▁emotions	-10.6712
▁shy	-10.6712
▁colors	-10.6717
▁fairy	-10.6722
▁roars	-10.6733
▁ships	-10.6734
▁comms	-10.674
▁belly	-10.6743
▁accepted	-10.6747
mmer	-10.6755
▁clouds	-10.6756
▁requires	-10.6757
▁knocked	-10.6759
▁filed	-10.6762
▁ban	-10.6766
▁prayed	-10.6772
▁champions	-10.6804
▁eva	-10.6811
▁successful	-10.6811
▁aj	-10.6821
▁blessing	-10.6822
▁par	-10.683
ably	-10.6831
▁imagined	-10.6833
▁farmer	-10.684
key	-10.6844
▁umm	-10.6848
leg	-10.6861
thing	-10.6863
▁hop	-10.6872
▁ang	-10.6873
are	-10.6876
▁beth	-10.6879
▁culture	-10.6886
▁leading	-10.6889
that	-10.6891
umb	-10.6897
▁degrees	-10.69
well	-10.6908
▁cracker	-10.691
bel	-10.6915
▁prayers	-10.6915
▁mor	-10.6934
▁pipes	-10.697
▁shooter	-10.697
▁sports	-10.6973
▁musical	-10.7018
ake	-10.702
▁dada	-10.7026
itch	-10.7034
▁williams	-10.7046
▁airlines	-10.7046
▁nap	-10.7048
▁leads	-10.7056
▁define	-10.7076
▁reads	-10.7078
▁cleaned	-10.7082
▁speakers	-10.7086
pping	-10.7104
▁deadly	-10.7118
▁actions	-10.7144
▁sting	-10.715
▁kicks	-10.7152
ava	-10.7154
▁whip	-10.718
dog	-10.7205
▁answered	-10.7215
▁cleaning	-10.7218
▁sigh	-10.7231
▁alcohol	-10.7246
ado	-10.7252
uch	-10.7285
▁limit	-10.7289
cted	-10.7302
▁gig	-10.7302
ille	-10.7307
▁hoped	-10.7315
▁gasp	-10.7324
▁arts	-10.7325
▁employee	-10.7329
▁scientist	-10.7331
▁champion	-10.7334
▁skip	-10.7336
▁skill	-10.734
▁tricks	-10.7347
▁drops	-10.735
▁fade	-10.7355
▁wars	-10.7363
▁abs	-10.7372
▁stat	-10.7374
▁toy	-10.7383
▁proven	-10.7383
▁sch	-10.7384
ush	-10.7385
▁mai	-10.7388
▁trusted	-10.7396
▁wins	-10.74
har	-10.7405
▁sup	-10.7408
lie	-10.7456
lib	-10.7457
▁condo	-10.7478
▁complain	-10.7495
▁begins	-10.7511
▁tex	-10.7523
▁snarl	-10.7524
▁shush	-10.7525
▁plea	-10.7532
▁attach	-10.7532
▁drill	-10.7533
▁disappoint	-10.7535
▁rowin	-10.7535
▁establish	-10.7535
▁recover	-10.7536
▁sk	-10.7538
▁charm	-10.7539
▁spill	-10.7543
▁trail	-10.7546
▁qua	-10.7546
▁chuck	-10.7554
nva	-10.7554
▁guilt	-10.7556
dollar	-10.7557
yearold	-10.7557
mouth	-10.7558
piece	-10.7559
called	-10.7559
▁incredibl	-10.7559
▁junk	-10.7561
▁ew	-10.7562
▁receive	-10.7562
▁shack	-10.7564
▁fran	-10.7569
▁leavin	-10.7572
▁dial	-10.7572
▁corrupt	-10.7573
▁tradition	-10.7573
▁domin	-10.7574
▁range	-10.7574
▁doug	-10.7575
ena	-10.7577
cript	-10.7577
▁achieve	-10.7577
▁addition	-10.7577
▁associate	-10.7577
▁beloved	-10.7577
▁bollocks	-10.7577
▁celebrating	-10.7577
▁chemical	-10.7577
▁chowdhury	-10.7577
▁cliff	-10.7577
▁cocksucker	-10.7577
▁conscience	-10.7577
▁consulate	-10.7577
▁crimson	-10.7577
▁crisis	-10.7577
▁damien	-10.7577
▁description	-10.7577
▁election	-10.7577
▁elephant	-10.7577
▁eleven	-10.7577
▁enormous	-10.7577
▁envelope	-10.7577
▁evaluation	-10.7577
▁exclaiming	-10.7577
▁exploding	-10.7577
▁firephina	-10.7577
▁hawaii	-10.7577
▁indicate	-10.7577
▁infection	-10.7577
▁kazakhstan	-10.7577
▁kirby	-10.7577
▁landlord	-10.7577
▁length	-10.7577
▁magnificent	-10.7577
▁medevac	-10.7577
▁metaphor	-10.7577
▁militia	-10.7577
▁monitor	-10.7577
▁myrtle	-10.7577
▁nigga	-10.7577
▁obsessed	-10.7577
▁ottersen	-10.7577
▁pierrot	-10.7577
▁preserve	-10.7577
▁procedure	-10.7577
▁proposal	-10.7577
▁rahil	-10.7577
▁religion	-10.7577
▁resources	-10.7577
▁ronnie	-10.7577
▁sausage	-10.7577
▁scissors	-10.7577
▁selfdefense	-10.7577
▁shakespeare	-10.7577
▁stalker	-10.7577
▁supplies	-10.7577
▁tanaka	-10.7577
▁testimony	-10.7577
▁theories	-10.7577
▁walenski	-10.7577
▁airplane	-10.7577
▁assistance	-10.7577
▁bergen	-10.7577
▁cockroach	-10.7577
▁congress	-10.7577
▁cyrus	-10.7577
▁darien	-10.7577
▁exclaims	-10.7577
▁feast	-10.7577
▁greece	-10.7577
▁greek	-10.7577
▁lodge	-10.7577
▁skirt	-10.7577
▁stiff	-10.7577
▁sworn	-10.7577
▁tolerate	-10.7577
▁anytime	-10.7577
▁honeymoon	-10.7577
▁salander	-10.7577
▁troop	-10.7577
▁casual	-10.7577
▁gerry	-10.7577
▁protest	-10.7577
▁scandal	-10.7577
▁stiii	-10.7577
▁error	-10.7577
▁humiliat	-10.7577
▁ryan	-10.7577
▁wallace	-10.7577
▁bur	-10.7577
▁josh	-10.7577
▁oslo	-10.7577
▁socks	-10.7577
▁headphones	-10.7577
▁jessica	-10.7577
▁ambition	-10.7577
▁wasting	-10.7577
▁medal	-10.7577
▁tennis	-10.7577
▁declare	-10.7577
▁babysitter	-10.7578
▁download	-10.7578
▁owned	-10.7578
▁commence	-10.7578
▁ash	-10.7578
▁missouri	-10.7578
▁flashlight	-10.7578
▁mortal	-10.7578
▁heels	-10.7578
▁freddy	-10.7578
▁whys	-10.7578
▁activity	-10.7578
▁canada	-10.7578
▁chiming	-10.7578
▁motel	-10.7578
▁lisa	-10.7578
▁stash	-10.7578
▁massage	-10.7578
▁harassment	-10.7579
▁bruise	-10.7579
▁carved	-10.7579
▁poetry	-10.7579
▁couch	-10.7579
▁dragged	-10.7579
▁shaking	-10.7579
▁fading	-10.7579
▁violation	-10.7579
▁penny	-10.7579
▁relative	-10.758
▁fabi	-10.758
ization	-10.758
▁muff	-10.758
▁creative	-10.758
▁glori	-10.758
▁thisll	-10.758
▁reaiiy	-10.758
▁witch	-10.7581
▁sync	-10.7581
▁territory	-10.7581
bound	-10.7581
▁geeta	-10.7581
▁greet	-10.7581
▁floorboard	-10.7581
▁whatll	-10.7581
▁rapid	-10.7582
▁taxes	-10.7582
▁supply	-10.7582
▁loop	-10.7582
▁burst	-10.7583
▁tsk	-10.7583
▁slight	-10.7583
▁vital	-10.7585
▁liable	-10.7585
▁production	-10.7585
▁chile	-10.7585
▁driveway	-10.7587
▁poet	-10.7588
▁soil	-10.7588
▁damned	-10.7589
▁critical	-10.7589
▁greve	-10.759
▁parade	-10.759
▁rode	-10.7591
▁embarrassing	-10.7591
▁shrieking	-10.7591
▁sniper	-10.7591
▁dismissed	-10.7592
▁sandwiches	-10.7592
▁taxi	-10.7592
▁personality	-10.7593
▁rustle	-10.7593
▁suggestion	-10.7594
▁role	-10.7594
▁solve	-10.7595
▁raid	-10.7595
▁discussion	-10.7595
▁directly	-10.7595
▁chairman	-10.7596
▁annoying	-10.7596
▁hatch	-10.7597
▁deai	-10.7598
▁vet	-10.76
▁bounc	-10.7603
▁sway	-10.7603
▁dyer	-10.7605
▁wink	-10.7605
▁barbie	-10.7605
▁slipped	-10.7606
▁abandoned	-10.761
▁betrayed	-10.761
▁vice	-10.7611
▁convinced	-10.7611
▁jen	-10.7619
handed	-10.7626
▁kiiier	-10.7627
▁iive	-10.7631
▁fatal	-10.7637
pot	-10.7639
▁developed	-10.764
▁comb	-10.7641
▁burnt	-10.7647
▁pint	-10.7649
▁boxes	-10.7649
▁scotty	-10.765
▁lap	-10.7654
▁wired	-10.7654
▁server	-10.7657
▁my	-10.7658
▁internal	-10.7661
▁masters	-10.7663
▁blocked	-10.7663
▁forty	-10.7664
reak	-10.7668
▁lure	-10.7681
▁fisher	-10.7685
▁blocking	-10.7686
▁whoot	-10.7688
▁crackles	-10.77
▁financ	-10.7707
▁chap	-10.7708
▁net	-10.771
▁sn	-10.771
▁bid	-10.7716
▁lungs	-10.7723
▁assets	-10.7723
▁ther	-10.7727
▁vend	-10.7735
▁hooker	-10.7737
▁newspapers	-10.7749
▁resumes	-10.7749
▁examin	-10.7753
ak	-10.7767
▁crimes	-10.7767
far	-10.7771
▁combat	-10.7772
▁charged	-10.7797
▁tourists	-10.7802
▁poems	-10.7802
▁watches	-10.7804
▁wings	-10.7805
hhh	-10.7806
olly	-10.7806
▁flu	-10.781
ili	-10.7812
▁peaceful	-10.7822
ku	-10.7825
▁limits	-10.783
▁bothering	-10.7838
▁amor	-10.784
▁hol	-10.7841
▁slams	-10.7852
▁psych	-10.7854
▁diet	-10.786
▁tracks	-10.7861
will	-10.7862
▁foundation	-10.7864
cul	-10.7866
▁sucking	-10.7868
ito	-10.7882
▁materials	-10.7883
▁mommys	-10.7885
▁sucker	-10.7885
▁brun	-10.7888
iate	-10.7905
▁laying	-10.7905
▁rumors	-10.7909
▁honored	-10.7933
▁mountains	-10.7936
▁reaching	-10.7939
tick	-10.7941
ica	-10.7946
cess	-10.7948
▁grip	-10.797
▁shown	-10.797
▁arrives	-10.7994
▁dreamed	-10.7995
▁han	-10.8006
▁rey	-10.8015
▁nightmares	-10.8017
can	-10.8024
▁dish	-10.8026
▁fuckers	-10.8028
▁nuns	-10.8044
come	-10.8068
▁characters	-10.8074
▁sas	-10.8086
▁shoulders	-10.81
▁include	-10.8103
▁dreaming	-10.8107
ries	-10.8168
▁mol	-10.8177
▁results	-10.818
▁und	-10.8196
fully	-10.8199
▁bov	-10.8236
eat	-10.8255
▁doo	-10.826
▁prim	-10.826
hill	-10.8276
▁ani	-10.8279
▁sakes	-10.8283
▁pope	-10.8292
rick	-10.8304
▁surprises	-10.834
▁killers	-10.8344
▁locks	-10.8358
▁permit	-10.8364
air	-10.8408
▁sticks	-10.8427
▁beers	-10.8427
▁manner	-10.8443
▁sheet	-10.8445
▁soph	-10.8448
▁poem	-10.8448
▁tourist	-10.8449
▁gri	-10.8513
▁yu	-10.8526
▁vic	-10.8527
▁alb	-10.8533
ome	-10.8585
▁amo	-10.8592
▁disturb	-10.8595
▁bears	-10.8612
▁spirits	-10.8619
▁jess	-10.8631
▁fin	-10.8633
▁scrap	-10.8638
▁commission	-10.8643
▁beck	-10.8645
▁swallow	-10.8646
▁entertain	-10.8646
looking	-10.8649
▁fans	-10.8653
ort	-10.8656
▁thug	-10.8663
▁gar	-10.8665
▁franc	-10.8665
▁puff	-10.8667
phone	-10.867
ual	-10.8671
fall	-10.8674
ella	-10.8679
▁hack	-10.8679
case	-10.868
▁miz	-10.868
▁jane	-10.8682
▁counsel	-10.8684
▁restrain	-10.8687
▁convict	-10.8687
logy	-10.8688
▁democra	-10.8688
▁almighty	-10.8688
▁amateur	-10.8688
▁anonymous	-10.8688
▁april	-10.8688
▁attitude	-10.8688
▁awkward	-10.8688
▁batteries	-10.8688
▁beignet	-10.8688
▁believing	-10.8688
▁beneath	-10.8688
▁blossom	-10.8688
▁boulevard	-10.8688
▁britney	-10.8688
▁calendar	-10.8688
▁capuano	-10.8688
▁cheek	-10.8688
▁clarissa	-10.8688
▁colonial	-10.8688
▁columbia	-10.8688
▁confusing	-10.8688
▁conspiracy	-10.8688
▁deputy	-10.8688
▁dermot	-10.8688
▁draft	-10.8688
▁dummy	-10.8688
▁enemies	-10.8688
▁enforcement	-10.8688
▁evolution	-10.8688
▁exhusband	-10.8688
▁explosive	-10.8688
▁filip	-10.8688
▁flavor	-10.8688
▁georgie	-10.8688
▁glenna	-10.8688
▁halsey	-10.8688
▁harrigan	-10.8688
▁harvey	-10.8688
▁hawthorne	-10.8688
▁helmet	-10.8688
▁immortal	-10.8688
▁infected	-10.8688
▁inherit	-10.8688
▁isolate	-10.8688
▁itaiian	-10.8688
▁katharine	-10.8688
▁kennedi	-10.8688
▁knives	-10.8688
▁loneliness	-10.8688
▁lynda	-10.8688
▁marzzone	-10.8688
▁minimum	-10.8688
▁mockingbird	-10.8688
▁negro	-10.8688
▁nigger	-10.8688
▁opposite	-10.8688
▁oscar	-10.8688
▁pathfinder	-10.8688
▁platoon	-10.8688
▁profile	-10.8688
▁prostitute	-10.8688
▁pudding	-10.8688
▁pursue	-10.8688
▁revolution	-10.8688
▁shannon	-10.8688
▁sharla	-10.8688
▁similar	-10.8688
▁slocumb	-10.8688
▁squawking	-10.8688
▁stegman	-10.8688
▁talbot	-10.8688
▁transmission	-10.8688
▁tricia	-10.8688
▁underground	-10.8688
▁wheezing	-10.8688
▁yvonne	-10.8688
▁baldini	-10.8688
▁calder	-10.8688
▁dignity	-10.8688
▁giggle	-10.8688
▁sierra	-10.8688
▁splash	-10.8688
▁valuable	-10.8688
▁virtu	-10.8688
▁appeal	-10.8688
▁clerk	-10.8688
▁daffy	-10.8688
▁depth	-10.8688
▁petrie	-10.8688
▁porch	-10.8688
▁snoring	-10.8688
▁purse	-10.8688
▁cmb	-10.8688
▁erwin	-10.8688
▁herald	-10.8688
▁iko	-10.8688
▁plastic	-10.8688
▁steady	-10.8688
▁barrel	-10.8688
▁iife	-10.8688
▁sterling	-10.8688
▁offsho	-10.8688
▁ceii	-10.8688
▁haji	-10.8688
▁sully	-10.8688
▁bennie	-10.8688
▁hottest	-10.8688
▁instructions	-10.8688
▁someplace	-10.8688
▁begging	-10.8688
▁neighbourhood	-10.8688
▁judging	-10.8688
▁zip	-10.8688
▁rudy	-10.8688
▁gym	-10.8688
▁aspro	-10.8688
▁illusion	-10.8688
▁kilometers	-10.8688
▁aisle	-10.8688
▁assuming	-10.8689
▁ahem	-10.8689
▁crunch	-10.8689
▁baroness	-10.8689
▁droning	-10.8689
▁engagement	-10.8689
▁ceo	-10.8689
▁keith	-10.8689
▁steak	-10.8689
▁rhythm	-10.8689
▁drumming	-10.8689
▁maximum	-10.8689
▁compensation	-10.8689
▁identity	-10.8689
▁pork	-10.8689
▁scumbag	-10.8689
▁scatter	-10.8689
▁appetite	-10.8689
▁patrick	-10.8689
▁surgeon	-10.8689
▁runner	-10.8689
▁magda	-10.8689
▁assignment	-10.8689
▁kettle	-10.8689
▁groceries	-10.869
▁intention	-10.869
▁vulnerable	-10.869
▁entrance	-10.869
▁exclusive	-10.869
▁donut	-10.869
▁denied	-10.869
▁memo	-10.869
▁masterpiece	-10.869
▁horseshit	-10.869
▁extend	-10.869
▁sharing	-10.869
▁propose	-10.869
▁knight	-10.869
▁massive	-10.869
▁maniac	-10.869
▁steam	-10.8691
▁marley	-10.8691
▁thread	-10.8691
▁soak	-10.8691
▁fluid	-10.8691
▁thump	-10.8691
▁chaos	-10.8691
▁specifically	-10.8691
▁kung	-10.8691
▁gaz	-10.8691
▁promote	-10.8691
▁rapist	-10.8692
▁pony	-10.8692
▁typing	-10.8692
▁firefall	-10.8693
▁rehearsal	-10.8693
▁chev	-10.8693
▁cabinet	-10.8693
▁divers	-10.8693
▁imagination	-10.8694
▁franklin	-10.8694
▁ridge	-10.8694
▁hopefully	-10.8694
▁nina	-10.8694
inister	-10.8695
▁rail	-10.8695
▁acid	-10.8695
▁courthouse	-10.8696
▁erase	-10.8696
relia	-10.8696
▁confession	-10.8696
▁hence	-10.8697
▁panel	-10.8697
▁delete	-10.8698
▁fireball	-10.8698
▁geez	-10.8699
▁jaw	-10.8699
▁sandman	-10.87
▁frontier	-10.87
▁hideous	-10.87
▁bait	-10.8701
▁units	-10.8701
dale	-10.8702
▁aldo	-10.8702
plant	-10.8703
▁prices	-10.8706
▁caf	-10.8706
▁pole	-10.8706
▁leo	-10.8707
▁vern	-10.8707
▁clearance	-10.8708
▁recommendation	-10.8708
▁vest	-10.8709
▁wildman	-10.8709
▁classical	-10.8709
▁hitler	-10.8709
▁gare	-10.8712
▁factor	-10.8714
▁madame	-10.8714
▁johnna	-10.8714
▁rubb	-10.8714
▁coz	-10.8715
▁sore	-10.8715
▁possessed	-10.8715
▁faintly	-10.8715
▁properly	-10.8715
▁friendship	-10.8715
▁arranged	-10.8716
▁specialist	-10.8717
▁spine	-10.8721
▁grid	-10.8721
▁inch	-10.8721
cture	-10.8722
▁desi	-10.8723
▁eighth	-10.8724
▁dc	-10.8726
▁richie	-10.8727
▁handed	-10.8727
▁fried	-10.8729
▁grasse	-10.8732
▁unto	-10.8734
▁pinky	-10.8734
▁miller	-10.8735
▁dine	-10.8735
▁limited	-10.8735
▁plead	-10.8736
▁iot	-10.8737
▁scraping	-10.874
▁fuckface	-10.8741
▁mass	-10.8744
▁removed	-10.8744
▁worrying	-10.8745
▁complaining	-10.8747
▁sexually	-10.8749
▁mixed	-10.8749
▁freakin	-10.875
▁signor	-10.8751
▁poe	-10.8751
▁shithole	-10.8755
▁undress	-10.8757
▁bargaining	-10.8759
▁euros	-10.8763
▁gloves	-10.8763
▁shrieks	-10.8763
▁kiiied	-10.8764
▁sweater	-10.8769
▁hump	-10.8774
▁divorced	-10.8777
za	-10.878
▁youyou	-10.8783
▁bann	-10.8784
▁nailed	-10.8785
▁bore	-10.8785
▁clubs	-10.8791
▁weekends	-10.8791
▁translate	-10.8791
▁connected	-10.8792
▁fairly	-10.8807
▁shortly	-10.8809
ese	-10.8815
▁wing	-10.8817
▁tor	-10.8818
▁condoms	-10.882
▁beads	-10.8822
▁tools	-10.8822
▁entered	-10.8822
▁cents	-10.8823
▁marie	-10.8835
▁seb	-10.8837
▁busted	-10.885
▁bin	-10.8852
▁proved	-10.8853
▁defender	-10.8856
▁focused	-10.8856
▁don	-10.8857
▁sift	-10.8862
▁dda	-10.888
▁taco	-10.8894
▁imagin	-10.8894
▁helpful	-10.8894
▁spreading	-10.8895
▁jar	-10.8908
▁dozens	-10.8912
matic	-10.8913
▁posting	-10.8919
▁whack	-10.8922
▁packed	-10.8922
▁sheets	-10.8942
▁heavens	-10.8962
▁scientists	-10.8972
▁cooked	-10.8999
▁differently	-10.9007
▁inna	-10.9011
▁tag	-10.9013
▁cracking	-10.9016
▁lad	-10.9035
ivey	-10.9042
oca	-10.9052
▁tons	-10.9062
▁zombies	-10.9062
poli	-10.9087
▁shi	-10.9094
▁snaps	-10.9097
▁joining	-10.9129
▁fae	-10.9147
▁sauce	-10.9156
nova	-10.9182
▁visions	-10.9184
▁div	-10.9186
dia	-10.9192
▁et	-10.9203
▁relaxed	-10.9238
▁electronics	-10.9241
otto	-10.9265
▁stripe	-10.9271
▁adults	-10.9306
▁pic	-10.9309
▁cd	-10.9309
▁lend	-10.933
ada	-10.9338
▁dressing	-10.9365
▁issues	-10.9376
mu	-10.9394
▁lovers	-10.942
▁apples	-10.9428
▁odds	-10.943
den	-10.9433
▁unti	-10.9445
▁organize	-10.9449
ral	-10.9472
▁roman	-10.9493
▁goat	-10.9496
rine	-10.9511
▁prior	-10.9526
▁rag	-10.9542
struction	-10.9553
erial	-10.957
year	-10.9603
sky	-10.9608
tel	-10.9638
▁dom	-10.9647
▁cough	-10.9649
▁dip	-10.967
▁gates	-10.9679
miss	-10.9685
▁inmate	-10.9687
▁dozen	-10.9691
▁cloud	-10.9694
bell	-10.9696
▁ripper	-10.9698
▁require	-10.97
▁sav	-10.9701
amas	-10.9706
▁ji	-10.9714
▁hor	-10.9718
▁wave	-10.9775
▁nasa	-10.9817
▁mud	-10.9824
▁targets	-10.9824
▁comic	-10.9831
▁coo	-10.9839
two	-10.9848
▁intern	-10.9853
izing	-10.9879
▁flirt	-10.9885
▁bald	-10.9889
▁wander	-10.989
▁attract	-10.9893
▁abandon	-10.9897
▁betray	-10.9897
tom	-10.9902
evin	-10.9903
▁compromise	-10.9906
▁retire	-10.9907
more	-10.9907
place	-10.991
cord	-10.9914
field	-10.9916
school	-10.9918
▁publish	-10.992
born	-10.9921
▁ska	-10.9921
▁precise	-10.9923
▁alleged	-10.9923
▁hysterical	-10.9923
▁technical	-10.9924
▁definite	-10.9924
▁korea	-10.9928
▁sittin	-10.9933
▁affect	-10.9934
▁improve	-10.9936
▁fabric	-10.9937
▁loyal	-10.9937
▁observe	-10.9937
▁smit	-10.9937
▁confident	-10.9938
▁cigar	-10.9938
▁forbid	-10.9938
▁luis	-10.9938
ograph	-10.9938
▁algorithm	-10.9938
▁disagree	-10.9938
▁mmmmmm	-10.9938
▁patriot	-10.9938
▁anthony	-10.9938
▁anxious	-10.9938
▁apologise	-10.9938
▁appropriate	-10.9938
▁assigned	-10.9938
▁auction	-10.9938
▁babbitt	-10.9938
▁balcony	-10.9938
▁bathtub	-10.9938
▁behalf	-10.9938
▁benzevich	-10.9938
▁brooklyn	-10.9938
▁camille	-10.9938
▁caputo	-10.9938
▁casserole	-10.9938
▁chilcott	-10.9938
▁cincinnati	-10.9938
▁clemens	-10.9938
▁compassion	-10.9938
▁complex	-10.9938
▁compound	-10.9938
▁conduct	-10.9938
▁conflict	-10.9938
▁consequences	-10.9938
▁contribut	-10.9938
▁cycle	-10.9938
▁destiny	-10.9938
▁disconnect	-10.9938
▁discreet	-10.9938
▁disguise	-10.9938
▁doughnuts	-10.9938
▁elbow	-10.9938
▁eleonore	-10.9938
▁etienne	-10.9938
▁exorcism	-10.9938
▁expense	-10.9938
▁fairfax	-10.9938
▁footprints	-10.9938
▁forensic	-10.9938
▁frobisher	-10.9938
▁furniture	-10.9938
▁gamble	-10.9938
▁georgia	-10.9938
▁glanton	-10.9938
▁griffin	-10.9938
▁gypsy	-10.9938
▁harris	-10.9938
▁holocaust	-10.9938
▁horror	-10.9938
▁industry	-10.9938
▁inisherin	-10.9938
▁insanity	-10.9938
▁invisible	-10.9938
▁itsits	-10.9938
▁juvenile	-10.9938
▁laundry	-10.9938
▁leash	-10.9938
▁leather	-10.9938
▁lincoln	-10.9938
▁lindsey	-10.9938
▁liquor	-10.9938
▁maintenance	-10.9938
▁manipulat	-10.9938
▁midwife	-10.9938
▁morgue	-10.9938
▁mutual	-10.9938
▁necessarily	-10.9938
▁nikas	-10.9938
▁observation	-10.9938
▁offensive	-10.9938
▁parrish	-10.9938
▁penthouse	-10.9938
▁poiice	-10.9938
▁politics	-10.9938
▁racket	-10.9938
▁reflex	-10.9938
▁religious	-10.9938
▁resnick	-10.9938
▁resolve	-10.9938
▁retreat	-10.9938
▁salvatore	-10.9938
▁savior	-10.9938
▁schmuck	-10.9938
▁schreber	-10.9938
▁shrimp	-10.9938
▁sizzling	-10.9938
▁sookie	-10.9938
▁splendid	-10.9938
▁sputters	-10.9938
▁squash	-10.9938
▁squirrel	-10.9938
▁stepfather	-10.9938
▁surrounded	-10.9938
▁sweeney	-10.9938
▁terrorist	-10.9938
▁thirteen	-10.9938
▁tshirt	-10.9938
▁vengeance	-10.9938
▁vessel	-10.9938
▁absurd	-10.9938
▁baylor	-10.9938
▁clanking	-10.9938
▁expand	-10.9938
▁overdose	-10.9938
▁razor	-10.9938
▁seduce	-10.9938
▁smear	-10.9938
▁tigest	-10.9938
▁zulu	-10.9938
▁actress	-10.9938
▁battery	-10.9938
▁meek	-10.9938
▁wiener	-10.9938
▁avenge	-10.9938
▁kofi	-10.9938
▁reverse	-10.9938
▁clich	-10.9938
▁lenny	-10.9938
▁sliding	-10.9938
▁trilling	-10.9938
▁yaddy	-10.9938
▁custody	-10.9938
▁roommate	-10.9938
▁contest	-10.9938
▁woodshed	-10.9938
▁personnel	-10.9938
▁hostages	-10.9938
▁stray	-10.9938
▁jefe	-10.9938
▁sieve	-10.9938
▁piston	-10.9938
▁commercial	-10.9938
▁blink	-10.9938
▁carpet	-10.9938
▁scrub	-10.9938
▁convey	-10.9938
▁psychological	-10.9938
▁forbidden	-10.9938
▁bitten	-10.9938
▁adele	-10.9938
▁courtesy	-10.9939
▁dipshit	-10.9939
▁refrigerator	-10.9939
▁inner	-10.9939
▁ledford	-10.9939
▁occurred	-10.9939
▁twitch	-10.9939
▁whinnies	-10.9939
▁spicy	-10.9939
▁tyres	-10.9939
▁disorder	-10.9939
▁burke	-10.9939
▁latin	-10.9939
▁causing	-10.9939
▁burial	-10.9939
▁fond	-10.9939
▁zachry	-10.9939
▁lecture	-10.9939
▁diplomatic	-10.9939
▁scheme	-10.9939
▁sniffling	-10.9939
▁reference	-10.9939
▁sanford	-10.9939
▁competition	-10.9939
▁bovver	-10.9939
▁inspiration	-10.9939
▁dash	-10.9939
▁erection	-10.9939
▁spiritual	-10.9939
▁righteous	-10.9939
▁dojo	-10.9939
▁barrett	-10.9939
▁tele	-10.994
▁francisco	-10.994
▁install	-10.994
▁lyin	-10.994
card	-10.994
▁hyah	-10.994
▁wagon	-10.994
▁nuke	-10.994
▁unconscious	-10.994
▁onions	-10.994
▁basis	-10.994
▁possibility	-10.994
▁pronounce	-10.994
▁sophisticated	-10.994
▁verde	-10.994
▁blanket	-10.994
▁rubbish	-10.994
▁psychiatrist	-10.994
▁quint	-10.994
▁forehead	-10.994
▁pipeline	-10.994
▁distraction	-10.994
▁riddle	-10.994
▁underline	-10.9941
▁saddle	-10.9941
▁aaah	-10.9941
▁depression	-10.9941
▁skinny	-10.9941
▁aka	-10.9941
▁performance	-10.9941
▁leap	-10.9941
▁weiss	-10.9941
▁romance	-10.9941
▁liam	-10.9942
▁syrian	-10.9942
▁elder	-10.9942
▁decade	-10.9942
▁danny	-10.9942
▁ripped	-10.9942
▁aggressive	-10.9942
▁lockdown	-10.9943
▁regardless	-10.9943
▁starina	-10.9943
▁shane	-10.9943
▁lime	-10.9943
▁urge	-10.9943
▁turk	-10.9943
▁pierce	-10.9943
▁consult	-10.9944
▁nazi	-10.9944
▁modest	-10.9944
▁clapping	-10.9944
▁haircut	-10.9944
▁corruption	-10.9944
▁estate	-10.9944
▁recess	-10.9944
▁petty	-10.9944
▁engaged	-10.9945
▁horsemen	-10.9945
▁diary	-10.9945
▁bev	-10.9945
▁confirmation	-10.9945
▁popping	-10.9946
▁dumbass	-10.9946
▁brace	-10.9947
▁reward	-10.9948
▁approved	-10.9949
▁andrea	-10.9949
▁heartbeat	-10.9949
▁amongst	-10.9949
▁thang	-10.9949
▁filthy	-10.9949
▁copper	-10.9949
▁cities	-10.9949
▁ashes	-10.995
▁shaw	-10.9951
▁toro	-10.9951
▁chunk	-10.9953
▁rug	-10.9954
▁toss	-10.9954
▁aww	-10.9955
▁heath	-10.9955
▁how	-10.9956
▁divided	-10.9957
▁portal	-10.9957
▁retarded	-10.9958
▁bushes	-10.9958
▁tres	-10.9958
orah	-10.9959
▁winning	-10.9959
▁active	-10.9961
▁daylight	-10.9962
▁tries	-10.9962
yard	-10.9966
▁gse	-10.9967
▁kiddo	-10.9968
▁spoiled	-10.9969
▁radi	-10.997
▁forgetting	-10.9972
▁mona	-10.9974
▁christian	-10.9974
▁heroes	-10.9975
▁required	-10.9978
▁tub	-10.9979
arma	-10.998
bone	-10.9982
▁kc	-10.9982
▁cog	-10.9982
▁actor	-10.9983
▁flowing	-10.9984
ux	-10.9985
▁disturbed	-10.9985
▁framed	-10.9986
fucking	-10.9986
▁balder	-10.9989
▁ek	-10.9989
▁coordinates	-10.999
▁thistles	-10.999
▁recovered	-10.9991
▁mere	-10.9991
▁particularly	-10.9993
▁this	-10.9997
▁disturbing	-10.9998
▁cheaper	-10.9999
▁spike	-11
▁ant	-11
▁spite	-11.0002
▁bench	-11.0003
▁qui	-11.0003
▁forger	-11.0004
▁inquir	-11.0005
▁bitter	-11.0006
▁esp	-11.0008
▁payment	-11.0008
▁bunker	-11.001
▁drowned	-11.0014
▁hopeless	-11.0014
▁weed	-11.0014
▁napoli	-11.0017
▁ration	-11.0017
▁damaged	-11.0019
▁sensei	-11.0021
▁yelps	-11.0023
▁poisoned	-11.0024
▁asses	-11.0024
▁eve	-11.003
▁unh	-11.0031
▁regarding	-11.0032
▁drowning	-11.0033
▁zo	-11.0036
▁lace	-11.0038
▁hick	-11.0041
▁noone	-11.0046
▁classes	-11.0047
▁anal	-11.0048
▁dock	-11.0051
▁slaughter	-11.0053
▁snorts	-11.0057
▁entirely	-11.0058
▁reced	-11.0059
▁harvesters	-11.0059
▁assassins	-11.006
▁yah	-11.0061
▁dolly	-11.0064
▁attending	-11.0068
▁shocking	-11.0069
▁hint	-11.0071
▁fulfill	-11.0072
▁recorder	-11.0073
ify	-11.0077
▁hen	-11.0086
▁sniffs	-11.009
▁wishes	-11.009
▁increases	-11.0091
▁stupido	-11.0098
▁gotcha	-11.0101
▁beard	-11.0103
▁shorter	-11.0104
▁spec	-11.0109
▁mil	-11.0124
▁squeals	-11.0126
aba	-11.0128
ast	-11.0135
▁ideal	-11.0136
▁discussed	-11.0147
▁residents	-11.0159
▁lobos	-11.0159
▁wayne	-11.0169
▁mode	-11.017
lking	-11.0173
▁bent	-11.0192
▁golic	-11.0194
▁traveling	-11.0197
▁employ	-11.02
▁bare	-11.0201
▁helpless	-11.0202
▁pissing	-11.0217
▁ants	-11.0223
▁manners	-11.0229
▁cracked	-11.0234
bar	-11.0235
▁til	-11.0236
▁worthy	-11.0251
▁employees	-11.0262
▁misses	-11.0276
▁lightly	-11.0283
▁clips	-11.0297
▁demands	-11.0298
▁visiting	-11.0302
▁marrying	-11.0303
▁peep	-11.033
▁fri	-11.0344
▁cuffe	-11.0351
▁sharks	-11.0366
▁directions	-11.0366
▁presented	-11.0366
▁flames	-11.0366
▁bees	-11.0372
cap	-11.0393
ural	-11.0394
▁walkie	-11.04
▁generations	-11.0401
▁motorcycles	-11.0401
▁sources	-11.0401
ector	-11.0405
eating	-11.0406
▁prep	-11.0406
▁teaching	-11.0411
▁mcc	-11.0422
▁comm	-11.0456
▁contains	-11.0464
ook	-11.0466
▁hoods	-11.047
uit	-11.0487
▁joints	-11.0515
who	-11.0536
▁reporters	-11.0545
pitched	-11.0553
▁continu	-11.0574
▁reporting	-11.0586
▁claims	-11.0601
▁nicer	-11.0619
▁photographs	-11.0636
▁merc	-11.0638
read	-11.0714
mone	-11.0723
▁outsider	-11.0732
▁pickle	-11.0739
all	-11.0761
gent	-11.0766
lam	-11.0771
▁sm	-11.0773
lf	-11.0787
▁dive	-11.0859
ano	-11.0871
▁mari	-11.089
ka	-11.0926
rent	-11.0968
▁swa	-11.0983
▁alli	-11.1015
urn	-11.1075
own	-11.1079
▁whisper	-11.108
▁groan	-11.1084
▁roar	-11.1086
▁dim	-11.1094
▁resident	-11.1119
▁newspaper	-11.1121
▁resume	-11.1121
▁lobo	-11.1121
▁exhale	-11.1135
▁accus	-11.115
▁exception	-11.1152
▁geni	-11.1177
▁gradua	-11.1203
▁pale	-11.1233
▁virgini	-11.1234
ump	-11.1249
birth	-11.125
q	-11.1267
▁threaten	-11.1304
▁flow	-11.1307
▁strain	-11.1316
▁nic	-11.1318
▁reveal	-11.1324
▁addict	-11.1324
▁intend	-11.1325
friend	-11.1326
▁adopt	-11.1327
▁stall	-11.1333
▁evacuate	-11.1335
▁deport	-11.1335
▁restore	-11.1337
▁walt	-11.1339
▁activate	-11.134
flow	-11.1346
mother	-11.1347
count	-11.1347
foot	-11.1347
three	-11.1348
stock	-11.135
▁il	-11.1351
▁immediate	-11.1352
lady	-11.1353
▁alter	-11.1354
wise	-11.1359
▁loo	-11.136
▁andre	-11.1361
▁russel	-11.1361
▁darlin	-11.1361
▁mornin	-11.1361
▁takin	-11.1362
▁deposit	-11.1362
▁zoo	-11.1364
▁tempt	-11.1364
hour	-11.1364
ague	-11.1365
ological	-11.1366
unction	-11.1366
▁diploma	-11.1366
▁stamp	-11.1366
▁buff	-11.1367
▁tooth	-11.1367
▁info	-11.1367
responsibilities	-11.1367
▁audition	-11.1367
▁bridesmaids	-11.1367
▁britgaz	-11.1367
▁centuries	-11.1367
▁chemistry	-11.1367
▁column	-11.1367
▁commentator	-11.1367
▁compartment	-11.1367
▁cricket	-11.1367
▁dedicated	-11.1367
▁dialogue	-11.1367
▁elegant	-11.1367
▁everlasting	-11.1367
▁famiiy	-11.1367
▁figuring	-11.1367
▁foxtrot	-11.1367
▁froze	-11.1367
▁fugitive	-11.1367
▁gennaro	-11.1367
▁genuine	-11.1367
▁global	-11.1367
▁happier	-11.1367
▁heraklion	-11.1367
▁iieutenant	-11.1367
▁imprison	-11.1367
▁indulge	-11.1367
▁injury	-11.1367
▁intelligent	-11.1367
▁irrelevant	-11.1367
▁isherwell	-11.1367
▁jewelry	-11.1367
▁jordan	-11.1367
▁jungle	-11.1367
▁kjikerud	-11.1367
▁knutzhorn	-11.1367
▁kobritz	-11.1367
▁liberace	-11.1367
▁luggage	-11.1367
▁maelstrom	-11.1367
▁manufacturing	-11.1367
▁michigan	-11.1367
▁neighing	-11.1367
▁niobe	-11.1367
▁overseas	-11.1367
▁pajamas	-11.1367
▁paradiso	-11.1367
▁pecker	-11.1367
▁penguin	-11.1367
▁pepper	-11.1367
▁pfeiffer	-11.1367
▁privacy	-11.1367
▁profound	-11.1367
▁prostitution	-11.1367
▁pursuit	-11.1367
▁reboot	-11.1367
▁regiment	-11.1367
▁resign	-11.1367
▁sancholo	-11.1367
▁schenectady	-11.1367
▁schisa	-11.1367
▁shampoo	-11.1367
▁solemn	-11.1367
▁sonofabitch	-11.1367
▁southeast	-11.1367
▁struggling	-11.1367
▁succeed	-11.1367
▁sunglasses	-11.1367
▁superintendent	-11.1367
▁survivor	-11.1367
▁suspension	-11.1367
▁terrified	-11.1367
▁tissue	-11.1367
▁tournament	-11.1367
▁tourniquet	-11.1367
▁tremendous	-11.1367
▁truetru	-11.1367
▁twoshoes	-11.1367
▁unfair	-11.1367
▁whataburger	-11.1367
▁whatsoever	-11.1367
▁wheelchair	-11.1367
▁xanax	-11.1367
▁yogurt	-11.1367
▁yucca	-11.1367
philosoph	-11.1367
▁biscuit	-11.1367
▁casualties	-11.1367
▁classified	-11.1367
▁federal	-11.1367
▁fiction	-11.1367
▁grasp	-11.1367
▁infant	-11.1367
▁javier	-11.1367
▁kennedy	-11.1367
▁marvin	-11.1367
▁merilee	-11.1367
▁molten	-11.1367
▁murphy	-11.1367
▁occupation	-11.1367
▁perrish	-11.1367
▁reunite	-11.1367
▁seatbelt	-11.1367
▁shauna	-11.1367
▁vodka	-11.1367
▁audio	-11.1367
▁benji	-11.1367
▁chello	-11.1367
▁flew	-11.1367
▁identify	-11.1367
▁ifyou	-11.1367
▁medium	-11.1367
▁negotiate	-11.1367
▁oui	-11.1367
▁sensation	-11.1367
▁syrup	-11.1367
▁terminal	-11.1367
▁fever	-11.1367
▁hijack	-11.1367
▁knot	-11.1367
▁mattress	-11.1367
▁crib	-11.1367
▁meiks	-11.1367
▁retainer	-11.1367
▁tropic	-11.1367
▁canvas	-11.1367
▁ciean	-11.1367
▁settling	-11.1367
▁cruces	-11.1367
▁forbes	-11.1367
▁forcing	-11.1367
▁shaft	-11.1367
▁cramp	-11.1367
▁region	-11.1367
▁statue	-11.1367
▁tweet	-11.1367
▁pimp	-11.1367
▁presume	-11.1367
▁pinero	-11.1367
▁lerner	-11.1367
▁ooooh	-11.1367
▁reef	-11.1367
▁salesman	-11.1367
▁troy	-11.1367
▁authorize	-11.1367
▁fellini	-11.1367
▁luisella	-11.1367
▁superior	-11.1367
▁jingle	-11.1367
▁burden	-11.1367
▁nanny	-11.1367
▁insert	-11.1367
▁romina	-11.1367
▁cartels	-11.1367
▁honks	-11.1367
▁hart	-11.1367
▁interstate	-11.1367
▁dodg	-11.1367
▁monica	-11.1367
▁sinner	-11.1367
▁distress	-11.1367
▁bumstead	-11.1367
▁league	-11.1368
▁colour	-11.1368
▁judith	-11.1368
▁blank	-11.1368
▁sheep	-11.1368
▁mailbox	-11.1368
▁shuttle	-11.1368
▁josephine	-11.1368
▁teemo	-11.1368
▁vincent	-11.1368
▁shiny	-11.1368
▁phase	-11.1368
▁transmitters	-11.1368
▁furious	-11.1368
▁humble	-11.1368
▁iggy	-11.1368
▁hostile	-11.1368
▁japan	-11.1368
▁spinoff	-11.1368
▁confusion	-11.1369
▁overnight	-11.1369
▁transport	-11.1369
▁economic	-11.1369
▁psychotic	-11.1369
▁hobby	-11.1369
▁adjust	-11.1369
▁glance	-11.1369
▁hissing	-11.1369
▁rotten	-11.1369
▁maintain	-11.1369
▁yankee	-11.1369
▁undone	-11.137
▁gagging	-11.137
▁biood	-11.137
▁boobs	-11.137
▁disappearance	-11.137
▁feckin	-11.137
▁tiff	-11.137
▁whining	-11.137
▁jessup	-11.137
▁noble	-11.137
▁jerem	-11.137
▁jock	-11.137
▁amuse	-11.137
▁species	-11.137
▁prescient	-11.1371
▁underage	-11.1371
▁rising	-11.1371
▁sawyer	-11.1371
▁torch	-11.1371
▁jits	-11.1371
▁convenient	-11.1371
cular	-11.1371
▁griev	-11.1371
▁cooperate	-11.1371
▁igby	-11.1372
▁piace	-11.1372
▁dough	-11.1372
▁jiu	-11.1372
▁thumb	-11.1372
▁hawk	-11.1372
fic	-11.1372
▁fireplace	-11.1372
▁stuckey	-11.1373
▁conscious	-11.1373
ani	-11.1373
▁sailor	-11.1373
▁formula	-11.1373
▁mainland	-11.1374
▁acceptance	-11.1374
▁virginity	-11.1374
▁flaw	-11.1374
▁claw	-11.1374
▁whooshes	-11.1374
▁privilege	-11.1375
▁bellow	-11.1375
▁vibe	-11.1375
▁mock	-11.1376
▁vita	-11.1376
▁exile	-11.1376
▁esca	-11.1377
▁admitted	-11.1377
▁psychopathic	-11.1377
▁marine	-11.1377
▁thirsty	-11.1377
▁flown	-11.1377
▁surface	-11.1377
▁midst	-11.1378
▁scarf	-11.1378
▁traditional	-11.1378
▁cruise	-11.1378
▁stepped	-11.1378
▁korean	-11.1378
▁ironic	-11.1378
▁allen	-11.1378
▁angle	-11.1378
▁whooping	-11.1378
▁collection	-11.1378
▁breakdown	-11.1379
▁chow	-11.1379
▁bucket	-11.1379
▁stack	-11.138
▁pause	-11.138
▁porno	-11.1381
▁torn	-11.1381
▁hamp	-11.1381
▁janet	-11.1381
▁aspir	-11.1381
▁confi	-11.1382
▁epic	-11.1382
▁suspended	-11.1383
▁waive	-11.1383
▁sack	-11.1384
▁merit	-11.1384
▁booth	-11.1385
ification	-11.1385
▁milo	-11.1385
▁shipment	-11.1386
▁freeway	-11.1386
▁growth	-11.1386
▁donna	-11.1386
▁slipper	-11.1388
▁wooden	-11.1389
▁distracted	-11.1389
▁headache	-11.139
▁bedtime	-11.139
▁auntie	-11.1391
▁hallway	-11.1392
▁cafe	-11.1392
aiiy	-11.1392
stabbing	-11.1393
▁madness	-11.1395
▁now	-11.1395
▁cee	-11.1396
▁hugh	-11.1397
▁humanity	-11.1398
▁tighten	-11.1398
lapping	-11.1398
▁encouraged	-11.1398
▁offended	-11.1401
▁ut	-11.1402
▁seventh	-11.1402
▁stain	-11.1403
▁ability	-11.1403
▁metro	-11.1403
▁sonya	-11.1404
▁sara	-11.1405
▁limo	-11.1405
▁merchan	-11.1405
▁rental	-11.1406
▁dink	-11.1406
rk	-11.1406
▁undo	-11.1407
most	-11.1407
▁deported	-11.1409
daya	-11.1409
▁diego	-11.1412
▁shovel	-11.1412
▁clay	-11.1412
ken	-11.1415
▁committee	-11.1418
▁tender	-11.1419
▁ox	-11.1419
▁hacked	-11.1422
▁wage	-11.1422
hood	-11.1424
▁beaten	-11.1424
this	-11.1426
▁iim	-11.1427
▁cooing	-11.1427
▁endure	-11.1428
▁wandering	-11.1428
▁sixty	-11.143
▁breakup	-11.1433
▁wiped	-11.1434
bil	-11.1435
▁nickel	-11.1436
▁shutter	-11.144
▁passion	-11.1441
▁canceled	-11.1441
▁pam	-11.1443
▁dialing	-11.1444
▁invented	-11.1447
▁crow	-11.1448
▁legally	-11.145
▁grove	-11.1453
▁jay	-11.1455
▁lug	-11.1457
▁meters	-11.146
▁inspire	-11.1461
drom	-11.1462
▁bled	-11.1464
▁colleagues	-11.1466
▁fleas	-11.1466
▁caiied	-11.1467
▁lighton	-11.1468
▁healing	-11.1469
▁tack	-11.1472
▁chu	-11.1475
▁outer	-11.1477
▁pinch	-11.148
▁sinking	-11.1481
illa	-11.1483
▁shocked	-11.1487
▁nervously	-11.149
licate	-11.1491
▁chin	-11.1492
▁leaking	-11.1493
▁scratching	-11.1493
▁ron	-11.1502
▁cum	-11.1506
stead	-11.1506
▁rushing	-11.151
▁accuse	-11.1512
▁lotte	-11.1518
▁kidnappe	-11.1521
▁closest	-11.1529
▁shithead	-11.1534
▁secretly	-11.1537
▁oneill	-11.1539
pad	-11.1541
▁poo	-11.1543
▁ranger	-11.1544
▁rituals	-11.1545
▁rattles	-11.1545
▁teenagers	-11.1547
▁vibrate	-11.1553
hunt	-11.1557
▁lifted	-11.1559
▁rod	-11.1574
▁swinging	-11.1576
eau	-11.1577
▁semi	-11.1577
▁cre	-11.158
▁smarter	-11.1581
▁slipp	-11.1584
▁touches	-11.1584
▁oops	-11.1585
▁finest	-11.1592
▁newman	-11.1593
▁blamed	-11.16
▁coy	-11.1606
▁posted	-11.1609
nnies	-11.1639
agging	-11.1646
▁supporting	-11.1658
▁repeating	-11.1659
▁comics	-11.166
▁tested	-11.1662
▁inmates	-11.1665
▁assess	-11.1667
▁searched	-11.1671
▁pretending	-11.1676
▁shitting	-11.1691
▁bradle	-11.1707
▁sucked	-11.1712
▁feeding	-11.1719
▁safely	-11.172
▁skipp	-11.173
▁testing	-11.1741
dont	-11.1761
▁locker	-11.1764
▁boxer	-11.1789
▁cooler	-11.1817
▁vers	-11.1828
och	-11.183
▁stable	-11.1833
▁seated	-11.1837
▁twins	-11.1852
▁fed	-11.1871
icial	-11.1873
▁landed	-11.1877
▁cord	-11.1904
ggy	-11.1917
▁romania	-11.1927
ethan	-11.1939
▁wea	-11.1962
mont	-11.1965
▁deco	-11.1966
▁av	-11.1986
▁copa	-11.1987
▁anan	-11.2003
tz	-11.2008
▁cru	-11.2015
▁ian	-11.2031
▁tore	-11.2121
▁traveler	-11.2123
▁pose	-11.213
nox	-11.2131
ith	-11.2132
som	-11.2277
▁rum	-11.2295
▁sip	-11.2295
▁equi	-11.2337
asha	-11.2339
lia	-11.236
rious	-11.2378
state	-11.2406
have	-11.2425
▁mug	-11.2461
long	-11.2474
▁hoo	-11.249
bra	-11.2503
▁emotion	-11.2516
rop	-11.2552
ips	-11.2565
ark	-11.2572
ites	-11.2593
▁taikin	-11.2622
▁hun	-11.2637
▁fockin	-11.2663
▁decorat	-11.2687
lator	-11.2687
aro	-11.2707
▁squeal	-11.2729
atch	-11.2735
▁clatter	-11.2739
ford	-11.274
▁abo	-11.2777
▁oop	-11.2789
▁fingerprint	-11.2791
▁towel	-11.2793
▁spi	-11.2802
nut	-11.2804
▁bean	-11.2814
▁lip	-11.282
▁virgi	-11.283
▁flee	-11.2846
tag	-11.2861
▁lung	-11.2868
▁barri	-11.2873
▁asset	-11.2891
gling	-11.2896
ugging	-11.2908
rous	-11.291
▁robb	-11.2931
coup	-11.2935
reme	-11.296
▁profession	-11.2983
▁clang	-11.2984
▁possess	-11.2988
▁harass	-11.2989
▁register	-11.2991
where	-11.2992
▁spoil	-11.2992
▁oc	-11.2993
▁wail	-11.2996
body	-11.3003
▁should	-11.3004
▁vent	-11.3009
tensi	-11.301
round	-11.301
self	-11.3012
guard	-11.3014
bird	-11.3014
party	-11.3014
world	-11.3014
child	-11.3014
seven	-11.3014
could	-11.3014
charge	-11.3015
▁fel	-11.3016
check	-11.3017
▁oooh	-11.3017
keep	-11.3017
girl	-11.3018
▁wealth	-11.3019
▁absolute	-11.3019
fold	-11.302
ofthe	-11.3021
▁teenage	-11.3021
▁innocen	-11.3023
four	-11.3023
▁africa	-11.3024
▁julie	-11.3024
▁beaut	-11.3025
▁goddam	-11.3025
erior	-11.3025
▁withdraw	-11.3026
▁rehears	-11.3026
▁inhal	-11.3026
cept	-11.3027
▁michel	-11.3028
▁givin	-11.3028
▁olive	-11.3028
oise	-11.3028
iddle	-11.3029
▁intent	-11.3029
▁reflect	-11.3029
▁fag	-11.3032
▁joseph	-11.3032
▁occur	-11.3033
martial	-11.3033
▁dread	-11.3033
▁piggy	-11.3033
▁neighbour	-11.3033
▁calculat	-11.3033
▁interpol	-11.3033
occupied	-11.3033
ogenic	-11.3033
▁advil	-11.3033
▁alissa	-11.3033
▁alternative	-11.3033
▁anticipate	-11.3033
▁antoine	-11.3033
▁atmosphere	-11.3033
▁audrey	-11.3033
▁aurora	-11.3033
▁baltimore	-11.3033
▁battalion	-11.3033
▁bonjour	-11.3033
▁breeze	-11.3033
▁breyer	-11.3033
▁brisbane	-11.3033
▁broccoli	-11.3033
▁brookfield	-11.3033
▁cambridge	-11.3033
▁capacity	-11.3033
▁carolyn	-11.3033
▁cecelio	-11.3033
▁celebration	-11.3033
▁celebrit	-11.3033
▁cellular	-11.3033
▁cinema	-11.3033
▁clarify	-11.3033
▁companion	-11.3033
▁composer	-11.3033
▁corporation	-11.3033
▁croissant	-11.3033
▁dammit	-11.3033
▁deliberate	-11.3033
▁deploy	-11.3033
▁drought	-11.3033
▁economy	-11.3033
▁enlighten	-11.3033
▁environment	-11.3033
▁episode	-11.3033
▁equipment	-11.3033
▁espresso	-11.3033
▁evidently	-11.3033
▁excavator	-11.3033
▁facial	-11.3033
▁fascinating	-11.3033
▁fracture	-11.3033
▁fraud	-11.3033
▁furnace	-11.3033
▁gardner	-11.3033
▁geronimo	-11.3033
▁godfather	-11.3033
▁graham	-11.3033
▁gramma	-11.3033
▁halloween	-11.3033
▁hanzo	-11.3033
▁historical	-11.3033
▁housewife	-11.3033
▁hubba	-11.3033
▁hustle	-11.3033
▁hypocri	-11.3033
▁ibrahim	-11.3033
▁incarcerated	-11.3033
▁industrial	-11.3033
▁inferno	-11.3033
▁initial	-11.3033
▁injured	-11.3033
▁injuries	-11.3033
▁inspection	-11.3033
▁kansas	-11.3033
▁kentucky	-11.3033
▁kiefer	-11.3033
▁krueger	-11.3033
▁larrabee	-11.3033
▁lesbian	-11.3033
▁lewyn	-11.3033
▁lmpala	-11.3033
▁lonesome	-11.3033
▁lukashenko	-11.3033
▁mademoiselle	-11.3033
▁makayla	-11.3033
▁mikael	-11.3033
▁mohammed	-11.3033
▁mongrel	-11.3033
▁mortgage	-11.3033
▁murmuring	-11.3033
▁myseif	-11.3033
▁narciss	-11.3033
▁necronomicon	-11.3033
▁nikolas	-11.3033
▁nipples	-11.3033
▁obsession	-11.3033
▁oklahoma	-11.3033
▁oriordan	-11.3033
▁outlaw	-11.3033
▁oxygen	-11.3033
▁paranoia	-11.3033
▁pascow	-11.3033
▁patterson	-11.3033
▁peculiar	-11.3033
▁pencil	-11.3033
▁phangan	-11.3033
▁pheasant	-11.3033
▁philadelphia	-11.3033
▁piranha	-11.3033
▁playground	-11.3033
▁precinct	-11.3033
▁precious	-11.3033
▁pregnancy	-11.3033
▁premises	-11.3033
▁prevail	-11.3033
▁primitive	-11.3033
▁proposition	-11.3033
▁purcell	-11.3033
▁rainbow	-11.3033
▁roccaraso	-11.3033
▁rodriguez	-11.3033
▁sacred	-11.3033
▁sagdiyev	-11.3033
▁salvation	-11.3033
▁sarcastic	-11.3033
▁schooner	-11.3033
▁sentinels	-11.3033
▁separation	-11.3033
▁september	-11.3033
▁shamblers	-11.3033
▁shepherd	-11.3033
▁simpson	-11.3033
▁slash	-11.3033
▁slovakia	-11.3033
▁sociopath	-11.3033
▁soninlaw	-11.3033
▁spartacus	-11.3033
▁sponsor	-11.3033
▁stroke	-11.3033
▁subzero	-11.3033
▁svenson	-11.3033
▁sweatshirt	-11.3033
▁swift	-11.3033
▁symmetry	-11.3033
▁thorough	-11.3033
▁thrash	-11.3033
▁timothy	-11.3033
▁tinkling	-11.3033
▁toxic	-11.3033
▁trench	-11.3033
▁underestimate	-11.3033
▁uneasy	-11.3033
▁unpleasant	-11.3033
▁unplug	-11.3033
▁unsighted	-11.3033
▁variety	-11.3033
▁vegetarian	-11.3033
▁walsh	-11.3033
▁zdorovije	-11.3033
▁albany	-11.3034
▁buckingham	-11.3034
▁clinton	-11.3034
▁clucking	-11.3034
▁devastat	-11.3034
▁drummond	-11.3034
▁essence	-11.3034
▁fidget	-11.3034
▁harlem	-11.3034
▁ireland	-11.3034
▁masturbat	-11.3034
▁preparing	-11.3034
▁recruit	-11.3034
▁reiax	-11.3034
▁segment	-11.3034
▁stosh	-11.3034
▁strangl	-11.3034
▁swamp	-11.3034
▁volume	-11.3034
▁comfy	-11.3034
▁dentist	-11.3034
▁edition	-11.3034
▁exotic	-11.3034
▁google	-11.3034
▁haeju	-11.3034
▁hardware	-11.3034
▁index	-11.3034
▁mimicking	-11.3034
▁moreno	-11.3034
▁phillip	-11.3034
▁samuel	-11.3034
▁coroner	-11.3034
▁domain	-11.3034
▁frederick	-11.3034
▁harsh	-11.3034
▁janie	-11.3034
▁legacy	-11.3034
▁pendant	-11.3034
▁yknow	-11.3034
▁ferry	-11.3034
▁hamptons	-11.3034
▁larkin	-11.3034
▁margin	-11.3034
▁sustain	-11.3034
▁elements	-11.3034
▁micro	-11.3034
▁orbit	-11.3034
▁promising	-11.3034
▁catkin	-11.3034
▁chrissake	-11.3034
▁marbles	-11.3034
▁empti	-11.3034
▁visual	-11.3034
▁lafours	-11.3034
▁coconut	-11.3034
▁disabled	-11.3034
▁horrific	-11.3034
▁jammed	-11.3034
▁household	-11.3034
▁blares	-11.3034
▁grain	-11.3034
▁shore	-11.3034
▁buckner	-11.3034
▁oreo	-11.3034
▁villain	-11.3034
▁gunnar	-11.3034
▁piay	-11.3034
▁sketch	-11.3034
phrase	-11.3034
wolves	-11.3034
▁resort	-11.3034
▁yacht	-11.3034
▁programmed	-11.3034
▁investigating	-11.3034
▁microphone	-11.3034
▁sailboat	-11.3034
▁facing	-11.3034
▁cawing	-11.3034
▁luton	-11.3034
▁ensure	-11.3034
▁accomplice	-11.3034
▁albano	-11.3034
▁fragile	-11.3034
▁restrict	-11.3034
▁stunn	-11.3034
▁snatch	-11.3034
▁kidnapping	-11.3034
▁mammy	-11.3034
▁grape	-11.3034
▁yyou	-11.3034
▁nord	-11.3034
▁egyptian	-11.3034
▁puppy	-11.3034
▁meself	-11.3034
▁burger	-11.3034
▁intimate	-11.3034
▁prague	-11.3034
▁blush	-11.3034
▁hwan	-11.3034
▁collar	-11.3034
▁bloke	-11.3034
▁whatwhat	-11.3034
▁babysitting	-11.3034
▁chore	-11.3034
▁vicious	-11.3034
▁limp	-11.3034
▁departure	-11.3034
▁resent	-11.3034
▁twentyfour	-11.3034
addy	-11.3034
▁vault	-11.3034
▁malaysian	-11.3034
▁commend	-11.3035
author	-11.3035
▁helen	-11.3035
▁ieft	-11.3035
▁gringo	-11.3035
▁powder	-11.3035
▁liability	-11.3035
▁instructor	-11.3035
▁mitsy	-11.3035
▁buick	-11.3035
▁kamal	-11.3035
▁involving	-11.3035
▁tsung	-11.3035
▁carlyn	-11.3035
▁ruthless	-11.3035
▁halt	-11.3035
▁urine	-11.3035
▁ethic	-11.3035
▁ransom	-11.3035
▁dadadada	-11.3035
▁transferred	-11.3035
▁population	-11.3035
▁flank	-11.3035
▁lizard	-11.3035
▁symbolic	-11.3035
▁roast	-11.3035
▁passionate	-11.3035
▁hooting	-11.3036
▁republican	-11.3036
▁savage	-11.3036
▁shining	-11.3036
▁shook	-11.3036
▁francis	-11.3036
▁ouch	-11.3036
▁toby	-11.3036
▁tribe	-11.3036
▁chemo	-11.3036
▁flick	-11.3036
▁buddh	-11.3036
▁aircraft	-11.3036
▁prank	-11.3036
▁burson	-11.3036
▁guzman	-11.3036
▁trading	-11.3036
▁blackmail	-11.3036
▁backwards	-11.3036
▁remarkabl	-11.3036
▁programming	-11.3037
▁rash	-11.3037
▁centre	-11.3037
▁oana	-11.3037
▁argh	-11.3037
▁bruv	-11.3037
▁delta	-11.3037
▁priority	-11.3037
▁dumpster	-11.3037
▁finch	-11.3037
▁foam	-11.3037
▁hash	-11.3037
▁temptation	-11.3037
▁nosy	-11.3037
ault	-11.3037
▁guv	-11.3037
▁plot	-11.3037
▁stanley	-11.3038
▁blur	-11.3038
▁chapel	-11.3038
▁compare	-11.3038
▁disappointment	-11.3038
▁spank	-11.3038
▁yule	-11.3038
▁saloon	-11.3038
▁digger	-11.3038
▁riot	-11.3038
▁sasha	-11.3038
▁begged	-11.3038
▁cooch	-11.3038
▁tasty	-11.3039
▁twat	-11.3039
▁naples	-11.3039
▁alike	-11.3039
▁jang	-11.3039
▁texan	-11.3039
atic	-11.3039
▁attendant	-11.3039
▁operate	-11.3039
▁gangster	-11.3039
▁alimony	-11.3039
▁automatic	-11.3039
▁beam	-11.3039
▁semen	-11.3039
▁ripping	-11.304
▁income	-11.304
▁keyboard	-11.304
▁vicar	-11.304
▁constantly	-11.304
▁void	-11.3041
▁classroom	-11.3041
▁rust	-11.3041
▁grill	-11.3041
▁aight	-11.3042
▁waii	-11.3042
▁minus	-11.3042
titude	-11.3042
▁crackhead	-11.3042
▁giri	-11.3042
▁swell	-11.3043
▁grownup	-11.3043
▁awol	-11.3043
▁groom	-11.3043
▁morality	-11.3043
▁wax	-11.3043
▁soda	-11.3043
▁african	-11.3043
▁churchill	-11.3044
▁sammy	-11.3044
▁footage	-11.3044
▁heinous	-11.3045
▁rover	-11.3045
▁growl	-11.3045
▁senat	-11.3045
▁tailor	-11.3045
▁abducted	-11.3045
▁humor	-11.3046
▁heli	-11.3046
▁custo	-11.3047
▁eise	-11.3047
▁creation	-11.3047
▁gag	-11.3047
▁jamie	-11.3047
rink	-11.3047
▁label	-11.3047
▁callaway	-11.3048
vious	-11.3048
mination	-11.3049
▁gently	-11.3049
▁flor	-11.3049
▁objection	-11.305
▁quitting	-11.305
inem	-11.3052
▁haha	-11.3052
▁sandra	-11.3053
▁slot	-11.3053
▁accomplished	-11.3053
▁smartass	-11.3054
▁exposed	-11.3054
▁procession	-11.3054
▁allegedly	-11.3054
▁hysterically	-11.3054
▁precisely	-11.3054
▁fold	-11.3055
▁cooley	-11.3055
▁interfere	-11.3056
▁joo	-11.3057
▁iove	-11.3057
▁dried	-11.3057
▁sipe	-11.3059
rice	-11.3059
▁alec	-11.3059
▁scooter	-11.3059
▁murderous	-11.306
▁brass	-11.3062
▁spain	-11.3062
▁approaches	-11.3062
▁tapping	-11.3063
▁maiden	-11.3063
hop	-11.3064
▁fet	-11.3065
▁cellar	-11.3066
▁sour	-11.3067
▁depressed	-11.3068
▁firemen	-11.3068
eila	-11.3069
▁vibrating	-11.3069
▁vine	-11.3069
▁activated	-11.3071
▁aida	-11.3071
▁margot	-11.3073
▁registered	-11.3076
▁harassed	-11.3076
uous	-11.3076
▁retired	-11.3077
▁mild	-11.3077
▁robber	-11.3077
▁sniffing	-11.3078
▁worthless	-11.3078
▁junkie	-11.3078
▁whoosh	-11.3078
west	-11.3079
▁physically	-11.308
▁eff	-11.308
▁hospitality	-11.3081
▁equally	-11.3081
▁paw	-11.3081
▁gent	-11.3082
▁greedy	-11.3082
▁sickness	-11.3084
▁intended	-11.3084
▁stalled	-11.3084
▁hog	-11.3084
▁bridget	-11.3085
▁complaint	-11.3086
▁rage	-11.3086
▁vol	-11.3086
▁hotter	-11.3087
▁discovery	-11.3087
▁clanging	-11.3087
▁solved	-11.3088
donna	-11.3088
▁showtime	-11.309
▁brandy	-11.3091
▁wandered	-11.3092
▁buzzer	-11.3092
▁bogg	-11.3096
▁cutter	-11.3098
level	-11.3099
▁swallowed	-11.3099
▁validate	-11.3099
▁determined	-11.31
▁realised	-11.3101
▁handling	-11.3102
▁jonesy	-11.3104
▁gel	-11.3106
▁offend	-11.3106
▁attached	-11.3107
▁flirting	-11.3107
▁established	-11.3107
▁phd	-11.3112
▁goodlooking	-11.3113
▁toi	-11.3114
▁feei	-11.3117
▁accused	-11.3122
▁iooked	-11.3122
fusion	-11.3125
▁spilling	-11.3126
▁shushing	-11.3126
▁snarling	-11.3126
▁drilling	-11.3126
▁coal	-11.3126
▁pier	-11.3129
▁tumbl	-11.313
▁stressed	-11.313
unk	-11.3134
▁owl	-11.3136
▁informed	-11.3138
▁demanding	-11.3138
▁dime	-11.3142
▁reel	-11.3143
▁despise	-11.3144
stery	-11.3145
▁tax	-11.3147
▁badass	-11.3151
▁lens	-11.3157
▁endless	-11.3162
▁herr	-11.3163
ixie	-11.3164
▁howling	-11.3167
▁businessman	-11.3168
pensive	-11.3169
▁baker	-11.317
ames	-11.3172
best	-11.3179
lift	-11.319
▁evan	-11.3198
▁poop	-11.3199
alone	-11.3203
▁workout	-11.3203
▁debate	-11.3204
▁verse	-11.3211
▁prey	-11.3218
▁sane	-11.322
gulf	-11.3225
▁wasted	-11.3239
▁hmmm	-11.3245
▁dees	-11.3259
wait	-11.326
▁weirdo	-11.3266
▁myr	-11.3267
▁deli	-11.3267
▁reminded	-11.3274
▁lawn	-11.3287
▁grande	-11.329
▁slower	-11.3301
▁safer	-11.3308
▁doorman	-11.3316
▁freaked	-11.3318
▁sophi	-11.3321
▁armor	-11.3325
▁broker	-11.3334
▁boner	-11.3354
▁ego	-11.3357
oud	-11.3357
▁formal	-11.3363
wen	-11.3399
▁whit	-11.3403
▁whisk	-11.3408
▁rider	-11.3411
olet	-11.3414
▁marc	-11.3422
unch	-11.3428
▁burner	-11.3452
▁poster	-11.3455
▁mist	-11.3533
▁tru	-11.3544
▁triple	-11.3562
gun	-11.3574
▁specialize	-11.3607
unded	-11.3621
▁gil	-11.3663
ross	-11.3673
look	-11.3696
▁gro	-11.371
pul	-11.3752
nogo	-11.3755
▁magical	-11.3764
▁arrange	-11.3792
ender	-11.3799
▁primar	-11.3811
▁shhh	-11.3841
raci	-11.3876
▁sil	-11.3964
▁interi	-11.398
▁tease	-11.3997
zers	-11.4006
war	-11.4036
term	-11.4073
▁flap	-11.4188
▁christo	-11.4198
eering	-11.4202
▁choppe	-11.4218
iar	-11.4329
wah	-11.4344
▁edg	-11.4382
▁your	-11.4442
▁rocket	-11.4535
▁sou	-11.4535
▁depend	-11.4552
▁damon	-11.4601
▁admir	-11.4613
mpressionist	-11.4614
▁here	-11.4632
▁abus	-11.4644
▁chic	-11.4658
▁sniff	-11.4732
▁wit	-11.4764
▁slap	-11.4777
▁ritual	-11.4782
▁increase	-11.4784
▁rattle	-11.4785
▁passenger	-11.4789
▁citizen	-11.479
▁bead	-11.4791
▁tool	-11.4792
▁cent	-11.4792
▁teenager	-11.4794
yho	-11.4809
▁pill	-11.482
▁crackle	-11.4823
tled	-11.4832
▁bake	-11.4854
youre	-11.4881
armed	-11.489
▁refus	-11.4932
ccan	-11.4944
jugat	-11.4951
▁fina	-11.4953
▁rang	-11.4967
under	-11.4969
▁valid	-11.497
▁cloth	-11.4974
▁squeak	-11.4983
▁adul	-11.4984
▁accord	-11.4984
▁impress	-11.4987
▁exhaust	-11.499
▁phon	-11.4992
▁depart	-11.4993
▁depress	-11.4994
▁delight	-11.5001
▁puke	-11.5002
▁divide	-11.5004
▁involve	-11.5004
▁complicate	-11.5004
▁encourage	-11.5006
▁tow	-11.5008
▁chant	-11.5013
winning	-11.5013
cracker	-11.5013
century	-11.5013
identified	-11.5014
related	-11.5014
when	-11.5014
mobile	-11.5014
famous	-11.5014
minute	-11.5014
text	-11.5014
guy	-11.5015
married	-11.5015
high	-11.5016
paint	-11.5016
▁beau	-11.502
master	-11.5021
fight	-11.5023
▁russia	-11.5024
▁automat	-11.5027
mail	-11.5027
▁fright	-11.5028
▁lovin	-11.5028
morr	-11.5029
open	-11.5029
▁champ	-11.5029
▁violat	-11.503
fast	-11.503
boat	-11.503
▁abort	-11.503
▁confidential	-11.5032
▁contemp	-11.5032
▁hysteri	-11.5033
▁kilo	-11.5033
dolph	-11.5033
▁authentic	-11.5033
▁compiete	-11.5033
through	-11.5033
▁abuel	-11.5033
▁activities	-11.5033
▁adrenalin	-11.5033
▁adventure	-11.5033
▁ambassador	-11.5033
▁ancestors	-11.5033
▁apology	-11.5033
▁autumn	-11.5033
▁barbecue	-11.5033
▁barstow	-11.5033
▁bastien	-11.5033
▁bleach	-11.5033
▁bloom	-11.5033
▁bounty	-11.5033
▁casket	-11.5033
▁caviar	-11.5033
▁ceiling	-11.5033
▁certificate	-11.5033
▁checkabarame	-11.5033
▁coalition	-11.5033
▁coddy	-11.5033
▁collapse	-11.5033
▁complications	-11.5033
▁controversial	-11.5033
▁convertible	-11.5033
▁crenshaw	-11.5033
▁crescendo	-11.5033
▁cripple	-11.5033
▁crucified	-11.5033
▁curfew	-11.5033
▁customary	-11.5033
▁cybebe	-11.5033
▁december	-11.5033
▁definition	-11.5033
▁delusion	-11.5033
▁determination	-11.5033
▁disgrace	-11.5033
▁disneyland	-11.5033
▁dispute	-11.5033
▁distinct	-11.5033
▁domestic	-11.5033
▁drakos	-11.5033
▁educated	-11.5033
▁eievator	-11.5033
▁eileen	-11.5033
▁emerging	-11.5033
▁enchant	-11.5033
▁enhance	-11.5033
▁enterprise	-11.5033
▁evacuation	-11.5033
▁evergreen	-11.5033
▁evolve	-11.5033
▁expelled	-11.5033
▁expend	-11.5033
▁exwife	-11.5033
▁feature	-11.5033
▁fortunate	-11.5033
▁fundamental	-11.5033
▁gauge	-11.5033
▁glatzel	-11.5033
▁gracias	-11.5033
▁grenade	-11.5033
▁groovy	-11.5033
▁hafferty	-11.5033
▁hajj	-11.5033
▁handwriting	-11.5033
▁hannah	-11.5033
▁happiest	-11.5033
▁harbor	-11.5033
▁hellenics	-11.5033
▁himseif	-11.5033
▁homosexual	-11.5033
▁humility	-11.5033
▁ignorant	-11.5033
▁illinois	-11.5033
▁inappropriate	-11.5033
▁incapable	-11.5033
▁incarceration	-11.5033
▁inferior	-11.5033
▁infinite	-11.5033
▁institute	-11.5033
▁jurisdiction	-11.5033
▁kolpos	-11.5033
▁krakow	-11.5033
▁kujaku	-11.5033
▁linklater	-11.5033
▁literature	-11.5033
▁loomis	-11.5033
▁luigino	-11.5033
▁marijuana	-11.5033
▁marquis	-11.5033
▁marybeth	-11.5033
▁masculine	-11.5033
▁mccormick	-11.5033
▁mechanic	-11.5033
▁melania	-11.5033
▁mellow	-11.5033
▁millwall	-11.5033
▁mississippi	-11.5033
▁miyagi	-11.5033
▁morphine	-11.5033
▁narrative	-11.5033
▁nominee	-11.5033
▁november	-11.5033
▁oatmeal	-11.5033
▁ofyour	-11.5033
▁olivia	-11.5033
▁organic	-11.5033
▁overreacting	-11.5033
▁overwhelmed	-11.5033
▁paragraph	-11.5033
▁parakeet	-11.5033
▁pepperoni	-11.5033
▁peretti	-11.5033
▁perpetrator	-11.5033
▁persuade	-11.5033
▁phenomen	-11.5033
▁philanthropist	-11.5033
▁plaintiff	-11.5033
▁popcorn	-11.5033
▁practicing	-11.5033
▁premier	-11.5033
▁prophecy	-11.5033
▁puppet	-11.5033
▁receipt	-11.5033
▁recipient	-11.5033
▁recognise	-11.5033
▁refresh	-11.5033
▁registration	-11.5033
▁relevant	-11.5033
▁residency	-11.5033
▁retribution	-11.5033
▁retrieve	-11.5033
▁rogue	-11.5033
▁saracen	-11.5033
▁sarcasm	-11.5033
▁satisfy	-11.5033
▁schieber	-11.5033
▁scoop	-11.5033
▁sedition	-11.5033
▁simultaneous	-11.5033
▁singapore	-11.5033
▁sizzles	-11.5033
▁sloppy	-11.5033
▁software	-11.5033
▁souschef	-11.5033
▁spaghetti	-11.5033
▁specimen	-11.5033
▁sphynx	-11.5033
▁sputtering	-11.5033
▁stockholm	-11.5033
▁strapped	-11.5033
▁surprising	-11.5033
▁surrounding	-11.5033
▁suzanne	-11.5033
▁syllabus	-11.5033
▁sympathy	-11.5033
▁synthient	-11.5033
▁tarzan	-11.5033
▁tequila	-11.5033
▁terrifying	-11.5033
▁tractor	-11.5033
▁transaction	-11.5033
▁twilight	-11.5033
▁unacceptable	-11.5033
▁unanimity	-11.5033
▁unlucky	-11.5033
▁unnecessary	-11.5033
▁unpredictable	-11.5033
▁unspeakab	-11.5033
▁vagine	-11.5033
▁valentine	-11.5033
▁vancouver	-11.5033
▁vegetable	-11.5033
▁velez	-11.5033
▁wardrobe	-11.5033
▁wawaweewa	-11.5033
▁welfare	-11.5033
▁whomever	-11.5033
▁worries	-11.5033
▁yelburton	-11.5033
▁zeffirelli	-11.5033
ahahahahahah	-11.5034
▁alibi	-11.5034
▁alligator	-11.5034
▁astronomer	-11.5034
▁bluff	-11.5034
▁circumcis	-11.5034
▁consumer	-11.5034
▁corpse	-11.5034
▁deflect	-11.5034
▁disrespect	-11.5034
▁donnie	-11.5034
▁dryclean	-11.5034
▁dyke	-11.5034
▁expire	-11.5034
▁exploit	-11.5034
▁felony	-11.5034
▁genny	-11.5034
▁groove	-11.5034
▁infatuat	-11.5034
▁maestro	-11.5034
▁malfunction	-11.5034
▁obama	-11.5034
▁orient	-11.5034
▁overpass	-11.5034
▁oyster	-11.5034
▁pistol	-11.5034
▁predict	-11.5034
▁pulse	-11.5034
▁redneck	-11.5034
▁shanley	-11.5034
▁shelton	-11.5034
▁sheperd	-11.5034
▁totem	-11.5034
▁ugli	-11.5034
▁ukrain	-11.5034
▁uncertain	-11.5034
▁vassary	-11.5034
▁womb	-11.5034
▁yeeah	-11.5034
▁zheng	-11.5034
tempo	-11.5034
▁farewell	-11.5034
▁juiie	-11.5034
▁louisiana	-11.5034
▁luxur	-11.5034
▁phew	-11.5034
▁polish	-11.5034
▁ramona	-11.5034
▁reserve	-11.5034
▁selim	-11.5034
▁sunrise	-11.5034
▁tramp	-11.5034
▁daryl	-11.5034
▁droid	-11.5034
▁leroy	-11.5034
▁peadar	-11.5034
▁rookie	-11.5034
▁sprain	-11.5034
▁straw	-11.5034
▁warehouse	-11.5034
▁burnett	-11.5034
▁eager	-11.5034
▁flattered	-11.5034
▁irish	-11.5034
▁juicy	-11.5034
▁covid	-11.5034
▁cynic	-11.5034
▁doomed	-11.5034
▁firearm	-11.5034
▁fryer	-11.5034
▁mercedes	-11.5034
▁pulp	-11.5034
▁swarm	-11.5034
▁tatti	-11.5034
▁hastings	-11.5034
▁housekeeping	-11.5034
▁norway	-11.5034
▁sweden	-11.5034
zhen	-11.5034
▁abyss	-11.5034
▁attic	-11.5034
hanie	-11.5034
▁gravit	-11.5034
▁travis	-11.5034
▁vanished	-11.5034
▁eev	-11.5034
▁shilling	-11.5034
▁wicked	-11.5034
▁collings	-11.5034
▁mount	-11.5034
▁doyle	-11.5034
▁lawsuit	-11.5034
▁jelly	-11.5034
▁nonlethal	-11.5034
▁singsong	-11.5034
▁backpack	-11.5034
canadian	-11.5034
▁laddie	-11.5034
▁pomp	-11.5034
▁stove	-11.5034
▁tachi	-11.5034
▁granddaughter	-11.5034
▁gray	-11.5034
▁peddl	-11.5034
▁impair	-11.5034
▁yoshi	-11.5034
▁jacci	-11.5034
▁pedro	-11.5034
▁claymore	-11.5034
▁grabbed	-11.5034
▁pinned	-11.5034
▁grabbing	-11.5034
▁sinned	-11.5034
▁wrinkl	-11.5034
cautious	-11.5034
▁precaution	-11.5034
▁scramble	-11.5034
▁bureau	-11.5034
▁harp	-11.5034
▁atm	-11.5034
▁slay	-11.5034
▁tickle	-11.5034
▁invad	-11.5034
▁nathan	-11.5034
▁fasci	-11.5034
▁smug	-11.5034
▁asap	-11.5034
▁gurgl	-11.5034
▁telegram	-11.5034
▁consent	-11.5034
▁sodom	-11.5034
▁obligated	-11.5034
▁prompt	-11.5034
▁explore	-11.5034
▁imitate	-11.5034
▁doughboy	-11.5034
▁interference	-11.5034
▁terra	-11.5034
▁twobit	-11.5034
▁pension	-11.5034
▁implie	-11.5034
▁banana	-11.5034
▁drones	-11.5034
▁sunset	-11.5034
▁cigz	-11.5034
▁nanna	-11.5034
▁dart	-11.5034
▁flood	-11.5034
▁willie	-11.5034
▁geppino	-11.5034
▁montana	-11.5035
▁outrageous	-11.5035
▁haske	-11.5035
▁mamma	-11.5035
▁repair	-11.5035
▁brainwash	-11.5035
▁accurate	-11.5035
▁implicat	-11.5035
▁therapist	-11.5035
▁wasp	-11.5035
▁executive	-11.5035
▁chubby	-11.5035
▁gerick	-11.5035
▁absence	-11.5035
▁crotch	-11.5035
▁eternity	-11.5035
▁leverage	-11.5035
▁locate	-11.5035
▁platter	-11.5035
▁kessle	-11.5035
▁spook	-11.5035
▁uber	-11.5035
▁referring	-11.5035
▁thatthat	-11.5035
▁stacy	-11.5035
▁jangling	-11.5035
▁bartender	-11.5035
▁aggr	-11.5035
▁mourn	-11.5035
▁vouch	-11.5035
▁campfire	-11.5035
▁diagnosis	-11.5035
▁reset	-11.5036
▁bailey	-11.5036
▁chickenshit	-11.5036
▁chitter	-11.5036
▁conner	-11.5036
▁divine	-11.5036
▁ajob	-11.5036
▁gunned	-11.5036
▁tofu	-11.5036
▁interpretation	-11.5036
▁totai	-11.5036
▁vein	-11.5036
▁corporate	-11.5036
▁seoul	-11.5036
▁extraction	-11.5036
▁pluck	-11.5036
▁significant	-11.5036
▁piane	-11.5036
▁transferring	-11.5036
▁puii	-11.5036
▁sufficient	-11.5036
▁fabricant	-11.5036
▁accompany	-11.5036
▁viral	-11.5037
▁consciousness	-11.5037
▁mojo	-11.5037
▁tuning	-11.5037
▁truce	-11.5037
▁dislike	-11.5037
▁toof	-11.5037
▁vince	-11.5037
▁satanic	-11.5037
▁marcus	-11.5037
▁meow	-11.5037
▁riley	-11.5037
▁verge	-11.5037
▁glue	-11.5037
▁hhow	-11.5037
▁choc	-11.5037
▁yuri	-11.5037
▁gps	-11.5037
▁quant	-11.5038
▁silk	-11.5038
▁recite	-11.5038
▁jonna	-11.5038
shield	-11.5038
▁improvement	-11.5038
▁shaving	-11.5038
▁festival	-11.5038
▁superstar	-11.5038
▁hatred	-11.5038
▁northern	-11.5038
▁lever	-11.5038
▁entertainment	-11.5038
▁tuna	-11.5039
▁ruling	-11.5039
▁unfold	-11.5039
▁dibs	-11.5039
▁earring	-11.5039
▁princeton	-11.5039
▁miiii	-11.5039
▁mongo	-11.5039
▁digital	-11.5039
▁civilian	-11.504
▁booze	-11.504
▁curry	-11.504
▁guz	-11.504
▁cubano	-11.504
antom	-11.504
▁fiend	-11.504
▁swish	-11.504
▁acknowledge	-11.504
▁detonat	-11.504
▁alexand	-11.504
▁slang	-11.504
▁dragging	-11.504
▁adore	-11.504
▁fanny	-11.5041
▁slavery	-11.5041
▁australian	-11.5041
▁collective	-11.5041
▁affection	-11.5041
▁condom	-11.5041
▁jj	-11.5041
▁legitimate	-11.5041
▁waah	-11.5042
▁pooh	-11.5042
▁derick	-11.5042
▁fiddle	-11.5042
▁incompetent	-11.5042
▁lamb	-11.5043
▁withdrawal	-11.5043
▁dumpling	-11.5043
▁detaine	-11.5043
encies	-11.5043
▁robot	-11.5044
▁turf	-11.5044
▁purge	-11.5044
▁belongings	-11.5044
▁squat	-11.5044
▁auto	-11.5044
▁devoted	-11.5044
▁roam	-11.5045
▁thong	-11.5045
▁susanna	-11.5045
kick	-11.5045
▁munchin	-11.5045
▁travelling	-11.5046
▁react	-11.5046
metic	-11.5046
▁berlin	-11.5046
▁shang	-11.5046
faced	-11.5046
▁potter	-11.5047
▁susanne	-11.5047
▁hamburger	-11.5048
▁oversee	-11.5048
▁deaf	-11.5049
▁peak	-11.5049
▁reload	-11.5049
▁controlled	-11.5049
▁stepping	-11.5049
▁maze	-11.505
tamper	-11.505
▁polo	-11.505
▁ramp	-11.5051
▁slim	-11.5051
▁whereas	-11.5051
▁dadada	-11.5052
▁toll	-11.5052
▁payload	-11.5052
▁fries	-11.5052
▁baba	-11.5052
▁auste	-11.5053
▁blog	-11.5053
▁waist	-11.5054
▁heartache	-11.5054
evision	-11.5054
▁facebook	-11.5055
▁scenery	-11.5055
▁demo	-11.5055
▁grin	-11.5056
▁certainty	-11.5056
▁halfway	-11.5056
▁fame	-11.5057
meters	-11.5057
▁sitdown	-11.5059
▁reai	-11.506
▁grandson	-11.506
▁rj	-11.506
▁pear	-11.506
▁irritate	-11.506
▁legit	-11.5061
▁payback	-11.5061
▁wealthy	-11.5063
▁hose	-11.5063
▁juliet	-11.5063
▁acceptable	-11.5064
▁designation	-11.5064
▁raw	-11.5064
▁hopin	-11.5064
▁publisher	-11.5065
▁tapi	-11.5065
▁gaines	-11.5065
▁leech	-11.5065
▁cesare	-11.5066
▁corona	-11.5066
▁puked	-11.5066
ilian	-11.5066
▁mentor	-11.5067
▁molested	-11.5067
▁nno	-11.5068
▁lem	-11.5069
▁parttime	-11.5069
▁molester	-11.5069
▁marion	-11.507
▁poll	-11.5071
▁oven	-11.5071
▁vu	-11.5071
▁agony	-11.5071
▁peach	-11.5073
eft	-11.5073
▁haif	-11.5073
▁kabal	-11.5074
▁tito	-11.5074
▁controlling	-11.5075
▁comply	-11.5075
▁hunk	-11.5076
▁rumble	-11.5076
▁exhausted	-11.5077
▁delighted	-11.5077
▁pence	-11.5077
pure	-11.5077
▁evacuated	-11.508
▁restored	-11.5081
▁smoothly	-11.5084
▁vous	-11.5084
▁compromised	-11.5087
arian	-11.5087
▁departing	-11.5088
▁rende	-11.5088
▁huntin	-11.5088
▁sche	-11.509
▁webber	-11.509
▁frisk	-11.509
▁vp	-11.509
▁bah	-11.5093
▁pha	-11.5094
▁mustard	-11.5094
▁bleedin	-11.5096
▁addicted	-11.5096
▁revealed	-11.5096
▁altered	-11.5096
wash	-11.5099
▁stinky	-11.5099
▁losses	-11.5101
▁disarm	-11.5102
▁squealing	-11.5102
▁thiev	-11.5102
▁mam	-11.5103
▁speeches	-11.5104
▁construct	-11.5105
▁producer	-11.5105
▁attracted	-11.5105
▁described	-11.5109
▁bund	-11.5111
▁hunger	-11.5111
▁dru	-11.5115
▁some	-11.5116
▁commissioner	-11.5119
▁followers	-11.5122
ntact	-11.5123
bud	-11.5123
▁traced	-11.5123
▁ignored	-11.5123
itsy	-11.5129
craft	-11.5132
▁standup	-11.5134
▁vain	-11.5136
▁snip	-11.5138
▁updated	-11.5145
▁zu	-11.5147
▁topic	-11.5151
▁howdo	-11.5158
▁poly	-11.5159
▁panick	-11.5162
▁reaches	-11.5169
▁core	-11.5174
▁bind	-11.5183
iger	-11.5198
▁neon	-11.5201
▁eta	-11.5212
▁psychiatri	-11.5216
▁curl	-11.5233
flop	-11.5254
▁isla	-11.5255
▁harl	-11.5255
▁steer	-11.5256
▁translat	-11.5263
acious	-11.5264
▁bast	-11.5266
dependent	-11.5283
▁bla	-11.5311
gasm	-11.5331
▁simm	-11.5332
▁itch	-11.5363
▁bugg	-11.5425
▁linger	-11.5439
away	-11.5443
▁admire	-11.5465
▁forge	-11.5499
uddy	-11.5507
▁did	-11.5531
decoration	-11.5536
abolis	-11.5559
▁designat	-11.5563
▁chum	-11.5563
▁mea	-11.5582
mill	-11.5594
▁snapp	-11.5615
▁penni	-11.5658
▁permitt	-11.5674
▁coma	-11.5686
▁crapp	-11.5721
▁martini	-11.5798
flake	-11.5808
▁quo	-11.5834
▁inevitabl	-11.5854
▁initiat	-11.5859
llion	-11.5863
▁bou	-11.5881
▁whale	-11.5899
▁organiz	-11.5909
▁toe	-11.5914
cade	-11.594
▁rib	-11.5976
tov	-11.5999
▁whil	-11.5999
muth	-11.6007
▁respectful	-11.6014
▁lag	-11.607
▁deriv	-11.6186
▁rom	-11.6209
rite	-11.6236
rich	-11.6239
ittie	-11.625
▁sai	-11.6263
hell	-11.6295
▁demonstrate	-11.6315
turn	-11.6325
beii	-11.6402
▁ama	-11.6441
▁latte	-11.6465
▁jagge	-11.6466
opped	-11.6479
▁obi	-11.649
derate	-11.6579
ashi	-11.6583
▁traumati	-11.6634
▁destructi	-11.6742
pace	-11.6768
ortion	-11.6773
class	-11.6788
abh	-11.681
ifted	-11.6827
▁assassin	-11.6847
got	-11.6859
▁slav	-11.6861
▁identi	-11.6889
▁pav	-11.6894
tches	-11.6906
nky	-11.6939
▁rott	-11.6947
mart	-11.6973
employed	-11.6995
▁appreciat	-11.7075
rtis	-11.714
▁vibrat	-11.7145
rgas	-11.7164
▁electr	-11.7176
isse	-11.7195
emia	-11.7196
with	-11.7275
▁moan	-11.7283
▁snort	-11.7285
▁unzipp	-11.729
▁harvester	-11.7303
▁cult	-11.731
aunt	-11.7312
exus	-11.7332
▁swap	-11.7364
mino	-11.737
▁hur	-11.7379
▁invit	-11.7401
▁intimidat	-11.7418
minated	-11.742
▁tum	-11.7432
plan	-11.7436
▁immigra	-11.7444
▁molest	-11.7457
▁feck	-11.7468
▁juli	-11.7471
▁suppos	-11.7478
▁annoy	-11.7482
▁distract	-11.7487
havin	-11.7487
▁retard	-11.7492
▁scoot	-11.7493
▁dismiss	-11.7496
▁expose	-11.7502
word	-11.7506
▁frighten	-11.7508
▁holla	-11.7509
sworth	-11.7511
woman	-11.7511
▁filth	-11.7511
▁harvest	-11.7511
itis	-11.7513
sexual	-11.7513
generation	-11.7514
hundreds	-11.7514
security	-11.7514
finished	-11.7514
smoking	-11.7514
second	-11.7514
▁brig	-11.7514
people	-11.7514
course	-11.7514
horse	-11.7514
free	-11.7515
week	-11.7515
▁hamburg	-11.7515
bash	-11.7515
spring	-11.7515
▁oblig	-11.7516
know	-11.7516
▁berl	-11.7518
▁cruis	-11.7519
blow	-11.7519
▁blam	-11.7521
▁arrogan	-11.7522
▁incompeten	-11.7522
▁brillian	-11.7523
▁australia	-11.7523
▁cuban	-11.7525
▁probabi	-11.7526
itude	-11.7526
▁uri	-11.7527
butt	-11.7527
▁confe	-11.7528
▁drivin	-11.7528
▁motivat	-11.7529
▁influen	-11.7529
▁convent	-11.7529
▁supervis	-11.753
generate	-11.753
▁republic	-11.753
▁interpret	-11.753
▁zach	-11.7531
▁grocer	-11.7531
▁kiddin	-11.7531
▁diagnos	-11.7531
▁enti	-11.7531
ecutive	-11.7532
▁outrage	-11.7532
▁appeti	-11.7533
▁stefan	-11.7533
▁hyper	-11.7533
▁scholar	-11.7533
▁frag	-11.7533
arrett	-11.7533
negotiat	-11.7533
crucia	-11.7533
▁olymp	-11.7533
beiievabie	-11.7533
phobia	-11.7533
resurrect	-11.7533
▁abruptly	-11.7533
▁academic	-11.7533
▁acquaintance	-11.7533
▁acquainted	-11.7533
▁administration	-11.7533
▁advertising	-11.7533
▁advisor	-11.7533
▁affirmative	-11.7533
▁aghadoe	-11.7533
▁agitated	-11.7533
▁allergic	-11.7533
▁amnesia	-11.7533
▁apprehend	-11.7533
▁appropriation	-11.7533
▁arabella	-11.7533
▁arkansas	-11.7533
▁association	-11.7533
▁astronaut	-11.7533
▁asylum	-11.7533
▁atlanta	-11.7533
▁autistic	-11.7533
▁baccarat	-11.7533
▁bailiff	-11.7533
▁bakary	-11.7533
▁behaviour	-11.7533
▁berlioz	-11.7533
▁biciklom	-11.7533
▁bicycle	-11.7533
▁bikini	-11.7533
▁bizarre	-11.7533
▁blackburn	-11.7533
▁bloated	-11.7533
▁blondie	-11.7533
▁boerhaave	-11.7533
▁brackett	-11.7533
▁bragging	-11.7533
▁brigitte	-11.7533
▁bronteroc	-11.7533
▁caldwell	-11.7533
▁camilla	-11.7533
▁camouflage	-11.7533
▁cannibal	-11.7533
▁capoeira	-11.7533
▁catatonic	-11.7533
▁choosing	-11.7533
▁circus	-11.7533
▁cloudberry	-11.7533
▁cloves	-11.7533
▁clumsy	-11.7533
▁colmsonnylarry	-11.7533
▁colombian	-11.7533
▁communicating	-11.7533
▁communist	-11.7533
▁conclusion	-11.7533
▁concrete	-11.7533
▁consistent	-11.7533
▁constitution	-11.7533
▁contrary	-11.7533
▁corporal	-11.7533
▁crossexamine	-11.7533
▁crucifix	-11.7533
▁crumpet	-11.7533
▁curiosity	-11.7533
▁darryl	-11.7533
▁dinosaurs	-11.7533
▁disbarred	-11.7533
▁disciples	-11.7533
▁disposable	-11.7533
▁doherty	-11.7533
▁dorothy	-11.7533
▁douche	-11.7533
▁earthrealm	-11.7533
▁efficient	-11.7533
▁elmhurst	-11.7533
▁empathy	-11.7533
▁empingao	-11.7533
▁exboyfriend	-11.7533
▁excessive	-11.7533
▁experiencing	-11.7533
▁expriest	-11.7533
▁feminine	-11.7533
▁fleurdelis	-11.7533
▁focale	-11.7533
▁foreplay	-11.7533
▁frustrated	-11.7533
▁frustration	-11.7533
▁gambling	-11.7533
▁gangbanger	-11.7533
▁gauloises	-11.7533
▁generator	-11.7533
▁genetic	-11.7533
▁geography	-11.7533
▁ghastly	-11.7533
▁giovanni	-11.7533
▁gossip	-11.7533
▁granpi	-11.7533
▁gravy	-11.7533
▁graziella	-11.7533
▁grudge	-11.7533
▁guillem	-11.7533
▁happily	-11.7533
▁haskins	-11.7533
▁hispanic	-11.7533
▁horrox	-11.7533
▁hurray	-11.7533
▁hypnotize	-11.7533
▁ieaving	-11.7533
▁indicating	-11.7533
▁indictment	-11.7533
▁ingenious	-11.7533
▁insecure	-11.7533
▁intensifying	-11.7533
▁interrogate	-11.7533
▁interrogation	-11.7533
▁intervention	-11.7533
▁invasion	-11.7533
▁jangshemash	-11.7533
▁janice	-11.7533
▁kanavan	-11.7533
▁knuckle	-11.7533
▁kombat	-11.7533
▁leblanc	-11.7533
▁leisure	-11.7533
▁liberal	-11.7533
▁lollipop	-11.7533
▁lullaby	-11.7533
▁manalowitz	-11.7533
▁manhattan	-11.7533
▁marcelle	-11.7533
▁margarita	-11.7533
▁marjorie	-11.7533
▁marvellous	-11.7533
▁massachusetts	-11.7533
▁massacre	-11.7533
▁matsumoto	-11.7533
▁melissa	-11.7533
▁minivan	-11.7533
▁miraculous	-11.7533
▁moderately	-11.7533
▁monopoly	-11.7533
▁moyerson	-11.7533
▁mozart	-11.7533
▁murmurs	-11.7533
▁musket	-11.7533
▁neighs	-11.7533
▁nitwit	-11.7533
▁notorious	-11.7533
▁opponent	-11.7533
▁opportunities	-11.7533
▁opposing	-11.7533
▁oppressed	-11.7533
▁organs	-11.7533
▁ornament	-11.7533
▁overwhelming	-11.7533
▁painkillers	-11.7533
▁parachute	-11.7533
▁paralyzed	-11.7533
▁participate	-11.7533
▁pedophile	-11.7533
▁penetrate	-11.7533
▁pennsylvania	-11.7533
▁perception	-11.7533
▁perpetua	-11.7533
▁poverty	-11.7533
▁predator	-11.7533
▁premature	-11.7533
▁premium	-11.7533
▁prescribe	-11.7533
▁principal	-11.7533
▁province	-11.7533
▁provoke	-11.7533
▁puddle	-11.7533
▁pyramid	-11.7533
▁qantas	-11.7533
▁quarrel	-11.7533
▁radcliff	-11.7533
▁rebuild	-11.7533
▁recipe	-11.7533
▁resolution	-11.7533
▁resourceful	-11.7533
▁rhyme	-11.7533
▁rodrigo	-11.7533
▁roosevelt	-11.7533
▁ruckus	-11.7533
▁sabotage	-11.7533
▁samantha	-11.7533
▁scorpion	-11.7533
▁selves	-11.7533
▁sensible	-11.7533
▁septic	-11.7533
▁significance	-11.7533
▁sisterinlaw	-11.7533
▁skeezer	-11.7533
▁skeletor	-11.7533
▁smudge	-11.7533
▁solitary	-11.7533
▁souvenir	-11.7533
▁splenda	-11.7533
▁sprinklers	-11.7533
▁squirt	-11.7533
▁staffordshire	-11.7533
▁stewardess	-11.7533
▁stowaway	-11.7533
▁strategy	-11.7533
▁strawberry	-11.7533
▁streetwalker	-11.7533
▁strode	-11.7533
▁subscribe	-11.7533
▁substance	-11.7533
▁substantial	-11.7533
▁sugai	-11.7533
▁sullivan	-11.7533
▁surviving	-11.7533
▁sweetbreads	-11.7533
▁tampon	-11.7533
▁tartarus	-11.7533
▁telescope	-11.7533
▁tetraplegic	-11.7533
▁threshold	-11.7533
▁tobias	-11.7533
▁toothpaste	-11.7533
▁trembling	-11.7533
▁trickortreating	-11.7533
▁tsunami	-11.7533
▁umbrella	-11.7533
▁unavailable	-11.7533
▁unbearable	-11.7533
▁underwater	-11.7533
▁unemployment	-11.7533
▁ungrateful	-11.7533
▁untouchable	-11.7533
▁vanderohe	-11.7533
▁vaughn	-11.7533
▁verdict	-11.7533
▁vulgar	-11.7533
▁wilshire	-11.7533
▁wyatt	-11.7533
▁xrays	-11.7533
▁youtube	-11.7533
▁accelerat	-11.7534
▁accumulat	-11.7534
▁angrier	-11.7534
▁apocalyp	-11.7534
▁ayres	-11.7534
▁bewilder	-11.7534
▁bromley	-11.7534
▁bureaucra	-11.7534
▁cloister	-11.7534
▁distribut	-11.7534
▁enthusias	-11.7534
▁essex	-11.7534
▁flourish	-11.7534
▁ghetto	-11.7534
▁ghoul	-11.7534
▁giddy	-11.7534
▁hazard	-11.7534
▁hoggins	-11.7534
▁lunatic	-11.7534
▁lynch	-11.7534
▁magalie	-11.7534
▁mccann	-11.7534
▁negotiation	-11.7534
▁organis	-11.7534
▁paquin	-11.7534
▁reconnect	-11.7534
▁resonance	-11.7534
▁ribbon	-11.7534
▁ridicule	-11.7534
▁rooster	-11.7534
▁sequel	-11.7534
▁shuffl	-11.7534
▁subgate	-11.7534
▁testosterone	-11.7534
▁thirtynine	-11.7534
▁tranquil	-11.7534
▁twentyfive	-11.7534
▁unleash	-11.7534
▁uterus	-11.7534
▁willow	-11.7534
▁wrath	-11.7534
▁yuko	-11.7534
▁zapped	-11.7534
▁beaver	-11.7534
▁chram	-11.7534
▁composing	-11.7534
▁counsellor	-11.7534
▁daisies	-11.7534
▁dehydrat	-11.7534
▁distill	-11.7534
▁doorstep	-11.7534
▁drask	-11.7534
▁drastic	-11.7534
▁encounter	-11.7534
▁execute	-11.7534
▁frog	-11.7534
▁grandparents	-11.7534
▁greasy	-11.7534
▁inlaw	-11.7534
▁intellect	-11.7534
▁investigate	-11.7534
▁item	-11.7534
▁jeffrey	-11.7534
▁mafia	-11.7534
▁napkin	-11.7534
▁noodle	-11.7534
▁operative	-11.7534
▁orthop	-11.7534
▁pellet	-11.7534
▁seventeen	-11.7534
▁sponge	-11.7534
▁storage	-11.7534
▁stutter	-11.7534
▁submit	-11.7534
▁toxin	-11.7534
▁waffle	-11.7534
▁warbling	-11.7534
▁cinder	-11.7534
▁vomit	-11.7534
▁wimp	-11.7534
▁agenda	-11.7534
▁bueno	-11.7534
▁ieast	-11.7534
▁ifthe	-11.7534
▁keister	-11.7534
▁numero	-11.7534
▁oppose	-11.7534
▁payroll	-11.7534
▁prenup	-11.7534
▁stroll	-11.7534
▁syringe	-11.7534
▁whereabouts	-11.7534
▁whyre	-11.7534
▁worid	-11.7534
urban	-11.7534
▁budget	-11.7534
▁carriage	-11.7534
▁content	-11.7534
▁excise	-11.7534
▁deranged	-11.7534
▁millionaire	-11.7534
▁nepal	-11.7534
▁subtle	-11.7534
▁allez	-11.7534
▁hound	-11.7534
▁immune	-11.7534
▁sherry	-11.7534
▁spear	-11.7534
▁unstable	-11.7534
▁radar	-11.7534
▁sleepwalk	-11.7534
▁tampa	-11.7534
▁toothbrush	-11.7534
ejaculat	-11.7534
▁edwin	-11.7534
▁headhunter	-11.7534
▁lunar	-11.7534
▁coffin	-11.7534
▁keller	-11.7534
▁palace	-11.7534
▁slink	-11.7534
▁bandaid	-11.7534
▁ilych	-11.7534
▁mower	-11.7534
▁duane	-11.7534
▁dreary	-11.7534
▁floss	-11.7534
▁meatballs	-11.7534
▁relay	-11.7534
▁stunt	-11.7534
▁unholy	-11.7534
▁ayrs	-11.7534
flavour	-11.7534
▁twofive	-11.7534
▁lizzy	-11.7534
▁drool	-11.7534
▁gtg	-11.7534
▁hahn	-11.7534
▁lexy	-11.7534
▁smuggle	-11.7534
▁zane	-11.7534
▁lilies	-11.7534
▁minerals	-11.7534
▁nude	-11.7534
▁ferri	-11.7534
▁creativity	-11.7534
▁homie	-11.7534
▁retest	-11.7534
▁severely	-11.7534
▁bold	-11.7534
▁basketball	-11.7534
▁arraign	-11.7534
▁mercenar	-11.7534
▁veil	-11.7534
stabilize	-11.7534
▁pavement	-11.7534
▁utica	-11.7534
▁nanana	-11.7534
▁oblivious	-11.7534
▁canned	-11.7534
▁trillion	-11.7534
▁doris	-11.7534
▁qualified	-11.7534
▁gracious	-11.7534
▁morrisey	-11.7534
▁tummy	-11.7534
ynx	-11.7534
▁suffi	-11.7534
▁swerve	-11.7534
▁parasite	-11.7534
▁analyz	-11.7534
▁klu	-11.7534
▁repeatedly	-11.7534
▁circulation	-11.7534
climate	-11.7534
▁raven	-11.7534
▁introduction	-11.7534
▁moths	-11.7534
▁hassle	-11.7534
▁willam	-11.7534
▁downhill	-11.7534
▁fowl	-11.7534
▁trilogy	-11.7534
▁flunk	-11.7534
▁prettie	-11.7534
▁psychologist	-11.7534
▁recurr	-11.7534
▁leftovers	-11.7534
▁verify	-11.7534
▁bdr	-11.7534
▁piggyback	-11.7534
zzz	-11.7534
▁shelf	-11.7534
▁souad	-11.7534
▁blabb	-11.7535
▁uncas	-11.7535
▁thailand	-11.7535
▁contemplat	-11.7535
▁snapshot	-11.7535
▁mambo	-11.7535
▁beeface	-11.7535
▁itit	-11.7535
▁rosie	-11.7535
▁tubbs	-11.7535
▁honky	-11.7535
▁laptop	-11.7535
▁springfield	-11.7535
▁lipstick	-11.7535
▁britain	-11.7535
▁defici	-11.7535
▁worn	-11.7535
▁alias	-11.7535
▁nois	-11.7535
▁isabel	-11.7535
▁pirate	-11.7535
▁neglectful	-11.7535
▁prius	-11.7535
▁contractions	-11.7535
▁moore	-11.7535
▁terminate	-11.7535
▁troll	-11.7535
▁snuck	-11.7535
umption	-11.7535
▁snick	-11.7535
▁curtain	-11.7535
▁embarrassment	-11.7535
▁croak	-11.7535
▁stalin	-11.7535
▁tread	-11.7535
▁tilda	-11.7535
▁elisa	-11.7535
▁drummer	-11.7536
▁staple	-11.7536
▁doggy	-11.7536
▁championship	-11.7536
▁intuition	-11.7536
▁satisfaction	-11.7536
▁carbon	-11.7536
▁codependent	-11.7536
▁spark	-11.7536
▁overall	-11.7536
▁preschool	-11.7536
▁joyrid	-11.7536
▁chook	-11.7536
▁marrow	-11.7536
▁satanist	-11.7536
▁helium	-11.7536
▁broadway	-11.7536
▁inhuman	-11.7536
▁nword	-11.7536
bilities	-11.7536
▁jeep	-11.7536
▁hamster	-11.7536
▁interact	-11.7536
▁recept	-11.7536
▁ofthis	-11.7536
actical	-11.7536
▁poppy	-11.7537
▁providence	-11.7537
▁ipad	-11.7537
▁dental	-11.7537
▁confidentiality	-11.7537
▁southwest	-11.7537
▁binary	-11.7537
▁undead	-11.7537
▁marfa	-11.7537
▁obey	-11.7537
▁cease	-11.7537
▁degenerate	-11.7537
▁cheeseburger	-11.7537
▁franchise	-11.7537
▁encouragement	-11.7537
▁pigface	-11.7537
▁dreadful	-11.7537
▁workshop	-11.7537
▁pudg	-11.7537
▁frito	-11.7537
▁fairfield	-11.7537
▁rambo	-11.7537
▁colorado	-11.7537
▁consultant	-11.7537
▁finna	-11.7537
▁album	-11.7537
▁skim	-11.7537
▁buffet	-11.7537
▁monde	-11.7537
▁courtmartial	-11.7537
▁ciose	-11.7537
▁fantasies	-11.7538
▁tomatoes	-11.7538
▁bumble	-11.7538
▁ammo	-11.7538
▁supervisor	-11.7538
▁tension	-11.7538
denture	-11.7538
▁disability	-11.7538
▁docket	-11.7538
▁influence	-11.7538
▁meatbag	-11.7538
▁replie	-11.7538
▁observers	-11.7538
▁upright	-11.7538
▁oftime	-11.7538
▁dwell	-11.7538
▁noche	-11.7538
▁pattie	-11.7538
▁motivation	-11.7538
▁mature	-11.7538
▁nagging	-11.7538
▁denver	-11.7538
▁tango	-11.7538
▁delac	-11.7539
▁identificati	-11.7539
▁utter	-11.7539
▁fauci	-11.7539
▁vroom	-11.7539
▁huff	-11.7539
▁countries	-11.7539
▁expertise	-11.7539
▁insistent	-11.7539
▁spinning	-11.7539
▁aione	-11.7539
▁poker	-11.7539
rogen	-11.7539
▁leadership	-11.7539
▁tackle	-11.7539
syllable	-11.7539
▁skating	-11.7539
▁folo	-11.754
▁intensi	-11.754
▁firefight	-11.754
▁lauren	-11.754
▁assassination	-11.754
▁buts	-11.754
▁ifs	-11.754
▁iight	-11.754
▁ruth	-11.754
oohooh	-11.754
▁cattle	-11.754
▁attachment	-11.7541
▁sofa	-11.7541
▁intentionally	-11.7541
grad	-11.7541
▁mediation	-11.7541
▁harmless	-11.7541
oogum	-11.7541
▁hendri	-11.7541
▁maxim	-11.7542
▁web	-11.7542
uaiiy	-11.7542
▁motor	-11.7542
▁query	-11.7542
job	-11.7542
▁trot	-11.7542
▁crust	-11.7542
▁inconvenient	-11.7542
▁deposition	-11.7542
▁replacement	-11.7543
▁sober	-11.7543
▁kha	-11.7543
▁slack	-11.7543
▁krista	-11.7544
order	-11.7544
▁handgun	-11.7544
▁ministry	-11.7544
▁waving	-11.7544
▁purp	-11.7544
▁fax	-11.7545
▁beings	-11.7545
▁permanently	-11.7545
▁secre	-11.7545
▁chatty	-11.7545
▁overhead	-11.7545
▁arrogant	-11.7545
▁appleton	-11.7545
▁conviction	-11.7545
ivity	-11.7546
▁rima	-11.7546
▁titter	-11.7546
▁hallow	-11.7546
▁harmon	-11.7546
▁inci	-11.7546
▁mindset	-11.7547
▁cour	-11.7547
▁youth	-11.7547
▁heap	-11.7548
▁poetic	-11.7548
▁tripping	-11.7548
▁bangee	-11.7548
▁elite	-11.7548
▁campout	-11.7548
▁searing	-11.7548
▁elsewhere	-11.7549
▁concei	-11.7549
piration	-11.7549
▁exhibition	-11.7549
▁tide	-11.7549
▁stoo	-11.755
▁nsa	-11.755
▁lori	-11.755
▁igniti	-11.755
▁sunny	-11.755
▁playfully	-11.755
▁teasing	-11.7551
▁spout	-11.7551
▁obligation	-11.7551
▁whine	-11.7551
▁acre	-11.7551
▁nursery	-11.7551
▁denies	-11.7551
▁european	-11.7551
vous	-11.7551
▁highlight	-11.7552
▁stockings	-11.7552
▁rach	-11.7552
▁beac	-11.7552
▁capri	-11.7553
▁collector	-11.7554
▁wade	-11.7554
▁intro	-11.7554
▁evo	-11.7554
ctus	-11.7554
▁lice	-11.7554
▁hull	-11.7555
▁arson	-11.7555
▁hitchhiker	-11.7556
▁heck	-11.7556
▁directories	-11.7556
▁damp	-11.7556
▁sneakers	-11.7556
scene	-11.7556
▁siow	-11.7557
ulian	-11.7557
▁apb	-11.7557
▁slate	-11.7558
▁chica	-11.7558
▁thai	-11.7558
▁amat	-11.7558
▁ahhh	-11.7559
▁snowman	-11.756
pirin	-11.756
▁satan	-11.7561
▁ninety	-11.7562
▁liu	-11.7563
▁zion	-11.7564
▁maat	-11.7564
▁trim	-11.7565
▁dickhead	-11.7565
▁ooo	-11.7565
▁snoop	-11.7565
▁mcki	-11.7567
▁combine	-11.7567
otine	-11.7567
▁wool	-11.7567
▁hous	-11.7568
▁dole	-11.7568
▁realistic	-11.7569
ovak	-11.757
▁allies	-11.757
▁mido	-11.757
▁lingui	-11.7571
nide	-11.7572
▁reside	-11.7575
▁hotline	-11.7575
▁devi	-11.7578
▁perv	-11.7578
▁artistic	-11.758
▁buckle	-11.758
▁dire	-11.7583
▁eliminate	-11.7583
▁jap	-11.7585
▁zoom	-11.7586
▁shackle	-11.7587
▁herb	-11.7588
▁cheerleader	-11.7588
▁comedy	-11.7594
xter	-11.7594
▁noc	-11.7602
▁tyro	-11.7605
rence	-11.7606
core	-11.7608
▁subway	-11.7611
ppa	-11.7614
▁sperm	-11.7619
▁impal	-11.762
nite	-11.7622
zzing	-11.7626
▁refugee	-11.7628
stand	-11.7628
▁fisc	-11.7632
▁digit	-11.7634
▁bandit	-11.7635
▁grit	-11.7636
▁pike	-11.7637
fli	-11.7645
▁intimidate	-11.765
▁pace	-11.7652
▁conclude	-11.7667
elimina	-11.769
umbles	-11.7691
▁coco	-11.7706
▁saysoe	-11.7715
▁overhear	-11.7741
code	-11.7748
ushi	-11.7754
▁dominate	-11.7765
▁zipper	-11.7773
anyon	-11.7779
laris	-11.7782
aux	-11.7818
ventilat	-11.7821
dom	-11.7832
▁virg	-11.7836
▁fleet	-11.784
▁wei	-11.7849
▁asia	-11.7881
▁swapp	-11.7901
▁hereb	-11.7904
genital	-11.7941
asis	-11.7968
brake	-11.7971
▁mitt	-11.7995
▁cau	-11.7997
▁reject	-11.8024
▁exceptional	-11.8029
▁supp	-11.8054
▁characterize	-11.8153
▁optimist	-11.8157
ulas	-11.823
storm	-11.8251
▁excla	-11.8318
alliance	-11.8331
saka	-11.8351
var	-11.8419
spice	-11.8604
about	-11.8636
▁ira	-11.8651
▁anhe	-11.8686
▁shal	-11.8706
equity	-11.8732
raff	-11.8742
▁demonstrat	-11.8882
take	-11.8901
base	-11.8963
ellen	-11.9116
ggie	-11.9126
▁viv	-11.9163
kar	-11.9183
▁abnormal	-11.9204
▁offth	-11.926
site	-11.9262
▁blan	-11.9343
aaa	-11.9417
▁sauc	-11.9441
quie	-11.9476
▁initiate	-11.9543
▁behav	-11.9606
apple	-11.9731
ider	-11.9992
rapping	-12.0011
lateral	-12.0174
lute	-12.0228
ease	-12.024
knob	-12.0268
cluded	-12.0271
mil	-12.032
▁physic	-12.0372
iddling	-12.0458
▁kidnap	-12.0481
sander	-12.0552
▁shriek	-12.0568
heard	-12.058
▁colleague	-12.0616
▁flea	-12.0617
▁yelp	-12.0619
▁euro	-12.062
▁glove	-12.062
▁dolphin	-12.0623
▁handcuff	-12.0624
▁inspir	-12.0625
▁pancake	-12.0626
▁ofth	-12.0662
hiro	-12.0664
nquire	-12.0676
mashed	-12.0686
▁origin	-12.0693
wick	-12.0701
kra	-12.0713
every	-12.0748
oshing	-12.0755
▁embarrass	-12.0773
▁receiv	-12.0773
quoi	-12.0778
▁nurs	-12.0787
▁arriv	-12.0794
sounding	-12.0799
▁introduc	-12.0807
▁nil	-12.0811
▁disgust	-12.0817
▁chirp	-12.0817
▁accomplish	-12.0825
▁suspend	-12.0825
parts	-12.0826
founder	-12.083
▁excite	-12.0835
▁approve	-12.0836
▁hitchhike	-12.0836
believe	-12.0839
smith	-12.084
earth	-12.0841
conscious	-12.0842
view	-12.0843
human	-12.0844
▁facilit	-12.0845
sleep	-12.0845
wealth	-12.0846
ultation	-12.0846
▁therap	-12.0846
privilege	-12.0846
culture	-12.0847
stream	-12.0847
judgment	-12.0847
logue	-12.0847
pipe	-12.0847
deserved	-12.0847
fried	-12.0847
jacket	-12.0847
american	-12.0847
plate	-12.0848
drum	-12.0848
together	-12.0848
glass	-12.0848
section	-12.0848
grab	-12.0848
kept	-12.0848
sweet	-12.0848
leave	-12.0849
▁positiv	-12.0849
bugs	-12.0849
▁constant	-12.085
film	-12.085
▁permanent	-12.0851
dead	-12.0853
▁inconvenien	-12.0855
▁famili	-12.0856
▁syria	-12.0857
▁acro	-12.0857
▁daria	-12.0858
▁astro	-12.0858
▁prosecut	-12.0858
bury	-12.086
shake	-12.086
▁officia	-12.0861
▁dancin	-12.0861
▁makin	-12.0862
▁livin	-12.0862
▁dyin	-12.0862
▁lightnin	-12.0862
value	-12.0862
▁symbol	-12.0863
▁convers	-12.0863
▁transmitt	-12.0863
▁scienti	-12.0864
bertie	-12.0864
▁festiv	-12.0865
▁neglect	-12.0865
▁accura	-12.0865
▁stoppin	-12.0865
▁fauc	-12.0865
▁differ	-12.0865
nternal	-12.0865
iculous	-12.0866
▁reproduc	-12.0866
▁basket	-12.0866
kilometer	-12.0866
volving	-12.0867
▁circumstan	-12.0867
▁tabansi	-12.0867
▁ahahahah	-12.0867
▁intrica	-12.0867
▁bernard	-12.0867
▁jacque	-12.0867
andmaude	-12.0867
circuit	-12.0867
compatibility	-12.0867
grandchildren	-12.0867
greatgrandmother	-12.0867
hearted	-12.0867
heyheyhey	-12.0867
january	-12.0867
mpathetic	-12.0867
voluntar	-12.0867
▁abraham	-12.0867
▁absolve	-12.0867
▁accommodat	-12.0867
▁acquire	-12.0867
▁acquisition	-12.0867
▁adjective	-12.0867
▁adjourn	-12.0867
▁admission	-12.0867
▁adversary	-12.0867
▁akilita	-12.0867
▁amanuensis	-12.0867
▁amazon	-12.0867
▁ambiguous	-12.0867
▁ambitious	-12.0867
▁amsterdam	-12.0867
▁amygdala	-12.0867
▁analysis	-12.0867
▁andouille	-12.0867
▁anguish	-12.0867
▁anomaleum	-12.0867
▁appliances	-12.0867
▁archdiocese	-12.0867
▁archivist	-12.0867
▁argentine	-12.0867
▁arguing	-12.0867
▁arizona	-12.0867
▁arrington	-12.0867
▁articulate	-12.0867
▁ashtray	-12.0867
▁aspergers	-12.0867
▁atlas	-12.0867
▁attagirl	-12.0867
▁attiliuccio	-12.0867
▁auditing	-12.0867
▁authorization	-12.0867
▁autograph	-12.0867
▁bacteri	-12.0867
▁bankrupt	-12.0867
▁banshees	-12.0867
▁baptist	-12.0867
▁benevolen	-12.0867
▁beware	-12.0867
▁bianchini	-12.0867
▁billionaire	-12.0867
▁birmingham	-12.0867
▁biscayne	-12.0867
▁blizzard	-12.0867
▁blomkvist	-12.0867
▁bloodhound	-12.0867
▁bonsoir	-12.0867
▁bourbon	-12.0867
▁breathtaking	-12.0867
▁brendon	-12.0867
▁briegleb	-12.0867
▁bullseye	-12.0867
▁burglar	-12.0867
▁bypass	-12.0867
▁cadillac	-12.0867
▁candlelight	-12.0867
▁carnegie	-12.0867
▁catastroph	-12.0867
▁catechism	-12.0867
▁caterpillar	-12.0867
▁cereal	-12.0867
▁cerveza	-12.0867
▁cervix	-12.0867
▁chauffeur	-12.0867
▁chingachgook	-12.0867
▁chivalry	-12.0867
▁chronic	-12.0867
▁ciccio	-12.0867
▁cieiia	-12.0867
▁clarifie	-12.0867
▁claudia	-12.0867
▁claustrophobic	-12.0867
▁clergy	-12.0867
▁clerq	-12.0867
▁cloying	-12.0867
▁collaborat	-12.0867
▁comparison	-12.0867
▁competent	-12.0867
▁comprend	-12.0867
▁comrades	-12.0867
▁condolences	-12.0867
▁congratulate	-12.0867
▁connecticut	-12.0867
▁conquests	-12.0867
▁conspirator	-12.0867
▁contagious	-12.0867
▁converge	-12.0867
▁cornstarch	-12.0867
▁coronavirus	-12.0867
▁cortisol	-12.0867
▁crayfish	-12.0867
▁credibility	-12.0867
▁crocodile	-12.0867
▁cynth	-12.0867
▁darwinism	-12.0867
▁debauchery	-12.0867
▁deceased	-12.0867
▁deceived	-12.0867
▁deception	-12.0867
▁dedication	-12.0867
▁delriego	-12.0867
▁demeanour	-12.0867
▁derouche	-12.0867
▁deserving	-12.0867
▁despair	-12.0867
▁desperation	-12.0867
▁detention	-12.0867
▁diastema	-12.0867
▁disclose	-12.0867
▁discrepanc	-12.0867
▁display	-12.0867
▁dododo	-12.0867
▁doiiars	-12.0867
▁dorchester	-12.0867
▁dynami	-12.0867
▁earthquake	-12.0867
▁educator	-12.0867
▁elaborate	-12.0867
▁embassy	-12.0867
▁encrypted	-12.0867
▁engrave	-12.0867
▁enrolled	-12.0867
▁ethiopian	-12.0867
▁euphemism	-12.0867
▁evangeli	-12.0867
▁evisync	-12.0867
▁excellenc	-12.0867
▁executin	-12.0867
▁execution	-12.0867
▁feinberg	-12.0867
▁ferocious	-12.0867
▁fertili	-12.0867
▁fewer	-12.0867
▁fifties	-12.0867
▁filpatrick	-12.0867
▁fingernails	-12.0867
▁fontenot	-12.0867
▁fountain	-12.0867
▁frequent	-12.0867
▁frustrating	-12.0867
▁gallagher	-12.0867
▁garrulous	-12.0867
▁geriatrics	-12.0867
▁glamour	-12.0867
▁gobshite	-12.0867
▁graciela	-12.0867
▁granite	-12.0867
▁gratitude	-12.0867
▁grizzley	-12.0867
▁guidance	-12.0867
▁gymnast	-12.0867
▁haddonfield	-12.0867
▁hairdresser	-12.0867
▁handicapped	-12.0867
▁haystack	-12.0867
▁hierarchy	-12.0867
▁hilarious	-12.0867
▁horizon	-12.0867
▁housewives	-12.0867
▁humanitarian	-12.0867
▁humidity	-12.0867
▁husselbeck	-12.0867
▁hutchins	-12.0867
▁hygiene	-12.0867
▁hygieni	-12.0867
▁hypothetical	-12.0867
▁iaughin	-12.0867
▁icebreaker	-12.0867
▁idolater	-12.0867
▁illiterate	-12.0867
▁immature	-12.0867
▁immunity	-12.0867
▁independence	-12.0867
▁industries	-12.0867
▁infidelit	-12.0867
▁infiltrate	-12.0867
▁ingredients	-12.0867
▁injustice	-12.0867
▁integrity	-12.0867
▁intrude	-12.0867
▁invalid	-12.0867
▁irrational	-12.0867
▁isoiation	-12.0867
▁isolation	-12.0867
▁jocasta	-12.0867
▁jocelyn	-12.0867
▁justify	-12.0867
▁kangaroo	-12.0867
▁ketamine	-12.0867
▁killcullen	-12.0867
▁knickers	-12.0867
▁kreplach	-12.0867
▁kripos	-12.0867
▁kupaka	-12.0867
▁landscape	-12.0867
▁lecler	-12.0867
▁liberty	-12.0867
▁macbeth	-12.0867
▁macneii	-12.0867
▁manslaughter	-12.0867
▁marathon	-12.0867
▁marjarie	-12.0867
▁marshmallow	-12.0867
▁maurice	-12.0867
▁mckenna	-12.0867
▁mcnamara	-12.0867
▁mechanism	-12.0867
▁mediocre	-12.0867
▁mesquita	-12.0867
▁metrorail	-12.0867
▁millennium	-12.0867
▁miscarriage	-12.0867
▁mitzvah	-12.0867
▁mnemosyne	-12.0867
▁mohican	-12.0867
▁motherinlaw	-12.0867
▁motorbike	-12.0867
▁moustache	-12.0867
▁multiply	-12.0867
▁mutiny	-12.0867
▁nazarbayev	-12.0867
▁nebraska	-12.0867
▁nectar	-12.0867
▁nennella	-12.0867
▁neutral	-12.0867
▁nitara	-12.0867
▁nostalgi	-12.0867
▁novril	-12.0867
▁nowadays	-12.0867
▁nuggets	-12.0867
▁october	-12.0867
▁offiicers	-12.0867
▁ontario	-12.0867
▁opposition	-12.0867
▁orchard	-12.0867
▁orchids	-12.0867
▁ordeal	-12.0867
▁orlando	-12.0867
▁outburst	-12.0867
▁outerbridge	-12.0867
▁overdue	-12.0867
▁overslept	-12.0867
▁overthrow	-12.0867
▁oxycontin	-12.0867
▁pajaros	-12.0867
▁paretti	-12.0867
▁patriarch	-12.0867
▁peerreviewed	-12.0867
▁penelope	-12.0867
▁penitentiary	-12.0867
▁pentagon	-12.0867
▁perspective	-12.0867
▁peruvian	-12.0867
▁pilgrim	-12.0867
▁pingpong	-12.0867
▁portraits	-12.0867
▁precision	-12.0867
▁presbyterian	-12.0867
▁prognosis	-12.0867
▁pureblood	-12.0867
▁python	-12.0867
▁qualities	-12.0867
▁quatre	-12.0867
▁railroad	-12.0867
▁rambling	-12.0867
▁reagan	-12.0867
▁rectangle	-12.0867
▁redridge	-12.0867
▁reduction	-12.0867
▁reelection	-12.0867
▁reimburse	-12.0867
▁reinforcements	-12.0867
▁releasing	-12.0867
▁reproach	-12.0867
▁reservoirs	-12.0867
▁residue	-12.0867
▁revenue	-12.0867
▁sacrament	-12.0867
▁sacri	-12.0867
▁satisfied	-12.0867
▁scheindal	-12.0867
▁schizophreni	-12.0867
▁schnecken	-12.0867
▁scotland	-12.0867
▁scripture	-12.0867
▁seducti	-12.0867
▁seizure	-12.0867
▁selfrighteous	-12.0867
▁shrunk	-12.0867
▁silverware	-12.0867
▁sinclair	-12.0867
▁slovenia	-12.0867
▁sniggers	-12.0867
▁soprano	-12.0867
▁sought	-12.0867
▁staircase	-12.0867
▁stairwell	-12.0867
▁stavros	-12.0867
▁stockholders	-12.0867
▁storax	-12.0867
▁strawberries	-12.0867
▁stroehmann	-12.0867
▁stuart	-12.0867
▁subpoena	-12.0867
▁subsequent	-12.0867
▁suicidal	-12.0867
▁sunscreen	-12.0867
▁supermodel	-12.0867
▁surplus	-12.0867
▁surveillance	-12.0867
▁suspicion	-12.0867
▁swollen	-12.0867
▁sympatheco	-12.0867
▁sympathi	-12.0867
▁symptoms	-12.0867
▁syphilis	-12.0867
▁testified	-12.0867
▁ticktook	-12.0867
▁tokyo	-12.0867
▁tottenham	-12.0867
▁tramadol	-12.0867
▁tranquilizers	-12.0867
▁transcend	-12.0867
▁tribute	-12.0867
▁trophies	-12.0867
▁troubie	-12.0867
▁troupe	-12.0867
▁turgid	-12.0867
▁tuxedo	-12.0867
▁typewriter	-12.0867
▁undercover	-12.0867
▁undetect	-12.0867
▁unethical	-12.0867
▁unfamiliar	-12.0867
▁unprecedented	-12.0867
▁unreliable	-12.0867
▁vacuum	-12.0867
▁vampire	-12.0867
▁vegan	-12.0867
▁velocity	-12.0867
▁videotape	-12.0867
▁voodoo	-12.0867
▁vultures	-12.0867
▁wagner	-12.0867
▁wallbrook	-12.0867
▁watermelon	-12.0867
▁windthorne	-12.0867
▁wretched	-12.0867
▁yyeah	-12.0867
▁advocat	-12.0867
▁bleak	-12.0867
▁chomp	-12.0867
▁daydream	-12.0867
▁doodah	-12.0867
▁falcon	-12.0867
▁justjust	-12.0867
▁majesti	-12.0867
▁obliterat	-12.0867
▁plumber	-12.0867
▁plummet	-12.0867
▁rehabilitat	-12.0867
▁relocat	-12.0867
▁suppress	-12.0867
▁surpass	-12.0867
▁tailgate	-12.0867
▁triumph	-12.0867
▁unravel	-12.0867
▁ursula	-12.0867
▁absorb	-12.0867
▁airborne	-12.0867
▁aqui	-12.0867
▁astonish	-12.0867
▁autonom	-12.0867
▁baldwin	-12.0867
▁balham	-12.0867
▁barbaric	-12.0867
▁behold	-12.0867
▁belize	-12.0867
▁butler	-12.0867
▁cassette	-12.0867
▁catfish	-12.0867
▁charities	-12.0867
▁chastise	-12.0867
▁chirring	-12.0867
▁compress	-12.0867
▁cushion	-12.0867
▁descend	-12.0867
▁germs	-12.0867
▁ghhol	-12.0867
▁goldfish	-12.0867
▁heartbreak	-12.0867
▁inflict	-12.0867
▁intrigu	-12.0867
▁kintry	-12.0867
▁klick	-12.0867
▁larynx	-12.0867
▁midterms	-12.0867
▁mumbling	-12.0867
▁nurtur	-12.0867
▁redistribut	-12.0867
▁renoir	-12.0867
▁revisit	-12.0867
▁revoir	-12.0867
▁salvage	-12.0867
▁saudi	-12.0867
▁senile	-12.0867
▁shudder	-12.0867
▁solicit	-12.0867
▁sorrow	-12.0867
▁spinach	-12.0867
▁sprung	-12.0867
▁striking	-12.0867
▁tennessee	-12.0867
▁trivial	-12.0867
▁yakov	-12.0867
monition	-12.0867
tacles	-12.0867
▁amazed	-12.0867
▁branch	-12.0867
▁bulk	-12.0867
▁chapstick	-12.0867
▁cheverus	-12.0867
▁civic	-12.0867
▁combination	-12.0867
▁crucial	-12.0867
▁demir	-12.0867
▁depriv	-12.0867
▁eiectr	-12.0867
▁embezzl	-12.0867
▁filter	-12.0867
▁fudge	-12.0867
▁gesture	-12.0867
▁lchaim	-12.0867
▁libby	-12.0867
▁perverse	-12.0867
▁pitiful	-12.0867
▁plymouth	-12.0867
▁puberty	-12.0867
▁reliable	-12.0867
▁sindell	-12.0867
▁summoned	-12.0867
▁twanging	-12.0867
▁widow	-12.0867
▁wisdom	-12.0867
ectomy	-12.0867
▁barlow	-12.0867
▁bihan	-12.0867
▁bisset	-12.0867
▁conspir	-12.0867
▁darius	-12.0867
▁doodle	-12.0867
▁duplicat	-12.0867
▁fishbein	-12.0867
▁freelance	-12.0867
▁friggin	-12.0867
▁grail	-12.0867
▁mikie	-12.0867
▁mortar	-12.0867
▁postpone	-12.0867
▁pumpkin	-12.0867
▁revelation	-12.0867
▁soothe	-12.0867
▁wifi	-12.0867
▁chopstick	-12.0867
▁erotic	-12.0867
▁feud	-12.0867
▁gulp	-12.0867
▁habla	-12.0867
▁marvel	-12.0867
▁strut	-12.0867
▁carrots	-12.0867
▁edison	-12.0867
▁foureyes	-12.0867
▁georgette	-12.0867
▁iisten	-12.0867
▁mopey	-12.0867
▁oath	-12.0867
▁sydney	-12.0867
▁statute	-12.0867
▁belgi	-12.0867
▁cohen	-12.0867
▁colony	-12.0867
▁duration	-12.0867
▁fierce	-12.0867
▁forsake	-12.0867
▁francais	-12.0867
▁gator	-12.0867
▁sieep	-12.0867
▁thundercl	-12.0867
mika	-12.0867
▁blowjobs	-12.0867
▁keaty	-12.0867
▁middie	-12.0867
▁ryder	-12.0867
▁variable	-12.0867
▁booga	-12.0867
▁ciear	-12.0867
▁conceal	-12.0867
▁lesek	-12.0867
▁restoration	-12.0867
▁throne	-12.0867
meyer	-12.0867
▁array	-12.0867
▁rinse	-12.0867
▁wacko	-12.0867
ombre	-12.0867
▁cuputovati	-12.0867
▁slices	-12.0867
▁sanctuar	-12.0867
▁twirl	-12.0867
▁douglas	-12.0867
▁imminent	-12.0867
▁rikers	-12.0867
▁slammed	-12.0867
▁antiques	-12.0867
compatible	-12.0867
quisit	-12.0867
▁apprais	-12.0867
▁housekeeper	-12.0867
▁awaits	-12.0867
▁oversight	-12.0867
closure	-12.0867
▁conleywhite	-12.0867
▁stoie	-12.0867
▁monologu	-12.0867
scrupu	-12.0867
▁subaru	-12.0867
▁hasashi	-12.0867
▁panei	-12.0867
▁requirements	-12.0867
▁sensor	-12.0867
▁noticing	-12.0867
▁placing	-12.0867
nelli	-12.0867
▁iraq	-12.0867
▁ernie	-12.0867
▁fussing	-12.0867
▁gorilla	-12.0867
▁sensing	-12.0867
▁diane	-12.0867
▁barricade	-12.0867
▁calculations	-12.0867
▁brundy	-12.0867
▁eighteen	-12.0867
▁fiona	-12.0867
▁gaming	-12.0867
▁fooi	-12.0867
▁yoona	-12.0867
▁hagen	-12.0867
▁regal	-12.0867
▁tiptoe	-12.0867
▁whitford	-12.0867
abroad	-12.0867
▁commandeer	-12.0867
▁meronym	-12.0867
▁revolt	-12.0867
▁serra	-12.0867
▁yoga	-12.0867
easurable	-12.0867
▁repay	-12.0867
▁consolidat	-12.0867
▁jensen	-12.0867
▁oxford	-12.0867
▁collarbone	-12.0867
▁beret	-12.0867
▁solitude	-12.0867
▁goddess	-12.0867
▁evasion	-12.0867
▁sincerely	-12.0867
▁dosage	-12.0867
▁fyi	-12.0867
▁litres	-12.0867
▁salute	-12.0867
▁crazies	-12.0867
▁maternal	-12.0867
▁application	-12.0867
▁freddie	-12.0867
ignon	-12.0867
▁asph	-12.0867
▁negligence	-12.0867
▁slicing	-12.0867
▁yourseif	-12.0867
▁shady	-12.0867
▁titans	-12.0867
▁curtis	-12.0867
▁scram	-12.0868
▁maggot	-12.0868
▁skimming	-12.0868
▁gabrielle	-12.0868
▁menacing	-12.0868
▁midwest	-12.0868
▁bandages	-12.0868
▁aero	-12.0868
▁babbl	-12.0868
▁lndig	-12.0868
▁hernia	-12.0868
▁rumour	-12.0868
▁zebra	-12.0868
▁skiing	-12.0868
▁stifl	-12.0868
▁kinderman	-12.0868
▁reproduction	-12.0868
▁intercept	-12.0868
▁lumin	-12.0868
▁biue	-12.0868
▁yasser	-12.0868
▁beneficiary	-12.0868
▁morris	-12.0868
▁sonnet	-12.0868
▁formalities	-12.0868
▁gentile	-12.0868
▁vigilant	-12.0868
▁notify	-12.0868
▁sodomized	-12.0868
▁catalogue	-12.0868
▁statistic	-12.0868
▁clunk	-12.0868
▁funky	-12.0868
▁squall	-12.0868
▁bisexual	-12.0868
▁jonjo	-12.0868
▁stefanos	-12.0868
▁withst	-12.0868
▁bootleg	-12.0868
▁constantine	-12.0868
cogniti	-12.0868
▁drape	-12.0868
▁lilly	-12.0868
mbour	-12.0868
▁fraterni	-12.0868
▁vivid	-12.0868
▁zachary	-12.0869
quito	-12.0869
▁colonies	-12.0869
▁upgrad	-12.0869
▁locksmith	-12.0869
▁podium	-12.0869
▁thirtytwo	-12.0869
▁earliest	-12.0869
▁quake	-12.0869
▁accusations	-12.0869
▁immigrants	-12.0869
▁reassur	-12.0869
▁stallone	-12.0869
shalom	-12.0869
▁leslie	-12.0869
▁escaping	-12.0869
▁harlot	-12.0869
▁ladder	-12.0869
▁appall	-12.0869
▁bracelet	-12.0869
▁druot	-12.0869
▁saliva	-12.0869
▁houston	-12.0869
▁tarr	-12.0869
▁henley	-12.0869
▁skank	-12.0869
▁bicke	-12.0869
▁allright	-12.0869
▁labour	-12.0869
▁arsehole	-12.0869
ophag	-12.0869
▁senor	-12.087
▁excitement	-12.087
▁nerd	-12.087
▁zeke	-12.087
▁derby	-12.087
▁tangle	-12.087
▁limitations	-12.087
▁bidder	-12.087
▁sebbo	-12.087
▁preach	-12.087
▁loosing	-12.087
chester	-12.0871
▁tutor	-12.0871
▁shiver	-12.0871
▁tatin	-12.0871
▁elena	-12.0871
▁iying	-12.0871
▁wellbeing	-12.0871
▁whatshis	-12.0871
▁pillar	-12.0872
fathom	-12.0872
▁raffl	-12.0872
rseif	-12.0872
trombo	-12.0872
▁absent	-12.0872
▁scarlet	-12.0872
▁shrine	-12.0872
▁bummer	-12.0873
▁restraints	-12.0873
▁splice	-12.0873
▁toad	-12.0873
▁ambi	-12.0873
▁cooperating	-12.0873
▁pegged	-12.0874
▁comedian	-12.0874
▁subtit	-12.0874
▁casa	-12.0874
petition	-12.0874
▁horri	-12.0874
▁cube	-12.0874
▁lurk	-12.0874
▁jules	-12.0875
▁grease	-12.0875
▁ingest	-12.0875
▁elke	-12.0875
▁liif	-12.0876
▁liking	-12.0876
▁blaze	-12.0876
nthrop	-12.0876
▁canai	-12.0877
▁pantyho	-12.0877
▁repent	-12.0878
▁endorse	-12.0878
igious	-12.0878
arran	-12.0879
worthy	-12.0879
ternity	-12.0879
ential	-12.0879
▁babysit	-12.0879
▁sheba	-12.088
▁butterfl	-12.0881
tolerabl	-12.0882
▁visa	-12.0883
rimba	-12.0884
▁visc	-12.0886
▁urina	-12.0886
▁impose	-12.0887
▁cruei	-12.0889
bernat	-12.089
▁semina	-12.089
opulation	-12.0892
▁bribe	-12.0895
▁garne	-12.0895
istress	-12.0897
cifi	-12.0898
▁rasp	-12.0904
trial	-12.0904
orky	-12.0906
▁douse	-12.0908
▁marina	-12.0908
rinth	-12.091
▁undercook	-12.0913
▁gibb	-12.0914
demonstrations	-12.0915
jerk	-12.0917
▁luda	-12.0922
tzger	-12.0927
article	-12.0935
▁brews	-12.0936
▁psychotherap	-12.0941
etera	-12.0943
flat	-12.0949
▁galleri	-12.095
cinna	-12.0954
skinned	-12.0958
zzo	-12.096
▁raisin	-12.0975
▁litera	-12.0978
loft	-12.0978
▁qualif	-12.098
▁admin	-12.1006
▁mangle	-12.1018
▁aaaah	-12.1073
rried	-12.1092
▁sedat	-12.1123
pulsiv	-12.1128
▁conc	-12.1129
▁exclud	-12.1216
semblance	-12.1216
▁surge	-12.1229
▁hilt	-12.1251
fashionable	-12.1264
▁extract	-12.1266
▁milli	-12.1272
▁insta	-12.1337
before	-12.1449
▁hinge	-12.1486
▁assassinat	-12.1506
▁snoo	-12.1516
▁isl	-12.1587
▁scr	-12.1613
dante	-12.1717
▁fock	-12.1734
▁prioriti	-12.2192
alcoholic	-12.2219
▁messag	-12.2258
▁bulldo	-12.2292
▁abnormalit	-12.2858
▁coincid	-12.29
indication	-12.2926
▁issu	-12.2956
defined	-12.3008
quality	-12.3062
▁instruct	-12.3116
▁vindic	-12.3202
▁strat	-12.3263
▁arrang	-12.3432
eels	-12.3635
tril	-12.3734
▁embrac	-12.3829
▁erect	-12.389
▁stimul	-12.4038
imaginable	-12.4505
▁optimis	-12.4577
▁irre	-12.4593
printed	-12.4667
whacked	-12.4698
dozer	-12.4987
urname	-12.5048
▁doubl	-12.5176
vated	-12.5217
fulfilled	-12.5244
▁migra	-12.5297
iatric	-12.5344
piain	-12.5396
▁troubl	-12.5471
dressed	-12.5474
chambers	-12.5561
▁coordinate	-12.5621
▁thistle	-12.5621
▁requir	-12.5636
▁refuge	-12.5656
therapy	-12.5728
▁cheerlead	-12.5745
cooked	-12.5772
▁cesar	-12.5774
▁interfer	-12.5787
▁irrita	-12.579
▁updat	-12.5798
ibberi	-12.5803
▁circl	-12.5803
▁encourag	-12.5806
▁abduct	-12.5825
earned	-12.5826
▁machin	-12.5829
