<unk>	0
<s>	0
</s>	0
s	-3.93634
▁im	-4.45798
▁dont	-4.52698
▁know	-4.69122
▁get	-4.73186
▁go	-4.7375
▁oh	-4.73795
▁right	-4.79692
▁come	-4.8091
▁well	-4.89988
▁like	-4.9297
▁got	-4.95318
▁youre	-5.0139
▁yeah	-5.09238
▁thats	-5.09565
▁one	-5.1343
▁good	-5.17819
▁na	-5.29941
▁see	-5.30303
▁okay	-5.32121
▁hey	-5.34564
ing	-5.37381
▁yes	-5.37637
▁think	-5.39451
▁look	-5.44436
▁want	-5.45796
▁back	-5.46541
▁gon	-5.53921
▁going	-5.54339
▁time	-5.59156
▁us	-5.59221
▁hes	-5.59482
▁ill	-5.61219
▁take	-5.63896
▁man	-5.65877
▁cant	-5.67603
▁really	-5.79268
▁lets	-5.80426
▁say	-5.84415
ed	-5.84754
▁could	-5.85134
▁never	-5.86737
▁little	-5.87182
▁way	-5.90073
▁would	-5.90601
▁something	-5.91455
▁mr	-5.95157
▁tell	-5.96332
▁need	-5.98698
▁thank	-5.99366
▁make	-6.00179
▁ive	-6.04975
▁mean	-6.05793
▁please	-6.06908
▁sorry	-6.08422
▁whats	-6.08454
▁let	-6.0869
▁love	-6.10012
▁wait	-6.14609
▁give	-6.15317
▁theres	-6.16024
▁didnt	-6.16202
▁	-6.17107
▁sir	-6.20502
d	-6.22251
▁thing	-6.23277
▁two	-6.25088
▁sure	-6.27128
▁day	-6.31359
▁help	-6.31785
▁l	-6.32807
y	-6.34744
▁great	-6.35132
▁said	-6.35572
▁much	-6.37173
▁stop	-6.37498
▁home	-6.4152
▁theyre	-6.41521
▁guys	-6.423
▁must	-6.45268
▁nothing	-6.4607
▁night	-6.47279
▁dad	-6.47993
▁work	-6.48249
▁first	-6.48503
▁even	-6.50947
▁big	-6.51323
▁people	-6.51844
▁away	-6.52189
▁better	-6.52871
▁life	-6.53206
▁uh	-6.53357
▁find	-6.55355
▁new	-6.55852
▁thought	-6.56734
▁maybe	-6.57439
▁hi	-6.57668
▁keep	-6.58166
▁around	-6.58884
▁still	-6.59249
▁put	-6.59605
▁shes	-6.59644
▁anything	-6.60168
▁call	-6.61603
▁boy	-6.61616
▁ever	-6.61859
▁listen	-6.62509
ly	-6.6274
▁god	-6.63302
▁nice	-6.64896
▁believe	-6.65664
▁always	-6.67245
▁name	-6.68958
▁hello	-6.69495
▁id	-6.69873
▁last	-6.70365
▁old	-6.71993
▁youve	-6.72121
▁feel	-6.72383
▁everything	-6.73134
▁baby	-6.74885
▁wont	-6.75076
▁kind	-6.75287
▁ta	-6.7659
▁place	-6.76876
▁world	-6.77076
▁play	-6.77211
▁three	-6.78124
▁talk	-6.78644
▁youll	-6.79236
▁father	-6.79393
▁things	-6.79478
▁stay	-6.79588
▁whoa	-6.79909
▁long	-6.80679
▁doesnt	-6.81038
▁years	-6.83126
▁coming	-6.83812
▁mom	-6.84946
▁huh	-6.8522
▁every	-6.85429
▁isnt	-6.85457
▁hold	-6.85954
e	-6.85977
▁thanks	-6.86207
▁bad	-6.86547
▁ready	-6.8672
▁miss	-6.88102
▁fine	-6.89353
er	-6.89452
▁told	-6.90082
▁house	-6.90095
▁may	-6.91526
▁best	-6.9236
▁leave	-6.92458
▁made	-6.93398
▁try	-6.94415
▁done	-6.95196
▁hell	-6.95396
▁remember	-6.95416
▁hear	-6.96688
▁morning	-6.96776
▁show	-6.97085
▁wrong	-6.9731
▁course	-6.9758
▁lot	-6.97828
▁might	-6.97847
▁guy	-6.99188
▁girl	-7.00023
▁wan	-7.00461
▁mind	-7.01972
▁real	-7.02063
▁enough	-7.02531
▁today	-7.03098
▁understand	-7.04035
▁next	-7.04238
▁left	-7.04994
▁run	-7.0598
▁talking	-7.06883
▁kids	-7.06954
▁move	-7.07066
▁weve	-7.07744
▁job	-7.07897
▁school	-7.08335
t	-7.08551
▁watch	-7.10301
▁mother	-7.11599
▁car	-7.13928
▁jack	-7.16072
▁excuse	-7.16106
▁guess	-7.16106
▁another	-7.1643
▁tonight	-7.16754
▁ok	-7.19288
▁honey	-7.19725
▁care	-7.20531
▁coach	-7.20871
▁game	-7.21188
▁whole	-7.21757
▁looking	-7.22794
▁everybody	-7.23133
▁getting	-7.23297
▁hard	-7.23349
▁came	-7.23767
▁money	-7.2383
▁woman	-7.2453
▁room	-7.25781
▁son	-7.25787
▁family	-7.25945
▁turn	-7.25957
▁saw	-7.26662
▁minute	-7.27259
▁tomorrow	-7.27743
▁wouldnt	-7.27826
▁trying	-7.2803
▁george	-7.28107
▁ask	-7.28816
▁happened	-7.2903
▁use	-7.2908
▁heard	-7.29113
▁wanted	-7.29184
▁second	-7.29338
▁meet	-7.2948
▁pretty	-7.29578
▁seen	-7.29618
▁together	-7.29945
▁dear	-7.30287
▁aint	-7.31068
▁found	-7.31387
▁team	-7.31799
▁matter	-7.32162
▁idea	-7.32549
▁ah	-7.32586
▁live	-7.32703
▁bring	-7.32838
▁wasnt	-7.32958
a	-7.33006
▁hope	-7.33525
▁dead	-7.33576
▁start	-7.34762
▁door	-7.3571
r	-7.35802
ve	-7.36172
▁whos	-7.37254
▁else	-7.38059
▁knew	-7.38461
▁without	-7.39272
▁head	-7.41083
▁since	-7.41726
▁yet	-7.41753
▁lost	-7.42172
▁water	-7.42292
▁late	-7.42388
▁worry	-7.42514
▁open	-7.43695
▁havent	-7.43856
o	-7.44065
▁easy	-7.44212
▁beautiful	-7.45144
▁alone	-7.45146
▁lucky	-7.45232
▁friend	-7.45239
▁boys	-7.46136
▁true	-7.46456
▁win	-7.46492
▁playing	-7.4694
▁many	-7.4708
▁everyone	-7.47145
▁five	-7.47342
▁children	-7.4777
▁actually	-7.47777
▁kid	-7.48072
▁kill	-7.48099
▁end	-7.48644
▁shall	-7.48653
▁crazy	-7.48661
▁went	-7.48662
▁gone	-7.48978
▁looks	-7.49568
n	-7.49637
▁friends	-7.49768
▁music	-7.50004
▁sit	-7.50403
▁men	-7.50859
▁em	-7.50999
▁cause	-7.51174
in	-7.5141
▁ha	-7.52417
▁hit	-7.5242
▁year	-7.54152
▁someone	-7.546
▁face	-7.54626
▁used	-7.55053
▁four	-7.55121
▁welcome	-7.55129
▁happy	-7.55129
▁forget	-7.55131
▁fun	-7.55166
▁stuff	-7.55306
▁eat	-7.55477
▁afraid	-7.55608
▁fight	-7.5588
▁took	-7.56089
▁set	-7.56571
▁already	-7.56572
▁far	-7.56606
▁wow	-7.57061
▁brother	-7.57565
▁says	-7.57633
▁wish	-7.57989
▁hand	-7.58904
▁couldnt	-7.59143
▁check	-7.59857
▁power	-7.60586
▁close	-7.6066
▁business	-7.60999
▁called	-7.61304
▁break	-7.61639
▁word	-7.61653
es	-7.61766
▁part	-7.62484
▁laughing	-7.62707
▁king	-7.6275
▁cool	-7.62829
▁quite	-7.63125
▁days	-7.63543
i	-7.63606
al	-7.63739
▁youd	-7.64127
▁problem	-7.64264
▁change	-7.64581
▁eyes	-7.64583
▁dream	-7.6531
▁dance	-7.65609
▁hmm	-7.65694
▁hands	-7.66163
▁chance	-7.66933
▁number	-7.67741
▁shut	-7.67825
▁heart	-7.67955
▁somebody	-7.68927
▁side	-7.68942
▁lm	-7.69314
▁young	-7.69337
▁fire	-7.69516
▁happen	-7.69545
▁save	-7.70397
▁mary	-7.71159
▁supposed	-7.71246
▁red	-7.71408
▁stand	-7.7152
▁pick	-7.72061
▁anyway	-7.7227
▁minutes	-7.72463
▁charlie	-7.72838
▁blue	-7.72843
▁exactly	-7.73422
▁walk	-7.73845
▁hurt	-7.73848
▁special	-7.73972
▁anyone	-7.73984
▁saying	-7.74773
▁free	-7.75094
▁later	-7.75312
▁bit	-7.75357
▁thinking	-7.75382
▁line	-7.75638
▁arent	-7.75729
▁plan	-7.76176
▁hurry	-7.76912
▁probably	-7.77503
▁wife	-7.7751
▁perfect	-7.77933
▁mine	-7.78147
▁taking	-7.78716
▁bye	-7.79315
▁trouble	-7.79751
▁rest	-7.7999
▁six	-7.80515
▁dog	-7.80848
▁ybi	-7.80953
▁working	-7.81052
▁goodbye	-7.81151
▁high	-7.81498
▁nobody	-7.81774
▁soon	-7.82297
▁lose	-7.8233
g	-7.82363
▁sighs	-7.82397
▁whatever	-7.82397
▁pay	-7.82503
▁ball	-7.82944
▁um	-7.83095
▁die	-7.83253
▁cut	-7.83551
▁wheres	-7.83581
▁read	-7.83657
▁different	-7.83659
▁inside	-7.83662
▁hate	-7.84101
▁fast	-7.84138
▁point	-7.8423
▁light	-7.84636
▁hair	-7.84756
▁married	-7.8494
▁city	-7.85596
▁hot	-7.85647
▁smurf	-7.86061
▁ago	-7.8623
▁almost	-7.86232
▁ahead	-7.86887
▁moment	-7.87579
▁gasps	-7.8772
▁party	-7.8777
▁sleep	-7.88177
▁half	-7.88188
▁though	-7.89452
▁phone	-7.89546
▁running	-7.89555
▁daddy	-7.89586
▁bed	-7.89831
▁goes	-7.90017
▁funny	-7.90223
▁trust	-7.90892
▁least	-7.90899
▁lady	-7.91611
▁feet	-7.92278
▁hang	-7.92511
▁important	-7.9297
▁joe	-7.93532
▁un	-7.93567
▁means	-7.9361
▁sweet	-7.93636
▁girls	-7.9438
▁gave	-7.94387
▁clear	-7.95048
▁anybody	-7.95081
▁wonderful	-7.95123
▁story	-7.95814
▁deal	-7.95959
▁heres	-7.95986
l	-7.96103
▁fred	-7.9653
▁food	-7.96651
▁ladies	-7.97244
▁damn	-7.97664
▁makes	-7.97928
▁chuckles	-7.98063
▁fly	-7.98295
▁times	-7.98295
▁follow	-7.98678
▁parents	-7.98887
▁town	-7.98894
▁wants	-7.99047
▁behind	-7.99445
▁front	-7.99448
▁week	-7.99745
▁earth	-7.99773
▁speak	-7.99878
▁safe	-7.99978
▁also	-8.00192
▁body	-8.00199
▁catch	-8.00484
▁laughs	-8.01096
ie	-8.01277
▁along	-8.01697
▁theyll	-8.01701
▁top	-8.01754
▁telling	-8.02286
▁bear	-8.02632
▁lord	-8.03527
▁question	-8.03624
▁full	-8.038
▁waiting	-8.0399
▁ride	-8.03996
▁s	-8.04182
▁drink	-8.04317
▁ooh	-8.04549
▁john	-8.0478
▁perhaps	-8.0479
▁step	-8.05486
▁christmas	-8.05578
▁pull	-8.05601
▁horse	-8.05621
or	-8.05664
▁continues	-8.06228
▁dinner	-8.06363
▁country	-8.0638
▁ya	-8.06672
▁send	-8.07439
▁song	-8.0771
▁gentlemen	-8.07978
▁radio	-8.07979
▁ice	-8.07984
▁hours	-8.08157
▁shot	-8.08459
▁space	-8.08787
▁harry	-8.08791
▁making	-8.08796
▁comes	-8.09589
▁field	-8.0966
▁sometimes	-8.09992
▁quick	-8.10196
▁started	-8.10231
▁child	-8.10436
▁daughter	-8.10954
▁promise	-8.1107
est	-8.11186
▁couple	-8.11271
▁throw	-8.11273
▁till	-8.11277
▁careful	-8.11996
▁brought	-8.12958
▁weird	-8.13637
▁luck	-8.13638
▁ship	-8.1367
▁b	-8.13766
▁grunts	-8.13906
▁asked	-8.14493
▁serious	-8.1454
▁kidding	-8.14678
▁mama	-8.14694
▁re	-8.14907
p	-8.15189
c	-8.1534
▁hour	-8.15363
▁rock	-8.15498
▁captain	-8.15547
▁dr	-8.15614
▁order	-8.15935
▁drive	-8.1602
▁grand	-8.16306
▁strong	-8.16316
▁person	-8.16366
▁white	-8.16431
▁met	-8.1679
▁book	-8.17157
▁land	-8.17272
▁anymore	-8.17306
▁tried	-8.1733
▁buy	-8.18199
▁proud	-8.182
▁ernie	-8.18201
▁touch	-8.18256
▁shoot	-8.18313
▁control	-8.18843
▁news	-8.18996
▁air	-8.19099
▁outside	-8.19102
able	-8.19125
▁banks	-8.19134
▁bet	-8.19588
▁killed	-8.19692
▁human	-8.19868
▁scared	-8.20115
▁seem	-8.20688
▁piece	-8.20822
h	-8.21202
▁ow	-8.21373
▁war	-8.21396
▁answer	-8.2177
▁stupid	-8.21852
▁forever	-8.21853
▁alive	-8.21868
▁screaming	-8.21935
▁pass	-8.21997
▁cheering	-8.22001
▁beat	-8.22166
▁ducks	-8.22524
▁wonder	-8.22756
▁glad	-8.22787
▁football	-8.22789
▁moving	-8.2279
man	-8.23333
▁la	-8.23423
▁black	-8.23719
▁somewhere	-8.2373
▁fish	-8.23883
▁stick	-8.24094
▁th	-8.24314
▁lead	-8.24764
ers	-8.25097
▁general	-8.2553
▁fact	-8.2558
▁sounds	-8.25643
▁sound	-8.25801
▁living	-8.26618
▁finally	-8.26659
▁sister	-8.27623
ic	-8.27673
▁kiss	-8.27748
ion	-8.284
▁class	-8.28497
▁straight	-8.28562
▁death	-8.28589
▁crowd	-8.29293
▁star	-8.29435
▁magic	-8.29521
▁amazing	-8.29586
▁itll	-8.29587
ll	-8.30344
▁case	-8.30447
▁papa	-8.30597
▁absolutely	-8.30611
f	-8.30758
▁eye	-8.30769
▁needs	-8.30791
▁able	-8.30842
▁ones	-8.30844
▁women	-8.31616
▁race	-8.31618
▁wake	-8.31638
▁blow	-8.32234
▁office	-8.32569
▁husband	-8.32729
▁secret	-8.32758
▁lovely	-8.32841
k	-8.32858
▁happens	-8.33173
▁island	-8.33689
▁wed	-8.33693
▁buddy	-8.33695
▁voice	-8.33772
▁seems	-8.33866
▁learn	-8.33882
▁jump	-8.3397
▁sea	-8.34107
▁wear	-8.34416
▁ring	-8.34626
▁small	-8.34632
▁scott	-8.34707
▁f	-8.34737
▁sick	-8.34739
▁north	-8.34741
▁cat	-8.35268
▁ten	-8.35517
▁super	-8.35758
▁english	-8.35777
▁either	-8.35805
▁sort	-8.35811
▁president	-8.35906
▁street	-8.35955
▁sing	-8.36052
▁sign	-8.36181
ar	-8.36265
▁theyve	-8.3688
▁maam	-8.36883
▁round	-8.3706
▁boat	-8.37091
▁cute	-8.37831
▁quit	-8.37838
▁police	-8.37936
▁shit	-8.37968
▁york	-8.37969
▁evening	-8.3881
▁suppose	-8.38869
▁camp	-8.39013
▁summer	-8.39057
▁fault	-8.39066
▁dangerous	-8.39072
▁past	-8.39093
▁clean	-8.39241
▁grandma	-8.39298
▁join	-8.39312
▁marshall	-8.40181
▁darling	-8.40202
▁reason	-8.40421
▁dreams	-8.40916
▁tough	-8.41188
▁short	-8.41191
▁eight	-8.41281
▁poor	-8.41309
▁shouldnt	-8.41311
▁act	-8.41607
▁whoo	-8.42216
▁c	-8.42416
m	-8.42549
▁simple	-8.42596
▁feeling	-8.43004
an	-8.43165
▁taken	-8.43356
▁smell	-8.43418
▁fear	-8.43493
▁seven	-8.43571
▁hows	-8.43587
en	-8.4361
▁handle	-8.44634
▁sense	-8.44699
▁de	-8.44892
▁queen	-8.45042
▁fix	-8.45129
▁buzz	-8.45286
on	-8.45857
▁bob	-8.45909
▁mmm	-8.4591
▁leaving	-8.45926
le	-8.45927
▁outta	-8.45931
▁road	-8.45931
▁wild	-8.45952
▁princess	-8.45963
▁groans	-8.46009
▁spend	-8.46028
▁surprise	-8.4607
▁present	-8.46266
▁soul	-8.46319
nt	-8.46588
us	-8.46723
▁return	-8.46821
▁cold	-8.47025
▁clumsy	-8.47117
▁mouth	-8.47123
▁sent	-8.47129
▁p	-8.47515
▁uncle	-8.47674
▁weeks	-8.47832
ies	-8.48523
▁marry	-8.49058
st	-8.49098
▁lts	-8.49307
▁happening	-8.49351
▁write	-8.49456
▁moon	-8.49537
▁kelly	-8.49549
▁hall	-8.4959
▁slow	-8.5001
▁drop	-8.50011
▁honor	-8.5047
▁loved	-8.50512
▁deep	-8.50534
▁train	-8.50602
▁knows	-8.50665
▁mad	-8.50721
▁felt	-8.50777
▁vince	-8.50777
▁hungry	-8.50778
b	-8.50836
▁mario	-8.50968
▁report	-8.51152
▁become	-8.51257
▁quiet	-8.51762
▁months	-8.51824
▁fair	-8.51827
▁strange	-8.52021
▁low	-8.52105
▁fall	-8.52114
▁army	-8.52151
▁finish	-8.52439
▁tree	-8.52599
▁wash	-8.52999
▁truth	-8.53292
▁grunting	-8.53325
▁busy	-8.53441
▁cover	-8.53526
▁park	-8.53695
▁juli	-8.54191
▁ground	-8.5427
▁shell	-8.54425
▁tight	-8.54437
▁georgie	-8.54573
▁future	-8.54574
▁smurfette	-8.54577
▁trip	-8.54841
▁died	-8.55165
▁window	-8.55202
▁mission	-8.55313
re	-8.55811
▁paddington	-8.55872
▁richard	-8.55876
▁giving	-8.55876
▁college	-8.55877
▁popper	-8.55877
▁kay	-8.55878
▁meant	-8.56835
▁words	-8.5692
▁smurfs	-8.57156
▁eating	-8.57171
▁others	-8.57188
▁attention	-8.57188
▁figure	-8.5765
▁doctor	-8.57873
▁forgive	-8.58441
▁gun	-8.58506
▁accident	-8.58514
▁dark	-8.58525
▁lives	-8.58616
▁hed	-8.58734
▁dress	-8.59029
▁less	-8.59114
▁michael	-8.59228
▁count	-8.59322
▁lunch	-8.59861
▁london	-8.59873
▁rather	-8.59874
▁nose	-8.59884
▁van	-8.59898
▁meeting	-8.60231
▁age	-8.60518
▁monster	-8.60632
▁middle	-8.61242
▁third	-8.61244
▁stuck	-8.61245
▁worse	-8.61246
▁known	-8.61309
▁grab	-8.61942
▁speaking	-8.62107
th	-8.6225
▁blood	-8.62459
▁entire	-8.62495
▁bryce	-8.62631
▁calm	-8.62639
▁aah	-8.62641
▁hide	-8.6267
z	-8.62835
ment	-8.62915
▁gosh	-8.62962
▁bird	-8.63077
▁bill	-8.63224
▁calling	-8.63319
ra	-8.63505
▁flying	-8.63524
▁carry	-8.63627
▁turned	-8.63777
▁ben	-8.63823
▁forgot	-8.64035
▁possible	-8.6404
▁upon	-8.64045
▁tired	-8.64047
▁rules	-8.64061
▁faster	-8.64267
▁nine	-8.64335
▁teach	-8.64873
▁push	-8.64931
▁pain	-8.65096
▁roll	-8.65213
▁born	-8.65355
▁wind	-8.65458
▁pleasure	-8.6547
▁josh	-8.65474
▁incredible	-8.65487
▁terrible	-8.6549
▁broken	-8.65512
▁bar	-8.65721
▁sun	-8.65742
▁mess	-8.65866
▁date	-8.65925
ch	-8.66073
▁expect	-8.66145
▁miles	-8.66291
▁officer	-8.66451
▁key	-8.66472
▁gets	-8.66641
▁w	-8.66682
▁hero	-8.66829
▁afternoon	-8.66918
▁gerry	-8.6692
▁quack	-8.66922
▁mommy	-8.66929
▁master	-8.66931
▁state	-8.67156
▁a	-8.67195
▁ho	-8.67221
▁changed	-8.67474
▁system	-8.67871
▁sell	-8.67928
▁standing	-8.68151
▁imagine	-8.68178
▁french	-8.68362
▁awesome	-8.68388
▁davis	-8.68388
▁dorothy	-8.68388
▁fantastic	-8.68388
▁history	-8.68388
▁station	-8.68399
▁boss	-8.68411
▁none	-8.68415
▁early	-8.68461
▁fool	-8.68544
up	-8.68641
▁asking	-8.68793
▁in	-8.68884
ity	-8.68951
▁longer	-8.69057
▁attack	-8.6906
▁g	-8.69138
▁suit	-8.69501
▁bus	-8.69526
▁worth	-8.6968
▁smart	-8.69772
w	-8.69897
▁sitting	-8.69926
▁hiro	-8.69971
▁kick	-8.70009
▁given	-8.70599
▁worked	-8.71049
▁match	-8.71344
▁caught	-8.71396
▁pardon	-8.71396
▁singing	-8.72067
▁wearing	-8.72074
▁knock	-8.72154
▁bag	-8.72367
▁mistake	-8.72411
▁brown	-8.72432
▁belong	-8.72505
▁spot	-8.72929
▁lucas	-8.72934
▁definitely	-8.72941
▁certainly	-8.73024
▁al	-8.7317
▁d	-8.73211
▁joke	-8.739
▁charge	-8.74001
▁works	-8.74081
▁lie	-8.74302
▁jim	-8.74467
▁grinch	-8.74497
▁arthur	-8.74498
▁kept	-8.74498
▁tv	-8.74504
▁completely	-8.74592
▁ass	-8.74763
▁box	-8.75509
▁club	-8.75655
▁machine	-8.75825
▁birthday	-8.76085
▁bunch	-8.76085
▁holy	-8.7623
▁seconds	-8.76483
u	-8.76584
▁laugh	-8.76601
▁played	-8.76609
▁protect	-8.76861
▁corner	-8.7743
▁mike	-8.77516
▁frank	-8.77558
▁eric	-8.77575
▁brothers	-8.7763
▁jacques	-8.77697
▁cream	-8.77698
▁hut	-8.77728
▁wedding	-8.77754
▁enjoy	-8.78531
▁watching	-8.78567
▁spirit	-8.78945
▁hat	-8.79083
▁near	-8.79087
ness	-8.79196
▁steve	-8.79283
▁company	-8.79337
▁yesterday	-8.79342
▁totally	-8.79395
te	-8.8
▁card	-8.8013
▁explain	-8.80292
▁t	-8.80502
▁horn	-8.80529
▁build	-8.80534
▁brain	-8.80563
▁favorite	-8.80568
▁dude	-8.80652
▁picture	-8.80718
▁animal	-8.80728
▁defense	-8.81003
▁green	-8.81008
▁doubt	-8.81034
▁quickly	-8.81274
ry	-8.81968
▁legs	-8.82375
▁i	-8.82627
▁anywhere	-8.82698
▁baymax	-8.82698
▁jesus	-8.82704
▁clothes	-8.82705
▁hotel	-8.82724
▁tall	-8.82775
▁named	-8.82839
to	-8.8291
▁relax	-8.84097
▁spell	-8.841
▁service	-8.84105
▁table	-8.84174
▁champion	-8.84202
▁fighting	-8.84374
▁american	-8.84385
▁marina	-8.84424
▁sweetheart	-8.84424
▁unless	-8.84455
▁grow	-8.84626
▁greatest	-8.84789
▁saved	-8.8505
▁e	-8.85076
▁owe	-8.85383
▁share	-8.85971
▁arm	-8.85987
▁nervous	-8.86032
▁except	-8.8615
▁river	-8.86173
▁across	-8.86176
▁congratulations	-8.86176
▁instead	-8.86176
▁werent	-8.86176
▁hasnt	-8.86178
▁message	-8.86189
▁map	-8.862
▁ray	-8.86229
▁missed	-8.8652
▁learned	-8.86674
▁be	-8.86775
▁rich	-8.86814
▁da	-8.8693
▁bank	-8.87258
▁takes	-8.87515
▁warm	-8.87613
▁million	-8.87682
▁area	-8.87721
▁wall	-8.87868
▁major	-8.87962
▁nando	-8.87963
▁extra	-8.87963
▁goddamn	-8.87963
▁forward	-8.87969
▁looked	-8.87983
▁jamie	-8.88013
▁building	-8.88213
▁bomb	-8.88623
▁test	-8.88874
▁guard	-8.89112
▁lock	-8.89455
▁reach	-8.895
▁sword	-8.89576
▁double	-8.89579
▁cake	-8.89608
▁whistle	-8.89611
▁tea	-8.89664
▁prince	-8.89718
▁coffee	-8.8978
▁neither	-8.8978
▁chief	-8.89781
▁swear	-8.89781
▁breakfast	-8.89783
▁speed	-8.8979
▁jane	-8.89794
▁foot	-8.89809
▁bell	-8.89928
▁promised	-8.90221
▁screams	-8.90459
▁m	-8.90931
▁dads	-8.91178
▁respect	-8.91244
▁choice	-8.91385
▁normal	-8.9151
▁holding	-8.9155
▁broke	-8.91581
▁henry	-8.91635
▁mmhmm	-8.91639
▁amen	-8.91647
▁yep	-8.91649
▁action	-8.9169
▁stopped	-8.91702
▁west	-8.9171
▁commander	-8.9178
▁chattering	-8.91787
▁law	-8.92121
▁questions	-8.92577
▁horses	-8.92923
▁destroy	-8.92969
less	-8.93182
la	-8.93227
▁group	-8.9335
▁realize	-8.93352
▁needed	-8.93357
▁sad	-8.93418
▁ivan	-8.93513
▁launch	-8.93525
▁shh	-8.93525
▁thunder	-8.93533
▁fat	-8.93545
▁eh	-8.93738
▁con	-8.93772
▁rule	-8.93953
ter	-8.94469
▁engine	-8.94753
▁breath	-8.94955
rs	-8.95095
▁escape	-8.95262
▁walter	-8.95269
▁fell	-8.9537
▁william	-8.95382
▁sake	-8.95398
▁paul	-8.95415
▁shrek	-8.95442
▁saturday	-8.95442
▁kitchen	-8.95442
▁rayburn	-8.95443
▁vote	-8.95464
ting	-8.95466
▁single	-8.95493
▁artie	-8.95535
▁besides	-8.96002
▁names	-8.96529
▁command	-8.9656
▁board	-8.96971
▁rings	-8.97086
▁eggs	-8.9717
▁personal	-8.97359
▁aunt	-8.97388
▁artemis	-8.97403
▁napoleon	-8.97403
▁worried	-8.97403
▁terrific	-8.97403
▁village	-8.97403
▁moses	-8.97404
▁mumble	-8.97405
▁beach	-8.97406
▁emergency	-8.97412
▁yall	-8.97465
▁interesting	-8.97618
▁seat	-8.97739
▁dare	-8.98232
ist	-8.9826
▁south	-8.985
▁plays	-8.99007
▁art	-8.99214
▁spanish	-8.99403
▁evil	-8.99405
▁sophie	-8.99406
▁worst	-8.9941
▁position	-8.99427
▁stoker	-8.99447
▁n	-8.99636
▁program	-8.99654
▁starting	-8.99838
▁finished	-8.99882
▁goodness	-9.00103
se	-9.00207
▁cross	-9.00645
▁agree	-9.01217
▁score	-9.01319
▁christ	-9.01435
▁favor	-9.01439
▁kingdom	-9.01444
▁difference	-9.01444
▁goldberg	-9.01445
▁meat	-9.01446
▁stone	-9.01515
▁thousand	-9.01534
▁rocky	-9.01862
▁east	-9.01971
▁ohh	-9.02025
▁talked	-9.02089
▁di	-9.02231
▁an	-9.02285
ne	-9.02606
▁cook	-9.02686
▁moved	-9.02852
▁carl	-9.02942
▁chicken	-9.03089
▁loud	-9.03226
▁mention	-9.03239
▁pal	-9.03263
ro	-9.03268
▁risk	-9.03361
▁tie	-9.03408
▁gargamel	-9.03527
▁somehow	-9.03527
▁universe	-9.03527
▁bunny	-9.03527
▁forest	-9.03538
▁heh	-9.03539
▁katherine	-9.03554
at	-9.03602
▁davey	-9.03659
▁putting	-9.03682
▁list	-9.03706
▁locked	-9.03864
et	-9.04077
▁seeing	-9.0412
▁ann	-9.04566
▁offer	-9.04948
▁visit	-9.05133
▁pop	-9.05639
▁steal	-9.0564
▁byebye	-9.05655
▁england	-9.05655
▁howd	-9.05655
▁weather	-9.05655
▁allison	-9.05656
▁enzo	-9.05656
▁lucy	-9.05657
▁paid	-9.05661
▁panting	-9.05694
▁purpose	-9.05728
▁barking	-9.05789
▁shouting	-9.05805
▁annie	-9.05832
ous	-9.05937
▁appreciate	-9.05998
▁lay	-9.0603
▁feels	-9.06159
▁stars	-9.06263
▁fathers	-9.06278
▁lift	-9.06962
▁bother	-9.07012
▁travel	-9.07338
▁blind	-9.07506
▁pa	-9.07674
▁brave	-9.07718
▁ought	-9.07829
▁plenty	-9.07829
▁ridiculous	-9.07829
▁syracuse	-9.07829
▁alliance	-9.0783
▁dumb	-9.07837
▁beyond	-9.0784
▁sam	-9.07853
▁bridge	-9.07854
▁highness	-9.07883
▁complete	-9.07917
▁interested	-9.07977
▁squirrel	-9.08014
▁mountain	-9.08035
▁freeze	-9.08047
▁penguin	-9.0808
▁egg	-9.08088
▁begin	-9.08096
ma	-9.08097
▁fairy	-9.08139
▁where	-9.08148
▁picked	-9.0897
▁lived	-9.0899
▁spy	-9.0964
▁hospital	-9.10032
▁twice	-9.10051
▁tiger	-9.10051
▁wrote	-9.10053
▁everywhere	-9.10056
▁truly	-9.10059
▁doin	-9.1008
▁shake	-9.1008
▁band	-9.10091
▁butt	-9.10104
▁barker	-9.10116
▁trick	-9.10128
▁force	-9.10135
▁breathe	-9.10261
▁situation	-9.10276
▁greek	-9.10302
▁fit	-9.10455
▁prove	-9.10692
▁plans	-9.10716
▁training	-9.10904
▁fan	-9.1105
ive	-9.11506
▁freak	-9.11627
▁pitch	-9.11749
▁shel	-9.11754
▁record	-9.11757
▁cry	-9.11966
▁practice	-9.12103
▁missing	-9.12142
▁soft	-9.12166
▁ian	-9.1229
▁peace	-9.12316
▁excellent	-9.12323
▁majesty	-9.12323
▁poppins	-9.12323
▁impossible	-9.12325
▁claire	-9.12325
▁boris	-9.12326
▁teeth	-9.12327
▁neck	-9.12335
▁bobby	-9.12337
▁tooth	-9.12337
▁danger	-9.12374
ling	-9.12403
▁decided	-9.12428
▁charming	-9.12471
▁level	-9.1252
▁closer	-9.12619
▁tom	-9.12687
▁certain	-9.12695
▁month	-9.127
▁letter	-9.1294
out	-9.12969
▁dis	-9.13788
▁cop	-9.1387
▁ii	-9.14019
▁sight	-9.14109
▁mark	-9.1415
▁deliver	-9.14166
▁alarm	-9.14318
▁spen	-9.14332
▁should	-9.14497
▁ran	-9.14573
▁gold	-9.14597
▁fresh	-9.14619
▁choose	-9.14649
▁emmet	-9.14649
▁indeed	-9.14649
▁throat	-9.14649
▁upstairs	-9.14649
▁nowhere	-9.1465
▁lyle	-9.1465
▁smoke	-9.14651
▁danny	-9.14652
▁vanya	-9.14654
▁security	-9.14657
▁wolfman	-9.14667
▁james	-9.1467
▁center	-9.14675
▁sweetie	-9.14761
▁sandy	-9.14773
▁battle	-9.14782
lo	-9.14783
▁continue	-9.14857
▁post	-9.14858
▁chair	-9.14898
▁idiot	-9.14899
▁dogs	-9.14995
▁folks	-9.15001
▁agent	-9.15007
▁planet	-9.15054
▁gods	-9.15181
▁pie	-9.15351
▁victor	-9.15467
▁k	-9.15479
▁nuts	-9.15779
▁listening	-9.15787
▁problems	-9.16338
▁leg	-9.16389
▁bitch	-9.1648
▁blows	-9.16754
▁smile	-9.16808
▁yo	-9.16985
▁court	-9.17027
▁annabel	-9.1703
▁bravo	-9.1703
▁uhhuh	-9.17031
▁silly	-9.17031
▁gordon	-9.17032
▁beginning	-9.17034
▁zone	-9.17035
▁cale	-9.17052
▁obviously	-9.1708
▁lake	-9.17085
it	-9.17087
▁victory	-9.1721
▁bloody	-9.17336
▁gotten	-9.17352
▁roger	-9.17392
▁gate	-9.17415
▁hundred	-9.17421
▁flintstone	-9.17447
▁cousin	-9.17458
▁lines	-9.17803
▁o	-9.18444
▁ma	-9.1859
▁games	-9.18726
▁rain	-9.19002
▁walking	-9.19014
▁swing	-9.19071
▁max	-9.19195
▁juni	-9.19429
▁apart	-9.19451
▁contact	-9.1947
▁department	-9.1947
▁unbelievable	-9.19471
▁bride	-9.19471
▁yellow	-9.19475
▁dragon	-9.19475
▁boom	-9.19502
▁tiny	-9.19526
▁losing	-9.19572
▁block	-9.19586
▁gift	-9.19639
▁main	-9.19787
▁bite	-9.19807
▁fellow	-9.19907
▁shoes	-9.19947
▁yard	-9.20013
il	-9.2006
▁leader	-9.20067
▁whose	-9.20134
▁lll	-9.20211
▁bath	-9.20273
na	-9.20621
age	-9.20636
ation	-9.20656
▁wondering	-9.2071
▁h	-9.20871
▁draw	-9.20913
▁rid	-9.21153
▁mm	-9.21326
▁bowl	-9.21362
▁heat	-9.214
▁liked	-9.21422
um	-9.21457
▁honest	-9.21653
▁bright	-9.21861
▁store	-9.21895
▁sisters	-9.21906
ia	-9.21924
▁abigail	-9.21969
▁driving	-9.21969
▁hadnt	-9.21969
▁vacation	-9.21969
▁ugh	-9.2197
▁upset	-9.2197
▁winner	-9.21971
▁bottom	-9.21972
▁flight	-9.21973
▁heck	-9.21974
▁wet	-9.22021
▁weight	-9.22031
▁hiding	-9.22046
▁bought	-9.22051
▁beg	-9.22187
▁angel	-9.22312
▁pat	-9.22359
▁crying	-9.2249
▁perfectly	-9.22536
▁season	-9.22545
▁hole	-9.22564
▁out	-9.22581
▁camera	-9.22583
▁lt	-9.23153
▁per	-9.23212
▁heads	-9.23714
ta	-9.23727
▁reading	-9.23859
▁repeat	-9.24202
▁settle	-9.24295
▁bough	-9.24449
▁according	-9.24533
▁especially	-9.24533
▁marriage	-9.24533
▁thatll	-9.24533
▁blast	-9.24533
▁allnut	-9.24535
▁bathroom	-9.24536
▁strength	-9.24536
▁howard	-9.24538
▁sky	-9.2454
▁admiral	-9.24542
▁tony	-9.24622
▁killing	-9.24681
▁experience	-9.24871
▁lots	-9.24999
▁siren	-9.25
▁floor	-9.25073
▁julie	-9.25099
▁beast	-9.2512
▁quarter	-9.25126
▁strike	-9.25136
▁taste	-9.25175
▁wine	-9.25263
▁plane	-9.2536
▁due	-9.26861
▁allow	-9.2687
▁goin	-9.26905
▁loves	-9.27091
▁operation	-9.27109
▁large	-9.27111
▁private	-9.27165
▁taught	-9.27166
▁clarence	-9.27166
▁bottle	-9.27166
▁information	-9.27169
▁flag	-9.27169
▁sunday	-9.2717
▁soup	-9.27172
▁press	-9.27177
▁usually	-9.27224
x	-9.27266
▁shed	-9.27334
▁pants	-9.27341
▁arms	-9.27443
▁allowed	-9.27459
▁note	-9.27571
▁figured	-9.27611
▁ocean	-9.27768
▁baker	-9.27835
▁giant	-9.27885
▁duck	-9.27923
▁flower	-9.27944
▁r	-9.28055
ine	-9.28854
▁pack	-9.28993
▁zoo	-9.29022
men	-9.29065
▁mo	-9.29303
▁gas	-9.29505
▁invite	-9.29667
▁raise	-9.29694
▁nothin	-9.29822
▁church	-9.29862
▁austin	-9.29867
▁professor	-9.29867
▁afford	-9.29868
▁underdog	-9.29868
▁support	-9.29868
▁project	-9.29868
▁roof	-9.29868
▁beauty	-9.29869
▁chuckling	-9.2987
▁onto	-9.2987
▁tentacular	-9.29871
▁view	-9.2988
▁nina	-9.29897
▁cup	-9.29905
▁immediately	-9.2991
▁lights	-9.29961
▁nature	-9.29965
▁ahh	-9.30034
▁prepare	-9.30107
▁seriously	-9.30293
▁dressed	-9.30464
▁orders	-9.30475
▁german	-9.30476
▁calls	-9.30581
▁computer	-9.30639
▁mate	-9.30644
▁miracle	-9.30649
▁track	-9.3065
▁self	-9.30747
▁ends	-9.3081
▁base	-9.31188
▁fellas	-9.31332
is	-9.31713
▁v	-9.31839
▁excited	-9.32513
▁dig	-9.32544
▁trade	-9.32559
▁dave	-9.3257
▁francis	-9.32642
▁hockey	-9.32645
▁science	-9.32646
▁charles	-9.32646
▁telephone	-9.32647
▁assignment	-9.32647
▁nope	-9.32649
▁girlfriend	-9.32652
▁ugly	-9.32653
▁gentleman	-9.32653
▁carlos	-9.32657
▁voss	-9.32658
▁handsome	-9.32666
▁bigger	-9.32685
▁carmen	-9.32728
▁showed	-9.32911
▁ga	-9.32941
▁accept	-9.33011
▁dollars	-9.3318
▁noise	-9.33404
▁grade	-9.33425
▁tape	-9.33499
▁cost	-9.33508
▁guest	-9.33522
▁creature	-9.33528
▁acting	-9.33824
▁aw	-9.3395
▁st	-9.33969
▁paint	-9.34183
▁aliens	-9.34335
li	-9.34565
▁discuss	-9.34995
ful	-9.34998
▁notice	-9.353
▁indistinct	-9.35367
▁awful	-9.35374
▁using	-9.35438
▁curt	-9.35497
▁balboa	-9.35502
▁elizabeth	-9.35502
▁government	-9.35502
▁restaurant	-9.35502
▁offense	-9.35503
▁friday	-9.35503
▁british	-9.35503
▁terry	-9.35505
▁grace	-9.35506
▁babe	-9.35507
▁crew	-9.35508
▁stage	-9.35516
▁spaceship	-9.35516
▁shape	-9.35528
▁uhoh	-9.35539
▁se	-9.35545
▁groaning	-9.35551
ish	-9.35611
ow	-9.35617
▁treat	-9.35879
▁math	-9.35887
▁cheer	-9.35941
▁animals	-9.3598
▁books	-9.36073
▁bucks	-9.36174
▁bro	-9.36191
▁burn	-9.36243
un	-9.36988
▁sleeping	-9.37573
▁ed	-9.37615
▁america	-9.38146
▁difficult	-9.38224
▁pru	-9.38235
came	-9.3824
▁waste	-9.3827
▁final	-9.38325
▁loose	-9.38392
▁starts	-9.38419
▁bat	-9.38432
▁poet	-9.38436
▁clyde	-9.38444
▁lovelace	-9.38444
▁trash	-9.38444
▁asleep	-9.38444
▁matthew	-9.38444
▁lisa	-9.38445
▁swim	-9.38446
▁dancing	-9.38447
▁teddy	-9.38447
▁energy	-9.38447
▁fowl	-9.38447
▁pressure	-9.38448
▁meow	-9.38449
▁boyfriend	-9.38454
▁dive	-9.38469
▁growling	-9.38493
▁powerful	-9.38496
▁cora	-9.3852
▁huge	-9.38542
▁hoping	-9.3877
▁heading	-9.38842
ng	-9.38999
▁donkey	-9.39298
▁robot	-9.39458
▁knight	-9.39496
iy	-9.39511
▁birds	-9.39614
▁san	-9.39752
▁following	-9.40369
▁file	-9.40548
▁easter	-9.40689
ted	-9.40712
▁carol	-9.40903
▁player	-9.40915
▁pretend	-9.40991
▁feed	-9.41119
▁gee	-9.41432
▁sharp	-9.41458
▁orange	-9.41465
▁although	-9.41474
▁cindy	-9.41474
▁empty	-9.41474
▁genius	-9.41474
▁northbrook	-9.41474
▁shield	-9.41474
▁theyd	-9.41474
▁midnight	-9.41474
▁gloria	-9.41475
▁wilma	-9.41475
▁dying	-9.41476
▁root	-9.41477
▁mick	-9.41477
▁barley	-9.41479
▁toula	-9.4149
▁shift	-9.41491
▁shame	-9.41501
▁carried	-9.41502
▁scare	-9.41509
▁darkness	-9.41509
▁safety	-9.4151
▁whatd	-9.41566
▁invited	-9.41704
ah	-9.41766
▁fill	-9.41944
ke	-9.42095
▁garden	-9.4239
▁heaven	-9.42456
▁shop	-9.42535
▁type	-9.42595
▁russian	-9.42632
▁rev	-9.42647
▁kim	-9.42987
▁ears	-9.4312
ri	-9.43183
▁hearts	-9.43378
▁ba	-9.43453
▁form	-9.44003
▁ape	-9.44081
▁thinks	-9.4412
▁bond	-9.44139
ce	-9.44159
el	-9.44189
▁challenge	-9.44349
▁curse	-9.4439
▁over	-9.4439
ian	-9.44419
▁doc	-9.44442
▁built	-9.44599
▁circus	-9.44599
▁heavy	-9.44599
▁possibly	-9.44599
▁ulysses	-9.44599
▁snow	-9.44599
▁luther	-9.446
▁candy	-9.44601
▁zoc	-9.44603
▁square	-9.44605
▁royal	-9.44607
▁scene	-9.44609
▁cash	-9.44612
▁grover	-9.44621
▁winning	-9.44623
▁winnie	-9.4463
▁texas	-9.44634
▁milk	-9.4465
▁bigfoot	-9.44659
▁arrived	-9.44692
▁stu	-9.44698
▁tail	-9.44764
ur	-9.44801
▁ruin	-9.44895
▁billy	-9.45001
▁sooner	-9.45121
▁immortals	-9.45203
▁quest	-9.45427
▁championship	-9.45771
▁falling	-9.45797
▁fired	-9.45852
▁sport	-9.45857
▁wh	-9.45988
▁account	-9.46009
▁ringing	-9.46025
▁loser	-9.46199
▁numbers	-9.46507
▁creatures	-9.46808
▁feelings	-9.46984
v	-9.46996
▁yards	-9.47132
▁hug	-9.47305
▁en	-9.47683
▁coast	-9.47704
▁ducal	-9.47825
▁fulton	-9.47825
▁jungle	-9.47825
▁sonja	-9.47825
▁eddie	-9.47825
▁biggest	-9.47825
▁tongue	-9.47825
▁bruce	-9.47827
▁often	-9.47827
▁threw	-9.47827
▁tommy	-9.47827
▁brilliant	-9.47829
▁sarah	-9.47829
▁sox	-9.4783
▁hazel	-9.47833
▁airport	-9.47835
▁flat	-9.47836
▁katie	-9.47839
▁lying	-9.47861
▁amy	-9.47869
▁itd	-9.47873
▁alien	-9.47982
▁ate	-9.48037
▁bare	-9.48112
▁filled	-9.48137
▁brainy	-9.48173
▁destroyed	-9.48334
▁breathing	-9.48627
▁remind	-9.48708
ty	-9.48857
▁passed	-9.48864
▁helping	-9.49092
▁turner	-9.49156
▁teacher	-9.49378
▁pool	-9.49487
▁falls	-9.49652
▁runs	-9.49908
▁hanging	-9.5008
▁missy	-9.50243
▁ye	-9.5044
▁pray	-9.50546
▁rescue	-9.50604
house	-9.50946
▁serve	-9.50949
▁inter	-9.50992
▁collect	-9.50998
▁sub	-9.51078
▁stole	-9.51115
▁witch	-9.51115
▁weak	-9.51132
▁public	-9.51136
▁journey	-9.51158
▁mckenna	-9.51158
▁sauvage	-9.51158
▁staff	-9.51158
▁distance	-9.51158
▁pedro	-9.51158
▁sugar	-9.51159
▁david	-9.51159
▁nancy	-9.5116
▁elsie	-9.5116
▁stadium	-9.51162
▁jason	-9.51163
▁speech	-9.51163
▁fancy	-9.51167
▁simply	-9.51174
▁loving	-9.51178
▁basement	-9.5118
▁rise	-9.51183
▁size	-9.51186
▁rocket	-9.51293
▁x	-9.51394
▁pi	-9.51473
▁staying	-9.51503
▁everythings	-9.51684
▁clearly	-9.518
▁crack	-9.51809
▁pe	-9.52031
▁judge	-9.52046
▁mothers	-9.52087
▁turning	-9.52252
▁deserve	-9.52366
▁cell	-9.52415
▁pulled	-9.52425
▁edge	-9.52517
da	-9.52593
▁member	-9.5261
▁paper	-9.52631
▁turns	-9.52668
▁stranger	-9.52691
▁mile	-9.5274
time	-9.53466
▁germans	-9.53593
▁ant	-9.53997
▁doo	-9.54062
▁powers	-9.5413
▁co	-9.54247
▁focus	-9.54298
▁gather	-9.54298
▁crown	-9.5431
▁survive	-9.54401
▁health	-9.54432
▁glass	-9.54554
▁babies	-9.54606
▁cheese	-9.54606
▁device	-9.54606
▁language	-9.54606
▁montgomery	-9.54606
▁nonsense	-9.54606
▁peyton	-9.54606
▁ralph	-9.54606
▁university	-9.54606
▁whiskey	-9.54606
▁whispering	-9.54606
▁bertier	-9.54607
▁herd	-9.54607
▁clock	-9.54607
▁wrestling	-9.54607
▁grandpa	-9.54608
▁virginia	-9.54608
▁crap	-9.54608
▁resistance	-9.54609
▁romantic	-9.5461
▁horrible	-9.54613
▁spin	-9.54614
▁stepford	-9.54617
▁forgotten	-9.54618
▁panic	-9.54628
▁sand	-9.54662
▁embarrassing	-9.54698
▁coat	-9.54769
▁ref	-9.54773
▁signal	-9.54778
▁prepared	-9.54913
you	-9.5497
▁opening	-9.54981
▁yelling	-9.55005
▁matters	-9.55051
ant	-9.55217
▁hook	-9.5535
▁dry	-9.55376
▁yay	-9.5539
▁marc	-9.55674
▁pounds	-9.55776
▁color	-9.55848
ul	-9.55867
▁crime	-9.56005
▁italian	-9.56049
land	-9.56104
▁ticket	-9.56196
ge	-9.56222
▁wheel	-9.56224
▁trees	-9.5654
▁pro	-9.56608
io	-9.56675
▁keeping	-9.56741
▁flowers	-9.57214
▁hearing	-9.57356
▁wood	-9.57508
way	-9.57538
▁guns	-9.57551
▁cops	-9.57597
▁climb	-9.57686
▁penguins	-9.57775
▁mi	-9.5787
by	-9.57944
▁introduce	-9.57994
▁doors	-9.57995
▁wolf	-9.58026
▁superhero	-9.58123
▁admit	-9.58168
▁vision	-9.58175
▁azrael	-9.58178
▁duran	-9.58178
▁lorenzo	-9.58178
▁europe	-9.58178
▁rosie	-9.58178
▁whistling	-9.58179
▁prize	-9.58179
▁chicago	-9.58179
▁truck	-9.5818
▁llke	-9.5818
▁dawn	-9.58182
▁equipment	-9.58182
▁understood	-9.58182
▁within	-9.58184
▁clubber	-9.58185
▁comfortable	-9.58193
▁dropped	-9.58194
▁stories	-9.58195
▁poetry	-9.58196
▁ellie	-9.58201
▁mask	-9.58203
▁plus	-9.58217
▁fearless	-9.5822
▁lonely	-9.58229
▁mister	-9.58253
▁code	-9.58329
▁add	-9.58366
▁gasping	-9.58418
▁parker	-9.58471
▁nearly	-9.58475
▁states	-9.58492
▁oil	-9.58508
▁ideas	-9.58546
just	-9.58593
▁humans	-9.587
▁knocking	-9.593
▁ear	-9.59555
▁followed	-9.59637
▁closed	-9.59655
▁spring	-9.59716
▁shark	-9.59832
▁blowing	-9.59853
▁rope	-9.59898
▁fella	-9.60039
led	-9.60075
▁cars	-9.60149
▁career	-9.60249
▁wave	-9.60495
▁knights	-9.60569
ca	-9.60846
▁cheat	-9.60989
▁fi	-9.6116
▁crash	-9.61229
▁shower	-9.6124
▁faith	-9.61334
▁toast	-9.61559
▁request	-9.61566
▁total	-9.61759
▁sandwich	-9.61826
▁lou	-9.61846
▁advice	-9.61881
▁akima	-9.61881
▁example	-9.61881
▁meredith	-9.61881
▁pygar	-9.61881
▁writing	-9.61881
▁bombay	-9.61882
▁calvin	-9.61882
▁boston	-9.61882
▁lenny	-9.61882
▁assistant	-9.61882
▁raymond	-9.61883
▁bruno	-9.61883
▁pregnant	-9.61884
▁phil	-9.61885
▁adam	-9.61886
▁downstairs	-9.61886
▁enemy	-9.61886
▁famous	-9.61886
▁franck	-9.61886
▁flies	-9.61889
▁angry	-9.61892
▁gross	-9.61894
▁zero	-9.61894
▁boone	-9.61895
▁glory	-9.61906
▁blame	-9.61909
▁announcer	-9.61922
▁suddenly	-9.61939
▁honking	-9.61947
▁jackson	-9.61955
▁bump	-9.61961
▁pink	-9.61985
▁dirty	-9.62004
▁national	-9.62041
▁hoops	-9.62071
ical	-9.62121
▁juliet	-9.62147
▁answers	-9.62274
▁degrees	-9.62298
▁pieces	-9.6235
ai	-9.62353
▁jan	-9.62372
▁tied	-9.62556
▁riding	-9.62594
▁bringing	-9.62772
ti	-9.62799
▁mayor	-9.62892
▁expecting	-9.63119
▁soldiers	-9.63442
▁el	-9.63496
▁decision	-9.63669
▁jerk	-9.63671
▁director	-9.63674
▁tunnel	-9.63706
▁weapon	-9.63724
▁movie	-9.63731
▁ghost	-9.63736
▁older	-9.63772
▁beer	-9.63838
one	-9.6388
▁keeps	-9.64075
▁sports	-9.64211
▁ex	-9.64367
▁there	-9.6461
▁pin	-9.64706
mo	-9.64941
▁demand	-9.65196
▁defend	-9.65348
▁suggest	-9.65385
▁bow	-9.65413
▁guarantee	-9.65511
▁skin	-9.65542
cient	-9.65694
▁among	-9.65705
▁prefer	-9.6572
▁courage	-9.65728
▁dennis	-9.65728
▁diana	-9.65728
▁drej	-9.65728
▁grandfather	-9.65728
▁written	-9.65728
▁regret	-9.65728
▁choir	-9.65728
▁exciting	-9.65728
▁merlin	-9.65728
▁relationship	-9.65728
▁puck	-9.6573
▁shirt	-9.65732
▁boring	-9.65733
▁property	-9.65734
▁duty	-9.65735
▁schedule	-9.6574
▁bread	-9.65745
▁rare	-9.65761
▁petey	-9.65778
▁mail	-9.65782
ally	-9.65854
▁fourth	-9.65879
▁sold	-9.65881
▁hooker	-9.65901
▁barn	-9.65926
▁eaten	-9.65938
▁united	-9.65942
▁failed	-9.66012
▁spike	-9.66072
▁wide	-9.66162
▁realized	-9.66214
ate	-9.66275
▁all	-9.66292
▁je	-9.66341
▁uhh	-9.66352
▁pictures	-9.66395
▁surprised	-9.66398
▁harm	-9.66502
▁titans	-9.66635
▁bo	-9.67249
▁path	-9.67443
▁tear	-9.67448
▁jumping	-9.67509
▁heavyweight	-9.67555
▁sons	-9.6756
▁wizard	-9.676
▁mushroom	-9.676
▁chocolate	-9.67605
▁weekend	-9.67688
▁tank	-9.67711
▁lesson	-9.67749
▁waited	-9.67761
▁metal	-9.6778
ance	-9.67866
▁landing	-9.67875
▁woods	-9.67884
▁killer	-9.6794
▁belt	-9.67993
▁nah	-9.68002
▁speaks	-9.68181
sh	-9.68312
▁greater	-9.68583
▁clears	-9.68703
pe	-9.68713
▁bust	-9.68823
▁consider	-9.6885
▁enter	-9.68949
▁picking	-9.69066
▁sweat	-9.69339
▁punch	-9.69374
off	-9.69403
▁fail	-9.69433
▁direct	-9.69621
▁matt	-9.69641
▁chap	-9.69675
▁convent	-9.697
▁champ	-9.69705
▁agency	-9.69728
▁applause	-9.69728
▁capsule	-9.69728
▁colonel	-9.69728
▁colony	-9.69728
▁glenn	-9.69728
▁herbert	-9.69728
▁kragle	-9.69728
▁shoeshine	-9.69728
▁taeko	-9.69728
▁whether	-9.69728
▁pair	-9.69728
▁target	-9.69728
▁positive	-9.69729
▁permission	-9.6973
▁desk	-9.6973
▁holly	-9.69732
▁africa	-9.69732
▁alright	-9.69733
▁hova	-9.69734
▁shine	-9.69736
▁patton	-9.69736
▁supper	-9.69739
▁duke	-9.69746
▁grass	-9.69748
▁pure	-9.69749
▁batman	-9.69765
▁portal	-9.69766
▁surely	-9.69793
▁paulie	-9.69798
▁joy	-9.69805
▁dan	-9.6981
▁mixed	-9.69818
▁heroes	-9.69875
if	-9.6992
▁peter	-9.69977
▁guards	-9.7004
▁approaching	-9.70106
▁fate	-9.70203
▁champions	-9.70262
▁whoohoo	-9.70268
▁moms	-9.70343
▁expected	-9.70561
▁ca	-9.70613
▁trained	-9.70702
▁tires	-9.70825
▁kissed	-9.70954
▁nate	-9.71
▁lately	-9.71047
▁fingers	-9.71171
▁pet	-9.7135
▁yell	-9.71448
▁pl	-9.71617
▁ju	-9.71742
▁style	-9.71745
▁crocodile	-9.71796
▁claim	-9.71797
▁saving	-9.71858
▁cave	-9.71891
▁sometime	-9.71942
▁tickets	-9.72003
▁pen	-9.72058
os	-9.72087
▁robots	-9.72422
▁nurse	-9.72533
▁oi	-9.72621
▁giants	-9.72757
▁players	-9.72936
▁sail	-9.73063
ho	-9.73188
▁no	-9.73317
▁farm	-9.7351
id	-9.73533
▁hill	-9.73543
▁louis	-9.73655
▁wing	-9.73713
▁madam	-9.738
▁leonard	-9.73826
vi	-9.73829
▁robert	-9.73833
▁india	-9.73845
ck	-9.73845
ver	-9.73861
▁effect	-9.73881
▁apologize	-9.73894
▁attitude	-9.73894
▁central	-9.73894
▁edmund	-9.73894
▁ellen	-9.73894
▁giggling	-9.73894
▁insane	-9.73894
▁mississippi	-9.73894
▁pabio	-9.73894
▁regular	-9.73894
▁video	-9.73894
▁whoever	-9.73894
▁changing	-9.73894
▁fiona	-9.73894
▁freedom	-9.73894
▁instructions	-9.73894
▁jerry	-9.73895
▁averman	-9.73899
▁responsibility	-9.73899
▁francisco	-9.73902
▁naked	-9.73902
▁wiii	-9.73903
▁planned	-9.73905
▁wherever	-9.73906
▁orangemen	-9.73907
▁flora	-9.73908
▁varsity	-9.73908
▁conway	-9.7391
▁title	-9.7391
▁tower	-9.73912
▁titanic	-9.73912
▁santa	-9.7392
▁castle	-9.73925
▁tess	-9.73929
▁involved	-9.73933
▁market	-9.73939
▁subject	-9.73943
▁disgusting	-9.73965
▁nest	-9.73979
▁split	-9.73984
▁ike	-9.73988
▁landon	-9.74012
▁stairs	-9.74109
▁noticed	-9.74198
▁copy	-9.7422
▁require	-9.74227
▁settled	-9.74233
▁lower	-9.74245
▁raised	-9.74293
▁warning	-9.74345
dy	-9.74352
tic	-9.74358
▁slowly	-9.74361
▁do	-9.74534
me	-9.74591
▁tc	-9.74619
▁male	-9.74934
▁belongs	-9.75056
go	-9.75172
▁touched	-9.75302
▁remain	-9.75339
▁counting	-9.75393
▁interest	-9.75411
▁condition	-9.75667
▁weapons	-9.76095
▁walked	-9.76096
▁turtle	-9.76115
▁uniform	-9.76115
▁adventure	-9.7615
▁cookie	-9.76185
▁button	-9.76225
▁warrior	-9.76225
cy	-9.76454
▁sp	-9.76461
▁drinking	-9.76506
▁hop	-9.7661
▁hip	-9.76885
▁signs	-9.77476
▁ja	-9.77507
▁pleased	-9.77658
▁secrets	-9.77756
▁row	-9.7785
▁switch	-9.77875
▁breaking	-9.77926
▁decide	-9.78043
▁batter	-9.78057
▁led	-9.78068
▁wire	-9.78082
▁correct	-9.78084
▁proper	-9.78154
▁spoke	-9.78185
ey	-9.78205
▁aculos	-9.78242
▁caesar	-9.78242
▁criminal	-9.78242
▁deloris	-9.78242
▁floyd	-9.78242
▁germaine	-9.78242
▁patrick	-9.78242
▁tadashi	-9.78242
▁vehicle	-9.78242
▁wadsworth	-9.78242
▁whinnying	-9.78242
▁percent	-9.78242
▁stretch	-9.78242
▁grandmother	-9.78242
▁neighborhood	-9.78242
▁laurie	-9.78242
▁recipe	-9.78242
▁mood	-9.78243
▁harper	-9.78243
▁route	-9.78244
▁memory	-9.78245
▁easier	-9.78246
▁fuel	-9.78247
▁baseball	-9.78248
▁frost	-9.78248
▁section	-9.7825
▁award	-9.78259
▁assure	-9.7826
▁nora	-9.78261
▁barney	-9.78263
▁apartment	-9.78275
▁betty	-9.78283
▁au	-9.78283
▁began	-9.78289
▁mercy	-9.78301
▁magical	-9.7831
▁auntie	-9.78318
▁stolen	-9.78318
▁fairies	-9.7832
▁homework	-9.78321
▁delicious	-9.78322
▁beeping	-9.7834
as	-9.78366
▁wise	-9.78371
▁believed	-9.78414
▁sat	-9.78559
ha	-9.78607
▁salt	-9.78641
▁ab	-9.78649
ard	-9.78745
▁fashion	-9.7875
▁spit	-9.7878
▁americans	-9.78825
▁rose	-9.7891
▁brains	-9.7902
▁painting	-9.79023
▁thy	-9.7908
▁loss	-9.79084
▁highly	-9.79213
▁towards	-9.79274
▁talkin	-9.79318
▁rocks	-9.79338
▁growing	-9.79457
▁keys	-9.7982
di	-9.79847
son	-9.79961
▁j	-9.80115
no	-9.80356
▁yells	-9.80372
▁spark	-9.80546
▁hated	-9.80566
▁bug	-9.80616
▁shooting	-9.8062
▁devil	-9.80665
▁eagle	-9.8069
▁pocket	-9.8069
▁current	-9.80696
▁si	-9.80728
▁coward	-9.80735
▁exist	-9.80771
▁ar	-9.80898
▁winter	-9.80905
j	-9.8101
▁hoo	-9.81029
▁driver	-9.81051
▁heavens	-9.81097
▁nut	-9.81126
ac	-9.81341
▁guests	-9.81368
ts	-9.81395
ton	-9.8145
▁goal	-9.81456
▁er	-9.81629
▁hatch	-9.81895
▁rush	-9.81975
▁diet	-9.8203
▁letters	-9.82107
▁contract	-9.82288
▁warn	-9.82301
▁talent	-9.82502
ped	-9.82528
▁recognize	-9.82569
▁jealous	-9.82578
▁professional	-9.82635
▁access	-9.82786
▁stomach	-9.82786
▁collier	-9.82788
▁emperor	-9.82788
▁female	-9.82788
▁foreign	-9.82788
▁geoffrey	-9.82788
▁krei	-9.82788
▁mysterious	-9.82788
▁necessary	-9.82788
▁ogre	-9.82788
▁responsible	-9.82788
▁whispers	-9.82788
▁zurg	-9.82788
▁mmmhmm	-9.82788
▁steam	-9.82789
▁florida	-9.82789
▁sheldon	-9.82789
▁monday	-9.8279
▁legend	-9.8279
▁swimming	-9.82791
▁appointment	-9.82791
▁stargazer	-9.82792
▁lousy	-9.82792
▁therapy	-9.82793
▁maiden	-9.82796
▁shore	-9.82797
▁alice	-9.82798
▁loan	-9.82798
▁memories	-9.82799
▁grateful	-9.82803
▁cloe	-9.82804
▁touchdown	-9.82812
▁chosen	-9.82821
▁laughter	-9.82826
▁trapped	-9.82828
▁thee	-9.82832
▁meal	-9.82835
▁iove	-9.82844
▁stable	-9.82846
▁gary	-9.82849
▁fallen	-9.82869
▁milly	-9.82882
▁willing	-9.8293
▁jewels	-9.82931
▁exclaiming	-9.82935
▁nicky	-9.82936
▁indistinctly	-9.83006
▁screeching	-9.83021
▁nation	-9.83035
am	-9.83352
▁giggles	-9.83398
ble	-9.83436
and	-9.83777
▁cooking	-9.83851
▁returned	-9.83945
▁fixed	-9.83971
▁bags	-9.84081
▁hawks	-9.84168
▁harder	-9.84184
▁character	-9.84769
▁cleaning	-9.84801
ot	-9.84881
▁tears	-9.8515
▁storm	-9.85293
▁direction	-9.85415
▁dolphin	-9.85473
▁opens	-9.85512
▁pig	-9.85539
▁soldier	-9.85573
▁wins	-9.85717
▁losers	-9.85793
ize	-9.85872
▁he	-9.85951
▁opened	-9.86065
▁par	-9.86184
po	-9.86287
▁reasons	-9.86358
▁me	-9.86552
▁places	-9.86613
▁pee	-9.86643
▁seek	-9.86654
be	-9.86659
▁forces	-9.86945
▁avoid	-9.87203
▁address	-9.87244
▁design	-9.87248
▁pan	-9.87252
▁moments	-9.87389
▁natural	-9.87428
▁gettin	-9.87518
▁sneak	-9.87519
▁bishop	-9.87549
▁brooklyn	-9.87549
▁chamber	-9.87549
▁gardner	-9.87549
▁helen	-9.87549
▁lancelot	-9.87549
▁marmalade	-9.87549
▁otherwise	-9.87549
▁paradise	-9.87549
▁rameses	-9.87549
▁silence	-9.87549
▁surrender	-9.87549
▁trophy	-9.87549
▁wouid	-9.87549
▁daniel	-9.8755
▁rough	-9.8755
▁local	-9.8755
▁someday	-9.8755
▁twitch	-9.8755
▁priest	-9.8755
▁pride	-9.8755
▁sobbing	-9.8755
▁tsar	-9.87551
▁community	-9.87552
▁damage	-9.87552
▁soap	-9.87552
▁humming	-9.87552
▁granger	-9.87552
▁available	-9.87553
▁volcano	-9.87554
▁however	-9.87555
▁dummy	-9.87557
▁hyperspeed	-9.87558
▁noble	-9.87558
▁caul	-9.87561
▁social	-9.87563
▁lightyear	-9.87565
▁precious	-9.87566
▁century	-9.87566
▁common	-9.87566
▁liar	-9.8757
▁jb	-9.87572
▁confused	-9.87574
▁hm	-9.87579
▁cr	-9.87603
▁dust	-9.87684
▁hitting	-9.87694
▁grown	-9.87706
▁useless	-9.87731
▁carter	-9.87799
▁kingman	-9.87808
ph	-9.87829
▁cast	-9.8787
▁manage	-9.87948
▁suffering	-9.87967
▁deeply	-9.88084
mi	-9.88097
▁someones	-9.881
▁pre	-9.88101
▁reached	-9.88341
▁nana	-9.88567
▁machines	-9.88701
▁covered	-9.88711
▁kicking	-9.89099
▁murder	-9.8935
▁bastards	-9.89482
▁buzzing	-9.89539
▁wings	-9.89858
the	-9.8987
▁te	-9.89915
▁ghosts	-9.90083
▁leaves	-9.9036
▁papers	-9.9039
▁monkey	-9.90455
▁knee	-9.90509
▁page	-9.90512
▁slave	-9.90522
▁student	-9.90539
▁ranger	-9.90555
▁bastard	-9.90557
op	-9.9078
ster	-9.90925
▁ad	-9.9097
▁changes	-9.91162
back	-9.91304
▁leo	-9.91435
▁woo	-9.91474
▁cares	-9.91559
▁interrupt	-9.91694
▁bless	-9.91846
▁jazz	-9.92033
▁approach	-9.92076
▁screw	-9.92233
▁net	-9.92273
▁kit	-9.92494
▁iron	-9.92526
▁bullshit	-9.92534
▁expert	-9.92547
▁log	-9.92548
▁seats	-9.92549
▁easily	-9.92549
▁effort	-9.92549
▁gillian	-9.92549
▁johana	-9.92549
▁particular	-9.92549
▁tuesday	-9.92549
▁value	-9.92549
▁mouse	-9.9255
▁orion	-9.9255
▁shouid	-9.9255
▁joanna	-9.9255
▁cotton	-9.9255
▁niko	-9.9255
▁sunshine	-9.9255
▁sasha	-9.92551
▁brewster	-9.92551
▁connie	-9.92551
▁source	-9.92551
▁conference	-9.92551
▁peasant	-9.92553
▁regent	-9.92554
▁judy	-9.92557
▁quarterback	-9.92559
▁shopping	-9.9256
▁gem	-9.92562
▁complicated	-9.92565
▁aboard	-9.92566
▁callaghan	-9.9257
▁secretary	-9.92571
▁swamp	-9.92572
▁luke	-9.92572
▁extremely	-9.92581
▁spread	-9.92589
▁jail	-9.92593
▁cow	-9.92606
▁mall	-9.92609
▁model	-9.92681
▁whod	-9.92693
▁scoffs	-9.92707
za	-9.92735
▁patch	-9.92763
▁disappeared	-9.92818
▁honestly	-9.92825
▁golf	-9.9294
▁ruined	-9.93027
▁ke	-9.93231
oo	-9.93242
▁port	-9.93335
ore	-9.9338
▁burning	-9.93391
▁higher	-9.9341
▁younger	-9.93522
▁legal	-9.93645
▁lips	-9.9404
▁ships	-9.94067
ern	-9.94193
om	-9.94292
▁toes	-9.94304
▁terms	-9.94374
ov	-9.94495
▁fields	-9.94549
▁tune	-9.94616
ized	-9.94931
▁cos	-9.95299
▁scream	-9.95374
▁bears	-9.95459
▁flame	-9.95663
▁pulling	-9.95683
▁partner	-9.95732
▁nun	-9.95799
▁skull	-9.95819
▁russians	-9.95856
▁appear	-9.95878
co	-9.96224
▁ld	-9.96252
▁artist	-9.96618
ten	-9.96778
▁search	-9.97025
down	-9.97078
▁butts	-9.97155
▁scratch	-9.97306
▁twist	-9.97323
▁wreck	-9.97479
▁perform	-9.97487
▁thousands	-9.97577
▁watched	-9.97664
▁official	-9.97674
▁cheap	-9.97699
▁closes	-9.97772
▁wheat	-9.97795
▁knife	-9.97808
▁couid	-9.97813
▁dwarf	-9.97813
▁governor	-9.97813
▁guppy	-9.97813
▁kornpett	-9.97813
▁license	-9.97813
▁lieutenant	-9.97813
▁negro	-9.97813
▁protest	-9.97813
▁rumbling	-9.97813
▁smiling	-9.97813
▁blew	-9.97813
▁commercial	-9.97813
▁held	-9.97813
▁insult	-9.97813
▁forbidden	-9.97813
▁someplace	-9.97813
▁navy	-9.97814
▁gerti	-9.97815
▁decent	-9.97815
▁washington	-9.97816
▁leerie	-9.97817
▁jeez	-9.97817
▁iook	-9.97818
▁fake	-9.97819
▁anchor	-9.97819
▁actress	-9.97822
▁drax	-9.97823
▁reverse	-9.97825
▁wlli	-9.97827
▁kip	-9.9783
▁gim	-9.97831
▁johnny	-9.97835
▁unfortunately	-9.97839
▁research	-9.9784
▁familiar	-9.97842
▁feather	-9.97842
▁weii	-9.97844
▁goalie	-9.97856
▁firm	-9.97861
▁russ	-9.97862
▁lang	-9.97884
▁bench	-9.9789
▁protection	-9.97899
▁impressed	-9.97919
▁rude	-9.97923
▁received	-9.97958
▁passion	-9.97961
▁ila	-9.97962
▁scottie	-9.97986
▁scary	-9.97989
▁brad	-9.98054
▁concerned	-9.98067
▁personally	-9.98225
▁cab	-9.98311
▁lad	-9.98336
▁scored	-9.98348
▁goat	-9.98454
▁event	-9.98474
▁march	-9.98742
▁carefully	-9.98761
▁sever	-9.98933
▁fully	-9.99283
▁signed	-9.99315
ka	-9.99333
▁mon	-9.9936
▁ted	-9.99404
▁odds	-9.99406
▁va	-9.99437
▁gune	-9.99451
▁units	-9.99636
▁skulls	-9.99857
▁hurts	-10.0003
▁sec	-10.0031
med	-10.0048
▁movies	-10.0063
▁suffer	-10.0065
▁wheels	-10.0086
▁moves	-10.0091
▁ants	-10.0095
▁fielding	-10.0099
▁checked	-10.0107
▁cloud	-10.0114
▁crystal	-10.012
▁cha	-10.0121
▁conversation	-10.0129
▁apes	-10.0129
▁lawyer	-10.0131
▁scholarship	-10.0132
▁nightmare	-10.0133
▁term	-10.0138
▁chain	-10.0138
▁finger	-10.0139
▁toy	-10.0149
▁nick	-10.0153
ill	-10.0155
▁smells	-10.0171
▁miracles	-10.0176
mp	-10.0188
fully	-10.0202
▁ron	-10.0222
▁parts	-10.0232
▁drawing	-10.0234
▁fighter	-10.0246
▁scar	-10.0253
▁disappear	-10.0253
ney	-10.0278
▁fetch	-10.0284
▁sol	-10.0285
▁ways	-10.029
▁chatter	-10.0293
board	-10.0303
▁desert	-10.0304
▁faint	-10.0306
▁badge	-10.0311
▁spare	-10.0314
▁release	-10.0316
▁dirt	-10.0319
▁earn	-10.0321
▁cape	-10.0322
▁sex	-10.0322
per	-10.033
▁somethin	-10.0333
▁aha	-10.0337
▁ceremony	-10.0337
▁champagne	-10.0337
▁clever	-10.0337
▁debbie	-10.0337
▁desperate	-10.0337
▁fabulous	-10.0337
▁feast	-10.0337
▁formula	-10.0337
▁fought	-10.0337
▁hefty	-10.0337
▁hendricks	-10.0337
▁insurance	-10.0337
▁jersey	-10.0337
▁literally	-10.0337
▁magnificent	-10.0337
▁neruda	-10.0337
▁opinion	-10.0337
▁opposite	-10.0337
▁phantom	-10.0337
▁prescott	-10.0337
▁scientist	-10.0337
▁theater	-10.0337
▁thursday	-10.0337
▁traffic	-10.0337
▁transmooker	-10.0337
▁ufc	-10.0337
▁wednesday	-10.0337
▁stood	-10.0337
▁racing	-10.0337
▁desire	-10.0337
▁unhappy	-10.0337
▁authorities	-10.0337
▁glorious	-10.0337
▁outfit	-10.0337
▁imagination	-10.0337
▁morris	-10.0337
▁ordinary	-10.0337
▁rice	-10.0337
▁gorgeous	-10.0337
▁barbara	-10.0338
▁garage	-10.0338
▁jade	-10.0338
▁roman	-10.0338
▁stallion	-10.0338
▁brian	-10.0338
▁lonnie	-10.0338
▁solid	-10.0339
▁barbarella	-10.0339
▁nasty	-10.0339
▁piano	-10.0339
▁apparently	-10.034
▁france	-10.034
▁data	-10.034
▁planning	-10.034
▁peru	-10.0341
▁marie	-10.0341
▁friendship	-10.0342
▁slide	-10.0343
▁mere	-10.0344
▁yearold	-10.0345
▁jr	-10.0345
▁enchanted	-10.0346
▁julius	-10.0347
▁forth	-10.0347
▁whooping	-10.0358
▁hammer	-10.0359
▁supplies	-10.0366
▁healthy	-10.0366
▁hired	-10.0367
▁hustle	-10.0368
▁created	-10.0368
▁louise	-10.0371
▁gay	-10.0373
▁aii	-10.0381
▁steps	-10.0399
▁wishes	-10.0399
▁chi	-10.0405
▁destroyer	-10.0414
ki	-10.0424
oggy	-10.0429
▁twins	-10.0436
ni	-10.0442
ring	-10.0444
▁ned	-10.0448
▁messed	-10.0455
▁depends	-10.0464
▁shows	-10.0469
▁les	-10.0478
ee	-10.0486
▁joined	-10.0491
▁grave	-10.0496
▁jumped	-10.05
de	-10.0507
▁noon	-10.051
▁selling	-10.0523
▁teaching	-10.0529
▁parking	-10.0553
▁ages	-10.0594
ious	-10.0594
▁ra	-10.0602
▁vi	-10.0608
▁oni	-10.0627
▁beating	-10.0635
▁windows	-10.0638
▁aye	-10.0642
ud	-10.0644
▁stink	-10.0645
▁ne	-10.0661
ary	-10.0662
▁members	-10.0671
▁pound	-10.068
▁unit	-10.0692
▁poem	-10.0702
▁bedroom	-10.0704
▁guardian	-10.0704
▁apple	-10.0711
▁scale	-10.0714
▁peanut	-10.0715
▁pipe	-10.0719
▁bone	-10.0722
▁masterbuilder	-10.0722
▁toe	-10.0735
▁tapes	-10.0746
▁shoulder	-10.075
ated	-10.0774
▁fur	-10.0776
▁sale	-10.0789
▁kings	-10.081
▁boats	-10.0818
line	-10.0837
▁dump	-10.0841
▁crush	-10.0842
▁attend	-10.0845
▁rate	-10.085
▁load	-10.0863
▁begins	-10.0864
▁stor	-10.0864
▁sink	-10.0877
▁pops	-10.0877
▁float	-10.0878
▁bang	-10.088
▁announce	-10.0895
▁arrest	-10.0895
▁sauce	-10.0899
▁divorce	-10.0904
▁gain	-10.0906
▁flow	-10.0906
▁jam	-10.0909
▁exact	-10.0911
▁usual	-10.0912
▁typ	-10.0912
▁slight	-10.0912
▁orbit	-10.092
▁mamma	-10.0921
▁drunk	-10.0924
▁barsinister	-10.0925
▁california	-10.0925
▁destiny	-10.0925
▁disaster	-10.0925
▁furniture	-10.0925
▁garbage	-10.0925
▁irwin	-10.0925
▁justice	-10.0925
▁kgys	-10.0925
▁macdonald	-10.0925
▁museum	-10.0925
▁quarry	-10.0925
▁reverend	-10.0925
▁rotten	-10.0925
▁sengh	-10.0925
▁sergeant	-10.0925
▁slate	-10.0925
▁solution	-10.0925
▁steady	-10.0925
▁toilet	-10.0925
▁unusual	-10.0925
▁wasabi	-10.0925
▁whenever	-10.0925
▁whimpering	-10.0925
▁council	-10.0925
▁tavern	-10.0925
▁cloak	-10.0925
▁mathmos	-10.0925
▁ladder	-10.0925
▁including	-10.0925
▁invisible	-10.0925
▁audition	-10.0925
▁stammering	-10.0925
▁upbea	-10.0925
▁happiness	-10.0925
▁executive	-10.0925
▁anxious	-10.0925
▁isle	-10.0925
▁basketball	-10.0925
▁grew	-10.0925
▁joking	-10.0925
▁negative	-10.0925
▁generous	-10.0925
▁behold	-10.0925
▁ojo	-10.0926
▁failure	-10.0926
▁junk	-10.0926
▁operator	-10.0926
▁pillow	-10.0926
▁plain	-10.0926
▁exhales	-10.0926
▁merry	-10.0926
▁neat	-10.0926
▁bodies	-10.0926
▁campbell	-10.0926
▁alba	-10.0927
▁practically	-10.0927
▁colin	-10.0927
▁ciao	-10.093
▁moore	-10.093
▁golden	-10.0931
▁pit	-10.0933
▁stopping	-10.0935
▁surrounded	-10.0935
▁wi	-10.0939
▁ski	-10.0945
▁steven	-10.0946
▁frightened	-10.0951
▁hike	-10.0953
▁latest	-10.0958
▁bay	-10.096
▁screwed	-10.096
▁warned	-10.0965
▁tests	-10.0979
▁clicks	-10.0981
▁entirely	-10.0984
▁remove	-10.0991
▁escaped	-10.0996
▁faces	-10.1001
▁exchange	-10.1004
▁makeup	-10.103
▁lied	-10.1049
▁chickens	-10.1054
▁li	-10.1074
▁hits	-10.108
▁mist	-10.1091
▁rat	-10.1092
▁friendly	-10.1118
▁rats	-10.1123
▁landed	-10.113
▁carrying	-10.1132
▁up	-10.1144
▁ro	-10.1151
em	-10.1159
▁knees	-10.1167
▁clue	-10.1204
▁learning	-10.1205
▁dro	-10.1209
▁so	-10.121
ad	-10.1228
▁suck	-10.1242
▁sending	-10.1291
▁concern	-10.1296
▁whale	-10.1327
▁holiday	-10.1333
▁servant	-10.1333
▁rainbow	-10.1333
▁saint	-10.1339
▁valley	-10.134
▁result	-10.1345
▁tradition	-10.1359
▁finding	-10.1367
▁worlds	-10.1398
▁tale	-10.141
▁lit	-10.1412
▁gifts	-10.1423
▁lap	-10.1433
ea	-10.1462
▁shock	-10.1463
▁bid	-10.1489
▁process	-10.1494
▁hunt	-10.1499
ship	-10.1508
▁witness	-10.1512
▁thrill	-10.152
▁jean	-10.1522
▁drag	-10.1524
▁scores	-10.1526
ier	-10.1527
▁assume	-10.1529
▁grant	-10.1529
▁prison	-10.1537
▁obvious	-10.1537
▁corn	-10.154
▁chase	-10.1542
▁dang	-10.1544
▁mmhm	-10.1548
▁comin	-10.1548
while	-10.1548
▁snap	-10.1549
▁lemon	-10.155
▁amount	-10.155
▁arguing	-10.155
▁carriage	-10.155
▁charlene	-10.155
▁clown	-10.155
▁dagger	-10.155
▁defensive	-10.155
▁donnagon	-10.155
▁durbeyfield	-10.155
▁essence	-10.155
▁favour	-10.155
▁filthy	-10.155
▁flesh	-10.155
▁gibberish	-10.155
▁gondorff	-10.155
▁granada	-10.155
▁hector	-10.155
▁lonnegan	-10.155
▁luigi	-10.155
▁martha	-10.155
▁necklace	-10.155
▁pacific	-10.155
▁pharaoh	-10.155
▁progress	-10.155
▁splendid	-10.155
▁subtitle	-10.155
▁tremendous	-10.155
▁underneath	-10.155
▁yabbadabbadoo	-10.155
▁apology	-10.155
▁astronaut	-10.155
▁credit	-10.155
▁splash	-10.155
▁expensive	-10.155
▁gym	-10.155
▁jonathan	-10.155
▁manticore	-10.155
▁mystery	-10.155
▁dietrich	-10.155
▁extraordinary	-10.155
▁bratitude	-10.155
▁sherry	-10.155
▁attractive	-10.155
▁bennell	-10.155
▁violence	-10.155
▁yasmin	-10.155
▁surface	-10.155
▁intelligent	-10.155
▁earlier	-10.155
▁modern	-10.155
▁balance	-10.155
▁construction	-10.1551
▁coordinates	-10.1551
▁bedrock	-10.1551
▁rico	-10.1551
▁hailey	-10.1551
▁shaking	-10.1551
▁jimmy	-10.1551
▁owns	-10.1551
▁monsieur	-10.1551
▁technology	-10.1551
▁brotherhood	-10.1551
▁sentence	-10.1551
▁villain	-10.1551
▁kitty	-10.1551
▁soda	-10.1551
▁shaw	-10.1551
▁murmuring	-10.1552
▁potion	-10.1552
▁location	-10.1552
▁wives	-10.1552
▁boof	-10.1553
▁gundy	-10.1553
▁labor	-10.1553
▁whyd	-10.1553
▁motion	-10.1554
▁mental	-10.1554
▁cooper	-10.1555
▁collection	-10.1555
▁eden	-10.1556
▁engaged	-10.1556
▁birth	-10.1556
▁diner	-10.1557
▁martin	-10.1557
▁indiana	-10.1558
▁lila	-10.1559
▁wallet	-10.1559
▁laid	-10.1559
▁clay	-10.156
▁witches	-10.156
▁embarrassed	-10.1561
▁junior	-10.1561
▁guilty	-10.1562
▁dean	-10.1563
▁annoying	-10.1564
▁chasing	-10.157
▁imp	-10.1583
▁hah	-10.1584
▁mass	-10.1587
▁survived	-10.1588
▁boo	-10.1597
▁statue	-10.1599
irring	-10.1602
ris	-10.1614
▁prime	-10.1615
▁hy	-10.1618
▁hates	-10.1627
▁letting	-10.1631
▁bend	-10.1648
▁armed	-10.166
▁counter	-10.1675
▁brakes	-10.1676
our	-10.1687
▁lu	-10.1692
▁z	-10.1714
▁lovers	-10.1714
▁plant	-10.1717
side	-10.1736
▁indians	-10.1742
▁bot	-10.1749
▁sacrifice	-10.175
▁workin	-10.1769
▁ordered	-10.1772
▁appears	-10.1795
▁product	-10.1796
ure	-10.18
we	-10.1827
▁lies	-10.1829
▁everyones	-10.1839
▁monsters	-10.1841
▁songs	-10.1845
▁doctors	-10.1868
▁mud	-10.1869
▁period	-10.1872
▁leading	-10.1877
▁fishing	-10.1881
end	-10.1883
do	-10.1889
▁waves	-10.1902
▁victoria	-10.193
▁u	-10.1937
▁nasa	-10.1947
▁shout	-10.1957
▁wound	-10.1974
▁price	-10.1999
▁adult	-10.2007
▁squeal	-10.2009
▁option	-10.201
▁bike	-10.201
▁circle	-10.201
▁owner	-10.2015
▁gorilla	-10.2016
▁odd	-10.2017
▁hawk	-10.2018
▁snake	-10.2019
▁indian	-10.2019
▁what	-10.202
▁beside	-10.2022
▁stops	-10.2025
▁tim	-10.2078
▁ch	-10.2088
▁bounce	-10.2091
▁hon	-10.2099
▁hurting	-10.2101
bi	-10.2104
ba	-10.2107
▁of	-10.2115
▁cats	-10.2124
▁tricks	-10.2137
▁lip	-10.2148
▁rip	-10.2151
red	-10.2154
▁cass	-10.2156
▁tackle	-10.2182
▁frighten	-10.2188
▁checking	-10.219
▁retire	-10.2194
national	-10.2194
▁arrive	-10.2197
▁weigh	-10.22
▁physical	-10.2202
▁terribl	-10.2206
▁runnin	-10.2213
▁create	-10.2213
▁express	-10.2213
▁smooth	-10.2214
▁cruel	-10.2216
▁cabin	-10.2216
▁twenty	-10.2216
▁photo	-10.2217
▁stock	-10.2217
▁apollo	-10.2217
▁beardsley	-10.2217
▁beatrice	-10.2217
▁chemical	-10.2217
▁companion	-10.2217
▁couch	-10.2217
▁duane	-10.2217
▁egypt	-10.2217
▁enormous	-10.2217
▁explanation	-10.2217
▁families	-10.2217
▁fortune	-10.2217
▁griselda	-10.2217
▁henderson	-10.2217
▁japanese	-10.2217
▁lagoon	-10.2217
▁ouch	-10.2217
▁peopie	-10.2217
▁philip	-10.2217
▁phoebe	-10.2217
▁policy	-10.2217
▁recently	-10.2217
▁snarling	-10.2217
▁spretzle	-10.2217
▁supreme	-10.2217
▁unknown	-10.2217
▁valuable	-10.2217
▁wolfgang	-10.2217
▁yoast	-10.2217
▁attempt	-10.2217
▁blaring	-10.2217
▁spray	-10.2217
▁fruit	-10.2217
▁garrett	-10.2217
▁larry	-10.2217
▁opportunity	-10.2217
▁audience	-10.2217
▁jones	-10.2217
▁wilkins	-10.2217
▁sicily	-10.2217
▁sweep	-10.2217
▁curious	-10.2217
▁donald	-10.2217
▁fortress	-10.2217
▁military	-10.2217
▁intend	-10.2217
▁piease	-10.2217
▁whoville	-10.2217
▁flack	-10.2217
▁harrison	-10.2217
▁miami	-10.2217
▁impressive	-10.2217
▁deaf	-10.2217
▁penny	-10.2217
▁rabbit	-10.2217
▁behavior	-10.2217
▁sogo	-10.2217
▁centre	-10.2217
▁rash	-10.2218
▁ambulance	-10.2218
▁oxygen	-10.2218
▁suspect	-10.2218
▁woke	-10.2218
▁traitor	-10.2218
▁hyah	-10.2218
▁dropping	-10.2218
▁cities	-10.2218
▁bash	-10.2218
▁fifty	-10.2218
▁raph	-10.2219
▁beef	-10.2219
▁honeymoon	-10.2219
▁pathetic	-10.2219
▁minor	-10.2219
▁curry	-10.2219
▁christian	-10.2219
▁paris	-10.222
▁laser	-10.222
▁squad	-10.222
▁drill	-10.222
▁doorbell	-10.2221
▁grizzly	-10.2221
▁ew	-10.2224
▁june	-10.2224
▁circumstances	-10.2225
▁arranged	-10.2226
▁discovered	-10.2233
▁lab	-10.2235
▁gig	-10.2238
▁growls	-10.2247
▁pity	-10.2249
▁mac	-10.2252
▁locker	-10.2256
▁signor	-10.2261
▁dish	-10.2262
▁ending	-10.2266
▁details	-10.2266
▁fights	-10.2271
▁hire	-10.2273
▁points	-10.2276
▁butter	-10.2276
▁blessing	-10.2282
▁agreed	-10.2286
▁walls	-10.2288
▁brings	-10.2292
▁belly	-10.2295
▁dec	-10.2296
▁lick	-10.2298
▁biscuits	-10.2308
▁mum	-10.2313
▁offered	-10.2314
▁oldest	-10.232
▁prayers	-10.2342
▁knocked	-10.2351
▁kicked	-10.2354
▁shelly	-10.2356
▁wor	-10.2362
▁closet	-10.2362
▁engineer	-10.2367
▁guts	-10.2375
▁disco	-10.2387
▁heroics	-10.2393
▁cutters	-10.2393
ga	-10.2395
▁joey	-10.2397
▁boots	-10.2406
▁beard	-10.2407
ite	-10.2436
▁messing	-10.2449
▁shoulders	-10.2459
▁students	-10.2494
▁tr	-10.2503
▁walks	-10.251
ball	-10.2517
▁gum	-10.2532
king	-10.2533
eth	-10.2549
▁staring	-10.2553
ons	-10.2613
ina	-10.2627
ction	-10.2629
hand	-10.2634
bo	-10.2651
▁sa	-10.2658
ou	-10.2677
▁souls	-10.2689
▁gasp	-10.2696
▁creep	-10.27
▁screen	-10.2708
▁explorer	-10.2713
▁pilot	-10.2714
▁cigarette	-10.2714
▁costume	-10.2714
▁sucker	-10.272
▁sailor	-10.272
▁seal	-10.272
▁newspaper	-10.2723
▁durberville	-10.2725
▁bullet	-10.2726
▁vow	-10.2727
▁pill	-10.2735
▁mu	-10.2761
▁paying	-10.2762
▁seasons	-10.2771
▁here	-10.2772
▁ali	-10.2779
▁reporter	-10.2787
uc	-10.2796
▁cousins	-10.2801
▁skate	-10.2801
▁fans	-10.2841
▁charm	-10.2849
ating	-10.2864
▁boot	-10.2888
▁who	-10.289
▁delight	-10.29
▁defeat	-10.2902
load	-10.2903
▁celebrate	-10.2908
▁refuse	-10.2908
▁include	-10.2909
▁disease	-10.2911
▁emotional	-10.2918
rage	-10.2922
▁morgan	-10.2924
▁conquer	-10.2928
▁disgrace	-10.293
▁deck	-10.293
▁grip	-10.2931
▁pizza	-10.2931
▁violin	-10.2931
▁absurd	-10.2931
▁anytime	-10.2931
▁byzanium	-10.2931
▁chinese	-10.2931
▁claude	-10.2931
▁committee	-10.2931
▁competition	-10.2931
▁concert	-10.2931
▁eminence	-10.2931
▁eventually	-10.2931
▁excalibur	-10.2931
▁exhibit	-10.2931
▁farquaad	-10.2931
▁flew	-10.2931
▁headquarters	-10.2931
▁ignore	-10.2931
▁illegal	-10.2931
▁increase	-10.2931
▁jessie	-10.2931
▁juice	-10.2931
▁kibner	-10.2931
▁library	-10.2931
▁microbots	-10.2931
▁minnesota	-10.2931
▁monitor	-10.2931
▁oclock	-10.2931
▁pecan	-10.2931
▁prophecy	-10.2931
▁referee	-10.2931
▁rookie	-10.2931
▁rubbish	-10.2931
▁shaikh	-10.2931
▁slept	-10.2931
▁splinter	-10.2931
▁strict	-10.2931
▁terrified	-10.2931
▁trail	-10.2931
▁treasure	-10.2931
▁vegetarian	-10.2931
▁victim	-10.2931
▁welsh	-10.2931
▁whinnies	-10.2931
▁cantonese	-10.2931
▁hooray	-10.2931
▁gear	-10.2931
▁smash	-10.2931
▁thatd	-10.2931
▁awake	-10.2931
▁borrow	-10.2931
▁unique	-10.2931
▁cantrow	-10.2931
▁finley	-10.2931
▁buried	-10.2931
▁toad	-10.2931
▁ronny	-10.2931
▁robinson	-10.2931
▁dramatic	-10.2931
▁lump	-10.2932
▁rewind	-10.2932
▁auction	-10.2932
▁foul	-10.2932
▁critical	-10.2932
▁shane	-10.2932
▁superior	-10.2932
▁narnia	-10.2932
▁ruffin	-10.2932
▁mummy	-10.2932
▁veer	-10.2932
▁frozen	-10.2933
▁happily	-10.2933
▁daisy	-10.2933
▁iike	-10.2934
▁sensitive	-10.2934
▁executed	-10.2935
▁formation	-10.2935
▁tour	-10.2935
▁spotted	-10.2936
▁mice	-10.2936
▁lars	-10.2937
▁uhuh	-10.2939
▁bald	-10.294
▁cliff	-10.2941
▁spoken	-10.2942
▁darn	-10.2942
▁glasses	-10.2942
▁pitt	-10.2945
▁pm	-10.2945
▁doomed	-10.2946
▁dining	-10.2947
▁wailing	-10.2947
▁provided	-10.295
▁vice	-10.2951
ily	-10.2951
▁setting	-10.2952
▁iet	-10.2953
▁troops	-10.2954
▁whisrles	-10.2954
▁nailed	-10.296
▁hail	-10.2962
▁awfully	-10.2967
▁down	-10.2968
▁highest	-10.2968
▁searched	-10.2973
▁mis	-10.2973
▁softly	-10.2975
▁preed	-10.2976
▁praise	-10.2978
▁hunting	-10.2987
▁delivery	-10.2989
▁banging	-10.299
▁gumm	-10.2992
▁colored	-10.2994
▁forced	-10.2999
▁sweater	-10.3005
▁stronger	-10.302
▁hint	-10.3022
▁ms	-10.3024
▁beats	-10.3024
▁oss	-10.3025
▁mentioned	-10.3037
▁to	-10.3059
ii	-10.3078
▁attacked	-10.3081
▁ob	-10.3082
▁cards	-10.3085
▁pirates	-10.3106
▁washed	-10.3107
▁gus	-10.311
▁testing	-10.3129
ita	-10.314
▁hairy	-10.3143
▁backup	-10.3153
wa	-10.3168
▁for	-10.318
▁winding	-10.3183
▁struggle	-10.3189
▁systems	-10.3193
▁worker	-10.3196
▁toys	-10.3199
▁fist	-10.3221
▁mona	-10.3221
▁cub	-10.3224
nce	-10.3227
ent	-10.3241
▁winds	-10.325
▁fo	-10.3251
▁ping	-10.3257
oohoo	-10.3259
▁ap	-10.326
▁ln	-10.3268
ven	-10.3273
▁warriors	-10.3276
▁michaels	-10.3281
▁cad	-10.3295
he	-10.333
▁tin	-10.3335
▁chat	-10.3361
▁you	-10.3369
▁reports	-10.3381
▁not	-10.3391
▁bud	-10.3415
▁catching	-10.3417
▁perkis	-10.3425
▁wipe	-10.344
▁ended	-10.344
▁bark	-10.344
▁parent	-10.3454
▁jo	-10.3457
▁pump	-10.3459
ub	-10.3469
▁le	-10.3471
▁politic	-10.3476
▁exit	-10.3479
▁patient	-10.3486
▁organ	-10.3487
▁division	-10.3491
▁cage	-10.3496
▁gut	-10.3503
▁chick	-10.3508
▁heroic	-10.3513
▁cutter	-10.3516
▁angels	-10.353
bon	-10.3544
▁rounds	-10.3569
▁rod	-10.3571
▁rear	-10.3577
▁guide	-10.358
les	-10.3588
▁breaks	-10.359
▁despi	-10.3596
let	-10.3601
▁lamb	-10.3602
▁goose	-10.3603
ham	-10.3612
▁insist	-10.3612
▁trace	-10.3613
▁nail	-10.3625
▁mountains	-10.3625
▁dreaming	-10.3629
▁tau	-10.3629
looking	-10.3639
nd	-10.3647
▁iii	-10.3647
▁frye	-10.3655
▁stan	-10.3655
ied	-10.3657
▁whip	-10.3663
foot	-10.3663
▁il	-10.3663
▁display	-10.3666
▁mount	-10.367
▁stack	-10.3671
▁gran	-10.3677
▁advance	-10.3683
▁instant	-10.3685
▁capture	-10.3688
▁tuck	-10.3689
▁incredibl	-10.369
▁hung	-10.369
▁aim	-10.3692
▁maria	-10.3694
▁tomato	-10.3694
▁chose	-10.3695
▁russia	-10.3696
▁comfort	-10.3697
▁ace	-10.3698
▁basket	-10.37
▁revolution	-10.37
▁amateur	-10.37
▁argue	-10.37
▁becoming	-10.37
▁behave	-10.37
▁cinderella	-10.37
▁confidence	-10.37
▁elephant	-10.37
▁fifteen	-10.37
▁hawthorne	-10.37
▁innocent	-10.37
▁labyrinth	-10.37
▁lloyd	-10.37
▁lydia	-10.37
▁mvp	-10.37
▁orchestra	-10.37
▁orphan	-10.37
▁philadelphia	-10.37
▁practicing	-10.37
▁reggie	-10.37
▁reign	-10.37
▁resort	-10.37
▁rhythm	-10.37
▁routine	-10.37
▁silent	-10.37
▁silver	-10.37
▁slomo	-10.37
▁snyder	-10.37
▁twelve	-10.37
▁underground	-10.37
▁underwear	-10.37
▁vacuum	-10.37
▁vocalizing	-10.37
▁wicked	-10.37
▁widow	-10.37
▁wyldstyle	-10.37
▁attic	-10.37
▁thief	-10.37
▁herman	-10.37
▁picnic	-10.37
▁rommel	-10.37
▁slot	-10.37
▁activity	-10.37
▁farren	-10.37
▁lailailailai	-10.37
▁roast	-10.37
▁puzzle	-10.37
▁underwater	-10.37
▁closing	-10.37
▁promotion	-10.37
▁pleasant	-10.37
▁therefore	-10.37
▁felix	-10.37
▁healthcare	-10.37
▁theme	-10.37
▁helmet	-10.37
▁struck	-10.37
▁turkey	-10.3701
▁playoffs	-10.3701
▁authority	-10.3701
▁whew	-10.3701
▁remark	-10.3701
▁manual	-10.3701
▁cherry	-10.3701
▁believing	-10.3701
▁revving	-10.3701
▁satisfied	-10.3701
▁association	-10.3701
▁monty	-10.3701
▁cia	-10.3701
▁electricity	-10.3702
▁confession	-10.3702
▁brody	-10.3702
▁tech	-10.3703
▁reward	-10.3703
▁aside	-10.3703
▁precisely	-10.3703
▁exercise	-10.3704
▁messina	-10.3704
▁spain	-10.3704
▁alas	-10.3704
▁blonde	-10.3704
▁charity	-10.3704
▁beings	-10.3704
▁lack	-10.3705
▁groom	-10.3705
▁foolish	-10.3705
▁aware	-10.3705
▁booth	-10.3706
▁lamp	-10.3706
▁grandson	-10.3706
▁fascinating	-10.3706
▁bunk	-10.3706
▁technically	-10.3707
▁janie	-10.3707
▁equal	-10.3708
▁china	-10.3708
▁bored	-10.3709
▁manager	-10.3711
▁solo	-10.3712
▁alan	-10.3712
▁whee	-10.3713
▁capable	-10.3713
▁farty	-10.3713
▁link	-10.3714
▁scan	-10.3716
▁wa	-10.3718
▁taco	-10.3718
▁thus	-10.3719
▁williams	-10.372
▁disappointed	-10.3721
▁naturally	-10.3723
▁sixth	-10.3725
▁successful	-10.3725
▁confirmed	-10.3728
▁mint	-10.3728
▁chill	-10.3731
▁fal	-10.3735
▁matty	-10.3737
▁cancel	-10.374
▁loaded	-10.374
gi	-10.3753
▁timing	-10.3757
▁thorns	-10.3758
▁cheated	-10.3765
▁beeps	-10.3775
▁solve	-10.3779
▁singer	-10.378
▁accepted	-10.3785
▁sc	-10.3801
▁delivered	-10.3803
▁remembered	-10.3815
▁helped	-10.3824
▁gra	-10.3824
▁ton	-10.3825
ol	-10.3835
▁safely	-10.3848
▁swor	-10.3849
▁laughed	-10.3851
▁skills	-10.3857
▁til	-10.3857
▁aid	-10.3864
▁freaking	-10.3872
▁traveling	-10.3878
▁chicks	-10.3907
ving	-10.391
▁charges	-10.3921
aw	-10.3927
▁owners	-10.394
▁protecting	-10.3942
▁med	-10.3949
▁transfer	-10.3959
▁mar	-10.3963
▁wee	-10.3963
▁pushing	-10.3975
▁stayed	-10.3975
ide	-10.4
▁daughters	-10.4008
ny	-10.4019
old	-10.4021
ler	-10.4039
▁winters	-10.4058
▁nights	-10.4064
▁counts	-10.4086
▁thin	-10.4096
▁cal	-10.4105
▁bl	-10.4115
▁tunnels	-10.4126
▁vo	-10.4128
▁bubble	-10.4131
▁sim	-10.4153
▁deserves	-10.4178
ning	-10.4186
▁reminds	-10.4196
ass	-10.4226
ound	-10.4245
head	-10.4248
▁buck	-10.4267
ade	-10.4275
ors	-10.4276
▁bull	-10.4289
▁computers	-10.4299
like	-10.43
▁punk	-10.4313
▁affair	-10.4317
▁balloon	-10.4324
▁citizen	-10.4324
▁mentor	-10.4326
▁nerve	-10.4326
▁height	-10.4327
▁issue	-10.4328
▁mc	-10.4329
▁plate	-10.433
▁pirate	-10.4332
▁titan	-10.4334
▁toward	-10.4335
rk	-10.4344
▁bra	-10.436
▁showing	-10.4365
gan	-10.4374
▁fort	-10.438
▁flintstones	-10.4385
▁sh	-10.4394
▁streets	-10.4413
▁shoo	-10.4432
▁greeks	-10.4437
▁wears	-10.4438
▁babys	-10.4439
▁non	-10.4459
iest	-10.4461
▁husbands	-10.4465
▁wrestle	-10.4481
▁inform	-10.4501
▁wast	-10.4501
▁spoil	-10.4501
▁success	-10.4502
▁confirm	-10.4503
▁develop	-10.4504
▁trap	-10.4504
field	-10.4507
▁deb	-10.4507
▁achieve	-10.451
▁torture	-10.451
box	-10.4512
▁replace	-10.4512
boy	-10.4518
▁coin	-10.4519
▁immediate	-10.452
▁actual	-10.452
▁absolute	-10.4521
▁ack	-10.4521
day	-10.4522
▁flip	-10.4528
▁rack	-10.4529
▁yup	-10.453
▁herb	-10.453
▁brand	-10.4531
▁stubborn	-10.4532
▁slip	-10.4532
▁runner	-10.4532
▁academy	-10.4534
▁accent	-10.4534
▁alexander	-10.4534
▁april	-10.4534
▁ashamed	-10.4534
▁bartolini	-10.4534
▁beautifui	-10.4534
▁calculations	-10.4534
▁campaign	-10.4534
▁cassandra	-10.4534
▁celebration	-10.4534
▁certificate	-10.4534
▁chimpanzee	-10.4534
▁cleveland	-10.4534
▁colwyn	-10.4534
▁dazzling	-10.4534
▁dorothea	-10.4534
▁fuzzy	-10.4534
▁helicopter	-10.4534
▁huddle	-10.4534
▁indicate	-10.4534
▁kimberly	-10.4534
▁milner	-10.4534
▁miserable	-10.4534
▁nigger	-10.4534
▁pascal	-10.4534
▁rhonda	-10.4534
▁schwartzwalder	-10.4534
▁senior	-10.4534
▁sherman	-10.4534
▁stammers	-10.4534
▁vitruvius	-10.4534
▁vodka	-10.4534
▁wisdom	-10.4534
▁blares	-10.4534
▁elevator	-10.4534
▁syndicate	-10.4534
▁mostly	-10.4534
▁korso	-10.4534
▁smith	-10.4534
▁susan	-10.4534
▁lunatic	-10.4534
▁freddie	-10.4534
▁brandnew	-10.4534
▁capcom	-10.4534
▁freezing	-10.4534
▁addition	-10.4534
▁forfeit	-10.4534
▁material	-10.4534
▁alert	-10.4534
▁downtown	-10.4534
▁elevar	-10.4534
▁average	-10.4534
▁excitement	-10.4534
▁uther	-10.4534
▁brick	-10.4534
▁leap	-10.4534
▁dick	-10.4534
▁begging	-10.4534
▁delos	-10.4534
▁angle	-10.4534
▁stevenson	-10.4534
▁blah	-10.4534
▁delightful	-10.4535
▁possibility	-10.4535
▁species	-10.4535
▁educate	-10.4535
▁grail	-10.4535
▁clare	-10.4535
▁sunset	-10.4535
▁impression	-10.4535
▁bien	-10.4535
▁existence	-10.4535
▁fanny	-10.4535
▁sunny	-10.4536
▁jimbo	-10.4536
▁domino	-10.4536
▁chew	-10.4536
▁chef	-10.4536
▁shelby	-10.4536
▁starving	-10.4536
▁thou	-10.4536
▁peaches	-10.4537
▁hidden	-10.4537
▁fuss	-10.4537
▁firebird	-10.4537
▁accidentally	-10.4538
▁lightning	-10.4538
▁ripped	-10.4538
▁toss	-10.4538
▁skinny	-10.4538
▁fries	-10.4538
▁taxi	-10.4539
▁injured	-10.4539
▁update	-10.4539
▁determined	-10.454
▁annu	-10.454
▁sniffing	-10.454
▁steak	-10.454
▁johnson	-10.4541
▁dishes	-10.4541
▁hideous	-10.4541
▁presentation	-10.4541
▁breakdown	-10.4542
▁izzy	-10.4542
▁chet	-10.4542
▁andy	-10.4543
▁standard	-10.4543
▁invented	-10.4543
▁threatened	-10.4543
▁bold	-10.4544
▁clattering	-10.4544
▁lean	-10.4545
away	-10.4545
▁compared	-10.4546
▁barry	-10.4547
▁ballet	-10.4551
▁decker	-10.4551
▁forty	-10.4553
▁clicking	-10.4553
▁cutting	-10.4553
▁gal	-10.4553
▁slightly	-10.4553
▁convinced	-10.4554
▁kite	-10.4555
▁superman	-10.4556
▁gutsy	-10.4557
▁dial	-10.456
▁sakes	-10.4561
ber	-10.4562
▁tax	-10.4563
▁wrestler	-10.4564
nut	-10.4566
▁thrilled	-10.4574
▁granted	-10.4575
▁fame	-10.4575
▁louder	-10.4577
▁this	-10.4579
▁blown	-10.4583
cking	-10.4583
▁passes	-10.4584
▁moral	-10.4585
▁dee	-10.4587
▁designed	-10.4588
▁talented	-10.4591
▁gotcha	-10.4596
▁normally	-10.4598
▁entered	-10.4601
▁rd	-10.4602
▁learnt	-10.4606
▁alpha	-10.4606
▁wrap	-10.4607
▁frankly	-10.4608
▁hooked	-10.4608
▁anton	-10.461
▁buzzer	-10.4612
▁whistles	-10.4614
▁roy	-10.4625
▁sta	-10.4632
▁sailing	-10.4634
▁cheating	-10.4647
▁balls	-10.4657
▁cracking	-10.4657
▁whoops	-10.4665
▁painful	-10.4689
▁enjoyed	-10.4695
▁fence	-10.4743
▁deed	-10.4754
port	-10.4754
▁comment	-10.4767
pping	-10.4768
▁jokes	-10.4778
▁ust	-10.4792
▁mistakes	-10.4795
▁depend	-10.4804
▁plants	-10.4815
▁wondered	-10.4816
ire	-10.4825
▁du	-10.4826
▁masterbuilders	-10.4832
▁rub	-10.4835
▁reed	-10.4841
▁lame	-10.4851
▁clouds	-10.4851
ible	-10.4854
▁marrying	-10.4884
▁slaves	-10.4887
unk	-10.4901
ks	-10.4907
▁pigs	-10.4914
▁exists	-10.4924
▁souther	-10.4928
▁shots	-10.4929
▁roses	-10.4932
kins	-10.4942
▁manor	-10.4943
▁starter	-10.4952
▁su	-10.4954
▁meaning	-10.4955
▁rooms	-10.4959
oft	-10.496
▁fe	-10.4983
▁ni	-10.4986
▁stands	-10.4991
▁y	-10.5006
▁bum	-10.5011
▁touching	-10.5014
▁missions	-10.5015
ms	-10.5022
▁mid	-10.5031
▁colors	-10.5038
▁nap	-10.5056
▁reno	-10.5076
▁ka	-10.5079
▁opera	-10.5085
▁drops	-10.5089
▁stuffed	-10.5098
▁tone	-10.511
▁uncles	-10.5124
▁files	-10.5126
▁dealing	-10.5137
▁chances	-10.514
sky	-10.5154
ru	-10.5175
▁hen	-10.518
▁occasion	-10.5219
▁trunk	-10.522
▁cowboy	-10.522
▁marine	-10.5221
▁tastes	-10.5225
▁strikes	-10.5225
▁object	-10.5226
▁mirror	-10.5226
▁depth	-10.5228
▁loski	-10.5231
▁league	-10.5231
kin	-10.5232
▁neighbor	-10.5236
▁glove	-10.5237
▁grandmas	-10.5258
▁fer	-10.5274
▁ki	-10.5287
ock	-10.529
ttering	-10.5299
berry	-10.5315
▁mode	-10.5336
▁sha	-10.5342
▁sal	-10.5381
work	-10.5384
▁screech	-10.5389
▁film	-10.5391
▁shrink	-10.5391
▁bleed	-10.5394
▁zap	-10.5395
room	-10.5396
ap	-10.5405
▁secure	-10.542
▁guilt	-10.5425
▁sudden	-10.5429
face	-10.5432
fund	-10.5434
▁gang	-10.5435
▁carpathia	-10.5436
▁positions	-10.5437
▁mystic	-10.5437
▁education	-10.5437
▁rick	-10.5438
▁cod	-10.544
hop	-10.544
▁gentle	-10.544
▁reception	-10.5441
▁greet	-10.5442
▁resist	-10.5442
▁plot	-10.5442
▁beetle	-10.5443
▁aqua	-10.5443
▁aziz	-10.5443
▁beindorf	-10.5443
▁beneath	-10.5443
▁corcoran	-10.5443
▁coronation	-10.5443
▁craven	-10.5443
▁demonstration	-10.5443
▁destination	-10.5443
▁dwayne	-10.5443
▁eleven	-10.5443
▁enemies	-10.5443
▁escort	-10.5443
▁explode	-10.5443
▁heavily	-10.5443
▁heip	-10.5443
▁ibm	-10.5443
▁incandesto	-10.5443
▁interview	-10.5443
▁krupp	-10.5443
▁largo	-10.5443
▁laundry	-10.5443
▁medicine	-10.5443
▁minneapolis	-10.5443
▁montrose	-10.5443
▁mtv	-10.5443
▁mulch	-10.5443
▁naughty	-10.5443
▁otho	-10.5443
▁patricia	-10.5443
▁phoeni	-10.5443
▁rejoice	-10.5443
▁reputation	-10.5443
▁sofa	-10.5443
▁violet	-10.5443
▁method	-10.5443
▁noodles	-10.5443
▁thick	-10.5443
▁knowledge	-10.5443
▁justin	-10.5443
▁seminar	-10.5443
▁spiritual	-10.5443
▁vardon	-10.5443
▁quality	-10.5443
▁pursuit	-10.5443
▁mankind	-10.5443
▁wretche	-10.5443
▁bidding	-10.5443
▁ducksworth	-10.5443
▁highpi	-10.5443
▁compete	-10.5443
▁sheryl	-10.5443
▁behalf	-10.5443
▁intelligence	-10.5443
▁jewelry	-10.5443
▁entrance	-10.5443
▁tsk	-10.5443
▁pony	-10.5443
▁racehorse	-10.5443
▁bradley	-10.5443
▁elise	-10.5443
▁motor	-10.5443
▁fever	-10.5443
▁potential	-10.5443
▁stress	-10.5443
▁wimp	-10.5443
▁alfred	-10.5443
▁medical	-10.5443
▁huntington	-10.5444
▁necktie	-10.5444
▁pronounce	-10.5444
▁barrel	-10.5444
▁karp	-10.5444
▁district	-10.5444
▁grandchildren	-10.5444
▁privilege	-10.5444
▁collar	-10.5444
▁principal	-10.5444
▁festival	-10.5444
▁produce	-10.5444
▁rabies	-10.5444
▁task	-10.5444
▁transport	-10.5444
▁lunchbox	-10.5445
▁lazy	-10.5445
▁overtime	-10.5445
▁liz	-10.5445
▁starfish	-10.5445
▁eternal	-10.5445
▁romance	-10.5445
▁squeaking	-10.5445
▁hans	-10.5445
▁flash	-10.5446
▁announcement	-10.5446
▁concentrate	-10.5446
▁jew	-10.5446
▁whatll	-10.5446
▁expression	-10.5446
▁oui	-10.5447
▁amuse	-10.5447
▁original	-10.5447
▁trial	-10.5447
ght	-10.5448
▁text	-10.5448
▁romeo	-10.5448
▁williamson	-10.5448
▁cameron	-10.5449
▁hirota	-10.5449
▁knockout	-10.545
▁palmer	-10.545
▁personality	-10.5451
▁heal	-10.5451
▁bri	-10.5452
▁sore	-10.5453
▁lava	-10.5453
▁carrots	-10.5454
▁longhorns	-10.5454
▁freshman	-10.5454
▁mayol	-10.5455
▁approved	-10.5456
gged	-10.5456
▁proof	-10.5457
▁worm	-10.5457
▁cor	-10.5457
▁inspired	-10.5461
▁cargo	-10.5461
▁campus	-10.5462
jesse	-10.5464
▁creepy	-10.5467
▁pot	-10.5467
▁dom	-10.5468
▁mia	-10.5469
▁corpse	-10.5474
▁captured	-10.5478
▁union	-10.5479
▁off	-10.5484
▁arrested	-10.549
▁classes	-10.5495
▁scraps	-10.5498
▁tip	-10.5499
▁blessed	-10.5499
▁lone	-10.55
▁movement	-10.5503
▁provide	-10.5508
▁grabb	-10.5509
▁honks	-10.5512
▁manners	-10.5512
ther	-10.552
oc	-10.5529
▁searching	-10.5532
▁cakes	-10.5535
▁thas	-10.5537
▁packed	-10.5549
▁can	-10.5572
▁tend	-10.5572
▁shares	-10.5574
tion	-10.5584
▁whas	-10.5587
erial	-10.5587
▁tested	-10.5602
▁heels	-10.5611
▁casey	-10.5616
ex	-10.5621
▁now	-10.5624
▁tips	-10.5644
sel	-10.5646
▁pushed	-10.5646
▁recording	-10.5647
▁chin	-10.5652
▁offering	-10.5661
▁grounded	-10.5669
▁temper	-10.5678
▁ram	-10.5682
▁stare	-10.5686
▁barks	-10.5694
▁pu	-10.5696
▁cleaned	-10.5706
hi	-10.5711
ima	-10.5722
▁range	-10.573
▁laps	-10.5749
ration	-10.5751
im	-10.5753
bar	-10.5754
con	-10.5755
▁gr	-10.5766
▁rolling	-10.5772
▁stinks	-10.5774
▁bones	-10.5776
▁bel	-10.578
▁mol	-10.5782
▁fools	-10.5784
▁nightmares	-10.5792
esy	-10.5809
▁ws	-10.5824
▁officers	-10.5827
▁po	-10.5837
▁under	-10.5859
▁coaching	-10.5865
ya	-10.5871
▁del	-10.5882
fish	-10.59
▁savings	-10.5914
▁image	-10.5914
▁figures	-10.5941
tte	-10.5951
▁passing	-10.5953
▁on	-10.5963
ism	-10.5972
▁para	-10.5976
▁inn	-10.5991
bb	-10.6014
some	-10.6024
▁cons	-10.6042
▁teachers	-10.6058
ef	-10.6073
ak	-10.6106
▁gl	-10.6115
ward	-10.6117
ue	-10.6122
▁cheers	-10.6128
▁ac	-10.6131
▁hiya	-10.6136
▁tracks	-10.6162
va	-10.6165
▁unh	-10.618
ep	-10.6182
▁quarters	-10.6206
▁paw	-10.6217
▁invitation	-10.622
▁bake	-10.622
▁jock	-10.6221
▁string	-10.6221
▁coke	-10.6223
▁holes	-10.6229
▁comp	-10.6232
▁lan	-10.6236
▁banana	-10.6238
▁brake	-10.6244
▁immortal	-10.6245
▁skill	-10.6246
▁dollar	-10.6249
▁blocks	-10.6252
ities	-10.6264
▁nin	-10.6265
▁electric	-10.6266
tar	-10.6275
▁shoe	-10.6305
▁che	-10.6306
▁programme	-10.6312
▁surf	-10.6337
cha	-10.6337
▁squirrels	-10.6355
▁oops	-10.6369
▁piss	-10.6373
▁pad	-10.6385
▁glow	-10.6388
▁crawl	-10.6393
▁regard	-10.6393
▁fa	-10.6394
book	-10.6395
▁fleet	-10.6395
▁when	-10.6398
▁corps	-10.6408
▁volunteer	-10.6408
▁receive	-10.641
▁distract	-10.641
▁crow	-10.6414
▁cases	-10.6419
▁urgent	-10.6428
▁chris	-10.6428
fianc	-10.643
▁bryan	-10.6432
▁sw	-10.6432
▁mil	-10.6432
▁origin	-10.6438
▁rome	-10.644
▁fortuna	-10.6441
▁civil	-10.6442
▁comb	-10.6442
▁abdullah	-10.6443
▁adorable	-10.6443
▁advantage	-10.6443
▁afterwards	-10.6443
▁ambassador	-10.6443
▁armando	-10.6443
▁ashira	-10.6443
▁automatic	-10.6443
▁avenue	-10.6443
▁bammbamm	-10.6443
▁bluenote	-10.6443
▁boycott	-10.6443
▁corridor	-10.6443
▁cyril	-10.6443
▁darren	-10.6443
▁despair	-10.6443
▁diamond	-10.6443
▁dylan	-10.6443
▁dynamite	-10.6443
▁evergiot	-10.6443
▁footsteps	-10.6443
▁fridge	-10.6443
▁habib	-10.6443
▁lengyel	-10.6443
▁loretta	-10.6443
▁lyssa	-10.6443
▁magazine	-10.6443
▁maintain	-10.6443
▁mamaji	-10.6443
▁munion	-10.6443
▁nikki	-10.6443
▁odile	-10.6443
▁palermo	-10.6443
▁pamela	-10.6443
▁penalty	-10.6443
▁phillip	-10.6443
▁plaza	-10.6443
▁purple	-10.6443
▁reentry	-10.6443
▁response	-10.6443
▁reunion	-10.6443
▁shotgun	-10.6443
▁signature	-10.6443
▁snoring	-10.6443
▁soccer	-10.6443
▁sunrise	-10.6443
▁survival	-10.6443
▁symbol	-10.6443
▁television	-10.6443
▁territory	-10.6443
▁wrightwood	-10.6443
▁incoming	-10.6443
▁proceed	-10.6443
▁chancing	-10.6443
▁spear	-10.6443
▁concept	-10.6443
▁bachelorette	-10.6443
▁candle	-10.6443
▁mitchell	-10.6443
▁stalk	-10.6443
▁crikey	-10.6443
▁budget	-10.6443
▁stew	-10.6443
▁employee	-10.6443
▁stiles	-10.6443
▁worries	-10.6443
▁amusing	-10.6443
▁trisha	-10.6443
▁kidnapped	-10.6443
▁hollywood	-10.6443
▁lewis	-10.6443
▁maximum	-10.6443
▁communist	-10.6443
▁chump	-10.6443
▁drew	-10.6443
▁judgment	-10.6443
▁flipper	-10.6443
▁moonwind	-10.6443
▁japan	-10.6443
▁palace	-10.6443
▁stith	-10.6443
▁hush	-10.6443
▁catholic	-10.6443
▁foam	-10.6443
▁furious	-10.6443
▁grizzlies	-10.6443
▁springfield	-10.6444
▁gentry	-10.6444
▁rattle	-10.6444
▁confident	-10.6444
▁marty	-10.6444
▁greetings	-10.6444
▁halloween	-10.6444
▁society	-10.6444
▁relay	-10.6444
▁thirty	-10.6444
▁belief	-10.6444
▁hippo	-10.6444
▁represent	-10.6444
▁consume	-10.6444
▁inspector	-10.6444
▁chaos	-10.6444
▁adjust	-10.6444
▁quill	-10.6444
▁stake	-10.6444
▁anger	-10.6444
▁squeeze	-10.6444
▁tyrant	-10.6445
▁jockey	-10.6445
▁candie	-10.6445
▁pumpkin	-10.6445
▁wax	-10.6445
▁caddie	-10.6445
▁rehearsal	-10.6445
▁personnel	-10.6445
▁philosophy	-10.6446
▁princeton	-10.6446
▁pippi	-10.6446
▁chili	-10.6447
▁dort	-10.6447
▁robin	-10.6447
▁coop	-10.6447
▁peak	-10.6447
▁gail	-10.6447
▁modest	-10.6447
▁strategy	-10.6448
▁topsy	-10.6448
▁pinch	-10.6448
▁pace	-10.6448
▁inches	-10.6448
▁erm	-10.6448
▁theatre	-10.6449
▁drift	-10.6449
▁amongst	-10.6449
▁bush	-10.6449
▁constant	-10.6449
▁gravity	-10.6449
▁recovery	-10.6449
▁salad	-10.645
▁chest	-10.645
▁spies	-10.645
▁cries	-10.645
▁kneel	-10.645
▁coughing	-10.6451
▁roaring	-10.6451
▁tries	-10.6452
▁stealth	-10.6452
▁sonny	-10.6452
▁taft	-10.6453
▁inch	-10.6453
▁iu	-10.6453
▁daylight	-10.6453
▁grouchy	-10.6453
▁audible	-10.6453
▁michaelson	-10.6454
▁xl	-10.6454
are	-10.6454
▁bedtime	-10.6455
▁playbook	-10.6455
▁quitting	-10.6456
▁buckley	-10.6457
▁superheroes	-10.6458
▁sang	-10.6459
▁nerd	-10.6459
▁billion	-10.6461
▁hose	-10.6461
what	-10.6462
▁mechanical	-10.6463
▁sum	-10.6464
▁shipment	-10.6466
▁shy	-10.6466
▁acky	-10.6466
▁creed	-10.6467
▁useful	-10.6469
▁separated	-10.6469
▁reasonable	-10.6471
▁retired	-10.6475
▁advanced	-10.6475
▁goodnight	-10.6477
▁removed	-10.6484
▁gin	-10.6484
▁defeated	-10.6486
▁tender	-10.6486
▁chanting	-10.6487
▁lend	-10.6489
▁perfection	-10.6489
▁rage	-10.6491
▁lifetime	-10.6493
▁janet	-10.6497
▁bleeding	-10.6497
▁backwards	-10.6497
▁rapids	-10.6498
▁earned	-10.6503
tor	-10.6506
▁calculate	-10.6512
▁sheets	-10.652
▁laws	-10.652
▁debts	-10.652
▁considered	-10.6522
▁facts	-10.6522
fire	-10.6526
▁floating	-10.6528
▁erica	-10.6528
▁tubes	-10.653
▁deeper	-10.6534
▁twink	-10.6539
▁waponis	-10.6541
▁discipline	-10.6544
▁finest	-10.6546
▁mob	-10.6548
▁duel	-10.6549
▁sticks	-10.6555
▁mikey	-10.6563
▁claws	-10.6563
▁metaphors	-10.6563
▁muscles	-10.6563
▁poll	-10.6567
▁marked	-10.658
▁dep	-10.6585
▁exclaims	-10.6586
▁county	-10.6587
ile	-10.6591
▁magnetic	-10.6592
▁communicate	-10.6598
▁crossed	-10.66
ok	-10.6601
ford	-10.6607
▁groves	-10.6607
▁grows	-10.6609
▁feeding	-10.6612
▁drums	-10.6612
vital	-10.6616
▁pope	-10.6618
more	-10.6618
▁ty	-10.6624
▁relatives	-10.6629
▁flu	-10.6635
▁sins	-10.664
▁rode	-10.6644
▁lo	-10.6651
▁raining	-10.6654
▁drawer	-10.6664
wh	-10.6679
▁bothering	-10.668
▁kin	-10.6684
▁shoots	-10.6689
▁hills	-10.6689
bell	-10.6708
▁measure	-10.6711
▁site	-10.6711
▁pumps	-10.672
▁colt	-10.6737
act	-10.6737
▁snakes	-10.6763
ified	-10.6764
▁tri	-10.6782
▁results	-10.6786
▁sr	-10.679
ger	-10.6791
▁fooling	-10.6795
pit	-10.6795
▁ay	-10.68
ley	-10.68
for	-10.6805
▁chains	-10.6831
▁scholarships	-10.6831
▁walker	-10.686
her	-10.6864
▁ads	-10.6878
▁rangers	-10.6879
▁cleared	-10.6903
▁joining	-10.6918
▁sin	-10.6918
▁conditions	-10.6947
▁remains	-10.6949
▁caves	-10.6968
▁kissing	-10.6978
▁lessons	-10.6994
▁sticking	-10.6998
▁sharks	-10.7037
▁ham	-10.7052
▁sto	-10.7056
▁dreamed	-10.7067
▁covers	-10.707
▁badly	-10.7072
ator	-10.7076
ell	-10.7083
rn	-10.7094
▁rag	-10.7096
▁becomes	-10.711
▁pos	-10.7113
▁prop	-10.7129
▁tro	-10.7139
▁visual	-10.7155
▁we	-10.7185
▁lawful	-10.7186
ez	-10.7187
▁fu	-10.7194
lie	-10.7204
▁understanding	-10.7216
▁headed	-10.7258
▁ybia	-10.7267
▁twin	-10.7286
▁beasts	-10.7294
▁bur	-10.7315
▁cameras	-10.7318
▁ins	-10.7327
▁rooster	-10.7331
▁temperature	-10.7331
▁conclusion	-10.7331
▁towel	-10.7331
▁email	-10.7332
▁estate	-10.7332
▁connection	-10.7333
▁length	-10.7335
▁shade	-10.7335
ial	-10.734
▁beak	-10.7341
▁wo	-10.7342
▁pearl	-10.7343
▁compliment	-10.7346
▁relative	-10.7349
▁heel	-10.7352
▁cla	-10.7357
ut	-10.736
▁inc	-10.7361
▁hundreds	-10.7365
▁prisoner	-10.7365
tched	-10.7377
▁slap	-10.7384
▁prayer	-10.7389
▁dock	-10.7401
▁sings	-10.7427
under	-10.7433
▁photograph	-10.7434
▁situations	-10.7437
ically	-10.7437
▁ken	-10.7444
▁suite	-10.7449
▁seas	-10.7453
▁chop	-10.7456
▁voices	-10.7461
▁exception	-10.7465
▁disappoint	-10.7472
▁brief	-10.749
itch	-10.7492
place	-10.75
▁qyack	-10.7502
rate	-10.7503
▁skip	-10.7507
nel	-10.7507
▁speaker	-10.7511
west	-10.7515
q	-10.7515
▁hack	-10.7516
▁lb	-10.7518
▁repair	-10.7519
▁delay	-10.752
▁study	-10.7522
▁betray	-10.7522
▁albert	-10.7523
bird	-10.7528
shot	-10.7529
▁fin	-10.7532
hut	-10.7532
▁stones	-10.7533
tail	-10.7535
▁rob	-10.7538
▁reserve	-10.7538
▁shave	-10.7539
▁permanent	-10.754
▁los	-10.7543
▁luis	-10.7545
▁separate	-10.7545
▁sch	-10.7546
▁hyper	-10.7548
▁torpedo	-10.7548
▁branch	-10.7548
▁thrust	-10.755
▁translat	-10.7551
▁loyal	-10.7553
▁element	-10.7553
through	-10.7554
▁capital	-10.7554
▁horizon	-10.7554
▁infinity	-10.7554
▁psycho	-10.7554
▁affirmative	-10.7554
▁anyhow	-10.7554
▁arnold	-10.7554
▁athlete	-10.7554
▁bermuda	-10.7554
▁boogie	-10.7554
▁brearh	-10.7554
▁bubbie	-10.7554
▁buon	-10.7554
▁cactus	-10.7554
▁centuries	-10.7554
▁coincidence	-10.7554
▁cramp	-10.7554
▁dentist	-10.7554
▁eberhart	-10.7554
▁empire	-10.7554
▁evidence	-10.7554
▁explosion	-10.7554
▁extension	-10.7554
▁federal	-10.7554
▁fernandes	-10.7554
▁fierce	-10.7554
▁fishfinger	-10.7554
▁gibb	-10.7554
▁guinevere	-10.7554
▁guvnor	-10.7554
▁hawaii	-10.7554
▁heartbeat	-10.7554
▁holmes	-10.7554
▁isiand	-10.7554
▁jeff	-10.7554
▁jimothy	-10.7554
▁julianna	-10.7554
▁kangaroo	-10.7554
▁marvelous	-10.7554
▁memphis	-10.7554
▁mumbling	-10.7554
▁nickname	-10.7554
▁notify	-10.7554
▁observe	-10.7554
▁offensive	-10.7554
▁oliver	-10.7554
▁opponent	-10.7554
▁ouimet	-10.7554
▁pennant	-10.7554
▁piscine	-10.7554
▁poldark	-10.7554
▁popcorn	-10.7554
▁popular	-10.7554
▁portuguese	-10.7554
▁profile	-10.7554
▁satellite	-10.7554
▁siggy	-10.7554
▁snack	-10.7554
▁souvenir	-10.7554
▁specimen	-10.7554
▁supervisor	-10.7554
▁supply	-10.7554
▁tammy	-10.7554
▁tokyo	-10.7554
▁trigger	-10.7554
▁uncomfortable	-10.7554
▁unexpected	-10.7554
▁vault	-10.7554
▁whimpers	-10.7554
▁winslow	-10.7554
▁xavier	-10.7554
▁disrupt	-10.7554
▁dorsey	-10.7554
▁doyle	-10.7554
▁ipod	-10.7554
▁irene	-10.7554
▁neighbourhood	-10.7554
▁otter	-10.7554
▁underpants	-10.7554
▁bicycle	-10.7554
▁coyle	-10.7554
▁publish	-10.7554
▁beaumont	-10.7554
▁defence	-10.7554
▁luggage	-10.7554
▁gonogo	-10.7554
▁mercury	-10.7554
▁stella	-10.7554
▁illusion	-10.7554
▁beloved	-10.7554
▁maniac	-10.7554
▁dawson	-10.7554
▁recall	-10.7554
▁theory	-10.7554
▁presence	-10.7554
▁ruoppoio	-10.7554
▁cosimo	-10.7554
▁riley	-10.7554
▁shiny	-10.7554
▁creak	-10.7554
▁choke	-10.7554
▁mambo	-10.7554
▁detective	-10.7554
▁blink	-10.7554
▁capella	-10.7554
▁continent	-10.7554
▁item	-10.7554
▁pastuzo	-10.7554
▁aaah	-10.7554
▁allergic	-10.7554
▁polish	-10.7554
▁novel	-10.7554
▁riot	-10.7554
uuu	-10.7554
▁blend	-10.7554
▁rent	-10.7554
▁puff	-10.7555
▁slayers	-10.7555
▁digging	-10.7555
▁spacecraft	-10.7555
▁chores	-10.7555
▁pep	-10.7555
▁edward	-10.7555
▁facility	-10.7555
▁stiff	-10.7555
▁franklin	-10.7555
▁combat	-10.7555
▁improvement	-10.7555
▁muffled	-10.7555
▁diva	-10.7555
▁kansas	-10.7555
▁stream	-10.7555
▁carpet	-10.7555
▁fox	-10.7555
▁religion	-10.7556
▁exam	-10.7556
▁ayah	-10.7556
▁patrol	-10.7556
▁owned	-10.7556
▁gunshot	-10.7556
▁gunfire	-10.7556
▁arts	-10.7556
▁enid	-10.7556
▁suicide	-10.7556
▁brush	-10.7556
▁coleman	-10.7556
▁fold	-10.7556
▁gaze	-10.7556
▁petty	-10.7556
▁benny	-10.7557
▁accountant	-10.7557
▁lookin	-10.7557
▁sewers	-10.7557
▁dickon	-10.7557
▁chuckie	-10.7557
▁spill	-10.7557
▁nickel	-10.7557
▁dull	-10.7557
▁logical	-10.7557
▁selfish	-10.7558
▁harmless	-10.7558
▁swell	-10.7558
▁fbi	-10.7558
▁package	-10.7558
▁cruise	-10.7558
▁thirsty	-10.7559
▁sacred	-10.7559
▁raw	-10.7559
▁broad	-10.7559
▁unlike	-10.7559
▁handbook	-10.756
▁lightfoot	-10.756
▁apply	-10.756
▁mustache	-10.756
▁maid	-10.756
▁scatter	-10.756
▁fog	-10.756
▁canal	-10.7561
▁adel	-10.7561
▁layla	-10.7561
▁tag	-10.7562
▁suggestion	-10.7562
▁realise	-10.7562
▁muttering	-10.7562
▁emily	-10.7563
▁narrow	-10.7563
▁overman	-10.7564
▁morgana	-10.7565
▁dork	-10.7567
ville	-10.7567
▁recovered	-10.7567
▁discovery	-10.7568
▁growth	-10.7568
▁moaning	-10.7569
▁curly	-10.757
▁dreadful	-10.757
▁backyard	-10.757
▁divided	-10.7571
▁condo	-10.7571
▁roberto	-10.7571
▁gro	-10.7573
▁steer	-10.7574
▁pour	-10.7575
all	-10.7575
▁tore	-10.7576
pin	-10.7577
▁stranded	-10.7577
▁connected	-10.7577
▁mild	-10.7577
▁itch	-10.7578
▁shallow	-10.7578
▁angeles	-10.7579
▁pod	-10.7579
▁anti	-10.758
▁herring	-10.758
▁chute	-10.7582
▁replaced	-10.7583
▁hooting	-10.7583
▁campers	-10.7586
▁officially	-10.7586
▁rank	-10.7586
▁thinkin	-10.7588
▁pissed	-10.7588
▁bury	-10.7589
fight	-10.759
▁lawn	-10.7591
▁explosives	-10.7591
▁ribs	-10.7592
▁ticking	-10.7592
▁sexy	-10.7592
▁properly	-10.7592
▁receiver	-10.7592
▁released	-10.7597
▁mounted	-10.7599
lli	-10.7601
▁sparky	-10.7602
▁myth	-10.7604
▁managed	-10.7605
▁pole	-10.7609
▁crawling	-10.7609
▁ancestors	-10.7615
▁vegetables	-10.7615
▁toots	-10.7615
▁mock	-10.762
▁teams	-10.7621
▁bon	-10.7622
▁chim	-10.7622
tal	-10.7623
zy	-10.7623
▁served	-10.7627
▁bella	-10.7628
▁heed	-10.763
▁loudly	-10.7633
▁chu	-10.7636
▁creat	-10.7637
ired	-10.7643
▁chant	-10.7644
▁bent	-10.7647
▁stinking	-10.7653
▁safer	-10.7661
▁shadows	-10.7665
▁slams	-10.7666
▁burned	-10.7678
▁wasted	-10.7679
▁maxie	-10.7688
▁cents	-10.769
▁awaits	-10.769
▁bombs	-10.7693
▁shr	-10.7693
▁entering	-10.7697
▁bobbin	-10.7704
▁quicker	-10.7707
▁climbing	-10.7714
▁sew	-10.7719
▁imagined	-10.7722
▁biolog	-10.7724
▁hump	-10.7733
but	-10.7734
▁wit	-10.7738
▁pretending	-10.7744
oh	-10.7746
▁timeout	-10.7756
▁bananas	-10.7789
▁don	-10.7791
▁ding	-10.7791
▁fir	-10.7804
▁dudes	-10.7804
right	-10.7804
ini	-10.7812
▁tryin	-10.7813
▁gloves	-10.7814
▁bets	-10.7814
▁shown	-10.7816
▁bomber	-10.7821
ming	-10.7828
▁prom	-10.7831
▁issues	-10.7839
▁crossing	-10.784
▁encourage	-10.7846
▁honored	-10.7848
▁tons	-10.7858
▁ph	-10.7859
▁painter	-10.7871
▁lands	-10.7874
▁clubs	-10.7879
ory	-10.7879
▁durbervilles	-10.789
▁pills	-10.789
▁bullets	-10.789
ron	-10.7899
▁gu	-10.7903
▁reporters	-10.7917
▁spa	-10.7917
▁browns	-10.7926
▁mens	-10.7936
▁statu	-10.7973
▁suits	-10.7977
▁lawyers	-10.7991
▁den	-10.8013
▁nuns	-10.8017
gh	-10.8029
▁jen	-10.8046
cus	-10.8051
iii	-10.8054
▁conduct	-10.806
▁damned	-10.8061
▁mend	-10.8076
▁bills	-10.8084
▁cowards	-10.8094
▁bru	-10.8095
year	-10.8114
▁fund	-10.8116
▁buttons	-10.8122
nk	-10.8127
istic	-10.8127
▁jobs	-10.8138
▁waiter	-10.8139
onic	-10.8151
▁weekends	-10.8172
▁tanks	-10.8172
sco	-10.8174
min	-10.819
▁clu	-10.819
▁ri	-10.8192
▁decisions	-10.8198
▁jerks	-10.8198
▁ropes	-10.8224
▁disable	-10.8241
▁mut	-10.8247
ummy	-10.8263
▁gil	-10.8281
val	-10.829
br	-10.8304
▁mega	-10.831
▁hoped	-10.8311
▁rein	-10.8321
ttle	-10.8327
▁championships	-10.8329
▁quests	-10.8332
ress	-10.8337
ab	-10.8346
kov	-10.8353
com	-10.8364
▁types	-10.8367
▁mat	-10.8369
bag	-10.8397
gle	-10.84
▁clearing	-10.8402
▁drum	-10.8409
▁presents	-10.8418
▁surprises	-10.8423
▁costs	-10.8437
▁sho	-10.8457
▁tap	-10.8477
▁bi	-10.8483
ence	-10.8489
▁bakers	-10.8493
▁severe	-10.8536
▁graduate	-10.856
ations	-10.8567
▁cre	-10.8568
▁tit	-10.8576
▁andrea	-10.8581
▁jesuit	-10.8582
▁rubble	-10.8582
▁stall	-10.8584
▁scout	-10.8589
▁contain	-10.8592
▁pigeon	-10.8592
▁doll	-10.8592
nal	-10.8595
▁individual	-10.8595
▁pattern	-10.8596
▁medal	-10.8596
▁experiment	-10.8596
▁grove	-10.8596
▁engraving	-10.8597
ight	-10.8599
▁hum	-10.8602
▁folk	-10.8613
▁shutter	-10.8615
▁mare	-10.8618
▁tar	-10.8619
clear	-10.862
▁sm	-10.8621
▁agents	-10.8624
▁farmer	-10.8635
▁rap	-10.8636
tie	-10.8647
▁records	-10.8661
ette	-10.8666
lla	-10.8672
▁nu	-10.8673
▁tent	-10.868
ft	-10.8688
▁dip	-10.8699
▁shipp	-10.8723
yi	-10.8725
▁fry	-10.8728
▁complain	-10.8735
▁kab	-10.8741
▁ver	-10.8751
▁leak	-10.8751
▁bait	-10.8753
▁breed	-10.8753
town	-10.876
▁crook	-10.877
▁daddys	-10.877
▁drain	-10.8771
▁punish	-10.8771
▁haunt	-10.8772
▁establish	-10.8773
▁download	-10.8773
▁loosen	-10.8777
▁likely	-10.878
uh	-10.8781
▁propose	-10.8781
▁hobb	-10.8787
▁convince	-10.8787
four	-10.8788
bound	-10.8788
▁craft	-10.879
▁execution	-10.8793
▁potato	-10.8798
▁emotion	-10.8798
▁chuck	-10.8799
▁risin	-10.88
▁commit	-10.8801
▁confess	-10.8801
▁invest	-10.8802
lly	-10.8802
▁journal	-10.8802
▁tragic	-10.8803
ids	-10.8803
▁drama	-10.8803
▁clip	-10.8803
▁superpower	-10.8804
▁arriving	-10.8804
▁athletic	-10.8804
▁attorney	-10.8804
▁australia	-10.8804
▁cannon	-10.8804
▁capacity	-10.8804
▁ceiling	-10.8804
▁charmaine	-10.8804
▁cheermeister	-10.8804
▁chubby	-10.8804
▁cinnamon	-10.8804
▁circuit	-10.8804
▁competitive	-10.8804
▁diggums	-10.8804
▁embassy	-10.8804
▁essential	-10.8804
▁evacuate	-10.8804
▁expedition	-10.8804
▁fifth	-10.8804
▁fitzroyce	-10.8804
▁fleekfest	-10.8804
▁galaxy	-10.8804
▁garner	-10.8804
▁gravy	-10.8804
▁grief	-10.8804
▁grimsdyke	-10.8804
▁hardware	-10.8804
▁hauptmannkoenig	-10.8804
▁hebrew	-10.8804
▁heisman	-10.8804
▁higloss	-10.8804
▁kennedy	-10.8804
▁lafleur	-10.8804
▁mcgill	-10.8804
▁medlock	-10.8804
▁minimum	-10.8804
▁muffinman	-10.8804
▁ncaa	-10.8804
▁nicholas	-10.8804
▁obstacle	-10.8804
▁pencil	-10.8804
▁persuade	-10.8804
▁portugal	-10.8804
▁primitive	-10.8804
▁procedure	-10.8804
▁protocol	-10.8804
▁puppy	-10.8804
▁razor	-10.8804
▁refrigerator	-10.8804
▁retrieve	-10.8804
▁ricardo	-10.8804
▁rifle	-10.8804
▁rodrigo	-10.8804
▁scotch	-10.8804
▁sheriff	-10.8804
▁sicilian	-10.8804
▁skeleton	-10.8804
▁squirt	-10.8804
▁succeed	-10.8804
▁surveillance	-10.8804
▁tatianna	-10.8804
▁tattoo	-10.8804
▁taylor	-10.8804
▁thumb	-10.8804
▁tournament	-10.8804
▁twirl	-10.8804
▁ultimate	-10.8804
▁wagon	-10.8804
▁welfare	-10.8804
▁whobilation	-10.8804
▁cautious	-10.8804
▁crisis	-10.8804
▁distant	-10.8804
▁envy	-10.8804
▁error	-10.8804
▁evelyn	-10.8804
▁guild	-10.8804
▁importance	-10.8804
▁juicy	-10.8804
▁kimono	-10.8804
▁oath	-10.8804
▁permit	-10.8804
▁random	-10.8804
▁reckon	-10.8804
▁throne	-10.8804
▁ease	-10.8804
▁graduation	-10.8804
▁sexual	-10.8804
▁spindle	-10.8804
▁weld	-10.8804
▁complex	-10.8804
▁dallas	-10.8804
▁diane	-10.8804
▁reilly	-10.8804
▁excess	-10.8804
▁delicate	-10.8804
▁hottest	-10.8804
▁bunnies	-10.8804
▁embrace	-10.8804
▁reveal	-10.8804
▁gracious	-10.8804
▁resent	-10.8804
▁tennis	-10.8804
▁relief	-10.8804
▁upgrade	-10.8804
▁profit	-10.8804
▁channel	-10.8804
▁takeover	-10.8804
▁adopt	-10.8804
▁dictator	-10.8804
▁pedal	-10.8804
▁chlle	-10.8804
▁rattling	-10.8804
▁shining	-10.8804
▁yummy	-10.8804
▁kenny	-10.8804
▁taik	-10.8804
▁lungs	-10.8804
▁sheep	-10.8804
▁gown	-10.8804
▁rubber	-10.8804
▁brooke	-10.8804
▁upside	-10.8804
▁psst	-10.8804
▁thomson	-10.8804
▁yeehaw	-10.8804
▁clinic	-10.8804
▁ruth	-10.8804
▁trend	-10.8805
▁castaway	-10.8805
▁suitcase	-10.8805
▁marble	-10.8805
▁organization	-10.8805
▁countess	-10.8805
▁groceries	-10.8805
▁kong	-10.8805
▁childhood	-10.8805
▁obey	-10.8805
▁sharkboy	-10.8805
▁sack	-10.8805
▁asshole	-10.8805
▁spinning	-10.8805
▁legendary	-10.8805
▁kerby	-10.8805
▁programming	-10.8805
▁mam	-10.8805
▁romero	-10.8805
▁performance	-10.8805
▁reaction	-10.8805
▁passionate	-10.8805
▁submar	-10.8805
▁powder	-10.8806
▁oven	-10.8806
▁cosm	-10.8806
▁bracelet	-10.8806
▁bucket	-10.8806
▁moran	-10.8806
▁disappointment	-10.8806
▁stool	-10.8806
▁firewood	-10.8806
▁exhausted	-10.8806
▁coco	-10.8806
▁meatball	-10.8806
▁ooo	-10.8807
▁slice	-10.8807
▁barber	-10.8807
▁debut	-10.8807
▁development	-10.8807
▁oooh	-10.8807
▁saddle	-10.8807
▁youth	-10.8807
▁fumble	-10.8807
▁indoor	-10.8808
itating	-10.8808
▁surprisingly	-10.8808
▁leaf	-10.8809
▁commandant	-10.8809
▁management	-10.8809
▁soar	-10.8809
▁peaceful	-10.8809
▁plastic	-10.8809
▁rising	-10.8809
▁potatoes	-10.8809
▁freshmen	-10.8809
▁chica	-10.881
▁chimes	-10.881
▁formal	-10.881
▁branches	-10.881
▁foaly	-10.881
▁hoid	-10.881
▁squid	-10.8811
▁oof	-10.8811
▁lifeboat	-10.8811
▁portman	-10.8811
▁moron	-10.8811
▁racket	-10.8812
▁ego	-10.8812
▁core	-10.8812
▁twinkle	-10.8812
▁treatment	-10.8812
▁cloth	-10.8813
▁dna	-10.8813
▁avery	-10.8813
▁mansion	-10.8813
▁label	-10.8814
▁review	-10.8814
▁poop	-10.8815
▁appeal	-10.8816
▁luisa	-10.8816
▁worthless	-10.8816
▁skies	-10.8818
▁installed	-10.8818
▁harmony	-10.8819
▁cole	-10.8819
▁permanently	-10.882
▁forgiveness	-10.882
▁melt	-10.882
amore	-10.8821
▁statement	-10.8821
▁sixty	-10.8822
▁related	-10.8822
▁robbed	-10.8822
▁mix	-10.8824
▁qualified	-10.8825
▁thorne	-10.8825
▁graduated	-10.8825
▁bugger	-10.8827
▁dez	-10.8827
▁q	-10.8827
▁abandoned	-10.8831
▁armor	-10.8831
lair	-10.8833
▁bucky	-10.8833
▁polly	-10.8834
▁classic	-10.8835
not	-10.8835
▁established	-10.8835
▁haha	-10.8835
▁punished	-10.8835
▁deepest	-10.8838
▁geek	-10.8839
▁earl	-10.8839
▁englishman	-10.8839
▁fuck	-10.8843
▁stinky	-10.8846
▁pickup	-10.8846
▁teammates	-10.8846
▁sniffs	-10.8847
▁boiling	-10.8847
▁eve	-10.8847
▁assumed	-10.8848
rig	-10.8849
▁boxes	-10.885
▁whoop	-10.885
▁developed	-10.8851
▁matches	-10.8852
▁divorced	-10.8853
▁hopeless	-10.8853
▁wak	-10.8855
▁prey	-10.8855
▁dresses	-10.8858
▁delighted	-10.8859
▁parties	-10.8863
▁buckle	-10.8865
▁hood	-10.8873
▁chased	-10.8874
▁zorgons	-10.8874
▁associates	-10.8875
▁cock	-10.8876
▁kisses	-10.8878
▁ringo	-10.8883
▁addressed	-10.8888
▁cursed	-10.8893
▁sk	-10.8895
▁curtains	-10.8902
▁my	-10.8906
▁jacket	-10.8908
▁buster	-10.891
▁braves	-10.8912
onne	-10.8912
▁attending	-10.8914
▁tricky	-10.8915
▁sole	-10.8919
▁tor	-10.8927
▁reminded	-10.8928
well	-10.8955
▁painted	-10.8957
▁jet	-10.8966
▁considering	-10.8968
▁farming	-10.8968
▁divers	-10.8977
▁worthy	-10.8981
▁nan	-10.8982
▁areas	-10.8985
▁eats	-10.8986
▁bounds	-10.8987
▁customers	-10.8989
▁parade	-10.8989
eau	-10.8992
▁wayne	-10.8994
▁ti	-10.8996
▁praying	-10.9001
▁realm	-10.9003
▁mop	-10.9006
▁wonders	-10.901
▁ruining	-10.9013
▁experiments	-10.9016
▁coaches	-10.9023
▁farmers	-10.9025
▁riders	-10.9027
▁she	-10.9033
▁wha	-10.9034
▁worrying	-10.9039
▁services	-10.9042
▁ll	-10.9043
ung	-10.9043
▁compliments	-10.9044
ifyou	-10.9045
▁prisoners	-10.905
ink	-10.905
▁wedd	-10.9054
jo	-10.9057
▁arch	-10.906
ze	-10.9062
▁sting	-10.9065
▁handled	-10.9068
▁fooled	-10.9084
iate	-10.9089
▁dash	-10.909
▁neighbors	-10.9101
ets	-10.9111
▁visiting	-10.9117
than	-10.9125
▁spirits	-10.9127
▁heights	-10.913
▁nerves	-10.913
▁dar	-10.9131
▁plates	-10.9133
▁qua	-10.9138
▁jab	-10.9144
▁merc	-10.9147
▁ohio	-10.9156
▁humble	-10.9165
▁strap	-10.9176
▁ai	-10.9177
▁praises	-10.918
▁it	-10.9181
▁tense	-10.9186
▁disguise	-10.9186
▁vows	-10.9188
▁newspapers	-10.9188
anita	-10.9191
▁smurfy	-10.9193
▁traditional	-10.9209
▁drives	-10.9215
▁admir	-10.9217
▁circles	-10.9217
▁squeals	-10.9217
▁options	-10.9217
▁leon	-10.923
▁birdie	-10.923
▁sucks	-10.9251
ping	-10.9256
▁tales	-10.9269
▁probe	-10.9281
my	-10.9282
lux	-10.9285
▁conversations	-10.9305
▁dressing	-10.9305
upper	-10.9315
▁handy	-10.9318
▁len	-10.9324
ko	-10.933
▁partners	-10.9334
ett	-10.9368
▁rolls	-10.938
▁events	-10.9385
▁ohhh	-10.9386
shes	-10.9389
▁dolphins	-10.9394
▁dada	-10.9411
ev	-10.9429
▁vin	-10.9432
hal	-10.9435
mer	-10.9438
ise	-10.9442
▁drivers	-10.9446
▁am	-10.9451
▁bubbles	-10.9453
▁caused	-10.9455
▁cooler	-10.9462
ong	-10.9464
▁defi	-10.9473
ture	-10.9492
▁rehearse	-10.9517
mon	-10.9519
▁yas	-10.952
▁volt	-10.9524
▁mutt	-10.9534
▁burns	-10.9565
▁keg	-10.9571
▁quot	-10.9636
nar	-10.9638
ook	-10.9648
▁cap	-10.9681
▁shops	-10.9725
▁showers	-10.9726
▁mor	-10.9738
▁pas	-10.9743
igma	-10.9756
▁ravi	-10.9773
▁cabe	-10.9779
ky	-10.9781
▁shi	-10.9787
▁lam	-10.9788
▁treats	-10.9792
ellow	-10.9798
▁sue	-10.9811
yo	-10.9823
ax	-10.9826
ect	-10.9877
ologist	-10.9894
▁checker	-10.9903
▁experiences	-10.9915
ete	-10.9929
▁foods	-10.9946
oud	-10.9969
▁fellows	-10.9973
▁limit	-10.9976
▁exclaim	-10.9979
▁archi	-10.9982
▁prevent	-10.9985
▁ol	-10.9992
▁frog	-11.0003
▁rogers	-11.0005
▁gates	-11.0005
▁basic	-11.001
▁sample	-11.001
▁chirp	-11.001
▁decade	-11.0011
▁hindu	-11.0011
▁sleeve	-11.0016
▁chart	-11.0016
▁blanket	-11.0017
▁possession	-11.0018
▁que	-11.0019
▁elbow	-11.002
▁blade	-11.0021
▁drug	-11.0025
▁habit	-11.0025
▁biscuit	-11.0031
▁customer	-11.0032
▁giggle	-11.0034
ept	-11.0035
lin	-11.0036
▁chuckle	-11.004
▁visitor	-11.0047
▁bound	-11.0056
▁actor	-11.0062
▁palm	-11.007
▁client	-11.0074
lf	-11.0082
▁pea	-11.0094
▁boil	-11.0116
▁print	-11.0123
iness	-11.0125
▁disturb	-11.0147
▁suff	-11.0174
▁decorat	-11.0177
▁entertain	-11.0177
▁drown	-11.0182
▁applaud	-11.0182
▁respond	-11.0183
▁discover	-11.0185
▁tan	-11.0188
den	-11.0188
▁recommend	-11.0193
▁rais	-11.0196
▁poison	-11.0199
▁impress	-11.0199
▁connect	-11.0201
▁abandon	-11.0202
▁strand	-11.0202
▁deny	-11.0204
▁shove	-11.0207
stair	-11.0207
born	-11.0208
lick	-11.0209
proof	-11.021
▁arrange	-11.021
▁locate	-11.021
signor	-11.0211
fashion	-11.0211
free	-11.0211
▁alter	-11.0213
capable	-11.0214
▁doom	-11.0215
▁swift	-11.0217
▁technical	-11.0219
▁will	-11.0219
▁flee	-11.0219
wall	-11.022
lake	-11.0221
▁counsel	-11.0225
▁rider	-11.0226
▁ramon	-11.0228
▁peach	-11.0229
▁crick	-11.0229
▁atta	-11.0229
▁august	-11.023
▁threat	-11.023
▁mmmmm	-11.0231
ndians	-11.0231
▁fabric	-11.0231
▁gorge	-11.0231
▁specific	-11.0232
▁brace	-11.0232
▁brazil	-11.0232
▁neuro	-11.0232
▁psychiatr	-11.0232
rgensson	-11.0232
▁amazed	-11.0232
▁amigo	-11.0232
▁appropriate	-11.0232
▁archbishop	-11.0232
▁arrival	-11.0232
▁atmosphere	-11.0232
▁automated	-11.0232
▁bagumba	-11.0232
▁bargain	-11.0232
▁beckerstead	-11.0232
▁benefit	-11.0232
▁betelgeuse	-11.0232
▁boomerang	-11.0232
▁breeze	-11.0232
▁calendar	-11.0232
▁capitol	-11.0232
▁cease	-11.0232
▁celebrating	-11.0232
▁cemetery	-11.0232
▁clacktiel	-11.0232
▁clerk	-11.0232
▁custody	-11.0232
▁disagree	-11.0232
▁dogpile	-11.0232
▁doodoo	-11.0232
▁doulton	-11.0232
▁dozen	-11.0232
▁eustace	-11.0232
▁exotic	-11.0232
▁exploding	-11.0232
▁explosiveskull	-11.0232
▁geographers	-11.0232
▁geronimo	-11.0232
▁gracias	-11.0232
▁griffen	-11.0232
▁guenevere	-11.0232
▁haircut	-11.0232
▁hamada	-11.0232
▁hampton	-11.0232
▁howre	-11.0232
▁hull	-11.0232
▁hurdle	-11.0232
▁igrayne	-11.0232
▁ingredient	-11.0232
▁institution	-11.0232
▁instrument	-11.0232
▁irrational	-11.0232
▁kablowey	-11.0232
▁liberty	-11.0232
▁lincoln	-11.0232
▁liquid	-11.0232
▁macbride	-11.0232
▁merchant	-11.0232
▁micromanage	-11.0232
▁microphone	-11.0232
▁miradero	-11.0232
▁molinari	-11.0232
▁moose	-11.0232
▁mortgage	-11.0232
▁moustache	-11.0232
▁niece	-11.0232
▁opportunities	-11.0232
▁pistol	-11.0232
▁portokalos	-11.0232
▁possibilities	-11.0232
▁presume	-11.0232
▁privacy	-11.0232
▁rajeev	-11.0232
▁reprogram	-11.0232
▁retreat	-11.0232
▁rewbell	-11.0232
▁sasquatch	-11.0232
▁saudi	-11.0232
▁scotland	-11.0232
▁selfdefense	-11.0232
▁shepard	-11.0232
▁shortcut	-11.0232
▁sidekick	-11.0232
▁smurfintine	-11.0232
▁solemn	-11.0232
▁spoon	-11.0232
▁stroke	-11.0232
▁stupendous	-11.0232
▁sullivan	-11.0232
▁sunningdale	-11.0232
▁territories	-11.0232
▁thirteen	-11.0232
▁tminus	-11.0232
▁toshio	-11.0232
▁undefeated	-11.0232
▁unpleasant	-11.0232
▁urdu	-11.0232
▁uryens	-11.0232
▁voula	-11.0232
▁wallpaper	-11.0232
▁yuck	-11.0232
▁blitz	-11.0232
▁corral	-11.0232
▁cylinder	-11.0232
▁dedmon	-11.0232
▁devastat	-11.0232
▁diaper	-11.0232
▁femaie	-11.0232
▁itaiy	-11.0232
▁knives	-11.0232
▁reckless	-11.0232
▁register	-11.0232
▁repay	-11.0232
▁smack	-11.0232
▁article	-11.0232
▁godbole	-11.0232
▁scandal	-11.0232
▁stray	-11.0232
▁unchar	-11.0232
▁declare	-11.0232
▁nightwatcher	-11.0232
▁cpr	-11.0232
▁stafford	-11.0232
▁amelia	-11.0232
▁panicked	-11.0232
▁civilization	-11.0232
▁reply	-11.0232
▁absence	-11.0232
▁italy	-11.0232
▁miniatur	-11.0232
▁valenti	-11.0232
▁dinky	-11.0232
▁vibration	-11.0232
▁belmont	-11.0232
▁departure	-11.0232
▁electronic	-11.0232
▁violation	-11.0232
▁inconvenience	-11.0233
▁berlin	-11.0233
▁hungarian	-11.0233
▁revoir	-11.0233
▁graveyard	-11.0233
▁mischief	-11.0233
▁salsa	-11.0233
▁burden	-11.0233
▁ronnie	-11.0233
▁verona	-11.0233
▁geneva	-11.0233
▁salino	-11.0233
▁granddaughter	-11.0233
▁gillie	-11.0233
▁harold	-11.0233
▁summon	-11.0233
▁frame	-11.0233
▁tyre	-11.0233
▁shaft	-11.0233
▁arena	-11.0233
▁assistance	-11.0233
▁senor	-11.0233
▁jolly	-11.0233
▁steel	-11.0233
transmitter	-11.0233
▁mistress	-11.0233
▁bruise	-11.0233
▁description	-11.0233
▁fren	-11.0233
▁basketboy	-11.0233
▁purse	-11.0233
▁series	-11.0233
▁pepper	-11.0233
▁studio	-11.0233
▁rumble	-11.0233
▁sleepyhead	-11.0233
▁online	-11.0233
▁holiness	-11.0233
▁injuries	-11.0233
▁sector	-11.0233
▁unfair	-11.0233
▁parole	-11.0233
▁scalp	-11.0233
▁foley	-11.0233
▁transferred	-11.0233
▁tribe	-11.0233
▁darby	-11.0233
▁sharing	-11.0233
▁vanilla	-11.0233
▁which	-11.0233
▁investigate	-11.0233
▁lizard	-11.0233
▁bratz	-11.0233
▁tijada	-11.0233
▁loyalty	-11.0233
▁fond	-11.0233
▁shona	-11.0234
▁antonio	-11.0234
▁bacon	-11.0234
▁assess	-11.0234
▁henri	-11.0234
▁madison	-11.0234
▁lever	-11.0234
▁karen	-11.0234
▁comic	-11.0234
▁roam	-11.0234
▁vroom	-11.0234
▁arise	-11.0234
▁lafa	-11.0234
▁reject	-11.0234
▁oak	-11.0234
▁eise	-11.0234
▁newscast	-11.0234
▁flare	-11.0234
▁carolina	-11.0234
▁entertainment	-11.0234
▁pow	-11.0234
▁sentimental	-11.0234
▁genetic	-11.0234
▁motherinlaw	-11.0234
▁patsy	-11.0235
▁commitment	-11.0235
▁petition	-11.0235
▁punishment	-11.0235
▁diving	-11.0235
▁christina	-11.0235
▁broadway	-11.0235
▁inhales	-11.0235
▁jake	-11.0235
▁alva	-11.0235
▁mickey	-11.0236
▁daily	-11.0236
▁acid	-11.0236
▁temple	-11.0236
▁factory	-11.0236
▁cheerio	-11.0236
▁furry	-11.0236
▁aldo	-11.0236
▁gruber	-11.0237
▁burst	-11.0237
▁anthea	-11.0237
▁ridge	-11.0237
▁lsnt	-11.0237
▁toll	-11.0237
▁jelly	-11.0238
▁begun	-11.0238
▁bloom	-11.0238
▁nursery	-11.0238
▁tutor	-11.0238
▁chess	-11.0239
▁miller	-11.0239
▁tick	-11.0239
▁conqueror	-11.0239
▁starboard	-11.024
▁jj	-11.024
▁sincerely	-11.024
▁abra	-11.024
▁batteries	-11.024
▁iea	-11.024
▁knot	-11.0241
▁allen	-11.0241
▁thom	-11.0242
▁sneakers	-11.0242
▁whoosh	-11.0242
▁lust	-11.0243
▁patel	-11.0243
▁econom	-11.0244
▁gently	-11.0244
▁rum	-11.0245
▁fluffy	-11.0245
▁rusty	-11.0245
▁caleb	-11.0246
▁clearance	-11.0247
▁omin	-11.0247
▁relieved	-11.0247
▁dime	-11.0247
▁flown	-11.0248
▁sober	-11.0248
▁mule	-11.0248
▁convention	-11.0248
▁dating	-11.0248
▁larson	-11.0249
▁possessed	-11.0249
▁vain	-11.025
▁squeaks	-11.0251
▁snips	-11.0251
▁postman	-11.0251
▁hava	-11.0251
▁role	-11.0252
▁recruiting	-11.0252
▁trespassing	-11.0252
▁bass	-11.0252
▁complaint	-11.0253
▁punches	-11.0253
▁hunger	-11.0254
▁howling	-11.0254
▁bout	-11.0254
▁sandwiches	-11.0255
▁berg	-11.0255
▁fried	-11.0257
▁triple	-11.0259
▁skit	-11.0262
▁weep	-11.0263
▁tut	-11.0263
car	-11.0263
▁mio	-11.0265
▁cody	-11.0266
▁downloaded	-11.0268
▁straighten	-11.0268
▁pam	-11.027
▁fee	-11.027
▁dame	-11.0272
▁flush	-11.0274
▁madame	-11.0274
▁diseased	-11.0277
▁bumper	-11.0278
▁endless	-11.0282
▁correctly	-11.0282
▁fingerprints	-11.0282
▁pebbles	-11.0282
▁coughs	-11.0282
▁applauding	-11.0283
▁former	-11.0286
▁iive	-11.0288
▁bee	-11.0289
▁rebels	-11.0289
▁invade	-11.0293
▁gene	-11.0295
▁disappointing	-11.0298
▁tempt	-11.0299
graph	-11.03
▁pipp	-11.0302
ery	-11.0303
▁wounded	-11.0303
▁yah	-11.0304
▁fastest	-11.0311
▁donuts	-11.0314
▁knuckles	-11.0314
▁warheads	-11.0316
▁peel	-11.0321
▁deserved	-11.0328
ich	-11.0335
▁engines	-11.0335
▁switched	-11.0341
▁sonar	-11.0343
aisie	-11.0344
▁smarter	-11.0344
▁cheeks	-11.0347
▁tentacles	-11.0347
▁booing	-11.0352
▁joint	-11.0358
▁loading	-11.0361
▁pounding	-11.0363
▁lib	-11.0366
▁tid	-11.0368
▁slower	-11.0369
▁teen	-11.0369
▁gathered	-11.037
▁focused	-11.0372
ats	-11.0372
▁missus	-11.0378
▁beans	-11.038
▁onions	-11.0381
▁tougher	-11.0382
▁quested	-11.0382
▁trac	-11.0383
▁iand	-11.0385
▁carries	-11.0385
▁hunters	-11.0387
▁deer	-11.0388
cliff	-11.039
▁pete	-11.0391
rdy	-11.0391
▁smaller	-11.0392
▁joker	-11.0399
▁rushing	-11.04
▁treated	-11.04
▁quietly	-11.0408
▁cube	-11.041
▁documents	-11.0413
▁blocked	-11.0427
eck	-11.0444
▁drugs	-11.0446
▁habits	-11.0446
▁charts	-11.0447
▁visitors	-11.0449
▁buildings	-11.0456
shed	-11.0457
▁murderer	-11.0459
▁feature	-11.0463
van	-11.0464
▁mer	-11.0477
▁patterns	-11.0479
▁liver	-11.0498
▁comeback	-11.0502
▁packing	-11.0521
▁spells	-11.0522
▁tables	-11.0523
▁cance	-11.0534
▁goody	-11.0535
▁protected	-11.0535
▁measures	-11.0536
▁mach	-11.0543
ati	-11.0544
▁breasts	-11.055
▁dreamer	-11.0554
▁bitching	-11.056
▁wink	-11.0561
▁cans	-11.0569
fu	-11.0572
▁speakers	-11.0573
▁bums	-11.0588
▁improve	-11.059
▁horns	-11.0591
▁explains	-11.0595
▁citizens	-11.0613
▁balloons	-11.0614
▁fr	-11.063
▁divisions	-11.0648
cky	-11.066
▁by	-11.0662
▁acted	-11.0665
▁hun	-11.0667
▁feelin	-11.0668
▁sank	-11.0669
▁exp	-11.0702
▁fisher	-11.0702
▁enjoying	-11.0712
▁bikes	-11.0716
▁adults	-11.0716
gar	-11.0723
▁crowded	-11.0724
▁trans	-11.0743
▁valleys	-11.075
▁rem	-11.0752
▁ber	-11.0756
udge	-11.077
▁peanuts	-11.0784
▁mara	-11.0785
▁sales	-11.0787
▁pipes	-11.0788
▁purchase	-11.0796
mature	-11.0805
▁vol	-11.0814
▁drawings	-11.0819
▁gua	-11.0839
dest	-11.0842
▁prov	-11.0854
▁finishing	-11.0861
▁chas	-11.0872
▁min	-11.0875
▁monkeys	-11.0888
▁pages	-11.0888
igan	-11.0892
unc	-11.0899
alta	-11.0905
lles	-11.0907
▁fixing	-11.091
▁tu	-11.0926
▁bits	-11.0927
▁prim	-11.0947
▁predict	-11.0957
▁currents	-11.0958
▁eagles	-11.0958
▁keeper	-11.096
▁pockets	-11.096
▁workers	-11.0964
▁signing	-11.0976
▁poo	-11.0983
▁adventures	-11.0993
▁grabs	-11.0998
▁interests	-11.0999
▁dim	-11.1
▁tur	-11.1005
▁lover	-11.1012
bre	-11.1014
▁abb	-11.1028
▁claims	-11.1028
▁crocodiles	-11.1028
feit	-11.1035
evita	-11.1035
▁pets	-11.104
▁sounding	-11.1061
▁belts	-11.1062
▁lasted	-11.107
▁hens	-11.1087
aries	-11.1093
nik	-11.1096
▁rocking	-11.1156
ister	-11.1177
▁as	-11.1179
que	-11.1179
▁fires	-11.1186
handed	-11.1191
ku	-11.1192
▁edges	-11.1206
that	-11.1208
▁dies	-11.1217
sha	-11.1225
▁strangers	-11.1226
▁lords	-11.1234
aturi	-11.1234
▁mel	-11.1275
▁admire	-11.1291
▁forms	-11.1297
▁gardens	-11.1316
ush	-11.1329
dog	-11.1351
▁waters	-11.1386
▁col	-11.139
▁chuc	-11.1401
ttie	-11.1405
wo	-11.1411
▁grades	-11.1424
▁noises	-11.1424
▁collapse	-11.1436
▁queens	-11.1459
atherin	-11.1474
▁demo	-11.148
uve	-11.1488
gging	-11.1491
▁oceans	-11.1498
cap	-11.1499
▁notes	-11.1514
▁floors	-11.1536
▁poster	-11.1538
ken	-11.1552
ench	-11.1559
ino	-11.1559
▁eu	-11.156
▁appa	-11.1569
▁straw	-11.1579
nno	-11.1591
▁yama	-11.1624
▁tab	-11.163
▁harmon	-11.1635
▁await	-11.1639
▁marchin	-11.1642
▁cent	-11.1651
▁grunt	-11.1656
▁fade	-11.1661
▁gen	-11.1666
rus	-11.1672
▁airplane	-11.1677
▁ninja	-11.1677
▁survivor	-11.1677
▁mineral	-11.1677
▁insect	-11.1677
▁scheme	-11.1677
▁communication	-11.168
▁cheerleader	-11.168
▁mermaid	-11.1683
▁instinct	-11.1683
▁idiots	-11.1686
▁skirt	-11.1687
▁rhyme	-11.1688
▁document	-11.169
▁metaphor	-11.1694
▁muscle	-11.1694
▁planets	-11.1696
och	-11.1696
▁claw	-11.1698
▁degree	-11.1702
▁af	-11.1702
▁if	-11.1708
▁vers	-11.1716
▁musician	-11.1717
▁carve	-11.1719
▁tot	-11.1737
▁occur	-11.174
▁setup	-11.1745
▁slug	-11.1749
▁presidents	-11.1752
▁hangs	-11.1752
▁briefing	-11.1754
▁ml	-11.1757
▁fl	-11.1759
▁chan	-11.1761
▁writer	-11.1778
▁bites	-11.1785
▁ther	-11.1789
▁weirdo	-11.1811
▁os	-11.1811
▁fri	-11.1812
▁freakin	-11.1813
cra	-11.1815
erlock	-11.1816
wnd	-11.182
▁embarrass	-11.182
night	-11.1825
▁transform	-11.1832
▁purposes	-11.1837
▁auto	-11.1837
▁echo	-11.1847
▁rail	-11.1849
▁figur	-11.1854
▁stud	-11.1855
▁offers	-11.1857
ification	-11.1858
bury	-11.1861
▁cleaner	-11.1862
▁surround	-11.1868
▁attach	-11.1868
tchup	-11.1871
lain	-11.1872
mate	-11.1872
▁ina	-11.1872
life	-11.1874
▁underestimate	-11.1875
▁katherines	-11.1876
bility	-11.1876
▁ahhh	-11.1876
bridge	-11.1876
girl	-11.1878
mission	-11.1878
wife	-11.1878
▁eliminate	-11.1878
six	-11.1879
pot	-11.1879
▁risks	-11.1879
rst	-11.1879
▁pals	-11.1881
▁grouch	-11.1881
game	-11.1882
hole	-11.1884
vin	-11.1885
mega	-11.1886
▁marsha	-11.1887
hard	-11.189
▁sup	-11.189
▁thund	-11.1891
▁amor	-11.1891
▁cure	-11.1891
▁prett	-11.1892
▁region	-11.1894
▁elli	-11.1895
stone	-11.1895
▁intr	-11.1895
▁livin	-11.1895
▁intercept	-11.1896
▁movin	-11.1896
▁terminat	-11.1897
▁obsess	-11.1897
▁initiat	-11.1898
▁oppress	-11.1898
oid	-11.1898
▁resource	-11.1898
▁virgin	-11.1898
teen	-11.1898
▁triumph	-11.1898
▁alternat	-11.1898
▁acqu	-11.1899
culi	-11.1899
▁adrian	-11.1899
▁adventurous	-11.1899
▁alligator	-11.1899
▁almighty	-11.1899
▁apprehend	-11.1899
▁architect	-11.1899
▁argument	-11.1899
▁aslan	-11.1899
▁atlanta	-11.1899
▁awkward	-11.1899
▁beechwood	-11.1899
▁bhutan	-11.1899
▁binnacle	-11.1899
▁boolah	-11.1899
▁bouchard	-11.1899
▁bronski	-11.1899
▁buddhist	-11.1899
▁caspian	-11.1899
▁catalyst	-11.1899
▁caviar	-11.1899
▁cecilia	-11.1899
▁chevy	-11.1899
▁clique	-11.1899
▁combination	-11.1899
▁compromise	-11.1899
▁creek	-11.1899
▁crunch	-11.1899
▁cupcake	-11.1899
▁cynic	-11.1899
▁delilah	-11.1899
▁deposit	-11.1899
▁destined	-11.1899
▁detroit	-11.1899
▁disobey	-11.1899
▁disposal	-11.1899
▁divine	-11.1899
▁dowager	-11.1899
▁duncan	-11.1899
▁einstein	-11.1899
▁eisenhower	-11.1899
▁elmira	-11.1899
▁emerald	-11.1899
▁episode	-11.1899
▁eternity	-11.1899
▁excellency	-11.1899
▁figaro	-11.1899
▁fleming	-11.1899
▁fountain	-11.1899
▁frail	-11.1899
▁frederick	-11.1899
▁fresno	-11.1899
▁fruitcake	-11.1899
▁fugax	-11.1899
▁gerwyn	-11.1899
▁grandparents	-11.1899
▁grazie	-11.1899
▁greece	-11.1899
▁guarani	-11.1899
▁hernan	-11.1899
▁hilarious	-11.1899
▁humility	-11.1899
▁hydrogen	-11.1899
▁inbetween	-11.1899
▁larocca	-11.1899
▁lettuce	-11.1899
▁liquor	-11.1899
▁memento	-11.1899
▁milagro	-11.1899
▁miriam	-11.1899
▁misselthwaite	-11.1899
▁moscow	-11.1899
▁nantucket	-11.1899
▁nehamkin	-11.1899
▁pabllto	-11.1899
▁pancake	-11.1899
▁paralyzed	-11.1899
▁passelevve	-11.1899
▁pegasus	-11.1899
▁perceval	-11.1899
▁perimeter	-11.1899
▁petachi	-11.1899
▁phrase	-11.1899
▁pimlico	-11.1899
▁plead	-11.1899
▁poppop	-11.1899
▁popsicle	-11.1899
▁predicament	-11.1899
▁prettypretty	-11.1899
▁prototype	-11.1899
▁quarrel	-11.1899
▁regency	-11.1899
▁rescuing	-11.1899
▁roosevelt	-11.1899
▁schwedes	-11.1899
▁scientific	-11.1899
▁semester	-11.1899
▁sensor	-11.1899
▁snarls	-11.1899
▁sophomore	-11.1899
▁southampton	-11.1899
▁spectacular	-11.1899
▁sponsor	-11.1899
▁squawk	-11.1899
▁streak	-11.1899
▁stride	-11.1899
▁suspend	-11.1899
▁temporarily	-11.1899
▁thunderlips	-11.1899
▁tragedy	-11.1899
▁trajectory	-11.1899
▁treasury	-11.1899
▁triangle	-11.1899
▁trulock	-11.1899
▁tuppence	-11.1899
▁ukata	-11.1899
▁vegas	-11.1899
▁vengeance	-11.1899
▁voskovec	-11.1899
▁waltz	-11.1899
▁wardrobe	-11.1899
▁wealth	-11.1899
▁wheelchair	-11.1899
▁willoughby	-11.1899
▁yaeko	-11.1899
▁zathura	-11.1899
▁callendar	-11.1899
▁casino	-11.1899
▁extend	-11.1899
▁frown	-11.1899
▁hashtag	-11.1899
▁inherit	-11.1899
▁internet	-11.1899
▁legacy	-11.1899
▁lundy	-11.1899
▁nasik	-11.1899
▁noisy	-11.1899
▁perfume	-11.1899
▁pittsmore	-11.1899
▁remote	-11.1899
▁sushi	-11.1899
▁vietnam	-11.1899
▁wrist	-11.1899
▁dairy	-11.1899
▁glitter	-11.1899
▁unstable	-11.1899
▁currency	-11.1899
▁hesitate	-11.1899
▁financia	-11.1899
▁relics	-11.1899
▁slack	-11.1899
▁winwin	-11.1899
▁earrings	-11.1899
▁flooded	-11.1899
▁decorations	-11.1899
▁motorcycle	-11.1899
▁landscape	-11.1899
▁michelle	-11.1899
▁conflict	-11.1899
▁robbins	-11.1899
▁instance	-11.1899
▁mendoza	-11.1899
▁berries	-11.1899
▁kidnapping	-11.1899
▁pepsi	-11.1899
▁whining	-11.1899
▁attagirl	-11.1899
▁aaron	-11.1899
▁medium	-11.1899
▁socks	-11.1899
▁funeral	-11.1899
▁shuttle	-11.1899
▁database	-11.1899
▁quadrant	-11.1899
▁puppet	-11.1899
▁console	-11.1899
▁polite	-11.1899
▁moreno	-11.1899
▁satisfaction	-11.1899
▁suspension	-11.1899
▁mortal	-11.1899
▁rival	-11.1899
▁twentytwo	-11.1899
▁ashore	-11.1899
▁germs	-11.1899
srael	-11.1899
▁laurence	-11.1899
▁babysitter	-11.1899
▁dough	-11.1899
▁spicy	-11.1899
▁circling	-11.1899
▁lobby	-11.1899
▁slipping	-11.1899
▁petals	-11.1899
▁minister	-11.1899
▁misery	-11.19
▁bailey	-11.19
▁prolong	-11.19
▁succor	-11.19
▁rivet	-11.19
▁stanley	-11.19
▁ambition	-11.19
▁ignorant	-11.19
▁lindy	-11.19
▁basin	-11.19
▁raft	-11.19
▁piace	-11.19
esteem	-11.19
▁gwenna	-11.19
▁shaii	-11.19
▁curley	-11.19
▁buts	-11.19
▁harsh	-11.19
▁spook	-11.19
▁crab	-11.19
▁institute	-11.19
▁specifically	-11.19
▁basically	-11.19
▁extract	-11.19
▁denver	-11.19
▁wales	-11.19
▁rustling	-11.19
▁stamp	-11.19
▁cherish	-11.19
▁nanny	-11.19
▁appetite	-11.19
▁blob	-11.19
▁concrete	-11.19
▁congratulate	-11.19
▁alternative	-11.19
▁slipped	-11.19
▁gloss	-11.19
▁grid	-11.19
▁stacy	-11.19
▁selection	-11.19
▁techno	-11.19
▁contest	-11.19
▁paperwork	-11.1901
▁narrator	-11.1901
▁dawes	-11.1901
▁jeep	-11.1901
▁harness	-11.1901
▁worid	-11.1901
▁invention	-11.1901
▁thread	-11.1901
▁clapping	-11.1901
▁buff	-11.1901
▁quiz	-11.1901
▁brew	-11.1901
▁embarrassment	-11.1901
▁expressway	-11.1901
▁snowball	-11.1901
▁confirmation	-11.1901
▁eighteen	-11.1901
▁buoy	-11.1901
▁mackenzie	-11.1901
▁nephew	-11.1901
▁revenge	-11.1901
▁script	-11.1901
▁swallow	-11.1901
▁tissue	-11.1901
▁yield	-11.1901
▁objective	-11.1901
▁sahib	-11.1901
▁assuming	-11.1901
▁media	-11.1901
▁lime	-11.1901
▁delia	-11.1901
▁smoking	-11.1902
▁barkis	-11.1902
▁marshal	-11.1902
▁weakness	-11.1902
▁overboard	-11.1902
▁dedicated	-11.1902
guel	-11.1902
▁leadership	-11.1902
▁righteous	-11.1902
▁feedback	-11.1902
▁recital	-11.1902
▁webber	-11.1902
▁brass	-11.1902
▁lounge	-11.1902
▁indo	-11.1902
jah	-11.1903
▁puke	-11.1903
▁victorious	-11.1903
▁maud	-11.1903
▁claus	-11.1903
▁countries	-11.1903
▁oblige	-11.1903
▁copper	-11.1903
▁priceless	-11.1903
▁thoroughly	-11.1903
▁donation	-11.1903
▁hatred	-11.1904
▁humor	-11.1904
▁redstone	-11.1904
sir	-11.1904
▁lockdown	-11.1904
▁retirement	-11.1904
▁stepping	-11.1904
▁serene	-11.1904
▁bowser	-11.1904
▁loony	-11.1904
▁worldwide	-11.1905
▁poker	-11.1905
▁telescope	-11.1905
▁reinstated	-11.1905
▁travell	-11.1906
▁bingo	-11.1906
▁conform	-11.1906
▁southby	-11.1906
▁temporary	-11.1906
ior	-11.1906
▁comput	-11.1906
wll	-11.1906
▁ames	-11.1907
▁notion	-11.1907
▁peril	-11.1907
▁roommate	-11.1907
▁digit	-11.1907
▁wage	-11.1907
chita	-11.1907
▁flattered	-11.1908
▁torpedoes	-11.1908
▁kathy	-11.1908
▁multiply	-11.1908
▁entry	-11.1908
▁offended	-11.1908
▁gener	-11.1908
▁reduce	-11.1908
▁vanished	-11.1908
▁robbery	-11.1908
demn	-11.1908
bal	-11.1908
▁andi	-11.1909
▁beeper	-11.1909
▁promoted	-11.1909
▁sorcerer	-11.1909
▁educational	-11.1909
▁dug	-11.1909
▁swat	-11.1909
▁hubba	-11.191
▁void	-11.191
▁cue	-11.191
▁fortunate	-11.191
▁screeches	-11.191
▁shelley	-11.191
▁ability	-11.1911
▁aww	-11.1911
▁cosmo	-11.1911
▁sym	-11.1911
▁slimy	-11.1911
▁tendon	-11.1911
▁sip	-11.1911
▁caveman	-11.1912
▁jc	-11.1912
▁hup	-11.1912
▁scum	-11.1913
▁scrubb	-11.1913
▁mich	-11.1913
▁straining	-11.1913
▁employed	-11.1913
▁erie	-11.1914
▁elf	-11.1914
ternal	-11.1915
▁driveway	-11.1915
▁certifi	-11.1915
▁sanders	-11.1915
▁torn	-11.1915
▁worn	-11.1915
▁dancer	-11.1916
▁bam	-11.1917
▁monk	-11.1917
▁beam	-11.1917
▁dart	-11.1918
▁gel	-11.1918
▁sled	-11.1919
▁shatter	-11.1919
▁retarded	-11.1919
▁halfway	-11.192
▁ramp	-11.192
slav	-11.192
▁halftime	-11.1921
▁vest	-11.1921
▁accomplished	-11.1921
▁blackout	-11.1922
▁switches	-11.1922
▁turd	-11.1922
▁rex	-11.1922
▁armies	-11.1923
▁exposed	-11.1924
▁peeking	-11.1924
▁tucker	-11.1924
▁layers	-11.1925
▁takin	-11.1926
smurf	-11.193
▁seventh	-11.193
▁ripe	-11.193
▁activated	-11.193
▁tighten	-11.1932
▁humanity	-11.1936
▁inspiration	-11.1936
▁threatening	-11.1939
▁taki	-11.1939
▁pointless	-11.194
▁host	-11.194
▁spanking	-11.1941
▁baking	-11.1941
▁madman	-11.1941
▁lei	-11.1942
▁drawn	-11.1943
▁limited	-11.1944
▁achieved	-11.1944
rita	-11.1945
▁paddle	-11.1945
▁sally	-11.1946
▁doe	-11.1946
▁eighth	-11.1946
▁groove	-11.1946
▁rented	-11.1948
eyed	-11.1949
▁included	-11.1952
▁solved	-11.1955
▁nipp	-11.1957
▁qui	-11.1959
▁gallons	-11.1959
▁drowning	-11.1959
▁reminder	-11.196
▁uphol	-11.196
▁twisty	-11.1964
▁gardener	-11.1964
▁spine	-11.1964
▁lace	-11.1966
▁lighten	-11.1966
lice	-11.1966
▁zi	-11.1967
▁breeding	-11.1968
▁complaining	-11.1968
▁canceled	-11.1971
▁careless	-11.1977
▁crank	-11.1977
▁studying	-11.1978
▁sleeps	-11.1978
▁ato	-11.1979
▁debate	-11.1979
▁sensei	-11.1981
▁bigtime	-11.1984
▁pissing	-11.1987
▁shocked	-11.1989
▁sucked	-11.1991
▁sealed	-11.1991
▁wired	-11.1992
▁inning	-11.1993
▁dumped	-11.1995
▁thoughtful	-11.1996
▁beals	-11.1997
▁tools	-11.1997
▁marshmallows	-11.1997
▁sobs	-11.1998
ication	-11.1998
▁slamm	-11.1999
▁guaranteed	-11.2
▁fainted	-11.2
▁robbers	-11.2
▁suffered	-11.2002
▁businessman	-11.2003
uty	-11.2004
▁mainly	-11.2005
▁commenc	-11.2006
▁pest	-11.2007
cht	-11.201
▁touches	-11.2013
▁ditch	-11.2016
▁rescued	-11.2016
▁parenting	-11.2017
▁reality	-11.2018
▁drivein	-11.2022
▁rushed	-11.2024
▁engineering	-11.2031
▁indi	-11.2031
▁commission	-11.2032
▁leelailai	-11.2033
▁introduced	-11.2034
▁ravens	-11.2036
▁honesty	-11.2037
▁nazis	-11.2037
▁threatens	-11.2038
▁renounc	-11.2039
▁raid	-11.2043
▁honour	-11.2045
▁suggested	-11.2046
▁chips	-11.2047
▁nervously	-11.2048
▁requested	-11.2052
▁crashed	-11.2052
▁crushing	-11.2053
▁mace	-11.2054
pick	-11.2055
▁uses	-11.2055
▁dye	-11.2056
▁experienced	-11.2059
▁bitey	-11.2059
▁gent	-11.2064
▁continued	-11.2067
▁loudy	-11.2069
▁groups	-11.207
▁tara	-11.2071
▁scratching	-11.2071
▁interfere	-11.2074
▁comrades	-11.2076
▁caper	-11.2076
▁shorter	-11.2078
▁interrupting	-11.2081
▁robes	-11.2084
▁hopes	-11.2085
anding	-11.2085
▁pian	-11.2088
▁ger	-11.2088
▁har	-11.2092
▁okie	-11.2097
▁doubled	-11.2114
▁skirts	-11.2116
▁remaining	-11.2116
▁rhymes	-11.2116
▁tots	-11.2117
▁generals	-11.213
▁messy	-11.2142
tial	-11.2142
berg	-11.2144
▁posted	-11.2146
▁crashing	-11.2147
▁swords	-11.2149
▁magn	-11.2152
▁freaked	-11.2153
▁clients	-11.2154
▁blades	-11.2155
▁elbows	-11.2155
▁frogs	-11.2156
▁prevents	-11.2156
▁leads	-11.216
▁faithful	-11.2166
▁beau	-11.2174
▁cooked	-11.2177
▁millions	-11.2188
▁aged	-11.219
▁hid	-11.2191
▁contains	-11.2195
▁pigeons	-11.2195
▁electrical	-11.221
▁vic	-11.222
▁discussing	-11.2222
bad	-11.2231
▁dings	-11.2232
▁relaxed	-11.2234
▁cuts	-11.2242
▁tags	-11.2249
▁camel	-11.2257
▁cornered	-11.2258
▁fed	-11.2267
▁strings	-11.2276
▁paws	-11.2277
▁swinging	-11.228
▁lion	-11.2285
▁fla	-11.2316
▁loskis	-11.2316
▁objects	-11.2317
oodle	-11.232
▁fore	-11.232
ggin	-11.2322
gs	-11.2328
nickers	-11.2333
▁cher	-11.2341
▁illness	-11.2348
▁hai	-11.2349
▁mentors	-11.2357
▁gala	-11.2365
▁boarding	-11.2377
ean	-11.2392
▁cages	-11.2398
▁nails	-11.24
▁controls	-11.2402
▁smelled	-11.2407
▁feared	-11.2407
▁alli	-11.241
▁unti	-11.2412
rr	-11.2433
▁ru	-11.2437
▁incident	-11.244
▁creeps	-11.244
▁hats	-11.244
▁troubles	-11.2468
▁wounds	-11.2482
light	-11.2484
▁banker	-11.2489
ofthe	-11.2493
eye	-11.2496
▁est	-11.25
▁pres	-11.2506
▁sounded	-11.2509
▁hugg	-11.2511
▁bea	-11.2516
▁saints	-11.2522
thing	-11.2526
▁tub	-11.253
mus	-11.255
▁boxer	-11.256
▁scales	-11.2565
▁unc	-11.2573
eating	-11.2604
▁deadly	-11.2606
▁suffers	-11.2614
▁coo	-11.262
▁tw	-11.2643
▁quote	-11.2653
▁wrappe	-11.2656
ned	-11.2685
▁ev	-11.2697
▁murders	-11.2699
▁organize	-11.27
▁fighters	-11.2723
▁suns	-11.2724
▁devils	-11.2774
eri	-11.2792
▁sire	-11.2807
▁rehears	-11.281
▁hips	-11.2816
▁turtles	-11.2817
▁uniforms	-11.2817
was	-11.2818
ome	-11.2839
▁cookies	-11.2839
here	-11.2842
▁pools	-11.2848
▁cart	-11.2852
▁vet	-11.2858
▁waitin	-11.2858
ila	-11.2888
▁seventy	-11.2892
▁chocolates	-11.2903
▁mushrooms	-11.2903
▁wizards	-11.2903
een	-11.2913
predictable	-11.2938
▁ink	-11.294
▁directors	-11.2948
ption	-11.2952
▁earths	-11.2953
▁measur	-11.2957
▁tun	-11.2959
▁var	-11.2961
rapping	-11.2964
▁unders	-11.2971
▁beers	-11.2981
mite	-11.2989
tale	-11.3005
martial	-11.3012
▁numbered	-11.3021
▁bing	-11.3029
▁italians	-11.3034
bra	-11.308
▁riches	-11.3138
▁swa	-11.314
▁hom	-11.3174
erry	-11.3176
▁ruins	-11.3177
ites	-11.3179
pel	-11.3182
▁marv	-11.3197
els	-11.3213
form	-11.3281
ulation	-11.3304
zi	-11.3315
▁needle	-11.3317
hro	-11.3332
▁gravel	-11.3336
based	-11.3348
iff	-11.3357
rer	-11.3372
tible	-11.338
key	-11.3385
▁towns	-11.3386
▁mates	-11.3399
▁lin	-11.3405
▁fears	-11.3463
vous	-11.3491
ode	-11.3496
▁prepar	-11.3525
▁pr	-11.353
▁deals	-11.3557
▁baths	-11.3567
nies	-11.3573
▁slam	-11.3573
lle	-11.3576
ggle	-11.359
▁magnet	-11.3592
this	-11.364
▁astr	-11.3643
omb	-11.3645
▁elk	-11.3647
▁beep	-11.3648
▁click	-11.3654
▁br	-11.3664
▁chairs	-11.3668
▁savage	-11.3677
▁tickle	-11.368
▁marks	-11.3683
▁sneeze	-11.3685
▁turk	-11.3687
▁comrade	-11.3687
▁fright	-11.3687
▁bobbi	-11.3689
▁demon	-11.3689
▁vari	-11.369
breath	-11.3691
cress	-11.3692
▁grownup	-11.3692
▁shadow	-11.3694
▁waponi	-11.3695
nesia	-11.3696
▁onion	-11.3705
▁robe	-11.3711
▁inspir	-11.3712
▁ana	-11.3713
▁levels	-11.3715
▁carrie	-11.3718
▁hunter	-11.373
▁bean	-11.373
ational	-11.3735
▁skat	-11.374
▁temp	-11.3767
made	-11.3776
ency	-11.3781
zo	-11.3783
maker	-11.3784
▁clam	-11.3788
hold	-11.3796
tri	-11.3803
▁somewh	-11.381
elt	-11.3817
wah	-11.3831
pack	-11.3831
▁affect	-11.3841
▁thankful	-11.3841
▁groov	-11.3843
▁wander	-11.3846
▁introduc	-11.3847
▁vomit	-11.3848
▁spank	-11.3849
▁herr	-11.3851
▁annoy	-11.3854
▁wail	-11.3854
▁enchant	-11.3856
▁stoke	-11.3856
▁robb	-11.3858
ost	-11.386
▁bind	-11.3864
▁rust	-11.3864
▁endanger	-11.3865
▁distress	-11.3866
▁squash	-11.3867
▁emma	-11.3867
erk	-11.3869
▁bail	-11.3873
▁poke	-11.3874
print	-11.3875
▁describe	-11.3876
▁involve	-11.3876
▁engage	-11.3877
audible	-11.3877
american	-11.3877
birth	-11.3877
snake	-11.3878
break	-11.3878
▁relieve	-11.3878
jack	-11.3878
blue	-11.3878
second	-11.3878
white	-11.3879
suit	-11.3879
▁brag	-11.3879
play	-11.3879
▁activate	-11.388
know	-11.388
▁fluff	-11.388
▁combine	-11.3881
think	-11.3881
water	-11.3882
▁approve	-11.3882
seven	-11.3883
▁compare	-11.3885
▁custom	-11.3885
▁extreme	-11.3885
mail	-11.3887
▁pond	-11.3888
▁blond	-11.3888
two	-11.3889
tick	-11.389
▁flick	-11.3891
▁alexandr	-11.3892
▁horri	-11.3892
▁environment	-11.3893
▁floo	-11.3893
▁mod	-11.3893
standing	-11.3893
▁memori	-11.3895
▁instruct	-11.3895
▁kiddin	-11.3896
▁nip	-11.3896
▁urge	-11.3897
▁appoint	-11.3897
▁makin	-11.3898
▁pile	-11.3898
elu	-11.3898
ecutive	-11.3898
ember	-11.3898
▁tha	-11.3899
▁similar	-11.3899
metry	-11.3899
▁cinema	-11.3899
▁drought	-11.3899
▁flex	-11.3899
misunderstanding	-11.3899
▁aiready	-11.3899
▁ajob	-11.3899
▁alexi	-11.3899
▁applesauce	-11.3899
▁applications	-11.3899
▁aquamarine	-11.3899
▁armadillo	-11.3899
▁atlas	-11.3899
▁austria	-11.3899
▁avanri	-11.3899
▁avatus	-11.3899
▁background	-11.3899
▁banner	-11.3899
▁bathtub	-11.3899
▁behaving	-11.3899
▁bizarre	-11.3899
▁blimey	-11.3899
▁burrito	-11.3899
▁butler	-11.3899
▁canada	-11.3899
▁canadian	-11.3899
▁cannibal	-11.3899
▁casual	-11.3899
▁chemist	-11.3899
▁chipmunk	-11.3899
▁cinzano	-11.3899
▁collision	-11.3899
▁columbus	-11.3899
▁cowabunga	-11.3899
▁darrell	-11.3899
▁dessert	-11.3899
▁dialogue	-11.3899
▁domovoi	-11.3899
▁eleanor	-11.3899
▁election	-11.3899
▁encounter	-11.3899
▁evolving	-11.3899
▁exborneo	-11.3899
▁exclusive	-11.3899
▁exterminator	-11.3899
▁figler	-11.3899
▁formidable	-11.3899
▁gabriel	-11.3899
▁garcia	-11.3899
▁garlic	-11.3899
▁gasoline	-11.3899
▁gesture	-11.3899
▁giorno	-11.3899
▁grifter	-11.3899
▁hoffman	-11.3899
▁humiliate	-11.3899
▁hwyl	-11.3899
▁hyperdrive	-11.3899
▁imaginary	-11.3899
▁imagining	-11.3899
▁imperative	-11.3899
▁inbedkov	-11.3899
▁incisor	-11.3899
▁infinite	-11.3899
▁intrusion	-11.3899
▁invasion	-11.3899
▁inviting	-11.3899
▁iralia	-11.3899
▁irregular	-11.3899
▁jacob	-11.3899
▁juvenile	-11.3899
▁kathryn	-11.3899
▁knack	-11.3899
▁kovacs	-11.3899
▁laboratory	-11.3899
▁lasagna	-11.3899
▁leopard	-11.3899
▁malfunction	-11.3899
▁marlott	-11.3899
▁massachusetts	-11.3899
▁mccann	-11.3899
▁menopause	-11.3899
▁mexico	-11.3899
▁miraculous	-11.3899
▁mordred	-11.3899
▁muslim	-11.3899
▁mysteries	-11.3899
▁negotiate	-11.3899
▁neighing	-11.3899
▁norwegian	-11.3899
▁nuisance	-11.3899
▁obedience	-11.3899
▁okajima	-11.3899
▁orangutan	-11.3899
▁override	-11.3899
▁perpetual	-11.3899
▁phase	-11.3899
▁piracy	-11.3899
▁plumbers	-11.3899
▁principle	-11.3899
▁puberty	-11.3899
▁pudding	-11.3899
▁rebuil	-11.3899
▁regatta	-11.3899
▁reminisce	-11.3899
▁reunite	-11.3899
▁saajan	-11.3899
▁salmonella	-11.3899
▁savor	-11.3899
▁scrugg	-11.3899
▁seagram	-11.3899
▁shipshape	-11.3899
▁snorts	-11.3899
▁steuby	-11.3899
▁stooge	-11.3899
▁submit	-11.3899
▁talisman	-11.3899
▁tatiana	-11.3899
▁textronics	-11.3899
▁theodore	-11.3899
▁thudding	-11.3899
▁tippytoe	-11.3899
▁touganda	-11.3899
▁ulanga	-11.3899
▁umbrella	-11.3899
▁unconscious	-11.3899
▁vaughan	-11.3899
▁vessel	-11.3899
▁walkietalkie	-11.3899
▁whisrling	-11.3899
▁wolffstein	-11.3899
▁xander	-11.3899
▁yeahbsolutely	-11.3899
▁yourseif	-11.3899
▁andonandonandon	-11.3899
▁ballerina	-11.3899
▁bookstore	-11.3899
▁carousel	-11.3899
▁consequences	-11.3899
▁corrupt	-11.3899
▁farewell	-11.3899
▁flavor	-11.3899
▁gerald	-11.3899
▁graphic	-11.3899
▁laurel	-11.3899
▁milord	-11.3899
▁monument	-11.3899
▁neek	-11.3899
▁neglect	-11.3899
▁nomad	-11.3899
▁nononono	-11.3899
▁outdoor	-11.3899
▁protein	-11.3899
▁radical	-11.3899
▁reconsider	-11.3899
▁retain	-11.3899
▁rupee	-11.3899
▁serving	-11.3899
▁session	-11.3899
▁simmons	-11.3899
▁squander	-11.3899
▁testify	-11.3899
▁walsh	-11.3899
▁yeerow	-11.3899
▁aiways	-11.3899
▁anesti	-11.3899
▁arabs	-11.3899
▁charging	-11.3899
▁collaborat	-11.3899
▁duties	-11.3899
▁heir	-11.3899
▁ieft	-11.3899
▁kaiser	-11.3899
▁postpone	-11.3899
▁utopia	-11.3899
▁grapes	-11.3899
▁laddie	-11.3899
▁malia	-11.3899
▁piggy	-11.3899
▁valentines	-11.3899
bonjour	-11.3899
▁ankle	-11.3899
▁czar	-11.3899
▁deetz	-11.3899
▁brooks	-11.3899
▁flirt	-11.3899
▁rayray	-11.3899
▁regulation	-11.3899
▁valve	-11.3899
▁yelp	-11.3899
▁vokes	-11.3899
▁dimitr	-11.3899
▁torres	-11.3899
▁dariing	-11.3899
▁gyp	-11.3899
▁joust	-11.3899
▁cuckooland	-11.3899
▁turnip	-11.3899
▁unseen	-11.3899
▁aspect	-11.3899
▁conscience	-11.3899
▁naoko	-11.3899
▁yowl	-11.3899
▁ignorance	-11.3899
▁broadcast	-11.3899
▁bundle	-11.3899
▁homecoming	-11.3899
▁kilometers	-11.3899
▁anonymous	-11.3899
▁prank	-11.3899
▁twerk	-11.3899
▁geo	-11.3899
▁raisins	-11.3899
▁salute	-11.3899
▁yawn	-11.3899
▁scuba	-11.3899
▁thirtyfive	-11.3899
▁briefcase	-11.3899
▁meteor	-11.3899
▁convict	-11.3899
▁mercenar	-11.3899
▁strawberries	-11.3899
▁bluff	-11.3899
▁garga	-11.3899
▁jerome	-11.3899
▁beagle	-11.3899
▁gratitude	-11.3899
▁joylette	-11.3899
▁latin	-11.3899
▁elegan	-11.3899
▁keegan	-11.3899
▁bleep	-11.3899
▁facilities	-11.3899
▁ponies	-11.3899
▁therapist	-11.3899
▁bronco	-11.3899
▁constance	-11.3899
▁werewolf	-11.3899
▁seventyfour	-11.3899
▁greed	-11.3899
▁harvey	-11.3899
▁venture	-11.3899
▁cocktail	-11.3899
▁rouge	-11.3899
▁brutal	-11.3899
▁majestic	-11.3899
▁cockpit	-11.3899
▁disrespect	-11.3899
▁colorcoded	-11.3899
▁clank	-11.3899
▁flock	-11.3899
▁mingle	-11.3899
▁dioxide	-11.3899
▁bummer	-11.3899
▁bonfire	-11.3899
▁dismiss	-11.39
▁scooter	-11.39
▁sandecker	-11.39
▁wilson	-11.39
▁bernard	-11.39
▁stunning	-11.39
▁ceti	-11.39
▁iadonai	-11.39
▁trading	-11.39
▁cartier	-11.39
▁accused	-11.39
▁equation	-11.39
▁ahoy	-11.39
▁twentyfour	-11.39
▁veal	-11.39
▁dizzy	-11.39
▁glide	-11.39
▁falcon	-11.39
▁turton	-11.39
▁dexter	-11.39
▁shaving	-11.39
lfred	-11.39
▁westworld	-11.39
▁babysitting	-11.39
▁supernatural	-11.39
▁wigs	-11.39
ological	-11.39
▁contrary	-11.39
▁hahaha	-11.39
▁pinned	-11.39
▁poking	-11.39
▁archaic	-11.39
▁afore	-11.39
▁parched	-11.39
▁ounce	-11.39
▁kelp	-11.39
▁langley	-11.39
▁ammo	-11.39
▁employment	-11.39
▁refresh	-11.39
▁thomas	-11.39
▁scour	-11.39
▁squire	-11.39
▁surroundings	-11.39
▁knucklehead	-11.39
▁subtle	-11.39
▁convert	-11.39
▁ginger	-11.39
▁hostage	-11.39
▁tux	-11.39
▁tolera	-11.39
▁ravish	-11.39
▁heap	-11.39
▁allamerican	-11.39
▁committed	-11.3901
▁heartsong	-11.3901
▁explore	-11.3901
▁teii	-11.3901
▁underway	-11.3901
▁lackey	-11.3901
▁ridden	-11.3901
▁aisle	-11.3901
saur	-11.3901
▁approval	-11.3901
ometer	-11.3901
▁phew	-11.3901
▁variet	-11.3901
▁abide	-11.3901
▁dolores	-11.3901
▁detector	-11.3901
▁isa	-11.3901
▁merge	-11.3901
▁stlli	-11.3901
shire	-11.3901
▁spotlight	-11.3901
▁tasty	-11.3901
▁karate	-11.3901
▁reflection	-11.3901
▁engagement	-11.3901
▁salary	-11.3901
▁grasp	-11.3901
▁boosters	-11.3901
▁gregor	-11.3901
▁cooperate	-11.3901
▁delta	-11.3901
▁axe	-11.3901
▁epic	-11.3901
▁fiction	-11.3902
▁soninlaw	-11.3902
▁shamus	-11.3902
▁stylis	-11.3902
▁vox	-11.3902
▁abducted	-11.3902
▁entitled	-11.3902
▁annihilat	-11.3902
▁popping	-11.3902
▁opal	-11.3902
▁melan	-11.3902
▁armpit	-11.3902
▁rations	-11.3902
▁torment	-11.3902
▁ergo	-11.3902
▁iiving	-11.3902
▁sara	-11.3902
▁scarce	-11.3902
▁vend	-11.3902
▁trina	-11.3902
▁dope	-11.3903
▁expectations	-11.3903
▁internal	-11.3903
▁begged	-11.3903
▁descent	-11.3903
▁cooperation	-11.3903
▁happier	-11.3903
▁lailailai	-11.3903
▁appall	-11.3903
▁voting	-11.3903
▁administrator	-11.3903
▁shuffle	-11.3903
▁siege	-11.3903
▁unpack	-11.3903
▁toid	-11.3903
▁fisherman	-11.3903
▁soil	-11.3903
▁teleport	-11.3903
▁deceive	-11.3903
▁tourist	-11.3903
▁salesman	-11.3903
▁elway	-11.3903
▁bonus	-11.3904
▁headache	-11.3904
▁noah	-11.3904
▁temptation	-11.3904
mmering	-11.3904
▁cricket	-11.3904
▁bore	-11.3904
▁allah	-11.3904
▁willie	-11.3904
▁minion	-11.3904
▁memo	-11.3905
▁facemaker	-11.3905
lutz	-11.3905
▁espn	-11.3905
▁budda	-11.3905
ieval	-11.3905
▁curve	-11.3905
▁randy	-11.3906
▁aggressive	-11.3906
▁pulse	-11.3906
▁alexandra	-11.3906
▁cheerful	-11.3906
▁coil	-11.3906
▁concluded	-11.3906
▁harbor	-11.3907
▁shant	-11.3907
▁buckman	-11.3907
▁feei	-11.3907
▁whereas	-11.3907
pido	-11.3907
▁iot	-11.3907
▁reap	-11.3907
▁reep	-11.3907
▁hotshot	-11.3907
▁screwup	-11.3907
▁tj	-11.3907
▁spectre	-11.3908
▁limo	-11.3908
▁bedell	-11.3908
▁plug	-11.3908
▁gelatine	-11.3908
▁accu	-11.3908
▁dante	-11.3908
▁dried	-11.3909
▁beatles	-11.3909
▁wheaties	-11.3909
▁injury	-11.3909
▁dice	-11.3909
▁latitude	-11.3909
▁counselor	-11.3909
▁ieave	-11.3909
▁bible	-11.3909
▁hank	-11.391
▁analy	-11.391
▁identify	-11.391
▁attracted	-11.391
▁overwhelmed	-11.391
▁atom	-11.391
▁athe	-11.391
▁bun	-11.3911
▁jamb	-11.3911
▁havin	-11.3911
▁forged	-11.3911
▁mystical	-11.3911
▁llve	-11.3912
▁ninety	-11.3912
▁unhand	-11.3913
▁contraction	-11.3913
▁breakaway	-11.3913
▁linda	-11.3913
▁taxes	-11.3914
▁dino	-11.3914
▁lull	-11.3914
▁stain	-11.3914
▁playmate	-11.3915
▁cork	-11.3915
▁sap	-11.3915
▁sour	-11.3915
▁grain	-11.3916
▁stepped	-11.3916
proximate	-11.3916
▁teamwork	-11.3916
▁carpathian	-11.3916
▁restored	-11.3917
▁muz	-11.3917
▁charter	-11.3917
▁departed	-11.3917
▁skipped	-11.3917
▁anointed	-11.3917
▁sai	-11.3917
▁consideration	-11.3917
▁swan	-11.3917
▁executioner	-11.3918
▁ranch	-11.3918
▁phony	-11.3918
▁whipped	-11.3918
▁coverage	-11.3918
▁tease	-11.3918
▁pooper	-11.3918
▁sadness	-11.3919
▁crest	-11.3919
▁witnesses	-11.3919
▁rumor	-11.3919
▁seam	-11.3919
headed	-11.3919
▁yore	-11.392
▁kiddo	-11.392
▁ahold	-11.3921
▁dinnertime	-11.3921
dabbadoo	-11.3922
▁unlock	-11.3922
▁hallowe	-11.3922
▁runaway	-11.3923
▁cord	-11.3925
▁esp	-11.3926
▁orbital	-11.3926
▁faded	-11.3927
▁headline	-11.3927
▁utter	-11.3928
▁cadet	-11.3928
▁gur	-11.3928
▁steed	-11.3928
▁controlling	-11.3929
▁madness	-11.3929
▁vanity	-11.3929
eactivate	-11.3929
▁eliminated	-11.393
▁yash	-11.3931
▁located	-11.3931
▁hobby	-11.3931
aint	-11.3932
▁brownies	-11.3933
▁endure	-11.3934
▁mic	-11.3935
▁fulfill	-11.3936
▁haul	-11.3937
ural	-11.3939
▁waitress	-11.3941
▁coral	-11.3941
▁handful	-11.3942
▁backpack	-11.3943
▁startled	-11.3943
▁frenchman	-11.3943
▁rosa	-11.3944
▁superb	-11.3945
▁rig	-11.3946
▁render	-11.3948
▁organized	-11.3949
▁angu	-11.3949
▁pta	-11.395
▁vomiting	-11.3951
new	-11.3951
ffe	-11.3953
▁haunted	-11.3953
▁sunk	-11.3954
▁chopper	-11.3955
▁bitter	-11.3955
▁wrestled	-11.3955
▁lane	-11.3956
inous	-11.3956
▁challenger	-11.3958
▁yetis	-11.3958
▁larger	-11.3958
▁beaten	-11.3959
▁betrayed	-11.396
▁conf	-11.396
▁spite	-11.396
dies	-11.3965
▁toaster	-11.3965
▁fro	-11.3966
▁cheater	-11.3966
▁hoot	-11.3967
▁leadman	-11.3967
▁mammals	-11.3973
▁passengers	-11.3973
▁roars	-11.3973
▁responding	-11.3974
▁disturbing	-11.3974
▁mma	-11.3974
▁hog	-11.3975
▁cloudy	-11.3976
▁hick	-11.3979
▁trample	-11.3979
▁spoiled	-11.3981
▁informed	-11.3981
▁announced	-11.3983
▁fury	-11.3985
▁goof	-11.3986
bug	-11.3987
▁rollin	-11.3988
annie	-11.3988
▁qyacking	-11.3997
▁virtue	-11.3998
▁bowler	-11.4
▁ut	-11.4001
▁punt	-11.4002
▁boiler	-11.4003
eedle	-11.4004
▁buzzes	-11.4007
plore	-11.4008
▁the	-11.4008
▁excitedly	-11.4015
▁crushed	-11.4018
▁shrinking	-11.402
▁residents	-11.4021
▁arrangements	-11.4021
▁references	-11.4021
▁sausages	-11.4021
▁spiders	-11.4021
▁charmer	-11.4022
▁curl	-11.4022
▁authorize	-11.4028
▁performed	-11.4032
▁wrecked	-11.4032
syc	-11.4035
▁lance	-11.4036
▁dispers	-11.4039
ace	-11.4039
▁murdered	-11.4043
▁planted	-11.4044
▁difficulty	-11.4044
▁pasta	-11.4048
▁germany	-11.4056
▁takedown	-11.4063
▁commands	-11.4066
▁drone	-11.4068
▁sailed	-11.4069
▁trolls	-11.407
▁fractions	-11.407
▁initials	-11.407
▁generations	-11.4071
▁doses	-11.4071
▁sadly	-11.4071
▁wea	-11.4073
▁kindness	-11.4075
▁punched	-11.4075
▁hangin	-11.4089
▁beta	-11.4092
▁walters	-11.4098
▁exceptional	-11.4103
augh	-11.4109
▁colder	-11.4109
▁practiced	-11.4114
▁vat	-11.4115
mal	-11.4119
▁dearie	-11.4119
▁grownups	-11.4119
▁turks	-11.412
▁sneezes	-11.412
▁sham	-11.4123
▁jazzing	-11.4125
▁helpless	-11.4137
▁compa	-11.4142
▁coos	-11.4151
▁conditioning	-11.4166
▁stutter	-11.4166
▁musicians	-11.4169
▁instincts	-11.4169
▁mermaids	-11.4169
▁eatin	-11.4177
▁lik	-11.4183
▁shooter	-11.4184
▁gifted	-11.419
▁weirder	-11.4194
▁choices	-11.4196
▁carts	-11.42
nates	-11.4206
▁busting	-11.4208
▁sleeves	-11.4219
▁blankets	-11.4219
▁distort	-11.4221
▁possessions	-11.4222
▁foundation	-11.4225
▁actors	-11.4226
▁stab	-11.4228
▁blinded	-11.4229
▁cleaners	-11.4229
▁glue	-11.4237
▁bells	-11.4237
▁dancers	-11.425
mile	-11.425
▁franc	-11.4251
▁dealer	-11.4252
▁fac	-11.4252
▁bonding	-11.4267
▁individuals	-11.4269
▁engravings	-11.4269
▁scouts	-11.4269
▁medals	-11.4269
▁dolls	-11.4269
▁smelly	-11.4279
▁mares	-11.4284
scent	-11.4289
▁bong	-11.429
bert	-11.4296
▁ity	-11.4298
▁pearls	-11.4308
ole	-11.4312
▁fins	-11.4316
▁docks	-11.4319
▁beaks	-11.432
ghi	-11.4323
▁caf	-11.4331
▁rec	-11.4333
▁explained	-11.4337
▁bak	-11.4338
▁cabb	-11.4338
▁dow	-11.4352
▁lookout	-11.437
▁bowling	-11.4371
ais	-11.4374
ello	-11.4375
▁democratic	-11.4402
▁lightly	-11.442
▁depths	-11.4421
▁mirrors	-11.4421
▁leagues	-11.4421
▁spying	-11.4424
▁counted	-11.4439
▁dam	-11.4453
▁absorb	-11.4468
▁gals	-11.447
▁parked	-11.4472
▁affairs	-11.4472
▁favorites	-11.4498
tig	-11.45
▁patients	-11.4524
▁playin	-11.4529
version	-11.4531
▁scrambl	-11.4538
ingham	-11.4547
▁aa	-11.4561
▁sleepy	-11.4569
▁cigarettes	-11.4576
▁costumes	-11.4576
▁sailors	-11.4578
▁seals	-11.4578
▁pilots	-11.459
▁gorillas	-11.4628
▁prices	-11.4628
▁runt	-11.4631
▁shouts	-11.4632
▁periods	-11.4637
▁holidays	-11.468
▁rainbows	-11.468
▁servants	-11.468
▁whales	-11.4682
fe	-11.4683
ison	-11.4693
▁attacking	-11.4699
▁apples	-11.4734
hound	-11.4737
yah	-11.4748
▁dreamy	-11.4752
▁naz	-11.4781
▁crystals	-11.4786
▁alo	-11.4796
▁lads	-11.4826
▁secondly	-11.4827
▁artists	-11.4831
▁kicks	-11.4832
live	-11.4842
▁flames	-11.4852
▁tunes	-11.4862
kung	-11.4863
▁reli	-11.4867
heim	-11.487
▁slowing	-11.4877
lon	-11.4885
▁ste	-11.4888
▁cur	-11.4904
▁nobe	-11.4904
▁directions	-11.4947
▁wip	-11.4949
▁storms	-11.495
▁characters	-11.4954
▁kar	-11.4959
shim	-11.4985
unce	-11.4987
▁din	-11.499
▁dus	-11.4994
▁bugs	-11.5002
▁chatt	-11.5002
▁git	-11.5008
ark	-11.501
ense	-11.504
▁bol	-11.5071
fo	-11.5075
bel	-11.5085
▁nurses	-11.5103
▁advis	-11.5107
▁styles	-11.5111
▁trainer	-11.5119
▁swi	-11.5124
gus	-11.5131
iro	-11.5131
▁fil	-11.5148
▁metals	-11.5167
▁heavyweights	-11.5167
▁paths	-11.5169
xton	-11.5173
mill	-11.5192
▁and	-11.521
roll	-11.5219
▁cont	-11.523
long	-11.5233
▁bern	-11.5255
▁hind	-11.5259
uz	-11.5269
▁oo	-11.5272
▁springs	-11.5281
▁tube	-11.5283
bble	-11.529
raving	-11.5297
ashi	-11.5313
▁unto	-11.5315
eep	-11.5319
lum	-11.532
oke	-11.532
▁kee	-11.5322
▁crimes	-11.5335
of	-11.5364
▁zit	-11.5373
eight	-11.5382
▁swap	-11.5382
▁cells	-11.5392
qualified	-11.5429
itt	-11.5434
lc	-11.5435
▁mag	-11.5456
hur	-11.5486
▁accounts	-11.5498
ider	-11.55
pache	-11.5503
▁cared	-11.5513
▁carb	-11.5521
lai	-11.5546
▁chip	-11.555
▁aver	-11.556
▁wad	-11.5574
▁donkeys	-11.5621
oken	-11.5691
ura	-11.5693
erci	-11.5699
▁stat	-11.5714
mont	-11.5736
▁mill	-11.5743
▁accepts	-11.5744
lets	-11.5745
dated	-11.5773
▁app	-11.5787
▁democrat	-11.5788
orted	-11.5805
▁breast	-11.5838
▁lav	-11.5867
ena	-11.5875
whom	-11.5907
▁pol	-11.5908
ibi	-11.5909
mble	-11.5947
biamo	-11.5954
ries	-11.5963
▁outs	-11.5971
▁char	-11.5982
tric	-11.6006
kori	-11.6018
ewer	-11.6032
▁ama	-11.6061
facing	-11.6083
▁cam	-11.6084
ury	-11.6092
hew	-11.6096
▁astra	-11.6097
leg	-11.6101
▁threaten	-11.611
▁spi	-11.6117
▁molt	-11.6125
▁inf	-11.6145
▁thorn	-11.6152
escent	-11.616
▁groan	-11.6162
eum	-11.6168
▁waffle	-11.6177
▁burger	-11.6178
▁initial	-11.6184
▁fraction	-11.6184
▁planes	-11.6184
▁generation	-11.6186
▁raven	-11.6189
▁tentacle	-11.619
▁cheek	-11.619
state	-11.6191
▁troll	-11.6192
▁curtain	-11.6192
▁dose	-11.6194
▁sheet	-11.6198
▁manner	-11.6199
nic	-11.62
▁detail	-11.6204
pac	-11.6214
▁debt	-11.6225
▁author	-11.6234
▁trader	-11.625
▁gall	-11.6253
zzle	-11.6264
▁noo	-11.6267
▁nazi	-11.6271
▁virtu	-11.6273
▁pip	-11.6273
▁honk	-11.6274
rched	-11.6277
▁pom	-11.6278
cum	-11.6279
▁invad	-11.6288
▁shack	-11.6292
etta	-11.6294
▁trumpet	-11.6297
ista	-11.6301
▁integrat	-11.6309
▁challeng	-11.6312
▁illustr	-11.6315
▁kn	-11.6321
itty	-11.6322
▁bei	-11.6323
▁escap	-11.6334
▁captur	-11.6337
▁mechanic	-11.6343
▁clink	-11.6348
▁recover	-11.635
▁disgust	-11.6352
▁achi	-11.6356
▁hookin	-11.6361
▁dread	-11.6361
wood	-11.6362
▁liberat	-11.6362
read	-11.6362
▁assign	-11.6364
boat	-11.6365
▁possess	-11.6365
▁invent	-11.6366
▁slim	-11.6366
▁retard	-11.6368
▁accomplish	-11.6368
▁diploma	-11.6368
▁install	-11.6369
▁wav	-11.6372
piece	-11.6374
guard	-11.6374
order	-11.6374
▁explor	-11.6374
reach	-11.6376
human	-11.6376
burn	-11.6376
▁wuss	-11.6376
june	-11.6377
review	-11.6377
grave	-11.6377
wheel	-11.6377
eaten	-11.6377
buck	-11.6377
phony	-11.6377
steak	-11.6377
spread	-11.6377
tool	-11.6378
normal	-11.6378
yearold	-11.6378
watch	-11.6378
▁qualifie	-11.6378
▁determine	-11.6378
hammer	-11.6378
▁grizzl	-11.6379
worthy	-11.638
▁gravit	-11.6381
▁zip	-11.6381
▁izz	-11.6381
▁blam	-11.6381
▁pursue	-11.6381
wise	-11.6381
▁hurr	-11.6382
sake	-11.6382
double	-11.6383
fortunately	-11.6383
▁hysterical	-11.6383
wire	-11.6384
cation	-11.6384
▁apparent	-11.6385
master	-11.6386
▁numb	-11.6386
case	-11.6387
▁gelatin	-11.6388
▁cruis	-11.6388
unge	-11.6388
▁scatt	-11.6389
▁elo	-11.6389
high	-11.6389
hill	-11.639
spy	-11.639
▁glor	-11.639
bumb	-11.6392
▁cortez	-11.6393
▁sensation	-11.6393
▁froze	-11.6394
ject	-11.6394
tami	-11.6394
▁villa	-11.6395
ficial	-11.6395
▁trait	-11.6395
▁accelerat	-11.6396
▁reflect	-11.6396
▁warrant	-11.6396
▁divis	-11.6397
easant	-11.6397
▁obli	-11.6397
▁grocer	-11.6397
▁seasick	-11.6397
▁eject	-11.6397
▁motto	-11.6397
▁inhal	-11.6398
▁slop	-11.6398
▁tram	-11.6398
▁filt	-11.6398
▁viola	-11.6398
▁gwen	-11.6398
leash	-11.6398
▁numer	-11.6398
▁historic	-11.6398
▁kidnap	-11.6398
▁jeopard	-11.6398
▁forbid	-11.6399
munition	-11.6399
▁latch	-11.6399
▁congress	-11.6399
▁psyched	-11.6399
ourseives	-11.6399
responsibilities	-11.6399
▁abruptly	-11.6399
▁activities	-11.6399
▁allotment	-11.6399
▁anniversary	-11.6399
▁antarctic	-11.6399
▁arrivai	-11.6399
▁bahamas	-11.6399
▁balcony	-11.6399
▁balkan	-11.6399
▁baloney	-11.6399
▁barbecue	-11.6399
▁belgian	-11.6399
▁bellicec	-11.6399
▁bellveedaray	-11.6399
▁bennett	-11.6399
▁bernhardt	-11.6399
▁beware	-11.6399
▁bioexorcist	-11.6399
▁bjorn	-11.6399
▁bleach	-11.6399
▁brochure	-11.6399
▁bulb	-11.6399
▁bungalow	-11.6399
▁bygones	-11.6399
▁cackling	-11.6399
▁cafeteria	-11.6399
▁capacitance	-11.6399
▁captivity	-11.6399
▁catlady	-11.6399
▁cauldron	-11.6399
▁chariot	-11.6399
▁cheesecake	-11.6399
▁chivalry	-11.6399
▁choking	-11.6399
▁climate	-11.6399
▁collide	-11.6399
▁cologne	-11.6399
▁column	-11.6399
▁commodity	-11.6399
▁compassion	-11.6399
▁concussion	-11.6399
▁congrats	-11.6399
▁conjure	-11.6399
▁connecticut	-11.6399
▁conscious	-11.6399
▁conspiracy	-11.6399
▁contagious	-11.6399
▁contemplat	-11.6399
▁convenient	-11.6399
▁cottage	-11.6399
▁crawford	-11.6399
▁crimson	-11.6399
▁crumble	-11.6399
▁cushion	-11.6399
▁dagmar	-11.6399
▁deacon	-11.6399
▁deceased	-11.6399
▁delirious	-11.6399
▁descendant	-11.6399
▁descended	-11.6399
▁detention	-11.6399
▁deux	-11.6399
▁dodgers	-11.6399
▁dulock	-11.6399
▁dwarves	-11.6399
▁essay	-11.6399
▁exaggerate	-11.6399
▁exlax	-11.6399
▁expiain	-11.6399
▁exquisite	-11.6399
▁exterior	-11.6399
▁fanciful	-11.6399
▁fantasy	-11.6399
▁fiddleyio	-11.6399
▁fizz	-11.6399
▁gaffney	-11.6399
▁galleon	-11.6399
▁georgia	-11.6399
▁gianni	-11.6399
▁globe	-11.6399
▁gluten	-11.6399
▁grissom	-11.6399
▁harriet	-11.6399
▁hasbeen	-11.6399
▁heavier	-11.6399
▁heinlein	-11.6399
▁helium	-11.6399
▁hirschorn	-11.6399
▁hitchhike	-11.6399
▁hopscotch	-11.6399
▁horror	-11.6399
▁humiliating	-11.6399
▁hurricane	-11.6399
▁huzzah	-11.6399
▁ignition	-11.6399
▁imaginable	-11.6399
▁industry	-11.6399
▁injustice	-11.6399
▁intruder	-11.6399
▁irresponsible	-11.6399
▁jiffy	-11.6399
▁juarez	-11.6399
▁klaus	-11.6399
▁klonk	-11.6399
▁krapotkin	-11.6399
▁latrine	-11.6399
▁lavatory	-11.6399
▁leondegrance	-11.6399
▁lesbian	-11.6399
▁livorno	-11.6399
▁lollipop	-11.6399
▁lombard	-11.6399
▁lynetta	-11.6399
▁mackerel	-11.6399
▁manhattan	-11.6399
▁mannequin	-11.6399
▁meatloaf	-11.6399
▁mechanism	-11.6399
▁meherunissa	-11.6399
▁merciful	-11.6399
▁microwave	-11.6399
▁molitor	-11.6399
▁motivation	-11.6399
▁mozart	-11.6399
▁myrna	-11.6399
▁myspace	-11.6399
▁necessarily	-11.6399
▁nelson	-11.6399
▁nicole	-11.6399
▁nimrod	-11.6399
▁nominated	-11.6399
▁nominee	-11.6399
▁normandy	-11.6399
▁nuhuh	-11.6399
▁observation	-11.6399
▁obsolete	-11.6399
▁octagon	-11.6399
▁okeydoke	-11.6399
▁omelet	-11.6399
▁orchid	-11.6399
▁outrageous	-11.6399
▁overrated	-11.6399
▁overreact	-11.6399
▁overseas	-11.6399
▁pantyhose	-11.6399
▁parakeet	-11.6399
▁paramedics	-11.6399
▁password	-11.6399
▁paycheck	-11.6399
▁peggy	-11.6399
▁pennsylvania	-11.6399
▁pentagon	-11.6399
▁piatform	-11.6399
▁pipsqueak	-11.6399
▁plaster	-11.6399
▁postcard	-11.6399
▁poultry	-11.6399
▁preferably	-11.6399
▁prevail	-11.6399
▁probiem	-11.6399
▁puncture	-11.6399
▁raccoon	-11.6399
▁raphael	-11.6399
▁recondition	-11.6399
▁reflexes	-11.6399
▁reindeer	-11.6399
▁remodel	-11.6399
▁resign	-11.6399
▁rewrit	-11.6399
▁ritual	-11.6399
▁rooftops	-11.6399
▁safari	-11.6399
▁saloon	-11.6399
▁satisfy	-11.6399
▁senator	-11.6399
▁seymour	-11.6399
▁shakespeare	-11.6399
▁shepherd	-11.6399
▁shipwreck	-11.6399
▁shrieking	-11.6399
▁skyscraper	-11.6399
▁slade	-11.6399
▁slitherpoole	-11.6399
▁snorting	-11.6399
▁sodium	-11.6399
▁sonofabitch	-11.6399
▁spectacle	-11.6399
▁stamina	-11.6399
▁stevie	-11.6399
▁stohler	-11.6399
▁striking	-11.6399
▁sunscreen	-11.6399
▁syllable	-11.6399
▁symptoms	-11.6399
▁syrup	-11.6399
▁teresa	-11.6399
▁terrain	-11.6399
▁tiffany	-11.6399
▁tolstoy	-11.6399
▁toohey	-11.6399
▁trampoline	-11.6399
▁trauma	-11.6399
▁tribute	-11.6399
▁unacceptable	-11.6399
▁unauthorized	-11.6399
▁unbearable	-11.6399
▁undercover	-11.6399
▁unicorn	-11.6399
▁universal	-11.6399
▁unnecessary	-11.6399
▁unsportsmanlike	-11.6399
▁unsuccessful	-11.6399
▁uppity	-11.6399
▁valestra	-11.6399
▁vishnu	-11.6399
▁vocalizes	-11.6399
▁vortex	-11.6399
▁vulnerable	-11.6399
▁whisker	-11.6399
▁wonderfui	-11.6399
▁wondrous	-11.6399
destruct	-11.6399
▁acorn	-11.6399
▁align	-11.6399
▁ambush	-11.6399
▁assassin	-11.6399
▁assault	-11.6399
▁bypass	-11.6399
▁canyon	-11.6399
▁celebrit	-11.6399
▁dedication	-11.6399
▁destruction	-11.6399
▁dignity	-11.6399
▁eyewitness	-11.6399
▁gbh	-11.6399
▁glaive	-11.6399
▁hula	-11.6399
▁hymn	-11.6399
▁klein	-11.6399
▁mastermind	-11.6399
▁mosquito	-11.6399
▁nicolas	-11.6399
▁ongoing	-11.6399
▁pioneer	-11.6399
▁pottery	-11.6399
▁proclaim	-11.6399
▁regiment	-11.6399
▁slab	-11.6399
▁slaughter	-11.6399
▁spontaneous	-11.6399
▁suffocate	-11.6399
▁terminal	-11.6399
▁thefts	-11.6399
▁thrash	-11.6399
▁trifle	-11.6399
▁unimaginab	-11.6399
▁whirs	-11.6399
▁yikes	-11.6399
▁bundt	-11.6399
▁clamoring	-11.6399
▁disconcert	-11.6399
▁dreary	-11.6399
▁gossip	-11.6399
▁homosexual	-11.6399
▁horde	-11.6399
▁justjust	-11.6399
▁microscop	-11.6399
▁motel	-11.6399
▁nevertheless	-11.6399
▁offsides	-11.6399
▁peewee	-11.6399
▁pronto	-11.6399
▁psychological	-11.6399
▁radar	-11.6399
▁regain	-11.6399
▁sciatic	-11.6399
▁spatters	-11.6399
▁sputter	-11.6399
▁stimula	-11.6399
▁urine	-11.6399
▁waik	-11.6399
▁xeno	-11.6399
▁crust	-11.6399
▁ethel	-11.6399
▁frag	-11.6399
▁pierce	-11.6399
▁bosley	-11.6399
▁cuddl	-11.6399
▁drank	-11.6399
▁embark	-11.6399
▁huy	-11.6399
▁lulu	-11.6399
▁maywho	-11.6399
▁poach	-11.6399
▁stocktak	-11.6399
▁wheezing	-11.6399
▁accomplishments	-11.6399
▁beginners	-11.6399
▁civilians	-11.6399
▁examined	-11.6399
▁newcomer	-11.6399
▁slurps	-11.6399
▁wilderness	-11.6399
▁blouse	-11.6399
▁erase	-11.6399
▁goodwill	-11.6399
▁hobbyhorse	-11.6399
▁serum	-11.6399
▁bavaria	-11.6399
▁commotion	-11.6399
▁crisp	-11.6399
▁grits	-11.6399
▁omg	-11.6399
▁sculpture	-11.6399
▁swarm	-11.6399
▁bosom	-11.6399
▁dragged	-11.6399
▁pumas	-11.6399
▁sanctuary	-11.6399
▁staircase	-11.6399
moxys	-11.6399
▁adios	-11.6399
▁andrew	-11.6399
▁grammy	-11.6399
▁jingling	-11.6399
▁knitting	-11.6399
▁zao	-11.6399
▁derri	-11.6399
▁greyhound	-11.6399
▁reassur	-11.6399
▁backstage	-11.6399
▁iater	-11.6399
▁residence	-11.6399
▁brood	-11.6399
▁flooding	-11.6399
▁nowadays	-11.6399
▁pough	-11.6399
▁undertak	-11.6399
cchio	-11.6399
▁etc	-11.6399
▁bullseye	-11.6399
▁elevated	-11.6399
▁piay	-11.6399
▁recess	-11.6399
▁companies	-11.6399
▁redeem	-11.6399
▁indifferen	-11.6399
▁lastik	-11.6399
▁sniffles	-11.6399
▁ammunition	-11.6399
▁tenner	-11.6399
▁wilmer	-11.6399
▁aft	-11.6399
▁alabama	-11.6399
▁beiong	-11.6399
▁cloudbreather	-11.6399
▁pause	-11.6399
▁comming	-11.6399
▁inventory	-11.6399
▁vandal	-11.6399
▁contribution	-11.6399
▁influence	-11.6399
▁loaf	-11.6399
▁breck	-11.6399
▁stunne	-11.6399
▁clover	-11.6399
▁halt	-11.6399
▁mangled	-11.6399
▁llfe	-11.6399
▁bestowed	-11.6399
▁boundaries	-11.6399
▁redskins	-11.6399
▁talons	-11.6399
▁prominent	-11.6399
▁rhin	-11.6399
▁deception	-11.6399
▁republican	-11.6399
▁pension	-11.6399
▁bellows	-11.6399
▁fortytwo	-11.6399
▁hostile	-11.6399
▁restoration	-11.6399
▁felon	-11.6399
▁flashlight	-11.6399
▁hamstring	-11.6399
▁functions	-11.6399
▁investigation	-11.6399
▁olympic	-11.6399
▁guinea	-11.6399
▁yankee	-11.6399
▁boogeyman	-11.6399
▁madder	-11.64
▁jeopardize	-11.64
▁content	-11.64
▁slash	-11.64
▁friction	-11.64
▁overcome	-11.64
▁substance	-11.64
▁suspicious	-11.64
▁siena	-11.64
▁bunco	-11.64
▁garda	-11.64
▁jejune	-11.64
▁elastic	-11.64
▁vicious	-11.64
▁colorado	-11.64
▁pending	-11.64
▁muddle	-11.64
parallel	-11.64
▁humour	-11.64
▁notified	-11.64
▁brink	-11.64
▁coover	-11.64
▁knob	-11.64
▁butterfi	-11.64
▁casa	-11.64
▁resemblance	-11.64
▁raspberries	-11.64
▁chorus	-11.64
▁ellison	-11.64
▁priorities	-11.64
▁surgeon	-11.64
▁rehearsai	-11.64
▁spice	-11.64
▁flunk	-11.64
▁bolted	-11.64
▁upsidedown	-11.64
▁inferna	-11.64
dada	-11.64
▁maury	-11.64
▁insure	-11.64
▁simms	-11.64
▁whatcha	-11.64
▁downfield	-11.64
▁brays	-11.64
addle	-11.64
▁disturbance	-11.64
▁yoohoo	-11.64
▁tapped	-11.64
▁overnight	-11.64
▁unemployment	-11.64
▁steep	-11.64
▁iife	-11.64
▁granny	-11.64
▁slapped	-11.64
▁franz	-11.6401
▁garment	-11.6401
▁stoop	-11.6401
▁irish	-11.6401
▁saks	-11.6401
▁incline	-11.6401
▁radius	-11.6401
▁concentration	-11.6401
▁income	-11.6401
▁comedian	-11.6401
▁soak	-11.6401
▁rodney	-11.6401
▁grey	-11.6401
sync	-11.6401
▁catastrophe	-11.6401
▁alleg	-11.6401
▁cozy	-11.6401
▁footprint	-11.6401
▁flipped	-11.6401
▁inertia	-11.6401
▁buddies	-11.6401
▁hyde	-11.6401
▁tickling	-11.6401
▁salvation	-11.6401
▁stash	-11.6401
sotto	-11.6401
▁drool	-11.6401
▁feline	-11.6401
▁conned	-11.6402
▁amma	-11.6402
▁yoyo	-11.6402
▁rational	-11.6402
▁wirh	-11.6402
▁floss	-11.6402
▁clayton	-11.6402
▁web	-11.6402
▁polar	-11.6402
▁revoke	-11.6402
ameter	-11.6402
▁giddy	-11.6402
▁guru	-11.6402
▁pinball	-11.6402
▁toby	-11.6402
piration	-11.6402
▁hissing	-11.6402
▁fangs	-11.6402
▁swirl	-11.6402
▁politician	-11.6402
▁ernest	-11.6402
▁transportation	-11.6402
▁pork	-11.6402
▁matri	-11.6402
▁grue	-11.6403
▁cruelty	-11.6403
▁nanako	-11.6403
▁plier	-11.6403
▁affection	-11.6403
▁iong	-11.6403
▁jello	-11.6403
▁rocco	-11.6403
▁cereal	-11.6403
▁eligible	-11.6403
▁structure	-11.6403
▁angelica	-11.6403
▁cartridge	-11.6403
▁battlefield	-11.6403
▁kiii	-11.6403
▁cornell	-11.6403
▁dwell	-11.6403
▁consist	-11.6403
▁abdicat	-11.6403
▁oink	-11.6403
▁unleash	-11.6403
▁iq	-11.6403
▁bernie	-11.6403
▁dislike	-11.6403
▁pimp	-11.6403
▁chow	-11.6403
▁stripes	-11.6403
▁papathing	-11.6403
▁vivi	-11.6403
▁chole	-11.6403
▁exactiy	-11.6404
▁fatima	-11.6404
▁foil	-11.6404
▁rhe	-11.6404
namel	-11.6404
▁waist	-11.6404
▁vigilante	-11.6404
▁enlightened	-11.6404
▁churchill	-11.6404
▁falter	-11.6404
▁intense	-11.6404
▁yacht	-11.6405
▁viva	-11.6405
▁cortezes	-11.6405
▁cuss	-11.6405
▁troublemaker	-11.6405
▁reborn	-11.6405
▁rotat	-11.6405
▁disney	-11.6405
▁spun	-11.6405
▁gunther	-11.6405
▁plugg	-11.6405
▁asian	-11.6405
▁kol	-11.6406
▁plow	-11.6406
▁crucify	-11.6406
▁riverside	-11.6406
▁translation	-11.6406
▁bribe	-11.6406
▁infectio	-11.6406
▁classified	-11.6407
▁hence	-11.6407
▁firstclass	-11.6407
▁zu	-11.6407
lance	-11.6407
▁epi	-11.6407
▁sept	-11.6407
▁clap	-11.6407
▁tango	-11.6407
▁fuse	-11.6407
▁menace	-11.6407
▁fax	-11.6407
▁oppose	-11.6407
▁titch	-11.6408
▁regional	-11.6408
▁gael	-11.6408
▁meddl	-11.6408
▁mason	-11.6408
▁donnie	-11.6408
▁codman	-11.6408
▁rally	-11.6408
arette	-11.6408
cci	-11.6408
▁studied	-11.6409
▁whipper	-11.6409
▁passport	-11.6409
▁baptized	-11.6409
▁ashes	-11.6409
▁grind	-11.6409
▁aero	-11.6409
▁polo	-11.6409
▁sequence	-11.641
▁collective	-11.641
▁culture	-11.641
▁seif	-11.641
▁logic	-11.641
▁patty	-11.641
▁honorary	-11.641
▁inlaw	-11.641
▁sphere	-11.641
▁revive	-11.6411
▁gallop	-11.6411
▁perish	-11.6411
▁certainiy	-11.6411
▁dj	-11.6411
▁damp	-11.6411
roach	-11.6411
▁restore	-11.6411
▁herbie	-11.6411
▁wager	-11.6411
▁corne	-11.6412
▁hottie	-11.6412
▁operate	-11.6412
▁reload	-11.6412
▁prune	-11.6412
▁procession	-11.6412
▁vast	-11.6412
▁guin	-11.6413
▁superfl	-11.6413
▁ash	-11.6413
▁duh	-11.6413
▁frieda	-11.6413
▁disconnected	-11.6413
stein	-11.6414
▁termination	-11.6414
▁broom	-11.6414
▁jona	-11.6415
▁alai	-11.6415
▁audi	-11.6416
▁arf	-11.6416
▁amp	-11.6417
▁meh	-11.6417
▁tread	-11.6417
▁shelter	-11.6418
▁panel	-11.6418
▁moth	-11.6418
▁utterly	-11.6418
▁ofyour	-11.6418
▁lori	-11.6419
uppies	-11.6419
▁vertical	-11.6419
▁porc	-11.642
anthrop	-11.642
▁brig	-11.642
▁jai	-11.6421
▁wedge	-11.6421
▁cellar	-11.6421
▁deke	-11.6421
care	-11.6421
▁hitler	-11.6422
▁bushkin	-11.6422
▁wool	-11.6423
▁detected	-11.6423
▁devoted	-11.6423
▁intimidated	-11.6423
▁alma	-11.6423
▁bugged	-11.6423
▁considerable	-11.6423
▁halfback	-11.6423
▁hospitality	-11.6423
▁tardy	-11.6423
▁assist	-11.6424
▁dimly	-11.6425
▁settlement	-11.6425
▁jove	-11.6425
▁allies	-11.6425
▁betel	-11.6427
▁napkin	-11.6427
▁swiftly	-11.6427
aunted	-11.6427
laid	-11.6428
▁manhood	-11.6428
▁schoolwork	-11.6428
tuous	-11.6428
▁tide	-11.6428
▁described	-11.6428
▁poked	-11.6428
▁rape	-11.6428
▁diego	-11.6429
▁ec	-11.6429
▁modell	-11.643
▁active	-11.6431
▁protective	-11.6432
▁assigned	-11.6432
▁cola	-11.6432
▁setback	-11.6432
▁teenager	-11.6432
▁thia	-11.6432
▁cried	-11.6434
▁passage	-11.6434
▁pepe	-11.6434
chan	-11.6434
▁valet	-11.6434
▁ahem	-11.6434
▁contr	-11.6434
▁deadline	-11.6434
▁bowie	-11.6435
▁hiccups	-11.6435
▁moocher	-11.6435
▁pap	-11.6435
▁briefly	-11.6436
▁blockers	-11.6436
▁mayday	-11.6436
▁hav	-11.6436
▁bellies	-11.6437
▁whack	-11.6437
▁butcher	-11.6438
▁coon	-11.6439
▁quitter	-11.6439
▁hometown	-11.6439
▁dab	-11.6439
▁nibble	-11.6441
▁faceoff	-11.6441
▁distressed	-11.6441
▁bailed	-11.6441
▁squashed	-11.6441
▁stoppin	-11.6442
▁scraping	-11.6442
▁coal	-11.6444
▁chrom	-11.6444
▁realistic	-11.6444
▁parttime	-11.6445
now	-11.6445
▁sickness	-11.6446
▁earthling	-11.6447
▁starry	-11.6447
chen	-11.6447
▁imprison	-11.6447
▁respectable	-11.6447
▁appli	-11.6447
▁proposed	-11.6448
▁bagel	-11.6448
▁guiding	-11.645
▁attached	-11.6451
▁vir	-11.6451
▁lau	-11.6451
▁instantly	-11.6453
▁bonehead	-11.6453
▁shaved	-11.6454
▁yea	-11.6454
arian	-11.6457
▁imminent	-11.6457
▁hugo	-11.6458
▁reserved	-11.6459
▁cheaper	-11.646
▁altered	-11.646
▁flushed	-11.646
▁disturbed	-11.646
▁alc	-11.6461
▁bred	-11.6461
▁shovel	-11.6462
▁caus	-11.6465
▁tang	-11.6465
▁bully	-11.6466
▁pawn	-11.6466
▁skyler	-11.6467
▁binding	-11.6467
▁mold	-11.6468
▁justif	-11.6469
▁antique	-11.6469
▁drained	-11.647
▁specialist	-11.647
▁purd	-11.6471
▁chilly	-11.6471
▁imply	-11.6471
▁angelo	-11.6474
brain	-11.6476
▁contractor	-11.6476
witz	-11.6479
▁martini	-11.6482
▁echoing	-11.6482
▁railing	-11.6482
get	-11.6482
▁angela	-11.6483
▁awaiting	-11.6484
▁celebrated	-11.6486
▁refused	-11.6486
elope	-11.6488
rish	-11.6488
▁distracted	-11.6488
▁define	-11.6489
▁ranked	-11.6489
▁funnie	-11.6492
▁howler	-11.6493
▁brat	-11.6494
▁rell	-11.6494
▁wisely	-11.6496
▁clutch	-11.6496
▁gadgets	-11.6497
▁mathematics	-11.6497
▁slippers	-11.6497
▁strains	-11.6497
▁lectures	-11.6498
▁entertaining	-11.6498
▁grams	-11.6498
▁jimi	-11.6499
▁dissolv	-11.6501
▁collector	-11.6505
▁duet	-11.6505
▁transformation	-11.6506
▁shackle	-11.6509
▁fasten	-11.651
▁buses	-11.6511
▁leaking	-11.6513
▁melting	-11.6515
▁loosening	-11.6516
▁mistaken	-11.6516
▁magically	-11.6517
▁insisted	-11.6518
▁pushin	-11.6519
▁stormy	-11.6519
loss	-11.652
▁com	-11.6521
▁consult	-11.6523
▁dew	-11.6523
▁saucer	-11.6524
stery	-11.6524
▁flyers	-11.6524
most	-11.6527
▁battery	-11.6528
▁sic	-11.6528
▁brighter	-11.6529
▁finishes	-11.6532
▁sincere	-11.6534
▁forgiven	-11.6534
▁cri	-11.6534
▁illuminat	-11.6544
▁nighttime	-11.6544
▁witnessed	-11.6546
camo	-11.6548
▁hacking	-11.6548
▁loop	-11.6551
▁recognized	-11.6553
▁attended	-11.6556
buk	-11.6556
▁filming	-11.6559
▁intentions	-11.6561
▁reservations	-11.6561
▁moans	-11.6561
▁deserted	-11.6565
▁ern	-11.6565
▁printer	-11.6566
▁overlook	-11.6567
▁cot	-11.6568
▁tendenc	-11.6568
▁twisted	-11.6574
▁dor	-11.6578
▁prod	-11.6579
ado	-11.658
▁weed	-11.658
bastia	-11.6583
▁chopp	-11.6586
▁treaty	-11.6596
▁ohhhh	-11.6597
▁bin	-11.6598
bilis	-11.6602
don	-11.6607
▁distribut	-11.6613
▁starve	-11.6615
▁workout	-11.6615
heart	-11.6617
▁remained	-11.6618
▁cutest	-11.6621
▁ban	-11.6623
▁sightings	-11.6624
▁burgers	-11.6625
▁waffles	-11.6625
▁loath	-11.6626
industrial	-11.6631
▁bal	-11.6632
▁apps	-11.6636
▁processing	-11.6636
tring	-11.6637
▁challenged	-11.6638
▁traders	-11.6641
▁sucking	-11.6643
astic	-11.6649
▁busted	-11.6652
▁dumping	-11.6652
▁sinking	-11.6653
▁carbo	-11.6655
ington	-11.6662
▁oily	-11.6665
▁fetching	-11.6667
nova	-11.6667
scending	-11.6668
▁disappearing	-11.6668
▁smiled	-11.667
▁coed	-11.667
▁crowned	-11.6671
▁deni	-11.6671
▁risky	-11.6673
sses	-11.668
▁hardest	-11.6684
▁demons	-11.6691
▁savages	-11.6691
▁tickles	-11.6692
▁hydra	-11.6707
vious	-11.6714
▁vinn	-11.6716
▁batt	-11.6721
lay	-11.6722
▁hatching	-11.6731
▁rowing	-11.6745
▁greatness	-11.6748
▁feds	-11.6755
▁briefings	-11.6757
▁setups	-11.6757
▁communications	-11.6757
▁schemes	-11.6757
▁airplanes	-11.6757
▁insects	-11.6757
▁minerals	-11.6757
▁ninjas	-11.6757
▁survivors	-11.6757
ruck	-11.6757
▁fades	-11.6758
▁pressed	-11.6758
▁cheerleaders	-11.6758
▁swam	-11.6762
▁zo	-11.6764
▁fightin	-11.6767
▁repeated	-11.6768
ug	-11.6768
▁bide	-11.6772
▁loo	-11.6775
▁weirdos	-11.6781
▁guid	-11.6786
▁heated	-11.6787
▁pent	-11.6789
▁tearing	-11.6792
▁demanding	-11.6793
▁writers	-11.6793
▁grande	-11.6796
▁ely	-11.6802
shelves	-11.6804
oved	-11.6805
▁recit	-11.6807
▁alarmed	-11.6807
▁recorded	-11.6817
▁chirps	-11.6823
▁decades	-11.6823
▁samples	-11.6823
▁basics	-11.6823
▁simulat	-11.6825
▁hindus	-11.6826
zel	-11.6829
▁limits	-11.6829
▁mur	-11.683
▁sighting	-11.683
▁padd	-11.6833
▁bothered	-11.6837
▁lifted	-11.6839
▁longest	-11.6839
▁ness	-11.6847
mination	-11.6857
af	-11.6862
zer	-11.6866
tty	-11.6867
titude	-11.6874
▁rubbles	-11.689
▁andreas	-11.689
▁jesuits	-11.689
▁shutters	-11.6891
▁stalls	-11.6891
▁graduates	-11.6892
▁easyon	-11.6893
▁irritat	-11.6895
hear	-11.6903
▁kil	-11.6904
▁kor	-11.6912
▁seated	-11.6915
▁respected	-11.6916
rump	-11.692
▁lighter	-11.6925
▁lob	-11.6929
▁ais	-11.693
▁bounc	-11.6934
▁pub	-11.6952
▁lengths	-11.6958
▁emails	-11.6958
▁connections	-11.6958
▁estates	-11.6958
▁roosters	-11.6958
▁temperatures	-11.6958
▁conclusions	-11.6958
▁towels	-11.6958
▁juan	-11.6961
▁shades	-11.6965
▁carole	-11.6968
heads	-11.6969
▁plat	-11.6974
▁heave	-11.6975
▁marker	-11.6976
▁boost	-11.6978
▁cokes	-11.7026
▁invitations	-11.7026
▁jocks	-11.7026
▁capp	-11.7027
▁ledge	-11.7031
▁ce	-11.704
▁oka	-11.7053
city	-11.7063
ptical	-11.7091
▁cowboys	-11.7095
▁trunks	-11.7095
▁marines	-11.7095
▁occasions	-11.7095
▁misses	-11.7115
▁lifting	-11.7118
bet	-11.7118
▁pant	-11.7131
cement	-11.7132
erran	-11.714
▁horsey	-11.7147
▁punks	-11.7164
▁bulls	-11.7165
about	-11.717
▁whove	-11.7171
post	-11.7172
▁oneil	-11.7184
▁lodge	-11.719
▁pledge	-11.7191
sloppy	-11.7195
▁commanding	-11.7199
▁kev	-11.7205
ndale	-11.722
▁exits	-11.7234
▁politics	-11.7234
▁pra	-11.726
▁guarding	-11.7265
▁bombing	-11.727
▁warming	-11.7288
ache	-11.7291
tangled	-11.7301
▁screens	-11.7304
▁skates	-11.7306
▁explorers	-11.7309
▁suckers	-11.7323
▁gums	-11.7324
▁keepers	-11.7331
▁sant	-11.7361
uff	-11.7368
ame	-11.7374
uv	-11.7387
▁visualiz	-11.7435
▁concerns	-11.745
▁ore	-11.746
▁ups	-11.7465
▁tee	-11.7478
▁finn	-11.7479
▁tong	-11.7479
umming	-11.7479
nzo	-11.7487
▁with	-11.7488
melon	-11.7488
▁cu	-11.7499
▁alge	-11.7516
▁bedrooms	-11.7518
▁guardians	-11.7518
▁poems	-11.7518
abolic	-11.7522
▁lefthand	-11.7524
▁rates	-11.7533
ston	-11.7537
iance	-11.7543
▁arr	-11.7553
▁ava	-11.7572
▁some	-11.7577
hopping	-11.7587
roids	-11.7615
yard	-11.763
▁spl	-11.764
▁anticipat	-11.7645
vil	-11.7672
bac	-11.7683
▁anda	-11.7695
▁seize	-11.7703
▁milli	-11.7707
▁sti	-11.772
▁mee	-11.7754
▁mini	-11.7786
▁funk	-11.7792
kling	-11.7811
▁sax	-11.7816
▁wil	-11.782
urf	-11.7843
▁menu	-11.7855
proved	-11.7857
lity	-11.7866
▁cuba	-11.7912
self	-11.7951
▁ig	-11.7963
asl	-11.7992
five	-11.7994
range	-11.7997
▁levi	-11.8021
▁sala	-11.804
ivable	-11.8063
▁hamst	-11.8113
▁blo	-11.8115
▁def	-11.812
▁kat	-11.8128
ittle	-11.8151
▁sku	-11.8169
eech	-11.8171
lation	-11.8187
stem	-11.8204
ference	-11.8205
conductor	-11.8214
▁brit	-11.8231
▁via	-11.8237
▁organiz	-11.8238
▁fol	-11.8287
arit	-11.8301
gent	-11.832
▁mari	-11.844
▁scrap	-11.8442
jv	-11.8451
▁kate	-11.8468
rath	-11.848
agging	-11.8485
ipping	-11.8488
▁nno	-11.8499
ium	-11.8533
cable	-11.856
▁tart	-11.857
▁bb	-11.8577
▁sig	-11.8598
bic	-11.8648
your	-11.8661
oreo	-11.8668
▁ybii	-11.8668
lapping	-11.8681
▁rang	-11.8689
▁santo	-11.8696
▁scramble	-11.8701
▁terror	-11.8728
ovsky	-11.8738
mmer	-11.8749
▁untie	-11.8763
▁judg	-11.877
▁vie	-11.8787
itting	-11.8808
▁tangle	-11.8817
▁yi	-11.8823
▁gar	-11.8848
reen	-11.8855
avera	-11.8859
▁tru	-11.8964
ilio	-11.899
bit	-11.9029
span	-11.9033
elle	-11.9065
▁irrita	-11.908
▁practise	-11.9087
▁domin	-11.9102
▁fran	-11.9109
akos	-11.9114
▁appreciat	-11.9122
youre	-11.9146
▁duplicate	-11.9158
ition	-11.9193
adero	-11.9212
erge	-11.9223
▁tum	-11.9226
nine	-11.9256
▁bef	-11.9269
action	-11.9299
lish	-11.9304
ncer	-11.9307
pre	-11.933
▁infl	-11.9331
got	-11.9375
▁comme	-11.9385
ute	-11.9397
appy	-11.9402
▁alph	-11.9424
▁stir	-11.9428
▁dub	-11.9437
arily	-11.9444
illa	-11.9445
firm	-11.9456
oya	-11.9465
aaa	-11.9472
▁lickin	-11.9475
▁machin	-11.9476
jury	-11.9487
▁diver	-11.9487
▁populat	-11.9494
oda	-11.9495
▁moan	-11.9498
▁harpoon	-11.9501
▁dictate	-11.9501
▁enterprise	-11.9501
▁typewriter	-11.9501
▁snob	-11.9501
▁expense	-11.9501
▁autograph	-11.9501
▁rug	-11.9502
▁arrow	-11.9503
▁flap	-11.9505
▁relation	-11.9506
▁appearance	-11.9506
▁intention	-11.9512
▁sob	-11.9512
▁chord	-11.9515
▁spider	-11.9515
▁reservation	-11.9517
▁sausage	-11.9518
▁marshmallow	-11.9521
▁reference	-11.9522
▁knuckle	-11.9522
▁arrangement	-11.9523
▁resident	-11.9523
▁robber	-11.9525
▁zorgon	-11.9526
▁ancestor	-11.9528
▁vegetable	-11.9528
▁donut	-11.9528
▁toot	-11.9529
▁rapid	-11.9531
▁associate	-11.9534
▁critic	-11.9536
exp	-11.9537
▁warhead	-11.9539
▁prob	-11.9547
▁howl	-11.9547
▁tool	-11.9558
put	-11.9559
▁strip	-11.9561
▁missile	-11.9561
▁jigg	-11.9565
▁consul	-11.9566
▁occup	-11.9568
▁equ	-11.957
▁neutral	-11.9576
placed	-11.9576
▁soy	-11.9576
plied	-11.9586
ano	-11.9589
▁matte	-11.959
▁op	-11.9591
▁hoop	-11.9596
▁stair	-11.9599
locks	-11.9606
▁seren	-11.9611
▁supplie	-11.9615
▁receiv	-11.9622
▁barr	-11.9624
bearing	-11.9629
▁prep	-11.9635
▁appea	-11.9645
avon	-11.9646
▁disc	-11.9648
harmonic	-11.9649
▁gia	-11.9651
▁undo	-11.9652
▁lee	-11.9652
▁beal	-11.9656
▁bugg	-11.9656
▁separat	-11.9661
hood	-11.9662
liciously	-11.9667
▁stroll	-11.9668
▁trea	-11.9669
▁poppe	-11.9675
orse	-11.9676
anny	-11.9677
▁recruit	-11.9683
▁trespass	-11.9683
▁clatter	-11.9684
▁mooch	-11.9685
▁subjectiv	-11.9688
friend	-11.9689
▁teenage	-11.9689
▁divid	-11.9689
▁expos	-11.9691
▁convinc	-11.9691
rilla	-11.9692
▁slid	-11.9693
▁select	-11.9694
▁weir	-11.9695
minute	-11.9696
▁distinguish	-11.9698
▁employ	-11.9699
▁intimidat	-11.97
▁unload	-11.97
▁anoint	-11.9701
▁devot	-11.9701
▁peer	-11.9701
simo	-11.9702
▁gam	-11.9704
body	-11.9704
base	-11.9705
▁detect	-11.9705
craft	-11.9705
▁peek	-11.9705
▁forge	-11.9706
point	-11.9706
ttent	-11.9706
wind	-11.9706
covered	-11.9707
snapper	-11.9707
wide	-11.9708
pilots	-11.9709
charge	-11.9709
plug	-11.9709
▁squi	-11.9709
activated	-11.9709
hubba	-11.9709
▁papi	-11.971
world	-11.971
league	-11.971
regard	-11.971
▁tranquiliz	-11.971
worm	-11.971
grade	-11.9711
▁ofyou	-11.9711
checking	-11.9711
familiar	-11.9711
feather	-11.9711
punch	-11.9711
▁restrain	-11.9711
teacher	-11.9711
plus	-11.9711
winnie	-11.9711
julie	-11.9711
toula	-11.9711
shift	-11.9711
drift	-11.9711
storm	-11.9711
finished	-11.9711
tooth	-11.9711
mouth	-11.9711
speak	-11.9711
walk	-11.9711
course	-11.9711
first	-11.9711
three	-11.9711
text	-11.9711
position	-11.9712
▁execute	-11.9712
aware	-11.9712
▁confuse	-11.9712
▁beyon	-11.9712
judge	-11.9713
decker	-11.9713
weii	-11.9713
▁excite	-11.9713
▁multipl	-11.9714
▁promote	-11.9714
▁emergenc	-11.9715
▁buen	-11.9715
▁strateg	-11.9715
▁vent	-11.9715
aiiy	-11.9716
lava	-11.9716
▁triumphant	-11.9717
mark	-11.9717
loving	-11.9717
▁surprising	-11.9718
▁unfortunate	-11.9719
▁practical	-11.9719
▁relate	-11.9719
spring	-11.9719
▁detonat	-11.972
▁griev	-11.972
▁sobe	-11.9722
tape	-11.9722
▁grub	-11.9723
▁expose	-11.9723
▁backward	-11.9724
▁divide	-11.9724
▁vale	-11.9724
▁entr	-11.9724
▁precise	-11.9724
▁depart	-11.9725
▁enforce	-11.9725
▁aggressi	-11.9725
▁administrat	-11.9725
▁specia	-11.9726
▁kath	-11.9726
▁definite	-11.9727
▁profession	-11.9727
epid	-11.9727
▁scrub	-11.9727
▁sentiment	-11.9727
▁telep	-11.9727
linda	-11.9727
▁inspect	-11.9728
▁tow	-11.9728
stitute	-11.9728
▁ruff	-11.9728
▁believin	-11.9728
▁religio	-11.9728
▁dancin	-11.9728
▁heii	-11.9729
▁darlin	-11.9729
▁commun	-11.9729
▁alcohol	-11.9729
▁accommodat	-11.9729
moon	-11.9729
coded	-11.9729
▁asia	-11.9729
acious	-11.973
▁harv	-11.973
▁exhal	-11.973
▁cathol	-11.973
join	-11.973
▁dung	-11.973
tinct	-11.973
cision	-11.973
▁unemploy	-11.973
▁yeeha	-11.9731
▁rabi	-11.9731
▁bengal	-11.9731
▁anarch	-11.9731
▁ordina	-11.9731
mpossible	-11.9731
▁blank	-11.9731
hrist	-11.9731
▁avail	-11.9731
tinent	-11.9731
▁finis	-11.9731
▁helm	-11.9731
▁koen	-11.9731
▁clea	-11.9731
▁substan	-11.9731
eez	-11.9731
▁lauren	-11.9732
transmit	-11.9732
▁resembl	-11.9732
▁bankrupt	-11.9732
▁enthusias	-11.9732
▁violen	-11.9732
▁scorn	-11.9732
gnant	-11.9732
▁electro	-11.9732
sburg	-11.9732
▁authentic	-11.9732
nfair	-11.9732
▁flour	-11.9732
quil	-11.9732
▁scram	-11.9732
▁margar	-11.9732
▁ortho	-11.9732
▁slur	-11.9732
▁afflict	-11.9732
▁asphyx	-11.9732
disobedience	-11.9732
effic	-11.9732
obedient	-11.9732
ophobia	-11.9732
punctual	-11.9732
sprinkle	-11.9732
ullah	-11.9732
▁abduction	-11.9732
▁abroad	-11.9732
▁actuator	-11.9732
▁adolescent	-11.9732
▁afghanistan	-11.9732
▁aiuro	-11.9732
▁akbar	-11.9732
▁apologies	-11.9732
▁apprentice	-11.9732
▁arcane	-11.9732
▁artillery	-11.9732
▁assailant	-11.9732
▁atlantic	-11.9732
▁babbling	-11.9732
▁backflip	-11.9732
▁baguette	-11.9732
▁barracks	-11.9732
▁bastogne	-11.9732
▁beanstalk	-11.9732
▁blanche	-11.9732
▁blintzes	-11.9732
▁blizzard	-11.9732
▁bourbon	-11.9732
▁brethren	-11.9732
▁brimstone	-11.9732
▁bubbly	-11.9732
▁butbut	-11.9732
▁cakeeater	-11.9732
▁calamari	-11.9732
▁calculator	-11.9732
▁camelyarde	-11.9732
▁canaveral	-11.9732
▁cardinals	-11.9732
▁carnival	-11.9732
▁carnivore	-11.9732
▁carpentar	-11.9732
▁carthaginians	-11.9732
▁cauliflower	-11.9732
▁centaur	-11.9732
▁centimeters	-11.9732
▁ceremonies	-11.9732
▁charisma	-11.9732
▁chepstow	-11.9732
▁chronicle	-11.9732
▁cigars	-11.9732
▁citation	-11.9732
▁cleopatra	-11.9732
▁clobber	-11.9732
▁compartment	-11.9732
▁complication	-11.9732
▁conferred	-11.9732
▁congeniality	-11.9732
▁conquest	-11.9732
▁conrinues	-11.9732
▁constitution	-11.9732
▁contempt	-11.9732
▁contender	-11.9732
▁copilot	-11.9732
▁coyote	-11.9732
▁cradle	-11.9732
▁craznocks	-11.9732
▁crippl	-11.9732
▁cudgeon	-11.9732
▁curiosity	-11.9732
▁democracy	-11.9732
▁demonstrate	-11.9732
▁demure	-11.9732
▁destabili	-11.9732
▁diarrhea	-11.9732
▁dictabird	-11.9732
▁dignified	-11.9732
▁dimension	-11.9732
▁discourage	-11.9732
▁duffle	-11.9732
▁dynasty	-11.9732
▁eccentric	-11.9732
▁elcott	-11.9732
▁embezzle	-11.9732
▁embezzling	-11.9732
▁emptiness	-11.9732
▁encore	-11.9732
▁entrusted	-11.9732
▁evangel	-11.9732
▁evangelyne	-11.9732
▁evasive	-11.9732
▁exampie	-11.9732
▁excellence	-11.9732
▁excelsior	-11.9732
▁executors	-11.9732
▁exorcis	-11.9732
▁fiasco	-11.9732
▁fiddle	-11.9732
▁fleaflicker	-11.9732
▁freezedried	-11.9732
▁fugitive	-11.9732
▁furlough	-11.9732
▁furnace	-11.9732
▁fuzzball	-11.9732
▁gauntlet	-11.9732
▁generosity	-11.9732
▁gephardt	-11.9732
▁gerbil	-11.9732
▁gigantic	-11.9732
▁goldilocks	-11.9732
▁grease	-11.9732
▁grenade	-11.9732
▁gridiron	-11.9732
▁griffin	-11.9732
▁grumble	-11.9732
▁guitar	-11.9732
▁hallucinat	-11.9732
▁handkerchief	-11.9732
▁heartbroken	-11.9732
▁hedgehog	-11.9732
▁herald	-11.9732
▁hiphip	-11.9732
▁houdini	-11.9732
▁housekeeper	-11.9732
▁humidity	-11.9732
▁humiliation	-11.9732
▁imbecil	-11.9732
▁inappropriate	-11.9732
▁inarco	-11.9732
▁incantation	-11.9732
▁incomplete	-11.9732
▁increasing	-11.9732
▁indisposed	-11.9732
▁indulge	-11.9732
▁infiltrate	-11.9732
▁inflexible	-11.9732
▁ingenuity	-11.9732
▁innocence	-11.9732
▁insanity	-11.9732
▁interfering	-11.9732
▁interrogation	-11.9732
▁intriguing	-11.9732
▁intuitive	-11.9732
▁kenneth	-11.9732
▁kerflooey	-11.9732
▁koolaid	-11.9732
▁kosta	-11.9732
▁krishna	-11.9732
▁krypton	-11.9732
▁landlord	-11.9732
▁lazarus	-11.9732
▁leather	-11.9732
▁leprechaun	-11.9732
▁literature	-11.9732
▁lolley	-11.9732
▁mademoiselle	-11.9732
▁magistrate	-11.9732
▁magnificence	-11.9732
▁makebelieve	-11.9732
▁malcolm	-11.9732
▁maldwyn	-11.9732
▁malfoy	-11.9732
▁manipulate	-11.9732
▁manufactur	-11.9732
▁marvellous	-11.9732
▁masculine	-11.9732
▁matllde	-11.9732
▁maurice	-11.9732
▁mcgrew	-11.9732
▁mcnally	-11.9732
▁melody	-11.9732
▁merciless	-11.9732
▁mexica	-11.9732
▁microchip	-11.9732
▁mikhail	-11.9732
▁mitzvah	-11.9732
▁myseif	-11.9732
▁nagilah	-11.9732
▁narragansett	-11.9732
▁nassau	-11.9732
▁neanderthal	-11.9732
▁nigel	-11.9732
▁nonetheless	-11.9732
▁nranena	-11.9732
▁oatmeal	-11.9732
▁october	-11.9732
▁octopus	-11.9732
▁omaha	-11.9732
▁orthodox	-11.9732
▁overheard	-11.9732
▁overslept	-11.9732
▁pacifist	-11.9732
▁paramount	-11.9732
▁parody	-11.9732
▁patriot	-11.9732
▁perceptive	-11.9732
▁peripheral	-11.9732
▁persuasion	-11.9732
▁pestilence	-11.9732
▁phenomena	-11.9732
▁phobia	-11.9732
▁phyllis	-11.9732
▁physics	-11.9732
▁physiolog	-11.9732
▁picasso	-11.9732
▁pineapple	-11.9732
▁pitiful	-11.9732
▁pizzazz	-11.9732
▁plaisance	-11.9732
▁polyester	-11.9732
▁pondicherry	-11.9732
▁poptart	-11.9732
▁poverty	-11.9732
▁precinct	-11.9732
▁predecessor	-11.9732
▁prehistoric	-11.9732
▁premier	-11.9732
▁premises	-11.9732
▁procure	-11.9732
▁psychology	-11.9732
▁qualities	-11.9732
▁quarantine	-11.9732
▁raff	-11.9732
▁railroad	-11.9732
▁rascal	-11.9732
▁realizing	-11.9732
▁receipt	-11.9732
▁reinforcement	-11.9732
▁relocat	-11.9732
▁requisition	-11.9732
▁reroute	-11.9732
▁retrieval	-11.9732
▁rosebuds	-11.9732
▁rykoffs	-11.9732
▁sabotage	-11.9732
▁safekeeping	-11.9732
▁safflower	-11.9732
▁sanchez	-11.9732
▁saxophone	-11.9732
▁scranton	-11.9732
▁scrimmag	-11.9732
▁sedative	-11.9732
▁selket	-11.9732
▁selvam	-11.9732
▁sensual	-11.9732
▁serfs	-11.9732
▁serpentine	-11.9732
▁shantytown	-11.9732
▁shebang	-11.9732
▁shrieks	-11.9732
▁shrimp	-11.9732
▁shunned	-11.9732
▁skulk	-11.9732
▁sleigh	-11.9732
▁slogan	-11.9732
▁slowpoke	-11.9732
▁snoop	-11.9732
▁snooty	-11.9732
▁snowflake	-11.9732
▁snuck	-11.9732
▁sociology	-11.9732
▁soprano	-11.9732
▁sovereign	-11.9732
▁spaghetti	-11.9732
▁sphincter	-11.9732
▁sprites	-11.9732
▁starkiller	-11.9732
▁stepmother	-11.9732
▁stereo	-11.9732
▁stockholm	-11.9732
▁straitjacket	-11.9732
▁strelitz	-11.9732
▁strife	-11.9732
▁svardlov	-11.9732
▁synthesizer	-11.9732
▁taormina	-11.9732
▁telegram	-11.9732
▁testimony	-11.9732
▁theoretical	-11.9732
▁thieves	-11.9732
▁thwart	-11.9732
▁tkani	-11.9732
▁toothbrush	-11.9732
▁tourniquet	-11.9732
▁trajectories	-11.9732
▁truffle	-11.9732
▁tumips	-11.9732
▁turquoise	-11.9732
▁ukrain	-11.9732
▁ukulele	-11.9732
▁unbeatable	-11.9732
▁unbeaten	-11.9732
▁underestimating	-11.9732
▁unikitty	-11.9732
▁unreasonable	-11.9732
▁valium	-11.9732
▁vandercave	-11.9732
▁vanechka	-11.9732
▁vector	-11.9732
▁velocity	-11.9732
▁velvet	-11.9732
▁venezuela	-11.9732
▁vicinity	-11.9732
▁vitamin	-11.9732
▁wacko	-11.9732
▁wagner	-11.9732
▁wainwright	-11.9732
▁weaith	-11.9732
▁whatsoever	-11.9732
▁whimsical	-11.9732
▁wilhelm	-11.9732
▁wolves	-11.9732
▁wrangler	-11.9732
▁ybivalue	-11.9732
▁ynyr	-11.9732
▁yurt	-11.9732
dispatch	-11.9732
motivat	-11.9732
▁academi	-11.9732
▁bandido	-11.9732
▁bogey	-11.9732
▁cavalry	-11.9732
▁cinder	-11.9732
▁circum	-11.9732
▁clench	-11.9732
▁coffin	-11.9732
▁dryclean	-11.9732
▁extinguish	-11.9732
▁fathom	-11.9732
▁gokart	-11.9732
▁lamplighter	-11.9732
▁newlywed	-11.9732
▁obligation	-11.9732
▁osborne	-11.9732
▁pitchfork	-11.9732
▁pitterpat	-11.9732
▁refuge	-11.9732
▁retrac	-11.9732
▁seatbelt	-11.9732
▁sermon	-11.9732
▁sketch	-11.9732
▁snuff	-11.9732
▁splutter	-11.9732
▁strut	-11.9732
▁twig	-11.9732
▁whiz	-11.9732
▁wiseguy	-11.9732
▁wrench	-11.9732
sprained	-11.9732
terrence	-11.9732
▁buffoon	-11.9732
▁caramel	-11.9732
▁carlysle	-11.9732
▁comfy	-11.9732
▁coveted	-11.9732
▁davies	-11.9732
▁deploy	-11.9732
▁deuce	-11.9732
▁diabet	-11.9732
▁editor	-11.9732
▁frequent	-11.9732
▁gettysburg	-11.9732
▁hobart	-11.9732
▁honeydew	-11.9732
▁kwon	-11.9732
▁leeches	-11.9732
▁lucian	-11.9732
▁madonna	-11.9732
▁maestro	-11.9732
▁molecules	-11.9732
▁nudity	-11.9732
▁outrun	-11.9732
▁overdue	-11.9732
▁palmyra	-11.9732
▁paranoid	-11.9732
▁peepee	-11.9732
▁pervert	-11.9732
▁preserve	-11.9732
▁reeves	-11.9732
▁repent	-11.9732
▁resume	-11.9732
▁revolting	-11.9732
▁senile	-11.9732
▁shushing	-11.9732
▁slunk	-11.9732
▁stewart	-11.9732
▁streb	-11.9732
▁sustain	-11.9732
▁tiara	-11.9732
▁tshirts	-11.9732
▁usefui	-11.9732
▁wield	-11.9732
▁yoatl	-11.9732
pande	-11.9732
▁agri	-11.9732
▁apprais	-11.9732
▁armada	-11.9732
▁boscoe	-11.9732
▁butterfly	-11.9732
▁drinian	-11.9732
▁keith	-11.9732
▁lantern	-11.9732
▁leftovers	-11.9732
▁licence	-11.9732
▁limb	-11.9732
▁markowe	-11.9732
▁massacre	-11.9732
▁natives	-11.9732
▁obstructi	-11.9732
▁parlor	-11.9732
▁sighing	-11.9732
▁sleet	-11.9732
▁spontan	-11.9732
▁tahiti	-11.9732
▁unruly	-11.9732
▁bandaid	-11.9732
▁commemorat	-11.9732
▁defrost	-11.9732
▁diaz	-11.9732
▁koushik	-11.9732
▁snappy	-11.9732
▁submarsble	-11.9732
mercial	-11.9732
ogogo	-11.9732
▁bff	-11.9732
▁blunt	-11.9732
▁candid	-11.9732
▁craic	-11.9732
▁dvd	-11.9732
▁ingalls	-11.9732
▁mcgr	-11.9732
▁scope	-11.9732
▁slant	-11.9732
▁snout	-11.9732
▁unveil	-11.9732
▁beggars	-11.9732
▁clemen	-11.9732
▁grumps	-11.9732
▁highrise	-11.9732
▁monica	-11.9732
▁pierre	-11.9732
▁retro	-11.9732
▁spoonfuls	-11.9732
▁thrive	-11.9732
▁llama	-11.9732
▁volume	-11.9732
cherous	-11.9732
intestin	-11.9732
skinned	-11.9732
▁abused	-11.9732
▁authorization	-11.9732
▁exceed	-11.9732
▁gender	-11.9732
▁gyro	-11.9732
▁irre	-11.9732
▁mutual	-11.9732
▁airborne	-11.9732
▁forcing	-11.9732
▁halyard	-11.9732
▁pukas	-11.9732
▁gramps	-11.9732
▁scurri	-11.9732
▁settling	-11.9732
▁anandi	-11.9732
▁arabia	-11.9732
▁boast	-11.9732
▁emiiy	-11.9732
▁ensure	-11.9732
▁francesca	-11.9732
▁scoring	-11.9732
▁twothirds	-11.9732
dolph	-11.9732
▁decoy	-11.9732
▁hughes	-11.9732
▁lorna	-11.9732
▁transfusion	-11.9732
▁greer	-11.9732
▁predictions	-11.9732
▁prosper	-11.9732
▁tahoe	-11.9732
▁cawing	-11.9732
▁doormat	-11.9732
▁iast	-11.9732
▁mayhen	-11.9732
▁disarm	-11.9732
▁functioning	-11.9732
▁impostor	-11.9732
▁sarcastic	-11.9732
▁tray	-11.9732
rubbing	-11.9733
▁greasy	-11.9733
▁craftsman	-11.9733
▁snatch	-11.9733
▁corporation	-11.9733
▁discretion	-11.9733
▁gawk	-11.9733
▁latchkey	-11.9733
▁remedy	-11.9733
▁tuition	-11.9733
▁typists	-11.9733
▁vendetta	-11.9733
▁backslid	-11.9733
simplify	-11.9733
▁recognis	-11.9733
▁cherries	-11.9733
acquainted	-11.9733
▁aintree	-11.9733
▁basis	-11.9733
▁civilised	-11.9733
▁imitate	-11.9733
▁zebra	-11.9733
▁basta	-11.9733
▁displease	-11.9733
▁embodi	-11.9733
▁sorrow	-11.9733
▁tweeze	-11.9733
▁gallery	-11.9733
▁acute	-11.9733
▁freight	-11.9733
▁bambin	-11.9733
▁feminine	-11.9733
▁lyric	-11.9733
▁nerys	-11.9733
▁sanitation	-11.9733
▁graduating	-11.9733
nished	-11.9733
publlc	-11.9733
▁briggs	-11.9733
▁millionaire	-11.9733
▁prescription	-11.9733
▁jetpack	-11.9733
▁backbone	-11.9733
▁lesions	-11.9733
▁shutterbug	-11.9733
▁housing	-11.9733
▁jethro	-11.9733
▁misplaced	-11.9733
▁alphabet	-11.9733
▁bandits	-11.9733
▁blazey	-11.9733
▁visible	-11.9733
▁hippie	-11.9733
▁itsa	-11.9733
▁lifeguards	-11.9733
▁nimble	-11.9733
▁nutritio	-11.9733
▁twentyfive	-11.9733
quis	-11.9733
▁jingle	-11.9733
▁millfield	-11.9733
▁vague	-11.9733
lamour	-11.9733
▁simpson	-11.9733
▁magnetism	-11.9733
▁muzzle	-11.9733
▁generator	-11.9733
▁yoshi	-11.9733
▁before	-11.9733
▁sinned	-11.9733
flounder	-11.9733
▁activation	-11.9733
▁evaluation	-11.9733
▁distincti	-11.9733
▁chuff	-11.9733
nburg	-11.9733
▁bankruptcy	-11.9733
▁devant	-11.9733
▁enthusiastic	-11.9733
▁morini	-11.9733
▁veritabl	-11.9733
▁sophia	-11.9733
▁watson	-11.9733
▁canned	-11.9733
dispose	-11.9733
▁frantic	-11.9733
▁raincoat	-11.9733
▁bleating	-11.9733
▁outlaw	-11.9733
▁pecs	-11.9733
▁posit	-11.9733
▁blindfold	-11.9733
▁salvage	-11.9733
▁samuel	-11.9733
▁radiant	-11.9733
▁bulg	-11.9733
▁altos	-11.9733
▁burial	-11.9733
▁biue	-11.9733
▁nomination	-11.9733
▁offence	-11.9733
▁patience	-11.9733
▁rigged	-11.9733
hilar	-11.9733
▁eflat	-11.9733
▁thej	-11.9733
▁colour	-11.9733
▁welcoming	-11.9733
▁accessoriz	-11.9733
▁ingrid	-11.9733
▁shrunk	-11.9733
biood	-11.9733
▁aloha	-11.9733
▁edition	-11.9733
▁operative	-11.9733
▁recreat	-11.9733
▁antenna	-11.9734
▁fluttering	-11.9734
▁output	-11.9734
▁analysed	-11.9734
pappala	-11.9734
▁dominance	-11.9734
▁flea	-11.9734
▁gulp	-11.9734
▁shrub	-11.9734
▁clark	-11.9734
▁selective	-11.9734
▁boundary	-11.9734
▁bonita	-11.9734
▁tyler	-11.9734
okay	-11.9734
▁stumble	-11.9734
▁violated	-11.9734
▁bozo	-11.9734
▁makeover	-11.9734
▁ninny	-11.9734
▁grim	-11.9734
▁guatemalan	-11.9734
▁alakazoo	-11.9734
▁yahoo	-11.9734
▁premature	-11.9734
▁elves	-11.9734
▁stepsister	-11.9734
▁simkin	-11.9734
▁huff	-11.9734
▁nicholson	-11.9734
▁absent	-11.9734
▁shamble	-11.9734
▁tourism	-11.9734
▁dinah	-11.9734
▁earliest	-11.9734
▁clipper	-11.9734
▁expertise	-11.9734
▁smug	-11.9734
▁elementary	-11.9734
▁groundhog	-11.9734
▁meditating	-11.9734
morr	-11.9734
▁suppliers	-11.9734
▁whatwhat	-11.9734
▁tolley	-11.9734
▁coordination	-11.9734
▁attraction	-11.9734
▁barbaric	-11.9734
▁outof	-11.9734
hili	-11.9734
▁zak	-11.9734
▁scanning	-11.9734
▁numerous	-11.9734
▁alumn	-11.9734
▁lesley	-11.9734
▁invalid	-11.9734
▁vibra	-11.9734
▁riff	-11.9734
▁civilized	-11.9734
▁tension	-11.9734
▁glee	-11.9734
▁kidder	-11.9734
▁feli	-11.9735
▁mottola	-11.9735
▁analyze	-11.9735
▁resourceful	-11.9735
▁rogan	-11.9735
dellver	-11.9735
▁loco	-11.9735
▁halston	-11.9735
▁howlin	-11.9735
▁why	-11.9735
▁flagstone	-11.9735
▁network	-11.9735
▁tacks	-11.9735
▁nyah	-11.9735
▁finance	-11.9735
▁hungary	-11.9735
▁magnum	-11.9735
▁revolutionary	-11.9735
▁crazi	-11.9735
▁hlife	-11.9735
ritz	-11.9735
▁envelope	-11.9735
▁navigate	-11.9735
▁masterpiece	-11.9735
▁oppressive	-11.9735
▁nettie	-11.9735
▁iittie	-11.9735
▁mead	-11.9735
▁steward	-11.9735
▁faut	-11.9735
▁slay	-11.9735
▁stett	-11.9735
▁strat	-11.9735
▁blott	-11.9735
▁eastbridge	-11.9735
speed	-11.9736
▁plunk	-11.9736
▁redneck	-11.9736
▁merit	-11.9736
timate	-11.9736
▁occasionally	-11.9736
▁scarier	-11.9736
▁overall	-11.9736
▁alamo	-11.9736
▁burke	-11.9736
edicated	-11.9736
▁depriv	-11.9736
▁booze	-11.9736
▁partnership	-11.9736
▁clang	-11.9736
▁seville	-11.9736
▁dented	-11.9736
▁warranties	-11.9736
▁clockwork	-11.9736
▁docile	-11.9736
▁whwhat	-11.9736
▁fiber	-11.9736
▁itit	-11.9736
▁ernst	-11.9736
▁blazes	-11.9736
▁caii	-11.9736
▁donna	-11.9736
▁impact	-11.9736
▁snapped	-11.9736
▁windowsill	-11.9736
▁groveling	-11.9736
▁jules	-11.9736
▁limitless	-11.9737
▁jammed	-11.9737
▁potty	-11.9737
▁compos	-11.9737
▁riddle	-11.9737
unning	-11.9737
▁creative	-11.9737
nice	-11.9737
▁nineteen	-11.9737
▁drastic	-11.9737
▁adore	-11.9737
▁lois	-11.9737
▁ruthless	-11.9737
▁respectful	-11.9737
▁kolp	-11.9737
▁fiend	-11.9737
▁crump	-11.9737
▁wooster	-11.9737
▁linebacker	-11.9737
▁hmph	-11.9737
▁bib	-11.9737
▁lowlife	-11.9738
▁awol	-11.9738
▁evolved	-11.9738
▁festiv	-11.9738
▁moonlight	-11.9738
▁hygien	-11.9738
▁decei	-11.9738
▁bodyguard	-11.9738
▁visionary	-11.9738
▁sequ	-11.9738
▁tremble	-11.9738
▁gurgl	-11.9738
▁bacteria	-11.9738
▁november	-11.9738
▁elected	-11.9738
▁plumbing	-11.9738
▁equipped	-11.9738
▁normai	-11.9738
▁glance	-11.9738
▁maim	-11.9738
▁overdo	-11.9738
quent	-11.9738
▁brute	-11.9738
▁elsewhere	-11.9738
▁tampa	-11.9738
ctical	-11.9738
▁efficient	-11.9738
▁renew	-11.9738
▁minus	-11.9739
▁sophisticated	-11.9739
▁juno	-11.9739
▁receptionist	-11.9739
▁beneficia	-11.9739
▁investment	-11.9739
▁patent	-11.9739
▁armenia	-11.9739
▁waterfall	-11.9739
▁judi	-11.9739
wright	-11.9739
▁hoover	-11.9739
▁obsession	-11.9739
▁witty	-11.9739
▁plotting	-11.9739
▁meadow	-11.9739
▁rockingham	-11.9739
laze	-11.9739
▁conceive	-11.9739
▁flaw	-11.9739
▁angelina	-11.9739
▁archb	-11.9739
▁heiio	-11.9739
▁yoga	-11.9739
▁plantation	-11.974
▁massage	-11.974
▁tyrell	-11.974
▁participate	-11.974
▁seduce	-11.974
▁enforcer	-11.974
▁salva	-11.974
▁static	-11.974
▁reassigned	-11.974
▁restricted	-11.974
▁tempora	-11.974
ffling	-11.974
▁thanksgiving	-11.974
▁depot	-11.974
▁sensational	-11.974
▁heroism	-11.974
▁parson	-11.9741
▁sensible	-11.9741
▁marrie	-11.9741
▁windex	-11.9741
▁denial	-11.9741
▁rearranging	-11.9741
andahalf	-11.9741
▁conga	-11.9741
▁aircraft	-11.9741
▁ietter	-11.9741
▁pabl	-11.9741
▁seattle	-11.9741
▁properiy	-11.9741
▁morality	-11.9741
▁busboy	-11.9741
▁dday	-11.9741
▁springtime	-11.9742
▁envie	-11.9742
▁darkroom	-11.9742
▁flake	-11.9742
▁twinkies	-11.9742
▁achievement	-11.9742
▁acceleration	-11.9742
etary	-11.9742
▁litter	-11.9742
▁lew	-11.9742
▁ripper	-11.9742
valid	-11.9743
▁analyst	-11.9743
▁acceptance	-11.9743
elim	-11.9743
▁maxim	-11.9743
▁admitted	-11.9743
▁foreclos	-11.9744
▁thrusters	-11.9744
▁foal	-11.9744
▁royalty	-11.9744
▁blowfish	-11.9744
▁wavering	-11.9744
sonant	-11.9744
tight	-11.9744
▁tipto	-11.9744
▁bullshitting	-11.9745
▁kell	-11.9745
▁sculpting	-11.9745
▁investigating	-11.9745
▁brassie	-11.9745
▁preppy	-11.9745
▁marshai	-11.9745
▁accompany	-11.9745
▁sympathy	-11.9745
▁lalalala	-11.9745
▁yank	-11.9745
litary	-11.9745
▁info	-11.9746
▁recommendation	-11.9746
▁weaknesses	-11.9746
▁norma	-11.9746
▁decre	-11.9746
▁petro	-11.9746
▁anthe	-11.9746
▁snot	-11.9747
▁yia	-11.9747
▁mink	-11.9747
▁lastminute	-11.9747
▁dominated	-11.9747
▁sniper	-11.9747
▁airfield	-11.9747
▁wring	-11.9747
▁crackling	-11.9748
ernity	-11.9748
▁draft	-11.9748
▁millard	-11.9748
▁dunge	-11.9748
▁lester	-11.9748
▁expel	-11.9748
▁identified	-11.9748
▁accurate	-11.9748
▁stung	-11.9748
▁hairpin	-11.9748
▁kara	-11.9748
▁chic	-11.9748
ogery	-11.9748
▁portra	-11.9748
▁bonne	-11.9748
▁detonator	-11.9749
▁curtis	-11.9749
▁tiff	-11.9749
▁once	-11.9749
▁rickie	-11.9749
▁mantle	-11.9749
▁exlle	-11.9749
ibber	-11.9749
▁nightfall	-11.9749
▁asp	-11.9749
▁drunken	-11.9749
▁stance	-11.9749
▁edna	-11.9749
▁basses	-11.9749
▁addicti	-11.975
▁regu	-11.975
orkin	-11.975
▁effective	-11.975
▁fag	-11.975
▁radi	-11.975
▁shaman	-11.975
plex	-11.975
▁weaponry	-11.975
uate	-11.9751
▁aaaa	-11.9751
▁whore	-11.9751
▁priority	-11.9751
▁dede	-11.9751
▁filter	-11.9752
▁foggy	-11.9752
▁bueno	-11.9752
style	-11.9752
▁salvat	-11.9752
▁jackpot	-11.9753
▁haight	-11.9753
▁restroom	-11.9753
▁clone	-11.9753
▁advertised	-11.9753
▁depressed	-11.9753
▁bora	-11.9753
▁buggy	-11.9753
▁squished	-11.9753
▁stabilizer	-11.9753
▁jaw	-11.9753
▁tonic	-11.9754
▁trim	-11.9754
▁logan	-11.9754
▁paso	-11.9754
▁restraint	-11.9754
▁ponder	-11.9754
▁household	-11.9754
▁flicker	-11.9754
▁rut	-11.9754
▁countdown	-11.9754
▁hysterically	-11.9754
▁tung	-11.9754
▁sanita	-11.9754
ssex	-11.9754
▁burglar	-11.9755
▁dorm	-11.9755
tobe	-11.9755
▁dali	-11.9755
▁agony	-11.9755
▁farley	-11.9755
repa	-11.9756
▁stern	-11.9756
▁ricket	-11.9756
cast	-11.9756
▁dum	-11.9756
nosed	-11.9756
▁zen	-11.9756
▁satan	-11.9756
▁ringside	-11.9757
▁sci	-11.9757
▁lunchtime	-11.9757
▁ironic	-11.9758
▁kass	-11.9758
▁canes	-11.9758
▁gand	-11.9758
▁commissioner	-11.9758
▁flam	-11.9758
ssors	-11.9758
▁settlers	-11.9759
▁oohee	-11.9759
▁hallway	-11.9759
▁usuai	-11.9759
▁correction	-11.9759
come	-11.9759
▁belongings	-11.976
▁bod	-11.976
okar	-11.976
▁clic	-11.9761
▁snapper	-11.9761
gulls	-11.9761
ntysi	-11.9761
▁wussy	-11.9761
▁horseback	-11.9762
▁ach	-11.9762
werp	-11.9762
bald	-11.9762
▁heroine	-11.9763
▁tomatoes	-11.9763
▁impulse	-11.9764
▁jap	-11.9764
▁smurfboard	-11.9764
grayn	-11.9765
▁sharpen	-11.9766
▁frustrating	-11.9766
lius	-11.9766
▁difficulties	-11.9766
▁defenders	-11.9766
▁distinguished	-11.9767
ronic	-11.9767
▁bever	-11.9767
▁assembled	-11.9768
▁oz	-11.9768
▁selected	-11.9768
▁cul	-11.9768
calorie	-11.9768
▁domo	-11.9768
▁sideline	-11.9768
▁newbury	-11.9769
▁identif	-11.9769
▁magician	-11.977
▁rustle	-11.977
▁anten	-11.9771
gone	-11.9771
▁petrifi	-11.9771
▁beatty	-11.9772
▁stitch	-11.9772
▁offender	-11.9773
▁pursued	-11.9773
▁folder	-11.9773
▁agreement	-11.9773
eology	-11.9774
tious	-11.9774
▁salon	-11.9774
▁combined	-11.9775
▁ybiha	-11.9775
ctic	-11.9776
▁narrat	-11.9776
▁painless	-11.9776
▁nein	-11.9776
▁flyby	-11.9777
▁soften	-11.9777
▁squa	-11.9778
▁brandt	-11.9778
dden	-11.9778
▁stringer	-11.9779
▁skyl	-11.9779
▁millenni	-11.978
▁warmth	-11.978
▁juggl	-11.978
rew	-11.978
▁liberated	-11.978
oza	-11.9781
▁classical	-11.9781
▁whaler	-11.9781
▁comprehensi	-11.9782
▁cameraman	-11.9782
▁jose	-11.9782
liness	-11.9782
▁lark	-11.9782
▁tasha	-11.9782
ntact	-11.9783
▁shelf	-11.9783
▁idiotic	-11.9783
annabe	-11.9784
▁quid	-11.9784
▁underestimated	-11.9784
▁jackass	-11.9784
▁arthritis	-11.9785
▁croissants	-11.9785
▁hormones	-11.9785
▁provisions	-11.9785
▁christen	-11.9785
▁revolves	-11.9785
▁ultras	-11.9785
▁hatches	-11.9785
▁hardship	-11.9785
liet	-11.9786
kne	-11.9786
▁matchup	-11.9787
▁unloading	-11.9788
▁freeway	-11.9789
▁formally	-11.9789
▁everyday	-11.979
strange	-11.9791
▁menno	-11.9791
▁rosen	-11.9791
▁urgently	-11.9792
mony	-11.9792
▁brow	-11.9793
▁cosa	-11.9793
▁cleanse	-11.9794
▁endangered	-11.9794
▁crafty	-11.9795
▁playboy	-11.9795
axis	-11.9795
mond	-11.9795
▁pastry	-11.9796
▁piled	-11.9796
▁digest	-11.9796
▁passive	-11.9796
kid	-11.9796
ially	-11.9796
▁corey	-11.9797
▁moonli	-11.9797
▁leonardo	-11.9798
▁tranquilizer	-11.9798
▁stroller	-11.9798
▁whine	-11.9799
▁goldie	-11.9799
▁perfectiy	-11.9799
▁bitty	-11.98
▁wat	-11.9801
ssenger	-11.9802
▁pup	-11.9802
akis	-11.9806
▁sling	-11.9808
▁gangster	-11.9808
▁clinking	-11.981
▁rama	-11.9812
▁jester	-11.9812
infect	-11.9814
▁shad	-11.9816
▁operational	-11.9818
▁emotionally	-11.9819
▁unite	-11.982
▁poisoned	-11.9822
▁recommended	-11.9822
▁printed	-11.9822
▁physically	-11.9823
▁bert	-11.9823
▁prevented	-11.9823
▁budd	-11.9826
▁poly	-11.9827
▁peeled	-11.9827
▁skeptic	-11.9831
▁secured	-11.9831
chin	-11.9832
▁wandering	-11.9832
▁affecting	-11.9832
▁taka	-11.9832
▁mmmm	-11.9832
▁suburb	-11.9833
▁lep	-11.9834
▁bitches	-11.9834
▁dana	-11.9835
▁crooked	-11.9835
▁pois	-11.9837
▁tuning	-11.9839
▁alberta	-11.984
▁cured	-11.984
▁bitchin	-11.9841
▁tortured	-11.9841
▁nec	-11.9844
▁serenad	-11.9844
▁amore	-11.9844
▁runway	-11.9845
▁policeman	-11.9848
▁subt	-11.9848
▁mended	-11.9849
▁delayed	-11.9849
▁repaired	-11.9849
▁brushed	-11.985
rose	-11.9851
▁illustrate	-11.9851
▁moor	-11.9851
▁commencing	-11.9852
onomy	-11.9855
▁mush	-11.9857
▁hothead	-11.9858
▁volunteered	-11.9863
▁wll	-11.9863
equate	-11.9863
▁packet	-11.9866
▁payment	-11.9868
▁professionally	-11.9868
cart	-11.9868
▁wolfe	-11.987
▁robotics	-11.9875
▁requirements	-11.9875
▁quell	-11.9875
▁catalogues	-11.9875
▁goblins	-11.9875
▁maitlands	-11.9875
▁pasandas	-11.9875
▁pyramids	-11.9875
▁threequarters	-11.9875
▁giris	-11.9875
▁doggies	-11.9875
▁primms	-11.9876
▁denying	-11.9876
▁forks	-11.9877
▁coaster	-11.9879
▁ache	-11.988
▁sung	-11.988
▁decorating	-11.9882
▁admired	-11.9886
antly	-11.9887
▁wilt	-11.9889
aby	-11.989
▁rhun	-11.9895
mobile	-11.9898
▁baiting	-11.9899
▁spared	-11.99
▁messin	-11.99
▁stripp	-11.9901
iddly	-11.9903
▁stacked	-11.9905
▁displayed	-11.9905
▁identi	-11.9905
icted	-11.9906
▁banksie	-11.9908
▁pumped	-11.9908
▁jealousy	-11.9912
▁owl	-11.9915
▁inspire	-11.9917
ywed	-11.9917
▁charmed	-11.992
▁charger	-11.9927
▁criticiz	-11.9928
▁tackler	-11.9931
▁zapp	-11.9935
▁heavenly	-11.9935
▁prospect	-11.9938
▁gags	-11.9938
flop	-11.9942
▁regarding	-11.9944
▁glowing	-11.9944
▁passi	-11.9945
▁taber	-11.9946
▁fleeting	-11.9948
▁hornet	-11.995
▁toasty	-11.9955
▁bowi	-11.9957
▁gained	-11.9961
erine	-11.9962
▁whys	-11.9969
▁missiles	-11.9969
▁chords	-11.9969
▁appearances	-11.9969
▁arrows	-11.9969
▁relations	-11.9969
▁autographs	-11.9969
▁dictates	-11.9969
▁enterprises	-11.9969
▁expenses	-11.9969
▁harpoons	-11.9969
▁snobs	-11.9969
▁typewriters	-11.9969
▁exc	-11.9977
▁depending	-11.998
▁headon	-11.998
▁ini	-11.9985
▁aced	-11.9988
rakes	-11.9992
▁youngest	-11.9994
▁fishes	-11.9995
izer	-11.9998
▁smo	-11.9998
▁interrupted	-12.0004
▁insisting	-12.0013
▁smll	-12.0016
▁taller	-12.0017
▁avoided	-12.0017
▁peers	-12.0019
▁nearer	-12.0027
▁belle	-12.0029
▁whipp	-12.0032
▁contracted	-12.0032
▁helpful	-12.0032
ardo	-12.0043
▁skinn	-12.0047
▁pomp	-12.0051
▁sendin	-12.0052
swiped	-12.0054
ntage	-12.0055
▁hatched	-12.0056
▁meantime	-12.0056
▁bodi	-12.0059
▁sparkle	-12.0067
moderate	-12.0077
▁shocking	-12.0083
▁occurre	-12.0087
▁defended	-12.0088
▁nonexisten	-12.0093
▁resolve	-12.0097
bot	-12.0107
roy	-12.0107
▁tighter	-12.0111
▁phen	-12.012
▁quieter	-12.0122
▁rescuer	-12.0135
xie	-12.0138
look	-12.0145
▁payin	-12.0146
ngers	-12.0147
dental	-12.0148
▁photographer	-12.0148
lush	-12.0152
cassette	-12.0154
▁wart	-12.0163
verse	-12.0171
▁more	-12.0176
▁clash	-12.0177
▁walkin	-12.0184
▁dupe	-12.0209
▁cater	-12.0211
ised	-12.0214
ndri	-12.022
aloof	-12.0231
▁atten	-12.0248
urps	-12.0255
▁despise	-12.0264
hey	-12.0266
▁ano	-12.0272
▁haste	-12.0272
▁noted	-12.0286
▁dealt	-12.0298
▁sca	-12.0306
suction	-12.031
▁charit	-12.0327
uga	-12.0328
▁stored	-12.0346
▁gooseberr	-12.0346
risk	-12.0355
lett	-12.0355
hades	-12.036
▁yyou	-12.0377
▁rou	-12.039
sychocardiograms	-12.0411
▁willful	-12.0414
▁skipp	-12.0414
kovic	-12.0443
▁harmoni	-12.0448
immer	-12.0468
▁inflati	-12.0473
inner	-12.048
aunt	-12.0481
▁periodical	-12.0506
▁penni	-12.0521
▁modul	-12.0533
ammed	-12.0538
tobi	-12.0543
▁incompa	-12.0573
▁pic	-12.059
fall	-12.0599
urb	-12.063
▁astro	-12.0663
penetra	-12.0684
▁organis	-12.0685
▁yuko	-12.0686
▁scr	-12.0693
motion	-12.0698
▁heater	-12.0707
▁furthe	-12.0709
oph	-12.0715
▁mcd	-12.0738
▁andr	-12.0751
propos	-12.0776
nique	-12.0779
nger	-12.0784
erior	-12.0798
▁pitcher	-12.0817
▁collaps	-12.0822
▁gai	-12.0831
verge	-12.0918
raz	-12.0921
▁santos	-12.0923
▁vern	-12.0926
▁baron	-12.0963
▁ratt	-12.0964
▁lig	-12.0992
razi	-12.0993
ability	-12.1011
rock	-12.114
▁dubb	-12.1163
cou	-12.1207
▁verm	-12.1207
▁growl	-12.1231
▁sparkl	-12.1289
▁gag	-12.1333
▁operat	-12.1345
tour	-12.135
uccin	-12.1354
▁roller	-12.1399
rob	-12.1436
hook	-12.1474
▁sizzle	-12.151
rake	-12.1512
▁audac	-12.1546
▁sur	-12.1589
▁const	-12.1598
ience	-12.1607
▁voi	-12.1645
▁disabl	-12.1676
▁prima	-12.1678
▁concei	-12.1724
dale	-12.1729
▁construct	-12.1731
▁clin	-12.1754
▁marti	-12.1763
▁inni	-12.1792
ocus	-12.1832
ador	-12.184
▁advise	-12.1859
idian	-12.1953
▁injur	-12.1965
▁scu	-12.1985
barb	-12.2019
▁uncertain	-12.2045
▁dev	-12.2045
▁warp	-12.208
uka	-12.208
imal	-12.2146
uddy	-12.2164
where	-12.2194
mil	-12.2217
luc	-12.2222
▁shou	-12.2377
veni	-12.2407
▁simp	-12.241
▁jenni	-12.2489
▁dine	-12.2499
cadill	-12.2517
apt	-12.253
oui	-12.2559
▁metaboli	-12.2564
nose	-12.2573
hours	-12.2644
peep	-12.2716
▁prais	-12.2755
nav	-12.2768
arge	-12.2786
▁dome	-12.2786
elude	-12.2804
▁struggl	-12.2816
hog	-12.284
▁selfc	-12.2841
crackers	-12.2846
▁ji	-12.2886
rgic	-12.292
▁sacrific	-12.2925
▁resid	-12.2963
dded	-12.2998
▁ske	-12.3012
▁alec	-12.3013
mine	-12.303
mir	-12.3042
▁disguis	-12.3061
trapped	-12.3076
rium	-12.3084
▁swe	-12.3086
loppy	-12.313
▁tire	-12.3141
▁humbl	-12.3151
aut	-12.3154
atter	-12.3162
▁opt	-12.3191
bbled	-12.3191
▁inhuman	-12.3199
▁rebel	-12.3201
guil	-12.3219
▁vai	-12.3241
miss	-12.3262
▁encourag	-12.3262
▁shu	-12.3287
▁fenc	-12.3319
▁temperat	-12.3326
▁yuk	-12.3345
omin	-12.3354
faw	-12.3372
▁pusher	-12.3485
oof	-12.3527
▁pou	-12.3536
liest	-12.3537
▁nurs	-12.3557
▁leni	-12.356
uke	-12.3568
deli	-12.3586
▁qu	-12.3593
ugge	-12.3598
lette	-12.3622
him	-12.3767
▁remov	-12.3824
porter	-12.3847
tortion	-12.385
▁scal	-12.3883
mom	-12.3908
fit	-12.3911
solved	-12.3925
▁exchang	-12.3927
lateral	-12.3977
cock	-12.4011
accounted	-12.4036
ization	-12.4091
law	-12.4092
oggi	-12.4104
▁complet	-12.4107
▁provid	-12.4144
escend	-12.4147
▁abo	-12.4156
hour	-12.4158
rating	-12.4166
ropo	-12.4233
▁compel	-12.4243
▁rul	-12.4271
turn	-12.4293
icul	-12.4313
▁tran	-12.4332
rett	-12.4339
▁strang	-12.4377
▁plac	-12.4413
▁fli	-12.4429
loops	-12.443
ranked	-12.4435
▁rib	-12.4439
fare	-12.4458
▁spik	-12.4463
▁strain	-12.4463
citing	-12.4465
▁cough	-12.4477
▁sniff	-12.4479
▁slipper	-12.4495
ickly	-12.4502
▁roar	-12.4502
▁maitland	-12.4503
▁pasanda	-12.4503
▁pyramid	-12.4503
▁threequarter	-12.4503
▁giri	-12.4503
▁goblin	-12.4503
▁catalogue	-12.4503
▁doggie	-12.4503
liente	-12.4509
▁tramp	-12.451
▁gadget	-12.4514
▁mathematic	-12.4514
▁primm	-12.4514
▁lecture	-12.4519
▁passenger	-12.4522
▁fingerprint	-12.4528
▁pebble	-12.4529
▁explosive	-12.453
▁gallon	-12.4531
▁whisrle	-12.4534
▁fork	-12.4536
▁troop	-12.4538
▁jewel	-12.4538
▁requirement	-12.4538
rome	-12.4539
▁gram	-12.454
▁scoff	-12.4542
▁troubl	-12.4542
ebra	-12.4551
topped	-12.4553
▁teammate	-12.4559
▁rapt	-12.456
▁cau	-12.4564
▁mammal	-12.4569
holders	-12.457
▁robotic	-12.4574
▁antiqu	-12.4576
ndi	-12.458
uous	-12.4583
aki	-12.4591
▁rende	-12.4597
minent	-12.4611
doubted	-12.4613
anza	-12.4618
▁fulfil	-12.4626
flat	-12.4631
▁vouch	-12.4631
▁scoo	-12.4635
▁offend	-12.4639
▁butch	-12.4644
ivate	-12.4652
ennial	-12.4656
cracks	-12.4659
parts	-12.4659
▁tranquili	-12.4662
▁yabbadabbadabba	-12.4666
▁react	-12.4666
▁sympath	-12.4669
▁advanc	-12.4671
brows	-12.4672
ggling	-12.4676
▁clo	-12.4677
searching	-12.4677
▁frustrat	-12.4678
▁gangst	-12.4678
hawks	-12.468
▁pun	-12.4685
▁fascinat	-12.4685
▁assembl	-12.4685
▁engrav	-12.4685
▁experienc	-12.4686
▁chor	-12.4686
▁approv	-12.4686
handler	-12.4686
rope	-12.4687
▁relat	-12.4689
▁recogniz	-12.4689
chee	-12.4692
earned	-12.4693
vation	-12.4693
▁suppos	-12.4693
▁visi	-12.4694
class	-12.4694
earth	-12.4695
▁theatr	-12.4695
▁attract	-12.4697
▁depress	-12.4697
▁sorcer	-12.4697
conduct	-12.4698
▁stabilize	-12.4698
▁advertis	-12.4698
▁squish	-12.47
inlaw	-12.47
▁disconnect	-12.47
rrow	-12.4701
▁overwhelm	-12.4701
rambling	-12.4701
atics	-12.4702
giving	-12.4702
mmmm	-12.4705
▁frau	-12.4707
folk	-12.4707
andon	-12.4707
angie	-12.4707
accurate	-12.4708
identified	-12.4708
allops	-12.4708
▁concentr	-12.4708
mantle	-12.4708
missile	-12.4708
wipe	-12.4708
fresh	-12.4708
natural	-12.4708
sequence	-12.4709
culture	-12.4709
protective	-12.4709
orbital	-12.4709
sphere	-12.471
limited	-12.471
threatening	-12.471
temporary	-12.471
front	-12.471
woman	-12.471
▁happi	-12.471
volt	-12.471
frog	-12.471
▁baptize	-12.471
respect	-12.471
fried	-12.471
related	-12.471
length	-12.471
study	-12.4711
▁dominate	-12.4711
▁conclude	-12.4711
develop	-12.4711
patient	-12.4711
sensitive	-12.4711
discovered	-12.4711
heated	-12.4711
barbarella	-12.4711
daisy	-12.4711
century	-12.4711
grown	-12.4711
precious	-12.4711
grateful	-12.4711
correct	-12.4711
varsity	-12.4711
schedule	-12.4711
apple	-12.4711
social	-12.4711
flower	-12.4711
sharp	-12.4711
wives	-12.4711
entered	-12.4711
flora	-12.4711
alalala	-12.4711
penguin	-12.4711
security	-12.4711
building	-12.4711
group	-12.4711
launch	-12.4711
club	-12.4711
jesus	-12.4711
yesterday	-12.4711
knock	-12.4711
blood	-12.4711
odeled	-12.4711
captain	-12.4711
important	-12.4711
throw	-12.4712
special	-12.4712
death	-12.4712
cause	-12.4712
great	-12.4712
lawful	-12.4712
perfect	-12.4712
didnt	-12.4712
sweet	-12.4712
▁accompan	-12.4712
▁reinstate	-12.4712
scene	-12.4712
yeah	-12.4712
common	-12.4712
▁complicate	-12.4712
termination	-12.4712
paying	-12.4712
smell	-12.4713
tasha	-12.4713
forward	-12.4713
▁priorit	-12.4713
market	-12.4714
lifetime	-12.4714
bank	-12.4714
rocket	-12.4714
half	-12.4714
location	-12.4714
▁thirst	-12.4714
▁philosoph	-12.4714
float	-12.4714
nothing	-12.4714
▁colleg	-12.4715
uel	-12.4715
forsaken	-12.4715
▁nobod	-12.4715
▁angr	-12.4716
josh	-12.4716
jamie	-12.4716
▁enrage	-12.4716
oir	-12.4716
leaf	-12.4716
draft	-12.4716
force	-12.4717
▁millar	-12.4717
▁harbo	-12.4717
large	-12.4717
▁jest	-12.4717
phone	-12.4717
▁quart	-12.4718
▁thorough	-12.4718
▁cheerlead	-12.4719
bread	-12.4719
hoop	-12.472
▁seduc	-12.472
izzy	-12.472
▁participat	-12.472
jj	-12.472
▁vigilant	-12.4721
gree	-12.4721
jam	-12.4721
beard	-12.4721
▁definit	-12.4721
▁intens	-12.4721
▁sieg	-12.4721
closed	-12.4721
bike	-12.4721
▁squeez	-12.4721
▁tyran	-12.4722
▁preten	-12.4722
posed	-12.4722
▁puls	-12.4722
▁efficien	-12.4723
▁assemble	-12.4723
tridge	-12.4723
▁tremb	-12.4723
▁bedazzle	-12.4724
maybe	-12.4724
▁coordinat	-12.4724
▁plunge	-12.4724
money	-12.4725
fury	-12.4725
igue	-12.4725
turner	-12.4725
making	-12.4725
▁greg	-12.4726
▁blaz	-12.4726
today	-12.4726
▁withdraw	-12.4726
thank	-12.4726
worry	-12.4726
▁volcan	-12.4727
pronounc	-12.4727
▁dolor	-12.4727
▁strummin	-12.4727
▁gordo	-12.4728
green	-12.4728
▁horribl	-12.4728
▁garde	-12.4728
▁gamble	-12.4728
ualize	-12.4728
▁amu	-12.4728
spective	-12.4729
coat	-12.4729
▁cuttin	-12.4729
▁webb	-12.4729
▁terri	-12.473
▁allerg	-12.473
ladi	-12.473
▁nichols	-12.473
▁raspberr	-12.473
vite	-12.473
fold	-12.473
eared	-12.473
intende	-12.473
▁commute	-12.473
▁puttin	-12.4731
ngrid	-12.4731
nobl	-12.4731
scription	-12.4731
▁potent	-12.4731
▁shakin	-12.4731
ntelligence	-12.4731
ntelligent	-12.4731
▁harris	-12.4731
▁shuffl	-12.4731
▁easie	-12.4731
gregation	-12.4731
oxide	-12.4731
▁doug	-12.4731
▁manifest	-12.4731
▁sausa	-12.4732
▁ruoppo	-12.4732
▁ignora	-12.4732
▁optimis	-12.4732
▁quadr	-12.4732
▁differ	-12.4732
ptured	-12.4732
▁invisi	-12.4732
▁vegeta	-12.4732
flames	-12.4732
embarras	-12.4732
▁minsk	-12.4732
cogni	-12.4732
ordinate	-12.4732
adonai	-12.4732
▁lettin	-12.4732
▁bachelor	-12.4732
stopp	-12.4732
▁musket	-12.4732
accord	-12.4732
▁neighbour	-12.4732
▁andonandon	-12.4732
▁psychologi	-12.4732
▁isolate	-12.4732
molecul	-12.4732
▁conservat	-12.4732
▁encrypt	-12.4732
▁ghoul	-12.4732
▁incarcerat	-12.4732
▁injun	-12.4732
▁precipi	-12.4732
▁psychi	-12.4732
▁rejuvenat	-12.4732
alibu	-12.4732
amocha	-12.4732
blower	-12.4732
conspicuous	-12.4732
crossexamination	-12.4732
eatheringhamstan	-12.4732
gnatius	-12.4732
groscopic	-12.4732
ibbet	-12.4732
inglorious	-12.4732
naissance	-12.4732
nbaum	-12.4732
negotiation	-12.4732
omaniac	-12.4732
opouloses	-12.4732
secutor	-12.4732
staffed	-12.4732
ujitsu	-12.4732
▁abilities	-12.4732
▁abuelita	-12.4732
▁actuaiiy	-12.4732
▁adjoining	-12.4732
▁adolescence	-12.4732
▁adversary	-12.4732
▁affectionately	-12.4732
▁affidavit	-12.4732
▁aggressor	-12.4732
▁aifred	-12.4732
▁airflow	-12.4732
▁airspace	-12.4732
▁alchemy	-12.4732
▁algernon	-12.4732
▁alleyway	-12.4732
▁analogy	-12.4732
▁ancestry	-12.4732
▁anklebiter	-12.4732
▁ansomething	-12.4732
▁apologise	-12.4732
▁apostles	-12.4732
▁appendages	-12.4732
▁appeteas	-12.4732
▁applicant	-12.4732
▁arabic	-12.4732
▁armaments	-12.4732
▁arrogance	-12.4732
▁arrogant	-12.4732
▁artefact	-12.4732
▁astonishing	-12.4732
▁asuncion	-12.4732
▁attribute	-12.4732
▁avarice	-12.4732
▁axhelm	-12.4732
▁ballpark	-12.4732
▁banquet	-12.4732
▁banshee	-12.4732
▁barndoor	-12.4732
▁batspaceship	-12.4732
▁belgium	-12.4732
▁believable	-12.4732
▁berkeley	-12.4732
▁biehl	-12.4732
▁bimromov	-12.4732
▁blacksmith	-12.4732
▁blasphem	-12.4732
▁bloomingdales	-12.4732
▁blossoms	-12.4732
▁blotchy	-12.4732
▁blurry	-12.4732
▁bogdan	-12.4732
▁bounty	-12.4732
▁bouquet	-12.4732
▁brainwash	-12.4732
▁breathtaking	-12.4732
▁bridesmaid	-12.4732
▁brilliance	-12.4732
▁brittany	-12.4732
▁brokaw	-12.4732
▁budweiser	-12.4732
▁buisness	-12.4732
▁butterflies	-12.4732
▁bystander	-12.4732
▁calculating	-12.4732
▁camouflage	-12.4732
▁capulet	-12.4732
▁carnivorous	-12.4732
▁category	-12.4732
▁cavity	-12.4732
▁celery	-12.4732
▁celtic	-12.4732
▁chachacha	-12.4732
▁chandrapore	-12.4732
▁chomps	-12.4732
▁chrysler	-12.4732
▁ciosing	-12.4732
▁cocacola	-12.4732
▁colonies	-12.4732
▁commerce	-12.4732
▁condolences	-12.4732
▁consign	-12.4732
▁consolation	-12.4732
▁contribute	-12.4732
▁coriacea	-12.4732
▁corinthian	-12.4732
▁corkscrew	-12.4732
▁cougar	-12.4732
▁crayon	-12.4732
▁crease	-12.4732
▁critters	-12.4732
▁croaked	-12.4732
▁croaker	-12.4732
▁cromagnon	-12.4732
▁crucial	-12.4732
▁crusade	-12.4732
▁cucumber	-12.4732
▁custodian	-12.4732
▁cyborg	-12.4732
▁dactylopters	-12.4732
▁dammit	-12.4732
▁dannunzio	-12.4732
▁darwin	-12.4732
▁deceleration	-12.4732
▁decommission	-12.4732
▁defector	-12.4732
▁defenestrate	-12.4732
▁delinquent	-12.4732
▁delusion	-12.4732
▁demeaning	-12.4732
▁desperation	-12.4732
▁diabolical	-12.4732
▁difficuit	-12.4732
▁diminish	-12.4732
▁disgracing	-12.4732
▁dislocated	-12.4732
▁dispens	-12.4732
▁displacement	-12.4732
▁dogooder	-12.4732
▁doorknob	-12.4732
▁doraze	-12.4732
▁dossier	-12.4732
▁driscoll	-12.4732
▁drizzle	-12.4732
▁dumbledore	-12.4732
▁dumbwaiter	-12.4732
▁dummies	-12.4732
▁dummkopf	-12.4732
▁earthquake	-12.4732
▁eisenberg	-12.4732
▁elusive	-12.4732
▁enclosure	-12.4732
▁energize	-12.4732
▁enhance	-12.4732
▁enquirer	-12.4732
▁enrico	-12.4732
▁euthanized	-12.4732
▁exgothamite	-12.4732
▁exploits	-12.4732
▁exterminate	-12.4732
▁extravagan	-12.4732
▁famiiy	-12.4732
▁favre	-12.4732
▁february	-12.4732
▁fettuccine	-12.4732
▁filip	-12.4732
▁flodd	-12.4732
▁flowerpickers	-12.4732
▁foraging	-12.4732
▁foraze	-12.4732
▁foxtrot	-12.4732
▁fragrance	-12.4732
▁franchise	-12.4732
▁fransokyo	-12.4732
▁frequency	-12.4732
▁froufrou	-12.4732
▁furnishing	-12.4732
▁gauol	-12.4732
▁gesundheit	-12.4732
▁geyser	-12.4732
▁giacomino	-12.4732
▁giblets	-12.4732
▁girdle	-12.4732
▁gleaming	-12.4732
▁gloomy	-12.4732
▁gnash	-12.4732
▁goosestep	-12.4732
▁grotesque	-12.4732
▁grushenko	-12.4732
▁guggenheim	-12.4732
▁gullible	-12.4732
▁gyroscope	-12.4732
▁halstead	-12.4732
▁hamburger	-12.4732
▁hampshire	-12.4732
▁handcuff	-12.4732
▁harlem	-12.4732
▁helga	-12.4732
▁hereafter	-12.4732
▁hibbett	-12.4732
▁hiidegarde	-12.4732
▁hillbilly	-12.4732
▁hippityhopper	-12.4732
▁hoofbeats	-12.4732
▁hotrodding	-12.4732
▁housebroken	-12.4732
▁howhow	-12.4732
▁hubbuda	-12.4732
▁hubcaps	-12.4732
▁humongous	-12.4732
▁huskies	-12.4732
▁hypericum	-12.4732
▁hypnotize	-12.4732
▁iaudace	-12.4732
▁ifarren	-12.4732
▁ignoring	-12.4732
▁implement	-12.4732
▁inadvertent	-12.4732
▁incessant	-12.4732
▁incoheren	-12.4732
▁incurable	-12.4732
▁inexperience	-12.4732
▁infallible	-12.4732
▁inhabitant	-12.4732
▁insecure	-12.4732
▁insolence	-12.4732
▁insolent	-12.4732
▁intake	-12.4732
▁integrity	-12.4732
▁invincible	-12.4732
▁isolation	-12.4732
▁isosceles	-12.4732
▁itseif	-12.4732
▁jabroni	-12.4732
▁jamaica	-12.4732
▁jambalaya	-12.4732
▁january	-12.4732
▁jefferson	-12.4732
▁jellybean	-12.4732
▁jessica	-12.4732
▁jholal	-12.4732
▁johann	-12.4732
▁juilliard	-12.4732
▁jumbo	-12.4732
▁kaiju	-12.4732
▁kappa	-12.4732
▁kasimatis	-12.4732
▁katmandu	-12.4732
▁kazuo	-12.4732
▁kerosene	-12.4732
▁kikan	-12.4732
▁kmart	-12.4732
▁koboi	-12.4732
▁koopas	-12.4732
▁kraut	-12.4732
▁kremlin	-12.4732
▁kroot	-12.4732
▁krull	-12.4732
▁lacrosse	-12.4732
▁ladyinwaiting	-12.4732
▁leavenworth	-12.4732
▁lindstrom	-12.4732
▁lockhart	-12.4732
▁madagascar	-12.4732
▁magdalene	-12.4732
▁maggie	-12.4732
▁manchester	-12.4732
▁marigolds	-12.4732
▁mascot	-12.4732
▁mastodons	-12.4732
▁mathletes	-12.4732
▁mazeltov	-12.4732
▁meescham	-12.4732
▁melancholy	-12.4732
▁mfigaro	-12.4732
▁mikamocha	-12.4732
[...]
