<unk>	0
<s>	0
</s>	0
s	-4.01494
▁im	-4.49974
▁dont	-4.55482
▁know	-4.69005
▁get	-4.73152
▁go	-4.74857
▁oh	-4.85804
▁right	-4.87669
▁come	-4.90547
▁got	-4.94674
▁well	-4.98111
▁like	-5.00648
▁youre	-5.06998
▁thats	-5.15302
▁one	-5.17032
▁yeah	-5.18407
▁good	-5.25378
▁think	-5.35941
▁see	-5.38087
▁na	-5.39994
▁want	-5.42167
ing	-5.46609
▁hey	-5.46673
▁yes	-5.49726
▁look	-5.52851
▁ill	-5.53725
▁okay	-5.5503
▁back	-5.56983
▁going	-5.60723
▁gon	-5.62694
▁us	-5.63081
▁time	-5.63698
▁take	-5.6977
▁cant	-5.70625
▁hes	-5.71266
ed	-5.77568
▁would	-5.80763
▁say	-5.81211
▁man	-5.86626
▁never	-5.8929
▁lets	-5.89342
▁way	-5.89648
▁little	-5.9086
▁mr	-5.91932
▁thank	-5.92491
▁really	-5.94796
▁tell	-5.9518
▁ive	-5.97707
▁could	-5.98351
▁sir	-5.99641
▁whats	-6.00766
▁make	-6.03612
▁let	-6.05395
▁something	-6.07351
▁didnt	-6.0953
▁sorry	-6.09754
▁l	-6.12228
▁need	-6.1252
▁theres	-6.13899
▁love	-6.15339
▁give	-6.18073
d	-6.18859
▁wait	-6.19203
▁mean	-6.19341
▁two	-6.19429
▁please	-6.21854
▁help	-6.22341
▁	-6.25137
y	-6.26004
▁sure	-6.30556
▁uh	-6.34625
▁people	-6.35224
▁theyre	-6.3552
▁said	-6.37423
▁much	-6.3772
▁thing	-6.38204
▁must	-6.39047
▁night	-6.39614
▁stop	-6.40062
▁day	-6.41699
▁first	-6.43222
▁find	-6.4568
▁home	-6.47475
▁great	-6.479
▁away	-6.48058
▁guys	-6.51536
▁even	-6.52126
▁keep	-6.5486
▁ever	-6.55042
▁old	-6.56396
▁life	-6.57267
▁better	-6.59019
▁big	-6.5938
ly	-6.59731
▁thought	-6.59925
▁put	-6.60289
▁nothing	-6.60315
▁anything	-6.605
▁wont	-6.60687
▁work	-6.60885
▁still	-6.62765
▁shes	-6.62981
e	-6.64201
▁call	-6.64462
▁id	-6.64524
▁boy	-6.6466
▁always	-6.65477
▁youll	-6.65478
▁maybe	-6.66074
▁god	-6.66427
▁new	-6.66589
▁youve	-6.66664
▁ta	-6.68602
▁hello	-6.69942
▁told	-6.70302
▁long	-6.71231
▁house	-6.71856
▁everything	-6.72805
▁coming	-6.73033
▁dad	-6.73689
▁hi	-6.74272
▁last	-6.76039
▁hear	-6.76459
▁name	-6.76617
▁thanks	-6.77918
er	-6.78214
▁nice	-6.78678
▁place	-6.79356
▁things	-6.79847
▁girl	-6.80158
▁talk	-6.80727
▁around	-6.82093
▁hold	-6.83229
▁stay	-6.83338
▁move	-6.83771
▁isnt	-6.83965
▁play	-6.84796
▁ready	-6.85238
▁fine	-6.85524
▁every	-6.86599
▁kind	-6.89221
▁doesnt	-6.89299
▁may	-6.89426
▁money	-6.90553
▁leave	-6.90735
▁believe	-6.91357
▁bad	-6.91444
▁listen	-6.92129
▁run	-6.92303
▁made	-6.92379
▁huh	-6.93627
▁hell	-6.94375
▁left	-6.94411
▁years	-6.94713
▁miss	-6.96585
▁course	-6.97607
▁world	-6.97894
▁ok	-6.98144
▁understand	-6.98275
▁lot	-6.98993
▁wrong	-6.99242
▁three	-6.99248
▁might	-6.99328
▁mother	-6.99837
▁feel	-7.00176
▁father	-7.01529
▁done	-7.02038
▁weve	-7.026
▁real	-7.02705
▁show	-7.03532
▁guy	-7.04683
▁room	-7.04757
▁remember	-7.04888
▁mom	-7.05623
▁whoa	-7.05776
▁enough	-7.07258
▁next	-7.07557
▁car	-7.0932
▁wan	-7.09925
▁school	-7.0993
▁care	-7.10528
▁another	-7.109
▁try	-7.11376
▁mind	-7.11477
▁happened	-7.12285
▁together	-7.12772
▁friend	-7.13494
▁excuse	-7.13722
▁best	-7.14269
▁wanted	-7.14754
▁today	-7.15002
▁dead	-7.16156
▁head	-7.16915
▁talking	-7.1821
▁wouldnt	-7.18327
▁else	-7.18419
▁watch	-7.18761
▁playing	-7.19521
▁morning	-7.19954
▁meet	-7.20901
▁live	-7.20937
▁came	-7.20942
▁family	-7.20974
▁ask	-7.21988
▁ah	-7.23544
▁hope	-7.2385
▁music	-7.24016
▁son	-7.24207
▁guess	-7.24415
▁chuckles	-7.24516
▁getting	-7.24557
a	-7.24701
r	-7.25945
▁seen	-7.25948
▁start	-7.26395
▁pretty	-7.2769
▁tonight	-7.28056
▁someone	-7.28275
▁found	-7.30208
▁minute	-7.30493
▁baby	-7.31034
▁kid	-7.31252
▁men	-7.31539
▁trying	-7.31541
o	-7.31926
▁kids	-7.31957
▁story	-7.32182
in	-7.33061
▁wasnt	-7.33718
▁saw	-7.33721
▁ha	-7.33804
▁em	-7.34126
▁mrs	-7.34723
▁idea	-7.34796
▁yet	-7.34894
n	-7.34914
▁friends	-7.35394
▁wish	-7.36501
▁gone	-7.36769
▁turn	-7.37066
▁fire	-7.37509
▁matter	-7.37662
▁everyone	-7.37691
▁laughing	-7.37778
▁without	-7.38084
▁havent	-7.38899
▁george	-7.38899
▁happy	-7.39308
▁days	-7.3962
▁use	-7.39795
▁heard	-7.40106
▁lost	-7.40144
▁worry	-7.40543
▁hand	-7.40747
▁youd	-7.41387
▁looking	-7.41988
▁tomorrow	-7.42225
▁bring	-7.42353
▁kill	-7.42634
▁whole	-7.42651
▁many	-7.4312
▁knew	-7.44795
es	-7.452
al	-7.45727
▁everybody	-7.46224
▁door	-7.47706
▁hurry	-7.47879
▁anyone	-7.48328
▁whos	-7.48343
▁eat	-7.48468
t	-7.49357
▁second	-7.49383
▁open	-7.49591
ll	-7.49636
▁since	-7.49648
▁alone	-7.49686
▁went	-7.49687
▁five	-7.49695
▁hard	-7.49889
▁job	-7.49909
▁children	-7.50141
▁bit	-7.50378
▁check	-7.50729
▁actually	-7.51071
▁red	-7.52205
▁easy	-7.52926
▁mine	-7.52935
▁true	-7.53422
▁game	-7.53636
▁young	-7.54713
▁dear	-7.54767
▁shall	-7.54823
▁town	-7.55156
▁wheres	-7.55733
▁business	-7.55783
▁took	-7.55791
▁wow	-7.56275
▁beautiful	-7.56276
▁ray	-7.56288
▁looks	-7.56549
▁number	-7.56585
▁problem	-7.57063
▁water	-7.57589
i	-7.58009
▁end	-7.58379
▁trouble	-7.58649
▁shut	-7.58721
▁called	-7.59009
▁lm	-7.592
▁stuff	-7.59239
▁aint	-7.59239
▁dance	-7.59451
▁woman	-7.59744
▁couldnt	-7.59806
▁later	-7.60826
▁forget	-7.61256
▁brother	-7.61647
▁afraid	-7.61777
▁king	-7.61832
▁wife	-7.6224
▁honey	-7.62295
▁fight	-7.62517
▁four	-7.62795
▁grunts	-7.62931
▁late	-7.63126
▁high	-7.63165
▁face	-7.63566
▁cause	-7.63591
▁doctor	-7.63777
▁dog	-7.64831
▁laughs	-7.64914
▁boys	-7.65734
▁already	-7.65977
▁damn	-7.66195
▁read	-7.66431
▁year	-7.66442
▁stand	-7.66535
▁hit	-7.67209
▁close	-7.67243
▁used	-7.6746
▁set	-7.67528
▁eyes	-7.6774
▁um	-7.68064
▁funny	-7.68148
▁heart	-7.68191
▁far	-7.68444
▁soon	-7.68587
▁dr	-7.70459
▁ago	-7.70934
▁anyway	-7.70984
▁screaming	-7.71019
▁phone	-7.71033
▁supposed	-7.7105
▁party	-7.71167
▁pull	-7.71332
▁book	-7.71529
▁half	-7.71551
▁die	-7.71757
▁thinking	-7.71822
▁howard	-7.72058
▁cool	-7.72061
▁crazy	-7.72631
▁parents	-7.72793
▁gentlemen	-7.73203
▁break	-7.73385
▁girls	-7.73394
▁continues	-7.7372
▁taking	-7.73795
▁says	-7.73969
▁stupid	-7.74362
▁line	-7.74522
▁hurt	-7.75195
▁joe	-7.75688
▁fun	-7.75885
▁somebody	-7.76722
▁lady	-7.7676
▁sit	-7.77151
▁light	-7.77177
▁arent	-7.77322
▁sighs	-7.77388
▁chance	-7.77471
▁pick	-7.77505
▁gasps	-7.77564
▁change	-7.77889
▁city	-7.77931
▁cat	-7.78739
▁pay	-7.78757
▁sleep	-7.79065
▁whatever	-7.79139
▁part	-7.79699
▁hmm	-7.79727
▁inside	-7.80373
▁free	-7.81375
▁cheering	-7.82275
▁moment	-7.82507
▁computer	-7.82508
▁cut	-7.83839
▁fast	-7.84049
▁important	-7.84157
▁hands	-7.84163
▁exactly	-7.84168
▁minutes	-7.84446
▁almost	-7.84801
▁welcome	-7.84822
▁news	-7.85038
▁ooh	-7.85457
▁makes	-7.85785
▁probably	-7.86104
▁quite	-7.86146
▁rest	-7.86337
▁behind	-7.86761
▁itll	-7.86768
▁walk	-7.87248
▁luck	-7.87255
▁happen	-7.87421
▁making	-7.88098
▁point	-7.88695
▁working	-7.88887
▁anymore	-7.89437
▁hot	-7.89497
▁wonderful	-7.90169
▁week	-7.90496
▁aah	-7.90847
▁carl	-7.91187
▁side	-7.91405
▁ahead	-7.91495
▁hate	-7.91727
▁goodbye	-7.92187
▁least	-7.92193
▁they	-7.92644
▁save	-7.92685
▁sweet	-7.92821
▁john	-7.92873
▁bye	-7.92889
▁full	-7.9328
▁deal	-7.93842
▁bed	-7.94557
▁million	-7.94774
▁waiting	-7.95247
▁un	-7.95247
▁dream	-7.9539
est	-7.95453
▁child	-7.95717
▁death	-7.95734
▁crowd	-7.95738
▁word	-7.96242
▁gave	-7.96423
▁boss	-7.96462
▁different	-7.97034
▁lose	-7.97138
▁heres	-7.97317
▁send	-7.97326
▁question	-7.9772
▁police	-7.97896
▁six	-7.97907
▁green	-7.97929
▁met	-7.98271
▁throw	-7.98374
▁wants	-7.98598
▁though	-7.986
▁ladies	-7.98669
▁drink	-7.98811
▁hang	-7.98955
▁sea	-7.99275
▁special	-7.9941
▁trust	-7.99847
▁sister	-7.99999
▁chip	-8.00012
▁hours	-8.00107
▁brought	-8.00919
▁catch	-8.01083
▁answer	-8.01223
▁saying	-8.01553
▁country	-8.01681
▁dale	-8.01697
▁lts	-8.01908
▁sound	-8.02335
on	-8.02368
▁henry	-8.02452
▁couple	-8.02455
▁duck	-8.02911
▁team	-8.03922
▁white	-8.04011
▁promise	-8.04598
▁write	-8.04718
▁air	-8.04797
▁hair	-8.04803
▁clear	-8.05036
▁puss	-8.05387
▁asked	-8.05487
▁dinner	-8.05524
▁lord	-8.05549
▁earth	-8.0557
▁glad	-8.05594
▁lovely	-8.05699
▁quiet	-8.06248
▁bob	-8.06362
▁anybody	-8.06389
▁war	-8.06415
▁grunting	-8.06435
en	-8.06521
▁ow	-8.06606
▁safe	-8.06959
▁along	-8.07194
▁nobody	-8.07964
▁land	-8.08215
▁control	-8.08389
▁rock	-8.086
▁ya	-8.08639
▁dude	-8.08804
▁general	-8.08811
▁food	-8.08845
▁plan	-8.09344
ve	-8.09412
▁reason	-8.09617
▁sort	-8.09664
▁touch	-8.09754
▁evil	-8.10488
▁perhaps	-8.10488
▁captain	-8.10488
▁ball	-8.10544
▁learn	-8.106
▁means	-8.10674
l	-8.11303
▁sick	-8.11979
▁married	-8.12176
▁step	-8.12192
▁tried	-8.12202
re	-8.1227
▁sounds	-8.12325
▁knows	-8.12737
▁seems	-8.12914
▁also	-8.13031
▁top	-8.13165
▁sometimes	-8.13274
▁times	-8.13671
▁perfect	-8.13732
▁power	-8.13942
▁daddy	-8.14226
▁drive	-8.1468
▁groans	-8.14762
▁speak	-8.14976
▁win	-8.15112
▁quick	-8.15486
▁black	-8.15579
▁either	-8.1564
▁g	-8.16049
g	-8.16336
▁small	-8.16407
▁hows	-8.16595
▁needs	-8.17503
▁goes	-8.17532
st	-8.17701
▁b	-8.18295
▁secret	-8.18295
▁hotel	-8.18336
▁mary	-8.18361
▁till	-8.18452
▁killed	-8.18959
▁suppose	-8.19022
▁p	-8.19038
▁yi	-8.19775
▁re	-8.19908
▁front	-8.20144
▁follow	-8.20344
▁screams	-8.20789
▁ben	-8.20811
▁bet	-8.20951
▁rather	-8.21071
ers	-8.21146
▁song	-8.2134
▁th	-8.21368
▁seem	-8.21468
▁ones	-8.2179
▁living	-8.22022
▁fact	-8.22171
▁horse	-8.22224
▁singing	-8.2233
▁shoot	-8.22549
▁star	-8.2255
▁outside	-8.22939
▁daughter	-8.2318
▁coach	-8.23815
▁frank	-8.23817
▁president	-8.23901
▁growling	-8.23941
▁ship	-8.24134
▁case	-8.24149
m	-8.24236
c	-8.24516
▁started	-8.24704
▁lives	-8.24744
▁person	-8.24809
▁truth	-8.24864
ic	-8.25331
▁uncle	-8.25834
▁running	-8.25843
▁buy	-8.2594
▁s	-8.26095
▁blue	-8.26104
▁piece	-8.26117
▁officer	-8.26177
▁ten	-8.26214
▁miles	-8.26315
▁kurt	-8.26814
▁finally	-8.26884
▁road	-8.27823
▁fred	-8.27859
▁shot	-8.28125
▁drop	-8.28128
▁loved	-8.28517
or	-8.28791
▁shouldnt	-8.28804
▁seven	-8.2882
▁mmm	-8.29802
▁darling	-8.29819
▁sent	-8.29824
▁hour	-8.29907
p	-8.3019
▁human	-8.30196
tor	-8.30462
▁poor	-8.3084
▁office	-8.31792
▁harry	-8.31871
▁alive	-8.31872
▁wed	-8.32007
▁died	-8.32306
▁wonder	-8.32512
▁class	-8.32622
▁wizard	-8.32907
▁buddy	-8.32908
▁leaving	-8.32908
▁body	-8.32917
▁mud	-8.3292
▁theyve	-8.32953
▁telling	-8.33121
▁count	-8.33133
▁cats	-8.33699
▁fish	-8.34553
▁serious	-8.34887
▁feeling	-8.34896
able	-8.35511
▁happening	-8.35687
▁careful	-8.3601
▁david	-8.36099
▁mama	-8.36103
▁lunch	-8.36108
▁wake	-8.36121
▁sign	-8.36178
▁ride	-8.36341
▁bill	-8.36382
ies	-8.36536
▁date	-8.36689
b	-8.36757
▁happens	-8.37115
▁jack	-8.37174
▁dangerous	-8.37192
▁wear	-8.37291
▁able	-8.37409
ie	-8.37479
▁words	-8.3753
▁meant	-8.37685
▁witch	-8.38222
▁moving	-8.38287
▁cold	-8.38319
▁smell	-8.38616
▁names	-8.38896
▁gun	-8.38904
▁taken	-8.39247
▁comes	-8.39404
▁feet	-8.39406
▁scared	-8.39482
▁beat	-8.39521
▁karen	-8.39914
▁kermit	-8.40519
▁christmas	-8.4052
▁calm	-8.40544
▁bees	-8.40629
▁brain	-8.41122
▁straight	-8.41622
▁forever	-8.41655
▁return	-8.41926
▁lucky	-8.41983
▁gets	-8.4201
▁window	-8.4227
▁women	-8.42806
▁hungry	-8.42808
▁maam	-8.42808
▁reach	-8.42826
ion	-8.42936
▁gene	-8.42949
▁n	-8.43006
▁cover	-8.43185
▁handle	-8.43264
▁evening	-8.43266
▁pass	-8.4363
▁deep	-8.43716
▁billy	-8.44178
▁fall	-8.44233
▁become	-8.44623
▁mad	-8.44952
▁slow	-8.4501
▁dark	-8.45139
▁shh	-8.45631
▁speaking	-8.45703
▁master	-8.45821
▁tom	-8.45846
▁ho	-8.45981
▁fly	-8.46048
▁sing	-8.46343
▁foot	-8.46345
▁none	-8.46379
▁building	-8.47309
▁past	-8.47562
▁others	-8.47572
▁st	-8.48081
▁christian	-8.48283
▁greg	-8.48701
▁somewhere	-8.48759
▁summer	-8.48777
▁order	-8.49235
▁c	-8.49339
▁strange	-8.49914
▁train	-8.49953
▁jeremy	-8.49994
▁york	-8.49995
▁possible	-8.49996
▁peach	-8.50023
▁gary	-8.50023
▁shouting	-8.50059
▁ground	-8.50483
▁enjoy	-8.50506
▁pleasure	-8.50771
▁months	-8.50862
▁bear	-8.50981
le	-8.5107
▁alvin	-8.51244
▁friday	-8.51244
▁security	-8.51247
▁shell	-8.5125
▁quickly	-8.51439
▁grow	-8.51504
▁aunt	-8.51721
▁potter	-8.52049
▁voice	-8.52112
▁finish	-8.52207
out	-8.52467
▁company	-8.5251
▁across	-8.5251
▁birthday	-8.5251
▁chattering	-8.52698
▁eight	-8.52804
▁questions	-8.52866
▁law	-8.53328
▁jellicle	-8.53387
▁attack	-8.53484
▁de	-8.53572
▁camp	-8.53737
▁radio	-8.53804
▁charge	-8.53965
▁faster	-8.54016
▁finished	-8.54103
▁figure	-8.54452
▁worked	-8.54562
an	-8.54771
▁worth	-8.54875
▁blood	-8.54905
▁coffee	-8.5509
▁fault	-8.55097
▁a	-8.55182
▁busy	-8.55234
▁stick	-8.55372
▁map	-8.55522
▁expect	-8.55681
▁lll	-8.55727
▁longer	-8.55792
▁grand	-8.55865
▁marry	-8.55963
ar	-8.55998
▁round	-8.56012
▁street	-8.56037
▁chief	-8.56406
▁major	-8.56406
▁alex	-8.56407
man	-8.56527
▁bank	-8.56713
▁in	-8.56741
▁relax	-8.56969
▁eye	-8.57255
▁box	-8.57267
▁boat	-8.57394
▁turned	-8.57413
▁key	-8.57425
▁strong	-8.5759
▁books	-8.57676
▁dorothy	-8.5774
▁goddamn	-8.57747
▁absolutely	-8.57753
▁entire	-8.58951
▁tight	-8.58974
▁gadget	-8.5909
▁rowley	-8.59093
▁kidding	-8.59096
f	-8.59182
▁saved	-8.59491
▁commenta	-8.59738
▁engine	-8.59853
▁picture	-8.60147
▁field	-8.60161
▁proud	-8.60462
▁jesus	-8.60462
▁terrible	-8.60491
▁certainly	-8.60562
▁hed	-8.60766
▁lt	-8.60844
▁known	-8.60945
▁roll	-8.61016
▁kiss	-8.61047
▁join	-8.61056
us	-8.61292
▁share	-8.61648
▁sun	-8.61776
▁cheese	-8.61849
▁wedding	-8.61851
▁football	-8.61853
▁tired	-8.61874
▁manny	-8.61894
▁dollars	-8.62513
▁explain	-8.62612
▁short	-8.62652
▁fat	-8.62707
▁leg	-8.6291
▁except	-8.62923
▁monster	-8.62984
▁animal	-8.62986
▁wind	-8.63065
▁e	-8.63146
▁middle	-8.63251
▁choice	-8.63258
▁brenda	-8.63258
▁stuck	-8.63263
▁ellie	-8.63263
▁la	-8.63935
▁fool	-8.64113
▁rescue	-8.64475
▁forgot	-8.64675
▁caught	-8.64687
▁amazing	-8.64687
▁wild	-8.64725
▁born	-8.64725
▁calling	-8.64847
▁player	-8.65102
▁art	-8.65107
▁fear	-8.65177
▁cute	-8.65397
▁blow	-8.65427
th	-8.65626
▁sense	-8.65797
▁tree	-8.65905
▁weird	-8.65937
▁magic	-8.65972
▁harold	-8.66136
▁throat	-8.66136
▁susan	-8.66136
▁favorite	-8.66138
▁tea	-8.66677
▁bell	-8.67223
▁table	-8.67247
h	-8.67249
▁chicken	-8.67339
▁mouse	-8.67599
▁meimei	-8.67607
▁scott	-8.67607
▁ernie	-8.67607
▁oz	-8.67607
▁tv	-8.6762
▁mister	-8.6762
▁dreams	-8.68093
▁weeks	-8.68272
▁sell	-8.68702
▁imagine	-8.68894
▁near	-8.68956
▁letter	-8.69008
▁super	-8.6909
▁attention	-8.69099
▁excellent	-8.69099
▁worse	-8.69099
▁giving	-8.69103
▁hero	-8.69145
▁princess	-8.69232
▁eh	-8.69394
▁tim	-8.69667
▁dress	-8.69822
▁looked	-8.70066
▁butt	-8.70123
k	-8.70167
▁wilma	-8.70394
▁present	-8.70407
▁form	-8.70558
▁f	-8.70574
▁anywhere	-8.70614
▁queen	-8.71232
▁killer	-8.71364
ation	-8.71798
▁fair	-8.7182
▁rich	-8.71906
▁granny	-8.71984
▁bee	-8.72015
▁wall	-8.72027
▁planet	-8.72033
▁protect	-8.7209
▁scene	-8.72152
▁alexander	-8.72153
▁appreciate	-8.72153
▁groaning	-8.72153
▁low	-8.72155
▁shit	-8.72157
▁carmen	-8.72183
▁unless	-8.72184
▁boots	-8.72213
▁asking	-8.72457
▁yo	-8.72732
▁push	-8.72764
▁less	-8.72961
▁pop	-8.73457
▁husband	-8.73574
▁smart	-8.736
▁third	-8.73715
▁early	-8.73788
▁meeting	-8.73857
▁aw	-8.74012
▁lived	-8.74671
▁seconds	-8.74778
▁works	-8.74788
▁board	-8.74965
▁bailey	-8.75165
▁bird	-8.75194
▁thousand	-8.75204
▁frog	-8.75206
▁fell	-8.75225
▁forgive	-8.75288
▁sad	-8.75296
▁space	-8.75311
▁ran	-8.75701
▁josh	-8.76167
▁given	-8.76217
▁grab	-8.76408
▁k	-8.76467
▁cop	-8.76523
▁trip	-8.7653
▁martin	-8.76791
▁grandma	-8.7681
▁beach	-8.76848
▁movie	-8.76849
▁doug	-8.76873
▁pig	-8.76879
▁van	-8.76927
▁press	-8.76958
▁gold	-8.77063
▁holy	-8.77099
▁wearing	-8.7753
▁report	-8.7761
▁state	-8.77839
▁lead	-8.77922
▁surprise	-8.78257
▁seat	-8.78387
▁broke	-8.78489
▁island	-8.78494
▁werent	-8.78555
▁mike	-8.7856
▁sword	-8.78574
▁panting	-8.78604
▁decided	-8.7868
▁brothers	-8.78973
▁changed	-8.79117
▁pain	-8.79449
▁kick	-8.79459
▁laugh	-8.79467
▁test	-8.79489
up	-8.79837
▁lights	-8.79866
▁teach	-8.79991
▁mistake	-8.8011
▁river	-8.80216
▁afternoon	-8.80221
▁private	-8.80221
▁walter	-8.80231
▁anna	-8.80256
▁broken	-8.80284
▁cops	-8.80291
▁hide	-8.80312
▁warner	-8.80346
▁army	-8.80397
▁clean	-8.80438
▁nose	-8.80537
▁higher	-8.80582
▁bag	-8.80948
▁rid	-8.81285
▁jump	-8.81402
ment	-8.81552
▁joke	-8.81834
▁alan	-8.81882
▁service	-8.81893
▁tough	-8.81917
▁angus	-8.81917
▁plans	-8.81968
▁double	-8.8197
w	-8.81973
▁totally	-8.81981
▁size	-8.82042
▁peter	-8.82069
▁dogs	-8.82175
▁heh	-8.82197
▁ringing	-8.82257
▁act	-8.82675
▁mess	-8.827
▁swear	-8.83174
▁carry	-8.83258
▁hasnt	-8.83641
▁machine	-8.83642
▁bus	-8.83848
il	-8.84126
▁whoo	-8.84152
▁ass	-8.84256
▁ohh	-8.84492
▁christ	-8.84635
▁post	-8.8479
▁gus	-8.84978
▁build	-8.8498
▁horn	-8.85154
▁escape	-8.85177
ful	-8.8519
▁battle	-8.85392
▁felt	-8.85395
▁zack	-8.85396
▁goin	-8.85534
▁interested	-8.85606
▁pete	-8.85637
▁besides	-8.85655
▁dare	-8.8623
▁suit	-8.86296
▁mighty	-8.86622
▁spy	-8.86624
▁spend	-8.86806
▁ch	-8.86931
▁practice	-8.86959
▁bitch	-8.8715
▁public	-8.87168
▁french	-8.87174
▁angry	-8.87181
▁forward	-8.87181
▁nope	-8.87181
▁stopped	-8.87228
▁yelling	-8.87293
▁paper	-8.87304
▁mate	-8.87371
▁simple	-8.87544
▁missing	-8.88162
▁fix	-8.88221
▁con	-8.88228
▁offer	-8.8837
▁hunt	-8.88426
▁cross	-8.88704
▁juni	-8.88978
▁race	-8.88999
▁congratulations	-8.88999
▁future	-8.89002
▁todd	-8.89046
▁single	-8.89048
▁roger	-8.89126
▁action	-8.89129
▁prince	-8.8919
you	-8.89271
▁arm	-8.89277
▁lie	-8.89382
ness	-8.8955
▁talked	-8.89572
▁hill	-8.896
▁certain	-8.89708
▁wondering	-8.89727
▁ahh	-8.89761
▁fu	-8.89829
▁needed	-8.90063
▁cry	-8.9044
▁horses	-8.90463
▁mouth	-8.90575
▁realize	-8.90671
less	-8.90687
▁floor	-8.90851
▁search	-8.90851
▁history	-8.90851
▁outta	-8.90855
▁chess	-8.90857
▁definitely	-8.90857
▁impossible	-8.9087
▁sitting	-8.90878
▁upon	-8.90878
▁moon	-8.90881
▁soul	-8.90891
▁age	-8.90907
▁hundred	-8.91031
▁heaven	-8.91035
▁egg	-8.91038
▁pants	-8.91078
▁doubt	-8.91095
▁animals	-8.91214
▁shoes	-8.91451
▁bite	-8.91854
▁continue	-8.91991
▁h	-8.92153
▁indistinct	-8.92599
▁final	-8.92641
▁yesterday	-8.92737
▁famous	-8.9274
▁kitty	-8.9274
▁sake	-8.92742
▁danger	-8.92765
▁ice	-8.92807
▁james	-8.92842
▁truck	-8.92899
▁message	-8.92945
▁where	-8.93003
▁bloody	-8.93015
▁growls	-8.93018
▁bar	-8.93149
▁north	-8.93303
▁takes	-8.93545
▁r	-8.93546
ng	-8.939
▁zach	-8.94654
▁accident	-8.94657
▁hannah	-8.9466
▁melissa	-8.9466
▁court	-8.9466
▁ought	-8.9466
▁vegas	-8.94661
▁mm	-8.94663
▁dave	-8.94679
▁nine	-8.94683
▁west	-8.94694
▁mark	-8.94807
▁monkey	-8.949
▁locked	-8.94915
▁watching	-8.95121
▁pa	-8.95344
▁bomb	-8.95496
▁leo	-8.96191
▁fill	-8.96222
▁eggs	-8.96428
▁extra	-8.96537
▁lloyd	-8.96621
▁wrote	-8.96621
▁kept	-8.96621
▁marnie	-8.96622
▁south	-8.96622
▁bottom	-8.96624
▁robin	-8.96638
▁roy	-8.96648
▁birds	-8.96747
▁spot	-8.96831
▁area	-8.96858
▁folks	-8.96879
▁mountain	-8.96894
▁base	-8.96989
▁promised	-8.97168
▁seeing	-8.97321
▁breath	-8.97562
nt	-8.97594
▁fired	-8.97635
▁owe	-8.97868
▁crash	-8.97948
▁pal	-8.98244
▁glass	-8.98565
▁washington	-8.98622
▁soccer	-8.98624
▁papa	-8.98625
▁betty	-8.98644
▁heads	-8.98658
▁obviously	-8.98678
▁gasping	-8.98823
▁station	-8.98948
▁interesting	-8.98951
▁stone	-8.98989
▁beer	-8.99014
▁el	-8.99541
▁woods	-8.99644
▁awful	-8.99787
▁cook	-9.00178
▁steal	-9.00237
▁moved	-9.00392
▁arms	-9.00492
▁quit	-9.0057
▁hat	-9.00584
▁peace	-9.0065
▁crusoe	-9.00662
▁dennis	-9.00662
▁kitchen	-9.00662
▁worried	-9.00662
▁instead	-9.00662
▁alarm	-9.00663
▁yep	-9.00669
▁code	-9.00679
▁aye	-9.00689
▁mommy	-9.0069
▁camera	-9.01018
▁bastard	-9.01023
▁begin	-9.01075
▁american	-9.01092
▁theyd	-9.01271
▁crime	-9.01651
▁park	-9.02096
▁destroy	-9.02441
▁richard	-9.02744
▁kevin	-9.02745
▁vacation	-9.02745
▁rudy	-9.02745
▁sergeant	-9.02746
▁clever	-9.02746
▁mmhmm	-9.02752
▁uhhuh	-9.02754
▁everywhere	-9.02761
▁dirty	-9.02809
▁rangers	-9.02878
▁starting	-9.03059
▁club	-9.03072
▁greatest	-9.03201
▁band	-9.03246
ish	-9.03469
▁ring	-9.03757
ten	-9.03793
▁walking	-9.04066
▁agree	-9.04185
▁lee	-9.04241
ity	-9.04347
▁warm	-9.04366
▁stars	-9.04403
▁swim	-9.04735
▁hospital	-9.04861
▁church	-9.0487
▁bruce	-9.04873
▁english	-9.04873
▁fahmarr	-9.04873
▁situation	-9.04873
▁spongebob	-9.04873
▁thunder	-9.04873
▁kingdom	-9.04877
▁often	-9.04882
▁forest	-9.04902
age	-9.04934
▁farm	-9.04941
▁exclaims	-9.04966
▁tony	-9.0504
▁force	-9.05112
▁missed	-9.05144
▁idiot	-9.05318
▁gift	-9.05326
▁crying	-9.05357
▁whose	-9.05508
▁hardly	-9.05519
▁ba	-9.05551
▁sam	-9.05933
▁mention	-9.06744
▁experience	-9.06867
▁normal	-9.06901
▁papers	-9.06909
▁smile	-9.06972
▁killing	-9.06984
▁heavy	-9.07047
▁travis	-9.07047
▁foster	-9.07048
▁breakfast	-9.0705
▁spent	-9.07052
▁clothes	-9.07059
▁sky	-9.07096
▁losing	-9.07183
▁keeps	-9.07298
▁closer	-9.07336
▁gosh	-9.07579
z	-9.07609
▁w	-9.07783
▁trick	-9.078
▁honor	-9.08936
▁up	-9.09009
▁card	-9.09072
▁eating	-9.09105
▁bright	-9.09111
▁garden	-9.09141
▁lake	-9.09214
▁shop	-9.09246
▁upset	-9.0926
▁daniel	-9.09269
▁england	-9.09269
▁otis	-9.09269
▁twice	-9.09269
▁college	-9.09269
▁robert	-9.09269
▁arthur	-9.0927
▁wolf	-9.09279
to	-9.09326
▁involved	-9.0935
▁huge	-9.09351
▁over	-9.09395
▁cell	-9.09723
▁language	-9.09731
▁plane	-9.10095
▁andy	-9.10386
ous	-9.10436
▁bother	-9.10792
▁breaking	-9.10918
▁feels	-9.11301
▁lay	-9.11401
▁fit	-9.11408
▁madam	-9.11418
▁ii	-9.11488
▁personal	-9.11527
▁evidence	-9.11542
▁ridiculous	-9.11542
▁shouldve	-9.11542
▁hadnt	-9.11542
▁floop	-9.11543
▁grace	-9.11543
▁candy	-9.11545
▁meh	-9.11549
▁paid	-9.11552
▁simply	-9.11565
▁center	-9.11566
▁indeed	-9.11573
▁lock	-9.11674
▁speed	-9.11679
time	-9.11702
▁guard	-9.11798
▁m	-9.11808
▁surprised	-9.1183
▁seriously	-9.11837
is	-9.11866
▁legs	-9.11986
▁system	-9.12077
▁film	-9.12123
▁closed	-9.12418
▁not	-9.12478
▁t	-9.12483
▁dar	-9.12544
▁standing	-9.13343
▁knock	-9.13658
▁prepare	-9.13678
▁brave	-9.13702
▁doin	-9.13807
▁brown	-9.1385
▁max	-9.13851
▁asleep	-9.13867
▁beatrix	-9.13867
▁especially	-9.13867
▁rumbling	-9.13867
ty	-9.13894
ch	-9.139
▁dying	-9.13932
▁lifting	-9.14176
▁paris	-9.14359
▁pictures	-9.14405
▁goodness	-9.14548
▁tail	-9.14707
▁ma	-9.15338
▁fighting	-9.15764
▁ar	-9.15793
▁difficult	-9.16024
▁waste	-9.16036
▁record	-9.16053
▁large	-9.16172
▁paul	-9.16172
▁rat	-9.16222
▁snow	-9.16243
▁charlie	-9.16249
▁committee	-9.16249
▁bigger	-9.16249
▁nowhere	-9.16249
▁choose	-9.1625
▁beginning	-9.16251
▁bunch	-9.16251
▁stories	-9.16252
▁ronnie	-9.16253
▁chuckling	-9.16253
▁rain	-9.16264
▁royal	-9.16319
▁shed	-9.16488
▁cole	-9.16501
▁scream	-9.1657
▁type	-9.16582
▁respect	-9.16672
▁mei	-9.16872
▁lve	-9.16894
▁decision	-9.1691
▁bridge	-9.16917
ive	-9.17007
▁month	-9.17009
▁teacher	-9.17118
▁store	-9.17308
▁cost	-9.17527
ist	-9.17569
▁allow	-9.18386
▁loud	-9.18432
▁blame	-9.18444
▁awesome	-9.18687
▁merlin	-9.18687
▁drunk	-9.18688
▁courage	-9.18688
▁ella	-9.18714
▁speech	-9.1872
▁lying	-9.18757
▁usually	-9.18767
▁mayor	-9.19094
▁loves	-9.19114
▁breathing	-9.19201
▁group	-9.19373
▁strike	-9.19437
▁hole	-9.19528
▁tickets	-9.19953
▁j	-9.20056
▁visit	-9.20732
▁command	-9.20915
▁howd	-9.20998
▁america	-9.21117
▁mitchell	-9.21187
▁neither	-9.21187
▁nicole	-9.21187
▁alright	-9.21189
▁stargirl	-9.21191
▁jerry	-9.21191
▁thatll	-9.21192
▁information	-9.21193
▁driving	-9.21196
▁maddy	-9.21199
▁weekend	-9.21199
▁aaah	-9.21207
▁national	-9.2121
▁fay	-9.21233
▁interest	-9.2127
▁gas	-9.21512
▁block	-9.21634
▁i	-9.21932
▁fellow	-9.2198
▁legend	-9.22004
▁contact	-9.22012
by	-9.2202
▁position	-9.22039
la	-9.22296
▁risk	-9.22775
u	-9.22995
▁draw	-9.23058
ary	-9.23114
el	-9.23205
▁raise	-9.23543
▁fresh	-9.2357
▁named	-9.23586
and	-9.23664
▁village	-9.23743
▁fantastic	-9.23752
▁hamilton	-9.23752
▁harper	-9.23752
▁london	-9.23752
▁plenty	-9.23752
▁jones	-9.23752
▁giant	-9.23753
▁france	-9.23766
▁neck	-9.23773
▁season	-9.23796
▁jill	-9.23861
▁beeping	-9.23891
▁squeaking	-9.23902
▁nearly	-9.23989
▁uhh	-9.24076
▁rule	-9.24287
▁shouts	-9.24315
▁ln	-9.24382
▁keys	-9.24435
▁corner	-9.24552
▁noise	-9.24636
▁bucks	-9.24665
um	-9.24712
▁mission	-9.24764
▁problems	-9.24766
se	-9.24895
▁shooting	-9.24905
▁games	-9.25069
▁merr	-9.25169
▁accept	-9.25607
▁ls	-9.25752
▁reading	-9.25776
▁climb	-9.25956
ro	-9.2596
▁sight	-9.25973
▁nervous	-9.26241
▁prefer	-9.26378
▁ocean	-9.26383
▁pardon	-9.26383
▁upstairs	-9.26383
▁biggest	-9.26383
▁sugar	-9.26384
▁department	-9.26384
▁teeth	-9.26385
▁jason	-9.26386
▁common	-9.26386
▁monty	-9.26386
▁panda	-9.26388
▁kelly	-9.26388
▁tour	-9.26389
▁lab	-9.26399
▁barn	-9.26412
▁ugh	-9.26415
▁sold	-9.26437
▁track	-9.2646
▁united	-9.26517
▁richie	-9.2661
▁destroyed	-9.2677
▁trees	-9.26811
▁blows	-9.26816
▁en	-9.26871
▁passed	-9.27081
▁taste	-9.2713
▁o	-9.2718
▁brace	-9.27292
way	-9.27311
▁eagle	-9.27325
▁rabbit	-9.27333
▁flower	-9.27403
▁stops	-9.27469
▁breathe	-9.27535
▁per	-9.27585
x	-9.27632
▁starts	-9.27894
▁pray	-9.28223
▁notice	-9.28881
me	-9.2901
▁dry	-9.29018
▁amanda	-9.29086
▁emergency	-9.29086
▁majesty	-9.29086
▁mostly	-9.29086
▁bike	-9.29086
▁daphne	-9.29086
▁genius	-9.29086
▁philip	-9.29087
▁british	-9.29088
▁possibly	-9.29089
▁rogo	-9.29091
▁comfortable	-9.29092
▁ugly	-9.29095
▁incredible	-9.29095
▁johnny	-9.29097
▁loan	-9.29097
▁apartment	-9.29098
▁written	-9.291
▁silly	-9.29102
▁batman	-9.29102
▁memory	-9.29104
▁nancy	-9.29105
▁powerful	-9.29132
▁row	-9.2915
▁match	-9.29188
▁movies	-9.29198
▁yall	-9.29275
▁ate	-9.29298
▁clears	-9.29394
▁d	-9.29428
▁lf	-9.29527
▁ted	-9.29646
io	-9.29659
▁players	-9.29907
▁liked	-9.30025
▁girlfriend	-9.3005
▁spirit	-9.30089
▁cake	-9.30106
▁whistle	-9.30123
▁bond	-9.30161
▁pat	-9.30246
▁dads	-9.30645
▁prove	-9.30703
▁flowers	-9.30832
▁staying	-9.31172
▁chatter	-9.31451
▁due	-9.3151
▁moves	-9.31561
▁opening	-9.31603
▁beg	-9.31778
▁character	-9.31861
▁lieutenant	-9.31864
▁sweetheart	-9.31864
▁byebye	-9.31864
▁telephone	-9.31864
▁woodward	-9.31866
▁bread	-9.31867
▁dancing	-9.31867
▁elizabeth	-9.31867
▁fancy	-9.31868
▁aboard	-9.31872
▁laughter	-9.31875
▁view	-9.31884
▁excited	-9.31885
▁truly	-9.31888
▁barking	-9.31933
at	-9.31934
▁softly	-9.3199
▁thas	-9.32073
▁whispering	-9.3213
▁figured	-9.32311
▁monsters	-9.32412
▁calls	-9.32504
▁yells	-9.32574
▁played	-9.32598
▁tuck	-9.32599
▁belong	-9.32679
▁tip	-9.32711
▁wings	-9.32768
▁theatre	-9.32894
▁clock	-9.329
▁price	-9.3296
▁operation	-9.32962
▁fingers	-9.33212
▁picked	-9.33296
▁of	-9.33369
▁feelings	-9.33587
▁thinks	-9.33717
▁pieces	-9.33911
▁pack	-9.3396
ah	-9.34154
▁songs	-9.34155
ur	-9.34229
▁study	-9.34294
▁decide	-9.34539
▁hung	-9.34605
▁stole	-9.34655
▁cash	-9.34689
▁jj	-9.34708
▁necessary	-9.34721
▁whether	-9.34721
▁wicked	-9.34721
▁blind	-9.34721
▁thomas	-9.34721
▁support	-9.34721
▁universe	-9.34721
▁cruel	-9.34722
▁shame	-9.34724
▁winnie	-9.34725
▁lonely	-9.34737
▁lars	-9.34746
▁disgusting	-9.34752
▁arrived	-9.34804
▁states	-9.34833
▁coughing	-9.34899
li	-9.34907
▁chipmunks	-9.35149
▁places	-9.35175
▁dame	-9.3519
▁nuts	-9.35191
ra	-9.35231
▁butter	-9.35268
▁helping	-9.35336
▁advance	-9.35436
▁burn	-9.35548
▁falling	-9.35751
▁favor	-9.35834
▁cup	-9.35876
▁student	-9.35943
▁guest	-9.35958
▁yard	-9.35968
▁note	-9.3599
▁whales	-9.36161
▁dis	-9.36341
▁wash	-9.36899
▁lad	-9.3695
▁fathers	-9.37031
go	-9.37055
▁honest	-9.3732
▁co	-9.37366
▁heat	-9.37399
▁smoke	-9.37422
son	-9.37449
v	-9.37462
▁warne	-9.37515
▁anthony	-9.37662
▁austin	-9.37662
▁bought	-9.37662
▁brilliant	-9.37662
▁eleanor	-9.37662
▁lerigot	-9.37662
▁mmmhmm	-9.37662
▁scoffs	-9.37662
▁stahr	-9.37662
▁strength	-9.37662
▁worst	-9.37662
▁keller	-9.37662
▁switch	-9.37662
▁justice	-9.37662
▁writing	-9.37665
▁focus	-9.37666
▁property	-9.3767
▁duty	-9.3767
▁pressure	-9.37672
▁market	-9.37681
▁tomatoes	-9.37708
▁crane	-9.37712
▁stolen	-9.3773
▁shake	-9.37823
▁noticed	-9.37889
▁treat	-9.37897
▁list	-9.3793
▁acting	-9.38387
▁couldve	-9.38591
▁training	-9.38664
▁deserve	-9.38717
▁audience	-9.38863
▁account	-9.38871
▁devil	-9.38875
id	-9.38944
▁cow	-9.38981
▁twenty	-9.39234
ce	-9.39445
▁older	-9.3954
▁faith	-9.40241
▁ku	-9.40299
▁program	-9.4037
▁arrest	-9.40384
▁health	-9.40504
▁correct	-9.40542
▁soft	-9.40553
▁beverly	-9.40692
▁randall	-9.40692
▁reavis	-9.40692
▁taught	-9.40692
▁terrific	-9.40692
▁science	-9.40692
▁interview	-9.40693
▁someday	-9.40693
▁jail	-9.40695
▁local	-9.40696
▁comin	-9.40701
▁crap	-9.40702
▁patrick	-9.40702
▁heck	-9.40704
▁nasty	-9.40705
▁solo	-9.40714
▁oil	-9.40727
▁dumb	-9.40736
▁si	-9.40743
▁crown	-9.40745
▁mice	-9.40749
▁prize	-9.40753
▁consider	-9.40759
▁tie	-9.4083
▁disappeared	-9.40859
▁witches	-9.40868
▁whatd	-9.40977
▁vote	-9.41207
co	-9.4126
ting	-9.41454
as	-9.41486
▁fellas	-9.41486
▁keeping	-9.4169
▁nah	-9.41699
▁helped	-9.41757
▁learned	-9.41815
▁orders	-9.41824
de	-9.41925
▁cos	-9.41928
▁desert	-9.41983
▁following	-9.42089
▁hanging	-9.4243
▁lads	-9.42477
▁da	-9.4319
it	-9.43312
▁milk	-9.43391
▁complete	-9.4346
▁hall	-9.43472
▁travel	-9.43568
▁fletch	-9.43705
▁ac	-9.43742
▁project	-9.43789
▁champ	-9.43791
▁pocket	-9.43817
▁became	-9.43817
▁enemy	-9.43817
▁monroe	-9.43817
▁pizza	-9.43817
▁precious	-9.43817
▁theodore	-9.43817
▁within	-9.43817
▁colonel	-9.43818
▁empty	-9.43818
▁cream	-9.43819
▁bathroom	-9.43819
▁apologize	-9.4382
▁yellow	-9.4382
▁built	-9.43828
▁mail	-9.4385
▁exciting	-9.4385
▁katie	-9.43853
▁x	-9.44043
▁lies	-9.44239
▁do	-9.44593
▁lately	-9.44658
▁remain	-9.44768
▁jellicles	-9.44819
▁expecting	-9.44829
▁east	-9.44849
▁flying	-9.44935
▁fail	-9.45099
▁doors	-9.45102
te	-9.45191
▁ab	-9.45466
ling	-9.455
▁so	-9.45788
▁rings	-9.45847
▁tall	-9.45885
▁sp	-9.45922
▁wood	-9.46092
▁warn	-9.46301
▁bat	-9.46626
▁lift	-9.46626
▁ruin	-9.46738
ta	-9.46742
▁introduce	-9.46827
▁trade	-9.46969
▁loose	-9.46989
▁foreign	-9.47009
▁surely	-9.47011
▁self	-9.47023
▁apart	-9.47029
▁conversation	-9.47043
▁haldeman	-9.47043
▁holmes	-9.47043
▁sloan	-9.47043
▁piggy	-9.47047
▁linda	-9.47049
▁difference	-9.47054
▁soup	-9.47059
▁minion	-9.47059
▁hut	-9.47067
▁emily	-9.47078
▁joy	-9.47111
▁suddenly	-9.47158
▁ford	-9.47171
▁showed	-9.472
▁herring	-9.47202
▁charming	-9.47216
▁feed	-9.47235
▁lance	-9.4724
▁ian	-9.47329
▁turns	-9.47341
▁prepared	-9.47369
▁wally	-9.47507
▁perfectly	-9.47566
▁stage	-9.47624
▁gods	-9.47661
▁dressed	-9.47722
▁remind	-9.48153
▁bro	-9.48458
▁macavity	-9.48542
▁lawyer	-9.48586
▁brains	-9.48622
▁ticket	-9.48667
▁fan	-9.48704
▁notes	-9.49056
▁listening	-9.49075
▁rules	-9.49207
▁enter	-9.49619
▁announce	-9.49791
▁discuss	-9.49851
▁settle	-9.50222
▁scare	-9.50246
▁tr	-9.50246
▁toast	-9.50253
▁bowl	-9.50277
▁andre	-9.5031
▁dump	-9.50373
▁bernard	-9.50376
▁garbage	-9.50376
▁gross	-9.50376
▁literally	-9.50376
▁marriage	-9.50376
▁target	-9.50377
▁willing	-9.50379
▁launch	-9.50379
▁roof	-9.5038
▁georgia	-9.50383
▁sunday	-9.50385
▁species	-9.50387
▁violet	-9.50387
▁tommy	-9.50388
▁dropped	-9.5039
▁spell	-9.50391
▁daffy	-9.50393
▁mum	-9.50395
▁began	-9.50401
▁immediately	-9.50402
▁whimpers	-9.50467
▁turning	-9.50474
▁hiding	-9.5049
▁norman	-9.50497
▁nature	-9.50498
▁completely	-9.50524
▁tub	-9.50824
▁skin	-9.50856
ent	-9.50903
▁talkin	-9.5128
▁kinda	-9.51366
▁nights	-9.51444
▁ear	-9.51818
▁creatures	-9.51886
▁circle	-9.52061
▁bottle	-9.52063
▁ears	-9.52068
▁gate	-9.52115
▁whale	-9.52122
▁mile	-9.52235
led	-9.52438
▁murder	-9.52485
▁lion	-9.52919
▁ld	-9.53267
▁lots	-9.53474
▁judge	-9.53593
▁wa	-9.53628
▁sand	-9.53802
▁dig	-9.53824
▁stomach	-9.53825
▁advice	-9.53825
▁felix	-9.53825
▁license	-9.53825
▁saturday	-9.53825
▁credit	-9.53825
▁dracula	-9.53825
▁bedders	-9.53825
▁mystery	-9.53825
▁miami	-9.53826
▁hooch	-9.53827
▁inspector	-9.5383
▁crew	-9.5383
▁curious	-9.53831
▁touchdown	-9.53841
▁jacket	-9.53843
▁whimpering	-9.53847
▁belt	-9.5385
▁tower	-9.5385
▁style	-9.53852
▁filthy	-9.53855
▁bride	-9.53856
▁hook	-9.53857
▁factory	-9.53871
▁weight	-9.53874
▁toby	-9.53882
▁uhoh	-9.53886
▁invited	-9.53953
▁wet	-9.53958
▁putting	-9.53985
▁paint	-9.54052
▁metal	-9.54126
▁mustnt	-9.54131
▁sooner	-9.54544
▁out	-9.54591
ter	-9.54705
▁sh	-9.5475
▁boo	-9.54792
▁denys	-9.54897
▁exist	-9.55303
▁bath	-9.55434
▁restaurant	-9.55585
ts	-9.55599
▁partner	-9.55601
▁se	-9.55641
▁finger	-9.55683
▁dollar	-9.55723
▁guests	-9.55879
▁opens	-9.56027
ma	-9.56178
▁to	-9.56326
▁aim	-9.56358
▁bust	-9.56371
▁mothers	-9.56838
ble	-9.56853
▁pretend	-9.56963
one	-9.57021
ia	-9.57032
▁hug	-9.57093
▁angel	-9.57128
▁release	-9.57183
▁bow	-9.57193
▁total	-9.57267
▁address	-9.5733
ba	-9.57344
▁europe	-9.57376
▁admit	-9.5739
▁u	-9.57392
▁applause	-9.57396
▁chocolate	-9.57396
▁dixon	-9.57396
▁opinion	-9.57396
▁tiktok	-9.57396
▁journey	-9.57396
▁appointment	-9.57396
▁however	-9.57396
▁assistant	-9.574
▁knife	-9.574
▁fake	-9.57402
▁held	-9.57411
▁boyfriend	-9.57413
ious	-9.57413
▁desk	-9.57413
▁jesse	-9.57418
▁pawn	-9.57418
▁stine	-9.57418
▁pool	-9.5742
▁grave	-9.57421
▁stock	-9.57429
▁secretary	-9.57436
▁viva	-9.57488
▁exhales	-9.57493
▁manage	-9.57558
▁hoping	-9.5761
▁crack	-9.57614
▁agreed	-9.5775
▁main	-9.57776
▁awake	-9.57859
▁wine	-9.57965
▁le	-9.58208
▁harder	-9.58295
▁meaning	-9.58444
▁ends	-9.58603
▁pie	-9.58652
▁tells	-9.58703
▁germans	-9.58956
▁friendly	-9.58978
▁plant	-9.59192
▁tongue	-9.59288
ine	-9.59291
▁lions	-9.59322
▁spring	-9.59328
▁knight	-9.59359
▁harm	-9.59536
▁reporter	-9.59611
▁sons	-9.59734
▁mo	-9.59954
ized	-9.60052
▁marshal	-9.60118
ated	-9.60143
ate	-9.60177
▁pe	-9.60343
▁event	-9.60578
▁pet	-9.60629
▁load	-9.60826
▁survive	-9.60955
▁electric	-9.61041
▁gettin	-9.61077
▁split	-9.61089
▁bernstein	-9.611
▁delicious	-9.611
▁fbi	-9.611
▁purpose	-9.611
▁shaolin	-9.611
▁stanwyk	-9.611
▁hubbell	-9.611
▁otherwise	-9.611
▁social	-9.611
▁steiner	-9.611
▁somehow	-9.611
▁underwater	-9.61101
▁danny	-9.61101
▁jenning	-9.61101
▁buried	-9.61101
▁energy	-9.61104
▁opportunity	-9.61104
▁onto	-9.61104
▁square	-9.61108
▁model	-9.61117
▁unbelievable	-9.61118
▁regret	-9.61144
▁professional	-9.61151
▁marion	-9.61155
▁manager	-9.61193
▁refuse	-9.61219
▁fletcher	-9.61239
▁zoo	-9.61384
▁failed	-9.61457
▁magical	-9.61468
▁tires	-9.61477
▁copy	-9.61548
▁allowed	-9.61573
▁expected	-9.6198
ance	-9.62095
▁seemed	-9.62343
ca	-9.62459
▁he	-9.62948
tic	-9.62992
▁smells	-9.63073
▁clue	-9.63117
▁snap	-9.63136
▁direction	-9.6317
▁diamond	-9.63205
▁creature	-9.63228
▁rope	-9.63246
▁wheel	-9.63354
▁page	-9.63479
▁using	-9.6377
▁holding	-9.64003
▁daughters	-9.64048
▁freak	-9.64248
▁lines	-9.64347
▁worlds	-9.64703
▁challenge	-9.64714
▁wire	-9.64744
▁lookin	-9.64783
▁sudden	-9.64808
▁africa	-9.64835
▁gang	-9.64946
▁alphonse	-9.64946
▁female	-9.64946
▁giggles	-9.64946
▁intelligent	-9.64946
▁toilet	-9.64946
▁wreck	-9.64946
▁insane	-9.64946
▁squawking	-9.64946
▁horrible	-9.64947
▁lisa	-9.64947
▁kidnapped	-9.64947
▁dust	-9.64948
▁nonsense	-9.64949
▁lewis	-9.6495
▁turbo	-9.6495
▁intelligence	-9.64951
▁punch	-9.64952
▁simon	-9.64954
▁penny	-9.6496
▁shape	-9.6497
▁shrieking	-9.64971
▁forgotten	-9.64978
▁chanting	-9.64987
▁jim	-9.64992
▁madeline	-9.65003
▁spread	-9.65003
▁rosen	-9.65009
▁african	-9.65057
▁sweetie	-9.65075
▁fourth	-9.6508
▁honestly	-9.65128
▁nobodys	-9.6516
▁horner	-9.65195
▁gee	-9.65246
▁troops	-9.65248
▁sponge	-9.65287
▁ruined	-9.65314
▁freeze	-9.65539
▁hood	-9.65636
▁cheers	-9.65745
▁muppets	-9.6594
ry	-9.66003
▁streets	-9.66054
▁blowing	-9.66078
▁cars	-9.66188
▁sail	-9.66297
▁add	-9.66503
▁pounds	-9.66607
▁gives	-9.66702
▁skip	-9.66751
▁cares	-9.66844
▁guns	-9.66974
▁german	-9.67035
▁costume	-9.67103
▁robot	-9.67161
▁tiger	-9.67164
▁file	-9.67172
▁source	-9.67193
▁agent	-9.67239
▁students	-9.6725
▁native	-9.67313
▁signal	-9.6735
▁leader	-9.67358
▁ended	-9.67366
▁pound	-9.67552
▁du	-9.67586
side	-9.67655
▁rats	-9.67724
sh	-9.67821
▁poison	-9.68151
▁all	-9.68202
▁begins	-9.6822
mon	-9.6839
▁heavens	-9.68567
▁defeat	-9.68629
rs	-9.68638
▁doc	-9.68729
▁weak	-9.68772
▁positive	-9.68798
▁natural	-9.68801
▁prison	-9.68805
▁proper	-9.6881
▁spoke	-9.68879
▁express	-9.68881
▁tomato	-9.68895
▁slip	-9.68935
▁joseph	-9.68939
▁alpha	-9.68945
▁bravo	-9.68946
▁bunny	-9.68946
▁cackling	-9.68946
▁campaign	-9.68946
▁research	-9.68946
▁coast	-9.68946
▁clarence	-9.68946
▁squawks	-9.68946
▁slappy	-9.68946
▁niki	-9.68947
▁airport	-9.68951
▁loving	-9.68955
▁flight	-9.68957
▁z	-9.68957
▁squad	-9.68963
▁perro	-9.68963
▁assure	-9.68965
▁castle	-9.68966
▁cast	-9.68966
▁roaring	-9.68973
▁precisely	-9.68988
▁ed	-9.69005
▁angelo	-9.69033
▁storm	-9.69052
▁frightened	-9.69053
▁comment	-9.69106
▁ex	-9.69106
▁pigs	-9.69114
ard	-9.69218
▁al	-9.6923
▁les	-9.69366
▁deeply	-9.6943
▁je	-9.69463
ul	-9.69468
▁realized	-9.69521
▁painful	-9.69581
▁odd	-9.69739
▁las	-9.69988
▁waters	-9.70352
▁tu	-9.70389
▁dick	-9.70417
▁shower	-9.70546
▁falls	-9.70747
▁string	-9.70777
▁pan	-9.70978
▁gasp	-9.71032
▁julie	-9.71167
▁shirt	-9.71268
▁jerk	-9.71278
▁rose	-9.7131
▁member	-9.71359
▁current	-9.71359
▁wave	-9.71391
▁button	-9.71447
▁somethings	-9.71593
▁cards	-9.72143
am	-9.72221
▁wh	-9.72306
▁ann	-9.72559
ton	-9.72725
▁headed	-9.72821
▁fund	-9.72834
▁horns	-9.72946
▁usual	-9.72976
▁direct	-9.73006
▁nothin	-9.73086
▁chuck	-9.73089
▁aware	-9.73095
▁flat	-9.7311
▁bookshop	-9.73113
▁bullshit	-9.73113
▁equipment	-9.73113
▁glinda	-9.73113
▁grew	-9.73113
▁league	-9.73113
▁sefton	-9.73113
▁simmons	-9.73113
▁snoring	-9.73113
▁spanish	-9.73113
▁alert	-9.73113
▁spider	-9.73113
▁steel	-9.73114
▁innocent	-9.73114
▁planned	-9.73114
▁saving	-9.73114
▁japan	-9.73115
▁drew	-9.73116
▁beyond	-9.73118
▁blart	-9.73122
▁gentleman	-9.73123
▁beauty	-9.73132
▁barney	-9.73133
▁guardian	-9.73138
▁fryer	-9.7314
▁wide	-9.73141
▁china	-9.73142
▁original	-9.73148
▁fearless	-9.73154
▁handsome	-9.73155
▁chill	-9.73163
▁safety	-9.73168
▁heavily	-9.73186
▁discovered	-9.7321
▁seats	-9.73279
▁sandy	-9.73353
▁gotcha	-9.73401
▁settled	-9.73408
▁hired	-9.7341
▁indistinctly	-9.73422
▁letting	-9.73445
▁jd	-9.73463
▁gum	-9.73522
▁crawl	-9.73558
ey	-9.73635
▁panic	-9.73659
▁letters	-9.73659
▁burning	-9.73723
▁doctors	-9.73775
▁dj	-9.73789
▁ideas	-9.73848
▁crashing	-9.74005
▁sisters	-9.74053
▁san	-9.7422
▁rum	-9.74221
▁zoot	-9.74326
▁vampires	-9.74343
ne	-9.74404
▁growing	-9.74531
▁print	-9.74623
▁mel	-9.74659
▁refere	-9.74697
▁cal	-9.74703
▁bugs	-9.74718
im	-9.74874
men	-9.74935
▁adventure	-9.75195
▁pulled	-9.75433
ee	-9.7545
▁mi	-9.75466
▁serve	-9.7549
land	-9.75627
▁coat	-9.75673
▁winner	-9.75683
▁prisoner	-9.75822
▁hurts	-9.76665
▁americans	-9.76676
▁su	-9.76726
▁rob	-9.7683
▁sink	-9.7703
▁whisper	-9.77042
▁attempt	-9.77119
▁borrow	-9.77128
▁blast	-9.77148
▁schedule	-9.77245
▁ceremony	-9.7746
▁effort	-9.7746
▁elevator	-9.7746
▁fortune	-9.7746
▁fought	-9.7746
▁michael	-9.7746
▁sheriff	-9.7746
▁surrender	-9.7746
▁thief	-9.7746
▁ultimate	-9.7746
▁moaning	-9.7746
▁potential	-9.77461
▁complex	-9.77461
▁community	-9.77462
▁recall	-9.77462
▁repeat	-9.77463
▁jeez	-9.77464
▁popular	-9.77464
▁several	-9.77465
▁government	-9.77466
▁commandant	-9.77468
▁planning	-9.77472
▁grandpa	-9.77473
▁mercy	-9.77474
▁bedroom	-9.77474
▁script	-9.77485
▁romantic	-9.77489
▁basement	-9.77494
▁gim	-9.775
▁scary	-9.77509
▁path	-9.77572
▁tiny	-9.7758
▁bully	-9.77594
▁net	-9.77606
be	-9.77609
▁grown	-9.77721
▁likes	-9.77723
▁frogs	-9.77731
▁thousands	-9.77733
▁iron	-9.77744
▁hire	-9.77881
▁knocked	-9.78039
▁ms	-9.78183
▁non	-9.78378
▁ordered	-9.78564
▁carrying	-9.78568
▁cleaning	-9.7857
▁covered	-9.78637
do	-9.78644
▁plus	-9.78695
▁ghosts	-9.78903
▁ro	-9.78982
▁bo	-9.79039
ga	-9.79077
ho	-9.7924
▁pro	-9.79354
ical	-9.79424
▁windows	-9.79562
▁seek	-9.79579
▁houses	-9.79848
▁color	-9.79914
▁finding	-9.79954
▁likely	-9.79976
▁it	-9.79978
off	-9.80001
▁creep	-9.80014
▁neighbor	-9.80184
▁quarter	-9.80206
▁plate	-9.80263
▁beast	-9.80265
▁criminal	-9.80278
▁bug	-9.80333
▁lesson	-9.8037
▁plays	-9.80464
mo	-9.80494
▁picking	-9.80582
▁chase	-9.80608
▁officers	-9.8075
▁everybodys	-9.80763
▁deliver	-9.81006
▁ranch	-9.81017
ure	-9.81116
▁perform	-9.81501
▁checking	-9.81567
▁suffer	-9.81573
▁wee	-9.81598
▁level	-9.81664
cks	-9.81685
▁trash	-9.81687
house	-9.81748
▁jealous	-9.81781
james	-9.81782
▁morris	-9.81818
▁bligh	-9.81933
▁object	-9.81966
▁caxton	-9.82006
▁jeanluc	-9.82006
▁sarah	-9.82006
▁threw	-9.82006
▁utah	-9.82006
▁lassard	-9.82006
▁hollywood	-9.82006
▁philsie	-9.82006
▁piano	-9.82006
▁afford	-9.82007
▁value	-9.82007
▁eric	-9.82007
▁guitar	-9.82007
▁supper	-9.82008
▁grandfather	-9.82008
▁competition	-9.82008
▁hissing	-9.82008
▁memories	-9.8201
▁greetings	-9.8201
▁wherever	-9.82012
▁assignment	-9.82012
▁fever	-9.82012
▁freedom	-9.82013
▁imagination	-9.82015
▁rotten	-9.82017
▁coward	-9.82021
▁dawn	-9.82024
▁meat	-9.82025
▁steady	-9.82028
▁swimming	-9.82043
▁friendship	-9.82061
▁bobby	-9.82064
▁whooping	-9.82068
▁reports	-9.82166
▁sniffing	-9.82175
▁jan	-9.82206
per	-9.82436
▁fate	-9.82472
▁noon	-9.82523
▁ca	-9.8258
▁fairy	-9.82587
▁sniffs	-9.82701
▁faces	-9.82737
▁messed	-9.82836
▁knocking	-9.82842
et	-9.82846
▁di	-9.82853
▁runs	-9.82908
ge	-9.83333
the	-9.83511
▁millions	-9.83576
what	-9.83751
▁maya	-9.83773
▁counting	-9.83881
der	-9.8447
op	-9.84546
▁sacrifice	-9.84662
▁belongs	-9.8484
▁emerald	-9.84874
▁william	-9.84874
▁organ	-9.84876
▁director	-9.84905
▁condition	-9.84915
▁newspaper	-9.84922
▁pee	-9.84924
▁champion	-9.84948
▁baker	-9.84966
▁cloud	-9.84966
▁cr	-9.84982
▁candle	-9.84986
▁issue	-9.84992
▁cousin	-9.85
▁sale	-9.85016
▁buck	-9.85055
▁checked	-9.85128
▁writer	-9.85487
ai	-9.85739
▁score	-9.8576
▁jam	-9.85856
▁gather	-9.85996
▁bless	-9.86092
for	-9.86097
▁sid	-9.86117
▁sa	-9.86283
▁powers	-9.86455
▁concern	-9.86458
like	-9.86503
▁text	-9.86517
▁curse	-9.86542
▁pink	-9.86573
▁obvious	-9.86631
▁rise	-9.86705
▁clemson	-9.86768
▁daxiat	-9.86768
▁distance	-9.86768
▁eclipse	-9.86768
▁honeymoon	-9.86768
▁insurance	-9.86768
▁museum	-9.86768
▁scarecrow	-9.86768
▁scolex	-9.86768
▁theater	-9.86768
▁throne	-9.86768
▁military	-9.86768
▁dilly	-9.86768
▁ingrid	-9.86768
▁mavis	-9.86768
▁uhuh	-9.86768
▁harris	-9.86768
▁whoever	-9.86769
▁humming	-9.8677
▁silence	-9.8677
▁junk	-9.86771
▁ericka	-9.86772
▁fox	-9.86773
▁blah	-9.86773
▁advantage	-9.86774
▁headquarters	-9.86774
▁bags	-9.86776
▁investigation	-9.86778
▁apparently	-9.86778
▁billina	-9.86781
▁define	-9.86782
▁dozen	-9.86784
▁lightning	-9.86784
▁bonnet	-9.86784
▁defense	-9.86801
ian	-9.86811
▁twin	-9.86818
▁johnson	-9.86834
▁hitting	-9.86846
▁rent	-9.86891
▁matters	-9.86979
▁received	-9.86987
▁designed	-9.87048
▁eaten	-9.87108
▁no	-9.87111
▁lower	-9.87125
▁stronger	-9.87181
▁sub	-9.87215
▁belle	-9.87221
▁warning	-9.87413
ier	-9.87511
▁jean	-9.87696
▁tears	-9.87942
▁hatch	-9.87975
▁prom	-9.88127
▁wondered	-9.88204
▁lo	-9.88323
▁followed	-9.88404
▁cooper	-9.88482
▁deadly	-9.88861
▁walked	-9.89029
▁moms	-9.89104
▁rooms	-9.89302
ster	-9.8936
▁trap	-9.8941
▁hon	-9.89455
▁shows	-9.89578
▁sending	-9.89582
▁career	-9.89645
▁what	-9.89804
▁studio	-9.89872
▁tune	-9.89896
▁shoulder	-9.89918
▁cage	-9.89932
▁doll	-9.89946
▁fi	-9.89993
▁alien	-9.90024
▁coin	-9.90095
▁sleeping	-9.90169
▁bone	-9.9022
▁driver	-9.90452
▁who	-9.90476
▁oi	-9.90732
▁ways	-9.90901
head	-9.91226
▁watched	-9.91301
▁hundreds	-9.91302
ley	-9.91315
▁rub	-9.91353
▁witness	-9.91357
▁screw	-9.91418
▁grant	-9.91495
he	-9.91503
▁march	-9.91504
▁stink	-9.91534
▁guarantee	-9.91548
▁helen	-9.91601
▁bringing	-9.91684
▁trail	-9.91687
▁australia	-9.91693
ow	-9.91701
▁confess	-9.91742
▁formula	-9.91766
▁buffalo	-9.91768
▁centipede	-9.91768
▁champagne	-9.91768
▁contract	-9.91768
▁creaking	-9.91768
▁fidgit	-9.91768
▁galaxy	-9.91768
▁larue	-9.91768
▁palace	-9.91768
▁proctor	-9.91768
▁grateful	-9.91769
▁hidden	-9.91769
▁louis	-9.91769
▁extreme	-9.91769
▁guide	-9.91769
▁duke	-9.9177
▁monday	-9.9177
▁medicine	-9.91771
▁trevor	-9.91771
▁gadgetmobile	-9.91771
▁familiar	-9.91774
▁pamela	-9.91774
▁changing	-9.91774
▁ladder	-9.91777
▁destiny	-9.91783
▁jewish	-9.91784
▁vince	-9.91785
▁wore	-9.91788
▁millie	-9.91798
▁lame	-9.91802
▁otto	-9.91805
▁honking	-9.91805
▁confused	-9.91806
▁recently	-9.91814
▁proof	-9.91821
▁exclaiming	-9.91823
▁trapped	-9.91827
▁commissioner	-9.91849
▁according	-9.91866
▁mmmm	-9.9187
▁archy	-9.91911
▁created	-9.91939
▁gale	-9.9194
▁rocks	-9.91968
▁buzzing	-9.91975
▁male	-9.91991
▁pity	-9.92022
▁access	-9.92136
▁raised	-9.92183
▁slowly	-9.92372
▁carefully	-9.92504
▁wishes	-9.92587
▁crossed	-9.92634
▁kit	-9.92979
▁maria	-9.9315
▁leaves	-9.93201
▁appears	-9.93258
▁chas	-9.93416
wee	-9.93526
dramatic	-9.93652
▁numbers	-9.93658
▁v	-9.9369
back	-9.93964
ted	-9.93975
▁fr	-9.94109
▁spare	-9.94216
ay	-9.94377
▁app	-9.94406
▁fans	-9.94439
▁toy	-9.94491
▁image	-9.94497
▁mar	-9.94788
▁goal	-9.94873
▁spit	-9.95128
▁nickel	-9.95147
▁humans	-9.95165
▁helicopter	-9.95179
▁zone	-9.95199
▁priest	-9.9525
▁russian	-9.95253
▁meal	-9.95263
▁ghost	-9.95304
▁disease	-9.95322
j	-9.95339
▁shoe	-9.95358
▁actor	-9.95393
▁records	-9.95468
▁bears	-9.95507
▁babe	-9.95755
▁gifts	-9.95901
▁forces	-9.95908
een	-9.95924
cy	-9.96097
▁suggest	-9.96218
▁design	-9.96245
vi	-9.96316
▁process	-9.96381
▁success	-9.96463
▁nick	-9.96486
▁screen	-9.96561
▁sneak	-9.96568
▁defend	-9.96603
▁wing	-9.96607
▁solve	-9.96833
▁sharp	-9.96838
▁wise	-9.96866
▁vi	-9.96887
▁particular	-9.96888
▁steps	-9.96892
▁mood	-9.96925
▁cure	-9.96964
▁among	-9.97001
▁capture	-9.97018
▁charles	-9.97025
▁nurse	-9.97029
▁benefit	-9.97031
▁bruno	-9.97031
▁california	-9.97031
▁deuteronomy	-9.97031
▁fabulous	-9.97031
▁giggling	-9.97031
▁houston	-9.97031
▁jacob	-9.97031
▁maligore	-9.97031
▁nixon	-9.97031
▁professor	-9.97031
▁ritual	-9.97031
▁saint	-9.97031
▁shelter	-9.97031
▁wryn	-9.97031
▁zaphod	-9.97031
▁cancer	-9.97031
▁muffin	-9.97031
▁lunna	-9.97031
▁squidward	-9.97031
▁behave	-9.97031
▁midnight	-9.97032
▁boggis	-9.97032
▁slave	-9.97033
▁valley	-9.97033
▁happiness	-9.97033
▁motion	-9.97033
▁cabin	-9.97033
▁anytime	-9.97034
▁phil	-9.97035
▁wilson	-9.97035
▁earlier	-9.97035
▁colson	-9.97036
▁jimmy	-9.97037
▁surface	-9.97038
▁edge	-9.97039
▁section	-9.97039
▁dork	-9.9704
▁temple	-9.97042
▁pair	-9.97043
▁crush	-9.97048
▁although	-9.97048
▁easier	-9.97053
ung	-9.97053
▁freddy	-9.97055
▁whyd	-9.97056
▁daisy	-9.97065
▁ahem	-9.97075
▁pure	-9.97077
▁darkness	-9.97096
▁barely	-9.97096
▁be	-9.97097
▁marty	-9.97103
▁fond	-9.97108
▁role	-9.97113
▁goodnight	-9.97126
▁skull	-9.9713
▁roars	-9.97177
▁screwed	-9.97357
▁acres	-9.97365
▁goldilo	-9.97374
▁personally	-9.97377
▁laser	-9.97441
▁wars	-9.97528
▁arrested	-9.97582
▁concentrate	-9.97668
▁andi	-9.97689
▁mis	-9.97818
▁dings	-9.97913
▁county	-9.98029
▁counter	-9.98053
▁lied	-9.98071
▁boom	-9.98108
▁tryin	-9.98113
▁towards	-9.98317
▁reverse	-9.98371
▁coughs	-9.98417
▁au	-9.98485
▁limit	-9.98679
ea	-9.99037
▁touched	-9.99046
▁someones	-9.99241
▁bay	-9.99438
▁pit	-9.99756
ator	-9.99767
away	-10.0003
▁bang	-10.0044
▁disappear	-10.0046
▁pleased	-10.0049
▁photo	-10.0055
▁grandmother	-10.0073
▁bandit	-10.0075
▁und	-10.0079
▁parts	-10.0082
▁scientist	-10.0083
▁deny	-10.0101
▁mortal	-10.0104
▁seal	-10.0117
▁stranger	-10.0118
no	-10.0145
▁ne	-10.0152
que	-10.0166
▁sweat	-10.0177
▁bombs	-10.0187
▁bars	-10.0197
ite	-10.0206
▁scratch	-10.0206
▁rush	-10.0207
▁fetch	-10.021
▁steam	-10.0213
▁invite	-10.0238
▁gen	-10.0249
▁somethin	-10.0256
▁actress	-10.0259
▁arnhem	-10.0259
▁arrival	-10.0259
▁brundish	-10.0259
▁century	-10.0259
▁derek	-10.0259
▁easily	-10.0259
▁expert	-10.0259
▁material	-10.0259
▁principal	-10.0259
▁reputation	-10.0259
▁ruettiger	-10.0259
▁thieves	-10.0259
▁traffic	-10.0259
▁tragedy	-10.0259
▁alais	-10.0259
▁eddie	-10.0259
▁largo	-10.0259
▁period	-10.0259
▁relationship	-10.0259
▁uniform	-10.0259
▁policy	-10.0259
▁division	-10.0259
▁device	-10.0259
▁whenever	-10.0259
▁dashwood	-10.0259
▁miserable	-10.0259
▁rough	-10.0259
▁constantine	-10.0259
▁babies	-10.0259
▁garage	-10.0259
▁weather	-10.0259
▁zero	-10.0259
▁florence	-10.0259
▁delay	-10.0259
▁whistling	-10.0259
▁martian	-10.0259
▁library	-10.0259
▁begun	-10.0259
▁stood	-10.0259
▁churchill	-10.026
▁sunny	-10.026
▁winning	-10.026
▁noble	-10.026
▁copper	-10.0261
▁debt	-10.0261
▁weli	-10.0262
▁pea	-10.0263
▁thatd	-10.0263
▁spies	-10.0263
▁drac	-10.0263
▁complicated	-10.0264
▁merely	-10.0265
▁whatll	-10.0265
▁setting	-10.0268
▁ash	-10.0269
▁sage	-10.0273
▁pond	-10.0274
▁cable	-10.0275
▁boring	-10.0276
▁bury	-10.0276
▁useless	-10.0278
▁golf	-10.0279
▁glasses	-10.028
▁stands	-10.0289
▁rec	-10.029
▁zing	-10.0291
▁concerned	-10.0295
▁chest	-10.0296
▁impressed	-10.0303
▁busted	-10.0309
▁locker	-10.031
▁walls	-10.0315
▁burned	-10.0319
▁packed	-10.032
▁owls	-10.0324
▁recipes	-10.0334
▁pills	-10.0344
▁guts	-10.035
▁minds	-10.0354
▁offered	-10.0355
▁clearly	-10.0359
▁receive	-10.0361
▁gloves	-10.0365
ied	-10.0366
▁answers	-10.0367
▁cooking	-10.0376
▁paulas	-10.0377
▁fields	-10.0393
▁rocky	-10.0393
▁diet	-10.0398
▁riding	-10.0402
▁pre	-10.0403
os	-10.0404
▁sports	-10.0412
boo	-10.042
▁signed	-10.0421
▁stayed	-10.0423
▁sis	-10.0429
▁loyal	-10.0444
▁ski	-10.0483
▁float	-10.0491
▁bon	-10.0495
▁tricks	-10.0503
▁hates	-10.051
fully	-10.0517
▁suck	-10.0526
▁points	-10.0527
▁touching	-10.0552
wa	-10.0576
▁bu	-10.0586
▁dealing	-10.0604
▁jew	-10.0624
ifl	-10.0628
▁appear	-10.0641
▁concert	-10.0657
▁instrument	-10.0661
▁subject	-10.0664
▁miracle	-10.0666
▁gorilla	-10.0666
▁dragon	-10.0673
▁soldier	-10.0673
▁vampire	-10.0674
▁sometime	-10.0677
▁parent	-10.0677
▁shine	-10.0678
ha	-10.0684
ney	-10.0697
▁chances	-10.0698
▁del	-10.0706
▁va	-10.0707
▁sits	-10.0707
▁ming	-10.0731
▁painting	-10.0739
▁bastards	-10.0742
ac	-10.075
▁secrets	-10.076
▁breaks	-10.0762
▁ge	-10.0767
▁monkeys	-10.0772
▁steer	-10.0798
ir	-10.0799
▁impress	-10.081
▁insist	-10.0815
▁convince	-10.0826
▁separate	-10.0831
▁desperate	-10.0833
▁terribl	-10.0834
▁border	-10.0847
▁aylwood	-10.0847
▁celia	-10.0847
▁cortez	-10.0847
▁council	-10.0847
▁desire	-10.0847
▁enemies	-10.0847
▁false	-10.0847
▁florida	-10.0847
▁illegal	-10.0847
▁including	-10.0847
▁ireland	-10.0847
▁italian	-10.0847
▁libby	-10.0847
▁lizzie	-10.0847
▁mistoffelees	-10.0847
▁nerak	-10.0847
▁offense	-10.0847
▁olaf	-10.0847
▁plastic	-10.0847
▁poseidon	-10.0847
▁possum	-10.0847
▁regular	-10.0847
▁rehearse	-10.0847
▁represent	-10.0847
▁semester	-10.0847
▁senior	-10.0847
▁society	-10.0847
▁twelve	-10.0847
▁whirring	-10.0847
▁attitude	-10.0847
▁nanny	-10.0847
▁raymond	-10.0847
▁central	-10.0847
▁hisses	-10.0847
▁trigger	-10.0847
▁tyler	-10.0847
▁adorable	-10.0847
▁accent	-10.0847
▁chubby	-10.0847
▁generous	-10.0847
▁ohara	-10.0847
▁ouch	-10.0847
▁chapel	-10.0847
▁quest	-10.0847
▁plain	-10.0847
▁claude	-10.0848
▁mummy	-10.0848
▁failure	-10.0848
▁electronic	-10.0848
▁journalist	-10.0848
▁chairman	-10.0849
▁available	-10.0849
▁sheet	-10.0849
▁savage	-10.0849
▁therell	-10.0849
▁academy	-10.085
▁aside	-10.085
▁fifth	-10.085
▁toto	-10.085
▁moron	-10.0851
▁responsibility	-10.0851
▁brat	-10.0851
▁artist	-10.0851
▁practically	-10.0853
▁blaring	-10.0853
▁unfortunately	-10.0854
▁flash	-10.0854
om	-10.0856
▁guilty	-10.0856
▁screeching	-10.0856
▁fuss	-10.0857
▁dean	-10.0857
▁clicking	-10.0859
▁spoken	-10.0859
▁squealing	-10.0861
▁can	-10.0863
▁honks	-10.0863
▁knowledge	-10.0864
▁seth	-10.0872
▁snarling	-10.0874
▁louder	-10.0875
hh	-10.0877
▁huddle	-10.0879
▁kindness	-10.0882
▁attend	-10.0888
▁tied	-10.0901
▁bump	-10.0906
▁entirely	-10.0909
▁rap	-10.0909
▁led	-10.092
▁unit	-10.0936
▁parking	-10.097
▁beeps	-10.098
▁drinks	-10.0991
▁attacked	-10.0993
▁fore	-10.0995
▁weapons	-10.1002
▁selling	-10.102
your	-10.1038
▁strangers	-10.1039
ped	-10.1051
▁enjoying	-10.1054
bo	-10.1055
▁com	-10.1059
▁me	-10.1062
▁bones	-10.1063
▁writers	-10.1073
▁waited	-10.1096
▁caused	-10.1098
▁buying	-10.1113
▁fur	-10.1127
▁pot	-10.1137
▁hay	-10.1153
▁landing	-10.1164
▁inter	-10.1175
▁cows	-10.1197
▁aha	-10.1248
▁chain	-10.1258
▁paying	-10.1275
▁ad	-10.1278
▁deck	-10.1288
▁shadow	-10.1288
▁banana	-10.1289
▁penguin	-10.1289
▁snail	-10.1292
▁carol	-10.1294
▁adult	-10.1294
▁nightmare	-10.1295
▁servant	-10.1295
ant	-10.1295
▁sport	-10.13
lin	-10.13
▁nation	-10.1313
pa	-10.1314
▁thin	-10.132
▁tale	-10.1361
beat	-10.1375
▁es	-10.1377
my	-10.1422
▁avoid	-10.1423
▁whee	-10.1435
down	-10.1437
▁develop	-10.1438
▁request	-10.144
▁talent	-10.1441
▁swallow	-10.1442
phone	-10.1443
▁port	-10.1447
▁require	-10.145
▁outfit	-10.1451
▁create	-10.1451
▁bess	-10.1454
▁shin	-10.1455
▁brand	-10.1458
▁rare	-10.146
▁sandwich	-10.1465
▁occasion	-10.1465
▁balls	-10.1471
▁liar	-10.1471
▁aquitaine	-10.1472
▁attorney	-10.1472
▁enormous	-10.1472
▁families	-10.1472
▁farewell	-10.1472
▁frankenstein	-10.1472
▁nashville	-10.1472
▁permission	-10.1472
▁rudolph	-10.1472
▁smiling	-10.1472
▁splendid	-10.1472
▁stream	-10.1472
▁thursday	-10.1472
▁unusual	-10.1472
▁welker	-10.1472
▁clayton	-10.1472
▁scholarship	-10.1472
▁chicago	-10.1472
▁reverend	-10.1472
▁chaos	-10.1472
▁klaus	-10.1472
▁studie	-10.1472
▁elliot	-10.1472
▁gray	-10.1472
▁urgent	-10.1472
▁kitka	-10.1472
▁attractive	-10.1472
▁construction	-10.1472
▁nuclear	-10.1473
▁temporary	-10.1473
▁mechanic	-10.1473
▁title	-10.1473
▁alice	-10.1473
▁madison	-10.1473
▁fence	-10.1473
▁retreat	-10.1473
▁operator	-10.1473
▁rifle	-10.1474
▁boil	-10.1474
▁package	-10.1475
▁announcement	-10.1475
▁orange	-10.1475
▁amount	-10.1475
▁winter	-10.1477
▁aii	-10.1477
▁impression	-10.1477
▁riddler	-10.1477
▁cellar	-10.1478
▁stopping	-10.1479
▁diego	-10.1482
▁tolly	-10.1484
▁billion	-10.1484
▁jay	-10.1486
▁bleeding	-10.1487
▁celebrate	-10.1488
▁poop	-10.149
▁lois	-10.149
▁sighing	-10.149
▁rear	-10.1491
▁prey	-10.1498
▁victoria	-10.1512
ssey	-10.1515
▁wayne	-10.1518
▁pickles	-10.1521
red	-10.1522
▁clicks	-10.1523
▁loaded	-10.1525
▁jewels	-10.1532
▁lips	-10.1537
▁breakin	-10.154
▁wha	-10.1571
▁praying	-10.1573
ily	-10.1589
▁elm	-10.1596
▁yay	-10.1607
▁tape	-10.161
▁br	-10.1623
▁hunting	-10.1623
just	-10.1626
ner	-10.163
▁loss	-10.1632
▁marine	-10.1632
▁trained	-10.1633
▁chi	-10.1642
▁singer	-10.1643
▁banks	-10.1654
▁fully	-10.1676
▁ye	-10.1685
▁drivers	-10.1701
▁speaker	-10.1713
dy	-10.1713
▁ver	-10.1716
▁des	-10.1731
▁pen	-10.174
our	-10.1762
▁plants	-10.1783
ash	-10.18
▁learning	-10.1802
▁beats	-10.1806
ran	-10.181
▁disguise	-10.1818
▁the	-10.1832
▁drinking	-10.1843
▁dreaming	-10.1855
▁ahhh	-10.1866
▁zip	-10.1893
un	-10.19
▁meow	-10.1905
▁shift	-10.1917
ns	-10.1917
▁flood	-10.1917
▁cough	-10.1923
▁yell	-10.1932
▁swarm	-10.1948
▁blade	-10.1949
▁pancake	-10.1953
▁demand	-10.1954
▁nerve	-10.196
▁guards	-10.1962
▁snake	-10.1963
▁weapon	-10.1965
▁muppet	-10.1966
▁grade	-10.1967
▁demon	-10.1969
umble	-10.1977
▁fella	-10.1998
▁believed	-10.2016
▁ending	-10.2034
▁stones	-10.2036
▁novel	-10.2037
▁tin	-10.2043
▁collect	-10.2048
und	-10.2053
▁mat	-10.2058
ka	-10.206
▁drown	-10.2063
▁heal	-10.2071
▁speaks	-10.2082
ship	-10.2082
▁rook	-10.2095
▁gain	-10.2096
▁thick	-10.2108
▁gal	-10.2116
▁remove	-10.2117
▁recognize	-10.2117
▁dirt	-10.2117
▁divorce	-10.2117
▁sex	-10.2121
▁assume	-10.2123
uck	-10.2123
▁official	-10.2125
▁exact	-10.2125
▁actual	-10.2126
▁griff	-10.2132
▁chose	-10.2132
day	-10.2133
▁gregor	-10.2133
▁earn	-10.2134
▁effect	-10.2137
▁specific	-10.2138
▁activity	-10.2139
▁airborne	-10.2139
▁ancient	-10.2139
▁bernie	-10.2139
▁citizen	-10.2139
▁combat	-10.2139
▁convention	-10.2139
▁destruction	-10.2139
▁devereaux	-10.2139
▁draft	-10.2139
▁episode	-10.2139
▁excalibur	-10.2139
▁fitzhume	-10.2139
▁footsteps	-10.2139
▁gardner	-10.2139
▁international	-10.2139
▁jenny	-10.2139
▁jolly	-10.2139
▁jonathan	-10.2139
▁kansas	-10.2139
▁kaycee	-10.2139
▁lorraine	-10.2139
▁magrathea	-10.2139
▁ordinary	-10.2139
▁parrish	-10.2139
▁proceed	-10.2139
▁purple	-10.2139
▁routine	-10.2139
▁shaft	-10.2139
▁smooth	-10.2139
▁sukarno	-10.2139
▁thirty	-10.2139
▁tinkles	-10.2139
▁triangle	-10.2139
▁valuable	-10.2139
▁video	-10.2139
▁volunteer	-10.2139
▁winifred	-10.2139
▁dardis	-10.2139
▁eerie	-10.2139
▁governor	-10.2139
▁channing	-10.2139
▁rodrick	-10.2139
▁chipettes	-10.2139
▁cramp	-10.2139
▁severine	-10.2139
▁chinese	-10.2139
▁bradford	-10.2139
▁joking	-10.2139
▁navy	-10.2139
▁grass	-10.2139
▁neighborhood	-10.2139
▁hayden	-10.2139
▁dominic	-10.2139
▁cia	-10.2139
▁blew	-10.2139
▁salmon	-10.2139
▁stans	-10.2139
▁pansy	-10.2139
▁slipped	-10.2139
▁hue	-10.2139
▁railway	-10.2139
▁brick	-10.2139
▁gower	-10.2139
▁slept	-10.2139
▁punishment	-10.2139
▁watergate	-10.214
▁logan	-10.214
▁lemon	-10.214
▁neat	-10.214
▁impressive	-10.214
▁plot	-10.214
▁quarterback	-10.214
▁shane	-10.214
▁diary	-10.214
▁sentence	-10.214
▁abby	-10.2141
▁geez	-10.2141
▁flesh	-10.2141
▁karate	-10.2141
▁taxi	-10.2141
▁glow	-10.2141
▁kaye	-10.2142
▁hustle	-10.2142
▁peterson	-10.2142
▁potion	-10.2143
▁drill	-10.2143
▁inga	-10.2143
▁sack	-10.2143
▁creation	-10.2144
▁fruit	-10.2144
▁sacred	-10.2146
▁arab	-10.2148
▁protection	-10.2148
▁woke	-10.2148
▁mid	-10.2152
▁sally	-10.2153
▁haha	-10.2154
▁lend	-10.2158
▁chopper	-10.2159
▁bror	-10.2164
▁embarrassing	-10.2164
▁tickle	-10.2164
▁hearts	-10.2165
▁parties	-10.2166
▁heroes	-10.2168
▁los	-10.2168
▁remembered	-10.217
▁fee	-10.2172
▁germany	-10.2172
▁latest	-10.218
▁pops	-10.2197
▁oops	-10.2199
▁damage	-10.2206
▁as	-10.2208
▁rams	-10.2214
▁martini	-10.2218
▁arch	-10.2225
ld	-10.2229
▁realm	-10.2229
▁toes	-10.223
▁belly	-10.2236
▁makeup	-10.2241
▁schools	-10.226
▁farmers	-10.2265
na	-10.2271
▁sec	-10.2271
▁tend	-10.2279
▁stealing	-10.2282
▁fooled	-10.2288
ize	-10.2315
▁grades	-10.2316
▁whas	-10.2327
▁dressing	-10.2333
▁jews	-10.2342
▁mars	-10.236
ym	-10.238
▁unh	-10.2385
king	-10.2387
▁passing	-10.2393
▁criminals	-10.2403
▁colors	-10.2403
▁gin	-10.2411
▁agents	-10.244
▁diamonds	-10.2452
les	-10.2484
ste	-10.2486
aw	-10.2553
▁moments	-10.2571
▁hoped	-10.2589
ou	-10.2606
▁confirm	-10.262
▁costs	-10.2635
▁grunt	-10.2643
▁arrive	-10.2646
▁spin	-10.2646
▁hop	-10.2648
▁equal	-10.2656
▁mirror	-10.2662
ons	-10.2664
▁coconut	-10.2667
▁collection	-10.2669
▁maid	-10.2674
▁option	-10.2674
▁communist	-10.2675
▁chair	-10.2675
▁toward	-10.268
line	-10.2687
▁tank	-10.2689
▁idiots	-10.2701
▁ruff	-10.2716
▁mountains	-10.2751
ass	-10.2757
▁hearing	-10.2775
▁shock	-10.2776
▁flush	-10.2789
▁souls	-10.2789
▁tear	-10.2797
▁squeak	-10.2798
ify	-10.2798
▁rogers	-10.2803
▁approach	-10.2803
▁goody	-10.2806
▁swing	-10.2822
▁lack	-10.2825
board	-10.2827
▁wipe	-10.2834
two	-10.2835
▁faint	-10.2837
boy	-10.284
▁purse	-10.2845
ions	-10.2845
▁reelect	-10.285
▁inform	-10.2852
▁resist	-10.2852
▁jokes	-10.2853
▁apologies	-10.2853
▁april	-10.2853
▁ashamed	-10.2853
▁auction	-10.2853
▁beloved	-10.2853
▁circumstances	-10.2853
▁concierge	-10.2853
▁congress	-10.2853
▁dahlberg	-10.2853
▁downstairs	-10.2853
▁elephant	-10.2853
▁eternal	-10.2853
▁eventually	-10.2853
▁fronkonsteen	-10.2853
▁jungle	-10.2853
▁lasalles	-10.2853
▁marvin	-10.2853
▁ornament	-10.2853
▁pleasant	-10.2853
▁quality	-10.2853
▁quentin	-10.2853
▁revenge	-10.2853
▁shrimp	-10.2853
▁someplace	-10.2853
▁strict	-10.2853
▁tricia	-10.2853
▁wisdom	-10.2853
▁lamb	-10.2853
▁oldknow	-10.2853
▁divatox	-10.2853
▁gently	-10.2853
▁apology	-10.2853
▁brooks	-10.2853
▁silver	-10.2853
▁surgery	-10.2853
▁glory	-10.2853
▁distant	-10.2853
▁utter	-10.2853
▁lucas	-10.2853
▁nonnie	-10.2853
▁jailbreak	-10.2853
▁denied	-10.2853
▁greek	-10.2853
▁invisible	-10.2853
▁maax	-10.2853
▁damian	-10.2853
▁turkey	-10.2853
▁munch	-10.2853
▁heather	-10.2853
▁jury	-10.2853
▁feast	-10.2854
▁rhino	-10.2854
▁laundry	-10.2854
▁conference	-10.2854
▁location	-10.2854
▁understood	-10.2854
▁doorbell	-10.2854
▁hahaha	-10.2854
▁loch	-10.2855
▁gear	-10.2855
▁sandra	-10.2856
▁anger	-10.2856
▁bodies	-10.2856
▁hitler	-10.2856
▁litter	-10.2856
▁medal	-10.2856
▁dining	-10.2856
▁exhausted	-10.2856
▁greedy	-10.2857
▁motor	-10.2858
▁halt	-10.2858
light	-10.2858
▁howling	-10.2858
▁trial	-10.2858
▁grandson	-10.2858
▁smith	-10.2858
▁morgana	-10.2859
▁relieved	-10.286
▁chosen	-10.286
▁cheap	-10.286
▁producer	-10.286
▁facility	-10.2861
▁modern	-10.2861
▁homework	-10.2862
▁fifty	-10.2863
▁amen	-10.2867
▁highway	-10.2867
▁jane	-10.2868
▁legal	-10.2869
▁shrieks	-10.2873
▁yaya	-10.2874
▁mixed	-10.2875
▁dudes	-10.2877
▁creepy	-10.2884
▁yee	-10.289
▁porter	-10.2895
▁madame	-10.2896
▁bush	-10.2898
▁drowning	-10.2899
▁goat	-10.2899
▁pitch	-10.2909
▁lawn	-10.2916
▁athlete	-10.2916
▁subtitle	-10.2921
▁warriors	-10.2925
tan	-10.2929
▁finest	-10.2949
▁teams	-10.2952
▁kim	-10.2968
▁climbing	-10.2972
▁warned	-10.2977
▁armed	-10.2978
▁nd	-10.2999
▁woo	-10.3009
▁kissed	-10.302
▁joined	-10.302
▁auntie	-10.3039
▁elms	-10.3053
▁nails	-10.3055
▁units	-10.3069
▁soldiers	-10.3071
▁cleaner	-10.3114
we	-10.3123
▁landed	-10.3137
▁plates	-10.3137
▁lessons	-10.3139
▁po	-10.3149
▁fishing	-10.3152
▁staring	-10.319
▁knights	-10.3204
hoo	-10.3205
▁par	-10.3206
▁reporters	-10.3218
▁ju	-10.3227
▁stretch	-10.3236
ona	-10.3245
▁bull	-10.325
▁fails	-10.3256
▁site	-10.3263
▁ignore	-10.329
▁y	-10.3324
▁under	-10.3326
▁easter	-10.337
▁disco	-10.3377
▁holes	-10.3381
▁pump	-10.3382
▁claim	-10.3393
▁depend	-10.3397
▁teachers	-10.3406
▁suspect	-10.3411
▁shout	-10.3414
▁shark	-10.342
▁pulling	-10.3421
▁og	-10.3428
▁individual	-10.3431
▁malfunction	-10.3431
▁owner	-10.3436
▁result	-10.3439
▁ships	-10.3439
▁detective	-10.344
▁claw	-10.344
▁neighbour	-10.3444
▁magazine	-10.3445
▁thumb	-10.3445
▁mammoth	-10.3446
▁for	-10.3476
▁photograph	-10.348
ence	-10.3496
▁ax	-10.3515
ery	-10.3533
▁mans	-10.3535
▁messages	-10.3541
▁interrupt	-10.3543
▁victor	-10.3553
da	-10.3562
▁hills	-10.3568
▁beep	-10.3569
▁escort	-10.3573
▁insult	-10.3573
end	-10.3574
▁smash	-10.3575
▁admire	-10.3578
▁repair	-10.3588
▁spoil	-10.359
▁intend	-10.359
▁charm	-10.3592
▁piss	-10.3596
lic	-10.3596
box	-10.3598
class	-10.3601
▁secure	-10.3602
▁heavi	-10.3604
▁chick	-10.3607
▁instant	-10.3607
▁brad	-10.3609
low	-10.3611
▁steve	-10.3615
▁threat	-10.3618
▁mornin	-10.3619
▁gentle	-10.362
▁mmhm	-10.362
▁bert	-10.362
▁cove	-10.362
▁stunt	-10.3621
▁iris	-10.3621
▁atlantic	-10.3622
▁average	-10.3622
▁braxton	-10.3622
▁coincidence	-10.3622
▁democrat	-10.3622
▁deputy	-10.3622
▁earthquake	-10.3622
▁explanation	-10.3622
▁extraordinary	-10.3622
▁fashion	-10.3622
▁fischer	-10.3622
▁gorgeous	-10.3622
▁hardborough	-10.3622
▁monitor	-10.3622
▁monsieur	-10.3622
▁mowbray	-10.3622
▁orleans	-10.3622
▁prevent	-10.3622
▁rockefeller	-10.3622
▁satellite	-10.3622
▁slaghoople	-10.3622
▁succeed	-10.3622
▁sunshine	-10.3622
▁deaf	-10.3622
▁granger	-10.3622
▁chancellor	-10.3622
▁commodore	-10.3622
▁prickl	-10.3622
▁schnitzel	-10.3622
▁select	-10.3622
▁worid	-10.3622
▁superior	-10.3622
▁slide	-10.3622
▁patience	-10.3622
▁disaster	-10.3622
▁liddy	-10.3622
▁cannonball	-10.3622
▁flew	-10.3622
▁sunset	-10.3622
▁bacon	-10.3622
▁cowgirl	-10.3622
▁intruder	-10.3622
▁pillow	-10.3622
▁conclusion	-10.3622
▁maintain	-10.3622
▁chapter	-10.3623
▁judy	-10.3623
▁arena	-10.3623
▁championship	-10.3623
▁honour	-10.3623
▁scale	-10.3623
▁scum	-10.3623
▁association	-10.3623
▁towel	-10.3623
▁identity	-10.3623
▁ginger	-10.3623
▁comrade	-10.3623
▁doberman	-10.3623
▁daily	-10.3623
▁beings	-10.3623
▁mu	-10.3623
▁whoohoo	-10.3623
▁tide	-10.3623
▁trace	-10.3623
▁attic	-10.3623
▁dutch	-10.3624
▁hum	-10.3624
▁lazy	-10.3624
▁mmmmmm	-10.3624
▁justin	-10.3624
▁political	-10.3624
▁spaceship	-10.3624
▁pride	-10.3624
▁performance	-10.3624
▁dice	-10.3624
▁dummy	-10.3625
▁pathetic	-10.3625
▁responsible	-10.3625
▁drake	-10.3625
▁polite	-10.3625
▁selfish	-10.3625
▁spain	-10.3625
▁education	-10.3625
▁wallet	-10.3625
▁treatment	-10.3626
▁nome	-10.3627
▁wrap	-10.3627
▁cave	-10.3628
▁june	-10.3628
▁slater	-10.3628
▁bail	-10.3629
▁greet	-10.3629
▁statement	-10.363
▁vision	-10.363
▁exit	-10.363
▁classical	-10.363
▁version	-10.3631
▁tod	-10.3631
▁oss	-10.3631
▁aww	-10.3632
▁ability	-10.3632
▁beef	-10.3632
▁hollow	-10.3632
ations	-10.3632
▁brief	-10.3633
▁chitter	-10.3637
▁haunted	-10.3638
▁rip	-10.3641
▁badge	-10.3642
▁iii	-10.3642
▁thee	-10.3644
ot	-10.3647
▁syne	-10.3648
▁convinced	-10.365
▁hail	-10.3652
▁joint	-10.3656
▁beam	-10.3657
▁blown	-10.3659
▁lang	-10.3659
▁puts	-10.3668
▁dock	-10.367
▁classes	-10.3672
▁normally	-10.3674
▁sweater	-10.3676
▁floating	-10.3678
ible	-10.3686
▁siren	-10.3689
▁ape	-10.3692
▁thoughts	-10.3694
▁successful	-10.3699
▁cents	-10.37
▁burglars	-10.3701
▁deeper	-10.3701
▁freaking	-10.3711
▁thinkin	-10.3727
▁terms	-10.3729
▁traveling	-10.373
▁mentioned	-10.3736
▁studying	-10.3741
▁drugs	-10.3758
of	-10.3762
▁kings	-10.3764
▁puzzle	-10.3769
bout	-10.377
▁knees	-10.3772
▁fools	-10.3773
▁depends	-10.3801
▁testing	-10.3828
▁snakes	-10.3829
▁boarding	-10.3838
bs	-10.384
mer	-10.385
▁liver	-10.3871
▁intern	-10.3881
▁comet	-10.39
▁rhythmic	-10.3917
▁ri	-10.3918
▁ap	-10.3919
▁squeeze	-10.3921
ther	-10.3932
▁lover	-10.3937
ol	-10.3943
ni	-10.3954
▁dan	-10.3967
▁sal	-10.399
ast	-10.4023
▁bl	-10.4027
ern	-10.4034
▁cor	-10.4038
▁drum	-10.4072
▁badly	-10.4072
opher	-10.4088
▁dime	-10.4088
▁wal	-10.4095
▁ze	-10.4096
ial	-10.4101
▁yards	-10.4104
▁victim	-10.4107
▁ra	-10.4112
ight	-10.4121
nk	-10.4122
▁wonders	-10.4126
▁whistles	-10.4134
▁drama	-10.4139
▁menu	-10.4145
ze	-10.4161
▁permit	-10.4169
▁positions	-10.4177
▁cheer	-10.4259
▁firing	-10.4265
▁patient	-10.4269
▁vest	-10.4271
▁emoji	-10.4274
▁pirate	-10.4274
▁explosion	-10.4278
▁adam	-10.4278
▁krab	-10.428
▁pipe	-10.4282
ward	-10.4296
well	-10.4296
▁paula	-10.4308
▁duh	-10.4317
▁yii	-10.4324
▁ke	-10.4345
▁rate	-10.4352
▁que	-10.4373
▁dancer	-10.4405
▁experiment	-10.4407
▁moles	-10.4411
▁herr	-10.4416
▁roast	-10.442
▁tick	-10.4423
▁cheat	-10.4426
▁ali	-10.4429
▁choke	-10.4432
worm	-10.4433
put	-10.4434
town	-10.4436
▁jet	-10.4436
▁psycho	-10.4437
right	-10.4437
▁nest	-10.4438
ating	-10.444
▁salt	-10.4443
▁dive	-10.4449
▁mall	-10.4449
▁rome	-10.4451
ism	-10.4455
▁favour	-10.4455
▁arnold	-10.4455
▁becky	-10.4455
▁beneath	-10.4455
▁bertram	-10.4455
▁brittany	-10.4455
▁cavanaugh	-10.4455
▁clown	-10.4455
▁curfew	-10.4455
▁custody	-10.4455
▁disgrace	-10.4455
▁eberhardt	-10.4455
▁emmett	-10.4455
▁entrance	-10.4455
▁fraser	-10.4455
▁frederick	-10.4455
▁gracie	-10.4455
▁instance	-10.4455
▁jakarta	-10.4455
▁jeanloup	-10.4455
▁lemur	-10.4455
▁mcashton	-10.4455
▁melody	-10.4455
▁nelson	-10.4455
▁plague	-10.4455
▁puberty	-10.4455
▁scotland	-10.4455
▁sikes	-10.4455
▁sobbing	-10.4455
▁staff	-10.4455
▁suicide	-10.4455
▁sydney	-10.4455
▁therefore	-10.4455
▁thompson	-10.4455
▁tintagel	-10.4455
▁tuesday	-10.4455
▁university	-10.4455
▁increase	-10.4455
▁legacy	-10.4455
▁seattle	-10.4455
▁yacht	-10.4455
▁cattle	-10.4455
▁cinderella	-10.4455
▁chamber	-10.4455
▁grasshopper	-10.4455
▁rude	-10.4455
▁lisp	-10.4455
▁baroness	-10.4455
▁trading	-10.4455
▁mombi	-10.4455
▁texas	-10.4456
▁finance	-10.4456
▁garlic	-10.4456
▁region	-10.4456
▁tugger	-10.4456
▁martha	-10.4456
▁closing	-10.4456
▁slight	-10.4456
▁basically	-10.4456
▁beatrice	-10.4456
▁kennedy	-10.4456
▁outstanding	-10.4456
▁demonstration	-10.4456
▁slipping	-10.4456
▁viru	-10.4456
▁rail	-10.4456
▁poetry	-10.4456
▁authority	-10.4456
▁shortcut	-10.4456
▁cherry	-10.4456
▁quack	-10.4456
▁habitat	-10.4456
▁youth	-10.4456
▁milton	-10.4456
▁estate	-10.4456
▁expensive	-10.4456
▁shore	-10.4457
▁capable	-10.4457
▁centre	-10.4457
▁bedford	-10.4457
▁dropping	-10.4457
▁hostage	-10.4457
▁display	-10.4457
▁kitten	-10.4457
▁development	-10.4457
▁mask	-10.4458
▁limo	-10.4458
▁dating	-10.4459
▁dunne	-10.446
▁yearold	-10.446
▁sector	-10.446
▁decent	-10.446
▁lucy	-10.446
▁forty	-10.4461
▁laid	-10.4461
▁award	-10.4461
▁jelly	-10.4461
▁robbery	-10.4461
▁chad	-10.4462
▁freshman	-10.4462
▁physical	-10.4462
▁buckle	-10.4462
▁dega	-10.4463
▁griffin	-10.4464
▁background	-10.4464
▁senat	-10.4466
▁wounded	-10.4468
▁shaking	-10.4468
▁reasons	-10.4469
▁campus	-10.4469
▁soviet	-10.447
▁bound	-10.447
▁julien	-10.447
▁replaced	-10.4471
▁discussion	-10.4472
▁kate	-10.4472
▁dana	-10.4473
▁sat	-10.4473
▁hash	-10.4473
▁plum	-10.4478
▁cube	-10.4479
▁fallen	-10.4479
▁instructions	-10.4479
▁highness	-10.4479
▁sexy	-10.448
▁backyard	-10.448
▁gregory	-10.4482
▁af	-10.4485
▁host	-10.4485
▁leads	-10.4488
▁observe	-10.4489
▁cackles	-10.4494
▁pm	-10.4496
▁doo	-10.4497
ima	-10.4502
▁shy	-10.4505
▁approaching	-10.4506
▁rank	-10.4511
▁lifetime	-10.4511
▁meowing	-10.4511
▁healthy	-10.4511
▁musician	-10.4511
▁vern	-10.4514
▁highest	-10.4517
▁smarter	-10.4519
▁mick	-10.452
▁mon	-10.4523
▁stairs	-10.4525
▁sincere	-10.4528
zy	-10.453
▁involve	-10.4532
▁murdered	-10.4534
▁painted	-10.4536
▁barks	-10.4539
▁considered	-10.4543
▁fe	-10.4544
ill	-10.4548
▁prayed	-10.4556
▁tropic	-10.4565
some	-10.4567
ring	-10.4567
▁bowling	-10.4569
▁arrangements	-10.4572
▁mc	-10.4582
▁frankly	-10.4584
▁bum	-10.4584
▁tag	-10.4585
▁rot	-10.4595
▁workers	-10.4602
va	-10.4609
▁raining	-10.461
ez	-10.4613
▁bothering	-10.4619
▁reported	-10.4621
▁krabs	-10.4634
▁filling	-10.4645
ball	-10.4646
▁suspects	-10.4651
▁backup	-10.4665
▁tanks	-10.4666
▁engines	-10.4668
▁grounded	-10.4674
▁ducky	-10.4676
▁leading	-10.4683
▁returned	-10.4695
▁tapes	-10.4703
pp	-10.4705
▁fl	-10.4707
▁joining	-10.4728
▁fo	-10.4736
▁closet	-10.4744
▁actors	-10.4746
ny	-10.4749
jo	-10.475
rr	-10.4773
▁beasts	-10.4792
anx	-10.4808
▁currents	-10.4823
ois	-10.4828
ina	-10.483
▁sources	-10.484
▁ai	-10.4842
▁showing	-10.4855
▁prim	-10.491
▁bats	-10.4929
▁understanding	-10.4931
▁gu	-10.4932
▁lit	-10.4934
▁wears	-10.4938
ap	-10.4938
if	-10.4955
▁poe	-10.4976
▁torture	-10.4987
▁skipp	-10.5004
hi	-10.5009
▁fran	-10.5014
▁sn	-10.5015
▁til	-10.5027
sk	-10.505
▁fighter	-10.507
▁var	-10.5075
▁maker	-10.5076
spiker	-10.508
▁li	-10.51
▁provide	-10.5154
▁stake	-10.5161
▁pi	-10.5165
▁knee	-10.5168
▁article	-10.5173
▁autograph	-10.5173
▁holiday	-10.5173
▁nephew	-10.5173
▁submarine	-10.5178
▁rehearsal	-10.5183
▁vehicle	-10.5183
▁flintstone	-10.5183
▁sock	-10.5184
▁orphan	-10.5186
▁tunnel	-10.5188
▁mal	-10.5189
▁glove	-10.5192
▁customer	-10.5196
▁chuckle	-10.5199
▁commit	-10.5201
ms	-10.5206
fer	-10.5211
▁worm	-10.5211
▁planes	-10.5211
▁yup	-10.5237
▁hunter	-10.5237
▁down	-10.5238
▁ton	-10.5246
use	-10.525
▁finals	-10.5273
ach	-10.5274
▁hells	-10.5274
▁cre	-10.5276
▁wins	-10.5277
▁chew	-10.5284
qu	-10.5292
▁shove	-10.5316
▁regard	-10.5321
▁dash	-10.5321
▁snarl	-10.5322
▁betray	-10.5324
itates	-10.5329
school	-10.5343
▁wander	-10.5344
▁kat	-10.5349
▁recommend	-10.5351
▁acts	-10.5355
▁treasure	-10.5356
▁weigh	-10.5357
▁brush	-10.5357
▁radi	-10.5358
▁mega	-10.5359
▁descend	-10.5359
looking	-10.5363
▁makin	-10.5363
▁cliff	-10.5364
▁drag	-10.5364
▁occur	-10.5364
▁scientific	-10.5364
hearted	-10.5364
▁absurd	-10.5364
▁arguing	-10.5364
▁broadcast	-10.5364
▁carriage	-10.5364
▁casino	-10.5364
▁commercial	-10.5364
▁confidence	-10.5364
▁confusion	-10.5364
▁curtis	-10.5364
▁delamere	-10.5364
▁dinosaurs	-10.5364
▁empire	-10.5364
▁exercise	-10.5364
▁exploding	-10.5364
▁explosive	-10.5364
▁gazoo	-10.5364
▁genuine	-10.5364
▁gremlin	-10.5364
▁injured	-10.5364
▁isaac	-10.5364
▁kelmot	-10.5364
▁librarian	-10.5364
▁luggage	-10.5364
▁muffled	-10.5364
▁necklace	-10.5364
▁oclock	-10.5364
▁odile	-10.5364
▁opponent	-10.5364
▁preacher	-10.5364
▁puckett	-10.5364
▁resort	-10.5364
▁response	-10.5364
▁schooi	-10.5364
▁segretti	-10.5364
▁sequel	-10.5364
▁sequence	-10.5364
▁stammers	-10.5364
▁stepmother	-10.5364
▁strutter	-10.5364
▁supplies	-10.5364
▁supply	-10.5364
▁terrified	-10.5364
▁transport	-10.5364
▁undead	-10.5364
▁underneath	-10.5364
▁violin	-10.5364
▁vogel	-10.5364
▁wegman	-10.5364
▁whew	-10.5364
▁widow	-10.5364
▁carried	-10.5365
▁lenny	-10.5365
▁presence	-10.5365
▁propose	-10.5365
▁radar	-10.5365
▁technology	-10.5365
▁channel	-10.5365
▁racing	-10.5365
▁worries	-10.5365
▁italy	-10.5365
▁breadfruit	-10.5365
▁wolves	-10.5365
▁geoffrey	-10.5365
▁balloon	-10.5365
▁moans	-10.5365
▁sweep	-10.5365
▁werewolf	-10.5365
▁adopt	-10.5365
▁funeral	-10.5365
▁basket	-10.5365
▁glue	-10.5365
▁illusion	-10.5365
▁paradise	-10.5365
▁authorities	-10.5365
▁kidnapping	-10.5365
▁infantry	-10.5365
▁behold	-10.5365
▁burden	-10.5365
▁pilot	-10.5365
▁unique	-10.5365
▁wah	-10.5365
▁chimney	-10.5365
▁invitation	-10.5365
▁krim	-10.5365
▁basketball	-10.5365
▁dedicate	-10.5365
▁balance	-10.5365
▁digging	-10.5365
▁diane	-10.5365
▁winston	-10.5365
▁birth	-10.5365
▁delightful	-10.5365
▁asshole	-10.5365
▁ease	-10.5365
▁paperwork	-10.5366
▁harvest	-10.5366
▁garth	-10.5366
▁stove	-10.5366
▁personnel	-10.5366
▁measure	-10.5366
▁gunshot	-10.5366
▁wives	-10.5366
▁chef	-10.5366
▁reflection	-10.5366
▁subway	-10.5366
▁appearance	-10.5367
▁objective	-10.5367
▁possession	-10.5368
▁after	-10.5368
▁quitting	-10.5368
▁appropriate	-10.5369
▁ricky	-10.5369
▁mill	-10.5369
▁possibility	-10.537
▁tum	-10.537
▁dyou	-10.537
▁humble	-10.5371
sky	-10.5371
▁gaby	-10.5371
▁pile	-10.5371
▁megan	-10.5372
▁heartbeat	-10.5372
▁suggestion	-10.5372
▁mansion	-10.5372
▁lick	-10.5373
▁vice	-10.5373
▁math	-10.5374
▁hike	-10.5374
▁benson	-10.5374
▁deadline	-10.5375
▁humanity	-10.5376
▁fuel	-10.5376
▁allies	-10.5377
▁dup	-10.5377
▁cutting	-10.5377
▁range	-10.5378
▁junior	-10.5378
▁dreadful	-10.5378
▁bedtime	-10.538
▁runner	-10.538
▁forgetting	-10.5381
▁worrying	-10.5381
▁surrounded	-10.5381
▁invented	-10.5381
▁usses	-10.5381
▁angeles	-10.5382
▁arranged	-10.5382
▁hose	-10.5383
▁delighted	-10.5384
▁pod	-10.5385
▁kneel	-10.5386
▁daylight	-10.5386
▁yah	-10.5388
▁victory	-10.5388
▁abandoned	-10.539
▁embarrassed	-10.539
▁krauts	-10.5391
▁vibrations	-10.5391
▁teenagers	-10.5391
▁helena	-10.5396
▁minor	-10.5397
▁properly	-10.5398
▁hah	-10.5399
▁islands	-10.54
▁medical	-10.5401
▁corps	-10.5402
▁bored	-10.5402
▁when	-10.5405
▁reality	-10.5406
▁stalk	-10.5406
top	-10.5406
▁lane	-10.5409
▁anti	-10.541
▁boxes	-10.5411
▁layer	-10.5413
▁passion	-10.5414
▁loudly	-10.5419
▁tone	-10.5425
▁humor	-10.5427
▁announc	-10.5431
▁blasted	-10.5432
▁chat	-10.5435
▁sonic	-10.5438
▁beans	-10.5445
▁pope	-10.5447
ologist	-10.5448
▁mass	-10.5464
▁treated	-10.5464
▁commander	-10.5466
▁zed	-10.5469
▁causes	-10.5473
▁messy	-10.5474
su	-10.5475
▁klopeks	-10.5476
▁accepted	-10.5478
▁entering	-10.5487
ming	-10.5495
bla	-10.5508
▁here	-10.5508
▁kissing	-10.5509
▁inf	-10.5513
▁tracker	-10.5516
▁an	-10.5522
▁yea	-10.5525
▁fixed	-10.553
▁quietly	-10.5534
▁jumped	-10.5541
▁tunnels	-10.5545
▁customers	-10.5547
▁ph	-10.5549
iest	-10.5558
▁wo	-10.5559
▁hack	-10.5565
▁off	-10.5572
▁dancers	-10.5577
▁thumbs	-10.5579
ically	-10.5581
ig	-10.5586
▁spending	-10.5594
▁younger	-10.5596
▁cu	-10.56
▁poll	-10.5602
nce	-10.5604
▁enjoyed	-10.5606
▁demons	-10.5614
▁parker	-10.5627
▁boats	-10.5628
▁cro	-10.5642
▁sticks	-10.5657
ber	-10.5664
▁scientists	-10.5665
▁laws	-10.5675
▁charges	-10.5676
▁workin	-10.5689
▁aliens	-10.57
▁traps	-10.5706
ors	-10.5715
▁trains	-10.5719
mp	-10.572
▁ag	-10.5722
▁tap	-10.5723
▁hog	-10.5758
▁prisoners	-10.5759
▁stal	-10.5765
▁members	-10.5768
▁buttons	-10.5772
▁pl	-10.5783
fu	-10.5787
▁natives	-10.5787
▁files	-10.5788
bble	-10.5793
▁ropes	-10.5804
ette	-10.5816
iss	-10.5819
▁nu	-10.5822
den	-10.583
▁pin	-10.5845
▁gr	-10.5858
▁sol	-10.5862
▁detect	-10.5866
▁deserves	-10.5928
▁damned	-10.5931
▁tan	-10.5931
ti	-10.5941
pped	-10.5954
lot	-10.596
▁ham	-10.5968
▁daddys	-10.599
ably	-10.5994
ec	-10.5997
▁noises	-10.6015
▁contacts	-10.603
▁don	-10.6032
ook	-10.6037
▁den	-10.605
▁knowing	-10.6054
▁comp	-10.6066
▁changes	-10.6074
▁cl	-10.609
▁am	-10.6099
▁films	-10.6103
▁locks	-10.6108
ally	-10.6122
▁brings	-10.6135
▁closes	-10.6144
▁explode	-10.6151
▁col	-10.6151
▁odds	-10.6163
▁estimate	-10.6169
▁battalion	-10.6173
▁bugger	-10.6173
▁flame	-10.6174
▁punk	-10.6174
▁cowboy	-10.6174
▁habit	-10.6177
▁muscle	-10.6178
▁product	-10.6179
▁puppet	-10.6181
▁wig	-10.6183
▁cigar	-10.6185
▁curtain	-10.6185
▁feather	-10.6186
▁drug	-10.6189
▁apple	-10.6191
▁missile	-10.6192
road	-10.6209
▁ob	-10.6211
itd	-10.6225
▁marks	-10.6239
▁farmer	-10.6251
kg	-10.6256
bra	-10.6257
▁rust	-10.6263
▁stall	-10.6267
▁gumb	-10.6272
▁mix	-10.6286
▁buzz	-10.6314
▁reward	-10.6319
face	-10.6319
▁vip	-10.6321
▁ox	-10.6326
▁at	-10.6329
▁jin	-10.634
water	-10.6341
▁link	-10.6342
fall	-10.6343
▁delete	-10.6345
book	-10.6348
tto	-10.6348
▁fortunate	-10.6348
▁fried	-10.635
▁iv	-10.6352
bag	-10.6353
▁produce	-10.6354
tail	-10.6359
tch	-10.6361
▁toll	-10.6362
play	-10.6362
▁contest	-10.6362
▁adjust	-10.6363
▁scram	-10.6364
▁fiend	-10.6364
▁cannon	-10.6364
▁arriving	-10.6364
▁artichokie	-10.6364
▁assault	-10.6364
▁behavior	-10.6364
▁berkeley	-10.6364
▁bippityboppity	-10.6364
▁blaze	-10.6364
▁buddies	-10.6364
▁cemetery	-10.6364
▁centuries	-10.6364
▁certificate	-10.6364
▁chorus	-10.6364
▁clattering	-10.6364
▁diablo	-10.6364
▁dialogue	-10.6364
▁fierce	-10.6364
▁firm	-10.6364
▁fommy	-10.6364
▁fozzie	-10.6364
▁fregley	-10.6364
▁gamart	-10.6364
▁gnome	-10.6364
▁gulag	-10.6364
▁heehaw	-10.6364
▁industri	-10.6364
▁iowa	-10.6364
▁jennyanydots	-10.6364
▁kovac	-10.6364
▁length	-10.6364
▁matthias	-10.6364
▁mcelrathbey	-10.6364
▁mysterious	-10.6364
▁olivia	-10.6364
▁peculiar	-10.6364
▁perrito	-10.6364
▁picnic	-10.6364
▁popcorn	-10.6364
▁powder	-10.6364
▁prophecy	-10.6364
▁remote	-10.6364
▁russell	-10.6364
▁sherlock	-10.6364
▁sketch	-10.6364
▁socalled	-10.6364
▁squirrel	-10.6364
▁thunderclap	-10.6364
▁umezaki	-10.6364
▁unexpected	-10.6364
▁vinci	-10.6364
▁vomit	-10.6364
▁watson	-10.6364
▁whinny	-10.6364
▁abort	-10.6364
▁airplane	-10.6364
▁cease	-10.6364
▁introduction	-10.6364
▁kilbourne	-10.6364
▁reboot	-10.6364
▁rumsfield	-10.6364
▁ralph	-10.6365
▁ryan	-10.6365
▁albert	-10.6365
▁gambling	-10.6365
▁clap	-10.6365
▁whinnies	-10.6365
▁symbol	-10.6365
▁drain	-10.6365
▁rueland	-10.6365
▁flippers	-10.6365
▁interfere	-10.6365
▁cotton	-10.6365
▁willie	-10.6365
▁bradbury	-10.6365
▁frost	-10.6365
▁acquaintance	-10.6365
▁mou	-10.6365
▁suspicious	-10.6365
▁canada	-10.6365
▁lousy	-10.6365
▁unfair	-10.6365
▁vermin	-10.6365
▁ltaly	-10.6365
▁salute	-10.6365
▁manual	-10.6365
▁silent	-10.6365
▁festival	-10.6365
▁approval	-10.6365
▁sniffles	-10.6365
▁ahoy	-10.6365
▁diana	-10.6365
▁conquer	-10.6365
▁robbed	-10.6365
▁consultant	-10.6365
▁blanket	-10.6365
▁jeanette	-10.6365
▁pimp	-10.6365
▁marvelous	-10.6365
▁hunch	-10.6365
▁aruk	-10.6365
▁lightfoot	-10.6365
▁heelis	-10.6365
▁backwards	-10.6365
▁mental	-10.6365
▁charity	-10.6365
▁tuna	-10.6366
▁glorious	-10.6366
▁depth	-10.6366
▁dairy	-10.6366
▁extinct	-10.6366
▁muttering	-10.6366
▁tragic	-10.6366
▁turk	-10.6366
▁mount	-10.6366
▁rubble	-10.6366
▁baseball	-10.6366
▁northern	-10.6366
▁sophisticated	-10.6366
▁reception	-10.6367
▁budget	-10.6367
▁troll	-10.6367
▁provo	-10.6367
▁murmuring	-10.6367
▁flip	-10.6367
▁rj	-10.6367
▁robbie	-10.6367
▁crab	-10.6367
▁alley	-10.6368
▁commitment	-10.6368
▁poisonous	-10.6368
▁irish	-10.6368
▁data	-10.6368
▁shave	-10.6368
▁electricity	-10.6368
▁yoho	-10.6368
▁technically	-10.6368
▁machinery	-10.6369
▁bingo	-10.6369
▁drove	-10.6369
▁muckle	-10.6369
▁zipper	-10.6369
▁gday	-10.6369
▁surgeon	-10.6369
▁christine	-10.6369
▁western	-10.6369
▁threatened	-10.637
▁berlin	-10.637
▁torpedoes	-10.637
▁annie	-10.6371
▁amongst	-10.6371
▁herd	-10.6371
▁gump	-10.6371
▁serving	-10.6372
▁scent	-10.6372
▁agreement	-10.6372
▁peaceful	-10.6372
▁determined	-10.6372
▁unlike	-10.6373
▁rocket	-10.6373
▁foolish	-10.6373
▁toss	-10.6373
▁ew	-10.6373
▁narrat	-10.6374
▁hawke	-10.6374
▁sanders	-10.6374
▁gulps	-10.6375
▁goldi	-10.6375
▁bleh	-10.6376
▁von	-10.6376
▁bait	-10.6377
▁tense	-10.6377
▁dough	-10.6377
▁bitter	-10.6379
▁revealed	-10.638
▁restore	-10.6381
▁fairies	-10.6382
▁branch	-10.6383
▁sore	-10.6383
▁disappointed	-10.6383
▁andrea	-10.6383
▁tray	-10.6384
▁officially	-10.6386
▁expression	-10.6387
▁jackie	-10.6387
▁eve	-10.6391
▁barnes	-10.6391
▁this	-10.6391
▁richest	-10.6391
▁cord	-10.6392
▁particularly	-10.6392
▁policeman	-10.6393
▁gulls	-10.6393
▁tests	-10.6394
▁neighing	-10.6399
▁directly	-10.64
▁pier	-10.6401
▁unable	-10.6401
▁glori	-10.6401
▁starve	-10.6403
▁useful	-10.6403
▁pissed	-10.6406
▁ding	-10.6406
▁solved	-10.6406
▁intended	-10.6408
▁blokes	-10.6412
▁clangs	-10.6412
▁scheduled	-10.6416
▁shovel	-10.6419
▁whoops	-10.6419
▁goose	-10.6421
▁nervously	-10.6421
with	-10.6423
▁pole	-10.6425
▁putty	-10.6425
zo	-10.6427
▁served	-10.6427
▁reaction	-10.6428
▁ps	-10.6431
▁robbers	-10.6431
▁hint	-10.6431
ver	-10.6433
▁coaches	-10.6437
▁delivered	-10.6437
▁fung	-10.6442
▁media	-10.6442
▁addie	-10.6451
▁juns	-10.6451
▁wasted	-10.6459
▁husbands	-10.646
▁suffering	-10.6463
▁hans	-10.6464
▁forced	-10.6469
▁traveled	-10.647
▁bots	-10.647
▁nut	-10.6475
▁ron	-10.6476
▁pine	-10.6482
▁rd	-10.6484
▁experienced	-10.6486
▁skills	-10.6488
▁degrees	-10.6488
▁brakes	-10.6488
▁bubbles	-10.6488
▁cracking	-10.6489
▁pretending	-10.6491
▁snacks	-10.6507
nya	-10.652
▁weep	-10.653
arm	-10.6538
▁stu	-10.6546
▁worms	-10.6563
▁kicked	-10.6565
▁sting	-10.6567
▁robe	-10.6568
▁fianc	-10.6569
▁improve	-10.6574
▁engineer	-10.6578
▁explosions	-10.6584
▁adams	-10.6584
▁fog	-10.6584
▁and	-10.6602
▁mammoths	-10.6603
▁magazines	-10.6603
▁neighbours	-10.6603
▁rolled	-10.6605
▁messing	-10.6631
▁teaching	-10.6639
▁nightmares	-10.666
▁servants	-10.666
ory	-10.6674
▁lovers	-10.6675
▁dragons	-10.668
▁sucks	-10.6686
▁presume	-10.6699
▁photos	-10.67
▁tri	-10.6703
▁bearing	-10.673
art	-10.6734
▁cousins	-10.6757
its	-10.6765
▁christians	-10.6787
▁holds	-10.6792
▁stat	-10.6796
▁serves	-10.6797
▁nap	-10.68
▁tra	-10.6804
cha	-10.6811
▁roses	-10.6817
▁una	-10.6818
▁danced	-10.6821
▁poet	-10.6829
▁dreamed	-10.683
aire	-10.6833
▁robots	-10.6834
▁becomes	-10.6841
ii	-10.6852
oh	-10.6858
let	-10.6869
▁wy	-10.6875
▁hated	-10.6877
▁walks	-10.6878
ches	-10.6886
▁ja	-10.6894
▁tent	-10.6898
ord	-10.6901
▁bottles	-10.6912
ath	-10.6913
▁jobs	-10.6923
▁moo	-10.6938
▁mort	-10.6961
ities	-10.6969
▁talks	-10.698
▁statu	-10.6983
ore	-10.6997
▁rides	-10.7015
za	-10.7041
▁eagles	-10.7068
▁rabbits	-10.7068
▁cd	-10.7096
▁cared	-10.7096
▁opened	-10.7105
▁legends	-10.7107
▁strikes	-10.7127
▁gut	-10.7179
▁dodge	-10.7189
gue	-10.7204
▁on	-10.7213
▁facts	-10.723
▁sniff	-10.726
po	-10.7266
▁crimes	-10.7279
▁patrol	-10.7284
▁content	-10.7284
▁decade	-10.7289
▁baudelaire	-10.7292
▁element	-10.7292
▁growl	-10.7293
▁bucket	-10.7293
▁palm	-10.7299
▁chipmunk	-10.7304
▁australian	-10.7306
▁beside	-10.7306
▁cookie	-10.7309
▁pill	-10.731
▁ken	-10.7311
▁sin	-10.7314
tom	-10.7324
▁transfer	-10.7324
▁cart	-10.7327
▁grip	-10.733
▁joker	-10.7334
ile	-10.7341
▁tire	-10.7341
▁prayer	-10.7347
▁anyways	-10.7349
fish	-10.735
kin	-10.7366
▁rep	-10.737
▁mini	-10.7376
▁bare	-10.7385
▁embarrass	-10.74
wood	-10.7402
▁frighten	-10.7403
istic	-10.7407
▁placed	-10.741
em	-10.7417
▁mock	-10.7428
▁mates	-10.743
▁loser	-10.7434
room	-10.7436
▁dies	-10.7437
▁sauce	-10.7438
▁punish	-10.7439
▁respond	-10.744
▁twist	-10.7443
▁flu	-10.7444
▁abandon	-10.7444
born	-10.7448
▁preserve	-10.7451
▁replace	-10.7453
▁dang	-10.7453
▁arrange	-10.7453
▁describe	-10.7453
skull	-10.7454
seven	-10.7455
act	-10.7455
▁grim	-10.7461
▁profession	-10.7461
▁unfortunate	-10.7462
▁mode	-10.7463
▁shoo	-10.7464
▁cue	-10.7465
▁pip	-10.7466
▁torpedo	-10.7469
▁goddam	-10.7472
▁vexin	-10.7472
kind	-10.7472
▁possess	-10.7473
▁compass	-10.7474
▁ruth	-10.7474
ville	-10.7474
▁blank	-10.7475
▁basic	-10.7476
▁plug	-10.7476
▁tahiti	-10.7476
▁violent	-10.7476
▁almighty	-10.7476
▁annoying	-10.7476
▁annual	-10.7476
▁anonymous	-10.7476
▁antidote	-10.7476
▁august	-10.7476
▁barricade	-10.7476
▁bikini	-10.7476
▁bounty	-10.7476
▁bypass	-10.7476
▁ceiling	-10.7476
▁chauffeur	-10.7476
▁chirping	-10.7476
▁cinnamon	-10.7476
▁civilization	-10.7476
▁clumsy	-10.7476
▁conservancy	-10.7476
▁cottage	-10.7476
▁curiosity	-10.7476
▁dessert	-10.7476
▁district	-10.7476
▁essential	-10.7476
▁falafel	-10.7476
▁frau	-10.7476
▁furniture	-10.7476
▁gardiner	-10.7476
▁glynnis	-10.7476
▁gradenko	-10.7476
▁guidance	-10.7476
▁hardware	-10.7476
▁hmph	-10.7476
▁incoming	-10.7476
▁infinite	-10.7476
▁jaguar	-10.7476
▁jonah	-10.7476
▁kermie	-10.7476
▁machete	-10.7476
▁magruder	-10.7476
▁montgomery	-10.7476
▁motel	-10.7476
▁muskie	-10.7476
▁offensive	-10.7476
▁outlaw	-10.7476
▁permanent	-10.7476
▁pitcairn	-10.7476
▁procedure	-10.7476
▁reckon	-10.7476
▁relief	-10.7476
▁reservation	-10.7476
▁reynolds	-10.7476
▁rhyme	-10.7476
▁saigon	-10.7476
▁schirmer	-10.7476
▁schuyler	-10.7476
▁shield	-10.7476
▁smuntz	-10.7476
▁solution	-10.7476
▁struggle	-10.7476
▁sunflower	-10.7476
▁supreme	-10.7476
▁sync	-10.7476
▁terence	-10.7476
▁undercover	-10.7476
▁violence	-10.7476
▁vlad	-10.7476
▁waitzkin	-10.7476
▁wiggin	-10.7476
▁butterfly	-10.7476
▁footprints	-10.7476
▁generator	-10.7476
▁holland	-10.7476
▁ncaa	-10.7476
▁slaughter	-10.7476
▁spray	-10.7476
▁facing	-10.7476
▁begging	-10.7476
▁marysville	-10.7476
▁porridge	-10.7476
▁sorrow	-10.7476
▁nadya	-10.7476
▁hilarious	-10.7476
▁example	-10.7476
▁allamerican	-10.7476
▁kirk	-10.7476
▁eternity	-10.7476
▁helsing	-10.7476
▁regulator	-10.7476
▁allergic	-10.7476
▁celebrating	-10.7476
▁typewriter	-10.7476
▁bleep	-10.7476
▁stiles	-10.7476
rimmer	-10.7476
▁battery	-10.7476
▁wailing	-10.7476
▁blake	-10.7476
▁pedal	-10.7476
▁serum	-10.7476
▁executive	-10.7476
▁francisco	-10.7476
▁venom	-10.7476
▁downtown	-10.7476
▁marcus	-10.7476
▁agency	-10.7476
▁jewelry	-10.7476
▁duties	-10.7476
▁pluck	-10.7476
▁romance	-10.7476
▁assistance	-10.7476
▁crook	-10.7476
▁julian	-10.7476
▁favourite	-10.7476
▁destination	-10.7476
▁catwoman	-10.7476
▁foul	-10.7476
▁spectre	-10.7477
▁tummy	-10.7477
▁knot	-10.7477
▁shopping	-10.7477
▁solid	-10.7477
▁skinny	-10.7477
▁sheep	-10.7477
▁unknown	-10.7477
▁cried	-10.7477
▁didi	-10.7477
▁villain	-10.7477
▁moor	-10.7477
▁resistance	-10.7477
▁naughty	-10.7477
▁juvenile	-10.7477
▁ltalian	-10.7477
▁stroke	-10.7477
▁therapy	-10.7477
▁tattoo	-10.7477
▁kidnap	-10.7477
▁zordon	-10.7477
▁execution	-10.7478
▁santa	-10.7478
▁financial	-10.7478
▁bounce	-10.7478
▁fame	-10.7478
▁upper	-10.7479
▁spotted	-10.7479
▁mmmmm	-10.7479
▁vicious	-10.7479
▁courtland	-10.7479
▁burst	-10.7479
▁conduct	-10.748
▁villagers	-10.748
▁waltz	-10.748
▁riverton	-10.748
▁rumble	-10.748
▁scramble	-10.748
▁related	-10.7481
▁management	-10.7481
▁raven	-10.7481
▁flea	-10.7481
▁lew	-10.7481
▁elsewhere	-10.7481
▁chapin	-10.7482
▁rice	-10.7482
▁household	-10.7483
▁fascinating	-10.7483
▁applauding	-10.7483
▁terrifying	-10.7483
▁pronounce	-10.7484
▁minus	-10.7484
itive	-10.7485
▁suspended	-10.7485
▁sonny	-10.7485
▁qui	-10.7487
▁inch	-10.7487
▁ciao	-10.7487
▁eyebrows	-10.7488
▁hugh	-10.7488
▁worthless	-10.7489
▁maxie	-10.7489
▁skies	-10.7489
▁tooth	-10.749
▁tries	-10.7492
▁thrilled	-10.7493
▁dougie	-10.7493
▁dull	-10.7493
▁drawing	-10.7493
▁tada	-10.7498
▁folder	-10.75
▁bur	-10.75
▁doomed	-10.75
owned	-10.7501
▁theme	-10.7501
▁rarely	-10.7502
▁sixth	-10.7503
▁rumor	-10.7504
▁mistakes	-10.7505
▁nailed	-10.7505
▁medic	-10.7505
ham	-10.7506
▁contain	-10.7507
▁spawning	-10.7509
▁wiped	-10.751
▁recognized	-10.7513
▁bud	-10.7514
▁capt	-10.7516
▁bien	-10.7516
▁hacker	-10.7519
▁sensei	-10.752
▁cock	-10.7523
▁hunger	-10.7523
▁asses	-10.7524
▁wages	-10.7525
▁hmmm	-10.7526
▁delivery	-10.7527
▁nod	-10.7528
▁rollin	-10.7528
▁coyotes	-10.7529
▁fireworks	-10.7529
▁regarding	-10.753
▁survivors	-10.753
▁pinch	-10.7531
▁rib	-10.7532
▁requested	-10.7534
▁swallowed	-10.7534
▁ce	-10.7536
▁exam	-10.7536
▁passes	-10.7543
▁suggested	-10.7545
▁managed	-10.7546
▁marsh	-10.7547
▁trips	-10.7548
▁investigate	-10.7548
▁critters	-10.7551
▁collecting	-10.7551
▁blessed	-10.7553
▁introduced	-10.7553
ub	-10.7556
▁emotions	-10.7572
▁dolphins	-10.7572
▁dia	-10.7574
▁bi	-10.7587
▁mati	-10.7588
▁heights	-10.7593
▁disapprove	-10.7601
▁grannys	-10.7605
▁belonged	-10.7607
ison	-10.7609
▁planets	-10.7609
ade	-10.7611
▁revs	-10.7613
▁ve	-10.7621
▁considering	-10.764
▁ducks	-10.7648
▁rescued	-10.7654
▁sticky	-10.7655
▁jar	-10.7655
▁drawings	-10.7658
▁imagined	-10.7667
▁accepting	-10.767
▁prayers	-10.7671
▁shared	-10.7673
▁musical	-10.768
ki	-10.7698
▁arts	-10.7699
▁tested	-10.77
▁orphans	-10.7701
▁pushed	-10.7716
▁chips	-10.7717
▁fart	-10.7721
▁temper	-10.7725
▁bullie	-10.7737
▁bend	-10.7743
▁chap	-10.7756
▁offering	-10.7758
▁maids	-10.7765
▁cur	-10.7768
▁sy	-10.7773
ip	-10.7775
▁cooi	-10.7784
ise	-10.7787
▁hast	-10.7788
▁pushing	-10.7807
▁adults	-10.7809
▁fed	-10.7834
▁corn	-10.7835
▁lookout	-10.785
eth	-10.7851
▁rolling	-10.7852
▁bangs	-10.7852
lock	-10.7858
▁che	-10.7861
ama	-10.7876
▁towns	-10.7884
▁voices	-10.7889
▁sha	-10.7899
▁stays	-10.7901
▁grounds	-10.7912
▁issues	-10.7917
▁potters	-10.7918
ock	-10.7927
▁sire	-10.7934
▁beating	-10.7941
▁sides	-10.7958
▁hm	-10.7977
▁te	-10.7981
▁funds	-10.7983
▁hopes	-10.7999
▁angels	-10.8057
▁exists	-10.8072
lier	-10.8078
▁gates	-10.8096
▁pies	-10.8098
▁sue	-10.8108
▁bore	-10.8122
▁deer	-10.8125
▁ink	-10.8128
▁ban	-10.8136
▁eats	-10.8159
▁catching	-10.8163
wan	-10.8176
rey	-10.8194
▁burns	-10.8202
ice	-10.821
▁prices	-10.8226
▁refer	-10.8251
▁est	-10.8264
▁keeper	-10.8278
▁sl	-10.8293
▁incident	-10.8302
▁drops	-10.8322
▁greater	-10.8327
▁ami	-10.8332
▁dip	-10.8337
▁hopeless	-10.8341
▁picks	-10.8344
uld	-10.8346
ause	-10.8352
▁blues	-10.8363
cr	-10.8367
can	-10.8371
▁missy	-10.8378
▁tails	-10.838
▁ana	-10.8383
tive	-10.8398
▁fits	-10.84
▁franks	-10.8407
▁pad	-10.8408
ves	-10.8413
▁joes	-10.842
▁cells	-10.8422
▁wished	-10.8436
▁med	-10.8455
▁rag	-10.8461
ler	-10.8474
▁strain	-10.8482
field	-10.8502
▁tal	-10.8512
cent	-10.8523
▁colour	-10.8532
▁rubber	-10.8535
▁pattern	-10.8535
▁germ	-10.8538
▁turtle	-10.8539
▁bullet	-10.8539
▁term	-10.8542
▁coffin	-10.8542
▁comic	-10.8542
▁fright	-10.8544
▁include	-10.8544
▁connection	-10.8544
▁cigarette	-10.8544
all	-10.8545
ute	-10.8545
▁snack	-10.8548
▁arrangement	-10.8551
▁recipe	-10.8552
che	-10.8552
▁auto	-10.8553
▁folk	-10.8556
▁fade	-10.8556
▁visitor	-10.8559
hen	-10.8561
▁root	-10.8562
ci	-10.8567
▁partys	-10.8572
▁publish	-10.8586
epo	-10.8593
▁comfort	-10.8604
ception	-10.8616
▁mouths	-10.863
xie	-10.8636
hand	-10.8637
stone	-10.8637
▁ages	-10.8638
▁connect	-10.8643
▁para	-10.8645
uttering	-10.8671
▁fa	-10.8674
work	-10.8677
▁neigh	-10.8683
▁swell	-10.8684
▁attract	-10.8685
▁affect	-10.869
▁puff	-10.8692
▁nail	-10.8693
word	-10.8701
minded	-10.8701
soviet	-10.8704
▁fift	-10.8704
▁silk	-10.8705
free	-10.8705
▁pour	-10.8707
▁flatter	-10.8707
▁guilt	-10.8707
▁examine	-10.8709
▁bid	-10.8709
▁custom	-10.8711
▁practical	-10.8712
▁precise	-10.8712
▁slim	-10.8712
▁morgan	-10.8715
▁absolute	-10.8715
▁transylvania	-10.8717
▁limb	-10.8717
▁vocaliz	-10.8717
▁mere	-10.8719
type	-10.872
▁civil	-10.8721
▁hors	-10.8722
▁knuck	-10.8723
▁compare	-10.8723
▁runnin	-10.8723
▁electron	-10.8724
▁compliment	-10.8724
▁argh	-10.8725
▁consist	-10.8725
▁constant	-10.8725
▁journal	-10.8725
▁prank	-10.8725
▁confident	-10.8725
▁straw	-10.8726
▁assassin	-10.8726
▁beacon	-10.8726
▁thorough	-10.8726
▁anchor	-10.8726
▁anderson	-10.8726
▁aquarium	-10.8726
▁atlantis	-10.8726
▁babbling	-10.8726
▁bartender	-10.8726
▁becoming	-10.8726
▁belgium	-10.8726
▁blotz	-10.8726
▁bluebeard	-10.8726
▁cahill	-10.8726
▁caviar	-10.8726
▁crikey	-10.8726
▁dignity	-10.8726
▁discount	-10.8726
▁dumdum	-10.8726
▁dyke	-10.8726
▁elbow	-10.8726
▁famiiy	-10.8726
▁fantasies	-10.8726
▁furnace	-10.8726
▁guignol	-10.8726
▁hanover	-10.8726
▁harbor	-10.8726
▁heffley	-10.8726
▁himmel	-10.8726
▁hooray	-10.8726
▁hubbard	-10.8726
▁hurricane	-10.8726
▁identification	-10.8726
▁injury	-10.8726
▁kaiser	-10.8726
▁kazuhiko	-10.8726
▁khan	-10.8726
▁kikuyu	-10.8726
▁kramer	-10.8726
▁leopard	-10.8726
▁liberty	-10.8726
▁lodge	-10.8726
▁macgregor	-10.8726
▁macmorrow	-10.8726
▁magnificent	-10.8726
▁maude	-10.8726
▁mckeltch	-10.8726
▁merchandise	-10.8726
▁metaphor	-10.8726
▁montana	-10.8726
▁nassau	-10.8726
▁neglect	-10.8726
▁offended	-10.8726
▁overseas	-10.8726
▁platoon	-10.8726
▁politics	-10.8726
▁profound	-10.8726
▁proposal	-10.8726
▁rinaldi	-10.8726
▁roadblock	-10.8726
▁roosevelt	-10.8726
▁rupert	-10.8726
▁sentimental	-10.8726
▁softpaws	-10.8726
▁taylor	-10.8726
▁throttle	-10.8726
▁tournament	-10.8726
▁vegetarian	-10.8726
▁volcano	-10.8726
▁wainwright	-10.8726
▁wharton	-10.8726
▁wimbo	-10.8726
▁yoohoo	-10.8726
▁helmet	-10.8726
▁nfl	-10.8726
▁stepsisters	-10.8726
▁whatsoever	-10.8726
▁appeal	-10.8726
▁trauma	-10.8726
▁worn	-10.8726
▁lecture	-10.8726
▁granada	-10.8726
▁quote	-10.8726
▁conscience	-10.8726
▁disrespect	-10.8726
▁erwin	-10.8726
▁applied	-10.8726
▁carrot	-10.8726
▁circus	-10.8726
▁fragile	-10.8726
▁coke	-10.8726
▁headache	-10.8726
▁pigeon	-10.8726
▁smack	-10.8726
▁denmark	-10.8726
▁crystal	-10.8726
▁jazz	-10.8726
▁indicate	-10.8726
▁diddly	-10.8726
▁rug	-10.8726
▁phase	-10.8726
▁regiment	-10.8726
▁breed	-10.8726
▁influence	-10.8726
▁television	-10.8726
▁maureen	-10.8726
▁wasting	-10.8726
▁neighbourhood	-10.8726
▁batmobile	-10.8726
▁coleye	-10.8726
▁clinic	-10.8726
▁hammer	-10.8726
▁hitchhikers	-10.8726
▁pursuit	-10.8726
▁lobby	-10.8726
▁welch	-10.8726
▁ashore	-10.8726
▁blend	-10.8726
▁woohoo	-10.8726
▁leak	-10.8726
▁reef	-10.8726
▁occurred	-10.8726
▁puppy	-10.8726
▁polish	-10.8726
▁operative	-10.8726
▁pulse	-10.8726
▁diaper	-10.8726
▁broadway	-10.8726
▁organism	-10.8726
▁martz	-10.8727
▁vital	-10.8727
▁barnyard	-10.8727
▁dawg	-10.8727
▁enterprise	-10.8727
▁negative	-10.8727
▁existence	-10.8727
▁warrant	-10.8727
▁humma	-10.8727
▁inaudible	-10.8727
▁oome	-10.8727
▁argue	-10.8727
▁advisor	-10.8727
▁blixen	-10.8727
▁flap	-10.8727
▁pork	-10.8727
▁massive	-10.8727
▁nursery	-10.8727
▁leap	-10.8727
▁oooh	-10.8727
▁giri	-10.8727
▁magnet	-10.8728
▁salary	-10.8728
▁mold	-10.8728
▁cheerful	-10.8728
▁distinguished	-10.8728
▁teddy	-10.8728
▁luna	-10.8728
▁starving	-10.8728
▁ramp	-10.8728
▁appetite	-10.8729
▁organist	-10.8729
▁production	-10.8729
▁spark	-10.8729
▁angle	-10.8729
▁slice	-10.8729
▁rover	-10.8729
▁betcha	-10.8729
▁indi	-10.873
▁oak	-10.873
▁monte	-10.873
▁poem	-10.873
▁automatic	-10.873
▁cocoa	-10.873
▁drinkwater	-10.873
▁godfather	-10.873
▁grownup	-10.873
▁eighteen	-10.8731
ect	-10.8731
▁peru	-10.8731
▁crust	-10.8731
▁crop	-10.8731
▁yahoo	-10.8731
▁bible	-10.8731
ake	-10.8731
▁alike	-10.8732
▁discipline	-10.8732
▁patty	-10.8732
▁sur	-10.8732
▁kelp	-10.8732
▁distorted	-10.8732
▁geek	-10.8732
▁stepped	-10.8732
▁carries	-10.8733
▁mullet	-10.8733
▁clawson	-10.8733
▁zachary	-10.8733
▁baba	-10.8733
▁european	-10.8733
▁flies	-10.8733
▁sneakers	-10.8734
▁kart	-10.8734
▁whore	-10.8734
▁nearby	-10.8735
▁milles	-10.8735
▁bora	-10.8735
▁sensitive	-10.8736
▁owns	-10.8736
▁qualified	-10.8736
▁combined	-10.8736
▁babysit	-10.8737
▁snowman	-10.8737
▁tempo	-10.8737
hood	-10.8738
▁juice	-10.8738
▁itch	-10.8738
▁discover	-10.8738
▁vanished	-10.8741
▁crest	-10.8741
▁headline	-10.8741
▁kidney	-10.8741
▁confirmation	-10.8743
▁bulldozer	-10.8744
▁attached	-10.8745
▁examiner	-10.8747
▁yowling	-10.8747
▁magician	-10.8747
▁cocky	-10.8748
▁dent	-10.8752
▁exploded	-10.8754
▁thus	-10.8755
▁classic	-10.8755
▁label	-10.8755
▁pent	-10.8756
▁desperately	-10.8757
▁published	-10.8758
▁brady	-10.8759
▁momma	-10.876
▁cory	-10.8762
▁ren	-10.8762
▁passengers	-10.8763
▁strongest	-10.8763
▁funk	-10.8763
▁lap	-10.8767
▁removed	-10.8768
▁carter	-10.877
▁baron	-10.877
▁naturally	-10.8773
bal	-10.8773
▁nora	-10.8777
▁damp	-10.878
▁barker	-10.8783
▁ft	-10.8786
▁shatters	-10.8787
▁collected	-10.8788
▁pest	-10.8789
▁tempt	-10.879
will	-10.879
▁developed	-10.8794
▁cheating	-10.8794
▁dusty	-10.8794
▁appeared	-10.8797
▁lighten	-10.8798
▁released	-10.8806
▁marker	-10.8806
bound	-10.8807
▁granted	-10.8809
▁crows	-10.8811
▁communications	-10.8811
▁survived	-10.8818
▁sm	-10.8822
▁sneaking	-10.8835
▁tasted	-10.8835
▁slippers	-10.8836
▁dial	-10.884
▁crud	-10.8843
▁tricky	-10.8846
▁blessing	-10.8847
▁wil	-10.885
▁thrown	-10.885
▁ruled	-10.8852
▁vogons	-10.886
▁paws	-10.886
▁manners	-10.8861
▁sailing	-10.8872
▁jumpy	-10.8884
▁tools	-10.8884
▁rea	-10.8884
▁helpful	-10.8885
eye	-10.8886
▁escaped	-10.8891
▁presents	-10.8892
▁dictate	-10.8896
▁scan	-10.8897
▁smaller	-10.8903
▁quicker	-10.8905
▁remaining	-10.8908
▁bullets	-10.8909
▁jock	-10.891
ong	-10.8914
▁eatin	-10.8917
▁pads	-10.892
▁abs	-10.893
▁worthy	-10.8932
ving	-10.8933
▁murderer	-10.8939
▁fau	-10.8943
▁cookies	-10.895
▁risking	-10.8954
▁lil	-10.8955
▁losers	-10.8955
▁cigars	-10.8958
▁curtains	-10.8958
▁feathers	-10.8958
▁safely	-10.8966
▁recording	-10.8969
▁speeding	-10.898
tain	-10.898
▁frankie	-10.8982
▁listened	-10.8991
gy	-10.8996
▁hiya	-10.9
inky	-10.9005
get	-10.9008
ami	-10.901
▁nato	-10.9012
▁pipes	-10.9015
▁troubles	-10.9026
▁photographs	-10.903
gh	-10.9033
▁claims	-10.9033
▁tob	-10.9036
▁ven	-10.9037
▁mouthing	-10.9041
▁bulls	-10.9041
ag	-10.9047
ouse	-10.9056
▁communists	-10.9057
▁options	-10.9057
▁mor	-10.9067
iy	-10.907
▁deed	-10.9072
▁nerves	-10.9082
▁reporting	-10.9085
▁navigate	-10.9085
zing	-10.9093
did	-10.9097
▁suite	-10.91
chel	-10.9112
▁tales	-10.914
ett	-10.9153
▁sleepy	-10.9169
▁priests	-10.9181
▁spits	-10.9182
▁inn	-10.9189
▁val	-10.9194
▁coins	-10.9205
▁rebel	-10.9211
▁camps	-10.9211
▁candles	-10.9229
ood	-10.923
▁ensur	-10.9232
▁bor	-10.926
▁bam	-10.9265
▁homes	-10.9267
ru	-10.9279
▁sounded	-10.9284
▁ka	-10.9287
▁answered	-10.9291
gail	-10.9299
▁waves	-10.9305
▁strings	-10.9311
▁tigers	-10.933
happily	-10.9333
iter	-10.9335
▁pu	-10.9337
▁cap	-10.9347
▁chim	-10.9354
▁tomb	-10.9369
ever	-10.937
▁springs	-10.9381
rate	-10.9399
▁sup	-10.9406
▁continu	-10.9411
▁dec	-10.9417
▁circles	-10.9433
▁goodies	-10.9447
▁events	-10.945
▁reminds	-10.9456
▁waiter	-10.9487
yard	-10.9511
▁tar	-10.9524
eyed	-10.9527
▁computers	-10.9541
▁wool	-10.9541
▁cape	-10.9545
▁queens	-10.9559
▁invade	-10.9563
▁ram	-10.9581
▁ki	-10.9585
▁cakes	-10.9608
nda	-10.9616
nna	-10.962
▁tracks	-10.9642
▁turner	-10.9644
▁ins	-10.9667
ena	-10.9684
py	-10.9687
▁interests	-10.9691
▁shots	-10.9691
cus	-10.9701
aah	-10.9707
omic	-10.9715
▁gi	-10.9728
▁kills	-10.9736
▁seas	-10.9757
▁ci	-10.976
▁cases	-10.9786
▁princes	-10.9795
▁eighth	-10.9824
▁kenne	-10.9827
▁torna	-10.9827
▁web	-10.9828
ition	-10.9838
▁ei	-10.9846
▁author	-10.9868
zz	-10.9883
▁bands	-10.9883
▁bets	-10.9891
▁pant	-10.9899
▁cameras	-10.9916
ility	-10.9917
▁sigh	-10.9932
▁stations	-10.9937
▁visual	-10.9942
▁indian	-10.9956
▁technique	-10.9962
▁organization	-10.9963
▁cheerleader	-10.9963
▁zuzu	-10.9967
▁affair	-10.997
▁review	-10.9972
▁client	-10.9973
ister	-10.9975
▁tool	-10.9976
▁degree	-10.9976
▁brake	-10.9977
▁klopek	-10.9977
▁bubble	-10.9978
▁there	-10.9978
▁standard	-10.9981
▁skill	-10.9996
izz	-11.0003
eight	-11.0004
▁fires	-11.0006
▁demo	-11.0009
▁payment	-11.0009
▁stir	-11.0031
▁grove	-11.0032
▁toe	-11.0038
▁owl	-11.0043
▁investigat	-11.0049
ification	-11.0049
▁gall	-11.0049
▁biting	-11.0057
▁hid	-11.0058
jack	-11.0058
▁disturb	-11.0071
▁owes	-11.0074
▁actions	-11.0075
▁sod	-11.0076
▁haunt	-11.0079
▁offers	-11.0084
mu	-11.0097
leen	-11.0101
▁crank	-11.0109
▁bel	-11.0109
▁surf	-11.0109
▁log	-11.011
▁spawn	-11.0111
▁mug	-11.0111
▁stress	-11.0118
▁assum	-11.0119
▁blindfold	-11.012
▁restrain	-11.012
▁assign	-11.012
▁psych	-11.0121
▁register	-11.0121
▁fold	-11.0125
▁delight	-11.0126
▁rev	-11.0128
▁grin	-11.0131
▁encourage	-11.0131
daughter	-11.0131
▁exchange	-11.0134
pitch	-11.0135
three	-11.0136
▁approve	-11.0138
▁doom	-11.0138
drop	-11.0139
▁my	-11.0139
kill	-11.0141
▁flow	-11.0142
ride	-11.0143
▁brie	-11.0143
▁gamble	-11.0145
▁recent	-11.0146
▁hawk	-11.0146
▁expose	-11.0146
▁cruise	-11.0147
wise	-11.0147
▁counsel	-11.0149
▁cloth	-11.0149
hole	-11.015
▁atta	-11.015
▁burro	-11.015
▁bootleg	-11.015
▁locate	-11.015
▁machines	-11.0151
▁lovin	-11.0151
▁livin	-11.0151
▁brag	-11.0152
▁unconscious	-11.0152
▁disagree	-11.0152
▁companion	-11.0153
▁compete	-11.0153
▁capital	-11.0153
▁revolution	-11.0153
▁grocer	-11.0153
▁liquor	-11.0154
▁forbid	-11.0154
greatgrandfather	-11.0154
misunderstanding	-11.0154
▁accurate	-11.0154
▁activities	-11.0154
▁amulet	-11.0154
▁apologise	-11.0154
▁appreciation	-11.0154
▁bayonets	-11.0154
▁beware	-11.0154
▁bishop	-11.0154
▁bissinger	-11.0154
▁brannit	-11.0154
▁breeze	-11.0154
▁brisbane	-11.0154
▁cabillo	-11.0154
▁clarinet	-11.0154
▁clarissa	-11.0154
▁clerk	-11.0154
▁corridor	-11.0154
▁delinquent	-11.0154
▁despite	-11.0154
▁domestic	-11.0154
▁embrace	-11.0154
▁entitled	-11.0154
▁environment	-11.0154
▁equipped	-11.0154
▁esquire	-11.0154
▁evacuate	-11.0154
▁fairchild	-11.0154
▁fortress	-11.0154
▁fountain	-11.0154
▁froze	-11.0154
▁gavin	-11.0154
▁gibson	-11.0154
▁glimpse	-11.0154
▁grady	-11.0154
▁grief	-11.0154
▁gurney	-11.0154
▁hallelujah	-11.0154
▁hightower	-11.0154
▁humphrey	-11.0154
▁identify	-11.0154
▁independent	-11.0154
▁inspiration	-11.0154
▁kangaroo	-11.0154
▁luxury	-11.0154
▁mcmillan	-11.0154
▁mistress	-11.0154
▁mombasa	-11.0154
▁mumbling	-11.0154
▁mungojerrie	-11.0154
▁occupation	-11.0154
▁papillon	-11.0154
▁phew	-11.0154
▁privacy	-11.0154
▁privilege	-11.0154
▁province	-11.0154
▁quintel	-11.0154
▁reject	-11.0154
▁representative	-11.0154
▁resumes	-11.0154
▁revoir	-11.0154
▁rosamund	-11.0154
▁rubbish	-11.0154
▁saliva	-11.0154
▁satisfaction	-11.0154
▁satisfied	-11.0154
▁sausage	-11.0154
▁schmidlapp	-11.0154
▁sedative	-11.0154
▁september	-11.0154
▁shakespeare	-11.0154
▁shermin	-11.0154
▁skimbleshanks	-11.0154
▁stamps	-11.0154
▁stanley	-11.0154
▁struther	-11.0154
▁tissue	-11.0154
▁tolerate	-11.0154
▁trophy	-11.0154
▁umbrella	-11.0154
▁unicorn	-11.0154
▁unpleasant	-11.0154
▁voyage	-11.0154
▁whiskey	-11.0154
▁yawns	-11.0154
▁amusing	-11.0154
▁capsule	-11.0154
▁column	-11.0154
▁couid	-11.0154
▁eager	-11.0154
▁epic	-11.0154
▁error	-11.0154
▁flora	-11.0154
▁grease	-11.0154
▁implement	-11.0154
▁knives	-11.0154
▁napoleon	-11.0154
▁scandal	-11.0154
▁similar	-11.0154
▁brigad	-11.0154
▁cherish	-11.0154
▁imitating	-11.0154
▁narrow	-11.0154
▁niece	-11.0154
▁obliged	-11.0154
▁omg	-11.0154
▁ufo	-11.0154
▁vault	-11.0154
▁cherie	-11.0154
▁constable	-11.0154
▁japanese	-11.0154
▁oven	-11.0154
▁perimeter	-11.0154
▁panero	-11.0154
▁trousers	-11.0154
▁bradlee	-11.0154
▁derval	-11.0154
▁menace	-11.0154
▁mustache	-11.0154
▁aisle	-11.0154
▁carpet	-11.0154
▁mourn	-11.0154
▁excitement	-11.0154
▁cornwall	-11.0154
▁tennis	-11.0154
▁bidding	-11.0154
▁pregnant	-11.0154
▁wrinkle	-11.0154
▁eugen	-11.0154
▁vessel	-11.0154
▁waitress	-11.0154
▁lipstick	-11.0154
▁tarik	-11.0154
▁lgor	-11.0154
▁moines	-11.0154
▁puppies	-11.0154
▁globe	-11.0154
▁columbia	-11.0154
▁trunk	-11.0154
▁heaveho	-11.0154
▁trillian	-11.0154
▁plankton	-11.0155
▁thornton	-11.0155
▁confidential	-11.0155
▁joanne	-11.0155
▁koobeeday	-11.0155
▁yummy	-11.0155
▁munchkin	-11.0155
▁online	-11.0155
▁rabble	-11.0155
▁sophie	-11.0155
▁penalty	-11.0155
▁neville	-11.0155
▁robineau	-11.0155
▁whorehouse	-11.0155
▁blaming	-11.0155
▁peanut	-11.0155
▁network	-11.0155
▁rumpel	-11.0155
▁dwarf	-11.0155
▁rapping	-11.0155
▁indoor	-11.0155
▁linden	-11.0155
▁outrageous	-11.0155
▁wrapped	-11.0155
▁patties	-11.0155
▁chub	-11.0155
▁signature	-11.0155
▁misery	-11.0155
▁obey	-11.0155
▁passionate	-11.0155
▁dragged	-11.0155
▁theory	-11.0155
▁brit	-11.0155
▁naked	-11.0156
▁ripped	-11.0156
▁disappointment	-11.0156
▁masai	-11.0156
▁route	-11.0156
▁swat	-11.0156
▁exterminator	-11.0156
▁ashley	-11.0156
▁avenue	-11.0156
▁soap	-11.0156
▁rising	-11.0156
▁rita	-11.0156
▁inspection	-11.0156
▁jagged	-11.0156
▁robbing	-11.0156
▁gravity	-11.0156
▁puke	-11.0156
▁raid	-11.0156
▁cabinet	-11.0156
▁stack	-11.0156
▁tasty	-11.0156
▁paranoid	-11.0156
▁propelle	-11.0156
▁thread	-11.0156
▁muck	-11.0156
▁oath	-11.0156
▁swan	-11.0156
▁memorial	-11.0156
▁pox	-11.0156
▁roam	-11.0156
▁firewall	-11.0157
▁barber	-11.0157
▁potatoes	-11.0157
▁effective	-11.0157
▁bronto	-11.0157
▁sidewalk	-11.0157
▁josephine	-11.0157
▁accidentally	-11.0157
▁civilian	-11.0157
▁bookkeeper	-11.0157
▁survival	-11.0158
▁patton	-11.0158
▁armonica	-11.0158
▁mature	-11.0158
▁cluck	-11.0158
▁stuntman	-11.0158
▁groom	-11.0158
▁travelling	-11.0158
▁childhood	-11.0159
▁accelerator	-11.0159
▁milo	-11.0159
▁silo	-11.0159
▁colley	-11.0159
▁presidential	-11.0159
▁dishes	-11.0159
▁benny	-11.0159
▁nem	-11.0159
▁appointed	-11.0159
▁tonic	-11.0159
▁pistol	-11.016
▁portrait	-11.016
▁morale	-11.016
▁leaderless	-11.016
▁fuck	-11.016
▁ladybug	-11.016
▁broom	-11.016
▁religion	-11.016
▁hoof	-11.016
▁barton	-11.0161
▁slightest	-11.0161
▁thirsty	-11.0161
▁typical	-11.0161
▁chimes	-11.0162
▁squash	-11.0162
▁distraction	-11.0162
▁assist	-11.0162
▁enchanted	-11.0162
▁mexico	-11.0162
▁rapidly	-11.0162
▁ozma	-11.0162
▁agony	-11.0162
▁depressed	-11.0163
▁stung	-11.0163
▁booth	-11.0163
▁soda	-11.0163
▁conch	-11.0164
▁bandage	-11.0164
▁ego	-11.0164
▁bootlegging	-11.0165
▁breakdown	-11.0165
▁inches	-11.0166
▁mobile	-11.0166
▁tutor	-11.0166
▁inspired	-11.0166
▁through	-11.0166
▁pony	-11.0166
▁romeo	-11.0167
▁feei	-11.0167
▁committed	-11.0167
▁hola	-11.0168
▁hup	-11.0168
▁broad	-11.0168
▁theo	-11.017
▁woodsman	-11.017
▁passage	-11.0171
▁trespassing	-11.0171
▁echoing	-11.0171
▁bench	-11.0173
▁wholl	-11.0174
▁birdie	-11.0177
▁myth	-11.0178
▁prime	-11.0179
▁mayday	-11.0179
▁haul	-11.0179
▁approved	-11.0179
▁task	-11.0179
▁slack	-11.0182
▁wellknown	-11.0183
▁sole	-11.0184
▁programmed	-11.0184
▁gay	-11.0184
▁lace	-11.0184
▁scraping	-11.0186
▁assigned	-11.0187
▁mangy	-11.0187
▁loosen	-11.0187
▁fork	-11.0188
▁tender	-11.0189
▁crunching	-11.0192
▁generals	-11.0194
▁drawn	-11.0196
▁myst	-11.0196
▁nur	-11.0196
▁apply	-11.0196
▁twisted	-11.0197
▁glgs	-11.0197
▁insects	-11.0197
▁endless	-11.0199
▁container	-11.0202
▁mason	-11.0203
▁provided	-11.0203
▁brandy	-11.0203
▁larger	-11.0203
▁cello	-11.0203
▁divorced	-11.0203
▁hitch	-11.0204
esis	-11.0205
▁triple	-11.0205
▁straining	-11.0206
▁required	-11.0207
▁yank	-11.0208
▁we	-11.0212
▁frightening	-11.0213
▁heywood	-11.0214
▁ruby	-11.0215
▁spoiled	-11.0216
▁interrupted	-11.0217
▁mistaken	-11.0218
▁guaranteed	-11.022
ome	-11.0221
▁shocked	-11.0222
▁lung	-11.0224
▁charts	-11.0225
▁instincts	-11.0226
▁details	-11.0226
▁andrews	-11.0226
▁wandering	-11.0226
▁shivers	-11.0226
▁healed	-11.0227
▁confirmed	-11.0228
▁kisses	-11.0228
▁talented	-11.0232
▁sacrificed	-11.0232
ament	-11.0233
▁assumed	-11.0236
▁insisted	-11.0237
praise	-11.0238
▁sucked	-11.0239
▁purchase	-11.0244
pping	-11.0252
▁callback	-11.0253
▁rookie	-11.0254
lum	-11.0255
▁gathered	-11.0257
▁cured	-11.0258
▁stare	-11.0259
▁lily	-11.0263
▁hare	-11.0267
ning	-11.027
azer	-11.027
▁daytime	-11.0272
▁rushing	-11.0274
▁jilly	-11.0274
▁banging	-11.0276
▁lan	-11.0276
▁relatives	-11.0282
▁pearls	-11.0282
▁por	-11.0285
▁marching	-11.0288
▁tighter	-11.0289
min	-11.0293
▁ideal	-11.0293
▁minim	-11.0298
▁archie	-11.0299
▁fairly	-11.03
▁dy	-11.0301
▁boyd	-11.0301
▁fights	-11.0302
▁visa	-11.0302
▁meantime	-11.0304
▁planted	-11.0304
ik	-11.0307
pe	-11.031
▁cheeks	-11.0311
▁forms	-11.0314
▁wifes	-11.0318
▁sucker	-11.0319
▁washed	-11.0322
inned	-11.0323
▁chased	-11.0323
equi	-11.0324
▁ec	-11.0324
▁gar	-11.0332
▁clients	-11.0339
▁remark	-11.0344
run	-11.0347
▁pushy	-11.0355
▁fades	-11.0366
▁weirdo	-11.0366
▁butts	-11.0366
▁culture	-11.0366
▁cigarettes	-11.0368
▁feeding	-11.0368
▁visitors	-11.037
▁milking	-11.0371
▁eva	-11.0372
▁bothered	-11.0373
▁honored	-11.0377
▁chaps	-11.0377
▁incidents	-11.0381
▁treating	-11.0382
▁whatwhat	-11.0382
▁faithful	-11.0383
▁hesitates	-11.0383
nows	-11.0386
▁axe	-11.039
▁packing	-11.0393
test	-11.0394
▁cooked	-11.0396
▁opposit	-11.0398
▁slap	-11.0401
▁nate	-11.0408
▁tracking	-11.041
▁sighting	-11.0413
▁charged	-11.0418
▁tables	-11.0418
aunt	-11.0425
▁missiles	-11.0425
▁stings	-11.0425
▁beard	-11.0426
▁apples	-11.0426
▁visiting	-11.0427
ide	-11.0432
▁medi	-11.0434
ying	-11.0435
ium	-11.0441
▁chickens	-11.0444
▁dam	-11.0446
▁rehearsals	-11.0454
▁vehicles	-11.0454
▁flintstones	-11.0454
igh	-11.0455
▁laying	-11.0457
▁dep	-11.0463
▁foundation	-11.0464
▁watches	-11.0464
▁ty	-11.0475
▁naive	-11.048
▁emojis	-11.0483
▁pirates	-11.0483
▁def	-11.0491
▁torn	-11.0493
▁nos	-11.05
▁feared	-11.0501
▁ay	-11.0501
▁claws	-11.0505
lyns	-11.0513
▁predict	-11.0522
▁shown	-11.053
gged	-11.053
▁sends	-11.0546
▁union	-11.056
▁kicking	-11.0569
▁kam	-11.0584
▁strap	-11.0586
▁ir	-11.0593
▁snails	-11.0598
▁hip	-11.0601
▁nations	-11.0602
▁tru	-11.0621
▁exterminate	-11.0626
▁gorillas	-11.0627
▁miracles	-11.0627
▁spike	-11.0627
ours	-11.0639
iness	-11.0649
▁swis	-11.0658
iving	-11.0662
▁russians	-11.0686
▁hoo	-11.0688
▁toys	-11.0691
say	-11.0714
▁clouds	-11.0743
pit	-11.0747
gan	-11.0748
gar	-11.0753
▁jo	-11.0753
ime	-11.0756
▁aunts	-11.0763
▁dre	-11.0764
ue	-11.0769
▁creeps	-11.0772
▁quarters	-11.078
▁cleared	-11.0788
ddy	-11.0801
▁winners	-11.0802
eck	-11.0808
▁prints	-11.0808
▁faced	-11.0822
▁lively	-11.0823
▁trusted	-11.0825
▁masters	-11.0842
▁mic	-11.085
inister	-11.0869
▁wheels	-11.0885
▁directions	-11.0892
where	-11.0896
▁covers	-11.09
▁rod	-11.0908
point	-11.0911
bre	-11.0914
▁handy	-11.0916
cher	-11.0916
cock	-11.0928
▁comments	-11.0934
ement	-11.0948
▁parad	-11.0952
▁ga	-11.0964
▁she	-11.0975
▁wanting	-11.0983
▁ache	-11.0986
▁lawyers	-11.1008
▁controll	-11.1013
ang	-11.102
ture	-11.104
▁signs	-11.1046
▁calculate	-11.1048
▁dates	-11.1051
▁elses	-11.107
▁hesitate	-11.1082
fitting	-11.1098
▁whi	-11.1114
ab	-11.1115
▁ti	-11.1138
▁operations	-11.1157
▁tucks	-11.1161
▁spirits	-11.1187
hle	-11.1197
▁mart	-11.1197
ken	-11.1202
▁tastes	-11.1219
▁rode	-11.1229
▁resting	-11.123
▁cruci	-11.1234
▁char	-11.1238
tical	-11.1244
gen	-11.125
▁oof	-11.1258
ties	-11.1262
▁ni	-11.1264
▁fellows	-11.1277
▁jeff	-11.1295
ago	-11.1308
ante	-11.1308
▁sta	-11.1333
▁bridges	-11.1337
▁decisions	-11.1337
rry	-11.1338
▁dev	-11.1354
hu	-11.136
table	-11.1387
▁stab	-11.1391
ries	-11.1391
▁speeds	-11.1401
how	-11.1406
▁spa	-11.1416
▁ahha	-11.1434
▁uni	-11.1452
eve	-11.1475
ose	-11.1487
ickens	-11.1494
▁alli	-11.1515
ral	-11.152
ata	-11.152
uk	-11.1536
▁flak	-11.1544
▁stor	-11.1549
pie	-11.156
doubted	-11.1571
tically	-11.1608
bu	-11.1609
▁areas	-11.1609
▁blo	-11.1609
▁some	-11.1616
▁sings	-11.1623
▁burglar	-11.1624
rating	-11.1627
▁cartoon	-11.1628
▁pumpkin	-11.1629
▁wednesday	-11.1629
▁item	-11.163
▁invention	-11.1631
▁scout	-11.1634
att	-11.1636
▁document	-11.1637
▁overlord	-11.1637
▁ooo	-11.1638
▁vogon	-11.1639
▁cheek	-11.164
▁sailor	-11.1641
▁height	-11.1645
▁warrior	-11.1645
▁heel	-11.1647
▁statue	-11.1651
▁paw	-11.1652
▁factor	-11.1664
▁trucks	-11.1671
▁drives	-11.1678
▁lip	-11.1684
▁scar	-11.1696
▁worship	-11.1699
▁dor	-11.1707
▁stinkin	-11.1708
▁flee	-11.1719
▁manner	-11.1721
▁imagin	-11.1723
youre	-11.1726
▁swirl	-11.1727
loo	-11.1734
▁cent	-11.1738
▁transform	-11.1742
▁swam	-11.1746
handed	-11.1748
ular	-11.1748
▁tradition	-11.1748
▁complain	-11.1752
▁experienc	-11.1761
five	-11.1762
▁aid	-11.1762
▁celebr	-11.1765
▁crunch	-11.1769
▁spends	-11.1769
▁shrink	-11.1772
▁squish	-11.1772
range	-11.1773
▁invent	-11.1776
▁distract	-11.1778
▁squeal	-11.1778
▁terror	-11.1783
▁melvin	-11.1785
▁invest	-11.1787
▁cancel	-11.1787
▁establish	-11.1788
▁disappoint	-11.1788
▁surround	-11.1789
▁gato	-11.1791
▁defy	-11.1792
▁commission	-11.1792
▁retire	-11.1796
▁resolve	-11.1796
▁frame	-11.1798
bug	-11.1798
life	-11.1799
▁wealth	-11.1799
▁recover	-11.18
minute	-11.18
plus	-11.18
mouth	-11.1801
speed	-11.1801
▁facilit	-11.1801
stick	-11.1802
boat	-11.1803
oui	-11.1804
▁convenient	-11.1805
shot	-11.1805
dont	-11.1806
▁immediate	-11.1807
stein	-11.1807
▁bunk	-11.1807
▁bleed	-11.1807
▁jani	-11.1808
▁beak	-11.1808
made	-11.1808
▁glide	-11.1811
▁realise	-11.1811
▁extensi	-11.1812
▁confi	-11.1813
trap	-11.1813
▁russia	-11.1814
▁withdraw	-11.1814
▁easie	-11.1815
inlaw	-11.1815
this	-11.1815
▁accelerat	-11.1816
bit	-11.1818
▁movin	-11.1818
▁kiddin	-11.1819
▁infect	-11.1819
eather	-11.1819
commend	-11.182
▁plea	-11.182
▁entertain	-11.182
els	-11.1821
▁hurl	-11.1821
▁multipl	-11.1821
▁alabama	-11.1821
▁alternative	-11.1821
▁altogether	-11.1821
▁ammunition	-11.1821
▁anniversary	-11.1821
▁apiary	-11.1821
▁automated	-11.1821
▁awkward	-11.1821
▁barbecue	-11.1821
▁bargain	-11.1821
▁barrier	-11.1821
▁bathtub	-11.1821
▁bedrock	-11.1821
▁beeblebrox	-11.1821
▁bicycle	-11.1821
▁bourbon	-11.1821
▁breach	-11.1821
▁bruise	-11.1821
▁buffet	-11.1821
▁cadillac	-11.1821
▁caesar	-11.1821
▁calendar	-11.1821
▁carnival	-11.1821
▁censor	-11.1821
▁choir	-11.1821
▁circuit	-11.1821
▁circumnavigat	-11.1821
▁clamoring	-11.1821
▁contempt	-11.1821
▁convenience	-11.1821
▁crisis	-11.1821
▁dbob	-11.1821
▁dungeon	-11.1821
▁economy	-11.1821
▁election	-11.1821
▁elegant	-11.1821
▁escaping	-11.1821
▁excess	-11.1821
▁exploring	-11.1821
▁fanfare	-11.1821
▁fascist	-11.1821
▁fenderbaum	-11.1821
▁fluffy	-11.1821
▁ghoul	-11.1821
▁gibberish	-11.1821
▁gordon	-11.1821
▁gracias	-11.1821
▁grandchildren	-11.1821
▁gratitude	-11.1821
▁groove	-11.1821
▁gypsy	-11.1821
▁hartmann	-11.1821
▁indonesia	-11.1821
▁ingenious	-11.1821
▁jackpot	-11.1821
▁jefferson	-11.1821
▁jenkins	-11.1821
▁judging	-11.1821
▁judgment	-11.1821
▁karaoke	-11.1821
▁kattie	-11.1821
▁keynote	-11.1821
▁kirstie	-11.1821
▁leonard	-11.1821
▁liliane	-11.1821
▁lizard	-11.1821
▁lsabel	-11.1821
▁madagascar	-11.1821
▁maximum	-11.1821
▁millbarge	-11.1821
▁mortgage	-11.1821
▁moscow	-11.1821
▁motorcycle	-11.1821
▁muiranthias	-11.1821
▁nagamaki	-11.1821
▁necessarily	-11.1821
▁negus	-11.1821
▁nintendo	-11.1821
▁octopus	-11.1821
▁okeydoke	-11.1821
▁oldfashioned	-11.1821
▁onebakersix	-11.1821
▁orchard	-11.1821
▁polluted	-11.1821
▁preconceptions	-11.1821
▁premises	-11.1821
▁profile	-11.1821
▁progress	-11.1821
▁pudding	-11.1821
▁pursue	-11.1821
▁relentless	-11.1821
▁rendezvous	-11.1821
▁reopen	-11.1821
▁sabotage	-11.1821
▁safari	-11.1821
▁sardine	-11.1821
▁scaredycat	-11.1821
▁separation	-11.1821
▁shabby	-11.1821
▁shepherd	-11.1821
▁smoking	-11.1821
▁southwest	-11.1821
▁spectroscope	-11.1821
▁squirt	-11.1821
▁stacey	-11.1821
▁steak	-11.1821
▁struck	-11.1821
▁topkick	-11.1821
▁transmission	-11.1821
▁transplant	-11.1821
▁tunnei	-11.1821
▁underwear	-11.1821
▁unhappy	-11.1821
▁unnatural	-11.1821
▁uuh	-11.1821
▁veryfar	-11.1821
▁vigusian	-11.1821
▁wyoming	-11.1821
▁afterwards	-11.1821
▁britain	-11.1821
▁conceal	-11.1821
▁federal	-11.1821
▁ifyou	-11.1821
▁lajoie	-11.1821
▁maroon	-11.1821
▁mawr	-11.1821
▁mph	-11.1821
▁oysters	-11.1821
▁portsmouth	-11.1821
▁profit	-11.1821
▁session	-11.1821
▁smog	-11.1821
▁sofa	-11.1821
▁volume	-11.1821
▁chivalr	-11.1821
▁drix	-11.1821
▁elaine	-11.1821
▁ellman	-11.1821
▁hull	-11.1821
▁iike	-11.1821
▁lavender	-11.1821
▁scalp	-11.1821
▁yikes	-11.1821
▁apprentice	-11.1821
▁bueno	-11.1821
▁bunion	-11.1821
▁grain	-11.1821
▁boston	-11.1821
▁davis	-11.1821
▁impact	-11.1821
▁sansho	-11.1821
▁telegram	-11.1821
▁bugging	-11.1821
▁delusion	-11.1821
▁hadley	-11.1821
▁barefoot	-11.1821
▁beetle	-11.1821
▁hyperspace	-11.1821
▁stomp	-11.1821
▁stadium	-11.1821
▁intimate	-11.1821
▁jersey	-11.1821
▁ransom	-11.1821
▁slurps	-11.1821
▁volante	-11.1821
▁domain	-11.1821
▁fruitcake	-11.1821
▁obsess	-11.1821
▁priorities	-11.1821
▁waiver	-11.1821
eroni	-11.1821
▁aero	-11.1821
▁darlin	-11.1821
dmother	-11.1821
▁latin	-11.1821
▁scheme	-11.1821
▁pompo	-11.1821
▁skate	-11.1821
▁rattling	-11.1821
▁oars	-11.1821
▁rival	-11.1821
▁underworld	-11.1821
▁download	-11.1821
▁allergies	-11.1821
▁glamour	-11.1821
▁consum	-11.1821
▁flaming	-11.1821
▁fortyfive	-11.1821
▁alumn	-11.1821
▁undertake	-11.1821
▁adios	-11.1821
▁aggressive	-11.1821
▁shuffle	-11.1821
▁beady	-11.1821
▁panzer	-11.1821
▁bonnie	-11.1821
▁scatting	-11.1821
▁doublecross	-11.1821
▁contrary	-11.1821
▁teri	-11.1821
▁essay	-11.1821
▁referring	-11.1821
▁proposition	-11.1821
▁neviile	-11.1821
▁comedian	-11.1821
▁humina	-11.1822
▁wagon	-11.1822
▁zab	-11.1822
▁toronto	-11.1822
▁sleeve	-11.1822
▁marries	-11.1822
▁snuck	-11.1822
▁entry	-11.1822
▁token	-11.1822
▁snapping	-11.1822
▁kidnapper	-11.1822
▁lunatic	-11.1822
▁rookery	-11.1822
▁administration	-11.1822
burger	-11.1822
▁flashlight	-11.1822
▁yuck	-11.1822
▁riff	-11.1822
▁absent	-11.1822
▁seville	-11.1822
▁huff	-11.1822
▁relay	-11.1822
▁nuns	-11.1822
▁thump	-11.1822
▁engagement	-11.1822
▁investigative	-11.1822
▁stitch	-11.1822
▁edward	-11.1822
▁brian	-11.1822
▁conrad	-11.1822
▁razo	-11.1822
▁distinction	-11.1823
▁smite	-11.1823
▁banish	-11.1823
▁wildlife	-11.1823
▁intention	-11.1823
▁muert	-11.1823
▁series	-11.1823
▁choo	-11.1823
▁cozy	-11.1823
▁heir	-11.1823
▁casa	-11.1823
▁snapped	-11.1823
▁oohooh	-11.1823
▁occasional	-11.1823
▁inhabit	-11.1823
pong	-11.1823
▁embark	-11.1823
▁hysterical	-11.1823
▁dynamic	-11.1823
▁embarrassment	-11.1823
▁underground	-11.1823
▁whirl	-11.1823
▁fern	-11.1823
▁crate	-11.1823
▁barbarian	-11.1824
▁tackle	-11.1824
▁minister	-11.1824
▁henk	-11.1824
▁brass	-11.1824
▁trenches	-11.1824
▁mutters	-11.1824
▁chump	-11.1824
▁frustrated	-11.1824
▁foryou	-11.1824
▁poker	-11.1824
▁sammy	-11.1824
▁album	-11.1825
▁meanwhile	-11.1825
▁rummag	-11.1825
▁cork	-11.1825
▁agh	-11.1825
▁caption	-11.1825
▁eagleton	-11.1825
▁shant	-11.1825
▁gig	-11.1825
▁coup	-11.1825
▁instructor	-11.1825
▁brokendown	-11.1825
▁gangway	-11.1826
▁proto	-11.1826
▁travelled	-11.1826
▁lottery	-11.1826
▁acid	-11.1826
▁emotional	-11.1826
▁tripped	-11.1826
▁grey	-11.1826
▁forg	-11.1826
▁popped	-11.1827
▁fuzzy	-11.1827
▁satan	-11.1827
▁oxen	-11.1827
▁barge	-11.1827
▁unborn	-11.1827
▁nbs	-11.1827
▁happier	-11.1827
▁roommate	-11.1827
▁collapsed	-11.1827
▁wax	-11.1827
▁dropbox	-11.1827
▁pki	-11.1827
▁psst	-11.1827
▁counselor	-11.1828
▁kath	-11.1829
▁chum	-11.1829
▁bake	-11.1829
▁marie	-11.1829
▁sala	-11.1829
▁polk	-11.183
▁valve	-11.183
▁stranded	-11.183
▁cruiser	-11.183
▁successor	-11.183
▁rang	-11.183
▁merci	-11.183
▁gagging	-11.183
▁robinson	-11.1831
▁gutter	-11.1831
▁tech	-11.1831
▁larry	-11.1831
▁hospitality	-11.1832
▁housekeeper	-11.1832
ffel	-11.1832
▁lump	-11.1832
▁forth	-11.1832
▁eastman	-11.1833
▁operate	-11.1833
▁mui	-11.1833
▁robotic	-11.1834
▁hideous	-11.1834
▁dug	-11.1835
▁moi	-11.1835
▁tapping	-11.1836
▁dong	-11.1836
▁potty	-11.1836
eval	-11.1837
▁bub	-11.1837
▁hoist	-11.1838
▁gram	-11.1838
▁acceptable	-11.1838
▁portion	-11.1838
▁mild	-11.1839
▁divided	-11.1839
▁melodrama	-11.1839
▁takin	-11.184
▁purser	-11.184
▁baboons	-11.184
▁poachers	-11.184
▁slime	-11.184
▁engaged	-11.1842
▁packers	-11.1842
▁accomplished	-11.1842
▁presentation	-11.1842
▁defensi	-11.1842
▁warts	-11.1843
▁creative	-11.1844
▁reel	-11.1844
▁isolated	-11.1845
▁furious	-11.1845
▁swamp	-11.1847
▁dismissed	-11.1848
▁growth	-11.1848
▁vase	-11.1848
▁moore	-11.1849
▁ail	-11.185
▁sharing	-11.185
▁shipment	-11.1851
▁kiddo	-11.1851
▁unto	-11.1853
▁canceled	-11.1854
▁instantly	-11.1854
▁improbability	-11.1854
▁vent	-11.1855
▁described	-11.1855
▁runaway	-11.1855
▁services	-11.1856
▁bloom	-11.1856
▁pup	-11.1856
▁tubes	-11.1857
▁equally	-11.1858
▁inhales	-11.1858
▁erase	-11.186
▁registered	-11.1862
▁bio	-11.1863
▁trailer	-11.1864
▁attracted	-11.1866
▁connected	-11.1866
▁scaring	-11.1866
▁howls	-11.1869
▁spat	-11.187
▁consequences	-11.1873
▁underhills	-11.1873
▁relations	-11.1873
▁watt	-11.1874
▁imperi	-11.1875
▁linked	-11.1877
▁loot	-11.1884
▁smiler	-11.1885
▁bry	-11.1886
▁saddle	-11.1886
rad	-11.1886
▁positively	-11.1887
▁gonzo	-11.1887
eep	-11.1887
headed	-11.1891
▁whys	-11.1894
▁showtime	-11.1896
▁whiz	-11.1897
▁blink	-11.1903
▁pains	-11.1904
▁zords	-11.1906
▁prawns	-11.1906
▁predators	-11.1906
▁donations	-11.1907
▁earned	-11.1907
▁stevens	-11.1907
▁hem	-11.191
▁bark	-11.1915
▁surprises	-11.1922
▁ant	-11.1924
keep	-11.1924
▁op	-11.1927
▁stretching	-11.1928
▁swinging	-11.1932
▁cling	-11.1934
▁mint	-11.1936
▁pasta	-11.1937
▁fooglies	-11.194
mal	-11.1942
▁pr	-11.1943
▁grandmas	-11.1949
▁completed	-11.1949
▁gogh	-11.1952
▁bobs	-11.1956
▁deserved	-11.1959
▁rein	-11.1959
▁camel	-11.1959
▁defender	-11.1961
▁riddles	-11.1964
▁scratching	-11.1965
▁nighttime	-11.1965
ugh	-11.1967
▁risky	-11.1967
▁poisoned	-11.1968
▁pale	-11.1969
▁thoughtful	-11.1973
▁vegetables	-11.1974
▁tribes	-11.1977
▁baileys	-11.198
▁harmed	-11.198
▁cope	-11.1981
▁hangin	-11.1982
▁boards	-11.1986
▁existed	-11.1988
▁gathering	-11.199
▁chopp	-11.1993
▁pep	-11.1993
▁slate	-11.1994
▁bot	-11.2001
▁announced	-11.2001
▁reminded	-11.2004
zi	-11.2005
▁sinking	-11.2006
▁documents	-11.2008
▁overlords	-11.2008
▁heels	-11.2009
▁shortly	-11.2011
▁girlie	-11.2018
▁pounding	-11.2022
▁reai	-11.2029
oma	-11.2033
▁neednt	-11.2042
▁reviews	-11.2042
▁payments	-11.2043
▁slit	-11.2044
▁affairs	-11.2045
▁practiced	-11.2047
▁armor	-11.2049
▁meetings	-11.2051
▁peel	-11.2053
▁blocked	-11.2055
▁caps	-11.2056
▁dope	-11.2062
▁exception	-11.2063
ability	-11.2063
hat	-11.2066
▁jewel	-11.2066
▁kin	-11.2067
▁comedy	-11.2073
▁coffins	-11.2077
▁germs	-11.2077
▁connections	-11.2077
going	-11.2082
car	-11.2082
▁tricked	-11.209
version	-11.2094
▁seize	-11.2095
▁washing	-11.2097
ping	-11.2101
▁flake	-11.2108
▁baudelaires	-11.2111
▁buckets	-11.2111
▁rehydrate	-11.2117
▁crashed	-11.2119
▁er	-11.2119
▁printer	-11.212
▁congratulate	-11.2124
mit	-11.2124
▁amor	-11.2127
▁pul	-11.2134
▁puppets	-11.2145
▁products	-11.2145
▁anne	-11.2157
▁smelly	-11.2159
authorized	-11.2168
▁laughed	-11.2178
▁stakes	-11.218
▁socks	-11.2183
▁obs	-11.2184
▁lighter	-11.2187
plan	-11.2206
▁handled	-11.221
ello	-11.2211
▁warming	-11.2213
elle	-11.2217
▁guessing	-11.2217
▁victims	-11.2221
▁jets	-11.2222
▁swor	-11.223
▁rancher	-11.2231
▁oop	-11.2233
▁explains	-11.2236
▁results	-11.2249
▁detectives	-11.2249
▁sharks	-11.225
▁illness	-11.2255
elf	-11.2257
▁tes	-11.2266
▁relaxed	-11.2272
▁duel	-11.2276
▁equals	-11.2283
▁chairs	-11.2283
▁spying	-11.2285
▁pussy	-11.2298
name	-11.2307
▁marshall	-11.2319
dodgers	-11.232
▁bananas	-11.2353
▁penguins	-11.2353
▁chains	-11.2359
▁vic	-11.2359
▁timing	-11.2371
tty	-11.2374
▁rounds	-11.2378
▁subjects	-11.2388
▁paintings	-11.2389
▁shines	-11.2407
lan	-11.241
▁ol	-11.2416
▁disappears	-11.2421
▁dada	-11.2424
dest	-11.2425
hold	-11.2437
▁lur	-11.2443
▁boxing	-11.2443
▁relaxing	-11.2444
ford	-11.2451
ector	-11.2452
▁marrying	-11.2452
▁babes	-11.2454
▁severe	-11.2456
▁nicer	-11.2457
▁meals	-11.2458
▁coopers	-11.2498
▁grows	-11.2505
▁qu	-11.2505
pol	-11.2526
▁organs	-11.2529
▁bakers	-11.2529
▁neighbors	-11.2564
tion	-11.2585
▁cra	-11.2595
nes	-11.2597
▁kenn	-11.2599
oli	-11.26
▁adventures	-11.2606
bach	-11.2621
▁whil	-11.2631
tes	-11.2634
▁julies	-11.2639
coat	-11.2652
▁sum	-11.2656
▁calculat	-11.2662
position	-11.2667
ctic	-11.2683
ronto	-11.2698
sai	-11.2698
▁snaps	-11.2703
▁pages	-11.2705
ja	-11.2723
active	-11.2728
▁dom	-11.2729
▁tongues	-11.2741
ov	-11.2761
▁loo	-11.2769
▁banker	-11.2773
▁spic	-11.2774
▁restaurants	-11.2777
▁partners	-11.2777
▁wak	-11.2797
▁getyou	-11.2808
▁bing	-11.283
aki	-11.2834
anza	-11.2838
ants	-11.2844
▁ur	-11.2847
▁eu	-11.285
▁lifes	-11.2858
gie	-11.2886
iii	-11.2889
▁passer	-11.29
▁historic	-11.2901
nie	-11.2911
▁sounding	-11.2912
▁deserts	-11.292
lub	-11.2923
ological	-11.2927
▁mend	-11.2939
▁accounts	-11.2953
▁devils	-11.2956
lings	-11.2959
aging	-11.2962
▁treats	-11.2965
ak	-11.2981
lie	-11.2983
▁ping	-11.2988
opat	-11.2991
illi	-11.2996
▁boob	-11.3002
mark	-11.3006
▁fla	-11.3009
▁meaner	-11.302
gra	-11.3031
▁hen	-11.3038
tze	-11.3046
▁proves	-11.3059
▁bonds	-11.3064
▁pointing	-11.3076
▁wanton	-11.308
▁braces	-11.3102
▁mir	-11.313
loyalty	-11.3132
mber	-11.3145
▁shhh	-11.3165
▁marvel	-11.317
▁blocks	-11.3177
▁pend	-11.3189
▁peas	-11.3218
▁chin	-11.3232
skin	-11.3232
▁ble	-11.3234
▁rains	-11.3245
▁pint	-11.3246
cat	-11.3247
stern	-11.3252
pal	-11.3253
lush	-11.3255
▁sayin	-11.3255
gon	-11.3265
▁kr	-11.3272
elli	-11.3281
▁knocks	-11.3292
▁lens	-11.3296
ado	-11.33
▁systems	-11.332
▁nob	-11.3337
odie	-11.3352
bel	-11.3365
▁mee	-11.3375
▁ambi	-11.3375
lumber	-11.3385
inner	-11.3393
ional	-11.3398
sure	-11.343
▁ale	-11.3448
▁vot	-11.346
▁phones	-11.347
▁oppos	-11.347
▁pra	-11.3476
▁scrap	-11.3481
▁cooks	-11.3508
▁how	-11.3508
ris	-11.3522
▁sch	-11.3537
▁visi	-11.3547
▁via	-11.3555
▁pals	-11.3556
▁beers	-11.3568
▁spots	-11.3576
▁await	-11.3578
▁mas	-11.3578
mic	-11.3579
▁guessed	-11.3585
row	-11.3588
ele	-11.3594
▁wound	-11.3598
▁click	-11.3605
▁opera	-11.3605
▁trou	-11.3618
▁guinea	-11.3629
▁rainbow	-11.3634
▁stray	-11.3634
▁chemical	-11.3634
▁emotion	-11.3636
▁vegetable	-11.3637
▁replacement	-11.3638
▁troop	-11.3638
tile	-11.364
▁relative	-11.364
▁pearl	-11.3641
▁slipper	-11.3644
▁stair	-11.3645
▁dolphin	-11.3646
▁tribe	-11.3649
ada	-11.3654
ks	-11.3659
▁bean	-11.366
▁rever	-11.3662
▁jun	-11.3664
▁heroic	-11.3669
▁sneeze	-11.367
▁temp	-11.368
▁cy	-11.3697
▁athlet	-11.3729
▁bea	-11.3733
▁norm	-11.3736
ck	-11.3736
▁alleg	-11.3739
▁clip	-11.3752
▁yanke	-11.3752
▁sw	-11.376
owed	-11.3761
power	-11.3767
sick	-11.3772
▁cone	-11.3773
▁ditch	-11.3774
▁accord	-11.3776
▁clink	-11.3776
▁but	-11.3777
hhh	-11.378
▁attach	-11.3781
girl	-11.3786
▁dismiss	-11.3788
▁thrill	-11.3789
walk	-11.3789
▁reveal	-11.3789
▁dread	-11.379
▁fulfill	-11.3791
load	-11.3792
read	-11.3792
now	-11.3793
cut	-11.3796
talk	-11.3797
▁engage	-11.3797
turned	-11.3797
proof	-11.3797
▁declare	-11.3798
▁assemble	-11.3798
drift	-11.3798
hq	-11.3798
▁divide	-11.3799
denial	-11.3799
defense	-11.3799
▁relieve	-11.38
burn	-11.38
chair	-11.38
bury	-11.38
yeah	-11.3801
▁mush	-11.3802
▁filth	-11.3802
food	-11.3803
▁adore	-11.3803
dorf	-11.3804
col	-11.3804
▁origin	-11.3804
not	-11.3804
anne	-11.3805
▁coco	-11.3805
▁triumphant	-11.3805
▁ferr	-11.3806
week	-11.3808
▁inventor	-11.3808
▁inde	-11.3809
▁whip	-11.3809
case	-11.3809
▁mexic	-11.3809
▁isolate	-11.381
bleh	-11.381
ack	-11.3811
▁teenage	-11.3812
▁cockroach	-11.3813
▁bald	-11.3814
cure	-11.3814
guy	-11.3815
wind	-11.3815
▁inspect	-11.3815
▁aqu	-11.3816
▁exhibit	-11.3818
▁snip	-11.3818
▁addict	-11.3819
▁sixteen	-11.3819
▁foo	-11.3819
▁roman	-11.3819
▁refresh	-11.3819
▁galactic	-11.382
▁dwell	-11.382
audible	-11.382
▁outrage	-11.382
▁flint	-11.3821
▁jacque	-11.3821
▁urge	-11.3821
wrench	-11.3821
▁accompany	-11.3821
▁acknowledge	-11.3821
▁alaska	-11.3821
▁amateur	-11.3821
▁ambassador	-11.3821
▁anastasia	-11.3821
▁ankles	-11.3821
▁anticipat	-11.3821
▁applesauce	-11.3821
▁argument	-11.3821
▁aristocrat	-11.3821
▁aspirin	-11.3821
▁babinot	-11.3821
▁batcave	-11.3821
▁behaviour	-11.3821
▁belknap	-11.3821
▁beryl	-11.3821
▁blumburtt	-11.3821
▁brooklyn	-11.3821
▁burrito	-11.3821
▁catholic	-11.3821
▁cereal	-11.3821
▁chalice	-11.3821
▁chandelier	-11.3821
▁charcoal	-11.3821
▁chelina	-11.3821
▁chitchat	-11.3821
▁chronic	-11.3821
▁cockatoo	-11.3821
▁colleague	-11.3821
▁concludes	-11.3821
▁connors	-11.3821
▁counterattack	-11.3821
▁critical	-11.3821
▁criticism	-11.3821
▁croaking	-11.3821
▁december	-11.3821
▁demolish	-11.3821
▁demolition	-11.3821
▁deodorant	-11.3821
▁dispatch	-11.3821
▁doeuvre	-11.3821
▁doktor	-11.3821
▁dublin	-11.3821
▁dushanbe	-11.3821
▁ecstasy	-11.3821
▁eisenhower	-11.3821
▁eleven	-11.3821
▁espionage	-11.3821
▁evanora	-11.3821
▁fantasy	-11.3821
▁ferocious	-11.3821
▁fireplace	-11.3821
▁folley	-11.3821
▁frambois	-11.3821
▁garcia	-11.3821
▁generosity	-11.3821
▁gertrude	-11.3821
▁grasp	-11.3821
▁guacamole	-11.3821
▁harbour	-11.3821
▁hideandseek	-11.3821
▁hobby	-11.3821
▁horror	-11.3821
▁humiliating	-11.3821
▁hypothalamus	-11.3821
▁imprisoned	-11.3821
▁industry	-11.3821
▁infirmary	-11.3821
▁install	-11.3821
▁intact	-11.3821
▁jumanji	-11.3821
▁lemchek	-11.3821
▁lincoln	-11.3821
▁liquid	-11.3821
▁macarena	-11.3821
▁mackerel	-11.3821
▁makebelieve	-11.3821
▁margaret	-11.3821
▁matteo	-11.3821
▁mcgovern	-11.3821
▁meerkat	-11.3821
▁merchant	-11.3821
▁microchip	-11.3821
▁microwave	-11.3821
▁mongrel	-11.3821
▁monstrule	-11.3821
▁nijmegen	-11.3821
▁nitwit	-11.3821
▁norton	-11.3821
▁nutmeg	-11.3821
▁orchestra	-11.3821
▁osmosis	-11.3821
▁palmyra	-11.3821
▁parseghian	-11.3821
▁pavarotti	-11.3821
▁perfume	-11.3821
▁petunia	-11.3821
▁phantom	-11.3821
▁phlurm	-11.3821
▁pneumonia	-11.3821
▁population	-11.3821
▁positivity	-11.3821
▁prostitution	-11.3821
▁puddle	-11.3821
▁pyjamas	-11.3821
▁quimby	-11.3821
▁raccoons	-11.3821
▁receipt	-11.3821
▁reinforcements	-11.3821
▁reluctant	-11.3821
▁rescuing	-11.3821
▁ritchie	-11.3821
▁rochester	-11.3821
▁sanctuary	-11.3821
▁saunders	-11.3821
▁schuster	-11.3821
▁scoot	-11.3821
▁sensation	-11.3821
▁snorting	-11.3821
▁soothing	-11.3821
▁spaghetti	-11.3821
▁steckler	-11.3821
▁stephano	-11.3821
▁stonehenge	-11.3821
▁stool	-11.3821
▁strasser	-11.3821
▁striking	-11.3821
▁struggling	-11.3821
▁stubborn	-11.3821
▁sunrise	-11.3821
▁suspense	-11.3821
▁suspicion	-11.3821
▁sympathy	-11.3821
▁symptoms	-11.3821
▁syrup	-11.3821
▁temporarily	-11.3821
▁tennessee	-11.3821
▁terrace	-11.3821
▁textopolis	-11.3821
▁tokyo	-11.3821
▁toothbrush	-11.3821
▁toothpaste	-11.3821
▁tremendous	-11.3821
▁tynah	-11.3821
▁ucla	-11.3821
▁unacceptable	-11.3821
▁vacuum	-11.3821
▁vancouver	-11.3821
▁veterinarian	-11.3821
▁vicinity	-11.3821
▁vinny	-11.3821
▁virtue	-11.3821
▁volleyball	-11.3821
▁vulture	-11.3821
▁willat	-11.3821
▁wisconsin	-11.3821
▁yawning	-11.3821
▁yoriko	-11.3821
▁zamu	-11.3821
▁beddersvere	-11.3821
▁carpenter	-11.3821
▁conflict	-11.3821
▁cretin	-11.3821
▁domino	-11.3821
▁ferrell	-11.3821
▁glitter	-11.3821
▁hawaii	-11.3821
▁herald	-11.3821
▁horde	-11.3821
▁importance	-11.3821
▁juggl	-11.3821
▁kiri	-11.3821
▁kodo	-11.3821
▁paddle	-11.3821
▁parasol	-11.3821
▁parlor	-11.3821
▁priya	-11.3821
▁sliding	-11.3821
▁stereo	-11.3821
▁superstar	-11.3821
▁swift	-11.3821
▁wheat	-11.3821
▁whisker	-11.3821
▁wrist	-11.3821
▁zubi	-11.3821
▁grumbles	-11.3821
▁initials	-11.3821
▁nevertheless	-11.3821
▁orbit	-11.3821
▁oscar	-11.3821
▁periscope	-11.3821
▁ryley	-11.3821
▁sidekick	-11.3821
▁sperm	-11.3821
▁wallace	-11.3821
▁warehouse	-11.3821
▁wynn	-11.3821
▁panicked	-11.3821
▁seventeen	-11.3821
▁tampa	-11.3821
▁yelp	-11.3821
▁yippee	-11.3821
▁handicap	-11.3821
▁notorious	-11.3821
▁ambulance	-11.3821
▁buoy	-11.3821
▁finletter	-11.3821
▁gossip	-11.3821
▁harsh	-11.3821
▁noseholes	-11.3821
▁babbles	-11.3821
▁broussard	-11.3821
▁decoy	-11.3821
▁finstock	-11.3821
▁virgin	-11.3821
▁musnt	-11.3821
▁torch	-11.3821
▁vitamin	-11.3821
▁donnagon	-11.3821
▁reilly	-11.3821
▁shelves	-11.3821
▁lease	-11.3821
▁mccord	-11.3821
▁molly	-11.3821
▁oould	-11.3821
▁pasad	-11.3821
▁banquet	-11.3821
▁staircase	-11.3821
▁leftover	-11.3821
▁courtesy	-11.3821
▁salvatore	-11.3821
▁treacherous	-11.3821
▁stunning	-11.3821
▁cunning	-11.3821
▁hawkins	-11.3821
▁ritz	-11.3821
▁wakati	-11.3821
▁karlin	-11.3821
▁residence	-11.3821
▁butler	-11.3821
▁gracious	-11.3821
▁ounce	-11.3821
▁theories	-11.3821
▁basis	-11.3821
▁microphone	-11.3821
▁vandalism	-11.3821
▁felon	-11.3821
▁inviting	-11.3821
▁whines	-11.3821
▁piace	-11.3821
▁pacific	-11.3821
▁resent	-11.3821
▁believing	-11.3821
▁baffle	-11.3821
▁kindergarten	-11.3821
plex	-11.3821
▁biood	-11.3821
▁obtain	-11.3821
▁forbidden	-11.3821
▁awhile	-11.3821
▁hostility	-11.3821
▁employee	-11.3821
▁macaro	-11.3821
▁whims	-11.3821
▁donald	-11.3821
▁subtle	-11.3821
▁whittle	-11.3821
▁denver	-11.3821
▁gallery	-11.3821
▁companionship	-11.3821
▁jellyfish	-11.3821
▁ahmed	-11.3821
▁hostile	-11.3821
▁java	-11.3821
▁purr	-11.3822
▁lemonade	-11.3822
▁hub	-11.3822
▁whipped	-11.3822
▁usher	-11.3822
▁snoop	-11.3822
▁diversion	-11.3822
▁handkerchief	-11.3822
▁twerp	-11.3822
▁overnight	-11.3822
▁traitor	-11.3822
▁combination	-11.3822
▁fridge	-11.3822
▁edgy	-11.3822
einstein	-11.3822
▁email	-11.3822
▁humour	-11.3822
▁streak	-11.3822
▁aircraft	-11.3822
▁description	-11.3822
▁keypad	-11.3822
▁ancestor	-11.3822
▁shelf	-11.3822
▁waving	-11.3822
▁boredom	-11.3822
▁bozo	-11.3822
▁lyle	-11.3822
▁sava	-11.3822
▁random	-11.3822
▁olive	-11.3822
▁hades	-11.3823
▁fuses	-11.3823
▁raising	-11.3823
▁pesky	-11.3823
▁fluid	-11.3823
▁dentist	-11.3823
▁disorderly	-11.3823
▁passport	-11.3823
▁amos	-11.3823
▁finch	-11.3823
▁valet	-11.3823
▁boogie	-11.3823
▁edith	-11.3823
▁retirement	-11.3823
▁medium	-11.3823
▁notebook	-11.3823
▁bracelet	-11.3823
▁oiwa	-11.3823
▁classified	-11.3823
▁pierce	-11.3823
▁infra	-11.3823
▁grub	-11.3823
▁marcy	-11.3823
▁reference	-11.3823
▁holt	-11.3823
▁stiff	-11.3823
▁porch	-11.3823
▁fiftyone	-11.3823
▁asia	-11.3823
▁starkey	-11.3823
▁rake	-11.3823
▁wack	-11.3823
▁nutrition	-11.3823
▁spill	-11.3823
▁melancholy	-11.3823
▁monopoly	-11.3823
▁slant	-11.3823
▁buns	-11.3823
▁sobs	-11.3824
▁cupboard	-11.3824
▁continent	-11.3824
▁dimension	-11.3824
▁intensive	-11.3824
▁phrase	-11.3824
▁piracy	-11.3824
▁belief	-11.3824
▁flavor	-11.3824
▁dickhead	-11.3824
▁infection	-11.3824
▁disappearance	-11.3824
▁slavery	-11.3824
▁loneliness	-11.3824
▁granddaughter	-11.3824
dolf	-11.3824
▁annul	-11.3824
standing	-11.3824
▁hopping	-11.3825
▁dday	-11.3825
▁flock	-11.3825
▁associates	-11.3825
▁coordinates	-11.3825
▁echoes	-11.3825
▁lamp	-11.3825
▁dino	-11.3825
▁violation	-11.3825
▁unload	-11.3825
▁chinon	-11.3825
▁swap	-11.3825
▁cava	-11.3825
▁civilized	-11.3825
▁gummy	-11.3825
▁suitors	-11.3825
▁shipping	-11.3825
▁moonlight	-11.3825
▁peck	-11.3826
▁pug	-11.3826
▁aidit	-11.3826
▁astr	-11.3826
▁twa	-11.3826
▁divina	-11.3826
▁cafe	-11.3826
▁cities	-11.3826
▁distinctly	-11.3826
▁achieve	-11.3826
▁crackling	-11.3826
scot	-11.3826
▁jess	-11.3826
▁taxes	-11.3826
▁audition	-11.3826
▁snot	-11.3826
▁fink	-11.3826
▁reub	-11.3827
▁cheque	-11.3827
▁homing	-11.3827
▁furthe	-11.3827
▁woof	-11.3827
▁timmy	-11.3827
▁leah	-11.3827
▁gateway	-11.3828
▁static	-11.3828
▁bravery	-11.3828
▁panel	-11.3828
▁freezing	-11.3828
▁sicily	-11.3828
▁twitchy	-11.3828
▁ambition	-11.3828
▁hallway	-11.3828
tox	-11.3828
▁oxygen	-11.3829
▁craft	-11.3829
▁reign	-11.3829
▁preparation	-11.3829
▁warden	-11.383
▁franklin	-11.383
▁harmless	-11.383
▁missionary	-11.383
▁whack	-11.383
▁bellow	-11.383
▁wowser	-11.383
▁thou	-11.3831
▁era	-11.3831
▁linger	-11.3831
▁abuse	-11.3831
▁colony	-11.3831
▁mumble	-11.3831
▁permitted	-11.3831
▁opposition	-11.3831
▁extension	-11.3831
▁bugle	-11.3831
▁occupied	-11.3832
▁richardson	-11.3832
▁sag	-11.3832
▁stalin	-11.3832
▁outnumbered	-11.3832
▁gat	-11.3832
▁captur	-11.3832
▁jamie	-11.3832
▁bulletin	-11.3832
▁attraction	-11.3832
▁maur	-11.3832
▁nig	-11.3833
▁degenerate	-11.3833
▁deliveries	-11.3834
▁celebration	-11.3834
▁consideration	-11.3834
▁ninety	-11.3834
▁normality	-11.3834
▁lean	-11.3835
▁edit	-11.3835
▁vet	-11.3835
▁accountant	-11.3836
vili	-11.3836
▁shredding	-11.3836
▁exhausting	-11.3836
▁curb	-11.3837
▁ross	-11.3837
▁publicity	-11.3837
▁contribution	-11.3837
▁burrow	-11.3838
erature	-11.3838
grown	-11.3838
▁modest	-11.3838
ove	-11.3838
▁lsnt	-11.3838
▁protective	-11.3838
▁pail	-11.3838
▁spooked	-11.384
▁podo	-11.384
▁shattered	-11.384
▁pace	-11.3841
▁projector	-11.3841
keeper	-11.3841
▁ofthe	-11.3841
▁approaches	-11.3842
erci	-11.3842
▁mushy	-11.3842
▁rou	-11.3842
▁pact	-11.3842
▁dish	-11.3843
▁cameraman	-11.3843
▁foreigners	-11.3844
▁labor	-11.3844
▁hq	-11.3844
▁lark	-11.3844
▁drift	-11.3844
▁knapps	-11.3844
▁notion	-11.3844
▁sandwiches	-11.3844
▁phillips	-11.3845
▁denial	-11.3845
▁pester	-11.3845
▁hank	-11.3845
▁brownies	-11.3846
▁dc	-11.3846
▁honorable	-11.3846
▁recovery	-11.3846
▁burglary	-11.3847
▁hooting	-11.3847
▁sang	-11.3847
▁endure	-11.3848
▁organized	-11.3848
▁salad	-11.3849
ellar	-11.3849
▁rental	-11.385
▁rubin	-11.3851
▁bein	-11.3852
▁expos	-11.3853
▁wartime	-11.3854
uff	-11.3855
▁copies	-11.3857
▁caraway	-11.3857
▁moist	-11.3858
▁stillwell	-11.3859
▁employer	-11.3859
▁corny	-11.386
▁duo	-11.3862
▁established	-11.3862
▁transformed	-11.3862
▁july	-11.3864
▁iive	-11.3864
▁tres	-11.3865
▁awaiting	-11.3867
▁coop	-11.387
▁hamburger	-11.3871
▁legally	-11.3871
▁any	-11.3872
▁staked	-11.3874
▁gregg	-11.3876
▁affected	-11.3876
▁transforming	-11.3877
▁matches	-11.3877
▁thered	-11.3877
▁alans	-11.3878
▁presto	-11.3879
take	-11.3883
zt	-11.3884
▁spite	-11.3884
▁beverages	-11.3885
▁patzers	-11.3885
▁thuds	-11.3885
▁hallucinations	-11.3885
▁knuckles	-11.3886
▁handcuffs	-11.3886
▁straighten	-11.3887
▁deleted	-11.3887
▁reasonable	-11.3889
▁beaten	-11.389
▁haunting	-11.3891
▁han	-11.3892
rk	-11.3892
▁rations	-11.3893
▁fleet	-11.3894
▁formal	-11.3897
▁pouring	-11.3897
form	-11.3897
▁gator	-11.3898
▁divert	-11.3899
venue	-11.39
▁reminder	-11.3902
oxide	-11.3903
▁zit	-11.3905
▁mist	-11.3905
▁wea	-11.3906
▁moody	-11.3908
▁sss	-11.3908
▁bragg	-11.3912
▁beaches	-11.3915
rpent	-11.3916
▁carson	-11.3917
▁flushed	-11.3921
▁pinky	-11.3922
▁mustard	-11.3922
gai	-11.3922
▁princesses	-11.3923
▁dreamers	-11.3924
▁irony	-11.3924
▁ari	-11.3925
▁viper	-11.3927
▁toots	-11.3927
▁shallows	-11.3927
▁correctly	-11.393
cathed	-11.3935
▁lakers	-11.3935
▁drowned	-11.3939
▁pon	-11.3941
▁sew	-11.3942
▁walkon	-11.3943
▁fling	-11.3955
▁flushing	-11.3959
▁probe	-11.3961
▁ohoh	-11.3962
▁instruct	-11.3964
▁moss	-11.3967
chi	-11.3968
▁gaining	-11.3969
▁temperatures	-11.3969
▁tinkers	-11.3969
▁mammals	-11.3969
▁barrels	-11.3969
abbing	-11.3973
▁treaty	-11.3975
▁lords	-11.3976
▁performers	-11.3985
▁lent	-11.3986
▁borrowed	-11.3988
▁bent	-11.3997
▁sweating	-11.4
▁patch	-11.4002
▁dearest	-11.4003
▁ruler	-11.4005
▁dinners	-11.4007
▁suggesting	-11.401
▁strays	-11.4011
▁chemicals	-11.4012
▁rainbows	-11.4012
▁replacements	-11.4012
▁operat	-11.4013
▁dreamt	-11.4014
▁hiphop	-11.4017
▁designer	-11.4019
▁hens	-11.4023
▁tow	-11.4034
▁have	-11.4036
▁trainer	-11.404
▁ants	-11.4041
▁entered	-11.4041
▁delivering	-11.4042
▁walkin	-11.4047
uch	-11.4047
hea	-11.4049
▁scouts	-11.4054
▁seti	-11.4058
▁transferr	-11.4063
▁yyou	-11.4065
▁sleepin	-11.4067
▁mutt	-11.407
lapping	-11.407
▁poisoning	-11.4073
▁caper	-11.4078
▁horny	-11.4084
tta	-11.4085
▁weed	-11.4089
▁spyglass	-11.4095
▁zuzus	-11.4097
anned	-11.4098
▁standin	-11.4099
▁rig	-11.4099
look	-11.4107
▁risked	-11.411
▁globa	-11.411
amin	-11.4111
▁busting	-11.4115
▁buster	-11.4124
ency	-11.4128
▁ohhh	-11.4133
▁chugg	-11.4138
▁strains	-11.4138
▁includes	-11.4139
▁turtles	-11.4139
▁wilmas	-11.4146
lt	-11.4154
iona	-11.4162
▁perc	-11.4171
▁elements	-11.4178
used	-11.4178
gas	-11.4179
▁decades	-11.4182
▁australians	-11.4185
▁goons	-11.4187
▁rely	-11.4191
▁secretly	-11.4192
▁mulle	-11.4197
▁rustle	-11.4201
▁unse	-11.4202
▁peer	-11.4204
cycl	-11.421
▁wigs	-11.4223
▁muscles	-11.4225
▁fab	-11.424
▁melt	-11.4247
ula	-11.4256
cca	-11.4258
▁urin	-11.426
iff	-11.4262
▁cleaned	-11.4263
▁downs	-11.4264
▁senses	-11.4264
▁peek	-11.4264
▁submarines	-11.4268
▁watchin	-11.4272
▁tons	-11.4279
▁seated	-11.4295
▁interst	-11.4296
ural	-11.4298
▁hunters	-11.4309
▁patients	-11.4312
▁oid	-11.4314
hua	-11.4317
▁throws	-11.4319
doo	-11.4321
havin	-11.433
▁shorts	-11.4333
▁winds	-11.4333
▁suns	-11.4346
▁explained	-11.435
hour	-11.4351
kid	-11.4353
▁tit	-11.4357
▁sirens	-11.4359
▁teas	-11.436
▁strip	-11.4381
▁lightly	-11.4386
▁coconuts	-11.4398
▁arrives	-11.4399
▁collections	-11.4403
try	-11.4413
crete	-11.4421
▁traveler	-11.4431
▁novels	-11.4431
▁demands	-11.4442
▁pancakes	-11.4442
▁floods	-11.4444
▁shifts	-11.4444
▁playin	-11.4452
fax	-11.4457
▁diver	-11.447
ians	-11.4478
omin	-11.4481
▁shadows	-11.4486
win	-11.4486
▁hav	-11.4488
▁decks	-11.4497
▁floats	-11.4501
▁et	-11.4511
▁cans	-11.4525
▁instruments	-11.4529
▁ohio	-11.4541
▁winding	-11.4553
ridden	-11.4556
▁grandmothers	-11.4573
▁bandits	-11.4576
▁camper	-11.4577
▁figures	-11.4582
▁riddle	-11.4586
▁sil	-11.4601
▁fatal	-11.4607
▁sticking	-11.4611
tolera	-11.4613
▁helicopters	-11.4617
▁zones	-11.462
▁camping	-11.4627
amo	-11.4631
▁bala	-11.4634
▁stinks	-11.4636
key	-11.4639
▁scu	-11.4639
ila	-11.4641
▁shoulders	-11.4661
▁pri	-11.4672
▁pleasures	-11.4691
▁scores	-11.4703
▁newspapers	-11.4706
▁champions	-11.4709
ola	-11.472
▁goals	-11.4722
▁sales	-11.4723
▁bind	-11.4724
vous	-11.4737
pt	-11.4738
▁lone	-11.474
▁unti	-11.4745
very	-11.4759
▁buyer	-11.4787
▁der	-11.4789
▁coats	-11.4796
▁ignor	-11.4801
▁buildings	-11.4812
long	-11.4815
▁shirts	-11.4839
▁jerks	-11.4839
▁ofyou	-11.484
▁circulat	-11.4842
▁dim	-11.4842
but	-11.4858
▁signals	-11.4883
▁costumes	-11.4884
▁sails	-11.489
pan	-11.4891
▁mil	-11.4906
cho	-11.4907
era	-11.4907
lade	-11.4925
▁leaders	-11.493
▁clues	-11.4932
ria	-11.4932
▁tuni	-11.4935
▁bil	-11.4946
▁handles	-11.4959
▁returns	-11.4977
▁fri	-11.4982
▁meta	-11.5003
▁ups	-11.5011
▁primar	-11.5022
ax	-11.5033
▁deb	-11.5044
▁waitin	-11.5046
tory	-11.5076
▁oan	-11.5077
oint	-11.5081
▁karens	-11.5089
four	-11.5091
▁caw	-11.5095
▁initiate	-11.5096
▁macavitys	-11.5109
▁happi	-11.5129
▁feeds	-11.5131
▁fib	-11.5132
▁demonstrate	-11.5147
▁remains	-11.5159
▁walker	-11.5161
▁spar	-11.5163
▁bills	-11.5176
▁travels	-11.5179
▁penetrate	-11.518
song	-11.5198
▁halls	-11.5199
▁pickle	-11.5202
pel	-11.5217
▁ach	-11.5231
▁audiences	-11.5246
▁jer	-11.5256
▁boyer	-11.5261
▁untie	-11.5264
▁favors	-11.5287
▁cups	-11.5291
nel	-11.5327
▁tips	-11.5333
unch	-11.5334
ank	-11.5335
▁theatres	-11.5337
▁clocks	-11.5338
dor	-11.5338
▁rhythm	-11.534
mes	-11.5348
▁ahhah	-11.535
com	-11.5377
▁girlfriends	-11.5383
▁nicely	-11.5405
ittle	-11.541
dom	-11.5436
onica	-11.5442
▁corners	-11.5482
▁missions	-11.5513
▁disa	-11.5534
▁poster	-11.5541
▁groups	-11.5568
gger	-11.5583
▁min	-11.5589
gent	-11.5595
▁wink	-11.5611
▁stores	-11.5619
ption	-11.564
▁hurting	-11.5651
▁fuji	-11.5659
▁you	-11.5666
ito	-11.5714
▁curl	-11.5724
▁stag	-11.5731
▁initiat	-11.5738
▁proven	-11.5752
▁languages	-11.5755
▁wad	-11.5761
▁nil	-11.5775
▁improv	-11.5777
spective	-11.5806
▁ironic	-11.5811
▁mun	-11.5814
shes	-11.5849
▁mut	-11.5872
iers	-11.5882
▁revers	-11.5886
▁clubs	-11.5895
mine	-11.5899
feline	-11.5907
▁parks	-11.5912
cuse	-11.5916
▁educate	-11.5929
▁wakin	-11.5939
nick	-11.5959
▁joc	-11.5962
aken	-11.5968
▁involv	-11.5979
▁chop	-11.598
▁remarkabl	-11.5987
▁novelt	-11.5987
▁architect	-11.6023
▁breaths	-11.6029
onic	-11.6034
▁abo	-11.6046
▁pol	-11.6047
▁loca	-11.6063
youve	-11.6069
▁graduat	-11.6071
mate	-11.6074
▁prob	-11.6077
hem	-11.6091
▁flag	-11.6092
ammo	-11.6095
▁surviv	-11.6099
year	-11.61
maker	-11.6109
▁application	-11.612
▁crim	-11.612
▁grape	-11.612
▁antique	-11.6121
▁maniac	-11.6122
▁robber	-11.6123
▁gag	-11.6127
ttling	-11.6128
▁vandal	-11.6129
▁meadow	-11.6129
▁generation	-11.6129
▁wasp	-11.6129
▁nerd	-11.6132
▁tinker	-11.6134
▁temperature	-11.6134
▁feature	-11.6135
▁barrel	-11.6136
▁sideline	-11.6136
▁mammal	-11.6136
▁fooglie	-11.6137
asser	-11.6139
old	-11.614
▁communication	-11.6142
▁critter	-11.6142
cession	-11.6144
▁sniper	-11.6145
▁corp	-11.6151
style	-11.6154
▁clo	-11.6155
▁crow	-11.6158
▁acre	-11.6177
▁envi	-11.618
view	-11.6181
unker	-11.6184
▁ranger	-11.6193
ev	-11.6194
break	-11.6194
▁prompt	-11.6197
sey	-11.6199
▁slick	-11.62
▁bal	-11.6203
icy	-11.6203
meter	-11.6208
▁performer	-11.621
▁peep	-11.6217
odle	-11.6218
east	-11.6229
logy	-11.623
▁shoplift	-11.623
gu	-11.6234
tard	-11.6244
▁logic	-11.6255
▁shar	-11.6256
acious	-11.6258
▁prepar	-11.626
▁q	-11.6264
wed	-11.6266
▁promis	-11.6269
▁employ	-11.6269
▁cir	-11.627
▁screech	-11.627
▁rul	-11.6274
friend	-11.6275
▁splash	-11.6276
▁yowl	-11.6281
▁snicker	-11.6281
▁deposit	-11.6282
▁recruit	-11.6283
▁caus	-11.6285
▁gran	-11.6286
▁explore	-11.6288
▁accomplish	-11.6288
through	-11.6295
identified	-11.6297
jun	-11.6297
▁simp	-11.6298
▁activate	-11.6298
sensitive	-11.6299
piece	-11.6299
tooth	-11.6299
▁scrub	-11.6299
fire	-11.6299
▁inspire	-11.6299
wire	-11.6299
twenty	-11.6299
▁determine	-11.6299
smith	-11.63
track	-11.63
shoot	-11.63
verse	-11.63
space	-11.63
second	-11.63
▁confuse	-11.63
▁contribut	-11.63
crane	-11.63
maybe	-11.6301
course	-11.6301
▁responsibilit	-11.6302
port	-11.6302
think	-11.6302
hut	-11.6303
fast	-11.6303
human	-11.6303
making	-11.6303
grave	-11.6304
▁react	-11.6305
▁definit	-11.6305
▁sacr	-11.6305
nature	-11.6306
bait	-11.6306
nail	-11.6307
▁stain	-11.6307
▁unbelievabl	-11.6308
▁dunn	-11.6308
▁religio	-11.6309
▁munk	-11.631
bank	-11.6311
▁rapid	-11.6312
▁vanish	-11.6312
▁prettie	-11.6313
▁heave	-11.6313
▁physi	-11.6313
▁audit	-11.6314
doola	-11.6314
gram	-11.6315
▁hhe	-11.6315
▁barbar	-11.6315
stock	-11.6315
▁communi	-11.6316
▁albu	-11.6316
icka	-11.6317
▁secre	-11.6317
▁morph	-11.6317
▁blix	-11.6318
▁vibrat	-11.6318
▁beautifu	-11.6318
brain	-11.6318
▁obligat	-11.6318
▁corrupt	-11.6318
▁robbin	-11.6318
▁leavin	-11.6318
fat	-11.6318
▁construct	-11.6319
game	-11.6319
ravity	-11.6319
▁depart	-11.6319
▁isabel	-11.632
▁hitchhike	-11.632
▁inherit	-11.632
▁triumph	-11.632
bolical	-11.6321
▁hyper	-11.6321
▁vocal	-11.6321
▁aargh	-11.6321
▁abbott	-11.6321
▁abruptly	-11.6321
▁admission	-11.6321
▁afloat	-11.6321
▁albany	-11.6321
▁alibi	-11.6321
▁aloft	-11.6321
▁ambush	-11.6321
▁apparition	-11.6321
▁arizona	-11.6321
▁artificial	-11.6321
▁artillery	-11.6321
▁astound	-11.6321
▁ausfahrt	-11.6321
▁aviation	-11.6321
▁balcony	-11.6321
▁batteries	-11.6321
▁behalf	-11.6321
▁bennington	-11.6321
▁berserk	-11.6321
▁binoculars	-11.6321
▁biscuit	-11.6321
▁bolinari	-11.6321
▁boombastic	-11.6321
▁brandnew	-11.6321
▁brethren	-11.6321
▁brinkerhoff	-11.6321
▁budapest	-11.6321
▁bulchar	-11.6321
▁bungalow	-11.6321
▁cabana	-11.6321
▁cabbage	-11.6321
▁cafeteria	-11.6321
▁camouflage	-11.6321
▁canadian	-11.6321
▁capitol	-11.6321
▁cecily	-11.6321
▁charlotte	-11.6321
▁cholesterol	-11.6321
▁comprehend	-11.6321
▁conveyor	-11.6321
▁convincing	-11.6321
▁crocodile	-11.6321
▁crustacean	-11.6321
▁dandelion	-11.6321
▁declaration	-11.6321
▁delinko	-11.6321
▁delirious	-11.6321
▁dempsey	-11.6321
▁despair	-11.6321
▁despise	-11.6321
▁destructive	-11.6321
▁detach	-11.6321
▁determination	-11.6321
▁dietrich	-11.6321
▁diorama	-11.6321
▁distress	-11.6321
▁doorknob	-11.6321
▁dosido	-11.6321
▁dottie	-11.6321
▁dowry	-11.6321
▁dribbling	-11.6321
▁dubbing	-11.6321
▁eccentric	-11.6321
▁edgaar	-11.6321
▁eindhoven	-11.6321
▁embassy	-11.6321
▁encounter	-11.6321
▁endangered	-11.6321
▁exquisite	-11.6321
▁falcon	-11.6321
▁firefrorefiddle	-11.6321
▁frenzy	-11.6321
▁gasoline	-11.6321
▁giddap	-11.6321
▁grammar	-11.6321
▁gretchen	-11.6321
▁grieving	-11.6321
▁grizabella	-11.6321
▁growltiger	-11.6321
▁gustav	-11.6321
▁hibernate	-11.6321
▁ifwe	-11.6321
▁impeccabl	-11.6321
▁imperceptible	-11.6321
▁impulse	-11.6321
▁incorrigible	-11.6321
▁independence	-11.6321
▁infestation	-11.6321
▁instagram	-11.6321
▁intellectual	-11.6321
▁invasion	-11.6321
▁invoices	-11.6321
▁irregular	-11.6321
▁jacuzzi	-11.6321
▁kalmbach	-11.6321
▁kazoo	-11.6321
▁kettle	-11.6321
▁krishna	-11.6321
▁laboratory	-11.6321
▁lachrymose	-11.6321
▁lantern	-11.6321
▁laviron	-11.6321
▁lettuce	-11.6321
▁lolita	-11.6321
▁ludicrous	-11.6321
▁madonna	-11.6321
▁magnifique	-11.6321
▁malaria	-11.6321
▁manchester	-11.6321
▁marseilles	-11.6321
▁matherson	-11.6321
▁matilda	-11.6321
▁mcgregor	-11.6321
▁mertin	-11.6321
▁miriam	-11.6321
▁misplaced	-11.6321
▁mmmmmmmmm	-11.6321
▁monument	-11.6321
▁morosky	-11.6321
▁moustache	-11.6321
▁mowgli	-11.6321
▁muslim	-11.6321
▁nineteen	-11.6321
▁nokitofa	-11.6321
▁nomolos	-11.6321
▁nonlethal	-11.6321
▁nowadays	-11.6321
▁nugget	-11.6321
▁oprah	-11.6321
▁oswald	-11.6321
▁pajamas	-11.6321
▁pakistan	-11.6321
▁panorama	-11.6321
▁parliament	-11.6321
▁pellets	-11.6321
▁penicillin	-11.6321
▁pentagon	-11.6321
▁peopie	-11.6321
▁pervert	-11.6321
▁pesticide	-11.6321
▁piasters	-11.6321
▁pitiful	-11.6321
▁pittsburgh	-11.6321
▁porcupine	-11.6321
▁practicing	-11.6321
▁preposterous	-11.6321
▁preserving	-11.6321
▁prestigious	-11.6321
▁pritchard	-11.6321
▁prostitute	-11.6321
▁purcell	-11.6321
▁pyramid	-11.6321
▁raheem	-11.6321
▁recognise	-11.6321
▁recordplayer	-11.6321
▁republican	-11.6321
▁resign	-11.6321
▁reunion	-11.6321
▁robogadget	-11.6321
▁rufus	-11.6321
▁satisfactory	-11.6321
▁satscram	-11.6321
▁schroeder	-11.6321
▁sensible	-11.6321
▁shirazi	-11.6321
▁shushing	-11.6321
▁siberia	-11.6321
▁slender	-11.6321
▁sloppy	-11.6321
▁smoosh	-11.6321
▁snorts	-11.6321
▁solicitor	-11.6321
▁spectacular	-11.6321
▁splinter	-11.6321
▁strategy	-11.6321
▁substitut	-11.6321
▁superhero	-11.6321
▁supernatural	-11.6321
▁supervisor	-11.6321
▁swarthout	-11.6321
▁terrain	-11.6321
▁territory	-11.6321
▁theodora	-11.6321
▁thirteen	-11.6321
▁thrax	-11.6321
▁tiffany	-11.6321
▁toichi	-11.6321
▁tolstoy	-11.6321
▁trampoline	-11.6321
▁trowbridge	-11.6321
▁tsavo	-11.6321
▁ultra	-11.6321
▁uncomfortable	-11.6321
▁uncover	-11.6321
▁unemployed	-11.6321
▁unmarried	-11.6321
▁vaccine	-11.6321
▁vandenberg	-11.6321
▁variety	-11.6321
▁varmints	-11.6321
▁vengeance	-11.6321
▁vortex	-11.6321
▁vouch	-11.6321
▁walkietalkie	-11.6321
▁warfare	-11.6321
▁watermelon	-11.6321
▁westminster	-11.6321
▁whichever	-11.6321
▁wimoweh	-11.6321
▁wismar	-11.6321
▁womb	-11.6321
▁wondrous	-11.6321
▁wouid	-11.6321
▁wreath	-11.6321
▁wrestle	-11.6321
▁wretch	-11.6321
▁yeehaw	-11.6321
▁yogurt	-11.6321
▁ziegler	-11.6321
▁absorb	-11.6321
▁altar	-11.6321
▁altitude	-11.6321
▁bambi	-11.6321
▁belgian	-11.6321
▁blubber	-11.6321
▁choking	-11.6321
▁crusade	-11.6321
▁duration	-11.6321
▁greenbaum	-11.6321
▁introducing	-11.6321
▁kumar	-11.6321
▁noodles	-11.6321
▁parrot	-11.6321
▁previous	-11.6321
▁reconsider	-11.6321
▁reduce	-11.6321
▁sarge	-11.6321
▁satisfy	-11.6321
▁snores	-11.6321
▁thwart	-11.6321
▁trillion	-11.6321
▁tuxedo	-11.6321
▁twanging	-11.6321
▁workshop	-11.6321
▁ahchoo	-11.6321
▁areyou	-11.6321
▁array	-11.6321
▁bulk	-11.6321
▁canvas	-11.6321
▁comfy	-11.6321
▁discourage	-11.6321
▁drool	-11.6321
▁envy	-11.6321
▁exceed	-11.6321
▁fourteen	-11.6321
▁geographic	-11.6321
▁hangover	-11.6321
▁pucker	-11.6321
▁slurr	-11.6321
▁thrive	-11.6321
▁vichy	-11.6321
▁cheesy	-11.6321
▁nooo	-11.6321
▁ovo	-11.6321
▁sensor	-11.6321
▁sexual	-11.6321
▁booger	-11.6321
▁canyon	-11.6321
▁creaks	-11.6321
▁cynical	-11.6321
▁fiesta	-11.6321
▁gouda	-11.6321
▁gusgus	-11.6321
▁hogging	-11.6321
▁hugger	-11.6321
▁loaf	-11.6321
▁ninth	-11.6321
▁noisy	-11.6321
▁plumbing	-11.6321
▁recurr	-11.6321
▁textbooks	-11.6321
▁unarmed	-11.6321
▁chelo	-11.6321
▁elevate	-11.6321
▁method	-11.6321
▁perkins	-11.6321
▁convert	-11.6321
▁dynamite	-11.6321
▁rubbing	-11.6321
▁tamper	-11.6321
▁omelet	-11.6321
▁yourjob	-11.6321
▁chores	-11.6321
▁nogood	-11.6321
▁francis	-11.6321
▁sufficient	-11.6321
▁autops	-11.6321
▁bureau	-11.6321
▁solitary	-11.6321
▁mutants	-11.6321
▁kraken	-11.6321
▁luncheon	-11.6321
▁meteor	-11.6321
▁selfrespect	-11.6321
▁tibet	-11.6321
▁freddie	-11.6321
▁farrar	-11.6321
▁imposter	-11.6321
▁inconvenience	-11.6321
ftin	-11.6321
▁doggone	-11.6321
▁slobber	-11.6321
gulch	-11.6321
jector	-11.6321
▁moreau	-11.6321
shire	-11.6321
▁drips	-11.6321
▁repulsive	-11.6321
mation	-11.6321
▁amaze	-11.6321
▁fading	-11.6321
▁fleming	-11.6321
▁horizon	-11.6321
▁playdate	-11.6321
▁blimp	-11.6321
▁picard	-11.6321
▁toad	-11.6321
▁famine	-11.6321
▁wept	-11.6321
▁quarry	-11.6321
▁boingo	-11.6321
▁sheik	-11.6321
▁hopalong	-11.6321
▁schmuck	-11.6321
▁veins	-11.6321
▁wilkins	-11.6321
▁cycle	-11.6321
▁morocco	-11.6321
▁nostr	-11.6321
▁squaw	-11.6321
▁refund	-11.6321
▁rehab	-11.6321
▁gipping	-11.6321
▁beaver	-11.6321
▁joanna	-11.6321
▁wither	-11.6321
▁dedication	-11.6321
▁geography	-11.6321
▁brink	-11.6321
▁cyber	-11.6321
▁eileen	-11.6321
▁lippe	-11.6321
▁lonesome	-11.6321
▁lethal	-11.6321
▁vegan	-11.6321
▁luther	-11.6321
▁chowder	-11.6321
▁provision	-11.6321
▁gigantic	-11.6321
▁ignorant	-11.6321
▁murk	-11.6321
▁skimble	-11.6321
▁liquorice	-11.6321
▁jacqueline	-11.6321
▁lollygagging	-11.6321
▁verso	-11.6321
▁thorn	-11.6321
▁whining	-11.6321
▁fingerprint	-11.6321
▁prosperity	-11.6321
▁decompos	-11.6321
▁fiction	-11.6321
▁protest	-11.6321
cdonald	-11.6321
▁dazzling	-11.6321
custome	-11.6322
▁activating	-11.6322
▁joelle	-11.6322
▁absence	-11.6322
▁journalism	-11.6322
▁ivory	-11.6322
▁wallpaper	-11.6322
▁nickname	-11.6322
▁migra	-11.6322
▁offence	-11.6322
quaint	-11.6322
▁dyna	-11.6322
▁cheesecake	-11.6322
▁midget	-11.6322
▁pumpkinhead	-11.6322
▁overthrow	-11.6322
▁carved	-11.6322
▁wimp	-11.6322
▁tidy	-11.6322
▁creole	-11.6322
▁papi	-11.6322
▁onboard	-11.6322
▁peguy	-11.6322
▁polaris	-11.6322
▁lasso	-11.6322
▁resident	-11.6322
▁arrogant	-11.6322
▁murr	-11.6322
▁velma	-11.6322
▁clark	-11.6322
▁promotion	-11.6322
▁bolt	-11.6322
▁maddie	-11.6322
▁scientifically	-11.6322
▁weenie	-11.6322
▁knit	-11.6322
▁grotto	-11.6322
▁samuel	-11.6322
▁referred	-11.6322
▁indecent	-11.6322
▁frock	-11.6322
▁batgas	-11.6322
▁choosing	-11.6322
▁winslow	-11.6322
▁grill	-11.6322
▁couch	-11.6322
▁iceberg	-11.6322
▁speck	-11.6322
▁pinoc	-11.6322
▁curator	-11.6322
▁repay	-11.6322
▁snappy	-11.6322
▁disturbance	-11.6322
▁scam	-11.6322
▁cancelled	-11.6322
▁ferrand	-11.6322
▁macho	-11.6322
▁sloth	-11.6322
▁mormon	-11.6322
▁bleat	-11.6322
▁specifically	-11.6322
▁contra	-11.6322
▁athen	-11.6322
▁crazie	-11.6322
▁snare	-11.6323
▁collar	-11.6323
▁edison	-11.6323
▁liking	-11.6323
▁crock	-11.6323
▁cartoonist	-11.6323
▁beggar	-11.6323
▁creator	-11.6323
▁percent	-11.6323
▁buzzard	-11.6323
▁fernand	-11.6323
▁felici	-11.6323
▁aaaah	-11.6323
▁blueprint	-11.6323
▁cinch	-11.6323
▁eldest	-11.6323
▁colonic	-11.6323
▁cliffside	-11.6323
▁coveted	-11.6323
▁fiancee	-11.6323
▁impose	-11.6323
▁hind	-11.6323
▁reflex	-11.6323
▁income	-11.6323
▁revive	-11.6323
▁eliminate	-11.6323
▁dibs	-11.6323
▁mirage	-11.6323
▁complimentary	-11.6323
▁tusk	-11.6323
▁cuban	-11.6323
▁decree	-11.6323
▁soak	-11.6323
▁pupil	-11.6323
▁cuckoo	-11.6323
▁iong	-11.6323
▁disarm	-11.6323
▁gunfire	-11.6323
▁technological	-11.6323
▁whawhat	-11.6323
▁robberies	-11.6324
▁fivefoot	-11.6324
▁primate	-11.6324
▁garnett	-11.6324
honkin	-11.6324
ux	-11.6324
▁retard	-11.6324
▁lyon	-11.6324
▁geoff	-11.6324
▁overall	-11.6324
▁iook	-11.6324
▁quiz	-11.6324
▁devine	-11.6324
▁scarf	-11.6324
▁shawn	-11.6324
▁countess	-11.6324
▁prosecutor	-11.6324
▁chello	-11.6324
▁jamai	-11.6324
▁iying	-11.6324
▁debate	-11.6324
▁lug	-11.6324
▁ofthem	-11.6324
▁acquired	-11.6325
▁lke	-11.6325
▁lucien	-11.6325
▁teammate	-11.6325
▁corporation	-11.6325
▁frequenc	-11.6325
▁jeopardy	-11.6325
▁jurisdiction	-11.6325
▁maintenance	-11.6325
▁seizure	-11.6325
▁cuffs	-11.6325
▁iight	-11.6325
▁concentration	-11.6325
▁rodent	-11.6325
▁amber	-11.6325
▁bryant	-11.6325
▁rewind	-11.6325
▁candidate	-11.6325
▁tension	-11.6325
▁detest	-11.6325
▁popping	-11.6325
▁eww	-11.6325
▁kwan	-11.6325
▁arghh	-11.6325
▁shep	-11.6325
▁skeleton	-11.6325
▁yum	-11.6325
▁blush	-11.6325
afied	-11.6325
▁affection	-11.6325
▁feedback	-11.6326
▁novelist	-11.6326
▁detain	-11.6326
▁flare	-11.6326
▁groceries	-11.6326
▁update	-11.6326
▁righteous	-11.6326
nap	-11.6326
▁eligible	-11.6326
▁psychic	-11.6326
▁spotlight	-11.6326
▁movement	-11.6327
▁earthlings	-11.6327
▁deben	-11.6327
▁mech	-11.6327
▁respectfully	-11.6327
▁penis	-11.6327
▁baking	-11.6327
▁compassion	-11.6327
▁grid	-11.6327
▁parce	-11.6327
▁tipper	-11.6327
▁bold	-11.6327
▁testify	-11.6327
▁bookcase	-11.6327
▁hotshot	-11.6327
▁stokely	-11.6328
▁budge	-11.6328
▁jeopardiz	-11.6328
▁fowl	-11.6328
▁almond	-11.6328
otic	-11.6328
▁considerate	-11.6328
atu	-11.6328
▁moat	-11.6328
▁hatred	-11.6328
▁iet	-11.6328
▁worldwide	-11.6328
▁reborn	-11.6328
▁riot	-11.6329
▁begone	-11.6329
▁overdo	-11.6329
▁upside	-11.633
▁rho	-11.633
▁onion	-11.633
▁nina	-11.633
▁bev	-11.633
▁trumpet	-11.633
▁ahoo	-11.633
▁defenseless	-11.633
▁unlock	-11.633
▁hatton	-11.633
▁pierre	-11.633
▁reelection	-11.633
▁earl	-11.633
▁doggie	-11.6331
▁foreman	-11.6331
▁colorful	-11.6331
▁swiped	-11.6331
▁superstition	-11.6331
▁adequate	-11.6331
▁scotch	-11.6331
▁haiii	-11.6331
eft	-11.6331
▁frenchmen	-11.6331
▁premiere	-11.6331
▁scope	-11.6332
▁weakness	-11.6332
▁liarian	-11.6332
rigging	-11.6332
▁hobo	-11.6332
▁ix	-11.6333
▁upsetting	-11.6333
▁edition	-11.6333
▁intercepted	-11.6333
▁ballast	-11.6333
▁relic	-11.6333
▁franco	-11.6333
ready	-11.6333
▁ahold	-11.6333
▁hidin	-11.6334
▁jez	-11.6334
▁showgirl	-11.6334
ounge	-11.6334
▁selfless	-11.6334
▁batch	-11.6334
▁investigator	-11.6334
▁flown	-11.6335
▁barbi	-11.6335
▁gao	-11.6335
▁doyou	-11.6335
▁pinto	-11.6335
▁confine	-11.6335
▁cradle	-11.6335
▁waka	-11.6335
▁millionaire	-11.6335
▁voi	-11.6335
▁jammed	-11.6335
▁tings	-11.6335
▁suis	-11.6336
▁zman	-11.6336
▁vint	-11.6336
▁racers	-11.6336
▁singoff	-11.6336
▁spooky	-11.6336
▁oaty	-11.6336
▁gap	-11.6336
▁spur	-11.6337
▁warped	-11.6337
▁devon	-11.6337
▁lifestyle	-11.6337
▁were	-11.6337
▁reactor	-11.6337
▁upgraded	-11.6338
▁teeny	-11.6338
▁pose	-11.6338
▁organic	-11.6338
▁legit	-11.6339
▁vast	-11.6339
▁poise	-11.6339
▁farther	-11.6339
▁mash	-11.6339
▁sera	-11.6339
▁soar	-11.634
▁wiede	-11.634
▁jaw	-11.634
▁betrayal	-11.634
▁cries	-11.634
▁dangle	-11.6341
▁enchanting	-11.6341
▁loitering	-11.6341
▁shuddering	-11.6341
▁admiring	-11.6342
▁brushes	-11.6342
▁mow	-11.6342
▁hoop	-11.6342
▁tug	-11.6342
▁biggie	-11.6344
▁perrin	-11.6344
▁arf	-11.6344
▁condemned	-11.6345
▁summoned	-11.6345
imate	-11.6345
▁overreacted	-11.6345
care	-11.6346
▁promoted	-11.6346
▁weaken	-11.6346
▁wheelers	-11.6346
▁grit	-11.6346
▁occasionally	-11.6347
▁policemen	-11.6347
summer	-11.6347
breaking	-11.6347
▁warmth	-11.6347
▁countryside	-11.6347
▁yow	-11.6348
▁yellin	-11.6348
▁nathan	-11.6348
▁penal	-11.6348
▁activated	-11.6348
▁ridge	-11.6348
oolah	-11.6348
▁sadness	-11.6349
▁portal	-11.635
lry	-11.635
▁assembled	-11.6351
▁declared	-11.6351
▁conjure	-11.6351
▁mustang	-11.6351
▁stem	-11.6352
▁ferry	-11.6352
▁respectable	-11.6352
▁anglosaxons	-11.6352
▁expenses	-11.6352
▁backpack	-11.6352
▁losses	-11.6352
▁complaint	-11.6352
▁functioning	-11.6353
▁payne	-11.6353
▁yara	-11.6353
▁mona	-11.6353
▁explorer	-11.6354
▁them	-11.6354
▁gaze	-11.6354
▁dorf	-11.6354
▁wealthy	-11.6355
▁whooshing	-11.6355
▁overreacting	-11.6355
▁identified	-11.6355
▁hesitation	-11.6355
▁clanging	-11.6355
▁advised	-11.6355
▁wager	-11.6355
▁rio	-11.6356
▁retired	-11.6357
▁framed	-11.6357
▁madness	-11.6359
birds	-11.6359
rid	-11.636
▁wanda	-11.636
▁metro	-11.636
▁witnesses	-11.636
▁cub	-11.6361
itt	-11.6361
▁kay	-11.6361
▁suitable	-11.6363
▁coverup	-11.6363
▁encouraged	-11.6364
▁cooing	-11.6365
▁fist	-11.6365
▁adored	-11.6366
▁raft	-11.6366
▁booze	-11.6367
▁kc	-11.6367
▁splashing	-11.6368
▁ashes	-11.637
▁collector	-11.6371
▁fulltime	-11.6371
▁brightest	-11.6372
stem	-11.6372
▁dion	-11.6372
▁cinder	-11.6373
▁protector	-11.6373
▁madman	-11.6373
secr	-11.6374
▁staging	-11.6374
▁shutting	-11.6374
▁invested	-11.6375
breaker	-11.6375
▁distracted	-11.6375
▁addresses	-11.6376
nnae	-11.6376
▁blabb	-11.6377
▁plank	-11.6378
▁graduated	-11.6379
▁exchanged	-11.6379
▁peeled	-11.6379
▁standby	-11.638
▁piper	-11.638
▁mia	-11.6381
▁todo	-11.6381
▁paratroop	-11.6381
▁clinking	-11.6381
▁fry	-11.6382
▁bin	-11.6383
post	-11.6384
▁restraint	-11.6384
▁blindfolded	-11.6384
tron	-11.6386
▁coachman	-11.6386
hereabouts	-11.6386
▁compared	-11.6395
▁choked	-11.6397
▁earthman	-11.6399
liot	-11.64
▁wedge	-11.6401
▁knockin	-11.6403
▁secured	-11.6404
▁herb	-11.6405
▁mushrooms	-11.6406
▁slugs	-11.6406
▁obligations	-11.6406
▁straits	-11.6406
▁unle	-11.6407
▁benj	-11.6408
▁surfing	-11.6408
▁disturbing	-11.6408
▁cranking	-11.6408
▁core	-11.6409
▁weaker	-11.6409
▁yeehah	-11.6409
eaked	-11.6409
▁just	-11.6409
▁closeup	-11.6411
osis	-11.6411
▁yap	-11.6412
▁dew	-11.6413
▁admired	-11.6419
▁connecting	-11.6422
ammed	-11.6422
▁eel	-11.6422
▁ofa	-11.6423
▁betrayed	-11.6424
▁chewed	-11.6424
▁sane	-11.6424
▁toaster	-11.6427
▁bathe	-11.6428
▁imitation	-11.6431
holder	-11.6437
▁traditional	-11.6439
▁repaired	-11.6443
▁sip	-11.6443
▁wel	-11.6444
gun	-11.6445
▁sling	-11.6446
▁diplomat	-11.6447
▁mixing	-11.6449
morrow	-11.6449
▁tax	-11.6451
▁terminate	-11.6452
▁tract	-11.6452
▁sor	-11.6455
▁your	-11.6456
▁cursed	-11.6459
▁shade	-11.6459
▁gavel	-11.6461
▁memor	-11.6461
wrap	-11.6461
▁lyrics	-11.6461
▁ribbons	-11.6461
▁maidens	-11.6461
▁vibes	-11.6461
▁vines	-11.6462
▁dashing	-11.6462
▁chewing	-11.6463
▁careless	-11.6465
nice	-11.6467
▁recorder	-11.6469
▁glanc	-11.6472
more	-11.6473
▁dorm	-11.6475
▁freaky	-11.6478
▁brighter	-11.6481
▁corpses	-11.6481
▁bella	-11.6482
▁hearse	-11.6483
▁logical	-11.6484
▁smashing	-11.6489
▁interrupting	-11.649
▁wired	-11.649
▁challenged	-11.6491
▁rott	-11.6491
▁naming	-11.6491
▁zinged	-11.6493
▁wits	-11.6496
▁drawers	-11.6497
nnies	-11.6499
▁crushed	-11.65
▁readers	-11.6504
▁aide	-11.6508
▁judged	-11.6511
▁witnessed	-11.6512
▁blackberr	-11.6513
▁healing	-11.6515
makers	-11.6516
▁flags	-11.6517
▁nerds	-11.6517
▁wasps	-11.6517
▁vandals	-11.6517
▁meadows	-11.6517
▁generations	-11.6517
▁movements	-11.6517
▁fisherm	-11.6518
▁features	-11.652
▁snipers	-11.6521
▁tot	-11.6522
▁graduate	-11.6522
eering	-11.6522
▁raf	-11.6523
▁trashed	-11.6532
▁performed	-11.6532
▁ironed	-11.6539
▁ara	-11.654
▁attempted	-11.6542
▁finale	-11.6543
▁wit	-11.6543
▁subs	-11.6545
▁colored	-11.6545
▁printed	-11.6546
▁oy	-11.6548
▁steaming	-11.6555
▁missus	-11.6556
▁defeated	-11.6562
▁publisher	-11.6564
▁howdy	-11.6565
▁sailed	-11.6566
▁condo	-11.6571
moi	-11.6572
▁guineas	-11.6573
▁wounds	-11.6573
▁shorter	-11.6575
▁troupe	-11.6591
▁summ	-11.6594
zed	-11.6595
▁that	-11.6602
ple	-11.6608
▁safer	-11.6609
▁tame	-11.6613
ripping	-11.6616
▁exceptions	-11.6624
▁winch	-11.6625
▁architectur	-11.6628
▁items	-11.6629
▁wednesdays	-11.6629
▁cartoons	-11.6629
▁pumpkins	-11.6629
▁inventions	-11.663
▁sailors	-11.6631
wing	-11.6632
wei	-11.6634
▁factors	-11.6638
lick	-11.6644
▁statues	-11.6647
▁eyel	-11.6654
▁vid	-11.6654
▁adding	-11.666
▁tucked	-11.6665
▁helpless	-11.6672
chain	-11.6675
▁irs	-11.6675
▁techniques	-11.6686
▁organizations	-11.6686
▁indians	-11.6686
▁standards	-11.6686
▁cheerleaders	-11.6686
weil	-11.6696
▁tablet	-11.67
▁murdering	-11.6712
▁stringer	-11.6717
▁frightful	-11.6721
▁discussing	-11.6721
▁peed	-11.6725
▁recorded	-11.6728
▁lu	-11.6735
▁magnif	-11.6737
▁roots	-11.6741
▁patterns	-11.6742
▁comics	-11.6742
▁rubbers	-11.6742
▁colours	-11.6743
▁guarded	-11.6746
▁hump	-11.6763
mobile	-11.6766
ified	-11.6766
▁inc	-11.6772
▁tro	-11.6775
eers	-11.6777
val	-11.6778
ficiency	-11.6779
lf	-11.6787
▁luci	-11.6788
▁coo	-11.6793
▁contents	-11.6799
▁patrols	-11.6799
▁palms	-11.6804
▁jokers	-11.6814
▁chem	-11.6824
net	-11.683
▁farts	-11.6834
▁fuller	-11.6836
▁habits	-11.6854
▁battalions	-11.6856
▁buggers	-11.6857
▁cowboys	-11.6857
▁punks	-11.6857
▁flames	-11.6857
▁explodes	-11.6857
▁rox	-11.6893
▁nip	-11.6896
▁autographs	-11.6914
▁holidays	-11.6914
▁nephews	-11.6914
▁articles	-11.6915
▁classy	-11.6919
▁provides	-11.692
▁suited	-11.6923
uke	-11.6936
▁differently	-11.6936
elling	-11.6942
▁pott	-11.6947
▁agreeing	-11.6956
tant	-11.6971
▁firings	-11.6971
stones	-11.6992
tte	-11.6999
▁floati	-11.7001
▁salvat	-11.7021
▁owners	-11.7028
▁individuals	-11.7029
▁malfunctions	-11.7029
jiwa	-11.703
▁pumps	-11.7032
▁freely	-11.7044
mica	-11.7044
▁missin	-11.7066
▁fixing	-11.7074
isla	-11.7075
▁underestimate	-11.7084
▁mirrors	-11.7087
▁confirms	-11.709
▁goats	-11.7098
▁misses	-11.7101
▁posting	-11.7104
▁incidental	-11.7108
▁swearing	-11.7115
▁scann	-11.7122
come	-11.7135
▁swarms	-11.7145
▁blades	-11.7146
▁catchy	-11.7148
▁meows	-11.7149
▁shal	-11.7154
▁disguises	-11.716
▁stayin	-11.7168
▁tai	-11.7172
terior	-11.718
▁outfits	-11.719
ofthe	-11.7198
▁carols	-11.7204
backs	-11.721
ako	-11.7218
night	-11.7219
▁marvell	-11.722
▁stella	-11.7227
▁pots	-11.723
▁limits	-11.724
▁manor	-11.7247
▁semi	-11.725
▁feeder	-11.726
▁concerts	-11.7263
▁sacco	-11.7264
▁crav	-11.7266
▁devot	-11.7271
▁spine	-11.7278
bed	-11.7282
ylon	-11.7286
▁mortals	-11.729
▁by	-11.7306
▁defi	-11.7308
base	-11.7312
▁bestow	-11.7316
▁finer	-11.7328
itation	-11.7337
▁callin	-11.7347
▁hick	-11.7352
ark	-11.7352
▁decorat	-11.7362
rav	-11.7375
▁diseases	-11.7375
▁mos	-11.738
▁nickels	-11.7382
▁malle	-11.7396
▁ou	-11.7435
▁tunes	-11.7439
▁cages	-11.744
▁dolls	-11.744
▁studios	-11.744
list	-11.7444
▁gab	-11.7445
lain	-11.7476
▁conditions	-11.749
▁emeralds	-11.75
▁williams	-11.75
▁directors	-11.7502
▁sacrifices	-11.7505
▁tha	-11.7523
▁tortur	-11.7539
ledge	-11.7551
▁vil	-11.7584
lessness	-11.7587
ius	-11.7593
rsity	-11.7611
▁cam	-11.7613
▁fearful	-11.7625
▁vari	-11.7639
▁historica	-11.764
tow	-11.7665
▁aa	-11.7674
fif	-11.7689
rous	-11.7699
▁joshie	-11.7727
▁speculate	-11.7729
▁toyou	-11.7775
ggie	-11.7816
gui	-11.7825
▁whwh	-11.7843
cawing	-11.7923
▁bra	-11.7925
lu	-11.7961
▁div	-11.7962
ella	-11.7965
berg	-11.7981
▁sunk	-11.7983
▁stumble	-11.8056
nette	-11.807
nnel	-11.8071
▁gru	-11.8092
▁deba	-11.8103
▁concept	-11.8108
▁felin	-11.8127
▁teen	-11.8135
hou	-11.8161
bell	-11.8173
ban	-11.8176
▁moos	-11.8179
▁coll	-11.8197
rig	-11.8201
▁cobb	-11.8216
▁harass	-11.8217
los	-11.8222
ewa	-11.8233
dad	-11.8243
dance	-11.8264
oobee	-11.8271
▁gau	-11.8296
▁stripe	-11.8301
▁jac	-11.8313
▁zoom	-11.833
▁whoop	-11.8344
ellen	-11.8352
eline	-11.8372
eau	-11.8374
inch	-11.8387
tious	-11.8406
▁vol	-11.8407
llowed	-11.8408
▁circulate	-11.8413
▁bod	-11.8427
▁cha	-11.8442
▁verif	-11.8482
▁presum	-11.849
eating	-11.8493
▁ther	-11.8503
▁sel	-11.8513
pee	-11.8521
hap	-11.8537
▁northwest	-11.8539
anford	-11.8554
elma	-11.8559
ttering	-11.8577
▁yia	-11.8581
ummy	-11.8585
oto	-11.8596
quer	-11.8597
trapped	-11.8608
▁dag	-11.8626
yyou	-11.8668
▁gala	-11.8673
gate	-11.8697
▁sac	-11.8711
tery	-11.8725
zie	-11.8729
tone	-11.8747
ooh	-11.8761
▁wooo	-11.8775
▁execut	-11.8783
▁her	-11.8791
▁receiv	-11.8813
nova	-11.8852
tter	-11.886
▁simpl	-11.8874
tempered	-11.888
▁swo	-11.8883
uri	-11.8885
ova	-11.8918
zer	-11.8957
fran	-11.8961
pounder	-11.8966
cracker	-11.8976
▁scor	-11.899
orium	-11.9003
▁bb	-11.9004
▁luc	-11.9016
tag	-11.9016
▁reproduc	-11.9026
▁att	-11.9028
▁glo	-11.903
▁pun	-11.9085
▁magn	-11.91
▁beau	-11.9111
▁chug	-11.9113
omen	-11.9129
▁qua	-11.9133
vine	-11.9137
▁bart	-11.9145
▁zar	-11.9145
mina	-11.9163
▁biz	-11.9165
glasses	-11.9167
▁craw	-11.9222
kman	-11.9232
illian	-11.9235
▁educat	-11.9245
▁pog	-11.9266
▁divin	-11.9273
tus	-11.9295
wit	-11.9301
▁unc	-11.9311
ui	-11.9338
nders	-11.9348
▁brid	-11.9358
izer	-11.9364
ricket	-11.9372
▁ref	-11.9372
eem	-11.939
ugged	-11.9407
best	-11.9409
itch	-11.942
▁purchas	-11.9427
ctionary	-11.943
▁clang	-11.9434
▁kee	-11.9443
▁oat	-11.9446
egory	-11.945
▁scholar	-11.9453
▁toot	-11.9453
▁gokart	-11.9454
▁contradiction	-11.9454
▁jeep	-11.9456
▁exclaim	-11.9459
▁lyric	-11.9462
▁ribbon	-11.9463
▁shatter	-11.9464
▁vibe	-11.9467
▁prawn	-11.9471
▁predator	-11.9471
▁ohho	-11.9471
▁instinct	-11.9473
icles	-11.9476
▁coyote	-11.9476
▁bloke	-11.9477
ractor	-11.9477
lous	-11.9478
▁donation	-11.9478
▁cackle	-11.9478
nning	-11.948
▁shiver	-11.9481
▁detail	-11.9482
▁maiden	-11.9482
▁gla	-11.9483
▁pac	-11.9483
▁troubl	-11.9491
▁andrew	-11.9492
▁zord	-11.9492
▁administ	-11.9496
▁firework	-11.9498
▁vine	-11.95
lorn	-11.9502
▁steven	-11.9508
burs	-11.9511
▁shallow	-11.9519
▁corpse	-11.9528
▁bulldo	-11.9531
pid	-11.9534
nne	-11.9538
udge	-11.954
ane	-11.955
aper	-11.9552
known	-11.9556
▁stable	-11.9558
bic	-11.9559
▁hamburg	-11.9567
▁compar	-11.9568
▁overreact	-11.9573
▁nasa	-11.9579
▁archi	-11.9581
ground	-11.9593
dress	-11.9593
job	-11.9594
pack	-11.9594
▁cran	-11.9596
▁symp	-11.9596
▁spreadin	-11.9598
▁plac	-11.9598
▁trespass	-11.9602
▁provid	-11.9602
▁spook	-11.9603
▁consult	-11.9603
zzling	-11.9604
done	-11.9606
script	-11.9608
▁echo	-11.9608
elyn	-11.9613
▁disgust	-11.9613
▁gaz	-11.9613
▁laker	-11.9614
aaah	-11.9615
▁blar	-11.9617
father	-11.9618
▁condemn	-11.962
▁combin	-11.9621
▁suspend	-11.9623
huh	-11.9625
feel	-11.9626
served	-11.9626
▁whoosh	-11.9626
ridge	-11.9627
▁summon	-11.9627
wide	-11.9627
▁intimidate	-11.9628
▁translate	-11.9628
crib	-11.9628
▁juan	-11.9628
print	-11.9629
hurst	-11.9629
world	-11.963
▁humiliate	-11.963
guard	-11.963
mutt	-11.9631
▁crisp	-11.9632
horn	-11.9632
scrap	-11.9632
snip	-11.9632
▁upgrade	-11.9632
hale	-11.9632
▁offic	-11.9632
physical	-11.9633
▁delet	-11.9633
shaking	-11.9633
pipe	-11.9633
amount	-11.9633
brand	-11.9633
text	-11.9633
dollar	-11.9633
carrying	-11.9633
hundred	-11.9633
service	-11.9633
bombs	-11.9633
written	-11.9633
wife	-11.9633
fault	-11.9633
condition	-11.9633
lived	-11.9634
crazy	-11.9634
front	-11.9634
zord	-11.9634
parents	-11.9634
peach	-11.9634
train	-11.9634
▁possibilit	-11.9635
direct	-11.9635
▁circl	-11.9635
▁academ	-11.9635
▁stead	-11.9635
shock	-11.9635
breath	-11.9635
throw	-11.9636
▁micro	-11.9636
pep	-11.9636
▁frequent	-11.9637
▁intense	-11.9637
▁juli	-11.9637
▁daff	-11.9637
▁monstro	-11.9638
cool	-11.9638
▁excla	-11.9638
pool	-11.9639
weight	-11.9639
taking	-11.9639
storm	-11.9639
▁premier	-11.9639
▁quart	-11.964
▁transmitt	-11.964
luded	-11.964
▁creativ	-11.964
▁technical	-11.964
ibbe	-11.9641
person	-11.9641
pad	-11.9642
▁incredibl	-11.9642
defeat	-11.9642
▁surge	-11.9643
bilities	-11.9643
▁inject	-11.9643
▁associat	-11.9643
letter	-11.9644
▁organize	-11.9644
rated	-11.9645
lost	-11.9645
code	-11.9645
▁karat	-11.9646
▁poke	-11.9647
hro	-11.9647
▁neutr	-11.9647
▁georgi	-11.9647
▁violat	-11.9647
▁coordinat	-11.9647
▁trench	-11.9647
▁dolph	-11.9648
▁potato	-11.9648
legged	-11.9648
mail	-11.9648
▁reflect	-11.9648
monds	-11.9648
▁constitution	-11.9648
▁candida	-11.9648
minus	-11.9649
dale	-11.9649
▁hysteri	-11.9649
spects	-11.965
▁humbl	-11.965
▁greed	-11.965
▁olympic	-11.9651
▁mamma	-11.9651
neck	-11.9651
string	-11.9651
flex	-11.9651
▁preliminar	-11.9651
▁raisin	-11.9651
▁zac	-11.9651
▁interrogat	-11.9652
▁suburb	-11.9652
▁sittin	-11.9652
▁hud	-11.9652
▁eligib	-11.9652
ngeles	-11.9652
▁commence	-11.9652
▁competit	-11.9652
▁puttin	-11.9652
▁dwar	-11.9652
▁brutal	-11.9653
ignment	-11.9653
ncredibl	-11.9653
nstitution	-11.9653
▁numero	-11.9653
▁hendri	-11.9653
▁columb	-11.9654
▁despera	-11.9654
▁complicat	-11.9654
▁retri	-11.9654
jui	-11.9654
▁intro	-11.9654
▁deliberate	-11.9654
▁participat	-11.9654
criminat	-11.9654
precedent	-11.9654
structure	-11.9654
substantiate	-11.9654
▁abduct	-11.9654
▁adelaide	-11.9654
▁affirmative	-11.9654
▁agencies	-11.9654
▁airraid	-11.9654
▁alcohol	-11.9654
▁alfred	-11.9654
▁algebra	-11.9654
▁alternator	-11.9654
▁anemone	-11.9654
▁antibiotic	-11.9654
▁arcade	-11.9654
▁arkansas	-11.9654
▁armistead	-11.9654
▁ashtray	-11.9654
▁aspiration	-11.9654
▁atlanta	-11.9654
▁authorization	-11.9654
▁auxiliary	-11.9654
▁avalanche	-11.9654
▁backfiring	-11.9654
▁barnstormers	-11.9654
▁barrymore	-11.9654
▁bartending	-11.9654
▁baywatch	-11.9654
▁beastmaster	-11.9654
▁beepbeep	-11.9654
▁bellhop	-11.9654
▁benedict	-11.9654
▁bermuda	-11.9654
▁bittrich	-11.9654
▁bizarre	-11.9654
▁bjornson	-11.9654
▁blunt	-11.9654
▁bouvar	-11.9654
▁britannic	-11.9654
▁bubbling	-11.9654
▁buffoon	-11.9654
▁burlesque	-11.9654
▁butterfingers	-11.9654
▁cabaret	-11.9654
▁cannibal	-11.9654
▁carpathian	-11.9654
▁casual	-11.9654
▁catalogue	-11.9654
▁cautious	-11.9654
▁ceramic	-11.9654
▁challenging	-11.9654
▁charlemagne	-11.9654
▁charleshenri	-11.9654
▁chickenshit	-11.9654
▁chrissake	-11.9654
▁cinema	-11.9654
▁clatters	-11.9654
▁cleopatra	-11.9654
▁cleveland	-11.9654
▁collateral	-11.9654
▁colombia	-11.9654
▁completion	-11.9654
▁component	-11.9654
▁concluded	-11.9654
▁concussion	-11.9654
▁confound	-11.9654
▁conservat	-11.9654
▁consulate	-11.9654
▁contemplat	-11.9654
▁convict	-11.9654
▁cottins	-11.9654
▁deborah	-11.9654
▁delbruck	-11.9654
▁delicate	-11.9654
▁devilmaycare	-11.9654
▁didgeridoo	-11.9654
▁disclosure	-11.9654
▁disconnect	-11.9654
▁discontent	-11.9654
▁disinherit	-11.9654
▁dispense	-11.9654
▁dissolve	-11.9654
▁drixenol	-11.9654
▁drumroll	-11.9654
▁dumbdumb	-11.9654
▁ecosystem	-11.9654
▁eduardo	-11.9654
▁eggplant	-11.9654
▁eject	-11.9654
▁encouraging	-11.9654
▁encyclopedia	-11.9654
▁endeavour	-11.9654
▁enlightened	-11.9654
▁enquire	-11.9654
▁entitlement	-11.9654
▁envelope	-11.9654
▁envoy	-11.9654
▁equivalent	-11.9654
▁errand	-11.9654
▁eureka	-11.9654
▁everlasting	-11.9654
▁eviscerat	-11.9654
▁exclusive	-11.9654
▁explicit	-11.9654
▁facetoface	-11.9654
▁facial	-11.9654
▁falko	-11.9654
▁femur	-11.9654
▁ferguson	-11.9654
▁fickle	-11.9654
▁fingertip	-11.9654
▁flounder	-11.9654
▁floyd	-11.9654
▁frodo	-11.9654
▁frodorick	-11.9654
▁fugitive	-11.9654
▁furnished	-11.9654
▁furtillo	-11.9654
▁galvanized	-11.9654
▁garebear	-11.9654
▁gauntlet	-11.9654
▁gestapo	-11.9654
▁gingerbread	-11.9654
▁gizmo	-11.9654
▁gloomy	-11.9654
▁goblins	-11.9654
▁google	-11.9654
▁goosebumps	-11.9654
▁gordine	-11.9654
▁grumbling	-11.9654
▁guiana	-11.9654
▁gypsies	-11.9654
▁halloween	-11.9654
▁handshake	-11.9654
▁harlem	-11.9654
▁heehee	-11.9654
▁hefty	-11.9654
▁heirloom	-11.9654
▁henderson	-11.9654
▁highstrung	-11.9654
▁hiphip	-11.9654
▁hortono	-11.9654
▁houghton	-11.9654
▁hudnutt	-11.9654
▁hypothetically	-11.9654
▁ifthey	-11.9654
▁imbecile	-11.9654
▁immunologist	-11.9654
▁impulsive	-11.9654
▁incapacitate	-11.9654
▁incompetent	-11.9654
▁incorrect	-11.9654
▁increasing	-11.9654
▁infinity	-11.9654
▁ingredient	-11.9654
▁inquiry	-11.9654
▁insubordination	-11.9654
▁intestine	-11.9654
▁intrigue	-11.9654
▁intrusion	-11.9654
▁invincible	-11.9654
▁jadoube	-11.9654
▁jankanoo	-11.9654
▁kavula	-11.9654
▁kgsc	-11.9654
▁kincaids	-11.9654
▁kremlin	-11.9654
▁lactose	-11.9654
▁lafarge	-11.9654
▁lamborghini	-11.9654
▁lathbury	-11.9654
▁latitude	-11.9654
▁locust	-11.9654
▁lombok	-11.9654
▁lynch	-11.9654
▁maggot	-11.9654
▁magnusson	-11.9654
▁mandatory	-11.9654
▁mattress	-11.9654
▁mechanism	-11.9654
▁memsahib	-11.9654
▁michigan	-11.9654
▁milady	-11.9654
▁minneapolis	-11.9654
▁miscreant	-11.9654
▁misfits	-11.9654
▁misguided	-11.9654
▁mosquitoes	-11.9654
▁motivo	-11.9654
▁mozart	-11.9654
▁mussolini	-11.9654
▁muthaiga	-11.9654
▁mutual	-11.9654
▁mvp	-11.9654
▁mwah	-11.9654
▁neenurt	-11.9654
▁negligence	-11.9654
▁nevilie	-11.9654
▁newyork	-11.9654
▁nourishment	-11.9654
▁novice	-11.9654
▁nursemaid	-11.9654
▁oatyoaty	-11.9654
▁october	-11.9654
▁offshore	-11.9654
▁ofhere	-11.9654
▁okeysolo	-11.9654
▁orcas	-11.9654
▁oreilly	-11.9654
▁overflow	-11.9654
▁pampered	-11.9654
▁pangani	-11.9654
▁parlour	-11.9654
▁pedicure	-11.9654
▁pepperoni	-11.9654
▁perignon	-11.9654
▁perpendicular	-11.9654
▁perpetrator	-11.9654
▁persecute	-11.9654
▁persistent	-11.9654
▁philadelphia	-11.9654
▁phineus	-11.9654
▁phoenix	-11.9654
▁pilgrim	-11.9654
▁pippip	-11.9654
▁platform	-11.9654
▁platypus	-11.9654
▁plonker	-11.9654
▁politician	-11.9654
▁ppppp	-11.9654
▁predicament	-11.9654
▁prehistor	-11.9654
▁principle	-11.9654
▁proportion	-11.9654
▁prospect	-11.9654
▁puddleduck	-11.9654
▁purrfect	-11.9654
▁puttanesca	-11.9654
▁radioactivity	-11.9654
▁ramrod	-11.9654
▁rattlesnake	-11.9654
▁ravishing	-11.9654
▁recognition	-11.9654
▁reconnaissance	-11.9654
▁rejuvenat	-11.9654
▁relapse	-11.9654
▁remix	-11.9654
▁renegade	-11.9654
▁resemble	-11.9654
▁resurrect	-11.9654
▁rommel	-11.9654
▁samburu	-11.9654
▁sapporo	-11.9654
▁scoffing	-11.9654
▁scrutin	-11.9654
▁scudders	-11.9654
▁seagull	-11.9654
▁seatbelt	-11.9654
▁shanghai	-11.9654
▁shipwreck	-11.9654
▁shirley	-11.9654
▁simmer	-11.9654
▁simulation	-11.9654
▁sinatra	-11.9654
▁smother	-11.9654
▁smuggl	-11.9654
▁snoot	-11.9654
▁socializing	-11.9654
▁somersault	-11.9654
▁sonofabitch	-11.9654
▁sosabowski	-11.9654
▁sought	-11.9654
▁sourpuss	-11.9654
▁spittoon	-11.9654
▁sponsor	-11.9654
▁spontaneous	-11.9654
▁stammering	-11.9654
▁steuben	-11.9654
▁stoller	-11.9654
▁strategically	-11.9654
▁strauss	-11.9654
▁streetlamp	-11.9654
▁strumming	-11.9654
▁subconscious	-11.9654
▁subdue	-11.9654
▁sunblock	-11.9654
▁surveillance	-11.9654
▁sutton	-11.9654
▁swimsuit	-11.9654
▁swollen	-11.9654
▁sycamore	-11.9654
▁syndrome	-11.9654
▁syphilis	-11.9654
▁taffeta	-11.9654
▁tantrum	-11.9654
▁tapestries	-11.9654
▁testimony	-11.9654
▁theoretically	-11.9654
▁thrift	-11.9654
▁thumbthumbs	-11.9654
▁tragedies	-11.9654
▁tranquill	-11.9654
▁transaction	-11.9654
▁transients	-11.9654
▁treegap	-11.9654
▁tremaine	-11.9654
▁trinkets	-11.9654
▁trophies	-11.9654
▁tshirt	-11.9654
▁tuscany	-11.9654
▁tuttle	-11.9654
▁tweedie	-11.9654
▁twig	-11.9654
▁twittering	-11.9654
▁unannounced	-11.9654
▁unashamed	-11.9654
▁unemployment	-11.9654
▁unfold	-11.9654
▁unnecessary	-11.9654
▁unreasonable	-11.9654
▁vanderbilt	-11.9654
▁vigilante	-11.9654
▁vogsphere	-11.9654
▁voltage	-11.9654
▁vulcan	-11.9654
▁vulnerab	-11.9654
▁warthog	-11.9654
▁wigwam	-11.9654
▁windmill	-11.9654
▁woolworth	-11.9654
▁wrath	-11.9654
▁wrestling	-11.9654
▁xoxo	-11.9654
▁youtube	-11.9654
▁zombie	-11.9654
▁aerosol	-11.9654
▁authentic	-11.9654
▁clamp	-11.9654
▁illuminat	-11.9654
▁metropoli	-11.9654
▁pablo	-11.9654
▁solemn	-11.9654
▁tiara	-11.9654
pharmac	-11.9654
▁abbey	-11.9654
▁aloud	-11.9654
▁baggage	-11.9654
▁batcharges	-11.9654
▁bronx	-11.9654
▁competing	-11.9654
▁cottonmouths	-11.9654
▁digital	-11.9654
▁divulg	-11.9654
▁dizzy	-11.9654
▁elderly	-11.9654
▁examination	-11.9654
▁fanatic	-11.9654
▁gaulle	-11.9654
▁guiet	-11.9654
▁handiwork	-11.9654
▁lawsuit	-11.9654
▁lonnie	-11.9654
▁mastermind	-11.9654
▁medicinal	-11.9654
▁mercedes	-11.9654
▁meteorites	-11.9654
▁ministry	-11.9654
▁mubi	-11.9654
▁overdue	-11.9654
▁parole	-11.9654
▁picts	-11.9654
▁revolt	-11.9654
▁saloon	-11.9654
▁skydome	-11.9654
▁upcoming	-11.9654
▁watertight	-11.9654
▁wiil	-11.9654
▁yonder	-11.9654
▁yosef	-11.9654
▁ciean	-11.9654
▁detorre	-11.9654
▁galleon	-11.9654
▁hardcore	-11.9654
▁immune	-11.9654
▁ionely	-11.9654
▁jarren	-11.9654
▁orwood	-11.9654
▁phony	-11.9654
▁reanimati	-11.9654
▁replacing	-11.9654
▁retches	-11.9654
▁sorceress	-11.9654
▁stroll	-11.9654
▁clams	-11.9654
▁gesture	-11.9654
▁gladiator	-11.9654
▁hurleys	-11.9654
▁hush	-11.9654
▁licence	-11.9654
▁longterm	-11.9654
▁parachut	-11.9654
▁patroniz	-11.9654
▁squadron	-11.9654
▁vulgar	-11.9654
▁wiring	-11.9654
▁accomplishments	-11.9654
▁duchess	-11.9654
▁halfbreed	-11.9654
▁igor	-11.9654
▁leaf	-11.9654
▁missouri	-11.9654
▁retching	-11.9654
▁snatched	-11.9654
▁bulb	-11.9654
▁crotche	-11.9654
▁fraid	-11.9654
▁immature	-11.9654
▁limoges	-11.9654
▁shaq	-11.9654
▁thudding	-11.9654
▁savor	-11.9654
▁huan	-11.9654
▁hyah	-11.9654
▁ninetynine	-11.9654
▁sniggers	-11.9654
▁vows	-11.9654
▁yabbadabbadoo	-11.9654
▁carbery	-11.9654
▁enslave	-11.9654
▁merge	-11.9654
▁mistreat	-11.9654
▁crossroads	-11.9654
▁expire	-11.9654
▁figuring	-11.9654
▁metrocard	-11.9654
▁modified	-11.9654
▁philanthropi	-11.9654
▁shuttle	-11.9654
▁tackleberry	-11.9654
▁animation	-11.9654
▁sleepover	-11.9654
▁veteran	-11.9654
▁cecilia	-11.9654
▁mythology	-11.9654
▁retina	-11.9654
▁spiritual	-11.9654
▁strawberry	-11.9654
▁elvis	-11.9654
▁purg	-11.9654
corporate	-11.9654
▁hermit	-11.9654
▁attribute	-11.9654
▁muddle	-11.9654
▁nnn	-11.9654
▁overhear	-11.9654
▁bacteri	-11.9654
▁pocketknife	-11.9654
▁rave	-11.9654
▁unstable	-11.9654
▁vineyard	-11.9654
yourself	-11.9654
▁scuffl	-11.9654
▁yodel	-11.9654
populate	-11.9654
▁cloak	-11.9654
▁pindi	-11.9654
▁miniature	-11.9654
▁neutralize	-11.9654
▁cobbler	-11.9654
▁fraternity	-11.9654
▁mimicking	-11.9654
▁myfriend	-11.9654
▁tepee	-11.9654
ucci	-11.9654
▁colonial	-11.9654
▁compound	-11.9654
▁hamstring	-11.9654
▁overslept	-11.9654
▁ahora	-11.9654
splend	-11.9655
▁oneeighty	-11.9655
▁bankruptcy	-11.9655
▁elders	-11.9655
▁journo	-11.9655
▁staple	-11.9655
▁inhabitants	-11.9655
▁ninetyeight	-11.9655
▁knucklehead	-11.9655
▁lrish	-11.9655
▁translating	-11.9655
▁brazilian	-11.9655
▁lapcat	-11.9655
gamma	-11.9655
▁rosie	-11.9655
▁shrunk	-11.9655
▁grot	-11.9655
▁housing	-11.9655
▁donkey	-11.9655
▁earliest	-11.9655
▁props	-11.9655
▁dormez	-11.9655
▁douglas	-11.9655
▁hilo	-11.9655
▁lalalalaa	-11.9655
▁steward	-11.9655
▁chemistry	-11.9655
▁tactics	-11.9655
▁indication	-11.9655
▁infamous	-11.9655
▁irving	-11.9655
▁pillaging	-11.9655
▁maniacally	-11.9655
▁alphabet	-11.9655
▁justify	-11.9655
▁clich	-11.9655
▁depriv	-11.9655
▁ignition	-11.9655
▁oxford	-11.9655
▁ruh	-11.9655
▁pretens	-11.9655
▁coloma	-11.9655
▁acquaint	-11.9655
▁trough	-11.9655
▁economic	-11.9655
▁preview	-11.9655
▁protestant	-11.9655
▁racket	-11.9655
▁briefcase	-11.9655
▁sevenandahalf	-11.9655
▁hoover	-11.9655
▁libra	-11.9655
▁sickening	-11.9655
▁creek	-11.9655
▁distribution	-11.9655
▁durant	-11.9655
▁glut	-11.9655
▁rebuild	-11.9655
▁thataway	-11.9655
▁admiralty	-11.9655
▁nobility	-11.9655
▁sermon	-11.9655
▁trump	-11.9655
▁arlette	-11.9655
▁fangs	-11.9655
▁clarity	-11.9655
▁integrity	-11.9655
▁psychiatrist	-11.9655
▁truffle	-11.9655
▁recess	-11.9655
▁devlin	-11.9655
▁gretta	-11.9655
▁departure	-11.9655
▁unorthodox	-11.9655
▁peasant	-11.9655
▁germain	-11.9655
▁razz	-11.9655
▁cocktail	-11.9655
▁stuart	-11.9655
▁quiver	-11.9655
▁exotic	-11.9655
▁colonist	-11.9655
▁devour	-11.9655
▁rachel	-11.9655
▁doublecheck	-11.9655
▁bentley	-11.9655
▁chart	-11.9655
▁chunk	-11.9655
▁horri	-11.9655
▁inheritance	-11.9655
▁decline	-11.9655
▁biologist	-11.9655
▁procure	-11.9655
▁affectionate	-11.9655
▁volts	-11.9655
▁nadine	-11.9655
▁pepsi	-11.9655
▁digger	-11.9655
▁hydro	-11.9655
▁petals	-11.9655
kiki	-11.9655
▁actua	-11.9655
▁kitties	-11.9656
▁morality	-11.9656
▁roja	-11.9656
▁viral	-11.9656
▁verses	-11.9656
▁brute	-11.9656
▁thermo	-11.9656
▁begged	-11.9656
▁pepper	-11.9656
▁reher	-11.9656
▁retract	-11.9656
▁originated	-11.9656
▁accuse	-11.9656
▁controversial	-11.9656
▁drygulch	-11.9656
▁isabella	-11.9656
▁depression	-11.9656
▁manipulation	-11.9656
▁wills	-11.9656
▁icecold	-11.9656
▁quake	-11.9656
▁flawless	-11.9656
▁compulsion	-11.9656
▁properties	-11.9656
▁decay	-11.9656
▁henchm	-11.9656
▁moray	-11.9656
▁stirrup	-11.9656
▁amusement	-11.9656
▁junkyard	-11.9656
▁dripping	-11.9656
▁pimples	-11.9656
▁huggen	-11.9656
▁ramos	-11.9656
programmed	-11.9656
▁edgar	-11.9656
▁blouse	-11.9656
▁pattering	-11.9656
▁whoohoohoo	-11.9656
▁percentage	-11.9656
▁venture	-11.9656
▁resemblance	-11.9656
▁vroom	-11.9656
▁odor	-11.9656
▁coupling	-11.9656
▁buick	-11.9656
▁observation	-11.9656
▁piggies	-11.9656
▁benefactor	-11.9656
▁steed	-11.9656
▁goofing	-11.9656
▁shack	-11.9656
▁comming	-11.9656
▁raking	-11.9656
trike	-11.9656
▁wormsley	-11.9656
▁arrow	-11.9656
▁mantis	-11.9656
▁measl	-11.9656
▁francois	-11.9656
▁campbell	-11.9657
▁plung	-11.9657
▁employment	-11.9657
▁orient	-11.9657
▁overlook	-11.9657
figur	-11.9657
▁spleen	-11.9657
evaluate	-11.9657
▁herman	-11.9657
▁renovation	-11.9657
▁interrogation	-11.9657
▁bubby	-11.9657
▁youyou	-11.9657
▁bummer	-11.9657
▁refuge	-11.9657
▁banner	-11.9657
▁knick	-11.9657
▁borderline	-11.9657
▁grabbed	-11.9657
▁flick	-11.9657
▁foam	-11.9657
▁dishono	-11.9657
▁polar	-11.9657
stand	-11.9657
▁traveller	-11.9657
▁prior	-11.9657
▁vogonity	-11.9657
▁achievement	-11.9657
▁domini	-11.9657
▁rack	-11.9657
▁refreshment	-11.9657
▁flaw	-11.9657
▁frag	-11.9657
▁pantry	-11.9657
▁wrapper	-11.9657
stage	-11.9657
▁boast	-11.9658
▁curry	-11.9658
▁atmosphere	-11.9658
▁harmonize	-11.9658
▁valentine	-11.9658
▁washroom	-11.9658
▁crail	-11.9658
▁fourfoot	-11.9658
▁hatchday	-11.9658
▁madrid	-11.9658
▁debut	-11.9658
▁tiis	-11.9658
▁fanci	-11.9658
▁keble	-11.9658
▁superpower	-11.9658
▁gown	-11.9658
▁characteristic	-11.9658
▁swine	-11.9658
▁forevermore	-11.9658
▁foolproof	-11.9658
▁forehead	-11.9658
▁entertainment	-11.9658
▁panther	-11.9658
enomination	-11.9658
▁lapse	-11.9658
▁cobra	-11.9658
▁aione	-11.9658
▁devise	-11.9658
▁competent	-11.9658
▁salesman	-11.9658
▁dojo	-11.9658
▁tango	-11.9658
▁undress	-11.9658
▁quadling	-11.9658
▁amel	-11.9659
▁disagreement	-11.9659
▁petition	-11.9659
▁brantf	-11.9659
▁civilis	-11.9659
uary	-11.9659
▁accordion	-11.9659
▁joan	-11.9659
▁uther	-11.9659
▁tenfour	-11.9659
▁jimbo	-11.9659
▁blur	-11.9659
▁prune	-11.9659
▁charleston	-11.9659
▁edna	-11.9659
berlin	-11.9659
▁eins	-11.9659
▁fiendish	-11.9659
▁observers	-11.966
mitz	-11.966
▁alias	-11.966
▁dehydrated	-11.966
▁toons	-11.966
gghh	-11.966
▁galley	-11.966
▁markham	-11.966
▁rustling	-11.966
▁accompanied	-11.966
▁disposal	-11.966
▁ineffable	-11.966
▁thrust	-11.966
▁preservation	-11.966
▁stank	-11.966
▁plotting	-11.966
▁underway	-11.966
▁dominan	-11.966
▁wiggle	-11.966
▁soleman	-11.966
▁moral	-11.966
▁enthusiastic	-11.966
▁whiie	-11.966
▁upward	-11.966
▁donna	-11.966
▁didn	-11.966
▁swordfish	-11.966
▁shun	-11.9661
▁moped	-11.9661
▁adjustment	-11.9661
▁countries	-11.9661
▁cooperative	-11.9661
▁inbound	-11.9661
▁magnum	-11.9661
▁bebo	-11.9661
▁haircut	-11.9661
▁constitutional	-11.9661
▁negotiation	-11.9661
▁windsor	-11.9661
▁admitted	-11.9661
▁fizz	-11.9661
▁priority	-11.9661
▁underage	-11.9661
▁dumpster	-11.9661
▁rejoi	-11.9661
▁traf	-11.9661
tiary	-11.9661
▁slapping	-11.9661
▁whwhat	-11.9662
▁foil	-11.9662
▁mack	-11.9662
▁unwind	-11.9662
▁chev	-11.9662
ography	-11.9662
▁drawer	-11.9662
raham	-11.9662
nox	-11.9662
▁caveless	-11.9662
▁jog	-11.9662
▁rally	-11.9662
▁mink	-11.9662
▁prone	-11.9663
▁loco	-11.9663
▁plumber	-11.9663
▁milt	-11.9663
▁dingh	-11.9663
▁yapping	-11.9663
▁corruption	-11.9663
manche	-11.9663
▁sixteenth	-11.9663
▁scat	-11.9664
▁ivan	-11.9664
▁daw	-11.9664
▁hover	-11.9664
▁timber	-11.9664
umme	-11.9664
▁emerge	-11.9664
▁fabri	-11.9664
▁oyes	-11.9664
dressed	-11.9664
▁handgun	-11.9664
▁tele	-11.9664
▁stepping	-11.9664
▁fend	-11.9664
▁diva	-11.9665
▁butch	-11.9665
▁lull	-11.9665
▁refine	-11.9665
▁injection	-11.9665
▁jiggle	-11.9665
▁arise	-11.9665
▁denies	-11.9665
▁tora	-11.9665
▁airfield	-11.9665
▁highfive	-11.9665
▁sunlight	-11.9666
▁mutation	-11.9666
▁locket	-11.9666
▁fritter	-11.9666
▁ether	-11.9666
▁prettier	-11.9666
▁ibu	-11.9666
▁swill	-11.9666
▁ballroom	-11.9666
▁mck	-11.9666
▁heli	-11.9667
▁hence	-11.9667
etary	-11.9667
manship	-11.9667
bone	-11.9667
▁checkmate	-11.9667
▁brotherinlaw	-11.9667
▁flatten	-11.9667
▁fort	-11.9667
▁contestant	-11.9667
bru	-11.9667
▁infant	-11.9667
▁jings	-11.9667
▁cockroaches	-11.9667
▁tack	-11.9667
▁dots	-11.9668
▁lair	-11.9668
▁mccoy	-11.9668
▁grizzly	-11.9668
▁kimberly	-11.9668
▁monastery	-11.9668
▁dimin	-11.9668
rmore	-11.9668
▁slot	-11.9668
metic	-11.9668
▁jigg	-11.9668
▁jap	-11.9668
▁lobs	-11.9669
dled	-11.9669
▁withdrawal	-11.9669
▁overrun	-11.9669
▁voluntar	-11.9669
▁fathom	-11.9669
▁partake	-11.9669
▁vinnie	-11.9669
▁sportsman	-11.967
▁restroom	-11.967
▁gulf	-11.967
▁breast	-11.967
▁kickoff	-11.967
uffle	-11.967
▁whooee	-11.967
hell	-11.967
▁doggy	-11.967
▁dun	-11.967
▁yoga	-11.9671
▁mardi	-11.9672
▁negotiating	-11.9672
door	-11.9672
▁minimal	-11.9672
▁shaky	-11.9672
▁tourist	-11.9672
▁recon	-11.9672
▁cripple	-11.9672
▁deai	-11.9672
▁gundy	-11.9672
▁fin	-11.9673
abies	-11.9673
mund	-11.9673
▁clone	-11.9673
▁hedge	-11.9673
▁sci	-11.9673
▁unhand	-11.9673
▁jinx	-11.9673
▁aqua	-11.9674
▁chow	-11.9674
▁confession	-11.9674
▁attain	-11.9674
▁calf	-11.9674
▁cardio	-11.9674
▁scenery	-11.9674
▁meaningless	-11.9674
▁crater	-11.9674
▁vee	-11.9674
hacker	-11.9674
▁richter	-11.9674
▁muddy	-11.9674
▁munker	-11.9675
▁mitt	-11.9675
▁heaviest	-11.9675
▁fastball	-11.9675
▁slay	-11.9676
▁extended	-11.9676
▁overwhelmed	-11.9676
▁rubies	-11.9676
▁indiana	-11.9676
▁tacky	-11.9677
▁crispy	-11.9677
nium	-11.9677
▁sewer	-11.9677
thma	-11.9677
▁daf	-11.9678
▁personality	-11.9678
▁humiliated	-11.9678
▁corone	-11.9679
▁turd	-11.9679
▁deter	-11.9679
▁hurst	-11.9679
▁gret	-11.9679
▁defendant	-11.9679
▁hillary	-11.9679
▁firewood	-11.9679
▁allah	-11.968
▁rump	-11.968
fel	-11.968
urity	-11.968
▁wwhat	-11.9681
▁tux	-11.9682
▁buzzes	-11.9682
▁ruben	-11.9683
▁triumphantly	-11.9683
▁waddling	-11.9684
por	-11.9684
▁bluffing	-11.9684
▁quarreling	-11.9684
scill	-11.9684
▁spru	-11.9684
▁mutin	-11.9685
▁repel	-11.9685
cold	-11.9685
▁vel	-11.9685
▁airline	-11.9686
▁hahn	-11.9686
▁crippled	-11.9686
▁booty	-11.9687
▁milli	-11.9687
▁homesick	-11.9687
▁fireball	-11.9688
lau	-11.9688
▁vig	-11.9688
▁vanity	-11.9688
▁allen	-11.9689
▁rigging	-11.9689
▁luke	-11.9689
▁kar	-11.9689
▁treasurer	-11.9689
▁conveniently	-11.9689
▁lala	-11.969
▁lovebirds	-11.969
▁barred	-11.969
▁doubtful	-11.969
▁adi	-11.969
ruly	-11.969
▁alongside	-11.9691
▁taime	-11.9691
mir	-11.9692
▁hardship	-11.9692
▁hassl	-11.9692
▁lifeless	-11.9693
▁painless	-11.9693
▁clearance	-11.9693
▁formally	-11.9693
still	-11.9693
▁shortage	-11.9693
▁forgiveness	-11.9695
▁janet	-11.9696
▁canal	-11.9699
▁nicki	-11.97
▁shillings	-11.97
▁somalis	-11.97
▁accommodations	-11.97
▁cushions	-11.97
▁endeavors	-11.97
▁specimens	-11.97
▁tentacles	-11.97
▁backstage	-11.97
▁chant	-11.9701
wherewe	-11.9702
ophone	-11.9702
▁consulting	-11.9703
team	-11.9703
▁deposited	-11.9704
▁recruited	-11.9704
▁stained	-11.9704
▁driveway	-11.9705
quet	-11.9705
▁rushes	-11.9706
▁scratches	-11.9706
▁grime	-11.9707
▁reply	-11.9707
gist	-11.9708
▁realised	-11.9708
ranged	-11.9709
▁enclos	-11.9711
▁rubes	-11.9712
▁businessmen	-11.9712
▁tur	-11.9712
card	-11.9713
▁resolved	-11.9713
▁tut	-11.9714
▁superman	-11.9714
▁manpower	-11.9715
▁fortunately	-11.9715
▁eta	-11.9716
▁iim	-11.9716
▁tease	-11.9716
▁wiser	-11.9716
▁quinc	-11.9717
▁risen	-11.9717
cate	-11.9717
tech	-11.9718
▁fulfilled	-11.9719
▁gambler	-11.972
▁silky	-11.9721
▁decorated	-11.9721
▁flattery	-11.9722
sprinkle	-11.9722
esque	-11.9722
▁managing	-11.9723
fraction	-11.9724
tv	-11.9724
ership	-11.9724
▁frying	-11.9725
▁snickering	-11.9725
▁squeaker	-11.9725
▁bulldoz	-11.9726
▁everyday	-11.9726
ehen	-11.9727
▁hiring	-11.9727
▁stylin	-11.9728
dominat	-11.9728
cell	-11.9728
▁stretcher	-11.9729
faced	-11.9729
▁arse	-11.973
▁childish	-11.9731
▁mended	-11.9731
▁houseboy	-11.9731
▁melvined	-11.9733
▁idol	-11.9733
ndle	-11.9734
▁bass	-11.9736
▁preserved	-11.9737
▁terrorize	-11.9737
unting	-11.9737
prehension	-11.9737
ohohoh	-11.9737
▁transferring	-11.9738
▁cab	-11.9738
▁amuse	-11.9739
▁weepy	-11.9739
▁faintly	-11.9741
plasm	-11.9742
▁dood	-11.9742
▁handling	-11.9742
▁ditching	-11.9742
▁excit	-11.9743
▁lana	-11.9744
▁function	-11.9746
▁melting	-11.9746
▁undo	-11.9747
▁stressed	-11.9747
most	-11.9751
▁disturbed	-11.9753
▁chopping	-11.9754
▁mob	-11.9754
▁doorway	-11.9754
nigger	-11.9757
▁arth	-11.9757
▁startled	-11.9757
▁seren	-11.9757
▁barre	-11.9757
▁rollers	-11.9758
▁trader	-11.9759
uel	-11.9759
▁separately	-11.976
grudge	-11.9761
▁frieda	-11.9761
▁puffed	-11.9761
▁shrinking	-11.9762
▁squishing	-11.9762
▁complaining	-11.9762
▁defying	-11.9763
▁fleeing	-11.9763
▁salty	-11.9763
▁immortality	-11.9763
▁chicky	-11.9766
▁nee	-11.9766
▁sharky	-11.9767
rano	-11.9768
▁wildest	-11.977
▁perfection	-11.9772
▁nazi	-11.9772
▁observed	-11.9772
▁bitten	-11.9773
▁signor	-11.9773
▁sharply	-11.9773
▁wisely	-11.9773
▁madre	-11.9773
cant	-11.9775
▁punished	-11.9775
▁responded	-11.9775
▁slams	-11.9777
▁scoops	-11.9777
▁assets	-11.9778
▁sixyearolds	-11.9778
▁compartments	-11.9778
▁obstacles	-11.9778
▁souvenirs	-11.9778
▁napkins	-11.9778
▁samples	-11.9778
▁heartaches	-11.9778
▁gunners	-11.9778
vable	-11.9778
▁shutters	-11.9779
▁parasites	-11.978
▁gliders	-11.978
▁bowels	-11.978
▁taran	-11.978
atively	-11.9781
▁bagels	-11.9782
bc	-11.9783
▁evolve	-11.9783
▁slums	-11.9785
▁hart	-11.9786
iq	-11.9788
had	-11.9791
▁bessy	-11.9793
▁veer	-11.9801
▁swelling	-11.9801
▁midw	-11.9802
ggin	-11.9803
▁hoot	-11.9808
▁cryin	-11.9808
▁roo	-11.9811
▁administrat	-11.9813
▁iss	-11.9814
▁roasted	-11.9819
▁nicky	-11.982
▁mocking	-11.9821
▁mooing	-11.9823
extraterrestrial	-11.9823
ben	-11.9825
▁molecul	-11.9826
rant	-11.9831
▁admirer	-11.9831
▁programme	-11.9833
▁suspected	-11.9835
rage	-11.9839
▁riches	-11.984
vision	-11.984
▁programm	-11.9841
▁rewarding	-11.9841
▁bitches	-11.9841
sided	-11.9844
▁clan	-11.9845
▁jealousy	-11.9847
▁poo	-11.9848
▁dresses	-11.9849
▁particle	-11.9853
▁optimist	-11.9857
▁settl	-11.9858
▁jeeps	-11.9859
▁gokarts	-11.9859
▁scholars	-11.9859
▁contradictions	-11.9859
▁oats	-11.9859
▁stables	-11.986
oped	-11.9863
▁flooded	-11.9864
▁shifted	-11.9864
▁fins	-11.987
mmit	-11.9876
▁dearie	-11.9878
▁experimenting	-11.9879
▁chained	-11.988
▁nesting	-11.9881
▁gardener	-11.9888
▁levin	-11.9888
ravell	-11.989
atian	-11.9892
▁sweetest	-11.9894
▁refu	-11.9896
▁insulting	-11.9899
▁stripes	-11.99
▁sonar	-11.99
▁escorting	-11.99
▁filed	-11.9903
▁freshly	-11.9903
acter	-11.9903
▁depending	-11.9903
▁claiming	-11.9904
▁pumping	-11.9904
along	-11.991
▁warmer	-11.9916
▁shocking	-11.9921
years	-11.9921
thats	-11.9924
▁worshipp	-11.9925
▁malic	-11.9927
▁rick	-11.9927
▁sneez	-11.9929
▁bravely	-11.9929
▁tee	-11.9929
▁hale	-11.9932
▁lacking	-11.9936
▁maniacs	-11.9938
▁rosel	-11.9939
▁grapes	-11.994
▁applications	-11.9941
▁antiques	-11.9941
▁sidelines	-11.9941
▁gags	-11.9941
▁emp	-11.9947
▁chops	-11.9948
▁texted	-11.9948
▁buyin	-11.9951
ushi	-11.9952
▁cite	-11.9953
▁seeds	-11.9959
▁avoiding	-11.996
▁owi	-11.996
▁honesty	-11.9962
▁leveled	-11.9963
▁cleanse	-11.997
liable	-11.9972
iously	-11.9976
▁smoked	-11.9981
▁steering	-11.9984
▁butyou	-11.9986
▁sucking	-11.9988
▁throwin	-11.9995
▁stirr	-11.9999
▁fetching	-12
▁misuse	-12.0001
▁driven	-12.0008
technic	-12.0009
▁crushing	-12.0015
▁awaits	-12.0017
▁screening	-12.002
▁processing	-12.0021
▁proved	-12.0024
▁rainy	-12.0026
▁lotion	-12.0029
▁difficulty	-12.003
▁locat	-12.0033
▁molest	-12.0036
▁dealt	-12.0037
▁posters	-12.0043
▁blamed	-12.0052
mba	-12.0053
▁homeless	-12.0053
▁starters	-12.0055
▁weave	-12.0059
▁oni	-12.0064
▁digesti	-12.008
haha	-12.0084
▁cot	-12.0087
▁bathed	-12.0093
▁adventurer	-12.0094
▁beaut	-12.0112
lem	-12.0113
visible	-12.0127
otto	-12.0128
▁pickin	-12.0134
cab	-12.0139
broad	-12.0142
▁pear	-12.015
▁stabb	-12.0188
urps	-12.0198
▁wai	-12.0201
▁mole	-12.0206
tripoli	-12.0214
▁zarkin	-12.0217
▁tarta	-12.0222
▁visualiz	-12.0223
sland	-12.0228
▁scrape	-12.0228
▁stutter	-12.0246
mile	-12.0256
nfield	-12.0264
▁advis	-12.027
bareback	-12.0273
▁checkin	-12.0286
▁shee	-12.0286
▁pranc	-12.0288
▁ser	-12.029
▁kissinger	-12.0294
ost	-12.0298
▁blott	-12.0303
eiia	-12.0307
abe	-12.0314
▁wage	-12.0315
▁committ	-12.0322
▁ronn	-12.0329
tero	-12.0337
▁killin	-12.0339
▁psycholog	-12.0346
▁intermi	-12.0356
rap	-12.0359
onies	-12.0366
▁raj	-12.0367
▁sti	-12.0384
▁shad	-12.0396
ctur	-12.04
oval	-12.0417
▁dart	-12.0419
▁tile	-12.0421
▁punt	-12.0421
▁ruffle	-12.0423
▁victimize	-12.044
▁scho	-12.0444
▁rash	-12.0463
▁mod	-12.0465
▁ambitio	-12.0488
▁headin	-12.0502
sanitary	-12.0506
heer	-12.0514
would	-12.0524
wall	-12.0548
reak	-12.055
usa	-12.0553
▁slob	-12.0558
auze	-12.0559
uth	-12.0573
▁cul	-12.0589
etti	-12.0589
▁execute	-12.0598
▁kane	-12.0604
▁ang	-12.0612
ugula	-12.0632
▁colon	-12.0636
▁heater	-12.0647
▁schm	-12.0649
ycl	-12.0657
▁eff	-12.0658
bil	-12.0687
enses	-12.0693
▁feelin	-12.0704
ature	-12.0711
lone	-12.0747
▁suz	-12.0764
▁petit	-12.0796
▁bou	-12.0815
▁emir	-12.0818
addie	-12.0836
winkie	-12.0847
cra	-12.0848
▁maca	-12.0855
▁disc	-12.0882
▁cooperat	-12.0901
▁keny	-12.0914
grab	-12.0965
▁hesitat	-12.0977
▁marti	-12.0987
nner	-12.0998
▁ascen	-12.1017
▁trib	-12.1019
mpress	-12.1028
▁tangle	-12.1033
▁seeker	-12.1106
▁wilt	-12.1158
ssies	-12.1186
▁tanne	-12.1191
▁franc	-12.1209
▁why	-12.1238
chio	-12.124
▁deceive	-12.1243
▁nui	-12.1266
▁charger	-12.1268
tata	-12.1281
▁negotiate	-12.1289
nno	-12.1306
▁invad	-12.1355
mite	-12.1361
▁bog	-12.1368
lves	-12.1381
▁grandda	-12.1406
yu	-12.1419
state	-12.143
▁stretche	-12.1452
▁cru	-12.1474
ingham	-12.1491
▁boot	-12.1496
rag	-12.1504
▁mul	-12.1506
▁christoph	-12.1521
▁shak	-12.1523
undance	-12.1538
imp	-12.1541
▁skim	-12.1556
▁addis	-12.1573
▁reproducti	-12.1599
▁andno	-12.1619
▁expedit	-12.1624
▁vie	-12.1629
▁baz	-12.1633
pl	-12.1666
▁kkk	-12.1737
vio	-12.1771
▁replica	-12.1776
▁mingle	-12.1816
▁sho	-12.1823
▁swe	-12.1826
ira	-12.1831
cuz	-12.1841
▁kilo	-12.1863
nsa	-12.191
▁replicati	-12.1926
katie	-12.1946
▁fle	-12.1973
pressed	-12.1976
umber	-12.1985
▁speculat	-12.2033
▁muc	-12.2038
certainty	-12.2055
erry	-12.2056
eeches	-12.2061
alibu	-12.2084
▁chari	-12.2162
▁angelic	-12.2251
▁shaki	-12.2269
▁expeditio	-12.2273
▁dine	-12.2286
▁jell	-12.2292
▁clu	-12.2313
ump	-12.2331
▁observa	-12.234
▁geo	-12.2385
▁hypocri	-12.2395
▁riddl	-12.2403
loop	-12.2404
grade	-12.2477
▁oo	-12.2516
▁squeez	-12.252
fied	-12.2525
▁decor	-12.254
met	-12.2569
▁sca	-12.2572
azing	-12.2589
race	-12.2635
▁peri	-12.2675
▁sever	-12.2682
about	-12.2697
that	-12.2706
▁vec	-12.2763
lite	-12.2772
▁devote	-12.2779
ucus	-12.2804
▁jamm	-12.2804
oge	-12.2814
arry	-12.2856
▁outof	-12.2872
▁exterminat	-12.2875
oodoo	-12.2913
high	-12.2955
productive	-12.2969
ndum	-12.2975
pita	-12.2989
than	-12.2989
▁kn	-12.3001
elic	-12.3012
▁ofju	-12.302
▁bomber	-12.3033
▁converge	-12.305
orte	-12.305
iger	-12.3057
▁navigat	-12.3073
rett	-12.3085
action	-12.3094
ngled	-12.3224
▁salva	-12.323
rece	-12.3233
▁initiati	-12.328
ween	-12.3285
ebo	-12.3307
ionized	-12.3319
nto	-12.3348
▁expo	-12.3372
▁squa	-12.3398
▁wewe	-12.3403
▁haiya	-12.3428
▁cali	-12.3448
eek	-12.3466
▁rebe	-12.3483
▁insi	-12.3495
▁notif	-12.3512
▁advise	-12.3644
tribute	-12.3661
lant	-12.3665
nez	-12.3668
▁dee	-12.3691
stat	-12.3694
bm	-12.3702
onde	-12.3703
jib	-12.3706
rites	-12.3734
arina	-12.3742
▁slum	-12.3768
muller	-12.378
ota	-12.3792
▁tasti	-12.3808
▁sna	-12.3811
graphic	-12.3815
▁prep	-12.3831
scend	-12.384
rby	-12.384
ashes	-12.3843
iddly	-12.3851
▁psychologica	-12.386
mary	-12.387
▁fili	-12.3899
ink	-12.391
rna	-12.3914
▁concentrat	-12.3914
rothe	-12.3927
▁boarder	-12.3954
▁yip	-12.3956
▁compos	-12.3988
placement	-12.3993
▁typ	-12.3998
▁initia	-12.4023
gestion	-12.404
tobe	-12.4076
hopper	-12.4102
▁techni	-12.4105
▁litt	-12.4116
ology	-12.4121
▁swab	-12.4122
▁spong	-12.4127
scope	-12.414
lashed	-12.4147
▁harv	-12.4155
▁kil	-12.4192
usty	-12.4199
structed	-12.421
cular	-12.4221
love	-12.4231
attended	-12.4232
berry	-12.425
mortality	-12.4254
▁abou	-12.4255
matched	-12.4268
rop	-12.4273
dium	-12.4284
▁memo	-12.4304
lay	-12.4307
endo	-12.4332
▁optim	-12.4332
▁bei	-12.4351
bility	-12.4372
weeds	-12.4379
combe	-12.4384
athletes	-12.4385
ringer	-12.4394
▁termin	-12.4402
▁resid	-12.4404
assie	-12.4412
icated	-12.4414
▁curv	-12.4414
igg	-12.4422
▁shriek	-12.4439
▁genetic	-12.4441
bird	-12.4442
▁whimper	-12.4443
▁admir	-12.4447
rsch	-12.4448
rative	-12.445
▁welcom	-12.4453
▁obstacle	-12.4455
▁souvenir	-12.4455
▁compartment	-12.4455
▁heartache	-12.4455
▁napkin	-12.4457
▁scoop	-12.4457
▁sample	-12.4459
▁sixyearold	-12.446
▁voic	-12.446
▁slug	-12.446
▁parasite	-12.4461
▁strait	-12.4464
▁slam	-12.4464
▁mushroom	-12.4465
▁handcuff	-12.4469
▁beverage	-12.4469
▁thud	-12.4469
▁obligation	-12.447
▁patzer	-12.4471
phoni	-12.4472
▁consequence	-12.4472
▁underhill	-12.4472
▁hallucination	-12.4474
▁relation	-12.4474
▁glg	-12.4475
▁roar	-12.4475
▁insect	-12.4476
▁bowel	-12.4477
nklin	-12.4478
▁passenger	-12.4478
▁knuckle	-12.4481
▁asset	-12.4483
▁gunner	-12.4483
▁hal	-12.4484
▁honk	-12.4484
▁exhale	-12.4485
▁vibration	-12.4486
jam	-12.4486
▁instruction	-12.4488
▁kraut	-12.4489
▁pari	-12.449
▁other	-12.4496
▁glider	-12.4498
bbie	-12.4501
▁bagel	-12.4502
▁teenager	-12.4506
▁tex	-12.4509
▁kippel	-12.451
ential	-12.4512
▁gree	-12.4514
comprehensi	-12.452
▁ange	-12.4525
▁gull	-12.4527
lacking	-12.453
ority	-12.4532
anita	-12.4534
▁philosoph	-12.4541
▁zap	-12.4546
▁direc	-12.4549
pines	-12.455
ringing	-12.4551
aneous	-12.4554
lifting	-12.4557
narco	-12.4558
▁cind	-12.4558
▁serv	-12.4562
▁shutter	-12.4565
maggi	-12.4567
▁decid	-12.4575
asses	-12.4576
▁enchant	-12.4577
▁bren	-12.4578
▁exhaust	-12.4578
▁patche	-12.458
were	-12.4584
▁conju	-12.4586
cally	-12.4588
allah	-12.459
doc	-12.4591
after	-12.4592
lips	-12.4595
▁sla	-12.4595
kaboo	-12.4596
▁scen	-12.4596
rown	-12.4598
itary	-12.4599
▁threefift	-12.46
▁sacrific	-12.4603
ootie	-12.4604
▁organiz	-12.4604
▁chris	-12.4605
▁quarrel	-12.4606
▁merc	-12.4606
▁bluff	-12.4607
▁ration	-12.4607
▁shudder	-12.4608
▁promot	-12.4609
▁applaud	-12.4611
▁terrify	-12.4611
▁fascinat	-12.4611
▁realiz	-12.4611
▁loiter	-12.4611
utters	-12.4614
aise	-12.4615
▁reprogram	-12.4615
wine	-12.4617
▁overwhelm	-12.4619
▁greatgreatgran	-12.4619
▁extend	-12.4619
▁depress	-12.462
foot	-12.4621
▁outnumber	-12.4621
change	-12.4622
ggy	-12.4623
▁jig	-12.4624
pound	-12.4624
genev	-12.4624
write	-12.4624
quarters	-12.4625
glass	-12.4625
awful	-12.4625
craft	-12.4626
▁distort	-12.4626
ndered	-12.4626
▁supervise	-12.4628
▁dispose	-12.4628
body	-12.4628
yearold	-12.4629
wipe	-12.4629
woman	-12.4629
fathom	-12.463
voluntar	-12.463
jinx	-12.463
▁parche	-12.463
trip	-12.463
urros	-12.463
cross	-12.463
gulf	-12.463
adequate	-12.4631
▁superstitio	-12.4631
occupied	-12.4631
colored	-12.4631
reign	-12.4631
appointed	-12.4631
▁identifie	-12.4631
oxygen	-12.4631
whack	-12.4631
▁destin	-12.4632
galactic	-12.4632
▁strand	-12.4632
portrait	-12.4632
▁grizzl	-12.4632
confirmed	-12.4632
feeding	-12.4632
▁fru	-12.4632
jets	-12.4632
hawk	-12.4632
automatic	-12.4632
crust	-12.4632
qualified	-12.4632
▁collapse	-12.4632
charge	-12.4632
conduct	-12.4632
scramble	-12.4632
flies	-12.4632
grip	-12.4633
publish	-12.4633
▁bran	-12.4633
appropriate	-12.4633
american	-12.4633
jelly	-12.4633
abuse	-12.4633
responsible	-12.4633
▁spiff	-12.4633
▁featur	-12.4633
flesh	-12.4633
shadow	-12.4633
available	-12.4633
spoken	-12.4633
criminal	-12.4633
stretch	-12.4633
signal	-12.4633
bonnet	-12.4633
dozen	-12.4633
trash	-12.4633
proper	-12.4633
penny	-12.4633
jerk	-12.4633
knock	-12.4633
spirit	-12.4633
species	-12.4633
difference	-12.4633
patrick	-12.4633
beans	-12.4633
built	-12.4633
heaven	-12.4633
▁distinct	-12.4633
street	-12.4633
picked	-12.4633
court	-12.4633
promised	-12.4633
ugly	-12.4633
rescue	-12.4633
horse	-12.4633
blood	-12.4633
finished	-12.4633
general	-12.4633
computer	-12.4633
president	-12.4634
trust	-12.4634
important	-12.4634
worry	-12.4634
perfect	-12.4634
apple	-12.4634
violet	-12.4634
nothing	-12.4634
▁thirst	-12.4634
level	-12.4634
places	-12.4634
travel	-12.4635
scotch	-12.4635
▁dumm	-12.4635
▁twitch	-12.4635
▁kimberl	-12.4635
polite	-12.4635
▁communicat	-12.4635
▁swipe	-12.4635
market	-12.4635
decent	-12.4636
pathetic	-12.4636
swallow	-12.4636
▁shredd	-12.4636
planted	-12.4636
▁virtual	-12.4637
shark	-12.4637
plied	-12.4637
check	-12.4637
▁suffocat	-12.4637
▁shiv	-12.4638
itude	-12.4638
park	-12.4638
▁monaster	-12.4638
▁shred	-12.4639
paper	-12.4639
▁stoke	-12.4639
daisy	-12.4639
noch	-12.4639
jill	-12.464
camp	-12.464
writer	-12.464
▁apparent	-12.4641
hart	-12.4641
▁absolut	-12.4641
illa	-12.4641
breast	-12.4641
jour	-12.4641
▁overru	-12.4641
weli	-12.4642
▁fuzz	-12.4642
▁chequ	-12.4642
achiev	-12.4642
utz	-12.4642
calcula	-12.4642
secure	-12.4642
find	-12.4643
partial	-12.4643
jaw	-12.4643
crucia	-12.4643
▁supposi	-12.4644
▁skelet	-12.4644
▁ador	-12.4645
cussions	-12.4645
creation	-12.4646
cake	-12.4646
▁eyewitness	-12.4646
cilia	-12.4646
▁bootlegg	-12.4646
▁sicil	-12.4647
▁nutritio	-12.4647
pants	-12.4647
▁prosecut	-12.4647
▁extravagan	-12.4647
▁incub	-12.4647
tux	-12.4647
▁intent	-12.4647
▁electro	-12.4647
▁appetit	-12.4648
▁promote	-12.4648
▁compute	-12.4648
▁garnet	-12.4648
▁garde	-12.4649
heel	-12.4649
consciousness	-12.465
▁phenomen	-12.465
aww	-12.465
▁villa	-12.465
quat	-12.4651
▁sugg	-12.4651
wwhat	-12.4651
▁patriot	-12.4651
semblance	-12.4651
ooze	-12.4651
▁waldo	-12.4651
▁waddl	-12.4651
▁respirat	-12.4651
▁reposit	-12.4651
▁transit	-12.4651
▁givin	-12.4651
▁hospita	-12.4651
butt	-12.4652
▁manipulat	-12.4652
▁compuls	-12.4652
▁twer	-12.4652
▁hittin	-12.4652
▁nevii	-12.4652
▁journa	-12.4652
▁turb	-12.4652
wayne	-12.4652
xtreme	-12.4652
ampton	-12.4652
▁blamin	-12.4652
▁diggin	-12.4653
▁activati	-12.4653
educt	-12.4653
asket	-12.4653
▁immortal	-12.4653
▁integr	-12.4653
▁jenni	-12.4653
▁regime	-12.4653
▁freight	-12.4653
ffin	-12.4653
▁prosper	-12.4653
▁stabilize	-12.4653
▁apath	-12.4653
▁stew	-12.4653
▁daph	-12.4653
▁anima	-12.4653
▁enthusias	-12.4653
oobeeday	-12.4653
▁concei	-12.4654
equently	-12.4654
▁brazil	-12.4654
▁defect	-12.4654
▁preoccup	-12.4654
▁bankrupt	-12.4654
[...]
