<unk>	0
<s>	0
</s>	0
s	-4.16517
▁im	-4.3484
▁dont	-4.45925
▁know	-4.50673
▁get	-4.70493
▁right	-4.79992
▁go	-4.80518
▁like	-4.83207
▁got	-4.90373
▁oh	-4.91026
▁come	-4.92204
▁youre	-4.92401
▁yeah	-4.93441
▁na	-5.07356
▁thats	-5.0996
▁well	-5.10767
▁okay	-5.1656
▁one	-5.18803
▁want	-5.28656
▁good	-5.28772
▁gon	-5.31663
▁see	-5.34348
▁think	-5.35173
▁hey	-5.43713
▁look	-5.48073
▁man	-5.50442
▁back	-5.52355
▁going	-5.57341
▁yes	-5.57629
▁take	-5.63067
▁hes	-5.63307
▁time	-5.63449
▁us	-5.64054
▁ill	-5.66177
▁cant	-5.70673
▁tell	-5.77344
▁need	-5.79163
▁say	-5.79652
▁would	-5.80828
▁l	-5.81682
▁really	-5.89229
▁could	-5.91085
▁way	-5.93215
ing	-5.93367
▁please	-5.95216
▁love	-5.95433
▁never	-5.96957
▁make	-5.97077
▁little	-5.97205
▁something	-5.97883
▁let	-5.98922
▁lets	-5.99612
▁sorry	-6.01117
▁whats	-6.01585
▁thank	-6.02729
▁didnt	-6.04919
▁mean	-6.0927
▁god	-6.11109
▁theres	-6.12968
▁give	-6.13328
▁ive	-6.13414
▁two	-6.20014
ed	-6.20517
▁people	-6.20941
▁uh	-6.25449
▁help	-6.25792
▁said	-6.26569
▁thing	-6.26853
▁wait	-6.28636
▁stop	-6.29206
▁mr	-6.32246
▁much	-6.32989
▁shes	-6.34239
▁	-6.35036
▁sure	-6.35215
▁shit	-6.38594
▁sir	-6.3923
▁theyre	-6.39935
▁life	-6.41581
▁day	-6.42442
▁call	-6.42979
▁great	-6.46506
▁home	-6.46827
▁find	-6.47376
▁even	-6.47498
▁fuck	-6.49643
▁anything	-6.50173
▁night	-6.51147
▁nothing	-6.51875
▁first	-6.52014
▁guys	-6.52193
▁put	-6.52836
▁work	-6.5389
▁maybe	-6.54337
▁talk	-6.54464
▁ever	-6.55959
▁keep	-6.57481
▁fucking	-6.57747
▁away	-6.58328
▁still	-6.59346
▁new	-6.61443
▁better	-6.62373
▁around	-6.62637
▁ta	-6.62809
d	-6.63878
▁thought	-6.64938
▁wan	-6.65008
▁last	-6.65388
▁hell	-6.6613
▁name	-6.67099
▁stay	-6.685
▁always	-6.69503
▁guy	-6.69808
▁long	-6.70715
▁nice	-6.71948
▁hi	-6.71975
▁big	-6.7209
▁baby	-6.7209
▁feel	-6.72388
▁told	-6.74099
▁years	-6.75296
▁girl	-6.76087
▁hear	-6.76581
▁leave	-6.76822
▁fine	-6.76994
▁listen	-6.77899
▁everything	-6.78362
▁coming	-6.79049
▁place	-6.79273
▁boy	-6.79331
▁things	-6.79567
▁youve	-6.80365
▁must	-6.80594
▁wont	-6.80746
▁hello	-6.80791
▁ok	-6.80938
▁money	-6.81834
▁id	-6.82861
▁every	-6.83126
y	-6.84656
▁world	-6.85101
▁done	-6.85171
▁old	-6.85288
▁youll	-6.8577
▁three	-6.85837
▁doesnt	-6.85971
▁remember	-6.87339
▁lot	-6.87805
▁show	-6.88845
▁dad	-6.89219
▁believe	-6.89993
▁house	-6.90259
▁bad	-6.91115
▁made	-6.91145
▁huh	-6.91273
▁move	-6.91795
▁hold	-6.92037
▁father	-6.92281
▁aint	-6.93343
▁kill	-6.94648
▁thanks	-6.94648
▁understand	-6.94757
▁woman	-6.95439
▁kind	-6.95727
▁left	-6.96198
▁wrong	-6.96421
▁talking	-6.96893
▁son	-6.97567
▁real	-6.98148
▁car	-7.01282
▁music	-7.01731
▁door	-7.02475
er	-7.03683
▁isnt	-7.03755
▁care	-7.03943
ly	-7.04486
▁try	-7.04723
▁mom	-7.05242
▁enough	-7.05614
▁another	-7.06763
▁today	-7.06928
▁ready	-7.06993
▁happened	-7.07443
e	-7.07585
▁wanted	-7.09807
▁course	-7.10378
▁dead	-7.10538
▁may	-7.10585
▁best	-7.10642
▁trying	-7.10739
▁ask	-7.11384
▁miss	-7.12204
▁tonight	-7.12627
▁might	-7.13214
▁someone	-7.13774
▁live	-7.14336
▁next	-7.14482
▁else	-7.14792
▁um	-7.14886
▁mind	-7.15226
▁getting	-7.15368
▁friend	-7.16829
▁looking	-7.17505
▁mother	-7.17906
▁lm	-7.19438
▁run	-7.19589
▁morning	-7.20171
▁cause	-7.20416
▁came	-7.20662
▁phone	-7.21917
▁job	-7.22484
▁whole	-7.22947
▁head	-7.23047
▁seen	-7.23108
▁men	-7.24183
▁room	-7.2468
▁found	-7.24785
▁together	-7.24805
▁playing	-7.25526
▁family	-7.27308
▁meet	-7.27453
▁excuse	-7.27816
▁saw	-7.27919
▁wasnt	-7.29563
▁watch	-7.30534
▁die	-7.31056
▁open	-7.32423
▁everybody	-7.329
▁weve	-7.33152
in	-7.34294
▁wouldnt	-7.34383
▁actually	-7.34455
▁hard	-7.34763
▁many	-7.35225
▁guess	-7.35301
▁knew	-7.35325
▁pretty	-7.35876
▁whoa	-7.35887
▁ah	-7.35941
▁went	-7.36208
▁bring	-7.36662
▁beautiful	-7.37233
▁tomorrow	-7.37573
▁face	-7.37922
▁turn	-7.38714
▁play	-7.39915
▁school	-7.40379
▁heart	-7.40481
▁matter	-7.40943
▁heard	-7.41221
▁alone	-7.41674
▁second	-7.41917
▁end	-7.42002
▁without	-7.42732
▁damn	-7.43007
▁fight	-7.43026
▁used	-7.44163
▁five	-7.44247
▁whos	-7.44277
▁start	-7.44427
▁bit	-7.4453
▁gone	-7.4481
▁jack	-7.4528
▁called	-7.45559
▁kid	-7.45724
▁crazy	-7.47207
▁kids	-7.4758
▁took	-7.47934
▁hope	-7.48006
▁friends	-7.49208
▁idea	-7.49411
▁four	-7.50216
▁em	-7.50605
▁everyone	-7.50717
▁use	-7.5092
▁happy	-7.51117
▁days	-7.51704
▁shut	-7.51741
▁wife	-7.52438
▁fire	-7.52797
▁youd	-7.52807
▁eyes	-7.53062
▁yet	-7.53214
▁eat	-7.53322
▁anyone	-7.53327
▁sit	-7.54435
▁true	-7.55056
▁lost	-7.55729
▁boys	-7.56195
▁sighs	-7.56306
▁havent	-7.56806
▁hand	-7.5696
▁saying	-7.5724
▁minute	-7.57257
▁read	-7.57714
▁worry	-7.57914
▁problem	-7.57963
▁hit	-7.58839
▁couldnt	-7.59056
▁brother	-7.5908
▁somebody	-7.59248
▁killed	-7.59385
▁water	-7.59626
▁already	-7.59987
▁story	-7.60269
▁ago	-7.60285
▁grunts	-7.60803
▁hurt	-7.60821
▁minutes	-7.60934
▁chuckles	-7.61344
▁laughing	-7.61357
▁ass	-7.61831
▁easy	-7.62261
a	-7.62325
▁fun	-7.6242
▁check	-7.62435
▁looks	-7.62885
▁close	-7.63834
▁stuff	-7.64387
t	-7.64412
▁break	-7.65408
▁honey	-7.65476
▁since	-7.65573
▁inside	-7.66372
▁pay	-7.66741
▁business	-7.68159
▁hands	-7.68226
▁part	-7.68323
▁jesus	-7.68644
▁bye	-7.68645
▁late	-7.68679
▁gun	-7.68833
▁stand	-7.69518
▁nobody	-7.69825
▁walk	-7.70048
▁supposed	-7.70229
▁cut	-7.70507
▁six	-7.70818
▁far	-7.70955
▁wheres	-7.71484
▁point	-7.71743
▁working	-7.71966
▁thinking	-7.71982
▁probably	-7.72232
▁whatever	-7.7255
▁soon	-7.72945
r	-7.73081
▁gave	-7.7319
▁wants	-7.73292
▁trust	-7.73454
▁exactly	-7.73681
▁wow	-7.73835
▁year	-7.75
▁number	-7.75157
▁change	-7.75325
▁happen	-7.75446
▁later	-7.75475
▁afraid	-7.75625
▁says	-7.75668
▁welcome	-7.7612
▁shot	-7.76344
▁side	-7.76382
▁line	-7.76747
▁game	-7.77166
▁war	-7.77424
▁word	-7.77498
▁dog	-7.7771
▁daddy	-7.77864
▁mine	-7.77949
▁young	-7.78036
▁mrs	-7.78295
u	-7.78609
▁set	-7.78738
▁cool	-7.79829
▁sleep	-7.79958
▁sam	-7.80052
▁ha	-7.81033
▁different	-7.81112
▁case	-7.814
▁deal	-7.8149
▁taking	-7.81563
▁dr	-7.81613
▁party	-7.81847
▁high	-7.81897
▁free	-7.82143
▁lady	-7.82456
▁rest	-7.8284
▁city	-7.83338
▁ya	-7.83428
▁chance	-7.83476
▁drink	-7.83563
▁continues	-7.83723
▁girls	-7.84553
▁gasps	-7.85041
o	-7.85647
▁making	-7.85828
▁forget	-7.85999
▁pick	-7.864
▁wish	-7.86422
▁waiting	-7.87082
▁times	-7.87968
▁makes	-7.88639
▁moment	-7.88648
▁though	-7.89103
▁safe	-7.89394
▁hot	-7.89532
▁doctor	-7.89784
▁promise	-7.90064
▁week	-7.90154
▁hours	-7.90166
▁laughs	-7.90264
▁hate	-7.90275
▁bitch	-7.90275
▁king	-7.90653
▁speak	-7.90658
▁truth	-7.91052
▁grunting	-7.9108
▁clear	-7.91161
▁hmm	-7.91175
▁bed	-7.91319
▁blood	-7.91331
▁death	-7.91779
▁couple	-7.92185
▁half	-7.92218
▁almost	-7.92405
▁means	-7.92465
▁police	-7.92959
▁goes	-7.93339
▁behind	-7.93381
▁shoot	-7.93998
▁black	-7.94555
▁lord	-7.94761
▁anybody	-7.94972
▁news	-7.95301
▁light	-7.95463
▁save	-7.96271
▁front	-7.96369
▁full	-7.96463
▁shall	-7.96771
▁perfect	-7.9688
▁question	-7.97292
▁george	-7.97588
▁also	-7.97797
al	-7.97976
▁sister	-7.98402
▁lose	-7.98841
n	-7.98844
▁touch	-7.99369
▁arent	-7.99451
▁body	-7.99662
▁daughter	-8.00099
▁white	-8.00135
▁red	-8.00286
▁ahead	-8.00712
▁anyway	-8.00781
▁trouble	-8.0086
▁person	-8.00933
▁anymore	-8.01132
▁speaking	-8.01209
▁alive	-8.01348
▁sometimes	-8.01365
▁met	-8.01517
▁dear	-8.01522
▁married	-8.01984
▁important	-8.0211
▁book	-8.02347
▁women	-8.02505
▁town	-8.02666
▁buy	-8.0276
▁started	-8.0277
▁outside	-8.03299
▁answer	-8.0332
▁food	-8.03621
▁stupid	-8.03646
▁send	-8.04224
▁telling	-8.04242
l	-8.04349
▁sound	-8.04408
▁child	-8.04489
▁asked	-8.04649
▁hang	-8.04677
▁john	-8.04715
▁least	-8.05025
▁hurry	-8.05689
▁follow	-8.05796
es	-8.06197
▁drive	-8.06334
▁gentlemen	-8.06806
▁funny	-8.0771
▁brought	-8.07933
▁luck	-8.08526
▁quite	-8.08661
▁either	-8.08846
▁feeling	-8.08849
▁children	-8.09496
▁till	-8.09775
▁dance	-8.10282
▁scared	-8.10501
▁voice	-8.10583
▁power	-8.10595
▁plan	-8.11217
i	-8.1137
▁died	-8.1148
▁buddy	-8.11635
▁comes	-8.11825
▁ladies	-8.12107
▁air	-8.12583
▁running	-8.12819
▁heres	-8.12876
▁lts	-8.12918
▁hows	-8.1309
▁screaming	-8.13358
▁theyll	-8.13536
▁special	-8.13745
▁mama	-8.13844
▁captain	-8.14261
▁panting	-8.14502
▁reason	-8.14737
▁goodbye	-8.15475
▁order	-8.16178
▁street	-8.16235
▁un	-8.1634
▁tried	-8.16472
▁husband	-8.1675
▁dream	-8.16976
▁sounds	-8.17124
▁fast	-8.17317
▁rock	-8.17977
▁dinner	-8.18052
▁country	-8.18205
▁months	-8.18317
▁needs	-8.18411
▁hair	-8.18976
▁sweet	-8.19417
▁yo	-8.19464
▁lives	-8.19818
▁parents	-8.19893
▁office	-8.1993
▁win	-8.2014
▁fall	-8.20517
▁top	-8.20521
▁company	-8.20753
▁living	-8.21012
▁th	-8.21426
▁tv	-8.21792
▁itll	-8.22053
▁ten	-8.22214
▁y	-8.22299
▁team	-8.22718
▁along	-8.22836
▁seven	-8.22998
▁feet	-8.23107
▁alright	-8.23259
▁throw	-8.23338
▁ooh	-8.23368
▁control	-8.24071
▁radio	-8.24123
▁ben	-8.24313
▁pull	-8.2445
▁clean	-8.24483
▁goddamn	-8.24757
▁sick	-8.24972
▁charlie	-8.25781
▁sign	-8.25894
▁weeks	-8.2597
▁happening	-8.26484
▁serious	-8.26511
▁york	-8.26591
▁hour	-8.26791
▁ride	-8.26793
p	-8.26832
▁calm	-8.27067
▁moving	-8.27151
▁kiss	-8.27204
▁glad	-8.27334
▁groans	-8.27527
▁pain	-8.27631
▁leaving	-8.28254
▁human	-8.28469
▁wake	-8.28499
▁president	-8.285
▁catch	-8.28813
▁song	-8.29399
▁bet	-8.29452
▁maam	-8.29654
▁drop	-8.29657
▁poor	-8.30507
▁straight	-8.31316
▁happens	-8.3162
▁knows	-8.31786
▁careful	-8.32175
▁blue	-8.32218
▁screams	-8.32362
▁kidding	-8.32523
▁fact	-8.32762
▁shouldnt	-8.33098
▁million	-8.334
▁f	-8.33466
▁christ	-8.33487
▁eye	-8.34019
▁taken	-8.34188
▁general	-8.35137
▁lucky	-8.35301
est	-8.3549
▁bob	-8.35763
▁able	-8.35856
▁step	-8.35878
c	-8.35908
▁amazing	-8.35969
▁words	-8.3598
▁wonderful	-8.36076
▁army	-8.36135
▁boss	-8.36331
▁somewhere	-8.36362
ers	-8.36412
▁sense	-8.36703
▁la	-8.3697
▁past	-8.37107
▁singing	-8.37196
▁asking	-8.37272
▁fly	-8.37455
▁strong	-8.37465
▁seems	-8.37985
▁tommy	-8.3819
▁sent	-8.38196
▁sort	-8.38313
▁earth	-8.38749
▁learn	-8.38968
▁relax	-8.39221
▁choice	-8.39323
▁ones	-8.39493
▁mike	-8.39942
▁quiet	-8.40183
▁small	-8.4025
▁law	-8.40413
▁piece	-8.40482
▁dude	-8.40818
▁quick	-8.4082
▁mouth	-8.41181
▁calling	-8.4129
on	-8.4177
▁absolutely	-8.41956
▁joe	-8.42158
▁picture	-8.42404
▁ball	-8.42751
▁forever	-8.4288
▁future	-8.42906
▁cheering	-8.42963
▁p	-8.43228
▁land	-8.43379
▁become	-8.43392
▁finally	-8.43598
▁ow	-8.44128
▁breathing	-8.44341
▁b	-8.44349
▁round	-8.44395
▁michael	-8.44741
▁frank	-8.44874
▁gets	-8.45156
▁slow	-8.45409
▁english	-8.45483
▁beat	-8.45791
▁cold	-8.46434
▁mmm	-8.46479
▁figure	-8.46603
▁cover	-8.46607
▁known	-8.46938
▁join	-8.46956
▁write	-8.47029
▁less	-8.47043
▁dark	-8.47569
▁finish	-8.4773
▁weird	-8.48109
▁road	-8.48242
▁seem	-8.48297
▁wear	-8.48427
▁lll	-8.4845
▁deep	-8.48721
▁fat	-8.49043
g	-8.4906
▁lie	-8.49099
▁officer	-8.49189
▁pass	-8.49529
▁felt	-8.49565
▁loved	-8.49833
▁sing	-8.50038
▁roy	-8.50933
m	-8.50962
▁mad	-8.51177
▁class	-8.51578
▁shell	-8.51879
▁lt	-8.52184
▁gods	-8.52283
▁honor	-8.52501
▁nick	-8.52596
▁questions	-8.52769
▁sea	-8.52948
▁fault	-8.53067
▁mary	-8.53095
▁werent	-8.53424
▁none	-8.53485
▁fuckin	-8.53641
▁fear	-8.53735
▁possible	-8.53783
▁worth	-8.54028
▁eight	-8.54133
▁rather	-8.54505
▁hed	-8.54608
▁watching	-8.55041
▁meeting	-8.55434
▁french	-8.5555
▁court	-8.55621
▁marry	-8.55699
▁secret	-8.55876
▁horse	-8.56336
▁state	-8.56376
man	-8.5664
▁ground	-8.56901
▁crying	-8.56927
ic	-8.5706
▁perhaps	-8.57068
▁ring	-8.57181
▁wed	-8.57401
▁sex	-8.57769
▁papa	-8.57844
▁tree	-8.57847
▁hospital	-8.57855
▁tired	-8.58203
▁copy	-8.58258
▁de	-8.583
▁longer	-8.58375
▁bullshit	-8.58556
▁act	-8.59186
▁laugh	-8.59211
▁church	-8.59282
▁shh	-8.59306
▁paul	-8.59556
▁seat	-8.59639
▁hungry	-8.597
▁crowd	-8.59884
▁forward	-8.60081
▁looked	-8.60335
▁kick	-8.60378
▁fix	-8.60383
▁anywhere	-8.60464
us	-8.60538
▁ship	-8.60548
▁sell	-8.60595
▁sun	-8.60807
▁born	-8.60857
▁s	-8.61121
▁holy	-8.61284
▁rain	-8.61398
▁mistake	-8.61683
le	-8.61691
▁lead	-8.61747
▁smart	-8.61872
▁turned	-8.61912
▁across	-8.62012
▁fighting	-8.62088
▁stick	-8.62259
▁wind	-8.6229
▁terrible	-8.62402
▁meant	-8.62596
▁smell	-8.626
▁c	-8.62704
▁date	-8.62794
▁shouting	-8.62854
▁fair	-8.62976
▁explain	-8.63245
▁handle	-8.63734
▁busy	-8.6404
▁cute	-8.64067
▁changed	-8.64303
▁record	-8.64362
▁uncle	-8.64502
▁early	-8.64835
▁swear	-8.64907
▁needed	-8.65006
▁blow	-8.65035
▁proud	-8.65181
▁major	-8.65183
▁grab	-8.65585
▁billy	-8.65691
▁breathe	-8.65702
▁report	-8.65986
▁middle	-8.65988
▁darling	-8.65989
▁theyve	-8.66395
▁tough	-8.66688
▁fish	-8.66701
▁given	-8.66823
▁asshole	-8.66985
▁unless	-8.67227
▁groaning	-8.6724
ll	-8.67298
▁entire	-8.67536
▁cross	-8.67574
▁worked	-8.67651
▁ray	-8.67804
▁truck	-8.67821
▁max	-8.67882
▁grace	-8.67932
▁attention	-8.68037
▁history	-8.68037
▁others	-8.68037
▁definitely	-8.68043
▁lying	-8.68059
ie	-8.68225
▁christmas	-8.68452
▁bell	-8.68805
▁wall	-8.68961
▁wonder	-8.69036
▁attack	-8.69048
▁system	-8.69083
▁birthday	-8.69288
▁hotel	-8.69306
▁smile	-8.69381
▁dress	-8.69402
▁cry	-8.69408
▁evening	-8.69576
▁bar	-8.69617
▁security	-8.69714
▁seriously	-8.69842
▁short	-8.69888
▁return	-8.69906
▁tom	-8.69932
▁bill	-8.69949
▁strange	-8.69987
▁coffee	-8.70128
▁sitting	-8.70153
▁engine	-8.70252
▁mark	-8.70303
▁expect	-8.70515
▁building	-8.70533
▁month	-8.70795
▁david	-8.70979
▁worse	-8.70979
▁master	-8.71234
▁lovely	-8.71488
▁seeing	-8.7162
▁spot	-8.71663
▁magic	-8.71791
▁bag	-8.71799
▁count	-8.72022
▁message	-8.72104
▁floor	-8.72106
▁boat	-8.72117
▁soul	-8.72119
▁names	-8.72229
▁broke	-8.72481
▁walking	-8.72557
▁plane	-8.72628
▁present	-8.72764
▁spend	-8.72872
or	-8.73073
▁james	-8.73147
▁america	-8.73232
▁quit	-8.7348
▁yesterday	-8.73571
▁lock	-8.73681
▁soldier	-8.73862
▁service	-8.73866
▁protect	-8.73938
▁arm	-8.74021
▁teach	-8.74057
▁softly	-8.74072
▁except	-8.74436
▁train	-8.74437
▁missing	-8.74443
▁works	-8.74501
▁american	-8.74507
▁caught	-8.74892
▁yall	-8.74941
▁whoo	-8.75186
▁paper	-8.75216
▁giving	-8.75338
▁lunch	-8.7535
▁totally	-8.75392
▁gold	-8.75493
▁hundred	-8.75661
▁agent	-8.75669
▁favorite	-8.75676
▁mommy	-8.75678
b	-8.75739
▁chatter	-8.75972
▁mm	-8.76048
▁brothers	-8.76447
▁super	-8.76609
▁personal	-8.76655
▁evil	-8.76683
▁wedding	-8.76698
▁age	-8.76795
▁computer	-8.77037
▁imagine	-8.77457
▁machine	-8.77486
▁table	-8.77565
▁jake	-8.77592
▁mission	-8.78018
▁indistinct	-8.78417
▁enjoy	-8.78492
▁roll	-8.78516
▁dick	-8.78609
▁missed	-8.78634
▁nine	-8.78708
▁re	-8.78906
▁kate	-8.79038
▁charge	-8.79258
▁r	-8.79362
▁harry	-8.79366
▁glass	-8.79402
▁forgot	-8.79426
▁throat	-8.79428
▁space	-8.7943
h	-8.79456
▁simple	-8.79848
▁peace	-8.79882
▁distance	-8.79898
▁mmhmm	-8.79913
▁letter	-8.79977
▁peter	-8.79982
▁saved	-8.802
▁respect	-8.806
▁box	-8.80604
▁appreciate	-8.80695
▁rich	-8.80722
▁key	-8.80801
▁queen	-8.80813
▁pleasure	-8.8083
▁clothes	-8.80832
▁art	-8.80895
▁bank	-8.8103
▁gift	-8.81051
▁pop	-8.8106
▁contact	-8.81093
▁ringing	-8.8116
▁mess	-8.8122
▁adam	-8.81245
▁seconds	-8.81261
▁dying	-8.81318
▁takes	-8.81556
▁worried	-8.81776
▁moon	-8.81778
▁hide	-8.81832
▁loud	-8.82172
▁burn	-8.82366
▁wearing	-8.82617
▁j	-8.82868
▁bro	-8.83018
▁surprise	-8.83065
▁thousand	-8.83195
▁green	-8.83208
▁audience	-8.83211
▁dangerous	-8.83607
▁push	-8.83718
▁near	-8.84066
▁sherman	-8.8418
▁jump	-8.84512
▁cat	-8.8453
▁prison	-8.84556
▁star	-8.84604
▁cell	-8.84617
▁stuck	-8.84665
▁bobby	-8.84676
▁field	-8.84701
▁flight	-8.85177
▁knock	-8.8522
▁outta	-8.85226
▁finished	-8.85448
▁bird	-8.86424
en	-8.865
▁ice	-8.86528
▁low	-8.86584
▁doin	-8.86672
▁broken	-8.86682
▁station	-8.8699
▁ii	-8.86992
▁bathroom	-8.87144
▁share	-8.87573
re	-8.87599
▁instead	-8.87645
▁movie	-8.87694
▁carl	-8.8776
▁rose	-8.87792
▁grow	-8.87796
▁lf	-8.87949
▁code	-8.88089
▁double	-8.88152
▁miles	-8.88172
▁lawyer	-8.88206
ies	-8.88334
▁suppose	-8.88529
▁college	-8.88658
▁yep	-8.88665
▁bigger	-8.88676
▁gasping	-8.88722
▁chattering	-8.88954
▁rick	-8.89042
▁trip	-8.89163
▁heavy	-8.89168
▁ran	-8.8919
▁talked	-8.89192
f	-8.8936
▁driving	-8.89682
▁uhhuh	-8.89689
▁offer	-8.89838
▁sad	-8.89849
▁fell	-8.90141
▁sky	-8.90215
▁single	-8.90244
▁fool	-8.90324
▁killing	-8.90549
▁st	-8.90647
▁south	-8.90714
▁colonel	-8.90715
▁paid	-8.90722
▁position	-8.90816
▁wolf	-8.91192
▁brain	-8.91196
▁sergeant	-8.91236
▁hasnt	-8.91236
▁completely	-8.91295
▁motherfucker	-8.91338
▁roger	-8.91345
▁chief	-8.91759
▁accident	-8.91875
▁lived	-8.92
▁murder	-8.9209
▁tight	-8.92183
▁bought	-8.92286
st	-8.92754
▁kept	-8.92814
▁upon	-8.92819
▁listening	-8.92921
▁fucked	-8.92932
▁certain	-8.93253
▁third	-8.93353
▁grand	-8.93426
▁ricky	-8.93458
▁whose	-8.93721
▁forgive	-8.93835
▁g	-8.93897
▁pal	-8.93978
▁goin	-8.94012
▁carry	-8.94214
▁honest	-8.94231
▁starting	-8.9451
▁window	-8.94576
▁greatest	-8.94701
▁foot	-8.94956
▁sweetheart	-8.9496
▁decided	-8.95047
▁shed	-8.95063
▁hole	-8.95219
▁lake	-8.95254
▁andy	-8.95396
▁dreams	-8.95432
▁situation	-8.95503
▁girlfriend	-8.95681
▁eh	-8.95747
▁feels	-8.95761
▁normal	-8.95967
▁dollars	-8.96135
▁lay	-8.96191
▁standing	-8.96424
▁raise	-8.96469
▁reach	-8.96655
▁lve	-8.96837
▁force	-8.9723
▁list	-8.97262
▁interesting	-8.97269
▁idiot	-8.97352
▁afternoon	-8.97707
▁worst	-8.97707
▁jerry	-8.97708
▁books	-8.98158
▁impossible	-8.98266
▁emily	-8.98278
▁bloody	-8.98574
▁cops	-8.98603
▁information	-8.98829
▁cop	-8.98858
▁owe	-8.98872
▁suit	-8.99016
▁race	-8.99067
▁everywhere	-8.994
▁command	-8.9962
▁folks	-8.99667
▁camera	-8.99714
▁babe	-8.99782
▁choose	-8.99961
▁spent	-8.99961
▁kevin	-8.99965
▁tony	-8.99988
▁band	-9.00295
▁congratulations	-9.00532
▁pants	-9.00543
▁fit	-9.00768
▁sake	-9.00792
able	-9.00943
▁bud	-9.01024
▁gas	-9.01192
▁press	-9.01199
▁arms	-9.01295
▁lee	-9.01429
▁realize	-9.01589
▁nervous	-9.01596
▁upstairs	-9.01685
▁certainly	-9.01779
▁warm	-9.01846
▁river	-9.01907
▁crime	-9.01963
▁area	-9.01968
▁promised	-9.02083
▁moved	-9.0217
▁beach	-9.02233
▁alarm	-9.02267
▁lisa	-9.02275
▁rocky	-9.02518
▁summer	-9.02556
▁amy	-9.02579
▁rules	-9.02917
▁keys	-9.02919
▁partner	-9.03151
▁north	-9.03448
▁sophie	-9.0345
▁wine	-9.03454
▁n	-9.03692
▁club	-9.03749
▁shoes	-9.03771
▁fathers	-9.0387
up	-9.03893
▁howd	-9.03951
▁monsieur	-9.04031
▁island	-9.04031
▁using	-9.04033
▁wrote	-9.04034
▁molly	-9.04035
▁ann	-9.04212
▁in	-9.04224
▁named	-9.04234
▁weekend	-9.04357
▁rings	-9.04392
▁alexander	-9.04626
▁enemy	-9.04628
▁park	-9.04685
▁track	-9.04802
▁difference	-9.04953
▁beer	-9.04994
▁leg	-9.05005
ity	-9.05028
▁smoke	-9.05182
▁e	-9.05205
ur	-9.05227
▁lights	-9.0539
▁k	-9.05598
▁doubt	-9.0562
▁group	-9.05699
▁washington	-9.05828
▁bunch	-9.0583
▁dancing	-9.05831
▁prove	-9.06162
▁favor	-9.06177
▁hall	-9.06293
▁beauty	-9.06438
▁ln	-9.06519
▁gay	-9.06559
▁final	-9.06992
▁upset	-9.07036
▁sarah	-9.07044
▁within	-9.07047
▁bear	-9.07051
▁breath	-9.07293
▁mate	-9.07318
▁soft	-9.07477
▁paige	-9.07656
▁picked	-9.0771
▁annie	-9.07711
ness	-9.0797
▁holding	-9.08051
▁arrest	-9.08075
▁ls	-9.08448
▁joke	-9.08555
▁al	-9.08587
▁store	-9.08679
▁dogs	-9.08695
▁guard	-9.08816
▁faith	-9.08822
k	-9.08867
▁lieutenant	-9.08895
▁private	-9.08895
▁charles	-9.08896
▁cash	-9.08899
▁nose	-9.08909
▁card	-9.09039
▁liked	-9.09235
is	-9.0924
▁bastard	-9.09303
▁learned	-9.09311
▁shake	-9.09499
▁west	-9.09502
▁jail	-9.09523
▁stone	-9.09529
▁carter	-9.09617
▁planet	-9.09645
▁fill	-9.09696
▁continue	-9.098
▁allow	-9.09952
▁princess	-9.1013
▁apart	-9.10141
z	-9.10259
▁judge	-9.10579
▁apartment	-9.10583
ion	-9.10584
▁heavily	-9.10784
▁stopped	-9.10835
▁chicken	-9.11231
▁east	-9.11326
▁drunk	-9.11404
▁twice	-9.11419
▁chuckling	-9.11424
▁yelling	-9.11514
▁wouldve	-9.11672
▁guns	-9.11716
▁suck	-9.11949
▁pa	-9.12305
▁blind	-9.12324
▁agree	-9.12377
▁wondering	-9.1246
▁heaven	-9.12531
▁breaking	-9.12546
▁where	-9.12561
▁angry	-9.12705
▁neither	-9.12705
▁pray	-9.12777
▁problems	-9.13057
▁writing	-9.13354
▁spanish	-9.13354
▁department	-9.13355
▁neil	-9.13355
▁da	-9.13448
▁loves	-9.13955
▁fired	-9.14005
▁sweetie	-9.14052
um	-9.14058
▁beeping	-9.1407
▁build	-9.1422
▁corner	-9.14353
▁a	-9.14366
▁reading	-9.14416
▁wild	-9.14442
▁tea	-9.14631
▁government	-9.14666
▁van	-9.1471
▁size	-9.14717
▁test	-9.14729
▁interested	-9.14773
▁ding	-9.1483
▁lou	-9.14917
▁accept	-9.1511
▁begin	-9.15229
▁address	-9.15295
▁emergency	-9.15328
▁chocolate	-9.15335
▁yi	-9.15336
▁whispers	-9.15563
▁balls	-9.15693
▁steal	-9.15726
ful	-9.15744
▁hero	-9.15822
▁paris	-9.1621
▁chris	-9.16319
▁training	-9.16389
▁extra	-9.16429
▁ugh	-9.16666
▁fred	-9.16689
▁starts	-9.16696
▁putting	-9.16761
▁paint	-9.1693
▁locked	-9.16978
▁d	-9.16989
▁er	-9.17113
▁boyfriend	-9.17224
▁larry	-9.17344
▁cake	-9.17356
▁jim	-9.17376
▁board	-9.1748
▁games	-9.17833
▁public	-9.17894
▁animal	-9.17917
▁military	-9.18022
▁shouldve	-9.18023
▁eating	-9.18024
▁teacher	-9.18049
▁aah	-9.18092
▁ho	-9.18235
▁couldve	-9.18266
▁notice	-9.18576
▁beast	-9.18608
▁flying	-9.18609
▁weapon	-9.18612
▁steve	-9.18657
▁strength	-9.18707
▁whatd	-9.18725
▁losing	-9.18823
▁exhales	-9.18845
▁faster	-9.18946
▁aw	-9.19187
▁professor	-9.193
▁orders	-9.1934
▁m	-9.19395
▁awesome	-9.19396
it	-9.19763
▁rule	-9.19795
▁huge	-9.19829
▁treat	-9.20107
▁taste	-9.20583
▁file	-9.20628
▁correct	-9.20636
▁brave	-9.20735
▁stole	-9.2076
▁price	-9.20761
▁brown	-9.20766
▁harold	-9.2079
▁karen	-9.2079
▁bus	-9.20813
▁jet	-9.20839
▁calls	-9.20992
▁total	-9.21407
▁chair	-9.21412
▁kitchen	-9.21494
▁marriage	-9.21494
▁common	-9.21498
▁nah	-9.21838
▁form	-9.21986
ch	-9.22023
▁crew	-9.22149
▁ought	-9.22153
▁spirit	-9.22159
▁built	-9.22203
▁crawl	-9.22203
▁often	-9.22204
▁dirty	-9.22246
▁cost	-9.22257
▁legs	-9.22523
▁states	-9.22584
▁pictures	-9.22607
▁shame	-9.22645
▁match	-9.2269
▁bomb	-9.22738
▁stories	-9.22918
▁pie	-9.22924
to	-9.22936
▁male	-9.22956
▁commander	-9.22985
▁heh	-9.22987
▁hiding	-9.23016
▁bucks	-9.23142
▁ed	-9.23151
▁staying	-9.23348
▁deserve	-9.23476
▁conversation	-9.23607
▁amen	-9.23637
▁thomas	-9.23637
▁action	-9.23637
▁tongue	-9.23637
▁katie	-9.23648
▁obviously	-9.23687
▁san	-9.23737
▁visit	-9.23805
▁closer	-9.23852
▁aii	-9.23878
▁fresh	-9.24102
▁albert	-9.24212
▁everythings	-9.24325
▁admit	-9.24349
▁crap	-9.24362
▁type	-9.2437
▁walter	-9.24388
▁gosh	-9.24682
▁dare	-9.2473
▁sleeping	-9.24737
▁besides	-9.24803
▁film	-9.24818
▁base	-9.24978
▁horn	-9.25003
▁closed	-9.25011
▁pressure	-9.25084
▁decision	-9.25087
▁taught	-9.25092
▁jason	-9.25096
▁richard	-9.25098
▁incredible	-9.25114
▁ex	-9.25143
▁united	-9.25261
▁bottle	-9.25684
▁destroy	-9.25821
▁center	-9.25849
▁speaks	-9.25925
▁quickly	-9.26031
▁allowed	-9.26061
▁color	-9.26369
▁survive	-9.26436
▁excited	-9.26484
▁neck	-9.26513
▁laughter	-9.26585
▁bridge	-9.26828
▁pack	-9.26844
▁bite	-9.26891
▁thinks	-9.27275
▁swim	-9.27281
▁shop	-9.27317
▁language	-9.27334
▁killer	-9.27473
w	-9.27519
▁ted	-9.27581
▁opens	-9.27705
▁blame	-9.27923
▁ugly	-9.28063
▁pardon	-9.28066
▁bottom	-9.28075
▁batman	-9.28082
lng	-9.2817
▁ms	-9.28187
▁i	-9.28329
▁figured	-9.2836
▁dressed	-9.28433
ist	-9.28599
▁belong	-9.28665
▁opportunity	-9.28823
▁whether	-9.28823
▁birds	-9.28853
▁level	-9.28887
▁ends	-9.29053
ro	-9.29342
▁played	-9.29376
▁complete	-9.29407
▁scott	-9.29467
▁beginning	-9.29587
▁apologize	-9.29589
▁edward	-9.29589
▁june	-9.29601
▁scene	-9.29637
▁cup	-9.29682
▁indistinctly	-9.29732
▁especially	-9.30356
▁mmmhmm	-9.30356
▁female	-9.30356
▁robert	-9.30357
▁meat	-9.30363
ation	-9.30743
▁program	-9.30872
ous	-9.30942
ve	-9.31026
▁greg	-9.31131
▁knife	-9.31131
▁teeth	-9.31136
▁dave	-9.31144
▁village	-9.31195
▁monster	-9.31232
▁papers	-9.31364
▁snow	-9.31602
▁kinda	-9.31654
▁due	-9.31745
▁rent	-9.31968
ar	-9.32411
▁lies	-9.32593
▁wood	-9.32603
▁empty	-9.327
▁insane	-9.327
▁nope	-9.327
▁pregnant	-9.327
▁ridiculous	-9.327
▁gunfire	-9.32706
▁robin	-9.32731
▁bother	-9.33135
▁rid	-9.33428
▁london	-9.33494
▁detective	-9.33494
▁memory	-9.33495
▁signal	-9.33594
▁mothers	-9.33682
▁feelings	-9.33845
ling	-9.33924
▁target	-9.33944
▁dumb	-9.3418
ri	-9.34241
▁experience	-9.34284
▁decide	-9.34294
▁nowhere	-9.34294
▁truly	-9.34297
▁alice	-9.34298
▁creaking	-9.34316
▁stage	-9.34545
▁tape	-9.34564
nt	-9.34577
▁rise	-9.34632
▁paying	-9.34881
▁awful	-9.35024
▁phil	-9.35053
▁became	-9.351
▁skin	-9.35118
▁dean	-9.35125
▁whispering	-9.35151
ter	-9.3541
▁stars	-9.35526
▁loose	-9.35773
▁escape	-9.35782
▁prince	-9.35883
▁aunt	-9.35899
▁claire	-9.35913
▁maggie	-9.35913
▁whoever	-9.35915
▁nature	-9.3592
▁involved	-9.35933
▁following	-9.36052
▁hanging	-9.36062
less	-9.36248
▁search	-9.36264
▁nuts	-9.36306
x	-9.36334
▁feed	-9.364
▁fingers	-9.36431
▁excellent	-9.36733
ton	-9.36776
▁liar	-9.36897
▁hat	-9.36941
▁soldiers	-9.37013
▁bless	-9.37117
el	-9.37276
▁turns	-9.37281
▁risk	-9.37361
▁cream	-9.37454
▁account	-9.37477
an	-9.37494
▁jane	-9.37555
▁bruce	-9.37559
▁handsome	-9.37577
▁boom	-9.37607
▁matthew	-9.37745
ce	-9.37775
▁support	-9.3788
ry	-9.38128
▁harder	-9.38219
▁difficult	-9.38267
▁footsteps	-9.38392
▁plenty	-9.38395
▁pool	-9.38443
▁usually	-9.38453
▁german	-9.38482
▁cook	-9.38519
▁shirt	-9.38583
▁martin	-9.38685
▁lied	-9.38733
▁travel	-9.38927
th	-9.39007
▁asleep	-9.39233
▁hadnt	-9.39233
▁toast	-9.39233
▁jungle	-9.39235
▁desk	-9.39236
▁view	-9.39246
▁helping	-9.39256
▁medical	-9.39257
▁smith	-9.39271
▁hitler	-9.39468
▁screw	-9.39603
▁drinking	-9.39625
▁clears	-9.39713
▁weak	-9.39726
▁sight	-9.39773
▁waste	-9.39944
▁lots	-9.39962
▁evidence	-9.4008
▁credit	-9.40081
▁henry	-9.40081
▁beyond	-9.40082
▁dawn	-9.40086
▁weapons	-9.40197
▁trick	-9.40208
▁honestly	-9.40218
▁doc	-9.40258
▁plans	-9.40259
▁ghost	-9.40312
▁joey	-9.40372
▁speed	-9.4068
▁square	-9.40801
▁indeed	-9.40935
▁khan	-9.4094
▁famous	-9.40944
▁pig	-9.41028
▁tie	-9.41082
▁walked	-9.41172
▁h	-9.41271
▁bella	-9.41275
▁remind	-9.41485
▁somethin	-9.41776
▁majesty	-9.41797
▁sebastian	-9.41797
▁sold	-9.41812
▁sisters	-9.41844
▁an	-9.41866
▁hoping	-9.41942
▁plus	-9.42016
▁dan	-9.42101
▁opening	-9.42172
▁passed	-9.423
no	-9.42536
▁weather	-9.42629
▁breakfast	-9.42668
▁silly	-9.42673
▁theyd	-9.42676
▁mia	-9.42711
ment	-9.42729
▁keeping	-9.42778
▁angel	-9.42833
▁pete	-9.42837
▁apple	-9.42917
▁devil	-9.42929
▁strike	-9.4294
▁battle	-9.42944
▁stops	-9.43033
at	-9.43141
out	-9.43198
▁bright	-9.4341
▁willing	-9.4347
▁innocent	-9.43544
▁rumbling	-9.43544
▁somehow	-9.43544
▁large	-9.43548
▁video	-9.43827
▁belt	-9.43827
▁mention	-9.43961
rs	-9.4429
ia	-9.44397
▁nothin	-9.44407
▁tour	-9.44428
▁freedom	-9.44432
▁lonely	-9.4444
▁storm	-9.44445
▁immediately	-9.44456
▁hook	-9.44815
▁plays	-9.44893
▁who	-9.44912
▁access	-9.44936
▁clicks	-9.4497
▁main	-9.45072
et	-9.45153
▁monday	-9.45322
▁announcer	-9.45341
▁rome	-9.45355
▁scoffs	-9.45371
▁gotten	-9.45547
▁ja	-9.45573
▁russian	-9.45657
▁finger	-9.45658
▁punch	-9.4572
▁remain	-9.46088
▁practice	-9.46094
▁numbers	-9.46107
▁advice	-9.46222
▁sobbing	-9.46223
▁texas	-9.46223
▁cheers	-9.46224
▁silence	-9.46224
▁thatll	-9.46226
▁unit	-9.46395
▁doll	-9.46442
▁bringing	-9.46524
▁relationship	-9.46556
▁draw	-9.46728
▁heading	-9.46832
▁farm	-9.46881
▁butt	-9.46926
▁percent	-9.47126
▁arthur	-9.47132
▁whirring	-9.47132
▁alex	-9.47134
▁milk	-9.47153
na	-9.47156
▁buck	-9.47214
▁deeply	-9.47365
▁checked	-9.47478
▁gives	-9.47503
▁leader	-9.47696
▁goodness	-9.47885
▁closes	-9.47911
▁et	-9.47994
▁brad	-9.48016
▁brian	-9.48049
▁peabody	-9.48049
▁rachel	-9.4805
▁elliott	-9.48055
▁written	-9.4806
▁guilty	-9.48071
▁champion	-9.48419
▁nurse	-9.4842
▁tickets	-9.48428
▁el	-9.48594
▁freak	-9.48718
▁pulled	-9.48735
▁tall	-9.48774
▁director	-9.4886
▁bowl	-9.48911
▁beg	-9.48911
▁dramatic	-9.48972
▁brilliant	-9.48975
▁davis	-9.48975
▁friday	-9.48975
▁sugar	-9.48975
▁elizabeth	-9.48977
▁golden	-9.49037
▁dig	-9.49286
▁guest	-9.49376
▁cab	-9.49382
▁dads	-9.49453
▁knocking	-9.49468
▁beeps	-9.49473
▁justice	-9.4991
▁vegas	-9.4991
▁football	-9.49915
▁letting	-9.50138
▁per	-9.50222
▁repeat	-9.50371
▁pretend	-9.50381
▁heads	-9.50416
▁doctors	-9.50542
▁acting	-9.50558
▁doors	-9.50677
▁dale	-9.5081
▁pinocchio	-9.50853
▁forest	-9.50888
▁surprised	-9.5111
▁shooting	-9.51157
▁camp	-9.51197
▁post	-9.51225
▁dragon	-9.51293
▁link	-9.51686
▁split	-9.518
▁jimmy	-9.51812
▁terry	-9.51814
▁tucker	-9.51844
▁talkin	-9.52063
▁turning	-9.52076
▁metal	-9.52224
▁photo	-9.52267
▁records	-9.52443
▁study	-9.52518
▁gang	-9.52528
▁crack	-9.52597
▁showed	-9.52641
▁collins	-9.52767
▁afford	-9.52767
▁airport	-9.52774
▁note	-9.53123
▁doyle	-9.53225
▁noise	-9.53233
ive	-9.53247
ty	-9.53381
▁hill	-9.5358
▁yells	-9.53586
▁painting	-9.53633
▁england	-9.53738
▁comfortable	-9.53743
▁zoey	-9.53768
▁invited	-9.53827
▁cars	-9.53867
ne	-9.5387
▁witness	-9.54206
▁ld	-9.54223
▁path	-9.54326
▁swing	-9.54417
▁tires	-9.54632
▁downstairs	-9.54718
▁zodiac	-9.54718
▁onto	-9.54722
▁duty	-9.54722
you	-9.54908
▁wash	-9.54936
▁serve	-9.55026
▁crash	-9.5521
▁purpose	-9.55211
▁gate	-9.55227
▁pounds	-9.55348
▁pieces	-9.55359
▁heat	-9.55543
▁fan	-9.55544
▁prepare	-9.55578
▁genius	-9.55674
▁byebye	-9.55708
▁fought	-9.55708
▁barbara	-9.55709
▁scream	-9.55766
gest	-9.55943
la	-9.56007
go	-9.56152
▁tower	-9.56229
▁william	-9.563
▁blows	-9.56346
▁keeps	-9.5645
▁introduce	-9.56575
▁chuck	-9.566
▁dylan	-9.56708
▁roof	-9.5671
▁minister	-9.5671
▁fbi	-9.56717
▁falling	-9.5672
▁screeching	-9.56775
▁noticed	-9.569
▁nobodys	-9.57044
▁helped	-9.57086
▁hug	-9.57134
▁switch	-9.57214
▁explosion	-9.57246
▁prime	-9.57325
▁hardly	-9.57513
▁over	-9.57602
▁gettin	-9.57702
▁row	-9.57715
▁thunder	-9.57718
▁otherwise	-9.57718
▁possibly	-9.57718
▁yellow	-9.5772
▁zeus	-9.57721
▁saving	-9.57733
▁raya	-9.57858
ass	-9.57925
os	-9.58026
▁clock	-9.58282
▁lift	-9.58301
▁dry	-9.5835
▁siren	-9.58627
▁bloom	-9.58695
▁spoke	-9.58705
▁throwing	-9.58723
▁freeze	-9.58724
▁katniss	-9.58739
▁comin	-9.58739
▁whistling	-9.58739
▁pair	-9.58747
▁held	-9.58749
▁wet	-9.58751
▁chanting	-9.58797
▁headed	-9.58831
▁fake	-9.58876
▁letters	-9.58888
▁warning	-9.58889
▁buzzing	-9.58893
▁animals	-9.58897
▁bat	-9.59027
▁sacrifice	-9.59178
▁focus	-9.59293
▁pat	-9.59677
▁california	-9.5977
▁bravo	-9.5977
▁earlier	-9.59774
▁bread	-9.59779
▁older	-9.60081
▁mayor	-9.60082
▁salt	-9.60108
▁suspect	-9.60167
▁clearly	-9.6024
▁oil	-9.60336
▁grandma	-9.60371
▁fellow	-9.60381
▁jerk	-9.60382
▁ticket	-9.60385
▁barely	-9.60831
▁garden	-9.60838
▁mister	-9.60839
ting	-9.60853
▁drugs	-9.60868
▁t	-9.6093
▁madame	-9.60941
▁mountain	-9.61445
▁streets	-9.6176
▁trade	-9.6178
▁speech	-9.61821
▁fantastic	-9.61864
▁gilbert	-9.61864
▁energy	-9.61877
▁itd	-9.61896
▁jacket	-9.61942
▁powers	-9.62121
▁destroyed	-9.6215
▁pan	-9.62302
▁piss	-9.6243
▁circle	-9.62504
▁condition	-9.62513
▁priest	-9.62522
▁weight	-9.62563
▁climb	-9.62663
▁sue	-9.62844
▁mmhm	-9.62882
▁saturday	-9.62928
▁romantic	-9.6293
▁bodies	-9.6293
▁horrible	-9.62931
▁nancy	-9.62931
▁fate	-9.62933
▁piano	-9.62934
▁fancy	-9.62936
▁style	-9.62946
▁cage	-9.62973
▁hired	-9.63074
▁suggest	-9.631
▁hurts	-9.63123
▁cos	-9.63142
▁victor	-9.63173
▁arrested	-9.63274
▁ears	-9.6328
▁enter	-9.63559
im	-9.63577
▁local	-9.63592
▁sheriff	-9.63596
▁rat	-9.63976
▁midnight	-9.64003
▁add	-9.64009
▁dies	-9.64023
▁chest	-9.64044
▁grown	-9.64078
▁prepared	-9.6415
▁nearly	-9.64197
▁wheel	-9.64551
▁tank	-9.64614
▁monkey	-9.64691
▁anna	-9.64796
▁signed	-9.64799
▁hub	-9.65075
▁applause	-9.6509
▁arnie	-9.6509
▁slept	-9.6509
▁threw	-9.6509
▁exciting	-9.65091
▁regular	-9.65092
▁whimpering	-9.65097
▁co	-9.65115
▁royal	-9.65191
▁created	-9.65211
▁artist	-9.6523
▁students	-9.65312
▁hearing	-9.65377
▁woods	-9.65396
ln	-9.65655
▁bone	-9.65658
▁consider	-9.65695
▁lips	-9.65767
▁lo	-9.6585
▁release	-9.6606
▁ear	-9.66075
▁twenty	-9.66183
▁simply	-9.66189
▁someday	-9.66189
▁however	-9.66189
▁eliza	-9.66189
▁danny	-9.66191
▁apparently	-9.66196
▁trial	-9.66208
▁march	-9.66264
▁failed	-9.66318
▁mum	-9.66355
▁en	-9.66365
▁player	-9.66647
▁regret	-9.66681
▁tear	-9.6674
▁settle	-9.66776
▁rush	-9.66789
age	-9.66817
te	-9.66842
▁cousin	-9.66926
▁patient	-9.66938
▁client	-9.66938
men	-9.66997
▁loss	-9.6721
▁horses	-9.67265
▁british	-9.673
▁planning	-9.67301
▁daisy	-9.67307
▁cheese	-9.67309
▁cia	-9.67347
▁hank	-9.67362
▁tense	-9.67426
▁approaching	-9.67463
▁manage	-9.67474
▁tim	-9.67674
▁fixed	-9.67883
▁lab	-9.6791
▁pee	-9.67939
ee	-9.68003
▁spring	-9.68088
▁career	-9.6813
▁spread	-9.68157
▁fella	-9.68202
▁believed	-9.6827
▁shower	-9.68328
▁tip	-9.68332
▁flowers	-9.68374
▁susan	-9.68405
▁restaurant	-9.68424
▁society	-9.68424
▁aware	-9.68426
▁zone	-9.68427
▁data	-9.6845
▁chosen	-9.68455
▁bleeding	-9.68569
▁pen	-9.68672
▁se	-9.68785
▁everybodys	-9.68837
▁higher	-9.68985
▁staring	-9.69027
▁bow	-9.69255
▁assume	-9.69427
▁ba	-9.69431
▁health	-9.69459
▁assistant	-9.69562
▁grew	-9.69566
▁troy	-9.69588
▁arrived	-9.69629
▁cares	-9.69907
▁matters	-9.69972
▁cards	-9.70003
▁picking	-9.70045
v	-9.70311
▁ocean	-9.70361
▁button	-9.70403
▁self	-9.70579
ra	-9.70616
▁awake	-9.70629
▁shows	-9.70678
▁georgia	-9.70709
▁taylor	-9.70709
▁vanessa	-9.70709
▁chicago	-9.7071
▁steady	-9.7073
▁barking	-9.70773
▁victory	-9.70823
▁launch	-9.71333
▁knowing	-9.71473
▁stock	-9.7156
▁jobs	-9.71615
▁beating	-9.71626
and	-9.7165
▁movies	-9.71761
▁caesar	-9.71872
▁rough	-9.71875
▁pride	-9.71875
▁ponyo	-9.71886
▁safety	-9.71916
▁hercules	-9.71969
▁bay	-9.7199
▁perfectly	-9.72375
▁ruin	-9.72596
▁project	-9.7268
▁pre	-9.72736
▁recognize	-9.72915
▁create	-9.7292
▁france	-9.72922
▁natural	-9.72968
▁familiar	-9.73049
▁whenever	-9.7305
▁babies	-9.73052
▁gentleman	-9.73066
▁patch	-9.73068
▁suddenly	-9.73115
▁subtitles	-9.73164
▁pure	-9.73221
▁fellas	-9.73427
▁lower	-9.73481
as	-9.73631
▁stayed	-9.73661
ish	-9.73715
▁seemed	-9.73749
▁con	-9.73943
▁sy	-9.73943
▁shoulder	-9.73969
▁nation	-9.73997
▁joy	-9.74007
▁hunter	-9.74016
▁foreign	-9.74123
▁br	-9.74135
ian	-9.74183
▁driver	-9.74189
▁witch	-9.74209
▁burr	-9.74232
▁defense	-9.74239
▁understood	-9.74239
▁senator	-9.74239
▁garbage	-9.74239
▁ginger	-9.7424
▁boring	-9.7424
▁crown	-9.74249
▁blaring	-9.7425
▁bath	-9.74253
▁penny	-9.74256
▁changing	-9.74269
▁danger	-9.74299
▁manager	-9.74344
▁robot	-9.74406
▁growls	-9.74414
▁moms	-9.74775
▁lately	-9.74923
▁location	-9.75144
▁professional	-9.75231
▁desert	-9.75235
▁secure	-9.75314
▁cheap	-9.75356
▁usual	-9.75358
▁august	-9.75424
▁legal	-9.75433
▁maid	-9.75438
▁balboa	-9.75444
▁rupert	-9.75444
▁universe	-9.75444
▁ronnie	-9.75445
▁permission	-9.75445
▁brandon	-9.75455
▁jackson	-9.75501
▁sending	-9.75677
▁ideas	-9.75888
▁interest	-9.75949
▁expected	-9.76015
▁deliver	-9.76069
▁guests	-9.76142
▁finding	-9.76256
▁sunday	-9.76401
▁pocket	-9.76404
▁student	-9.76416
▁jj	-9.76473
▁towards	-9.76492
▁drove	-9.76577
▁pizza	-9.76625
▁austin	-9.76663
▁nobby	-9.76663
▁chinese	-9.76664
▁turkish	-9.76664
▁blew	-9.76665
▁glory	-9.76672
▁complicated	-9.76677
▁woke	-9.76678
▁laid	-9.76707
▁growling	-9.76716
▁concerned	-9.76807
▁kit	-9.7685
▁sexy	-9.77013
▁murdered	-9.77128
▁demon	-9.77156
ure	-9.77196
▁slave	-9.77265
▁map	-9.77317
▁discuss	-9.77396
▁pot	-9.77581
▁lines	-9.77583
▁contract	-9.77586
ma	-9.77775
▁jealous	-9.77783
▁chose	-9.77866
▁brendan	-9.77898
▁easier	-9.77898
▁mystery	-9.77898
▁necessary	-9.77898
▁science	-9.77898
▁martha	-9.77898
▁aaron	-9.77899
▁kingdom	-9.77902
▁wherever	-9.77908
▁crackling	-9.77909
▁rare	-9.77917
▁bedroom	-9.77922
hrer	-9.77933
▁whimpers	-9.77945
▁thousands	-9.77949
▁naked	-9.77987
▁mighty	-9.78151
▁trap	-9.78188
▁forced	-9.78191
▁text	-9.78433
▁block	-9.78466
▁ate	-9.78477
▁market	-9.78648
▁prefer	-9.78889
▁leaves	-9.79003
▁thin	-9.79063
▁social	-9.79138
▁rebecca	-9.79148
▁robyn	-9.79148
▁memories	-9.79148
▁bruno	-9.79154
▁jones	-9.79159
▁clark	-9.79164
▁powerful	-9.79205
▁loser	-9.7926
▁clicking	-9.79283
▁brains	-9.79293
▁germany	-9.79311
▁ways	-9.79367
▁coughs	-9.79422
▁jackie	-9.7955
▁julia	-9.79756
▁players	-9.79831
▁exist	-9.80029
j	-9.8003
▁mirror	-9.80181
▁subject	-9.80191
▁dollar	-9.80254
▁madam	-9.80282
▁obvious	-9.80327
▁sexual	-9.80334
▁dust	-9.80345
▁pet	-9.80382
▁jasmine	-9.80414
▁staff	-9.80414
▁firing	-9.80415
▁wilson	-9.80416
▁eddie	-9.80418
▁mail	-9.80422
▁chirping	-9.80422
▁oliver	-9.80449
▁toilet	-9.80457
▁honking	-9.80481
▁agreed	-9.80672
▁matt	-9.80692
lo	-9.8086
▁expecting	-9.81201
▁damage	-9.81349
▁operation	-9.81466
▁sal	-9.81473
▁flat	-9.81483
▁sword	-9.8149
▁monsters	-9.8155
▁trees	-9.81579
▁slip	-9.81683
▁insurance	-9.81696
▁oclock	-9.81697
▁zero	-9.81697
▁literally	-9.81703
▁pooh	-9.81704
▁santa	-9.81705
▁plain	-9.81708
▁dropped	-9.81711
▁castle	-9.81724
▁tiny	-9.81743
▁sand	-9.81755
▁union	-9.81792
▁lack	-9.81807
▁exclaims	-9.81822
▁whore	-9.82074
▁bones	-9.82155
▁load	-9.82342
▁younger	-9.82363
▁mi	-9.82463
ier	-9.82542
▁showing	-9.8267
▁wire	-9.82694
▁sharp	-9.82772
▁giant	-9.82802
▁victim	-9.82826
▁original	-9.82911
▁proper	-9.82935
em	-9.82975
▁rip	-9.8298
▁birth	-9.82994
▁firm	-9.82995
▁stomach	-9.82995
▁medicine	-9.82997
▁vada	-9.82999
▁property	-9.83002
▁basement	-9.83009
▁scary	-9.83051
▁glasses	-9.83087
▁reporter	-9.83094
▁guards	-9.83461
▁burning	-9.83712
▁borrow	-9.83826
▁falls	-9.8384
▁backup	-9.83873
▁v	-9.83944
▁aye	-9.83963
ts	-9.84002
▁bust	-9.84073
one	-9.84154
▁coat	-9.84173
▁louis	-9.84215
▁sin	-9.84285
▁elevator	-9.8431
▁hamilton	-9.8431
▁responsible	-9.84311
▁central	-9.84311
▁morgan	-9.84311
▁coach	-9.84312
▁investigation	-9.84314
▁chef	-9.84315
▁therell	-9.84317
▁began	-9.84324
▁whyd	-9.84326
▁cameron	-9.84331
▁pussy	-9.84346
▁national	-9.84418
▁drinks	-9.84456
▁nights	-9.84475
▁runs	-9.84492
▁hm	-9.84622
▁raised	-9.84632
▁stronger	-9.84688
▁mikey	-9.84768
▁pro	-9.84785
▁walls	-9.84976
▁chill	-9.85239
▁sh	-9.85353
▁so	-9.85408
▁district	-9.85485
▁criminal	-9.855
▁watched	-9.85512
▁sometime	-9.85515
▁event	-9.85524
▁ruth	-9.8554
▁harm	-9.85625
▁proceed	-9.8564
▁suicide	-9.85644
▁lucy	-9.85645
▁humming	-9.85654
▁bride	-9.85672
▁unfortunately	-9.85681
▁ella	-9.85682
▁roaring	-9.85745
▁wings	-9.85746
▁porter	-9.85772
▁officers	-9.86036
▁le	-9.86042
▁lion	-9.86109
▁photos	-9.86359
ted	-9.86467
▁all	-9.86507
▁nat	-9.86701
▁ra	-9.86739
▁funeral	-9.86845
▁connection	-9.86857
▁daughters	-9.8687
▁success	-9.86967
▁viktor	-9.86995
▁jenny	-9.86996
▁bike	-9.87022
▁simon	-9.871
▁received	-9.87101
▁victims	-9.87171
the	-9.87175
▁x	-9.87243
▁pissed	-9.87251
▁personally	-9.87286
▁character	-9.87371
▁quietly	-9.87375
head	-9.87516
▁wing	-9.87648
▁coast	-9.87774
▁kings	-9.87797
▁ended	-9.87943
▁cole	-9.8802
▁ordered	-9.88099
▁shouts	-9.88173
▁grandpa	-9.88242
▁knight	-9.88243
▁deck	-9.88256
▁pilot	-9.88257
▁bugs	-9.88289
▁touched	-9.88306
▁among	-9.88352
▁goal	-9.88355
▁courage	-9.88356
▁fruit	-9.88362
▁jennifer	-9.88365
▁mademoiselle	-9.88365
▁fortune	-9.88365
▁antonio	-9.88365
▁several	-9.88371
▁disgusting	-9.8841
me	-9.88423
▁everyones	-9.88631
▁w	-9.88715
se	-9.88884
▁guide	-9.89038
▁growing	-9.89083
by	-9.89366
▁moments	-9.89367
▁passing	-9.89419
ary	-9.89422
▁rescue	-9.89619
▁andrew	-9.89638
▁value	-9.89657
▁affair	-9.89667
▁mask	-9.89689
▁drug	-9.89702
▁closing	-9.89754
▁junior	-9.89754
▁palace	-9.89754
▁cancer	-9.89754
▁example	-9.89754
▁clever	-9.89755
▁alpha	-9.89755
▁jeez	-9.89756
▁positive	-9.89758
▁kitty	-9.89761
▁desire	-9.89767
▁section	-9.8977
▁prick	-9.89772
▁mercy	-9.89773
▁uhoh	-9.89812
▁edge	-9.89907
▁songs	-9.90028
ta	-9.90405
co	-9.90422
▁kissed	-9.90773
▁attempt	-9.90957
▁knees	-9.91011
▁followed	-9.91015
▁challenge	-9.91024
▁bullet	-9.91045
▁coward	-9.91071
▁mood	-9.91076
▁winner	-9.91098
▁shadow	-9.91102
▁alien	-9.91107
▁gunshot	-9.9111
▁plate	-9.91117
▁yard	-9.91159
▁clamoring	-9.91162
▁guitar	-9.91162
▁journey	-9.91162
▁knowledge	-9.91162
▁robbie	-9.91162
▁wa	-9.91163
▁honour	-9.91164
▁stood	-9.91164
▁basically	-9.91165
▁peeta	-9.91168
▁ease	-9.91174
▁winning	-9.9119
▁tech	-9.91195
▁shape	-9.91218
▁worlds	-9.91226
▁scare	-9.91228
▁writer	-9.91267
▁wide	-9.91271
▁points	-9.91298
▁reality	-9.91384
▁mile	-9.91411
▁rob	-9.91484
▁burned	-9.91756
▁kicked	-9.91901
tic	-9.92114
▁shock	-9.92132
▁bum	-9.92134
ant	-9.92162
▁rocks	-9.92295
▁marty	-9.92306
am	-9.9231
▁checking	-9.92311
▁talent	-9.92391
▁bug	-9.92405
▁invite	-9.9246
▁opinion	-9.92526
▁tuesday	-9.92526
▁pulling	-9.92552
▁explosiveskull	-9.92591
▁terrific	-9.92591
▁telephone	-9.92591
▁bunny	-9.92591
▁japanese	-9.92591
▁joking	-9.92592
▁unbelievable	-9.92592
▁abby	-9.92594
▁anger	-9.92594
▁license	-9.92597
▁confused	-9.92601
▁italian	-9.92609
▁archie	-9.9261
led	-9.92615
▁thatd	-9.92628
▁navy	-9.92638
▁treated	-9.93003
▁sec	-9.9301
▁filled	-9.9305
▁ro	-9.93159
▁thy	-9.93178
▁parts	-9.93188
▁hearts	-9.93193
▁aim	-9.93371
▁sat	-9.93558
▁moves	-9.93632
▁eggs	-9.93699
▁celebrate	-9.93904
▁schedule	-9.93908
▁friendly	-9.93971
▁lean	-9.93977
▁tunnel	-9.93993
▁article	-9.93999
▁christopher	-9.9404
▁enemies	-9.9404
▁kaulder	-9.9404
▁buried	-9.9404
▁flesh	-9.9404
▁lewis	-9.94041
▁twelve	-9.94041
▁jules	-9.94041
▁vincent	-9.94041
▁vacation	-9.94042
▁television	-9.94043
▁johnny	-9.94054
▁loving	-9.94061
▁yearold	-9.94093
▁stolen	-9.94115
▁hire	-9.94267
▁ruined	-9.94288
▁mindy	-9.943
▁places	-9.94349
▁defend	-9.9449
▁ape	-9.94731
▁tone	-9.94764
▁ahh	-9.95018
ii	-9.95022
▁hip	-9.9509
▁cheer	-9.95284
▁route	-9.95295
▁opened	-9.95305
▁disease	-9.95337
▁spare	-9.95407
▁bull	-9.95424
▁someones	-9.95464
▁vehicle	-9.95502
▁attorney	-9.95511
▁federal	-9.95511
▁orange	-9.95512
▁available	-9.95512
▁responsibility	-9.95512
▁francisco	-9.95513
▁russell	-9.95515
▁decent	-9.95515
▁foreman	-9.95522
▁illegal	-9.95524
▁warren	-9.95525
▁shining	-9.9554
▁sisu	-9.95559
▁howling	-9.95566
▁lesson	-9.95616
▁banks	-9.95665
▁rope	-9.95669
ial	-9.96042
▁trained	-9.96208
▁sooner	-9.96318
▁details	-9.96639
▁bang	-9.96683
▁cast	-9.96705
▁ana	-9.96786
▁chain	-9.9684
ize	-9.96865
▁belongs	-9.96906
▁pink	-9.96908
▁exact	-9.96913
▁according	-9.96932
▁gentle	-9.96993
▁ashamed	-9.97003
▁champagne	-9.97003
▁surrender	-9.97003
▁gordon	-9.97003
▁knox	-9.97003
▁page	-9.97008
▁wise	-9.97015
▁exit	-9.97024
▁wailing	-9.97033
▁odd	-9.97067
▁eaten	-9.97177
▁slaves	-9.97298
▁baron	-9.9738
▁range	-9.97497
▁val	-9.97856
▁hunt	-9.979
▁covered	-9.97911
▁daniel	-9.9793
▁process	-9.97934
▁gather	-9.98048
▁fighter	-9.98127
▁brings	-9.98207
ac	-9.9821
id	-9.9823
▁lucas	-9.98306
▁trash	-9.98316
▁jacob	-9.98404
▁desperate	-9.98428
▁issue	-9.98432
▁someplace	-9.98518
▁teddy	-9.98522
▁silver	-9.98523
▁fuel	-9.98525
▁clay	-9.98528
▁nasty	-9.98535
▁corn	-9.98536
▁clue	-9.98539
▁panic	-9.98556
▁bury	-9.98564
▁recently	-9.98568
▁betty	-9.98569
▁whistle	-9.9857
▁quarter	-9.98578
▁season	-9.98587
▁miller	-9.98621
▁healthy	-9.98661
▁lang	-9.98698
▁stranger	-9.98725
▁provide	-9.98757
▁slowly	-9.98923
▁mar	-9.98932
▁seal	-9.9896
▁thoughts	-9.99137
▁pm	-9.99151
▁vi	-9.99199
▁mans	-9.99241
▁grade	-9.99346
▁mac	-9.99409
▁do	-9.9944
ent	-9.995
▁brief	-9.99583
▁prom	-9.99697
▁interview	-9.99816
do	-9.99861
ow	-9.99899
▁cal	-9.9992
▁sudden	-9.9997
▁tells	-9.9998
▁kim	-10.0004
▁although	-10.0006
▁ursula	-10.0006
▁paddy	-10.0006
▁trapped	-10.0006
▁eventually	-10.0006
▁failure	-10.0006
▁gross	-10.0006
▁fifty	-10.0006
▁kathy	-10.0007
▁milo	-10.0008
▁mount	-10.0008
▁proof	-10.0008
▁cap	-10.0008
▁capable	-10.0008
▁miracle	-10.001
▁channel	-10.0011
▁blade	-10.0012
▁janet	-10.0017
▁flower	-10.0027
▁tied	-10.0038
▁buying	-10.0039
▁drag	-10.0045
▁somebodys	-10.0048
ism	-10.0077
land	-10.0082
▁boots	-10.0084
▁las	-10.0092
▁du	-10.0113
▁direct	-10.0116
son	-10.0116
▁ships	-10.0131
▁research	-10.0134
▁hurting	-10.0136
▁learning	-10.0137
▁blast	-10.0141
▁curse	-10.0149
▁divorce	-10.0149
▁merry	-10.0162
▁automated	-10.0162
▁jersey	-10.0162
▁senior	-10.0162
▁candy	-10.0162
▁alert	-10.0162
▁flash	-10.0162
▁darkness	-10.0167
▁moses	-10.0169
▁appointment	-10.017
▁chick	-10.017
▁creature	-10.0171
▁cabin	-10.0172
▁model	-10.0178
▁suffering	-10.0181
▁murderer	-10.0196
▁county	-10.0202
▁butter	-10.0207
▁riding	-10.0214
▁souls	-10.0224
▁grave	-10.0224
▁attacked	-10.0237
▁carrying	-10.0239
▁assholes	-10.0252
▁rate	-10.0252
▁cameras	-10.0254
ai	-10.0289
▁trigger	-10.03
▁spell	-10.0309
▁wipe	-10.031
▁champ	-10.032
▁including	-10.0321
▁nonsense	-10.0321
▁keith	-10.0321
▁online	-10.0321
▁cunt	-10.0321
▁juice	-10.0321
▁smoking	-10.0321
▁forgotten	-10.0321
▁spoken	-10.0327
▁threat	-10.0329
▁tan	-10.033
▁helicopter	-10.033
▁border	-10.0331
▁magazine	-10.0331
▁tail	-10.0334
▁files	-10.0336
▁los	-10.0339
▁served	-10.0344
▁mustve	-10.0344
▁walks	-10.0356
▁realized	-10.0365
ad	-10.0377
▁belle	-10.0379
▁ad	-10.0387
▁rhythm	-10.0402
▁likely	-10.0432
▁poison	-10.0433
▁steel	-10.0435
▁dump	-10.0437
▁hop	-10.0457
▁mace	-10.0468
▁stig	-10.0481
▁thirty	-10.0482
▁nigger	-10.0482
▁soccer	-10.0482
▁beverly	-10.0482
▁boston	-10.0482
▁flik	-10.0482
▁hammer	-10.0483
▁laura	-10.0483
▁hills	-10.0484
▁becky	-10.0485
▁rude	-10.0487
▁china	-10.0487
▁johnson	-10.0488
▁applauding	-10.0488
▁title	-10.0488
side	-10.0488
▁plates	-10.0489
▁fourth	-10.0492
▁of	-10.0494
▁amount	-10.0494
▁duck	-10.0496
▁statement	-10.0499
▁lily	-10.0517
▁leo	-10.0528
line	-10.053
▁tears	-10.0536
▁tits	-10.0539
▁reached	-10.0541
▁stealing	-10.0546
▁bags	-10.0548
▁ron	-10.0564
off	-10.0569
▁plant	-10.0572
▁sons	-10.0578
time	-10.0583
▁blowing	-10.0588
▁angels	-10.0593
▁smash	-10.0599
▁out	-10.0601
▁knee	-10.0624
▁advance	-10.0633
▁separate	-10.0633
▁mental	-10.0637
▁stella	-10.0641
▁virus	-10.0642
▁revolution	-10.0645
▁lloyd	-10.0646
▁sosuke	-10.0646
▁suspense	-10.0646
▁violet	-10.0646
▁muffled	-10.0646
▁solid	-10.0646
▁hidden	-10.0646
▁donna	-10.0646
▁rattling	-10.0646
▁flies	-10.0647
▁fox	-10.0647
▁gena	-10.065
▁planned	-10.065
▁protection	-10.065
▁yup	-10.0655
▁slr	-10.0657
▁charming	-10.0658
▁tattoo	-10.0662
▁jean	-10.0663
▁winter	-10.0665
▁charges	-10.0672
da	-10.0672
▁mentioned	-10.0683
▁heavens	-10.0691
▁services	-10.0701
▁non	-10.0705
▁ma	-10.0716
▁iron	-10.0717
▁yea	-10.0746
▁answers	-10.0757
▁lookin	-10.076
▁smells	-10.0766
▁tryin	-10.0774
▁spin	-10.0807
▁earl	-10.0807
▁progress	-10.0812
▁wreck	-10.0812
▁squad	-10.0813
▁grateful	-10.0813
▁vivian	-10.0813
▁dottie	-10.0813
▁sobs	-10.0813
▁broadway	-10.0813
▁lonnie	-10.0813
▁inspector	-10.0813
▁linda	-10.0813
▁augie	-10.0813
▁judgment	-10.0814
▁secretary	-10.0815
▁harper	-10.0815
▁exclaiming	-10.0815
▁july	-10.0816
▁extremely	-10.0816
▁und	-10.0816
▁creepy	-10.0817
just	-10.082
▁official	-10.0824
▁drover	-10.0828
▁louise	-10.0828
▁legend	-10.0829
▁confirmed	-10.083
▁mel	-10.0835
▁ace	-10.0844
▁meaning	-10.0848
▁rooms	-10.0867
▁offered	-10.0878
▁mountains	-10.0879
▁atom	-10.0904
▁suits	-10.0914
▁recording	-10.0923
▁windows	-10.0934
▁changes	-10.0942
▁pleased	-10.0945
ally	-10.0947
▁concern	-10.0957
▁fail	-10.0957
▁tap	-10.0965
▁bart	-10.0967
▁vote	-10.0969
▁guarantee	-10.0969
▁comet	-10.0976
▁reasons	-10.0977
▁adrian	-10.0977
▁secrets	-10.0979
▁shout	-10.098
▁gorgeous	-10.0982
▁stairs	-10.0982
▁todd	-10.0982
▁curious	-10.0982
▁ronny	-10.0982
▁mostly	-10.0983
▁theory	-10.0983
▁appear	-10.0985
▁committed	-10.0987
▁engaged	-10.0988
▁circumstances	-10.0991
▁score	-10.0993
▁sally	-10.0996
▁package	-10.1003
▁member	-10.1006
▁luca	-10.1006
▁toward	-10.1006
▁hunting	-10.1012
▁screwed	-10.1023
▁signs	-10.1041
▁no	-10.1051
▁hon	-10.1079
▁di	-10.1087
▁education	-10.1089
▁selling	-10.1099
▁buzz	-10.1114
▁members	-10.113
▁stan	-10.1143
▁particular	-10.1146
▁millions	-10.1149
▁odds	-10.1151
▁temple	-10.1154
▁apollo	-10.1154
▁miserable	-10.1154
▁negative	-10.1154
▁satisfied	-10.1154
▁presence	-10.1154
▁duke	-10.1155
▁jenna	-10.1155
▁bernie	-10.1155
▁rosie	-10.1156
▁benny	-10.1156
▁moaning	-10.1157
▁highway	-10.1158
▁bout	-10.1161
▁swimming	-10.1161
▁discovered	-10.1171
▁spit	-10.1172
▁yell	-10.1173
▁ig	-10.1179
▁nightmare	-10.118
ard	-10.1182
▁scout	-10.1182
▁cases	-10.12
▁smaller	-10.1203
he	-10.1222
▁jumped	-10.1226
▁messed	-10.1228
▁gum	-10.123
▁closet	-10.1232
▁partners	-10.1241
▁iii	-10.125
▁fully	-10.1251
▁daddys	-10.1251
▁rolling	-10.1254
▁kicking	-10.1273
ff	-10.1277
per	-10.1282
▁motherfuckers	-10.1295
▁brush	-10.1306
▁disappear	-10.1307
▁chase	-10.1311
her	-10.1314
▁smooth	-10.1319
▁dirt	-10.1319
▁kissing	-10.1321
▁grass	-10.1323
▁wrap	-10.1329
▁distant	-10.133
▁fabulous	-10.133
▁international	-10.133
▁smiling	-10.133
▁struggle	-10.133
▁unusual	-10.133
▁wolves	-10.133
▁adela	-10.133
▁florida	-10.133
▁hollywood	-10.133
▁studio	-10.133
▁baseball	-10.1331
▁shopping	-10.1331
▁selfish	-10.1331
▁aside	-10.1331
▁hail	-10.1337
▁highness	-10.1342
▁barn	-10.1347
▁object	-10.1355
▁expert	-10.1357
▁vision	-10.1358
▁meal	-10.1359
ey	-10.1362
▁cookie	-10.1363
ized	-10.1377
▁sucks	-10.1379
▁terms	-10.1427
ul	-10.1434
▁counting	-10.1438
▁approach	-10.1458
▁strip	-10.1458
▁warn	-10.1458
▁si	-10.1504
▁express	-10.1506
▁gym	-10.1508
▁emperor	-10.1508
▁empire	-10.1508
▁fifteen	-10.1508
▁fiona	-10.1508
▁paradise	-10.1508
▁pleasant	-10.1508
▁technology	-10.1508
▁violence	-10.1508
▁mexico	-10.1508
▁capitol	-10.1509
▁rudy	-10.1509
▁routine	-10.1509
▁misery	-10.1509
▁expensive	-10.1509
▁aboard	-10.1509
▁therapy	-10.151
▁shift	-10.1513
▁labor	-10.1513
▁gear	-10.1516
▁murmuring	-10.1516
▁bullets	-10.1516
▁emma	-10.1516
▁marshall	-10.1516
▁cutting	-10.1518
il	-10.1525
▁designed	-10.1526
op	-10.1529
▁thrown	-10.1532
ate	-10.1533
▁material	-10.1537
▁chimes	-10.1542
▁based	-10.1543
▁ye	-10.1558
▁nicky	-10.1565
▁heal	-10.1566
lic	-10.157
▁dee	-10.1576
▁steps	-10.1576
lt	-10.1581
▁knocked	-10.1582
▁armed	-10.159
▁bo	-10.1592
▁customers	-10.1597
▁flag	-10.161
▁spending	-10.1618
▁lil	-10.1624
▁phones	-10.1626
▁shots	-10.1631
bo	-10.165
▁squeeze	-10.1671
▁ignore	-10.1677
▁physical	-10.1681
▁europe	-10.1689
▁violent	-10.169
▁period	-10.169
▁potential	-10.169
▁sniffles	-10.169
▁keating	-10.1691
▁core	-10.1692
▁fucker	-10.1692
▁zak	-10.1693
▁soup	-10.1693
▁z	-10.1693
▁taxi	-10.1695
▁prize	-10.1695
▁inhales	-10.17
▁fallen	-10.17
▁dating	-10.1702
▁former	-10.1704
▁whip	-10.1704
▁woo	-10.1705
▁avoid	-10.1714
▁ty	-10.1721
▁outfit	-10.1721
▁treatment	-10.1725
▁snake	-10.173
ium	-10.1732
▁blessed	-10.1735
▁hal	-10.1756
▁wave	-10.1759
▁voices	-10.1779
▁led	-10.1799
ious	-10.1812
io	-10.1825
▁cheat	-10.183
pa	-10.183
▁dis	-10.1835
▁char	-10.185
▁defeat	-10.1856
▁whistles	-10.1869
▁cleaning	-10.1871
▁actual	-10.1874
▁fashion	-10.1875
▁gil	-10.1875
▁traffic	-10.1875
▁rig	-10.1875
▁ambulance	-10.1875
▁moxy	-10.1875
▁shrek	-10.1875
▁sheep	-10.1875
▁rodney	-10.1876
▁cattle	-10.1876
▁reaction	-10.1876
▁iike	-10.1876
▁version	-10.1878
▁allen	-10.1878
▁blues	-10.188
▁coughing	-10.1883
▁producer	-10.1883
▁grunt	-10.1891
▁provided	-10.1893
▁adams	-10.1894
▁sub	-10.19
▁surely	-10.1905
▁saint	-10.1911
▁effort	-10.1914
▁cigarette	-10.1915
▁hood	-10.1916
▁cow	-10.1916
▁adult	-10.192
▁prayer	-10.194
▁image	-10.1942
▁bend	-10.1944
▁halt	-10.1956
▁parking	-10.1958
▁returned	-10.1965
▁he	-10.1989
▁fort	-10.2014
▁confirm	-10.2015
▁sports	-10.2016
▁va	-10.2017
ng	-10.2019
▁sneak	-10.2024
▁pit	-10.2025
ah	-10.2029
▁ne	-10.2037
▁rub	-10.2044
▁remove	-10.2054
▁hated	-10.2057
▁facts	-10.2063
▁revenge	-10.2064
▁underneath	-10.2064
▁veronica	-10.2064
▁wendy	-10.2064
▁giggling	-10.2064
▁specific	-10.2064
▁pathetic	-10.2064
▁impressive	-10.2065
▁static	-10.2065
▁habit	-10.2065
▁response	-10.2065
▁josh	-10.2066
▁leigh	-10.2066
▁wallet	-10.2068
▁shaw	-10.2071
▁paulie	-10.2081
▁parties	-10.2082
▁disappeared	-10.2086
▁theo	-10.2091
▁parker	-10.2092
▁troops	-10.2094
▁survived	-10.2098
▁standard	-10.2109
▁badly	-10.2109
▁americans	-10.2125
▁bastards	-10.213
▁egg	-10.2131
▁menu	-10.2141
▁tag	-10.2188
▁site	-10.2193
ot	-10.22
ler	-10.2214
▁speakers	-10.2219
▁screen	-10.223
▁insist	-10.2236
▁concentrate	-10.2242
▁assure	-10.2251
▁conference	-10.2256
▁exercise	-10.2256
▁llttle	-10.2256
▁matrix	-10.2256
▁ominous	-10.2256
▁treasure	-10.2256
▁uncomfortable	-10.2256
▁vioiet	-10.2256
▁warrant	-10.2256
▁families	-10.2257
▁charley	-10.2257
▁audition	-10.2257
▁salad	-10.2257
▁cosette	-10.2257
▁forth	-10.2258
▁fence	-10.2258
▁bee	-10.2266
ge	-10.2271
ig	-10.2276
▁detail	-10.2283
▁refuse	-10.2288
▁considered	-10.2292
down	-10.2293
▁louder	-10.2293
▁punk	-10.23
▁trusted	-10.2303
▁sentence	-10.2303
▁shark	-10.2303
▁studying	-10.2309
▁chucky	-10.2319
▁pearl	-10.2331
▁depends	-10.2335
sh	-10.2336
▁dealing	-10.2353
▁reports	-10.2373
▁breaks	-10.2373
house	-10.2375
▁sweat	-10.2375
▁units	-10.238
be	-10.2384
▁cock	-10.2396
▁tricks	-10.2397
▁pour	-10.2407
▁helpless	-10.2425
▁doug	-10.245
▁chip	-10.245
▁vietnam	-10.2452
▁anytime	-10.2453
▁library	-10.2453
▁sunshine	-10.2453
▁ulrich	-10.2453
▁precious	-10.2453
▁lightning	-10.2453
▁museum	-10.2453
▁downtown	-10.2453
▁frost	-10.2453
▁cowboy	-10.2453
▁juan	-10.2453
▁agreement	-10.2455
▁mobile	-10.2456
▁silent	-10.2457
▁classic	-10.246
▁setting	-10.2461
▁adventure	-10.2468
▁wounded	-10.247
▁pam	-10.2471
▁payne	-10.2472
▁sport	-10.2477
▁escaped	-10.2485
▁blocks	-10.2488
▁joker	-10.249
▁equal	-10.2492
▁tests	-10.2497
▁product	-10.2501
▁ogre	-10.2502
▁touching	-10.2503
▁document	-10.2503
▁generation	-10.2504
▁hundreds	-10.2507
▁mis	-10.2532
▁skills	-10.2538
▁systems	-10.2551
▁mo	-10.2556
▁pushing	-10.256
▁minds	-10.2567
▁joined	-10.2571
way	-10.2576
▁pin	-10.2592
▁commit	-10.2593
▁when	-10.2609
▁lawyers	-10.2631
▁sink	-10.2637
▁mario	-10.265
▁amelia	-10.2653
▁bishop	-10.2653
▁reserve	-10.2653
▁rizvan	-10.2653
▁neighborhood	-10.2653
▁johnnie	-10.2653
▁cats	-10.2653
▁operator	-10.2653
▁ashley	-10.2653
▁mulan	-10.2653
▁mickey	-10.2653
▁garage	-10.2653
▁theme	-10.2653
▁cricket	-10.2654
▁practically	-10.2656
▁coke	-10.266
▁seek	-10.2663
▁squeaking	-10.2663
ho	-10.267
▁tuk	-10.2672
▁cave	-10.2684
▁flame	-10.2703
▁device	-10.2704
▁crashing	-10.2706
▁agents	-10.2708
▁freaking	-10.271
▁resist	-10.2721
▁direction	-10.2724
▁pills	-10.2729
▁be	-10.2757
▁rocket	-10.2769
▁prisoners	-10.278
▁chin	-10.278
▁collect	-10.2801
▁dot	-10.2804
▁mistakes	-10.2806
▁je	-10.2821
ck	-10.2824
▁stab	-10.2826
▁bleed	-10.2827
▁loan	-10.2837
▁grant	-10.2842
les	-10.2843
▁describe	-10.2843
▁maria	-10.2853
▁flip	-10.2856
▁chamberlain	-10.2857
▁coincidence	-10.2857
▁gekko	-10.2857
▁geppetto	-10.2857
▁lindsey	-10.2857
▁spartacus	-10.2857
▁pupkin	-10.2857
▁reputation	-10.2857
▁chasing	-10.2857
▁mere	-10.2857
▁surface	-10.2859
▁century	-10.2859
▁wage	-10.286
▁rising	-10.2861
▁embarrassing	-10.2866
▁stopping	-10.2875
▁bev	-10.2875
▁lifetime	-10.2877
▁trailer	-10.288
mo	-10.2882
▁tune	-10.2896
▁neo	-10.2897
▁stands	-10.2904
▁source	-10.2914
▁fairy	-10.2916
▁option	-10.2916
▁searching	-10.2923
ping	-10.2925
▁jokes	-10.2932
▁messages	-10.2937
▁lin	-10.2942
▁ohh	-10.2943
over	-10.2966
▁ants	-10.299
▁design	-10.2997
li	-10.2998
▁goat	-10.3003
▁options	-10.3004
▁dreamed	-10.3023
▁lover	-10.3057
▁emotional	-10.3058
▁stretch	-10.3061
▁corps	-10.3061
▁favour	-10.3065
▁flint	-10.3065
▁intense	-10.3065
▁policy	-10.3065
▁attitude	-10.3065
▁ryan	-10.3065
▁starving	-10.3065
▁granny	-10.3065
▁shelter	-10.3065
▁grantham	-10.3065
▁cherry	-10.3065
▁poetry	-10.3065
▁solution	-10.3066
▁woodhouse	-10.3066
▁foolish	-10.3066
▁league	-10.3066
▁purge	-10.3067
▁cries	-10.3068
▁clattering	-10.3071
▁disappointed	-10.3072
▁chad	-10.3073
▁dreaming	-10.3075
▁whooping	-10.3078
▁protector	-10.3078
ped	-10.3079
lin	-10.3085
▁tax	-10.3088
▁gim	-10.3092
▁banging	-10.3102
der	-10.3105
▁waited	-10.3111
▁badge	-10.3127
▁warrior	-10.3128
▁debt	-10.3129
ut	-10.3133
▁patients	-10.3134
▁snap	-10.3144
▁peoples	-10.3146
▁ca	-10.3156
▁ol	-10.317
▁guts	-10.3181
▁hates	-10.3191
▁fog	-10.3192
▁hells	-10.3199
▁sayin	-10.3212
▁laws	-10.322
▁crush	-10.3222
▁documents	-10.3223
cy	-10.3229
▁counter	-10.3231
▁butch	-10.3233
▁mini	-10.3256
▁falco	-10.3265
▁solve	-10.3268
▁destiny	-10.3278
▁goldmember	-10.3278
▁hobbs	-10.3278
▁lincoln	-10.3278
▁ordinary	-10.3278
▁political	-10.3278
▁thursday	-10.3278
▁wrestling	-10.3278
▁calvin	-10.3278
▁fridge	-10.3278
▁mandira	-10.3278
▁imagination	-10.3278
▁organization	-10.3278
▁community	-10.3278
▁review	-10.3278
▁whoohoo	-10.3278
▁internet	-10.3278
▁gee	-10.3278
▁chili	-10.3279
▁becoming	-10.3279
▁reggie	-10.3279
▁liesel	-10.328
▁noble	-10.328
▁chon	-10.3281
▁background	-10.3283
▁bono	-10.3283
▁surrounded	-10.3284
▁suffer	-10.3295
▁impression	-10.3298
▁kisses	-10.3304
▁media	-10.3312
▁bitches	-10.3315
▁loudly	-10.3317
▁ken	-10.3328
▁gasp	-10.333
▁arrive	-10.3332
▁cora	-10.3335
▁belly	-10.3336
▁division	-10.3343
▁grandmother	-10.3344
like	-10.3345
▁traveling	-10.3345
▁makeup	-10.337
▁pr	-10.3378
▁fans	-10.3382
▁becomes	-10.3385
▁highly	-10.3386
▁cr	-10.3411
▁wins	-10.3416
▁breathes	-10.3421
▁degrees	-10.3422
▁wh	-10.3426
▁bot	-10.3439
▁ham	-10.3439
▁shine	-10.3445
▁speaker	-10.3446
▁scratch	-10.3447
▁seats	-10.3462
▁reckon	-10.3467
▁ab	-10.3472
▁escort	-10.3474
▁prevent	-10.3474
▁mix	-10.3475
▁convince	-10.3483
▁mimi	-10.3486
▁civil	-10.3494
▁contest	-10.3495
▁avenue	-10.3495
▁incident	-10.3495
▁invitation	-10.3495
▁marcus	-10.3495
▁kelly	-10.3495
▁multiple	-10.3495
▁surgery	-10.3496
▁marvin	-10.3496
draic	-10.3496
▁foster	-10.3496
▁higgins	-10.3496
▁unique	-10.3496
▁arne	-10.3496
▁weii	-10.3496
▁cities	-10.3496
▁lynch	-10.3497
▁grey	-10.3498
▁dc	-10.3503
work	-10.3503
▁shadows	-10.3504
▁frightened	-10.3506
▁hut	-10.3509
▁momma	-10.351
▁angela	-10.351
▁steven	-10.3511
▁eve	-10.3512
▁off	-10.3513
▁bush	-10.3517
▁slide	-10.3519
▁warned	-10.3523
ba	-10.3525
▁humans	-10.354
▁answering	-10.354
ill	-10.3543
▁bored	-10.3551
ball	-10.3555
▁painted	-10.3565
▁carefully	-10.3565
▁pipe	-10.3566
▁degree	-10.3569
ine	-10.3571
▁argue	-10.3575
▁priests	-10.358
▁bon	-10.3582
away	-10.3603
▁messing	-10.3618
▁singer	-10.3623
▁lick	-10.3658
▁ton	-10.3664
▁drown	-10.3664
back	-10.3666
ble	-10.3669
▁drill	-10.3694
ette	-10.3699
▁behave	-10.3704
▁rabbi	-10.3706
ated	-10.371
▁pitch	-10.3711
▁painful	-10.3717
▁behavior	-10.3717
▁beloved	-10.3717
▁delicious	-10.3717
▁harvard	-10.3717
▁rufus	-10.3717
▁impact	-10.3717
▁motion	-10.3717
▁pablo	-10.3717
▁fetch	-10.3718
▁mummy	-10.3718
▁kenai	-10.3718
▁garth	-10.3718
▁governor	-10.3718
▁massage	-10.3718
▁extraordinary	-10.3718
▁status	-10.3718
▁philip	-10.3718
▁robby	-10.3718
▁bail	-10.3718
▁wore	-10.3719
▁thou	-10.3719
▁gerty	-10.3719
▁cassie	-10.3719
▁moron	-10.3719
▁drama	-10.372
▁motor	-10.3723
▁gray	-10.3723
▁parent	-10.3726
▁queens	-10.3727
▁hitting	-10.3728
▁officially	-10.3729
▁instructions	-10.3729
▁bid	-10.3729
▁pile	-10.3731
▁chat	-10.3733
ay	-10.3737
▁ar	-10.3738
▁virgin	-10.3741
▁fund	-10.3743
▁managed	-10.3744
▁request	-10.3746
▁claim	-10.3749
▁scotty	-10.3752
▁loaded	-10.3752
▁wasted	-10.3752
▁pub	-10.3754
oo	-10.3757
▁sa	-10.3759
▁diet	-10.3761
▁machines	-10.3765
▁gru	-10.3768
▁gloves	-10.3773
▁wound	-10.3775
▁pretending	-10.378
▁cents	-10.379
▁airplane	-10.3793
▁sale	-10.3809
▁movement	-10.3817
▁wayne	-10.3821
▁faces	-10.3827
▁sc	-10.3835
ca	-10.3843
▁casey	-10.3855
▁remains	-10.386
▁leading	-10.387
▁chips	-10.3887
▁respond	-10.3894
▁gain	-10.3894
▁fires	-10.3901
▁discover	-10.3912
▁echo	-10.3915
▁spy	-10.3928
▁net	-10.3931
▁propose	-10.3931
▁measure	-10.3934
▁julie	-10.3935
▁popular	-10.3943
▁trauma	-10.3944
▁transfer	-10.3944
▁allison	-10.3945
▁beneath	-10.3945
▁bigweld	-10.3945
▁disgrace	-10.3945
▁fentry	-10.3945
▁grandfather	-10.3945
▁intelligence	-10.3945
▁murdoch	-10.3945
▁opposite	-10.3945
▁samantha	-10.3945
▁stadium	-10.3945
▁hebrew	-10.3945
▁activity	-10.3945
▁snoring	-10.3945
▁hyah	-10.3945
▁chapter	-10.3945
▁unknown	-10.3945
▁tanner	-10.3945
▁shaking	-10.3945
▁diane	-10.3945
▁hush	-10.3945
▁heartbeat	-10.3945
▁whatre	-10.3945
▁humor	-10.3946
▁jessie	-10.3946
▁drift	-10.3946
▁charity	-10.3946
▁potter	-10.3946
▁brianna	-10.3947
▁potatoes	-10.3947
▁filthy	-10.3947
▁buzzes	-10.3949
▁thirsty	-10.3949
▁ant	-10.3949
▁jared	-10.3955
ze	-10.396
▁homework	-10.3961
▁stink	-10.3962
▁eric	-10.3963
▁recall	-10.3965
▁delivery	-10.3965
▁beth	-10.3966
▁gathered	-10.3975
ya	-10.3978
▁lane	-10.3981
▁creaks	-10.3981
▁wishes	-10.3986
▁wilder	-10.3987
▁mon	-10.399
▁pound	-10.4006
▁victoria	-10.4008
▁cooking	-10.4017
▁clients	-10.402
▁choices	-10.4022
▁procedure	-10.4023
▁instrument	-10.4023
▁shield	-10.4025
iy	-10.4033
▁rabbit	-10.4038
▁fi	-10.404
▁pushed	-10.404
▁bound	-10.4043
▁drones	-10.4051
▁gates	-10.4058
▁sauce	-10.4061
▁mall	-10.407
ha	-10.4071
▁toys	-10.4077
▁up	-10.4087
un	-10.4104
ance	-10.4108
▁leads	-10.4118
▁joining	-10.4126
▁pe	-10.4135
▁scouts	-10.4141
▁cookies	-10.4142
▁reward	-10.4157
▁bounce	-10.4162
▁helen	-10.4172
▁sandwich	-10.4174
▁zoo	-10.4176
▁crassus	-10.4177
▁error	-10.4177
▁happiness	-10.4177
▁murdock	-10.4177
▁mysterious	-10.4177
▁offense	-10.4177
▁rochester	-10.4177
▁sensitive	-10.4177
▁thief	-10.4177
▁wednesday	-10.4177
▁jefferson	-10.4177
▁laurie	-10.4177
▁advantage	-10.4177
▁pulse	-10.4177
▁alejandro	-10.4177
▁financial	-10.4177
▁zeke	-10.4177
▁assignment	-10.4177
▁false	-10.4177
▁bernard	-10.4177
▁accent	-10.4177
▁attractive	-10.4177
▁valley	-10.4178
▁bingo	-10.4178
▁heck	-10.4178
▁howard	-10.4178
▁berlin	-10.4178
▁electricity	-10.4178
▁balance	-10.4178
▁electrical	-10.4179
▁estate	-10.4183
▁angeles	-10.4186
▁roz	-10.4187
▁yards	-10.4187
▁betrayed	-10.4187
▁chances	-10.419
▁impressed	-10.4193
▁naturally	-10.4195
▁blink	-10.4197
▁vice	-10.4203
▁echoing	-10.4204
▁settled	-10.4205
▁papi	-10.4209
▁gotcha	-10.4211
▁delivered	-10.4216
▁entirely	-10.4227
▁ge	-10.4231
▁packed	-10.4241
▁ts	-10.4248
▁op	-10.4248
▁hits	-10.425
▁muscle	-10.4266
▁gem	-10.4266
▁roman	-10.4267
▁bears	-10.4271
▁lighter	-10.428
▁drives	-10.4283
▁aids	-10.4291
ga	-10.4308
▁dancer	-10.431
▁enjoying	-10.4312
di	-10.433
▁marks	-10.4336
▁lip	-10.4338
▁gal	-10.435
▁rio	-10.4359
▁swallow	-10.4367
▁landing	-10.4369
▁yay	-10.4371
ver	-10.4373
▁husbands	-10.4374
ov	-10.4381
▁chop	-10.4383
▁faint	-10.4385
▁stress	-10.4394
▁answered	-10.4396
▁receive	-10.4401
▁absolute	-10.4408
▁penis	-10.4414
▁herr	-10.4415
▁basic	-10.4415
▁bachelor	-10.4415
▁custody	-10.4415
▁facility	-10.4415
▁maintain	-10.4415
▁merrin	-10.4415
▁university	-10.4415
▁underwear	-10.4415
▁wives	-10.4415
▁chorus	-10.4415
▁steak	-10.4415
▁maura	-10.4415
▁begging	-10.4415
▁cady	-10.4415
▁favourite	-10.4416
▁miami	-10.4416
▁random	-10.4416
▁saul	-10.4416
▁quote	-10.4416
▁jury	-10.4416
▁diana	-10.4416
▁lousy	-10.4416
▁lazy	-10.4416
▁bible	-10.4417
▁minor	-10.4417
▁skip	-10.4417
▁globe	-10.4417
▁lois	-10.4418
▁dna	-10.4418
▁witches	-10.4422
▁mankind	-10.4424
▁passion	-10.4427
▁broadcast	-10.4427
▁directly	-10.4429
▁chi	-10.443
▁shy	-10.4434
▁bass	-10.4435
▁useful	-10.4435
▁blown	-10.4436
▁pity	-10.4439
ir	-10.4447
▁highest	-10.4448
▁rosa	-10.4451
▁experiment	-10.4453
vi	-10.4461
▁combat	-10.4462
▁inc	-10.4467
▁stacks	-10.4468
▁passengers	-10.4475
ni	-10.4479
▁angle	-10.4481
▁click	-10.4484
▁email	-10.4488
▁dive	-10.4501
▁stake	-10.4507
▁blanket	-10.4508
▁terrorist	-10.4508
▁beside	-10.4511
▁bills	-10.4526
▁boo	-10.4527
▁reported	-10.4535
ina	-10.454
▁lii	-10.4542
que	-10.4559
▁torture	-10.457
▁nail	-10.457
▁admire	-10.4582
▁sp	-10.4583
▁poop	-10.4597
▁waves	-10.461
▁ko	-10.4611
▁fights	-10.4623
▁confess	-10.4627
▁comfort	-10.463
▁affect	-10.4635
ding	-10.4636
▁reveal	-10.4638
▁exchange	-10.4645
▁produce	-10.4649
▁marshal	-10.4649
▁africa	-10.4654
▁waitress	-10.4656
ber	-10.4656
▁rear	-10.4657
▁congress	-10.4657
▁ancient	-10.4659
▁behalf	-10.4659
▁disaster	-10.4659
▁equipment	-10.4659
▁houston	-10.4659
▁intelligent	-10.4659
▁madison	-10.4659
▁perimeter	-10.4659
▁quentin	-10.4659
▁signature	-10.4659
▁mammy	-10.4659
▁renfield	-10.4659
▁dolan	-10.4659
▁performance	-10.4659
▁species	-10.4659
▁ladder	-10.466
▁urgent	-10.466
▁conlon	-10.466
▁morse	-10.466
▁defendant	-10.466
▁lessons	-10.466
▁hattie	-10.466
▁accountant	-10.4661
▁freezing	-10.4661
▁karate	-10.4661
▁zain	-10.4661
▁supper	-10.4661
▁loyal	-10.4661
▁thick	-10.4663
▁spain	-10.4664
▁friendship	-10.4665
▁thas	-10.4666
▁cocks	-10.4667
▁battery	-10.4667
▁task	-10.4667
▁embarrassed	-10.4667
▁cart	-10.467
▁spirits	-10.4676
▁connected	-10.4677
▁mistaken	-10.4681
▁earned	-10.4681
▁mixed	-10.4682
▁wi	-10.4692
▁cheating	-10.4694
▁busted	-10.4699
▁beans	-10.4702
▁tend	-10.4704
▁washed	-10.4709
▁finest	-10.4718
▁scan	-10.4718
▁wha	-10.473
▁dj	-10.4735
ib	-10.4736
▁volunteer	-10.4737
▁citizens	-10.4743
mp	-10.4753
▁jam	-10.4754
▁caused	-10.4754
▁electronic	-10.4756
▁indian	-10.4756
▁mu	-10.4757
▁greek	-10.4758
▁clown	-10.4759
▁nerve	-10.4759
▁string	-10.4759
▁port	-10.4773
▁solo	-10.4773
ily	-10.4803
▁am	-10.481
ez	-10.4813
▁forces	-10.4819
▁drawing	-10.4829
▁pigs	-10.4833
▁nana	-10.4837
▁chew	-10.4883
wood	-10.4883
▁bump	-10.4884
▁junk	-10.4888
ol	-10.4889
ville	-10.4889
▁trail	-10.4889
▁tuck	-10.49
▁q	-10.4901
▁den	-10.4904
▁psycho	-10.4904
▁oi	-10.4904
ashto	-10.4907
▁april	-10.4909
▁brooklyn	-10.4909
▁handwriting	-10.4909
▁jorge	-10.4909
▁katherine	-10.4909
▁maureen	-10.4909
▁mebh	-10.4909
▁melody	-10.4909
▁moustache	-10.4909
▁personnel	-10.4909
▁raymond	-10.4909
▁tournament	-10.4909
▁communicate	-10.4909
▁skull	-10.4909
▁slap	-10.4909
▁oath	-10.4909
▁helmet	-10.4909
▁jiro	-10.4909
▁fairfax	-10.4909
▁dignity	-10.491
▁smee	-10.491
▁inaudible	-10.491
▁obey	-10.491
▁massive	-10.491
▁shore	-10.491
▁owns	-10.4911
▁ronit	-10.4911
▁thls	-10.4911
▁stroke	-10.4913
▁parade	-10.4913
▁cure	-10.4916
▁currently	-10.4917
▁ticking	-10.4928
▁spine	-10.493
qu	-10.4933
king	-10.4935
▁jud	-10.4935
▁howdy	-10.4955
▁photograph	-10.4958
▁lungs	-10.4976
▁oneil	-10.4979
▁uniform	-10.5012
▁donkey	-10.5012
▁rifle	-10.5013
▁holiday	-10.5015
▁towel	-10.5015
▁vow	-10.5016
▁servant	-10.5016
▁chuckle	-10.5022
▁payment	-10.5027
▁au	-10.5032
▁notes	-10.5044
▁prisoner	-10.5062
de	-10.507
▁hahaha	-10.508
▁satellite	-10.5082
▁damned	-10.5084
▁moral	-10.5093
▁tale	-10.5106
▁plug	-10.5113
po	-10.5121
▁fold	-10.5139
▁ox	-10.5139
▁jazz	-10.5144
for	-10.5153
▁remote	-10.5157
▁hung	-10.5159
▁strangers	-10.5162
▁clifford	-10.5166
▁fenton	-10.5166
▁honeymoon	-10.5166
▁manhattan	-10.5166
▁nullah	-10.5166
▁pacific	-10.5166
▁spencer	-10.5166
▁strict	-10.5166
▁terribly	-10.5166
▁whinnies	-10.5166
▁sacred	-10.5166
▁plague	-10.5166
▁flashlight	-10.5166
▁rotten	-10.5166
▁langford	-10.5166
▁purse	-10.5166
▁upside	-10.5166
▁existence	-10.5166
▁supply	-10.5167
▁tori	-10.5167
▁nino	-10.5167
▁mortal	-10.5167
▁horns	-10.5168
▁broad	-10.5168
▁toy	-10.5168
▁doorbell	-10.5168
▁perry	-10.5168
▁franklin	-10.5168
▁sack	-10.5169
▁armand	-10.5169
▁dug	-10.517
▁factory	-10.5173
▁humanity	-10.5177
▁cruel	-10.5177
▁reasonable	-10.5179
▁properly	-10.5183
▁useless	-10.5183
▁feelin	-10.5184
▁boxes	-10.5184
▁app	-10.5186
▁goodnight	-10.5187
▁pancakes	-10.5191
▁manny	-10.5197
▁straighten	-10.5206
▁crashed	-10.5218
▁timing	-10.5227
▁dip	-10.5227
▁deeper	-10.5233
▁sniffs	-10.5234
▁para	-10.5248
▁frankie	-10.5252
▁award	-10.5255
▁esti	-10.5266
▁flank	-10.5274
▁tiger	-10.5275
▁repair	-10.5277
▁owner	-10.5278
▁diamond	-10.5279
▁neighbor	-10.5279
▁enjoyed	-10.528
▁billion	-10.5281
▁shoe	-10.5282
ps	-10.5283
▁houses	-10.5284
▁o	-10.5288
▁bells	-10.5296
▁paintings	-10.5302
▁lads	-10.5305
▁teaching	-10.5322
▁perform	-10.5337
end	-10.5338
▁fixing	-10.5345
▁reminds	-10.535
▁holes	-10.535
▁cleaned	-10.5362
▁finds	-10.5389
hi	-10.5392
ating	-10.5396
▁scar	-10.5406
▁host	-10.5407
▁hips	-10.541
▁recent	-10.5421
▁ali	-10.5426
▁symbol	-10.5427
▁distort	-10.5429
▁misunderstand	-10.5429
▁abilene	-10.5429
▁anchor	-10.5429
▁catherine	-10.5429
▁cindy	-10.5429
▁council	-10.5429
▁episode	-10.5429
▁theater	-10.5429
▁theseus	-10.5429
▁unhappy	-10.5429
▁dallas	-10.5429
▁terrified	-10.5429
▁drain	-10.5429
▁izzy	-10.5429
▁gambling	-10.5429
▁oscar	-10.5429
▁wasting	-10.5429
▁koba	-10.5429
▁shane	-10.5429
▁jewish	-10.5429
▁scum	-10.543
▁romance	-10.543
▁lyle	-10.543
▁brent	-10.543
▁cabinet	-10.543
▁ferry	-10.543
▁quality	-10.543
▁paperwork	-10.5431
▁booth	-10.5431
▁sammy	-10.5432
▁dropping	-10.5432
▁footage	-10.5432
▁bra	-10.5432
▁gaston	-10.5433
▁taxes	-10.5433
▁threatened	-10.5433
▁nathan	-10.5434
▁jude	-10.5438
▁ability	-10.5439
▁thee	-10.5441
▁sniffing	-10.5441
▁weed	-10.5445
▁dial	-10.5446
▁squealing	-10.5446
▁straining	-10.5447
▁golf	-10.545
▁jr	-10.5453
▁latest	-10.5454
▁schools	-10.5464
▁chamber	-10.5464
▁palm	-10.5468
▁normally	-10.5472
ence	-10.5484
▁begins	-10.5486
ned	-10.5492
▁pump	-10.5495
▁frankly	-10.55
▁liz	-10.5523
▁demand	-10.5528
▁breaths	-10.5533
▁slams	-10.5536
▁prim	-10.5543
▁marine	-10.5548
▁dozen	-10.5548
▁engines	-10.5549
▁diner	-10.5551
▁laying	-10.5558
▁haha	-10.5558
▁lands	-10.5563
▁term	-10.5566
▁gut	-10.5567
▁thuds	-10.5568
▁prints	-10.5573
▁mass	-10.5573
▁forty	-10.5576
▁engineer	-10.5578
▁danced	-10.5581
gan	-10.5598
▁structure	-10.56
▁suite	-10.5604
ja	-10.5623
▁joint	-10.5633
▁log	-10.5635
▁tessa	-10.5647
▁interrupt	-10.5648
▁prayers	-10.5651
▁appears	-10.5662
kin	-10.5665
boy	-10.5669
▁scoob	-10.5687
▁eternal	-10.569
ley	-10.569
▁successful	-10.5692
▁anniversary	-10.5699
▁gallegos	-10.5699
▁jordan	-10.5699
▁meredith	-10.5699
▁mexican	-10.5699
▁orchestra	-10.5699
▁phillip	-10.5699
▁protocol	-10.5699
▁tragedy	-10.5699
▁trunk	-10.5699
▁kyle	-10.5699
▁reverend	-10.5699
▁beckett	-10.5699
▁underground	-10.5699
▁burden	-10.5699
▁spray	-10.5699
▁whiskey	-10.5699
▁gemini	-10.5699
▁derek	-10.5699
▁archbishop	-10.5699
▁blah	-10.5699
▁clapping	-10.5699
▁ellie	-10.5699
▁authority	-10.57
▁concert	-10.57
▁connie	-10.57
▁cliff	-10.57
▁regan	-10.5701
▁skies	-10.5702
▁manual	-10.5702
▁ouch	-10.5702
▁daily	-10.5703
▁ofthe	-10.5703
▁centre	-10.5703
▁entry	-10.5704
▁axel	-10.5704
▁barnes	-10.5705
all	-10.5709
▁gus	-10.571
▁dope	-10.571
▁unable	-10.5713
▁sharply	-10.5718
▁suffered	-10.5725
▁passes	-10.5725
▁laser	-10.5748
▁tess	-10.5754
va	-10.5763
▁print	-10.577
▁les	-10.578
▁chickens	-10.5782
ham	-10.5784
lock	-10.5788
▁fe	-10.5791
▁ward	-10.5794
▁beep	-10.5802
▁limit	-10.5804
▁math	-10.5814
▁buildings	-10.5822
▁cannon	-10.5823
▁effect	-10.5825
▁jew	-10.5826
▁carlos	-10.5834
iest	-10.5849
▁demands	-10.585
▁su	-10.5852
▁doo	-10.5854
br	-10.5867
▁ave	-10.5869
▁wounds	-10.588
red	-10.5904
▁transport	-10.5911
▁accounts	-10.5913
▁li	-10.5921
▁attend	-10.5928
▁officials	-10.5943
▁barb	-10.5944
ite	-10.5947
▁appeal	-10.5949
▁earn	-10.595
▁recommend	-10.5953
▁tradition	-10.5954
▁intend	-10.5956
spite	-10.5959
▁chicks	-10.596
ud	-10.596
▁beef	-10.5963
▁axe	-10.5966
▁immediate	-10.5968
▁slim	-10.5968
▁incredibl	-10.5968
▁medic	-10.5969
▁capital	-10.5977
▁marcel	-10.5977
▁ceremony	-10.5977
▁easily	-10.5977
▁legacy	-10.5977
▁lorraine	-10.5977
▁privacy	-10.5977
▁revving	-10.5977
▁stevie	-10.5977
▁trevor	-10.5977
▁adele	-10.5977
▁collar	-10.5977
▁sunset	-10.5977
▁agency	-10.5977
▁choking	-10.5977
▁denny	-10.5977
▁babysitter	-10.5977
▁gabe	-10.5977
▁zack	-10.5977
▁doris	-10.5977
▁network	-10.5977
▁chopper	-10.5977
▁series	-10.5977
▁announcement	-10.5977
▁ripped	-10.5978
▁deaf	-10.5978
▁latin	-10.5978
▁begun	-10.5978
▁counselor	-10.5978
▁possession	-10.5978
▁passport	-10.5978
▁poker	-10.5978
▁lena	-10.5979
▁guardian	-10.5979
▁merger	-10.598
▁robbery	-10.598
▁grid	-10.598
▁fraud	-10.5983
▁wicked	-10.5983
▁copies	-10.5984
▁von	-10.5984
▁uhuh	-10.5985
▁retired	-10.5987
▁cleared	-10.5988
▁weston	-10.599
▁peanut	-10.5991
▁sighing	-10.5993
lon	-10.5994
▁badger	-10.5995
▁diego	-10.5996
▁sean	-10.601
▁quant	-10.6011
▁wo	-10.6013
▁meantime	-10.6016
▁thinkin	-10.6019
▁bash	-10.6022
▁lad	-10.6022
▁focused	-10.6032
▁drivers	-10.6054
▁leon	-10.6056
▁connect	-10.6061
ens	-10.6066
▁clap	-10.6068
▁twins	-10.6089
▁roars	-10.6099
▁orphan	-10.6106
▁eagle	-10.6108
of	-10.6108
▁comment	-10.611
▁orleans	-10.6111
▁thud	-10.6116
▁shown	-10.6117
▁sirens	-10.6121
ino	-10.6125
▁stays	-10.6153
▁mud	-10.6156
▁fishing	-10.616
▁ag	-10.6161
▁on	-10.6163
▁leaders	-10.6167
▁waters	-10.6184
hand	-10.6191
▁wifes	-10.6201
room	-10.6224
uc	-10.6226
face	-10.6233
▁greater	-10.6236
▁ambush	-10.6241
▁creatures	-10.6245
▁po	-10.6249
▁deny	-10.6249
▁divide	-10.6249
▁mob	-10.6249
▁current	-10.6254
▁unlike	-10.6258
▁ganda	-10.6262
▁briony	-10.6262
▁chloe	-10.6262
▁flew	-10.6262
▁kuzco	-10.6262
▁motorcycle	-10.6262
▁profile	-10.6262
▁survival	-10.6262
▁therefore	-10.6262
▁throughout	-10.6262
▁finnick	-10.6263
▁hustle	-10.6263
▁philippe	-10.6263
▁argument	-10.6263
▁divine	-10.6263
▁crisis	-10.6263
▁forbidden	-10.6263
▁feast	-10.6263
▁amara	-10.6263
▁genetic	-10.6263
▁couch	-10.6263
▁arrow	-10.6263
▁youth	-10.6263
▁backwards	-10.6263
▁eben	-10.6263
▁koda	-10.6263
▁rustling	-10.6263
▁engagement	-10.6263
▁isabelle	-10.6263
▁childhood	-10.6263
▁colm	-10.6263
▁avery	-10.6263
▁imitate	-10.6263
▁lemon	-10.6264
▁medication	-10.6264
▁decisions	-10.6265
▁bait	-10.6265
▁mick	-10.6266
▁bucket	-10.6266
▁technically	-10.6268
▁whooshing	-10.6268
▁ranch	-10.6269
▁gino	-10.627
▁cried	-10.627
▁deserves	-10.6274
▁down	-10.6287
ap	-10.6301
▁oops	-10.6306
com	-10.633
▁shared	-10.6339
▁ness	-10.6351
▁lame	-10.6352
▁sheets	-10.6361
▁kinds	-10.6366
▁rot	-10.6367
▁rap	-10.6369
▁intern	-10.6381
▁praying	-10.6381
ise	-10.6383
ip	-10.6403
▁tin	-10.6412
▁somethings	-10.6421
▁understanding	-10.6422
▁neighbors	-10.6428
▁rode	-10.6434
▁nut	-10.644
▁boot	-10.644
▁bees	-10.6496
▁twist	-10.6508
▁gi	-10.6512
▁mae	-10.6527
▁ammo	-10.6527
▁perfume	-10.6533
▁assault	-10.6535
▁delay	-10.6539
▁mc	-10.654
box	-10.6541
▁trace	-10.6544
▁mutt	-10.6545
▁withdraw	-10.6549
▁effective	-10.6549
▁harris	-10.6554
▁wizard	-10.6556
▁confusing	-10.6557
▁fletcher	-10.6557
▁gwen	-10.6557
▁promotion	-10.6557
▁receipt	-10.6557
▁trinity	-10.6557
▁typical	-10.6557
▁barrel	-10.6557
▁daesu	-10.6557
▁generous	-10.6557
▁piease	-10.6557
▁graham	-10.6557
▁dunne	-10.6557
▁clive	-10.6557
▁frozen	-10.6557
▁vail	-10.6557
▁commitment	-10.6558
▁elise	-10.6558
▁inez	-10.6558
▁columbia	-10.6558
▁rita	-10.6558
▁alley	-10.6559
▁phase	-10.6559
▁objection	-10.656
▁hopefully	-10.6562
▁related	-10.6566
▁eeri	-10.6566
▁shave	-10.6567
▁brutal	-10.6568
▁burns	-10.6573
▁convinced	-10.6575
▁coordinates	-10.6577
ten	-10.6579
▁sandy	-10.6584
▁cello	-10.6589
▁released	-10.6592
▁brady	-10.6593
▁dumped	-10.6594
▁impress	-10.6611
▁que	-10.6613
▁armor	-10.6622
▁mid	-10.6627
▁considering	-10.6628
▁shoulders	-10.6629
▁events	-10.6629
more	-10.6642
▁accepted	-10.6648
▁aid	-10.6649
▁ch	-10.6657
▁shelly	-10.6664
▁manners	-10.6668
▁represent	-10.6677
bi	-10.6678
bar	-10.6681
looking	-10.6686
▁fl	-10.6696
▁safely	-10.6697
▁reaching	-10.67
we	-10.67
▁wondered	-10.6701
▁novel	-10.6701
▁update	-10.6705
▁del	-10.6706
▁nun	-10.6708
▁folk	-10.6713
▁customer	-10.6714
iv	-10.6716
ak	-10.6724
▁drawer	-10.6736
▁idiots	-10.6749
▁russians	-10.6749
▁reporting	-10.6751
▁fii	-10.6759
pin	-10.6763
cal	-10.6766
▁cape	-10.6768
▁warriors	-10.6768
au	-10.6776
▁ghosts	-10.6776
▁mana	-10.6786
▁carol	-10.6792
▁dam	-10.6802
▁fools	-10.6806
▁monitor	-10.681
▁insult	-10.6812
▁shove	-10.6813
▁justin	-10.6818
▁sum	-10.6826
▁worrying	-10.6829
field	-10.6831
▁retreat	-10.6832
▁sounded	-10.6833
▁cancel	-10.6839
woman	-10.684
▁noon	-10.6841
▁advise	-10.6846
▁abuse	-10.6846
▁capture	-10.6849
▁issues	-10.6851
▁colors	-10.6853
▁shoo	-10.6854
▁india	-10.6855
▁counsel	-10.6858
▁glenn	-10.6859
▁disagree	-10.6859
▁bennett	-10.686
▁concept	-10.686
▁desmond	-10.686
▁dessert	-10.686
▁dracula	-10.686
▁elephant	-10.686
▁fourteen	-10.686
▁hannibal	-10.686
▁investigate	-10.686
▁irene	-10.686
▁navorski	-10.686
▁nuclear	-10.686
▁religious	-10.686
▁snowflake	-10.686
▁travis	-10.686
▁vallejo	-10.686
▁fabietto	-10.686
▁instance	-10.686
▁creative	-10.686
▁fifth	-10.686
▁upbeat	-10.686
▁kidnapping	-10.686
▁eleven	-10.686
▁exclusive	-10.686
▁fireworks	-10.686
▁ultimate	-10.686
▁wrapped	-10.686
▁arlo	-10.686
▁weakness	-10.686
▁relief	-10.686
▁loyalty	-10.6861
▁wrist	-10.6861
▁soil	-10.6861
▁kano	-10.6861
▁scent	-10.6861
▁robinson	-10.6862
▁heather	-10.6863
▁dull	-10.6864
▁serving	-10.6865
▁brie	-10.6866
▁sore	-10.6866
▁carried	-10.6867
▁marion	-10.6867
▁mayday	-10.6867
▁blonde	-10.6869
▁pork	-10.6871
▁kiddo	-10.6872
▁abandoned	-10.6874
▁matches	-10.6874
▁bombs	-10.6874
▁leap	-10.6875
▁tire	-10.6875
▁sixth	-10.6876
▁superman	-10.6876
▁fried	-10.6878
▁costs	-10.688
▁inn	-10.6882
▁herb	-10.6885
▁moans	-10.6885
▁cursed	-10.6886
▁divorced	-10.6886
▁cable	-10.6892
▁drowning	-10.6897
▁sins	-10.6898
▁arts	-10.6902
▁brand	-10.6908
▁ka	-10.6912
▁boobs	-10.6914
▁heels	-10.6923
▁comedy	-10.6923
▁ages	-10.6934
▁fed	-10.6937
▁fur	-10.6943
▁fart	-10.6949
▁figures	-10.6965
▁fu	-10.6966
▁rats	-10.6976
▁terror	-10.6987
▁protest	-10.7015
▁commercial	-10.7018
▁traitor	-10.7019
▁snack	-10.702
▁newspaper	-10.7022
▁orlean	-10.7023
▁poem	-10.7024
▁swan	-10.7024
▁sides	-10.7038
▁til	-10.7052
▁farmer	-10.7056
▁troubles	-10.7064
▁claims	-10.7064
▁to	-10.7066
▁carlo	-10.7068
▁opera	-10.7075
ich	-10.71
▁il	-10.7102
▁beam	-10.7103
▁peg	-10.714
itating	-10.7145
▁inform	-10.7147
▁remembered	-10.7148
▁toss	-10.7154
ship	-10.7158
▁unfortunate	-10.7163
▁potato	-10.7169
▁lovin	-10.717
▁alcohol	-10.717
▁luigi	-10.7171
▁awkward	-10.7172
▁buffalo	-10.7172
▁ceiling	-10.7172
▁circus	-10.7172
▁enormous	-10.7172
▁focker	-10.7172
▁identify	-10.7172
▁injured	-10.7172
▁koopa	-10.7172
▁magnificent	-10.7172
▁margaret	-10.7172
▁merlyn	-10.7172
▁motive	-10.7172
▁patience	-10.7172
▁perseus	-10.7172
▁practicing	-10.7172
▁proposal	-10.7172
▁spoon	-10.7172
▁stereo	-10.7172
▁wallace	-10.7172
▁bialystock	-10.7172
▁pym	-10.7172
▁byrd	-10.7172
▁previous	-10.7172
▁permit	-10.7172
▁loomis	-10.7172
▁mouse	-10.7172
▁teii	-10.7173
▁beings	-10.7173
▁limp	-10.7173
▁angelica	-10.7173
▁foul	-10.7173
▁stall	-10.7173
▁jock	-10.7173
▁myers	-10.7173
▁kong	-10.7174
▁facing	-10.7174
▁collection	-10.7174
▁hua	-10.7174
▁hugh	-10.7174
▁geez	-10.7174
▁churchill	-10.7175
▁obsessed	-10.7175
▁screeches	-10.7175
▁willie	-10.7175
▁paco	-10.7176
▁assigned	-10.7177
▁sitka	-10.7177
▁extend	-10.7178
▁halfway	-10.7178
▁dismissed	-10.7178
za	-10.7179
▁fecking	-10.7179
▁rex	-10.7179
▁bedtime	-10.7179
▁rug	-10.7181
▁explorer	-10.7181
▁rice	-10.7183
▁adopted	-10.7184
▁determined	-10.7185
▁removed	-10.7194
▁limited	-10.7195
▁jab	-10.7203
▁assist	-10.7205
▁hid	-10.7206
▁pole	-10.7207
▁dearest	-10.7208
ab	-10.7218
▁iitti	-10.7218
▁rank	-10.7221
▁demons	-10.7236
▁fisher	-10.7237
▁safer	-10.7247
▁gotham	-10.7259
▁toes	-10.7264
▁feeding	-10.7275
▁fades	-10.7276
▁womans	-10.7277
▁carly	-10.728
ug	-10.7288
▁stare	-10.7292
▁boarding	-10.7296
▁masters	-10.7304
▁rounds	-10.7307
▁tracking	-10.7313
▁protected	-10.7319
▁tracks	-10.732
▁fo	-10.7322
▁crossed	-10.7328
▁promises	-10.7332
▁offering	-10.7335
▁ankle	-10.734
▁arrangement	-10.7343
mer	-10.7343
▁benefit	-10.7344
▁compliment	-10.7344
▁gig	-10.7353
▁drone	-10.7356
ki	-10.7356
▁evan	-10.7357
▁actor	-10.7359
▁u	-10.736
▁protecting	-10.7364
▁camel	-10.7365
▁landed	-10.7371
▁attacking	-10.7373
▁mat	-10.7413
▁talks	-10.7418
▁flow	-10.742
▁wanting	-10.7422
▁hopeless	-10.7428
tch	-10.743
▁ac	-10.7437
▁chet	-10.7453
▁bald	-10.7466
board	-10.7469
▁breach	-10.747
ile	-10.7474
right	-10.7485
▁rapid	-10.7486
▁viola	-10.7492
▁peaceful	-10.7493
▁homosexual	-10.7493
▁yank	-10.7494
▁kirk	-10.7494
▁confident	-10.7494
▁basket	-10.7494
▁similar	-10.7495
▁aggressive	-10.7495
▁ambrosia	-10.7495
▁anonymous	-10.7495
▁arrival	-10.7495
▁campaign	-10.7495
▁conflict	-10.7495
▁creek	-10.7495
▁dispatch	-10.7495
▁doolittle	-10.7495
▁greece	-10.7495
▁infected	-10.7495
▁jessica	-10.7495
▁kaiju	-10.7495
▁november	-10.7495
▁patrol	-10.7495
▁principal	-10.7495
▁sarge	-10.7495
▁sphere	-10.7495
▁vodka	-10.7495
▁causing	-10.7495
▁cinderella	-10.7495
▁headquarters	-10.7495
▁vault	-10.7495
▁harlan	-10.7495
▁ceo	-10.7495
▁appropriate	-10.7495
▁jodie	-10.7495
▁construction	-10.7495
▁joanna	-10.7495
▁buddies	-10.7495
▁bacon	-10.7495
▁population	-10.7496
▁valuable	-10.7496
▁upper	-10.7496
▁clone	-10.7496
▁capone	-10.7496
▁dishes	-10.7497
▁alike	-10.7497
▁surgeon	-10.7497
▁miri	-10.7498
▁expression	-10.7498
▁hayes	-10.7499
▁legat	-10.7499
▁ivy	-10.75
▁discussion	-10.7501
▁shrieks	-10.7502
▁cuts	-10.7503
▁dealer	-10.7503
▁inch	-10.7505
▁hunger	-10.7506
▁gary	-10.7508
▁confession	-10.751
▁rage	-10.7515
▁she	-10.7516
▁dresses	-10.7521
▁carson	-10.7523
▁classes	-10.7526
▁youyou	-10.7526
▁damaged	-10.7528
▁fee	-10.7529
▁pies	-10.753
▁whale	-10.7531
▁under	-10.7538
▁mustnt	-10.7542
▁driven	-10.7545
▁shitty	-10.7551
▁ditch	-10.7553
▁entered	-10.7556
▁tables	-10.7562
▁listened	-10.7564
▁mal	-10.7567
hole	-10.7595
▁boun	-10.7597
▁cd	-10.7607
▁artists	-10.7611
▁beats	-10.7616
▁es	-10.7624
let	-10.7625
▁duel	-10.7627
▁kills	-10.7627
ka	-10.7646
▁weekends	-10.7648
▁teams	-10.7651
▁unlock	-10.7656
▁function	-10.7657
ang	-10.7663
▁individual	-10.7674
▁bond	-10.7674
▁spear	-10.7674
▁session	-10.7677
▁breast	-10.7677
▁scientist	-10.7678
▁boxing	-10.7681
▁roommate	-10.7681
▁airline	-10.7684
wa	-10.7685
ns	-10.7692
▁crossing	-10.7706
▁painter	-10.7728
▁marrying	-10.7733
▁lit	-10.7737
its	-10.774
▁positions	-10.7766
▁temper	-10.7768
▁blessing	-10.7781
▁scores	-10.7783
▁limb	-10.7787
▁roses	-10.7795
▁bunk	-10.78
▁bargain	-10.7801
town	-10.7801
▁announce	-10.7812
▁apply	-10.7812
▁instant	-10.7819
▁alfred	-10.7823
▁chains	-10.7824
▁australia	-10.7824
▁visual	-10.7828
▁academy	-10.7828
▁album	-10.7828
▁ambassador	-10.7828
▁cotton	-10.7828
▁environment	-10.7828
▁happier	-10.7828
▁happily	-10.7828
▁intensifies	-10.7828
▁mackenzie	-10.7828
▁modern	-10.7828
▁politics	-10.7828
▁sausage	-10.7828
▁supreme	-10.7828
▁llke	-10.7828
▁quigley	-10.7828
▁skank	-10.7828
▁stephanie	-10.7828
▁unconscious	-10.7828
▁drew	-10.7828
▁anderson	-10.7828
▁southern	-10.7828
▁celebration	-10.7828
▁colour	-10.7828
▁authorities	-10.7828
▁lyons	-10.7828
▁nolan	-10.7828
▁civilization	-10.7828
▁narrator	-10.7828
▁turkey	-10.7828
▁powder	-10.7828
▁cecilia	-10.7828
▁denied	-10.7828
▁gertie	-10.7828
▁heip	-10.7828
▁incoming	-10.7829
▁soap	-10.7829
▁stiff	-10.7829
▁wiii	-10.7829
▁championship	-10.7829
▁slipped	-10.7829
▁freddy	-10.7829
▁inherit	-10.7829
▁dentist	-10.783
▁fever	-10.783
▁hallway	-10.783
▁dido	-10.783
▁panel	-10.7831
▁accidentally	-10.7831
▁pike	-10.7832
▁duh	-10.7832
▁pge	-10.7832
▁morrison	-10.7832
▁bam	-10.7833
▁carney	-10.7834
▁passage	-10.7834
▁carpet	-10.7835
▁cory	-10.7837
▁sonny	-10.7838
▁praise	-10.7839
▁annoying	-10.7839
▁drawn	-10.7841
▁active	-10.7841
▁invented	-10.7845
▁unh	-10.7848
▁commissioner	-10.785
day	-10.7852
▁cooper	-10.7854
▁erin	-10.7862
▁yah	-10.7863
▁policeman	-10.787
▁jay	-10.7871
▁giggles	-10.7877
▁stammers	-10.7877
▁sealed	-10.7877
▁owl	-10.7883
▁mmmm	-10.7901
ger	-10.7904
▁dings	-10.7907
▁climbing	-10.7913
▁helpful	-10.7927
▁ap	-10.7942
▁tools	-10.7944
▁rumors	-10.7949
▁visiting	-10.7952
▁par	-10.7955
fi	-10.7964
▁clouds	-10.797
▁requires	-10.7971
▁filling	-10.7971
▁locker	-10.7972
ory	-10.7982
▁actors	-10.7987
▁roar	-10.7999
▁tick	-10.8
sen	-10.8001
▁skill	-10.8006
ery	-10.8006
▁noises	-10.8006
▁acted	-10.801
▁superior	-10.8017
▁jaeger	-10.802
▁com	-10.8022
▁gar	-10.8027
sta	-10.803
▁ranger	-10.8032
ny	-10.8032
uppper	-10.8037
▁myth	-10.8042
ada	-10.8054
▁persons	-10.8084
▁spoil	-10.8089
▁eva	-10.8092
▁inter	-10.8094
▁cigarettes	-10.81
some	-10.8108
gen	-10.8114
my	-10.8125
ster	-10.813
▁grows	-10.8135
▁ay	-10.8139
▁scares	-10.8141
▁journal	-10.8142
▁shrink	-10.8146
▁bake	-10.8146
▁spill	-10.8147
▁conduct	-10.815
▁mode	-10.8154
▁replace	-10.8159
▁zoe	-10.8162
▁waiter	-10.8163
▁permanent	-10.8164
▁craft	-10.8164
▁electric	-10.8168
▁raid	-10.817
▁realise	-10.817
▁movin	-10.8172
▁joseph	-10.8172
▁architect	-10.8172
▁francis	-10.8172
▁alakay	-10.8173
▁believing	-10.8173
▁carriage	-10.8173
▁darius	-10.8173
▁everdeen	-10.8173
▁fantasy	-10.8173
▁ganz	-10.8173
▁hephaistion	-10.8173
▁kronk	-10.8173
▁mumbling	-10.8173
▁portuguese	-10.8173
▁radiation	-10.8173
▁religion	-10.8173
▁scheme	-10.8173
▁scotch	-10.8173
▁shakily	-10.8173
▁shotgun	-10.8173
▁stauffenberg	-10.8173
▁struck	-10.8173
▁technique	-10.8173
▁unexpected	-10.8173
▁worn	-10.8173
▁crystal	-10.8173
▁statue	-10.8173
▁autograph	-10.8173
▁faggot	-10.8173
▁italy	-10.8173
▁muttering	-10.8173
▁phantom	-10.8173
▁complex	-10.8173
▁noisy	-10.8173
▁assuming	-10.8173
▁dummy	-10.8173
▁kidnapped	-10.8173
▁motel	-10.8173
▁apologies	-10.8173
▁ifyou	-10.8173
▁steam	-10.8173
▁plastic	-10.8173
▁druun	-10.8173
▁grip	-10.8173
▁cease	-10.8173
▁savage	-10.8173
▁patrick	-10.8173
▁investment	-10.8173
▁thudding	-10.8173
▁pillow	-10.8173
▁global	-10.8173
▁therapist	-10.8173
▁dalton	-10.8173
▁porch	-10.8174
▁poppy	-10.8174
▁temporary	-10.8174
▁cmon	-10.8174
▁springtime	-10.8174
▁celebrating	-10.8174
▁classified	-10.8175
▁scale	-10.8175
▁critical	-10.8175
▁gently	-10.8176
▁precisely	-10.8176
▁rendezvous	-10.8176
▁nearby	-10.8177
▁inches	-10.8177
▁role	-10.8177
▁classical	-10.818
▁te	-10.8183
▁jamie	-10.8185
▁delighted	-10.8186
▁actions	-10.8188
▁advised	-10.8188
▁beaten	-10.8188
▁gunshots	-10.8189
▁bugger	-10.819
▁captured	-10.819
▁heroes	-10.819
▁creeping	-10.8194
izing	-10.8197
▁refused	-10.8197
▁meeks	-10.8197
▁cooperate	-10.8199
▁neat	-10.8199
▁separated	-10.8201
▁cha	-10.8204
▁bu	-10.8206
▁tastes	-10.8208
▁tt	-10.8211
▁cheated	-10.8211
▁drops	-10.8213
▁dime	-10.8216
▁tu	-10.822
▁brakes	-10.8224
han	-10.8225
▁tent	-10.8228
▁deserved	-10.8237
▁filed	-10.824
▁fore	-10.8241
so	-10.8245
▁tub	-10.8249
▁hooked	-10.8252
▁viva	-10.8253
▁wears	-10.8259
▁suggesting	-10.8259
om	-10.8262
▁for	-10.8265
▁humble	-10.8279
▁worthy	-10.8281
▁sets	-10.8292
▁sl	-10.8292
▁sales	-10.8297
▁pl	-10.8307
▁demo	-10.831
▁fianc	-10.8319
▁rep	-10.8319
▁fellows	-10.8321
ris	-10.834
▁vo	-10.8342
▁rav	-10.8354
▁cloud	-10.8369
▁fits	-10.8371
▁diamonds	-10.8374
▁vital	-10.8375
▁nap	-10.8377
▁flea	-10.8377
▁culture	-10.8378
▁require	-10.8379
▁stripper	-10.8379
▁nicola	-10.8379
▁costume	-10.8379
▁fist	-10.8388
▁visitor	-10.8388
ect	-10.8392
▁tribe	-10.8394
▁uncles	-10.8401
ub	-10.8411
▁girlfriends	-10.8416
ade	-10.8421
▁ni	-10.8449
▁reverse	-10.8449
▁vet	-10.8449
▁kicks	-10.8453
▁rogers	-10.8459
▁snakes	-10.846
headed	-10.8461
▁concerns	-10.8483
ev	-10.8495
▁bi	-10.8498
▁rum	-10.85
▁burst	-10.8504
▁swell	-10.8505
▁purchase	-10.8516
▁engage	-10.8516
▁choke	-10.8516
▁graduate	-10.8517
▁olive	-10.8521
▁era	-10.8526
while	-10.8527
▁fears	-10.8529
▁almighty	-10.853
▁atmosphere	-10.853
▁bonjour	-10.853
▁breeze	-10.853
▁cavalry	-10.853
▁daryn	-10.853
▁dovid	-10.853
▁election	-10.853
▁expand	-10.853
▁frazier	-10.853
▁grenouille	-10.853
▁isaac	-10.853
▁laundry	-10.853
▁nigel	-10.853
▁olivia	-10.853
▁orbit	-10.853
▁pilgrim	-10.853
▁riordan	-10.853
▁shakespeare	-10.853
▁supplies	-10.853
▁vagina	-10.853
▁debbie	-10.853
▁halloween	-10.853
▁evelyn	-10.853
▁yacht	-10.853
▁declan	-10.853
▁northern	-10.853
▁nargle	-10.853
▁clinch	-10.853
▁shaggy	-10.853
▁nadine	-10.853
▁marvelous	-10.853
▁entrance	-10.853
▁depth	-10.853
▁suitcase	-10.853
▁transferred	-10.853
▁lyla	-10.8531
▁aircraft	-10.8531
▁prosecutor	-10.8531
▁digging	-10.8531
▁velma	-10.8531
▁acid	-10.8531
▁elias	-10.8531
▁bluestar	-10.8531
▁liberty	-10.8531
▁furniture	-10.8531
▁begged	-10.8531
▁tango	-10.8532
▁packard	-10.8532
▁depend	-10.8532
▁sidewalk	-10.8532
▁embrace	-10.8533
▁raw	-10.8534
▁and	-10.8534
▁murphy	-10.8534
▁squawking	-10.8534
▁hatch	-10.8535
▁lowry	-10.8536
▁runner	-10.8536
▁label	-10.8537
▁erm	-10.8541
▁cf	-10.8543
▁judy	-10.8547
▁loop	-10.8549
▁magical	-10.855
▁afterwards	-10.8555
▁there	-10.8555
tra	-10.8558
▁spa	-10.8564
▁gifts	-10.8565
▁granted	-10.8566
▁hoke	-10.8566
▁pu	-10.8567
▁raped	-10.8567
▁tricky	-10.8576
▁gaga	-10.8581
▁shocked	-10.8581
▁nervously	-10.8586
your	-10.8588
▁hoped	-10.8596
▁bl	-10.8607
▁cl	-10.8613
▁losers	-10.8616
▁hunters	-10.8621
▁socks	-10.8622
pro	-10.8627
▁survivors	-10.8632
▁writes	-10.8646
und	-10.8657
▁uhh	-10.8658
▁coins	-10.866
▁presents	-10.8661
▁mit	-10.8664
▁not	-10.8668
▁visitors	-10.8683
▁hum	-10.8692
▁sail	-10.8697
▁aa	-10.871
▁charm	-10.8711
▁weigh	-10.8719
if	-10.8739
▁occasion	-10.8741
▁appearance	-10.8745
▁bubble	-10.8747
▁puzzle	-10.8747
▁unicorn	-10.8747
▁employee	-10.875
▁result	-10.875
▁pace	-10.8751
▁communication	-10.8751
▁slam	-10.8753
▁marking	-10.876
▁ti	-10.8763
▁dock	-10.8782
▁twin	-10.8783
▁liquid	-10.8785
▁anne	-10.8792
▁sharks	-10.881
▁pea	-10.8811
▁kris	-10.8817
▁ending	-10.8824
▁keeper	-10.8827
▁asses	-10.8833
▁der	-10.8841
▁hack	-10.8844
ator	-10.8847
▁complain	-10.8847
▁punish	-10.8851
▁thrill	-10.8852
▁pi	-10.8858
▁flood	-10.8879
▁haul	-10.8882
weight	-10.8883
▁jess	-10.8884
▁retire	-10.8886
▁batter	-10.8891
▁widow	-10.8891
▁extreme	-10.8892
▁webb	-10.8893
▁russia	-10.8897
▁egypt	-10.89
▁leather	-10.89
▁anxious	-10.89
▁average	-10.89
▁burlington	-10.89
▁darlene	-10.89
▁drank	-10.89
▁explanation	-10.89
▁fascinating	-10.89
▁fortunate	-10.89
▁foxxy	-10.89
▁harvey	-10.89
▁identity	-10.89
▁infection	-10.89
▁karl	-10.89
▁length	-10.89
▁maurice	-10.89
▁namaari	-10.89
▁negro	-10.89
▁oglethorpe	-10.89
▁oldfashioned	-10.89
▁opponent	-10.89
▁pursuit	-10.89
▁sworn	-10.89
▁vessel	-10.89
▁klump	-10.89
▁robbed	-10.89
▁slick	-10.89
▁confidence	-10.89
▁psychological	-10.89
▁racing	-10.89
▁strawberry	-10.89
▁tragic	-10.89
▁oxygen	-10.89
▁stuart	-10.89
▁titties	-10.8901
▁sharing	-10.8901
▁dripping	-10.8901
▁willow	-10.8901
▁japan	-10.8901
▁mattiece	-10.8901
▁isabella	-10.8901
▁slut	-10.8901
▁hissing	-10.8901
▁possibility	-10.8901
▁maniac	-10.8901
▁weasel	-10.8901
▁knightley	-10.8901
▁chaos	-10.8901
▁punishment	-10.8901
▁retirement	-10.8901
▁replacement	-10.8901
▁reese	-10.8901
▁salute	-10.8902
▁norman	-10.8902
▁confirmation	-10.8902
▁wax	-10.8903
▁privilege	-10.8903
▁remarkable	-10.8903
▁eastern	-10.8903
▁owned	-10.8904
▁production	-10.8904
▁kenton	-10.8904
▁regiment	-10.8904
▁luke	-10.8905
▁waltz	-10.8906
▁hump	-10.8906
▁spike	-10.8906
▁mein	-10.8907
▁alfredo	-10.8907
▁horsemen	-10.8907
▁clinking	-10.8907
▁touchdown	-10.8907
▁creed	-10.8908
▁barry	-10.8908
▁forgiveness	-10.8909
▁types	-10.8909
▁virtue	-10.8909
▁worthless	-10.891
▁tramp	-10.8911
▁geek	-10.8913
▁slit	-10.8914
▁lima	-10.8915
▁resources	-10.8915
▁thumping	-10.8915
▁arranged	-10.8917
▁aliens	-10.8918
▁required	-10.8919
▁alberto	-10.8921
▁digital	-10.8924
▁thus	-10.8929
▁moody	-10.893
▁bugsy	-10.893
▁advanced	-10.8931
▁snarls	-10.8932
▁placed	-10.8933
▁scheduled	-10.8936
▁awfully	-10.8942
▁now	-10.8945
▁porn	-10.8948
▁horny	-10.8956
▁fireman	-10.8964
▁fighters	-10.897
▁est	-10.8971
▁howls	-10.8978
▁freaked	-10.8983
▁boost	-10.8983
▁virginia	-10.8986
▁smarter	-10.8986
▁agh	-10.8988
▁realm	-10.9002
▁cracking	-10.9004
▁kat	-10.9008
▁comms	-10.901
▁imagined	-10.9011
▁meters	-10.9015
sa	-10.9021
ons	-10.9029
▁arse	-10.9029
▁nasa	-10.9029
▁strain	-10.904
▁clinic	-10.9048
▁results	-10.9053
▁suspects	-10.9061
▁plot	-10.9061
stone	-10.9064
▁musical	-10.9069
▁bars	-10.9072
ries	-10.9098
▁crimes	-10.91
▁trucks	-10.91
car	-10.9105
▁stream	-10.9106
▁groan	-10.9111
▁gra	-10.9114
dy	-10.9123
▁hostile	-10.9129
▁closely	-10.913
▁fluid	-10.913
▁pattern	-10.9133
▁sentinel	-10.9135
▁sniper	-10.9135
▁returning	-10.9139
▁muscles	-10.9139
ru	-10.915
▁medal	-10.9154
▁waitin	-10.9154
▁flames	-10.9181
nce	-10.9183
▁generations	-10.9186
ggle	-10.9191
ran	-10.9197
▁constitution	-10.9217
▁acts	-10.9218
▁lu	-10.9229
▁frame	-10.9238
▁downs	-10.9242
book	-10.9248
▁screech	-10.9256
▁peck	-10.926
▁convict	-10.9262
▁wander	-10.9264
▁distress	-10.9264
port	-10.9271
▁signing	-10.9272
▁determine	-10.9273
▁puss	-10.9276
▁institution	-10.9281
▁immortal	-10.9284
▁casual	-10.9284
▁sixteen	-10.9284
▁cuff	-10.9285
▁worship	-10.9285
▁surge	-10.9285
▁darn	-10.9285
▁oak	-10.9285
▁barbecue	-10.9285
▁beiieve	-10.9285
▁chelsea	-10.9285
▁corridor	-10.9285
▁domestic	-10.9285
▁donald	-10.9285
▁embassy	-10.9285
▁geoghan	-10.9285
▁invisible	-10.9285
▁knives	-10.9285
▁mercedes	-10.9285
▁milady	-10.9285
▁pistol	-10.9285
▁rainbow	-10.9285
▁surveillance	-10.9285
▁tigger	-10.9285
▁translating	-10.9285
▁valentine	-10.9285
▁wisdom	-10.9285
▁couid	-10.9285
▁heep	-10.9285
▁throne	-10.9285
▁competition	-10.9285
▁jelly	-10.9285
▁terminal	-10.9285
▁residence	-10.9285
▁ansel	-10.9285
▁studied	-10.9285
▁mitchell	-10.9285
▁vocalizing	-10.9285
▁suspicious	-10.9285
▁riley	-10.9285
▁imperial	-10.9285
▁jensen	-10.9285
▁gloria	-10.9285
▁sharon	-10.9285
▁excitement	-10.9285
▁twentyfive	-10.9285
▁entertainment	-10.9285
▁sync	-10.9285
▁ropes	-10.9285
▁pickering	-10.9285
▁crick	-10.9286
▁capcom	-10.9286
▁typing	-10.9286
▁development	-10.9286
▁robbing	-10.9286
▁heil	-10.9286
▁skinny	-10.9286
▁password	-10.9286
▁pepper	-10.9286
▁michelle	-10.9286
▁ridge	-10.9286
▁bold	-10.9287
▁jill	-10.9288
▁depressed	-10.9288
▁ashes	-10.9288
▁native	-10.9288
▁kab	-10.9288
▁grandson	-10.9289
▁vous	-10.929
▁coleman	-10.9291
▁pill	-10.9292
▁relieved	-10.9292
▁dutch	-10.9294
▁reign	-10.9294
▁deadly	-10.9295
▁personality	-10.9295
▁attached	-10.9298
▁dh	-10.9298
▁witnesses	-10.9298
▁graduated	-10.9299
▁haunted	-10.93
▁raven	-10.9302
▁regarding	-10.9302
▁tender	-10.9303
▁nearest	-10.9304
▁iim	-10.9305
▁perfection	-10.9306
▁punished	-10.9307
▁jo	-10.9308
▁wandering	-10.9312
▁complaining	-10.9313
▁shutter	-10.9314
▁internal	-10.9314
▁skirt	-10.9317
▁plead	-10.9319
▁requested	-10.932
▁seth	-10.9326
ified	-10.9327
▁spite	-10.933
▁pounding	-10.933
▁mandy	-10.933
▁butcher	-10.9335
▁relations	-10.9342
▁dang	-10.9343
▁closest	-10.9345
▁operations	-10.9345
▁added	-10.9359
▁sweater	-10.9363
▁influence	-10.9368
▁arrange	-10.9381
▁seed	-10.9383
▁greatness	-10.9386
▁slower	-10.939
▁quicker	-10.9395
min	-10.9401
▁hans	-10.9402
▁ego	-10.9404
▁pays	-10.9407
▁relatives	-10.9408
▁prep	-10.9411
▁whoops	-10.9426
ok	-10.943
▁squeals	-10.9432
▁sentinels	-10.9438
▁wars	-10.9438
uck	-10.9447
▁reed	-10.946
ana	-10.9472
▁marked	-10.9473
▁che	-10.9475
▁leak	-10.9481
▁recorded	-10.9485
▁dim	-10.9486
▁differently	-10.9486
fe	-10.9488
ke	-10.9495
▁lend	-10.9495
▁seated	-10.9502
▁tri	-10.9503
▁sakes	-10.9504
▁dragons	-10.9505
▁hooker	-10.9507
▁squeal	-10.9508
▁cane	-10.9509
▁honored	-10.9512
▁emt	-10.9513
▁ski	-10.9515
▁squirrel	-10.9532
▁zombie	-10.9534
▁dressing	-10.9535
▁christian	-10.9536
year	-10.9541
▁me	-10.9543
ook	-10.9547
▁jon	-10.9563
▁manner	-10.957
▁directions	-10.9576
tom	-10.9579
▁products	-10.9583
▁murders	-10.959
▁targets	-10.962
▁frighten	-10.9641
▁formal	-10.9652
▁splash	-10.9654
▁grin	-10.9656
tor	-10.9658
▁invent	-10.9659
▁draft	-10.9665
▁disguise	-10.9671
▁rust	-10.9675
▁polite	-10.9676
▁margo	-10.9676
▁caii	-10.9676
▁wealth	-10.9677
▁krakozhia	-10.9677
▁asia	-10.968
▁pages	-10.968
▁fields	-10.968
▁irish	-10.9681
▁mornin	-10.9684
▁atta	-10.9684
▁adorable	-10.9685
▁analyst	-10.9685
▁baggage	-10.9685
▁bulgarian	-10.9685
▁corporal	-10.9685
▁emmett	-10.9685
▁entitled	-10.9685
▁garrison	-10.9685
▁gracias	-10.9685
▁grief	-10.9685
▁hooyah	-10.9685
▁itsits	-10.9685
▁lisbeth	-10.9685
▁lobster	-10.9685
▁loxley	-10.9685
▁naughty	-10.9685
▁penalty	-10.9685
▁platform	-10.9685
▁poirot	-10.9685
▁szell	-10.9685
▁xray	-10.9685
▁larson	-10.9685
▁solemn	-10.9685
▁herald	-10.9685
▁conscience	-10.9685
▁pledge	-10.9685
▁gallery	-10.9685
▁martial	-10.9685
▁farewell	-10.9685
▁randall	-10.9685
▁lutz	-10.9685
▁pudding	-10.9685
▁lawsuit	-10.9685
▁lottery	-10.9685
▁rogue	-10.9685
▁senate	-10.9685
▁stampler	-10.9685
▁allyson	-10.9685
▁alternative	-10.9685
▁apologise	-10.9685
▁consent	-10.9685
▁eternity	-10.9685
▁dragged	-10.9685
▁committee	-10.9685
▁lindy	-10.9685
▁niece	-10.9685
▁ulla	-10.9686
▁radar	-10.9686
▁satan	-10.9686
▁oui	-10.9686
▁delta	-10.9686
▁mmmmmm	-10.9686
▁herd	-10.9686
▁hesitate	-10.9686
▁roam	-10.9686
▁hopper	-10.9686
▁percy	-10.9687
▁abortion	-10.9687
▁tide	-10.9687
▁neighing	-10.9687
▁distraction	-10.9687
▁workers	-10.9687
▁silk	-10.9688
▁seattle	-10.9688
▁cathy	-10.9688
▁poppa	-10.9688
▁elton	-10.9689
▁motherfucking	-10.9689
▁shelley	-10.969
▁adore	-10.969
▁corky	-10.969
▁monk	-10.9691
▁quitting	-10.9691
▁pickett	-10.9692
▁eden	-10.9695
▁maiden	-10.9695
▁kent	-10.9696
▁lex	-10.9697
▁madness	-10.9699
▁alter	-10.9699
▁kimi	-10.9701
tan	-10.9704
▁hotter	-10.9704
▁physically	-10.9705
▁takin	-10.9705
▁endless	-10.9706
▁scissors	-10.9707
▁ewing	-10.9708
▁affairs	-10.971
▁forms	-10.9711
▁canceled	-10.9712
▁ke	-10.9716
▁pilots	-10.9717
▁drowned	-10.9722
▁outer	-10.9723
▁criminals	-10.9729
▁assumed	-10.9733
▁liver	-10.9739
▁introduced	-10.9739
▁sneaking	-10.9742
▁existed	-10.975
▁consequences	-10.975
cina	-10.9755
▁bratt	-10.9756
▁rebels	-10.9759
▁stable	-10.9763
▁historical	-10.9767
▁foundation	-10.9771
▁teachers	-10.9771
▁mill	-10.9771
▁sch	-10.9774
▁fucks	-10.9778
▁nations	-10.9786
▁owen	-10.9792
▁dolphins	-10.98
▁lifes	-10.9804
▁honks	-10.9804
vo	-10.9811
▁buttle	-10.9811
▁the	-10.9816
▁candles	-10.9819
▁eli	-10.9823
▁residents	-10.9825
▁packing	-10.9831
tle	-10.9839
che	-10.9848
▁alan	-10.9856
▁mole	-10.9858
▁needle	-10.9859
▁contain	-10.9868
▁airlines	-10.9871
▁hangs	-10.9873
▁it	-10.9876
ded	-10.9881
▁poems	-10.9882
▁whisper	-10.9884
▁helps	-10.9894
ls	-10.9914
▁blt	-10.9932
▁vampire	-10.9945
▁turtle	-10.9945
▁puppet	-10.9945
▁deb	-10.9946
▁tit	-10.9949
▁worm	-10.9949
▁sample	-10.9952
▁headache	-10.9952
▁complaint	-10.9952
▁rumor	-10.9954
▁teenager	-10.9954
▁villain	-10.9954
▁corpse	-10.9967
▁brick	-10.9971
▁deer	-10.9972
oi	-10.9976
▁coin	-10.9977
▁goddamned	-10.9997
thing	-11.0003
▁formula	-11.0006
▁graves	-11.001
▁proven	-11.0023
ren	-11.0025
▁beau	-11.004
▁bin	-11.004
▁smack	-11.0073
▁float	-11.0078
lve	-11.0078
what	-11.0082
ora	-11.0083
▁gamble	-11.0085
▁pronounce	-11.0088
▁declare	-11.0088
▁hysterical	-11.0092
▁leaf	-11.0099
▁deploy	-11.0101
▁forbid	-11.0102
▁intercept	-11.0102
▁abbey	-11.0102
▁agador	-11.0102
▁allergic	-11.0102
▁ambition	-11.0102
▁approximately	-11.0102
▁audio	-11.0102
▁berries	-11.0102
▁brixton	-11.0102
▁candidate	-11.0102
▁godfrey	-11.0102
▁graduation	-11.0102
▁heinrich	-11.0102
▁industry	-11.0102
▁kendall	-11.0102
▁lindsay	-11.0102
▁linnet	-11.0102
▁luthor	-11.0102
▁marius	-11.0102
▁minimum	-11.0102
▁mistress	-11.0102
▁negotiate	-11.0102
▁pamela	-11.0102
▁paranoid	-11.0102
▁philadelphia	-11.0102
▁retrieve	-11.0102
▁spazzatura	-11.0102
▁territory	-11.0102
▁thompson	-11.0102
▁tissue	-11.0102
▁tokyo	-11.0102
▁twilight	-11.0102
▁vulnerable	-11.0102
▁wouid	-11.0102
▁dialogue	-11.0102
▁hastings	-11.0102
▁crank	-11.0102
▁cotys	-11.0102
▁iraq	-11.0102
▁destruction	-11.0102
▁violation	-11.0102
▁canada	-11.0102
▁commence	-11.0102
▁parole	-11.0102
▁elegant	-11.0102
▁creation	-11.0102
▁tanya	-11.0103
▁fanny	-11.0103
▁apology	-11.0103
▁bonnie	-11.0103
▁testify	-11.0103
▁spotlight	-11.0103
▁dominic	-11.0103
▁valkyrie	-11.0103
▁torn	-11.0103
▁pause	-11.0103
▁platoon	-11.0103
▁extraction	-11.0104
▁oven	-11.0105
▁bonus	-11.0105
▁dried	-11.0106
▁soda	-11.0106
▁appetite	-11.0106
▁stain	-11.0108
▁agena	-11.0109
▁mars	-11.0109
▁benson	-11.011
▁sanders	-11.011
▁growth	-11.011
▁tooth	-11.0113
▁gunn	-11.0113
▁grind	-11.0113
▁reai	-11.0115
▁inner	-11.0115
▁nein	-11.0116
▁backyard	-11.0117
▁becker	-11.0117
▁forgetting	-11.0118
▁shushing	-11.0118
▁baked	-11.0118
▁developed	-11.0122
▁dodge	-11.0122
▁nest	-11.0124
▁flirting	-11.0126
▁rape	-11.0127
▁madeline	-11.0128
▁twisted	-11.0131
od	-11.0133
▁strongest	-11.0135
▁flu	-11.0142
▁fastest	-11.0143
▁autobots	-11.0144
ities	-11.0148
▁insects	-11.0158
▁lance	-11.0159
▁lina	-11.0167
▁discussed	-11.0172
▁wwe	-11.0173
▁goodlooking	-11.0174
▁sings	-11.0182
ex	-11.0183
gram	-11.019
▁fairly	-11.0198
▁swat	-11.0208
▁pirates	-11.0215
ake	-11.022
▁screwing	-11.0236
▁judges	-11.0238
▁bothering	-11.0244
ring	-11.0249
▁counts	-11.0261
▁lapd	-11.0264
▁treating	-11.0264
▁possess	-11.0268
lor	-11.0272
ess	-11.0274
ever	-11.0283
▁hairy	-11.0284
cra	-11.0286
▁allies	-11.0288
▁spark	-11.0291
▁scientists	-11.0294
ou	-11.0294
den	-11.0299
▁dani	-11.0316
ward	-11.0318
▁mist	-11.0323
▁flush	-11.0324
cu	-11.034
▁mouths	-11.0342
▁creep	-11.0346
▁min	-11.0348
▁weep	-11.037
leg	-11.0378
▁emotion	-11.0382
▁med	-11.0385
▁resident	-11.0386
▁flop	-11.0386
▁citizen	-11.0387
▁tool	-11.0387
▁sheet	-11.0391
▁pipes	-11.0392
▁root	-11.0394
▁strikes	-11.0398
▁devils	-11.0401
aw	-11.0401
▁snaps	-11.0404
▁asset	-11.041
lson	-11.0426
ong	-11.0427
ged	-11.0435
▁tro	-11.0439
▁drum	-11.044
▁bio	-11.0447
eth	-11.0454
▁sis	-11.0459
▁cruise	-11.0465
▁roads	-11.0478
ied	-11.0486
▁abandon	-11.0489
rt	-11.0491
▁cups	-11.0498
▁scenes	-11.0502
class	-11.0503
▁extract	-11.0507
ify	-11.0508
▁catching	-11.0511
mouth	-11.0519
▁grades	-11.0523
▁explore	-11.0523
▁quarters	-11.0524
▁sodom	-11.0525
▁guilt	-11.0526
▁indicate	-11.0532
▁coma	-11.0533
▁region	-11.0536
▁atlantic	-11.0536
▁barricade	-11.0536
▁catholic	-11.0536
▁companies	-11.0536
▁foxtrot	-11.0536
▁fredricksen	-11.0536
▁garvin	-11.0536
▁harriet	-11.0536
▁harsh	-11.0536
▁homicide	-11.0536
▁kennedy	-11.0536
▁kovic	-11.0536
▁mcbride	-11.0536
▁mutual	-11.0536
▁natalie	-11.0536
▁necessarily	-11.0536
▁pencil	-11.0536
▁portrait	-11.0536
▁preparing	-11.0536
▁recipe	-11.0536
▁rosenberg	-11.0536
▁salvation	-11.0536
▁semester	-11.0536
▁shaft	-11.0536
▁siobh	-11.0536
▁vengeance	-11.0536
▁volume	-11.0536
▁wagon	-11.0536
▁wheelchair	-11.0536
▁chiming	-11.0536
▁rubbish	-11.0536
▁cardinal	-11.0536
▁hottest	-11.0536
▁swift	-11.0537
▁scholarship	-11.0537
▁lecture	-11.0537
▁mamma	-11.0537
▁katrine	-11.0537
▁iady	-11.0537
▁dragging	-11.0537
▁lunatic	-11.0537
▁slack	-11.0537
▁briefcase	-11.0537
▁description	-11.0537
▁arena	-11.0537
▁stanford	-11.0537
▁duties	-11.0537
▁overcome	-11.0537
▁intel	-11.0537
▁saber	-11.0537
▁joyner	-11.0537
▁item	-11.0537
▁lamb	-11.0537
▁deposit	-11.0537
▁finkle	-11.0537
▁moonlight	-11.0537
▁kung	-11.0538
▁reflection	-11.0538
▁whatll	-11.0538
▁poe	-11.0539
▁management	-11.054
▁dedicated	-11.054
▁lunar	-11.054
▁display	-11.054
▁amongst	-11.0541
▁stepped	-11.0541
▁stepping	-11.0541
▁villagers	-11.0542
▁clucking	-11.0542
▁fitting	-11.0542
▁bowen	-11.0542
▁affection	-11.0542
▁spotted	-11.0542
▁ash	-11.0542
▁alnt	-11.0543
▁auto	-11.0543
▁exhausted	-11.0545
▁develop	-11.0545
▁lsnt	-11.0546
▁inspired	-11.0549
▁fay	-11.0552
▁lovers	-11.0553
▁distracted	-11.0553
▁daniela	-11.0556
▁particularly	-11.0559
▁decepticons	-11.056
▁prop	-11.0562
hes	-11.0562
▁tra	-11.0569
jo	-11.0569
▁mechanical	-11.0574
▁traditional	-11.0574
▁ver	-11.0577
iness	-11.058
▁mainly	-11.0581
▁goose	-11.0581
▁scaring	-11.0581
▁specialist	-11.0582
▁quest	-11.0586
▁wink	-11.0593
▁yelps	-11.0594
▁boz	-11.0597
▁revs	-11.0599
▁coolest	-11.0599
▁blocked	-11.0609
▁childrens	-11.0616
▁hint	-11.0618
▁shocking	-11.0619
▁carla	-11.0621
▁reporters	-11.0624
▁contracts	-11.0625
▁heights	-11.0628
▁cracked	-11.063
▁gin	-11.063
▁interests	-11.0633
▁shooter	-11.0634
▁computers	-11.0635
▁hardest	-11.0635
▁imim	-11.0638
▁soph	-11.064
▁tourists	-11.0642
sse	-11.0644
▁ram	-11.0675
ative	-11.0676
▁auction	-11.0676
▁lins	-11.0677
▁rd	-11.0684
our	-11.0687
▁tracked	-11.0688
▁assets	-11.069
▁destroying	-11.0697
▁tanks	-11.0699
▁wheels	-11.0699
▁clearing	-11.0701
▁bombing	-11.0702
maker	-11.0703
▁sip	-11.0704
▁williams	-11.0719
well	-11.0722
▁mas	-11.073
▁groups	-11.0731
con	-11.0734
▁zip	-11.0746
▁newspapers	-11.0751
ag	-11.0769
▁tet	-11.0771
▁tee	-11.0776
gy	-11.0781
▁clip	-11.0797
▁nerves	-11.0806
▁indians	-11.0806
▁nurses	-11.0807
▁sigh	-11.0808
▁poet	-11.0811
▁rabbits	-11.0828
▁fade	-11.083
▁plea	-11.0831
▁convention	-11.0832
▁spider	-11.0836
▁nerd	-11.0836
▁dinosaur	-11.0838
▁slice	-11.0839
▁grove	-11.084
▁candle	-11.0841
▁shorts	-11.0842
nd	-11.0845
▁cent	-11.0846
▁arrives	-11.0848
q	-11.0852
▁rec	-11.0863
▁pod	-11.0871
▁nan	-11.0876
▁pearls	-11.0881
▁tips	-11.0886
pot	-11.0894
top	-11.0927
▁betray	-11.0939
▁ju	-11.094
▁codes	-11.0941
▁plants	-11.0959
▁booked	-11.0962
▁babys	-11.0963
▁flirt	-11.0964
▁establish	-11.097
▁walt	-11.097
▁ew	-11.0971
▁wrestle	-11.0971
▁interviews	-11.0973
▁inspire	-11.0978
▁seize	-11.0979
▁tremendous	-11.0982
▁essential	-11.0982
▁cai	-11.0982
▁chant	-11.0986
▁inspiration	-11.0987
▁scrap	-11.0988
▁inject	-11.0988
▁blank	-11.099
▁greed	-11.099
▁reception	-11.099
▁memo	-11.099
▁pitts	-11.0991
▁companion	-11.0991
▁editor	-11.0991
▁altar	-11.0991
▁amateur	-11.0991
▁becca	-11.0991
▁broccoli	-11.0991
▁burmese	-11.0991
▁centuries	-11.0991
▁coconut	-11.0991
▁column	-11.0991
▁corporate	-11.0991
▁destination	-11.0991
▁eeyore	-11.0991
▁envelope	-11.0991
▁executive	-11.0991
▁grazie	-11.0991
▁kansas	-11.0991
▁keeley	-11.0991
▁lesbian	-11.0991
▁luther	-11.0991
▁melinda	-11.0991
▁mississippi	-11.0991
▁morpheus	-11.0991
▁pookie	-11.0991
▁razor	-11.0991
▁scenario	-11.0991
▁somewhat	-11.0991
▁surviving	-11.0991
▁toxic	-11.0991
▁vespa	-11.0991
▁voyage	-11.0991
▁yunger	-11.0991
▁dennis	-11.0991
▁raising	-11.0991
▁saverio	-11.0991
▁cambridge	-11.0991
▁narrow	-11.0991
▁aisle	-11.0991
▁western	-11.0991
▁grabbed	-11.0991
▁purple	-11.0991
▁wheezing	-11.0991
▁glorious	-11.0991
▁vicious	-11.0991
▁absence	-11.0991
▁darnell	-11.0991
▁adjust	-11.0991
▁nuke	-11.0991
▁roast	-11.0991
▁assistance	-11.0991
▁iggy	-11.0991
▁johanna	-11.0992
▁confusion	-11.0992
▁eyre	-11.0992
▁bamba	-11.0992
▁eema	-11.0992
▁stanley	-11.0992
▁studies	-11.0992
▁nickname	-11.0992
▁sanford	-11.0992
▁quarterback	-11.0992
▁thisll	-11.0992
▁specifically	-11.0992
▁skylar	-11.0992
▁downton	-11.0992
▁riddle	-11.0993
▁stallion	-11.0993
▁salary	-11.0993
▁chemical	-11.0993
▁hades	-11.0993
▁plow	-11.0993
▁barrow	-11.0994
▁harmless	-11.0994
▁settlement	-11.0994
▁hawk	-11.0995
▁obliged	-11.0995
▁popping	-11.0995
▁lionel	-11.0995
▁fork	-11.0995
▁trish	-11.0995
▁sway	-11.0996
▁programmed	-11.0997
▁fond	-11.0999
▁dreadful	-11.0999
▁lap	-11.1
▁gump	-11.1
▁langs	-11.1001
▁bowers	-11.1001
▁deals	-11.1005
▁iet	-11.1006
▁soak	-11.1008
▁seq	-11.101
▁loverly	-11.1012
▁spice	-11.1013
▁bench	-11.1015
▁cube	-11.1016
▁francs	-11.1023
ox	-11.1024
▁bitter	-11.1026
ors	-11.1027
▁fleet	-11.1029
▁crushed	-11.1035
▁sling	-11.1038
▁burnt	-11.1038
▁cared	-11.1044
▁requesting	-11.1046
▁whys	-11.1052
▁jar	-11.1059
▁bare	-11.1059
▁fa	-11.1062
▁ul	-11.1063
▁touches	-11.1065
▁ribs	-11.1073
▁photographer	-11.1073
▁clatters	-11.1073
▁semi	-11.1079
▁homeless	-11.1082
▁stripes	-11.1089
og	-11.1091
that	-11.1092
▁messy	-11.1098
▁corners	-11.1106
▁tackle	-11.1106
ula	-11.1106
▁lid	-11.1112
▁sn	-11.1114
▁killers	-11.113
▁ami	-11.1135
▁locks	-11.1135
▁sucked	-11.1138
▁mines	-11.1143
▁americas	-11.115
▁stones	-11.1151
▁beds	-11.1152
▁stores	-11.116
▁contains	-11.116
▁mint	-11.1162
▁boats	-11.1168
pp	-11.1172
ats	-11.1173
▁employees	-11.118
▁walkin	-11.1183
▁importantly	-11.1185
▁stark	-11.1186
▁pimp	-11.1188
ita	-11.1193
▁compliments	-11.1208
▁author	-11.1208
▁beers	-11.121
pen	-11.1213
hal	-11.1221
▁planes	-11.1222
rd	-11.1229
▁explained	-11.1232
▁areas	-11.1237
▁jews	-11.1245
oh	-11.1247
▁aha	-11.1264
▁servants	-11.1266
▁tapes	-11.1272
▁clowns	-11.1274
▁butts	-11.129
ell	-11.1293
▁por	-11.13
▁compete	-11.1304
▁mermaid	-11.1311
▁einon	-11.1311
▁generator	-11.1311
▁cocktail	-11.1312
▁explosive	-11.1313
▁instinct	-11.1316
▁relative	-11.1317
▁burger	-11.1318
bel	-11.1325
▁tis	-11.1346
▁fang	-11.1357
▁matthews	-11.1359
▁cows	-11.1368
▁dine	-11.1371
▁cooler	-11.1377
▁pale	-11.138
▁comb	-11.138
▁guessed	-11.1383
▁sucker	-11.1385
val	-11.1388
▁des	-11.139
▁recover	-11.1408
▁levels	-11.1436
hh	-11.1441
▁toll	-11.1443
▁observe	-11.1443
▁pervert	-11.1446
▁stamp	-11.1446
▁crook	-11.1447
▁blades	-11.1448
ability	-11.1449
▁whoop	-11.1449
knock	-11.145
fuck	-11.145
▁approve	-11.1454
two	-11.1456
▁technical	-11.1458
▁bangs	-11.1463
▁erik	-11.1463
▁critic	-11.1464
▁fiction	-11.1464
▁melt	-11.1464
▁define	-11.1465
▁moto	-11.1465
▁dove	-11.1466
▁initiate	-11.1467
▁buff	-11.1467
▁accompany	-11.1467
▁adhemar	-11.1467
▁brandnew	-11.1467
▁carlisle	-11.1467
▁combination	-11.1467
▁cradle	-11.1467
▁davinier	-11.1467
▁fountain	-11.1467
▁galaxy	-11.1467
▁gideon	-11.1467
▁graeme	-11.1467
▁grunion	-11.1467
▁haymitch	-11.1467
▁institute	-11.1467
▁inviting	-11.1467
▁jumanji	-11.1467
▁liquor	-11.1467
▁literature	-11.1467
▁luggage	-11.1467
▁massacre	-11.1467
▁mccormack	-11.1467
▁observation	-11.1467
▁phoenix	-11.1467
▁shannon	-11.1467
▁sherwood	-11.1467
▁taliban	-11.1467
▁tshirt	-11.1467
▁unacceptable	-11.1467
▁walmart	-11.1467
▁worries	-11.1467
▁content	-11.1467
▁izzi	-11.1467
▁mourn	-11.1467
▁splendid	-11.1467
▁strut	-11.1467
▁warehouse	-11.1467
▁yosille	-11.1467
▁clerk	-11.1467
▁llama	-11.1467
▁fragile	-11.1467
ari	-11.1467
▁annual	-11.1467
▁pension	-11.1467
▁zuba	-11.1467
▁andand	-11.1467
▁pennsylvania	-11.1467
▁prospect	-11.1467
▁stash	-11.1467
▁quince	-11.1467
▁rlght	-11.1467
▁addition	-11.1467
▁fading	-11.1468
▁rebuild	-11.1468
▁grape	-11.1468
▁uptown	-11.1468
▁truman	-11.1468
▁tension	-11.1468
▁overnight	-11.1468
▁fiddle	-11.1468
▁tutar	-11.1468
▁franz	-11.1468
▁ministry	-11.1468
▁malone	-11.1468
▁timmy	-11.1468
▁claus	-11.1468
▁income	-11.1468
▁katia	-11.1468
▁strap	-11.1468
▁operating	-11.1468
▁admiral	-11.1468
▁estel	-11.1468
▁piglet	-11.1468
▁hagrid	-11.1469
▁ripping	-11.1469
▁keen	-11.1469
▁mansfield	-11.1469
▁flavor	-11.1469
▁chow	-11.147
▁epic	-11.147
▁vika	-11.147
▁logue	-11.1471
▁megan	-11.1471
▁authorized	-11.1471
▁meetings	-11.1471
▁zoom	-11.1471
▁harrison	-11.1472
▁kidney	-11.1473
▁christine	-11.1473
▁peterson	-11.1473
▁giri	-11.1473
▁snarling	-11.1474
▁andrea	-11.1475
▁facebook	-11.1475
▁slightly	-11.1475
▁executed	-11.1475
▁cafe	-11.1475
▁grain	-11.1476
▁suspended	-11.1477
▁daylight	-11.1479
▁rejected	-11.148
▁gap	-11.148
▁what	-11.148
▁frontier	-11.1481
▁tinker	-11.1481
▁hooting	-11.1482
▁surprises	-11.1483
▁crashes	-11.1484
▁stunt	-11.1484
▁clothing	-11.1485
▁punches	-11.1485
▁kay	-11.1485
▁marie	-11.1491
▁buzzer	-11.1492
▁micro	-11.1493
mate	-11.1499
▁masks	-11.1499
▁rumbles	-11.1501
▁tada	-11.1504
▁vie	-11.1505
▁voted	-11.1506
▁pint	-11.1507
▁prices	-11.1516
▁fingerprints	-11.1516
▁sim	-11.1522
▁followers	-11.1522
▁lens	-11.1523
▁businessman	-11.1529
▁thankyou	-11.1532
▁experienced	-11.1548
▁exists	-11.1549
▁ru	-11.1557
▁honesty	-11.1566
▁pas	-11.1566
bs	-11.1569
▁shortly	-11.157
▁pillars	-11.1576
▁punched	-11.1578
▁marching	-11.1585
▁worker	-11.1587
▁resumes	-11.159
▁swinging	-11.16
▁visited	-11.1605
▁carries	-11.1612
▁dru	-11.1616
▁operate	-11.1617
rin	-11.1617
▁classy	-11.1618
▁acknowledge	-11.162
▁prayed	-11.1621
ron	-11.1626
▁salesman	-11.163
▁hardt	-11.1632
▁emotions	-11.1636
▁fuckers	-11.1636
▁dal	-11.1636
▁filming	-11.1646
▁monkeys	-11.1648
ice	-11.1653
▁sheriffs	-11.1653
ations	-11.1654
berg	-11.1661
▁sul	-11.1665
▁costumes	-11.1673
▁lure	-11.1679
▁heroin	-11.1679
▁meg	-11.1684
▁attacks	-11.1698
▁counted	-11.1698
▁sends	-11.1703
▁tease	-11.1705
ner	-11.1711
▁that	-11.1717
▁amys	-11.1719
▁nicely	-11.1719
▁effects	-11.1734
▁mop	-11.1735
▁strings	-11.1764
▁checks	-11.1764
▁rag	-11.1765
▁tr	-11.1777
▁dolls	-11.178
▁squeak	-11.1784
▁glow	-11.1784
ties	-11.1789
▁sticking	-11.1803
▁raining	-11.1805
▁reg	-11.1808
▁profit	-11.181
ible	-11.1812
▁tab	-11.1813
▁peasant	-11.1813
▁yankee	-11.1814
▁belief	-11.1814
▁thumb	-11.1815
press	-11.1815
▁doughnut	-11.1815
▁dates	-11.1815
▁await	-11.1816
▁magician	-11.1821
▁ai	-11.1822
ane	-11.183
▁tellin	-11.1831
▁senses	-11.1834
▁hitlers	-11.1839
▁equals	-11.184
▁comm	-11.1858
▁adults	-11.1862
▁debate	-11.1875
chi	-11.1883
▁aj	-11.19
▁puts	-11.1906
▁via	-11.1909
▁crib	-11.1915
▁scrape	-11.1924
▁boxer	-11.1925
ack	-11.1927
▁discipline	-11.1933
▁honk	-11.1934
▁breed	-11.1941
keeper	-11.1942
▁fuss	-11.1943
bound	-11.1945
▁offend	-11.1947
▁puff	-11.1948
▁slaughter	-11.195
▁tart	-11.1954
hour	-11.1954
tz	-11.1956
▁jun	-11.1957
gi	-11.1957
▁achieve	-11.1958
▁fulfill	-11.1959
▁villa	-11.196
▁activate	-11.1961
▁pony	-11.1961
▁sittin	-11.1965
▁exhibit	-11.1966
▁iz	-11.1966
▁cartoon	-11.1966
▁wlth	-11.1966
▁squash	-11.1967
▁actress	-11.1967
▁balcony	-11.1967
▁battalion	-11.1967
▁bloke	-11.1967
▁butterfly	-11.1967
▁byrnes	-11.1967
▁clyde	-11.1967
▁cocaine	-11.1967
▁cortez	-11.1967
▁coyote	-11.1967
▁darrow	-11.1967
▁deborah	-11.1967
▁fundamental	-11.1967
▁gratitude	-11.1967
▁harbor	-11.1967
▁heimish	-11.1967
▁horror	-11.1967
▁indictment	-11.1967
▁invasion	-11.1967
▁landlord	-11.1967
▁lobby	-11.1967
▁melvin	-11.1967
▁nigga	-11.1967
▁offensive	-11.1967
▁oskar	-11.1967
▁phrase	-11.1967
▁prescription	-11.1967
▁sarris	-11.1967
▁sketch	-11.1967
▁southwest	-11.1967
▁struggling	-11.1967
▁sunrise	-11.1967
▁testimony	-11.1967
▁treasury	-11.1967
▁valjean	-11.1967
▁violin	-11.1967
▁woozle	-11.1967
▁casino	-11.1967
▁judging	-11.1967
▁prophet	-11.1967
▁stabbed	-11.1967
▁yield	-11.1967
▁lgby	-11.1967
▁michigan	-11.1967
▁transmission	-11.1967
▁claude	-11.1967
▁preston	-11.1967
▁transplant	-11.1967
▁basis	-11.1967
▁compound	-11.1967
▁microphone	-11.1967
▁butler	-11.1967
▁armstrong	-11.1967
▁twitter	-11.1967
▁grenade	-11.1967
▁chemistry	-11.1967
▁departure	-11.1967
▁software	-11.1967
▁asap	-11.1967
▁cramp	-11.1968
mon	-11.1968
▁ellen	-11.1968
▁serum	-11.1968
▁salmon	-11.1968
▁piggy	-11.1968
▁heap	-11.1968
▁void	-11.1968
▁genie	-11.1968
▁ferguson	-11.1968
▁rubber	-11.1968
▁marston	-11.1968
▁priority	-11.1968
▁leadership	-11.1968
▁dimension	-11.1969
▁ingram	-11.1969
▁malfunction	-11.1969
▁pender	-11.1969
▁beatrice	-11.1969
▁iong	-11.1969
▁monet	-11.1969
▁rico	-11.1969
▁batteries	-11.1969
▁reactor	-11.1969
▁minus	-11.197
▁keyboard	-11.197
▁arguing	-11.197
▁spacecom	-11.197
▁pbs	-11.197
▁sunny	-11.197
▁terrifying	-11.1971
▁dunno	-11.1971
▁dough	-11.1972
ford	-11.1972
▁fry	-11.1973
▁broom	-11.1973
▁sew	-11.1974
▁accomplished	-11.1974
▁sandwiches	-11.1974
▁doomed	-11.1975
eyed	-11.1975
▁clearance	-11.1975
▁driveway	-11.1975
▁constantly	-11.1976
▁clacking	-11.1976
fusion	-11.1976
▁exposed	-11.1977
▁organized	-11.1979
▁neighs	-11.1979
▁dld	-11.198
▁shattering	-11.198
▁wealthy	-11.1981
▁cycle	-11.1981
▁tighten	-11.1981
▁located	-11.1981
▁tapped	-11.1981
▁rushman	-11.1981
▁losses	-11.1983
▁seventh	-11.1983
▁coal	-11.1984
▁ciao	-11.1985
▁bums	-11.1988
▁conversations	-11.1989
▁react	-11.199
▁peak	-11.1991
▁discovery	-11.1991
▁disturbing	-11.1993
▁jesse	-11.1994
▁ahem	-11.1994
▁shithole	-11.1994
▁possessed	-11.1995
ised	-11.1996
▁reaches	-11.1998
▁forgiven	-11.2
▁endure	-11.2001
▁oughta	-11.2004
▁vari	-11.2008
▁toto	-11.2012
▁ivan	-11.2016
▁taller	-11.2016
cha	-11.2019
ea	-11.202
▁reb	-11.2021
▁cu	-11.2025
▁responding	-11.2027
▁crushing	-11.2031
▁poisoned	-11.2032
▁sinking	-11.2036
▁pouring	-11.2037
▁greetings	-11.2042
▁healing	-11.2043
▁han	-11.2043
zio	-11.2044
▁kindness	-11.2048
▁suggested	-11.2065
▁plumbers	-11.2066
▁rely	-11.2068
▁switched	-11.2071
▁mil	-11.2075
▁pockets	-11.2076
▁ross	-11.2083
▁tricked	-11.2089
ara	-11.2092
▁riot	-11.2095
▁switching	-11.2103
▁moi	-11.2113
▁charged	-11.2116
ates	-11.2118
▁remaining	-11.2119
ini	-11.2125
▁anti	-11.2125
▁beard	-11.2125
ologist	-11.2127
▁accounting	-11.2132
▁starks	-11.2132
▁regrets	-11.2138
ide	-11.2142
▁parked	-11.2143
▁hash	-11.2144
▁gu	-11.2155
▁stuffed	-11.2159
▁evolution	-11.216
▁as	-11.2168
▁vers	-11.2183
▁assassin	-11.2192
air	-11.22
▁breasts	-11.22
▁bonds	-11.2201
▁explosions	-11.221
▁pose	-11.2215
fall	-11.2233
▁usa	-11.2235
▁rivers	-11.2236
itt	-11.2238
▁doyles	-11.2241
▁cracks	-11.2243
▁jumping	-11.225
▁limits	-11.2251
▁womens	-11.2267
▁pegg	-11.2273
hala	-11.2282
▁engineers	-11.2284
▁dat	-11.2297
▁jewel	-11.2313
▁dancers	-11.2315
▁battles	-11.2323
▁include	-11.2326
▁flap	-11.2329
▁cheek	-11.2331
▁owes	-11.2331
▁brace	-11.2332
▁winds	-11.2336
▁sticks	-11.2336
▁politician	-11.2337
▁intention	-11.2338
▁feather	-11.2338
▁heffalump	-11.2339
▁element	-11.2339
▁tribute	-11.2339
▁balloon	-11.2342
▁decade	-11.2342
▁suggestion	-11.2342
▁dolphin	-11.2343
▁survivor	-11.2343
put	-11.2344
▁urge	-11.2346
▁allie	-11.2354
▁maya	-11.2355
▁toe	-11.2358
▁comic	-11.2364
▁caf	-11.237
▁robe	-11.2371
mi	-11.2379
▁hats	-11.24
▁bomber	-11.2413
▁nightmares	-11.2416
hard	-11.2417
▁citys	-11.2422
▁harvest	-11.2431
▁bulls	-11.2436
▁commission	-11.2436
▁tattoos	-11.244
ld	-11.2442
ably	-11.2442
▁grounds	-11.2443
▁disturb	-11.2446
▁haunt	-11.2448
▁mechanic	-11.2448
ney	-11.2458
▁delight	-11.2466
▁greet	-11.2467
▁distract	-11.2471
▁adopt	-11.2472
pitched	-11.2474
▁steer	-11.2475
▁seasons	-11.2479
▁compromise	-11.2482
▁constant	-11.2484
▁slight	-11.2484
▁teenage	-11.2488
▁lis	-11.2489
▁attic	-11.2489
▁branch	-11.249
▁wu	-11.249
pped	-11.249
▁prior	-11.2493
ction	-11.2493
▁interfere	-11.2493
▁absurd	-11.2494
▁altitude	-11.2494
▁asylum	-11.2494
▁capacity	-11.2494
▁cemetery	-11.2494
▁cleitus	-11.2494
▁conceal	-11.2494
▁conspiracy	-11.2494
▁detroit	-11.2494
▁evaluation	-11.2494
▁exploit	-11.2494
▁gipsy	-11.2494
▁goodfellowe	-11.2494
▁groceries	-11.2494
▁gupta	-11.2494
▁hallelujah	-11.2494
▁hemingway	-11.2494
▁hilarious	-11.2494
▁industries	-11.2494
▁javert	-11.2494
▁macleish	-11.2494
▁majesties	-11.2494
▁marvellous	-11.2494
▁medevac	-11.2494
▁naughton	-11.2494
▁nephew	-11.2494
▁nicholas	-11.2494
▁omega	-11.2494
▁penthouse	-11.2494
▁phony	-11.2494
▁racist	-11.2494
▁refrigerator	-11.2494
▁rehearsal	-11.2494
▁reliable	-11.2494
▁rhonda	-11.2494
▁shrimp	-11.2494
▁strategy	-11.2494
▁treason	-11.2494
▁vomit	-11.2494
▁zulu	-11.2494
▁payroll	-11.2494
▁scandal	-11.2494
▁waving	-11.2494
▁groove	-11.2494
▁leash	-11.2494
▁blanchard	-11.2494
▁pursue	-11.2494
▁certificate	-11.2494
▁pomatter	-11.2494
▁woogie	-11.2494
▁tiffany	-11.2494
▁zoil	-11.2494
▁beware	-11.2494
▁trophy	-11.2494
▁application	-11.2494
▁montana	-11.2494
▁dining	-11.2494
▁occurred	-11.2494
▁wray	-11.2494
▁compassion	-11.2494
▁choir	-11.2494
▁cheque	-11.2494
▁youii	-11.2494
▁reaiiy	-11.2494
▁pearce	-11.2494
▁subtle	-11.2494
▁denise	-11.2494
▁hamster	-11.2494
▁sector	-11.2494
▁edgar	-11.2494
▁assessment	-11.2494
▁barrett	-11.2494
▁disappointment	-11.2494
▁pond	-11.2494
▁chinatown	-11.2494
▁panties	-11.2494
▁egyptian	-11.2494
▁deepcore	-11.2494
▁disco	-11.2494
▁primary	-11.2495
▁subway	-11.2495
▁padre	-11.2495
▁sober	-11.2495
▁limo	-11.2495
▁tumor	-11.2495
▁daring	-11.2495
▁sentimental	-11.2495
▁whack	-11.2495
▁lras	-11.2496
▁objective	-11.2496
▁slightest	-11.2496
▁countries	-11.2496
▁shook	-11.2496
▁clayton	-11.2497
▁maddy	-11.2497
▁annette	-11.2497
▁vehicles	-11.2497
▁funky	-11.2498
▁shiny	-11.2498
▁dina	-11.2499
▁restore	-11.2499
▁marian	-11.2499
▁tries	-11.2501
▁rouge	-11.2501
▁wig	-11.2501
▁chen	-11.2501
▁spartan	-11.2501
▁dice	-11.2501
▁swamp	-11.2502
▁bouncing	-11.2502
▁films	-11.2503
▁sour	-11.2503
▁arch	-11.2503
▁estimated	-11.2504
▁midas	-11.2504
▁threatening	-11.2506
▁disturbed	-11.2514
▁booty	-11.2515
▁preacher	-11.2515
▁surrounding	-11.2516
▁unto	-11.2516
▁bates	-11.2517
▁backpack	-11.2518
▁sweetness	-11.2518
▁accused	-11.2519
▁winners	-11.2521
▁thrilled	-11.2523
▁solved	-11.2527
▁mustard	-11.2528
▁showtime	-11.2528
▁handling	-11.2529
▁ordering	-11.2531
▁recommended	-11.2533
▁bark	-11.2533
▁sequence	-11.2535
▁flowing	-11.2538
▁hamptons	-11.2539
▁swallowed	-11.254
▁prob	-11.254
▁sleeps	-11.2544
▁snorts	-11.2548
▁dialing	-11.2548
▁lair	-11.2549
▁reminder	-11.2549
▁wished	-11.2549
▁badass	-11.2549
▁ammi	-11.255
▁homes	-11.2552
▁mightve	-11.2552
▁oni	-11.2554
▁recognized	-11.2555
▁fame	-11.2555
▁cons	-11.2557
▁faithful	-11.2557
▁appeared	-11.2558
▁mule	-11.2562
▁container	-11.2571
▁bagels	-11.2572
▁wires	-11.2573
▁genes	-11.2578
▁lawn	-11.2581
▁smashing	-11.2581
▁rolls	-11.2583
▁dl	-11.2588
havin	-11.26
▁thread	-11.2601
▁designer	-11.2602
▁blocking	-11.2609
art	-11.2616
▁oooh	-11.2618
▁spreading	-11.2622
▁weirdo	-11.2634
▁mommys	-11.2634
▁stu	-11.2635
▁asks	-11.264
▁dealt	-11.2643
tell	-11.2647
▁cheeks	-11.2647
▁workin	-11.2655
▁mona	-11.2665
▁cue	-11.2676
are	-11.2681
▁teenagers	-11.269
▁handled	-11.2697
▁floors	-11.2697
ys	-11.2699
▁misses	-11.2702
ks	-11.2711
▁sur	-11.2714
▁communications	-11.2714
far	-11.2722
▁bab	-11.2722
▁tickle	-11.2724
▁mayo	-11.2728
▁pos	-11.2733
▁pats	-11.2737
▁sessions	-11.2739
▁benefits	-11.2748
▁carrie	-11.2759
ura	-11.2765
▁farmers	-11.2771
▁sid	-11.2776
▁rays	-11.2777
ists	-11.2781
▁towns	-11.2798
▁illness	-11.281
▁holidays	-11.2815
▁towels	-11.2815
▁freaks	-11.282
▁can	-11.2821
▁buckle	-11.2824
▁pap	-11.284
ito	-11.2844
▁ref	-11.2853
▁martini	-11.2856
zy	-11.2863
▁tons	-11.2866
▁bolt	-11.2872
▁sniff	-11.2872
▁cherevin	-11.2892
▁rhyme	-11.2893
▁reference	-11.2894
▁elbow	-11.2894
▁sailor	-11.2895
▁carrot	-11.2896
▁principle	-11.2897
▁pirate	-11.2898
▁knot	-11.29
about	-11.2901
▁jaw	-11.2901
▁turd	-11.2904
▁brandi	-11.292
▁ties	-11.2921
▁pope	-11.2922
mic	-11.2924
▁falcon	-11.2925
▁lung	-11.2931
▁efforts	-11.2934
▁ideal	-11.2943
shot	-11.2943
▁gr	-11.2949
▁decides	-11.2958
ef	-11.2959
fa	-11.2966
ole	-11.2969
▁fails	-11.2977
▁snipe	-11.2982
tte	-11.2996
▁cher	-11.3012
▁kara	-11.3017
▁scrub	-11.302
▁blush	-11.3021
▁meow	-11.3021
▁tink	-11.3025
▁iook	-11.3029
▁moore	-11.303
▁mug	-11.303
water	-11.3031
range	-11.3031
▁blend	-11.3031
▁flights	-11.3033
▁translate	-11.3035
▁google	-11.3035
reader	-11.3036
▁chunk	-11.3038
▁tug	-11.3039
▁collapse	-11.304
▁practical	-11.304
▁sparta	-11.3041
▁luis	-11.3045
▁pow	-11.3047
▁fabric	-11.3048
▁script	-11.3048
▁brazil	-11.3048
▁submit	-11.3048
▁triumph	-11.3049
▁otis	-11.3049
▁abbess	-11.3049
▁abraham	-11.3049
▁approval	-11.3049
▁bathtub	-11.3049
▁celebrity	-11.3049
▁cherokee	-11.3049
▁cincinnati	-11.3049
▁critter	-11.3049
▁darby	-11.3049
▁december	-11.3049
▁dennit	-11.3049
▁despair	-11.3049
▁dispute	-11.3049
▁fitzgerald	-11.3049
▁gittes	-11.3049
▁goddammit	-11.3049
▁harlem	-11.3049
▁hehhehheh	-11.3049
▁hmhmm	-11.3049
▁hogwarts	-11.3049
▁irrelevant	-11.3049
▁jonathan	-11.3049
▁longstreet	-11.3049
▁lounge	-11.3049
▁ludlow	-11.3049
▁maradona	-11.3049
▁mattress	-11.3049
▁metaphor	-11.3049
▁mulwray	-11.3049
▁novalee	-11.3049
▁october	-11.3049
▁oklahoma	-11.3049
▁perspective	-11.3049
▁shaving	-11.3049
▁shirley	-11.3049
▁significant	-11.3049
▁slannen	-11.3049
▁spectacular	-11.3049
▁sylvia	-11.3049
▁unfair	-11.3049
▁wabac	-11.3049
▁wolverton	-11.3049
▁canvas	-11.3049
▁canyon	-11.3049
▁lambert	-11.3049
▁neighbourhood	-11.3049
▁wolfwalker	-11.3049
▁cnn	-11.3049
▁fender	-11.3049
▁gossip	-11.3049
▁presume	-11.3049
▁transaction	-11.3049
▁bikini	-11.3049
▁stubborn	-11.3049
▁graysmith	-11.3049
▁picnic	-11.3049
▁whitney	-11.3049
▁resent	-11.3049
▁helpmann	-11.3049
▁hawkins	-11.3049
▁corporation	-11.3049
▁geneva	-11.3049
▁babbling	-11.3049
▁chores	-11.3049
▁infirmary	-11.3049
▁sheik	-11.3049
▁gavin	-11.3049
▁behold	-11.3049
▁minivan	-11.3049
▁creating	-11.3049
▁mellow	-11.3049
▁onboard	-11.305
▁spinning	-11.305
▁sameer	-11.305
▁wimp	-11.305
▁booze	-11.305
▁masterpiece	-11.305
▁sniffling	-11.305
▁titty	-11.305
▁dislike	-11.305
▁waking	-11.3051
▁cooperation	-11.3051
▁forehead	-11.3051
▁intellectual	-11.3051
▁brax	-11.3051
▁shrieking	-11.3051
▁mitch	-11.3051
▁haircut	-11.3052
▁guten	-11.3052
▁petty	-11.3052
▁gps	-11.3053
▁pipeline	-11.3053
▁royalty	-11.3053
▁shep	-11.3054
▁rack	-11.3054
▁rally	-11.3055
▁mason	-11.3055
▁yoga	-11.3056
▁valor	-11.3056
▁gl	-11.3056
▁clanking	-11.3056
▁recommendation	-11.3057
▁echoes	-11.3057
▁melman	-11.3059
▁rash	-11.3059
▁wooden	-11.306
▁registered	-11.3061
▁yyou	-11.3063
▁hamburger	-11.3063
free	-11.3063
▁metro	-11.3065
ire	-11.3066
dr	-11.3067
▁rv	-11.3068
▁mansion	-11.3068
▁approved	-11.3068
▁tenth	-11.3069
▁mold	-11.307
▁faintly	-11.307
▁sang	-11.3071
▁offended	-11.3072
▁crooked	-11.3073
▁emotionally	-11.3074
▁sickness	-11.3074
▁uses	-11.3074
▁babylon	-11.3075
▁divided	-11.3076
▁jen	-11.3076
▁ia	-11.3078
▁awe	-11.308
▁hiya	-11.308
▁rae	-11.3084
▁flor	-11.3085
▁described	-11.3086
▁frightening	-11.3087
▁informed	-11.3089
▁handcuffs	-11.3089
▁cates	-11.3091
▁intended	-11.3091
ung	-11.3094
▁rhodes	-11.3097
▁chairs	-11.3099
▁characters	-11.3102
▁junkie	-11.3102
▁cargo	-11.3102
▁sweetest	-11.3104
▁pige	-11.3104
ko	-11.3107
▁yale	-11.3109
▁consult	-11.311
▁defeated	-11.3112
iate	-11.3112
▁freaky	-11.3116
▁spying	-11.3116
▁pt	-11.3121
▁shithead	-11.3122
▁correctly	-11.3122
▁cocking	-11.3127
▁sting	-11.313
▁shatters	-11.3133
fire	-11.3135
▁borrowed	-11.3138
▁squared	-11.3139
▁wheeler	-11.314
mm	-11.3152
▁defending	-11.3154
▁crackers	-11.3156
▁bent	-11.3157
▁martians	-11.3168
▁norm	-11.3168
▁wel	-11.3169
▁shorter	-11.3169
▁vest	-11.3173
▁curl	-11.3173
▁def	-11.3174
▁maine	-11.3175
▁ruining	-11.3179
▁traveled	-11.3188
▁mes	-11.319
▁entering	-11.3192
▁organ	-11.3197
ode	-11.3202
▁knots	-11.3203
▁scarf	-11.3206
▁foryou	-11.3209
▁hay	-11.3213
▁tore	-11.3216
▁covers	-11.3216
▁buttons	-11.3218
▁tested	-11.3226
▁instincts	-11.323
▁mor	-11.3231
▁seeking	-11.3233
▁my	-11.3235
▁satellites	-11.3236
▁pods	-11.3238
▁believes	-11.3239
▁cousins	-11.3243
▁zombies	-11.3265
▁testing	-11.3282
▁tut	-11.3284
▁ove	-11.3286
▁sucking	-11.3288
aries	-11.3292
▁childs	-11.3294
▁os	-11.3296
▁trans	-11.33
▁bats	-11.3309
▁preserve	-11.3312
zed	-11.3329
ancy	-11.3331
▁blur	-11.3348
▁farts	-11.3352
▁laughed	-11.3359
his	-11.3361
▁wee	-11.3363
▁strangle	-11.3363
▁pur	-11.3365
▁dudes	-11.3371
▁photographs	-11.339
▁nash	-11.3402
▁nails	-11.3409
▁ops	-11.3411
▁relationships	-11.3417
▁romans	-11.3417
▁rad	-11.3418
▁congratulate	-11.3424
▁stinks	-11.3426
▁relaxed	-11.343
lam	-11.3432
▁bridget	-11.3433
▁anyways	-11.3433
▁regard	-11.3435
nto	-11.3435
▁auctione	-11.3451
lar	-11.3466
▁trainer	-11.3467
▁explode	-11.3468
ement	-11.3471
ame	-11.3474
▁pyramid	-11.3481
gh	-11.3481
▁brigade	-11.3482
▁reservation	-11.3482
▁nazi	-11.3484
▁method	-11.3484
▁curtain	-11.3484
▁colleague	-11.3485
▁sponsor	-11.3485
▁associate	-11.3486
▁resume	-11.3486
▁civilian	-11.3487
▁passenger	-11.3488
▁glove	-11.3488
▁sock	-11.3489
▁bore	-11.3491
▁od	-11.3491
lier	-11.3494
▁scam	-11.3495
▁tube	-11.3499
▁shack	-11.3502
▁pops	-11.3509
▁handy	-11.351
▁covering	-11.3512
▁historic	-11.3521
▁tia	-11.3521
▁remembering	-11.3526
eat	-11.3528
low	-11.3536
▁ahhh	-11.3541
▁objects	-11.3542
▁offers	-11.3545
▁oc	-11.355
av	-11.3553
ions	-11.3556
gs	-11.3558
▁accus	-11.3564
called	-11.3569
▁mamas	-11.3569
▁shares	-11.3571
▁reads	-11.3574
▁bun	-11.3577
▁jeans	-11.3579
▁embarrass	-11.359
▁here	-11.359
▁neur	-11.3599
▁beck	-11.3609
▁crunch	-11.361
yearold	-11.3617
▁groom	-11.3618
girl	-11.362
▁javi	-11.3621
▁saddle	-11.3623
ker	-11.3624
▁silen	-11.3624
▁evacuate	-11.3625
▁locate	-11.3626
▁morris	-11.363
▁tornado	-11.3634
▁lauren	-11.3635
▁starve	-11.3636
▁makin	-11.3636
▁infant	-11.3636
responsibilities	-11.3637
▁activities	-11.3637
▁advisor	-11.3637
▁allegra	-11.3637
▁analysis	-11.3637
▁atlanta	-11.3637
▁carnival	-11.3637
▁cereal	-11.3637
▁cipher	-11.3637
▁concrete	-11.3637
▁contrary	-11.3637
▁darren	-11.3637
▁darwin	-11.3637
▁discreet	-11.3637
▁fernando	-11.3637
▁gasoline	-11.3637
▁glimpse	-11.3637
▁hillbilly	-11.3637
▁hurricane	-11.3637
▁ieave	-11.3637
▁introduction	-11.3637
▁jocelyn	-11.3637
▁kraken	-11.3637
▁loneliness	-11.3637
▁lyrics	-11.3637
▁mccann	-11.3637
▁napoleon	-11.3637
▁nowadays	-11.3637
▁obannon	-11.3637
▁peculiar	-11.3637
▁peopie	-11.3637
▁psychiatrist	-11.3637
▁rathbone	-11.3637
▁rhesus	-11.3637
▁saloon	-11.3637
▁sarnt	-11.3637
▁savior	-11.3637
▁scientific	-11.3637
▁shepherd	-11.3637
▁shouid	-11.3637
▁storage	-11.3637
▁syndicate	-11.3637
▁tactical	-11.3637
▁temperature	-11.3637
▁theatre	-11.3637
▁thirteen	-11.3637
▁toschi	-11.3637
▁ufo	-11.3637
▁yknow	-11.3637
▁cultural	-11.3637
▁importance	-11.3637
▁intimate	-11.3637
▁jammed	-11.3637
▁jinx	-11.3637
▁memoirs	-11.3637
▁promising	-11.3637
▁stefan	-11.3637
▁stray	-11.3637
▁charging	-11.3637
▁scoot	-11.3637
▁jasper	-11.3637
▁gracious	-11.3637
▁gravity	-11.3637
▁conclusion	-11.3637
▁kragen	-11.3637
▁womb	-11.3637
▁biological	-11.3637
▁rouran	-11.3637
▁independence	-11.3637
▁stewart	-11.3637
▁vermont	-11.3637
▁gretta	-11.3637
▁yummy	-11.3637
▁merk	-11.3637
▁whatwhat	-11.3638
▁lipstick	-11.3638
▁economic	-11.3638
▁parlor	-11.3638
▁tuttle	-11.3638
▁nanny	-11.3638
▁pascal	-11.3638
▁crane	-11.3638
▁clich	-11.3638
▁chronicle	-11.3638
▁eliot	-11.3638
▁maximum	-11.3638
▁repay	-11.3638
▁driss	-11.3638
▁magnet	-11.3638
▁thethe	-11.3638
▁interference	-11.3638
▁jammer	-11.3638
▁bertie	-11.3638
▁establishment	-11.3638
▁ruddy	-11.3638
▁hls	-11.3639
▁hardware	-11.3639
▁griffin	-11.3639
▁corruption	-11.3639
▁overwhelmed	-11.3639
▁partnership	-11.364
▁feedback	-11.364
▁spitting	-11.364
▁deput	-11.364
terior	-11.364
▁bracelet	-11.364
▁exile	-11.364
▁logan	-11.3641
lc	-11.3641
▁promoted	-11.3643
▁bobbi	-11.3643
▁doggy	-11.3644
▁lamp	-11.3644
▁logical	-11.3644
▁spicy	-11.3645
stand	-11.3646
▁signora	-11.3646
▁pluck	-11.3646
▁elf	-11.3647
▁rue	-11.3648
▁vanished	-11.3648
▁scattered	-11.3648
▁bushes	-11.3648
▁bravery	-11.3648
▁hippy	-11.3649
▁mice	-11.3649
▁identified	-11.3649
▁hunk	-11.3649
▁protective	-11.3649
▁hong	-11.3649
▁housekeeper	-11.365
▁african	-11.365
▁presentation	-11.365
▁respectable	-11.3654
▁lime	-11.3654
▁itit	-11.3656
▁javier	-11.3656
▁lexi	-11.3657
▁activated	-11.3657
▁everyday	-11.3657
▁honorable	-11.3659
▁cooing	-11.366
▁boiler	-11.3662
▁disappointing	-11.3663
▁established	-11.3664
▁larger	-11.3668
▁breeding	-11.3669
▁tortured	-11.3676
▁freakin	-11.3678
▁attach	-11.3678
▁madman	-11.3679
▁euros	-11.3679
▁ink	-11.368
▁sailing	-11.3682
table	-11.3682
▁guaranteed	-11.3685
▁bumped	-11.3688
jack	-11.3688
▁nailed	-11.3689
six	-11.3693
ight	-11.3697
▁insisted	-11.3701
lis	-11.3702
▁booing	-11.3704
▁presidents	-11.371
▁gown	-11.3715
think	-11.3715
▁sie	-11.3716
▁prey	-11.3717
nic	-11.3724
▁boney	-11.3724
▁talented	-11.3724
▁gale	-11.3732
▁bein	-11.3735
▁veins	-11.3735
▁warmer	-11.3738
ude	-11.3738
▁babo	-11.3741
▁stoney	-11.3743
▁var	-11.3749
▁stead	-11.3754
▁ruled	-11.3755
▁missions	-11.3759
▁lifted	-11.3759
▁bern	-11.3767
▁snape	-11.3767
▁posted	-11.3768
▁hostages	-11.3773
ave	-11.3782
▁reminded	-11.3782
▁onions	-11.3783
▁deaths	-11.3783
▁mags	-11.3783
▁kneel	-11.3785
▁associates	-11.3792
▁projects	-11.3793
▁aka	-11.3795
▁io	-11.3797
▁balloons	-11.381
▁intentions	-11.381
▁jackal	-11.3814
pping	-11.3817
▁bowling	-11.3818
▁doughnuts	-11.382
▁lao	-11.3823
night	-11.3826
▁fare	-11.3837
▁morale	-11.384
▁follows	-11.3845
▁drums	-11.3846
who	-11.3847
▁after	-11.3854
▁hmmm	-11.3871
▁peep	-11.3882
▁pd	-11.3884
hen	-11.3887
▁nicolas	-11.3894
▁shu	-11.3896
▁mag	-11.3905
▁smiles	-11.3919
ky	-11.3923
▁damon	-11.3929
▁clubs	-11.3929
heads	-11.394
▁rod	-11.3942
▁tops	-11.3947
▁flee	-11.396
rick	-11.3963
▁crowded	-11.3966
▁sams	-11.3972
ola	-11.3979
▁dozens	-11.398
▁marines	-11.3981
bit	-11.3983
▁commands	-11.3987
▁scars	-11.3987
ado	-11.399
fully	-11.3992
▁fre	-11.4006
▁champions	-11.401
old	-11.4021
rum	-11.4023
▁dada	-11.4031
ili	-11.4036
ont	-11.4037
▁tales	-11.404
▁explains	-11.405
▁nate	-11.4053
bin	-11.4081
▁sources	-11.4085
▁needles	-11.409
ast	-11.4092
▁wit	-11.4094
▁singers	-11.41
tion	-11.4104
▁ogres	-11.4105
▁token	-11.4105
▁adventures	-11.4106
▁cigar	-11.4106
▁gott	-11.4107
▁exam	-11.4111
▁ven	-11.4113
▁onion	-11.4116
▁tourist	-11.4118
▁jan	-11.412
▁fri	-11.4124
▁missile	-11.4125
▁wei	-11.4126
▁af	-11.4137
▁wr	-11.414
▁hitch	-11.4142
orr	-11.4144
▁images	-11.4146
ach	-11.4156
etic	-11.4159
▁visions	-11.4161
▁meals	-11.4162
▁trips	-11.4163
▁spits	-11.4172
▁frau	-11.4178
▁chambers	-11.4182
▁outsider	-11.4196
rice	-11.4209
▁disappoint	-11.4215
▁surround	-11.4215
▁col	-11.422
▁magazines	-11.422
tre	-11.4224
▁appointments	-11.4229
▁das	-11.4232
school	-11.4233
▁gag	-11.4233
▁bluff	-11.4235
▁murmur	-11.4236
place	-11.4236
▁preach	-11.4237
ift	-11.4239
▁trump	-11.4239
▁disconnect	-11.4241
▁conquer	-11.4244
fried	-11.4245
burn	-11.4245
nahnahnah	-11.4247
▁involve	-11.4248
▁compare	-11.4249
▁resolve	-11.4249
van	-11.425
▁cells	-11.425
▁numb	-11.4251
▁passionate	-11.4254
▁improve	-11.4257
cott	-11.4259
▁heii	-11.426
▁livin	-11.426
▁convent	-11.4262
▁hobby	-11.4262
▁straw	-11.4262
▁thug	-11.4262
▁algorithm	-11.4262
▁alliance	-11.4262
▁ancestors	-11.4262
▁artillery	-11.4262
▁britney	-11.4262
▁catastrophe	-11.4262
▁cellular	-11.4262
▁compartment	-11.4262
▁cottage	-11.4262
▁cynthia	-11.4262
▁damien	-11.4262
▁database	-11.4262
▁discretion	-11.4262
▁garabedian	-11.4262
▁gibberish	-11.4262
▁girard	-11.4262
▁giulia	-11.4262
▁huddle	-11.4262
▁hyperion	-11.4262
▁ignition	-11.4262
▁injury	-11.4262
▁intact	-11.4262
▁interrogation	-11.4262
▁jeanbaptiste	-11.4262
▁juilliard	-11.4262
▁juvenile	-11.4262
▁kirby	-11.4262
▁kumandra	-11.4262
▁linderman	-11.4262
▁marilyn	-11.4262
▁mathesar	-11.4262
▁moonquake	-11.4262
▁muslim	-11.4262
▁nathaniel	-11.4262
▁occupied	-11.4262
▁outlaw	-11.4262
▁parmenion	-11.4262
▁precedent	-11.4262
▁primitive	-11.4262
▁restricted	-11.4262
▁retrieval	-11.4262
▁reunion	-11.4262
▁schmidt	-11.4262
▁schuyler	-11.4262
▁scusa	-11.4262
▁seatbelt	-11.4262
▁separation	-11.4262
▁shaughnessy	-11.4262
▁spaghetti	-11.4262
▁acquaintance	-11.4262
▁bueno	-11.4262
▁exotic	-11.4262
▁forcing	-11.4262
▁magua	-11.4262
▁physics	-11.4262
▁ratchet	-11.4262
▁convey	-11.4262
▁restrain	-11.4262
▁ringtone	-11.4262
▁elvis	-11.4262
▁plummer	-11.4262
▁hollow	-11.4262
▁lulu	-11.4262
▁bessner	-11.4262
▁courtesy	-11.4262
▁ensure	-11.4262
▁statute	-11.4262
▁chromium	-11.4262
▁duncan	-11.4262
▁tummy	-11.4262
▁kilometers	-11.4262
▁tennis	-11.4262
▁whew	-11.4262
▁operative	-11.4262
▁hinkley	-11.4262
▁referring	-11.4262
▁drool	-11.4263
▁boogie	-11.4263
▁laptop	-11.4263
▁scumbag	-11.4263
▁reset	-11.4263
▁defence	-11.4263
▁ollie	-11.4263
▁hiphop	-11.4263
▁kmart	-11.4263
▁curtis	-11.4263
▁brett	-11.4263
▁edition	-11.4263
▁polish	-11.4263
▁meade	-11.4263
▁martel	-11.4263
▁abide	-11.4263
▁optimus	-11.4263
▁medium	-11.4263
▁pumpkin	-11.4263
▁uber	-11.4263
▁theories	-11.4263
▁blares	-11.4263
▁totem	-11.4263
▁liking	-11.4263
▁granddad	-11.4263
▁infantry	-11.4263
▁revelation	-11.4263
▁curve	-11.4263
▁resistance	-11.4263
▁marino	-11.4263
▁attendant	-11.4263
▁retail	-11.4263
▁diversion	-11.4263
▁handshake	-11.4264
▁denial	-11.4264
▁tyler	-11.4264
▁rewind	-11.4264
▁stove	-11.4264
▁keri	-11.4264
▁kiah	-11.4264
nnoy	-11.4264
▁iove	-11.4264
▁fluffy	-11.4264
▁unload	-11.4264
▁chatting	-11.4264
▁elwood	-11.4264
▁outnumbered	-11.4264
▁commend	-11.4265
▁pact	-11.4265
▁gangster	-11.4265
▁crackles	-11.4265
▁litter	-11.4265
▁woz	-11.4265
▁civilized	-11.4265
▁shelf	-11.4265
▁deke	-11.4266
▁lockwood	-11.4267
▁yuck	-11.4267
▁patty	-11.4267
▁blousey	-11.4267
▁admitted	-11.4267
▁tsk	-11.4267
▁notify	-11.4267
▁fireplace	-11.4268
▁nina	-11.4268
▁meteorite	-11.4268
▁chittering	-11.4268
▁depressing	-11.4268
▁jax	-11.4269
▁rover	-11.4269
▁effie	-11.4269
▁snapped	-11.427
▁lynn	-11.4271
▁delightful	-11.4273
faced	-11.4274
▁puffy	-11.4276
▁drunken	-11.4277
▁greedy	-11.4277
▁nahnahnah	-11.4278
▁wln	-11.4278
▁betting	-11.4278
▁fearless	-11.4278
▁stammering	-11.4279
▁maple	-11.428
▁rapidly	-11.428
▁toot	-11.428
▁whining	-11.428
▁pinch	-11.4285
▁bumper	-11.4287
▁flaming	-11.4288
▁slaughtered	-11.4288
▁carver	-11.429
▁vent	-11.429
light	-11.4291
▁melted	-11.4292
▁poly	-11.4293
▁ember	-11.4293
▁lethal	-11.4294
▁righteous	-11.4294
how	-11.4294
tie	-11.4297
pensive	-11.4298
▁sweaty	-11.4298
▁spoiled	-11.43
▁weeping	-11.4302
▁pickup	-11.4305
▁andie	-11.4306
▁lever	-11.4309
▁undo	-11.4309
▁printed	-11.431
▁dea	-11.4311
▁at	-11.4315
▁ramses	-11.4317
▁stressed	-11.4317
▁wiped	-11.4317
gging	-11.4322
wn	-11.4325
▁sod	-11.4326
▁demanding	-11.4326
▁purr	-11.433
▁weakly	-11.4331
▁dent	-11.4335
▁yelled	-11.4338
▁utter	-11.4339
▁ban	-11.4339
▁drilling	-11.434
▁pine	-11.4343
▁smashed	-11.4344
▁factor	-11.4346
▁collecting	-11.4347
▁lobo	-11.4348
▁entr	-11.4349
▁psych	-11.435
▁sacrificed	-11.4351
▁attempted	-11.4356
grade	-11.4362
▁failing	-11.4364
▁vegetables	-11.4367
▁tlg	-11.4368
▁newton	-11.4368
▁kali	-11.437
fl	-11.4371
▁shitting	-11.4371
▁tighter	-11.4372
▁sadly	-11.4375
▁casting	-11.4378
▁whee	-11.4379
▁exceptional	-11.4385
▁musicians	-11.4387
▁suspected	-11.439
▁cru	-11.4394
▁recorder	-11.4406
talk	-11.4413
nning	-11.4416
▁gangs	-11.4424
▁civilians	-11.4427
▁principles	-11.4437
▁belonged	-11.4437
▁barks	-11.4446
can	-11.4446
▁decades	-11.4447
▁formed	-11.4449
▁ri	-11.4449
▁lai	-11.445
▁thumbs	-11.4457
▁generally	-11.4457
▁vine	-11.4461
▁caring	-11.4465
▁smiled	-11.447
▁watches	-11.447
ush	-11.4471
▁supporting	-11.4472
▁ally	-11.4479
▁walker	-11.4483
▁pressed	-11.4493
▁bricks	-11.4497
take	-11.4504
▁ve	-11.4504
▁corpses	-11.4507
▁guessing	-11.4517
▁patterns	-11.4517
▁fooled	-11.4519
▁dom	-11.4522
▁circles	-11.4522
zing	-11.4522
▁ohio	-11.4524
cut	-11.4539
▁wishing	-11.4553
▁signor	-11.4554
▁crop	-11.456
▁evans	-11.4569
▁swans	-11.4574
▁resting	-11.4589
▁pla	-11.459
▁topic	-11.4597
▁condo	-11.46
▁feared	-11.4635
mans	-11.4645
▁vows	-11.4649
▁fatal	-11.465
▁greeks	-11.4659
▁cho	-11.4664
nes	-11.4676
lieb	-11.4677
▁sweep	-11.4687
▁parish	-11.4709
▁you	-11.4713
will	-11.472
▁grandmothers	-11.472
▁domin	-11.4724
▁sleepy	-11.4728
▁apples	-11.4743
har	-11.4748
▁askin	-11.4751
zo	-11.4753
▁cough	-11.4755
▁dicks	-11.4757
▁stack	-11.476
▁germans	-11.477
▁sorrow	-11.4771
▁sentences	-11.4771
▁patriot	-11.4774
▁mortar	-11.4774
▁mutant	-11.4775
▁cadet	-11.4776
▁umm	-11.4777
▁hostage	-11.4779
▁pillar	-11.4779
▁bernst	-11.4781
▁risks	-11.4783
▁finishing	-11.4784
▁freed	-11.4785
▁nickel	-11.4788
lets	-11.4796
py	-11.4797
▁ph	-11.4798
ically	-11.4805
▁server	-11.481
any	-11.4816
dra	-11.482
▁experts	-11.4823
▁ladys	-11.4827
▁tack	-11.4827
arve	-11.4845
▁thrust	-11.485
arm	-11.485
▁dos	-11.4853
ional	-11.4857
▁boil	-11.4876
whipped	-11.4877
▁vin	-11.4878
▁sixty	-11.488
▁grill	-11.488
fish	-11.4882
▁kiii	-11.4885
▁mont	-11.4885
▁dash	-11.4885
▁thump	-11.4893
▁profession	-11.4896
▁shush	-11.49
▁audit	-11.49
▁corrupt	-11.4906
walk	-11.4906
▁succeed	-11.4908
▁imprint	-11.4908
▁homo	-11.4908
three	-11.4911
blood	-11.4912
▁taik	-11.4914
▁tolerate	-11.4915
▁lodge	-11.4915
▁clues	-11.4915
▁puke	-11.4916
▁estimate	-11.4916
▁organize	-11.4916
▁harp	-11.4918
▁trim	-11.4919
▁fierce	-11.492
▁miraculous	-11.492
boat	-11.4922
▁glen	-11.4925
▁solar	-11.4925
▁sept	-11.4927
▁psychopath	-11.4927
▁givin	-11.4927
▁leavin	-11.4927
▁conscious	-11.4928
▁disrespect	-11.4928
ization	-11.4928
▁confidential	-11.4929
▁aggravat	-11.4929
▁numero	-11.4929
▁accurate	-11.4929
▁achilles	-11.4929
▁allegations	-11.4929
▁anyhow	-11.4929
▁arcamax	-11.4929
▁arrogant	-11.4929
▁baltimore	-11.4929
▁barclay	-11.4929
▁barracks	-11.4929
▁bartender	-11.4929
▁behaviour	-11.4929
▁beresford	-11.4929
▁bohme	-11.4929
▁bollocks	-11.4929
▁branson	-11.4929
▁britain	-11.4929
▁bypass	-11.4929
▁choosing	-11.4929
▁chrisann	-11.4929
▁cleveland	-11.4929
▁convenient	-11.4929
▁cripple	-11.4929
▁crucial	-11.4929
▁crucified	-11.4929
▁cyrus	-11.4929
▁declaration	-11.4929
▁dillon	-11.4929
▁dumbledore	-11.4929
▁enterprise	-11.4929
▁evergreen	-11.4929
▁exposure	-11.4929
▁garcia	-11.4929
▁greasy	-11.4929
▁gryffindor	-11.4929
▁gypsy	-11.4929
▁hawaii	-11.4929
▁identical	-11.4929
▁ignoring	-11.4929
▁innocence	-11.4929
▁jerusalem	-11.4929
▁joan	-11.4929
▁lafayette	-11.4929
▁lawrence	-11.4929
▁merchant	-11.4929
▁metropolis	-11.4929
▁moscow	-11.4929
▁munchausen	-11.4929
▁murray	-11.4929
▁negotiator	-11.4929
▁offshore	-11.4929
▁oracle	-11.4929
▁overlapping	-11.4929
▁peyton	-11.4929
▁picasso	-11.4929
▁possibilities	-11.4929
▁precinct	-11.4929
▁reynolds	-11.4929
▁scoop	-11.4929
▁scope	-11.4929
▁shanghai	-11.4929
▁telescope	-11.4929
▁thieves	-11.4929
▁thomson	-11.4929
▁thrace	-11.4929
▁trembling	-11.4929
▁unnecessary	-11.4929
▁vaughn	-11.4929
▁wardrobe	-11.4929
▁yoohoo	-11.4929
▁arius	-11.4929
▁atlas	-11.4929
▁domain	-11.4929
▁gesture	-11.4929
▁hlm	-11.4929
▁jeannie	-11.4929
▁trilling	-11.4929
▁weyland	-11.4929
▁casper	-11.4929
▁griffith	-11.4929
▁parasite	-11.4929
▁whatsoever	-11.4929
▁mathias	-11.4929
▁douglas	-11.4929
▁ransom	-11.4929
▁sydney	-11.4929
▁varinia	-11.4929
▁schmuck	-11.4929
▁shimmer	-11.4929
▁otterbourne	-11.4929
▁berthold	-11.4929
▁bliss	-11.4929
▁tyranny	-11.4929
▁beacon	-11.4929
▁bureau	-11.4929
▁swore	-11.4929
▁vienna	-11.4929
▁morgue	-11.4929
▁billionaire	-11.4929
▁illusion	-11.4929
▁cletus	-11.4929
▁psychologist	-11.4929
▁cheeseburger	-11.4929
▁draco	-11.4929
▁investigating	-11.4929
▁underworld	-11.4929
▁contamination	-11.4929
▁proposition	-11.4929
▁josie	-11.4929
▁crateros	-11.4929
▁mwah	-11.4929
▁casualties	-11.4929
▁enforcement	-11.4929
▁agnes	-11.4929
▁leslie	-11.4929
▁vocal	-11.4929
▁boolie	-11.4929
▁panicked	-11.4929
▁mcara	-11.4929
▁yonas	-11.4929
▁flare	-11.4929
▁recess	-11.4929
▁depression	-11.4929
▁rooster	-11.4929
▁shboom	-11.4929
▁lemonade	-11.4929
▁lilli	-11.4929
▁watts	-11.4929
▁hoghead	-11.4929
▁comedian	-11.493
▁hereby	-11.493
▁hollis	-11.493
▁falk	-11.493
▁elementary	-11.493
▁trading	-11.493
▁crab	-11.493
▁republican	-11.493
▁heir	-11.493
▁dork	-11.493
▁racket	-11.493
▁toad	-11.493
▁regardless	-11.493
▁sixsmith	-11.493
▁pregnancy	-11.493
▁bummer	-11.493
▁mailbox	-11.493
▁chugga	-11.493
▁attraction	-11.493
▁ripley	-11.493
▁conley	-11.493
▁bounty	-11.4931
▁orphanage	-11.4931
▁goldfish	-11.4931
▁oleg	-11.4931
▁lassie	-11.4931
▁raspberry	-11.4931
▁sufficient	-11.4931
▁fungus	-11.4931
▁callahan	-11.4931
▁allah	-11.4931
▁torch	-11.4931
▁tomatoes	-11.4931
▁revolutionary	-11.4931
▁makebelieve	-11.4932
▁chump	-11.4932
▁undone	-11.4932
▁persian	-11.4932
▁abducted	-11.4933
▁isolated	-11.4933
▁invention	-11.4933
▁teammate	-11.4933
▁sheiiy	-11.4933
▁canal	-11.4933
▁ballroom	-11.4934
▁riverside	-11.4934
▁merciful	-11.4935
▁disk	-11.4936
▁lords	-11.4936
▁moss	-11.4937
▁imma	-11.4937
▁lordship	-11.4937
▁hart	-11.4938
▁vain	-11.4938
▁aww	-11.4939
▁tong	-11.4939
▁reduced	-11.4942
▁approaches	-11.4942
▁cellar	-11.4942
▁hideous	-11.4943
▁countless	-11.4943
▁compared	-11.4943
▁amp	-11.4944
▁payback	-11.4944
▁recovery	-11.4944
▁suitable	-11.4944
▁sonmi	-11.4945
▁fuckedup	-11.4945
cent	-11.4945
▁comp	-11.4945
▁attracted	-11.4945
▁reply	-11.4946
▁freshman	-11.4948
▁operational	-11.4948
▁detected	-11.4948
ese	-11.4949
▁verse	-11.4949
▁web	-11.495
▁hubba	-11.4951
▁switches	-11.4952
▁dod	-11.4955
▁visits	-11.4956
▁framed	-11.4958
▁scooby	-11.4958
around	-11.496
▁chaser	-11.4961
▁joel	-11.4966
▁jewelry	-11.4966
▁dontdont	-11.4967
▁scraping	-11.4968
▁sights	-11.4971
▁leaking	-11.4976
▁delayed	-11.4977
▁originally	-11.4977
▁assured	-11.4977
▁fran	-11.4978
▁cheaper	-11.498
▁dep	-11.4981
▁noone	-11.4982
▁pastor	-11.4983
▁coo	-11.4983
▁legally	-11.4985
▁breakup	-11.4985
▁grasshoppers	-11.4988
▁refer	-11.4989
▁claimed	-11.4992
▁baker	-11.4992
▁issued	-11.4993
lie	-11.4994
▁rescued	-11.4996
▁crumble	-11.4996
▁commanders	-11.4998
▁darts	-11.4998
▁guineas	-11.4998
mil	-11.4999
▁performing	-11.4999
▁treats	-11.5008
▁macho	-11.501
▁harvester	-11.501
uh	-11.5011
▁nno	-11.5014
▁bandit	-11.5016
▁traded	-11.5017
▁dolly	-11.5018
▁risky	-11.502
▁hunted	-11.5023
▁rollin	-11.5025
▁erase	-11.503
▁expenses	-11.503
▁chaps	-11.5031
▁planted	-11.5032
ical	-11.5034
ening	-11.5038
▁buster	-11.5041
▁carlin	-11.5049
life	-11.505
▁subjects	-11.505
▁blamed	-11.5053
▁charts	-11.5053
ral	-11.5055
▁singin	-11.5058
▁bel	-11.5072
pl	-11.5073
▁sundays	-11.5082
▁proved	-11.5082
▁smoked	-11.5084
ala	-11.5085
▁missus	-11.5085
▁remained	-11.5086
▁nora	-11.5086
▁warner	-11.5091
unch	-11.5095
▁tearing	-11.5098
▁jt	-11.5103
▁pissing	-11.5104
▁nicest	-11.5105
▁cooked	-11.5106
▁bb	-11.5107
▁bothered	-11.5108
ull	-11.5108
▁cans	-11.5115
▁stocks	-11.5121
ean	-11.5122
▁dish	-11.5126
▁repeating	-11.5127
▁lone	-11.5136
▁awaits	-11.5137
▁burgers	-11.5148
▁townie	-11.515
come	-11.5153
stick	-11.5157
▁stat	-11.5158
▁headaches	-11.5181
uk	-11.5183
▁spots	-11.519
▁locals	-11.5197
▁wang	-11.5197
▁conditions	-11.5201
▁hog	-11.5201
▁dated	-11.5203
▁squ	-11.5204
▁kl	-11.5211
▁peas	-11.5216
▁pad	-11.5221
▁assess	-11.5225
ano	-11.5226
ital	-11.5235
▁unreal	-11.5235
▁lightly	-11.524
key	-11.5241
hold	-11.5244
tag	-11.5245
▁roommates	-11.5246
▁clocks	-11.5246
▁daniels	-11.5247
▁amor	-11.5256
▁demonstrate	-11.5258
▁handed	-11.5264
bag	-11.5269
▁elses	-11.5299
ik	-11.5301
▁peanuts	-11.5306
▁triple	-11.5309
▁chit	-11.5317
▁cub	-11.5322
▁idol	-11.5322
▁fiance	-11.5343
▁deed	-11.5349
ppy	-11.535
ku	-11.5358
▁sorts	-11.5371
▁trusting	-11.538
▁sm	-11.5386
iang	-11.5388
▁virgins	-11.5399
▁pointing	-11.5399
▁naive	-11.54
▁videos	-11.5409
▁funds	-11.5411
▁sto	-11.5421
▁sole	-11.5429
▁debts	-11.5432
▁fitz	-11.5433
mar	-11.544
▁ger	-11.5457
sky	-11.5459
▁ros	-11.5477
▁chord	-11.5486
▁generals	-11.5487
▁astronaut	-11.5487
▁fugitive	-11.5488
▁titan	-11.549
▁martian	-11.5492
▁cri	-11.5492
▁height	-11.5493
▁frog	-11.5494
▁beautifully	-11.5494
▁exhale	-11.5495
▁grownup	-11.5496
▁heel	-11.5497
izz	-11.5498
▁slowing	-11.5502
▁bookie	-11.5504
▁howl	-11.5507
▁abe	-11.5515
▁sever	-11.5519
▁shifts	-11.552
▁wool	-11.5527
▁bothers	-11.5542
▁snatch	-11.5543
▁aaaah	-11.5546
▁journalist	-11.555
▁sk	-11.555
▁cone	-11.5556
▁recruit	-11.5562
▁conf	-11.5573
▁stations	-11.5579
▁fright	-11.5592
▁invest	-11.5593
▁borders	-11.5596
▁threats	-11.5597
▁tur	-11.5599
iff	-11.5604
▁sas	-11.561
▁trespass	-11.5612
▁detect	-11.5613
point	-11.5615
▁skate	-11.5617
▁applaud	-11.5617
▁mock	-11.5618
phone	-11.5618
▁flaw	-11.5619
word	-11.562
▁addict	-11.562
▁cloth	-11.5622
tit	-11.5627
▁rates	-11.5628
▁encourage	-11.5629
▁jacks	-11.5629
▁severe	-11.5629
▁delete	-11.5629
▁expose	-11.563
▁dread	-11.5634
▁reduce	-11.5634
▁should	-11.5634
▁infinite	-11.5634
▁thorough	-11.5634
▁cambodia	-11.5635
▁spank	-11.5637
▁elliot	-11.5638
▁questioned	-11.5639
▁lucie	-11.564
▁cockroach	-11.564
▁sensation	-11.564
▁korea	-11.564
▁abort	-11.564
▁murderers	-11.5641
▁reflect	-11.5641
▁darlin	-11.5641
▁runnin	-11.5641
▁kiddin	-11.5642
▁guatemala	-11.5643
▁piace	-11.5643
▁precaution	-11.5643
▁sponge	-11.5643
▁administration	-11.5643
▁advertising	-11.5643
▁altogether	-11.5643
▁amazon	-11.5643
▁anthony	-11.5643
▁autopsy	-11.5643
▁baxter	-11.5643
▁bhai	-11.5643
▁bicycle	-11.5643
▁bizarre	-11.5643
▁bourbon	-11.5643
▁ciccio	-11.5643
▁concentration	-11.5643
▁courbet	-11.5643
▁crocodile	-11.5643
▁deceased	-11.5643
▁delicate	-11.5643
▁democracy	-11.5643
▁denahi	-11.5643
▁dibiasky	-11.5643
▁dixon	-11.5643
▁eager	-11.5643
▁elijah	-11.5643
▁etienne	-11.5643
▁exhusband	-11.5643
▁exwife	-11.5643
▁february	-11.5643
▁forfeit	-11.5643
▁fortress	-11.5643
▁gauguin	-11.5643
▁glabrus	-11.5643
▁hammond	-11.5643
▁hector	-11.5643
▁herakles	-11.5643
▁injuries	-11.5643
▁interpol	-11.5643
▁jeremy	-11.5643
▁juicy	-11.5643
▁jurisdiction	-11.5643
▁libby	-11.5643
▁lichtenstein	-11.5643
▁lucille	-11.5643
▁manuscript	-11.5643
▁messenger	-11.5643
▁militia	-11.5643
▁minimal	-11.5643
▁mortgage	-11.5643
▁occupation	-11.5643
▁odonnell	-11.5643
▁olbricht	-11.5643
▁outstanding	-11.5643
▁prevail	-11.5643
▁profound	-11.5643
▁prophecy	-11.5643
▁reckless	-11.5643
▁recognition	-11.5643
▁resort	-11.5643
▁rifki	-11.5643
▁saviano	-11.5643
▁scotland	-11.5643
▁september	-11.5643
▁seventeen	-11.5643
▁smear	-11.5643
▁sonofabitch	-11.5643
▁sweden	-11.5643
▁tallulah	-11.5643
▁thanksgiving	-11.5643
▁theft	-11.5643
▁thlnk	-11.5643
▁thunderclap	-11.5643
▁turbulence	-11.5643
▁unleash	-11.5643
▁unpleasant	-11.5643
▁urban	-11.5643
▁vacuum	-11.5643
▁variety	-11.5643
▁veteran	-11.5643
▁vulgar	-11.5643
▁youtube	-11.5643
▁yvonne	-11.5643
▁amusing	-11.5643
▁angie	-11.5643
▁blaze	-11.5643
▁fbl	-11.5643
▁philosopher	-11.5643
▁yonder	-11.5643
▁bosley	-11.5643
▁chrissake	-11.5643
▁eighteen	-11.5643
▁waterloo	-11.5643
▁accomplice	-11.5643
▁adolf	-11.5643
▁argos	-11.5643
▁conservative	-11.5643
▁andante	-11.5643
▁corwin	-11.5643
▁boggs	-11.5643
▁guidance	-11.5643
▁gulf	-11.5643
▁quincy	-11.5643
▁gagging	-11.5643
▁ounce	-11.5643
▁radical	-11.5643
▁ungrateful	-11.5643
▁dagger	-11.5643
▁drumming	-11.5643
▁snoop	-11.5643
▁prague	-11.5643
▁consulate	-11.5643
▁investors	-11.5643
▁banner	-11.5643
▁francoise	-11.5643
▁envy	-11.5644
▁munro	-11.5644
▁flour	-11.5644
▁plaza	-11.5644
▁bleating	-11.5644
▁renai	-11.5644
▁rosalie	-11.5644
▁lizzy	-11.5644
▁oxford	-11.5644
▁stump	-11.5644
▁outcome	-11.5644
▁psst	-11.5644
▁musket	-11.5644
▁tracy	-11.5644
▁verge	-11.5644
▁sacha	-11.5644
▁verde	-11.5644
▁preschool	-11.5644
▁basketball	-11.5644
▁scorpion	-11.5644
▁denham	-11.5644
▁milord	-11.5644
▁arise	-11.5644
▁cozy	-11.5644
▁obsession	-11.5644
▁howre	-11.5644
▁embarrassment	-11.5644
▁jello	-11.5644
▁voicemail	-11.5644
▁foam	-11.5644
▁skipped	-11.5645
▁bailey	-11.5645
▁temptation	-11.5645
▁flynn	-11.5645
▁inspection	-11.5645
▁horseshit	-11.5645
▁noah	-11.5645
▁atf	-11.5645
▁referee	-11.5645
▁coup	-11.5645
▁preferred	-11.5645
▁samuel	-11.5645
▁cheerio	-11.5645
▁bravestone	-11.5645
▁january	-11.5645
▁soviet	-11.5645
▁bradley	-11.5645
▁visa	-11.5645
▁gutter	-11.5645
▁atm	-11.5646
▁transportation	-11.5646
▁scarce	-11.5646
▁marco	-11.5646
▁diary	-11.5646
▁snowball	-11.5646
▁motherinlaw	-11.5646
▁ofyour	-11.5647
▁stitches	-11.5647
▁kang	-11.5647
▁korean	-11.5647
▁elite	-11.5647
▁wretched	-11.5647
▁mainland	-11.5647
▁panem	-11.5647
▁virginity	-11.5647
▁instructor	-11.5647
▁occasionally	-11.5648
▁budget	-11.5648
▁mmmmm	-11.5648
▁recon	-11.5649
▁shipping	-11.565
▁qualified	-11.5651
▁flown	-11.5651
▁waist	-11.5652
▁allegedly	-11.5652
▁sosa	-11.5652
▁raiden	-11.5652
▁fax	-11.5652
▁fries	-11.5652
▁idella	-11.5653
▁rodeo	-11.5653
▁projector	-11.5653
▁brass	-11.5654
▁warmth	-11.5654
▁rapist	-11.5654
▁lease	-11.5654
▁colony	-11.5655
▁pence	-11.5656
▁legit	-11.5656
▁cur	-11.5656
▁sully	-11.5657
▁multi	-11.5657
▁published	-11.5657
▁acceptable	-11.5657
▁coverage	-11.5658
▁freeway	-11.5659
▁avenger	-11.5659
▁reel	-11.5659
▁shipment	-11.5659
▁tina	-11.566
▁retarded	-11.5661
ification	-11.5662
▁fireball	-11.5662
▁flattered	-11.5662
▁maker	-11.5663
▁doon	-11.5663
▁bette	-11.5665
▁sardine	-11.5666
▁iive	-11.5667
▁declared	-11.5667
▁speeches	-11.5667
▁conquered	-11.5667
▁hospitality	-11.5667
▁chairman	-11.567
▁shoots	-11.567
▁richie	-11.5671
▁burglar	-11.5671
▁fury	-11.5672
▁gambler	-11.5672
▁boiling	-11.5672
▁rye	-11.5674
▁bloomin	-11.5675
▁recovered	-11.5675
▁loner	-11.5676
▁rental	-11.5677
▁equally	-11.5677
▁highline	-11.568
▁contained	-11.568
▁talon	-11.568
▁contractor	-11.5681
▁convicted	-11.5682
▁maggots	-11.5683
▁mentally	-11.5684
▁colon	-11.5684
ski	-11.5686
bra	-11.5687
▁accuse	-11.5687
▁flushing	-11.5689
with	-11.5692
▁healy	-11.5695
▁lesions	-11.5695
▁knuckles	-11.5696
▁marker	-11.5697
▁pinky	-11.5698
▁we	-11.5698
▁swelling	-11.5698
▁shrinking	-11.57
▁writers	-11.5703
▁wakes	-11.5704
▁wolfe	-11.5705
▁spared	-11.5717
▁taco	-11.5724
wind	-11.5727
▁whoot	-11.5727
▁thruster	-11.573
▁rocko	-11.5737
▁ob	-11.574
▁bruises	-11.5741
▁legions	-11.5743
▁itch	-11.5744
▁powering	-11.5746
mming	-11.5749
▁particles	-11.5752
▁giants	-11.5752
ough	-11.5758
▁shovel	-11.5759
▁flora	-11.5765
▁abs	-11.577
rous	-11.577
▁boards	-11.5771
▁pasta	-11.5772
▁sw	-11.5773
▁gathering	-11.5775
ust	-11.578
▁completed	-11.578
▁tilt	-11.5786
▁oysters	-11.5787
▁texts	-11.579
▁noted	-11.5791
▁martyr	-11.5798
▁witnessed	-11.58
▁bri	-11.58
▁marketing	-11.5803
▁texting	-11.5804
▁vip	-11.5809
▁cadets	-11.581
▁deeds	-11.5812
▁professionals	-11.5815
tta	-11.5818
▁sticky	-11.582
▁missiles	-11.5822
▁robots	-11.5824
hoo	-11.5825
▁searched	-11.5831
ock	-11.5833
▁colleagues	-11.5833
▁curtains	-11.5833
▁regards	-11.5834
▁targeted	-11.5834
aba	-11.5837
▁frick	-11.5847
▁colored	-11.5852
uit	-11.5854
▁trains	-11.5858
▁ava	-11.5858
▁assassins	-11.5859
▁punching	-11.5867
cks	-11.5867
yes	-11.5871
▁lug	-11.5878
▁birt	-11.5878
▁initial	-11.5891
pie	-11.5895
▁samples	-11.5914
▁healer	-11.5915
▁defender	-11.5917
▁overlook	-11.5922
▁listed	-11.5923
dies	-11.5938
▁pol	-11.5942
▁ku	-11.5949
▁alrighty	-11.5953
ulation	-11.5954
▁clips	-11.5961
▁shi	-11.5963
▁returns	-11.597
▁dy	-11.597
▁jaegers	-11.5973
▁flags	-11.5974
▁sacrifices	-11.598
▁chev	-11.5986
▁arrangements	-11.5996
▁commanding	-11.5998
rem	-11.6
▁ranks	-11.6001
▁smokes	-11.6003
▁ned	-11.6005
▁tracker	-11.6005
▁snacks	-11.6008
▁lookout	-11.601
▁towers	-11.6014
▁rhythmic	-11.6018
▁purposes	-11.6023
▁ironic	-11.6031
hhh	-11.6033
▁barge	-11.6035
▁seeds	-11.6048
▁hairs	-11.6064
▁rand	-11.6064
▁mim	-11.6068
▁ly	-11.6068
▁lass	-11.6072
rk	-11.6076
▁joints	-11.6078
▁owners	-11.6078
▁tomb	-11.6079
tly	-11.608
▁races	-11.6084
▁payments	-11.609
▁merc	-11.609
were	-11.6092
▁sire	-11.6096
▁volunteers	-11.61
▁blankets	-11.6114
▁terrorists	-11.6114
▁emails	-11.6115
▁troubled	-11.6122
▁tw	-11.6127
▁airplanes	-11.6149
▁requests	-11.6151
oth	-11.6151
▁explaining	-11.6157
▁ups	-11.616
▁divisions	-11.6173
▁hopes	-11.6193
▁stripe	-11.6193
▁ki	-11.6221
▁tomorrows	-11.6223
del	-11.6232
▁refuses	-11.6233
▁paw	-11.6243
term	-11.6253
▁bodyguard	-11.6256
▁occur	-11.6257
▁lizard	-11.6257
▁pigeon	-11.6257
▁preparation	-11.6257
▁mcc	-11.6258
▁ritual	-11.6258
▁oyster	-11.626
▁plumber	-11.6262
▁chime	-11.6265
▁shhh	-11.6269
▁hike	-11.6273
▁vol	-11.6295
▁hospitals	-11.6296
▁watering	-11.6318
gue	-11.632
▁musician	-11.632
▁sup	-11.6323
▁poster	-11.6328
ahl	-11.6335
▁nor	-11.6336
lep	-11.6342
▁blinkin	-11.6345
get	-11.6352
▁iv	-11.6365
got	-11.6366
▁flatter	-11.6369
▁rom	-11.6373
where	-11.6376
▁patron	-11.6376
▁knocks	-11.6379
▁anybodys	-11.6379
born	-11.6379
▁dye	-11.638
▁avenge	-11.6382
▁stroll	-11.6384
▁disgust	-11.6386
▁annoy	-11.6387
▁reject	-11.6389
▁encounter	-11.639
world	-11.6394
front	-11.6394
child	-11.6395
▁rider	-11.6395
tooth	-11.6396
ail	-11.6398
▁quarantine	-11.6398
▁execute	-11.6399
▁dum	-11.64
made	-11.6402
▁thirst	-11.6402
▁tow	-11.6403
▁alleged	-11.6405
▁macedonia	-11.6405
▁pupil	-11.6406
▁blog	-11.6407
▁origin	-11.6408
▁stitch	-11.6409
▁cuban	-11.6409
high	-11.6409
▁dancin	-11.641
▁tranquil	-11.6411
▁lively	-11.6412
▁adapt	-11.6412
▁republic	-11.6412
▁automatic	-11.6412
▁compass	-11.6412
▁meteor	-11.6412
▁horizon	-11.6412
▁absorb	-11.6412
▁disobey	-11.6412
▁abilities	-11.6412
▁athena	-11.6412
▁athlete	-11.6412
▁aurora	-11.6412
▁autopilot	-11.6412
▁barbarian	-11.6412
▁bolivar	-11.6412
▁bolivia	-11.6412
▁boulevard	-11.6412
▁chayim	-11.6412
▁chimney	-11.6412
▁coffey	-11.6412
▁component	-11.6412
▁continuing	-11.6412
▁curfew	-11.6412
▁driscoll	-11.6412
▁duchess	-11.6412
▁earthquake	-11.6412
▁einhorn	-11.6412
▁everlasting	-11.6412
▁festival	-11.6412
▁georgie	-11.6412
▁gracchus	-11.6412
▁hancock	-11.6412
▁hawthorne	-11.6412
▁honghui	-11.6412
▁hooray	-11.6412
▁increasing	-11.6412
▁industrial	-11.6412
▁introducing	-11.6412
▁ireland	-11.6412
▁karras	-11.6412
▁kazakhstan	-11.6412
▁lazarus	-11.6412
▁malcolm	-11.6412
▁marathon	-11.6412
▁memorial	-11.6412
▁messiah	-11.6412
▁misunderstood	-11.6412
▁mohammed	-11.6412
▁morphine	-11.6412
▁nahoko	-11.6412
▁opportunities	-11.6412
▁pelican	-11.6412
▁phew	-11.6412
▁poverty	-11.6412
▁pretzel	-11.6412
▁pterodactyl	-11.6412
▁qualities	-11.6412
▁recognise	-11.6412
▁rezendes	-11.6412
▁roosevelt	-11.6412
▁seizure	-11.6412
▁sensible	-11.6412
▁sheldon	-11.6412
▁sizzling	-11.6412
▁stiii	-11.6412
▁sullivan	-11.6412
▁sunglasses	-11.6412
▁superintendent	-11.6412
▁talladega	-11.6412
▁teresa	-11.6412
▁thermal	-11.6412
▁tsunami	-11.6412
▁vetlesen	-11.6412
▁volcano	-11.6412
▁voyles	-11.6412
▁watermelon	-11.6412
▁werthan	-11.6412
▁wheirdicht	-11.6412
▁xanax	-11.6412
▁yzma	-11.6412
▁aiways	-11.6412
▁harmony	-11.6412
▁info	-11.6412
▁jolly	-11.6412
▁joshua	-11.6412
▁lenny	-11.6412
▁scapelli	-11.6412
▁volpe	-11.6412
▁walsh	-11.6412
▁coworker	-11.6413
▁despise	-11.6413
▁millimeter	-11.6413
▁noticing	-11.6413
▁ronald	-11.6413
▁rpg	-11.6413
▁doodle	-11.6413
▁harness	-11.6413
▁fromm	-11.6413
▁muntz	-11.6413
▁solitude	-11.6413
▁virgil	-11.6413
▁endanger	-11.6413
▁lorna	-11.6413
▁scoobydoo	-11.6413
▁arriving	-11.6413
▁munich	-11.6413
▁trask	-11.6413
▁janitor	-11.6413
▁gauge	-11.6413
▁mohawk	-11.6413
▁applied	-11.6413
▁elves	-11.6413
▁interstate	-11.6413
▁crotch	-11.6413
▁obligation	-11.6413
▁association	-11.6413
▁grudge	-11.6413
▁heiress	-11.6413
▁cocksucker	-11.6413
▁rebellion	-11.6413
▁tractor	-11.6413
▁wickles	-11.6413
▁riend	-11.6413
▁disorder	-11.6413
▁uphold	-11.6413
▁blake	-11.6413
▁huff	-11.6413
▁burial	-11.6413
▁outpost	-11.6413
▁glance	-11.6413
▁dersu	-11.6413
▁eloise	-11.6413
▁masha	-11.6413
▁excessive	-11.6413
▁swish	-11.6413
▁chapel	-11.6413
▁popcorn	-11.6413
▁expedition	-11.6413
▁nosy	-11.6413
▁carolina	-11.6413
▁prosecution	-11.6413
▁torment	-11.6413
▁competitive	-11.6413
▁lesley	-11.6413
▁maintenance	-11.6413
▁purty	-11.6413
▁cobra	-11.6414
▁erwin	-11.6414
▁adrenaline	-11.6414
▁expertise	-11.6414
▁improvement	-11.6414
▁biii	-11.6414
▁trumpet	-11.6414
▁pinned	-11.6414
▁miriam	-11.6414
▁neville	-11.6414
▁flipped	-11.6414
▁buffet	-11.6414
▁disappearance	-11.6414
▁jonas	-11.6414
▁deux	-11.6414
▁northcott	-11.6414
▁thatsthats	-11.6414
▁darian	-11.6414
▁vibe	-11.6414
▁tasty	-11.6414
▁brew	-11.6414
▁calder	-11.6414
▁huit	-11.6414
▁marchino	-11.6414
▁gunnar	-11.6414
▁battlefield	-11.6415
▁dizzy	-11.6415
▁sunlight	-11.6415
▁brotherinlaw	-11.6415
▁bind	-11.6415
▁oral	-11.6415
▁tuna	-11.6415
▁ewell	-11.6415
▁frell	-11.6415
▁roland	-11.6415
foot	-11.6415
▁organic	-11.6415
▁julio	-11.6415
▁troll	-11.6415
▁playground	-11.6416
▁starboard	-11.6416
cation	-11.6416
▁acquired	-11.6416
▁disabled	-11.6416
▁european	-11.6416
▁spaceship	-11.6416
▁devoted	-11.6416
▁notion	-11.6417
▁which	-11.6417
▁bottles	-11.6417
▁voila	-11.6417
▁combined	-11.6417
▁alcoholic	-11.6417
▁barbie	-11.6418
▁puppy	-11.6418
▁perish	-11.6418
▁courtroom	-11.6418
▁tripping	-11.6418
▁percentage	-11.6418
▁crate	-11.6418
▁soar	-11.6419
▁popped	-11.6419
▁overdose	-11.6419
▁alma	-11.642
▁ze	-11.642
▁eff	-11.642
▁sustained	-11.642
▁caveman	-11.642
▁benja	-11.642
▁elsewhere	-11.6421
▁princeton	-11.6421
▁sara	-11.6421
▁hound	-11.6421
▁tiles	-11.6422
▁contender	-11.6422
▁peachy	-11.6423
▁amazed	-11.6423
▁tallis	-11.6423
▁resigned	-11.6423
▁certainty	-11.6424
▁humiliated	-11.6424
▁hola	-11.6424
▁clanging	-11.6425
▁berry	-11.6425
▁alongside	-11.6426
▁hup	-11.6426
▁condemned	-11.6427
▁snorting	-11.6427
▁lighthouse	-11.6427
▁defy	-11.6428
▁tenant	-11.6428
▁drip	-11.6428
▁bitten	-11.6429
▁cheeky	-11.6429
self	-11.643
▁baba	-11.643
▁consideration	-11.6431
▁exploded	-11.6431
bock	-11.6431
▁tapping	-11.6433
▁feei	-11.6434
▁tray	-11.6435
▁compromised	-11.6435
▁articles	-11.6435
▁reconsider	-11.6436
▁parttime	-11.6436
ico	-11.6437
▁mido	-11.6437
▁picket	-11.6437
▁vp	-11.6438
▁armies	-11.6439
▁samson	-11.6439
▁juliet	-11.644
▁binding	-11.644
▁partial	-11.6442
ille	-11.6443
▁bully	-11.6443
▁chirps	-11.6444
▁superb	-11.6446
▁goldman	-11.6448
▁romeo	-11.6448
▁entertainer	-11.6448
▁traced	-11.6449
▁stinky	-11.645
▁employer	-11.6453
▁footprints	-11.6456
▁tyres	-11.6456
▁shutting	-11.6456
▁coop	-11.6459
▁desperately	-11.646
▁developing	-11.6461
▁nod	-11.6466
play	-11.6467
▁sadde	-11.6468
▁sexually	-11.6469
▁setup	-11.647
▁ache	-11.6471
▁jacobo	-11.6472
▁heartless	-11.6475
▁performed	-11.6475
▁volunteered	-11.6479
▁cured	-11.6479
▁divas	-11.6481
▁dusty	-11.6482
▁knights	-11.6483
nc	-11.6487
▁simpler	-11.649
▁printing	-11.6491
▁bunker	-11.6492
▁interrupting	-11.6492
▁poured	-11.6497
lou	-11.65
▁secured	-11.6502
▁wired	-11.6505
▁districts	-11.6508
bone	-11.6512
▁ruler	-11.6513
▁rem	-11.6517
four	-11.6519
▁iot	-11.652
▁couples	-11.6522
▁lust	-11.6525
▁biscuits	-11.6531
▁interpret	-11.6532
▁qu	-11.6533
▁tele	-11.6542
▁forensics	-11.6543
▁increases	-11.6543
▁dumping	-11.6547
▁pets	-11.6551
▁lions	-11.6552
▁claws	-11.6556
▁customs	-11.6556
▁narc	-11.6558
▁hive	-11.6584
▁delivering	-11.6591
▁carrier	-11.6591
▁patriots	-11.6593
▁sou	-11.6598
band	-11.6601
▁yorkin	-11.6605
▁mais	-11.6606
▁rushing	-11.6608
▁meter	-11.6609
▁ci	-11.6611
▁joyful	-11.6614
▁krypton	-11.6614
▁sponsors	-11.6618
▁methods	-11.6618
was	-11.662
▁tubes	-11.6626
▁carrots	-11.6631
▁heating	-11.6634
▁shorty	-11.6638
▁vu	-11.6641
▁includes	-11.6644
▁matched	-11.6645
▁plato	-11.6656
▁beliefs	-11.6656
▁rags	-11.6658
ike	-11.6664
▁dup	-11.6667
▁speeding	-11.6667
▁tor	-11.6669
▁lighting	-11.6675
▁risking	-11.6675
▁camper	-11.6681
▁restless	-11.6683
▁poets	-11.6683
▁johns	-11.669
▁sincere	-11.6696
▁meds	-11.6701
▁your	-11.6702
▁rebel	-11.6707
▁orderly	-11.6707
▁just	-11.6715
▁suggests	-11.6731
▁weights	-11.674
▁proves	-11.6753
uddy	-11.6757
▁fleas	-11.6757
▁longest	-11.6758
▁tribes	-11.6759
▁grandmas	-11.6764
▁trusts	-11.6766
pr	-11.6767
▁respected	-11.6769
▁lola	-11.6774
▁holds	-11.6778
▁spl	-11.678
▁wonders	-11.6782
ark	-11.6791
▁pressing	-11.6793
▁presented	-11.6797
nix	-11.6807
▁nuns	-11.6821
ett	-11.6829
▁serves	-11.6829
oft	-11.6829
▁spic	-11.6836
▁smelled	-11.6839
▁connects	-11.6848
▁wil	-11.6849
nine	-11.6856
istic	-11.6869
▁mega	-11.6872
aaahhh	-11.6879
long	-11.6888
▁ramp	-11.691
▁drawings	-11.691
tes	-11.6912
▁croc	-11.692
▁this	-11.6921
ella	-11.6922
▁pier	-11.6936
▁quo	-11.694
▁shields	-11.6948
▁hooks	-11.695
▁showers	-11.6969
▁ga	-11.6981
▁bots	-11.6984
ima	-11.6986
oca	-11.6992
▁moo	-11.7004
ata	-11.7009
▁bellas	-11.7023
▁layer	-11.7024
▁exc	-11.7028
lines	-11.704
▁scr	-11.705
erto	-11.7055
▁yous	-11.7064
▁standards	-11.7064
▁eu	-11.7066
▁clatter	-11.7068
▁hu	-11.7072
▁custom	-11.7081
▁kilo	-11.7081
boom	-11.7083
▁communist	-11.7088
▁banana	-11.7089
▁probe	-11.7089
▁boob	-11.709
ology	-11.7091
▁claw	-11.7094
▁rattle	-11.7094
▁rail	-11.7096
▁publisher	-11.7098
▁bean	-11.7103
▁rang	-11.7108
▁experiences	-11.7113
▁mic	-11.7116
▁lace	-11.7118
▁headline	-11.7133
iggly	-11.7134
▁rib	-11.7137
▁killings	-11.7137
▁wat	-11.7139
▁votes	-11.7144
▁peach	-11.7148
▁valid	-11.7154
▁buyer	-11.7163
cop	-11.7163
▁receiv	-11.7165
win	-11.717
▁aaah	-11.7173
▁helicopters	-11.7194
▁neutral	-11.7195
▁spells	-11.7195
▁chart	-11.72
▁anal	-11.72
rop	-11.7205
▁ohohoh	-11.7215
▁blackmail	-11.7219
▁attract	-11.7223
▁select	-11.7223
▁predict	-11.7224
▁bur	-11.7225
▁retard	-11.7225
dollar	-11.7225
paint	-11.7229
job	-11.7229
horn	-11.723
why	-11.7231
wash	-11.7231
▁modest	-11.7231
▁energ	-11.7234
▁tempt	-11.7234
▁filth	-11.7235
dead	-11.7236
▁relieve	-11.7236
▁genuine	-11.7236
▁merge	-11.7237
▁robber	-11.7237
schm	-11.7238
beard	-11.7238
▁mul	-11.7238
▁instruct	-11.724
▁voil	-11.7242
▁trench	-11.7242
▁inventor	-11.7242
▁slug	-11.7242
▁wrinkle	-11.7242
flower	-11.7243
▁isabel	-11.7243
▁heave	-11.7245
▁plu	-11.7245
▁contempt	-11.7246
▁feminine	-11.7246
▁jangers	-11.7246
▁perpetua	-11.7246
▁syrup	-11.7246
ucius	-11.7246
▁afghanistan	-11.7246
▁alligator	-11.7246
▁ambitious	-11.7246
▁ammunition	-11.7246
▁antidote	-11.7246
▁audrey	-11.7246
▁britani	-11.7246
▁bronson	-11.7246
▁cafeteria	-11.7246
▁caitlyn	-11.7246
▁calendar	-11.7246
▁cavendish	-11.7246
▁cepheus	-11.7246
▁challenging	-11.7246
▁closure	-11.7246
▁congrats	-11.7246
▁dakota	-11.7246
▁deception	-11.7246
▁degenerate	-11.7246
▁destined	-11.7246
▁eiffel	-11.7246
▁enhance	-11.7246
▁enthusiasm	-11.7246
▁errand	-11.7246
▁firephina	-11.7246
▁frustrating	-11.7246
▁gauntlet	-11.7246
▁geoffrey	-11.7246
▁gleam	-11.7246
▁godmother	-11.7246
▁grandchildren	-11.7246
▁hampshire	-11.7246
▁henderson	-11.7246
▁hertzfeld	-11.7246
▁horace	-11.7246
▁ignorant	-11.7246
▁inappropriate	-11.7246
▁inconvenient	-11.7246
▁index	-11.7246
▁inspiring	-11.7246
▁intervention	-11.7246
▁invincible	-11.7246
▁klaus	-11.7246
▁leila	-11.7246
▁liwen	-11.7246
▁loaf	-11.7246
▁lsabel	-11.7246
▁madonna	-11.7246
▁mariejosephe	-11.7246
▁marshmallow	-11.7246
▁mcbain	-11.7246
▁mcginty	-11.7246
▁medieval	-11.7246
▁mediocre	-11.7246
▁melissa	-11.7246
▁mockingjay	-11.7246
▁muzzle	-11.7246
▁narracott	-11.7246
▁neuf	-11.7246
▁nixon	-11.7246
▁parallel	-11.7246
▁patrizia	-11.7246
▁predator	-11.7246
▁rookie	-11.7246
▁sabotage	-11.7246
▁safari	-11.7246
▁sermon	-11.7246
▁sharla	-11.7246
▁shuffle	-11.7246
▁sierra	-11.7246
▁sordino	-11.7246
▁souvenir	-11.7246
▁specimen	-11.7246
▁stepmother	-11.7246
▁stewardess	-11.7246
▁substantial	-11.7246
▁sweeney	-11.7246
▁sympathy	-11.7246
▁symptoms	-11.7246
▁syringe	-11.7246
▁talbot	-11.7246
▁toothpicks	-11.7246
▁translation	-11.7246
▁tressler	-11.7246
▁vandergeld	-11.7246
▁versailles	-11.7246
▁welfare	-11.7246
▁wiener	-11.7246
▁zephyr	-11.7246
▁zhou	-11.7246
▁clements	-11.7246
▁coffin	-11.7246
▁coroner	-11.7246
▁extension	-11.7246
▁illinois	-11.7246
▁molesley	-11.7246
▁ninth	-11.7246
▁refusing	-11.7246
▁reinforcements	-11.7246
▁seduce	-11.7246
▁stranded	-11.7246
▁urging	-11.7246
▁definition	-11.7246
▁hopkins	-11.7246
▁sterling	-11.7246
▁antenna	-11.7246
▁optimistic	-11.7246
▁whereabouts	-11.7246
▁bosco	-11.7246
▁handkerchief	-11.7246
▁romesha	-11.7246
▁assemble	-11.7246
▁deflect	-11.7246
▁piston	-11.7246
▁eteon	-11.7246
▁gretel	-11.7246
▁regulations	-11.7246
▁chanice	-11.7246
▁hardworking	-11.7246
▁unstable	-11.7246
▁decorating	-11.7246
▁housing	-11.7246
▁trudy	-11.7246
▁huron	-11.7246
▁spleen	-11.7246
▁shmuel	-11.7246
▁burke	-11.7246
▁stunning	-11.7246
▁beaver	-11.7246
▁weave	-11.7246
▁benjamin	-11.7246
▁descent	-11.7246
▁discount	-11.7246
▁thatthat	-11.7246
▁ashford	-11.7246
▁pedal	-11.7246
▁upload	-11.7246
▁fuji	-11.7246
▁tobin	-11.7246
▁hartley	-11.7246
▁monique	-11.7246
▁bulletproof	-11.7246
▁underwater	-11.7246
▁yoshi	-11.7246
▁goddess	-11.7246
▁stomp	-11.7246
▁representative	-11.7246
▁narf	-11.7246
▁argh	-11.7246
▁debris	-11.7246
▁tidy	-11.7246
▁harassment	-11.7246
▁cowgirl	-11.7246
▁regina	-11.7246
▁ferris	-11.7246
▁commentator	-11.7246
▁strapped	-11.7246
▁singsong	-11.7246
▁spacecraft	-11.7246
▁granddaughter	-11.7246
▁squish	-11.7247
▁sensual	-11.7247
▁upright	-11.7247
▁urine	-11.7247
▁grasp	-11.7247
▁transmitter	-11.7247
▁furious	-11.7247
▁iris	-11.7247
▁involvement	-11.7247
▁cherish	-11.7247
▁agenda	-11.7247
▁baylor	-11.7247
▁bowden	-11.7247
▁colorado	-11.7247
▁ellis	-11.7247
▁millionaire	-11.7247
▁toby	-11.7247
▁flipping	-11.7247
▁mature	-11.7247
▁moose	-11.7247
▁chubby	-11.7247
▁josephine	-11.7247
▁portland	-11.7247
▁tiff	-11.7248
▁underage	-11.7248
▁cult	-11.7248
▁emerge	-11.7248
▁interior	-11.7248
▁offline	-11.7248
▁bribe	-11.7248
▁ethan	-11.7248
▁penguin	-11.7248
▁inbound	-11.7248
▁overall	-11.7248
▁whim	-11.7248
hmer	-11.7248
▁valium	-11.7248
▁chemo	-11.7248
▁rematch	-11.7248
▁cupboard	-11.7248
▁igby	-11.7248
▁franco	-11.7248
▁legendary	-11.7249
▁tutor	-11.7249
▁exits	-11.7249
▁victorious	-11.7249
▁courtney	-11.7249
▁shade	-11.7249
▁uglyville	-11.7249
heim	-11.7249
▁filing	-11.7249
▁sculley	-11.725
▁stressful	-11.725
▁winston	-11.725
▁brawl	-11.725
▁portion	-11.725
▁judith	-11.725
▁hence	-11.725
▁dental	-11.7251
▁oversee	-11.7251
▁conceive	-11.7251
▁carbon	-11.7251
▁donor	-11.7251
▁condor	-11.7252
▁courageous	-11.7252
▁cork	-11.7252
▁whisky	-11.7252
▁valve	-11.7252
▁ditt	-11.7252
▁installed	-11.7252
▁gro	-11.7252
▁cheerful	-11.7252
▁iran	-11.7252
▁lava	-11.7253
▁speechless	-11.7253
▁tex	-11.7253
▁vast	-11.7253
▁macedonian	-11.7254
▁checkmate	-11.7255
▁expired	-11.7255
▁scrambled	-11.7255
▁travelling	-11.7255
▁interpreter	-11.7255
▁stein	-11.7256
▁alas	-11.7256
▁successor	-11.7256
▁abel	-11.7257
▁stealth	-11.7257
▁zipper	-11.7257
▁carved	-11.7257
▁colin	-11.7257
▁bets	-11.7258
▁utterly	-11.7258
▁portal	-11.7258
▁payday	-11.7258
▁household	-11.7258
▁agony	-11.7259
▁shortage	-11.7259
▁asian	-11.726
▁mentor	-11.726
▁knockout	-11.7261
▁haley	-11.7261
▁departing	-11.7261
▁countryside	-11.7261
▁encouraged	-11.7262
▁participate	-11.7262
▁machinery	-11.7263
▁educated	-11.7263
▁stalker	-11.7265
▁fatty	-11.7265
▁fulltime	-11.7265
▁shallow	-11.7265
▁kia	-11.7266
▁premises	-11.7266
▁donate	-11.7267
▁dickhead	-11.7269
▁instantly	-11.7269
▁ark	-11.727
▁recruited	-11.727
card	-11.7272
fucking	-11.7272
▁oww	-11.7272
▁rake	-11.7272
▁unlikely	-11.7273
▁foy	-11.7274
ucci	-11.7275
▁immigration	-11.7275
▁achieved	-11.7275
▁successfully	-11.7275
▁standby	-11.7275
▁motivation	-11.7276
etus	-11.7278
▁jingle	-11.7279
▁replaced	-11.728
▁defined	-11.728
▁sweeping	-11.7281
▁taiking	-11.7282
▁carley	-11.7282
▁hangar	-11.7283
▁whiz	-11.7283
▁wakeup	-11.7284
▁reced	-11.7285
▁opinions	-11.7285
▁tuesdays	-11.7285
▁virtual	-11.7286
wo	-11.7286
ido	-11.7287
▁rational	-11.7287
▁garn	-11.7288
▁eighth	-11.729
▁mimic	-11.7291
▁cour	-11.7291
rubbing	-11.7295
▁homeboy	-11.7297
▁proposed	-11.7298
▁skilled	-11.7298
▁toughest	-11.7298
▁behaved	-11.7298
▁pager	-11.7302
▁tossed	-11.7303
▁measured	-11.7305
▁insulted	-11.7305
▁napa	-11.7308
▁frenchman	-11.7308
▁lighten	-11.7308
▁ignored	-11.731
▁ford	-11.7311
▁values	-11.7312
▁pry	-11.7313
row	-11.7313
▁hah	-11.7317
dad	-11.7318
▁crust	-11.7319
hem	-11.7322
▁mild	-11.7323
▁fasten	-11.7324
▁cling	-11.7328
▁earning	-11.733
▁attending	-11.733
▁pup	-11.7334
▁dub	-11.7334
▁mend	-11.7335
coming	-11.7337
▁connections	-11.7338
▁corrections	-11.7338
▁avoided	-11.7344
▁stirr	-11.7345
▁slippers	-11.7348
▁gooks	-11.7348
▁babysit	-11.7353
nde	-11.7354
▁difficulty	-11.7361
erman	-11.7363
▁processed	-11.7365
▁iit	-11.737
▁beasts	-11.7372
▁shifting	-11.7377
▁disappearing	-11.738
▁bands	-11.738
ani	-11.7381
▁vern	-11.7382
▁zed	-11.7384
▁thankful	-11.7386
▁queer	-11.7388
▁swords	-11.7388
▁turks	-11.7389
cc	-11.739
▁amo	-11.7391
pan	-11.7398
▁briefing	-11.7399
▁rattles	-11.7402
▁kilos	-11.7403
rian	-11.7405
tail	-11.7407
▁holo	-11.741
ath	-11.741
ofthe	-11.7416
▁faced	-11.7422
▁kindly	-11.7425
▁rah	-11.7429
▁maps	-11.7433
▁sounding	-11.7441
▁mutants	-11.7443
ique	-11.7447
cho	-11.7448
▁servers	-11.7452
▁hoot	-11.7454
▁dai	-11.7457
ose	-11.7458
▁missy	-11.746
▁cer	-11.7461
▁secretly	-11.7462
▁bites	-11.7464
▁mute	-11.7468
▁nazis	-11.7471
▁organs	-11.7477
▁lotion	-11.7477
▁grovel	-11.7478
▁blinds	-11.748
amas	-11.7481
▁cor	-11.7484
▁agrees	-11.7485
nsa	-11.7485
wan	-11.7488
▁controls	-11.7499
active	-11.7509
▁magicians	-11.7512
aking	-11.7513
▁cale	-11.7523
▁authors	-11.7528
coup	-11.7532
▁springs	-11.7533
▁gladly	-11.7535
▁calmly	-11.7535
▁dinosaurs	-11.7539
▁vend	-11.7547
▁franks	-11.7555
▁sparks	-11.7555
▁cord	-11.7557
▁michaels	-11.7559
▁boner	-11.7576
ute	-11.7578
▁squirrels	-11.7581
▁foods	-11.7593
▁victors	-11.7594
ben	-11.7599
▁puzzles	-11.7608
▁unicorns	-11.7608
▁strippers	-11.7623
dog	-11.7623
hill	-11.7631
▁gifted	-11.7632
▁myths	-11.7636
order	-11.7639
▁callin	-11.7643
azz	-11.7643
▁differences	-11.7648
five	-11.7668
▁hor	-11.7671
▁traitors	-11.7678
▁kin	-11.7695
oli	-11.7696
▁stew	-11.7705
▁sleeper	-11.7705
▁slot	-11.7706
▁acc	-11.7707
pack	-11.7707
▁don	-11.7709
▁idle	-11.7711
▁drawers	-11.7716
ome	-11.7718
lp	-11.7722
▁playin	-11.7746
▁repairs	-11.7759
rest	-11.776
▁om	-11.776
▁dinners	-11.7771
▁ur	-11.7771
▁rifles	-11.7775
making	-11.7779
turn	-11.7786
roni	-11.7787
▁prosecute	-11.7793
▁stakes	-11.7803
▁chops	-11.7809
▁careers	-11.7811
▁cog	-11.7817
▁monte	-11.7831
▁bounds	-11.7831
▁cam	-11.7836
▁headin	-11.7839
▁roller	-11.784
itor	-11.7844
▁qui	-11.7855
▁penn	-11.7864
▁rains	-11.7871
▁loo	-11.7889
rine	-11.7893
▁commun	-11.7895
eye	-11.7908
▁devices	-11.7916
dale	-11.792
▁sticker	-11.793
mber	-11.7932
▁troop	-11.7934
ttle	-11.7936
▁shirts	-11.7941
▁heroic	-11.7951
rate	-11.7953
▁ofa	-11.7955
▁booker	-11.7975
▁creak	-11.7979
▁crow	-11.7983
▁increase	-11.7988
▁scanner	-11.7997
▁connor	-11.7998
▁investigator	-11.7998
▁bleep	-11.7999
▁cheerleader	-11.8001
▁forensic	-11.8002
▁vegetable	-11.8003
▁whin	-11.8004
▁consequence	-11.8004
▁copper	-11.8005
see	-11.8008
▁vein	-11.8012
now	-11.8012
▁whup	-11.8014
▁handler	-11.8014
▁dia	-11.8024
▁naw	-11.8024
▁turk	-11.803
fit	-11.8031
lessly	-11.8034
▁ax	-11.8037
▁carpe	-11.8041
shit	-11.8046
▁ak	-11.8047
▁stir	-11.8052
lan	-11.806
eating	-11.8062
▁av	-11.8067
manship	-11.8076
read	-11.8081
zin	-11.8084
▁amounts	-11.8086
▁statements	-11.8086
▁courts	-11.8086
▁cracker	-11.8091
▁sha	-11.8099
lus	-11.8112
▁execution	-11.8118
look	-11.8119
minute	-11.8124
▁channels	-11.8124
▁satisfy	-11.8126
body	-11.8127
rv	-11.8127
▁dwell	-11.8129
load	-11.8129
▁demi	-11.8133
▁languages	-11.8134
▁shite	-11.8134
▁register	-11.8134
identified	-11.8137
▁packs	-11.8137
bank	-11.8137
▁epi	-11.8138
winning	-11.8138
level	-11.8139
minded	-11.8141
▁humiliate	-11.8141
▁relate	-11.8142
▁educate	-11.8143
▁prodig	-11.8143
▁wick	-11.8144
ore	-11.8145
▁felon	-11.8145
cular	-11.8145
▁colombia	-11.8146
▁tomato	-11.8151
▁goddam	-11.8151
join	-11.8152
▁kath	-11.8152
▁drivin	-11.8153
▁intent	-11.8154
▁neglect	-11.8154
▁suppress	-11.8154
ryll	-11.8154
▁confront	-11.8155
▁alternat	-11.8155
▁convert	-11.8155
▁circuit	-11.8155
▁krushka	-11.8155
▁nurtur	-11.8155
▁alabama	-11.8155
▁annabelle	-11.8155
▁aurelia	-11.8155
▁babbitt	-11.8155
▁baghdad	-11.8155
▁baracus	-11.8155
▁benedict	-11.8155
▁brundusium	-11.8155
▁camouflage	-11.8155
▁climate	-11.8155
▁coiiins	-11.8155
▁compensation	-11.8155
▁consumed	-11.8155
▁convincing	-11.8155
▁cornwall	-11.8155
▁crimson	-11.8155
▁defensive	-11.8155
▁desperation	-11.8155
▁dictionary	-11.8155
▁donovan	-11.8155
▁dungeon	-11.8155
▁dwight	-11.8155
▁easiest	-11.8155
▁economy	-11.8155
▁eduardo	-11.8155
▁einstein	-11.8155
▁ercole	-11.8155
▁excellency	-11.8155
▁extensive	-11.8155
▁facial	-11.8155
▁faculty	-11.8155
▁fathom	-11.8155
▁felix	-11.8155
▁foofie	-11.8155
▁gardner	-11.8155
▁goomgoom	-11.8155
▁gorignak	-11.8155
▁grimsby	-11.8155
▁guild	-11.8155
▁hartmann	-11.8155
▁hermione	-11.8155
▁humiliating	-11.8155
▁imbecile	-11.8155
▁inevitable	-11.8155
▁irresistible	-11.8155
▁jangling	-11.8155
▁jukebox	-11.8155
▁jupiter	-11.8155
▁katharine	-11.8155
▁kubitz	-11.8155
▁kungfu	-11.8155
▁lalalala	-11.8155
▁landscape	-11.8155
▁latrine	-11.8155
▁levant	-11.8155
▁leviosa	-11.8155
▁lucinda	-11.8155
▁magnus	-11.8155
▁marquis	-11.8155
▁monastery	-11.8155
▁multiply	-11.8155
▁mutiny	-11.8155
▁natasha	-11.8155
▁ninja	-11.8155
▁norwegian	-11.8155
▁obscene	-11.8155
▁odyssey	-11.8155
▁pajamas	-11.8155
▁pankot	-11.8155
▁paralyzed	-11.8155
▁phenomenal	-11.8155
▁phenomenon	-11.8155
▁philosophy	-11.8155
▁pittsburgh	-11.8155
▁railroad	-11.8155
▁richmond	-11.8155
▁saumensch	-11.8155
▁selfdefense	-11.8155
▁slocumb	-11.8155
▁slytherin	-11.8155
▁snitch	-11.8155
▁songwriter	-11.8155
▁spectacle	-11.8155
▁sputtering	-11.8155
▁sputters	-11.8155
▁staircase	-11.8155
▁summit	-11.8155
▁svenning	-11.8155
▁switchblade	-11.8155
▁teldar	-11.8155
▁tofu	-11.8155
▁tricia	-11.8155
▁umbrella	-11.8155
▁unbreakable	-11.8155
▁undercover	-11.8155
▁velocity	-11.8155
▁walenski	-11.8155
▁wannabe	-11.8155
▁wichita	-11.8155
▁wilkes	-11.8155
▁yogurt	-11.8155
▁benthic	-11.8155
▁bialy	-11.8155
▁cheesy	-11.8155
▁essence	-11.8155
▁fizel	-11.8155
▁knicks	-11.8155
▁lagoon	-11.8155
▁margin	-11.8155
▁plasma	-11.8155
▁thrive	-11.8155
▁thurman	-11.8155
▁abyss	-11.8155
▁assaad	-11.8155
▁cawing	-11.8155
▁diving	-11.8155
▁immune	-11.8155
▁margie	-11.8155
▁nikas	-11.8155
▁settling	-11.8155
▁spiritual	-11.8155
▁swiss	-11.8155
▁fumes	-11.8155
▁handicap	-11.8155
▁interrogate	-11.8155
▁quantonium	-11.8155
▁halsey	-11.8155
▁peacekeepers	-11.8155
▁affirmative	-11.8155
▁classmates	-11.8155
▁scrunt	-11.8155
▁toothbrush	-11.8155
▁gravy	-11.8155
▁morahan	-11.8155
▁shoppers	-11.8155
▁camille	-11.8155
▁codfish	-11.8155
▁merit	-11.8155
▁psychology	-11.8155
▁wrath	-11.8155
▁headphones	-11.8155
▁scanning	-11.8155
▁convoy	-11.8155
▁humility	-11.8155
▁independent	-11.8155
▁kettle	-11.8155
▁ventura	-11.8155
▁holler	-11.8155
▁swollen	-11.8155
▁apollonia	-11.8155
▁levinson	-11.8155
▁meself	-11.8155
▁governess	-11.8155
▁jeep	-11.8155
▁relevant	-11.8155
▁coolsville	-11.8155
▁yeehaw	-11.8155
▁loony	-11.8155
▁clarence	-11.8155
▁mugged	-11.8155
▁resolution	-11.8155
▁spectrum	-11.8155
▁lonesome	-11.8155
▁discharge	-11.8155
▁lrish	-11.8155
▁grease	-11.8155
▁graveyard	-11.8155
▁daphne	-11.8155
▁hexa	-11.8155
▁rahil	-11.8155
▁ferret	-11.8155
▁icecream	-11.8155
▁marrow	-11.8155
▁rafto	-11.8155
▁bahia	-11.8156
▁cupcake	-11.8156
▁belial	-11.8156
▁orientation	-11.8156
▁harmonica	-11.8156
▁babysitting	-11.8156
▁tread	-11.8156
▁twentyfour	-11.8156
▁postcard	-11.8156
▁venture	-11.8156
▁continent	-11.8156
▁scram	-11.8156
▁dairy	-11.8156
▁kenny	-11.8156
▁dynamite	-11.8156
▁frequency	-11.8156
▁jeopardy	-11.8156
▁resurrection	-11.8156
▁yorkshire	-11.8156
▁brigman	-11.8156
▁garlic	-11.8156
▁unemployed	-11.8156
▁petition	-11.8156
▁squat	-11.8156
▁baroness	-11.8156
▁hermann	-11.8156
▁superstar	-11.8156
▁achievement	-11.8157
▁albany	-11.8157
▁architecture	-11.8157
▁reload	-11.8157
▁transformation	-11.8157
▁consciousness	-11.8157
▁skipping	-11.8157
▁cooch	-11.8157
▁ruling	-11.8157
▁burt	-11.8157
▁winslow	-11.8157
▁sinned	-11.8157
▁gunfight	-11.8157
▁fellowship	-11.8157
▁samoan	-11.8157
▁rival	-11.8157
▁outhouse	-11.8157
▁pacha	-11.8157
▁patmore	-11.8157
▁icu	-11.8157
▁nascar	-11.8157
▁shortcut	-11.8157
▁swept	-11.8158
▁maze	-11.8158
▁psychotic	-11.8158
▁psychic	-11.8158
▁leah	-11.8158
▁swimmer	-11.8158
▁elsa	-11.8158
▁immortality	-11.8158
▁tlme	-11.8158
▁breakthrough	-11.8158
▁jessup	-11.8158
▁shag	-11.8158
▁slipping	-11.8158
▁hatred	-11.8158
▁indy	-11.8158
▁logic	-11.8158
▁barron	-11.8158
▁collective	-11.8158
▁chum	-11.8158
▁luce	-11.8159
▁iife	-11.8159
▁bien	-11.8159
▁coil	-11.8159
▁kane	-11.8159
▁morality	-11.8159
▁hypnotized	-11.816
▁glve	-11.816
▁liable	-11.816
mashed	-11.816
▁payload	-11.816
▁belongings	-11.816
▁composer	-11.816
▁injection	-11.816
▁heth	-11.8161
▁chess	-11.8161
▁lurking	-11.8161
▁tripped	-11.8161
▁feur	-11.8162
▁slavery	-11.8162
▁firearm	-11.8163
▁crappy	-11.8163
▁chile	-11.8163
▁lockdown	-11.8163
▁decoy	-11.8163
▁elderly	-11.8163
▁hallow	-11.8163
▁cardio	-11.8163
▁conviction	-11.8163
▁dumbass	-11.8164
▁sundown	-11.8164
▁lyin	-11.8165
▁ledger	-11.8165
▁brute	-11.8165
▁marys	-11.8166
▁oof	-11.8166
▁erika	-11.8166
▁gre	-11.8166
acher	-11.8166
▁footmen	-11.8166
▁grit	-11.8166
▁stigman	-11.8167
▁severely	-11.8167
▁hughes	-11.8167
▁fisherman	-11.8167
▁toro	-11.8168
▁beany	-11.8168
▁tito	-11.8168
▁efficient	-11.8168
▁controller	-11.8168
▁lndistinct	-11.8168
▁ballad	-11.8169
▁snapping	-11.8169
▁sandman	-11.817
▁layton	-11.817
▁deai	-11.8172
▁vanity	-11.8173
▁fitch	-11.8173
▁soy	-11.8173
▁controlled	-11.8173
▁overhead	-11.8174
▁shattered	-11.8174
▁willy	-11.8174
▁valet	-11.8175
▁randy	-11.8175
▁pressures	-11.8175
▁spanky	-11.8176
▁ripe	-11.8176
▁brow	-11.8176
▁playboy	-11.8177
▁breakdown	-11.8179
▁restored	-11.8179
▁royce	-11.818
▁surf	-11.818
▁realizing	-11.8181
most	-11.8181
▁collector	-11.8182
▁childish	-11.8182
▁addicted	-11.8182
▁hiring	-11.8185
▁tunnels	-11.8186
▁counties	-11.8188
▁controlling	-11.8188
▁kiiier	-11.8188
▁improved	-11.8188
▁remotely	-11.8188
▁apes	-11.8189
storm	-11.8189
▁trespassing	-11.819
▁seagulls	-11.8192
▁dashing	-11.8193
▁losin	-11.8193
▁fae	-11.8195
▁sonya	-11.8196
▁perv	-11.8197
▁bugg	-11.8198
▁haunting	-11.8203
▁plaintiffs	-11.8207
▁tolling	-11.8208
▁archer	-11.8209
▁ohhh	-11.821
gar	-11.8211
▁beaches	-11.8211
▁floating	-11.8216
▁irony	-11.8218
▁splashing	-11.8219
▁ingredients	-11.8222
▁sinners	-11.8222
▁humping	-11.8225
▁munch	-11.8225
▁bursting	-11.8226
▁depending	-11.8227
▁hauling	-11.8228
▁chased	-11.8229
▁hopeful	-11.823
▁crews	-11.8231
▁bargaining	-11.8232
▁applying	-11.8232
▁bled	-11.8232
▁revealed	-11.8236
▁ration	-11.8236
▁marbles	-11.8237
▁thorn	-11.8237
▁gained	-11.8242
▁responded	-11.8242
eur	-11.8246
▁suing	-11.8246
▁scored	-11.825
▁hoop	-11.8251
▁kurt	-11.8251
▁pumping	-11.8251
▁peache	-11.8255
▁squeez	-11.8255
mingly	-11.8256
▁sald	-11.8257
▁chewing	-11.8258
▁sharpen	-11.8261
▁deadline	-11.8262
▁approached	-11.8266
▁donuts	-11.8267
▁prostitutes	-11.8267
▁wails	-11.8267
▁fling	-11.8271
▁scratching	-11.8274
▁za	-11.8275
▁upgrades	-11.8282
▁directed	-11.8282
▁publicly	-11.8282
▁interviewed	-11.8283
▁sewer	-11.8283
▁harrys	-11.8284
▁sporting	-11.8286
▁wildly	-11.8287
▁banged	-11.8287
▁sweating	-11.8287
▁smit	-11.8288
nom	-11.8289
▁diplomatic	-11.8289
▁condoms	-11.8291
▁avoiding	-11.8296
▁earrings	-11.8297
▁vibrat	-11.8297
▁practiced	-11.8299
sea	-11.8301
▁foreigners	-11.8302
▁sato	-11.8302
▁cro	-11.8303
▁rey	-11.8306
▁concerning	-11.8307
▁chic	-11.8311
▁crows	-11.8312
fed	-11.8313
▁ohoh	-11.8314
▁flats	-11.8316
▁damages	-11.8317
▁pian	-11.8323
▁publishers	-11.8329
▁fau	-11.8329
▁stupido	-11.8331
▁treaty	-11.8334
▁ter	-11.8334
▁loosen	-11.8337
▁lint	-11.8338
▁richer	-11.8339
▁earths	-11.8339
▁biting	-11.8339
▁rituals	-11.8342
▁cutest	-11.8342
▁paws	-11.8343
▁lent	-11.8343
bug	-11.8352
▁oy	-11.8352
▁screamed	-11.8355
▁finance	-11.8355
▁pots	-11.8355
▁peed	-11.8356
▁frogs	-11.8356
▁starters	-11.8359
▁thor	-11.8366
▁myr	-11.8367
▁spaz	-11.837
amo	-11.8371
▁pulls	-11.8374
▁bal	-11.8374
▁ere	-11.8376
▁kicker	-11.838
▁pear	-11.8383
▁favorites	-11.8392
▁stud	-11.8397
▁graceful	-11.8403
▁wally	-11.8411
▁oneill	-11.8413
▁lifting	-11.8421
▁yu	-11.8425
▁construct	-11.843
▁pointed	-11.8431
▁tributes	-11.8432
▁oceans	-11.8447
▁buyin	-11.8447
▁peasants	-11.8447
▁yankees	-11.8447
▁questioning	-11.8451
▁siege	-11.8458
▁committ	-11.8459
▁explosives	-11.8463
gas	-11.8466
▁apartments	-11.8469
▁pros	-11.8477
▁slices	-11.8478
▁comeback	-11.848
▁lump	-11.8483
▁doubted	-11.8487
▁gran	-11.8489
▁roots	-11.8493
▁tac	-11.8495
▁suckers	-11.8498
▁worms	-11.8508
nat	-11.8515
▁clar	-11.8524
▁annas	-11.853
▁dun	-11.8545
vel	-11.8552
▁mates	-11.8552
▁bubbles	-11.8554
▁have	-11.8556
▁plank	-11.8563
▁cultures	-11.8569
▁gardens	-11.8571
ink	-11.8574
▁bert	-11.8579
▁mou	-11.8583
▁bearing	-11.8584
▁yum	-11.8585
▁rolled	-11.8591
▁gene	-11.86
tee	-11.86
▁broker	-11.8605
ores	-11.8624
bell	-11.8632
▁summers	-11.8647
▁feds	-11.8648
▁sadie	-11.865
▁gaz	-11.8651
▁reader	-11.8659
des	-11.866
this	-11.867
▁comments	-11.8675
inch	-11.8684
▁hoo	-11.8685
▁iate	-11.8685
▁peek	-11.8686
▁tres	-11.8687
trained	-11.8689
oster	-11.8692
▁fearful	-11.8696
▁grounded	-11.8699
▁marina	-11.8703
▁cod	-11.871
▁fin	-11.8716
ello	-11.8723
nor	-11.8726
▁babes	-11.8728
▁uniforms	-11.8738
▁cann	-11.874
poli	-11.8745
▁wedd	-11.8745
▁jams	-11.875
ple	-11.875
▁yeh	-11.8753
▁electronics	-11.8753
rst	-11.8758
▁experiments	-11.8772
form	-11.8773
onies	-11.8779
▁ren	-11.88
▁handles	-11.8802
▁lan	-11.881
▁vel	-11.8822
▁belts	-11.8832
▁exception	-11.8832
▁shines	-11.8844
star	-11.8863
hop	-11.8866
bee	-11.887
estate	-11.8898
▁brat	-11.8901
▁exhaust	-11.8909
▁how	-11.891
▁nicer	-11.8917
▁arab	-11.8917
▁accidents	-11.8918
▁hydra	-11.8924
watch	-11.8941
▁ez	-11.8946
▁liars	-11.8952
▁impose	-11.8955
▁shatter	-11.8956
▁hoods	-11.8956
rten	-11.8957
▁feeds	-11.8961
▁cit	-11.8962
▁carin	-11.8969
▁treatments	-11.8971
una	-11.898
▁stammer	-11.8982
ux	-11.8992
▁elder	-11.8995
▁oop	-11.8995
▁psyche	-11.8995
▁prototype	-11.8996
▁blossom	-11.8998
▁mouthing	-11.8998
▁negotiation	-11.8999
▁olympic	-11.9
▁immigrant	-11.9
▁duct	-11.9
▁assassination	-11.9001
▁biscuit	-11.9002
▁sprinkle	-11.9002
▁particle	-11.9002
▁ripper	-11.9002
▁earring	-11.9002
▁feature	-11.9002
▁expense	-11.9002
▁cla	-11.9004
▁relation	-11.9004
▁giggle	-11.9005
▁sca	-11.9007
▁brake	-11.9007
▁chap	-11.9007
▁wrestler	-11.9008
▁vouch	-11.9011
▁owed	-11.9018
▁ste	-11.9024
▁brownie	-11.9025
fun	-11.9029
▁bagel	-11.903
etto	-11.9039
▁chu	-11.9047
▁tak	-11.9047
▁flick	-11.9047
▁greeting	-11.9056
▁gall	-11.9057
▁villages	-11.9058
▁att	-11.9058
▁scor	-11.9059
▁entertain	-11.9059
▁lined	-11.9062
▁pic	-11.9078
▁asp	-11.9079
youre	-11.908
▁hanged	-11.9084
▁handing	-11.9093
ahda	-11.9102
▁initiat	-11.9104
▁hy	-11.9108
▁stalk	-11.9109
hood	-11.9109
speed	-11.9109
▁models	-11.9113
▁announc	-11.9116
▁blond	-11.912
power	-11.9121
style	-11.9124
▁examine	-11.9128
▁miracles	-11.9129
▁tweet	-11.9133
▁download	-11.9134
▁suspend	-11.9135
piece	-11.9135
▁dismiss	-11.9135
view	-11.9136
▁northeast	-11.9136
seven	-11.9136
plant	-11.9136
related	-11.9137
true	-11.9137
▁taunt	-11.9137
guy	-11.9137
okay	-11.9138
▁deport	-11.9139
case	-11.9139
sick	-11.9139
▁eliminate	-11.9141
▁boar	-11.9141
▁amaze	-11.9141
▁pierce	-11.9142
butt	-11.9145
wait	-11.9145
▁definite	-11.9146
eight	-11.9147
▁ledge	-11.9148
▁mucho	-11.9149
▁precise	-11.9149
▁evolve	-11.9149
▁lndia	-11.915
▁tame	-11.915
▁romania	-11.915
ometer	-11.9151
▁aborigin	-11.9151
▁quell	-11.9153
▁boogey	-11.9153
▁gabriel	-11.9153
▁liberat	-11.9154
▁cinema	-11.9154
▁outrage	-11.9154
▁excess	-11.9154
▁beautif	-11.9155
▁defect	-11.9155
piration	-11.9155
▁academic	-11.9155
▁airborne	-11.9155
▁albie	-11.9155
▁allegiance	-11.9155
▁anarchy	-11.9155
▁android	-11.9155
▁antoninus	-11.9155
▁arkansas	-11.9155
▁arriba	-11.9155
▁baptist	-11.9155
▁barbaric	-11.9155
▁beethoven	-11.9155
▁belgian	-11.9155
▁blonsky	-11.9155
▁brittany	-11.9155
▁butterflies	-11.9155
▁cassander	-11.9155
▁casserole	-11.9155
▁catapult	-11.9155
▁cept	-11.9155
▁coakley	-11.9155
▁collision	-11.9155
▁connecticut	-11.9155
▁cougar	-11.9155
▁croissant	-11.9155
▁curiosity	-11.9155
▁cybertron	-11.9155
▁dammit	-11.9155
▁delusional	-11.9155
▁dermot	-11.9155
▁dionysus	-11.9155
▁disposal	-11.9155
▁donnie	-11.9155
▁dummkopf	-11.9155
▁dynamic	-11.9155
▁elaborate	-11.9155
▁elected	-11.9155
▁encouraging	-11.9155
▁encrypted	-11.9155
▁eunice	-11.9155
▁exploding	-11.9155
▁facetoface	-11.9155
▁figuring	-11.9155
▁gavroche	-11.9155
▁gherson	-11.9155
▁ghetto	-11.9155
▁grieving	-11.9155
▁grocery	-11.9155
▁groovy	-11.9155
▁haddonfield	-11.9155
▁horrid	-11.9155
▁horrific	-11.9155
▁hudson	-11.9155
▁humanitarian	-11.9155
▁hurray	-11.9155
▁imaginary	-11.9155
▁incompetent	-11.9155
▁incorrect	-11.9155
▁insanity	-11.9155
▁intuition	-11.9155
▁jacqueline	-11.9155
▁jangle	-11.9155
▁joohwan	-11.9155
▁jurgen	-11.9155
▁kangaroo	-11.9155
▁kersek	-11.9155
▁ketchup	-11.9155
▁kobritz	-11.9155
▁latrell	-11.9155
▁legitimate	-11.9155
▁leisure	-11.9155
▁lettuce	-11.9155
▁lifeanddeath	-11.9155
▁litvenko	-11.9155
▁maestro	-11.9155
▁magarri	-11.9155
▁maitland	-11.9155
▁manufacture	-11.9155
▁marlak	-11.9155
▁mccool	-11.9155
▁mechanism	-11.9155
▁mercenary	-11.9155
▁merchandise	-11.9155
▁mulligan	-11.9155
▁mussolini	-11.9155
▁nevada	-11.9155
▁newlywed	-11.9155
▁nuisance	-11.9155
▁oprah	-11.9155
▁orgasm	-11.9155
▁ottersen	-11.9155
▁overstreet	-11.9155
▁paranoia	-11.9155
▁perception	-11.9155
▁pierrot	-11.9155
▁platter	-11.9155
▁podcast	-11.9155
▁precision	-11.9155
▁premature	-11.9155
▁proximity	-11.9155
▁residency	-11.9155
▁reunite	-11.9155
▁rycart	-11.9155
▁satisfaction	-11.9155
▁schlomo	-11.9155
▁seldom	-11.9155
▁sensitivity	-11.9155
▁sheppard	-11.9155
▁shrike	-11.9155
▁singapore	-11.9155
▁southeast	-11.9155
▁stegman	-11.9155
▁stench	-11.9155
▁stumble	-11.9155
▁substance	-11.9155
▁suspension	-11.9155
▁syndrome	-11.9155
▁technician	-11.9155
▁triangle	-11.9155
▁trousers	-11.9155
▁underrated	-11.9155
▁unfinished	-11.9155
▁unimaginable	-11.9155
▁unpredictable	-11.9155
▁vegetarian	-11.9155
▁vicinity	-11.9155
▁windshield	-11.9155
▁wisconsin	-11.9155
▁woojin	-11.9155
▁agricola	-11.9155
▁borat	-11.9155
▁bronx	-11.9155
▁carpenter	-11.9155
▁compact	-11.9155
▁conspir	-11.9155
▁consumer	-11.9155
▁daffy	-11.9155
▁dvd	-11.9155
▁hazard	-11.9155
▁leroy	-11.9155
▁medusa	-11.9155
▁overseas	-11.9155
▁pussycat	-11.9155
▁reboot	-11.9155
▁redmond	-11.9155
▁regain	-11.9155
▁salander	-11.9155
▁stabilize	-11.9155
▁unarmed	-11.9155
▁warfare	-11.9155
▁ceii	-11.9155
▁collateral	-11.9155
▁madeleine	-11.9155
▁minuti	-11.9155
▁shilling	-11.9155
gular	-11.9155
▁barrier	-11.9155
▁chalk	-11.9155
▁fieri	-11.9155
▁flatbed	-11.9155
▁likewise	-11.9155
▁nitrogen	-11.9155
▁possum	-11.9155
▁rascal	-11.9155
▁yourseif	-11.9155
▁keller	-11.9155
▁unemployment	-11.9155
▁wickwire	-11.9155
▁brodie	-11.9155
▁sparring	-11.9155
▁cinnamon	-11.9155
▁decorator	-11.9155
▁ernie	-11.9155
▁luncheon	-11.9155
▁candlewick	-11.9155
▁coronation	-11.9155
▁fraction	-11.9155
▁haji	-11.9155
▁naomi	-11.9155
▁spiral	-11.9155
▁ooooh	-11.9155
▁lynda	-11.9155
▁marijuana	-11.9155
▁hubert	-11.9155
▁tuition	-11.9155
▁hathaway	-11.9155
▁bolster	-11.9155
▁genny	-11.9155
▁mushroom	-11.9155
▁myrtle	-11.9155
tech	-11.9155
▁detonate	-11.9155
▁wristwatch	-11.9155
mark	-11.9155
▁henley	-11.9155
▁smug	-11.9155
▁activation	-11.9155
▁downhill	-11.9155
▁isolation	-11.9155
▁thailand	-11.9155
▁goofy	-11.9155
▁granddaddy	-11.9155
▁nogood	-11.9155
▁exorcism	-11.9155
▁sideways	-11.9155
▁nonstop	-11.9155
▁anthill	-11.9155
▁hartfield	-11.9155
▁uppercut	-11.9155
▁skating	-11.9155
▁sultan	-11.9155
▁forney	-11.9155
▁inquiries	-11.9155
▁booboo	-11.9155
▁evacuation	-11.9155
▁levy	-11.9155
▁venom	-11.9155
▁baldini	-11.9155
▁expelled	-11.9155
▁truce	-11.9155
▁bleach	-11.9155
▁mammals	-11.9155
▁accomplishment	-11.9155
▁cursing	-11.9155
▁titanium	-11.9155
▁veil	-11.9156
▁bulldog	-11.9156
▁hisses	-11.9156
▁adios	-11.9156
▁colonial	-11.9156
▁overload	-11.9156
▁fowl	-11.9156
▁whwhat	-11.9156
▁aspirin	-11.9156
▁molten	-11.9156
▁noelle	-11.9156
▁beggar	-11.9156
▁outrageous	-11.9156
▁rustles	-11.9156
▁inhuman	-11.9156
▁divert	-11.9156
▁macintosh	-11.9156
▁brazilian	-11.9156
▁petrie	-11.9156
▁underway	-11.9156
▁clop	-11.9156
▁blanche	-11.9156
▁obligated	-11.9156
▁certifi	-11.9156
▁fiend	-11.9156
▁aspro	-11.9156
▁providence	-11.9156
▁nonny	-11.9156
▁attachment	-11.9156
▁farther	-11.9156
▁missouri	-11.9156
▁amigo	-11.9157
▁tryouts	-11.9157
▁chopped	-11.9157
▁zakir	-11.9157
▁wiley	-11.9157
▁reform	-11.9157
▁jeff	-11.9157
▁adjustment	-11.9157
▁dldnt	-11.9157
▁permitted	-11.9157
▁shred	-11.9157
▁chapman	-11.9157
▁wadia	-11.9157
▁masry	-11.9157
▁lowlife	-11.9157
▁hatchet	-11.9157
▁exhibition	-11.9157
illam	-11.9157
▁curb	-11.9157
easley	-11.9157
▁prank	-11.9157
▁glue	-11.9157
▁divers	-11.9157
▁dangling	-11.9157
▁geeta	-11.9157
▁dandy	-11.9157
▁cuz	-11.9158
▁paycheck	-11.9158
▁trois	-11.9158
▁judas	-11.9158
▁enlist	-11.9158
▁frat	-11.9158
▁gregory	-11.9158
▁whorehouse	-11.9158
▁stale	-11.9158
▁wasp	-11.9158
▁tux	-11.9158
▁decommissioned	-11.9158
▁hippo	-11.9158
ility	-11.9159
▁sift	-11.9159
▁expectations	-11.9159
▁broward	-11.9159
▁screwball	-11.9159
▁overwhelming	-11.9159
▁dotson	-11.916
▁ellic	-11.916
▁patent	-11.916
▁soothe	-11.916
▁mesh	-11.916
▁snot	-11.916
▁postponed	-11.916
▁artery	-11.916
▁luxury	-11.916
▁quint	-11.916
▁wheat	-11.916
hearted	-11.916
▁sprained	-11.916
▁barney	-11.9161
▁repeatedly	-11.9161
▁meaningless	-11.9162
▁opposed	-11.9162
▁exceeding	-11.9162
▁thong	-11.9162
▁classroom	-11.9163
▁appointed	-11.9163
▁splitting	-11.9163
▁soso	-11.9163
▁walkabout	-11.9164
▁symbolic	-11.9164
▁deceived	-11.9164
▁shuddering	-11.9165
▁stow	-11.9165
▁omen	-11.9166
▁courthouse	-11.9166
▁dire	-11.9166
▁firefall	-11.9166
▁hunterson	-11.9166
▁bandage	-11.9167
▁kickoff	-11.9167
▁nell	-11.9168
▁ridden	-11.9168
▁stuttering	-11.9168
▁stoke	-11.9169
▁staging	-11.9169
▁irs	-11.9169
▁esc	-11.9169
▁retainer	-11.917
▁compelling	-11.9171
▁lifestyle	-11.9172
▁demonstration	-11.9172
▁publicity	-11.9174
▁enjoyment	-11.9174
▁quiz	-11.9175
▁chunky	-11.9175
▁generate	-11.9176
▁clas	-11.9176
▁ira	-11.9177
▁piper	-11.9178
▁eel	-11.9178
▁erica	-11.9179
▁predicted	-11.918
▁wanker	-11.918
▁tailor	-11.9181
▁permanently	-11.9182
▁collapsed	-11.9184
▁rusty	-11.9184
▁growl	-11.9184
▁brandt	-11.9185
▁colt	-11.9186
▁adriana	-11.9187
▁wiser	-11.9187
▁andre	-11.9188
▁antique	-11.9189
▁hitched	-11.9189
▁geniuses	-11.9191
▁brandy	-11.9193
▁sen	-11.9194
▁indicated	-11.9195
▁glitch	-11.9196
▁chang	-11.9196
▁builders	-11.9196
▁winch	-11.9198
▁manhood	-11.9198
▁fulfilled	-11.9198
▁bumpy	-11.9202
▁potion	-11.9202
▁ee	-11.9204
▁bulletin	-11.9204
▁correspond	-11.9204
▁melon	-11.9204
▁fargo	-11.9205
▁buses	-11.9206
▁poke	-11.9207
▁kc	-11.9207
▁latte	-11.9208
▁caiied	-11.9209
▁backbone	-11.921
inister	-11.921
▁viv	-11.9212
▁wildman	-11.9212
▁glowing	-11.9212
▁gladiators	-11.9213
▁napkins	-11.9213
▁shudders	-11.9213
▁patroni	-11.9213
▁hacked	-11.9214
▁cocky	-11.9214
▁realised	-11.9216
▁slop	-11.9217
▁decorate	-11.922
▁clutch	-11.9222
▁pecker	-11.9223
▁skiing	-11.9227
▁bil	-11.9228
▁complications	-11.923
▁clanks	-11.923
▁neuro	-11.923
▁dyer	-11.9231
▁whit	-11.9232
osis	-11.9237
▁spilling	-11.9237
▁sor	-11.9241
▁chilly	-11.9242
▁confessed	-11.9245
▁beads	-11.9245
▁sweeper	-11.9246
▁rev	-11.9246
▁goblins	-11.9246
ulus	-11.9246
▁fainted	-11.9247
▁dose	-11.9248
▁insulting	-11.9249
▁with	-11.9251
▁denying	-11.9255
▁grandpas	-11.9256
▁connecting	-11.9256
itude	-11.9259
▁collected	-11.9262
▁waffles	-11.9263
▁hosting	-11.9264
▁sensei	-11.9267
▁weaker	-11.9268
▁detailed	-11.9268
▁seb	-11.9269
▁carve	-11.9271
▁bikes	-11.9271
▁snip	-11.9271
▁funerals	-11.9272
▁catches	-11.9284
▁licking	-11.9284
▁realistic	-11.9291
god	-11.9296
▁poo	-11.9296
▁creamy	-11.9297
▁burnin	-11.9299
▁lining	-11.9302
▁forger	-11.9302
▁professors	-11.9303
▁downer	-11.9303
astic	-11.9306
▁vs	-11.9306
▁bund	-11.9309
▁ducts	-11.9313
▁olympics	-11.9313
▁elders	-11.9313
▁hens	-11.9313
▁ut	-11.9317
▁lag	-11.9318
▁exceptions	-11.9319
▁loads	-11.9325
▁rested	-11.9326
▁cheerleaders	-11.933
▁texted	-11.9332
▁rog	-11.9332
▁spelling	-11.9336
▁deserted	-11.9338
▁budge	-11.9342
potent	-11.9343
▁boyfriends	-11.9349
▁fuse	-11.9352
▁mirrors	-11.9352
▁aiming	-11.9355
▁dangerously	-11.9355
▁preparations	-11.9363
▁dreamt	-11.9363
▁prefers	-11.9368
▁hen	-11.9373
▁seeker	-11.9377
▁loading	-11.9378
▁fugitives	-11.9379
▁titans	-11.9379
▁flyin	-11.9384
▁pest	-11.9384
▁pretended	-11.939
▁tougher	-11.939
mont	-11.9392
ira	-11.9393
▁sweeps	-11.9398
▁builds	-11.9399
▁bathing	-11.9399
▁wits	-11.9417
▁reservations	-11.943
▁righthand	-11.9443
▁readings	-11.9446
▁iced	-11.9448
▁washing	-11.9448
▁assassinate	-11.945
moto	-11.9456
▁camping	-11.9461
▁jewels	-11.9462
▁pep	-11.9463
▁heffalumps	-11.9463
▁elements	-11.9463
▁ideals	-11.9465
▁unite	-11.9468
▁appreciated	-11.9468
▁corrected	-11.9473
▁linen	-11.9488
state	-11.9502
▁cain	-11.9507
▁spiders	-11.9512
▁targeting	-11.9518
▁gummi	-11.9519
▁strippe	-11.9521
▁creeps	-11.9529
▁taped	-11.9534
▁condom	-11.9535
▁dink	-11.9536
▁desi	-11.954
▁villains	-11.9543
▁sol	-11.9546
▁complaints	-11.9549
▁hating	-11.9555
▁newman	-11.956
▁gel	-11.9562
▁heath	-11.9562
▁dda	-11.9581
▁happenin	-11.9582
▁streams	-11.9583
▁cre	-11.9584
▁programme	-11.9593
▁ming	-11.9594
▁stationed	-11.96
▁suited	-11.9604
▁favors	-11.9606
▁jerks	-11.9609
▁aria	-11.9615
urdy	-11.9623
▁endings	-11.9638
▁penetrate	-11.9639
ood	-11.9645
▁spears	-11.9647
▁individuals	-11.965
▁blessings	-11.965
▁unlocks	-11.9651
▁by	-11.9652
▁bov	-11.9655
ape	-11.9657
▁warming	-11.966
▁commercials	-11.9684
▁painters	-11.969
gil	-11.9697
gummy	-11.9729
▁heater	-11.9734
▁cannons	-11.9752
ith	-11.9757
▁insert	-11.9761
▁spec	-11.9764
lf	-11.9767
▁qua	-11.9767
▁banking	-11.9778
▁plott	-11.9783
▁tigers	-11.9787
▁awards	-11.9788
▁donkeys	-11.9804
▁ninety	-11.9818
▁whas	-11.9828
▁obs	-11.9853
▁gems	-11.9856
▁flyer	-11.9868
▁instruments	-11.9873
▁procedures	-11.9873
▁insect	-11.9878
▁movements	-11.9891
tip	-11.9901
ime	-11.9905
▁lem	-11.9909
▁dec	-11.9916
▁humbl	-11.9924
▁spi	-11.9926
▁suffers	-11.9928
▁beta	-11.9971
▁sieg	-11.998
ked	-11.998
ght	-11.9986
▁gen	-11.9996
▁pins	-11.9996
▁travels	-11.9998
▁wedge	-12.0007
iko	-12.001
▁whores	-12.001
▁whitey	-12.0021
▁miz	-12.003
▁grad	-12.0043
▁saints	-12.0047
▁eta	-12.0068
▁threaten	-12.0071
▁materials	-12.0082
att	-12.0091
▁burma	-12.0096
▁bruise	-12.0098
▁transform	-12.0099
▁disappears	-12.0103
▁bulb	-12.0109
▁essay	-12.0109
▁diaper	-12.0109
▁upgrade	-12.0112
▁yelp	-12.0116
▁killin	-12.0126
▁remark	-12.0128
▁why	-12.0133
▁packages	-12.0135
▁legion	-12.0135
▁crumb	-12.0151
▁legends	-12.0152
uld	-12.0153
only	-12.0157
▁blackout	-12.0159
▁ble	-12.0163
▁programs	-12.0167
▁winters	-12.017
hr	-12.0176
▁employ	-12.0183
▁belli	-12.019
▁foreigner	-12.02
▁tai	-12.0206
▁publish	-12.0206
▁scatter	-12.0218
friend	-12.0226
acle	-12.0229
cide	-12.0232
▁molest	-12.0233
lde	-12.0233
bury	-12.0244
▁undress	-12.0244
▁summon	-12.0245
▁condemn	-12.0245
▁ado	-12.0246
lash	-12.0246
tempo	-12.0247
charge	-12.0248
▁clam	-12.0248
mobile	-12.0248
type	-12.0248
pound	-12.0249
james	-12.0249
▁invade	-12.0251
▁nurs	-12.0251
▁crusade	-12.0251
▁rehearse	-12.0252
▁conclude	-12.0252
▁excite	-12.0252
▁refuge	-12.0253
force	-12.0254
▁murph	-12.0255
berry	-12.0255
▁frisk	-12.0255
▁diploma	-12.0255
▁continuous	-12.0257
▁seals	-12.0257
▁vanish	-12.0257
▁hulk	-12.0258
nna	-12.0258
▁austria	-12.0259
▁muff	-12.0261
▁sentiment	-12.0263
▁inspect	-12.0263
strom	-12.0264
▁govern	-12.0264
▁kidnap	-12.0265
▁cecil	-12.0265
▁columb	-12.0265
mportant	-12.0265
▁snuff	-12.0266
ifies	-12.0266
▁hydro	-12.0266
▁clunk	-12.0266
▁crucifix	-12.0266
▁indulge	-12.0266
▁obtain	-12.0266
▁abomination	-12.0266
▁adequate	-12.0266
▁allergies	-12.0266
▁anxiety	-12.0266
▁aristotle	-12.0266
▁ascend	-12.0266
▁ashtray	-12.0266
▁athletic	-12.0266
▁bagshaw	-12.0266
▁beignet	-12.0266
▁belches	-12.0266
▁bourget	-12.0266
▁buick	-12.0266
▁buongiorno	-12.0266
▁cackling	-12.0266
▁cadillac	-12.0266
▁calculations	-12.0266
▁canaan	-12.0266
▁canadian	-12.0266
▁caputo	-12.0266
▁caution	-12.0266
▁cautious	-12.0266
▁chariot	-12.0266
▁cheyenne	-12.0266
▁chimichanga	-12.0266
▁chowdhury	-12.0266
▁cilician	-12.0266
▁clumsy	-12.0266
▁communicating	-12.0266
▁crucify	-12.0266
▁cuisine	-12.0266
▁darrell	-12.0266
▁detention	-12.0266
▁eclipse	-12.0266
▁encryption	-12.0266
▁enjolras	-12.0266
▁enthrall	-12.0266
▁epidemic	-12.0266
▁eponine	-12.0266
▁escalator	-12.0266
▁escaping	-12.0266
▁ethical	-12.0266
▁evidently	-12.0266
▁excruciating	-12.0266
▁fantasies	-12.0266
▁fantine	-12.0266
▁forgiving	-12.0266
▁frederick	-12.0266
▁gaylord	-12.0266
▁giuseppe	-12.0266
▁glanton	-12.0266
▁gulapa	-12.0266
▁gurgling	-12.0266
▁haggard	-12.0266
▁happiest	-12.0266
▁harewood	-12.0266
▁harriman	-12.0266
▁hexham	-12.0266
▁humiliation	-12.0266
▁imagining	-12.0266
▁incinerat	-12.0266
▁infra	-12.0266
▁ingenious	-12.0266
▁injustice	-12.0266
▁insecure	-12.0266
▁insolent	-12.0266
▁involving	-12.0266
▁jfk	-12.0266
▁kababik	-12.0266
▁keister	-12.0266
▁kennedi	-12.0266
▁lauderdale	-12.0266
▁limousine	-12.0266
▁lorenzo	-12.0266
▁ludwig	-12.0266
▁maharaja	-12.0266
▁mandatory	-12.0266
▁margarita	-12.0266
▁marzzone	-12.0266
▁masculine	-12.0266
▁mayfleet	-12.0266
▁meadow	-12.0266
▁merritt	-12.0266
▁millennium	-12.0266
▁montreal	-12.0266
▁motorbike	-12.0266
▁myseif	-12.0266
▁nazareth	-12.0266
▁nffa	-12.0266
▁nuhuh	-12.0266
▁oatmeal	-12.0266
▁obama	-12.0266
▁obedient	-12.0266
▁obscure	-12.0266
▁outbreak	-12.0266
▁ozzie	-12.0266
▁parliament	-12.0266
▁parrish	-12.0266
▁patterson	-12.0266
▁pepperoni	-12.0266
▁pharaoh	-12.0266
▁philotas	-12.0266
▁piranha	-12.0266
▁podacter	-12.0266
▁poiice	-12.0266
▁pornography	-12.0266
▁portorosso	-12.0266
▁prettiest	-12.0266
▁prostitution	-12.0266
▁psychiatric	-12.0266
▁purcell	-12.0266
▁quarrel	-12.0266
▁quesadilla	-12.0266
▁quidditch	-12.0266
▁ralph	-12.0266
▁rehab	-12.0266
▁renowned	-12.0266
▁rizu	-12.0266
▁rumpelstiltskin	-12.0266
▁sagdiyev	-12.0266
▁salvatore	-12.0266
▁schenectady	-12.0266
▁secrecy	-12.0266
▁sesterces	-12.0266
▁shampoo	-12.0266
▁sheila	-12.0266
▁shmoo	-12.0266
▁shortsighted	-12.0266
▁sizzles	-12.0266
▁skeleton	-12.0266
▁slevin	-12.0266
▁smother	-12.0266
▁sophisticated	-12.0266
▁spontaneous	-12.0266
▁stanhope	-12.0266
▁stiltskin	-12.0266
▁strode	-12.0266
▁swedish	-12.0266
▁tequila	-12.0266
▁terrain	-12.0266
▁thatcher	-12.0266
▁timothy	-12.0266
▁tminus	-12.0266
▁tourniquet	-12.0266
▁transcend	-12.0266
▁trojan	-12.0266
▁tyrant	-12.0266
▁uneasy	-12.0266
▁unfaithful	-12.0266
▁unlucky	-12.0266
▁vanilla	-12.0266
▁voldemort	-12.0266
▁walcott	-12.0266
▁wharf	-12.0266
▁witwicky	-12.0266
▁wrench	-12.0266
▁xavier	-12.0266
▁bandaid	-12.0266
▁buckingham	-12.0266
▁daryl	-12.0266
▁juror	-12.0266
▁midwest	-12.0266
▁outmode	-12.0266
▁paddle	-12.0266
▁pneumonia	-12.0266
▁quench	-12.0266
▁slammed	-12.0266
▁slovnik	-12.0266
▁sundance	-12.0266
▁athens	-12.0266
▁chancellor	-12.0266
▁emilie	-12.0266
▁imminent	-12.0266
▁irre	-12.0266
▁proving	-12.0266
▁serial	-12.0266
▁sushi	-12.0266
dolph	-12.0266
▁eurostream	-12.0266
▁jamaica	-12.0266
▁manifest	-12.0266
▁modal	-12.0266
▁unholy	-12.0266
▁bennie	-12.0266
▁tuning	-12.0266
▁tuxedo	-12.0266
▁clarissa	-12.0266
▁hypocrite	-12.0266
▁mumbles	-12.0266
▁tampon	-12.0266
▁angei	-12.0266
▁basil	-12.0266
▁omelet	-12.0266
▁ratio	-12.0266
▁stabbing	-12.0266
▁exaggerating	-12.0266
▁gobble	-12.0266
▁instagram	-12.0266
▁congregation	-12.0266
▁seminar	-12.0266
▁controversial	-12.0266
▁overhear	-12.0266
▁trills	-12.0266
▁paragraph	-12.0266
▁bronze	-12.0266
▁quatre	-12.0266
▁yawp	-12.0266
▁renovat	-12.0266
▁knack	-12.0266
▁moshe	-12.0266
▁petrified	-12.0266
▁arcana	-12.0266
▁blunt	-12.0266
▁onstage	-12.0266
▁bullseye	-12.0266
▁convertible	-12.0266
▁clarify	-12.0266
▁snail	-12.0266
▁appreciation	-12.0266
▁cartels	-12.0266
▁sloppy	-12.0266
▁ashore	-12.0266
▁senile	-12.0266
▁menace	-12.0266
▁telegram	-12.0266
▁bubba	-12.0266
▁discrimination	-12.0266
▁hartog	-12.0266
▁shady	-12.0266
▁stunned	-12.0266
▁gollum	-12.0266
▁lumber	-12.0266
▁regroup	-12.0266
▁sidney	-12.0266
▁alaska	-12.0266
▁candlelight	-12.0266
▁console	-12.0266
▁abbot	-12.0266
▁brigid	-12.0266
▁narrative	-12.0266
▁bogey	-12.0266
▁marcellus	-12.0266
▁monstrous	-12.0266
▁midget	-12.0266
▁gender	-12.0266
▁overmeyer	-12.0266
▁sprock	-12.0266
▁pennington	-12.0266
▁gutterboy	-12.0266
▁lilith	-12.0266
▁pushups	-12.0266
▁verify	-12.0266
▁enchantment	-12.0266
▁yoyo	-12.0266
▁freud	-12.0267
▁prosper	-12.0267
▁chomp	-12.0267
▁vivid	-12.0267
▁zach	-12.0267
▁twig	-12.0267
▁trolley	-12.0267
▁fluke	-12.0267
▁automatically	-12.0267
▁capuano	-12.0267
▁inconvenience	-12.0267
▁reduction	-12.0267
▁disturbance	-12.0267
▁characteristic	-12.0267
▁florine	-12.0267
▁gaby	-12.0267
▁sprout	-12.0267
▁spinach	-12.0267
▁viral	-12.0267
▁employment	-12.0267
▁hasty	-12.0267
▁wiggle	-12.0267
▁transferring	-12.0267
▁kofi	-12.0267
▁stride	-12.0267
▁flourish	-12.0267
▁engl	-12.0267
▁hankins	-12.0267
▁regent	-12.0267
▁jefe	-12.0267
▁illuminat	-12.0267
▁criticism	-12.0267
▁jonah	-12.0267
▁oslo	-12.0267
▁sofa	-12.0267
▁greve	-12.0267
▁articulate	-12.0267
▁guv	-12.0267
▁commute	-12.0267
▁fluent	-12.0267
▁indication	-12.0267
▁cheney	-12.0267
▁drugged	-12.0267
▁fudge	-12.0267
▁acquainted	-12.0267
▁joust	-12.0267
▁chickenshit	-12.0267
▁magda	-12.0267
▁floss	-12.0268
▁whyre	-12.0268
▁cinq	-12.0268
▁hhow	-12.0268
▁hunch	-12.0268
▁naptime	-12.0268
▁bidding	-12.0268
▁maud	-12.0268
▁canine	-12.0268
▁courtyard	-12.0268
▁probation	-12.0268
ovich	-12.0268
▁skipper	-12.0268
▁confidentiality	-12.0268
▁underline	-12.0268
▁notebook	-12.0268
▁babak	-12.0268
▁slash	-12.0268
▁liam	-12.0268
▁vince	-12.0268
▁reborn	-12.0268
▁kitten	-12.0268
▁colonies	-12.0269
▁chipper	-12.0269
▁erect	-12.0269
▁meddl	-12.0269
rock	-12.0269
▁malaysian	-12.0269
▁oj	-12.0269
▁milan	-12.0269
▁tung	-12.0269
▁gent	-12.0269
▁inmate	-12.0269
▁whooshes	-12.0269
▁wong	-12.0269
▁cruelty	-12.0269
▁airspeed	-12.027
▁venus	-12.027
▁rutt	-12.027
▁chaz	-12.027
▁cement	-12.027
▁plunge	-12.027
▁hull	-12.027
▁supervisor	-12.027
▁weiss	-12.027
▁finch	-12.027
▁gateway	-12.027
▁armour	-12.0271
▁ratings	-12.0271
▁turbo	-12.0271
▁scarlet	-12.0271
▁deliberately	-12.0271
▁eise	-12.0271
▁bundle	-12.0271
▁crispin	-12.0271
▁overtime	-12.0271
▁imply	-12.0271
▁hlt	-12.0272
▁depot	-12.0272
▁province	-12.0272
▁sensational	-12.0272
[...]
