<unk>	0
<s>	0
</s>	0
s	-4.03502
▁im	-4.46144
▁dont	-4.51224
▁know	-4.60568
▁get	-4.7768
▁like	-4.846
▁go	-4.86128
▁oh	-4.89305
▁right	-4.92311
▁well	-4.97836
▁youre	-4.97908
▁come	-4.9817
▁got	-4.9934
▁thats	-5.13872
▁one	-5.17128
▁na	-5.2368
▁yeah	-5.28359
▁see	-5.31046
▁good	-5.31606
ing	-5.35577
▁think	-5.38569
▁want	-5.45019
▁look	-5.49225
▁back	-5.49299
▁yes	-5.49353
▁hey	-5.53358
▁gon	-5.54719
▁us	-5.56906
▁ill	-5.59835
▁hes	-5.60662
▁time	-5.61962
▁going	-5.6294
▁okay	-5.64052
▁take	-5.67463
▁would	-5.67853
▁man	-5.68667
▁cant	-5.7085
▁mr	-5.73934
ed	-5.77517
▁say	-5.80635
▁could	-5.84436
▁tell	-5.87448
▁never	-5.8819
▁way	-5.91906
▁little	-5.92784
▁really	-5.95887
▁	-5.96724
▁l	-5.97903
▁make	-5.98635
▁something	-5.99052
▁need	-5.99825
▁whats	-6.00717
▁let	-6.01201
▁ive	-6.04031
▁love	-6.06618
▁lets	-6.10656
▁theres	-6.11328
▁sir	-6.13114
d	-6.13384
▁mean	-6.14527
▁please	-6.16457
▁thank	-6.16594
▁give	-6.18384
▁didnt	-6.21192
▁sorry	-6.22703
▁thing	-6.23804
▁sure	-6.24355
▁help	-6.26791
▁people	-6.28087
▁wait	-6.28942
▁day	-6.29138
▁find	-6.32006
▁said	-6.32278
▁two	-6.32838
▁life	-6.37134
▁home	-6.38291
▁stop	-6.41429
▁great	-6.4214
▁much	-6.4234
▁uh	-6.42637
▁nothing	-6.43181
▁theyre	-6.4396
▁must	-6.44581
▁away	-6.47638
▁father	-6.48392
y	-6.49652
▁first	-6.50436
▁always	-6.50776
▁anything	-6.5145
▁even	-6.52113
▁work	-6.5215
▁call	-6.52556
ly	-6.53877
▁better	-6.54719
▁ta	-6.5754
▁put	-6.57987
▁night	-6.58198
▁shes	-6.58294
▁keep	-6.5948
▁youll	-6.59913
e	-6.59943
▁new	-6.59957
▁ever	-6.60885
▁god	-6.61025
▁huh	-6.61771
▁wan	-6.62015
▁boy	-6.62766
▁still	-6.63281
▁maybe	-6.64054
▁around	-6.65011
▁name	-6.66155
▁big	-6.66177
▁old	-6.66459
▁thought	-6.67494
▁stay	-6.6921
▁long	-6.6922
▁everything	-6.70789
▁talk	-6.72673
▁guys	-6.73039
▁wont	-6.73912
▁feel	-6.73917
▁things	-6.74713
▁youve	-6.74763
▁id	-6.75083
▁told	-6.75835
▁miss	-6.7656
▁girl	-6.76821
▁believe	-6.77799
▁nice	-6.7809
▁leave	-6.78499
▁place	-6.78649
▁coming	-6.79152
▁last	-6.79358
▁hear	-6.81728
▁listen	-6.81757
▁dad	-6.83391
▁world	-6.8351
▁music	-6.84789
▁every	-6.85276
▁years	-6.86737
▁fine	-6.8692
▁show	-6.87178
▁remember	-6.88405
▁doesnt	-6.88712
▁made	-6.88967
▁hi	-6.89587
▁bad	-6.90139
▁lot	-6.91955
▁hello	-6.92525
▁house	-6.92825
▁thanks	-6.93406
▁another	-6.93487
▁son	-6.93548
▁hold	-6.94786
▁done	-6.95309
▁wrong	-6.95567
er	-6.96429
▁may	-6.96583
▁care	-6.96717
▁enough	-6.97692
▁today	-6.98502
▁course	-6.98504
▁mother	-6.98574
▁best	-6.99873
▁mind	-7.00841
▁isnt	-7.00967
▁move	-7.01747
▁money	-7.01803
▁kind	-7.01907
▁left	-7.02045
▁guy	-7.02131
▁ready	-7.02737
▁kid	-7.02979
▁friend	-7.03413
▁ah	-7.04201
▁real	-7.07129
▁hell	-7.08082
▁run	-7.09623
▁job	-7.09915
▁morning	-7.09961
▁looking	-7.10446
▁three	-7.10569
▁whoa	-7.10571
▁watch	-7.10958
▁ok	-7.118
▁talking	-7.13102
▁try	-7.13154
▁might	-7.13159
▁family	-7.14301
▁seen	-7.15552
▁together	-7.16544
▁ask	-7.17897
▁else	-7.17974
▁found	-7.18478
▁understand	-7.18703
▁wouldnt	-7.19211
▁school	-7.19843
▁whos	-7.20431
▁car	-7.20929
▁playing	-7.21293
▁weve	-7.2153
▁mom	-7.21667
▁getting	-7.21952
▁fight	-7.22266
▁head	-7.22591
▁happened	-7.22717
▁someone	-7.23062
▁guess	-7.23161
▁excuse	-7.23619
▁play	-7.2394
▁whole	-7.23944
▁baby	-7.24293
▁hard	-7.24379
▁came	-7.24964
▁dead	-7.24999
▁aint	-7.25703
a	-7.26331
▁many	-7.27134
▁friends	-7.28501
▁trying	-7.28756
▁tomorrow	-7.29617
▁next	-7.30059
▁bring	-7.30585
▁matter	-7.30686
▁dog	-7.3182
▁turn	-7.31838
▁gone	-7.3193
▁tonight	-7.31932
▁wanted	-7.3276
▁men	-7.32835
▁hope	-7.32846
▁everybody	-7.33072
▁face	-7.33433
▁heart	-7.33539
▁minute	-7.34137
▁kids	-7.34924
▁pretty	-7.35003
▁without	-7.35003
▁boys	-7.3525
▁start	-7.35277
▁live	-7.35525
▁bit	-7.35712
▁wasnt	-7.35786
▁everyone	-7.35796
▁woman	-7.35797
▁george	-7.36575
▁eat	-7.36577
▁true	-7.3698
▁kill	-7.37301
▁harry	-7.3737
r	-7.37709
▁cause	-7.38352
▁door	-7.39422
▁beautiful	-7.39643
▁grunts	-7.39867
▁jack	-7.40126
▁lord	-7.40203
▁idea	-7.40214
▁water	-7.40222
▁meet	-7.40981
▁king	-7.41196
▁hand	-7.41747
▁worry	-7.4186
es	-7.41894
▁room	-7.41965
▁saw	-7.42285
▁open	-7.4245
▁knew	-7.42699
▁havent	-7.42699
al	-7.43194
t	-7.4383
▁use	-7.43869
▁sit	-7.44178
in	-7.44346
▁gasps	-7.45004
▁youd	-7.45263
▁forget	-7.46555
▁mrs	-7.46857
▁young	-7.46879
▁ha	-7.47329
▁mine	-7.48153
o	-7.48456
▁somebody	-7.48974
▁lost	-7.49684
▁took	-7.50116
▁crazy	-7.5058
▁read	-7.50751
▁used	-7.51074
▁city	-7.51293
▁end	-7.51828
▁heard	-7.51931
▁alone	-7.51958
▁yet	-7.52429
▁lm	-7.53973
▁laughing	-7.53986
▁looks	-7.55321
▁fire	-7.56361
▁already	-7.56686
▁anyone	-7.56686
▁went	-7.56687
▁part	-7.57336
▁town	-7.57439
▁late	-7.57962
▁stand	-7.58113
▁afraid	-7.59137
▁general	-7.60587
▁um	-7.60662
▁lady	-7.6111
▁trust	-7.61339
▁far	-7.61385
▁nobody	-7.61649
▁second	-7.63111
▁light	-7.63377
▁saying	-7.63948
▁shall	-7.64221
▁exactly	-7.64242
▁brother	-7.64692
▁easy	-7.64754
▁says	-7.64885
▁close	-7.65222
▁high	-7.65232
▁stuff	-7.65492
▁eyes	-7.65718
▁hit	-7.65757
▁em	-7.66375
▁couldnt	-7.66393
▁four	-7.67405
▁chance	-7.67424
▁wish	-7.68115
▁hmm	-7.68183
▁welcome	-7.68494
▁honey	-7.68495
▁wheres	-7.68816
▁soon	-7.68951
▁shut	-7.69018
▁since	-7.69332
▁phone	-7.69673
▁happy	-7.70143
▁tom	-7.7068
▁power	-7.7076
n	-7.70927
▁later	-7.71357
▁change	-7.71597
▁cool	-7.71694
▁set	-7.71857
▁called	-7.72259
▁probably	-7.72384
▁important	-7.72956
▁year	-7.73616
▁check	-7.74033
▁making	-7.74107
▁thinking	-7.74271
▁pay	-7.74805
▁un	-7.7505
▁days	-7.75244
▁wants	-7.75331
▁die	-7.75751
▁wow	-7.75837
▁actually	-7.76444
▁break	-7.7666
▁gave	-7.77025
▁wife	-7.77031
▁send	-7.77097
▁minutes	-7.77763
▁fun	-7.78026
ve	-7.78578
▁hands	-7.78776
▁damn	-7.79115
▁de	-7.79309
▁ago	-7.7958
▁daddy	-7.79639
▁ya	-7.79672
▁anybody	-7.80648
▁side	-7.81557
▁rest	-7.81694
▁taking	-7.81906
▁wolf	-7.82748
▁follow	-7.82972
▁inside	-7.83142
▁ahead	-7.83143
▁five	-7.83165
▁deal	-7.83937
▁waiting	-7.84025
▁sherman	-7.8442
▁sighs	-7.84459
▁happen	-7.84505
▁perfect	-7.84881
▁story	-7.85053
▁trouble	-7.85189
▁children	-7.8537
▁dance	-7.854
▁hurt	-7.85526
▁save	-7.85531
▁joe	-7.85573
▁theyll	-7.85696
▁anyway	-7.85696
▁arent	-7.85698
▁chuckles	-7.858
▁word	-7.86
▁hot	-7.86103
▁almost	-7.86346
▁gentlemen	-7.86346
▁point	-7.86523
▁free	-7.87428
▁business	-7.8764
▁papa	-7.87689
▁different	-7.88169
▁hurry	-7.88325
▁walk	-7.88597
▁la	-7.88948
▁six	-7.88966
▁whatever	-7.88986
▁sister	-7.89369
▁working	-7.89426
▁supposed	-7.89813
▁dear	-7.90179
▁marty	-7.90333
▁quite	-7.90412
▁problem	-7.90435
▁moment	-7.90749
▁party	-7.91221
▁cut	-7.91666
▁captain	-7.91698
▁bye	-7.91698
▁sleep	-7.91754
▁rocky	-7.91839
▁laughs	-7.91874
▁top	-7.92878
▁laura	-7.93083
▁ooh	-7.93783
▁batman	-7.93789
▁least	-7.93806
▁red	-7.93913
▁doctor	-7.94264
▁week	-7.94967
▁means	-7.95017
▁clear	-7.9524
▁girls	-7.95532
▁dr	-7.95718
▁continues	-7.9586
▁outside	-7.9591
▁luck	-7.96129
i	-7.9616
▁rock	-7.96277
▁number	-7.96437
▁though	-7.96563
▁jerry	-7.96634
▁line	-7.97041
▁yi	-7.97965
▁running	-7.98092
▁voice	-7.9867
▁child	-7.98804
▁ship	-7.9884
▁miles	-7.98999
▁plan	-7.99283
▁dark	-7.99519
▁air	-7.99556
▁sometimes	-7.99803
▁goes	-8.00288
▁stupid	-8.00305
▁comes	-8.00894
▁front	-8.01056
▁parents	-8.01368
▁hate	-8.01494
▁cat	-8.01838
▁full	-8.02017
c	-8.02031
▁wonderful	-8.02609
m	-8.0316
▁half	-8.03258
▁along	-8.03348
▁also	-8.03349
▁speak	-8.03448
or	-8.0357
▁promise	-8.03823
▁shot	-8.03986
▁person	-8.04013
▁dragon	-8.04043
▁ow	-8.04108
▁funny	-8.04127
▁master	-8.04129
▁truth	-8.04902
▁behind	-8.04904
▁feeling	-8.04932
▁bed	-8.05171
▁times	-8.05539
▁amanda	-8.05691
▁food	-8.05697
▁safe	-8.06272
▁killed	-8.06293
▁alive	-8.06492
▁war	-8.0696
▁th	-8.07891
▁reason	-8.08045
▁anymore	-8.08904
▁future	-8.08904
▁heres	-8.09135
p	-8.09234
▁case	-8.0974
▁touch	-8.09762
▁needs	-8.10375
▁human	-8.10555
▁jim	-8.10569
▁game	-8.10573
▁mary	-8.10576
▁grunting	-8.10591
▁fly	-8.10678
▁sound	-8.111
▁pick	-8.11372
▁itll	-8.11384
▁dinner	-8.11412
▁bet	-8.11588
▁knows	-8.11735
▁hang	-8.11946
▁doc	-8.12104
▁brought	-8.12224
▁goodbye	-8.12224
▁met	-8.12691
▁strong	-8.12949
▁office	-8.13058
▁living	-8.13072
▁wonder	-8.13117
▁uncle	-8.13134
▁book	-8.13748
▁either	-8.13926
▁lose	-8.1396
▁singing	-8.15116
g	-8.15326
▁earth	-8.15662
▁learn	-8.15688
▁land	-8.15867
▁sweet	-8.16367
▁ten	-8.16382
▁makes	-8.16506
▁drink	-8.16667
▁fish	-8.16796
▁ones	-8.17069
▁country	-8.17429
l	-8.17574
▁police	-8.18294
▁black	-8.18299
▁perhaps	-8.18313
▁shouldnt	-8.18314
▁eye	-8.18465
▁tree	-8.18468
▁catch	-8.18682
▁quiet	-8.19065
▁fast	-8.1912
▁asked	-8.19139
▁ladies	-8.19216
▁rather	-8.19219
▁panting	-8.19225
▁hows	-8.19268
▁step	-8.19384
▁blood	-8.1998
▁jesus	-8.20125
▁charlie	-8.20127
▁lead	-8.20193
▁sea	-8.20384
▁win	-8.20579
▁r	-8.20603
▁order	-8.20945
▁married	-8.21047
▁tony	-8.21061
▁join	-8.21343
▁yo	-8.21631
▁started	-8.21758
▁b	-8.21954
▁gun	-8.22184
f	-8.22609
▁poor	-8.22908
▁sam	-8.22909
▁question	-8.23142
▁attack	-8.23296
▁hours	-8.2334
▁slow	-8.23592
▁lives	-8.24009
▁less	-8.24038
▁piece	-8.24113
▁answer	-8.24273
▁seems	-8.24315
▁buy	-8.24334
▁news	-8.24585
▁sick	-8.24791
▁couple	-8.24797
▁maam	-8.24797
▁ugh	-8.24797
▁street	-8.25068
▁sort	-8.25436
▁suppose	-8.25545
▁lts	-8.25732
▁pinocchio	-8.25758
▁feet	-8.25765
▁become	-8.26047
▁died	-8.26172
▁quick	-8.26497
▁fair	-8.26559
▁s	-8.26701
▁screams	-8.27084
▁shell	-8.2756
on	-8.27631
▁death	-8.27712
▁tried	-8.27721
▁fact	-8.27956
▁c	-8.28175
▁taken	-8.28332
▁court	-8.28704
▁annie	-8.28706
▁chief	-8.28706
▁president	-8.29041
▁doyle	-8.29046
▁picture	-8.29049
▁ball	-8.29245
▁hair	-8.29564
▁dream	-8.2974
▁tired	-8.30718
▁finally	-8.3077
▁boat	-8.31097
ic	-8.31501
▁fall	-8.31589
ion	-8.32431
▁wed	-8.32449
▁class	-8.3267
est	-8.3271
▁re	-8.32726
▁peabody	-8.32761
▁blue	-8.32761
▁mama	-8.328
▁kiss	-8.32939
▁pull	-8.33019
▁kane	-8.3318
▁daughter	-8.3319
▁careful	-8.33729
▁robin	-8.338
▁elliott	-8.33803
▁others	-8.33803
▁ride	-8.33993
▁able	-8.34046
▁evening	-8.34534
▁worth	-8.34692
▁jump	-8.34745
▁sounds	-8.34823
▁respect	-8.34831
▁body	-8.34855
▁york	-8.34855
▁sign	-8.3486
st	-8.35401
▁small	-8.35821
▁fault	-8.35921
▁cold	-8.35947
▁lucky	-8.36142
▁round	-8.36419
▁control	-8.36445
▁drive	-8.36734
▁somewhere	-8.36994
▁buddy	-8.37001
▁scared	-8.37076
▁bell	-8.37164
▁gets	-8.37509
▁words	-8.3757
▁short	-8.37762
h	-8.38004
▁super	-8.38079
▁jungle	-8.38086
le	-8.38225
▁present	-8.38268
▁a	-8.3846
▁finish	-8.38876
▁glad	-8.3903
▁possible	-8.3918
▁chattering	-8.39256
▁weeks	-8.3953
▁secret	-8.39736
▁group	-8.39746
ar	-8.39803
▁seem	-8.39936
▁special	-8.4013
▁robyn	-8.40293
▁kidding	-8.40296
▁dangerous	-8.40302
▁soldier	-8.40889
▁hour	-8.40897
▁happens	-8.40922
▁shoot	-8.40968
▁write	-8.41288
▁leaving	-8.41415
▁till	-8.41429
▁throw	-8.41507
▁beat	-8.41676
▁figure	-8.41808
▁rules	-8.41962
ers	-8.42001
▁spot	-8.4202
▁ground	-8.42043
▁push	-8.42236
▁expect	-8.42391
▁busy	-8.42615
▁army	-8.42629
▁bill	-8.42981
en	-8.43177
▁magic	-8.43399
▁bird	-8.434
▁act	-8.43525
▁amazing	-8.43549
▁moving	-8.43702
▁shit	-8.4371
▁sent	-8.4384
▁gold	-8.43971
▁clean	-8.44081
▁known	-8.44675
▁tough	-8.44759
▁felt	-8.44864
▁ella	-8.44866
▁absolutely	-8.44885
▁telling	-8.44975
▁mark	-8.45161
▁team	-8.45574
▁quit	-8.459
▁husband	-8.4604
▁rupert	-8.4604
▁company	-8.4604
b	-8.46045
▁white	-8.4605
ies	-8.46333
▁wind	-8.46369
▁judge	-8.46748
▁marry	-8.46757
▁smell	-8.46768
able	-8.46853
▁meeting	-8.46859
▁questions	-8.4693
▁women	-8.47231
▁lake	-8.47268
▁stick	-8.47364
▁greatest	-8.47422
▁sun	-8.47698
▁prince	-8.47954
▁wake	-8.4826
▁proud	-8.48273
▁forever	-8.48432
▁forward	-8.48436
▁fix	-8.48875
▁crowd	-8.49346
▁colonel	-8.49656
▁evil	-8.49656
▁outta	-8.49658
▁screaming	-8.49779
▁sing	-8.49799
▁h	-8.49873
▁loves	-8.50402
▁sense	-8.50465
▁mayor	-8.50609
▁broke	-8.50846
▁loved	-8.50872
▁simple	-8.50888
▁darling	-8.50891
▁cheering	-8.50997
▁j	-8.51071
re	-8.51849
▁except	-8.5211
▁hungry	-8.52142
▁princess	-8.52308
▁date	-8.52341
▁pass	-8.52732
▁force	-8.52806
▁position	-8.53019
▁happening	-8.53045
▁e	-8.53137
▁pooh	-8.53406
▁seven	-8.53416
▁calm	-8.53459
▁drop	-8.53464
▁certainly	-8.53502
▁longer	-8.54005
▁teach	-8.54035
▁relax	-8.54378
▁smart	-8.54582
▁attention	-8.54687
▁vada	-8.54688
▁impossible	-8.5469
▁favorite	-8.5469
▁wear	-8.55002
▁fool	-8.55138
▁calling	-8.55556
▁lie	-8.55587
▁song	-8.55774
▁mad	-8.55906
▁theyve	-8.55986
▁daisy	-8.55994
▁hub	-8.56019
▁d	-8.56078
▁laugh	-8.56185
▁m	-8.56598
▁da	-8.57086
▁standing	-8.57214
▁strange	-8.57227
▁jones	-8.5731
▁nose	-8.57317
▁terrible	-8.57378
▁groans	-8.5747
▁handle	-8.5749
▁star	-8.58008
ll	-8.58071
▁spirit	-8.58308
▁worked	-8.58319
▁table	-8.58338
▁paper	-8.58369
▁commander	-8.58378
▁deep	-8.58459
▁born	-8.58474
▁law	-8.58584
▁straight	-8.58609
▁choice	-8.5863
▁p	-8.58758
▁interesting	-8.58771
▁race	-8.5889
▁dreams	-8.59496
▁past	-8.59892
ity	-8.59984
▁tv	-8.59993
▁mouth	-8.59994
▁none	-8.60019
▁code	-8.60062
us	-8.60183
▁lovely	-8.60434
▁speaking	-8.60797
▁honor	-8.61022
▁serious	-8.61212
▁shh	-8.61341
▁dancing	-8.61357
▁unless	-8.61391
▁return	-8.61654
▁robot	-8.61785
▁fighting	-8.6183
▁asking	-8.61901
▁floor	-8.62471
▁south	-8.6274
▁sisu	-8.62746
▁upon	-8.62759
▁moon	-8.62781
▁broken	-8.62797
▁holy	-8.62846
▁early	-8.62908
▁et	-8.63133
▁link	-8.6384
▁machine	-8.63907
▁million	-8.63913
▁ugly	-8.64152
▁ice	-8.64455
▁hed	-8.64535
▁mmm	-8.64734
▁watching	-8.64864
▁meant	-8.64882
▁turned	-8.65293
▁han	-8.6534
▁frank	-8.65421
▁entire	-8.65435
▁mess	-8.65447
▁coffee	-8.65582
▁alright	-8.65583
▁raya	-8.65604
▁saved	-8.66077
▁fear	-8.6629
▁test	-8.66358
▁speed	-8.66503
▁spend	-8.66557
▁carry	-8.66629
man	-8.66787
▁looked	-8.66858
▁loud	-8.66997
▁history	-8.67032
▁giving	-8.67032
▁eight	-8.67058
▁boom	-8.67083
▁madame	-8.67141
▁in	-8.67299
▁count	-8.6752
ther	-8.67722
w	-8.67802
▁stone	-8.68186
ce	-8.68187
▁ought	-8.68441
▁months	-8.68452
▁werent	-8.68502
▁stuck	-8.68506
▁crime	-8.68518
▁brave	-8.68526
▁pants	-8.68571
▁f	-8.68862
▁dre	-8.6908
▁works	-8.69083
▁command	-8.69209
▁charge	-8.69606
ness	-8.69732
▁appreciate	-8.69753
▁mistake	-8.69788
▁summer	-8.69818
▁normal	-8.6985
▁monsieur	-8.69995
▁major	-8.70006
▁hide	-8.70016
▁foot	-8.70037
▁train	-8.70492
▁visit	-8.70939
▁near	-8.71361
▁teacher	-8.71481
▁afternoon	-8.7151
▁anywhere	-8.7151
▁eh	-8.7155
▁peter	-8.71641
▁lion	-8.71719
▁given	-8.72103
▁aw	-8.72882
▁hole	-8.73014
▁superman	-8.73073
▁ring	-8.73801
ment	-8.7389
▁surprise	-8.74269
▁seat	-8.7432
▁press	-8.74401
▁imagine	-8.74413
ation	-8.7459
over	-8.74691
▁report	-8.74727
▁bag	-8.74778
▁promised	-8.7505
an	-8.75058
▁state	-8.75069
▁g	-8.75285
▁rain	-8.75709
▁cry	-8.75728
▁breaking	-8.7585
▁station	-8.76117
▁miguel	-8.76194
▁christmas	-8.76198
▁hasnt	-8.76201
▁walter	-8.76206
▁mommy	-8.76207
▁mike	-8.76213
▁letter	-8.76368
▁lll	-8.76509
▁monster	-8.76984
▁cross	-8.76993
▁queen	-8.77285
▁arms	-8.77408
▁radio	-8.77758
▁horse	-8.77784
▁hospital	-8.77791
▁uhhuh	-8.77811
▁neil	-8.77815
▁space	-8.77817
▁shouting	-8.77899
▁dogs	-8.78314
▁aah	-8.78459
ry	-8.78499
▁cover	-8.78647
▁blow	-8.78923
▁bat	-8.79261
▁needed	-8.79394
▁message	-8.79409
▁lunch	-8.79447
▁audience	-8.7945
▁moxy	-8.7945
▁neither	-8.7945
▁robert	-8.7945
▁worse	-8.7945
▁pleasure	-8.79451
▁birthday	-8.79451
um	-8.79624
▁starting	-8.79742
▁talked	-8.8019
▁search	-8.80215
▁offer	-8.80301
▁weird	-8.80949
▁church	-8.81041
▁buck	-8.81063
▁favor	-8.81109
▁kingdom	-8.81115
▁window	-8.81125
▁forest	-8.81129
▁se	-8.8138
▁share	-8.81867
▁cute	-8.81921
▁box	-8.82202
▁walking	-8.82281
▁takes	-8.82468
▁gift	-8.82485
▁raise	-8.82592
▁notice	-8.82618
▁waste	-8.82683
▁grab	-8.82795
▁adrian	-8.82812
▁english	-8.82812
▁arthur	-8.82812
▁north	-8.82812
▁month	-8.82879
▁gosh	-8.83145
▁shoes	-8.83231
▁trip	-8.83246
▁t	-8.83351
▁fathers	-8.83388
▁missed	-8.83486
less	-8.83685
▁enjoy	-8.83742
▁pal	-8.83813
▁across	-8.84536
▁college	-8.84536
▁difference	-8.84536
▁ursula	-8.84539
▁heaven	-8.84616
▁sight	-8.84624
▁smith	-8.84678
th	-8.8521
▁rich	-8.8535
▁dress	-8.85378
k	-8.85405
▁flying	-8.85511
▁st	-8.85955
▁peace	-8.85972
el	-8.86181
▁glass	-8.86226
▁ass	-8.86258
▁apollo	-8.8629
▁balboa	-8.8629
▁breakfast	-8.8629
▁enemy	-8.8629
▁guitar	-8.8629
▁middle	-8.8629
▁shake	-8.86292
▁alex	-8.86292
▁garth	-8.86293
▁bridge	-8.86301
▁mm	-8.86359
▁continue	-8.86415
▁plane	-8.86665
u	-8.86755
▁lo	-8.86863
▁ape	-8.86876
▁age	-8.87071
▁destroy	-8.87293
▁sen	-8.87357
▁explain	-8.87758
▁smile	-8.87839
▁doubt	-8.87859
▁sad	-8.87963
▁forgot	-8.88073
▁yesterday	-8.88076
▁sadiel	-8.88077
▁grand	-8.88082
▁everywhere	-8.88083
▁low	-8.88166
▁monkey	-8.88191
▁service	-8.88195
▁computer	-8.88219
▁begin	-8.88231
▁lou	-8.88493
▁park	-8.88991
▁protect	-8.89019
▁build	-8.89414
▁soul	-8.89596
▁double	-8.8967
▁realize	-8.89699
▁forgive	-8.89827
▁extra	-8.89856
▁green	-8.8989
▁christopher	-8.89894
▁flint	-8.89896
▁clothes	-8.89898
▁crew	-8.89907
▁worried	-8.89912
▁tight	-8.89913
▁yep	-8.89913
▁silly	-8.89913
▁christ	-8.89944
▁bloody	-8.90195
ter	-8.90271
▁n	-8.90559
▁brain	-8.90578
▁k	-8.90712
▁kick	-8.90952
▁lt	-8.91211
▁mitsuha	-8.91746
▁pupkin	-8.91747
▁truman	-8.91747
▁strength	-8.91749
▁completely	-8.9188
▁ogre	-8.91956
▁allowed	-8.92012
▁finished	-8.92264
ling	-8.92756
▁lived	-8.92781
▁al	-8.93264
▁certain	-8.93478
▁ran	-8.93547
▁fell	-8.93552
▁angel	-8.93558
▁over	-8.93616
▁fiona	-8.93633
▁ghost	-8.93633
▁ridiculous	-8.93633
▁bigger	-8.93633
▁fresh	-8.93634
▁distance	-8.93641
▁definitely	-8.93645
▁single	-8.93666
▁dave	-8.93698
▁growls	-8.93714
▁howling	-8.93755
▁system	-8.93874
▁planet	-8.93894
▁folks	-8.93907
▁goodness	-8.94261
▁warm	-8.94662
▁feels	-8.94667
▁reach	-8.94728
▁orders	-8.95145
ie	-8.9531
▁mario	-8.95509
▁weather	-8.95544
▁dramatic	-8.95551
▁shrek	-8.95556
▁creed	-8.95556
▁jail	-8.95563
▁center	-8.95569
▁baron	-8.95593
▁fred	-8.95662
▁papers	-8.96031
▁crying	-8.96124
▁learned	-8.96252
▁changed	-8.96305
▁hero	-8.96329
▁hat	-8.96415
ch	-8.96579
▁roll	-8.96894
▁cook	-8.97011
▁ii	-8.9732
▁earl	-8.97375
▁note	-8.9743
▁personal	-8.975
▁caught	-8.97517
▁majesty	-8.97517
▁thomas	-8.97517
▁worst	-8.97517
▁bought	-8.97518
▁mason	-8.97521
▁soren	-8.97531
▁screeching	-8.97549
▁lying	-8.97575
▁lois	-8.97661
▁brothers	-8.97746
▁idiot	-8.97809
▁knight	-8.97828
is	-8.97969
▁joey	-8.97977
▁ho	-8.98326
▁pack	-8.98769
▁track	-8.98914
▁seeing	-8.9913
▁honest	-8.99215
▁excited	-8.99345
▁soft	-8.99402
▁charles	-8.99517
▁lawrence	-8.99517
▁luca	-8.99518
▁especially	-8.99518
▁chocolate	-8.9952
▁heavy	-8.99525
▁paid	-8.99531
▁doin	-8.99545
▁store	-8.99556
▁whe	-8.99602
▁complete	-8.99657
▁missing	-8.99746
▁quickly	-8.99818
▁action	-8.999
▁road	-8.99935
▁battle	-8.99942
▁bother	-9.00754
▁toys	-9.00768
▁sell	-9.0084
▁brown	-9.01093
▁problems	-9.01247
▁knock	-9.01285
▁mac	-9.01519
▁price	-9.01542
▁geppetto	-9.01558
▁mebh	-9.01558
▁taught	-9.01558
▁wolves	-9.01558
▁kept	-9.01558
▁stories	-9.01558
▁swear	-9.01559
▁penny	-9.0156
▁woodhouse	-9.01561
▁champion	-9.01569
▁indeed	-9.01571
▁danger	-9.0161
▁tail	-9.01614
▁letters	-9.0163
▁mia	-9.01639
▁bates	-9.01644
▁prove	-9.01654
▁totally	-9.01688
out	-9.01754
▁castle	-9.01884
▁area	-9.01908
▁chicken	-9.01914
▁belong	-9.0196
up	-9.01962
▁fit	-9.01977
▁field	-9.01991
▁base	-9.02002
ary	-9.02048
▁tea	-9.02064
▁hill	-9.02101
▁officer	-9.02117
▁wearing	-9.02293
▁building	-9.02467
▁gods	-9.02877
▁instead	-9.03641
▁spent	-9.03642
▁driving	-9.03644
▁gentleman	-9.03651
▁spiderman	-9.03652
▁handsome	-9.03656
▁haku	-9.03661
▁wedding	-9.03681
▁monsters	-9.03698
▁hall	-9.03735
▁names	-9.03871
▁joke	-9.03945
▁blessing	-9.04079
▁stan	-9.0425
▁ringing	-9.04269
▁cards	-9.04733
▁van	-9.04799
as	-9.05192
▁whoo	-9.05438
▁allow	-9.05468
▁public	-9.05625
▁bigweld	-9.05769
▁wrote	-9.05769
▁tuk	-9.0577
▁sweetheart	-9.05772
▁truly	-9.05778
▁sky	-9.05793
▁cake	-9.05812
▁gru	-9.0589
▁interested	-9.05912
▁parker	-9.05915
▁deserve	-9.05965
▁faster	-9.05993
▁lots	-9.06467
▁pop	-9.06476
▁aunt	-9.07181
▁char	-9.07391
▁consider	-9.07532
▁per	-9.07607
▁accept	-9.0761
▁blind	-9.0775
▁correct	-9.07788
▁grow	-9.0781
▁stole	-9.079
▁exclaims	-9.07942
▁professor	-9.07942
▁foster	-9.07943
▁emergency	-9.07944
▁writing	-9.07946
▁beginning	-9.07947
▁boyfriend	-9.07953
▁salt	-9.08005
▁x	-9.08064
▁arm	-9.08135
▁shed	-9.08207
▁doll	-9.08269
▁choose	-9.08413
▁river	-9.08514
▁beer	-9.08551
▁bomb	-9.09035
▁burn	-9.09354
▁bless	-9.09428
▁moved	-9.09655
ful	-9.09734
▁wild	-9.09925
▁escape	-9.09938
▁boss	-9.10098
▁witch	-9.10119
▁french	-9.10146
▁apart	-9.10149
▁contact	-9.10165
▁fortune	-9.10165
▁chuckling	-9.10166
▁match	-9.10172
▁science	-9.10174
▁sitting	-9.10202
▁band	-9.1021
▁village	-9.10247
▁trick	-9.10262
▁killing	-9.10518
▁jackie	-9.10538
▁breathing	-9.10621
▁clock	-9.10688
▁photo	-9.10751
▁suit	-9.10796
▁key	-9.10817
▁picked	-9.10986
▁fired	-9.11179
▁liked	-9.11586
▁holding	-9.11896
▁total	-9.12292
▁plenty	-9.12437
▁mademoiselle	-9.12438
▁someday	-9.12438
▁luke	-9.12461
▁growling	-9.12478
▁copy	-9.12537
▁silence	-9.12538
▁breath	-9.12635
▁named	-9.12675
▁besides	-9.12808
▁spell	-9.13022
▁bottom	-9.13031
▁account	-9.1305
▁giant	-9.13067
ous	-9.13324
▁lon	-9.13375
▁pure	-9.13544
▁travel	-9.13922
▁fill	-9.14006
▁goin	-9.1405
▁pet	-9.14085
▁rush	-9.14266
▁owe	-9.14376
▁record	-9.14625
▁angry	-9.14763
▁deuce	-9.14763
▁mystery	-9.14763
▁teeth	-9.14763
▁negative	-9.14763
▁twice	-9.14763
▁upset	-9.14764
▁dude	-9.14765
▁pardon	-9.14767
▁simply	-9.14769
▁gang	-9.14769
▁thatll	-9.1477
▁self	-9.14781
▁farm	-9.14782
▁dirty	-9.14804
▁rise	-9.14811
te	-9.14897
ctor	-9.14966
▁color	-9.151
▁lights	-9.15113
▁chair	-9.15381
▁be	-9.1543
▁thousand	-9.15463
▁dee	-9.15547
▁bar	-9.15914
▁fat	-9.15987
▁treat	-9.16139
▁following	-9.16508
▁fuck	-9.16683
▁taste	-9.16923
▁mi	-9.17046
▁justice	-9.17144
▁possibly	-9.17144
▁third	-9.17144
▁excellent	-9.17144
▁arlo	-9.17147
▁energy	-9.17157
▁nancy	-9.17165
▁reading	-9.17175
▁held	-9.17185
▁core	-9.17296
ive	-9.17645
▁gas	-9.17706
▁ay	-9.17729
to	-9.17758
▁leader	-9.18107
▁lies	-9.18346
▁final	-9.18389
▁hanging	-9.18473
▁movies	-9.18702
▁switch	-9.18781
▁tc	-9.19225
▁agree	-9.19322
▁weak	-9.19327
▁nervous	-9.19424
▁august	-9.19519
▁bright	-9.19547
▁paris	-9.19561
▁west	-9.19566
▁david	-9.19583
▁justin	-9.19583
▁susan	-9.19583
▁royal	-9.19584
▁kitty	-9.19584
▁neck	-9.19584
▁throat	-9.19593
▁within	-9.19594
▁storm	-9.196
▁emma	-9.19622
▁nine	-9.19634
▁obviously	-9.1965
▁corner	-9.19662
▁joker	-9.19737
▁lock	-9.19741
▁swing	-9.19886
ty	-9.19919
▁feelings	-9.19922
▁pig	-9.20256
▁engine	-9.20264
▁american	-9.20388
▁guests	-9.20611
▁butt	-9.20867
▁wondering	-9.20933
▁wing	-9.21197
▁bath	-9.21206
▁ba	-9.21304
▁an	-9.21357
▁pieces	-9.2141
▁rings	-9.21427
ist	-9.21608
▁feed	-9.21759
age	-9.21903
▁taki	-9.22031
▁america	-9.22034
▁dumb	-9.22054
▁club	-9.22083
▁theyd	-9.22083
▁bread	-9.22084
▁dibble	-9.22084
▁nope	-9.22085
▁fancy	-9.22087
▁mirror	-9.22088
▁immediately	-9.22092
▁donkey	-9.22094
▁roger	-9.22096
▁john	-9.22111
▁level	-9.22142
▁rip	-9.22146
▁pap	-9.22146
▁protector	-9.22157
▁jane	-9.22435
▁horn	-9.22788
▁training	-9.2286
▁matters	-9.22938
▁newspaper	-9.2294
▁island	-9.2294
▁strike	-9.2295
▁fellow	-9.22972
▁mighty	-9.233
▁rid	-9.23352
▁movie	-9.23545
▁up	-9.23615
▁pray	-9.23701
▁wall	-9.23712
▁pain	-9.23856
▁ex	-9.23884
▁v	-9.23903
z	-9.23959
▁con	-9.24034
ate	-9.24268
▁books	-9.2443
▁private	-9.24484
▁awful	-9.24514
▁nothin	-9.24619
▁swim	-9.24638
▁otherwise	-9.24647
▁congratulations	-9.24647
▁however	-9.24648
▁often	-9.24649
▁palace	-9.24649
▁duty	-9.24651
▁information	-9.24652
▁bunch	-9.24652
▁rita	-9.24657
▁cabin	-9.24657
▁whispering	-9.24727
▁bear	-9.24826
▁bro	-9.24959
▁bum	-9.24989
▁noticed	-9.25008
▁perfectly	-9.25237
▁expected	-9.25341
▁gem	-9.25574
▁hardly	-9.25729
se	-9.25808
▁adventure	-9.26104
na	-9.26133
▁legs	-9.26192
▁pa	-9.26411
▁murder	-9.26755
▁joy	-9.26793
▁steal	-9.26796
▁rescue	-9.27055
▁prepare	-9.27058
▁difficult	-9.27114
▁scoob	-9.27124
▁thinks	-9.27211
▁conversation	-9.27279
▁exclaiming	-9.27279
▁fentry	-9.27279
▁merlyn	-9.27279
▁michael	-9.27279
▁reynolds	-9.27279
▁universe	-9.27279
▁rodney	-9.27279
▁government	-9.27279
▁maggie	-9.27279
▁lyle	-9.27283
▁asleep	-9.27283
▁responsibility	-9.27283
▁mammy	-9.27284
▁chewie	-9.27285
▁mmhmm	-9.27289
▁paulie	-9.273
▁uhoh	-9.27307
▁james	-9.27334
▁support	-9.27387
▁en	-9.27436
▁meat	-9.27443
▁bob	-9.27473
▁guard	-9.27478
▁dragons	-9.2758
▁bite	-9.27588
▁dressed	-9.27744
▁bank	-9.27896
▁manage	-9.27923
▁relationship	-9.28219
▁remind	-9.28243
▁condition	-9.28285
▁toy	-9.28387
▁walked	-9.285
▁points	-9.28634
eful	-9.28995
▁tall	-9.29001
▁keys	-9.29256
▁bus	-9.29447
▁deliver	-9.29482
▁dads	-9.29503
▁focus	-9.29643
▁arrest	-9.29672
▁serve	-9.29689
▁mate	-9.29815
▁howd	-9.29848
▁wood	-9.29946
▁suspens	-9.29953
▁drunk	-9.29963
▁advice	-9.29981
▁beyond	-9.29981
▁cinderella	-9.29981
▁empty	-9.29981
▁harvey	-9.29981
▁opportunity	-9.29982
▁nowhere	-9.29982
▁security	-9.29982
▁russell	-9.29982
▁bathroom	-9.29984
▁toby	-9.29986
▁sammy	-9.29987
▁famous	-9.29993
▁tower	-9.29994
▁blows	-9.29999
▁mummy	-9.29999
▁sake	-9.30042
▁ark	-9.30046
▁stopped	-9.30051
▁breathe	-9.30155
▁bitch	-9.3024
▁list	-9.30267
▁surely	-9.3032
▁destroyed	-9.30451
▁staying	-9.30728
▁situation	-9.30972
▁target	-9.31
▁shop	-9.31035
▁block	-9.31039
▁lawyer	-9.31065
▁acting	-9.31087
▁cost	-9.31256
▁loser	-9.31317
▁pictures	-9.31777
by	-9.31829
▁heads	-9.31871
▁ja	-9.3189
▁form	-9.32256
ri	-9.32275
▁where	-9.32329
ta	-9.32409
▁powers	-9.32554
▁louis	-9.32641
it	-9.32669
▁tour	-9.32738
▁program	-9.32758
▁luigi	-9.32759
▁upstairs	-9.32759
▁keating	-9.32759
▁local	-9.32762
▁dying	-9.32763
▁flight	-9.32773
▁listening	-9.32777
▁lonely	-9.32786
▁steady	-9.32787
▁beg	-9.32791
▁boring	-9.32806
▁size	-9.32807
▁monte	-9.32832
▁metal	-9.32958
▁heh	-9.3297
▁stacks	-9.32977
▁decided	-9.32979
▁nearly	-9.33029
▁higher	-9.33263
▁driver	-9.33338
ish	-9.33791
▁leg	-9.33879
▁beast	-9.33918
▁mountain	-9.33926
▁dare	-9.33954
▁view	-9.34732
ant	-9.34985
▁trees	-9.35137
▁practice	-9.35361
▁prison	-9.35496
▁maid	-9.35552
▁built	-9.35616
▁hiccup	-9.35616
▁jasmine	-9.35616
▁kevin	-9.35616
▁kitchen	-9.35616
▁mcfly	-9.35616
▁steve	-9.35616
▁awesome	-9.35617
▁milk	-9.35619
▁clark	-9.35621
▁potter	-9.35623
▁simon	-9.35623
▁sweetie	-9.3566
▁cup	-9.35661
▁usually	-9.3569
▁places	-9.35975
▁figured	-9.36178
▁lf	-9.36395
▁ca	-9.36455
▁fail	-9.36466
▁dollars	-9.36581
▁o	-9.3675
▁saturday	-9.36767
▁shield	-9.36777
▁apartment	-9.36789
▁i	-9.3683
▁girlfriend	-9.36833
rs	-9.36884
▁carlo	-9.3693
lo	-9.36987
co	-9.37926
▁common	-9.38078
▁experience	-9.38366
▁decide	-9.3837
▁became	-9.38558
▁langford	-9.38558
▁pizza	-9.38558
▁wizard	-9.38558
▁rumbling	-9.38558
▁clever	-9.38559
▁druun	-9.38559
▁address	-9.38559
▁zone	-9.38561
▁bike	-9.38562
▁alberto	-9.38562
▁snow	-9.38597
▁powerful	-9.38618
▁softly	-9.38773
▁concerned	-9.38785
▁due	-9.38836
▁locked	-9.38899
▁turning	-9.39206
nt	-9.39337
▁parts	-9.39556
▁weekend	-9.39795
▁closed	-9.39795
▁button	-9.39881
▁animals	-9.40111
▁hurts	-9.40151
▁doo	-9.40186
▁post	-9.40379
▁ye	-9.40487
▁punch	-9.40964
▁main	-9.41171
▁suggest	-9.41205
▁survive	-9.41359
▁admit	-9.41572
▁knox	-9.41588
▁martin	-9.41588
▁telephone	-9.41588
▁material	-9.41589
▁hoover	-9.41614
▁signal	-9.41766
▁letting	-9.41806
▁warning	-9.41882
▁seriously	-9.41914
la	-9.41959
▁wine	-9.42053
▁art	-9.42095
mo	-9.42134
▁plans	-9.42253
▁stars	-9.42326
▁heading	-9.42621
▁ms	-9.42707
▁opinion	-9.42944
▁swallow	-9.42973
▁remain	-9.43012
▁hundred	-9.43018
▁soldiers	-9.43037
▁tear	-9.43135
▁falls	-9.43476
▁so	-9.43492
▁bud	-9.43508
▁mon	-9.43604
▁cars	-9.43835
be	-9.44042
v	-9.44049
▁study	-9.44231
▁played	-9.44307
▁goddamn	-9.44393
▁ruin	-9.44416
▁smoke	-9.44457
▁assume	-9.44469
▁desmond	-9.44713
▁lieutenant	-9.44713
▁samantha	-9.44713
▁violin	-9.44713
▁responsible	-9.44713
▁brilliant	-9.44715
▁grail	-9.44715
▁innocent	-9.44716
▁koopa	-9.44718
▁shining	-9.44718
▁forgotten	-9.44719
▁benny	-9.44719
▁comfortable	-9.44721
▁indy	-9.44724
▁marcel	-9.44749
▁incredible	-9.4475
▁lex	-9.44782
▁huge	-9.44801
▁putting	-9.44842
▁lesson	-9.44874
▁yelling	-9.44932
▁tires	-9.45204
▁cares	-9.45303
▁owl	-9.45436
▁ra	-9.45652
▁dis	-9.45756
▁students	-9.4604
▁birds	-9.46101
▁scene	-9.46128
▁spring	-9.46141
▁purpose	-9.46143
inas	-9.46174
▁agent	-9.46226
▁older	-9.46248
▁animal	-9.4626
▁gate	-9.46274
▁wheel	-9.46285
▁couldve	-9.46285
▁mission	-9.46552
▁tape	-9.46747
▁paint	-9.46812
▁sleeping	-9.46876
▁draw	-9.46894
▁robots	-9.46933
▁sh	-9.47021
▁worlds	-9.47198
▁faith	-9.47436
no	-9.47456
▁approach	-9.47468
▁madam	-9.47696
▁ideas	-9.47729
▁comet	-9.47733
▁dig	-9.47862
▁large	-9.47875
▁sand	-9.47929
▁grace	-9.47932
▁credit	-9.47939
▁extreme	-9.47939
▁garbage	-9.47939
▁kludd	-9.47939
▁language	-9.47939
▁strickland	-9.47939
▁whimpering	-9.47939
▁whistling	-9.47939
▁speech	-9.47939
▁lyla	-9.4794
▁monday	-9.4794
▁sugar	-9.47941
▁apologize	-9.47941
▁whoohoo	-9.47942
▁dido	-9.47942
▁department	-9.47943
▁available	-9.47945
▁biff	-9.47946
▁planned	-9.47951
▁shouldve	-9.47952
▁cream	-9.47952
▁deck	-9.47957
▁safety	-9.47979
▁momma	-9.47984
▁stage	-9.47991
▁haha	-9.48
▁vote	-9.48001
▁arrived	-9.48037
▁calls	-9.48063
▁gotham	-9.48134
▁gasping	-9.48325
▁card	-9.48378
▁fairy	-9.48448
▁yay	-9.48749
▁er	-9.48844
▁san	-9.48894
▁lately	-9.48918
ah	-9.49005
▁gives	-9.49374
▁tickets	-9.49423
▁sunday	-9.49479
ian	-9.49484
▁bobble	-9.49575
▁nah	-9.49784
▁ahh	-9.49863
▁woods	-9.49938
▁board	-9.5079
▁wash	-9.50894
▁damage	-9.51076
em	-9.51123
▁natural	-9.51156
▁rhythm	-9.51231
▁spider	-9.51257
▁according	-9.51272
▁ashamed	-9.51272
▁chicago	-9.51272
▁cruz	-9.51272
▁harriet	-9.51272
▁among	-9.51272
▁betsie	-9.51273
▁italian	-9.51273
▁shame	-9.51274
▁indistinct	-9.51274
▁alarm	-9.51276
▁cousin	-9.51277
▁mask	-9.51278
▁onto	-9.51283
▁desk	-9.51287
▁data	-9.51298
▁freeze	-9.51301
▁laughter	-9.51306
▁whatd	-9.51321
▁ben	-9.51339
▁lower	-9.51451
▁hoping	-9.51464
go	-9.5152
▁climb	-9.51549
▁pressure	-9.5157
▁surprised	-9.51743
▁seconds	-9.51775
▁stealing	-9.51883
▁out	-9.52037
▁shape	-9.52043
▁kinda	-9.52123
▁helped	-9.52186
▁ate	-9.52461
▁cos	-9.52577
ul	-9.52628
▁rule	-9.52646
▁cop	-9.52696
▁falling	-9.52822
▁tommy	-9.52934
▁noise	-9.5295
▁clown	-9.53007
▁appear	-9.53025
▁creature	-9.53028
▁butch	-9.53037
▁fi	-9.53706
▁gather	-9.53911
▁prefer	-9.54094
ted	-9.54096
▁surrender	-9.54362
▁ear	-9.54392
▁manc	-9.5443
▁chris	-9.54498
▁mention	-9.54528
▁likes	-9.54573
▁bucks	-9.54679
▁split	-9.54719
▁character	-9.5472
▁evelyn	-9.5472
▁video	-9.5472
▁wildhorn	-9.5472
▁hidden	-9.5472
▁london	-9.5472
▁astro	-9.54721
▁tongue	-9.54722
▁vader	-9.54722
▁positive	-9.54723
▁mouse	-9.54725
▁therell	-9.54732
▁planning	-9.54736
▁candy	-9.54739
▁darn	-9.54742
▁trade	-9.54747
▁model	-9.5476
▁willing	-9.54763
▁france	-9.54775
▁highness	-9.54832
▁nation	-9.54834
▁dune	-9.54872
▁value	-9.54936
▁blink	-9.55234
▁ships	-9.55539
ur	-9.55551
▁reporter	-9.56023
▁request	-9.56186
▁camera	-9.56513
▁unicorn	-9.56517
ro	-9.5652
▁shine	-9.56544
▁ends	-9.5655
▁weapon	-9.56588
and	-9.56831
▁add	-9.56885
▁mo	-9.56947
▁wings	-9.57102
▁career	-9.57164
time	-9.57337
▁mam	-9.57426
▁using	-9.5744
▁pleased	-9.57622
▁risk	-9.57633
▁ma	-9.57682
▁blame	-9.58046
▁release	-9.58081
▁particular	-9.58142
▁cave	-9.58168
▁wage	-9.58238
▁afford	-9.58292
▁applause	-9.58292
▁bruce	-9.58292
▁empire	-9.58292
▁journey	-9.58292
▁lieberman	-9.58292
▁lorraine	-9.58292
▁marriage	-9.58292
▁rosebud	-9.58292
▁whimpers	-9.58292
▁darien	-9.58293
▁source	-9.58293
▁granny	-9.58293
▁truck	-9.58293
▁washington	-9.58293
▁corrie	-9.58294
▁society	-9.58295
▁thunder	-9.58295
▁dante	-9.58295
▁knightley	-9.583
▁march	-9.583
▁crown	-9.58306
▁eric	-9.58319
▁scary	-9.58359
▁horses	-9.58367
▁hail	-9.58386
▁barking	-9.58428
▁invited	-9.58493
▁on	-9.585
▁states	-9.58502
▁amen	-9.58577
▁failed	-9.58673
▁seek	-9.58723
▁all	-9.58771
▁who	-9.58851
▁kicked	-9.58895
▁eating	-9.58902
▁nuts	-9.58943
▁riding	-9.58957
▁boun	-9.5921
▁el	-9.59495
▁cookies	-9.59608
ting	-9.59782
▁fake	-9.59925
▁load	-9.59989
▁weapons	-9.60004
▁bottle	-9.60187
▁landing	-9.60237
▁pocket	-9.60238
▁type	-9.60242
▁ticket	-9.60321
un	-9.6069
▁woo	-9.61025
▁gum	-9.61113
li	-9.61171
▁freak	-9.61272
▁blast	-9.61684
knock	-9.61719
▁settle	-9.61806
at	-9.61892
▁challenge	-9.61929
▁fran	-9.61935
▁refuse	-9.61935
▁bow	-9.61953
▁california	-9.61995
▁cricket	-9.61995
▁invisible	-9.61995
▁kelani	-9.61995
▁presence	-9.61995
▁purrbles	-9.61995
▁treasure	-9.61995
▁warehouse	-9.61995
▁female	-9.61995
▁jealous	-9.61996
▁binky	-9.61996
▁fought	-9.61997
▁sheriff	-9.62
▁johnny	-9.62
▁wherever	-9.62004
▁aboard	-9.62006
▁zoo	-9.62011
▁hiding	-9.62012
▁rough	-9.62016
▁path	-9.62022
▁mister	-9.62025
▁deland	-9.62035
▁involved	-9.62043
▁cast	-9.62044
▁map	-9.62048
▁ox	-9.62084
▁engaged	-9.62092
▁marion	-9.62133
▁groaning	-9.62136
▁created	-9.62141
▁losing	-9.62295
▁guide	-9.62303
ton	-9.62321
▁starts	-9.62383
▁tie	-9.62463
▁carefully	-9.62557
▁co	-9.62612
▁heat	-9.62842
▁passed	-9.62917
ally	-9.62959
▁harder	-9.63019
ia	-9.63106
▁ordered	-9.63255
▁fans	-9.63306
rew	-9.63386
▁cleaning	-9.6352
▁jet	-9.63527
▁shooting	-9.63579
▁followed	-9.63846
▁keeping	-9.63864
▁airplane	-9.64086
▁exist	-9.641
▁decision	-9.64106
▁picking	-9.64114
▁file	-9.64118
▁direction	-9.64134
▁fella	-9.64297
▁ohh	-9.64529
way	-9.64879
▁pro	-9.65031
▁coach	-9.6535
▁ni	-9.65402
▁headed	-9.65491
▁shower	-9.65548
▁mel	-9.6558
ts	-9.65664
ng	-9.65676
▁range	-9.65696
▁mood	-9.65737
▁coast	-9.65838
▁mail	-9.6584
▁alakay	-9.65841
▁derek	-9.65841
▁dimitri	-9.65841
▁easily	-9.65841
▁fantastic	-9.65841
▁mackenzie	-9.65841
▁precious	-9.65841
▁progress	-9.65841
▁shaggy	-9.65841
▁taylor	-9.65841
▁repeat	-9.65842
▁spanish	-9.65843
▁memory	-9.65844
▁junk	-9.65845
▁medical	-9.65845
▁barrow	-9.65846
▁randy	-9.65852
▁freedom	-9.65855
▁destiny	-9.65862
▁hammer	-9.65864
▁poppa	-9.65865
▁unfortunately	-9.65902
▁sally	-9.65917
▁kate	-9.65939
▁fu	-9.6604
▁eaten	-9.66063
▁honestly	-9.66127
ois	-9.66344
▁cats	-9.66475
▁pen	-9.6668
▁returned	-9.66711
▁flowers	-9.66758
▁turns	-9.66782
▁seemed	-9.66936
▁bee	-9.67238
▁expecting	-9.67447
▁fl	-9.6756
▁lee	-9.67571
▁gasp	-9.67756
▁concern	-9.67772
▁checked	-9.67938
▁tears	-9.67981
▁nurse	-9.6805
▁rabbit	-9.68082
▁bobblehead	-9.68101
▁slave	-9.68124
▁page	-9.68135
▁bang	-9.68141
▁student	-9.68161
▁guest	-9.68173
▁parent	-9.68177
▁musician	-9.68189
▁guards	-9.68316
▁carl	-9.68352
ors	-9.68798
▁collect	-9.68817
▁crack	-9.68962
▁discuss	-9.68985
ine	-9.6925
▁fighter	-9.69254
ha	-9.69374
▁attempt	-9.69517
▁square	-9.69585
▁spare	-9.69611
▁invite	-9.69622
▁terribl	-9.69632
▁wise	-9.69689
▁camp	-9.69759
▁smooth	-9.69831
▁percent	-9.69833
▁brooklyn	-9.69841
▁council	-9.69841
▁itomori	-9.69841
▁necessary	-9.69841
▁oconnor	-9.69841
▁quilok	-9.69841
▁stomach	-9.69841
▁tradition	-9.69841
▁emperor	-9.69842
▁meeks	-9.69842
▁hadnt	-9.69842
▁somehow	-9.69842
▁todd	-9.69842
▁glory	-9.69842
▁staff	-9.69843
▁itd	-9.69843
▁beauty	-9.69844
▁gertie	-9.69844
▁nonsense	-9.69845
▁easier	-9.69845
▁babies	-9.69848
▁horrible	-9.69851
▁screeches	-9.69851
▁grandma	-9.69852
▁hoke	-9.69853
▁duck	-9.69856
▁liar	-9.69858
▁alley	-9.69858
▁hook	-9.69861
▁rare	-9.69873
▁jedi	-9.69882
▁proof	-9.69884
▁golden	-9.69921
▁china	-9.69922
▁prize	-9.69955
▁shy	-9.70021
▁chip	-9.70034
▁cage	-9.70066
▁union	-9.70074
▁murderer	-9.70163
▁mae	-9.70175
▁arab	-9.70275
▁troops	-9.70296
▁raised	-9.70368
▁treated	-9.70369
▁sooner	-9.70551
▁covered	-9.7061
▁fucking	-9.70639
▁howls	-9.70789
▁bringing	-9.7082
▁wha	-9.70988
▁schedule	-9.71053
▁carrying	-9.71162
one	-9.7162
▁cops	-9.71846
▁do	-9.71969
▁heffalump	-9.72247
▁devil	-9.72268
▁snake	-9.72271
▁finger	-9.72321
▁trap	-9.7235
ious	-9.72396
▁bi	-9.72433
▁fellows	-9.72542
▁thousands	-9.72756
▁drawing	-9.72807
▁enter	-9.73214
▁function	-9.73503
▁defend	-9.73519
▁showing	-9.73563
cy	-9.73572
▁avoid	-9.73684
▁si	-9.73764
▁doors	-9.73771
▁charm	-9.73783
▁curse	-9.73798
▁games	-9.73927
▁issue	-9.73977
▁champ	-9.73977
▁jeff	-9.74006
▁twenty	-9.74007
▁bernstein	-9.74008
▁chihiro	-9.74008
▁disaster	-9.74008
▁eeyore	-9.74008
▁fredricksen	-9.74008
▁ikioi	-9.74008
▁luthor	-9.74008
▁namaari	-9.74008
▁ocean	-9.74008
▁poirot	-9.74008
▁shelter	-9.74008
▁terrific	-9.74008
▁biggest	-9.74008
▁example	-9.74008
▁darlene	-9.74009
▁alodor	-9.74009
▁heck	-9.7401
▁ordinary	-9.7401
▁wallace	-9.74011
▁solid	-9.74011
▁basic	-9.74011
▁gwen	-9.74012
▁lucy	-9.74012
▁lewis	-9.74012
▁rising	-9.74012
▁stephen	-9.74014
▁military	-9.74015
▁elton	-9.74016
▁churchill	-9.74018
▁swimming	-9.74025
▁santa	-9.74026
▁friday	-9.74031
▁began	-9.74036
▁ouch	-9.74037
▁murmuring	-9.74039
▁squeaking	-9.74039
▁cutting	-9.74053
▁attend	-9.74058
▁protection	-9.74064
▁worthless	-9.74068
▁nature	-9.74068
▁jacket	-9.74073
▁darkness	-9.74105
▁lane	-9.74206
▁grown	-9.74236
▁personally	-9.74363
▁w	-9.74393
▁gotten	-9.74413
ure	-9.74493
▁ears	-9.74546
son	-9.74669
▁growing	-9.74914
▁eggs	-9.74919
▁towards	-9.7492
▁knocking	-9.74975
▁guardians	-9.75215
▁signed	-9.75248
▁dang	-9.75373
▁accident	-9.75699
▁fingers	-9.75727
ey	-9.75782
▁fellas	-9.75902
▁stink	-9.76128
▁bug	-9.76151
▁drinking	-9.76274
ne	-9.76566
▁diamond	-9.76618
you	-9.76704
men	-9.76705
▁thin	-9.77054
▁paying	-9.7748
▁officers	-9.77543
▁screw	-9.77544
ho	-9.77563
bo	-9.77575
et	-9.77602
▁corps	-9.77603
▁of	-9.77685
▁drinks	-9.77751
▁kings	-9.77845
▁spread	-9.77855
▁sever	-9.77874
▁nan	-9.77935
▁lift	-9.77997
▁poison	-9.78013
▁jerk	-9.78087
▁groov	-9.78184
▁pink	-9.7821
▁sharp	-9.78219
▁object	-9.78314
▁somethin	-9.78325
▁birth	-9.78354
▁cheese	-9.78355
▁rude	-9.78356
▁appointment	-9.78356
▁davinier	-9.78356
▁elizabeth	-9.78356
▁knowledge	-9.78356
▁linnet	-9.78356
▁phantom	-9.78356
▁subject	-9.78356
▁technology	-9.78356
▁vespa	-9.78356
▁byebye	-9.78356
▁ease	-9.78356
▁loving	-9.78356
▁surface	-9.78356
▁plummer	-9.78356
▁morgan	-9.78356
▁insurance	-9.78356
▁closing	-9.78357
▁fetch	-9.78358
▁curious	-9.78358
▁alexander	-9.78359
▁salesman	-9.78359
▁poetry	-9.7836
▁lina	-9.78363
▁willie	-9.78364
▁inspector	-9.78364
▁roof	-9.78364
▁mick	-9.78365
▁jason	-9.78366
▁panic	-9.7837
▁dick	-9.78371
▁secure	-9.78376
▁lightning	-9.78385
▁metro	-9.78391
▁bratt	-9.78394
▁wet	-9.78404
▁missile	-9.78407
▁hm	-9.78437
▁under	-9.78439
▁row	-9.78444
▁male	-9.78483
▁glasses	-9.78527
▁lily	-9.78569
▁busted	-9.78632
▁laws	-9.78632
▁chase	-9.78634
▁reality	-9.78638
▁mash	-9.78651
▁com	-9.78743
▁cents	-9.78773
▁mistakes	-9.7883
▁dry	-9.79246
▁pi	-9.79289
▁boo	-9.79488
▁pulled	-9.7968
▁servants	-9.79692
▁bones	-9.79921
sh	-9.80021
▁sail	-9.80122
▁announce	-9.8028
▁interest	-9.80421
▁lay	-9.80701
▁fishing	-9.80731
▁scream	-9.8077
pa	-9.80822
▁rope	-9.80881
▁coat	-9.81131
▁saving	-9.81152
▁winter	-9.81158
▁stu	-9.81161
▁claim	-9.81193
▁shoulder	-9.81225
▁inc	-9.81294
ke	-9.81586
▁pr	-9.81625
▁belongs	-9.82
▁direct	-9.82018
▁po	-9.82068
▁discover	-9.82087
▁knights	-9.82155
▁sneak	-9.82248
▁changes	-9.8238
▁insist	-9.8238
▁dump	-9.82403
▁recall	-9.82544
▁fii	-9.82555
▁trail	-9.82558
▁sacrifice	-9.82648
▁introduce	-9.82672
▁shoo	-9.82815
▁wide	-9.82842
▁harm	-9.82873
▁success	-9.82887
▁popular	-9.82888
▁although	-9.82901
▁bubba	-9.82901
▁bullshit	-9.82901
▁federal	-9.82901
▁genius	-9.82901
▁hagrid	-9.82901
▁henry	-9.82901
▁jubal	-9.82901
▁klaus	-9.82901
▁lindsay	-9.82901
▁mandrake	-9.82901
▁regular	-9.82901
▁reserve	-9.82901
▁sarris	-9.82901
▁spazzatura	-9.82901
▁vacation	-9.82901
▁lulu	-9.82902
▁central	-9.82902
▁milady	-9.82902
▁sacred	-9.82902
▁wilson	-9.82903
▁conference	-9.82903
▁elaine	-9.82903
▁community	-9.82903
▁heavily	-9.82904
cient	-9.82905
▁pair	-9.82905
▁leland	-9.82905
▁television	-9.82906
▁ripper	-9.82909
▁carried	-9.82909
▁nuclear	-9.8291
▁express	-9.82924
▁giles	-9.82926
▁dug	-9.82932
▁math	-9.82938
▁literally	-9.82947
▁section	-9.82948
▁solo	-9.82953
▁minister	-9.82967
▁phil	-9.82981
▁tiny	-9.82981
▁stolen	-9.83001
▁float	-9.83013
▁fourth	-9.83025
▁original	-9.83121
il	-9.83149
ern	-9.83193
▁wayne	-9.83216
▁spine	-9.8328
▁prepared	-9.83287
▁agreed	-9.83318
▁maine	-9.83376
▁entirely	-9.83378
▁finest	-9.83399
▁deeply	-9.83412
▁guts	-9.83585
▁slowly	-9.83626
▁faces	-9.83627
▁millions	-9.83709
▁chet	-9.83779
▁clearly	-9.83858
▁showed	-9.84081
▁fixed	-9.84085
ot	-9.84163
▁lines	-9.8417
▁fo	-9.84424
▁touched	-9.8466
cer	-9.84692
▁judges	-9.84724
▁throwing	-9.84834
▁nights	-9.84882
▁pie	-9.85343
▁latin	-9.85379
▁german	-9.85632
▁badly	-9.85674
▁site	-9.85845
▁stock	-9.85919
▁fang	-9.85924
▁whistle	-9.85944
▁walls	-9.85959
▁balls	-9.8596
▁tone	-9.85979
▁cookie	-9.86015
he	-9.86256
▁answers	-9.86343
▁transfer	-9.86462
▁cow	-9.86583
▁lookin	-9.86766
▁steps	-9.86767
os	-9.86903
▁fan	-9.86996
ee	-9.87002
▁quest	-9.87268
beat	-9.87334
▁defeat	-9.87344
▁loose	-9.87433
▁assure	-9.87449
▁proper	-9.87549
▁cheap	-9.87552
▁humans	-9.87559
▁krypto	-9.87615
▁gross	-9.87647
▁slip	-9.87656
▁pump	-9.87662
▁priest	-9.87663
▁campaign	-9.87663
▁delicious	-9.87663
▁equipment	-9.87663
▁giggling	-9.87663
▁interview	-9.87663
▁junior	-9.87663
▁paradise	-9.87663
▁pleasant	-9.87663
▁scratch	-9.87663
▁stephanie	-9.87663
▁temple	-9.87663
▁thatcher	-9.87663
▁written	-9.87663
▁zuba	-9.87663
▁footsteps	-9.87663
▁starving	-9.87663
▁desert	-9.87664
▁device	-9.87664
▁someplace	-9.87664
▁england	-9.87664
▁valley	-9.87664
▁distant	-9.87665
▁flash	-9.87665
▁piano	-9.87665
▁zero	-9.87665
▁behave	-9.87665
▁mercy	-9.87666
▁assignment	-9.87666
▁whoever	-9.87667
▁rotten	-9.87667
▁humming	-9.87667
▁lockwood	-9.87668
▁event	-9.87671
▁imagination	-9.87674
▁weasel	-9.87675
▁earlier	-9.87676
▁dropped	-9.87678
▁expensive	-9.87684
▁fungus	-9.87684
▁moan	-9.87686
▁foolish	-9.87697
▁contain	-9.87698
▁manual	-9.87702
▁season	-9.87704
▁chosen	-9.87706
▁barely	-9.87717
▁recently	-9.87732
▁rocket	-9.87744
▁defense	-9.87748
▁east	-9.87778
▁toilet	-9.87781
▁stairs	-9.87792
▁carson	-9.87802
▁hired	-9.87838
▁moody	-9.87854
▁louise	-9.87904
▁weight	-9.87916
▁circumstances	-9.87957
x	-9.88014
▁sons	-9.88022
▁loaded	-9.8807
▁locker	-9.88084
▁mentioned	-9.88095
▁ruined	-9.88141
▁billy	-9.88311
▁citizens	-9.88376
▁knocked	-9.88394
▁ace	-9.88716
▁ac	-9.88844
▁pre	-9.88868
▁talkin	-9.8897
▁loss	-9.88995
fi	-9.89019
▁clears	-9.89082
▁ap	-9.89206
▁counting	-9.8923
▁mis	-9.8929
▁su	-9.89374
▁staring	-9.89383
▁bone	-9.89569
▁ways	-9.89651
▁shows	-9.8968
▁helping	-9.89731
erry	-9.89736
▁ne	-9.90071
head	-9.90131
▁provide	-9.90195
▁grave	-9.90202
▁flip	-9.90533
▁z	-9.90794
▁exit	-9.90825
▁limit	-9.90873
▁winner	-9.90888
▁bride	-9.90891
▁partner	-9.90913
▁tigger	-9.90931
▁bastard	-9.9094
▁professional	-9.90976
▁sometime	-9.90999
▁dollar	-9.91073
▁streets	-9.91224
▁rate	-9.91246
▁skin	-9.9125
▁awake	-9.91605
▁systems	-9.92016
▁warn	-9.92083
▁proceed	-9.92164
▁pretend	-9.92183
▁ti	-9.92223
▁borrow	-9.9232
ier	-9.92392
▁hug	-9.92457
▁exact	-9.92523
▁spit	-9.92545
▁mud	-9.9256
▁russia	-9.92591
▁project	-9.92599
▁spoke	-9.92616
▁chill	-9.92624
▁admiral	-9.92663
▁advantage	-9.92663
▁attitude	-9.92663
▁bruno	-9.92663
▁century	-9.92663
▁joseph	-9.92663
▁linderman	-9.92663
▁miracle	-9.92663
▁miserable	-9.92663
▁social	-9.92663
▁therefore	-9.92663
▁changing	-9.92663
▁richard	-9.92664
▁thump	-9.92664
▁pride	-9.92665
▁woke	-9.92666
▁theme	-9.92667
▁downton	-9.92668
▁political	-9.92671
▁review	-9.92671
▁shirt	-9.92671
▁miami	-9.92671
▁fbi	-9.92672
▁jimmy	-9.92676
▁chirping	-9.92677
▁johnson	-9.92677
▁soup	-9.92684
▁fruit	-9.92685
▁guilty	-9.92699
▁poppy	-9.927
▁exhales	-9.92713
▁estate	-9.92715
▁bury	-9.92727
▁madeline	-9.92728
▁cash	-9.9273
▁taxi	-9.92736
▁mere	-9.92739
▁sniffing	-9.92749
▁instructions	-9.92798
▁commissioner	-9.92801
▁dean	-9.92807
▁cable	-9.92819
▁yall	-9.92826
▁surrounded	-9.92831
just	-9.92868
▁united	-9.92872
▁thrown	-9.92875
▁wounded	-9.92894
▁manager	-9.92901
▁sold	-9.92916
▁gotcha	-9.92928
▁siren	-9.93127
▁closes	-9.9322
▁speaks	-9.93261
▁approaching	-9.93404
▁lips	-9.93414
▁por	-9.93431
▁shelly	-9.93458
▁ln	-9.93541
▁degrees	-9.93591
▁fully	-9.93824
▁no	-9.93867
▁lied	-9.93882
▁finding	-9.9399
ge	-9.94135
▁doctors	-9.94304
ance	-9.94383
▁ld	-9.94482
▁fund	-9.94575
▁fur	-9.9464
▁bust	-9.94763
▁walks	-9.94929
dy	-9.94995
im	-9.95
▁port	-9.95017
▁mans	-9.95142
▁creatures	-9.95189
▁stayed	-9.95274
▁talent	-9.95816
▁cheer	-9.95842
ett	-9.95986
▁puppet	-9.96045
▁hood	-9.96066
▁sentence	-9.96067
▁bedroom	-9.96087
▁dimension	-9.96121
▁elephant	-9.9614
lin	-9.96154
▁daddys	-9.96155
da	-9.96211
▁poem	-9.96215
▁hunter	-9.96264
▁odd	-9.96271
▁paw	-9.96302
▁opened	-9.96462
▁guns	-9.96628
do	-9.97003
▁ar	-9.97107
▁meaning	-9.97107
▁education	-9.972
▁earn	-9.97252
▁bon	-9.97361
▁bay	-9.97443
▁lean	-9.97452
back	-9.97582
ba	-9.97609
▁divide	-9.9767
▁ko	-9.97735
▁dust	-9.9778
▁obvious	-9.97781
▁health	-9.97786
▁beach	-9.9786
▁moto	-9.97865
▁chose	-9.97882
▁gentle	-9.97909
▁pitts	-9.97919
▁favour	-9.97924
▁false	-9.97926
▁silver	-9.97926
▁alfred	-9.97927
▁artillery	-9.97927
▁beatrice	-9.97927
▁cmon	-9.97927
▁complex	-9.97927
▁damascus	-9.97927
▁deputy	-9.97927
▁district	-9.97927
▁elevator	-9.97927
▁exciting	-9.97927
▁holiday	-9.97927
▁marvin	-9.97927
▁orange	-9.97927
▁ralph	-9.97927
▁skywalker	-9.97927
▁unbelievable	-9.97927
▁yubaba	-9.97927
▁families	-9.97927
▁channel	-9.97927
▁concert	-9.97927
▁gahhh	-9.97927
▁anderson	-9.97927
▁including	-9.97927
▁mysterious	-9.97927
▁plaza	-9.97928
▁snoring	-9.97928
▁mount	-9.97928
▁yellow	-9.9793
▁alert	-9.97933
▁leia	-9.97934
▁piglet	-9.97934
▁legend	-9.97939
▁shep	-9.9794
▁disgusting	-9.97941
▁grew	-9.97951
▁tenma	-9.97956
▁fuel	-9.97958
▁postman	-9.97958
▁panel	-9.9796
▁columbia	-9.97967
▁bubble	-9.97971
▁plus	-9.97974
▁owner	-9.97978
▁apparently	-9.97978
▁hogwarts	-9.97979
▁clattering	-9.97991
▁tense	-9.98
▁market	-9.98013
▁jackson	-9.98017
▁disappointed	-9.9802
▁suddenly	-9.98042
▁fallen	-9.98045
▁coughs	-9.98069
▁reasons	-9.98072
▁witches	-9.98085
▁fry	-9.98094
▁pity	-9.98117
▁rat	-9.98142
▁manny	-9.98175
▁carter	-9.98222
▁discovered	-9.98298
▁national	-9.98399
▁impressed	-9.98424
▁frankly	-9.98482
▁structure	-9.98485
▁opening	-9.98519
▁charming	-9.98535
▁stronger	-9.98535
▁bert	-9.98563
▁closer	-9.98583
▁snape	-9.98587
▁filled	-9.98648
▁accepted	-9.98693
ial	-9.98718
▁cap	-9.9878
▁reached	-9.98798
▁forced	-9.98868
me	-9.98987
▁cha	-9.9902
▁bu	-9.99024
▁trained	-9.99032
▁killer	-9.99232
▁relaxed	-9.99234
▁brings	-9.99327
▁parking	-9.99332
▁to	-9.99375
tion	-9.99666
▁sat	-9.99678
▁lack	-9.99923
▁teaching	-9.99925
▁sisters	-10.0027
de	-10.0057
▁image	-10.0061
▁daughters	-10.0115
▁mountains	-10.0116
▁ee	-10.0146
▁den	-10.0155
▁transport	-10.0161
▁rose	-10.0163
▁print	-10.0165
▁sword	-10.0166
▁connection	-10.0168
▁generator	-10.0169
▁cell	-10.0173
▁servant	-10.0179
▁ray	-10.0188
▁regret	-10.0197
▁ohhh	-10.0198
▁stranger	-10.02
▁eve	-10.0201
▁gi	-10.0203
▁le	-10.0217
▁di	-10.0232
ley	-10.0235
ma	-10.0239
▁witness	-10.0258
▁shock	-10.0265
▁pot	-10.0276
▁foreign	-10.0283
▁lab	-10.0288
▁chest	-10.0288
▁heal	-10.03
▁create	-10.0326
▁recognize	-10.0327
▁knowing	-10.0329
▁contract	-10.0332
▁gus	-10.0338
▁usual	-10.0339
▁gettin	-10.0346
▁babo	-10.0347
▁beloved	-10.0348
▁cotton	-10.0348
▁downstairs	-10.0348
▁episode	-10.0348
▁escalante	-10.0348
▁frederick	-10.0348
▁judgment	-10.0348
▁knife	-10.0348
▁longstreet	-10.0348
▁metropolis	-10.0348
▁oclock	-10.0348
▁policy	-10.0348
▁politics	-10.0348
▁sergeant	-10.0348
▁subtitle	-10.0348
▁tokyo	-10.0348
▁understood	-10.0348
▁william	-10.0348
▁chinese	-10.0348
▁senior	-10.0348
▁british	-10.0348
▁mostly	-10.0348
▁otterbourne	-10.0348
▁reveal	-10.0348
▁toast	-10.0348
▁whyd	-10.0348
▁standard	-10.0348
▁believing	-10.0348
▁permission	-10.0348
▁stood	-10.0349
▁kemo	-10.0349
▁goodfellowe	-10.0349
▁asshole	-10.0349
▁padre	-10.0349
▁toothless	-10.0349
▁coward	-10.0349
▁chasing	-10.0349
▁happiness	-10.0349
▁radar	-10.0349
▁football	-10.035
▁gear	-10.035
▁moron	-10.035
▁heir	-10.035
▁winning	-10.0351
▁melman	-10.0351
▁labor	-10.0352
▁brush	-10.0352
▁fuss	-10.0352
▁halfway	-10.0353
▁cries	-10.0353
▁solution	-10.0354
▁perry	-10.0355
▁fleet	-10.0355
▁spoken	-10.0356
▁hitting	-10.0356
▁abandoned	-10.0356
▁rode	-10.0357
▁hotel	-10.036
▁sighing	-10.0361
▁sexy	-10.0362
▁stopping	-10.0364
▁lick	-10.0367
▁received	-10.0368
▁chin	-10.0371
▁straining	-10.0374
▁homework	-10.0374
▁latest	-10.0379
ow	-10.0385
▁bound	-10.0387
▁writer	-10.0413
id	-10.0417
▁matt	-10.0418
▁tied	-10.0418
▁oneil	-10.0419
▁barks	-10.0422
▁considered	-10.043
▁spoil	-10.0437
▁oil	-10.0438
▁hearts	-10.0448
▁thy	-10.0456
▁plant	-10.0459
▁boots	-10.0473
▁magical	-10.0491
▁cl	-10.0493
▁numbers	-10.0502
▁songs	-10.0506
ess	-10.0507
▁yea	-10.0526
off	-10.0529
per	-10.0553
▁passing	-10.0563
▁moments	-10.0575
ca	-10.058
▁beating	-10.0588
▁dreaming	-10.0618
▁secrets	-10.0631
ped	-10.0633
▁chop	-10.0639
▁learning	-10.0659
▁sub	-10.067
ze	-10.0691
ad	-10.0696
▁flank	-10.0701
▁trusted	-10.0701
▁gr	-10.0702
▁losers	-10.071
▁doyles	-10.0728
▁houses	-10.0735
▁ended	-10.0735
▁engines	-10.0741
▁pigs	-10.0746
▁villain	-10.0748
▁division	-10.075
▁museum	-10.075
▁wave	-10.0754
▁nahnahnah	-10.0756
▁youth	-10.076
▁meal	-10.076
▁criminal	-10.0763
▁costume	-10.0764
▁guardian	-10.0769
▁mothers	-10.0777
▁photos	-10.078
▁prayer	-10.0784
▁prisoner	-10.0785
▁here	-10.0785
▁comment	-10.0786
▁flow	-10.0826
iest	-10.0836
▁tale	-10.0839
▁there	-10.0841
▁inter	-10.0842
▁perform	-10.0847
▁crash	-10.0849
▁disappear	-10.085
▁seal	-10.0853
ring	-10.0854
▁ogres	-10.0871
▁bowl	-10.0888
▁chew	-10.0894
▁honour	-10.0901
▁adopt	-10.0902
▁spin	-10.0902
▁wast	-10.091
▁heavens	-10.0912
▁disease	-10.0913
▁license	-10.0913
▁es	-10.0928
▁africa	-10.093
▁paul	-10.0933
▁leap	-10.0933
▁mutt	-10.0934
▁plain	-10.0934
▁congress	-10.0936
▁behavior	-10.0936
▁crap	-10.0936
▁dumbledore	-10.0936
▁evidence	-10.0936
▁expert	-10.0936
▁giulia	-10.0936
▁happily	-10.0936
▁meade	-10.0936
▁mexico	-10.0936
▁mmmhmm	-10.0936
▁mumbling	-10.0936
▁practicing	-10.0936
▁principal	-10.0936
▁scoffs	-10.0936
▁underneath	-10.0936
▁greg	-10.0936
▁shao	-10.0936
▁ribs	-10.0936
▁susie	-10.0936
▁nightmare	-10.0936
▁sheik	-10.0936
▁memories	-10.0936
▁willow	-10.0937
▁opposite	-10.0937
▁bamba	-10.0937
▁parade	-10.0937
▁otis	-10.0937
▁performance	-10.0937
▁iron	-10.0937
▁league	-10.0937
▁slept	-10.0937
▁stretch	-10.0937
▁aware	-10.0938
▁airport	-10.0938
▁brent	-10.0938
▁capable	-10.0939
▁nasty	-10.0939
▁retreat	-10.0939
▁aaah	-10.0939
▁collection	-10.094
▁juice	-10.0941
▁gim	-10.0942
▁inquirer	-10.0942
▁cameron	-10.0943
▁bats	-10.0943
▁pool	-10.0945
▁task	-10.0946
▁carrot	-10.0948
▁ridge	-10.0948
▁giggles	-10.0952
▁planes	-10.0952
▁christal	-10.0957
▁useless	-10.0958
▁embarrassing	-10.0961
▁fhe	-10.0963
nd	-10.0964
▁oughta	-10.0966
▁bags	-10.097
▁ed	-10.0976
▁kent	-10.0982
down	-10.0986
▁tip	-10.0996
▁teachers	-10.1004
▁mid	-10.1007
ium	-10.102
ent	-10.1028
▁jobs	-10.103
▁packed	-10.1031
▁keeps	-10.1044
▁feeding	-10.105
▁sports	-10.1068
▁nate	-10.1079
▁pin	-10.1096
▁rocks	-10.11
▁roses	-10.1121
▁drug	-10.1148
▁que	-10.1153
king	-10.1169
ery	-10.1192
ac	-10.1203
▁the	-10.1214
land	-10.1221
▁score	-10.1238
▁owls	-10.1262
▁chamber	-10.1264
▁chant	-10.1302
ol	-10.1309
▁los	-10.131
▁lawyers	-10.1311
▁roar	-10.134
▁suspect	-10.1346
j	-10.1359
▁scare	-10.137
▁corn	-10.1377
▁pilot	-10.138
▁clue	-10.138
▁article	-10.1383
▁shift	-10.1384
▁squeal	-10.1385
▁detective	-10.1385
que	-10.1391
▁detail	-10.1391
▁butter	-10.1415
▁cheat	-10.1416
▁for	-10.1424
ward	-10.1469
▁suffer	-10.148
▁brains	-10.15
▁hoo	-10.1501
ay	-10.1503
house	-10.1522
▁intend	-10.1526
▁wreck	-10.1528
▁reward	-10.153
ite	-10.1533
▁sex	-10.1533
▁concentrate	-10.1536
hood	-10.1539
bit	-10.1542
▁desperate	-10.1544
▁equal	-10.1545
▁official	-10.1546
▁actual	-10.1548
▁weigh	-10.1551
▁down	-10.1558
▁confess	-10.1561
▁annette	-10.1561
▁bargain	-10.1561
▁ciao	-10.1561
▁clifford	-10.1561
▁entrance	-10.1561
▁francisco	-10.1561
▁garcin	-10.1561
▁grunion	-10.1561
▁invitation	-10.1561
▁jersey	-10.1561
▁kumandra	-10.1561
▁luisa	-10.1561
▁melvin	-10.1561
▁philadelphia	-10.1561
▁reckon	-10.1561
▁reputation	-10.1561
▁research	-10.1561
▁unique	-10.1561
▁university	-10.1561
▁unusual	-10.1561
▁victory	-10.1561
▁access	-10.1561
▁boolie	-10.1561
▁smash	-10.1561
▁sniffles	-10.1561
▁warrior	-10.1561
▁dracone	-10.1561
▁velma	-10.1562
▁zoe	-10.1562
▁dalton	-10.1562
▁forbidden	-10.1562
▁sweep	-10.1562
▁angle	-10.1562
▁whenever	-10.1562
▁lisa	-10.1562
▁camelot	-10.1562
▁theory	-10.1562
▁wrapped	-10.1562
▁flesh	-10.1562
▁festival	-10.1562
▁slight	-10.1562
▁shane	-10.1562
▁peak	-10.1562
▁sobs	-10.1562
▁senator	-10.1563
▁blah	-10.1563
▁exercise	-10.1563
▁daily	-10.1563
▁filthy	-10.1563
▁dino	-10.1563
▁bravo	-10.1563
▁obey	-10.1563
▁familiar	-10.1564
▁trial	-10.1564
▁muffled	-10.1564
▁impression	-10.1564
▁yoda	-10.1565
▁unlike	-10.1565
▁grateful	-10.1566
▁coughing	-10.1566
▁basement	-10.1567
▁talon	-10.1567
▁comin	-10.1567
▁gee	-10.1568
▁creepy	-10.157
▁heartbeat	-10.157
▁determined	-10.1571
▁ember	-10.1572
▁poop	-10.1573
▁nest	-10.1574
▁laid	-10.1575
▁sink	-10.1576
▁advanced	-10.1576
▁mass	-10.1578
▁frell	-10.1578
▁embarrassed	-10.1579
▁spite	-10.158
▁ew	-10.1581
▁br	-10.159
▁wilder	-10.1592
▁reports	-10.1598
▁mustnt	-10.1599
▁hunting	-10.16
▁sniffs	-10.1601
▁earned	-10.1606
▁stoney	-10.1628
▁makeup	-10.1643
▁lando	-10.1643
▁pete	-10.1651
▁blessed	-10.1652
▁depends	-10.1667
▁skills	-10.1667
▁manners	-10.1668
▁machines	-10.1676
▁pine	-10.1688
▁traveling	-10.1693
▁burning	-10.1699
▁aliens	-10.1702
▁pounds	-10.1702
▁vision	-10.1704
▁waited	-10.1707
▁selling	-10.1712
▁hu	-10.1719
her	-10.1727
po	-10.173
▁details	-10.1735
locka	-10.1745
▁blowing	-10.1747
▁reb	-10.1748
oo	-10.1759
▁towns	-10.1762
▁cheers	-10.1771
pe	-10.1792
▁bo	-10.18
▁smells	-10.1815
ado	-10.1815
ities	-10.1818
▁teams	-10.1828
▁slaves	-10.1836
▁mum	-10.1864
▁fighters	-10.1884
kung	-10.1892
▁bobbles	-10.1893
▁joining	-10.1895
side	-10.1898
▁friendly	-10.19
▁ken	-10.1922
ill	-10.1971
▁banks	-10.1973
▁yell	-10.1979
▁facts	-10.2003
▁chatter	-10.2007
▁sp	-10.2024
▁operation	-10.2037
▁mermaid	-10.2042
▁beak	-10.2043
▁christian	-10.2044
▁circle	-10.205
▁belt	-10.2051
▁suits	-10.2051
▁explorer	-10.2051
▁rebel	-10.2055
▁edge	-10.2057
▁shoe	-10.2061
▁mile	-10.2071
▁that	-10.2075
▁jokes	-10.2087
▁checking	-10.2098
▁garden	-10.2103
▁skip	-10.2134
▁crush	-10.2134
▁drag	-10.2163
▁tim	-10.2172
▁wander	-10.2179
town	-10.2185
▁du	-10.2186
▁wound	-10.2199
▁hip	-10.2202
▁argue	-10.2205
ane	-10.2207
▁permanent	-10.2212
▁sudden	-10.2213
▁suprem	-10.2226
▁electric	-10.2226
▁believed	-10.2226
▁plot	-10.2227
▁admire	-10.2227
▁solve	-10.2227
▁resist	-10.2228
▁tempo	-10.2228
▁bessner	-10.2228
▁butkus	-10.2228
▁cavalry	-10.2228
▁einstein	-10.2228
▁election	-10.2228
▁fabulous	-10.2228
▁galaxy	-10.2228
▁gordon	-10.2228
▁halloween	-10.2228
▁importance	-10.2228
▁magnificent	-10.2228
▁moonquake	-10.2228
▁ofrenda	-10.2228
▁struck	-10.2228
▁sunrise	-10.2228
▁supply	-10.2228
▁wabac	-10.2228
▁headquarters	-10.2228
▁impact	-10.2228
▁marshall	-10.2228
▁patient	-10.2228
▁farewell	-10.2228
▁institute	-10.2228
▁funeral	-10.2228
▁glob	-10.2228
▁sheep	-10.2228
▁liberty	-10.2228
▁whirring	-10.2228
▁myra	-10.2228
▁cec	-10.2228
▁rogas	-10.2228
▁anytime	-10.2228
▁blanket	-10.2228
▁joking	-10.2228
▁reverse	-10.2229
▁auto	-10.2229
▁owlets	-10.2229
▁bingo	-10.2229
▁fairfax	-10.2229
▁blew	-10.2229
▁personnel	-10.2229
▁upside	-10.2229
▁title	-10.2229
▁property	-10.2229
▁placed	-10.223
▁rome	-10.223
▁tuck	-10.223
▁jabba	-10.223
▁library	-10.223
▁wore	-10.223
▁melanie	-10.223
▁max	-10.223
▁fever	-10.223
▁eventually	-10.2231
▁becoming	-10.2231
▁forth	-10.2232
▁adoption	-10.2232
▁bette	-10.2232
▁ripped	-10.2233
▁precisely	-10.2233
▁bowers	-10.2233
▁applauding	-10.2233
▁wrap	-10.2233
▁charity	-10.2234
▁hearing	-10.2236
▁hush	-10.2237
▁convinced	-10.224
▁frightened	-10.2244
▁pm	-10.2245
▁invented	-10.2247
▁armor	-10.2247
▁designed	-10.2249
▁properly	-10.2249
▁beeping	-10.2251
▁yah	-10.2255
▁naturally	-10.2258
▁herd	-10.2261
▁seth	-10.2263
▁viva	-10.2267
▁evacuate	-10.2267
▁warned	-10.2273
▁louder	-10.2274
▁mandy	-10.2277
▁safer	-10.2285
▁nick	-10.229
▁sin	-10.2295
▁dope	-10.2298
▁arrested	-10.2307
▁collecting	-10.2309
▁wishes	-10.2312
ren	-10.2319
▁sue	-10.233
▁non	-10.2339
▁souls	-10.2343
ping	-10.2346
▁bend	-10.2347
▁pearls	-10.2354
▁wasted	-10.2354
▁townie	-10.2356
▁swinging	-10.236
ka	-10.2361
the	-10.2369
▁tells	-10.2371
tch	-10.2376
▁shadows	-10.2378
▁orphans	-10.239
▁tracking	-10.2391
▁tend	-10.2399
▁wa	-10.2399
▁yells	-10.2403
▁stands	-10.2408
ized	-10.2411
▁fools	-10.242
▁highly	-10.2423
▁searching	-10.2426
▁painful	-10.2432
▁je	-10.2454
▁fixing	-10.2499
rate	-10.2504
eater	-10.2523
▁appears	-10.2569
▁plays	-10.257
ten	-10.2587
▁gates	-10.2598
▁someones	-10.2602
▁remains	-10.2608
▁somebodys	-10.2619
ron	-10.2648
▁strikes	-10.2693
▁horns	-10.2694
▁peoples	-10.2707
▁sul	-10.2722
▁howl	-10.2728
ga	-10.2742
▁arrive	-10.2745
▁experiment	-10.2753
▁brigade	-10.2756
▁amigo	-10.2761
▁creak	-10.2765
▁dinosaur	-10.2765
▁uniform	-10.2765
▁twin	-10.2765
▁crystal	-10.2767
▁turk	-10.277
▁bullet	-10.277
▁orphan	-10.277
▁balloon	-10.2771
▁plumber	-10.2771
▁opera	-10.2783
▁actor	-10.2798
▁leaves	-10.2809
▁singer	-10.2821
▁flower	-10.2838
▁connect	-10.2868
let	-10.288
▁entertain	-10.2888
▁assist	-10.2894
ning	-10.2904
ball	-10.2907
▁aim	-10.2911
▁piss	-10.2913
▁mill	-10.2914
▁grant	-10.2917
▁arrange	-10.2918
▁cal	-10.2924
▁declare	-10.2928
▁courage	-10.2934
▁sandwich	-10.2935
while	-10.294
▁encourage	-10.2941
sure	-10.2941
▁fortunate	-10.2942
▁strict	-10.2942
▁accuse	-10.2942
▁alpha	-10.2942
▁astrid	-10.2942
▁audrey	-10.2942
▁cease	-10.2942
▁chorus	-10.2942
▁collar	-10.2942
▁enemies	-10.2942
▁estimate	-10.2942
▁gloria	-10.2942
▁gryffindor	-10.2942
▁hermione	-10.2942
▁intelligence	-10.2942
▁llorona	-10.2942
▁lucinda	-10.2942
▁manhattan	-10.2942
▁molesley	-10.2942
▁munchausen	-10.2942
▁nicholas	-10.2942
▁period	-10.2942
▁pterodactyl	-10.2942
▁shakespeare	-10.2942
▁slannen	-10.2942
▁swamp	-10.2942
▁technical	-10.2942
▁triumph	-10.2942
▁tuesday	-10.2942
▁wednesday	-10.2942
▁ellie	-10.2942
▁error	-10.2942
▁imperial	-10.2942
▁murray	-10.2942
▁niece	-10.2942
▁idella	-10.2942
▁courbet	-10.2942
▁lunatic	-10.2942
▁geneva	-10.2942
▁saloon	-10.2942
▁chanice	-10.2943
▁kidnapping	-10.2943
▁berthold	-10.2943
▁extraordinary	-10.2943
▁pumpkin	-10.2943
▁marvelous	-10.2943
▁benja	-10.2943
▁permit	-10.2943
▁yank	-10.2943
▁kryptonite	-10.2943
▁meteorite	-10.2943
▁identity	-10.2943
▁alternative	-10.2943
▁jayson	-10.2943
▁neighborhood	-10.2943
▁doris	-10.2943
▁snowball	-10.2943
▁network	-10.2943
▁impressive	-10.2943
▁waltz	-10.2943
▁dynamite	-10.2944
▁herb	-10.2944
▁trash	-10.2944
▁evan	-10.2944
▁role	-10.2944
▁halt	-10.2944
▁failure	-10.2944
▁inch	-10.2944
▁scent	-10.2944
▁romance	-10.2944
▁vice	-10.2944
▁maintain	-10.2945
▁supper	-10.2945
▁carbon	-10.2945
▁announcement	-10.2945
▁dawn	-10.2945
▁rosa	-10.2946
▁ernesto	-10.2946
▁studio	-10.2946
▁prime	-10.2946
▁bible	-10.2947
▁thirsty	-10.2948
▁bounce	-10.2948
▁confused	-10.2948
▁practically	-10.2948
▁laser	-10.2949
▁boiler	-10.2949
▁lacey	-10.295
▁statement	-10.295
▁secretary	-10.2951
▁sack	-10.2951
▁setting	-10.2952
▁yearold	-10.2953
▁russian	-10.2953
▁ercole	-10.2953
▁tut	-10.2953
▁pub	-10.2954
▁scott	-10.2959
▁doon	-10.296
▁captured	-10.2961
▁yelps	-10.2962
▁intruders	-10.2962
▁honking	-10.297
▁omi	-10.297
▁perfection	-10.297
▁naked	-10.2971
▁this	-10.2973
▁cher	-10.2977
▁aye	-10.2985
▁pulse	-10.299
▁seize	-10.2995
▁deeper	-10.2997
▁coco	-10.2998
▁rub	-10.2998
▁roaring	-10.2998
▁holes	-10.3
▁herr	-10.3012
▁steel	-10.3019
▁sneaking	-10.3019
▁promises	-10.3023
▁whispers	-10.3027
▁charges	-10.3027
▁realized	-10.3047
▁we	-10.3049
uck	-10.3053
▁electron	-10.3069
▁fate	-10.3075
▁shouts	-10.3091
▁messed	-10.3104
▁plumbers	-10.3117
▁te	-10.3118
ize	-10.3122
▁flora	-10.3135
▁enjoying	-10.3148
▁offering	-10.3154
pt	-10.3154
rish	-10.3155
▁kissed	-10.3167
hand	-10.3175
ig	-10.3177
ated	-10.3192
▁wanting	-10.321
▁tis	-10.3219
▁unit	-10.322
ably	-10.323
▁issues	-10.3242
ire	-10.3256
ble	-10.3261
▁anne	-10.3275
ens	-10.3283
▁answering	-10.3315
▁fr	-10.3332
▁log	-10.3337
wa	-10.3389
▁reminds	-10.3415
va	-10.3426
▁cr	-10.343
ator	-10.3433
▁flag	-10.3452
▁snap	-10.3472
▁grin	-10.3485
ang	-10.3487
▁demand	-10.3487
▁pound	-10.3488
▁sport	-10.3492
▁giants	-10.3496
▁dealing	-10.3506
▁tricks	-10.3511
▁opens	-10.3525
▁appearance	-10.3527
▁helicopter	-10.3529
▁outfit	-10.353
▁towel	-10.353
our	-10.353
▁desire	-10.3531
▁pipe	-10.3534
▁boot	-10.3536
▁stare	-10.3536
▁neighbor	-10.3537
▁pickett	-10.354
▁shadow	-10.3541
▁chain	-10.3541
▁yard	-10.3543
▁toward	-10.3543
▁quarter	-10.3544
▁alien	-10.3544
▁leads	-10.3549
▁grade	-10.3554
▁gu	-10.3555
▁egg	-10.356
tz	-10.3565
▁sa	-10.3566
▁dar	-10.3575
▁rob	-10.3585
▁pan	-10.3611
ries	-10.3617
▁hunt	-10.3646
use	-10.3648
▁prom	-10.3651
ship	-10.3651
ito	-10.3655
▁doubts	-10.3657
▁regard	-10.3661
▁recruit	-10.3676
coco	-10.3677
like	-10.3678
▁pee	-10.3683
foot	-10.3684
weight	-10.3685
▁describe	-10.3689
paw	-10.3689
▁absolute	-10.3697
▁emotional	-10.3699
▁fort	-10.37
▁withdraw	-10.3706
▁mmhm	-10.3708
▁cruel	-10.3711
▁terror	-10.3711
▁civil	-10.3711
▁mode	-10.3711
▁revolution	-10.3712
▁agnes	-10.3712
▁australia	-10.3712
▁awkward	-10.3712
▁carriage	-10.3712
▁clamoring	-10.3712
▁companion	-10.3712
▁critter	-10.3712
▁disguise	-10.3712
▁display	-10.3712
▁doomsday	-10.3712
▁earthquake	-10.3712
▁executive	-10.3712
▁frankenstein	-10.3712
▁hulie	-10.3712
▁intelligent	-10.3712
▁jennifer	-10.3712
▁kassar	-10.3712
▁launch	-10.3712
▁oldfashioned	-10.3712
▁orchestra	-10.3712
▁patience	-10.3712
▁platform	-10.3712
▁salmon	-10.3712
▁santiago	-10.3712
▁smack	-10.3712
▁stallion	-10.3712
▁thompson	-10.3712
▁thread	-10.3712
▁tremendous	-10.3712
▁volpe	-10.3712
▁werthan	-10.3712
▁wicked	-10.3712
▁mumbles	-10.3712
▁consent	-10.3712
▁glorious	-10.3712
▁raft	-10.3712
▁stamp	-10.3712
▁transmission	-10.3712
▁worship	-10.3712
▁drove	-10.3712
▁illegal	-10.3712
▁terrified	-10.3712
▁europe	-10.3712
▁narrat	-10.3712
▁acquaintance	-10.3712
▁editor	-10.3712
▁ashford	-10.3712
▁bolivia	-10.3712
▁investigation	-10.3712
▁propose	-10.3712
▁edgar	-10.3712
▁midnight	-10.3712
▁grantham	-10.3712
▁aaron	-10.3712
▁marble	-10.3712
▁crawl	-10.3712
▁amount	-10.3712
▁mabel	-10.3712
▁greetings	-10.3712
▁noble	-10.3712
▁infant	-10.3712
▁ultimate	-10.3712
▁uglyville	-10.3712
▁assistant	-10.3713
▁ignore	-10.3713
▁hattie	-10.3713
▁whatre	-10.3713
▁batteries	-10.3713
▁mental	-10.3713
▁foul	-10.3713
▁thirty	-10.3713
▁fame	-10.3713
▁watched	-10.3713
▁bieber	-10.3713
▁counter	-10.3713
▁ewell	-10.3713
▁chef	-10.3713
▁brewery	-10.3714
▁unknown	-10.3714
▁decent	-10.3714
▁pitch	-10.3714
▁indiana	-10.3714
▁beings	-10.3714
▁bodies	-10.3715
▁fender	-10.3715
zy	-10.3715
▁sphere	-10.3715
▁whale	-10.3716
▁intern	-10.3718
▁lordship	-10.3718
▁apple	-10.3718
eyed	-10.3719
▁flies	-10.372
▁currently	-10.3721
▁friendship	-10.3721
▁drawn	-10.3723
▁rent	-10.3728
▁cargo	-10.3729
▁host	-10.3732
▁rage	-10.3734
▁thee	-10.3735
▁mistaken	-10.3737
▁healthy	-10.3738
▁fury	-10.3738
▁jam	-10.3738
▁goodnight	-10.3739
▁oops	-10.3739
▁bucket	-10.374
▁parties	-10.3749
▁adopted	-10.3753
▁disappeared	-10.3753
bb	-10.3758
▁settled	-10.3763
▁terms	-10.3775
▁circuits	-10.3775
▁served	-10.3777
▁rescued	-10.3779
▁rank	-10.3786
▁county	-10.3796
▁rumors	-10.3803
▁shorty	-10.3825
▁armed	-10.3826
▁worthy	-10.3834
▁quietly	-10.3844
▁clouds	-10.3858
▁lass	-10.3864
ber	-10.3878
▁demands	-10.3887
▁thor	-10.3888
▁younger	-10.3889
▁units	-10.3893
▁nana	-10.3898
▁ty	-10.3903
▁packing	-10.3903
▁cooking	-10.3906
▁fed	-10.3907
▁spirits	-10.3909
▁rd	-10.3911
▁protecting	-10.3923
▁y	-10.3925
▁destroying	-10.3926
▁aha	-10.3938
▁prisoners	-10.395
ory	-10.3953
▁lu	-10.3965
▁forces	-10.3965
▁min	-10.3968
▁odds	-10.3971
▁ab	-10.3977
▁spending	-10.3977
▁wondered	-10.4008
io	-10.4014
▁pit	-10.4034
▁marrying	-10.4035
▁ver	-10.4058
▁beats	-10.4084
▁citys	-10.409
ummy	-10.4093
▁arabia	-10.4101
▁damned	-10.4131
▁bells	-10.4142
▁hundreds	-10.4155
sen	-10.416
▁moms	-10.4175
ick	-10.4185
▁jo	-10.4187
▁grandpa	-10.4191
▁mat	-10.4192
tic	-10.4207
▁signor	-10.4224
lly	-10.4228
▁adventures	-10.4239
tra	-10.4239
▁scar	-10.4246
▁ol	-10.4257
▁nicely	-10.4264
work	-10.4267
▁fa	-10.4282
▁becomes	-10.4289
▁tent	-10.4317
▁hop	-10.4322
▁shout	-10.4331
ab	-10.4333
ak	-10.4339
▁guarantee	-10.4344
▁require	-10.4347
line	-10.4351
▁lous	-10.4352
▁rooms	-10.4354
ana	-10.4354
▁effect	-10.4357
▁explosion	-10.4358
▁grandmother	-10.4358
▁audition	-10.4359
▁tyto	-10.4359
▁communist	-10.4363
▁represent	-10.4364
▁peanut	-10.4365
▁adult	-10.4365
ny	-10.4368
▁option	-10.4368
▁thumb	-10.437
▁victim	-10.4372
▁feather	-10.4378
▁fields	-10.4393
▁tracks	-10.4404
▁goal	-10.4419
▁cres	-10.4443
▁interrupt	-10.4446
lousy	-10.4463
▁qu	-10.4469
ical	-10.4479
▁uncles	-10.4482
▁begins	-10.4485
ating	-10.4488
▁fade	-10.4492
▁ages	-10.4493
▁glow	-10.4495
▁silen	-10.4502
board	-10.4508
▁sights	-10.451
▁stress	-10.4511
▁recommend	-10.4511
▁cancel	-10.4512
iv	-10.4516
▁gain	-10.4517
▁privilege	-10.4519
▁replace	-10.452
▁advise	-10.452
▁include	-10.4522
▁chances	-10.4524
▁capture	-10.4525
how	-10.4525
gu	-10.4525
▁dirt	-10.453
▁slim	-10.453
▁hung	-10.4536
more	-10.454
▁doug	-10.4543
zio	-10.4543
▁egypt	-10.4544
▁gabriel	-10.4544
▁impress	-10.4544
▁disturb	-10.4544
▁inherit	-10.4544
▁virginia	-10.4544
▁splendid	-10.4545
▁ambulance	-10.4545
▁approval	-10.4545
▁assault	-10.4545
▁autopilot	-10.4545
▁calculus	-10.4545
▁carnival	-10.4545
▁ceremony	-10.4545
▁chronicle	-10.4545
▁ciccio	-10.4545
▁combination	-10.4545
▁concept	-10.4545
▁fantasy	-10.4545
▁goomgoom	-10.4545
▁gorgeous	-10.4545
▁gylfie	-10.4545
▁instant	-10.4545
▁introduction	-10.4545
▁jeez	-10.4545
▁jefferies	-10.4545
▁lemonade	-10.4545
▁mathesar	-10.4545
▁messenger	-10.4545
▁miraculous	-10.4545
▁nolan	-10.4545
▁patrol	-10.4545
▁paxian	-10.4545
▁procedure	-10.4545
▁process	-10.4545
▁ratchet	-10.4545
▁regiment	-10.4545
▁repair	-10.4545
▁resident	-10.4545
▁reverend	-10.4545
▁satisfied	-10.4545
▁slide	-10.4545
▁sobbing	-10.4545
▁stella	-10.4545
▁stubborn	-10.4545
▁swanson	-10.4545
▁thief	-10.4545
▁trixie	-10.4545
▁twilight	-10.4545
▁unexpected	-10.4545
▁vault	-10.4545
▁wailing	-10.4545
▁wisdom	-10.4545
▁wyler	-10.4545
ible	-10.4545
▁commie	-10.4545
▁eternal	-10.4545
▁hyah	-10.4545
▁omega	-10.4545
▁anger	-10.4545
▁dumpster	-10.4545
▁insane	-10.4545
▁romantic	-10.4545
▁scoobydoo	-10.4545
▁jaime	-10.4545
▁muttering	-10.4545
▁prevent	-10.4545
▁medicine	-10.4545
▁burden	-10.4545
▁underwear	-10.4545
▁milord	-10.4545
▁crook	-10.4545
▁tyler	-10.4545
▁film	-10.4545
▁sophie	-10.4545
▁accent	-10.4545
▁flat	-10.4545
▁hamilton	-10.4545
▁meow	-10.4545
▁lancelot	-10.4545
▁pathetic	-10.4545
▁primary	-10.4545
▁pregnant	-10.4545
▁chapter	-10.4545
▁shrine	-10.4545
▁bacon	-10.4546
▁assistance	-10.4546
▁element	-10.4546
▁slipped	-10.4546
▁raspberry	-10.4546
▁turkey	-10.4546
▁misery	-10.4546
▁backwards	-10.4546
▁linda	-10.4546
▁rico	-10.4546
▁bock	-10.4546
▁polite	-10.4546
▁yawp	-10.4546
▁humor	-10.4546
▁yonder	-10.4546
▁jacobo	-10.4546
▁modern	-10.4547
▁authority	-10.4547
▁sentimental	-10.4547
▁shrubbery	-10.4547
▁agh	-10.4547
▁porch	-10.4547
▁electricity	-10.4547
▁barron	-10.4548
▁reactor	-10.4548
▁aside	-10.4548
▁finn	-10.4548
▁whoosh	-10.4549
▁digger	-10.455
▁burst	-10.455
▁housekeeper	-10.4551
▁blonde	-10.4551
▁whore	-10.4552
▁ability	-10.4552
▁minor	-10.4552
▁gump	-10.4552
▁bobby	-10.4554
▁fraud	-10.4554
▁owned	-10.4555
▁preacher	-10.4555
▁bald	-10.4556
▁highway	-10.4556
▁bout	-10.4557
▁tune	-10.4558
▁inner	-10.4558
▁weston	-10.456
▁classic	-10.456
▁influence	-10.4561
▁sweetness	-10.4562
▁fist	-10.4562
▁navy	-10.4563
▁tia	-10.4563
▁ruby	-10.4564
▁passion	-10.4567
▁gracias	-10.4568
▁businessman	-10.4569
▁blown	-10.457
▁confirmed	-10.4571
▁tub	-10.4574
▁fond	-10.4574
▁former	-10.4575
▁unable	-10.4578
▁route	-10.458
▁fle	-10.458
▁particularly	-10.4581
▁ideal	-10.4582
▁marie	-10.4583
▁blades	-10.4585
▁hint	-10.4585
▁pond	-10.4587
▁lifetime	-10.4588
▁howdy	-10.4594
▁classes	-10.4601
▁hire	-10.4604
ama	-10.4608
▁snarls	-10.4614
▁chewing	-10.4614
▁crashing	-10.4614
▁runs	-10.4619
▁flyn	-10.4621
▁neat	-10.4623
▁gathered	-10.4624
ever	-10.4624
▁normally	-10.4632
▁sailing	-10.4637
▁emotions	-10.4644
▁delivered	-10.4646
▁para	-10.4646
▁murdered	-10.465
▁fore	-10.4659
▁stones	-10.466
▁boarding	-10.4669
put	-10.4679
ck	-10.468
▁wedge	-10.4682
▁tong	-10.4683
▁imagined	-10.4688
▁members	-10.469
▁useful	-10.4698
▁discipline	-10.4698
▁cora	-10.4703
▁shots	-10.4711
▁ri	-10.4716
▁thumbs	-10.4721
▁lookout	-10.4721
▁chi	-10.4734
▁measure	-10.4736
▁turks	-10.4751
▁hon	-10.4753
▁rolling	-10.4757
▁ned	-10.4762
▁costumes	-10.4797
▁tales	-10.4798
▁mar	-10.4805
▁reporting	-10.4811
▁stops	-10.482
▁backup	-10.4825
▁whistles	-10.4859
▁caller	-10.4859
▁sounded	-10.4874
▁shoulders	-10.4876
int	-10.4881
▁can	-10.4889
▁somethings	-10.489
room	-10.4911
▁thoughts	-10.4911
iggly	-10.4918
▁li	-10.4919
▁cleared	-10.4931
▁il	-10.495
▁grounds	-10.4952
▁figures	-10.4955
▁cab	-10.4976
▁groups	-10.4982
▁minds	-10.4982
▁clowns	-10.4983
▁bl	-10.4984
▁tin	-10.4994
▁childrens	-10.4998
▁helps	-10.5009
▁ton	-10.5017
▁caused	-10.5037
cat	-10.5048
▁announc	-10.5051
▁touching	-10.5058
▁beasts	-10.5076
▁costs	-10.5093
▁u	-10.5095
▁newspapers	-10.5138
▁islands	-10.5138
▁scrap	-10.5157
ied	-10.5185
▁breaks	-10.5193
▁dolls	-10.5233
▁grunt	-10.5245
▁sona	-10.5246
▁pops	-10.525
looking	-10.5252
▁occasion	-10.5267
▁author	-10.5267
▁individual	-10.5267
▁woozle	-10.5267
▁demon	-10.5272
▁threat	-10.5272
▁wolfwalker	-10.5277
▁knee	-10.5277
▁wins	-10.5277
▁viking	-10.5278
▁nun	-10.5279
▁hills	-10.5279
▁buildings	-10.528
▁cloud	-10.5282
▁artist	-10.5283
▁pearl	-10.5283
▁degree	-10.5284
▁fe	-10.5286
▁string	-10.5286
▁waters	-10.5286
▁actions	-10.5297
rous	-10.5301
▁he	-10.5303
▁notes	-10.5319
▁stat	-10.5331
▁psych	-10.5346
▁thrust	-10.5349
ations	-10.5352
lic	-10.536
ug	-10.5376
die	-10.5381
wood	-10.5386
▁snipe	-10.5409
▁possess	-10.541
▁sweat	-10.5412
so	-10.5416
cam	-10.5417
ford	-10.5418
▁inform	-10.542
▁insult	-10.5422
woman	-10.5423
▁surround	-10.5423
▁delay	-10.543
▁trace	-10.543
▁separate	-10.5431
▁remove	-10.5435
▁unfortunate	-10.5439
▁receive	-10.5441
▁barn	-10.5442
▁loop	-10.5442
▁successful	-10.5443
▁photograph	-10.5444
oy	-10.5445
▁thick	-10.5445
▁olive	-10.5449
▁heave	-10.5449
▁brat	-10.5452
▁deploy	-10.5452
▁disgrace	-10.5453
▁windows	-10.5453
▁maharaja	-10.5453
▁meteor	-10.5454
▁forbid	-10.5454
▁reaction	-10.5454
▁abbey	-10.5454
▁allomere	-10.5454
▁anxious	-10.5454
▁apologies	-10.5454
▁brandnew	-10.5454
▁butler	-10.5454
▁coffin	-10.5454
▁coincidence	-10.5454
▁companies	-10.5454
▁doorbell	-10.5454
▁eglantine	-10.5454
▁elevate	-10.5454
▁excitement	-10.5454
▁explosiveskull	-10.5454
▁froze	-10.5454
▁gazzo	-10.5454
▁gibberish	-10.5454
▁greedy	-10.5454
▁gunnison	-10.5454
▁hamegg	-10.5454
▁harewood	-10.5454
▁hollywood	-10.5454
▁jonathan	-10.5454
▁lalalala	-10.5454
▁majesties	-10.5454
▁miyamizu	-10.5454
▁multiple	-10.5454
▁mutual	-10.5454
▁nephew	-10.5454
▁pankot	-10.5454
▁peculiar	-10.5454
▁powder	-10.5454
▁praise	-10.5454
▁rasputin	-10.5454
▁redmond	-10.5454
▁religion	-10.5454
▁rematch	-10.5454
▁sarah	-10.5454
▁serving	-10.5454
▁slytherin	-10.5454
▁smeerensburg	-10.5454
▁spray	-10.5454
▁sultan	-10.5454
▁tournament	-10.5454
▁vivian	-10.5454
▁wickles	-10.5454
▁pawpaws	-10.5454
▁vanished	-10.5454
▁connie	-10.5454
▁simpkins	-10.5454
▁competition	-10.5454
▁retard	-10.5454
▁teenager	-10.5454
▁larry	-10.5454
▁vocalizing	-10.5454
▁patrick	-10.5454
▁yoyo	-10.5454
▁wives	-10.5454
▁elected	-10.5454
▁confusion	-10.5454
▁renata	-10.5454
▁broccoli	-10.5454
▁echo	-10.5454
▁divine	-10.5454
▁constitution	-10.5454
▁smiling	-10.5454
▁edith	-10.5454
▁proposition	-10.5454
▁lizzy	-10.5454
▁underdog	-10.5454
▁balance	-10.5454
▁florine	-10.5454
▁salad	-10.5454
▁hawaii	-10.5454
▁basketball	-10.5454
▁culture	-10.5454
▁bagshaw	-10.5454
▁flux	-10.5455
▁adorable	-10.5455
▁downtown	-10.5455
▁coronation	-10.5455
▁radiation	-10.5455
▁furball	-10.5455
▁frequency	-10.5455
▁dozen	-10.5455
▁sunset	-10.5455
▁dedicated	-10.5455
▁studie	-10.5455
▁orphanage	-10.5455
▁wax	-10.5455
▁physical	-10.5456
▁collider	-10.5456
▁engagement	-10.5456
▁muntz	-10.5456
▁soda	-10.5456
▁soil	-10.5456
▁clang	-10.5456
▁fox	-10.5457
▁proto	-10.5457
▁thou	-10.5457
▁krypton	-10.5457
▁thud	-10.5457
▁buried	-10.5457
▁mansfield	-10.5457
▁playground	-10.5457
▁robbery	-10.5458
▁roommate	-10.5458
▁rice	-10.5459
▁stream	-10.5459
▁gettys	-10.5459
▁confession	-10.5459
▁projector	-10.546
▁peril	-10.546
▁agreement	-10.546
▁elves	-10.5461
▁stroke	-10.5461
▁confidence	-10.5461
▁silent	-10.5461
▁elf	-10.5461
▁located	-10.5462
▁delighted	-10.5462
▁eg	-10.5462
▁alan	-10.5463
▁transferred	-10.5463
▁tax	-10.5463
▁african	-10.5464
▁hopefully	-10.5465
▁dreadful	-10.5465
▁betty	-10.5465
▁cried	-10.5465
▁portal	-10.5466
▁programmed	-10.5466
▁chopper	-10.5466
▁gray	-10.5467
▁forgetting	-10.547
▁greatgreatgrand	-10.5472
▁communicate	-10.5472
▁style	-10.5473
▁puts	-10.5473
▁warner	-10.5474
▁fascinating	-10.5475
▁snarling	-10.5475
▁trigger	-10.5475
ski	-10.5477
▁sailor	-10.5478
▁maiden	-10.5482
▁blaring	-10.5482
▁radios	-10.5485
▁deny	-10.5485
▁soak	-10.5485
▁bitter	-10.5487
gy	-10.5487
▁visitors	-10.55
▁root	-10.5502
▁pastor	-10.5503
▁jr	-10.5504
▁pod	-10.5505
▁scooby	-10.551
▁bump	-10.551
▁purr	-10.551
▁consequences	-10.5513
▁kindness	-10.5513
▁daring	-10.5516
▁cro	-10.5516
▁released	-10.5518
▁damaged	-10.5522
▁cheating	-10.5526
▁seats	-10.5527
ru	-10.5528
▁tools	-10.5529
▁ad	-10.553
▁performing	-10.553
▁pretending	-10.5544
▁statues	-10.5546
▁player	-10.5547
▁poets	-10.5548
▁deserved	-10.5553
▁coins	-10.5563
▁minu	-10.5578
▁sticky	-10.5578
tri	-10.5586
▁comedy	-10.5592
▁jews	-10.5597
▁faithful	-10.5601
▁ana	-10.5607
▁fightin	-10.5613
▁sparks	-10.5615
ax	-10.5627
▁offered	-10.5635
▁victims	-10.5647
ile	-10.5663
▁quarters	-10.5664
▁balloons	-10.5681
▁bullets	-10.5681
▁actors	-10.5686
▁sins	-10.5699
▁players	-10.5699
▁jon	-10.5713
▁feelin	-10.5714
▁flyer	-10.5714
▁cleaned	-10.5715
▁hut	-10.5715
▁shave	-10.5716
▁acted	-10.5717
▁ev	-10.572
▁carpe	-10.5721
▁pas	-10.5734
gh	-10.5756
▁positions	-10.5757
ita	-10.5762
▁jar	-10.5765
▁poems	-10.5765
▁hunters	-10.5769
▁ofthe	-10.5771
▁answered	-10.5773
▁attacked	-10.5774
▁bastards	-10.5782
headed	-10.5796
▁mer	-10.5802
▁sol	-10.583
▁understanding	-10.5851
▁and	-10.5854
▁kinds	-10.5855
▁when	-10.5859
▁nu	-10.5865
ung	-10.5872
▁bills	-10.5889
▁kissing	-10.5901
▁spots	-10.5902
▁comfort	-10.5903
▁dreamer	-10.5913
▁hated	-10.5918
▁ron	-10.593
ud	-10.5932
ons	-10.595
▁presents	-10.5954
tie	-10.5956
upper	-10.5961
▁pe	-10.5963
ag	-10.5994
sk	-10.6007
▁urge	-10.6014
af	-10.6021
▁snot	-10.6029
ily	-10.6061
▁hoped	-10.6063
gen	-10.6068
▁conditions	-10.6071
▁spark	-10.6081
▁cared	-10.6103
▁drugs	-10.6104
▁hack	-10.6109
of	-10.6119
ok	-10.613
ns	-10.6147
vi	-10.6162
▁records	-10.6164
▁badge	-10.6175
ism	-10.6205
▁suck	-10.6218
che	-10.6225
▁lad	-10.6227
▁beers	-10.624
▁strip	-10.6245
▁dies	-10.6256
▁bull	-10.6257
▁wh	-10.6263
his	-10.6266
▁argument	-10.6267
▁restaurant	-10.6267
▁troll	-10.6268
▁instrument	-10.6268
▁effort	-10.6274
▁package	-10.6277
▁client	-10.6278
▁member	-10.6282
▁skill	-10.6286
▁beside	-10.6288
▁chuckle	-10.6289
▁drum	-10.6296
▁manner	-10.6304
▁sets	-10.6312
▁design	-10.6317
for	-10.6344
▁guessed	-10.6344
aw	-10.6358
▁wo	-10.636
▁til	-10.637
▁gin	-10.6373
▁dancer	-10.6381
▁depend	-10.6383
▁services	-10.6385
▁computers	-10.6385
▁appeal	-10.6404
▁text	-10.6404
▁swell	-10.6407
▁strain	-10.6407
▁fold	-10.6415
▁confirm	-10.6417
▁reject	-10.642
ocus	-10.6421
▁twist	-10.6422
▁mix	-10.6424
tooth	-10.6426
box	-10.6427
jo	-10.6429
▁divorce	-10.6431
▁ration	-10.6432
▁engage	-10.6433
▁should	-10.6437
▁puss	-10.6438
▁advance	-10.644
▁recent	-10.6441
▁boil	-10.6445
▁flatter	-10.6448
▁commit	-10.6452
▁radioactiv	-10.6452
rigid	-10.6453
▁squad	-10.6454
▁skate	-10.6454
▁absence	-10.6454
▁altitude	-10.6454
▁beneath	-10.6454
▁branson	-10.6454
▁breeze	-10.6454
▁candlewick	-10.6454
▁cereal	-10.6454
▁champagne	-10.6454
▁circus	-10.6454
▁entitled	-10.6454
▁exchange	-10.6454
▁existence	-10.6454
▁federation	-10.6454
▁financial	-10.6454
▁fundamental	-10.6454
▁gauntlet	-10.6454
▁guinea	-10.6454
▁harriman	-10.6454
▁hartfield	-10.6454
▁inaudible	-10.6454
▁jernigan	-10.6454
▁kubitz	-10.6454
▁lobster	-10.6454
▁mariejosephe	-10.6454
▁morehouse	-10.6454
▁mortgage	-10.6454
▁muertos	-10.6454
▁musket	-10.6454
▁obiwan	-10.6454
▁password	-10.6454
▁poker	-10.6454
▁portuguese	-10.6454
▁preparing	-10.6454
▁proposal	-10.6454
▁protocol	-10.6454
▁relief	-10.6454
▁scapelli	-10.6454
▁shaking	-10.6454
▁slick	-10.6454
▁soccer	-10.6454
▁squirrel	-10.6454
▁steak	-10.6454
▁suitcase	-10.6454
▁sydney	-10.6454
▁teschmacher	-10.6454
▁transform	-10.6454
▁uncomfortable	-10.6454
▁vessel	-10.6454
▁vicious	-10.6454
▁volcano	-10.6454
▁xanadu	-10.6454
▁yoohoo	-10.6454
▁chimes	-10.6454
▁godmother	-10.6454
▁honeymoon	-10.6454
▁jesper	-10.6454
▁mclaws	-10.6454
▁pacifi	-10.6454
▁respond	-10.6454
▁scandal	-10.6454
▁stuart	-10.6454
▁lizard	-10.6454
▁mustache	-10.6454
▁myth	-10.6454
▁shiny	-10.6454
▁superior	-10.6454
▁coolsville	-10.6454
▁naught	-10.6454
▁torture	-10.6454
▁headache	-10.6454
▁picnic	-10.6454
▁basis	-10.6454
▁unger	-10.6454
▁genetic	-10.6454
▁vital	-10.6454
▁trunk	-10.6454
▁prototype	-10.6454
▁patmore	-10.6454
▁plug	-10.6454
▁commandments	-10.6454
▁willem	-10.6454
▁ladder	-10.6454
▁varga	-10.6454
ological	-10.6454
▁scoop	-10.6454
▁libby	-10.6454
▁basket	-10.6454
▁portorosso	-10.6454
▁rep	-10.6454
▁beachport	-10.6454
▁daphne	-10.6454
▁crab	-10.6454
▁allenby	-10.6454
▁thorpe	-10.6455
▁karen	-10.6455
▁avenue	-10.6455
▁granddad	-10.6455
▁couch	-10.6455
▁lamp	-10.6455
▁suicide	-10.6455
▁species	-10.6455
▁jewish	-10.6455
▁online	-10.6455
▁shark	-10.6455
▁delta	-10.6455
▁visible	-10.6455
▁wingfield	-10.6455
▁garage	-10.6455
▁mijo	-10.6455
▁wel	-10.6455
▁heist	-10.6455
▁benefit	-10.6455
▁irish	-10.6455
▁whatll	-10.6455
▁motion	-10.6455
▁bodyguard	-10.6455
▁andrew	-10.6456
▁lend	-10.6456
▁mock	-10.6456
▁attached	-10.6456
▁valuable	-10.6456
▁sworn	-10.6456
▁spectrum	-10.6456
▁massive	-10.6456
▁baseball	-10.6456
▁heth	-10.6456
▁routine	-10.6456
▁punk	-10.6456
▁colour	-10.6456
▁canine	-10.6456
▁leviosa	-10.6456
▁stanley	-10.6456
▁brandon	-10.6456
▁patch	-10.6457
▁bold	-10.6457
▁lemon	-10.6457
▁potatoes	-10.6457
▁ellison	-10.6457
▁babe	-10.6458
▁dull	-10.6458
▁alike	-10.6458
▁patty	-10.6458
▁vain	-10.6458
▁southern	-10.6458
▁footmen	-10.6458
▁dishes	-10.6459
▁whine	-10.6459
▁possession	-10.6459
▁fog	-10.6461
▁driveway	-10.6461
▁sector	-10.6461
▁legal	-10.6461
▁hideous	-10.6462
▁centre	-10.6462
▁silk	-10.6463
▁passage	-10.6463
▁drunken	-10.6463
▁whew	-10.6463
▁frankie	-10.6464
▁loan	-10.6465
▁expos	-10.6466
▁webb	-10.6467
▁diego	-10.6468
▁realise	-10.6468
▁sang	-10.6468
▁related	-10.647
▁moral	-10.647
▁suggestion	-10.6471
▁mobile	-10.6473
▁tap	-10.6474
▁dragging	-10.6476
▁divorced	-10.6477
▁sixth	-10.6477
▁whooping	-10.6478
▁quote	-10.6478
▁accomplished	-10.6479
▁thus	-10.648
▁grandfather	-10.6481
▁scu	-10.6483
▁tada	-10.6485
▁rin	-10.6486
▁historical	-10.6486
▁sore	-10.6491
▁drowning	-10.6492
▁creeping	-10.6493
▁sta	-10.6494
dium	-10.6494
▁hits	-10.6495
▁hopeless	-10.6496
▁tribe	-10.6497
▁tomb	-10.6498
▁uglydolls	-10.6501
▁drill	-10.6503
▁dial	-10.6504
▁lame	-10.6505
▁provided	-10.6507
▁cheated	-10.6507
▁billion	-10.651
▁hah	-10.6511
ou	-10.6511
▁beans	-10.6518
▁rap	-10.652
▁fee	-10.6525
▁vine	-10.6528
▁refused	-10.6529
▁ruled	-10.6531
▁hardest	-10.6532
▁whoops	-10.6532
▁ut	-10.6537
▁boobs	-10.6538
▁gig	-10.6546
▁goombas	-10.6556
▁nazis	-10.6556
▁thankful	-10.6557
▁socks	-10.6557
ni	-10.6557
▁persons	-10.6558
▁foundation	-10.6561
▁escaped	-10.6561
▁painted	-10.6562
▁foryou	-10.6565
▁laying	-10.6566
▁robe	-10.6575
▁closet	-10.6579
▁patroni	-10.6588
▁skipp	-10.6594
▁burned	-10.6605
▁del	-10.6605
▁vi	-10.6606
▁vegetables	-10.6612
▁documents	-10.6612
▁tests	-10.6613
▁drawer	-10.6629
▁pla	-10.6636
▁peaceful	-10.6646
▁knees	-10.665
bi	-10.6653
▁thingy	-10.6654
▁safely	-10.6655
▁tomorrows	-10.666
▁recording	-10.667
▁puzzle	-10.6676
▁hai	-10.6681
▁ding	-10.6688
▁differently	-10.6696
nix	-10.6701
▁dan	-10.6703
▁bothering	-10.6704
▁les	-10.671
▁dressing	-10.6746
▁pushed	-10.675
▁scores	-10.6757
▁net	-10.6759
▁criminals	-10.6762
▁villains	-10.6765
▁nap	-10.6777
▁chart	-10.6779
▁cells	-10.6782
▁raw	-10.6788
▁gar	-10.6793
▁at	-10.6804
ut	-10.6807
gue	-10.6813
▁tiggers	-10.6819
com	-10.6824
nny	-10.683
▁guessing	-10.6833
▁likely	-10.6841
▁interests	-10.6859
mi	-10.6865
eur	-10.6871
▁moves	-10.6871
▁stinks	-10.6877
▁sticking	-10.6884
▁devils	-10.6895
ave	-10.6906
ress	-10.6925
▁directions	-10.6933
ff	-10.6939
▁pulling	-10.6951
▁mc	-10.6972
▁squeeze	-10.6982
▁attacking	-10.6999
▁mop	-10.7003
zz	-10.7006
fe	-10.7014
▁wheels	-10.7028
▁catching	-10.7029
▁mines	-10.7047
▁bam	-10.7053
gon	-10.7078
▁forms	-10.7118
▁mmmm	-10.7118
▁wolfe	-10.7133
▁breathes	-10.7162
▁ga	-10.718
▁wr	-10.719
▁est	-10.7197
▁pup	-10.7202
rine	-10.7203
east	-10.7209
ore	-10.7222
▁pointing	-10.7248
▁har	-10.725
▁hurting	-10.7257
ake	-10.7274
▁flap	-10.7283
my	-10.7293
ned	-10.7327
▁ali	-10.7334
can	-10.7338
fully	-10.7341
fa	-10.7351
▁nut	-10.7365
itched	-10.737
▁magazine	-10.7378
▁struggle	-10.7378
▁bolt	-10.7378
▁cannon	-10.7378
▁dep	-10.7381
▁pellet	-10.7382
▁tunnel	-10.7382
▁vehicle	-10.7382
▁turtle	-10.7382
▁pole	-10.7384
▁method	-10.7385
▁grownup	-10.7386
▁tank	-10.7388
▁nerve	-10.7388
▁document	-10.739
▁sardine	-10.7391
▁vegetable	-10.7391
▁jew	-10.7393
▁idiots	-10.7394
▁plate	-10.7395
▁citizen	-10.7395
▁capt	-10.7396
ified	-10.7398
▁folk	-10.7398
▁claw	-10.7399
▁gut	-10.7405
▁cur	-10.7411
▁wire	-10.7417
▁payment	-10.7418
▁clar	-10.7424
▁lip	-10.7435
▁clap	-10.7439
▁invent	-10.7439
▁whip	-10.7443
▁movement	-10.7446
▁phones	-10.7447
nce	-10.7462
power	-10.7464
▁embarrass	-10.7485
▁pour	-10.7487
▁smit	-10.7488
▁monkeys	-10.7491
▁hee	-10.7497
▁commission	-10.75
▁col	-10.7512
▁dinners	-10.7515
ell	-10.7522
book	-10.7529
▁trips	-10.7532
▁betray	-10.7533
girl	-10.7535
field	-10.7535
called	-10.7535
grade	-10.7536
▁wipe	-10.7539
▁spy	-10.7541
▁activate	-10.7542
▁crow	-10.7544
jar	-10.7545
looker	-10.7548
▁minist	-10.7551
▁incredibl	-10.7551
▁rust	-10.7553
▁painting	-10.7555
▁hous	-10.756
boy	-10.7562
▁profit	-10.7563
▁mornin	-10.7563
▁caf	-10.7564
▁calculat	-10.7565
▁terrifying	-10.7565
▁unfair	-10.7565
▁academy	-10.7565
▁activities	-10.7565
▁administration	-10.7565
▁aircraft	-10.7565
▁almighty	-10.7565
▁annual	-10.7565
▁assassin	-10.7565
▁average	-10.7565
▁baku	-10.7565
▁bourget	-10.7565
▁burglar	-10.7565
▁calcifer	-10.7565
▁chamaco	-10.7565
▁deraa	-10.7565
▁elefun	-10.7565
▁ellingboe	-10.7565
▁escort	-10.7565
▁essence	-10.7565
▁explanation	-10.7565
▁facility	-10.7565
▁falcon	-10.7565
▁fifteen	-10.7565
▁fifth	-10.7565
▁fiji	-10.7565
▁foretold	-10.7565
▁fountain	-10.7565
▁gallahxar	-10.7565
▁gramoo	-10.7565
▁incident	-10.7565
▁industries	-10.7565
▁intercept	-10.7565
▁kamajii	-10.7565
▁kosterman	-10.7565
▁laundry	-10.7565
▁legacy	-10.7565
▁liquid	-10.7565
▁location	-10.7565
▁makunga	-10.7565
▁malfunction	-10.7565
▁maurice	-10.7565
▁mayfleet	-10.7565
▁murdock	-10.7565
▁muscle	-10.7565
▁nuisance	-10.7565
▁okudera	-10.7565
▁parallel	-10.7565
▁potential	-10.7565
▁pursuit	-10.7565
▁quantonium	-10.7565
▁rainbow	-10.7565
▁rattling	-10.7565
▁screen	-10.7565
▁shelby	-10.7565
▁skirt	-10.7565
▁skull	-10.7565
▁stanhope	-10.7565
▁succeed	-10.7565
▁tattoo	-10.7565
▁texas	-10.7565
▁toothache	-10.7565
▁twelve	-10.7565
▁underestimat	-10.7565
▁valentin	-10.7565
▁winslow	-10.7565
▁worf	-10.7565
▁zong	-10.7565
▁earphones	-10.7565
▁inferior	-10.7565
▁trilling	-10.7565
▁cindy	-10.7565
▁luggage	-10.7565
▁copperbottom	-10.7565
▁gym	-10.7565
▁somewhat	-10.7565
▁bracelet	-10.7565
▁resent	-10.7565
▁mcq	-10.7565
▁occurred	-10.7565
▁pattern	-10.7565
▁rogue	-10.7565
▁cords	-10.7565
▁waving	-10.7565
▁departure	-10.7565
▁sorrow	-10.7565
▁cliff	-10.7565
▁tsar	-10.7565
▁lyze	-10.7565
▁whys	-10.7565
▁automatically	-10.7566
▁hamster	-10.7566
▁psst	-10.7566
▁allergic	-10.7566
▁whiskers	-10.7566
▁oath	-10.7566
▁lesley	-10.7566
▁helmet	-10.7566
▁eddie	-10.7566
▁peacekeeper	-10.7566
▁airspeed	-10.7566
▁dutch	-10.7566
▁merton	-10.7566
▁observation	-10.7566
▁humble	-10.7566
▁welton	-10.7566
▁salary	-10.7566
▁dignity	-10.7566
▁lauren	-10.7566
▁calvin	-10.7566
▁hunh	-10.7566
▁incoming	-10.7566
▁arrow	-10.7566
▁yankee	-10.7566
▁rustling	-10.7567
▁fridge	-10.7567
▁injured	-10.7567
▁gunshot	-10.7567
▁promotion	-10.7567
▁parlor	-10.7567
▁spitting	-10.7567
▁kong	-10.7567
▁buff	-10.7567
▁commitment	-10.7567
▁activity	-10.7567
▁appropriate	-10.7567
▁brief	-10.7567
▁collapse	-10.7567
▁valet	-10.7567
▁hawkes	-10.7567
▁temporary	-10.7567
▁mistress	-10.7567
▁tiger	-10.7567
▁mold	-10.7567
▁clive	-10.7567
▁dru	-10.7568
▁howard	-10.7568
▁apprentice	-10.7568
▁begun	-10.7568
▁tango	-10.7568
▁bounty	-10.7568
▁transportation	-10.7569
▁not	-10.7569
▁droid	-10.7569
▁stake	-10.7569
▁barbara	-10.7569
▁righteous	-10.7569
▁juliet	-10.7569
▁drain	-10.7569
▁thug	-10.7569
▁wu	-10.757
▁adore	-10.757
▁bait	-10.757
▁rubies	-10.757
▁capital	-10.757
▁looney	-10.757
▁objective	-10.7571
▁deaf	-10.7571
▁household	-10.7571
▁loco	-10.7571
▁grip	-10.7571
ricky	-10.7572
▁bushes	-10.7572
▁shore	-10.7573
▁pile	-10.7573
▁spotted	-10.7573
▁taxes	-10.7574
▁weakness	-10.7574
▁doggy	-10.7574
nde	-10.7574
▁boost	-10.7574
▁complaint	-10.7574
▁dating	-10.7575
▁possibility	-10.7575
▁puff	-10.7575
▁grid	-10.7576
▁bitten	-10.7576
▁bedtime	-10.7576
▁habit	-10.7576
▁classical	-10.7577
▁fearless	-10.7578
▁katie	-10.7578
▁chillin	-10.7579
▁tolling	-10.758
▁heroic	-10.7581
▁gown	-10.7581
▁tourist	-10.7583
▁challenger	-10.7586
▁wager	-10.7587
▁maniac	-10.7589
▁mall	-10.7591
▁humanity	-10.7593
▁officially	-10.7593
▁proven	-10.7593
▁drowned	-10.7595
▁mule	-10.7596
▁inhales	-10.7597
▁reasonable	-10.7597
▁inventor	-10.7598
▁sweater	-10.7598
▁required	-10.7599
▁fastest	-10.7599
▁tookie	-10.7601
▁arranged	-10.7601
▁lever	-10.7602
▁removed	-10.7603
▁clicking	-10.7603
ham	-10.7605
▁sola	-10.7608
ya	-10.7609
▁directly	-10.7609
▁rear	-10.7611
uous	-10.7611
▁brand	-10.7612
▁dresses	-10.7612
▁grovel	-10.7615
▁connected	-10.7616
▁granted	-10.7616
▁driven	-10.7618
mice	-10.762
▁vip	-10.7624
▁awfully	-10.7636
about	-10.7637
▁lice	-10.7638
▁factor	-10.764
▁defeated	-10.7645
▁beds	-10.7647
▁rad	-10.7648
▁spic	-10.7648
▁screwed	-10.765
▁wars	-10.7652
▁suffering	-10.7655
▁bella	-10.7657
▁director	-10.7658
▁upgrades	-10.7659
▁blasted	-10.7665
▁inf	-10.7666
▁ranger	-10.7669
▁helpful	-10.767
▁camel	-10.7671
▁smaller	-10.7674
mou	-10.7675
chi	-10.7675
▁aa	-10.7677
▁generations	-10.768
▁communications	-10.768
▁homeless	-10.7688
▁whee	-10.7696
gan	-10.7702
▁ami	-10.7706
dom	-10.7706
▁summers	-10.7707
▁comic	-10.7709
▁hoot	-10.7709
▁lions	-10.7711
▁prayed	-10.7712
▁peas	-10.7715
▁switched	-10.7719
▁customers	-10.7725
▁suckers	-10.7725
ip	-10.7732
▁nash	-10.7732
▁climbing	-10.7733
▁toes	-10.7734
▁sardines	-10.7744
▁belly	-10.7744
▁studying	-10.7747
nah	-10.7748
▁prop	-10.7762
▁explained	-10.7775
▁joint	-10.7778
▁enjoyed	-10.7784
▁strings	-10.7785
▁feathers	-10.7796
▁noon	-10.7797
▁shown	-10.7802
▁fades	-10.7802
▁reported	-10.7804
pic	-10.7817
▁comb	-10.7818
▁pits	-10.7818
▁tents	-10.7819
▁yards	-10.7828
▁neighbors	-10.7828
▁pipes	-10.783
▁devo	-10.783
▁honored	-10.7841
▁gra	-10.7842
▁par	-10.7852
▁qui	-10.7853
ler	-10.7862
▁traveler	-10.7867
▁rebels	-10.787
dodoo	-10.7872
▁remembered	-10.7873
▁waiter	-10.7875
▁roars	-10.7892
▁tips	-10.7905
▁wears	-10.7908
amat	-10.7916
▁prayers	-10.7924
red	-10.7932
▁cart	-10.794
▁dreamed	-10.7941
▁commanding	-10.795
▁op	-10.795
▁queens	-10.7959
ice	-10.7964
got	-10.7974
ky	-10.7985
▁danced	-10.7986
▁hay	-10.7998
ged	-10.7999
▁dun	-10.8003
▁fooling	-10.8009
▁beautifully	-10.801
oid	-10.8017
▁handy	-10.8017
ex	-10.8019
your	-10.804
▁diamonds	-10.804
▁shove	-10.8041
▁events	-10.8054
ode	-10.8059
▁snakes	-10.8061
▁arabs	-10.8068
hoo	-10.808
▁gil	-10.8084
▁sarge	-10.8093
▁decisions	-10.8104
▁ch	-10.8105
old	-10.8124
▁bottles	-10.8126
ink	-10.8127
▁riches	-10.814
▁rot	-10.8145
▁maker	-10.8157
▁retrieve	-10.8196
▁gummi	-10.821
▁agents	-10.8211
▁rounds	-10.8222
▁buds	-10.8229
kay	-10.824
▁signs	-10.825
▁dens	-10.8256
▁girlfriends	-10.8282
ora	-10.8288
▁stuffed	-10.829
den	-10.8296
▁dot	-10.8297
▁cape	-10.8299
▁elses	-10.8325
ark	-10.8329
▁greater	-10.8336
▁jan	-10.8358
▁gems	-10.8362
▁bears	-10.837
▁baths	-10.8399
▁butts	-10.84
▁fin	-10.8416
ox	-10.8425
▁finds	-10.8437
▁bars	-10.8445
▁celebrate	-10.8461
▁accounts	-10.8462
▁leaders	-10.8462
▁resting	-10.8511
act	-10.8516
▁alo	-10.8529
▁creep	-10.8561
five	-10.8568
▁bot	-10.8577
▁fits	-10.8581
▁knocks	-10.8584
▁highp	-10.859
▁groan	-10.8602
▁bark	-10.8608
▁honk	-10.8611
▁cigar	-10.8627
▁gizzard	-10.8628
▁scheme	-10.8628
▁autograph	-10.8632
▁flame	-10.8633
▁elbow	-10.8633
▁chick	-10.8634
▁jewel	-10.8634
▁affair	-10.8637
▁scientist	-10.8637
▁jab	-10.8637
▁sheet	-10.8638
▁coconut	-10.8639
▁compliment	-10.8639
▁relative	-10.8639
▁objection	-10.864
▁spike	-10.8642
fish	-10.8645
▁customer	-10.865
▁lands	-10.8652
▁motor	-10.8652
▁sucker	-10.8653
▁craft	-10.8655
top	-10.866
▁wi	-10.867
itation	-10.8683
▁indicate	-10.8684
ub	-10.8686
▁ham	-10.8697
mate	-10.8702
▁rem	-10.8706
ara	-10.871
▁cone	-10.871
▁ahhh	-10.8731
▁frighten	-10.8733
▁cue	-10.8735
▁drown	-10.8736
▁carol	-10.8743
▁formal	-10.8746
pack	-10.8752
▁deflect	-10.8758
▁leak	-10.8764
▁era	-10.8768
▁her	-10.8771
▁distract	-10.8773
▁jims	-10.8778
▁toe	-10.8783
▁accomplish	-10.8783
som	-10.8786
▁bleed	-10.8787
world	-10.8788
▁approve	-10.8792
▁convince	-10.8795
▁rang	-10.8798
▁slice	-10.8799
▁constant	-10.88
▁current	-10.88
▁custom	-10.8804
▁speaker	-10.8805
bra	-10.8806
▁affect	-10.8808
▁produce	-10.8808
▁liz	-10.8809
▁convent	-10.881
▁manipulat	-10.8812
▁fashion	-10.8813
▁nucle	-10.8813
▁convention	-10.8813
▁immortal	-10.8813
▁unreal	-10.8814
▁greet	-10.8814
▁similar	-10.8815
▁with	-10.8815
▁straw	-10.8815
▁confident	-10.8815
▁alcohol	-10.8815
▁casual	-10.8815
▁constructi	-10.8815
▁acconetti	-10.8815
▁accusing	-10.8815
▁agency	-10.8815
▁altimeter	-10.8815
▁ambassador	-10.8815
▁apologise	-10.8815
▁arrival	-10.8815
▁asteroid	-10.8815
▁blackmail	-10.8815
▁brazil	-10.8815
▁briefcase	-10.8815
▁buzzing	-10.8815
▁cairo	-10.8815
▁chump	-10.8815
▁conflict	-10.8815
▁consult	-10.8815
▁crusade	-10.8815
▁dagger	-10.8815
▁daydream	-10.8815
▁detention	-10.8815
▁domestic	-10.8815
▁enormous	-10.8815
▁environment	-10.8815
▁essential	-10.8815
▁galahad	-10.8815
▁gorignak	-10.8815
▁haircut	-10.8815
▁highbury	-10.8815
▁holland	-10.8815
▁honcho	-10.8815
▁humbly	-10.8815
▁hyperdrive	-10.8815
▁inspiration	-10.8815
▁jerusalem	-10.8815
▁knives	-10.8815
▁laszlo	-10.8815
▁lincoln	-10.8815
▁madison	-10.8815
▁marvellous	-10.8815
▁mcallister	-10.8815
▁mechanic	-10.8815
▁misfortune	-10.8815
▁obedient	-10.8815
▁obsessed	-10.8815
▁overstreet	-10.8815
▁pennsylvania	-10.8815
▁plumbing	-10.8815
▁prefix	-10.8815
▁quality	-10.8815
▁quirrell	-10.8815
▁randamonium	-10.8815
▁reception	-10.8815
▁reign	-10.8815
▁rendezvou	-10.8815
▁response	-10.8815
▁ribbon	-10.8815
▁snatch	-10.8815
▁snicker	-10.8815
▁stepmother	-10.8815
▁supplies	-10.8815
▁tackle	-10.8815
▁thanksgiving	-10.8815
▁tookietookie	-10.8815
▁typical	-10.8815
▁unbreakable	-10.8815
▁unhappy	-10.8815
▁unnecessary	-10.8815
▁vanessa	-10.8815
▁vegas	-10.8815
▁violent	-10.8815
▁widow	-10.8815
▁wookiee	-10.8815
▁yotsuha	-10.8815
corporate	-10.8815
▁firm	-10.8815
▁fresno	-10.8815
▁mhm	-10.8815
▁promising	-10.8815
▁stiltskin	-10.8815
▁sundance	-10.8815
▁sunshine	-10.8815
▁worn	-10.8815
▁yorkshire	-10.8815
▁ancest	-10.8815
▁illuminat	-10.8815
▁drank	-10.8815
▁horizon	-10.8815
▁phoenix	-10.8815
▁pepper	-10.8815
▁querer	-10.8815
▁android	-10.8815
▁chittering	-10.8815
▁arriving	-10.8815
▁regulations	-10.8815
▁consume	-10.8815
▁crust	-10.8815
▁grumble	-10.8815
▁murney	-10.8815
▁phase	-10.8815
▁token	-10.8815
▁guidance	-10.8815
▁dixon	-10.8815
▁woodcock	-10.8815
▁deception	-10.8815
▁description	-10.8815
▁previous	-10.8815
▁formula	-10.8815
▁cecil	-10.8815
▁gettysburg	-10.8815
▁locksley	-10.8815
▁noface	-10.8815
▁nogood	-10.8815
▁chou	-10.8816
▁amusing	-10.8816
▁despite	-10.8816
▁underground	-10.8816
▁hancock	-10.8816
▁trashcan	-10.8816
▁celia	-10.8816
▁pistol	-10.8816
▁novel	-10.8816
▁enforce	-10.8816
▁charmont	-10.8816
▁nov	-10.8816
▁braid	-10.8816
▁choke	-10.8816
▁protest	-10.8816
▁helen	-10.8816
▁stroll	-10.8816
▁woohoo	-10.8816
▁behold	-10.8816
▁oona	-10.8816
▁waking	-10.8816
▁swimmer	-10.8816
▁harrison	-10.8816
▁resistance	-10.8816
▁jello	-10.8816
▁amor	-10.8816
▁bookwright	-10.8816
▁negotiate	-10.8816
▁reference	-10.8816
acek	-10.8816
▁dining	-10.8816
▁penalty	-10.8816
▁internet	-10.8816
▁hamburger	-10.8816
▁stiff	-10.8816
▁fanny	-10.8817
▁income	-10.8817
▁oak	-10.8817
▁mature	-10.8817
▁seattle	-10.8817
▁ehoh	-10.8817
▁oooh	-10.8817
▁outrageous	-10.8817
▁celebration	-10.8817
▁pause	-10.8817
▁crispin	-10.8817
▁payroll	-10.8817
▁occupation	-10.8817
▁violet	-10.8817
▁realistic	-10.8817
▁spaceship	-10.8818
▁scarce	-10.8818
▁lena	-10.8818
▁spain	-10.8818
▁axe	-10.8818
▁skinny	-10.8819
▁flamel	-10.8819
▁stove	-10.8819
▁vow	-10.8819
▁unlock	-10.8819
▁mentor	-10.8819
▁megan	-10.8819
▁poll	-10.8819
▁betsy	-10.8819
▁shuttle	-10.8819
▁attraction	-10.8819
▁series	-10.8819
▁broom	-10.882
▁sunny	-10.882
▁funky	-10.882
▁referral	-10.882
▁extend	-10.882
▁vir	-10.882
▁rowan	-10.882
▁selfish	-10.8821
▁freezing	-10.8821
▁kingpin	-10.8821
▁sequence	-10.8821
▁crm	-10.8821
▁affection	-10.8821
▁dried	-10.8821
▁column	-10.8821
▁lenin	-10.8821
ir	-10.8822
▁alongside	-10.8822
▁toss	-10.8822
▁infinitely	-10.8822
▁turnip	-10.8822
▁delightful	-10.8823
▁relieved	-10.8823
▁kidney	-10.8823
▁operator	-10.8823
▁stripes	-10.8823
▁conduct	-10.8823
▁orale	-10.8823
▁ranch	-10.8824
▁nearby	-10.8824
▁kingdoms	-10.8824
▁archery	-10.8825
▁clearance	-10.8825
▁alas	-10.8826
▁doomed	-10.8826
▁exhausted	-10.8826
▁dna	-10.8826
▁choices	-10.8826
▁fem	-10.8827
▁clapping	-10.8827
▁publicity	-10.8827
▁active	-10.8828
▁bush	-10.8829
▁tech	-10.883
▁begging	-10.883
▁constantly	-10.883
▁piper	-10.8831
▁bumper	-10.8831
▁bane	-10.8832
▁headline	-10.8832
▁spill	-10.8832
▁buckle	-10.8833
▁builders	-10.8835
▁magician	-10.8836
▁brutal	-10.8837
▁hatch	-10.8838
▁squawking	-10.8838
▁gay	-10.8839
▁tooth	-10.8839
▁andy	-10.884
▁kiddo	-10.884
der	-10.8841
what	-10.8842
▁respectable	-10.8843
▁annoying	-10.8845
▁punches	-10.8845
▁etta	-10.8845
▁lew	-10.8845
▁hank	-10.8846
ryll	-10.8847
▁gary	-10.8847
▁separated	-10.8847
▁camper	-10.8848
▁tickle	-10.8849
▁forgiven	-10.885
▁award	-10.885
sexual	-10.8851
▁shrieking	-10.8851
▁banana	-10.8851
▁betrayed	-10.8852
▁seeker	-10.8852
▁producer	-10.8853
▁buster	-10.8853
▁immortality	-10.8855
▁che	-10.8856
▁informed	-10.886
▁possessed	-10.886
▁bumped	-10.8862
ont	-10.8868
hole	-10.8868
▁boxes	-10.8869
▁croc	-10.8871
▁pouring	-10.8871
▁restore	-10.8873
▁bond	-10.8873
▁mah	-10.8877
▁sale	-10.888
▁dip	-10.8881
▁introduced	-10.8881
▁peache	-10.8884
▁nanny	-10.8885
▁warmer	-10.8887
▁passes	-10.8887
▁diem	-10.8892
app	-10.8892
▁delivery	-10.8892
▁jay	-10.8893
▁ending	-10.8896
▁mona	-10.8898
▁brakes	-10.8899
▁danburrys	-10.8899
▁survived	-10.8915
▁placement	-10.8916
▁catches	-10.8916
▁entered	-10.8917
▁discussed	-10.8921
▁experienced	-10.8933
burg	-10.8934
▁miller	-10.8935
▁bugle	-10.8945
▁principles	-10.8947
ris	-10.8951
lapping	-10.8954
ver	-10.8955
▁screwing	-10.8963
▁shrink	-10.8968
▁formed	-10.8969
▁greatness	-10.8969
▁intentions	-10.897
▁defending	-10.897
▁pirates	-10.8971
▁boyle	-10.8977
▁commands	-10.8982
pin	-10.8982
▁misunderstand	-10.8992
▁relatives	-10.8995
▁coconuts	-10.8995
▁compliments	-10.8995
▁seller	-10.9
▁shortly	-10.9003
▁watering	-10.9015
▁label	-10.9029
▁fuse	-10.9029
▁bare	-10.9032
▁dock	-10.9041
▁clients	-10.9043
▁sucks	-10.9043
▁protected	-10.9058
▁vikings	-10.9067
▁searched	-10.9074
▁lighter	-10.9077
▁switching	-10.9083
cra	-10.9084
port	-10.9086
▁requires	-10.9092
▁floors	-10.9092
▁treating	-10.9093
▁melt	-10.9102
ets	-10.9113
▁picketts	-10.9115
▁goat	-10.9119
▁lala	-10.913
berry	-10.9139
▁crystals	-10.9139
▁arrives	-10.914
▁tables	-10.916
▁commanders	-10.9181
▁closely	-10.9205
zo	-10.9209
▁graduate	-10.9234
▁strangers	-10.9247
▁rats	-10.9253
ates	-10.9261
was	-10.9263
▁cath	-10.9266
▁squ	-10.9271
▁unto	-10.928
▁inn	-10.9284
▁returning	-10.9291
▁callers	-10.9293
well	-10.9309
ette	-10.9327
▁mayors	-10.9328
▁bre	-10.9332
▁jerks	-10.9344
▁mob	-10.9347
oon	-10.9367
bel	-10.9378
▁troubles	-10.9392
▁bobbleheads	-10.9408
ep	-10.9431
▁dela	-10.9458
▁throws	-10.9464
▁operat	-10.9465
▁chambers	-10.9466
▁dec	-10.9474
▁sal	-10.9476
▁pointed	-10.9481
▁ge	-10.9502
▁mortal	-10.9504
ions	-10.9508
▁var	-10.9509
▁lit	-10.9516
▁lucki	-10.9529
▁curt	-10.9537
▁slap	-10.9548
▁cooperate	-10.9549
cha	-10.9553
▁swallows	-10.958
zing	-10.9583
car	-10.9595
▁heroin	-10.9596
▁buttons	-10.9606
tle	-10.9618
▁sac	-10.962
▁wished	-10.9623
▁carlos	-10.9631
iss	-10.9644
ech	-10.9646
▁fri	-10.9648
fr	-10.9652
inine	-10.9667
▁blocks	-10.9674
▁pur	-10.9692
▁mend	-10.9694
ix	-10.9705
▁lover	-10.9705
ail	-10.9712
uff	-10.9717
ome	-10.9719
▁deed	-10.9722
▁travell	-10.976
▁sim	-10.9762
ii	-10.9765
▁dive	-10.9765
hi	-10.9779
▁loyal	-10.9813
▁colors	-10.9831
▁sel	-10.9841
▁ci	-10.985
▁au	-10.9855
cal	-10.9859
traction	-10.9883
▁checks	-10.9894
yup	-10.9898
hes	-10.9915
row	-10.9925
eers	-10.9926
▁roads	-10.9932
two	-10.9943
▁beep	-10.996
▁gl	-10.9961
▁ven	-10.9979
▁proves	-10.9983
▁click	-11.001
▁bur	-11.0013
▁whisper	-11.0025
▁she	-11.003
cular	-11.0039
▁frog	-11.0057
▁punishment	-11.0057
▁improvement	-11.0057
angling	-11.0057
▁snack	-11.0061
▁instinct	-11.0061
▁email	-11.0061
▁claus	-11.0061
▁emotion	-11.0064
od	-11.0065
▁scout	-11.0065
▁goblin	-11.0066
▁cheek	-11.0066
▁scale	-11.0067
▁cam	-11.0068
▁pirate	-11.0069
▁rumor	-11.0073
▁flea	-11.0074
▁troop	-11.0077
▁shatter	-11.008
▁eats	-11.0087
▁intention	-11.0089
▁swis	-11.0089
bag	-11.0095
▁swap	-11.0095
▁coin	-11.0097
▁via	-11.0102
▁hahaha	-11.0108
▁what	-11.011
▁fears	-11.0126
▁zip	-11.0127
▁counsel	-11.0129
ney	-11.0136
▁pul	-11.0152
ash	-11.0153
▁interfere	-11.0156
▁arch	-11.0157
night	-11.016
▁origin	-11.0171
▁bliss	-11.0182
▁imagin	-11.0184
▁broadcast	-11.0192
▁apes	-11.0194
kind	-11.0197
ridge	-11.0202
▁invest	-11.0208
▁roo	-11.0208
▁squash	-11.0208
▁reelect	-11.0208
▁draft	-11.0209
▁jazz	-11.0212
▁nail	-11.0215
grown	-11.0216
year	-11.0219
▁ru	-11.022
▁trans	-11.0221
▁creative	-11.0227
▁wealth	-11.0227
▁remote	-11.0227
▁harsh	-11.0227
▁apparent	-11.0229
▁stead	-11.023
▁literal	-11.0232
▁cockroach	-11.0235
▁scarf	-11.0238
▁jock	-11.0239
▁harp	-11.0239
▁disagree	-11.0241
▁reflect	-11.0241
▁mort	-11.0241
▁diner	-11.0242
▁chemist	-11.0242
▁capit	-11.0242
▁judicia	-11.0242
▁employ	-11.0242
▁detect	-11.0243
ndistinct	-11.0243
▁specific	-11.0243
▁stew	-11.0243
▁daph	-11.0243
▁razor	-11.0244
▁ajam	-11.0244
▁albrecht	-11.0244
▁album	-11.0244
▁arriba	-11.0244
▁atom	-11.0244
▁behalf	-11.0244
▁bikini	-11.0244
▁bixler	-11.0244
▁calrissian	-11.0244
▁catholic	-11.0244
▁chamberlain	-11.0244
▁choochoo	-11.0244
▁conbaby	-11.0244
▁conspiracy	-11.0244
▁crossbow	-11.0244
▁dagobah	-11.0244
▁deposit	-11.0244
▁detroit	-11.0244
▁dougherty	-11.0244
▁eclipse	-11.0244
▁enthrall	-11.0244
▁finnegan	-11.0244
▁fragment	-11.0244
▁gibson	-11.0244
▁gratitude	-11.0244
▁grenade	-11.0244
▁griffith	-11.0244
▁gronckle	-11.0244
▁hexham	-11.0244
▁hmph	-11.0244
▁hunch	-11.0244
▁independent	-11.0244
▁instance	-11.0244
▁invasion	-11.0244
▁january	-11.0244
▁japanese	-11.0244
▁jergens	-11.0244
▁laredo	-11.0244
▁mccann	-11.0244
▁melody	-11.0244
▁musubi	-11.0244
▁november	-11.0244
▁oasis	-11.0244
▁offspring	-11.0244
▁outnumbered	-11.0244
▁oyster	-11.0244
▁pennington	-11.0244
▁perimeter	-11.0244
▁pillow	-11.0244
▁podesta	-11.0244
▁pritchard	-11.0244
▁privacy	-11.0244
▁quarrel	-11.0244
▁railroad	-11.0244
▁robotolution	-11.0244
▁scoundrel	-11.0244
▁scullery	-11.0244
▁sebastian	-11.0244
▁shelf	-11.0244
▁sloppy	-11.0244
▁souvenir	-11.0244
▁spideybells	-11.0244
▁sultenfuss	-11.0244
▁survey	-11.0244
▁survival	-11.0244
▁suspicious	-11.0244
▁sylvia	-11.0244
▁theatre	-11.0244
▁thursday	-11.0244
▁tragic	-11.0244
▁trembling	-11.0244
▁turgidson	-11.0244
▁vodka	-11.0244
▁voldemort	-11.0244
▁voyage	-11.0244
▁willard	-11.0244
▁wimp	-11.0244
▁zulu	-11.0244
▁ankhvanharis	-11.0244
▁architect	-11.0244
▁britons	-11.0244
▁childcare	-11.0244
▁deceive	-11.0244
▁grease	-11.0244
▁incinerat	-11.0244
▁isolated	-11.0244
▁robbed	-11.0244
▁update	-11.0244
▁dentist	-11.0244
▁employees	-11.0244
▁oscar	-11.0244
▁reckless	-11.0244
▁shalt	-11.0244
▁motivat	-11.0244
▁region	-11.0244
▁conci	-11.0244
▁gossip	-11.0244
▁humility	-11.0244
▁jigs	-11.0244
▁kyle	-11.0244
▁meddling	-11.0244
▁aaaargh	-11.0244
▁neutr	-11.0244
▁identify	-11.0244
▁italy	-11.0244
▁maizy	-11.0244
▁yield	-11.0244
▁numero	-11.0244
▁nuwanda	-11.0244
▁saddle	-11.0244
▁tennis	-11.0244
▁limb	-11.0244
▁harvard	-11.0244
▁curtain	-11.0244
▁bostock	-11.0244
▁yeehaw	-11.0244
▁harpoon	-11.0244
▁gustavus	-11.0244
phras	-11.0244
▁generate	-11.0244
▁salome	-11.0244
▁flourish	-11.0244
▁merchant	-11.0244
▁unpredictable	-11.0244
▁conclusion	-11.0244
▁evacuation	-11.0244
▁execute	-11.0244
▁orbit	-11.0244
▁negro	-11.0244
▁nerd	-11.0244
▁pedal	-11.0244
▁lamia	-11.0244
▁oooow	-11.0244
▁confront	-11.0244
▁preschool	-11.0244
▁selfdestruct	-11.0244
▁increase	-11.0244
▁lonesome	-11.0244
▁pronounce	-11.0244
▁diversion	-11.0244
▁breast	-11.0244
▁abduction	-11.0244
▁golf	-11.0244
▁saint	-11.0244
▁glamo	-11.0244
▁establish	-11.0244
▁mattress	-11.0244
▁hasty	-11.0244
▁comedian	-11.0244
▁contest	-11.0244
▁uphold	-11.0245
▁aaaah	-11.0245
▁atlantic	-11.0245
▁yuck	-11.0245
▁moonlight	-11.0245
▁destruction	-11.0245
▁barrel	-11.0245
▁eager	-11.0245
▁oxford	-11.0245
▁naptime	-11.0245
▁tessie	-11.0245
▁tension	-11.0245
▁commence	-11.0245
▁screwball	-11.0245
▁native	-11.0245
▁purse	-11.0245
▁margo	-11.0245
▁toad	-11.0245
▁felicity	-11.0245
▁quiz	-11.0245
▁maxim	-11.0245
▁development	-11.0245
▁pruitt	-11.0245
▁ferguson	-11.0245
▁grey	-11.0245
▁anita	-11.0246
▁pauline	-11.0246
▁chaos	-11.0246
▁clip	-11.0246
▁firing	-11.0246
▁mickey	-11.0246
▁leonardo	-11.0246
illac	-11.0246
▁delicate	-11.0246
▁traffic	-11.0246
▁wrestling	-11.0246
▁grudge	-11.0246
▁armour	-11.0246
▁hotshot	-11.0246
▁alva	-11.0246
▁rodent	-11.0246
▁ripping	-11.0246
▁representation	-11.0247
▁nickel	-11.0247
▁surgery	-11.0247
▁carrier	-11.0247
▁beam	-11.0247
▁entertainment	-11.0247
▁betcha	-11.0247
▁jury	-11.0247
▁gravity	-11.0247
▁whisky	-11.0248
▁wiggly	-11.0248
▁fireworks	-11.0248
▁modest	-11.0248
▁mccat	-11.0248
▁shopping	-11.0248
▁hughes	-11.0248
▁elsewhere	-11.0248
▁shish	-11.0248
▁effective	-11.0248
▁geek	-11.0248
▁lair	-11.0248
▁raid	-11.0249
▁coke	-11.0249
▁harmless	-11.0249
▁dropping	-11.0249
▁headpiece	-11.0249
▁scam	-11.0249
▁indulge	-11.0249
▁traitor	-11.025
▁liege	-11.025
▁jake	-11.025
▁scum	-11.025
▁slavery	-11.025
▁trumpet	-11.025
▁anna	-11.025
▁wir	-11.025
▁fiction	-11.0251
▁spacetime	-11.0251
▁mailman	-11.0251
▁scenery	-11.0252
▁duh	-11.0252
▁royalty	-11.0252
▁childhood	-11.0252
▁emily	-11.0253
▁instrumental	-11.0253
▁phy	-11.0253
▁discussion	-11.0253
asive	-11.0253
▁invention	-11.0254
▁carpet	-11.0254
▁devot	-11.0254
▁treatment	-11.0255
▁oliver	-11.0255
▁beef	-11.0255
▁slippery	-11.0255
▁alter	-11.0255
▁nile	-11.0255
▁flee	-11.0255
▁uhuh	-11.0256
▁utterly	-11.0257
▁assigned	-11.0257
▁bagel	-11.0258
▁specialty	-11.0258
▁wallet	-11.0258
▁grass	-11.0259
▁skipper	-11.0259
▁wig	-11.0259
▁gigawatts	-11.0259
▁scissors	-11.0259
▁chirps	-11.0259
▁julio	-11.026
▁compared	-11.026
▁brightest	-11.026
▁narrow	-11.0261
▁rendered	-11.0261
▁exploded	-11.0263
▁neighing	-11.0263
▁taunting	-11.0263
▁threatened	-11.0266
▁sixty	-11.0267
▁predicted	-11.0267
▁donate	-11.0268
▁dime	-11.0269
▁wiser	-11.0269
▁successfully	-11.027
▁sweaty	-11.027
▁factory	-11.027
▁pb	-11.027
▁severe	-11.027
▁approved	-11.0271
ology	-11.0271
▁complaining	-11.0272
▁offense	-11.0272
▁batter	-11.0276
▁nailed	-11.0277
▁breed	-11.0277
thing	-11.0278
▁booty	-11.0278
▁oww	-11.0279
▁amuse	-11.028
▁hooker	-11.0281
▁aid	-11.0282
qualified	-11.0282
▁restless	-11.0282
▁bein	-11.0283
uel	-11.0284
▁villainy	-11.0285
arm	-11.0286
▁rumbles	-11.0286
▁mansion	-11.0286
▁der	-11.0287
▁hats	-11.0288
▁described	-11.029
▁lint	-11.0291
▁twisted	-11.0291
▁virtue	-11.0293
▁lone	-11.0294
▁solved	-11.0295
▁lace	-11.0296
▁insulted	-11.0296
▁starve	-11.0297
▁heroes	-11.0298
▁taller	-11.0301
gar	-11.0301
▁diseased	-11.0303
▁licensed	-11.0303
▁dearest	-11.0304
▁sharpen	-11.0307
▁erase	-11.0309
▁dolphins	-11.0314
▁passengers	-11.0314
▁arrangements	-11.0314
▁assured	-11.0317
▁sandy	-11.0321
▁suffered	-11.0322
this	-11.0323
▁puls	-11.0324
▁peep	-11.0325
▁crashed	-11.0327
▁pasta	-11.033
▁bin	-11.0333
▁outmodes	-11.0336
▁youngest	-11.0336
▁tr	-11.0339
▁gag	-11.0344
▁kisses	-11.0348
▁correctly	-11.0352
▁wandering	-11.0354
▁surprises	-11.0365
▁farts	-11.0366
▁attempted	-11.0367
▁collected	-11.0368
▁bricks	-11.0369
▁kly	-11.0373
▁witnessing	-11.0378
▁goof	-11.0381
▁beard	-11.0381
eight	-11.0384
▁leaning	-11.0385
dor	-11.0387
▁tasted	-11.0394
▁riddles	-11.0397
▁dam	-11.0402
▁dealt	-11.0402
▁quicker	-11.0403
▁don	-11.0404
▁fled	-11.0407
▁loudly	-11.0408
cca	-11.041
▁ofa	-11.0415
▁psycho	-11.0421
▁entering	-11.0424
▁cheeks	-11.0425
▁goblins	-11.0425
yman	-11.0428
▁guarded	-11.0431
▁eee	-11.0434
▁coaching	-11.044
▁freaking	-11.0449
▁affairs	-11.0453
▁scientists	-11.0453
▁sheets	-11.0453
▁educational	-11.0454
▁colored	-11.0455
▁gladly	-11.0461
stop	-11.0464
▁tricked	-11.0466
▁mightve	-11.0467
▁sch	-11.0468
▁porter	-11.0473
▁claws	-11.0481
▁nerves	-11.0481
▁plates	-11.0481
▁bri	-11.0483
▁tease	-11.0492
▁lao	-11.0493
▁speakers	-11.0504
ach	-11.0512
▁lads	-11.052
▁parked	-11.052
▁hates	-11.0528
▁tryin	-11.0536
▁artists	-11.0536
▁wolfwalkers	-11.0537
gie	-11.055
▁crossed	-11.0556
▁voices	-11.0557
▁options	-11.0565
▁guarantees	-11.0566
▁dice	-11.0567
▁bake	-11.0578
▁returns	-11.0581
tis	-11.0584
▁temper	-11.0586
▁grades	-11.0593
▁nd	-11.0605
ew	-11.0606
▁tro	-11.0611
▁dinosaurs	-11.0622
▁uniforms	-11.0622
▁laughed	-11.0626
version	-11.0633
▁fires	-11.0635
raising	-11.0641
▁pope	-11.0648
▁cock	-11.0649
▁princes	-11.0649
▁chatters	-11.0653
▁musical	-11.0663
▁sto	-11.0671
▁marked	-11.0673
ils	-11.0677
▁squeals	-11.0678
▁detectives	-11.0678
▁scares	-11.0691
▁sire	-11.0693
▁youths	-11.0706
▁ram	-11.0707
nahnahnah	-11.0715
▁ash	-11.0715
▁bea	-11.0716
ral	-11.0718
some	-11.0723
mar	-11.0772
▁callin	-11.0779
cent	-11.0783
▁exp	-11.0787
key	-11.0788
▁abs	-11.0789
▁professionals	-11.0791
▁partners	-11.0792
▁sole	-11.0812
mer	-11.0816
▁weas	-11.0818
▁rac	-11.0818
▁landed	-11.0821
iff	-11.0841
▁sacrifices	-11.0842
▁warp	-11.0849
▁ropes	-11.085
ue	-11.0853
▁tit	-11.0877
▁forty	-11.0883
nic	-11.0883
▁bugs	-11.0888
au	-11.0897
▁chips	-11.0899
▁heffalumps	-11.0906
tif	-11.0922
▁urgen	-11.0924
▁blar	-11.0927
▁bangs	-11.0932
▁rabbits	-11.0935
▁concerns	-11.0937
▁pages	-11.0938
▁media	-11.0956
▁mag	-11.096
ran	-11.0961
▁files	-11.0963
▁airplanes	-11.0964
▁exists	-11.0964
▁rec	-11.0977
▁manor	-11.0983
▁haste	-11.0985
▁sincere	-11.0991
▁pockets	-11.0993
▁loads	-11.0994
lock	-11.1011
▁cameras	-11.1022
▁shines	-11.1022
ked	-11.1042
▁squeez	-11.106
▁buying	-11.1063
▁tar	-11.1075
nder	-11.1096
▁preserv	-11.1102
izing	-11.111
▁asks	-11.1115
▁puter	-11.1119
▁pose	-11.1119
▁missions	-11.1124
rent	-11.1128
▁careless	-11.1135
wip	-11.1152
▁sides	-11.1167
aux	-11.1187
day	-11.119
pen	-11.1194
otic	-11.1198
▁uses	-11.1211
▁territor	-11.1228
wal	-11.1231
za	-11.1235
ists	-11.1244
etic	-11.1264
▁iii	-11.1292
maker	-11.1292
aged	-11.1301
▁excused	-11.1301
▁liver	-11.1305
through	-11.1307
▁deactivate	-11.1345
▁sayin	-11.1347
ement	-11.1349
oh	-11.137
con	-11.1375
acc	-11.1403
▁pets	-11.1416
ores	-11.143
any	-11.1441
ner	-11.1449
▁fre	-11.145
▁cathe	-11.1468
▁disco	-11.147
ttler	-11.1471
▁lap	-11.1474
iness	-11.148
ify	-11.1495
▁ser	-11.1497
four	-11.1525
load	-11.1525
▁grows	-11.1527
ano	-11.1535
bon	-11.1557
▁sc	-11.1558
erra	-11.1563
hh	-11.1586
▁owes	-11.159
▁whi	-11.1594
▁mmmmmm	-11.1596
▁poet	-11.1597
▁chickens	-11.1606
▁emb	-11.1606
▁areas	-11.1607
qu	-11.1626
▁grove	-11.1637
▁pea	-11.1677
▁product	-11.1687
▁bits	-11.1698
▁thankyou	-11.1702
shed	-11.1721
▁comrade	-11.1722
▁dungeon	-11.1722
▁pencil	-11.1722
▁sample	-11.1723
▁riddle	-11.1725
▁rhyme	-11.1727
tes	-11.1729
▁resume	-11.173
▁height	-11.1733
▁principle	-11.1734
▁generation	-11.1735
▁nazi	-11.1736
▁goomba	-11.1737
▁statue	-11.1737
▁communication	-11.1739
▁sock	-11.1741
▁cent	-11.1759
▁ski	-11.1769
ith	-11.1774
▁mari	-11.1798
▁hangs	-11.1801
▁bloom	-11.181
▁develop	-11.1811
mony	-11.1811
az	-11.1817
▁disappoint	-11.1825
lon	-11.1826
▁plac	-11.1835
▁crunch	-11.1856
▁frost	-11.1859
▁shriek	-11.1861
▁historic	-11.1874
▁steer	-11.1874
▁slaughter	-11.1874
▁faint	-11.1877
▁hopes	-11.1877
▁suite	-11.1878
▁cruise	-11.1878
heart	-11.1879
known	-11.1879
fall	-11.1879
right	-11.1879
ridden	-11.1881
▁offend	-11.1881
mobile	-11.1882
connect	-11.1882
claim	-11.1883
shop	-11.1883
john	-11.1883
▁frame	-11.1883
phone	-11.1883
▁improve	-11.1884
guard	-11.1885
▁scann	-11.1885
around	-11.1886
▁persuade	-11.1886
wit	-11.1886
▁inspire	-11.1887
safe	-11.1887
▁organize	-11.1887
▁programme	-11.1891
▁sak	-11.1894
▁premier	-11.1894
▁practical	-11.1896
▁dish	-11.1897
▁utter	-11.1897
▁norm	-11.1898
▁julie	-11.1899
▁curl	-11.1902
▁explore	-11.1903
▁attract	-11.1904
▁superhero	-11.1904
▁bodi	-11.1905
▁achieve	-11.1906
▁sharpe	-11.1906
▁agricola	-11.1906
▁navigat	-11.1907
ville	-11.1907
▁exam	-11.1908
▁chuck	-11.1908
▁fabric	-11.1909
▁disrupt	-11.1909
▁volt	-11.1909
▁makin	-11.1909
hony	-11.191
▁shrimp	-11.191
▁facilitat	-11.191
▁absurd	-11.191
▁alliance	-11.191
▁altogether	-11.191
▁ammunition	-11.191
▁anonymous	-11.191
▁aqaba	-11.191
▁asylum	-11.191
▁atlanta	-11.191
▁avalanna	-11.191
▁baloney	-11.191
▁barbecue	-11.191
▁batcave	-11.191
▁bayonets	-11.191
▁belloq	-11.191
▁binturi	-11.191
▁biscuit	-11.191
▁briggs	-11.191
▁broomstick	-11.191
▁capacitor	-11.191
▁caution	-11.191
▁cautious	-11.191
▁cheerleader	-11.191
▁chomofsky	-11.191
▁clifton	-11.191
▁commercial	-11.191
▁complicated	-11.191
▁continuum	-11.191
▁convenient	-11.191
▁covenant	-11.191
▁creator	-11.191
▁crucial	-11.191
▁december	-11.191
▁deliberately	-11.191
▁depression	-11.191
▁despair	-11.191
▁dialogue	-11.191
▁dimple	-11.191
▁elderly	-11.191
▁elegant	-11.191
▁embrace	-11.191
▁encounter	-11.191
▁envelope	-11.191
▁errand	-11.191
▁exhusband	-11.191
▁expelled	-11.191
▁expotition	-11.191
▁ferris	-11.191
▁fluffy	-11.191
▁fuehrer	-11.191
▁gahoole	-11.191
▁gambling	-11.191
▁grabthars	-11.191
▁gurgl	-11.191
▁harlem	-11.191
▁hebrew	-11.191
▁hilarious	-11.191
▁holeinthewall	-11.191
▁implosion	-11.191
▁independence	-11.191
▁jacqueline	-11.191
▁juilliard	-11.191
▁juvie	-11.191
▁kaiser	-11.191
▁knit	-11.191
▁kristen	-11.191
▁kwame	-11.191
▁leather	-11.191
▁length	-11.191
▁lettuce	-11.191
▁longhorns	-11.191
▁macklin	-11.191
▁mccadden	-11.191
▁mercedes	-11.191
▁miranda	-11.191
▁niebold	-11.191
▁nitwit	-11.191
▁nottingham	-11.191
▁nowadays	-11.191
▁override	-11.191
▁parliament	-11.191
▁pitiful	-11.191
▁pledge	-11.191
▁popcorn	-11.191
▁population	-11.191
▁prejudice	-11.191
▁premature	-11.191
▁pretzel	-11.191
▁prevail	-11.191
▁qualities	-11.191
▁quidditch	-11.191
▁ragazzi	-11.191
▁receipt	-11.191
▁residence	-11.191
▁restrict	-11.191
▁ritual	-11.191
▁rouannet	-11.191
▁rumpel	-11.191
▁sallah	-11.191
▁satisfy	-11.191
▁scientific	-11.191
▁sennett	-11.191
▁separation	-11.191
▁sermon	-11.191
▁shirley	-11.191
▁signature	-11.191
▁slug	-11.191
▁strategi	-11.191
▁struggling	-11.191
▁surprising	-11.191
▁switzerland	-11.191
▁tatiana	-11.191
▁tennessee	-11.191
▁thunderclap	-11.191
▁tragedy	-11.191
▁unacceptable	-11.191
▁uplift	-11.191
▁vogel	-11.191
▁vulgar	-11.191
▁weymouth	-11.191
▁zeniba	-11.191
▁canyon	-11.191
▁casualties	-11.191
▁choking	-11.191
▁duties	-11.191
▁fluids	-11.191
▁hustle	-11.191
▁judy	-11.191
▁nevertheless	-11.191
▁revolt	-11.191
▁roast	-11.191
▁soap	-11.191
▁theft	-11.191
▁carpia	-11.191
▁entry	-11.191
▁goodwill	-11.191
▁lefors	-11.191
▁throne	-11.191
▁unstable	-11.191
▁wrappings	-11.191
▁zog	-11.191
▁combined	-11.191
▁october	-11.191
▁organization	-11.191
▁properties	-11.191
▁reduce	-11.191
▁rooster	-11.191
▁chiming	-11.191
▁forsak	-11.191
▁clarence	-11.191
▁item	-11.191
▁july	-11.191
▁plutonium	-11.191
▁visual	-11.191
▁classmates	-11.191
▁exceed	-11.191
▁intellectual	-11.191
▁opponent	-11.191
▁primitive	-11.191
▁sankara	-11.191
▁fusco	-11.191
▁pacino	-11.191
▁choir	-11.191
▁civilization	-11.191
▁horizontal	-11.191
▁loony	-11.191
▁defective	-11.1911
▁sangimel	-11.1911
▁blush	-11.1911
▁steam	-11.1911
▁lallie	-11.1911
▁phew	-11.1911
▁batsignal	-11.1911
▁generous	-11.1911
▁snitch	-11.1911
▁dismiss	-11.1911
▁ravenwood	-11.1911
▁yawn	-11.1911
▁greasy	-11.1911
▁haunted	-11.1911
▁zapping	-11.1911
▁tornado	-11.1911
edition	-11.1911
▁kidnapped	-11.1911
▁congregation	-11.1911
▁guilders	-11.1911
▁pipeworks	-11.1911
▁marlon	-11.1911
▁sakana	-11.1911
▁booboo	-11.1911
▁grimble	-11.1911
▁calculations	-11.1911
▁ominous	-11.1911
▁fluent	-11.1911
▁rubbish	-11.1911
▁tanis	-11.1911
▁fanfare	-11.1911
▁limp	-11.1911
▁fence	-11.1911
▁jeep	-11.1911
▁retirement	-11.1911
▁intima	-11.1911
▁subtle	-11.1911
▁robotics	-11.1911
▁cunt	-11.1911
▁babysitting	-11.1911
▁breweries	-11.1911
▁apology	-11.1911
▁transparent	-11.1911
▁envy	-11.1911
▁canning	-11.1911
▁olga	-11.1911
▁kiel	-11.1911
▁tapped	-11.1911
▁daddies	-11.1911
▁oven	-11.1911
▁marcie	-11.1911
▁lungs	-11.1911
▁smoking	-11.1911
▁trek	-11.1911
▁cowboy	-11.1911
▁investors	-11.1911
▁specifically	-11.1911
▁leaf	-11.1911
▁dork	-11.1911
▁outlaw	-11.1911
▁truce	-11.1911
▁cobra	-11.1911
▁bunny	-11.1911
▁montage	-11.1911
▁kik	-11.1912
▁cancer	-11.1912
▁foof	-11.1912
▁spaz	-11.1912
▁trolley	-11.1912
▁aspirin	-11.1912
▁inspection	-11.1912
▁krum	-11.1912
▁fratern	-11.1912
▁courtyard	-11.1912
▁panda	-11.1912
▁woah	-11.1912
▁jatt	-11.1912
▁favourite	-11.1912
▁flick	-11.1912
▁maud	-11.1912
▁groot	-11.1912
▁gifts	-11.1912
▁classification	-11.1912
▁goom	-11.1912
▁overnight	-11.1912
▁medium	-11.1912
▁trapped	-11.1912
▁decade	-11.1912
▁russkies	-11.1912
▁thieves	-11.1912
▁investment	-11.1912
▁spur	-11.1912
▁atta	-11.1912
▁harmonica	-11.1912
▁ridgeway	-11.1913
▁lime	-11.1913
▁onward	-11.1913
▁barbaric	-11.1913
▁algerian	-11.1913
▁random	-11.1913
▁outhouse	-11.1913
▁broad	-11.1913
▁vase	-11.1913
▁interpretation	-11.1913
▁summon	-11.1913
▁embarrassment	-11.1913
▁sanza	-11.1913
▁remarkable	-11.1913
▁guido	-11.1913
▁stewar	-11.1913
▁inhabit	-11.1913
▁occupied	-11.1913
▁dictator	-11.1913
▁dispute	-11.1914
▁flare	-11.1914
▁bomposa	-11.1914
▁civilized	-11.1914
hyl	-11.1914
▁tide	-11.1914
▁ramp	-11.1914
▁mmmmm	-11.1914
▁actress	-11.1914
▁attractive	-11.1915
▁cattle	-11.1915
▁tomatoes	-11.1915
▁jean	-11.1915
▁critical	-11.1915
▁fireplace	-11.1915
equipped	-11.1915
▁voila	-11.1915
▁amar	-11.1915
▁production	-11.1915
▁julien	-11.1915
▁puck	-11.1915
▁collective	-11.1916
▁classroom	-11.1916
▁alice	-11.1916
▁anchor	-11.1916
▁runaway	-11.1916
▁hallway	-11.1916
▁jill	-11.1917
▁kneel	-11.1917
▁voters	-11.1917
▁unwell	-11.1917
epsi	-11.1917
▁soninlaw	-11.1917
▁retired	-11.1917
▁dough	-11.1917
▁pork	-11.1917
▁lobo	-11.1917
▁loot	-11.1917
▁graceful	-11.1917
▁presume	-11.1917
▁superheroes	-11.1917
▁grandson	-11.1917
▁curve	-11.1917
▁digg	-11.1918
▁modesto	-11.1918
▁ferry	-11.1918
▁cities	-11.1918
▁bail	-11.1918
▁youse	-11.1918
▁hola	-11.1918
▁airline	-11.1918
ganas	-11.1919
▁flavor	-11.1919
semble	-11.1919
▁stepped	-11.1919
▁nno	-11.1919
▁vigilante	-11.1919
▁racket	-11.1919
▁precedent	-11.1919
▁toot	-11.1919
▁notion	-11.1919
▁lawton	-11.192
▁rosie	-11.192
▁hav	-11.192
▁cube	-11.192
▁stepping	-11.192
▁touchdown	-11.192
▁grain	-11.1921
▁vous	-11.1921
▁princeton	-11.1921
▁rite	-11.1921
▁bore	-11.1921
▁lava	-11.1921
▁hutt	-11.1922
etta	-11.1923
▁gently	-11.1923
▁canal	-11.1924
▁philosophy	-11.1924
▁clucking	-11.1924
▁slurping	-11.1924
▁soar	-11.1925
▁vincent	-11.1925
▁vida	-11.1926
▁apply	-11.1926
▁biggie	-11.1927
▁deadline	-11.1927
▁operational	-11.1928
▁tele	-11.1928
▁tedd	-11.1928
▁sharing	-11.1928
nces	-11.1928
▁expression	-11.1928
▁acceptable	-11.1929
▁marine	-11.193
▁tinker	-11.1931
▁battery	-11.1931
▁translat	-11.1931
▁denied	-11.1931
▁aww	-11.1931
▁hunger	-11.1932
▁forgiveness	-11.1932
▁cello	-11.1933
▁hospitality	-11.1933
▁hissing	-11.1934
▁triple	-11.1935
▁dame	-11.1936
▁shutting	-11.1936
▁stable	-11.1936
▁madman	-11.1937
▁melon	-11.1938
▁partial	-11.1939
▁grabb	-11.1939
▁presentation	-11.1939
▁tart	-11.1939
▁honorable	-11.194
▁bored	-11.194
▁bind	-11.194
▁shhh	-11.1941
▁app	-11.1942
▁ridden	-11.1942
▁weeping	-11.1943
▁engineering	-11.1943
▁endure	-11.1943
▁slimy	-11.1944
▁steep	-11.1946
▁asset	-11.1947
▁larger	-11.1948
▁policeman	-11.1948
▁possibilit	-11.1949
▁jazzed	-11.1949
▁referr	-11.195
▁sewer	-11.1951
▁offers	-11.1951
▁mankind	-11.1954
▁threatening	-11.1955
▁weaken	-11.1955
▁lettie	-11.1955
▁whir	-11.1955
mos	-11.1956
▁takin	-11.1958
▁jen	-11.1959
▁included	-11.196
▁fatal	-11.196
▁guaranteed	-11.196
▁pint	-11.1961
estini	-11.1962
▁pale	-11.1962
lam	-11.1962
osis	-11.1963
▁fried	-11.1964
▁cf	-11.1964
▁burnt	-11.1965
▁grind	-11.1965
▁strongest	-11.1967
▁unan	-11.1968
▁messages	-11.1969
▁cocoa	-11.197
▁exceptional	-11.1974
creating	-11.1975
▁ink	-11.1976
▁farther	-11.1977
▁stinky	-11.1978
▁bleeding	-11.1979
▁ifyou	-11.1979
▁canceled	-11.1979
▁magnet	-11.1985
▁crate	-11.1989
▁youyou	-11.1993
▁headless	-11.1994
▁germs	-11.1994
▁coolest	-11.1997
step	-11.1997
▁texting	-11.1997
▁swelling	-11.1997
▁appealing	-11.1997
▁wandered	-11.1997
▁crushed	-11.1998
▁risky	-11.1998
▁pun	-11.2004
▁sealed	-11.201
▁cursed	-11.2012
▁goodlooking	-11.2015
▁spared	-11.2015
▁glowing	-11.2016
▁shocked	-11.2016
▁oo	-11.2016
▁harmon	-11.2021
▁bid	-11.2022
▁leftover	-11.2024
▁horny	-11.2025
▁slams	-11.2026
▁rifles	-11.2027
ware	-11.2027
▁anti	-11.2028
▁treaty	-11.2033
▁flyin	-11.2041
▁knots	-11.2042
▁guided	-11.2042
▁timing	-11.2043
▁directed	-11.2043
fer	-11.2045
▁engineers	-11.2047
▁trailer	-11.2048
▁descend	-11.2049
▁ahhhh	-11.2049
▁charmed	-11.2051
▁pickles	-11.206
▁mammals	-11.206
▁ladys	-11.2062
irs	-11.2068
▁lid	-11.2069
▁sadly	-11.2069
▁pad	-11.2074
▁added	-11.2077
▁requested	-11.2078
thats	-11.2084
▁flush	-11.2087
▁cling	-11.2089
▁proceeding	-11.2089
▁generals	-11.2092
han	-11.2093
▁heights	-11.2094
▁resumes	-11.2094
▁wholl	-11.2095
ima	-11.2104
tit	-11.2105
▁posted	-11.2109
▁define	-11.2109
▁idle	-11.2109
▁diet	-11.2111
▁proved	-11.2117
haven	-11.2122
▁shatters	-11.2124
▁las	-11.2124
▁scouts	-11.2127
▁scales	-11.2129
▁beeps	-11.213
pi	-11.2131
▁trains	-11.2132
▁sinne	-11.2134
aah	-11.2136
▁weary	-11.214
▁bal	-11.215
▁doubled	-11.2154
▁spikes	-11.2161
▁chicks	-11.2161
▁belle	-11.2163
▁stinker	-11.2163
▁risking	-11.2163
▁motors	-11.2164
▁recorded	-11.2165
▁cater	-11.2165
▁traveled	-11.2169
▁washing	-11.218
▁gathering	-11.2182
▁spics	-11.2185
▁adjust	-11.219
har	-11.2191
▁methods	-11.2194
▁payments	-11.2195
▁nails	-11.2197
▁flaps	-11.2197
▁charged	-11.2198
▁oneway	-11.2202
▁bothered	-11.2204
tery	-11.2209
fire	-11.2219
▁dings	-11.2223
▁corpse	-11.2224
▁noi	-11.2226
▁chu	-11.2228
▁efforts	-11.2228
▁instruments	-11.2228
▁drums	-11.2228
▁pupil	-11.2233
▁cooler	-11.2241
▁blo	-11.2242
▁snapp	-11.2246
▁dancers	-11.2258
ath	-11.226
▁threats	-11.2262
▁occasions	-11.2262
▁gifted	-11.2263
▁ast	-11.2263
▁mist	-11.2269
▁tons	-11.2274
▁hive	-11.2283
▁joyful	-11.2291
pre	-11.2292
▁adults	-11.2296
▁represents	-11.2296
▁peanuts	-11.2296
▁amaze	-11.2301
▁filling	-11.2304
▁pressed	-11.2322
eel	-11.2324
ars	-11.2327
▁chains	-11.2329
▁dearly	-11.2337
▁beau	-11.2351
▁bombs	-11.2356
▁creaks	-11.236
▁naive	-11.2362
▁twins	-11.2363
▁workers	-11.2375
▁senor	-11.2376
▁gall	-11.2392
ven	-11.2397
▁circles	-11.2397
▁belts	-11.2398
▁explorers	-11.2398
bru	-11.2399
▁singers	-11.2404
▁kicking	-11.2407
ace	-11.2413
uld	-11.2414
▁flo	-11.2415
▁any	-11.2423
▁excuses	-11.2428
▁sil	-11.2429
▁articles	-11.2431
▁poster	-11.2442
▁va	-11.2443
▁finer	-11.2448
▁ic	-11.2455
yes	-11.2462
hen	-11.2464
▁meals	-11.2465
▁lightly	-11.2468
▁bla	-11.2472
ere	-11.248
▁crossing	-11.2487
▁generators	-11.25
▁plants	-11.2504
▁misses	-11.2506
▁mou	-11.2513
▁za	-11.2526
▁pl	-11.2531
▁pat	-11.2532
▁elephants	-11.2534
▁cuts	-11.2542
ians	-11.2564
▁winners	-11.2568
▁listened	-11.2572
▁ble	-11.2575
▁provides	-11.2576
▁itch	-11.2581
▁jammin	-11.2588
sea	-11.2594
kins	-11.2594
▁stocks	-11.2598
win	-11.2598
▁fangs	-11.2603
▁freed	-11.2607
▁tones	-11.2616
▁claims	-11.2636
lk	-11.2643
▁lively	-11.2652
alo	-11.2687
chin	-11.2709
▁marks	-11.2711
▁sip	-11.2715
dia	-11.2717
▁meetings	-11.2718
▁waitin	-11.2726
▁int	-11.2746
▁musicians	-11.2753
oth	-11.2757
nuff	-11.2759
▁wit	-11.2759
▁keeper	-11.276
▁signing	-11.2788
▁hum	-11.2793
▁sec	-11.2802
ack	-11.2803
ando	-11.2807
▁dos	-11.2813
▁worker	-11.2826
▁unicorns	-11.2845
▁requests	-11.2848
▁slum	-11.2854
▁sw	-11.2863
▁medi	-11.2867
ups	-11.2869
▁noises	-11.288
▁bun	-11.2892
▁predict	-11.2903
▁pace	-11.2928
ders	-11.293
▁controls	-11.2959
▁tapes	-11.2962
▁kindly	-11.2962
unk	-11.2971
▁opinions	-11.2986
▁hog	-11.2987
▁plunge	-11.3007
ifl	-11.3014
▁arts	-11.3022
▁ooo	-11.3033
ata	-11.3033
▁moo	-11.3036
▁disc	-11.3048
▁kanes	-11.3059
▁rides	-11.3092
▁mal	-11.3099
▁om	-11.3101
▁shops	-11.3126
▁targets	-11.3127
▁boats	-11.3128
▁wease	-11.3136
test	-11.3144
good	-11.3161
▁relationships	-11.3162
ldie	-11.3166
owns	-11.3178
▁imel	-11.3185
▁presidents	-11.3187
▁popp	-11.3234
yl	-11.3246
▁dale	-11.3253
▁americans	-11.3271
▁rivers	-11.3279
eye	-11.3305
hold	-11.3307
▁cure	-11.3328
kin	-11.3328
uh	-11.3329
get	-11.3331
▁chairs	-11.3341
▁operate	-11.3352
▁am	-11.3355
▁spells	-11.3365
▁attacks	-11.3369
▁bottoms	-11.3377
▁allen	-11.3378
aid	-11.3383
▁flu	-11.3398
▁stain	-11.3401
▁clocks	-11.3412
anne	-11.3424
cio	-11.3431
▁relev	-11.3438
▁symbol	-11.3445
▁chooses	-11.3448
▁tor	-11.3466
pie	-11.3471
▁carve	-11.3473
arl	-11.3486
▁deserves	-11.3488
q	-11.3507
▁shipp	-11.351
▁observe	-11.3518
are	-11.3519
▁av	-11.3535
lent	-11.3546
ative	-11.3555
making	-11.3556
were	-11.3574
pressed	-11.3582
▁you	-11.3599
▁ale	-11.3603
ose	-11.3603
▁if	-11.3605
▁meg	-11.3629
mm	-11.3644
▁organ	-11.3652
▁bra	-11.3676
▁sigh	-11.3677
▁vo	-11.3681
▁sum	-11.3685
▁snarl	-11.3689
tine	-11.369
▁stack	-11.3697
that	-11.3712
sburg	-11.3714
▁planets	-11.3718
▁relation	-11.3722
▁preparation	-11.3722
▁provision	-11.3722
▁shade	-11.3722
▁xray	-11.3722
▁neville	-11.3723
vol	-11.3723
▁conviction	-11.3724
▁refu	-11.3724
▁stardestroyer	-11.3727
▁volunteer	-11.3727
▁content	-11.3727
▁cigarette	-11.3728
greatgrandfather	-11.373
▁terrorist	-11.373
▁worm	-11.3731
▁mammal	-11.3733
▁brick	-11.3736
▁upgrade	-11.3737
tly	-11.3738
▁term	-11.3738
▁tool	-11.3739
▁circuit	-11.3739
▁boob	-11.3744
▁loses	-11.3751
aham	-11.3754
faced	-11.3754
▁offices	-11.3754
ev	-11.3771
▁strap	-11.3771
▁brew	-11.3772
▁tender	-11.3774
gal	-11.3782
▁peach	-11.3782
▁leas	-11.3801
coming	-11.3806
▁qua	-11.3807
essie	-11.3808
enni	-11.3812
▁pickle	-11.3816
▁await	-11.3822
otts	-11.3822
▁villa	-11.3825
ban	-11.3827
▁annoy	-11.3828
▁farmer	-11.383
▁threaten	-11.3834
▁scan	-11.384
▁ant	-11.3844
itat	-11.3846
▁crib	-11.3848
ute	-11.3851
▁multiply	-11.3856
▁bluff	-11.3856
▁thrill	-11.3859
▁fascinat	-11.3863
▁rattle	-11.3866
drops	-11.3868
▁dodge	-11.387
piece	-11.3876
ground	-11.3876
▁tempt	-11.3877
▁abandon	-11.3877
▁cases	-11.3877
identified	-11.3878
order	-11.3878
hair	-11.388
▁profession	-11.388
life	-11.3881
wise	-11.3881
school	-11.3883
bride	-11.3883
control	-11.3883
believe	-11.3883
course	-11.3883
quick	-11.3884
james	-11.3884
pool	-11.3884
water	-11.3885
▁bruise	-11.3885
held	-11.3885
fare	-11.3886
talk	-11.3886
point	-11.3886
augh	-11.3886
force	-11.3886
▁pursue	-11.3886
▁sup	-11.3886
boat	-11.3887
▁compare	-11.3888
▁worrie	-11.3889
▁explode	-11.3889
tight	-11.389
▁relate	-11.389
dog	-11.389
fur	-11.3891
▁chunk	-11.3893
▁examine	-11.3893
▁spook	-11.3894
▁guilt	-11.3894
letter	-11.3894
▁philosoph	-11.3894
▁precise	-11.3896
▁definite	-11.3896
▁ratio	-11.3896
▁slipper	-11.3897
stand	-11.39
▁gamble	-11.3901
▁intrude	-11.3901
▁barbar	-11.3902
▁potato	-11.3904
▁happie	-11.3904
▁insect	-11.3904
▁torch	-11.3904
▁ellis	-11.3906
▁communi	-11.3907
▁dictat	-11.3907
▁sherif	-11.3908
▁runnin	-11.3908
▁compass	-11.3909
▁hazard	-11.3909
▁disrespect	-11.3909
▁babysit	-11.3909
▁gert	-11.3909
▁vocal	-11.3909
razie	-11.3909
▁automatic	-11.391
▁dorm	-11.391
▁alternat	-11.391
▁scram	-11.391
▁drift	-11.391
▁occur	-11.391
ternity	-11.391
▁cour	-11.391
dolph	-11.391
▁attorney	-11.391
emption	-11.391
oohoohooh	-11.391
▁abbess	-11.391
▁accredit	-11.391
▁afresh	-11.391
▁agamemnon	-11.391
▁agenda	-11.391
▁amateur	-11.391
▁anastasia	-11.391
▁ankle	-11.391
▁anubis	-11.391
▁anxiety	-11.391
▁archaeology	-11.391
▁areida	-11.391
▁arguing	-11.391
▁astonish	-11.391
▁athlete	-11.391
▁attachment	-11.391
▁belfry	-11.391
▁bennett	-11.391
▁bicycle	-11.391
▁blossom	-11.391
▁bronze	-11.391
▁bullseye	-11.391
▁burpelson	-11.391
▁buzzer	-11.391
▁campbell	-11.391
▁ceiling	-11.391
▁centuries	-11.391
▁charlotte	-11.391
▁chickenpox	-11.391
▁chloe	-11.391
▁choosing	-11.391
▁chorizo	-11.391
▁climate	-11.391
▁clumsy	-11.391
▁collateral	-11.391
▁committee	-11.391
▁concord	-11.391
▁condemn	-11.391
▁continuing	-11.391
▁convenience	-11.391
▁convincing	-11.391
▁corridor	-11.391
▁cottage	-11.391
▁dessert	-11.391
▁devaney	-11.391
▁dizzy	-11.391
▁dolores	-11.391
▁domain	-11.391
▁dylan	-11.391
▁eccentric	-11.391
▁effendi	-11.391
▁elaborate	-11.391
▁endanger	-11.391
▁enlighten	-11.391
▁enthusiasm	-11.391
▁estonia	-11.391
▁evolution	-11.391
▁exquisite	-11.391
▁felicia	-11.391
▁ferret	-11.391
▁fifty	-11.391
▁fremont	-11.391
▁genuine	-11.391
▁georgia	-11.391
▁gestapo	-11.391
▁gigantic	-11.391
▁goddard	-11.391
▁grief	-11.391
▁groceries	-11.391
▁handkerchief	-11.391
▁hannigan	-11.391
▁harridan	-11.391
▁humiliating	-11.391
▁humiliation	-11.391
▁incorrect	-11.391
▁increasing	-11.391
▁industrial	-11.391
▁industry	-11.391
▁injury	-11.391
▁injustice	-11.391
▁intense	-11.391
▁irrelevant	-11.391
▁irresponsible	-11.391
▁jedediah	-11.391
▁jonquils	-11.391
▁kirk	-11.391
▁lazarus	-11.391
▁luxur	-11.391
▁lyrics	-11.391
▁maguire	-11.391
▁mellow	-11.391
▁melrose	-11.391
▁mexican	-11.391
▁mineshaft	-11.391
▁minimum	-11.391
▁misunderstood	-11.391
▁mushroom	-11.391
▁mystical	-11.391
▁nesmith	-11.391
▁obligation	-11.391
▁optimistic	-11.391
▁orientation	-11.391
▁orrin	-11.391
▁pajamas	-11.391
▁pentagon	-11.391
▁pfft	-11.391
▁poachers	-11.391
▁portrait	-11.391
▁preposterous	-11.391
▁puberty	-11.391
▁purchase	-11.391
▁purple	-11.391
▁rattlesnake	-11.391
▁ravensbruck	-11.391
▁reform	-11.391
▁richmond	-11.391
▁rumpelstiltskin	-11.391
▁scripture	-11.391
▁semester	-11.391
▁semifinal	-11.391
▁skating	-11.391
▁sleigh	-11.391
▁sludge	-11.391
▁spaghetti	-11.391
▁starfleet	-11.391
▁striking	-11.391
▁substance	-11.391
▁survivor	-11.391
▁swahili	-11.391
▁taggert	-11.391
▁technique	-11.391
▁teetsi	-11.391
▁thuggee	-11.391
▁trajectory	-11.391
▁unmask	-11.391
▁unpleasant	-11.391
▁versailles	-11.391
▁vitamin	-11.391
▁waterwheel	-11.391
▁whinnies	-11.391
▁whitman	-11.391
▁anarch	-11.391
▁bauer	-11.391
▁bedevere	-11.391
▁cheeseburger	-11.391
▁convert	-11.391
▁creation	-11.391
▁evidently	-11.391
▁harbor	-11.391
▁inconvenien	-11.391
▁ingenious	-11.391
▁interrogat	-11.391
▁invade	-11.391
▁jinx	-11.391
▁lenore	-11.391
▁lobby	-11.391
▁martha	-11.391
▁niko	-11.391
▁picard	-11.391
▁puppy	-11.391
▁retain	-11.391
▁sensational	-11.391
▁serpent	-11.391
▁shotgun	-11.391
▁sprinkle	-11.391
▁vinci	-11.391
▁chord	-11.391
▁crisis	-11.391
▁fierce	-11.391
▁holler	-11.391
▁june	-11.391
▁moondance	-11.391
▁multiverse	-11.391
▁parasite	-11.391
▁reluctan	-11.391
▁boise	-11.391
▁essay	-11.391
▁hysterical	-11.391
▁interior	-11.391
▁jennie	-11.391
▁prank	-11.391
▁untied	-11.391
▁dobbs	-11.391
▁rosalie	-11.391
▁scoot	-11.391
▁slay	-11.391
▁plaster	-11.391
▁sparrow	-11.391
▁ambush	-11.391
▁loveliness	-11.391
▁acquisition	-11.391
▁hologra	-11.391
▁hostages	-11.391
▁ignoring	-11.391
▁stephans	-11.391
▁memorial	-11.391
▁pigeon	-11.391
▁buena	-11.391
▁doohickey	-11.391
▁feldstein	-11.391
▁impose	-11.391
▁treason	-11.3911
▁florida	-11.3911
▁scroll	-11.3911
▁concrete	-11.3911
▁goober	-11.3911
▁plastic	-11.3911
▁stammer	-11.3911
▁vector	-11.3911
▁parole	-11.3911
▁zebra	-11.3911
▁defy	-11.3911
▁hound	-11.3911
▁ellen	-11.3911
▁nugs	-11.3911
▁owooo	-11.3911
▁swoon	-11.3911
▁vacuum	-11.3911
▁attica	-11.3911
▁tshirt	-11.3911
▁duplicate	-11.3911
▁prospect	-11.3911
▁dripping	-11.3911
▁compensation	-11.3911
▁gracious	-11.3911
▁tombstone	-11.3911
▁yves	-11.3911
▁donwell	-11.3911
▁pills	-11.3911
▁stuttering	-11.3911
▁swag	-11.3911
▁rumour	-11.3911
▁appreciation	-11.3911
▁representative	-11.3911
▁chores	-11.3911
▁bleating	-11.3911
▁flashlight	-11.3911
▁appetite	-11.3911
▁cruising	-11.3911
▁gobbling	-11.3911
▁undies	-11.3911
▁railway	-11.3911
▁harold	-11.3911
▁bottling	-11.3911
▁nurhachi	-11.3911
▁blix	-11.3911
▁daniella	-11.3911
▁babs	-11.3911
▁abner	-11.3911
▁economic	-11.3911
▁silverstone	-11.3911
▁adios	-11.3911
▁salute	-11.3911
▁symp	-11.3911
▁contrary	-11.3911
▁revelation	-11.3911
▁quack	-11.3911
▁refresh	-11.3911
▁tracy	-11.3911
▁ramsey	-11.3911
▁robbing	-11.3911
▁velocity	-11.3911
▁dipper	-11.3911
▁milan	-11.3911
▁cupcake	-11.3911
▁marrow	-11.3911
▁minions	-11.3911
▁janice	-11.3911
▁shrubberies	-11.3911
▁denver	-11.3911
▁broadway	-11.3911
▁moses	-11.3911
▁gobber	-11.3911
▁squid	-11.3911
▁ginormica	-11.3911
▁enchantment	-11.3911
▁archaeologist	-11.3911
▁mija	-11.3911
▁spade	-11.3911
▁zod	-11.3912
▁drool	-11.3912
▁dryden	-11.3912
▁disrespectful	-11.3912
▁isa	-11.3912
▁chapel	-11.3912
▁bribe	-11.3912
▁orly	-11.3912
▁destination	-11.3912
▁combat	-11.3912
▁fuzz	-11.3912
▁initiative	-11.3912
▁rapping	-11.3912
▁decoration	-11.3912
▁sunlight	-11.3912
▁mailbox	-11.3912
▁torment	-11.3912
▁onions	-11.3912
▁chapman	-11.3912
▁committed	-11.3912
▁imbecile	-11.3912
▁monologue	-11.3912
▁boris	-11.3912
▁keen	-11.3912
▁adam	-11.3912
▁approximately	-11.3912
▁manero	-11.3912
▁cozy	-11.3913
▁lionheart	-11.3913
▁hyper	-11.3913
▁guesthouse	-11.3913
▁dislike	-11.3913
▁fiind	-11.3913
▁plotting	-11.3913
▁sixteen	-11.3913
▁piggy	-11.3913
▁governor	-11.3913
▁documentary	-11.3913
▁brook	-11.3913
▁burger	-11.3913
▁devin	-11.3913
▁alfa	-11.3913
▁detonator	-11.3913
▁luci	-11.3913
▁crippled	-11.3913
▁paranoid	-11.3913
▁harrow	-11.3913
▁lamb	-11.3913
▁cult	-11.3914
▁andre	-11.3914
▁harness	-11.3914
▁sidewalk	-11.3914
▁vast	-11.3914
unque	-11.3914
▁revolutionary	-11.3914
▁overboard	-11.3914
▁reflection	-11.3914
▁aggressive	-11.3914
▁cushion	-11.3914
▁mafia	-11.3914
▁massage	-11.3914
▁emerge	-11.3914
▁cloak	-11.3914
▁splashes	-11.3914
rilla	-11.3914
▁goldfish	-11.3914
▁disp	-11.3915
▁buts	-11.3915
▁matri	-11.3915
▁merge	-11.3915
▁gunner	-11.3915
▁border	-11.3915
▁baba	-11.3915
▁expand	-11.3915
▁butthead	-11.3915
▁status	-11.3915
▁probe	-11.3915
▁danny	-11.3915
▁cycle	-11.3915
▁cheerful	-11.3916
▁vien	-11.3916
▁exile	-11.3916
▁countries	-11.3916
▁siva	-11.3916
▁nadder	-11.3916
▁rehearsal	-11.3916
▁contender	-11.3916
▁cabinet	-11.3916
▁oof	-11.3916
▁pittsie	-11.3916
▁morrison	-11.3916
▁investigating	-11.3917
▁payday	-11.3917
▁breach	-11.3917
▁ballroom	-11.3917
▁warden	-11.3917
▁equality	-11.3917
▁static	-11.3918
▁traders	-11.3918
▁crackling	-11.3918
▁santo	-11.3918
▁chaw	-11.3918
▁pew	-11.3918
▁fiine	-11.3918
▁humiliated	-11.3918
▁chow	-11.3919
▁franklin	-11.3919
▁splitting	-11.3919
▁macho	-11.3919
▁mont	-11.3919
▁lifesav	-11.3919
▁tapping	-11.392
▁dinero	-11.392
▁specta	-11.392
stone	-11.392
▁foam	-11.3921
▁juan	-11.3921
▁descent	-11.3921
▁settlement	-11.3921
▁rancho	-11.3921
▁bash	-11.3921
▁lifestyle	-11.3921
▁mooney	-11.3921
▁determine	-11.3921
▁flipped	-11.3921
▁duce	-11.3922
▁flooded	-11.3922
▁scattered	-11.3922
▁planters	-11.3922
▁confirmation	-11.3922
▁dummy	-11.3922
▁goddess	-11.3922
▁catastrophe	-11.3923
▁crocodile	-11.3923
▁hague	-11.3923
▁stern	-11.3923
▁rug	-11.3923
▁fag	-11.3923
▁tidy	-11.3923
▁cy	-11.3924
▁distraction	-11.3925
▁executioner	-11.3925
▁quitting	-11.3925
▁morales	-11.3925
▁everyday	-11.3926
▁rev	-11.3927
▁peachy	-11.3927
ency	-11.3927
▁flaming	-11.3927
▁scorching	-11.3928
▁ache	-11.3928
▁shuddering	-11.3928
▁authorized	-11.3928
▁management	-11.3929
▁overwhelmed	-11.3929
▁digest	-11.3929
▁frenchman	-11.3929
▁stashed	-11.393
▁mast	-11.393
▁flown	-11.393
▁plainti	-11.393
llis	-11.393
▁legion	-11.393
▁caw	-11.3931
▁sway	-11.3931
▁tamed	-11.3931
ndish	-11.3932
▁hardship	-11.3933
▁thinkin	-11.3933
▁waf	-11.3933
▁catapults	-11.3934
▁hump	-11.3934
▁examined	-11.3934
▁bugger	-11.3934
▁photographer	-11.3934
▁rummy	-11.3934
▁portion	-11.3935
▁dose	-11.3936
▁bravery	-11.3936
▁backyard	-11.3936
▁abu	-11.3936
▁crashes	-11.3936
▁predator	-11.3937
▁rhythmic	-11.3937
▁witnesses	-11.3938
▁stirr	-11.3939
▁ego	-11.3939
▁whiz	-11.3939
▁spanking	-11.3939
▁inspired	-11.394
▁dism	-11.394
▁tighten	-11.394
▁cafe	-11.3941
▁rusty	-11.3941
▁madness	-11.3942
▁dak	-11.3942
▁associate	-11.3943
▁evolve	-11.3944
▁organized	-11.3944
▁crusher	-11.3944
▁stirred	-11.3944
▁tempted	-11.3944
▁freakin	-11.3944
▁annoyed	-11.3944
▁hup	-11.3946
▁pickup	-11.3946
▁marcus	-11.3947
▁zoot	-11.3949
▁cruiser	-11.395
▁legally	-11.395
▁recycling	-11.395
▁bully	-11.3951
▁coo	-11.3952
▁hager	-11.3953
▁aftersh	-11.3955
▁activated	-11.3956
▁righthanded	-11.3958
▁invested	-11.3959
▁permanently	-11.3962
▁mare	-11.3964
nog	-11.3965
▁equally	-11.3966
▁melted	-11.3968
▁produced	-11.3969
▁harper	-11.3971
▁mio	-11.3973
▁implies	-11.3973
▁todos	-11.3973
▁beliefs	-11.3973
▁coyotes	-11.3973
▁commissioned	-11.3974
▁footprints	-11.3975
▁freeman	-11.3975
▁workingman	-11.3975
▁rosey	-11.3975
▁handful	-11.3976
▁dwell	-11.3979
▁mixed	-11.398
▁showtime	-11.3981
▁endor	-11.3984
▁argued	-11.3987
▁endless	-11.3988
▁lug	-11.3988
▁dumpy	-11.3989
▁weirdo	-11.3993
▁pinky	-11.3993
▁cryin	-11.3994
▁lawn	-11.3994
▁menu	-11.3995
▁gained	-11.3996
▁recommended	-11.3996
▁wisely	-11.3997
▁additional	-11.3998
▁topic	-11.3999
▁angela	-11.4
▁ringo	-11.4001
▁lens	-11.4002
▁spying	-11.4007
▁narc	-11.4007
▁verses	-11.4013
▁heels	-11.4014
▁bulbs	-11.4014
▁gent	-11.4014
▁bandits	-11.4014
▁blackouts	-11.4014
trap	-11.4015
▁cel	-11.4016
▁loosen	-11.4017
▁folding	-11.4018
▁trigg	-11.4019
▁chic	-11.4019
▁sucking	-11.402
▁dye	-11.4024
▁off	-11.4026
▁mainly	-11.4026
▁wrecked	-11.4026
▁rewarded	-11.4026
▁mul	-11.4027
▁suspected	-11.4028
▁hiya	-11.4029
▁ohoh	-11.4029
▁teaches	-11.4033
▁coordinates	-11.4034
▁setup	-11.4036
▁imitat	-11.4037
▁simpler	-11.4038
▁maneuver	-11.404
▁fallin	-11.4041
▁dresser	-11.4041
▁scaring	-11.4043
▁closeup	-11.4044
▁pic	-11.4045
▁difficulty	-11.4048
nows	-11.4048
▁demonstrate	-11.405
▁talented	-11.405
▁regarding	-11.4052
▁sporting	-11.4054
▁nervously	-11.4054
▁ruler	-11.4055
▁strapp	-11.4055
▁ambitions	-11.4056
▁plagues	-11.4056
▁candles	-11.4056
▁gaps	-11.4056
▁weeps	-11.4056
▁vin	-11.4058
▁performer	-11.4061
▁assisting	-11.4064
▁connecting	-11.4064
▁dumped	-11.4071
▁vane	-11.4072
▁chaser	-11.4074
▁lag	-11.4075
▁crushing	-11.4076
▁stations	-11.4076
▁victori	-11.4077
▁therm	-11.4081
▁yii	-11.4092
iac	-11.4092
▁honesty	-11.4092
▁cracked	-11.4094
sterian	-11.4096
▁worms	-11.4097
▁contents	-11.4097
▁cigarettes	-11.4097
▁stardestroyers	-11.4097
▁volunteers	-11.4097
▁terrorists	-11.4098
eek	-11.4103
fight	-11.4103
▁quant	-11.4105
▁archer	-11.4107
▁mega	-11.4109
▁healing	-11.411
▁shocking	-11.411
▁tra	-11.4116
▁winni	-11.4122
▁farmers	-11.4122
▁rational	-11.4138
▁rhymes	-11.4139
▁breakin	-11.4139
ario	-11.4145
▁gardener	-11.4147
▁golly	-11.4153
▁uno	-11.4154
▁mes	-11.4154
▁suggested	-11.4154
▁punched	-11.4155
iate	-11.4155
▁discovering	-11.4156
▁rams	-11.416
chester	-11.4163
▁spreading	-11.4168
▁attending	-11.4175
▁perk	-11.4177
▁functioning	-11.4178
type	-11.418
▁snacks	-11.418
▁instincts	-11.418
▁clause	-11.4182
▁fleas	-11.4184
▁helpless	-11.4184
▁changer	-11.4185
▁sno	-11.4185
ux	-11.4186
▁dragg	-11.4186
▁accelerat	-11.4188
▁visits	-11.419
▁cracking	-11.419
▁discussing	-11.4191
lbert	-11.4193
▁painter	-11.4198
level	-11.4198
▁pon	-11.4201
▁span	-11.4206
place	-11.4207
▁smiled	-11.4207
▁cleo	-11.4211
▁ob	-11.4212
going	-11.4212
▁wakey	-11.4215
whipped	-11.4219
▁oldest	-11.4221
▁jewels	-11.4222
▁autographs	-11.4222
▁honks	-11.4223
▁objections	-11.4223
▁creeps	-11.4224
▁flames	-11.4225
▁wand	-11.4227
▁dots	-11.4234
▁banker	-11.4245
▁rely	-11.4254
▁tanks	-11.4264
▁pellets	-11.4264
▁tunnels	-11.4264
▁turtles	-11.4264
▁vehicles	-11.4264
▁grownups	-11.4265
▁layer	-11.4267
▁vis	-11.4268
▁acknowledg	-11.4277
▁wires	-11.4278
▁wang	-11.4292
works	-11.4298
▁packages	-11.4306
▁warmed	-11.4311
▁ally	-11.4313
clusive	-11.4324
raj	-11.4328
▁starter	-11.4328
▁gala	-11.4328
▁fishy	-11.4329
▁timeout	-11.4333
▁nuns	-11.4349
▁praying	-11.4355
▁mars	-11.4368
▁scor	-11.4373
tonic	-11.4378
▁communists	-11.4391
▁rushing	-11.4399
▁knot	-11.4407
▁cla	-11.4409
ide	-11.4421
▁biting	-11.4423
▁counted	-11.4423
▁watches	-11.4433
▁towels	-11.4433
▁outfits	-11.4433
▁helicopters	-11.4433
ai	-11.4434
▁desires	-11.4435
ngling	-11.4455
▁val	-11.446
▁whoop	-11.4469
▁amigos	-11.4476
▁experiments	-11.4476
ain	-11.448
▁barr	-11.4482
▁plank	-11.449
ines	-11.4494
▁abr	-11.4504
▁cornel	-11.4507
evel	-11.4524
▁crowded	-11.4528
ame	-11.453
▁theresa	-11.4541
▁grit	-11.4548
▁parl	-11.4549
▁shifts	-11.4556
▁clan	-11.4558
nam	-11.456
▁clues	-11.4561
▁pilots	-11.4561
▁suspects	-11.4562
▁dil	-11.4564
tioning	-11.4568
▁comments	-11.4587
most	-11.459
▁tops	-11.4595
▁presented	-11.4599
▁flanks	-11.4601
▁corr	-11.4604
▁intr	-11.4609
▁covering	-11.4615
▁chops	-11.4616
▁wadi	-11.4621
▁tw	-11.4626
▁wedd	-11.4627
ight	-11.4629
▁chap	-11.4634
▁raining	-11.4637
mot	-11.464
hit	-11.4643
▁bobb	-11.4644
▁connections	-11.4647
▁rays	-11.4648
▁sting	-11.4658
dad	-11.4659
bar	-11.4666
heads	-11.4669
▁gro	-11.4678
quel	-11.4679
▁ly	-11.468
jan	-11.468
▁dimensions	-11.469
▁puppets	-11.469
▁talents	-11.4692
▁sorted	-11.4699
▁testing	-11.4704
▁speeding	-11.4709
▁workin	-11.4711
▁limits	-11.4722
set	-11.4745
▁senses	-11.4754
▁troubled	-11.4759
▁cows	-11.4767
▁rates	-11.4768
ander	-11.4774
▁soot	-11.4784
▁booked	-11.4797
▁penetrate	-11.4818
▁shuffle	-11.4819
▁savings	-11.4819
▁winters	-11.482
▁coats	-11.482
▁mucho	-11.4838
shot	-11.4875
▁kr	-11.489
▁plung	-11.4903
▁traps	-11.4905
▁emm	-11.4908
▁drawings	-11.4908
obs	-11.4924
size	-11.4931
orium	-11.494
▁nurses	-11.495
▁enslave	-11.4951
ik	-11.4963
chanting	-11.4963
▁acts	-11.4983
lim	-11.4989
▁lem	-11.4992
▁expects	-11.4996
▁fiddle	-11.5036
▁types	-11.5037
▁gulp	-11.504
▁discourage	-11.5122
lump	-11.5124
▁tommys	-11.5126
liest	-11.5139
▁rested	-11.5149
▁sundays	-11.517
▁colon	-11.5175
▁scrape	-11.5188
cial	-11.5191
abby	-11.5194
▁ano	-11.52
pit	-11.5202
▁stepsister	-11.5208
▁rider	-11.5212
▁scenes	-11.5214
▁purposes	-11.5215
not	-11.5217
▁springs	-11.5218
▁rehears	-11.522
ec	-11.5222
▁oppos	-11.5227
ja	-11.5228
▁ban	-11.5248
▁showers	-11.526
face	-11.5266
▁accelerate	-11.5273
▁mango	-11.5306
▁weekends	-11.5307
▁cor	-11.5319
▁shields	-11.534
▁fails	-11.5343
▁saturdays	-11.5348
▁apartments	-11.5349
oma	-11.5355
self	-11.536
▁ofyour	-11.5383
▁meter	-11.5403
▁ze	-11.5423
▁situations	-11.5438
imous	-11.5456
late	-11.5465
▁bel	-11.5492
rrito	-11.5496
▁yiwe	-11.5518
▁locks	-11.5524
▁me	-11.5527
ami	-11.5533
ordi	-11.554
▁bros	-11.5544
turn	-11.5559
▁critic	-11.5582
uke	-11.5584
▁mor	-11.5585
▁pres	-11.5618
▁swings	-11.562
rial	-11.5624
sten	-11.5631
hl	-11.5672
trus	-11.5678
▁tri	-11.5688
▁gri	-11.5696
▁arr	-11.5711
▁stitche	-11.5738
pho	-11.5743
▁pac	-11.5758
owl	-11.5761
▁comp	-11.5797
▁compete	-11.582
elle	-11.5839
tore	-11.5851
▁haz	-11.5889
▁tame	-11.5895
▁pos	-11.5914
▁ph	-11.5935
▁mun	-11.5938
have	-11.5947
▁vent	-11.5956
▁acknowledge	-11.5959
▁tire	-11.5977
under	-11.5982
▁castles	-11.5987
▁indi	-11.5998
ookie	-11.6001
▁horr	-11.6008
▁remark	-11.6027
▁battles	-11.6031
law	-11.6034
here	-11.6093
ayah	-11.6096
ree	-11.6097
plication	-11.6108
love	-11.6137
▁magn	-11.615
▁how	-11.6162
berg	-11.6166
vy	-11.6166
▁tick	-11.6166
▁weep	-11.6178
▁exception	-11.6178
atu	-11.6185
▁sniff	-11.6192
awa	-11.6193
▁knuckles	-11.6197
▁spa	-11.6199
▁ashtray	-11.6214
▁hollow	-11.6214
▁result	-11.6214
▁bakewell	-11.6214
▁finance	-11.6215
▁sentiment	-11.6216
▁egyptian	-11.6216
▁politician	-11.6222
▁sleeve	-11.6222
▁moth	-11.6226
▁ambition	-11.6227
▁plague	-11.6228
▁candle	-11.6229
▁rifle	-11.623
▁demonstrat	-11.6231
lm	-11.6233
▁acre	-11.6234
▁danburry	-11.6234
▁gap	-11.6236
▁brake	-11.6236
▁consequence	-11.6238
▁circumstance	-11.6241
ficial	-11.6244
oom	-11.6247
but	-11.6252
nf	-11.6257
▁peg	-11.6261
mming	-11.6264
▁cole	-11.6269
▁slam	-11.628
▁deriv	-11.6284
▁chat	-11.6288
alei	-11.6291
itch	-11.6298
▁extract	-11.6298
▁engineer	-11.6298
▁phon	-11.6299
▁addition	-11.63
▁dispatch	-11.6305
▁rag	-11.6311
▁dominat	-11.6311
minded	-11.6313
▁receiv	-11.6319
▁valid	-11.6326
▁complain	-11.6333
▁declar	-11.6333
▁experienc	-11.6342
▁ripe	-11.6347
away	-11.6351
▁notic	-11.6352
▁depart	-11.6354
▁shush	-11.6357
earned	-11.6357
▁screech	-11.6358
friend	-11.6358
▁recycl	-11.636
yearold	-11.6361
▁resign	-11.6361
▁squawk	-11.6362
▁energ	-11.6364
where	-11.6365
worth	-11.6366
▁react	-11.6366
▁rum	-11.6367
ough	-11.6369
bottom	-11.6369
keeper	-11.637
prints	-11.6372
stage	-11.6375
▁punish	-11.6376
▁conquer	-11.6376
ello	-11.6376
▁banish	-11.6377
fitting	-11.6379
▁pinch	-11.6381
historic	-11.6381
julio	-11.6381
section	-11.6382
found	-11.6382
flyer	-11.6382
solution	-11.6383
people	-11.6383
given	-11.6383
proof	-11.6383
jedi	-11.6383
natural	-11.6383
haku	-11.6383
▁after	-11.6383
bella	-11.6384
▁bustin	-11.6384
fold	-11.6384
seven	-11.6384
▁plea	-11.6384
space	-11.6385
alized	-11.6385
▁render	-11.6385
▁oblige	-11.6386
dead	-11.6386
fax	-11.6387
position	-11.6387
job	-11.6388
▁locate	-11.6388
▁hurr	-11.6388
▁confuse	-11.6388
roll	-11.6389
▁sew	-11.6389
root	-11.6391
least	-11.6392
▁thorough	-11.6392
asse	-11.6392
powered	-11.6392
▁gran	-11.6393
cake	-11.6393
▁gerr	-11.6395
▁thirst	-11.6395
▁slop	-11.6395
▁convey	-11.6396
homor	-11.6396
▁frida	-11.6396
▁destin	-11.6396
▁infinite	-11.6398
▁walt	-11.6398
▁scatt	-11.6399
▁liter	-11.6399
▁spec	-11.6399
▁prim	-11.6399
walk	-11.6399
▁tomato	-11.6404
▁voil	-11.6404
conscious	-11.6406
▁pengu	-11.6406
▁crumb	-11.6406
▁kidnap	-11.6406
▁custo	-11.6407
▁patriot	-11.6407
▁freezin	-11.6407
▁drivin	-11.6408
▁movin	-11.6408
▁fergus	-11.6408
▁corrupt	-11.6408
▁abort	-11.6408
▁annihilat	-11.6408
▁audit	-11.6408
▁puttin	-11.6408
▁transmit	-11.6409
▁preach	-11.6409
▁giddy	-11.6409
than	-11.6409
▁flirt	-11.641
▁whaaa	-11.641
▁indian	-11.641
▁tow	-11.641
cule	-11.641
▁scholar	-11.641
versary	-11.641
▁regulat	-11.641
▁intellect	-11.641
▁pluto	-11.641
hazar	-11.641
▁trauma	-11.641
▁bamboo	-11.641
issimo	-11.641
lemere	-11.641
responsibilities	-11.641
▁abdullah	-11.641
▁abnormal	-11.641
▁abuelita	-11.641
▁accurate	-11.641
▁adequate	-11.641
▁advisor	-11.641
▁aggravate	-11.641
▁agitate	-11.641
▁agricolis	-11.641
▁alebrije	-11.641
▁alligator	-11.641
▁andiamo	-11.641
▁appointed	-11.641
▁atmosphere	-11.641
▁autumn	-11.641
▁avocado	-11.641
▁bachelor	-11.641
▁ballancourt	-11.641
▁baltimore	-11.641
▁barbados	-11.641
▁bartender	-11.641
▁bbomb	-11.641
▁bernadette	-11.641
▁blimey	-11.641
▁blumburtt	-11.641
▁bogey	-11.641
▁bourbon	-11.641
▁branzino	-11.641
▁bucephalos	-11.641
▁burroughs	-11.641
▁cadillac	-11.641
▁calamo	-11.641
▁certificate	-11.641
▁chauffeur	-11.641
▁chewbacca	-11.641
▁childbirth	-11.641
▁claudia	-11.641
▁clutche	-11.641
▁competitor	-11.641
▁compound	-11.641
▁conclude	-11.641
▁condominiums	-11.641
▁corporal	-11.641
▁corporation	-11.641
▁cucumber	-11.641
▁cumulonimbus	-11.641
▁debbie	-11.641
▁deduce	-11.641
▁deevolution	-11.641
▁diabolical	-11.641
▁dialect	-11.641
▁disastrous	-11.641
▁discreet	-11.641
▁disregard	-11.641
▁dominoes	-11.641
▁douche	-11.641
▁downpour	-11.641
▁dubuque	-11.641
▁dunphy	-11.641
▁embalm	-11.641
▁enhance	-11.641
▁episcopalians	-11.641
▁escaping	-11.641
▁everlasting	-11.641
▁exemplary	-11.641
▁exterminat	-11.641
▁extortion	-11.641
▁eyebrow	-11.641
▁fantasies	-11.641
▁fiftyfifty	-11.641
▁figment	-11.641
▁fragile	-11.641
▁frazier	-11.641
▁frequent	-11.641
▁frolic	-11.641
▁furniture	-11.641
▁galaxies	-11.641
▁gesture	-11.641
▁gloomy	-11.641
▁graffiti	-11.641
▁greece	-11.641
▁griswald	-11.641
▁haarlem	-11.641
▁haycorn	-11.641
▁heidi	-11.641
▁heritage	-11.641
▁hermia	-11.641
▁honolulu	-11.641
▁hooray	-11.641
▁ignition	-11.641
▁immature	-11.641
▁immune	-11.641
▁imprison	-11.641
▁induce	-11.641
▁inject	-11.641
▁insignificant	-11.641
▁intensif	-11.641
▁intoxicated	-11.641
▁invincible	-11.641
▁inviting	-11.641
▁irrevocable	-11.641
▁judging	-11.641
▁jurisdiction	-11.641
▁jutt	-11.641
▁kaboom	-11.641
▁kennedy	-11.641
▁kitties	-11.641
▁knighfs	-11.641
▁kobolowski	-11.641
▁koonstra	-11.641
▁linkav	-11.641
▁livelihood	-11.641
▁lovable	-11.641
▁loverlover	-11.641
▁ltomori	-11.641
▁magali	-11.641
▁marshmallow	-11.641
▁mcgonagall	-11.641
▁mckitty	-11.641
▁mechanism	-11.641
▁merchandise	-11.641
▁militant	-11.641
▁minimal	-11.641
▁minivan	-11.641
▁mississippi	-11.641
▁molina	-11.641
▁moulage	-11.641
▁mozart	-11.641
▁mozzarella	-11.641
▁mulatto	-11.641
▁nectar	-11.641
▁nincompoop	-11.641
▁obstacle	-11.641
▁ofjail	-11.641
▁oklahoma	-11.641
▁olivier	-11.641
▁ordinarily	-11.641
▁orleans	-11.641
▁outstanding	-11.641
▁oxygen	-11.641
▁parrot	-11.641
▁participate	-11.641
▁participation	-11.641
▁peekajoo	-11.641
▁perfume	-11.641
▁perigee	-11.641
▁perpetual	-11.641
▁pervert	-11.641
▁piranhas	-11.641
▁pneumonia	-11.641
▁pontiero	-11.641
▁poverty	-11.641
▁pyramid	-11.641
▁quadrant	-11.641
▁quaffle	-11.641
▁quellek	-11.641
▁recipe	-11.641
▁register	-11.641
▁reindeer	-11.641
▁reliable	-11.641
▁repulsive	-11.641
▁rescuing	-11.641
▁resources	-11.641
▁retiring	-11.641
▁reverence	-11.641
▁revving	-11.641
▁sanctuary	-11.641
▁sausage	-11.641
▁schuyler	-11.641
▁seduce	-11.641
▁separating	-11.641
▁shaft	-11.641
▁sheila	-11.641
▁shivering	-11.641
▁sibling	-11.641
▁significance	-11.641
▁significant	-11.641
▁singular	-11.641
▁sketch	-11.641
▁smooch	-11.641
▁spewlia	-11.641
▁sponsor	-11.641
▁squirt	-11.641
▁staircase	-11.641
▁stimulating	-11.641
▁strategy	-11.641
▁submit	-11.641
▁subscription	-11.641
▁tasokare	-11.641
▁taxicab	-11.641
▁terminal	-11.641
▁thoreau	-11.641
▁throttle	-11.641
▁treasury	-11.641
▁trophy	-11.641
▁tropical	-11.641
▁trousers	-11.641
▁tsukasa	-11.641
▁typewriter	-11.641
▁universal	-11.641
▁valerie	-11.641
▁vanquish	-11.641
▁vicinit	-11.641
▁violence	-11.641
▁vittori	-11.641
▁vivid	-11.641
▁vomit	-11.641
▁wijnsto	-11.641
▁wilbur	-11.641
▁wimbledon	-11.641
▁witchcraft	-11.641
▁wretche	-11.641
▁yippee	-11.641
▁youtube	-11.641
▁zoinks	-11.641
▁afterwards	-11.641
▁bamboozle	-11.641
▁brooch	-11.641
▁bureau	-11.641
▁clerk	-11.641
▁congee	-11.641
▁eleven	-11.641
▁expend	-11.641
▁gulf	-11.641
▁hudson	-11.641
▁idiom	-11.641
▁jorel	-11.641
▁kalel	-11.641
▁lifeform	-11.641
▁motive	-11.641
▁polish	-11.641
▁probation	-11.641
▁prosecut	-11.641
▁seatbelt	-11.641
▁sherri	-11.641
▁smirk	-11.641
▁storage	-11.641
▁toodle	-11.641
itzer	-11.641
▁alchem	-11.641
▁audacity	-11.641
▁dedication	-11.641
▁depressing	-11.641
▁detach	-11.641
▁eusie	-11.641
▁fudge	-11.641
▁grrr	-11.641
▁holyoke	-11.641
▁nfl	-11.641
▁scrub	-11.641
▁sensitive	-11.641
▁strive	-11.641
▁tyrann	-11.641
▁klan	-11.641
▁altar	-11.641
▁behaving	-11.641
▁cappy	-11.641
▁doggone	-11.641
▁feroci	-11.641
▁indifferen	-11.641
▁proving	-11.641
▁rascal	-11.641
▁temperature	-11.641
▁thrive	-11.641
▁unjustly	-11.641
▁vacanc	-11.641
▁smelt	-11.641
▁whatsoever	-11.641
▁eighteen	-11.641
▁luncheon	-11.641
▁pedro	-11.641
▁session	-11.641
▁casper	-11.641
▁jude	-11.641
▁buddies	-11.641
▁characteristics	-11.641
▁desperation	-11.641
▁prune	-11.641
▁townsend	-11.641
▁facing	-11.641
▁foyer	-11.641
▁mimic	-11.6411
▁irritat	-11.6411
▁tasties	-11.6411
▁forster	-11.6411
▁sidney	-11.6411
▁bouncing	-11.6411
▁grasp	-11.6411
▁voltaire	-11.6411
inkles	-11.6411
▁eliminat	-11.6411
▁pensive	-11.6411
▁streak	-11.6411
▁devere	-11.6411
▁warrant	-11.6411
arctic	-11.6411
▁introducing	-11.6411
▁solitary	-11.6411
▁herbert	-11.6411
▁irregular	-11.6411
▁slammer	-11.6411
▁lounge	-11.6411
▁snoop	-11.6411
▁banner	-11.6411
▁neighbourhood	-11.6411
▁mockingly	-11.6411
▁narcotic	-11.6411
▁billionaire	-11.6411
▁helga	-11.6411
▁gravy	-11.6411
▁michel	-11.6411
▁identical	-11.6411
▁international	-11.6411
▁solitude	-11.6411
▁uhuhuh	-11.6411
scope	-11.6411
▁martial	-11.6411
dammit	-11.6411
▁physician	-11.6411
▁yarn	-11.6411
▁beacon	-11.6411
▁courtesy	-11.6411
▁blunder	-11.6411
▁bragging	-11.6411
▁romania	-11.6411
▁tvprogram	-11.6411
▁hooves	-11.6411
▁bentley	-11.6411
▁scholarship	-11.6411
▁freedonia	-11.6411
▁glaux	-11.6411
▁harith	-11.6411
▁violation	-11.6411
▁referee	-11.6411
▁controlled	-11.6411
▁kelly	-11.6411
▁contribution	-11.6411
▁retaliation	-11.6411
▁fading	-11.6411
▁micro	-11.6411
▁thermians	-11.6411
▁amnesty	-11.6411
▁torso	-11.6411
▁diagram	-11.6411
▁tumbl	-11.6411
▁donut	-11.6411
▁isle	-11.6411
spective	-11.6411
▁felon	-11.6411
▁fracture	-11.6411
▁thunderstorm	-11.6411
▁sarcastically	-11.6411
▁sled	-11.6411
▁delhi	-11.6411
▁greek	-11.6411
▁aloud	-11.6411
vard	-11.6411
▁whwhat	-11.6411
▁confusing	-11.6411
▁gallery	-11.6411
▁monitor	-11.6411
▁promot	-11.6411
▁sparrin	-11.6411
▁spoon	-11.6411
▁hurray	-11.6411
▁thigh	-11.6411
▁exwife	-11.6411
▁radical	-11.6411
▁tissue	-11.6411
▁matrix	-11.6411
▁plow	-11.6411
▁underwater	-11.6411
▁weasley	-11.6411
▁prowl	-11.6411
▁expire	-11.6411
▁cheque	-11.6411
▁exec	-11.6411
karetasokawatare	-11.6411
▁absent	-11.6411
▁savage	-11.6411
uction	-11.6411
▁enroll	-11.6411
▁arrogant	-11.6411
▁fiinal	-11.6412
▁confidential	-11.6412
▁primate	-11.6412
▁startled	-11.6412
▁disorder	-11.6412
▁cuz	-11.6412
▁pantry	-11.6412
▁wept	-11.6412
▁obsession	-11.6412
▁republican	-11.6412
▁shari	-11.6412
▁saga	-11.6412
▁robbi	-11.6412
▁casa	-11.6412
▁logical	-11.6412
▁giddyup	-11.6412
▁spiritual	-11.6412
▁landlord	-11.6412
▁repay	-11.6412
▁descendant	-11.6412
▁quake	-11.6412
▁timber	-11.6412
▁overdue	-11.6412
▁burial	-11.6412
▁upload	-11.6412
▁scurr	-11.6412
▁juju	-11.6412
▁mummies	-11.6412
escribed	-11.6412
▁disturbance	-11.6412
▁inheritance	-11.6412
▁libel	-11.6412
▁beware	-11.6412
▁liking	-11.6412
seen	-11.6412
▁buffet	-11.6412
▁compassion	-11.6413
▁guiltless	-11.6413
▁maharajaton	-11.6413
▁folly	-11.6413
▁metaphor	-11.6413
▁cooperation	-11.6413
▁dandy	-11.6413
▁mira	-11.6413
▁wong	-11.6413
oula	-11.6413
▁gingy	-11.6413
▁lodge	-11.6413
▁shred	-11.6413
▁andand	-11.6413
▁absorb	-11.6413
▁jeffries	-11.6413
luxe	-11.6413
▁accommodate	-11.6413
▁investigate	-11.6413
▁granger	-11.6413
▁hugged	-11.6413
▁raven	-11.6413
▁slipping	-11.6413
▁demonstration	-11.6413
▁accompany	-11.6413
idos	-11.6413
▁fabrication	-11.6413
▁achievement	-11.6413
▁eternity	-11.6413
▁detonat	-11.6413
▁oui	-11.6413
▁civilian	-11.6413
▁puke	-11.6413
▁rupe	-11.6413
▁void	-11.6413
▁brunches	-11.6414
▁mosquitoes	-11.6414
▁employment	-11.6414
▁morphia	-11.6414
▁eastern	-11.6414
llivan	-11.6414
▁clump	-11.6414
▁hunk	-11.6414
▁copper	-11.6414
▁sweetface	-11.6414
▁serial	-11.6414
▁marqu	-11.6414
▁pike	-11.6414
▁deevolved	-11.6414
▁drastic	-11.6414
▁cork	-11.6414
▁dios	-11.6414
▁malf	-11.6414
▁refrigerator	-11.6414
▁venus	-11.6414
▁wireless	-11.6414
▁sieg	-11.6415
▁batgirl	-11.6415
▁sleepwalk	-11.6415
▁leadership	-11.6415
▁hatred	-11.6415
▁surgeon	-11.6415
▁loaf	-11.6415
pierre	-11.6415
▁outof	-11.6415
▁farroni	-11.6415
▁crock	-11.6415
▁sellick	-11.6415
▁geez	-11.6415
▁huma	-11.6415
▁cloth	-11.6415
▁delusional	-11.6415
▁unconscious	-11.6415
▁unseen	-11.6415
▁necessarily	-11.6415
▁graph	-11.6415
▁maintenance	-11.6415
▁shroud	-11.6415
▁spectacle	-11.6415
▁sufficient	-11.6415
▁sooo	-11.6415
▁fashionable	-11.6415
▁jamie	-11.6416
▁baggy	-11.6416
▁frigid	-11.6416
▁worldwide	-11.6416
▁torn	-11.6416
▁bummer	-11.6416
▁snuff	-11.6416
tempered	-11.6416
▁glug	-11.6416
▁morality	-11.6416
▁fue	-11.6416
▁manipulation	-11.6416
▁deflection	-11.6416
▁inquire	-11.6416
▁napis	-11.6416
▁dormant	-11.6417
▁salon	-11.6417
▁attendant	-11.6417
▁saber	-11.6417
▁fluc	-11.6417
▁sensuous	-11.6417
▁stalk	-11.6417
▁eyesight	-11.6417
▁babysitter	-11.6417
▁encouragement	-11.6417
▁greenhouse	-11.6417
▁brian	-11.6417
▁divert	-11.6417
▁jug	-11.6418
▁mutiny	-11.6418
▁directive	-11.6418
▁admitting	-11.6418
▁monstrous	-11.6418
▁annihilation	-11.6418
▁publisher	-11.6418
▁enchanter	-11.6418
▁doodle	-11.6418
▁admitted	-11.6418
▁teamwork	-11.6418
▁billboard	-11.6419
▁insecto	-11.6419
▁wrist	-11.6419
▁negotiating	-11.6419
▁expectations	-11.6419
▁chess	-11.6419
▁teb	-11.6419
▁hugh	-11.6419
▁peck	-11.6419
▁skeleton	-11.6419
▁quiere	-11.6419
▁pong	-11.642
▁happier	-11.642
▁staines	-11.642
▁iike	-11.642
▁torches	-11.642
▁truthfully	-11.642
▁hobo	-11.642
▁shook	-11.642
▁elite	-11.642
▁motherinlaw	-11.6421
▁slacker	-11.6421
▁mutated	-11.6421
▁waterfall	-11.6421
▁wheat	-11.6421
▁mandated	-11.6421
▁sundown	-11.6421
▁postage	-11.6422
▁riddler	-11.6422
▁lefthanded	-11.6422
▁skies	-11.6422
▁ke	-11.6422
▁rapidly	-11.6422
itive	-11.6422
▁jeopardy	-11.6422
▁blank	-11.6422
▁plucky	-11.6422
▁filing	-11.6423
▁eyeball	-11.6423
▁sweepers	-11.6423
▁popularity	-11.6423
▁tel	-11.6423
▁reasonably	-11.6423
▁booger	-11.6424
▁kissoff	-11.6424
▁mild	-11.6424
▁flutter	-11.6424
▁dine	-11.6424
▁norman	-11.6424
quit	-11.6424
▁longbottom	-11.6425
▁hitler	-11.6425
▁mutters	-11.6425
▁conveyor	-11.6425
▁baboon	-11.6425
▁cramped	-11.6425
▁cherished	-11.6425
▁instructed	-11.6425
▁abducted	-11.6425
▁slope	-11.6426
▁caveman	-11.6426
▁sustained	-11.6426
▁crop	-11.6426
▁certainty	-11.6427
▁mein	-11.6427
▁indicator	-11.6427
▁digit	-11.6427
▁rene	-11.6427
▁whoaoh	-11.6427
▁stealth	-11.6427
▁daylight	-11.6428
▁tweety	-11.6428
▁liza	-11.6428
▁decreed	-11.6428
▁knockout	-11.6429
▁chen	-11.6429
▁peterson	-11.643
▁tries	-11.643
▁dire	-11.643
cast	-11.6431
▁copies	-11.6431
▁growth	-11.6431
guy	-11.6431
▁nish	-11.6431
▁markings	-11.6431
▁tray	-11.6432
▁spooky	-11.6432
▁possesses	-11.6432
▁thorn	-11.6432
▁terry	-11.6433
▁breakdown	-11.6433
▁vulnerable	-11.6433
▁unveiling	-11.6433
▁hauling	-11.6433
▁bean	-11.6434
▁warmth	-11.6434
▁logan	-11.6434
cell	-11.6434
▁labar	-11.6435
▁plead	-11.6435
▁obliged	-11.6435
▁fulfilled	-11.6435
▁suspended	-11.6435
▁shanghaied	-11.6435
▁oppress	-11.6435
▁highland	-11.6435
▁selected	-11.6435
▁crackers	-11.6435
▁moss	-11.6436
▁clay	-11.6436
▁acquired	-11.6436
▁sanders	-11.6437
▁dinnertime	-11.6437
▁phd	-11.6437
▁passive	-11.6437
▁agreeable	-11.6438
▁vend	-11.6438
▁mangano	-11.6438
▁sincerely	-11.6438
▁armus	-11.6438
▁sandwiches	-11.6438
▁gerry	-11.6439
estro	-11.644
▁ante	-11.644
▁published	-11.644
▁analysis	-11.644
▁suitable	-11.6441
▁remotely	-11.6441
▁tenant	-11.6442
▁wealthy	-11.6442
▁pursued	-11.6442
▁ignoran	-11.6442
▁balt	-11.6443
▁lieu	-11.6443
▁coron	-11.6443
▁satin	-11.6443
station	-11.6444
▁banished	-11.6445
▁conquered	-11.6445
▁punished	-11.6445
▁momento	-11.6445
▁courageous	-11.6445
▁teen	-11.6446
▁branching	-11.6448
▁exhausting	-11.6448
▁beaches	-11.6449
▁racking	-11.6449
▁improved	-11.6449
▁persuaded	-11.6449
▁etch	-11.6449
▁fax	-11.6449
▁fiive	-11.645
rge	-11.645
erical	-11.645
▁enchanting	-11.6451
▁macon	-11.6453
▁awaited	-11.6453
▁dazzle	-11.6454
▁stoke	-11.6455
▁flattery	-11.6456
▁erased	-11.6457
▁rosi	-11.6457
▁bombard	-11.6458
▁burp	-11.6459
▁fable	-11.6461
▁bumpy	-11.6461
▁gunk	-11.6462
▁dana	-11.6462
ometer	-11.6463
▁ticking	-11.6464
▁fainted	-11.6464
ino	-11.6465
▁gam	-11.6465
▁coal	-11.6466
▁sickness	-11.6467
aching	-11.6467
▁frown	-11.6468
▁reel	-11.6468
▁foss	-11.6469
▁developed	-11.647
▁emotionally	-11.647
icle	-11.6473
dang	-11.6474
▁bor	-11.6474
▁drafted	-11.6474
ication	-11.6475
▁formation	-11.6476
▁hoop	-11.6476
▁curly	-11.6476
▁cooing	-11.6477
▁thrilling	-11.6478
▁dryer	-11.6478
▁cane	-11.6479
▁brewing	-11.6479
▁lipstick	-11.6483
▁adi	-11.6483
▁fairies	-11.6483
▁inquir	-11.6484
▁augustin	-11.6484
▁traced	-11.6484
▁distracted	-11.6484
airy	-11.6484
▁some	-11.6485
▁insurer	-11.6487
▁blend	-11.6489
▁iv	-11.6489
▁trig	-11.6489
vel	-11.649
▁hometown	-11.649
▁advised	-11.6491
▁replaced	-11.6491
▁mcca	-11.6491
▁jm	-11.6491
▁coop	-11.6492
ocks	-11.6492
▁disappointing	-11.6493
▁developing	-11.6493
▁hopeful	-11.6493
▁ahem	-11.6493
▁knicks	-11.6493
▁gymnastics	-11.6493
▁muggles	-11.6493
▁complications	-11.6493
▁fergals	-11.6493
▁hombres	-11.6493
▁ingredients	-11.6493
▁peasants	-11.6493
▁relics	-11.6493
▁poured	-11.6494
alling	-11.6497
▁abuse	-11.6498
▁dusty	-11.65
▁sung	-11.6501
▁rejected	-11.6504
▁tangle	-11.6506
▁shermanus	-11.6507
▁broadcasting	-11.6508
▁getaway	-11.6508
▁ese	-11.651
▁domin	-11.651
▁backpack	-11.6511
astic	-11.6511
▁rivera	-11.6512
▁prey	-11.6513
▁delayed	-11.6514
▁logo	-11.6516
▁jerky	-11.6517
▁rink	-11.652
▁sor	-11.652
▁reminder	-11.6522
▁leaking	-11.6522
▁frightening	-11.6523
▁initializ	-11.6526
▁lsd	-11.6527
▁bonne	-11.6532
abide	-11.6533
▁churches	-11.6534
rnie	-11.6536
illed	-11.6537
▁slack	-11.6537
▁goose	-11.6538
▁freaky	-11.6539
▁pest	-11.6539
affe	-11.6543
▁plump	-11.6543
trust	-11.6544
▁pry	-11.6547
▁gloves	-11.6547
▁diapers	-11.6547
▁explosives	-11.6547
▁pharaohs	-11.6547
▁randalls	-11.6547
▁flecks	-11.6547
▁recognized	-11.6548
▁initials	-11.655
oga	-11.6553
▁lana	-11.6553
▁scanner	-11.6553
▁timeline	-11.6554
▁fart	-11.6555
▁yelled	-11.6556
dam	-11.6558
theres	-11.6563
▁shovel	-11.6563
dess	-11.6566
▁cri	-11.6575
▁richer	-11.6583
▁interrupting	-11.6584
▁witnessed	-11.6584
dest	-11.6585
▁mod	-11.6588
morrow	-11.6589
▁privately	-11.6591
▁weirder	-11.6591
▁finale	-11.6592
tell	-11.6593
▁eta	-11.6593
fit	-11.6594
press	-11.6597
▁marra	-11.6598
▁pegg	-11.6599
erson	-11.66
▁weakly	-11.6601
▁demanding	-11.6601
▁gir	-11.6601
▁pounding	-11.6601
▁politicians	-11.6602
▁sleeves	-11.6602
▁acres	-11.6602
▁sentiments	-11.6602
▁moths	-11.6602
▁borrowed	-11.6603
▁takeoff	-11.6604
seek	-11.6611
▁indigna	-11.6613
▁entertaining	-11.6613
▁ump	-11.6614
▁ford	-11.6614
▁blamed	-11.6619
ueste	-11.662
▁virtual	-11.6621
▁kat	-11.6622
▁chatt	-11.6625
▁rightfully	-11.6626
▁sailed	-11.6627
▁tricky	-11.6628
alami	-11.663
▁gardening	-11.663
▁poisoned	-11.6633
▁swor	-11.6638
▁miners	-11.6639
▁involve	-11.6639
tor	-11.664
▁avoided	-11.6642
▁smarter	-11.6646
▁awaits	-11.6647
▁mace	-11.6647
▁rud	-11.6649
bre	-11.6653
▁xrays	-11.6657
▁relations	-11.6657
▁shades	-11.6657
▁nevilles	-11.6657
▁preparations	-11.6657
▁provisions	-11.6657
▁convictions	-11.6657
▁organs	-11.6658
nel	-11.666
▁flowing	-11.6661
ager	-11.6667
due	-11.667
▁tougher	-11.667
▁hums	-11.6672
▁dash	-11.6679
ification	-11.668
▁lud	-11.6684
youre	-11.6693
▁awe	-11.6698
▁web	-11.6702
tush	-11.6707
▁skis	-11.6707
▁tweet	-11.6707
▁manos	-11.6711
▁samples	-11.6712
▁comrades	-11.6712
▁dungeons	-11.6712
▁pencils	-11.6712
▁goddamned	-11.6724
▁slower	-11.6732
▁lesser	-11.6732
take	-11.6733
▁insisting	-11.6735
inlaw	-11.6742
▁cocks	-11.6743
▁poe	-11.6746
▁realm	-11.6752
▁brad	-11.6753
▁thinkyou	-11.6757
▁dup	-11.6762
▁frogs	-11.6766
▁punishments	-11.6767
▁improvements	-11.6767
▁emails	-11.6767
▁clicks	-11.6769
▁readers	-11.6769
▁gene	-11.677
▁cub	-11.6771
▁focused	-11.6773
▁zing	-11.6781
▁debat	-11.6784
ock	-11.6786
▁conne	-11.6796
▁molecul	-11.68
▁proudly	-11.6801
soir	-11.6806
fields	-11.6808
▁longest	-11.681
▁lure	-11.6812
ference	-11.6817
▁amazingly	-11.682
▁schemes	-11.6822
▁cigars	-11.6823
▁gizzards	-11.6823
▁elbows	-11.6823
▁sales	-11.6827
▁bots	-11.6832
tingly	-11.6833
▁manna	-11.6843
att	-11.6844
izer	-11.6848
vious	-11.6852
▁starters	-11.6859
▁eatin	-11.6863
war	-11.6876
▁commoner	-11.6878
▁bolts	-11.6878
▁struggles	-11.6879
▁cannons	-11.6879
▁magazines	-11.6879
▁poles	-11.6879
▁movements	-11.6879
▁paintings	-11.688
▁refus	-11.6883
▁appreciated	-11.6889
▁bringin	-11.6891
▁cones	-11.6894
▁reader	-11.69
▁hairy	-11.6904
▁accidental	-11.6906
▁cav	-11.6913
potent	-11.6914
▁converg	-11.6922
▁tag	-11.6926
▁chopp	-11.6926
▁arguments	-11.6935
▁restaurants	-11.6935
▁trolls	-11.6935
▁outmode	-11.6955
ggle	-11.6961
▁doubted	-11.6967
erge	-11.6973
▁yum	-11.6973
▁demons	-11.6975
▁guarding	-11.6975
▁stab	-11.6977
▁featur	-11.698
pot	-11.6984
▁authors	-11.6986
▁ey	-11.6989
▁individuals	-11.6991
▁woozles	-11.6991
hov	-11.6991
▁bearing	-11.6993
sick	-11.7009
▁routes	-11.7041
▁yyou	-11.7042
▁was	-11.7045
▁explosions	-11.7047
▁grandmothers	-11.7047
▁effects	-11.7047
▁tytos	-11.7047
▁auditions	-11.7047
▁scars	-11.705
▁visited	-11.7065
uv	-11.7067
▁interpret	-11.7077
▁seated	-11.7077
▁tracker	-11.7082
▁feared	-11.7097
▁drumm	-11.7098
hopping	-11.7102
▁holdin	-11.7103
▁appearances	-11.7104
▁flags	-11.7109
▁seeking	-11.7112
▁lovers	-11.7117
▁linked	-11.7118
ient	-11.7126
▁sleepy	-11.7127
ira	-11.7128
ada	-11.713
▁coordinate	-11.7135
▁keepers	-11.715
▁brigades	-11.716
ura	-11.7183
▁criticis	-11.7191
▁dal	-11.7194
▁regrett	-11.7199
▁celebrat	-11.7205
▁reaching	-11.7208
▁edges	-11.7216
▁beaks	-11.7217
▁mermaids	-11.7217
▁operations	-11.7218
▁christians	-11.722
aza	-11.7221
▁tinkl	-11.7227
aaaaa	-11.7228
▁warming	-11.723
▁abstract	-11.723
dadada	-11.7237
▁priorit	-11.7243
▁conserv	-11.7245
▁shu	-11.725
oyalty	-11.7255
▁liner	-11.7284
bet	-11.7297
▁pins	-11.7301
▁trib	-11.7307
come	-11.7318
▁viewer	-11.732
▁memo	-11.7323
pid	-11.7324
▁seals	-11.7327
▁waves	-11.7331
▁divisions	-11.7332
▁museums	-11.7332
▁marc	-11.7371
▁dada	-11.7383
▁fare	-11.7385
▁ro	-11.7388
▁transports	-11.739
▁swords	-11.739
olo	-11.7395
join	-11.7406
▁prints	-11.7407
▁stitch	-11.741
lip	-11.742
▁amu	-11.7424
▁mei	-11.7427
▁paws	-11.7445
▁bedrooms	-11.7447
▁sentences	-11.7448
light	-11.7462
▁cu	-11.7475
▁sticker	-11.7493
▁exits	-11.7505
ometric	-11.7507
▁brides	-11.751
cide	-11.7514
▁graves	-11.7517
▁cand	-11.7517
▁pino	-11.7527
▁tru	-11.753
▁kinder	-11.753
ood	-11.7538
odoo	-11.7544
ider	-11.7544
arious	-11.7556
▁od	-11.7562
▁germans	-11.7565
▁una	-11.7571
list	-11.7574
▁arti	-11.7575
▁hom	-11.7586
ngel	-11.7588
imation	-11.7598
▁gat	-11.7618
▁sails	-11.7632
nine	-11.7639
▁ec	-11.7655
lee	-11.7659
uka	-11.7662
rell	-11.7675
▁pies	-11.7693
anc	-11.7717
▁cir	-11.772
tory	-11.7723
▁accidents	-11.7729
▁unh	-11.7732
iel	-11.7793
mad	-11.7815
▁drinker	-11.782
▁preserve	-11.7824
jit	-11.7824
▁coloni	-11.7827
▁tu	-11.7829
val	-11.7835
rop	-11.7838
▁condo	-11.7849
▁tou	-11.7852
rious	-11.7855
▁butcher	-11.7889
▁spl	-11.7905
▁tre	-11.7908
rnal	-11.7941
▁pu	-11.7953
tial	-11.797
▁irre	-11.7977
itor	-11.7981
aka	-11.7982
▁ida	-11.7991
oft	-11.7997
▁amm	-11.7999
leg	-11.8006
umming	-11.8009
▁fuller	-11.8013
▁fiddl	-11.8062
▁dia	-11.8066
▁mus	-11.81
▁faker	-11.8129
lap	-11.8141
sian	-11.8141
▁kin	-11.8145
▁oz	-11.8167
▁nor	-11.8181
did	-11.8191
iri	-11.8203
▁initiat	-11.8204
eryl	-11.8222
▁inca	-11.8237
nose	-11.8251
▁rons	-11.8256
rick	-11.8265
▁twit	-11.8272
▁sling	-11.8273
▁nin	-11.829
verge	-11.8297
xon	-11.8307
quil	-11.8329
▁stun	-11.8331
witch	-11.8335
aahh	-11.8384
aste	-11.8399
▁indo	-11.8406
▁wil	-11.8418
snt	-11.8433
roo	-11.8434
nto	-11.8439
remi	-11.8441
store	-11.8442
▁swi	-11.845
bu	-11.8478
spun	-11.8497
▁equ	-11.8515
gged	-11.853
ouncy	-11.8555
sky	-11.8571
▁oi	-11.8577
▁graduat	-11.8595
anza	-11.8607
▁amp	-11.8615
▁mu	-11.8666
name	-11.8669
▁jer	-11.868
▁tink	-11.8686
ronto	-11.8719
▁invalid	-11.872
rdy	-11.8725
cc	-11.8738
tant	-11.8746
inence	-11.8755
teria	-11.8756
aire	-11.876
sequen	-11.8798
▁spie	-11.8806
▁cul	-11.8809
▁raisin	-11.8812
rig	-11.8822
▁rout	-11.8839
▁shav	-11.8846
palm	-11.8846
shaped	-11.8886
wend	-11.8894
lery	-11.8896
climber	-11.8898
▁mem	-11.8901
juicy	-11.8923
▁hoar	-11.8925
mox	-11.8934
gis	-11.8971
quat	-11.8991
▁adventur	-11.8996
▁aaa	-11.9004
roni	-11.9004
lout	-11.903
ull	-11.9036
moi	-11.9038
▁ou	-11.904
▁miner	-11.9048
▁hal	-11.9055
ppe	-11.9064
aving	-11.9076
moles	-11.9086
▁electro	-11.9096
apul	-11.9096
▁wool	-11.9102
hot	-11.9103
▁hale	-11.9106
▁deni	-11.913
hive	-11.9134
teen	-11.9154
▁mug	-11.9155
scraper	-11.9173
▁guid	-11.9177
▁wal	-11.9179
onda	-11.9188
▁cowl	-11.9215
hey	-11.9219
▁wooo	-11.9228
bert	-11.9253
bertie	-11.9272
lardy	-11.929
▁div	-11.929
gia	-11.9301
▁multi	-11.9325
▁dieu	-11.9329
ole	-11.9336
ability	-11.9346
eh	-11.9352
fulness	-11.9366
▁initial	-11.9397
owner	-11.9407
▁geo	-11.9409
▁fianc	-11.9427
▁tac	-11.9429
stein	-11.9434
▁battl	-11.946
gnant	-11.9468
▁gallo	-11.9479
edded	-11.9481
bound	-11.9497
▁mantel	-11.9507
tto	-11.9508
▁stinkin	-11.9509
▁robber	-11.9534
▁produc	-11.9542
▁chan	-11.9545
▁expense	-11.9547
▁hairdresser	-11.9547
▁hooligan	-11.9547
▁ornament	-11.9547
▁schematic	-11.9547
▁phi	-11.9548
▁donation	-11.9552
▁explosive	-11.9556
▁pharaoh	-11.9556
▁randall	-11.9556
▁diaper	-11.9557
▁fleck	-11.9557
▁glove	-11.9559
wind	-11.9561
▁drip	-11.9562
▁bulb	-11.9562
▁germ	-11.9562
owned	-11.9563
▁passenger	-11.9566
▁dolphin	-11.9566
▁plum	-11.9569
▁uglydoll	-11.957
▁arrangement	-11.9576
▁bandit	-11.958
▁rav	-11.9583
▁jaw	-11.9583
▁heel	-11.9586
▁sanit	-11.9586
▁drone	-11.9588
▁chich	-11.9588
▁growl	-11.9594
▁blade	-11.9596
own	-11.9597
ends	-11.9597
sonne	-11.9601
▁tang	-11.9603
illa	-11.9605
acious	-11.9607
bula	-11.961
plicate	-11.961
▁sav	-11.9619
tish	-11.9621
▁blackout	-11.9622
nk	-11.9628
rbour	-11.9629
▁stir	-11.9639
▁smuggl	-11.9641
▁eu	-11.9641
rak	-11.9644
puta	-11.9645
manos	-11.9647
▁havin	-11.9654
▁exhaust	-11.966
▁spank	-11.966
▁toil	-11.9666
yard	-11.9667
▁visitor	-11.967
▁flir	-11.9671
▁influen	-11.9673
handed	-11.9674
▁costa	-11.9675
▁defens	-11.9676
▁enchant	-11.9679
▁metaph	-11.9681
esses	-11.9682
▁splash	-11.9682
▁branch	-11.9684
▁petition	-11.9687
▁remov	-11.9691
▁twee	-11.9693
▁neigh	-11.9695
▁taunt	-11.9695
style	-11.9696
▁delight	-11.9696
▁clatter	-11.9697
▁wrestle	-11.9699
▁publish	-11.9699
▁suppos	-11.97
▁styl	-11.9704
▁will	-11.9704
▁aveng	-11.9705
▁rack	-11.9706
▁monstr	-11.9706
▁prodig	-11.9708
▁compute	-11.9708
gent	-11.9709
▁shanghai	-11.9709
▁peel	-11.971
▁assign	-11.971
▁alleg	-11.971
▁suspend	-11.971
destruct	-11.971
▁overwhelm	-11.971
borne	-11.9711
▁toll	-11.9711
flop	-11.9712
privileged	-11.9712
▁crim	-11.9712
▁select	-11.9712
front	-11.9712
▁dread	-11.9712
wear	-11.9713
vulnerable	-11.9713
plane	-11.9713
balt	-11.9713
product	-11.9713
build	-11.9714
magn	-11.9714
ought	-11.9714
grass	-11.9715
warming	-11.9715
sharp	-11.9715
confidence	-11.9715
stroke	-11.9715
fried	-11.9716
▁lecture	-11.9716
grateful	-11.9716
dollar	-11.9716
columbia	-11.9716
authorized	-11.9716
american	-11.9716
goddamn	-11.9716
opening	-11.9716
storm	-11.9716
floor	-11.9716
weather	-11.9717
dragon	-11.9717
bird	-11.9717
major	-11.9717
minute	-11.9717
blood	-11.9717
chief	-11.9717
important	-11.9717
left	-11.9717
wife	-11.9717
▁stash	-11.9718
quarter	-11.9718
brush	-11.9718
▁turb	-11.9718
wanted	-11.9718
▁dispose	-11.9718
watch	-11.9719
onger	-11.9719
▁decree	-11.972
erci	-11.972
claw	-11.972
food	-11.9721
▁relieve	-11.9721
long	-11.9721
▁reinforce	-11.9722
▁rio	-11.9722
nancy	-11.9722
▁frau	-11.9722
think	-11.9724
apple	-11.9724
took	-11.9724
charge	-11.9724
puff	-11.9724
hut	-11.9725
with	-11.9725
▁monarch	-11.9726
▁jeopard	-11.9727
coat	-11.9727
▁rog	-11.9727
▁pluck	-11.9728
rrit	-11.9728
after	-11.9729
▁immediate	-11.9729
▁eventual	-11.973
▁dow	-11.973
imel	-11.973
▁trait	-11.973
▁rapid	-11.9731
bility	-11.9731
▁skelet	-11.9731
▁recover	-11.9732
mean	-11.9732
▁presum	-11.9732
easy	-11.9732
▁aft	-11.9733
minent	-11.9733
▁fulfill	-11.9733
▁contend	-11.9734
▁brawl	-11.9734
hall	-11.9735
▁tur	-11.9735
▁celest	-11.9735
▁daniel	-11.9735
▁antiqu	-11.9736
▁rod	-11.9736
▁inspect	-11.9736
▁bompos	-11.9736
▁delusion	-11.9737
▁familia	-11.9737
luc	-11.9737
ograph	-11.9737
▁leonard	-11.9738
▁crisp	-11.9738
▁nigh	-11.9739
▁outrage	-11.9739
brain	-11.974
worthy	-11.974
igned	-11.974
▁lib	-11.9741
▁bleach	-11.9741
▁convict	-11.9741
▁dancin	-11.9741
rdles	-11.9741
made	-11.9741
▁gyps	-11.9741
▁bunk	-11.9741
stay	-11.9741
▁exhibit	-11.9742
▁sherm	-11.9742
▁decorat	-11.9742
▁intent	-11.9742
▁sabe	-11.9742
gano	-11.9742
▁harris	-11.9742
▁subscribe	-11.9742
▁organis	-11.9743
▁republic	-11.9743
▁ordina	-11.9743
eason	-11.9743
model	-11.9743
plore	-11.9743
▁kiddin	-11.9743
▁sarcastic	-11.9743
▁confide	-11.9743
▁marvel	-11.9743
▁pooch	-11.9743
▁budge	-11.9743
▁acquaint	-11.9743
▁integr	-11.9743
ologist	-11.9743
▁cunning	-11.9743
▁consist	-11.9743
erdict	-11.9743
▁surre	-11.9744
▁demoli	-11.9744
▁necesita	-11.9744
▁venom	-11.9744
eflex	-11.9744
extraterrestrial	-11.9744
javajavajavajava	-11.9744
▁ababa	-11.9744
▁accomplice	-11.9744
▁accumulat	-11.9744
▁adapt	-11.9744
▁advertising	-11.9744
▁aggression	-11.9744
▁alabama	-11.9744
▁allcomers	-11.9744
▁allegiance	-11.9744
▁alpoca	-11.9744
▁ambitious	-11.9744
▁anatomy	-11.9744
▁antidote	-11.9744
▁assembled	-11.9744
▁astray	-11.9744
▁atheist	-11.9744
▁athletic	-11.9744
▁audible	-11.9744
▁austin	-11.9744
▁bagpipes	-11.9744
▁barcelona	-11.9744
▁barracuda	-11.9744
▁beddybye	-11.9744
▁beethoven	-11.9744
▁behaviour	-11.9744
▁beijing	-11.9744
▁belgian	-11.9744
▁beresford	-11.9744
▁blanche	-11.9744
▁blasphem	-11.9744
▁bongogram	-11.9744
▁bouquet	-11.9744
▁britain	-11.9744
▁buckaroo	-11.9744
▁bujumbura	-11.9744
▁bukuvu	-11.9744
▁bulldozer	-11.9744
▁buongiorno	-11.9744
▁burghard	-11.9744
▁calcium	-11.9744
▁calendar	-11.9744
▁canadian	-11.9744
▁cannoli	-11.9744
▁capsule	-11.9744
▁carefree	-11.9744
▁cemetery	-11.9744
▁census	-11.9744
▁challenging	-11.9744
▁charisma	-11.9744
▁chemical	-11.9744
▁chihuahua	-11.9744
▁chivalry	-11.9744
▁circulation	-11.9744
▁clobber	-11.9744
▁cocacola	-11.9744
▁cockteaser	-11.9744
▁colleen	-11.9744
▁commute	-11.9744
▁competitive	-11.9744
▁compromise	-11.9744
▁concealed	-11.9744
▁concentration	-11.9744
▁concession	-11.9744
▁concoction	-11.9744
▁condiment	-11.9744
▁conformity	-11.9744
▁connecticut	-11.9744
▁connolly	-11.9744
▁contrived	-11.9744
▁conundrum	-11.9744
▁convoy	-11.9744
▁copilot	-11.9744
▁correspond	-11.9744
▁coupling	-11.9744
▁crackalackin	-11.9744
▁curiosity	-11.9744
▁curriculum	-11.9744
▁dandelion	-11.9744
▁deformed	-11.9744
▁degenerate	-11.9744
▁democracy	-11.9744
▁democrat	-11.9744
▁diaphragm	-11.9744
▁digitise	-11.9744
▁diligent	-11.9744
▁diminish	-11.9744
▁disadvantage	-11.9744
▁disciple	-11.9744
▁dishwasher	-11.9744
▁disloyal	-11.9744
▁dismantle	-11.9744
▁displeased	-11.9744
▁disposal	-11.9744
▁distress	-11.9744
▁doughnuts	-11.9744
▁downhill	-11.9744
▁dynamic	-11.9744
▁dynasty	-11.9744
▁eagle	-11.9744
▁eggbeater	-11.9744
▁embassy	-11.9744
▁encouraging	-11.9744
▁enscombe	-11.9744
▁enthusiastic	-11.9744
▁equivalent	-11.9744
▁escobar	-11.9744
▁espresso	-11.9744
▁ethical	-11.9744
▁eunuch	-11.9744
▁expulsion	-11.9744
▁extinguish	-11.9744
▁fascist	-11.9744
▁filippo	-11.9744
▁fingertips	-11.9744
▁fodder	-11.9744
▁folklore	-11.9744
▁freckle	-11.9744
▁frustrating	-11.9744
▁frustration	-11.9744
▁futility	-11.9744
▁giulietta	-11.9744
▁gizmo	-11.9744
▁glaciers	-11.9744
▁gleam	-11.9744
▁glimpse	-11.9744
▁granddaughter	-11.9744
▁grievances	-11.9744
▁grumbling	-11.9744
▁guadalupe	-11.9744
▁hallelujah	-11.9744
▁handmedown	-11.9744
▁hangnail	-11.9744
▁harassment	-11.9744
▁harvest	-11.9744
▁heartbroken	-11.9744
▁hockey	-11.9744
▁hollister	-11.9744
▁hormone	-11.9744
▁hydrogen	-11.9744
▁iggy	-11.9744
▁impenetrable	-11.9744
▁impound	-11.9744
▁improper	-11.9744
▁indefinitely	-11.9744
▁indianapolis	-11.9744
▁infirm	-11.9744
▁inspiring	-11.9744
▁installed	-11.9744
▁intimidat	-11.9744
▁intrigue	-11.9744
▁intrusion	-11.9744
▁jinkies	-11.9744
▁juvenile	-11.9744
▁katanga	-11.9744
▁katawaredoki	-11.9744
▁katje	-11.9744
▁keister	-11.9744
▁kendrick	-11.9744
▁kentucky	-11.9744
▁ketchup	-11.9744
▁kettle	-11.9744
▁kilkenny	-11.9744
▁kraut	-11.9744
▁kuchikamizake	-11.9744
▁laboratory	-11.9744
▁landscape	-11.9744
▁lazard	-11.9744
▁lempereur	-11.9744
▁literature	-11.9744
▁lizzie	-11.9744
▁loitering	-11.9744
▁lorenzo	-11.9744
▁lynch	-11.9744
▁machiavelli	-11.9744
▁marxist	-11.9744
▁massacre	-11.9744
▁maynard	-11.9744
▁mayonnaise	-11.9744
▁mayugoro	-11.9744
▁mazatlan	-11.9744
▁mcclatchey	-11.9744
▁meadow	-11.9744
▁meddle	-11.9744
▁mediocre	-11.9744
▁melanchol	-11.9744
▁metropolitan	-11.9744
▁microwave	-11.9744
▁militia	-11.9744
▁mitsubishi	-11.9744
▁mosaic	-11.9744
▁moustache	-11.9744
▁multimedia	-11.9744
▁murphy	-11.9744
▁necklace	-11.9744
▁neiman	-11.9744
▁netherland	-11.9744
▁ninepence	-11.9744
▁noctu	-11.9744
▁norwegia	-11.9744
▁numbskull	-11.9744
▁obedience	-11.9744
▁obnoxious	-11.9744
▁occupy	-11.9744
▁offiice	-11.9744
▁okeydokey	-11.9744
▁omalley	-11.9744
▁oneofakind	-11.9744
▁orangutan	-11.9744
▁origami	-11.9744
▁pamphlet	-11.9744
▁pancho	-11.9744
▁paycheck	-11.9744
▁peanutlovin	-11.9744
▁pedestal	-11.9744
▁penniless	-11.9744
▁persecuti	-11.9744
▁persuasion	-11.9744
▁phenomena	-11.9744
▁physics	-11.9744
▁pianoforte	-11.9744
▁piccoletto	-11.9744
▁piffle	-11.9744
▁platter	-11.9744
▁potomac	-11.9744
▁practis	-11.9744
▁precinct	-11.9744
▁prescription	-11.9744
▁prettier	-11.9744
▁prettiest	-11.9744
▁probability	-11.9744
▁promptly	-11.9744
▁prosperity	-11.9744
▁prosperous	-11.9744
▁prostate	-11.9744
▁provoke	-11.9744
▁python	-11.9744
▁qualification	-11.9744
▁quincy	-11.9744
▁radius	-11.9744
▁rafael	-11.9744
▁reassure	-11.9744
▁reconsider	-11.9744
▁refrain	-11.9744
▁registr	-11.9744
▁rejuvenated	-11.9744
▁religious	-11.9744
▁replenish	-11.9744
▁reservation	-11.9744
▁revenge	-11.9744
▁rhapsody	-11.9744
▁ridicule	-11.9744
▁riffraff	-11.9744
▁rocknroll	-11.9744
▁rodriguez	-11.9744
▁rossmore	-11.9744
▁roulette	-11.9744
▁salvation	-11.9744
▁saxophone	-11.9744
▁scalpel	-11.9744
▁scarecrow	-11.9744
▁shortchange	-11.9744
▁shortcircuit	-11.9744
▁sleaz	-11.9744
▁snail	-11.9744
▁sneeze	-11.9744
▁snorts	-11.9744
▁snuggle	-11.9744
▁somnambulating	-11.9744
▁sophisticated	-11.9744
▁sprite	-11.9744
▁stamina	-11.9744
▁stereo	-11.9744
▁stevie	-11.9744
▁stimulate	-11.9744
▁strudel	-11.9744
▁strykers	-11.9744
▁stugats	-11.9744
▁substantial	-11.9744
▁subtract	-11.9744
▁superpets	-11.9744
▁supervision	-11.9744
▁supervisor	-11.9744
▁surveillance	-11.9744
▁suspicion	-11.9744
▁swimsuit	-11.9744
▁sybil	-11.9744
▁sympathy	-11.9744
▁temporarily	-11.9744
▁tennyson	-11.9744
▁testimony	-11.9744
▁theories	-11.9744
▁tinhorn	-11.9744
▁transplant	-11.9744
▁tremble	-11.9744
▁trenette	-11.9744
▁trespassing	-11.9744
▁trombone	-11.9744
▁tuition	-11.9744
▁tutankhamen	-11.9744
▁tutankhamun	-11.9744
▁tweak	-11.9744
▁twerp	-11.9744
▁twinkle	-11.9744
▁tydirium	-11.9744
▁unfinished	-11.9744
▁unlimited	-11.9744
▁unspeakable	-11.9744
▁upriver	-11.9744
▁urinating	-11.9744
▁vagrant	-11.9744
▁variation	-11.9744
▁veggieos	-11.9744
▁veteran	-11.9744
▁vignaud	-11.9744
▁virgins	-11.9744
▁vocabulary	-11.9744
▁vulcan	-11.9744
▁werewolves	-11.9744
▁willoughby	-11.9744
▁windshield	-11.9744
▁wrench	-11.9744
▁wwwait	-11.9744
▁yanquis	-11.9744
▁ziener	-11.9744
▁zippleback	-11.9744
▁zombie	-11.9744
▁abbot	-11.9744
▁ankh	-11.9744
▁caramba	-11.9744
▁coupon	-11.9744
▁deceit	-11.9744
▁garrison	-11.9744
▁insinuat	-11.9744
▁japan	-11.9744
▁journal	-11.9744
▁mandolin	-11.9744
▁savior	-11.9744
▁shawl	-11.9744
▁sparta	-11.9744
▁spontaneous	-11.9744
▁sweepstake	-11.9744
▁ultra	-11.9744
whuppin	-11.9744
▁benjamin	-11.9744
▁capacity	-11.9744
▁caretaker	-11.9744
▁charcoal	-11.9744
▁clashing	-11.9744
▁commend	-11.9744
▁cosmic	-11.9744
▁doreen	-11.9744
▁dudley	-11.9744
▁filch	-11.9744
▁filter	-11.9744
▁heap	-11.9744
▁indestructible	-11.9744
▁ireland	-11.9744
▁koushik	-11.9744
▁limousine	-11.9744
▁merciful	-11.9744
▁monroe	-11.9744
▁oberon	-11.9744
▁outdated	-11.9744
▁paddle	-11.9744
▁pennies	-11.9744
▁postcard	-11.9744
▁puppies	-11.9744
▁reunion	-11.9744
▁rustlers	-11.9744
▁snare	-11.9744
▁solemn	-11.9744
▁stench	-11.9744
▁swift	-11.9744
▁vernon	-11.9744
▁woodcutter	-11.9744
▁berries	-11.9744
▁blokes	-11.9744
▁carcass	-11.9744
▁casino	-11.9744
▁franc	-11.9744
▁handcuff	-11.9744
▁itsits	-11.9744
▁keypad	-11.9744
▁klingon	-11.9744
▁lzma	-11.9744
▁manuscript	-11.9744
▁mirth	-11.9744
▁sedative	-11.9744
▁strand	-11.9744
▁ufo	-11.9744
▁veins	-11.9744
iglie	-11.9744
▁carmine	-11.9744
▁ditching	-11.9744
▁gloss	-11.9744
▁gnat	-11.9744
▁knob	-11.9744
▁lreland	-11.9744
▁ofthings	-11.9744
▁reinforcements	-11.9744
▁spuds	-11.9744
▁swoop	-11.9744
▁unison	-11.9744
▁albus	-11.9744
▁colleague	-11.9744
▁hoagie	-11.9744
▁pranee	-11.9744
▁reich	-11.9744
▁undress	-11.9744
▁goverment	-11.9744
▁vibes	-11.9744
▁attribute	-11.9744
▁katrien	-11.9744
▁cancelled	-11.9744
▁douglas	-11.9744
▁isham	-11.9744
▁paragraph	-11.9744
▁thong	-11.9744
trimmed	-11.9744
▁rippling	-11.9744
▁snores	-11.9744
▁statistic	-11.9744
▁traumatiz	-11.9744
raiser	-11.9744
▁debt	-11.9744
▁drunkard	-11.9744
▁norbert	-11.9744
▁revoir	-11.9744
▁berk	-11.9744
▁ebersol	-11.9744
▁flaws	-11.9744
▁grieve	-11.9744
▁hadley	-11.9744
▁cocktail	-11.9744
▁sympathize	-11.9744
▁babbl	-11.9744
▁barracks	-11.9744
▁genova	-11.9744
▁latte	-11.9744
▁preoccupied	-11.9744
supervise	-11.9744
▁apprehend	-11.9744
▁calibr	-11.9744
▁memorize	-11.9744
▁clayface	-11.9744
▁oneliners	-11.9744
▁panthers	-11.9744
monos	-11.9744
▁kilo	-11.9744
▁hamps	-11.9744
▁limelight	-11.9744
▁foureyes	-11.9744
▁overreacting	-11.9744
▁unaware	-11.9744
▁fright	-11.9744
▁toothpick	-11.9744
▁fester	-11.9744
▁telescope	-11.9744
▁cadet	-11.9744
▁mariachi	-11.9744
▁specify	-11.9744
▁tudor	-11.9744
▁syndicate	-11.9744
▁bestowed	-11.9744
▁corpu	-11.9744
▁heaviness	-11.9744
▁iceskat	-11.9744
▁magnify	-11.9744
▁aero	-11.9744
▁bidding	-11.9744
▁facade	-11.9744
▁scowl	-11.9744
▁spiral	-11.9744
▁elsie	-11.9744
▁anyplace	-11.9744
▁cranky	-11.9744
▁profile	-11.9744
▁shrimporium	-11.9744
▁barbarians	-11.9744
▁handicap	-11.9744
▁recognise	-11.9744
▁swindle	-11.9744
▁barnyard	-11.9744
▁opposition	-11.9744
▁scrunchie	-11.9744
▁ustedes	-11.9744
▁stunned	-11.9744
▁abilities	-11.9744
▁dublin	-11.9744
▁incompetent	-11.9744
▁integrated	-11.9744
▁chock	-11.9744
▁sidelines	-11.9744
▁canada	-11.9744
▁stunning	-11.9744
▁unemployment	-11.9744
▁unend	-11.9744
▁clergyman	-11.9744
▁rival	-11.9744
▁pension	-11.9744
▁forecast	-11.9744
▁thudding	-11.9744
▁insectosaurus	-11.9744
▁cavities	-11.9744
▁outburst	-11.9744
▁swiped	-11.9744
▁urias	-11.9744
▁megatons	-11.9744
▁consistent	-11.9744
minous	-11.9744
▁attaboy	-11.9744
▁catalogue	-11.9744
▁embark	-11.9744
▁budbuddy	-11.9744
▁notify	-11.9744
▁swollen	-11.9744
▁graveyard	-11.9744
▁iki	-11.9744
▁precede	-11.9744
▁solberg	-11.9744
▁suture	-11.9744
itude	-11.9744
▁britt	-11.9744
▁addict	-11.9744
▁hydrant	-11.9744
▁viola	-11.9744
▁youngstown	-11.9744
▁creek	-11.9744
▁fluoridation	-11.9744
▁sturdy	-11.9744
▁lethal	-11.9744
▁medal	-11.9744
▁bradley	-11.9744
▁cartoon	-11.9744
▁confederate	-11.9744
▁darwin	-11.9745
▁institution	-11.9745
▁blouse	-11.9745
▁scramble	-11.9745
▁townspeople	-11.9745
▁vicar	-11.9745
▁polar	-11.9745
▁thresh	-11.9745
▁johan	-11.9745
▁albert	-11.9745
▁termite	-11.9745
alicious	-11.9745
▁indoors	-11.9745
▁retrac	-11.9745
▁norton	-11.9745
▁aroma	-11.9745
▁hippie	-11.9745
▁offland	-11.9745
▁toyota	-11.9745
▁whining	-11.9745
▁originated	-11.9745
▁salesmen	-11.9745
▁shoemaker	-11.9745
▁midget	-11.9745
pliance	-11.9745
▁stool	-11.9745
▁modul	-11.9745
▁finito	-11.9745
▁vouch	-11.9745
wright	-11.9745
▁iso	-11.9745
▁hence	-11.9745
▁zipping	-11.9745
▁stomp	-11.9745
▁socializing	-11.9745
▁skateboard	-11.9745
tigious	-11.9745
▁frapp	-11.9745
▁tuna	-11.9745
▁excel	-11.9745
▁sass	-11.9745
▁enlist	-11.9745
▁resolve	-11.9745
▁feat	-11.9745
▁poochie	-11.9745
▁chacha	-11.9745
▁handwriting	-11.9745
▁barkley	-11.9745
▁boogie	-11.9745
▁singlehanded	-11.9745
mutation	-11.9745
▁discrimination	-11.9745
▁hopkins	-11.9745
▁transition	-11.9745
▁kwan	-11.9745
▁screwups	-11.9745
▁resurrection	-11.9745
▁flunk	-11.9746
▁malvolia	-11.9746
▁yuk	-11.9746
▁clog	-11.9746
▁gaze	-11.9746
▁rubb	-11.9746
▁awoke	-11.9746
▁grady	-11.9746
▁racine	-11.9746
▁seahorse	-11.9746
▁tactic	-11.9746
▁aqu	-11.9746
▁metres	-11.9746
▁exert	-11.9746
▁abys	-11.9746
▁goggles	-11.9746
▁overcome	-11.9746
▁whatcha	-11.9746
▁intentionally	-11.9746
ggio	-11.9746
▁tractor	-11.9746
▁sniffling	-11.9746
cipal	-11.9746
▁tarla	-11.9746
▁transmitter	-11.9746
▁speck	-11.9746
▁victorious	-11.9746
▁hazardous	-11.9746
▁fluke	-11.9746
▁cecilia	-11.9746
▁glue	-11.9746
▁wwhat	-11.9746
▁stalling	-11.9746
▁deliri	-11.9746
▁matchmaking	-11.9746
▁upright	-11.9746
▁blowjob	-11.9746
▁grindage	-11.9746
▁voltage	-11.9746
▁gypsies	-11.9746
▁panties	-11.9746
▁topsecret	-11.9746
▁spinning	-11.9746
▁obscur	-11.9746
northwest	-11.9746
▁exhibition	-11.9747
▁giantville	-11.9747
▁heeee	-11.9747
▁relating	-11.9747
syllab	-11.9747
▁goodall	-11.9747
▁gallant	-11.9747
▁labour	-11.9747
▁sidekick	-11.9747
▁vato	-11.9747
▁mustard	-11.9747
▁puddle	-11.9747
▁squish	-11.9747
▁spotlight	-11.9747
▁caii	-11.9747
▁condole	-11.9747
▁zig	-11.9747
▁batdad	-11.9747
▁cheet	-11.9747
▁sofa	-11.9747
▁oversea	-11.9747
▁iora	-11.9747
▁novelist	-11.9747
▁reef	-11.9747
▁radish	-11.9747
▁despi	-11.9747
▁blur	-11.9747
▁brogan	-11.9747
▁kau	-11.9747
▁slink	-11.9747
▁frat	-11.9747
▁coastline	-11.9747
▁khan	-11.9747
▁oaf	-11.9747
▁arnie	-11.9747
▁gradually	-11.9748
▁unconditionally	-11.9748
▁vertically	-11.9748
▁decorator	-11.9748
▁corruption	-11.9748
▁abortion	-11.9748
▁auxiliary	-11.9748
▁celebrity	-11.9748
▁marina	-11.9748
▁cretin	-11.9748
▁molly	-11.9748
▁beetle	-11.9748
▁feisal	-11.9748
▁welty	-11.9748
▁brace	-11.9748
▁titani	-11.9748
▁bakery	-11.9748
▁vibration	-11.9748
▁limo	-11.9748
▁composer	-11.9748
▁mumm	-11.9748
▁mormo	-11.9748
▁judiciary	-11.9748
▁nooo	-11.9748
▁cupboard	-11.9748
▁ruth	-11.9748
▁educat	-11.9749
▁establishment	-11.9749
renched	-11.9749
▁battlefield	-11.9749
▁pollut	-11.9749
▁tubby	-11.9749
▁fancies	-11.9749
▁notebook	-11.9749
▁plotted	-11.9749
▁glorif	-11.9749
▁restrain	-11.9749
gestion	-11.9749
▁dispar	-11.9749
▁attendance	-11.9749
▁gutter	-11.9749
▁korea	-11.9749
▁kit	-11.9749
▁radiat	-11.9749
▁suburb	-11.9749
▁mamma	-11.9749
▁cruelty	-11.9749
▁dessie	-11.9749
▁pip	-11.9749
▁luna	-11.9749
▁inexperienced	-11.9749
▁reunited	-11.9749
▁terminated	-11.9749
▁obtained	-11.975
▁cellul	-11.975
▁crazie	-11.975
▁reload	-11.975
▁depth	-11.975
▁purity	-11.975
▁barber	-11.975
▁repu	-11.975
▁crumble	-11.975
▁complainin	-11.975
▁senile	-11.975
▁knav	-11.975
▁storeroom	-11.975
▁crem	-11.975
▁bookstore	-11.975
▁layton	-11.975
▁passport	-11.975
▁avl	-11.9751
▁perpetuate	-11.9751
▁liber	-11.9751
▁halflife	-11.9751
▁considerably	-11.9751
▁liberal	-11.9751
▁acid	-11.9751
▁aqui	-11.9751
▁enci	-11.9751
▁admirers	-11.9751
▁outdo	-11.9751
nias	-11.9751
▁caca	-11.9751
▁tarath	-11.9751
▁unfold	-11.9751
▁cyborg	-11.9751
▁enterprise	-11.9751
▁southwest	-11.9751
▁bueno	-11.9751
▁championship	-11.9751
▁removal	-11.9751
▁sync	-11.9751
▁bathhouse	-11.9751
▁cheng	-11.9751
▁edna	-11.9751
▁fiix	-11.9751
▁brotherinlaw	-11.9751
▁debut	-11.9751
▁branches	-11.9751
▁dietl	-11.9751
▁ador	-11.9752
▁axl	-11.9752
▁disintegrated	-11.9752
▁daniela	-11.9752
▁faraway	-11.9752
▁translator	-11.9752
▁navigator	-11.9752
▁cupid	-11.9752
▁replacement	-11.9752
▁rebuild	-11.9752
rammed	-11.9752
▁radioactivity	-11.9752
▁retraction	-11.9752
agging	-11.9752
▁ugliest	-11.9753
▁imply	-11.9753
▁penguin	-11.9753
▁input	-11.9753
▁miguelito	-11.9753
▁repent	-11.9753
▁belch	-11.9753
▁province	-11.9753
▁thumbprint	-11.9754
▁hassle	-11.9754
▁ignorant	-11.9754
▁civi	-11.9754
▁breakthrough	-11.9754
tune	-11.9754
▁counselor	-11.9754
▁flim	-11.9754
▁respectfully	-11.9754
nappers	-11.9754
▁kanga	-11.9754
▁maim	-11.9754
▁paperwork	-11.9754
▁dander	-11.9754
▁discount	-11.9754
▁excellency	-11.9754
▁whim	-11.9754
▁therapy	-11.9755
▁indies	-11.9755
▁pickets	-11.9755
▁percentage	-11.9755
▁trespasser	-11.9755
▁instructor	-11.9756
▁gusto	-11.9756
▁eww	-11.9756
toile	-11.9756
▁dogsitting	-11.9756
▁bickering	-11.9756
▁fork	-11.9756
▁pobr	-11.9756
▁occasional	-11.9756
▁jewelry	-11.9756
▁diary	-11.9756
▁quail	-11.9757
▁rubber	-11.9757
▁percy	-11.9757
▁nico	-11.9757
▁countdown	-11.9757
phis	-11.9757
▁bucklin	-11.9758
▁meier	-11.9758
▁figuring	-11.9758
imble	-11.9758
▁omen	-11.9758
▁pug	-11.9758
▁mj	-11.9758
▁drummer	-11.9759
▁checkmate	-11.9759
▁prose	-11.9759
▁pester	-11.9759
hael	-11.9759
nkers	-11.9759
▁melan	-11.976
▁petro	-11.976
▁celeste	-11.976
▁joss	-11.976
▁catwoman	-11.976
▁hija	-11.9761
▁hedge	-11.9761
▁antique	-11.9761
▁accountant	-11.9761
▁jocko	-11.9761
▁bench	-11.9761
▁yahoo	-11.9761
▁fern	-11.9761
▁rash	-11.9761
estate	-11.9761
▁monarchy	-11.9761
▁sassy	-11.9761
▁prodigy	-11.9761
▁dramatically	-11.9762
▁prodigious	-11.9762
▁ninety	-11.9762
▁maddy	-11.9762
▁stinger	-11.9762
▁bever	-11.9763
▁blameless	-11.9763
▁menace	-11.9763
▁doom	-11.9763
▁cellar	-11.9763
▁tramp	-11.9763
▁creepo	-11.9764
▁shithead	-11.9764
dsm	-11.9764
▁feud	-11.9764
▁occasionally	-11.9764
▁restroom	-11.9765
▁garn	-11.9765
▁hallow	-11.9765
uish	-11.9765
▁vile	-11.9765
▁its	-11.9765
▁hallucinated	-11.9765
▁afflicted	-11.9766
▁lazy	-11.9766
▁campus	-11.9766
▁info	-11.9766
▁cray	-11.9766
▁runner	-11.9766
▁howe	-11.9767
▁hoist	-11.9767
iety	-11.9767
▁roy	-11.9768
▁potion	-11.9768
▁simpleton	-11.9768
▁fatherinlaw	-11.9768
▁flynn	-11.9768
▁weakling	-11.9769
▁woodsman	-11.9769
▁neg	-11.9769
▁disposed	-11.9769
▁brass	-11.977
▁virus	-11.977
▁facebook	-11.977
▁kite	-11.977
▁ivy	-11.977
▁lathe	-11.9771
▁vendor	-11.9771
▁mayday	-11.9771
▁waist	-11.9771
▁sadist	-11.9772
▁coverage	-11.9772
▁poodle	-11.9772
▁considerate	-11.9772
▁ladyship	-11.9773
▁twoyearold	-11.9774
▁prep	-11.9774
▁destruct	-11.9774
▁phony	-11.9774
▁flipping	-11.9774
▁chunky	-11.9775
▁developer	-11.9775
▁bach	-11.9776
▁jimbo	-11.9777
▁frontier	-11.9777
▁linkage	-11.9777
▁efficien	-11.9777
▁sputtering	-11.9777
▁hijacking	-11.9777
▁devastating	-11.9777
▁priceless	-11.9777
▁rex	-11.9777
▁louie	-11.9777
▁reinforced	-11.9777
▁ramen	-11.9777
▁sensu	-11.9778
▁chairman	-11.9778
▁poise	-11.9778
pending	-11.9779
▁prof	-11.9779
▁premiere	-11.9779
▁lighthouse	-11.9779
▁blad	-11.9779
▁alleged	-11.978
eavesdropper	-11.978
▁pender	-11.978
▁stunt	-11.978
▁spanked	-11.978
▁deliveries	-11.9781
▁begged	-11.9782
itable	-11.9782
▁experimental	-11.9782
axis	-11.9782
▁setback	-11.9783
affron	-11.9783
▁flop	-11.9783
▁wither	-11.9784
▁suspension	-11.9784
▁rally	-11.9785
▁booby	-11.9785
▁hesitate	-11.9785
▁redone	-11.9785
▁batch	-11.9786
▁burly	-11.9786
▁cocky	-11.9786
▁upsta	-11.9786
ork	-11.9786
▁fulltime	-11.9787
▁personality	-11.9788
▁troy	-11.9788
▁creatively	-11.9788
▁harshly	-11.9788
▁jellybeans	-11.9788
▁pitchforks	-11.9788
▁stooges	-11.9788
▁horrifi	-11.9789
▁hijo	-11.9789
▁dumbest	-11.9789
▁vest	-11.9789
▁bruised	-11.979
▁freeway	-11.979
▁armies	-11.979
▁receiver	-11.979
▁masses	-11.979
▁offens	-11.9791
▁oversize	-11.9791
▁windup	-11.9792
▁blended	-11.9793
▁gel	-11.9793
▁brid	-11.9793
▁shoveled	-11.9793
bbled	-11.9793
▁pinched	-11.9794
band	-11.9794
▁reacted	-11.9794
▁resigned	-11.9794
▁gw	-11.9795
ilities	-11.9795
▁singling	-11.9795
▁daw	-11.9796
▁stance	-11.9796
▁parish	-11.9796
▁slicey	-11.9796
▁crafty	-11.9797
▁quitter	-11.9797
▁muchach	-11.9797
▁fallout	-11.9798
▁splashing	-11.9799
▁berli	-11.9799
hire	-11.9799
▁childish	-11.9799
▁framed	-11.98
venue	-11.98
▁exc	-11.98
olera	-11.9801
ryb	-11.9801
▁kar	-11.9801
▁nicelooking	-11.9801
▁identified	-11.9802
▁jot	-11.9803
▁spicy	-11.9803
class	-11.9805
▁fitting	-11.9805
▁judgement	-11.9806
▁losses	-11.9806
▁sonny	-11.9807
▁napping	-11.9807
▁rundown	-11.9807
▁twofive	-11.9807
▁whereve	-11.9808
▁damp	-11.9808
▁cory	-11.9808
▁overhead	-11.981
▁pussy	-11.981
▁interfered	-11.981
cover	-11.9811
▁reply	-11.9811
▁petitioner	-11.9811
▁riot	-11.9812
▁homeboy	-11.9812
▁peeler	-11.9812
▁pag	-11.9813
▁raine	-11.9813
▁searchers	-11.9815
▁dashing	-11.9816
bri	-11.9816
aurus	-11.9818
▁tailor	-11.9818
▁departing	-11.982
▁shushing	-11.982
▁flirting	-11.9821
▁straighten	-11.9821
▁achieved	-11.9822
▁offended	-11.9822
▁slaughtered	-11.9823
▁lute	-11.9823
▁showdown	-11.9823
uria	-11.9824
▁mint	-11.9824
▁bottler	-11.9824
▁wink	-11.9825
▁speeders	-11.9825
▁pave	-11.9826
▁extr	-11.9827
▁fishm	-11.9827
▁rail	-11.9828
▁sandal	-11.9829
ken	-11.983
▁killem	-11.983
▁karate	-11.9831
▁wiped	-11.9832
▁hawk	-11.9832
▁drew	-11.9832
▁delude	-11.9834
▁cheaper	-11.9834
▁firsthand	-11.9836
▁beaten	-11.9836
▁reelected	-11.9837
▁squashed	-11.9837
▁cod	-11.9841
▁ident	-11.9842
▁bluffing	-11.9842
▁multiplying	-11.9842
aneous	-11.9843
▁stacking	-11.9844
▁beaufor	-11.9845
▁pointless	-11.9849
▁desperately	-11.9849
▁server	-11.9853
▁cynic	-11.9853
▁confine	-11.9854
▁shutter	-11.9857
▁uglies	-11.9857
▁byr	-11.9858
akin	-11.9859
▁fatherland	-11.986
▁lament	-11.986
▁vel	-11.9863
▁markl	-11.9863
▁jc	-11.9864
▁frosting	-11.9864
▁crunching	-11.9864
▁ardens	-11.9865
▁particles	-11.9865
▁eskimos	-11.9865
▁kittens	-11.9865
▁romanovs	-11.9865
▁waffles	-11.9865
▁fliers	-11.9865
▁negotiations	-11.9865
▁valves	-11.9865
▁sustains	-11.9865
winds	-11.9865
▁squeaks	-11.9865
▁shudders	-11.9865
▁ducts	-11.9865
▁steering	-11.9866
▁gamblers	-11.9867
▁bent	-11.9868
▁pillars	-11.9872
▁distribut	-11.9873
▁boarder	-11.9874
▁sweetest	-11.9876
▁runts	-11.9876
▁handout	-11.9877
▁supes	-11.9878
▁bosses	-11.9878
▁esta	-11.988
▁manpower	-11.988
▁implicate	-11.9882
▁darkies	-11.9883
▁hacked	-11.9884
iously	-11.9884
▁farting	-11.9885
▁pickers	-11.9885
▁jest	-11.9887
▁philly	-11.989
▁germany	-11.989
▁poly	-11.9892
▁your	-11.9893
▁overhear	-11.9893
▁privileged	-11.9894
▁consideration	-11.9896
▁concentrated	-11.9902
▁sneaky	-11.9903
megaton	-11.9903
▁blissful	-11.9906
▁leftist	-11.9908
▁deflecting	-11.9908
▁stressed	-11.9909
▁groovy	-11.9909
▁interrupted	-11.991
▁hmmm	-11.9911
▁mole	-11.9912
cdc	-11.9912
bia	-11.9912
▁quot	-11.9913
ational	-11.9914
▁trainin	-11.9914
▁seperate	-11.9917
▁atit	-11.9918
▁heartless	-11.9923
▁recruited	-11.9923
rary	-11.9925
▁searches	-11.9925
▁beeper	-11.9926
▁derive	-11.9926
▁windott	-11.9928
▁collector	-11.9928
▁inventing	-11.9931
▁followers	-11.9933
▁declared	-11.9933
▁blaze	-11.9935
▁cope	-11.9936
▁zane	-11.9937
▁pissed	-11.9938
▁aimed	-11.9938
▁divided	-11.9941
▁drips	-11.9942
▁drones	-11.9944
▁expenses	-11.9944
▁hairdressers	-11.9944
▁hooligans	-11.9944
▁ornaments	-11.9944
▁schematics	-11.9944
▁jaws	-11.9944
▁robbers	-11.9944
▁donations	-11.9945
▁leash	-11.9948
▁candie	-11.9949
▁endorse	-11.9956
legs	-11.9957
▁comforting	-11.996
▁nur	-11.9961
▁intended	-11.9966
▁costas	-11.9966
▁sane	-11.9966
▁hath	-11.9966
▁roped	-11.9968
working	-11.9969
▁forge	-11.997
▁punchy	-11.9974
erogat	-11.9977
▁madeup	-11.9979
▁honoured	-11.9981
▁taco	-11.9987
rilyn	-11.9988
▁squared	-11.9995
acks	-12
▁sid	-12.0001
oops	-12.0002
▁tic	-12.0005
▁lam	-12.0006
▁diplomat	-12.0008
▁gonza	-12.0019
bust	-12.002
▁finances	-12.0024
▁hollows	-12.0024
▁results	-12.0024
▁ashtrays	-12.0024
▁bakewells	-12.0024
▁egyptians	-12.0025
▁indis	-12.0026
▁dreamt	-12.0026
▁compress	-12.0027
▁meantime	-12.0029
▁counsell	-12.0035
▁exceptions	-12.0035
▁verse	-12.0042
▁coles	-12.0046
zipper	-12.005
▁wildly	-12.005
interference	-12.0054
▁blindly	-12.0057
▁umb	-12.0061
▁recalled	-12.0064
sander	-12.0066
▁dolly	-12.0067
▁smoked	-12.0067
▁peni	-12.0068
▁lifted	-12.0069
▁learnt	-12.007
nco	-12.0073
▁fiance	-12.0079
▁roller	-12.008
▁excitedly	-12.0085
oval	-12.0085
▁traveller	-12.0088
▁heartbreak	-12.009
▁assumed	-12.0091
▁seeds	-12.0091
▁practiced	-12.0099
▁flapp	-12.01
▁conf	-12.0107
▁disappearing	-12.0109
▁flanking	-12.0111
▁bowling	-12.0123
▁indicat	-12.0124
ttering	-12.013
▁capabilit	-12.0134
▁severed	-12.0135
shaw	-12.0136
uk	-12.0139
▁summ	-12.015
▁happenin	-12.0152
wan	-12.0152
▁designat	-12.0153
▁surrendered	-12.0156
▁cheater	-12.0159
▁jumper	-12.0165
▁planting	-12.0168
▁halfa	-12.0174
▁multiplic	-12.018
elves	-12.0181
▁sued	-12.0183
▁grim	-12.0184
▁heston	-12.0188
nex	-12.019
pping	-12.0192
▁queer	-12.0195
▁overlook	-12.0203
poe	-12.0205
▁foreigner	-12.0207
▁untr	-12.0208
▁longb	-12.022
jou	-12.023
▁dung	-12.0235
▁sweeter	-12.0254
ture	-12.0266
▁iit	-12.0267
▁hiss	-12.0269
▁borne	-12.0272
▁specialize	-12.0294
▁terr	-12.0308
▁rott	-12.0325
▁brut	-12.0326
lating	-12.0329
nounce	-12.0336
tech	-12.0348
▁flor	-12.0357
entic	-12.0375
▁align	-12.0399
▁pant	-12.0402
▁beet	-12.0404
▁fab	-12.0404
eering	-12.0428
▁simul	-12.044
rest	-12.0449
gers	-12.045
▁hali	-12.049
upe	-12.0497
▁unlad	-12.0512
illion	-12.0513
▁caball	-12.0524
▁gah	-12.0553
▁hemi	-12.0555
▁inde	-12.0557
lett	-12.0568
▁downlo	-12.057
▁rega	-12.0573
▁awaken	-12.0605
▁juic	-12.0606
assi	-12.0615
hok	-12.0639
▁deca	-12.0653
prit	-12.0655
▁dim	-12.0661
diana	-12.0662
▁brownie	-12.068
▁rul	-12.0715
wig	-12.0721
▁stac	-12.073
▁transferr	-12.0739
▁cutler	-12.0741
vier	-12.0757
oline	-12.0787
uch	-12.0787
▁addi	-12.0816
wash	-12.0854
▁butterfl	-12.0857
rray	-12.0866
ancy	-12.0877
▁swin	-12.0954
▁mach	-12.0968
▁atti	-12.1017
▁fathead	-12.1022
stained	-12.1046
▁pore	-12.1051
▁ohhhh	-12.1057
▁begg	-12.1063
▁deactivat	-12.1097
anned	-12.1136
▁thermia	-12.1154
issa	-12.1193
▁fearful	-12.1207
▁insur	-12.1214
▁boxer	-12.1216
▁patt	-12.1218
▁perri	-12.1237
▁cuddle	-12.1245
ual	-12.1257
▁faim	-12.1258
▁resemble	-12.1267
▁bask	-12.1298
aur	-12.1311
link	-12.1325
amente	-12.1355
▁redhead	-12.1386
▁dra	-12.1391
▁spi	-12.1419
ota	-12.1427
china	-12.1438
anka	-12.1453
choo	-12.1457
▁reconcil	-12.1459
▁zap	-12.1459
▁synchroniz	-12.1469
laine	-12.1473
count	-12.1488
now	-12.1489
▁burt	-12.1493
iterate	-12.1494
▁prefa	-12.1504
muni	-12.1532
ouch	-12.1562
▁soph	-12.1583
▁unbe	-12.1628
▁oppose	-12.1662
▁rehearse	-12.1664
▁hel	-12.1683
mir	-12.1691
dan	-12.1714
▁odo	-12.1768
mortality	-12.1823
▁retriev	-12.184
▁dea	-12.1859
▁monstermak	-12.1861
▁maria	-12.1898
▁irr	-12.1909
▁kerr	-12.1918
argeant	-12.1918
solation	-12.1919
anky	-12.1937
▁jumb	-12.2031
oming	-12.2046
ente	-12.2073
ife	-12.2073
ender	-12.209
▁vand	-12.2094
goes	-12.2096
mund	-12.2109
▁hmmmm	-12.2131
▁shov	-12.214
▁spli	-12.2146
lson	-12.2147
tony	-12.2151
rrier	-12.2155
huah	-12.2173
▁enslav	-12.2205
▁migrat	-12.2219
▁feu	-12.2225
▁invo	-12.2227
▁wiggle	-12.2236
▁shar	-12.2249
cant	-12.2257
net	-12.2271
▁cooperat	-12.229
rummy	-12.2295
omp	-12.2311
avis	-12.2316
itches	-12.2353
▁adm	-12.2355
▁perm	-12.2418
▁synchronize	-12.2443
▁reconcile	-12.2445
ria	-12.2449
▁surge	-12.2449
fusing	-12.2455
cade	-12.2478
▁penetrat	-12.2483
▁shuffl	-12.2484
▁wwe	-12.2494
▁yiyou	-12.2536
mb	-12.2585
▁dev	-12.2604
doo	-12.261
metric	-12.2615
sanity	-12.2639
▁ord	-12.2649
rain	-12.2649
▁mil	-12.2693
lacking	-12.2722
▁hater	-12.273
ofter	-12.28
ofthem	-12.2824
spin	-12.2827
▁sacrific	-12.2843
okay	-12.2872
▁tog	-12.2882
rawl	-12.297
▁galla	-12.2991
ayin	-12.306
▁prior	-12.3071
umble	-12.3094
flies	-12.3134
▁brainwa	-12.3159
bian	-12.3178
roid	-12.3211
▁deba	-12.3211
ility	-12.3261
roth	-12.3265
ush	-12.3282
urn	-12.3314
rail	-12.336
▁amaz	-12.3406
mmer	-12.3428
▁tempera	-12.343
▁measur	-12.343
ola	-12.3458
▁realiz	-12.3507
▁feature	-12.3558
lady	-12.3589
▁infiltrat	-12.3616
▁wham	-12.3618
nium	-12.3634
▁anto	-12.3653
▁disciplin	-12.3675
guer	-12.3703
▁birdie	-12.3718
aria	-12.3721
qualify	-12.3739
rough	-12.3765
spoiled	-12.3776
mint	-12.3788
oir	-12.3799
▁huff	-12.3806
niest	-12.3856
▁complet	-12.3873
▁hagg	-12.3873
wanda	-12.3886
▁ani	-12.3888
fined	-12.3911
ounce	-12.3918
attended	-12.3918
enne	-12.3922
misunderstanding	-12.3927
▁contemplat	-12.3937
▁exaggerat	-12.3941
▁bali	-12.3949
vor	-12.3952
ighter	-12.3952
▁patron	-12.3953
▁basin	-12.3963
isi	-12.3994
▁tug	-12.4002
verse	-12.4066
▁stee	-12.4076
pton	-12.4077
▁virtu	-12.4091
rific	-12.4094
▁arman	-12.4115
▁cooper	-12.4143
breaking	-12.4158
▁involv	-12.4166
kno	-12.4173
▁observ	-12.4175
▁ope	-12.4187
diction	-12.4208
sphere	-12.4221
innie	-12.4239
tained	-12.4245
▁sancti	-12.4252
▁pressur	-12.4253
icki	-12.4255
arian	-12.4275
▁shack	-12.4279
▁rena	-12.4284
▁greatgreat	-12.4288
meters	-12.431
rrow	-12.4322
▁simpl	-12.4343
▁deficien	-12.4349
waiting	-12.4353
▁aaaaah	-12.4381
gle	-12.4395
ucci	-12.442
perated	-12.4433
ezy	-12.4444
ngue	-12.4454
heard	-12.4478
edict	-12.4484
▁yiwh	-12.4485
arded	-12.4485
ibly	-12.4486
hibi	-12.449
▁contra	-12.4495
▁shudder	-12.4498
▁squeak	-12.4502
▁sustain	-12.4528
city	-12.453
mentary	-12.4534
harley	-12.4536
▁cough	-12.4536
lude	-12.4539
▁offen	-12.4539
distributed	-12.4539
▁uglie	-12.4547
▁pillar	-12.4549
▁eskimo	-12.4549
▁romanov	-12.4549
▁waffle	-12.4549
▁kitten	-12.455
▁negotiation	-12.455
▁gla	-12.4551
▁dwel	-12.4557
▁duct	-12.4557
▁gymnastic	-12.4558
▁ingredient	-12.4558
▁fergal	-12.4558
▁knick	-12.4558
▁hombre	-12.4558
▁muggle	-12.4558
▁complication	-12.4559
▁flier	-12.4559
▁muff	-12.4561
▁belief	-12.4563
▁coyote	-12.4563
▁footprint	-12.4563
▁exten	-12.4563
▁valve	-12.4564
▁particle	-12.4564
▁peasant	-12.4565
▁implie	-12.4565
▁arden	-12.4565
hermanos	-12.4567
▁todo	-12.457
ptop	-12.4571
▁inhale	-12.4571
▁gambler	-12.4572
▁gracia	-12.4573
▁yelp	-12.4574
▁rumble	-12.4576
▁hydra	-12.4576
▁giggle	-12.4577
▁stair	-12.4578
▁relic	-12.4579
▁instruction	-12.4579
▁brav	-12.4579
▁provid	-12.4587
▁oop	-12.4587
▁mcc	-12.4589
topia	-12.4592
drop	-12.4594
organizing	-12.4594
▁intruder	-12.4598
▁scot	-12.46
rella	-12.4605
▁supe	-12.4606
▁karat	-12.4607
▁determin	-12.4615
▁onehor	-12.4615
▁communicat	-12.4623
▁blaz	-12.4624
▁dodg	-12.4625
▁achiev	-12.4627
ddling	-12.4632
sibility	-12.4637
attering	-12.4638
▁hypnoti	-12.4644
▁evolv	-12.4648
▁associat	-12.4648
▁illustr	-12.4651
▁refer	-12.4651
amer	-12.4654
▁decid	-12.4659
ckling	-12.4662
▁damag	-12.4663
▁smi	-12.4667
datory	-12.467
▁settl	-12.467
hine	-12.4674
▁recogniz	-12.4676
naw	-12.4678
▁doubl	-12.468
ibble	-12.468
vent	-12.4683
▁eavesdrop	-12.4685
▁releas	-12.4686
▁instruct	-12.4688
ezi	-12.4688
▁devastat	-12.469
▁swee	-12.469
▁bubbl	-12.4691
▁unveil	-12.4692
▁acquir	-12.4692
▁effic	-12.4693
▁applaud	-12.4697
▁murmur	-12.4698
oodles	-12.4698
▁scorch	-12.4698
▁slurp	-12.4698
▁cluck	-12.4699
▁yithe	-12.4699
▁engag	-12.47
mala	-12.47
▁blond	-12.47
utters	-12.4702
▁execution	-12.4703
▁hijack	-12.4703
person	-12.4704
▁mini	-12.4706
jack	-12.4706
elect	-12.4707
▁abduct	-12.4707
▁anni	-12.4708
master	-12.4708
▁afflict	-12.4708
▁hallucinat	-12.4708
▁morn	-12.4709
▁compose	-12.4709
doki	-12.4709
wide	-12.471
past	-12.471
▁aff	-12.471
▁oral	-12.471
gencies	-12.471
▁blam	-12.4711
▁wif	-12.4711
secret	-12.4713
kids	-12.4713
blank	-12.4713
▁flood	-12.4713
cream	-12.4713
lord	-12.4714
high	-12.4714
foam	-12.4714
tidy	-12.4714
flavor	-12.4715
partial	-12.4715
precedent	-12.4715
gathering	-12.4715
juan	-12.4715
fiction	-12.4715
burst	-12.4715
stock	-12.4715
woo	-12.4715
elbow	-12.4715
racket	-12.4715
column	-12.4715
protected	-12.4715
directly	-12.4715
issue	-12.4716
lenin	-12.4716
stream	-12.4716
trigger	-12.4716
player	-12.4716
bugs	-12.4716
fraud	-12.4716
▁contravene	-12.4716
▁tolerate	-12.4716
bucket	-12.4716
buddy	-12.4716
healthy	-12.4716
shift	-12.4716
ernesto	-12.4716
mission	-12.4716
studio	-12.4716
wilder	-12.4716
chamber	-12.4716
spoken	-12.4716
fruit	-12.4716
fungus	-12.4716
expensive	-12.4716
condition	-12.4717
avoid	-12.4717
secure	-12.4717
computer	-12.4717
throat	-12.4717
choice	-12.4717
science	-12.4717
famous	-12.4717
heavy	-12.4717
stealing	-12.4717
ogre	-12.4717
president	-12.4717
distance	-12.4717
played	-12.4717
jungle	-12.4717
charlie	-12.4717
married	-12.4717
family	-12.4717
remember	-12.4717
child	-12.4717
attack	-12.4717
▁duc	-12.4717
▁decline	-12.4718
pops	-12.4718
related	-12.4718
▁coro	-12.4718
logan	-12.4718
▁sputter	-12.4719
span	-12.4719
pants	-12.4719
▁retire	-12.4719
spect	-12.4719
hammer	-12.4719
▁mutate	-12.472
burn	-12.472
curse	-12.472
bush	-12.472
help	-12.472
▁humiliate	-12.472
warmed	-12.472
daisy	-12.4721
could	-12.4721
▁cherish	-12.4721
three	-12.4722
ounted	-12.4722
▁housekeep	-12.4722
▁mandate	-12.4722
today	-12.4722
looney	-12.4722
maniac	-12.4723
▁ancho	-12.4723
▁desir	-12.4724
flip	-12.4724
throw	-12.4724
▁leisure	-12.4725
▁valiant	-12.4725
six	-12.4726
▁shrubber	-12.4726
excus	-12.4726
kick	-12.4726
mouth	-12.4726
▁excellenc	-12.4726
hundred	-12.4727
venturing	-12.4727
▁morris	-12.4727
▁fend	-12.4727
▁provinc	-12.4728
▁whisk	-12.4728
▁gravit	-12.4728
emma	-12.4728
bridge	-12.4729
▁filth	-12.4729
▁cycl	-12.4729
cock	-12.4729
▁librar	-12.4729
gits	-12.4729
▁dumm	-12.4729
▁apprentic	-12.473
taking	-12.473
chair	-12.473
▁bibl	-12.473
▁wond	-12.4731
descent	-12.4731
▁mutin	-12.4731
▁levio	-12.4731
▁jacob	-12.4732
▁numb	-12.4733
▁mobil	-12.4733
▁remini	-12.4733
▁romanc	-12.4734
excuse	-12.4734
▁objectiv	-12.4735
buster	-12.4735
▁ceremoni	-12.4735
yra	-12.4736
butt	-12.4736
▁algeria	-12.4736
▁continent	-12.4736
▁entre	-12.4736
decorate	-12.4736
▁fanci	-12.4736
▁innocen	-12.4736
▁brunch	-12.4737
▁mosquito	-12.4737
▁vibrat	-12.4737
▁thiev	-12.4737
▁hype	-12.4737
▁russki	-12.4737
▁acquire	-12.4737
flag	-12.4737
partment	-12.4737
▁pruit	-12.4737
▁bugg	-12.4737
▁debri	-12.4738
curity	-12.4738
▁optic	-12.4738
mburger	-12.4738
along	-12.4738
▁scatter	-12.4738
rall	-12.4739
cold	-12.4739
▁slur	-12.474
mackerel	-12.474
ravel	-12.474
▁kang	-12.474
▁atlanti	-12.474
plit	-12.4741
▁actua	-12.4741
▁smokin	-12.4741
▁obsessi	-12.4741
▁rrra	-12.4741
surrection	-12.4741
▁archaeologi	-12.4741
▁discriminat	-12.4741
annon	-12.4741
astard	-12.4741
ustard	-12.4741
▁hench	-12.4742
▁strum	-12.4742
riving	-12.4742
salt	-12.4742
▁dyin	-12.4742
▁indict	-12.4742
crease	-12.4742
awaii	-12.4742
▁extraordina	-12.4742
▁avail	-12.4742
▁confedera	-12.4743
▁pudd	-12.4743
tinct	-12.4743
▁mysteri	-12.4743
▁amnes	-12.4743
▁roman	-12.4743
gregation	-12.4743
[...]
