<unk>	0
<s>	0
</s>	0
s	-3.8878
▁im	-4.36567
▁dont	-4.48355
▁know	-4.51436
▁get	-4.71013
▁right	-4.80996
▁go	-4.8102
▁like	-4.84614
▁got	-4.91987
▁oh	-4.93411
▁come	-4.94202
▁youre	-4.94797
▁yeah	-4.95235
▁na	-5.07229
▁thats	-5.1316
▁well	-5.13672
▁okay	-5.18767
▁one	-5.19876
▁want	-5.29498
▁good	-5.31018
▁gon	-5.32393
▁think	-5.35616
▁see	-5.3667
▁hey	-5.45351
▁look	-5.49681
▁man	-5.51869
▁back	-5.53697
▁going	-5.59367
▁yes	-5.61247
▁take	-5.63913
▁hes	-5.64236
▁time	-5.65173
▁us	-5.66746
▁ill	-5.67944
ing	-5.71604
▁cant	-5.72628
▁tell	-5.78755
▁need	-5.80349
▁say	-5.80466
▁l	-5.81083
▁would	-5.82195
▁really	-5.89757
▁could	-5.93067
▁way	-5.94992
▁something	-5.9653
▁please	-5.97213
▁love	-5.97329
▁never	-5.97991
ed	-5.9831
▁make	-5.98836
▁let	-5.99231
▁little	-5.9967
▁thank	-6.00516
▁lets	-6.01282
▁sorry	-6.02999
▁whats	-6.03874
▁didnt	-6.0594
▁mean	-6.09247
▁ive	-6.12292
▁god	-6.13198
▁give	-6.158
▁theres	-6.16513
▁people	-6.21167
▁two	-6.21453
▁uh	-6.26586
▁help	-6.26965
▁thing	-6.27612
▁said	-6.29485
▁stop	-6.30545
d	-6.31343
▁wait	-6.32487
▁mr	-6.3336
▁much	-6.34704
▁shes	-6.36196
▁sure	-6.38082
▁	-6.39075
▁shit	-6.40562
▁sir	-6.41283
▁life	-6.42903
▁day	-6.43225
▁theyre	-6.43338
▁call	-6.43705
▁find	-6.44618
▁home	-6.46503
▁fuck	-6.49392
▁even	-6.49875
▁great	-6.5104
▁night	-6.51246
▁put	-6.52127
▁talk	-6.52313
▁anything	-6.5246
▁first	-6.52833
▁work	-6.53789
▁guys	-6.55245
▁nothing	-6.55519
▁maybe	-6.57281
▁ever	-6.5844
▁keep	-6.59059
▁away	-6.59936
▁ta	-6.60443
▁fucking	-6.61578
▁new	-6.61916
▁still	-6.62187
y	-6.62464
▁around	-6.62812
▁better	-6.6551
▁wan	-6.65627
▁thought	-6.67026
▁last	-6.67742
▁hell	-6.68331
▁long	-6.70595
▁name	-6.71143
▁stay	-6.71394
er	-6.71407
▁always	-6.72156
▁guy	-6.72656
▁hi	-6.73202
▁told	-6.73599
▁baby	-6.73713
▁nice	-6.74232
▁feel	-6.74289
▁leave	-6.74641
▁years	-6.75346
▁big	-6.77865
▁hear	-6.78301
▁fine	-6.78799
▁everything	-6.79008
▁coming	-6.79229
▁listen	-6.79321
▁girl	-6.80098
▁hello	-6.80208
▁must	-6.81359
▁place	-6.81994
▁things	-6.82266
ly	-6.82402
▁wont	-6.82849
▁youve	-6.82849
▁ok	-6.82977
▁youll	-6.83296
▁boy	-6.83766
▁world	-6.84255
▁every	-6.84745
▁id	-6.84891
▁money	-6.85957
▁lot	-6.8631
▁done	-6.86486
▁old	-6.86971
e	-6.87197
▁doesnt	-6.87748
▁remember	-6.89322
▁three	-6.90602
▁kill	-6.908
▁hold	-6.91598
▁dad	-6.91764
▁show	-6.92117
▁house	-6.92156
▁move	-6.92371
▁believe	-6.92407
▁huh	-6.93255
▁made	-6.93909
▁father	-6.94089
▁bad	-6.9429
▁understand	-6.9558
▁thanks	-6.96297
▁left	-6.96562
▁aint	-6.96855
▁talking	-6.97145
▁real	-6.9787
▁wrong	-6.98407
▁son	-6.98447
▁kind	-6.98623
▁car	-6.98716
▁woman	-7.01552
in	-7.01657
▁door	-7.02605
▁music	-7.03862
▁care	-7.04286
▁mom	-7.05407
▁isnt	-7.05586
▁try	-7.05738
▁another	-7.06228
▁enough	-7.06875
▁today	-7.07607
▁happened	-7.08884
▁ask	-7.09597
▁ready	-7.09918
▁wanted	-7.09941
▁trying	-7.11104
▁course	-7.11182
▁dead	-7.11664
▁someone	-7.13129
▁might	-7.13274
▁best	-7.13504
▁miss	-7.14226
▁may	-7.14695
▁tonight	-7.15153
▁live	-7.15462
▁else	-7.16305
▁next	-7.1702
▁um	-7.17141
▁friend	-7.17178
▁mother	-7.1899
▁looking	-7.19227
▁getting	-7.19677
▁run	-7.19955
▁head	-7.20757
▁mind	-7.20978
▁came	-7.21151
▁seen	-7.22072
▁morning	-7.22554
▁job	-7.22791
▁cause	-7.23517
▁men	-7.24005
▁lm	-7.24105
▁phone	-7.24492
▁found	-7.24728
▁room	-7.24986
▁saw	-7.26225
a	-7.27195
▁playing	-7.27308
▁family	-7.27312
▁whole	-7.27814
▁meet	-7.28187
▁excuse	-7.28311
▁die	-7.28324
▁together	-7.28815
▁watch	-7.28994
▁open	-7.29855
▁wasnt	-7.30649
t	-7.31503
▁weve	-7.31995
▁everybody	-7.33215
r	-7.33865
▁hard	-7.3431
▁whoa	-7.34654
▁turn	-7.34686
▁many	-7.3557
▁tomorrow	-7.35711
▁face	-7.35873
▁actually	-7.36585
▁play	-7.37109
▁went	-7.37348
▁guess	-7.37868
▁bring	-7.38809
▁knew	-7.39009
▁ah	-7.39236
▁pretty	-7.39682
▁heard	-7.39904
▁heart	-7.4028
▁beautiful	-7.41042
▁bit	-7.41361
u	-7.41483
▁alone	-7.42307
▁fight	-7.42491
▁wouldnt	-7.42819
▁school	-7.42981
▁matter	-7.43169
▁end	-7.43513
▁kid	-7.43564
▁whos	-7.43766
▁damn	-7.44038
▁without	-7.44289
▁start	-7.44354
▁second	-7.44691
n	-7.44732
▁hope	-7.45127
▁five	-7.45128
▁jack	-7.45484
▁called	-7.45931
▁gone	-7.46116
▁idea	-7.47884
o	-7.47891
▁crazy	-7.48135
▁used	-7.48253
▁took	-7.48256
▁use	-7.48494
▁anyone	-7.49242
▁days	-7.50348
▁friends	-7.50487
▁em	-7.50585
▁happy	-7.5137
▁fire	-7.51395
▁wife	-7.52919
▁sit	-7.5332
▁shut	-7.53394
▁eyes	-7.5363
▁hand	-7.54254
▁four	-7.54841
▁eat	-7.55296
▁minute	-7.55504
▁true	-7.55768
▁havent	-7.55898
▁youd	-7.56038
es	-7.56086
▁everyone	-7.56225
▁yet	-7.5672
▁check	-7.58547
▁problem	-7.58584
▁kids	-7.58868
▁brother	-7.58872
▁ago	-7.59562
▁saying	-7.59971
▁already	-7.60503
▁killed	-7.60588
▁read	-7.60662
▁boys	-7.60757
▁lost	-7.60929
▁easy	-7.61478
▁hit	-7.61487
▁somebody	-7.61786
▁grunts	-7.61922
▁story	-7.6204
▁chuckles	-7.62042
▁water	-7.6231
▁fun	-7.6286
▁sighs	-7.63097
▁worry	-7.63128
▁hurt	-7.6332
▁couldnt	-7.64373
al	-7.64529
▁ass	-7.64946
▁part	-7.65442
▁far	-7.66129
▁pay	-7.66328
▁stuff	-7.66394
▁break	-7.66443
▁close	-7.67164
▁minutes	-7.6724
▁laughing	-7.67365
▁since	-7.67537
▁honey	-7.67834
▁inside	-7.67835
▁looks	-7.68156
▁six	-7.68316
▁jesus	-7.68734
▁cut	-7.68735
▁walk	-7.69531
▁stand	-7.6983
▁whatever	-7.70862
▁bye	-7.70862
▁ha	-7.71326
▁gun	-7.71406
▁supposed	-7.71692
▁hands	-7.71787
▁business	-7.71916
▁nobody	-7.72324
▁set	-7.73184
▁wheres	-7.7323
▁exactly	-7.73365
▁thinking	-7.73531
▁mine	-7.74114
▁sleep	-7.7432
▁game	-7.74405
▁change	-7.7444
▁soon	-7.74506
▁probably	-7.75103
▁point	-7.75571
▁late	-7.75618
▁number	-7.75725
▁afraid	-7.75745
▁happen	-7.76024
▁working	-7.76036
▁dog	-7.76305
▁free	-7.76418
▁shot	-7.76576
▁welcome	-7.77045
▁word	-7.77536
▁says	-7.77686
▁trust	-7.77777
▁dr	-7.78462
▁sam	-7.78527
▁later	-7.78769
▁war	-7.78794
▁deal	-7.78982
▁line	-7.78996
▁young	-7.79076
▁mrs	-7.79277
▁wow	-7.79362
▁rest	-7.79515
▁year	-7.79754
▁lady	-7.79875
▁cool	-7.8019
i	-7.80265
▁side	-7.80467
▁gave	-7.8054
▁ya	-7.8102
▁wants	-7.81551
▁forget	-7.8293
▁daddy	-7.83082
▁different	-7.8405
▁taking	-7.85242
▁moment	-7.85781
▁party	-7.85916
▁waiting	-7.86368
▁city	-7.86838
▁blood	-7.87063
▁making	-7.87195
▁wish	-7.87278
▁case	-7.8729
▁continues	-7.87461
▁girls	-7.87508
▁chance	-7.87981
▁gasps	-7.8881
▁death	-7.89203
▁drink	-7.89519
▁promise	-7.89522
▁doctor	-7.89649
▁pick	-7.8968
▁makes	-7.89727
▁week	-7.90014
▁though	-7.90058
▁hours	-7.90515
▁light	-7.90744
▁couple	-7.90879
▁hmm	-7.91606
▁speak	-7.91753
b	-7.91767
▁safe	-7.92018
▁laughs	-7.92048
p	-7.92147
▁hate	-7.92726
▁high	-7.92764
▁half	-7.92961
▁behind	-7.92965
▁bitch	-7.93139
▁grunting	-7.93194
▁times	-7.93228
▁king	-7.93636
▁question	-7.93692
▁black	-7.93721
▁bed	-7.93774
▁hot	-7.93809
▁police	-7.94665
l	-7.95101
▁truth	-7.95685
▁anybody	-7.95686
▁means	-7.95862
▁goes	-7.95959
▁lord	-7.96077
▁anyway	-7.96478
g	-7.96817
▁sound	-7.9684
▁red	-7.96916
c	-7.97203
▁shall	-7.97272
▁george	-7.97272
▁town	-7.97465
▁clear	-7.97624
▁almost	-7.97677
▁shoot	-7.97693
▁save	-7.97702
▁book	-7.98109
▁sister	-7.98132
▁also	-7.98282
▁news	-7.98683
▁dear	-7.99711
▁person	-7.99783
▁full	-7.99978
▁front	-8.00115
▁perfect	-8.00199
▁met	-8.00279
▁send	-8.00621
▁married	-8.00945
▁child	-8.01353
▁speaking	-8.0172
▁lose	-8.0176
▁anymore	-8.01779
▁daughter	-8.02342
▁trouble	-8.02596
▁white	-8.02635
▁women	-8.02832
▁telling	-8.03131
▁ahead	-8.03262
▁least	-8.03469
▁alive	-8.03688
▁touch	-8.04114
ers	-8.04152
▁outside	-8.0427
▁body	-8.0476
▁food	-8.04973
▁hang	-8.05075
▁important	-8.05077
▁buy	-8.05218
▁started	-8.05433
▁arent	-8.05624
▁sometimes	-8.05711
▁follow	-8.05712
▁dance	-8.05802
▁stupid	-8.05999
▁john	-8.0605
▁answer	-8.0637
▁funny	-8.06502
▁asked	-8.08716
▁drive	-8.08887
▁plan	-8.091
▁feeling	-8.091
▁power	-8.09238
▁ben	-8.09302
▁voice	-8.09931
▁children	-8.09968
▁gentlemen	-8.10073
▁lts	-8.10308
▁living	-8.10758
▁top	-8.10794
▁theyll	-8.10986
▁running	-8.10988
▁special	-8.11202
▁hurry	-8.12141
▁died	-8.12149
▁luck	-8.12477
▁till	-8.12618
▁mama	-8.12621
▁reason	-8.12971
▁quite	-8.13131
▁street	-8.13218
▁ladies	-8.13311
▁husband	-8.13475
▁brought	-8.1378
▁goddamn	-8.1402
▁heres	-8.14545
▁dinner	-8.14968
▁buddy	-8.1497
▁un	-8.1545
▁sounds	-8.16149
▁rock	-8.16384
▁hair	-8.16531
▁goodbye	-8.16655
▁team	-8.16671
▁either	-8.17142
▁pull	-8.173
▁captain	-8.17389
▁tried	-8.17411
▁panting	-8.17641
▁win	-8.18006
▁air	-8.18108
m	-8.18577
man	-8.18673
▁scared	-8.18679
▁yo	-8.1922
▁hows	-8.19365
▁sweet	-8.19542
▁comes	-8.19653
▁parents	-8.19871
▁office	-8.20284
on	-8.20406
▁th	-8.20754
▁company	-8.20874
▁country	-8.20877
▁y	-8.20911
ie	-8.2121
▁ride	-8.21565
▁screaming	-8.21728
▁sick	-8.21898
▁months	-8.22078
▁wake	-8.22133
▁leaving	-8.22151
▁fall	-8.2233
▁needs	-8.22754
▁control	-8.23169
▁itll	-8.23703
▁ten	-8.24016
▁fast	-8.24049
▁dream	-8.24103
▁order	-8.2419
▁song	-8.24211
▁tv	-8.24229
▁calm	-8.25292
▁clean	-8.2552
▁ooh	-8.25544
▁lives	-8.25621
▁sign	-8.2563
▁along	-8.26074
▁radio	-8.26232
▁b	-8.26391
▁happens	-8.27077
▁feet	-8.27158
▁straight	-8.27671
▁charlie	-8.27694
▁maam	-8.27964
▁la	-8.28157
▁seven	-8.28234
▁york	-8.28694
▁serious	-8.28949
▁alright	-8.29197
▁step	-8.29343
▁careful	-8.29558
▁christ	-8.3019
▁catch	-8.30346
▁general	-8.30611
est	-8.30734
▁bet	-8.30917
▁hour	-8.31002
▁president	-8.31003
▁moving	-8.31005
▁drop	-8.31024
le	-8.31032
▁happening	-8.31285
▁dude	-8.31567
▁blue	-8.31861
▁pain	-8.32032
▁strong	-8.32269
▁groans	-8.32278
▁glad	-8.32304
▁throw	-8.32316
▁weeks	-8.3259
▁kiss	-8.32639
▁boss	-8.32937
▁f	-8.33197
▁human	-8.33896
▁amazing	-8.34137
▁poor	-8.34144
▁lucky	-8.34301
▁wonderful	-8.34448
▁million	-8.34496
▁mouth	-8.34529
▁sort	-8.34718
▁sent	-8.34725
▁somewhere	-8.35009
▁screams	-8.3535
▁law	-8.35461
▁taken	-8.36466
▁eye	-8.36919
▁asking	-8.37045
▁tommy	-8.37075
▁able	-8.37196
▁cold	-8.37409
▁quiet	-8.37563
▁kidding	-8.37683
▁ball	-8.37835
▁land	-8.38309
▁earth	-8.38578
ic	-8.38753
▁seems	-8.38797
▁absolutely	-8.3889
▁slow	-8.38925
▁fact	-8.39011
▁calling	-8.39037
▁small	-8.39366
▁bob	-8.39804
▁quick	-8.39871
▁army	-8.39886
▁picture	-8.39993
▁ow	-8.40035
▁forever	-8.40082
▁cover	-8.4014
▁breathing	-8.40573
▁words	-8.41033
▁road	-8.41036
▁learn	-8.41068
▁mike	-8.41204
▁past	-8.41586
▁relax	-8.41704
us	-8.41741
▁finally	-8.42331
▁write	-8.4269
▁sense	-8.42805
▁shouldnt	-8.42904
▁c	-8.43122
▁beat	-8.43133
▁shell	-8.44358
▁frank	-8.44528
▁mary	-8.44544
▁singing	-8.44804
▁michael	-8.44817
▁piece	-8.45111
▁future	-8.45464
▁joe	-8.45691
▁round	-8.45778
ll	-8.46618
▁become	-8.46769
ch	-8.46964
▁finish	-8.47175
▁english	-8.47428
▁fear	-8.47589
▁loved	-8.47636
en	-8.47707
▁fly	-8.47842
▁lie	-8.48111
▁cheering	-8.48499
▁secret	-8.4868
▁fat	-8.48756
▁figure	-8.48963
▁dark	-8.49087
re	-8.49147
▁questions	-8.4917
▁mad	-8.49625
▁less	-8.4975
f	-8.5008
▁mmm	-8.50408
▁deep	-8.50582
▁lll	-8.50764
▁sing	-8.50904
▁known	-8.51159
▁nick	-8.51325
or	-8.51471
▁rain	-8.51539
▁join	-8.51742
▁officer	-8.52019
▁ones	-8.52047
▁felt	-8.52167
ur	-8.52223
▁meeting	-8.52251
ies	-8.52392
▁court	-8.52514
▁none	-8.52558
▁seem	-8.52599
▁state	-8.53112
▁crowd	-8.53324
▁lt	-8.53472
▁pass	-8.53883
▁weird	-8.54147
▁knows	-8.54204
▁french	-8.54574
▁choice	-8.54594
▁wear	-8.54845
▁class	-8.5489
▁sun	-8.55202
▁eight	-8.55318
▁roy	-8.55333
▁fault	-8.55336
▁marry	-8.55369
▁worth	-8.55554
▁sex	-8.55567
▁perhaps	-8.55694
▁p	-8.55825
▁possible	-8.56054
▁holy	-8.56499
▁ground	-8.56632
▁date	-8.5683
▁watching	-8.56855
▁honor	-8.56877
▁wed	-8.56913
▁sea	-8.56989
▁rather	-8.57142
h	-8.57218
▁ring	-8.57435
▁darling	-8.57508
▁gets	-8.57743
▁hospital	-8.57858
▁church	-8.57868
▁tired	-8.57895
▁explain	-8.5802
▁forward	-8.5824
▁meant	-8.58655
▁shouting	-8.58684
▁ship	-8.59257
▁handle	-8.59284
▁papa	-8.59358
▁longer	-8.59399
▁kick	-8.59421
▁fish	-8.59533
▁shh	-8.5971
▁bullshit	-8.59724
▁seat	-8.59842
▁wonder	-8.59869
▁stick	-8.59989
▁horse	-8.59993
ion	-8.60334
▁paul	-8.60444
▁across	-8.60474
▁smart	-8.60721
▁cute	-8.60895
▁fix	-8.61415
▁hed	-8.61439
▁uncle	-8.61562
▁fuckin	-8.6167
▁laugh	-8.61708
up	-8.62072
▁e	-8.62106
▁turned	-8.62503
▁crying	-8.62664
k	-8.62989
▁report	-8.6315
▁wind	-8.63653
▁werent	-8.63923
▁given	-8.64224
v	-8.64232
▁fighting	-8.64635
▁swear	-8.64706
▁middle	-8.64706
▁major	-8.64708
▁ray	-8.65068
▁others	-8.65099
▁de	-8.65126
▁return	-8.6531
▁broke	-8.65363
▁worked	-8.65585
▁copy	-8.6559
▁gods	-8.65641
▁grace	-8.6576
▁g	-8.65837
▁hotel	-8.65925
▁fair	-8.66031
▁dress	-8.66054
▁wall	-8.6617
▁hungry	-8.66292
▁grab	-8.66294
▁tree	-8.6631
▁count	-8.66375
▁needed	-8.66641
▁anywhere	-8.6669
▁christmas	-8.6669
▁record	-8.66819
▁smell	-8.66873
▁lead	-8.67087
▁floor	-8.6709
▁mommy	-8.67105
▁expect	-8.67317
▁mistake	-8.6748
▁proud	-8.67496
▁born	-8.67503
▁asshole	-8.67546
▁cross	-8.67721
▁looked	-8.67798
▁bag	-8.67827
▁changed	-8.67962
▁art	-8.68305
▁attention	-8.68306
▁service	-8.68371
▁act	-8.68643
▁jump	-8.68952
▁american	-8.69074
▁max	-8.69107
▁theyve	-8.69124
▁spot	-8.69196
▁busy	-8.69204
▁message	-8.69211
▁seriously	-8.69287
▁charge	-8.69468
▁definitely	-8.69543
▁truck	-8.69628
▁blow	-8.69653
ful	-8.69776
▁lunch	-8.69941
▁spend	-8.70037
▁short	-8.70358
▁birthday	-8.70365
▁giving	-8.70366
el	-8.70403
▁bar	-8.7057
▁coffee	-8.7078
▁s	-8.70811
▁sell	-8.70885
▁pop	-8.70985
▁smile	-8.71013
▁whoo	-8.71182
▁evening	-8.71234
▁st	-8.71271
▁bill	-8.71313
▁system	-8.71324
▁month	-8.71328
▁bank	-8.71332
▁master	-8.7151
▁strange	-8.71542
▁building	-8.71554
▁early	-8.71692
▁soul	-8.71781
▁groaning	-8.72077
▁yall	-8.721
▁magic	-8.7213
▁re	-8.72261
▁super	-8.72412
▁teach	-8.72425
▁tough	-8.72439
▁breathe	-8.72795
▁engine	-8.72892
▁dick	-8.72892
▁unless	-8.72916
▁mark	-8.72962
▁mess	-8.73144
▁train	-8.73316
▁terrible	-8.73318
▁history	-8.73318
▁james	-8.73337
▁favorite	-8.73751
▁star	-8.73787
▁boat	-8.73944
▁america	-8.74068
▁entire	-8.74068
▁caught	-8.74178
▁sitting	-8.74212
▁bell	-8.74215
▁billy	-8.74321
▁table	-8.74438
▁throat	-8.74611
▁yesterday	-8.74611
▁station	-8.7464
▁low	-8.74678
▁mission	-8.747
▁respect	-8.74751
▁seeing	-8.74971
▁security	-8.75053
▁attack	-8.7511
▁cry	-8.75123
▁soldier	-8.75251
▁quit	-8.75392
▁evil	-8.75485
▁kate	-8.75562
▁arm	-8.7585
▁box	-8.75878
▁worse	-8.75921
▁lying	-8.75934
▁ice	-8.75975
▁present	-8.76143
able	-8.76182
▁moon	-8.76437
▁chatter	-8.7648
▁except	-8.76784
▁dangerous	-8.76808
▁computer	-8.77055
▁imagine	-8.77065
▁missing	-8.77129
▁forgot	-8.77246
▁wedding	-8.77253
▁names	-8.77404
▁sad	-8.77434
▁sherman	-8.77696
▁jake	-8.77699
▁walking	-8.7776
an	-8.78026
ra	-8.78124
▁protect	-8.78389
▁mm	-8.78586
▁david	-8.78594
▁surprise	-8.78698
▁agent	-8.7889
▁lovely	-8.79043
▁letter	-8.79094
▁softly	-8.79125
te	-8.79173
▁tom	-8.79472
ist	-8.79562
▁hundred	-8.79805
▁enjoy	-8.79821
▁knock	-8.79843
▁brothers	-8.79891
▁clothes	-8.7996
▁talked	-8.80103
▁age	-8.80198
▁peace	-8.80399
▁green	-8.80418
ve	-8.80426
▁totally	-8.80481
▁burn	-8.8059
▁killing	-8.80737
▁saved	-8.8083
▁contact	-8.80877
▁hide	-8.81408
▁peter	-8.81489
▁push	-8.81691
▁r	-8.81734
▁works	-8.81754
▁lock	-8.81791
▁space	-8.81803
▁plane	-8.81807
it	-8.81899
▁gold	-8.81925
to	-8.81999
z	-8.82104
▁ringing	-8.82222
▁college	-8.82272
▁yep	-8.82289
▁machine	-8.8263
▁adam	-8.82641
▁band	-8.82686
▁bro	-8.82697
▁stuck	-8.82736
▁paid	-8.82752
▁miles	-8.82874
▁indistinct	-8.83104
▁queen	-8.83128
▁key	-8.83147
▁personal	-8.832
▁broken	-8.83283
▁paper	-8.83618
▁rose	-8.83651
ation	-8.83652
▁trip	-8.83819
▁simple	-8.84096
▁gift	-8.84316
▁share	-8.84464
▁motherfucker	-8.84579
▁doin	-8.84717
▁ii	-8.84729
▁nine	-8.85053
▁audience	-8.85123
▁carl	-8.85331
▁rich	-8.85431
x	-8.85442
▁fool	-8.85447
▁loud	-8.85526
▁harry	-8.85606
▁mmhmm	-8.85619
st	-8.85702
▁appreciate	-8.85903
▁tight	-8.85948
▁cell	-8.85981
▁missed	-8.86029
▁wearing	-8.86049
▁j	-8.86095
less	-8.86104
▁roll	-8.8628
▁ran	-8.86476
▁information	-8.86585
▁in	-8.86676
▁code	-8.86825
▁worried	-8.87069
▁colonel	-8.8707
▁heavy	-8.87071
▁dying	-8.87102
ri	-8.87301
▁suppose	-8.87384
▁movie	-8.87559
▁flight	-8.87561
▁field	-8.87603
▁seconds	-8.87862
▁prison	-8.87902
▁instead	-8.88057
▁warm	-8.8824
▁dollars	-8.88361
ro	-8.88362
▁glass	-8.88507
▁sweetheart	-8.88555
▁distance	-8.8856
▁al	-8.88697
ity	-8.88868
▁lf	-8.88983
▁completely	-8.89128
▁near	-8.89423
▁driving	-8.89558
▁single	-8.89619
▁honest	-8.89825
▁finished	-8.8994
▁kept	-8.90062
▁pleasure	-8.90062
▁uhhuh	-8.90071
▁cat	-8.9008
▁list	-8.9019
▁certain	-8.9045
▁jerry	-8.90569
no	-8.91066
▁thousand	-8.91149
▁rick	-8.91474
▁chief	-8.91593
▁lawyer	-8.91669
▁dreams	-8.91874
na	-8.92026
▁hasnt	-8.92109
▁south	-8.92109
▁wolf	-8.92359
is	-8.92519
▁command	-8.92547
▁fucked	-8.92853
▁n	-8.93058
▁ho	-8.93103
▁eh	-8.93209
▁murder	-8.93365
▁promised	-8.93657
▁accident	-8.93665
▁sergeant	-8.9367
▁situation	-8.93671
▁bobby	-8.9368
▁offer	-8.93765
▁moved	-8.93969
▁double	-8.94197
▁smoke	-8.94197
▁sky	-8.94223
ter	-8.94383
▁pal	-8.94449
▁fell	-8.94525
▁grand	-8.94604
▁starting	-8.94606
w	-8.94792
▁standing	-8.94798
▁grow	-8.94944
▁press	-8.95051
▁suit	-8.95105
▁chattering	-8.95118
▁outta	-8.95504
se	-8.95596
▁owe	-8.95606
▁normal	-8.95687
▁bird	-8.95718
▁forgive	-8.9572
▁race	-8.95799
▁babe	-8.95806
▁listening	-8.95943
ness	-8.95952
il	-8.96101
▁favor	-8.96327
▁afternoon	-8.9633
▁spent	-8.96333
▁wrote	-8.96335
▁apartment	-8.96339
▁upon	-8.9634
▁bigger	-8.96374
▁takes	-8.96428
▁cop	-8.96566
▁whose	-8.96814
▁gas	-8.96866
▁andy	-8.97029
▁weekend	-8.97071
▁mate	-8.97355
▁bought	-8.97414
▁summer	-8.97415
▁roger	-8.97623
▁brain	-8.97647
▁reach	-8.97873
▁river	-8.97958
▁bear	-8.98006
▁shed	-8.98131
▁group	-8.98182
▁position	-8.98183
▁bloody	-8.98364
▁lived	-8.98532
▁gasping	-8.98594
ling	-8.98609
▁camera	-8.98829
▁upset	-8.99063
▁emily	-8.99073
▁decided	-8.9919
▁carry	-8.99377
▁lve	-8.99455
▁lay	-8.99543
▁window	-8.99877
▁amy	-8.99898
rs	-8.99941
▁realize	-9.00045
▁foot	-9.00173
▁difference	-9.00177
▁raise	-9.00558
▁shoes	-9.00592
▁enemy	-9.00739
▁ricky	-9.00885
▁hall	-9.0116
ton	-9.0127
▁impossible	-9.01304
▁bathroom	-9.01305
▁goin	-9.01519
▁idiot	-9.01592
▁continue	-9.01593
▁agree	-9.0168
▁upstairs	-9.01872
▁shake	-9.01887
▁fit	-9.01911
▁interesting	-9.02029
▁guard	-9.02185
▁beer	-9.02255
▁island	-9.02443
▁worst	-9.02443
▁third	-9.02452
▁folks	-9.02822
▁holding	-9.02829
▁van	-9.02917
▁alarm	-9.0302
▁lake	-9.03087
▁certainly	-9.03141
▁arms	-9.0331
▁sake	-9.0335
▁doubt	-9.03643
▁ann	-9.0376
▁board	-9.03888
▁greatest	-9.03908
▁howd	-9.04043
▁wine	-9.04235
▁force	-9.04365
ar	-9.04376
▁card	-9.04418
▁girlfriend	-9.04539
▁prove	-9.04633
▁leg	-9.0475
▁north	-9.04761
▁alexander	-9.04762
▁heavily	-9.04762
▁choose	-9.04762
▁congratulations	-9.04764
▁nose	-9.0477
▁molly	-9.04773
▁keys	-9.04875
▁lights	-9.05052
▁da	-9.05109
▁ln	-9.05116
▁crime	-9.05131
▁partner	-9.0514
▁hole	-9.05304
▁gay	-9.05356
▁jail	-9.05361
▁lee	-9.05442
ry	-9.05462
ive	-9.0551
▁build	-9.05582
▁rocky	-9.05674
▁rules	-9.0576
▁tea	-9.05773
▁k	-9.05813
▁beach	-9.05886
▁tony	-9.05985
ne	-9.06001
▁pants	-9.06051
▁club	-9.06273
▁area	-9.06337
▁chicken	-9.06348
▁final	-9.06475
▁track	-9.06579
▁feels	-9.06596
▁store	-9.06972
▁nervous	-9.07025
▁park	-9.07054
▁spanish	-9.07137
▁bunch	-9.07139
▁writing	-9.0714
▁everywhere	-9.07145
▁annie	-9.07202
ous	-9.07314
▁commander	-9.07444
▁allow	-9.07493
▁breath	-9.07537
um	-9.07548
▁books	-9.07595
▁east	-9.07621
▁kevin	-9.07754
▁yi	-9.07758
la	-9.07879
▁carter	-9.07884
▁named	-9.07992
▁paint	-9.081
▁cops	-9.08147
▁judge	-9.0818
▁pray	-9.08215
▁private	-9.08345
▁twice	-9.08345
▁address	-9.08348
▁princess	-9.08375
▁wouldve	-9.08744
▁bud	-9.08897
▁monsieur	-9.08954
▁er	-9.08958
▁fathers	-9.09111
▁planet	-9.09113
▁stone	-9.09348
▁where	-9.09479
▁washington	-9.09569
▁charles	-9.09572
▁government	-9.10185
▁military	-9.10185
▁stopped	-9.10256
▁yelling	-9.10301
▁games	-9.10413
▁h	-9.10484
▁soft	-9.10698
▁fresh	-9.10785
▁sarah	-9.10808
▁using	-9.10907
▁picked	-9.11025
out	-9.11144
▁bastard	-9.11325
▁boyfriend	-9.11439
▁pa	-9.11727
▁joke	-9.11801
▁arrest	-9.11811
▁faith	-9.12044
▁apart	-9.1205
▁cost	-9.12387
▁killer	-9.12578
▁neither	-9.12693
▁neck	-9.12696
▁dancing	-9.12696
▁cash	-9.127
▁within	-9.12701
▁beeping	-9.12779
▁fred	-9.12792
▁correct	-9.13025
▁wild	-9.13136
▁professor	-9.1333
▁sophie	-9.13337
▁cake	-9.13355
▁visit	-9.13361
▁rings	-9.13391
▁dogs	-9.13404
▁size	-9.13453
▁extra	-9.13606
▁notice	-9.1379
▁guns	-9.13795
▁drunk	-9.13954
▁suck	-9.13965
▁awesome	-9.13971
▁cup	-9.14017
▁destroy	-9.14032
▁ed	-9.14211
▁starts	-9.14381
▁public	-9.14411
lo	-9.14468
▁blind	-9.14616
▁department	-9.14617
▁neil	-9.14621
▁chuckling	-9.14624
▁west	-9.15236
▁snow	-9.15264
▁larry	-9.15266
▁beauty	-9.15276
ment	-9.15325
lng	-9.15588
▁eating	-9.15597
▁aw	-9.15866
▁color	-9.15889
▁lieutenant	-9.15919
▁excited	-9.15932
▁interested	-9.16058
▁teacher	-9.16083
▁hat	-9.16209
▁taste	-9.16381
▁hero	-9.16399
▁bottle	-9.16563
▁jim	-9.16584
▁walter	-9.16601
▁begin	-9.16633
▁sweetie	-9.16665
▁test	-9.16669
▁bite	-9.16717
▁liked	-9.16765
▁reading	-9.16805
▁lou	-9.16948
▁chris	-9.17141
▁crew	-9.17247
▁lisa	-9.17254
▁d	-9.1771
▁angry	-9.17906
▁male	-9.17947
▁brown	-9.18076
▁stole	-9.18526
▁strength	-9.18577
▁chocolate	-9.18586
▁amen	-9.1861
▁heaven	-9.18617
▁corner	-9.18666
▁pack	-9.18676
▁steal	-9.18914
▁accept	-9.18977
▁ugh	-9.19254
th	-9.19307
▁bother	-9.19347
▁heh	-9.19366
▁ls	-9.19703
as	-9.19842
▁flying	-9.19925
▁weapon	-9.19997
▁brave	-9.20035
▁faster	-9.2025
▁dare	-9.20355
▁ding	-9.20411
▁albert	-9.20432
▁deserve	-9.2051
▁dirty	-9.20666
▁putting	-9.20753
▁tape	-9.20808
▁pie	-9.20913
▁a	-9.20914
at	-9.2099
▁bus	-9.2104
ty	-9.21116
▁survive	-9.21126
ul	-9.21211
▁shouldve	-9.21309
▁jason	-9.21313
▁pressure	-9.21317
▁skin	-9.21335
▁phil	-9.21401
▁fired	-9.21605
▁problems	-9.21612
co	-9.21768
▁german	-9.21875
▁learned	-9.2188
▁common	-9.22007
▁katie	-9.22022
▁whatd	-9.22036
et	-9.22123
▁price	-9.22128
▁aii	-9.22236
▁quickly	-9.2225
ee	-9.22392
ce	-9.22397
▁shame	-9.2246
▁feed	-9.22525
▁besides	-9.22591
▁loves	-9.22606
▁wondering	-9.22611
ma	-9.22687
▁harold	-9.22701
▁meat	-9.22707
▁huge	-9.22775
▁jet	-9.22787
▁breaking	-9.22848
▁calls	-9.22895
▁en	-9.22919
▁m	-9.23219
▁risk	-9.23269
▁language	-9.23406
▁emergency	-9.23406
▁tongue	-9.23407
▁beast	-9.23407
▁richard	-9.23412
▁treat	-9.2351
▁losing	-9.23551
▁legs	-9.23679
nt	-9.2373
▁support	-9.23743
▁staying	-9.23902
▁san	-9.23928
▁con	-9.24008
▁ugly	-9.24112
▁paige	-9.24115
▁taught	-9.24115
▁states	-9.24156
▁cook	-9.24244
▁animal	-9.24268
▁fill	-9.24286
▁balls	-9.24534
▁escape	-9.24647
▁scott	-9.24695
▁aah	-9.24866
▁conversation	-9.2499
▁closer	-9.25145
ia	-9.25179
▁figured	-9.25215
▁training	-9.25376
▁belong	-9.25464
▁swim	-9.25526
▁kitchen	-9.25549
▁ex	-9.25555
▁dumb	-9.25583
▁dean	-9.25584
▁nah	-9.256
▁dis	-9.26162
▁ought	-9.26202
▁mmmhmm	-9.26273
▁horn	-9.26348
▁file	-9.26358
▁decision	-9.26469
▁couldve	-9.26702
▁ends	-9.26821
▁karen	-9.27004
▁often	-9.27004
▁batman	-9.2703
▁gosh	-9.271
▁crap	-9.27102
sh	-9.27172
▁rule	-9.27624
▁bomb	-9.27701
▁marriage	-9.27738
▁thomas	-9.27739
▁stories	-9.27739
▁speed	-9.27753
▁chair	-9.27931
▁spirit	-9.27968
▁complete	-9.28183
▁blame	-9.28292
▁paris	-9.2843
▁crawl	-9.28479
▁especially	-9.28479
▁nowhere	-9.2848
▁teeth	-9.28484
▁shop	-9.28499
▁rise	-9.28531
▁obviously	-9.28549
ent	-9.28804
▁pictures	-9.28811
▁program	-9.28864
▁camp	-9.28881
▁whispers	-9.28942
▁remind	-9.29032
▁steve	-9.29167
▁village	-9.29212
▁built	-9.29225
▁center	-9.29264
▁exhales	-9.29401
▁united	-9.29434
▁action	-9.29522
▁rid	-9.29755
▁birds	-9.2986
▁admit	-9.2996
▁opportunity	-9.29977
▁beginning	-9.29978
▁greg	-9.29979
▁dig	-9.30155
▁type	-9.3029
▁locked	-9.30384
▁awful	-9.30644
▁shirt	-9.30735
▁belt	-9.30757
▁laughter	-9.30761
▁incredible	-9.30794
▁sight	-9.30824
▁v	-9.30878
ting	-9.30985
▁scene	-9.31015
▁per	-9.31191
▁match	-9.31205
▁speaks	-9.31373
▁ms	-9.31408
am	-9.31435
▁an	-9.31469
▁pardon	-9.31498
▁ridiculous	-9.31498
▁edward	-9.31501
▁sleeping	-9.31533
▁boom	-9.3155
▁opens	-9.31594
▁signal	-9.31636
▁travel	-9.31668
age	-9.31741
▁total	-9.32159
▁film	-9.32266
▁target	-9.32333
▁form	-9.32406
▁played	-9.32482
▁everythings	-9.32609
▁difficult	-9.32881
▁nuts	-9.32918
▁whether	-9.33043
▁hiding	-9.33166
ish	-9.33181
▁level	-9.33406
li	-9.33671
▁aunt	-9.33799
▁became	-9.33824
▁doyle	-9.33824
▁june	-9.33853
▁rent	-9.33904
▁decide	-9.34003
▁ghost	-9.34192
▁ted	-9.34198
▁hitler	-9.34213
▁orders	-9.34244
▁hook	-9.3441
▁lies	-9.34476
▁knife	-9.34611
▁truly	-9.34611
▁whoever	-9.34611
▁bottom	-9.34623
ian	-9.34643
▁closed	-9.34783
▁bridge	-9.34884
▁dressed	-9.35118
▁passed	-9.35177
go	-9.354
▁majesty	-9.35405
▁claire	-9.35405
▁robert	-9.35406
▁i	-9.35414
▁mia	-9.35464
▁papers	-9.35551
▁monster	-9.3582
▁russian	-9.35823
▁walked	-9.35923
▁plans	-9.35996
▁experience	-9.3602
▁ja	-9.36024
▁prince	-9.36152
▁bright	-9.36214
▁milk	-9.36235
▁ba	-9.36271
▁indistinctly	-9.3639
▁fingers	-9.36463
▁allowed	-9.3654
▁wood	-9.36612
▁guest	-9.36647
j	-9.36757
▁mention	-9.36778
▁clears	-9.36847
▁base	-9.36882
▁apologize	-9.37011
▁jungle	-9.37011
▁london	-9.37011
▁pregnant	-9.37012
▁gang	-9.37014
▁liar	-9.37016
▁stage	-9.37048
▁hill	-9.3705
▁smith	-9.37064
▁bella	-9.37246
id	-9.37248
▁joey	-9.37346
▁breakfast	-9.37824
▁excellent	-9.37824
▁maggie	-9.37824
▁credit	-9.37826
▁jane	-9.37844
▁due	-9.37949
▁who	-9.38083
▁apple	-9.38262
▁matthew	-9.3828
▁battle	-9.3829
▁loose	-9.38487
▁bruce	-9.38644
▁empty	-9.38644
▁nature	-9.38649
▁roof	-9.3865
▁gunfire	-9.38654
▁involved	-9.38666
▁weak	-9.39161
▁trick	-9.39182
▁lied	-9.39209
ant	-9.39232
▁waste	-9.3928
▁over	-9.39433
▁somethin	-9.39436
▁rumbling	-9.39471
▁dave	-9.39494
▁tower	-9.39508
▁se	-9.39798
▁angel	-9.39845
▁wa	-9.39946
▁dragon	-9.39996
tic	-9.40037
▁feelings	-9.40196
▁leader	-9.40223
▁bringing	-9.40231
▁kinda	-9.40247
▁beyond	-9.40304
▁bucks	-9.4034
▁willing	-9.40364
▁do	-9.40366
▁paying	-9.40482
▁mothers	-9.40518
▁soldiers	-9.40755
land	-9.40776
▁relationship	-9.40822
▁footsteps	-9.41144
▁desk	-9.41149
▁sold	-9.41168
▁robin	-9.41193
▁usually	-9.41221
▁hoping	-9.41333
▁screw	-9.41407
▁el	-9.41472
os	-9.41613
▁knocking	-9.41748
ass	-9.41806
▁pre	-9.41962
▁nope	-9.41992
▁plenty	-9.41992
▁zodiac	-9.41992
▁theyd	-9.41992
▁famous	-9.41998
▁handsome	-9.42007
▁gotten	-9.42226
▁br	-9.42368
▁pete	-9.42369
▁pig	-9.42476
▁noise	-9.42564
▁finger	-9.42575
▁beeps	-9.42676
▁martin	-9.42681
▁advice	-9.42846
▁detective	-9.42847
▁thatll	-9.4285
▁pro	-9.42901
▁pool	-9.42908
▁crash	-9.4307
▁stars	-9.43111
▁search	-9.43122
▁bless	-9.43173
▁note	-9.43289
▁shooting	-9.43383
▁devil	-9.43439
▁et	-9.4362
▁rome	-9.4368
▁brad	-9.43685
▁rachel	-9.43709
▁somehow	-9.43709
▁hadnt	-9.43709
▁sobbing	-9.43709
▁alice	-9.43717
▁khan	-9.43719
▁lonely	-9.43723
▁view	-9.43726
▁garden	-9.43728
▁honestly	-9.43895
▁bowl	-9.43926
▁account	-9.43977
▁heading	-9.44131
▁hanging	-9.44147
▁repeat	-9.44242
▁video	-9.44313
▁draw	-9.4454
▁female	-9.44578
▁indeed	-9.44578
▁elliott	-9.44586
▁announcer	-9.4461
▁whispering	-9.44667
▁lo	-9.44736
▁opening	-9.44737
me	-9.44761
▁doc	-9.4481
▁deeply	-9.44857
▁access	-9.44872
▁beg	-9.44874
ac	-9.44943
▁dale	-9.4508
ate	-9.45152
▁drinking	-9.45239
▁cream	-9.45328
▁large	-9.45389
▁goodness	-9.4539
▁nothin	-9.45422
▁sebastian	-9.45455
▁sugar	-9.45456
▁football	-9.45463
▁clock	-9.45465
▁medical	-9.45489
ta	-9.45571
▁turns	-9.45631
▁following	-9.4589
▁nurse	-9.46116
▁justice	-9.46341
▁zeus	-9.46346
▁weather	-9.46352
▁director	-9.46388
▁remain	-9.46431
▁butt	-9.46624
▁pan	-9.46819
▁showed	-9.46847
▁focus	-9.4698
▁strike	-9.47023
▁square	-9.47047
▁tie	-9.47228
▁brilliant	-9.47233
▁insane	-9.47233
▁dawn	-9.47237
▁farm	-9.47387
▁falling	-9.47474
▁cab	-9.47561
▁keeping	-9.4763
▁dads	-9.47842
▁text	-9.47923
▁collins	-9.48134
▁henry	-9.48137
▁memory	-9.48137
▁dramatic	-9.48138
▁jimmy	-9.48143
▁hardly	-9.48153
and	-9.48319
▁witness	-9.4873
▁alex	-9.49041
▁asleep	-9.49043
▁byebye	-9.49043
▁monday	-9.49045
▁immediately	-9.49078
▁golden	-9.49084
▁scream	-9.4922
▁serve	-9.495
▁anna	-9.49547
▁block	-9.4956
you	-9.4958
▁pat	-9.49691
▁bat	-9.49775
▁talkin	-9.49833
▁freak	-9.49914
▁crack	-9.49937
▁project	-9.4994
▁jerk	-9.49956
▁tour	-9.49959
▁arthur	-9.49961
▁evidence	-9.49961
▁innocent	-9.49961
▁duty	-9.49968
▁comfortable	-9.49969
▁silly	-9.49976
▁turning	-9.49991
▁creaking	-9.49996
bo	-9.50075
▁lots	-9.50091
▁row	-9.50179
▁bow	-9.50255
▁pretend	-9.50296
▁cheers	-9.50313
▁painting	-9.50335
▁champion	-9.5074
▁freedom	-9.50887
▁texas	-9.50888
▁scoffs	-9.5089
▁guilty	-9.50912
▁grandma	-9.51186
▁map	-9.51209
▁pet	-9.51337
▁study	-9.51509
time	-9.51536
▁doll	-9.51565
ine	-9.51608
▁saving	-9.51823
▁held	-9.51823
▁written	-9.51831
▁zoey	-9.51859
▁tall	-9.51929
▁harder	-9.51942
em	-9.52121
▁piss	-9.52193
▁surprised	-9.52197
ah	-9.52311
▁pen	-9.52401
ts	-9.52475
▁plays	-9.52517
▁link	-9.52601
▁helped	-9.52617
▁weapons	-9.52676
▁clicks	-9.52771
▁plus	-9.52773
▁pair	-9.52776
▁pulled	-9.52789
▁thinks	-9.52815
ln	-9.52893
▁vi	-9.52898
▁noticed	-9.53032
▁punch	-9.53073
▁dan	-9.53406
▁settle	-9.53525
▁helping	-9.536
▁purpose	-9.53619
▁sheriff	-9.53623
▁genius	-9.53659
▁split	-9.53709
▁gilbert	-9.53717
▁pinocchio	-9.53717
▁whirring	-9.53717
▁biggest	-9.53717
▁afford	-9.53717
▁barbara	-9.53718
▁silence	-9.53719
▁local	-9.5372
▁heads	-9.53746
ted	-9.53855
▁suggest	-9.54071
▁out	-9.54205
ga	-9.54325
▁sisters	-9.54431
▁tickets	-9.54676
▁katniss	-9.54678
▁ocean	-9.54678
▁eliza	-9.54679
▁storm	-9.54694
▁closes	-9.54816
▁mar	-9.54849
▁warning	-9.54868
▁buck	-9.54975
▁matt	-9.54976
▁unit	-9.55212
▁main	-9.55307
▁headed	-9.55397
▁co	-9.55438
▁photo	-9.55621
▁toast	-9.55651
▁tucker	-9.55703
▁jacket	-9.55731
▁pieces	-9.55766
do	-9.55769
▁numbers	-9.55805
▁wash	-9.56065
▁william	-9.56124
▁victor	-9.56177
da	-9.56311
▁animals	-9.56418
▁checked	-9.56476
▁speech	-9.56558
▁records	-9.56559
▁percent	-9.56622
▁thunder	-9.56629
▁friday	-9.5663
▁bread	-9.56632
▁tank	-9.5672
▁prepared	-9.56789
▁heat	-9.56859
▁hearing	-9.56957
▁tear	-9.56977
line	-9.57274
▁twenty	-9.57465
▁pounds	-9.57567
▁regret	-9.57602
▁elizabeth	-9.5762
▁bodies	-9.57623
▁ticket	-9.57626
▁fbi	-9.57635
▁yells	-9.57767
▁hug	-9.57873
the	-9.5836
▁swing	-9.58375
▁acting	-9.58419
▁lips	-9.58444
▁hub	-9.58526
▁fought	-9.5862
▁launch	-9.5862
▁peabody	-9.5862
▁patient	-9.58636
▁gate	-9.58653
▁invited	-9.58739
▁so	-9.58832
▁letting	-9.58953
▁sexy	-9.58993
ure	-9.59028
men	-9.59102
▁cars	-9.59231
im	-9.59265
▁tires	-9.59307
▁suspect	-9.59399
▁prefer	-9.59622
▁england	-9.5963
▁however	-9.5963
▁threw	-9.5963
▁otherwise	-9.5963
▁bravo	-9.59632
▁rough	-9.59633
▁minister	-9.59634
▁bike	-9.59638
▁apparently	-9.59639
▁airport	-9.59641
▁fake	-9.59662
▁path	-9.59739
▁metal	-9.59878
▁sh	-9.59884
▁practice	-9.60469
▁spoke	-9.60592
▁susan	-9.6064
▁california	-9.6065
▁davis	-9.6065
▁dylan	-9.6065
▁barely	-9.60671
▁itd	-9.60696
▁forest	-9.60696
▁wet	-9.60697
▁mountain	-9.60711
▁post	-9.60765
▁madame	-9.60773
▁lower	-9.61171
▁nobodys	-9.61225
ize	-9.61257
▁load	-9.61464
▁dry	-9.61496
▁caesar	-9.61681
▁vegas	-9.61681
▁brian	-9.61683
▁comin	-9.61689
▁terry	-9.61698
▁penny	-9.61702
▁france	-9.61704
▁bay	-9.61863
be	-9.61883
▁buzzing	-9.61938
▁switch	-9.62074
vi	-9.62085
▁fella	-9.62165
▁clearly	-9.62243
▁siren	-9.62276
▁oil	-9.6232
▁gettin	-9.62328
▁spread	-9.62389
▁di	-9.62519
▁assume	-9.62539
▁arnie	-9.62723
▁possibly	-9.62723
▁spring	-9.62726
▁onto	-9.62732
▁troy	-9.62764
▁mum	-9.62869
▁player	-9.62908
▁raya	-9.62924
▁career	-9.63019
▁ro	-9.63094
▁letters	-9.6312
▁salt	-9.6314
▁lift	-9.63191
▁stops	-9.63267
un	-9.63334
▁doctors	-9.63339
ut	-9.63475
▁mmhm	-9.63747
▁mirror	-9.63775
▁earlier	-9.6378
▁sunday	-9.63784
per	-9.63861
▁condition	-9.63885
▁priest	-9.63908
▁hercules	-9.63916
▁loss	-9.63965
▁prime	-9.64013
▁horses	-9.6407
▁fan	-9.64119
▁consider	-9.64228
▁le	-9.64333
▁believed	-9.64381
▁climb	-9.64511
▁ab	-9.64605
▁doors	-9.64638
▁introduce	-9.64655
▁saturday	-9.64839
▁fantastic	-9.6484
▁romantic	-9.64843
▁piano	-9.64844
▁cheese	-9.64846
▁mister	-9.64881
▁chest	-9.649
▁weight	-9.64931
▁whore	-9.64932
▁cousin	-9.64966
▁royal	-9.64973
▁fellow	-9.6499
▁created	-9.65007
▁nearly	-9.65071
ier	-9.65249
▁march	-9.65605
▁older	-9.65713
off	-9.65804
▁someday	-9.65915
▁whistling	-9.65915
▁cage	-9.65992
▁cia	-9.66008
▁add	-9.6605
▁throwing	-9.66075
▁mayor	-9.66277
▁streets	-9.66334
▁sy	-9.66342
ary	-9.66503
▁t	-9.66506
▁expected	-9.6659
▁deliver	-9.66614
▁foreign	-9.66842
▁regular	-9.66889
▁exciting	-9.67001
▁simply	-9.67001
▁whenever	-9.67001
▁energy	-9.67015
▁sword	-9.67039
▁ad	-9.67246
▁destroyed	-9.67429
▁cards	-9.67497
▁fate	-9.67539
▁cos	-9.67765
▁shower	-9.67802
ad	-9.67878
▁chuck	-9.67924
▁slept	-9.681
▁whimpering	-9.681
▁eddie	-9.68101
▁daisy	-9.68101
▁midnight	-9.68101
▁danny	-9.68104
▁whyd	-9.68118
▁sacrifice	-9.68118
▁trial	-9.68124
▁professional	-9.68152
▁safety	-9.68158
▁pure	-9.683
▁circle	-9.683
▁explosion	-9.68309
ck	-9.68313
▁rat	-9.68442
▁o	-9.68468
▁enter	-9.68646
▁rush	-9.68836
▁powers	-9.68871
▁desert	-9.6895
▁blows	-9.6898
one	-9.69073
▁joy	-9.69115
▁universe	-9.69211
▁ginger	-9.69214
▁coward	-9.69218
▁horrible	-9.69218
▁gentleman	-9.69235
▁chosen	-9.69263
hrer	-9.69265
▁artist	-9.69319
▁failed	-9.69388
▁tense	-9.69395
▁trap	-9.69511
▁flowers	-9.69593
▁nation	-9.6961
▁bone	-9.69642
▁arrested	-9.69659
▁pot	-9.69755
▁fixed	-9.69953
▁z	-9.7001
▁students	-9.70013
ping	-9.70132
▁release	-9.70155
▁cheap	-9.70211
▁signed	-9.70272
de	-9.70294
▁tip	-9.70322
▁district	-9.70335
▁downstairs	-9.70335
▁value	-9.70339
▁yellow	-9.70339
▁fancy	-9.7034
▁dropped	-9.70353
▁steady	-9.70358
▁suddenly	-9.70413
▁arrived	-9.70441
▁approaching	-9.7056
▁nancy	-9.70566
▁robot	-9.70594
▁picking	-9.71196
▁discuss	-9.71197
ig	-9.71277
▁celebrate	-9.71471
▁restaurant	-9.71471
▁society	-9.71471
▁pooh	-9.71476
▁glory	-9.71483
▁connection	-9.71484
▁data	-9.71505
po	-9.71515
▁danger	-9.71556
▁powerful	-9.71556
▁screeching	-9.7159
son	-9.71669
▁monkey	-9.717
▁tim	-9.71884
ey	-9.72053
▁perfectly	-9.72078
▁sin	-9.72083
▁reporter	-9.72116
▁higher	-9.72194
▁prepare	-9.7244
▁witch	-9.72575
ca	-9.72587
▁ear	-9.72603
▁be	-9.72618
▁applause	-9.72621
▁jasmine	-9.72621
▁vanessa	-9.72621
▁wilson	-9.72623
▁medicine	-9.72624
▁movies	-9.72627
▁grandpa	-9.72631
▁changing	-9.72653
▁sal	-9.72713
▁flat	-9.72915
▁student	-9.72952
▁button	-9.7296
ii	-9.73247
▁driver	-9.73277
▁ld	-9.73404
▁lately	-9.73407
les	-9.73407
▁matters	-9.73455
▁ears	-9.73461
▁bones	-9.73566
▁recognize	-9.73599
▁create	-9.73607
he	-9.73618
▁freeze	-9.73664
▁obvious	-9.73675
▁trade	-9.73677
▁natural	-9.73707
▁bloom	-9.73731
▁knight	-9.73784
▁british	-9.73784
▁georgia	-9.73784
▁senator	-9.73784
▁location	-9.73786
▁boring	-9.73787
▁aware	-9.73788
▁deck	-9.73835
▁wheel	-9.7393
▁subtitles	-9.73962
▁giant	-9.74118
▁ate	-9.74222
▁stayed	-9.74241
ance	-9.74269
▁burr	-9.74286
▁writer	-9.74375
led	-9.74638
▁mi	-9.74669
▁interest	-9.74747
▁self	-9.74844
▁ruth	-9.74862
▁trees	-9.74908
▁legal	-9.74944
ai	-9.74951
▁august	-9.7496
▁defense	-9.7496
▁garbage	-9.7496
▁magazine	-9.7496
▁ronnie	-9.74961
▁permission	-9.74961
▁austin	-9.74961
▁planning	-9.74962
▁crown	-9.74984
▁aye	-9.74999
▁coat	-9.75052
▁grown	-9.75119
mo	-9.75131
▁subject	-9.75321
▁raised	-9.75344
▁daughters	-9.75354
▁everybodys	-9.75408
▁po	-9.7543
▁gives	-9.75544
▁rip	-9.75678
ot	-9.7568
▁brains	-9.75711
ver	-9.75719
▁bust	-9.75727
▁borrow	-9.75895
▁usual	-9.76043
▁drove	-9.76046
▁cares	-9.76101
▁disease	-9.76151
▁hamilton	-9.76151
▁mystery	-9.76151
▁necessary	-9.76151
▁rebecca	-9.76151
▁stomach	-9.76151
▁tuesday	-9.76151
▁firing	-9.76154
▁bruno	-9.76163
▁crackling	-9.76167
▁complicated	-9.76169
▁castle	-9.76184
▁client	-9.76559
▁murdered	-9.76726
▁watched	-9.76726
▁monsters	-9.76731
▁staring	-9.77062
▁market	-9.77067
▁secure	-9.77174
▁dies	-9.77195
▁chill	-9.77246
ol	-9.77258
▁chinese	-9.77355
▁jealous	-9.77355
▁rupert	-9.77355
▁science	-9.77355
▁blew	-9.77357
▁therell	-9.77363
▁rare	-9.77381
▁tiny	-9.77417
▁laid	-9.77426
▁shape	-9.77523
ha	-9.77536
ated	-9.77667
▁contract	-9.77707
▁agreed	-9.77743
▁pocket	-9.77777
▁shoulder	-9.77813
▁drugs	-9.7788
▁hunter	-9.77884
▁guests	-9.77916
▁sue	-9.77946
▁route	-9.77947
▁demon	-9.78105
▁goal	-9.78113
ow	-9.78223
▁woods	-9.78232
head	-9.78363
▁damage	-9.78395
▁w	-9.784
▁health	-9.78448
ng	-9.7848
▁fellas	-9.78492
▁slave	-9.7857
▁hank	-9.78573
▁social	-9.78575
▁taylor	-9.78575
▁whimpers	-9.78575
▁zone	-9.78582
▁property	-9.78584
▁wherever	-9.78586
▁bedroom	-9.78602
▁tech	-9.78609
▁barking	-9.78669
▁victory	-9.78742
▁all	-9.78758
ho	-9.78961
ial	-9.79067
▁dollar	-9.79108
ized	-9.79255
▁he	-9.79561
▁expecting	-9.79574
▁slip	-9.79738
▁ye	-9.79753
▁familiar	-9.79809
▁mademoiselle	-9.79809
▁memories	-9.79811
▁andrew	-9.79811
▁assistant	-9.79813
▁style	-9.79828
▁patch	-9.79855
▁daniel	-9.79857
▁wise	-9.79858
▁disgusting	-9.7986
▁jackson	-9.79883
▁chanting	-9.79891
▁tune	-9.79909
▁concerned	-9.80007
▁clicking	-9.80015
▁growls	-9.80057
▁bugs	-9.80109
ba	-9.80122
▁manage	-9.80158
▁shows	-9.80176
▁criminal	-9.80291
▁jackie	-9.80327
▁stock	-9.80342
lic	-9.80346
▁keeps	-9.8038
▁guards	-9.80397
by	-9.80453
▁mac	-9.80689
▁seemed	-9.80939
ct	-9.81043
▁courage	-9.81049
▁tunnel	-9.81059
▁blaring	-9.8106
▁funeral	-9.8106
▁aaron	-9.81061
▁grew	-9.81068
▁mail	-9.81095
▁backup	-9.81104
▁union	-9.81155
▁received	-9.81177
▁manager	-9.81179
▁bleeding	-9.81264
▁fi	-9.81379
▁wire	-9.81424
▁jobs	-9.81453
om	-9.81475
▁ape	-9.8151
▁operation	-9.8153
ps	-9.8167
▁sand	-9.81674
op	-9.81683
▁sending	-9.81787
▁du	-9.81815
ge	-9.81837
▁hurts	-9.81913
▁proper	-9.82276
▁harm	-9.82316
▁chirping	-9.82325
▁miracle	-9.82325
▁opinion	-9.82325
▁pizza	-9.82325
▁central	-9.82325
▁fortune	-9.82325
▁firm	-9.82325
▁birth	-9.82326
▁steel	-9.82326
▁fruit	-9.82331
▁vada	-9.82335
▁brandon	-9.82338
▁plain	-9.82362
▁beating	-9.82371
▁growling	-9.82396
▁hired	-9.82571
▁mo	-9.82603
down	-9.82605
▁bang	-9.82614
ally	-9.8274
▁bullet	-9.82807
▁checking	-9.82831
▁kit	-9.82862
▁falls	-9.83162
▁kicked	-9.83185
▁thin	-9.83209
▁ra	-9.83315
mp	-9.83336
que	-9.83348
▁lab	-9.8335
▁schedule	-9.83424
▁spare	-9.83433
▁chose	-9.83557
▁brendan	-9.83607
▁unbelievable	-9.83608
▁foreman	-9.83618
▁moms	-9.83627
▁winter	-9.83677
▁glasses	-9.83749
▁towards	-9.83825
▁germany	-9.83855
▁exist	-9.83944
▁pissed	-9.83952
▁scare	-9.84081
▁ar	-9.8412
▁finding	-9.84176
▁tap	-9.84363
▁marty	-9.84425
▁cr	-9.84573
▁channel	-9.84906
▁easier	-9.84906
▁junior	-9.84906
▁understood	-9.84906
▁robyn	-9.84906
▁moses	-9.84907
▁zero	-9.84912
back	-9.84924
▁ponyo	-9.84929
▁scary	-9.84987
▁honking	-9.84998
▁exclaims	-9.85107
▁lion	-9.85209
▁filled	-9.85369
▁wings	-9.85415
kin	-9.85466
io	-9.85537
▁victim	-9.85544
▁victims	-9.85579
▁mighty	-9.85615
▁buzz	-9.85721
▁lines	-9.85871
▁talent	-9.85971
▁loser	-9.86047
▁ideas	-9.86087
▁prom	-9.86093
▁original	-9.8612
▁ordered	-9.86164
▁maid	-9.86201
▁babies	-9.86222
▁martha	-9.86222
▁literally	-9.86222
▁antonio	-9.86223
▁elevator	-9.86224
▁coast	-9.86225
▁und	-9.86234
▁jones	-9.86243
▁clark	-9.86251
▁unfortunately	-9.86265
▁ella	-9.86273
▁reality	-9.86471
▁pee	-9.86769
▁riding	-9.86801
▁opened	-9.86823
▁buying	-9.86901
ster	-9.87027
▁awake	-9.87036
house	-9.87294
▁event	-9.87429
▁responsibility	-9.87555
▁fifty	-9.87556
▁insurance	-9.87556
▁coach	-9.87558
▁pride	-9.87558
▁peeta	-9.87563
▁mercy	-9.87587
▁hm	-9.87815
▁bull	-9.8783
▁players	-9.87849
▁coughs	-9.88036
▁pin	-9.88081
▁vote	-9.88158
▁mask	-9.88251
▁winner	-9.88263
▁yard	-9.88323
▁si	-9.88641
▁thousands	-9.88733
▁madam	-9.88787
▁exact	-9.88798
▁sexual	-9.88802
▁drag	-9.88863
▁gorgeous	-9.88907
▁helicopter	-9.88907
▁lewis	-9.88907
▁morgan	-9.88907
▁suicide	-9.88907
▁oclock	-9.88907
▁turkish	-9.88908
▁joking	-9.8891
▁decent	-9.88913
▁staff	-9.88917
▁woke	-9.88921
▁basement	-9.88925
▁confused	-9.88928
▁pussy	-9.88938
▁sisu	-9.88967
▁simon	-9.89017
▁national	-9.89044
tin	-9.89087
▁bo	-9.89143
▁kings	-9.89148
▁forced	-9.89329
▁parts	-9.89434
▁mikey	-9.89492
▁plate	-9.89685
▁ruin	-9.89713
▁chain	-9.89717
▁growing	-9.89745
▁sharp	-9.90138
▁challenge	-9.90208
▁dust	-9.90242
▁balboa	-9.90276
▁cancer	-9.90276
▁christopher	-9.90276
▁jennifer	-9.90276
▁viktor	-9.90276
▁chicago	-9.90278
▁cole	-9.9028
▁prick	-9.9028
▁nasty	-9.90304
▁naked	-9.90305
▁thatd	-9.90321
▁leaves	-9.90503
▁touched	-9.90514
▁tone	-9.9055
lin	-9.90857
▁bath	-9.90911
▁affair	-9.91044
▁quarter	-9.91045
▁shadow	-9.91056
▁drug	-9.91071
▁gunshot	-9.91071
▁gather	-9.91073
▁showing	-9.91155
▁sooner	-9.91326
▁jj	-9.9146
▁kissed	-9.915
▁alpha	-9.91665
▁flesh	-9.91665
▁japanese	-9.91665
▁palace	-9.91665
▁television	-9.91665
▁telephone	-9.91666
▁jenny	-9.91666
▁toilet	-9.91668
▁jeez	-9.91668
▁atom	-9.91669
▁jules	-9.91669
▁stood	-9.91671
▁duck	-9.91674
▁cabin	-9.91681
▁package	-9.91684
▁mount	-9.91693
▁bride	-9.91693
▁panic	-9.91708
▁ron	-9.9171
▁shine	-9.91733
▁ca	-9.91883
▁sub	-9.91973
▁personally	-9.92027
▁quietly	-9.92177
ger	-9.92259
ler	-9.92318
▁songs	-9.92399
▁seal	-9.9243
▁sometime	-9.92498
▁slaves	-9.92545
▁rob	-9.92731
▁cow	-9.92734
di	-9.92794
▁refuse	-9.9289
▁process	-9.92895
▁character	-9.92945
▁walls	-9.93018
▁adventure	-9.93037
▁clamoring	-9.93074
▁illegal	-9.93074
▁including	-9.93074
▁material	-9.93074
▁practical	-9.93074
▁research	-9.93074
▁someplace	-9.93074
▁kingdom	-9.93074
▁vincent	-9.93075
▁anger	-9.93083
▁several	-9.93086
▁desire	-9.93105
▁sat	-9.93196
▁lucas	-9.93227
▁ended	-9.93284
▁knees	-9.93354
▁shouts	-9.93435
▁grave	-9.93461
▁pulling	-9.93551
▁wing	-9.93815
▁official	-9.9382
▁drinks	-9.93847
▁sec	-9.93884
▁sweat	-9.93904
▁alien	-9.93939
▁ahh	-9.94001
▁aim	-9.94127
▁spell	-9.94166
▁attempt	-9.94243
▁rescue	-9.94315
▁louis	-9.94384
▁stig	-9.94486
▁according	-9.94502
▁champagne	-9.94502
▁example	-9.94502
▁explosiveskull	-9.94502
▁nobby	-9.94502
▁silver	-9.94504
▁amount	-9.94504
▁capable	-9.94528
▁protection	-9.94561
▁chef	-9.94612
▁nat	-9.94612
▁corn	-9.94621
▁rig	-9.94625
▁model	-9.9474
▁edge	-9.94761
▁someones	-9.94819
▁served	-9.94823
▁cheer	-9.94961
▁x	-9.94969
▁stronger	-9.95116
▁pm	-9.95166
▁of	-9.95243
▁shock	-9.95365
▁blade	-9.95391
▁knowing	-9.95398
▁steps	-9.95426
ball	-9.95465
▁stranger	-9.9563
▁no	-9.95766
▁among	-9.95938
▁suspense	-9.95951
▁although	-9.95952
▁closing	-9.95952
▁progress	-9.95952
▁temple	-9.95952
▁terrific	-9.95952
▁bunny	-9.95953
▁basically	-9.95955
▁section	-9.95977
▁statement	-9.95996
▁hip	-9.96027
▁lack	-9.96165
▁porter	-9.96184
▁butter	-9.96226
▁baron	-9.9634
▁hurting	-9.96366
▁tied	-9.96405
▁treated	-9.96471
▁hunt	-9.96628
▁bug	-9.96822
▁tan	-9.96861
▁everyones	-9.96872
▁fighter	-9.96915
▁lesson	-9.97021
▁sa	-9.97091
▁boots	-9.97106
▁fl	-9.97162
▁trigger	-9.97163
▁provide	-9.973
▁moments	-9.97361
▁ashamed	-9.97422
▁attorney	-9.97422
▁enemies	-9.97422
▁eventually	-9.97422
▁journey	-9.97422
▁investigation	-9.97426
▁positive	-9.97429
▁kathy	-9.97437
▁sentence	-9.97437
▁winning	-9.97443
▁proof	-9.97454
▁oliver	-9.97477
▁to	-9.97527
▁roaring	-9.97558
▁janet	-9.97567
lt	-9.9757
▁lean	-9.97627
ir	-9.97657
ke	-9.97674
▁hearts	-9.97692
▁defend	-9.9772
▁wha	-9.97942
▁ways	-9.98008
▁interview	-9.9813
▁sp	-9.98255
ci	-9.9839
▁pilot	-9.98405
▁member	-9.98426
way	-9.98456
▁burning	-9.98476
▁flower	-9.98537
▁cast	-9.98553
▁up	-9.98628
▁curse	-9.98738
▁heavens	-9.98837
▁doug	-9.98895
▁expert	-9.98912
▁distant	-9.98915
▁guitar	-9.98915
▁license	-9.98915
▁smoking	-9.98915
▁lucy	-9.98915
▁julia	-9.98915
▁alert	-9.98916
▁buried	-9.98916
▁hammer	-9.98918
▁francisco	-9.9892
▁online	-9.9892
▁began	-9.98941
▁milo	-9.98945
▁cameron	-9.98962
▁howling	-9.98978
▁engaged	-9.98985
▁bury	-9.98997
▁barn	-9.99069
▁healthy	-9.99083
▁eggs	-9.9914
▁followed	-9.99142
▁slowly	-9.99457
▁bee	-9.99469
▁tears	-9.99568
▁shift	-9.99592
▁appear	-9.99682
▁ne	-9.99775
▁attacked	-9.99784
▁avoid	-9.99913
▁appointment	-9.99918
▁vehicle	-9.99921
▁whistle	-9.99955
▁exit	-9.99961
▁younger	-10.0001
ip	-10.0002
▁officers	-10.0006
▁proceed	-10.0009
▁covered	-10.0015
▁lang	-10.0022
▁invite	-10.0025
▁je	-10.0025
away	-10.0026
▁mental	-10.0032
▁grade	-10.0036
▁surrender	-10.0043
▁knowledge	-10.0043
▁robbie	-10.0043
▁knox	-10.0043
▁juice	-10.0043
▁donna	-10.0043
▁trash	-10.0043
▁federal	-10.0044
▁failure	-10.0044
▁nights	-10.0044
▁santa	-10.0045
▁gena	-10.0046
▁becky	-10.0046
▁rude	-10.0047
▁darkness	-10.0049
▁uhoh	-10.0052
▁wide	-10.0061
pa	-10.0061
▁slr	-10.0067
▁hop	-10.007
▁ruined	-10.0071
▁tail	-10.0074
der	-10.0096
▁realized	-10.0104
▁issue	-10.0133
▁page	-10.0148
▁vision	-10.0148
▁clue	-10.0149
▁files	-10.0156
▁sneak	-10.0164
▁cap	-10.0176
▁murderer	-10.0184
▁pink	-10.0186
▁success	-10.0193
▁kaulder	-10.0197
▁responsible	-10.0197
▁smooth	-10.0197
▁stairs	-10.0197
▁flik	-10.0197
▁orange	-10.0197
▁candy	-10.0197
▁vacation	-10.0197
▁navy	-10.0197
▁legend	-10.0197
▁screen	-10.0197
▁gentle	-10.0198
▁static	-10.0198
▁teddy	-10.0198
▁abby	-10.0198
▁shopping	-10.0198
▁bernie	-10.0199
▁warren	-10.0199
▁benny	-10.0199
▁committed	-10.0201
▁extremely	-10.0202
▁yearold	-10.0203
▁betty	-10.0205
▁gum	-10.0206
▁bout	-10.0207
▁fourth	-10.0209
▁former	-10.0221
ism	-10.0228
▁lookin	-10.0232
▁va	-10.0233
▁nicky	-10.0257
▁dump	-10.0295
▁chick	-10.0308
▁recording	-10.0324
▁poison	-10.0326
red	-10.0326
▁mile	-10.0329
▁guarantee	-10.0334
▁bon	-10.0337
▁passing	-10.0342
▁sudden	-10.0342
▁range	-10.0345
her	-10.0347
▁spin	-10.0347
ped	-10.0348
▁humming	-10.0353
▁automated	-10.0353
▁technology	-10.0353
▁augie	-10.0353
over	-10.0353
▁dottie	-10.0353
▁virus	-10.0353
▁stella	-10.0354
▁clay	-10.0355
▁treatment	-10.0355
▁loving	-10.0356
▁secretary	-10.0356
▁miller	-10.0366
▁drover	-10.0371
▁friendly	-10.0386
▁cock	-10.0388
ard	-10.0394
▁non	-10.0402
ens	-10.0404
▁concern	-10.041
▁fail	-10.041
▁mindy	-10.042
▁burned	-10.0439
▁shout	-10.0439
▁trained	-10.0449
▁ace	-10.0465
▁leo	-10.0472
▁sport	-10.0473
▁closet	-10.0478
▁plant	-10.0478
▁assholes	-10.0495
▁gil	-10.0495
▁guide	-10.0496
fi	-10.051
▁thirty	-10.0511
▁wrap	-10.0512
▁paradise	-10.0512
▁senior	-10.0512
▁violet	-10.0512
▁presence	-10.0512
▁available	-10.0512
▁honour	-10.0512
▁kim	-10.0512
▁russell	-10.0512
▁fuel	-10.0513
oo	-10.0516
▁photos	-10.0517
▁recently	-10.0518
▁hood	-10.0521
▁discovered	-10.0532
▁suffering	-10.0542
▁woo	-10.0549
▁cal	-10.0558
▁whistles	-10.0562
▁hon	-10.0567
▁threat	-10.0622
▁jean	-10.0635
ship	-10.0639
▁cookie	-10.0641
▁desperate	-10.0662
▁answers	-10.0663
▁express	-10.0672
▁flash	-10.0673
▁brush	-10.0673
▁clever	-10.0673
▁jersey	-10.0673
▁traffic	-10.0673
▁ursula	-10.0673
▁expensive	-10.0673
▁community	-10.0673
▁flag	-10.0677
▁sucks	-10.0687
▁stolen	-10.0687
vo	-10.0695
▁mustve	-10.0713
▁hire	-10.0714
▁screwed	-10.0722
▁comet	-10.0737
▁reached	-10.0748
▁windows	-10.0763
▁approach	-10.0772
▁meaning	-10.0776
▁smash	-10.0779
ade	-10.078
▁score	-10.0783
▁rolling	-10.0783
▁mini	-10.0792
▁belongs	-10.0796
▁article	-10.0799
▁border	-10.08
▁blowing	-10.0803
▁rope	-10.0808
▁particular	-10.0826
▁mood	-10.0833
▁apollo	-10.0837
▁fifteen	-10.0837
▁negative	-10.0837
▁sosuke	-10.0837
▁gordon	-10.0837
▁wailing	-10.0837
▁adela	-10.0837
▁laura	-10.0837
▁todd	-10.0837
▁potential	-10.0837
▁shining	-10.0837
▁forgotten	-10.0838
side	-10.0838
▁gee	-10.0843
▁title	-10.0846
▁mel	-10.0847
▁sally	-10.0856
▁behave	-10.0859
▁troops	-10.0873
▁wipe	-10.0897
▁jo	-10.0898
▁knee	-10.0901
▁thy	-10.0902
hand	-10.0907
▁plates	-10.0912
▁stealing	-10.0918
wood	-10.0933
▁cameras	-10.0937
▁design	-10.0938
bi	-10.0941
min	-10.0943
▁disappear	-10.0944
▁direct	-10.0948
▁val	-10.0954
▁warn	-10.0968
▁scratch	-10.097
▁creature	-10.0971
▁scout	-10.0972
▁confirm	-10.0977
▁belle	-10.0983
va	-10.0985
▁remove	-10.0989
▁jacob	-10.0995
▁earl	-10.0996
▁rub	-10.1
▁education	-10.1004
▁soccer	-10.1004
▁violence	-10.1004
▁boston	-10.1004
▁hidden	-10.1004
▁sniffles	-10.1004
▁cunt	-10.1004
▁gross	-10.1005
▁kitty	-10.1005
▁stake	-10.1005
▁mon	-10.1006
▁flies	-10.1006
▁fox	-10.1006
▁ana	-10.1008
▁swimming	-10.1008
▁standard	-10.1009
▁johnson	-10.101
▁highness	-10.1015
▁kissing	-10.1028
▁sc	-10.104
▁lily	-10.1042
▁brings	-10.1049
▁members	-10.1059
▁fairy	-10.106
▁signs	-10.107
▁snap	-10.1088
ni	-10.109
▁bullets	-10.1098
▁ig	-10.1102
▁carrying	-10.1103
▁grunt	-10.1113
▁pit	-10.1117
▁rooms	-10.1127
▁los	-10.1133
▁bot	-10.1135
▁selling	-10.1136
▁bart	-10.1138
end	-10.1138
▁emma	-10.1141
▁toward	-10.1145
▁season	-10.1146
▁connect	-10.1147
ious	-10.1147
▁secrets	-10.1155
▁smells	-10.116
▁adrian	-10.1166
▁u	-10.1167
▁rhythm	-10.1168
▁squad	-10.1173
▁fabulous	-10.1173
▁geppetto	-10.1173
▁nonsense	-10.1173
▁mostly	-10.1173
▁capitol	-10.1173
▁muffled	-10.1173
▁trapped	-10.1174
▁josh	-10.1174
▁bounce	-10.1175
▁gem	-10.1178
▁creepy	-10.1181
▁coughing	-10.1183
▁spoken	-10.1184
▁hail	-10.1187
▁fallen	-10.1187
▁worlds	-10.1191
▁tuk	-10.1194
▁ty	-10.1196
▁maria	-10.1198
ley	-10.1202
▁eaten	-10.1202
▁thoughts	-10.1221
ang	-10.1231
▁bend	-10.1239
▁facts	-10.1256
▁tits	-10.1257
▁bi	-10.1264
▁bum	-10.1276
▁suffer	-10.1287
▁experiment	-10.1296
▁virgin	-10.1309
▁walks	-10.131
▁dot	-10.1312
▁pump	-10.1312
▁yell	-10.1316
▁egg	-10.132
▁services	-10.132
▁separate	-10.1327
▁measure	-10.1338
▁pearl	-10.1339
▁champ	-10.1344
▁resist	-10.1345
▁empire	-10.1346
▁lloyd	-10.1346
▁mexico	-10.1346
▁nigger	-10.1346
▁satisfied	-10.1346
▁spartacus	-10.1346
▁wendy	-10.1346
▁ease	-10.1346
▁conference	-10.1346
▁studio	-10.1346
▁lonnie	-10.1346
▁misery	-10.1346
▁broadway	-10.1346
▁linda	-10.1346
▁vow	-10.1348
▁review	-10.1348
▁highway	-10.135
▁punk	-10.1352
▁marshall	-10.1353
▁las	-10.1354
▁china	-10.1356
▁points	-10.1358
▁rocks	-10.1363
▁charming	-10.1371
▁stan	-10.1376
▁sports	-10.1389
▁likely	-10.139
▁ships	-10.14
▁sons	-10.141
just	-10.1419
▁cooking	-10.1426
ka	-10.1439
ating	-10.1449
▁runs	-10.1465
au	-10.1472
▁rate	-10.1477
▁lil	-10.1482
▁object	-10.1492
▁chase	-10.1492
▁blast	-10.1495
▁ignore	-10.1502
▁advance	-10.1503
▁divorce	-10.1503
▁odd	-10.1504
mer	-10.1512
▁iii	-10.1512
▁led	-10.1518
▁flip	-10.1521
▁lindsey	-10.1521
▁violent	-10.1521
▁international	-10.1521
▁gym	-10.1521
▁hollywood	-10.1521
▁zak	-10.1521
▁vivian	-10.1521
▁saint	-10.1521
▁aside	-10.1522
▁leigh	-10.1523
▁silent	-10.1523
▁italian	-10.1524
▁planned	-10.1525
▁details	-10.1526
▁soup	-10.1527
▁louise	-10.154
▁strip	-10.1554
▁changes	-10.1558
▁daddys	-10.156
▁hunting	-10.1561
▁yea	-10.1562
iest	-10.1569
▁hundreds	-10.1581
▁chop	-10.1583
▁angels	-10.159
▁fort	-10.1617
▁knocked	-10.1619
▁places	-10.164
▁banks	-10.1645
▁bu	-10.1647
▁somebodys	-10.1664
▁counter	-10.1676
▁tattoo	-10.1677
▁grandmother	-10.1677
▁luca	-10.168
▁mountains	-10.1689
▁mu	-10.169
king	-10.1691
aw	-10.1696
▁comfort	-10.1698
▁sl	-10.1698
▁merry	-10.17
▁device	-10.17
▁reserve	-10.17
▁uniform	-10.17
▁giggling	-10.17
▁curious	-10.17
▁cherry	-10.17
▁inspector	-10.17
▁noble	-10.17
▁ronny	-10.17
▁duke	-10.17
▁donkey	-10.17
▁internet	-10.17
▁baseball	-10.1701
▁gear	-10.1702
▁forth	-10.1702
▁version	-10.1702
cu	-10.1704
▁classic	-10.1707
▁learning	-10.171
▁yup	-10.1714
▁prayer	-10.1715
▁mace	-10.1719
▁confirmed	-10.1727
▁movement	-10.1727
▁core	-10.1743
▁mentioned	-10.1756
▁county	-10.176
▁heal	-10.176
▁lover	-10.1767
▁fucker	-10.1786
▁wh	-10.1792
ki	-10.1798
bu	-10.1813
▁pleased	-10.1814
▁customers	-10.1818
▁iike	-10.1825
▁gru	-10.1827
▁phones	-10.1837
▁millions	-10.1839
▁spit	-10.1856
▁moves	-10.1856
▁bags	-10.1857
field	-10.186
▁mistakes	-10.1862
▁nightmare	-10.1863
av	-10.1864
▁debt	-10.1864
bar	-10.1869
▁fashion	-10.188
▁prisoners	-10.188
▁revolution	-10.1881
▁instrument	-10.1881
▁moxy	-10.1881
▁pathetic	-10.1881
▁rattling	-10.1881
▁unusual	-10.1881
▁fiona	-10.1881
▁sheep	-10.1882
▁rudy	-10.1882
▁judgment	-10.1882
▁sobs	-10.1882
▁jenna	-10.1882
▁reaction	-10.1882
▁weii	-10.1883
▁mere	-10.1883
▁mobile	-10.1885
▁archie	-10.1887
▁july	-10.189
▁helpless	-10.1891
▁cutting	-10.1893
▁chucky	-10.1904
▁pam	-10.1904
▁bound	-10.1905
▁squeaking	-10.1905
▁chimes	-10.1921
▁escaped	-10.1928
▁exercise	-10.1933
ons	-10.2002
▁peanut	-10.2006
▁brief	-10.201
▁souls	-10.201
▁counting	-10.2033
▁equal	-10.2038
▁insist	-10.2041
▁defeat	-10.2042
▁physical	-10.2056
▁earn	-10.2058
▁europe	-10.2065
▁amelia	-10.2067
▁concentrate	-10.2067
▁emperor	-10.2067
▁families	-10.2067
▁ordinary	-10.2067
▁political	-10.2067
▁shelter	-10.2067
▁smiling	-10.2067
▁twelve	-10.2067
▁ulrich	-10.2067
▁underneath	-10.2067
▁wednesday	-10.2067
▁wolves	-10.2067
▁flint	-10.2067
▁pleasant	-10.2067
▁starving	-10.2067
▁keith	-10.2067
▁ashley	-10.2067
▁cattle	-10.2067
▁downtown	-10.2067
▁slide	-10.2067
▁aboard	-10.2067
▁rising	-10.2067
▁whoohoo	-10.2067
▁exclaiming	-10.2071
▁prize	-10.2073
▁billion	-10.2075
▁payne	-10.2082
▁outfit	-10.2086
▁wounded	-10.2087
▁shaw	-10.2099
hi	-10.2099
▁parker	-10.2105
▁blessed	-10.2122
▁reasons	-10.2136
ov	-10.2143
▁parking	-10.217
▁image	-10.2173
▁crush	-10.2183
▁pushing	-10.2199
▁faces	-10.2199
▁seek	-10.2204
▁depends	-10.2205
▁charges	-10.2217
▁inc	-10.2221
▁wreck	-10.2228
▁kicking	-10.2232
▁neo	-10.2232
▁cats	-10.224
▁iron	-10.2241
▁dirt	-10.2242
▁effort	-10.2243
▁cigarette	-10.2245
▁blues	-10.2246
▁fa	-10.2252
▁gates	-10.2252
▁rabbit	-10.2253
▁ambulance	-10.2255
▁revenge	-10.2255
▁shrek	-10.2255
▁struggle	-10.2255
▁sunshine	-10.2255
▁veronica	-10.2255
▁warrant	-10.2255
▁rodney	-10.2255
▁keating	-10.2256
▁cosette	-10.2256
▁theory	-10.2257
▁johnny	-10.2258
▁allen	-10.226
▁purge	-10.2266
▁parade	-10.2266
▁chin	-10.2269
▁jam	-10.227
▁designed	-10.2284
▁theo	-10.229
▁su	-10.2293
▁thrown	-10.2294
▁rot	-10.2306
▁wave	-10.2313
we	-10.2321
▁drawing	-10.2327
▁chi	-10.2328
▁smaller	-10.2331
ber	-10.2337
▁touching	-10.2356
▁badly	-10.2357
▁sale	-10.236
▁ton	-10.2367
▁mass	-10.2371
▁fo	-10.2372
ill	-10.2373
▁voices	-10.2374
▁pills	-10.2375
▁request	-10.2379
▁skills	-10.2386
▁cases	-10.24
ring	-10.2407
▁americans	-10.2413
▁detail	-10.2416
▁swallow	-10.2422
▁arrive	-10.2422
▁ohh	-10.2423
▁pr	-10.2425
▁stretch	-10.2438
▁option	-10.2442
▁mario	-10.2443
▁parent	-10.2444
▁transport	-10.2446
▁cure	-10.2447
▁attitude	-10.2448
▁miserable	-10.2448
▁precious	-10.2448
▁eagle	-10.2448
▁llttle	-10.2448
▁ryan	-10.2448
▁surface	-10.2448
▁rosie	-10.2448
▁cowboy	-10.2448
▁charley	-10.2448
▁garage	-10.2448
▁juan	-10.2449
▁solid	-10.2449
▁loan	-10.2451
▁badge	-10.2453
▁options	-10.2453
▁bored	-10.2455
▁slim	-10.2456
▁impressed	-10.2465
▁inhales	-10.2466
▁tryin	-10.2467
▁odds	-10.2473
▁motherfuckers	-10.2473
▁hut	-10.2474
▁shy	-10.2474
▁provided	-10.2475
ide	-10.2483
▁adams	-10.2487
▁squeeze	-10.2491
▁cleaning	-10.2493
▁based	-10.2495
▁gal	-10.2506
▁hills	-10.2518
ied	-10.2524
▁offered	-10.2541
ay	-10.2551
▁str	-10.2556
▁ol	-10.2559
▁julie	-10.2578
▁drown	-10.2586
▁pour	-10.2588
ny	-10.2593
▁spending	-10.2603
▁ant	-10.2608
▁click	-10.261
▁lick	-10.2612
▁lawyers	-10.2614
▁tricks	-10.262
▁ham	-10.2635
▁helen	-10.2636
▁snake	-10.264
▁terrorist	-10.2641
▁favour	-10.2643
▁behavior	-10.2644
▁beneath	-10.2644
▁hebrew	-10.2644
▁library	-10.2644
▁period	-10.2644
▁procedure	-10.2644
▁reputation	-10.2644
▁response	-10.2644
▁rizvan	-10.2644
▁thief	-10.2644
▁uncomfortable	-10.2644
▁mandira	-10.2644
▁treasure	-10.2644
▁electronic	-10.2644
▁routine	-10.2644
▁bishop	-10.2644
▁lightning	-10.2644
▁paddy	-10.2644
▁tiger	-10.2644
▁foster	-10.2644
▁mulan	-10.2644
▁chuckle	-10.2648
▁harper	-10.2649
ite	-10.2649
▁labor	-10.265
▁chon	-10.2652
sta	-10.2652
▁dating	-10.2658
▁document	-10.266
▁bastards	-10.2677
▁lifetime	-10.2678
▁loaded	-10.2692
▁survived	-10.2696
▁mis	-10.2699
▁halt	-10.2703
▁dock	-10.2704
▁partners	-10.2718
ries	-10.2735
ina	-10.274
ze	-10.2741
▁answering	-10.2741
▁port	-10.2748
za	-10.2757
▁menu	-10.2758
▁messed	-10.2761
ded	-10.2765
▁joint	-10.2766
all	-10.2766
pin	-10.2769
▁fully	-10.2781
▁gain	-10.2783
ding	-10.2784
▁print	-10.2786
▁suits	-10.2788
▁leading	-10.2806
▁stab	-10.2809
▁interrupt	-10.281
▁bleed	-10.2811
▁fans	-10.2819
▁ch	-10.2821
▁solve	-10.2831
▁hung	-10.2833
▁grass	-10.2836
▁dealing	-10.2836
▁pe	-10.2837
▁cl	-10.2837
▁flame	-10.2841
▁ogre	-10.2842
▁mimi	-10.2843
▁delicious	-10.2844
▁frost	-10.2844
▁monitor	-10.2844
▁multiple	-10.2844
▁operator	-10.2844
▁pablo	-10.2844
▁vietnam	-10.2844
▁source	-10.2844
▁granny	-10.2844
▁mebh	-10.2844
▁chasing	-10.2844
▁solution	-10.2844
▁kenai	-10.2844
▁surgery	-10.2844
▁impressive	-10.2844
▁league	-10.2845
▁jessie	-10.2845
▁philip	-10.2845
▁diamond	-10.2846
▁specific	-10.2846
▁theme	-10.2849
▁producer	-10.2853
▁blink	-10.2856
▁units	-10.2857
▁speakers	-10.2864
ator	-10.2864
ff	-10.287
▁chip	-10.2873
▁disappeared	-10.2874
▁stopping	-10.2877
▁tax	-10.2889
▁boo	-10.2896
▁char	-10.291
▁hated	-10.2922
▁wayne	-10.2934
▁waited	-10.2938
▁media	-10.2962
▁drawer	-10.297
ham	-10.2974
▁surely	-10.2982
▁systems	-10.2987
▁mall	-10.299
▁guts	-10.3008
▁messages	-10.3009
▁pi	-10.3021
▁shots	-10.3032
▁spy	-10.3034
▁hits	-10.3038
▁assure	-10.3039
▁transfer	-10.3047
▁ox	-10.3048
▁opposite	-10.3048
▁wrestling	-10.3048
▁beverly	-10.3048
▁financial	-10.3048
▁pupkin	-10.3048
▁random	-10.3048
▁choking	-10.3048
▁garth	-10.3048
ap	-10.3049
▁whatre	-10.3049
▁selfish	-10.3049
▁century	-10.3051
▁pipe	-10.3053
▁clattering	-10.3054
▁applauding	-10.3056
▁adult	-10.3057
▁murmuring	-10.3058
▁chad	-10.3059
▁homework	-10.3062
▁payment	-10.3063
▁reports	-10.3069
▁impression	-10.307
▁parties	-10.3077
▁jokes	-10.308
▁paulie	-10.3084
▁kisses	-10.3087
▁tr	-10.3096
dy	-10.3099
▁banging	-10.3101
▁minds	-10.3121
▁crashing	-10.3127
▁traveling	-10.3136
▁trusted	-10.3157
ag	-10.3161
ea	-10.3181
▁commit	-10.3184
▁collect	-10.3185
iv	-10.3215
▁discover	-10.3217
▁cora	-10.3218
▁goat	-10.322
▁pound	-10.3237
▁axe	-10.3245
▁dreamed	-10.3248
▁stink	-10.3254
▁congress	-10.3256
▁florida	-10.3256
▁ganda	-10.3256
▁reggie	-10.3256
▁mickey	-10.3256
▁cassie	-10.3257
▁therapy	-10.3258
▁fence	-10.3259
▁mc	-10.3259
▁potatoes	-10.326
▁agreement	-10.326
▁background	-10.326
▁dna	-10.3261
▁effect	-10.3263
▁roz	-10.3266
▁warrior	-10.3267
▁meal	-10.3267
▁choices	-10.3275
▁angela	-10.3276
▁eric	-10.3279
▁circumstances	-10.328
▁gim	-10.3281
▁bev	-10.3283
▁queens	-10.3297
▁considered	-10.3306
let	-10.3308
▁dreaming	-10.3308
▁ka	-10.331
▁hates	-10.3313
▁rocket	-10.3315
▁ag	-10.3316
▁freaking	-10.3332
▁sch	-10.3345
▁tag	-10.3347
▁laws	-10.3348
ner	-10.3348
▁cart	-10.3356
▁sauce	-10.3371
its	-10.3376
▁hal	-10.3376
▁jumped	-10.3386
▁makeup	-10.3396
▁stands	-10.3403
▁sha	-10.3406
▁joined	-10.3411
▁messing	-10.3419
▁site	-10.3432
▁stress	-10.3442
▁priests	-10.3443
▁dee	-10.3448
ville	-10.3451
▁grant	-10.3452
ium	-10.3456
▁actual	-10.3458
▁emotional	-10.346
▁myth	-10.3462
▁sandwich	-10.3463
▁tests	-10.3469
▁calvin	-10.3469
▁izzy	-10.3469
▁novel	-10.347
▁smee	-10.347
▁poetry	-10.347
▁grandfather	-10.347
▁massage	-10.347
▁coke	-10.347
▁woodhouse	-10.347
▁bra	-10.3471
▁fold	-10.3471
▁filthy	-10.3471
▁potter	-10.3471
▁brianna	-10.3472
▁me	-10.3474
▁liesel	-10.3474
▁wallet	-10.3474
▁moaning	-10.3474
▁motor	-10.3478
▁email	-10.3483
▁shark	-10.3483
▁generation	-10.3484
▁pity	-10.3495
▁trailer	-10.3496
▁on	-10.3511
▁machines	-10.3515
▁loudly	-10.3518
▁cave	-10.3521
ette	-10.3523
▁cookies	-10.3525
▁bitches	-10.353
▁prisoner	-10.3537
▁lungs	-10.3546
▁agents	-10.3549
▁op	-10.3549
▁fund	-10.3568
▁vice	-10.3568
ld	-10.3582
▁tale	-10.3588
▁ge	-10.3591
▁laying	-10.3597
▁corps	-10.3603
▁drones	-10.3608
▁reminds	-10.3609
town	-10.3613
▁admire	-10.362
▁speaker	-10.3624
▁rio	-10.3628
▁cheat	-10.3629
rr	-10.3631
cy	-10.3645
▁degrees	-10.3648
▁mana	-10.3654
▁terms	-10.3657
▁drill	-10.3658
▁junk	-10.3666
▁convince	-10.3668
▁prints	-10.3684
▁civil	-10.3685
▁trauma	-10.3685
▁becomes	-10.3686
▁archbishop	-10.3686
▁beloved	-10.3686
▁disgrace	-10.3686
▁gekko	-10.3686
▁harvard	-10.3686
▁lynch	-10.3686
▁murdoch	-10.3686
▁ominous	-10.3686
▁retreat	-10.3686
▁thursday	-10.3686
▁protest	-10.3686
▁organization	-10.3686
▁beckett	-10.3686
▁neighborhood	-10.3686
▁kelly	-10.3686
▁argue	-10.3687
▁favourite	-10.3687
▁hush	-10.3687
▁valley	-10.3687
▁owns	-10.3687
▁audition	-10.3687
▁heck	-10.3687
▁salad	-10.3687
▁foolish	-10.3689
▁grey	-10.369
▁taxi	-10.3693
▁gray	-10.3695
▁threatened	-10.3697
▁dc	-10.3698
▁frightened	-10.3701
▁chat	-10.3703
ak	-10.3711
▁direction	-10.3717
▁li	-10.3718
ble	-10.3732
ez	-10.3735
▁wasted	-10.3735
▁barb	-10.3744
▁wishes	-10.3753
▁rep	-10.3759
▁searching	-10.377
▁yards	-10.3791
▁ken	-10.3799
lock	-10.3828
▁par	-10.3845
che	-10.385
▁bl	-10.3854
▁wi	-10.3868
▁echo	-10.3871
▁log	-10.3874
room	-10.3874
▁prevent	-10.3882
▁attend	-10.3883
▁award	-10.3884
▁rap	-10.3896
▁mid	-10.3905
▁allison	-10.3908
▁ancient	-10.3908
▁grateful	-10.3908
▁hobbs	-10.3908
▁intense	-10.3908
▁jefferson	-10.3908
▁perimeter	-10.3908
▁pulse	-10.3908
▁johnnie	-10.3909
▁anytime	-10.3909
▁zeke	-10.3909
▁university	-10.3909
▁ellie	-10.3909
▁unknown	-10.3909
▁quote	-10.3909
▁lousy	-10.391
▁jury	-10.391
▁reward	-10.391
▁drama	-10.391
▁cities	-10.3911
▁moron	-10.3914
▁cries	-10.3916
▁buzzes	-10.3918
▁betrayed	-10.3923
▁whooping	-10.3925
▁steven	-10.3926
▁beth	-10.3927
▁yay	-10.3928
▁naturally	-10.393
▁blown	-10.394
▁fog	-10.3955
▁remains	-10.3962
▁entirely	-10.3966
▁joker	-10.3967
▁pitch	-10.398
▁belly	-10.3985
▁shadows	-10.4007
▁ti	-10.4012
con	-10.4012
▁off	-10.4027
▁highly	-10.4038
ned	-10.4053
▁chances	-10.4056
▁marks	-10.4064
▁bills	-10.4067
▁breathes	-10.4074
▁horns	-10.4074
ja	-10.4082
▁leak	-10.4103
of	-10.4103
iy	-10.4107
▁painter	-10.4111
▁describe	-10.4117
▁sink	-10.4118
▁rabbi	-10.4123
▁cleaned	-10.4124
com	-10.4128
erie	-10.4135
▁avenue	-10.4136
▁catherine	-10.4136
▁equipment	-10.4136
▁exchange	-10.4136
▁fridge	-10.4136
▁intelligence	-10.4136
▁intelligent	-10.4136
▁marvin	-10.4136
▁matrix	-10.4136
▁museum	-10.4136
▁protocol	-10.4136
▁trevor	-10.4136
▁unique	-10.4136
▁activity	-10.4136
▁personnel	-10.4136
▁chapter	-10.4136
▁motion	-10.4136
▁gerty	-10.4136
▁diane	-10.4136
▁extraordinary	-10.4137
▁documents	-10.4137
▁charity	-10.4137
▁begins	-10.4138
▁broad	-10.4138
▁dj	-10.4139
▁habit	-10.4139
▁wage	-10.4141
▁gu	-10.4141
▁surrounded	-10.4144
▁currently	-10.4144
boy	-10.4146
▁passion	-10.4147
▁setting	-10.4149
▁embarrassing	-10.415
▁gasp	-10.415
▁angeles	-10.4151
▁hitting	-10.4151
ight	-10.4151
▁charm	-10.4152
▁lin	-10.4153
▁papi	-10.4156
▁recall	-10.4157
fe	-10.4158
▁down	-10.4159
▁momma	-10.4164
▁app	-10.4164
▁eve	-10.4166
▁scotty	-10.4179
▁settled	-10.418
▁mit	-10.4181
▁gotcha	-10.4191
▁term	-10.4193
▁del	-10.4203
▁string	-10.4204
▁seats	-10.4204
▁diet	-10.4209
ence	-10.421
▁product	-10.422
ya	-10.4234
ron	-10.4247
▁singer	-10.4247
ise	-10.4261
▁fe	-10.4274
▁ac	-10.4278
▁returned	-10.4284
▁aids	-10.4287
▁clients	-10.4289
ities	-10.4304
▁butch	-10.4309
▁ending	-10.4331
▁we	-10.4332
▁bump	-10.4333
▁photograph	-10.4335
▁confess	-10.434
▁para	-10.4343
▁scar	-10.4352
▁alejandro	-10.4368
▁broadcast	-10.4368
▁concert	-10.4368
▁destiny	-10.4368
▁eternal	-10.4368
▁governor	-10.4368
▁gwen	-10.4368
▁heartbeat	-10.4368
▁houston	-10.4368
▁incident	-10.4368
▁invitation	-10.4368
▁jordan	-10.4368
▁pashto	-10.4368
▁samantha	-10.4368
▁sensitive	-10.4368
▁stadium	-10.4368
▁strict	-10.4368
▁terribly	-10.4368
▁contest	-10.4368
▁false	-10.4368
▁impact	-10.4368
▁marcus	-10.4368
▁burden	-10.4368
▁marcel	-10.4368
▁balance	-10.4369
▁accent	-10.4369
draic	-10.4369
▁thou	-10.437
▁arne	-10.437
▁stream	-10.4373
▁estate	-10.4374
▁ants	-10.4376
▁wound	-10.4378
▁ju	-10.438
▁disappointed	-10.4381
▁bono	-10.4381
▁jared	-10.4382
ice	-10.4386
▁straighten	-10.4387
▁mixed	-10.4391
▁fires	-10.4397
work	-10.4399
▁weed	-10.44
▁chamber	-10.4401
▁greek	-10.4401
▁rifle	-10.4401
▁holiday	-10.4402
▁echoing	-10.4403
▁managed	-10.4403
▁owner	-10.4404
▁jew	-10.4404
▁com	-10.4404
▁beside	-10.4406
▁blocks	-10.4408
▁ap	-10.4411
▁den	-10.4414
▁bush	-10.4421
▁nana	-10.4424
▁nut	-10.4425
▁louder	-10.4429
og	-10.4429
▁angle	-10.4432
▁timing	-10.4436
▁beans	-10.4438
▁pretending	-10.4452
▁lessons	-10.4455
▁liz	-10.4456
▁carefully	-10.4467
▁dancer	-10.4472
▁painted	-10.4473
▁stacks	-10.4477
day	-10.448
▁tend	-10.4491
▁ali	-10.4492
▁tables	-10.4503
▁au	-10.4515
▁perform	-10.4515
ors	-10.4523
fa	-10.4525
▁drives	-10.4531
▁spirits	-10.4532
art	-10.4539
▁casey	-10.4543
▁respond	-10.4546
ified	-10.4549
▁teaching	-10.4552
▁humans	-10.4559
ations	-10.4561
▁tw	-10.4574
aging	-10.4574
ran	-10.4578
▁insult	-10.458
▁tradition	-10.4582
▁propose	-10.4587
▁dial	-10.4589
▁africa	-10.46
▁chips	-10.4604
▁advantage	-10.4606
▁april	-10.4606
▁behalf	-10.4606
▁coincidence	-10.4606
▁happiness	-10.4606
▁honeymoon	-10.4606
▁madison	-10.4606
▁murdock	-10.4606
▁policy	-10.4606
▁spencer	-10.4606
▁struck	-10.4606
▁upbeat	-10.4606
▁vioiet	-10.4606
▁zain	-10.4606
▁mammy	-10.4606
▁wasting	-10.4606
▁nullah	-10.4606
▁flashlight	-10.4607
▁oath	-10.4607
▁ladder	-10.4607
▁diana	-10.4607
▁existence	-10.4607
▁cady	-10.4607
▁nathan	-10.4607
▁miami	-10.4607
▁herr	-10.4607
▁at	-10.4607
▁higgins	-10.4607
▁connie	-10.4607
▁capital	-10.4608
▁merrin	-10.4608
▁saul	-10.4608
▁minor	-10.4609
▁accountant	-10.4609
▁doorbell	-10.4609
▁electrical	-10.461
▁thirsty	-10.4611
▁mortal	-10.4611
▁rear	-10.4614
▁pile	-10.4626
▁bass	-10.4628
▁protector	-10.4629
ane	-10.463
▁breaks	-10.463
▁useless	-10.4635
▁bid	-10.4645
▁satellite	-10.4646
▁clown	-10.4646
▁degree	-10.4648
▁gathered	-10.465
▁ranger	-10.4658
car	-10.467
▁ri	-10.4678
▁tu	-10.4683
▁deeper	-10.4693
▁oi	-10.4696
▁dive	-10.4707
▁lip	-10.4719
▁pushed	-10.4738
▁roars	-10.4743
▁armed	-10.4746
wn	-10.4752
▁reported	-10.4765
▁lii	-10.4774
qu	-10.4778
ction	-10.4782
▁mud	-10.4783
▁neighbors	-10.4788
▁thuds	-10.4793
izing	-10.4822
▁escort	-10.4824
▁caused	-10.4825
▁leads	-10.4827
▁host	-10.4827
▁peoples	-10.4839
▁lame	-10.484
▁tess	-10.4845
▁symbol	-10.4848
▁represent	-10.4849
▁plug	-10.485
rk	-10.485
▁argument	-10.485
▁bigweld	-10.485
▁brooklyn	-10.485
▁episode	-10.485
▁fenton	-10.485
▁imagination	-10.485
▁lincoln	-10.485
▁maintain	-10.485
▁maureen	-10.485
▁reckon	-10.485
▁rochester	-10.485
▁theater	-10.485
▁unicorn	-10.485
▁hattie	-10.485
▁generous	-10.485
▁begging	-10.485
▁rufus	-10.485
▁mankind	-10.485
▁denny	-10.4851
▁comment	-10.4851
▁mummy	-10.4851
▁supper	-10.4851
▁feck	-10.4851
▁conlon	-10.4851
▁bingo	-10.4851
▁leap	-10.4852
▁massive	-10.4852
▁shane	-10.4852
▁painful	-10.4854
▁brent	-10.4854
▁franklin	-10.4854
▁medal	-10.4855
▁roommate	-10.4855
▁armand	-10.4855
▁taxes	-10.4857
▁ofthe	-10.4858
▁christian	-10.4858
▁drift	-10.4861
▁embarrassed	-10.4862
▁witches	-10.4862
▁landing	-10.4872
▁rosa	-10.4876
▁poop	-10.4883
▁goodnight	-10.4883
▁passes	-10.4889
▁warned	-10.4893
▁nerve	-10.4896
▁muscle	-10.4897
▁math	-10.4898
▁poem	-10.4899
lar	-10.4902
▁ko	-10.4905
▁creaks	-10.4909
▁gig	-10.4913
▁gut	-10.4913
▁finest	-10.4916
▁pigs	-10.4923
▁accounts	-10.4923
▁diner	-10.4927
▁jud	-10.4941
▁strangers	-10.4951
ok	-10.4953
uff	-10.4956
▁beep	-10.4963
▁vo	-10.4975
▁cents	-10.4975
nic	-10.498
▁fart	-10.4989
bag	-10.5004
▁fed	-10.5004
ack	-10.5014
ung	-10.5021
▁palm	-10.5028
bre	-10.5033
▁skip	-10.5046
▁am	-10.5047
▁under	-10.5055
▁faint	-10.5063
▁sayin	-10.5064
mi	-10.5066
▁inform	-10.5073
▁pl	-10.5075
▁boun	-10.5079
▁intern	-10.5079
▁receive	-10.5083
▁wins	-10.5085
▁scoob	-10.5086
▁tuck	-10.5087
▁warriors	-10.5088
▁patients	-10.5096
▁penis	-10.5098
▁popular	-10.5099
▁council	-10.51
▁disaster	-10.51
▁fentry	-10.51
▁jiro	-10.51
▁kuzco	-10.51
▁melody	-10.51
▁mysterious	-10.51
▁puzzle	-10.51
▁therefore	-10.51
▁tournament	-10.51
▁unhappy	-10.51
▁whinnies	-10.51
▁angelica	-10.51
▁appeal	-10.51
▁communicate	-10.51
▁flank	-10.51
▁gabe	-10.51
▁hustle	-10.51
▁wives	-10.51
▁sunset	-10.51
▁assignment	-10.51
▁becoming	-10.5101
▁eben	-10.5101
▁tanner	-10.5101
▁cricket	-10.5101
▁jazz	-10.5101
▁upside	-10.5101
▁traitor	-10.5101
▁announcement	-10.5101
▁robby	-10.5101
▁ripped	-10.5101
▁worm	-10.5101
▁fetch	-10.5101
▁childhood	-10.5102
▁chili	-10.5102
▁cliff	-10.5102
▁cabinet	-10.5102
▁karate	-10.5103
▁guardian	-10.5104
▁pace	-10.5105
med	-10.5107
▁technically	-10.5107
▁ammo	-10.5107
▁battery	-10.5109
▁tessa	-10.511
▁ranch	-10.5111
▁friendship	-10.5112
▁hells	-10.5114
▁deny	-10.5117
▁lois	-10.5118
▁jude	-10.5119
▁officially	-10.512
▁when	-10.512
▁uhuh	-10.5125
▁fu	-10.5136
▁lad	-10.5147
▁dozen	-10.5152
▁manny	-10.5153
▁boot	-10.5165
▁washed	-10.5166
▁whip	-10.5166
▁roman	-10.5169
▁net	-10.5171
▁pur	-10.5183
▁gloves	-10.5186
▁studying	-10.519
▁engineer	-10.5191
▁glenn	-10.5194
▁shared	-10.5198
▁repair	-10.5199
my	-10.52
▁as	-10.5203
pot	-10.5229
gen	-10.5231
▁comp	-10.5237
▁mor	-10.5241
ud	-10.5281
▁moral	-10.5282
▁q	-10.5294
▁tri	-10.5296
▁squeak	-10.5324
for	-10.5324
▁reveal	-10.5331
▁intend	-10.5331
book	-10.5336
▁oneil	-10.534
▁occasion	-10.5351
▁mutt	-10.5354
▁orphan	-10.5356
▁clifford	-10.5357
▁creek	-10.5357
▁custody	-10.5357
▁desmond	-10.5357
▁goldmember	-10.5357
▁offense	-10.5357
▁privacy	-10.5357
▁quentin	-10.5357
▁snoring	-10.5357
▁stevie	-10.5357
▁tragedy	-10.5357
▁daryn	-10.5357
▁facing	-10.5357
▁harlan	-10.5357
▁creative	-10.5357
▁grantham	-10.5357
▁urgent	-10.5357
▁golf	-10.5357
▁electricity	-10.5358
▁series	-10.5358
▁nino	-10.5359
▁bible	-10.5359
▁loyal	-10.5359
▁headache	-10.536
▁bubble	-10.5364
▁spain	-10.5366
▁dip	-10.5366
▁scrap	-10.5366
▁toy	-10.5372
▁directly	-10.5374
▁abandoned	-10.5374
▁bald	-10.5376
▁ski	-10.5381
▁demand	-10.5383
▁volunteer	-10.5387
▁delivery	-10.5389
▁von	-10.539
▁pancakes	-10.5391
▁tick	-10.5392
▁useful	-10.5393
▁earned	-10.5395
▁cheating	-10.5396
like	-10.5398
▁paintings	-10.54
▁oops	-10.5407
▁normally	-10.541
▁indian	-10.5413
▁division	-10.5413
▁blanket	-10.5414
▁delivered	-10.5417
hole	-10.5418
▁thud	-10.542
▁sniffs	-10.5429
▁husbands	-10.5434
▁structure	-10.544
▁spine	-10.545
▁carol	-10.5456
▁forty	-10.5462
▁feelin	-10.5491
▁enjoyed	-10.5502
▁orleans	-10.5515
▁spa	-10.5517
▁engines	-10.5523
▁doo	-10.5525
▁bombs	-10.5539
▁sum	-10.554
▁enjoying	-10.5545
▁sail	-10.5558
▁mode	-10.5573
▁bake	-10.5573
▁shove	-10.5576
▁burst	-10.5587
▁recommend	-10.5588
▁il	-10.5589
▁function	-10.5591
▁trail	-10.5593
▁spoil	-10.5594
▁twist	-10.5596
rate	-10.5596
▁mix	-10.5598
▁falco	-10.5603
ris	-10.5604
▁weigh	-10.5609
▁counsel	-10.5617
▁zoo	-10.5618
▁thinkin	-10.562
▁crassus	-10.562
▁easily	-10.562
▁facility	-10.562
▁katherine	-10.562
▁luigi	-10.562
▁meredith	-10.562
▁moustache	-10.562
▁obey	-10.562
▁perfume	-10.562
▁similar	-10.562
▁steak	-10.562
▁underwear	-10.562
▁vampire	-10.562
▁instructions	-10.562
▁wallace	-10.562
▁error	-10.562
▁drain	-10.562
▁culture	-10.562
▁amara	-10.562
▁performance	-10.5621
▁rustling	-10.5621
▁slap	-10.5621
▁maura	-10.5621
▁tee	-10.5621
▁defendant	-10.5621
▁globe	-10.5622
▁humor	-10.5622
▁elise	-10.5622
▁manual	-10.5625
port	-10.5627
▁esti	-10.5627
▁factory	-10.5628
▁serving	-10.5628
▁barnes	-10.563
▁claim	-10.5632
▁retired	-10.5633
▁hunger	-10.5636
▁weston	-10.5639
▁fee	-10.5652
▁answered	-10.566
▁lane	-10.5666
▁brand	-10.5667
gh	-10.5676
▁busted	-10.568
▁cannon	-10.5684
▁breast	-10.5685
▁shield	-10.5685
▁servant	-10.5686
▁result	-10.5687
▁neighbor	-10.5688
▁cloud	-10.5688
▁shoe	-10.5689
▁unlock	-10.569
▁depend	-10.5691
cal	-10.5694
▁breaths	-10.5698
▁crashed	-10.5699
▁fisher	-10.5702
ks	-10.5708
▁qu	-10.5713
▁lit	-10.5718
▁holes	-10.5725
▁shelly	-10.5732
▁fades	-10.5733
▁praying	-10.5765
▁bond	-10.5766
▁frankie	-10.5768
ker	-10.5768
und	-10.577
▁tub	-10.577
▁bam	-10.578
▁lighter	-10.5793
▁ward	-10.5797
▁ay	-10.5817
▁prim	-10.5826
▁porn	-10.5831
▁rats	-10.5838
▁fishing	-10.5857
ten	-10.5858
▁cancel	-10.5865
▁rug	-10.5866
face	-10.5867
▁marrying	-10.5868
▁incredibl	-10.5869
woman	-10.5872
▁tin	-10.5873
▁joining	-10.5877
power	-10.5877
▁marshal	-10.5879
▁medic	-10.588
▁recent	-10.5881
ward	-10.5885
▁rec	-10.5888
▁basic	-10.589
▁bachelor	-10.589
▁cindy	-10.589
▁elephant	-10.589
▁hannibal	-10.589
▁hyah	-10.589
▁instance	-10.589
▁invisible	-10.589
▁revving	-10.589
▁sacred	-10.589
▁whiskey	-10.589
▁briony	-10.589
▁fourteen	-10.589
▁philippe	-10.589
▁dallas	-10.589
▁ferry	-10.589
▁laurie	-10.589
▁wizard	-10.589
▁commercial	-10.589
▁thick	-10.589
▁individual	-10.589
▁piease	-10.589
▁collar	-10.589
▁langford	-10.589
▁spider	-10.5891
▁attractive	-10.5891
▁rotten	-10.5891
▁handwriting	-10.5891
▁zack	-10.5891
▁shaking	-10.5891
▁blah	-10.5891
▁the	-10.5891
▁doris	-10.5891
▁choke	-10.5891
▁brace	-10.5891
▁jewish	-10.5891
▁appearance	-10.5891
▁status	-10.5891
▁scum	-10.5892
▁species	-10.5892
▁wore	-10.5892
▁morse	-10.5892
▁chopper	-10.5892
▁lazy	-10.5892
▁medication	-10.5892
▁rita	-10.5893
▁sack	-10.5894
▁robbery	-10.5895
▁dug	-10.5898
▁wicked	-10.5898
ita	-10.5901
▁sniffing	-10.5903
▁cho	-10.5906
▁root	-10.5909
▁reasonable	-10.5909
▁fist	-10.5909
▁fin	-10.5914
▁properly	-10.5914
▁superman	-10.5915
▁highest	-10.5926
▁cable	-10.5927
▁dope	-10.5929
▁mistaken	-10.593
▁damned	-10.593
▁suffered	-10.593
▁policeman	-10.5937
▁scouts	-10.5944
▁easter	-10.5946
▁combat	-10.5947
▁shitty	-10.5956
▁mat	-10.5964
▁evan	-10.597
▁notes	-10.5981
▁chickens	-10.5981
ric	-10.599
▁packed	-10.5994
▁blessing	-10.5995
▁slam	-10.5999
▁boobs	-10.6017
▁not	-10.6017
▁carlo	-10.6037
▁scares	-10.6046
▁bears	-10.6056
▁offering	-10.6063
▁crossed	-10.6063
▁que	-10.6072
▁latin	-10.6084
ile	-10.6088
ls	-10.6115
▁creep	-10.6122
▁danced	-10.6122
▁dim	-10.6134
▁affect	-10.614
▁med	-10.6143
mu	-10.615
▁gus	-10.6154
▁produce	-10.6157
▁immediate	-10.6157
▁india	-10.6161
▁author	-10.6166
▁conduct	-10.6167
▁chamberlain	-10.6168
▁chloe	-10.6168
▁concept	-10.6168
▁dessert	-10.6168
▁gallegos	-10.6168
▁lorraine	-10.6168
▁manhattan	-10.6168
▁motive	-10.6168
▁navorski	-10.6168
▁nuclear	-10.6168
▁proposal	-10.6168
▁stephanie	-10.6168
▁theseus	-10.6168
▁superior	-10.6168
▁daesu	-10.6168
▁adele	-10.6168
▁ankle	-10.6168
▁complex	-10.6168
▁chorus	-10.6168
▁trunk	-10.6168
▁turkey	-10.6168
▁hostile	-10.6168
▁regan	-10.6169
▁engagement	-10.6169
▁wrapped	-10.6169
▁lyle	-10.6169
▁bugger	-10.6169
▁bacon	-10.6169
▁reverend	-10.6169
▁romance	-10.6169
▁howard	-10.6169
▁authority	-10.6169
▁paperwork	-10.617
▁passport	-10.617
▁robinson	-10.617
▁freezing	-10.617
▁vital	-10.6172
▁thls	-10.6172
▁booth	-10.6172
▁heather	-10.6172
▁perry	-10.6172
▁stroke	-10.6173
▁sammy	-10.6173
▁villain	-10.6173
▁craft	-10.6173
▁dropping	-10.6174
▁gaston	-10.6174
▁passage	-10.6175
▁cried	-10.6177
▁blonde	-10.6177
▁haha	-10.6181
▁kab	-10.6182
▁cigarettes	-10.6183
▁pub	-10.6183
▁determined	-10.6185
▁pork	-10.6187
▁thee	-10.619
▁sharply	-10.619
▁straining	-10.619
▁can	-10.6191
▁convinced	-10.6191
▁squealing	-10.6193
▁te	-10.6195
▁shave	-10.62
▁jr	-10.6207
▁tent	-10.621
▁connected	-10.6211
▁virginia	-10.6225
well	-10.6226
▁howdy	-10.6233
press	-10.6237
▁nail	-10.6242
▁marine	-10.6251
ino	-10.6252
table	-10.6252
▁issues	-10.6253
▁actor	-10.6264
▁inch	-10.627
▁accepted	-10.6274
▁corpse	-10.6276
▁fur	-10.6289
bit	-10.6293
▁stare	-10.6296
▁presents	-10.6299
▁feeding	-10.6302
▁der	-10.6323
fl	-10.6327
▁safely	-10.6332
gy	-10.6357
▁cape	-10.6362
▁dealer	-10.6367
▁flow	-10.6371
▁for	-10.6395
▁torture	-10.6398
▁lads	-10.6399
▁rode	-10.6409
▁wifes	-10.6409
▁twin	-10.6414
▁fixing	-10.6415
▁justin	-10.6415
▁beef	-10.643
▁divide	-10.6435
▁advise	-10.6435
▁toss	-10.6435
▁weep	-10.6439
▁mob	-10.6442
▁absolute	-10.6443
▁eva	-10.6444
box	-10.6444
▁slight	-10.6444
▁successful	-10.6445
▁suite	-10.6453
▁misunderstand	-10.6454
▁abilene	-10.6454
▁anderson	-10.6454
▁anniversary	-10.6454
▁arrival	-10.6454
▁circus	-10.6454
▁confusing	-10.6454
▁dignity	-10.6454
▁disagree	-10.6454
▁divine	-10.6454
▁halloween	-10.6454
▁mexican	-10.6454
▁receipt	-10.6454
▁signature	-10.6454
▁survival	-10.6454
▁trinity	-10.6454
▁ultimate	-10.6454
▁anchor	-10.6454
▁breach	-10.6454
▁sarge	-10.6454
▁llke	-10.6454
▁jodie	-10.6454
▁fireworks	-10.6454
▁renfield	-10.6454
▁crisis	-10.6454
▁phase	-10.6454
▁forbidden	-10.6454
▁oscar	-10.6454
▁lyla	-10.6454
▁feast	-10.6454
▁shore	-10.6454
▁youth	-10.6454
▁typical	-10.6454
▁assault	-10.6455
▁avery	-10.6455
▁possession	-10.6455
▁stiff	-10.6455
▁agency	-10.6455
▁inez	-10.6456
▁vail	-10.6456
▁ronit	-10.6457
▁nearby	-10.6457
▁effective	-10.6457
▁brie	-10.6458
▁bail	-10.6459
▁tori	-10.6459
▁bait	-10.6459
▁beam	-10.6459
▁sucker	-10.646
▁lemon	-10.646
▁scale	-10.6461
▁willie	-10.6461
▁fraud	-10.6461
▁colors	-10.6463
▁task	-10.6464
▁copies	-10.6465
▁rounds	-10.6467
▁humanity	-10.6468
▁waves	-10.6468
▁scan	-10.647
▁seed	-10.6472
▁hatch	-10.6473
▁matches	-10.6475
▁axel	-10.6477
▁psycho	-10.6479
▁assist	-10.6483
ew	-10.6484
bs	-10.6485
▁removed	-10.6485
▁ticking	-10.649
▁costs	-10.6491
▁brady	-10.6499
▁dumped	-10.6501
cat	-10.6502
den	-10.6516
▁skill	-10.6524
▁driven	-10.6529
▁margo	-10.653
▁tire	-10.6531
od	-10.6536
▁swan	-10.6544
▁newspaper	-10.6544
▁victoria	-10.6547
▁appears	-10.6547
▁col	-10.6548
▁ave	-10.6553
▁impress	-10.6559
low	-10.6561
ana	-10.6562
▁forces	-10.657
ue	-10.6579
▁ci	-10.6586
▁ma	-10.659
▁hahaha	-10.6591
▁citizens	-10.6606
▁sheets	-10.6606
▁tracking	-10.6614
▁bells	-10.6622
maker	-10.665
▁twins	-10.6658
▁prop	-10.6667
▁decisions	-10.6668
headed	-10.6675
py	-10.6694
▁landed	-10.67
q	-10.6701
▁reporting	-10.6702
▁wounds	-10.6703
▁bargain	-10.6713
▁bunk	-10.6723
▁frame	-10.6729
lon	-10.6734
ake	-10.6734
▁withdraw	-10.6737
▁lovin	-10.6744
▁def	-10.6745
top	-10.6745
▁homosexual	-10.6746
▁distort	-10.6748
▁ambassador	-10.6748
▁awkward	-10.6748
▁magnificent	-10.6748
▁phantom	-10.6748
▁relief	-10.6748
▁sphere	-10.6748
▁supply	-10.6748
▁throughout	-10.6748
▁extend	-10.6748
▁modern	-10.6748
▁whooshing	-10.6748
▁kyle	-10.6748
▁civilization	-10.6748
▁bernard	-10.6748
▁helmet	-10.6748
▁network	-10.6748
▁spear	-10.6748
▁babysitter	-10.6748
▁inaudible	-10.6748
▁flew	-10.6748
▁slice	-10.6749
▁couch	-10.6749
▁loyalty	-10.6749
▁ditch	-10.6749
▁berlin	-10.675
▁jock	-10.675
▁waitress	-10.675
▁begun	-10.675
oon	-10.675
▁purse	-10.675
▁collection	-10.675
▁deaf	-10.6751
▁colm	-10.6751
▁bucket	-10.6751
▁daily	-10.6752
▁footage	-10.6753
▁darn	-10.6753
▁skies	-10.6755
▁centre	-10.6755
▁rex	-10.6758
▁rav	-10.6761
▁role	-10.6761
▁announce	-10.6762
▁es	-10.6763
▁unable	-10.6767
▁sighing	-10.6772
▁leon	-10.6773
▁auto	-10.6775
▁latest	-10.6777
▁temper	-10.6789
▁yah	-10.679
▁damaged	-10.6792
▁moans	-10.6794
▁prayers	-10.6798
▁outer	-10.6801
▁pu	-10.6805
▁hum	-10.6806
▁creatures	-10.6806
▁laser	-10.681
ative	-10.681
▁ropes	-10.6812
▁cleared	-10.6824
ery	-10.6826
▁burns	-10.683
ily	-10.6834
▁considering	-10.6841
▁airplane	-10.6846
▁towel	-10.6847
▁folk	-10.6853
▁gi	-10.6854
wa	-10.6878
▁farmer	-10.6894
▁understanding	-10.6896
▁hopeless	-10.6905
▁bin	-10.6907
han	-10.6917
▁protected	-10.6917
▁ni	-10.692
pp	-10.6923
▁cocks	-10.6923
▁update	-10.6925
▁reaching	-10.6929
▁pas	-10.6932
▁shoulders	-10.6943
▁opera	-10.6954
▁honored	-10.6958
▁buildings	-10.6961
hal	-10.6962
▁camel	-10.6965
▁carlos	-10.6973
▁carly	-10.6974
▁demo	-10.6979
▁demands	-10.698
▁unh	-10.6982
▁artists	-10.6985
▁hips	-10.6993
▁spark	-10.6996
▁figures	-10.7006
▁deserves	-10.702
▁aid	-10.7029
▁extreme	-10.704
▁current	-10.704
▁alcohol	-10.7048
▁francis	-10.705
▁campaign	-10.7051
▁fairfax	-10.7051
▁finnick	-10.7051
▁injured	-10.7051
▁liberty	-10.7051
▁motorcycle	-10.7051
▁profile	-10.7051
▁quality	-10.7051
▁skull	-10.7051
▁derek	-10.7051
▁ambush	-10.7051
▁faggot	-10.7051
▁loomis	-10.7051
▁terrified	-10.7051
▁jorge	-10.7051
▁puppet	-10.7051
▁dolan	-10.7051
▁druun	-10.7051
▁genetic	-10.7051
▁fluid	-10.7051
▁clapping	-10.7051
▁jewel	-10.7052
▁wrist	-10.7052
▁mouse	-10.7052
▁colour	-10.7052
▁imitate	-10.7052
▁commitment	-10.7052
▁foul	-10.7052
▁clone	-10.7053
▁arlo	-10.7053
▁dido	-10.7053
▁scent	-10.7054
▁counselor	-10.7054
▁poker	-10.7054
▁geez	-10.7054
▁merger	-10.7054
▁carpet	-10.7056
▁drew	-10.7056
▁entry	-10.7057
▁halfway	-10.7058
▁sirens	-10.706
▁ability	-10.7061
▁annoying	-10.7066
▁kat	-10.7067
ncy	-10.7071
▁divorced	-10.7083
▁sandy	-10.7085
▁boxes	-10.7089
af	-10.7097
ust	-10.7098
use	-10.7114
ren	-10.7116
▁plot	-10.7121
▁gino	-10.7125
▁mal	-10.7128
▁filed	-10.713
▁ram	-10.7134
▁chicks	-10.7136
▁require	-10.7141
▁passengers	-10.7149
▁pla	-10.7154
▁compliment	-10.7158
▁stripper	-10.7163
▁aa	-10.7165
▁customer	-10.7171
▁drone	-10.7173
ef	-10.7174
looking	-10.7195
cha	-10.7202
▁lands	-10.7208
▁wears	-10.7214
val	-10.7214
▁musical	-10.7242
▁events	-10.7265
▁ts	-10.727
▁fii	-10.7279
▁sins	-10.7281
▁ver	-10.7282
▁claims	-10.7285
▁sting	-10.7305
▁shown	-10.7309
▁returning	-10.731
▁commission	-10.7313
▁gunn	-10.7319
▁est	-10.7323
▁screech	-10.7325
▁dom	-10.733
▁formal	-10.7336
▁delay	-10.7338
▁shoo	-10.7342
ox	-10.7346
▁abuse	-10.7346
shot	-10.7351
▁nap	-10.7354
▁unlike	-10.7356
▁harris	-10.7359
▁memo	-10.7362
▁yank	-10.7362
▁stamp	-10.7363
▁byrd	-10.7363
▁ceremony	-10.7363
▁couid	-10.7363
▁fifth	-10.7363
▁gambling	-10.7363
▁marvelous	-10.7363
▁mumbling	-10.7363
▁olivia	-10.7363
▁pacific	-10.7363
▁patrol	-10.7363
▁promotion	-10.7363
▁spray	-10.7363
▁surveillance	-10.7363
▁szell	-10.7363
▁technique	-10.7363
▁vagina	-10.7363
▁vodka	-10.7363
▁travis	-10.7363
▁barrel	-10.7363
▁competition	-10.7363
▁bialystock	-10.7363
▁yacht	-10.7363
▁karl	-10.7363
▁pronounce	-10.7363
▁peaceful	-10.7363
▁celebrating	-10.7363
▁dunne	-10.7364
▁apology	-10.7364
▁spike	-10.7364
▁clinic	-10.7364
▁capcom	-10.7364
▁koba	-10.7364
▁chaos	-10.7364
▁yankee	-10.7364
▁knightley	-10.7364
▁slipped	-10.7364
▁slut	-10.7364
▁bolt	-10.7364
▁elias	-10.7365
▁pike	-10.7365
▁beings	-10.7365
▁melt	-10.7365
▁fantasy	-10.7366
▁ashes	-10.7366
▁flop	-10.7367
▁soil	-10.7367
▁hopefully	-10.7367
▁hans	-10.7368
▁legat	-10.7369
▁duh	-10.7369
▁inches	-10.7369
▁ceo	-10.737
▁upper	-10.737
▁ouch	-10.7372
▁rice	-10.7374
▁related	-10.7377
▁convention	-10.7378
▁cory	-10.7378
▁sonny	-10.7379
▁poet	-10.7379
ible	-10.7383
▁pill	-10.7386
▁and	-10.7387
▁fried	-10.739
▁sniper	-10.739
▁rage	-10.7393
▁era	-10.74
▁carson	-10.7401
▁youyou	-10.7402
▁badger	-10.7403
▁ke	-10.7405
▁waters	-10.7406
▁gifts	-10.7408
▁armor	-10.7408
▁awfully	-10.741
▁erin	-10.7413
tch	-10.7414
▁released	-10.7415
▁fre	-10.7417
ky	-10.7431
▁hitch	-10.7434
▁ridge	-10.7443
▁butcher	-10.7445
▁grid	-10.7449
▁whisper	-10.7452
▁tracks	-10.7466
▁sweater	-10.7469
▁foundation	-10.7469
▁eli	-10.7469
tion	-10.7472
▁assassin	-10.7472
▁frankly	-10.7473
▁ages	-10.7474
▁ness	-10.7474
▁safer	-10.7475
burg	-10.7477
zy	-10.748
▁benefit	-10.7481
▁nicola	-10.7482
▁candle	-10.7488
▁officials	-10.7491
▁gunshots	-10.7504
ito	-10.7518
▁ghosts	-10.7533
▁boarding	-10.7545
▁losers	-10.7556
▁demons	-10.7568
▁weekends	-10.7573
▁hunters	-10.7574
▁waiter	-10.7576
▁peg	-10.7579
▁attacking	-10.7605
▁complain	-10.7612
▁wr	-10.762
ify	-10.7622
▁despi	-10.7623
▁magical	-10.7629
▁arts	-10.763
▁downs	-10.7631
▁fellows	-10.7642
▁or	-10.7651
▁chew	-10.7653
▁dings	-10.7656
▁adopt	-10.7661
nce	-10.7662
▁purchase	-10.7667
▁capture	-10.7667
▁trace	-10.7668
▁jab	-10.7673
▁zoe	-10.7673
▁remote	-10.7674
▁lex	-10.7678
▁potato	-10.768
our	-10.7681
▁noon	-10.7683
ast	-10.7683
gi	-10.7685
▁architect	-10.7685
▁academy	-10.7686
▁album	-10.7686
▁almighty	-10.7686
▁ambition	-10.7686
▁atmosphere	-10.7686
▁bennett	-10.7686
▁buffalo	-10.7686
▁cavalry	-10.7686
▁cinderella	-10.7686
▁essential	-10.7686
▁fabietto	-10.7686
▁fletcher	-10.7686
▁harriet	-10.7686
▁harvey	-10.7686
▁heffalump	-10.7686
▁merlyn	-10.7686
▁narrator	-10.7686
▁negro	-10.7686
▁poirot	-10.7686
▁principal	-10.7686
▁religious	-10.7686
▁skank	-10.7686
▁stereo	-10.7686
▁tremendous	-10.7686
▁unconscious	-10.7686
▁vallejo	-10.7686
▁valuable	-10.7686
▁wlth	-10.7686
▁drank	-10.7686
▁legacy	-10.7686
▁scheme	-10.7686
▁brutal	-10.7686
▁buddies	-10.7686
▁identify	-10.7686
▁plastic	-10.7686
▁northern	-10.7686
▁pym	-10.7686
▁noisy	-10.7686
▁southern	-10.7686
▁squawking	-10.7686
▁studied	-10.7686
▁exclusive	-10.7686
▁lyons	-10.7686
▁cocktail	-10.7686
▁polite	-10.7686
▁gloria	-10.7686
▁entrance	-10.7686
▁cecilia	-10.7686
▁graham	-10.7686
▁authorities	-10.7686
▁dripping	-10.7686
▁gemini	-10.7686
▁fever	-10.7687
▁retirement	-10.7687
▁dalton	-10.7687
▁backwards	-10.7687
▁iitti	-10.7687
▁koda	-10.7687
▁cuff	-10.7688
▁hayes	-10.7689
▁dishes	-10.7689
▁neat	-10.7689
▁objection	-10.7689
▁hua	-10.7689
▁alfredo	-10.7691
▁paco	-10.7691
▁dull	-10.7692
▁ivy	-10.7692
▁suggestion	-10.7692
▁wwe	-10.7694
▁sore	-10.7694
▁sitka	-10.7696
▁bash	-10.7697
▁jamie	-10.7703
dle	-10.7703
▁explorer	-10.7703
▁gary	-10.7705
▁sixth	-10.7709
▁rank	-10.7709
▁limited	-10.7711
▁adopted	-10.7711
▁alberto	-10.7713
▁fools	-10.7716
▁caii	-10.772
ell	-10.7723
▁dearest	-10.7726
▁dresses	-10.7731
▁drowning	-10.7741
▁tt	-10.7741
▁whale	-10.7743
▁lend	-10.7746
▁duel	-10.7749
▁giggles	-10.775
▁entered	-10.7761
▁gar	-10.7771
▁focused	-10.7779
▁deadly	-10.7782
▁limit	-10.7787
▁dam	-10.7795
▁lap	-10.7795
▁toes	-10.7795
▁gra	-10.7803
▁crimes	-10.7809
▁qui	-10.7809
▁orlean	-10.7817
▁slower	-10.7818
▁quarters	-10.7831
▁tools	-10.7839
▁leaders	-10.7842
▁kinds	-10.7868
▁manners	-10.7874
▁solo	-10.7876
▁scientists	-10.7879
▁til	-10.7884
pers	-10.7888
▁acted	-10.7892
▁embrace	-10.7901
▁wondered	-10.791
▁remembered	-10.7914
▁tra	-10.7916
▁slams	-10.7926
▁closely	-10.7932
▁boxing	-10.7935
▁toys	-10.7943
▁splash	-10.7985
▁prep	-10.7989
▁gamble	-10.7996
▁anti	-10.8
▁there	-10.8003
▁pays	-10.8005
▁unfortunate	-10.8008
▁sul	-10.8009
▁realise	-10.8014
▁terror	-10.8018
▁visual	-10.8018
▁worship	-10.8019
▁aggressive	-10.8019
▁anonymous	-10.8019
▁apologise	-10.8019
▁australia	-10.8019
▁dracula	-10.8019
▁enormous	-10.8019
▁explanation	-10.8019
▁fortunate	-10.8019
▁gertie	-10.8019
▁grief	-10.8019
▁namaari	-10.8019
▁nigel	-10.8019
▁obsessed	-10.8019
▁patience	-10.8019
▁scotch	-10.8019
▁twitter	-10.8019
▁editor	-10.8019
▁institution	-10.8019
▁length	-10.8019
▁turtle	-10.8019
▁robbed	-10.8019
▁underground	-10.8019
▁einon	-10.8019
▁oak	-10.8019
▁strawberry	-10.8019
▁assuming	-10.8019
▁herb	-10.8019
▁smack	-10.8019
▁orbit	-10.8019
▁grill	-10.8019
▁powder	-10.8019
▁kidnapping	-10.802
▁digital	-10.802
▁grip	-10.802
▁spoon	-10.802
▁digging	-10.802
▁election	-10.802
uppper	-10.802
▁bluestar	-10.802
▁frozen	-10.802
▁aircraft	-10.802
▁heip	-10.8021
▁quarterback	-10.8021
▁nazi	-10.8021
▁spec	-10.8021
▁freddy	-10.8021
▁clive	-10.8021
▁porch	-10.8021
▁kano	-10.8021
▁myers	-10.8022
▁motherfucking	-10.8022
▁churchill	-10.8023
▁owned	-10.8023
▁comic	-10.8023
▁surgeon	-10.8023
▁lena	-10.8024
▁screeches	-10.8025
▁panel	-10.8025
nc	-10.8027
▁personality	-10.8029
▁carried	-10.803
▁complaint	-10.8034
▁thas	-10.8035
▁becker	-10.8035
▁marion	-10.8036
▁shrieks	-10.8037
▁rum	-10.8038
▁kiddo	-10.804
▁limb	-10.8042
▁meeks	-10.8044
▁listened	-10.8044
▁wandering	-10.8045
▁diego	-10.8049
▁webb	-10.8052
▁inn	-10.8054
▁creeping	-10.8059
▁requested	-10.8064
▁moo	-10.8065
▁arch	-10.8068
▁commissioner	-10.8074
▁dime	-10.8077
▁sean	-10.808
oh	-10.8084
▁beats	-10.8085
▁sealed	-10.8086
bh	-10.8091
▁hint	-10.8094
▁stammers	-10.8101
▁fireman	-10.8103
▁brakes	-10.8107
▁howls	-10.8107
▁clap	-10.8109
▁concerns	-10.8109
▁fights	-10.8111
gue	-10.812
▁ze	-10.8122
ged	-10.8124
▁operate	-10.8126
right	-10.8143
▁gotham	-10.8145
▁dang	-10.815
▁persons	-10.8153
▁bees	-10.8158
▁scientist	-10.8161
▁nun	-10.8162
stone	-10.8169
▁boost	-10.8172
▁chains	-10.8173
▁idiots	-10.8188
rt	-10.8191
▁wanting	-10.8191
▁greater	-10.8222
▁acknowledge	-10.8223
▁differently	-10.8234
ear	-10.8238
▁pea	-10.8239
▁constitution	-10.8242
▁quant	-10.8256
▁hoped	-10.826
▁arse	-10.8265
▁protecting	-10.827
▁hack	-10.8273
▁results	-10.8276
▁drivers	-10.8288
▁asses	-10.8289
iff	-10.8328
▁paw	-10.8337
bound	-10.8347
class	-10.8348
▁rapid	-10.8354
ologist	-10.8356
▁pies	-10.8357
▁electric	-10.8357
▁raid	-10.8358
while	-10.8363
▁cruel	-10.8363
▁kirk	-10.8363
▁casual	-10.8364
▁weakness	-10.8364
▁ambrosia	-10.8364
▁average	-10.8364
▁catholic	-10.8364
▁celebration	-10.8364
▁darius	-10.8364
▁dispatch	-10.8364
▁ganz	-10.8364
▁investigate	-10.8364
▁kaiju	-10.8364
▁koopa	-10.8364
▁mackenzie	-10.8364
▁margaret	-10.8364
▁oldfashioned	-10.8364
▁orchestra	-10.8364
▁portuguese	-10.8364
▁pursuit	-10.8364
▁raymond	-10.8364
▁reservation	-10.8364
▁rhyme	-10.8364
▁sausage	-10.8364
▁snowflake	-10.8364
▁tigger	-10.8364
▁everdeen	-10.8364
▁identity	-10.8364
▁sixteen	-10.8364
▁vespa	-10.8364
▁worn	-10.8364
▁slick	-10.8364
▁steam	-10.8364
▁draft	-10.8364
▁declan	-10.8364
▁observe	-10.8364
▁viola	-10.8364
▁feather	-10.8364
▁shaggy	-10.8364
▁plague	-10.8364
▁stuart	-10.8364
▁lawsuit	-10.8364
▁vault	-10.8364
▁patrick	-10.8364
▁sharon	-10.8365
▁tramp	-10.8365
▁assistance	-10.8365
▁suitcase	-10.8365
▁depth	-10.8365
▁joanna	-10.8365
▁mmmmmm	-10.8365
▁columbia	-10.8365
▁soap	-10.8365
▁championship	-10.8366
▁shotgun	-10.8366
▁michelle	-10.8366
▁pitts	-10.8366
▁saddle	-10.8367
▁temporary	-10.8367
▁classified	-10.8367
▁hallway	-10.8367
▁jill	-10.8367
▁extraction	-10.8367
▁critical	-10.8368
▁expression	-10.8368
▁norman	-10.8369
▁grandson	-10.8369
▁trish	-10.837
▁discussion	-10.837
▁spotted	-10.837
▁carney	-10.8372
▁label	-10.8373
▁adore	-10.8374
ties	-10.8378
▁delighted	-10.8382
▁nest	-10.8386
▁regarding	-10.8387
▁drawn	-10.8388
▁punished	-10.8388
▁bal	-10.8399
▁separated	-10.8401
▁uns	-10.8402
▁granted	-10.8406
▁inter	-10.8414
▁cello	-10.8418
▁schools	-10.8429
▁horny	-10.8429
▁chet	-10.8429
▁ideal	-10.8434
ada	-10.8435
▁heels	-10.8447
▁jon	-10.8448
▁meantime	-10.845
▁tro	-10.845
▁wilder	-10.8461
▁masters	-10.8469
▁climbing	-10.8473
▁she	-10.8475
▁suggesting	-10.8485
▁roar	-10.849
▁gall	-10.849
▁cracking	-10.849
▁io	-10.8491
▁realm	-10.8501
▁imagined	-10.851
▁acc	-10.8513
▁communication	-10.8517
▁sim	-10.8517
some	-10.8523
▁helpful	-10.8528
▁sentinels	-10.8535
▁bothering	-10.8536
▁packing	-10.8537
ara	-10.8547
▁por	-10.8565
▁reed	-10.8578
▁les	-10.8581
▁manner	-10.8585
▁mop	-10.8586
▁vet	-10.8604
▁bur	-10.8609
▁sm	-10.8655
year	-10.8656
▁invent	-10.8657
▁nicely	-10.8677
▁thrill	-10.8696
itating	-10.8699
▁disguise	-10.8702
▁arrange	-10.8702
▁explode	-10.8702
point	-10.8704
leg	-10.8708
▁permanent	-10.871
▁haul	-10.8711
▁corners	-10.8712
what	-10.8715
▁russia	-10.8716
▁movin	-10.8718
▁cha	-10.8719
▁egypt	-10.872
▁permit	-10.872
▁confident	-10.8721
▁basket	-10.8721
▁alakay	-10.8721
▁autograph	-10.8721
▁belief	-10.8721
▁bonjour	-10.8721
▁breeze	-10.8721
▁clucking	-10.8721
▁conflict	-10.8721
▁cotton	-10.8721
▁darlene	-10.8721
▁foxxy	-10.8721
▁generator	-10.8721
▁grazie	-10.8721
▁happier	-10.8721
▁infected	-10.8721
▁klump	-10.8721
▁penalty	-10.8721
▁possibility	-10.8721
▁purple	-10.8721
▁stauffenberg	-10.8721
▁supreme	-10.8721
▁weasel	-10.8721
▁depressed	-10.8721
▁leather	-10.8721
▁liquid	-10.8721
▁refuge	-10.8721
▁chiming	-10.8721
▁confidence	-10.8721
▁evelyn	-10.8721
▁pistol	-10.8721
▁cardinal	-10.8721
▁western	-10.8721
▁italy	-10.8721
▁residence	-10.8721
▁maurice	-10.8721
▁oxygen	-10.8721
▁stain	-10.8721
▁mitchell	-10.8721
▁ansel	-10.8721
▁maniac	-10.8721
▁mattiece	-10.8721
▁therapist	-10.8721
▁alternative	-10.8722
▁lindy	-10.8722
▁pillow	-10.8722
▁dentist	-10.8722
▁nerd	-10.8722
▁pickering	-10.8722
▁teii	-10.8722
▁transferred	-10.8722
▁basis	-10.8722
▁password	-10.8722
▁abortion	-10.8722
▁irish	-10.8722
▁kr	-10.8722
▁capone	-10.8723
▁stall	-10.8723
▁limp	-10.8723
▁tango	-10.8723
▁agh	-10.8725
▁alley	-10.8726
▁pge	-10.8727
▁sanders	-10.8732
▁mick	-10.8733
▁mayday	-10.8733
▁active	-10.8735
▁bedtime	-10.8735
▁nearest	-10.874
▁arranged	-10.874
▁judy	-10.8741
▁required	-10.8743
▁creed	-10.8744
can	-10.8747
▁moody	-10.8751
▁heroes	-10.8752
▁cooperate	-10.8754
▁thus	-10.8756
▁bench	-10.8762
▁cheated	-10.8764
bra	-10.8774
▁scheduled	-10.8774
▁classes	-10.8778
▁shi	-10.8779
▁fang	-10.8781
▁roses	-10.8782
▁closest	-10.8785
▁pole	-10.8795
▁now	-10.8797
▁react	-10.8802
▁mmmm	-10.8815
jo	-10.8818
▁sounded	-10.8818
▁stays	-10.8819
ink	-10.8821
▁greatness	-10.8825
▁moto	-10.8825
▁hooked	-10.8839
sen	-10.8842
▁noises	-10.8843
▁viva	-10.8848
▁sweep	-10.8852
▁squeal	-10.8854
▁locker	-10.8858
▁worthy	-10.8859
▁quicker	-10.8867
▁snack	-10.8885
▁session	-10.8886
▁relative	-10.8887
▁brick	-10.8889
▁tribe	-10.8889
ign	-10.8904
▁rumors	-10.8906
mans	-10.891
▁visiting	-10.891
mat	-10.8911
▁gl	-10.8914
itch	-10.8922
▁ph	-10.8923
▁influence	-10.8925
▁deer	-10.894
▁requires	-10.896
▁exp	-10.8972
▁sip	-10.8974
▁trucks	-10.9009
▁nations	-10.9015
lve	-10.9015
▁yu	-10.902
▁atta	-10.9027
▁jews	-10.9036
pro	-10.9036
ath	-10.9042
two	-10.9044
▁shrink	-10.9058
▁fianc	-10.9058
▁directions	-10.9059
▁swell	-10.9061
▁flood	-10.9066
▁abandon	-10.9066
board	-10.9067
▁crow	-10.907
ame	-10.907
▁retire	-10.9072
▁jun	-10.9075
▁apply	-10.9076
▁wealth	-10.9078
▁determine	-10.9079
▁olive	-10.908
▁hysterical	-10.908
▁hid	-10.9082
ification	-10.9086
ani	-10.9087
▁mars	-10.9089
▁trans	-10.9089
▁cooper	-10.909
night	-10.909
ology	-10.9091
▁forbid	-10.9091
▁anxious	-10.9092
▁apologies	-10.9092
▁burlington	-10.9092
▁embassy	-10.9092
▁explosive	-10.9092
▁frazier	-10.9092
▁fugitive	-10.9092
▁happily	-10.9092
▁headquarters	-10.9092
▁homicide	-10.9092
▁intensifies	-10.9092
▁krakozhia	-10.9092
▁natalie	-10.9092
▁politics	-10.9092
▁portrait	-10.9092
▁practicing	-10.9092
▁radiation	-10.9092
▁succeed	-10.9092
▁thompson	-10.9092
▁translating	-10.9092
▁unexpected	-10.9092
▁valentine	-10.9092
▁widow	-10.9092
▁darwin	-10.9092
▁domestic	-10.9092
▁eleven	-10.9092
▁focker	-10.9092
▁mercedes	-10.9092
▁pilgrim	-10.9092
▁carriage	-10.9092
▁praise	-10.9092
▁cotys	-10.9092
▁suspicious	-10.9092
▁vicious	-10.9092
▁statue	-10.9092
▁racing	-10.9092
▁adjust	-10.9092
▁kidnapped	-10.9092
▁twentyfive	-10.9092
▁stanford	-10.9092
▁crick	-10.9092
▁heep	-10.9092
▁japan	-10.9092
▁construction	-10.9092
▁sharing	-10.9092
▁ulla	-10.9092
▁prosecutor	-10.9092
▁incoming	-10.9092
▁andand	-10.9092
▁isabelle	-10.9093
▁furniture	-10.9093
▁replacement	-10.9093
▁reflection	-10.9093
▁acid	-10.9093
▁oui	-10.9093
▁delta	-10.9093
▁kong	-10.9094
▁privilege	-10.9094
▁tide	-10.9094
▁packard	-10.9094
▁affection	-10.9094
▁poppy	-10.9094
ford	-10.9094
▁springtime	-10.9094
▁confession	-10.9095
▁regiment	-10.9095
▁cathy	-10.9096
▁miri	-10.9097
▁morrison	-10.9098
▁wax	-10.9098
▁precisely	-10.9098
▁assigned	-10.91
▁poe	-10.9101
▁jaw	-10.9101
▁sailor	-10.9101
▁lsnt	-10.9101
▁relieved	-10.9102
▁classical	-10.9102
▁fitting	-10.9103
▁turd	-10.9104
▁virtue	-10.9105
▁worthless	-10.9107
▁inner	-10.9108
▁haunted	-10.9112
ore	-10.9122
▁fastest	-10.9128
▁sio	-10.913
▁troubles	-10.9131
▁advanced	-10.9132
▁coordinates	-10.9136
▁cursed	-10.9138
old	-10.914
ically	-10.9141
▁steer	-10.9142
▁seth	-10.9145
▁autobots	-10.915
▁tricky	-10.9153
▁raped	-10.9153
▁mustnt	-10.9154
▁jay	-10.9158
▁assumed	-10.9158
▁journalist	-10.9167
▁tube	-10.9176
▁added	-10.9182
▁sto	-10.9183
▁kicks	-10.9185
fire	-10.9185
ini	-10.9191
▁deserved	-10.9199
▁worrying	-10.9208
▁rod	-10.9217
▁kris	-10.9218
▁bio	-10.9219
ong	-10.9222
▁survivors	-10.9228
▁insects	-10.9235
▁pirates	-10.9236
▁dragons	-10.9242
▁groan	-10.9244
▁aliens	-10.9245
▁wel	-10.9251
▁bombing	-10.9262
▁socks	-10.9267
▁treating	-10.9269
▁jaeger	-10.927
▁pattern	-10.9271
▁costume	-10.9272
▁citizen	-10.9274
▁sheet	-10.9274
▁russians	-10.928
ration	-10.9281
ead	-10.9284
▁stark	-10.9287
▁ven	-10.9291
▁squeals	-10.93
▁coin	-10.9309
ola	-10.9311
▁cuts	-10.9314
qui	-10.9315
▁cared	-10.932
▁recorded	-10.9333
▁rogers	-10.9334
ou	-10.9335
uk	-10.9338
▁actions	-10.9342
▁robe	-10.9355
ski	-10.936
▁seated	-10.9361
▁wheels	-10.9363
▁emt	-10.9371
gged	-10.9388
▁sw	-10.9396
▁muscles	-10.9402
▁crossing	-10.9404
▁punish	-10.9416
▁frighten	-10.942
that	-10.9426
▁placed	-10.9429
▁shu	-10.9435
▁seize	-10.9439
▁my	-10.9445
▁possess	-10.9449
▁establish	-10.9449
▁distress	-10.945
▁spill	-10.9453
nning	-10.9454
▁worker	-10.9457
▁engage	-10.9457
bird	-10.9459
▁grind	-10.946
weight	-10.946
▁custom	-10.946
▁instant	-10.9465
▁suspects	-10.9466
▁puff	-10.9466
▁surge	-10.9471
▁environment	-10.9471
▁asia	-10.9472
▁diamonds	-10.9472
▁rust	-10.9474
▁deposit	-10.9476
▁greet	-10.9476
▁analyst	-10.9476
▁audio	-10.9476
▁barbecue	-10.9476
▁cherevin	-10.9476
▁companies	-10.9476
▁elbow	-10.9476
▁graduation	-10.9476
▁hephaistion	-10.9476
▁hooyah	-10.9476
▁jessica	-10.9476
▁lecture	-10.9476
▁luggage	-10.9476
▁neighing	-10.9476
▁niece	-10.9476
▁november	-10.9476
▁opponent	-10.9476
▁perseus	-10.9476
▁politician	-10.9476
▁pyramid	-10.9476
▁quigley	-10.9476
▁riordan	-10.9476
▁shakespeare	-10.9476
▁spazzatura	-10.9476
▁tokyo	-10.9476
▁wouid	-10.9476
▁crystal	-10.9476
▁debbie	-10.9476
▁donald	-10.9476
▁hastings	-10.9476
▁luther	-10.9476
▁content	-10.9476
▁shaft	-10.9476
▁splendid	-10.9476
▁vomit	-10.9476
▁vocalizing	-10.9476
▁luke	-10.9476
▁element	-10.9476
▁tragic	-10.9476
▁skirt	-10.9477
▁willow	-10.9477
▁thudding	-10.9477
▁denied	-10.9477
▁dutch	-10.9477
▁uptown	-10.9477
▁rogue	-10.9477
▁iook	-10.9477
▁wiii	-10.9477
▁goose	-10.9478
▁hesitate	-10.9478
▁distraction	-10.9478
▁civilian	-10.9478
▁mansfield	-10.9478
▁seattle	-10.9478
▁mistress	-10.9478
▁lima	-10.9478
▁satan	-10.9478
▁alike	-10.9479
▁production	-10.9479
▁confirmation	-10.948
▁heil	-10.948
▁urge	-10.9481
▁chow	-10.9481
▁torn	-10.9481
▁native	-10.9481
▁bonus	-10.9484
▁tastes	-10.9484
▁programmed	-10.9484
▁gin	-10.9485
▁forgiveness	-10.9486
▁handy	-10.9488
ko	-10.9489
▁eden	-10.9492
▁geek	-10.9495
▁erm	-10.9495
▁coal	-10.9496
▁captured	-10.9498
▁consult	-10.9498
▁witnesses	-10.95
▁spite	-10.9501
get	-10.9502
▁tender	-10.9504
▁thumping	-10.9505
▁slit	-10.9506
▁rape	-10.951
▁perfection	-10.9511
▁canceled	-10.9513
▁plead	-10.952
nya	-10.9523
mon	-10.9527
▁drowned	-10.9527
▁refused	-10.9527
▁owl	-10.953
▁scr	-10.9533
rd	-10.9536
▁sew	-10.9537
mate	-10.9537
▁snaps	-10.9542
▁introduced	-10.9544
▁cons	-10.9566
▁buttle	-10.9566
▁signing	-10.9569
▁cre	-10.9571
▁locks	-10.9578
▁honesty	-10.9582
ement	-10.9584
▁heights	-10.9594
▁boxer	-10.9594
berg	-10.9595
▁pilots	-10.961
▁comedy	-10.9617
▁spi	-10.9627
▁carries	-10.9631
▁hash	-10.9633
bin	-10.9636
▁cu	-10.965
poli	-10.9653
▁comms	-10.9662
▁wars	-10.9667
▁cent	-10.9668
▁thumb	-10.9669
▁cheek	-10.967
▁flea	-10.9671
▁zombie	-10.9672
▁rumor	-10.9675
▁intention	-10.9681
▁airline	-10.9683
▁coins	-10.9684
▁visitor	-10.9685
▁sis	-10.9685
▁uhh	-10.9689
rin	-10.9704
▁cd	-10.9706
▁targets	-10.9706
lam	-10.9707
▁sides	-10.9709
▁marked	-10.9712
▁drum	-10.9718
ach	-10.9725
▁types	-10.9728
ich	-10.9731
nom	-10.9735
▁houses	-10.9752
▁actors	-10.9761
▁mae	-10.9767
▁clouds	-10.9772
▁wink	-10.9777
tt	-10.9777
▁beau	-10.9779
▁graves	-10.9784
▁journal	-10.9795
lor	-10.9801
ute	-10.9805
air	-10.9808
▁betray	-10.9811
uh	-10.9825
istic	-10.9831
▁humble	-10.9832
▁coma	-10.9832
▁recover	-10.9837
▁glow	-10.9845
▁proven	-10.9845
▁peck	-10.9846
▁explore	-10.9855
▁hooker	-10.9856
▁include	-10.9857
▁inspire	-10.9858
▁replace	-10.9858
▁kills	-10.9871
▁batter	-10.9871
▁tapes	-10.9874
▁audit	-10.9874
▁it	-10.9875
▁joseph	-10.9875
▁babo	-10.9876
▁agador	-10.9876
▁application	-10.9876
▁appropriate	-10.9876
▁believing	-10.9876
▁brixton	-10.9876
▁candidate	-10.9876
▁description	-10.9876
▁dialogue	-10.9876
▁doolittle	-10.9876
▁finkle	-10.9876
▁garrison	-10.9876
▁groceries	-10.9876
▁hallelujah	-10.9876
▁heimish	-10.9876
▁irene	-10.9876
▁lindsay	-10.9876
▁lisbeth	-10.9876
▁lobby	-10.9876
▁marius	-10.9876
▁savage	-10.9876
▁squash	-10.9876
▁territory	-10.9876
▁tissue	-10.9876
▁vulnerable	-10.9876
▁kronk	-10.9876
▁motel	-10.9876
▁phillip	-10.9876
▁recipe	-10.9876
▁xray	-10.9876
▁arena	-10.9876
▁throne	-10.9876
▁lutz	-10.9876
▁crank	-10.9876
▁pervert	-10.9876
▁terminal	-10.9876
▁nargle	-10.9876
▁preston	-10.9876
▁reese	-10.9876
▁annual	-10.9876
▁sherwood	-10.9876
▁titties	-10.9876
▁clinch	-10.9876
▁reference	-10.9876
▁canada	-10.9876
▁commence	-10.9876
▁jensen	-10.9876
▁addition	-10.9877
▁eternity	-10.9877
▁salute	-10.9877
▁stampler	-10.9877
▁approximately	-10.9877
▁dragged	-10.9877
▁entertainment	-10.9877
▁eema	-10.9877
▁investment	-10.9877
▁valkyrie	-10.9877
▁punishment	-10.9877
▁fanny	-10.9878
▁flap	-10.9878
▁whatll	-10.9878
▁begged	-10.9878
▁sync	-10.9878
▁extract	-10.9878
▁creation	-10.9878
▁skylar	-10.9878
▁remarkable	-10.988
▁hoke	-10.988
▁groom	-10.988
▁bold	-10.988
▁buff	-10.988
▁accidentally	-10.9881
▁amongst	-10.9881
▁settlement	-10.9881
▁ew	-10.9881
▁oven	-10.9882
▁elton	-10.9882
▁snakes	-10.9883
▁fuss	-10.9883
▁horsemen	-10.9884
▁raw	-10.9884
▁dried	-10.9885
▁raven	-10.9886
▁hopper	-10.9886
▁vous	-10.9886
▁fr	-10.9886
▁barry	-10.9888
▁dismissed	-10.9888
▁benson	-10.9888
▁runner	-10.9891
▁kimi	-10.9894
ock	-10.9896
▁deb	-10.9899
▁developed	-10.99
with	-10.9901
▁advised	-10.9902
▁baked	-10.9905
▁vari	-10.9906
▁sets	-10.9906
▁resources	-10.9914
▁sales	-10.9914
▁internal	-10.9915
▁twisted	-10.9915
▁rolls	-10.9916
▁takin	-10.9921
▁teachers	-10.9922
▁afterwards	-10.9923
▁mainly	-10.9923
▁loop	-10.9927
▁grove	-10.9928
▁endless	-10.9937
▁shocked	-10.9948
▁seasons	-10.995
tine	-10.9952
▁existed	-10.9957
▁anne	-10.9962
▁stable	-10.9965
▁bratt	-10.9967
▁mau	-10.9969
▁strain	-10.9972
▁wit	-10.9973
▁hen	-10.9974
fall	-10.9979
▁lance	-10.9984
▁cracked	-10.9989
▁freaked	-10.9989
▁imim	-10.9998
▁pages	-11.0001
▁devils	-11.0005
▁stu	-11.0011
▁swinging	-11.0012
▁jan	-11.0012
▁sigh	-11.0014
▁clip	-11.0016
▁mill	-11.0018
▁tit	-11.0026
▁whoops	-11.0028
▁cone	-11.0028
ep	-11.0034
▁girlfriends	-11.0038
hu	-11.0048
▁moi	-11.0049
▁prayed	-11.0049
▁charged	-11.006
▁squirrel	-11.0085
▁visitors	-11.0086
▁arrangement	-11.0088
▁resident	-11.0089
▁sentinel	-11.0089
ire	-11.0093
▁forms	-11.0116
si	-11.0122
now	-11.0129
▁positions	-11.013
▁mag	-11.0137
▁boob	-11.0146
▁wo	-11.0172
ood	-11.0177
▁mint	-11.0178
▁marking	-11.0199
▁acts	-11.0218
▁sleepy	-11.0227
ude	-11.0242
▁plea	-11.0247
tte	-11.0261
rum	-11.0266
▁mole	-11.0273
knock	-11.0276
▁technical	-11.0282
▁flames	-11.0292
▁adhemar	-11.0293
▁brigade	-11.0293
▁butler	-11.0293
▁ceiling	-11.0293
▁column	-11.0293
▁elegant	-11.0293
▁emmett	-11.0293
▁fascinating	-11.0293
▁flavor	-11.0293
▁geoghan	-11.0293
▁godfrey	-11.0293
▁greece	-11.0293
▁imprint	-11.0293
▁industry	-11.0293
▁kovic	-11.0293
▁martial	-11.0293
▁mutual	-11.0293
▁naughty	-11.0293
▁rainbow	-11.0293
▁religion	-11.0293
▁rendezvous	-11.0293
▁semester	-11.0293
▁shakily	-11.0293
▁supplies	-11.0293
▁knives	-11.0293
▁judging	-11.0293
▁causing	-11.0293
▁harsh	-11.0293
▁larson	-11.0293
▁saverio	-11.0293
▁hottest	-11.0293
▁pennsylvania	-11.0293
▁psychological	-11.0293
▁cease	-11.0293
▁muttering	-11.0293
▁imperial	-11.0293
▁glorious	-11.0293
▁lottery	-11.0293
▁pledge	-11.0293
▁briefcase	-11.0293
▁previous	-11.0293
▁frog	-11.0293
▁reset	-11.0293
▁nolan	-11.0293
▁baggage	-11.0293
▁parole	-11.0293
▁sector	-11.0293
▁isabella	-11.0293
▁bluff	-11.0293
▁nadine	-11.0293
▁mellow	-11.0293
▁creating	-11.0294
▁rlght	-11.0294
▁ferguson	-11.0294
▁item	-11.0294
▁expand	-11.0294
▁development	-11.0294
▁consent	-11.0294
▁bonnie	-11.0294
▁limo	-11.0294
▁testify	-11.0294
▁barrow	-11.0294
▁piglet	-11.0294
▁typing	-11.0294
▁haircut	-11.0295
▁formula	-11.0295
▁skinny	-11.0295
▁hugh	-11.0296
▁blur	-11.0297
▁gap	-11.0297
▁lunar	-11.0297
▁sworn	-11.0297
▁dedicated	-11.0297
▁poppa	-11.0297
▁murphy	-11.0298
▁peterson	-11.0299
▁cafe	-11.03
▁tooth	-11.0303
▁clearance	-11.0305
▁attached	-11.0307
▁tries	-11.0308
▁reign	-11.0308
▁lexi	-11.0309
▁backyard	-11.031
▁clothing	-11.0311
▁fond	-11.0311
▁hooting	-11.0316
▁shushing	-11.0316
▁falcon	-11.0319
▁bates	-11.0321
▁vent	-11.0321
▁beaten	-11.0322
▁tele	-11.0322
▁invented	-11.0323
▁daniela	-11.0324
▁publisher	-11.0326
▁unto	-11.0329
ula	-11.033
▁dal	-11.0331
▁madeline	-11.0336
jack	-11.0351
▁initial	-11.0354
▁micro	-11.0356
▁pearls	-11.036
fer	-11.0371
▁grin	-11.0372
▁relations	-11.0377
eat	-11.0383
▁fame	-11.0383
▁borrowed	-11.0384
▁fore	-11.0387
▁butts	-11.0396
▁cf	-11.0397
▁nurses	-11.0403
▁rebels	-11.0421
▁dani	-11.0427
▁stores	-11.0427
▁waitin	-11.0428
▁lapd	-11.0431
▁smarter	-11.0432
▁taik	-11.0433
▁ai	-11.0437
more	-11.044
▁tips	-11.0446
▁squ	-11.0453
▁shooter	-11.0453
▁fri	-11.0455
ett	-11.0455
▁dep	-11.0456
▁emotions	-11.0457
▁screwing	-11.0461
▁sucked	-11.0463
ttle	-11.0465
nto	-11.0485
▁mist	-11.0488
▁filling	-11.0493
▁residents	-11.0501
ik	-11.0504
▁womans	-11.0507
▁beers	-11.0512
▁williams	-11.0514
▁lins	-11.0521
▁arrow	-11.0521
▁tool	-11.0526
▁stack	-11.0528
▁sock	-11.053
▁levels	-11.0532
▁cor	-11.054
▁mas	-11.0542
cho	-11.0543
▁boats	-11.0543
▁resolve	-11.0544
tz	-11.0558
▁scenes	-11.0566
lly	-11.0573
▁fighters	-11.0582
▁critic	-11.0594
pitched	-11.0596
sis	-11.0613
▁des	-11.0619
▁comm	-11.0647
▁reporters	-11.0654
▁scrape	-11.0657
▁reverse	-11.0666
▁develop	-11.067
▁fuckers	-11.0677
fuck	-11.0679
▁aj	-11.0683
▁seq	-11.0687
▁fears	-11.069
▁flirt	-11.0694
▁thump	-11.0695
▁ve	-11.0696
▁cur	-11.0697
▁sharks	-11.0699
▁drops	-11.0699
▁jess	-11.07
▁toll	-11.0701
ney	-11.0701
▁addict	-11.0702
place	-11.0704
▁zip	-11.0706
▁wander	-11.071
▁raining	-11.071
▁graduate	-11.0713
▁nasa	-11.0714
▁evacuate	-11.0716
▁teams	-11.0716
▁adults	-11.0717
▁pipes	-11.0717
▁ger	-11.0721
ont	-11.0722
▁fabric	-11.0727
▁abbey	-11.0728
▁banana	-11.0728
▁beiieve	-11.0728
▁broccoli	-11.0728
▁bulgarian	-11.0728
▁centuries	-11.0728
▁cleitus	-11.0728
▁davinier	-11.0728
▁deborah	-11.0728
▁discipline	-11.0728
▁dunno	-11.0728
▁fredricksen	-11.0728
▁graeme	-11.0728
▁haymitch	-11.0728
▁horror	-11.0728
▁intercept	-11.0728
▁keeley	-11.0728
▁loxley	-11.0728
▁melinda	-11.0728
▁mermaid	-11.0728
▁michigan	-11.0728
▁oglethorpe	-11.0728
▁optimus	-11.0728
▁philadelphia	-11.0728
▁pudding	-11.0728
▁razor	-11.0728
▁sequence	-11.0728
▁strategy	-11.0728
▁temperature	-11.0728
▁wheelchair	-11.0728
▁wisdom	-11.0728
▁butterfly	-11.0728
▁choosing	-11.0728
▁itsits	-11.0728
▁lounge	-11.0728
▁malfunction	-11.0728
▁preparing	-11.0728
▁clyde	-11.0728
▁intel	-11.0728
▁reduce	-11.0728
▁translate	-11.0728
▁aisle	-11.0728
▁grabbed	-11.0728
▁dummy	-11.0728
▁ramses	-11.0728
▁linnet	-11.0728
▁lunatic	-11.0728
▁darnell	-11.0728
▁sodom	-11.0728
▁upgrade	-11.0728
▁allyson	-11.0728
▁excitement	-11.0728
▁youii	-11.0728
▁duties	-11.0728
▁riley	-11.0728
▁authorized	-11.0729
▁overnight	-11.0729
▁hissing	-11.0729
▁leaf	-11.0729
▁primary	-11.0729
▁kara	-11.0729
▁heap	-11.0729
▁johanna	-11.0729
▁subway	-11.0729
▁passionate	-11.0729
▁herd	-11.0729
▁hawk	-11.0729
▁descend	-11.073
▁percy	-11.073
▁platoon	-11.073
▁batteries	-11.073
▁downton	-11.073
▁salary	-11.073
▁cmon	-11.073
▁pepper	-11.073
▁monet	-11.0731
▁riddle	-11.0731
▁pbs	-11.0732
▁fields	-11.0732
▁megan	-11.0733
▁lionel	-11.0733
▁waltz	-11.0733
▁corky	-11.0734
▁exhausted	-11.0736
▁villagers	-11.0736
▁pigeon	-11.0737
▁pickett	-11.0738
▁soda	-11.0738
▁monk	-11.0738
▁located	-11.074
▁lowry	-11.074
▁rushman	-11.0744
▁arrives	-11.0745
▁approved	-11.0746
▁graduated	-11.0746
▁ifyou	-11.075
▁ciao	-11.0751
▁forgetting	-11.0752
▁starve	-11.0752
▁nein	-11.0754
▁ahem	-11.0758
▁disturbing	-11.0758
▁cells	-11.0759
thic	-11.0761
▁marie	-11.0763
▁ewing	-11.0765
▁buzzer	-11.0769
▁oughta	-11.0771
▁shorts	-11.0772
▁complaining	-11.0773
▁traditional	-11.0775
▁scissors	-11.0778
▁macho	-11.0779
▁voted	-11.079
▁burnt	-11.0794
ave	-11.0799
▁requesting	-11.0804
life	-11.0807
▁cane	-11.0808
▁pun	-11.081
▁lina	-11.0814
▁ribs	-11.0815
▁thread	-11.0816
▁mandy	-11.0818
ook	-11.0825
▁flush	-11.0828
▁scores	-11.083
▁strikes	-11.0832
ggle	-11.0834
▁booked	-11.0841
▁workers	-11.0846
▁blocked	-11.0852
▁fairly	-11.0852
▁tis	-11.0861
▁vie	-11.0863
▁you	-11.0864
▁aha	-11.0869
▁tab	-11.087
▁hoo	-11.0873
▁grades	-11.0873
▁contain	-11.0875
▁owen	-11.0876
▁ego	-11.0891
▁blt	-11.0904
▁resumes	-11.0908
▁tourists	-11.0908
▁server	-11.0915
▁bel	-11.0921
▁believes	-11.0927
▁computers	-11.0927
▁affairs	-11.0928
▁accus	-11.0929
▁meters	-11.0935
▁pose	-11.0952
▁os	-11.0956
▁gaga	-11.0962
▁attacks	-11.0963
▁kin	-11.0965
▁relatives	-11.0974
▁employee	-11.0976
▁doughnut	-11.0976
▁knot	-11.0977
▁sample	-11.0977
▁operations	-11.0993
▁via	-11.0994
▁limits	-11.1002
▁candles	-11.1003
▁asset	-11.1009
▁vers	-11.1014
tan	-11.1015
but	-11.1026
▁laughed	-11.1028
▁bun	-11.1029
▁mouths	-11.1038
▁newspapers	-11.1039
ats	-11.1046
▁initiate	-11.1052
▁grows	-11.1056
take	-11.1059
eth	-11.106
▁slo	-11.1076
▁pale	-11.1089
▁jumping	-11.1092
▁tease	-11.1098
cation	-11.1112
▁beds	-11.1118
▁haunt	-11.1122
▁engineers	-11.1124
▁strings	-11.1125
▁sticking	-11.1126
row	-11.1139
▁generations	-11.1153
▁kiii	-11.1153
▁convict	-11.1154
▁inherit	-11.1155
▁offend	-11.1157
play	-11.1162
▁numb	-11.1167
▁achieve	-11.1168
▁restore	-11.1169
keeper	-11.1169
▁activate	-11.1171
▁trim	-11.1175
▁alfred	-11.1175
raising	-11.1177
berry	-11.1178
▁mornin	-11.1179
▁reception	-11.1181
▁deploy	-11.1181
▁companion	-11.1182
▁interfere	-11.1182
▁accompany	-11.1182
▁amateur	-11.1182
▁astronaut	-11.1182
▁battalion	-11.1182
▁becca	-11.1182
▁blush	-11.1182
▁carlisle	-11.1182
▁chelsea	-11.1182
▁clinking	-11.1182
▁coconut	-11.1182
▁conscience	-11.1182
▁conspiracy	-11.1182
▁corporal	-11.1182
▁dominic	-11.1182
▁garvin	-11.1182
▁gideon	-11.1182
▁gracias	-11.1182
▁isaac	-11.1182
▁kennedy	-11.1182
▁laundry	-11.1182
▁linderman	-11.1182
▁liquor	-11.1182
▁milady	-11.1182
▁morpheus	-11.1182
▁negotiate	-11.1182
▁nephew	-11.1182
▁overcome	-11.1182
▁pamela	-11.1182
▁phrase	-11.1182
▁prostitute	-11.1182
▁refrigerator	-11.1182
▁significant	-11.1182
▁solemn	-11.1182
▁somewhat	-11.1182
▁spaghetti	-11.1182
▁taliban	-11.1182
▁toxic	-11.1182
▁tshirt	-11.1182
▁voyage	-11.1182
▁zuba	-11.1182
▁berries	-11.1182
▁senate	-11.1182
▁warehouse	-11.1182
▁stubborn	-11.1182
▁thug	-11.1182
▁narrow	-11.1182
▁llama	-11.1182
▁toot	-11.1182
▁transplant	-11.1182
▁herald	-11.1182
▁iraq	-11.1182
▁compound	-11.1182
▁scholarship	-11.1182
▁tornado	-11.1182
▁destruction	-11.1182
▁population	-11.1182
▁violation	-11.1182
▁gallery	-11.1182
▁salmon	-11.1183
▁blend	-11.1183
▁confusion	-11.1183
▁nickname	-11.1183
▁lizard	-11.1183
▁malone	-11.1183
▁display	-11.1183
▁communist	-11.1183
▁software	-11.1183
▁saber	-11.1183
▁bertie	-11.1183
▁velma	-11.1183
▁franz	-11.1184
▁joyner	-11.1184
▁corruption	-11.1184
▁operating	-11.1184
▁katia	-11.1184
▁logue	-11.1184
▁infinite	-11.1184
▁jewelry	-11.1184
▁auction	-11.1184
▁lime	-11.1184
▁leadership	-11.1185
▁genie	-11.1185
▁bodyguard	-11.1185
▁objective	-11.1185
▁keen	-11.1185
▁snowball	-11.1186
▁sidewalk	-11.1186
mar	-11.1186
▁kenton	-11.1187
▁dreadful	-11.1188
▁mason	-11.1188
▁dough	-11.1189
▁jen	-11.1189
▁stepped	-11.119
▁fork	-11.119
▁growth	-11.1191
▁alnt	-11.1192
▁driveway	-11.1192
▁gently	-11.1193
▁recommendation	-11.1193
▁stein	-11.1193
▁sandwiches	-11.1194
▁cooler	-11.1195
▁wooden	-11.1195
stick	-11.1196
▁sittin	-11.1197
▁alan	-11.1198
▁bowers	-11.12
▁tighten	-11.1203
▁faintly	-11.1203
▁codes	-11.1203
▁preacher	-11.1204
▁punches	-11.1209
cina	-11.1211
▁estel	-11.1212
▁kl	-11.1213
▁particularly	-11.1213
▁snarls	-11.1216
▁fry	-11.1217
▁evolution	-11.1223
▁strongest	-11.1224
▁nailed	-11.1226
▁mechanical	-11.1228
▁fleet	-11.1229
▁scam	-11.1229
▁sweetest	-11.123
▁copper	-11.123
▁pige	-11.1231
▁rumbles	-11.1235
▁ru	-11.124
▁issued	-11.1242
▁fingerprints	-11.1245
▁crushed	-11.1245
▁mul	-11.1247
▁will	-11.1254
▁sacrificed	-11.1263
▁quest	-11.1263
▁retrieve	-11.1263
▁kindness	-11.1264
itt	-11.1277
▁cocking	-11.128
▁lawn	-11.128
▁discussed	-11.1287
▁molest	-11.1289
▁shocking	-11.1289
hel	-11.13
▁touches	-11.1303
▁consequences	-11.1303
▁rely	-11.1305
▁shortly	-11.1306
▁lao	-11.1314
▁stripes	-11.1314
nine	-11.1319
▁tet	-11.132
▁strap	-11.1323
▁jar	-11.1333
▁homeless	-11.1337
▁interviews	-11.1345
grade	-11.1367
▁wished	-11.1371
▁honks	-11.1381
▁parked	-11.1382
▁tracked	-11.1382
▁flu	-11.1386
▁sakes	-11.1387
rus	-11.1387
▁rd	-11.139
tim	-11.1395
▁winners	-11.1412
▁airlines	-11.142
▁allies	-11.1421
▁destroying	-11.1425
▁costumes	-11.143
▁pad	-11.1436
▁handled	-11.1437
ras	-11.1439
heads	-11.1444
▁fade	-11.1445
▁communications	-11.145
▁dinosaur	-11.1451
▁americas	-11.1452
▁peasant	-11.1452
▁pegg	-11.1456
▁wires	-11.1466
tell	-11.1467
walk	-11.1475
▁nicolas	-11.1479
light	-11.148
gil	-11.1488
▁honk	-11.1494
▁towels	-11.1499
fully	-11.1499
▁gent	-11.1504
met	-11.1506
▁che	-11.1508
▁explained	-11.151
▁dy	-11.1512
▁bulls	-11.1512
▁conversations	-11.1551
▁murders	-11.1554
mont	-11.1562
▁monkeys	-11.1562
▁rad	-11.1562
▁ove	-11.1562
▁eu	-11.1564
cop	-11.1566
▁explosions	-11.1567
▁mcc	-11.1571
▁dressing	-11.1576
ably	-11.1581
▁disappoint	-11.1598
called	-11.1599
▁disturb	-11.1599
▁nan	-11.1604
▁reject	-11.161
▁bark	-11.1611
▁delight	-11.1625
▁distract	-11.1631
▁exc	-11.1639
mouth	-11.1641
six	-11.1644
iness	-11.1645
▁guilt	-11.1645
▁harp	-11.1647
▁mamma	-11.1647
▁pony	-11.1651
▁erik	-11.1652
▁inspiration	-11.1653
eyed	-11.1654
▁heii	-11.1655
▁exhibit	-11.1656
▁prior	-11.1657
▁profit	-11.1657
▁blank	-11.1657
▁script	-11.1658
▁allergic	-11.1658
▁approval	-11.1658
▁barricade	-11.1658
▁byrnes	-11.1658
▁cherokee	-11.1658
▁combination	-11.1658
▁coyote	-11.1658
▁cradle	-11.1658
▁cruise	-11.1658
▁disrespect	-11.1658
▁evaluation	-11.1658
▁fernando	-11.1658
▁foxtrot	-11.1658
▁hilarious	-11.1658
▁hurricane	-11.1658
▁juilliard	-11.1658
▁mcbride	-11.1658
▁mccormack	-11.1658
▁minimum	-11.1658
▁ministry	-11.1658
▁miraculous	-11.1658
▁mutant	-11.1658
▁paranoid	-11.1658
▁penthouse	-11.1658
▁preparation	-11.1658
▁quarantine	-11.1658
▁rehearsal	-11.1658
▁reliable	-11.1658
▁rhonda	-11.1658
▁rosenberg	-11.1658
▁struggling	-11.1658
▁submit	-11.1658
▁testimony	-11.1658
▁treasury	-11.1658
▁walmart	-11.1658
▁wrinkle	-11.1658
▁chemical	-11.1658
▁dovid	-11.1658
▁otis	-11.1658
▁token	-11.1658
▁fender	-11.1658
▁izzi	-11.1658
▁scandal	-11.1658
▁wagon	-11.1658
▁absence	-11.1658
▁rouge	-11.1658
▁particle	-11.1658
▁jasper	-11.1658
▁hawkins	-11.1659
▁resent	-11.1659
▁magnet	-11.1659
▁departure	-11.1659
▁chemistry	-11.1659
▁waving	-11.1659
▁robbing	-11.1659
▁jelly	-11.1659
▁pearce	-11.1659
▁lodge	-11.1659
▁racist	-11.1659
▁forehead	-11.1659
▁tension	-11.1659
▁committee	-11.1659
▁global	-11.1659
▁retail	-11.1659
▁fiddle	-11.1659
▁serum	-11.1659
▁egyptian	-11.166
▁timmy	-11.166
▁roast	-11.166
▁meow	-11.166
▁kiah	-11.166
▁eyre	-11.166
▁spotlight	-11.166
▁admiral	-11.1661
▁void	-11.1661
▁delete	-11.1661
▁instructor	-11.1662
▁plow	-11.1663
▁toto	-11.1663
▁dove	-11.1663
▁vika	-11.1664
▁grownup	-11.1666
▁gps	-11.1666
▁accomplished	-11.1666
▁dina	-11.1667
▁shelley	-11.1668
▁coleman	-11.1668
▁quitting	-11.1669
▁stepping	-11.167
▁bushes	-11.167
▁chen	-11.167
▁moore	-11.1671
▁touchdown	-11.1671
▁lighthouse	-11.1672
▁brass	-11.1673
▁agena	-11.1673
▁organized	-11.1673
▁presentation	-11.1675
▁puffy	-11.1675
▁silk	-11.1677
▁rv	-11.1677
▁madness	-11.1677
▁cooing	-11.1678
▁maiden	-11.1678
lie	-11.168
▁mein	-11.168
▁nickel	-11.1682
▁ami	-11.1682
▁disturbed	-11.1684
▁loverly	-11.169
▁crashes	-11.169
▁comb	-11.1692
▁hotter	-11.1692
▁thrilled	-11.1693
terior	-11.1695
▁jesse	-11.1698
▁rae	-11.1698
▁headline	-11.1699
▁boz	-11.1703
▁nightmares	-11.1708
▁shutter	-11.171
▁cates	-11.1714
▁bitter	-11.1716
▁lair	-11.1718
▁dh	-11.1722
▁taller	-11.1723
▁cai	-11.1725
▁defeated	-11.1726
▁shithead	-11.1726
▁dolls	-11.1726
▁coolest	-11.1732
▁yelps	-11.1734
▁tor	-11.1735
▁followers	-11.1739
▁appeared	-11.1741
ory	-11.1741
▁whys	-11.1745
▁businessman	-11.1748
▁nervously	-11.1749
▁martini	-11.1753
▁historical	-11.1758
hoo	-11.176
▁designer	-11.1762
sky	-11.1762
▁sneaking	-11.1764
▁photographer	-11.1765
▁sling	-11.1766
put	-11.1773
▁hardest	-11.1776
phone	-11.1778
▁dodge	-11.1784
▁tore	-11.1789
zio	-11.1793
ppy	-11.1797
▁promises	-11.1805
▁tricked	-11.181
▁messy	-11.1814
ado	-11.1834
nor	-11.1837
▁rey	-11.1839
▁surprises	-11.184
▁lis	-11.1847
▁teenagers	-11.1848
▁blades	-11.1849
▁cows	-11.1867
▁genes	-11.1875
▁mes	-11.1877
▁contains	-11.188
▁sie	-11.188
▁min	-11.1883
▁lid	-11.1892
▁drums	-11.1905
▁zombies	-11.1908
▁cue	-11.1915
▁regard	-11.1917
▁dru	-11.1925
orr	-11.1933
▁bangs	-11.1935
▁finance	-11.1941
▁decade	-11.1952
▁burger	-11.1952
▁await	-11.1953
▁resume	-11.1954
▁groups	-11.1955
▁increase	-11.1955
▁tourist	-11.1963
ello	-11.1972
▁misses	-11.1972
▁spice	-11.1973
▁clearing	-11.1975
▁pint	-11.198
pie	-11.1982
ware	-11.1991
master	-11.1992
▁interests	-11.2006
azz	-11.2013
ith	-11.2019
▁pod	-11.2034
▁indians	-11.2043
izz	-11.2047
thing	-11.2057
▁mil	-11.2062
▁nerves	-11.2064
▁thrust	-11.2068
▁harvest	-11.2079
▁cove	-11.2084
▁marian	-11.2092
aba	-11.2109
▁mechanic	-11.2109
▁float	-11.2125
▁tink	-11.2127
▁dash	-11.2134
guard	-11.2134
▁approve	-11.214
▁define	-11.2141
water	-11.2143
▁roads	-11.2143
▁chunk	-11.2145
▁singers	-11.2147
▁villa	-11.2149
range	-11.2151
▁luis	-11.2151
▁bore	-11.2151
shop	-11.2152
▁branch	-11.2153
▁trump	-11.2157
▁cigar	-11.2158
▁adorable	-11.2158
▁balcony	-11.2158
▁capacity	-11.2158
▁certificate	-11.2158
▁cocaine	-11.2158
▁corridor	-11.2158
▁december	-11.2158
▁entitled	-11.2158
▁etienne	-11.2158
▁fountain	-11.2158
▁gipsy	-11.2158
▁giulia	-11.2158
▁grenade	-11.2158
▁grenouille	-11.2158
▁grunion	-11.2158
▁harbor	-11.2158
▁income	-11.2158
▁infection	-11.2158
▁intimate	-11.2158
▁katrine	-11.2158
▁kendall	-11.2158
▁kragen	-11.2158
▁luthor	-11.2158
▁macleish	-11.2158
▁muslim	-11.2158
▁negotiation	-11.2158
▁nigga	-11.2158
▁pencil	-11.2158
▁phoenix	-11.2158
▁platform	-11.2158
▁pookie	-11.2158
▁prescription	-11.2158
▁rhesus	-11.2158
▁rubbish	-11.2158
▁shannon	-11.2158
▁shrimp	-11.2158
▁swift	-11.2158
▁sydney	-11.2158
▁twilight	-11.2158
▁vetlesen	-11.2158
▁violin	-11.2158
▁wolverton	-11.2158
▁worries	-11.2158
▁landlord	-11.2158
▁bouncing	-11.2158
▁dennis	-11.2158
▁stabbed	-11.2158
▁trilling	-11.2158
▁diaper	-11.2158
▁restrain	-11.2158
▁clerk	-11.2158
▁martel	-11.2158
▁scoot	-11.2158
▁salvation	-11.2158
▁transmission	-11.2158
▁schmuck	-11.2158
▁chores	-11.2158
▁trophy	-11.2158
▁randall	-11.2159
▁picnic	-11.2159
▁iady	-11.2159
▁dining	-11.2159
▁tuttle	-11.2159
▁chord	-11.2159
▁prospect	-11.2159
▁psst	-11.2159
▁rag	-11.2159
▁mattress	-11.2159
▁edgar	-11.2159
▁beware	-11.2159
shit	-11.2159
▁asap	-11.2159
▁masterpiece	-11.2159
▁hades	-11.2159
▁theories	-11.2159
▁studies	-11.2159
▁fading	-11.2159
▁uber	-11.2159
▁compassion	-11.216
▁radar	-11.216
▁dimension	-11.216
▁tyler	-11.216
▁strut	-11.216
▁panties	-11.216
▁necessarily	-11.2161
▁minus	-11.2161
▁pender	-11.2161
▁shelf	-11.2161
▁spacecom	-11.2162
▁logan	-11.2162
▁salesman	-11.2162
▁partnership	-11.2162
▁shook	-11.2162
▁clayton	-11.2162
▁pine	-11.2163
▁management	-11.2163
▁lockwood	-11.2163
▁sunny	-11.2164
▁zoom	-11.2164
▁budget	-11.2164
▁rail	-11.2164
▁appetite	-11.2165
▁reai	-11.2165
▁iet	-11.2166
▁identified	-11.2166
▁tart	-11.2166
▁maya	-11.2166
▁vanished	-11.2168
▁terrorists	-11.2169
▁clacking	-11.217
▁suspended	-11.217
▁tanks	-11.217
▁broom	-11.217
▁dice	-11.2171
▁hideous	-11.2172
▁andrea	-11.2173
▁pluck	-11.2173
▁christine	-11.2173
▁shattering	-11.2175
▁jammed	-11.2175
▁frontier	-11.2175
▁skate	-11.2178
▁slightly	-11.2178
▁kent	-11.2181
▁ross	-11.2181
▁inspired	-11.2182
▁fag	-11.2183
▁soak	-11.2184
▁emotionally	-11.2185
▁offended	-11.2187
▁chant	-11.2188
▁physically	-11.2189
▁rabbits	-11.2191
▁sang	-11.2193
▁specialist	-11.2193
▁kay	-11.2194
▁claus	-11.2195
▁metro	-11.2197
▁grape	-11.2199
▁lras	-11.22
▁solved	-11.2205
▁decepticons	-11.2206
▁bugsy	-11.2216
▁featur	-11.2218
uit	-11.222
lc	-11.2221
▁swallowed	-11.2226
▁scaring	-11.2231
▁pounding	-11.224
▁recognized	-11.224
▁goodlooking	-11.2243
▁cracks	-11.2247
▁swat	-11.2251
▁healing	-11.2253
ability	-11.2254
▁smashing	-11.2263
▁bein	-11.2268
▁stoney	-11.2272
zing	-11.2285
oid	-11.2288
▁gro	-11.2288
▁ordering	-11.2293
▁reb	-11.2295
▁suggested	-11.2296
▁judges	-11.2301
mming	-11.2302
▁guessed	-11.231
▁carla	-11.2313
▁riot	-11.2316
▁plants	-11.2317
▁dar	-11.2319
▁proved	-11.2321
▁pillars	-11.2324
▁langs	-11.2327
▁snipe	-11.2332
▁dolphins	-11.2335
▁aus	-11.2335
▁deals	-11.2337
▁punching	-11.2339
havin	-11.2341
▁remaining	-11.2351
who	-11.2363
▁generally	-11.2364
▁dealt	-11.2365
▁vest	-11.2365
nda	-11.2368
▁af	-11.2369
▁keeper	-11.2378
▁nash	-11.238
▁assets	-11.2389
▁childrens	-11.2403
▁planes	-11.2403
▁wu	-11.2404
▁fits	-11.2413
▁fran	-11.2418
▁intentions	-11.2421
▁importantly	-11.2425
▁congratulate	-11.2432
▁ul	-11.2433
▁sucking	-11.2433
▁decides	-11.2441
think	-11.2445
▁amys	-11.2447
▁hairy	-11.2449
▁boney	-11.2451
▁od	-11.2457
▁sup	-11.2462
your	-11.2462
▁ce	-11.2463
▁walkin	-11.2466
har	-11.2471
▁emotion	-11.2475
▁associate	-11.2477
▁colleague	-11.2479
▁pirate	-11.2482
▁balloon	-11.2482
▁insect	-11.2483
dest	-11.2483
▁teenager	-11.2486
▁compliments	-11.2498
rg	-11.25
form	-11.2501
▁ku	-11.2502
▁ak	-11.2503
▁buckle	-11.2504
▁needle	-11.2508
cent	-11.252
▁dec	-11.2522
▁bars	-11.2523
▁clan	-11.2539
▁hol	-11.2545
van	-11.2548
how	-11.255
stock	-11.2555
▁undo	-11.2565
▁follows	-11.2566
▁shack	-11.2567
▁offers	-11.2569
most	-11.2571
▁spots	-11.2572
tre	-11.2579
▁poems	-11.2586
▁relaxed	-11.2587
▁clowns	-11.2597
tta	-11.2612
ates	-11.2616
▁products	-11.2616
▁embarrass	-11.2625
▁chan	-11.2625
far	-11.2634
▁sever	-11.2646
▁conquer	-11.2659
▁crook	-11.266
▁threaten	-11.266
▁walt	-11.2661
▁stat	-11.2662
▁fulfill	-11.2666
▁estimate	-11.2666
▁whine	-11.2667
dollar	-11.2668
▁morris	-11.2676
▁puss	-11.2677
▁elder	-11.2678
▁soph	-11.2678
ooo	-11.268
▁region	-11.2681
▁exam	-11.2681
boat	-11.2681
▁livin	-11.2681
▁cartoon	-11.2684
▁surf	-11.2685
responsibilities	-11.2685
▁arriving	-11.2685
▁artillery	-11.2685
▁bourbon	-11.2685
▁burmese	-11.2685
▁carnival	-11.2685
▁compartment	-11.2685
▁corporate	-11.2685
▁cortez	-11.2685
▁destination	-11.2685
▁detroit	-11.2685
▁encounter	-11.2685
▁galaxy	-11.2685
▁gasoline	-11.2685
▁hagrid	-11.2685
▁harlem	-11.2685
▁heinrich	-11.2685
▁hemingway	-11.2685
▁hobby	-11.2685
▁hogwarts	-11.2685
▁invasion	-11.2685
▁lobster	-11.2685
▁longstreet	-11.2685
▁messenger	-11.2685
▁novalee	-11.2685
▁prototype	-11.2685
▁shanghai	-11.2685
▁sorrow	-11.2685
▁southwest	-11.2685
▁spectacular	-11.2685
▁sylvia	-11.2685
▁syndicate	-11.2685
▁thanksgiving	-11.2685
▁unacceptable	-11.2685
▁vacuum	-11.2685
▁valjean	-11.2685
▁vessel	-11.2685
▁wabac	-11.2685
▁farewell	-11.2685
▁lambert	-11.2685
▁sunrise	-11.2685
▁adapt	-11.2685
▁blanchard	-11.2685
▁promising	-11.2685
▁tumor	-11.2685
▁woogie	-11.2685
▁stroll	-11.2685
▁cramp	-11.2685
▁lgby	-11.2685
▁tiffany	-11.2685
▁tweet	-11.2685
▁yield	-11.2685
▁dispute	-11.2685
▁varinia	-11.2685
▁darrow	-11.2685
▁nuke	-11.2685
▁executive	-11.2685
▁pension	-11.2685
▁clanking	-11.2685
▁parlor	-11.2685
▁donut	-11.2685
▁cheque	-11.2685
▁outlaw	-11.2685
▁merk	-11.2685
▁iggy	-11.2685
▁greetings	-11.2686
▁booze	-11.2686
▁napkin	-11.2686
▁republican	-11.2686
▁tutar	-11.2686
▁crane	-11.2686
▁sanford	-11.2686
▁specifically	-11.2686
▁priority	-11.2686
▁attraction	-11.2686
▁handshake	-11.2687
▁marston	-11.2687
▁keyboard	-11.2687
▁sentimental	-11.2687
▁flynn	-11.2687
▁aaah	-11.2687
▁padre	-11.2687
▁invention	-11.2687
▁hls	-11.2688
▁kung	-11.2688
nnoy	-11.2689
▁bracelet	-11.2689
▁exile	-11.269
▁roam	-11.269
▁rebuild	-11.269
▁snarling	-11.2691
▁harrison	-11.2691
▁shep	-11.2691
▁mitch	-11.2692
▁kidney	-11.2692
▁constantly	-11.2693
▁peak	-11.2693
▁funky	-11.2693
▁doggy	-11.2693
▁hart	-11.2695
▁housekeeper	-11.2696
▁bowen	-11.2697
▁lamp	-11.2697
▁slipper	-11.2698
▁facebook	-11.2698
▁midas	-11.2698
▁grain	-11.27
▁javier	-11.27
▁ivan	-11.27
▁rapidly	-11.2702
fusion	-11.2709
ough	-11.271
▁crooked	-11.271
▁distracted	-11.2713
▁itch	-11.2717
▁wrestler	-11.2717
▁threatening	-11.2718
▁mustard	-11.2723
▁backpack	-11.2723
▁flirting	-11.2725
▁equals	-11.273
▁originally	-11.2731
▁endure	-11.2732
▁sheriffs	-11.2738
▁reaches	-11.274
rian	-11.2744
▁forgiven	-11.2744
▁stirr	-11.2753
▁ammi	-11.2757
▁insisted	-11.2759
▁dialing	-11.276
▁iz	-11.2761
▁handcuffs	-11.2769
▁francs	-11.277
four	-11.277
rent	-11.2772
▁pickle	-11.2773
▁container	-11.2773
▁quo	-11.2779
▁wheeler	-11.278
▁fay	-11.2781
▁catching	-11.2788
▁tackle	-11.279
▁vegetables	-11.2792
▁clatters	-11.2792
▁lens	-11.2794
▁bare	-11.2801
mber	-11.2806
▁gr	-11.2813
▁pasta	-11.2813
▁stones	-11.2816
lit	-11.2818
hala	-11.282
▁posted	-11.2821
▁reminder	-11.2832
▁thankyou	-11.2834
▁initiat	-11.2838
▁rem	-11.284
▁revs	-11.2843
▁entering	-11.2848
▁tut	-11.2849
▁marching	-11.2853
▁spreading	-11.2859
▁switching	-11.2859
▁ties	-11.2865
▁tomb	-11.287
▁hostages	-11.2871
▁hog	-11.2873
▁mont	-11.2879
▁beard	-11.2883
will	-11.2885
▁mim	-11.2886
ole	-11.2895
▁awaken	-11.2898
▁debate	-11.2899
▁compete	-11.2903
▁grounds	-11.2908
▁mou	-11.2913
term	-11.2913
▁samples	-11.2928
▁what	-11.2929
▁seeking	-11.2929
ico	-11.2933
▁meg	-11.2936
▁mags	-11.2949
▁ee	-11.2973
▁heroin	-11.2974
▁perk	-11.2976
▁starks	-11.2978
▁hitlers	-11.2981
▁bb	-11.2986
▁merc	-11.2997
▁cough	-11.3008
ised	-11.3011
▁reader	-11.3016
▁criminals	-11.3022
▁cam	-11.3024
▁benefits	-11.3032
▁instinct	-11.3034
▁sponsor	-11.3034
▁lovers	-11.3034
▁counted	-11.3036
▁survivor	-11.3036
▁mayo	-11.3038
▁wig	-11.3052
▁airplanes	-11.3055
long	-11.3058
▁triple	-11.3067
▁marines	-11.3078
▁stuffed	-11.3088
▁sixty	-11.3093
▁whipp	-11.3094
▁servants	-11.3101
▁nor	-11.3103
▁lung	-11.3107
▁gump	-11.311
▁crib	-11.3118
▁romans	-11.3126
▁poster	-11.3134
▁that	-11.3139
▁wishing	-11.3141
▁amp	-11.3148
eye	-11.3153
▁prices	-11.316
ora	-11.3162
▁workin	-11.317
▁owes	-11.3171
arm	-11.3172
dad	-11.318
pack	-11.3181
▁conditions	-11.3181
free	-11.3184
▁wrestle	-11.3187
▁flee	-11.3187
ven	-11.319
▁tellin	-11.3195
▁ops	-11.3206
▁invest	-11.3213
▁snatch	-11.3214
▁avenge	-11.3218
▁effects	-11.3218
▁google	-11.3221
reader	-11.3223
blood	-11.3223
seven	-11.3225
▁pimp	-11.3228
▁alter	-11.3228
▁kev	-11.3228
nahnahnah	-11.323
▁teenage	-11.3232
▁oni	-11.3235
▁scarf	-11.3236
▁abort	-11.3238
▁triumph	-11.3239
▁pow	-11.324
▁absurd	-11.324
▁achilles	-11.324
▁acquaintance	-11.324
▁armstrong	-11.324
▁asylum	-11.324
▁babbling	-11.324
▁bathtub	-11.324
▁behaviour	-11.324
▁bikini	-11.324
▁blossom	-11.324
▁bollocks	-11.324
▁celebrity	-11.324
▁crocodile	-11.324
▁database	-11.324
▁despair	-11.324
▁dibiasky	-11.324
▁duncan	-11.324
▁fluffy	-11.324
▁gavin	-11.324
▁girard	-11.324
▁groove	-11.324
▁hinkley	-11.324
▁immigrant	-11.324
▁indictment	-11.324
▁industries	-11.324
▁institute	-11.324
▁krypton	-11.324
▁kumandra	-11.324
▁majesties	-11.324
▁maradona	-11.324
▁medevac	-11.324
▁moonquake	-11.324
▁moscow	-11.324
▁mulwray	-11.324
▁napoleon	-11.324
▁nathaniel	-11.324
▁otterbourne	-11.324
▁peopie	-11.324
▁restricted	-11.324
▁reynolds	-11.324
▁sarris	-11.324
▁schuyler	-11.324
▁scope	-11.324
▁sleeve	-11.324
▁terrifying	-11.324
▁thirteen	-11.324
▁tranquil	-11.324
▁transaction	-11.324
▁truman	-11.324
▁undercover	-11.324
▁vengeance	-11.324
▁massacre	-11.324
▁melvin	-11.324
▁seatbelt	-11.324
▁subtle	-11.324
▁volume	-11.324
▁yunger	-11.324
▁canvas	-11.324
▁casino	-11.324
▁cultural	-11.324
▁envy	-11.324
▁essay	-11.324
▁fierce	-11.324
▁panicked	-11.324
▁scusa	-11.324
▁jinx	-11.324
▁lucinda	-11.324
▁psychopath	-11.324
▁tolerate	-11.324
▁convey	-11.324
▁ringtone	-11.324
▁waterloo	-11.324
▁yosille	-11.324
▁neighbourhood	-11.324
▁ellen	-11.324
▁wheezing	-11.324
▁gossip	-11.324
▁ransom	-11.324
▁whatwhat	-11.324
▁stewart	-11.324
▁geneva	-11.324
▁meteorite	-11.3241
▁libby	-11.3241
▁spinning	-11.3241
▁lipstick	-11.3241
▁behold	-11.3241
▁mwah	-11.3241
▁quince	-11.3241
▁allegra	-11.3241
▁mcara	-11.3241
▁darby	-11.3241
▁maximum	-11.3241
▁medium	-11.3241
▁ingram	-11.3241
▁deepcore	-11.3241
▁sources	-11.3241
▁chinatown	-11.3241
▁saloon	-11.3241
▁thisll	-11.3241
▁diversion	-11.3242
▁rewind	-11.3242
▁denial	-11.3242
▁stunt	-11.3242
▁intellectual	-11.3242
▁beatrice	-11.3242
▁moonlight	-11.3242
▁pause	-11.3244
▁brax	-11.3244
▁unreal	-11.3244
▁fax	-11.3245
▁dragging	-11.3245
▁connor	-11.3245
▁puppy	-11.3245
▁rico	-11.3245
▁obliged	-11.3245
▁royalty	-11.3246
▁greed	-11.3246
▁lauren	-11.3246
▁petty	-11.3246
▁nina	-11.3247
▁coup	-11.3247
▁rally	-11.3248
▁ava	-11.3248
▁logical	-11.3248
▁giri	-11.3248
▁nahnahnah	-11.325
▁regrets	-11.3251
▁spicy	-11.3252
▁mansion	-11.3253
▁detected	-11.3253
▁projector	-11.3253
▁bitten	-11.3253
▁african	-11.3254
▁echoes	-11.3254
▁faithful	-11.3256
▁hippy	-11.3256
▁doomed	-11.3256
▁sara	-11.3258
▁drip	-11.3258
▁recovery	-11.3259
▁daylight	-11.326
▁hospitality	-11.3262
▁tinker	-11.3265
▁surrounding	-11.3266
▁everyday	-11.3266
▁ripper	-11.3267
▁itit	-11.3269
▁ramp	-11.3269
▁sweetness	-11.3271
▁losses	-11.3271
▁switches	-11.3271
▁web	-11.3272
▁whoop	-11.3273
▁tales	-11.3276
▁divided	-11.3277
▁possessed	-11.3278
▁established	-11.3278
▁pic	-11.3279
▁daring	-11.328
▁disappointing	-11.328
▁iim	-11.3281
▁hats	-11.3285
▁parish	-11.3286
▁awe	-11.3291
▁dea	-11.3295
▁recommended	-11.3296
▁handling	-11.3297
▁pickup	-11.3298
▁informed	-11.3299
▁showtime	-11.3302
▁yyou	-11.3303
▁flowing	-11.3307
▁badass	-11.3311
▁scraping	-11.3312
▁lace	-11.3313
▁uncles	-11.3316
▁guineas	-11.3318
▁snorts	-11.3318
▁darts	-11.3319
▁spared	-11.3324
▁yale	-11.3324
▁sinking	-11.3326
▁interrupting	-11.3335
▁sticks	-11.3339
▁correctly	-11.3341
▁senses	-11.3341
▁crushing	-11.3342
▁writes	-11.3345
▁bats	-11.3351
▁var	-11.3351
▁despise	-11.3352
▁talented	-11.3352
▁pats	-11.3352
▁mona	-11.3355
self	-11.3355
hard	-11.3365
▁chit	-11.3366
▁snape	-11.3369
▁dl	-11.3369
▁shitting	-11.3369
▁experienced	-11.3373
▁jeans	-11.3383
▁ruled	-11.3385
pan	-11.3387
▁tur	-11.3389
▁onions	-11.339
roy	-11.3392
▁warmer	-11.3397
▁nicest	-11.3397
▁ki	-11.3398
▁gag	-11.3398
▁ref	-11.3399
▁missus	-11.3401
▁taco	-11.3403
▁searched	-11.3412
▁needles	-11.3414
▁martians	-11.3426
▁mido	-11.343
▁exits	-11.3433
▁disco	-11.3435
▁clubs	-11.3436
▁carrie	-11.3454
▁tested	-11.3464
▁om	-11.3464
▁dates	-11.3475
▁swor	-11.3482
▁lucie	-11.3482
▁battles	-11.3492
▁lure	-11.3494
▁usa	-11.3517
▁apples	-11.3517
▁pep	-11.3521
law	-11.3523
▁masks	-11.3526
ata	-11.353
▁testing	-11.3532
▁patterns	-11.3547
▁bricks	-11.3558
▁sessions	-11.3559
▁walker	-11.3564
▁any	-11.3565
▁joan	-11.357
▁pope	-11.3589
not	-11.3596
tit	-11.3602
▁nod	-11.3618
▁method	-11.3621
▁contracts	-11.3622
▁dolphin	-11.3623
▁glove	-11.3626
▁hostage	-11.3627
vel	-11.3628
▁magician	-11.3635
▁hardt	-11.364
▁subjects	-11.3646
▁allie	-11.3655
mill	-11.3659
rop	-11.3676
mic	-11.3679
▁bonds	-11.368
▁robots	-11.3694
▁sacrifices	-11.3721
▁holidays	-11.3743
▁nov	-11.3747
▁entertain	-11.375
trap	-11.3766
ois	-11.3773
▁if	-11.3777
▁signor	-11.3778
faced	-11.3779
miss	-11.3781
tory	-11.3787
▁beck	-11.3789
▁shush	-11.3791
▁crunch	-11.3795
▁das	-11.3796
▁attract	-11.38
▁predict	-11.3802
▁slaughter	-11.3802
yearold	-11.3807
▁collapse	-11.381
▁declare	-11.381
▁compare	-11.381
foot	-11.3813
▁flaw	-11.3814
cake	-11.3819
order	-11.3819
case	-11.3821
▁sparta	-11.3823
▁givin	-11.3825
▁corrupt	-11.3827
▁infant	-11.3827
▁dread	-11.3828
▁blackmail	-11.3828
▁snoop	-11.3828
▁abbess	-11.3828
▁abducted	-11.3828
▁activities	-11.3828
▁administration	-11.3828
▁altitude	-11.3828
▁ammunition	-11.3828
▁analysis	-11.3828
▁atlantic	-11.3828
▁aurora	-11.3828
▁boogie	-11.3828
▁catastrophe	-11.3828
▁cepheus	-11.3828
▁chittering	-11.3828
▁cletus	-11.3828
▁cleveland	-11.3828
▁concrete	-11.3828
▁critter	-11.3828
▁curfew	-11.3828
▁dennit	-11.3828
▁deputy	-11.3828
▁dumbledore	-11.3828
▁einhorn	-11.3828
▁enforcement	-11.3828
▁festival	-11.3828
▁fitzgerald	-11.3828
▁fragile	-11.3828
▁fundamental	-11.3828
▁gracious	-11.3828
▁gratitude	-11.3828
▁injury	-11.3828
▁introduction	-11.3828
▁investigator	-11.3828
▁inviting	-11.3828
▁irrelevant	-11.3828
▁jonathan	-11.3828
▁jumanji	-11.3828
▁kansas	-11.3828
▁literature	-11.3828
▁ludlow	-11.3828
▁mississippi	-11.3828
▁mortgage	-11.3828
▁observation	-11.3828
▁obsession	-11.3828
▁oskar	-11.3828
▁picasso	-11.3828
▁polish	-11.3828
▁pomatter	-11.3828
▁possibilities	-11.3828
▁psychiatrist	-11.3828
▁savior	-11.3828
▁scenario	-11.3828
▁scientific	-11.3828
▁shirley	-11.3828
▁sponge	-11.3828
▁treason	-11.3828
▁trembling	-11.3828
▁unnecessary	-11.3828
▁weyland	-11.3828
▁woozle	-11.3828
▁yknow	-11.3828
▁bloke	-11.3828
▁gittes	-11.3828
▁ieave	-11.3828
▁payroll	-11.3828
▁phony	-11.3828
▁seventeen	-11.3828
▁waffle	-11.3828
▁zoil	-11.3828
▁blares	-11.3828
▁bleep	-11.3828
▁canyon	-11.3828
▁domain	-11.3828
▁importance	-11.3828
▁numero	-11.3828
▁spiritual	-11.3828
▁jeannie	-11.3828
▁magua	-11.3828
▁presume	-11.3828
▁charging	-11.3828
▁mourn	-11.3828
▁eighteen	-11.3828
▁atlas	-11.3829
▁sketch	-11.3829
▁anyhow	-11.3829
▁yummy	-11.3829
▁lulu	-11.3829
▁gretta	-11.3829
▁claude	-11.3829
▁psychologist	-11.3829
▁tennis	-11.3829
▁hector	-11.3829
▁hollow	-11.3829
▁sheik	-11.3829
▁vermont	-11.3829
▁interference	-11.3829
▁hereby	-11.3829
▁hyperion	-11.3829
▁occurred	-11.3829
▁mentor	-11.3829
▁onboard	-11.3829
▁pascal	-11.3829
▁confront	-11.3829
▁dersu	-11.3829
▁plaza	-11.3829
▁slack	-11.3829
▁hollis	-11.3829
▁choir	-11.3829
▁sniffling	-11.383
▁eliot	-11.383
▁mailbox	-11.383
▁disappointment	-11.383
▁rubber	-11.383
▁stanley	-11.383
▁titty	-11.383
▁thethe	-11.383
▁civilized	-11.383
▁obs	-11.383
▁hiphop	-11.383
▁marble	-11.3831
▁temptation	-11.3831
▁attic	-11.3831
▁orphanage	-11.3831
▁woz	-11.3831
▁lever	-11.3831
▁abide	-11.3831
▁judith	-11.3831
▁elwood	-11.3832
▁stallion	-11.3832
▁slipping	-11.3832
▁ripping	-11.3832
▁whack	-11.3832
▁allah	-11.3832
▁trusting	-11.3833
▁mock	-11.3833
▁chump	-11.3833
▁feedback	-11.3833
▁flights	-11.3833
▁riverside	-11.3833
▁notion	-11.3833
▁brook	-11.3834
▁rash	-11.3834
▁countries	-11.3834
▁finishing	-11.3834
▁admitted	-11.3835
▁maddy	-11.3835
▁deke	-11.3835
▁harmless	-11.3835
▁bead	-11.3836
▁hardware	-11.3836
▁tallis	-11.3838
▁swamp	-11.3838
▁bobbi	-11.3839
▁jax	-11.384
▁colony	-11.384
▁neur	-11.3842
▁hamburger	-11.3843
▁pd	-11.3843
▁melman	-11.3843
▁exposed	-11.3844
▁ash	-11.3844
▁protective	-11.3844
▁tapped	-11.3844
▁cycle	-11.3845
▁yoga	-11.3848
▁vain	-11.3848
▁estimated	-11.3849
▁sour	-11.385
▁hong	-11.3851
▁noone	-11.3851
▁payback	-11.3851
▁seventh	-11.3852
▁operational	-11.3852
▁attracted	-11.3854
▁honorable	-11.3855
▁fearless	-11.3855
▁chairman	-11.3857
▁cc	-11.3862
▁hiya	-11.3862
▁richie	-11.3863
▁booty	-11.3864
got	-11.3865
ji	-11.3867
▁brat	-11.3868
▁discovery	-11.3868
▁hump	-11.3868
▁scanner	-11.3872
▁larger	-11.3875
▁covering	-11.3876
▁tortured	-11.3876
▁accused	-11.3878
▁delayed	-11.3878
▁lethal	-11.3878
▁andie	-11.388
lier	-11.3885
coming	-11.3885
▁pastor	-11.3885
▁inventor	-11.389
▁bully	-11.389
▁bunker	-11.3893
▁hick	-11.3894
▁images	-11.3896
▁wiped	-11.3898
▁refer	-11.3903
▁fasten	-11.3908
▁rene	-11.3918
▁freaky	-11.3918
▁drilling	-11.3921
▁toi	-11.3922
▁collecting	-11.3926
▁pouring	-11.3932
ugging	-11.3933
▁freaks	-11.3936
▁shatters	-11.395
unk	-11.3959
▁tada	-11.3964
▁articles	-11.3968
▁newton	-11.3975
▁suspected	-11.3983
▁tighter	-11.3984
▁carlin	-11.3987
▁fails	-11.3996
▁plumbers	-11.4
▁vaca	-11.4004
▁remained	-11.4005
pat	-11.4006
▁recorder	-11.4016
▁ia	-11.4026
▁bern	-11.4026
▁dup	-11.4026
▁gown	-11.4035
▁areas	-11.4036
▁magicians	-11.4039
▁belonged	-11.4046
▁cher	-11.4055
▁martyr	-11.4061
▁relationships	-11.4063
▁classy	-11.4063
▁colleagues	-11.4064
▁morale	-11.4072
▁ey	-11.4073
▁bowling	-11.4074
▁visited	-11.4074
▁jackal	-11.4081
▁cla	-11.4082
▁filming	-11.4093
▁matthews	-11.41
▁doughnuts	-11.4103
hill	-11.4105
▁arrangements	-11.4129
lan	-11.4131
▁fleas	-11.4142
▁pt	-11.4144
▁mega	-11.4167
▁curl	-11.4183
▁films	-11.4184
ode	-11.4189
▁stocks	-11.4202
war	-11.4202
▁nate	-11.4214
ctic	-11.4215
▁tracker	-11.4226
▁pockets	-11.4232
▁wang	-11.4237
ari	-11.4238
tum	-11.4246
▁martian	-11.4248
▁mic	-11.425
▁passenger	-11.425
▁pillar	-11.4251
▁swans	-11.4253
▁fooling	-11.4254
▁chairs	-11.4265
turn	-11.4268
▁giants	-11.4273
lou	-11.4279
▁buttons	-11.4288
▁brandi	-11.4289
ouch	-11.4298
▁breasts	-11.4298
▁shields	-11.4298
▁brownie	-11.4299
▁condo	-11.4305
talk	-11.4323
▁dozens	-11.4324
▁vol	-11.4328
pped	-11.4328
cle	-11.4328
▁circles	-11.4337
▁treats	-11.4339
▁hoot	-11.4346
▁psych	-11.4348
▁recruit	-11.4359
▁greeks	-11.4364
▁rifles	-11.4364
▁chambers	-11.4365
▁photographs	-11.4367
▁brun	-11.4374
nde	-11.4377
▁ny	-11.4377
▁explaining	-11.4392
▁bomber	-11.4394
▁sas	-11.4409
▁clas	-11.441
▁murmur	-11.4421
▁convent	-11.4423
▁sol	-11.4426
word	-11.4431
load	-11.4432
▁mug	-11.4432
▁ahhh	-11.4434
▁indicate	-11.4434
▁severe	-11.4435
worth	-11.4437
girl	-11.4437
▁should	-11.4438
▁guessing	-11.4438
pen	-11.4439
wise	-11.444
force	-11.4441
▁precise	-11.4444
▁stead	-11.4447
▁cockroach	-11.4448
▁silen	-11.4448
▁leavin	-11.445
▁stitch	-11.4451
▁auctione	-11.4451
▁cans	-11.4452
▁kidnap	-11.4452
▁aborigin	-11.4453
▁advertising	-11.4453
▁advisor	-11.4453
▁ancestors	-11.4453
▁anthony	-11.4453
▁arguing	-11.4453
▁autopilot	-11.4453
▁beresford	-11.4453
▁bohme	-11.4453
▁brandnew	-11.4453
▁bypass	-11.4453
▁cemetery	-11.4453
▁cinema	-11.4453
▁coffey	-11.4453
▁cottage	-11.4453
▁courbet	-11.4453
▁cripple	-11.4453
▁democracy	-11.4453
▁diablo	-11.4453
▁dillon	-11.4453
▁dungeon	-11.4453
▁eeyore	-11.4453
▁enlighten	-11.4453
▁envelope	-11.4453
▁evergreen	-11.4453
▁fromm	-11.4453
▁gauguin	-11.4453
▁glimpse	-11.4453
▁goddammit	-11.4453
▁gravity	-11.4453
▁griffin	-11.4453
▁hancock	-11.4453
▁hartmann	-11.4453
▁hmhmm	-11.4453
▁huddle	-11.4453
▁increasing	-11.4453
▁interrogation	-11.4453
▁isolated	-11.4453
▁january	-11.4453
▁javert	-11.4453
▁jocelyn	-11.4453
▁juvenile	-11.4453
▁kraken	-11.4453
▁lesbian	-11.4453
▁marilyn	-11.4453
▁mathesar	-11.4453
▁merchant	-11.4453
▁munchausen	-11.4453
▁muntz	-11.4453
▁neighs	-11.4453
▁nichola	-11.4453
▁nowadays	-11.4453
▁october	-11.4453
▁oklahoma	-11.4453
▁omega	-11.4453
▁opportunities	-11.4453
▁perspective	-11.4453
▁persuade	-11.4453
▁plummer	-11.4453
▁reunion	-11.4453
▁scoobydoo	-11.4453
▁scoop	-11.4453
▁scorpion	-11.4453
▁sensible	-11.4453
▁shaughnessy	-11.4453
▁sheldon	-11.4453
▁sixsmith	-11.4453
▁stefan	-11.4453
▁stewardess	-11.4453
▁sunglasses	-11.4453
▁surviving	-11.4453
▁sympathy	-11.4453
▁telescope	-11.4453
▁teresa	-11.4453
▁theatre	-11.4453
▁thlnk	-11.4453
▁thrace	-11.4453
▁thunderclap	-11.4453
▁trudy	-11.4453
▁voicemail	-11.4453
▁werthan	-11.4453
▁whatsoever	-11.4453
▁whichever	-11.4453
▁bribe	-11.4453
▁coffin	-11.4453
▁conceal	-11.4453
▁howre	-11.4453
▁outcome	-11.4453
▁physics	-11.4453
▁stiii	-11.4453
▁trench	-11.4453
▁leash	-11.4453
▁angie	-11.4453
▁flaming	-11.4453
▁stash	-11.4453
▁cambridge	-11.4453
▁mathias	-11.4453
▁cnn	-11.4454
▁independence	-11.4454
▁kilometers	-11.4454
▁romesha	-11.4454
▁pursue	-11.4454
▁illusion	-11.4454
▁tyres	-11.4454
▁descent	-11.4454
▁darren	-11.4454
▁montana	-11.4454
▁helpmann	-11.4454
▁drool	-11.4454
▁chanice	-11.4454
▁forney	-11.4454
▁rosalie	-11.4454
▁referring	-11.4454
▁renai	-11.4454
▁laptop	-11.4454
▁metaphor	-11.4454
▁prosecution	-11.4454
▁kmart	-11.4454
▁musket	-11.4454
▁preschool	-11.4454
▁nanny	-11.4454
▁unstable	-11.4454
▁inspection	-11.4454
▁shiny	-11.4454
▁spook	-11.4454
stand	-11.4454
▁wray	-11.4454
▁trading	-11.4454
delicate	-11.4454
▁retrieval	-11.4454
▁racket	-11.4454
▁sameer	-11.4454
▁assessment	-11.4454
▁chapel	-11.4455
▁straw	-11.4455
▁comedian	-11.4455
▁driss	-11.4455
▁embarrassment	-11.4455
▁neville	-11.4455
▁skipped	-11.4455
▁brew	-11.4455
▁crust	-11.4455
▁actress	-11.4455
▁regardless	-11.4455
▁bravestone	-11.4455
▁shimmer	-11.4455
▁pumpkin	-11.4455
▁pipeline	-11.4456
▁sober	-11.4456
▁inmate	-11.4456
▁curve	-11.4456
▁lassie	-11.4456
▁victorious	-11.4456
▁tasty	-11.4456
▁duct	-11.4456
▁keri	-11.4456
▁pond	-11.4457
▁iong	-11.4457
▁diary	-11.4457
▁devoted	-11.4458
▁birt	-11.4458
▁rapist	-11.4458
▁crackles	-11.4458
▁rang	-11.4459
▁courtroom	-11.4459
▁spartan	-11.446
▁kang	-11.446
▁slavery	-11.446
▁interpreter	-11.4461
▁piggy	-11.4461
▁baba	-11.4462
▁tug	-11.4463
▁yeh	-11.4464
▁encouraged	-11.4465
▁promoted	-11.4465
▁insur	-11.4465
▁bottles	-11.4468
▁scattered	-11.4468
▁lordship	-11.4468
▁snorting	-11.4468
▁elf	-11.447
▁legit	-11.4472
▁fries	-11.4473
▁moss	-11.4474
▁ember	-11.4476
▁dld	-11.4476
▁wealthy	-11.4477
▁respectable	-11.4477
▁breakdown	-11.4478
▁crate	-11.4478
▁stammering	-11.4479
▁dine	-11.448
▁gage	-11.448
▁babylon	-11.4481
▁whining	-11.4481
▁lug	-11.4482
▁clanging	-11.4483
▁joel	-11.4484
▁armies	-11.4485
▁fig	-11.4485
▁achieved	-11.4485
▁naive	-11.4488
▁jt	-11.4489
▁blackout	-11.4492
▁toughest	-11.4493
▁hunk	-11.4493
▁eighth	-11.4494
▁shithole	-11.4496
▁efforts	-11.4496
▁loner	-11.4498
▁cube	-11.4499
aaahhh	-11.45
▁tolling	-11.4502
▁epic	-11.4503
▁baker	-11.4517
wing	-11.4517
▁quell	-11.4518
▁mild	-11.4518
▁purposes	-11.452
▁gaz	-11.4524
▁spits	-11.4526
▁bumped	-11.4526
▁oooh	-11.4527
▁hamptons	-11.4528
▁euros	-11.4528
▁cargo	-11.4531
▁sato	-11.4534
▁grandmothers	-11.4536
▁tattoos	-11.4536
▁junkie	-11.4536
▁hah	-11.4537
▁weakly	-11.4541
▁responding	-11.4544
▁erase	-11.4547
▁objects	-11.4549
zo	-11.4556
▁champions	-11.4559
▁poisoned	-11.456
▁shovel	-11.456
▁whoot	-11.4562
▁booing	-11.4562
ule	-11.4563
▁patriots	-11.4569
▁foryou	-11.457
▁briefing	-11.457
▁herm	-11.4581
▁rates	-11.4587
▁squared	-11.4588
▁failing	-11.459
▁mule	-11.4597
▁casting	-11.4599
▁borders	-11.4603
▁lone	-11.4605
▁gale	-11.4608
▁bragg	-11.4611
▁switched	-11.4615
▁threats	-11.4617
▁cel	-11.4619
▁punched	-11.463
▁shorter	-11.4646
▁correction	-11.4651
▁videos	-11.4651
lessly	-11.4653
▁clues	-11.4657
ail	-11.4659
▁hu	-11.4668
bone	-11.4668
▁intrud	-11.4669
▁traveled	-11.4672
▁shifts	-11.4673
▁matched	-11.4673
▁reminded	-11.4677
▁archer	-11.4683
hhh	-11.4688
▁murderers	-11.4699
▁mol	-11.47
▁bothered	-11.4701
▁accounting	-11.4705
▁increases	-11.4716
ition	-11.4718
▁pods	-11.4719
▁tons	-11.472
iko	-11.4721
aking	-11.4725
▁kneel	-11.4728
▁orderly	-11.4732
▁characters	-11.4733
▁lai	-11.474
▁aka	-11.4747
▁supporting	-11.4762
agging	-11.4781
▁cheeks	-11.4788
▁bent	-11.479
ofthe	-11.4792
▁rolled	-11.4799
▁jaegers	-11.4802
▁gen	-11.4815
ress	-11.4821
▁lions	-11.4823
ella	-11.483
▁organ	-11.4834
▁dish	-11.4852
▁sou	-11.4856
lieb	-11.4862
▁ranks	-11.4866
lson	-11.487
▁scrub	-11.4882
▁illness	-11.4888
▁clips	-11.4888
▁don	-11.4894
▁bernst	-11.4894
▁lookout	-11.4899
▁trainer	-11.4909
▁tribute	-11.4912
▁bean	-11.4913
▁carrot	-11.4913
▁principle	-11.4913
▁height	-11.4918
about	-11.4923
▁farmers	-11.4925
▁wool	-11.4933
▁rebel	-11.4936
▁ax	-11.4937
▁crowded	-11.4939
▁dat	-11.494
▁flats	-11.4943
▁nails	-11.4947
▁toe	-11.4963
▁peep	-11.4969
▁musician	-11.4991
▁pran	-11.5004
▁satellites	-11.5009
▁entr	-11.5013
▁owners	-11.5025
▁farts	-11.5038
▁cousins	-11.5039
versi	-11.5045
rick	-11.5056
elle	-11.5059
hon	-11.5065
▁sil	-11.5072
five	-11.5073
▁caf	-11.5075
▁crapp	-11.5077
hr	-11.5078
hood	-11.5082
▁funds	-11.5086
▁trespass	-11.5086
▁profession	-11.5088
▁annoy	-11.5089
▁transform	-11.5091
▁vip	-11.5094
body	-11.5094
▁involve	-11.5101
▁relieve	-11.5102
▁puke	-11.5102
▁organize	-11.5102
▁compromise	-11.5102
minute	-11.5104
▁locate	-11.5105
▁pinch	-11.5107
hee	-11.5108
▁utter	-11.511
wind	-11.5113
▁tomato	-11.5114
▁origin	-11.5115
▁sensation	-11.5115
▁commun	-11.5117
▁runnin	-11.5117
▁tempt	-11.5118
▁makin	-11.5118
▁reflect	-11.5118
▁immortal	-11.5119
rem	-11.5119
▁correspond	-11.512
▁horizon	-11.512
▁algorithm	-11.512
▁altogether	-11.512
▁antidote	-11.512
▁arcamax	-11.512
▁bolivia	-11.512
▁branson	-11.512
▁bureau	-11.512
▁cereal	-11.512
▁cincinnati	-11.512
▁cipher	-11.512
▁deceased	-11.512
▁deception	-11.512
▁discretion	-11.512
▁dwight	-11.512
▁eduardo	-11.512
▁exploit	-11.512
▁exposure	-11.512
▁exwife	-11.512
▁forfeit	-11.512
▁garabedian	-11.512
▁gesture	-11.512
▁gibberish	-11.512
▁gracchus	-11.512
▁graysmith	-11.512
▁greasy	-11.512
▁gretel	-11.512
▁gryffindor	-11.512
▁guatemala	-11.512
▁humiliating	-11.512
▁injuries	-11.512
▁intact	-11.512
▁lucille	-11.512
▁maintenance	-11.512
▁misunderstood	-11.512
▁murray	-11.512
▁obstacle	-11.512
▁occupation	-11.512
▁occupied	-11.512
▁olbricht	-11.512
▁outstanding	-11.512
▁overlapping	-11.512
▁peculiar	-11.512
▁penguin	-11.512
▁precinct	-11.512
▁preserve	-11.512
▁pretzel	-11.512
▁prophecy	-11.512
▁pterodactyl	-11.512
▁reunite	-11.512
▁rezendes	-11.512
▁rouran	-11.512
▁sheiiy	-11.512
▁shepherd	-11.512
▁skeleton	-11.512
▁svenning	-11.512
▁thomson	-11.512
▁tractor	-11.512
▁transmitter	-11.512
▁tummy	-11.512
▁unfair	-11.512
▁ungrateful	-11.512
▁volcano	-11.512
▁vulgar	-11.512
▁welfare	-11.512
▁bronson	-11.512
▁chrisann	-11.512
▁exotic	-11.512
▁hlm	-11.512
▁motherinlaw	-11.512
▁peyton	-11.512
▁prophet	-11.512
▁theft	-11.512
▁wilkes	-11.512
▁assaad	-11.512
▁harmony	-11.512
▁juicy	-11.512
▁memoirs	-11.512
▁munch	-11.512
▁nipple	-11.512
▁overdose	-11.512
▁disabled	-11.512
▁strangle	-11.512
▁hopkins	-11.512
▁conclusion	-11.512
▁smuggle	-11.512
▁trask	-11.512
▁douglas	-11.512
▁elvis	-11.512
▁whitney	-11.512
▁agnes	-11.512
▁allegations	-11.512
▁courtesy	-11.512
▁goblin	-11.512
▁ensure	-11.512
▁conservative	-11.512
▁oracle	-11.512
▁lamb	-11.512
▁statute	-11.512
▁operative	-11.512
▁guidance	-11.512
▁gulp	-11.512
▁draco	-11.512
▁recess	-11.512
▁suppress	-11.512
▁elves	-11.512
▁consulate	-11.512
▁leslie	-11.512
▁smear	-11.512
▁fortress	-11.5121
▁investors	-11.5121
▁ufo	-11.5121
▁chugga	-11.5121
▁rumour	-11.5121
▁quincy	-11.5121
▁minivan	-11.5121
▁bagels	-11.5121
▁jolly	-11.5121
▁scumbag	-11.5121
▁hoghead	-11.5121
▁babysitting	-11.5121
▁chronicle	-11.5121
▁watts	-11.5121
▁narf	-11.5121
▁blog	-11.5121
▁basketball	-11.5121
▁whew	-11.5121
▁denham	-11.5121
▁yuck	-11.5121
▁yoshi	-11.5121
ucci	-11.5121
▁stray	-11.5121
▁infantry	-11.5121
▁immortality	-11.5122
▁emerge	-11.5122
boom	-11.5122
▁wimp	-11.5122
▁establishment	-11.5122
▁ripley	-11.5123
▁cobra	-11.5123
▁horseshit	-11.5123
▁dork	-11.5123
▁wilderness	-11.5123
▁attendant	-11.5123
▁sosa	-11.5123
▁nsa	-11.5123
▁sunlight	-11.5123
▁chatting	-11.5123
▁floorboard	-11.5123
▁gutter	-11.5124
▁noah	-11.5124
▁spitting	-11.5124
▁tapping	-11.5124
▁frick	-11.5124
▁macedonian	-11.5124
▁waking	-11.5124
▁godmother	-11.5124
▁conley	-11.5124
▁wln	-11.5124
▁overwhelmed	-11.5125
▁vibe	-11.5125
▁blousey	-11.5125
▁transportation	-11.5125
▁legitimate	-11.5125
hmer	-11.5126
▁reactor	-11.5126
▁panem	-11.5126
▁shrieking	-11.5126
▁stitches	-11.5126
▁lobo	-11.5126
▁percentage	-11.5127
▁courageous	-11.5127
▁precedent	-11.5127
▁acre	-11.5127
▁effie	-11.5127
▁combined	-11.5127
▁marco	-11.5127
▁household	-11.5128
▁probe	-11.5128
▁bien	-11.5129
▁crop	-11.5129
▁successor	-11.5129
▁benja	-11.513
▁occur	-11.513
▁sway	-11.5131
▁rover	-11.5131
▁fet	-11.5132
▁modest	-11.5132
▁prank	-11.5132
▁recon	-11.5132
▁popping	-11.5133
▁snapped	-11.5134
▁executed	-11.5135
▁delightful	-11.5135
▁published	-11.5136
▁amazed	-11.5136
▁acceptable	-11.5137
▁retarded	-11.5137
▁cellar	-11.5138
▁bil	-11.5139
▁rhythmic	-11.514
▁shipment	-11.514
▁freeway	-11.514
▁mice	-11.5141
▁declared	-11.5141
▁assassination	-11.5142
▁hup	-11.5145
net	-11.5145
▁countless	-11.5146
▁registered	-11.5147
▁samson	-11.5149
▁tray	-11.515
▁breeding	-11.5152
▁tenth	-11.5153
▁maple	-11.5154
▁activated	-11.5154
▁pointing	-11.5155
▁richest	-11.5157
▁speeches	-11.5159
▁doon	-11.5161
around	-11.5163
▁chaser	-11.5164
▁floating	-11.5166
▁mentally	-11.5171
▁goldman	-11.5172
▁described	-11.5176
▁ink	-11.5179
▁factor	-11.518
▁swelling	-11.5182
▁amor	-11.5183
▁poly	-11.5185
▁mold	-11.5187
▁verse	-11.5187
▁arr	-11.5187
▁spoiled	-11.5187
▁slowing	-11.5188
▁intended	-11.5189
▁madman	-11.5192
▁legally	-11.5192
▁pry	-11.5193
▁accuse	-11.5193
▁ter	-11.5195
▁colon	-11.5197
▁measured	-11.52
▁weeping	-11.5201
▁sailing	-11.5208
▁gran	-11.521
▁frenchman	-11.5214
▁performing	-11.5218
pensive	-11.5222
▁leaking	-11.5222
▁yelled	-11.5223
▁hmmm	-11.5227
▁harvester	-11.5228
▁smashed	-11.5229
▁with	-11.523
▁umm	-11.5232
▁traded	-11.5232
▁reg	-11.5237
▁hunted	-11.5243
▁bums	-11.5243
▁bruises	-11.5244
ille	-11.5245
▁rollin	-11.5247
▁bots	-11.5249
▁planted	-11.5256
▁cord	-11.5257
▁legions	-11.5258
▁prey	-11.5261
▁queer	-11.5262
▁buster	-11.5269
▁exceptional	-11.5274
▁defending	-11.5277
▁expenses	-11.5287
▁smit	-11.5289
▁ruining	-11.529
▁siege	-11.5293
▁lifted	-11.5297
▁richer	-11.5298
keep	-11.5299
▁maine	-11.5309
▁sticky	-11.5313
▁curtains	-11.5317
bell	-11.5318
▁iive	-11.5325
▁rev	-11.5329
▁rushing	-11.533
▁principles	-11.5331
▁musicians	-11.5331
▁meter	-11.5332
▁just	-11.5334
fo	-11.5334
▁dye	-11.5336
▁visions	-11.5339
▁juliet	-11.5353
▁vehicles	-11.5353
▁formed	-11.5353
▁wally	-11.5364
inch	-11.5366
ache	-11.5369
▁sponsors	-11.5375
▁instincts	-11.5375
▁frau	-11.5376
uddy	-11.5384
▁balloons	-11.539
ancing	-11.539
▁chev	-11.539
▁demonstrate	-11.5396
▁awaits	-11.5405
▁regards	-11.5406
▁liver	-11.5416
nia	-11.5416
▁nno	-11.542
▁barks	-11.542
▁ally	-11.5422
▁chu	-11.5431
▁employees	-11.5434
▁unre	-11.5435
▁pressed	-11.546
tag	-11.546
▁hay	-11.5461
▁kindly	-11.5463
▁wolfe	-11.5482
▁fooled	-11.5494
dia	-11.5494
▁ani	-11.5501
▁tribes	-11.5512
▁exists	-11.5516
▁ohio	-11.5518
▁tia	-11.5528
▁assess	-11.5538
▁nuns	-11.5538
ograph	-11.5551
fish	-11.5561
hair	-11.5563
▁commanding	-11.5573
▁fatal	-11.5588
▁spic	-11.5591
▁sniff	-11.5596
▁deed	-11.5599
lce	-11.5604
▁ritual	-11.5627
lets	-11.5627
▁curtain	-11.5628
▁plumber	-11.5628
▁claw	-11.5633
▁tickle	-11.5641
▁evans	-11.5644
▁missile	-11.5648
acle	-11.5664
▁feared	-11.567
stage	-11.5673
▁historic	-11.5691
▁vel	-11.5699
was	-11.57
▁scars	-11.5738
▁arc	-11.5741
▁flags	-11.5753
▁boil	-11.5767
▁avi	-11.5771
▁sid	-11.5774
▁surround	-11.5776
▁dancers	-11.5777
▁bookie	-11.5785
▁emails	-11.5794
zin	-11.5797
where	-11.5799
▁preach	-11.5801
▁breed	-11.5801
▁select	-11.5806
▁clang	-11.5808
▁disconnect	-11.5808
▁register	-11.5809
▁expose	-11.5816
▁relate	-11.5816
fried	-11.5817
three	-11.5818
▁javi	-11.582
beard	-11.582
▁robber	-11.5823
job	-11.5825
fun	-11.5825
▁instruct	-11.5828
▁nico	-11.583
▁fiction	-11.5831
wait	-11.5832
▁conscious	-11.5833
▁brazil	-11.5833
▁meteor	-11.5834
▁absorb	-11.5834
▁aggravat	-11.5834
▁daydream	-11.5834
▁georgie	-11.5834
▁reckless	-11.5834
▁urban	-11.5834
▁womb	-11.5834
▁abraham	-11.5834
▁accomplice	-11.5834
▁alliance	-11.5834
▁ambitious	-11.5834
▁aspirin	-11.5834
▁association	-11.5834
▁autopsy	-11.5834
▁baltimore	-11.5834
▁banner	-11.5834
▁barbarian	-11.5834
▁barclay	-11.5834
▁bessner	-11.5834
▁blaze	-11.5834
▁britain	-11.5834
▁burglar	-11.5834
▁cambodia	-11.5834
▁cellular	-11.5834
▁chirps	-11.5834
▁chubby	-11.5834
▁ciccio	-11.5834
▁circuit	-11.5834
▁coakley	-11.5834
▁colombia	-11.5834
▁convenient	-11.5834
▁crucified	-11.5834
▁cullen	-11.5834
▁cynthia	-11.5834
▁damien	-11.5834
▁denahi	-11.5834
▁depression	-11.5834
▁discreet	-11.5834
▁dizzy	-11.5834
▁dynamite	-11.5834
▁economy	-11.5834
▁enterprise	-11.5834
▁february	-11.5834
▁filip	-11.5834
▁garcia	-11.5834
▁gleam	-11.5834
▁gupta	-11.5834
▁hawaii	-11.5834
▁hehhehheh	-11.5834
▁identical	-11.5834
▁ignoring	-11.5834
▁innocence	-11.5834
▁julio	-11.5834
▁lynn	-11.5834
▁manuscript	-11.5834
▁marvellous	-11.5834
▁mccann	-11.5834
▁melissa	-11.5834
▁mockingjay	-11.5834
▁northcott	-11.5834
▁obannon	-11.5834
▁offshore	-11.5834
▁paralyzed	-11.5834
▁parmenion	-11.5834
▁patrizia	-11.5834
▁piace	-11.5834
▁podcast	-11.5834
▁poverty	-11.5834
▁pregnancy	-11.5834
▁prevail	-11.5834
▁primitive	-11.5834
▁rathbone	-11.5834
▁recognise	-11.5834
▁resort	-11.5834
▁saviano	-11.5834
▁scrunt	-11.5834
▁separation	-11.5834
▁shmuel	-11.5834
▁shouid	-11.5834
▁slannen	-11.5834
▁songwriter	-11.5834
▁soviet	-11.5834
▁sprinkle	-11.5834
▁superintendent	-11.5834
▁talbot	-11.5834
▁tallulah	-11.5834
▁teldar	-11.5834
▁toothbrush	-11.5834
▁turbulence	-11.5834
▁unpleasant	-11.5834
▁wardrobe	-11.5834
▁windshield	-11.5834
▁wretch	-11.5834
▁arius	-11.5834
▁lawrence	-11.5834
▁tactical	-11.5834
▁yonder	-11.5834
▁altar	-11.5834
▁amusing	-11.5834
▁bhai	-11.5834
▁joshua	-11.5834
▁molesley	-11.5834
▁ninth	-11.5834
▁parasite	-11.5834
▁rpg	-11.5834
▁bueno	-11.5834
▁crab	-11.5834
▁forcing	-11.5834
▁carpenter	-11.5834
▁falk	-11.5834
▁chrissake	-11.5834
▁chromium	-11.5834
▁bliss	-11.5835
▁coronation	-11.5835
▁mushroom	-11.5835
▁hulie	-11.5835
▁ashford	-11.5835
▁drumming	-11.5835
▁underdog	-11.5835
▁flour	-11.5835
▁microphone	-11.5835
▁lrish	-11.5835
▁infirmary	-11.5835
▁skating	-11.5835
▁download	-11.5835
▁goofy	-11.5835
▁kettle	-11.5835
▁uphold	-11.5835
▁rooster	-11.5835
▁casualties	-11.5835
▁reaiiy	-11.5835
▁registr	-11.5835
▁phew	-11.5835
▁shaving	-11.5835
▁morgue	-11.5835
▁pushups	-11.5835
▁proposition	-11.5835
▁ofyour	-11.5835
▁commend	-11.5835
▁grasp	-11.5835
▁tracy	-11.5835
▁contrary	-11.5835
▁blake	-11.5835
▁petition	-11.5835
▁carolina	-11.5835
▁excessive	-11.5836
▁lemonade	-11.5836
▁improvement	-11.5836
▁glance	-11.5836
▁elementary	-11.5836
▁referee	-11.5836
▁revelation	-11.5836
▁courtyard	-11.5836
▁goldfish	-11.5836
▁plato	-11.5836
▁ruddy	-11.5836
▁cozy	-11.5836
▁bummer	-11.5836
▁buffet	-11.5836
▁twig	-11.5836
▁economic	-11.5836
▁masry	-11.5837
▁chopped	-11.5837
▁cupboard	-11.5837
▁agenda	-11.5837
▁pierce	-11.5837
▁quint	-11.5837
▁heir	-11.5837
▁dislike	-11.5837
▁cult	-11.5837
▁tutor	-11.5837
▁dwell	-11.5837
▁cooperation	-11.5837
▁revolutionary	-11.5837
▁stove	-11.5838
▁oleg	-11.5838
▁unload	-11.5838
▁hound	-11.5838
▁troll	-11.5838
▁iove	-11.5838
▁morality	-11.5839
▁annette	-11.5839
▁ratings	-11.5839
▁litter	-11.5839
▁teammate	-11.584
▁virginity	-11.5841
▁mainland	-11.5841
▁merciful	-11.5841
▁occasionally	-11.5841
▁tsk	-11.5842
▁guten	-11.5842
▁rack	-11.5842
▁firearm	-11.5842
▁filing	-11.5842
▁torch	-11.5843
▁popped	-11.5843
▁bock	-11.5843
▁valor	-11.5845
▁princeton	-11.5846
▁idella	-11.5847
▁alongside	-11.5847
▁composer	-11.5847
▁educated	-11.5848
▁stew	-11.5848
▁waist	-11.5848
▁asian	-11.5848
▁bandage	-11.5849
▁evi	-11.5849
▁certainty	-11.5849
▁rodeo	-11.585
▁pence	-11.585
▁mammal	-11.5852
▁tong	-11.5852
▁departing	-11.5853
▁machinery	-11.5854
▁agony	-11.5854
▁vine	-11.5856
▁coverage	-11.5857
▁suitable	-11.5857
▁betting	-11.5859
▁unlikely	-11.5861
▁tina	-11.5861
▁colin	-11.5861
▁fuckedup	-11.5862
▁toro	-11.5863
▁hola	-11.5864
▁collector	-11.5864
▁iv	-11.5865
▁slaughtered	-11.5866
▁improved	-11.5866
▁boiling	-11.5868
▁freshman	-11.5869
▁phd	-11.5871
▁reply	-11.5872
rice	-11.5873
▁rejected	-11.5874
▁requests	-11.5875
▁crunching	-11.5876
▁convicted	-11.5876
▁bumper	-11.5877
kat	-11.5878
▁contained	-11.5879
▁bette	-11.5881
▁whiz	-11.5881
▁yous	-11.5885
▁donate	-11.5886
▁virtual	-11.5886
thin	-11.5887
▁peache	-11.5888
▁deco	-11.5893
▁sexually	-11.5896
▁melted	-11.5898
▁shrinking	-11.5901
▁rhodes	-11.5905
▁sinners	-11.5905
▁lola	-11.5905
▁sweaty	-11.5906
▁claimed	-11.5906
▁nora	-11.5908
▁tow	-11.591
▁slop	-11.591
▁chewing	-11.5911
▁topic	-11.5912
▁employer	-11.5914
▁debts	-11.5918
▁lighten	-11.592
▁crumble	-11.5921
▁guaranteed	-11.5923
▁printed	-11.593
▁rescued	-11.5931
▁townie	-11.5937
▁attach	-11.5938
▁sole	-11.5938
▁secured	-11.5949
▁cured	-11.5952
▁rom	-11.5952
are	-11.5957
▁sod	-11.5965
▁biscuits	-11.5967
▁earrings	-11.5967
▁attempted	-11.5969
▁catches	-11.5985
▁crackers	-11.5995
▁rocko	-11.6001
▁gre	-11.6001
cut	-11.6004
▁warner	-11.6007
▁undress	-11.6013
▁veins	-11.6015
aut	-11.6022
▁sadly	-11.6023
rst	-11.6025
▁lively	-11.6029
▁thor	-11.6038
▁marketing	-11.6043
▁claws	-11.6046
▁texted	-11.6049
▁hive	-11.6055
▁tlg	-11.6058
▁deeds	-11.606
▁carrots	-11.6062
▁vend	-11.6063
▁constant	-11.6064
stein	-11.6078
did	-11.6079
▁shorty	-11.6081
▁secretly	-11.6085
▁yorkin	-11.6086
▁appointments	-11.6087
▁dent	-11.6094
▁sca	-11.6094
▁tearing	-11.6094
▁cod	-11.6098
▁overlook	-11.61
▁wee	-11.6102
own	-11.6106
▁cooked	-11.6106
▁repeating	-11.6124
month	-11.6129
▁defender	-11.6129
eating	-11.6131
▁rags	-11.6135
▁decades	-11.6141
▁burgers	-11.6141
▁buyin	-11.615
▁fra	-11.6152
▁peasants	-11.6157
▁napa	-11.6163
▁smiled	-11.6169
▁longest	-11.6179
▁ach	-11.6183
▁kali	-11.6203
▁alrighty	-11.621
▁your	-11.6212
fus	-11.622
▁thumbs	-11.6221
his	-11.6226
▁listed	-11.6228
aii	-11.6231
amo	-11.6249
▁suited	-11.6249
▁snacks	-11.6253
▁fitz	-11.6263
rated	-11.6263
▁dated	-11.6267
▁alg	-11.6282
▁peas	-11.6284
▁hydra	-11.6286
ido	-11.6293
▁assassins	-11.6309
▁glen	-11.632
▁tak	-11.6326
▁strippers	-11.6335
itz	-11.6337
nna	-11.6352
▁rand	-11.636
▁howl	-11.6367
▁lass	-11.6376
▁cadet	-11.6396
▁consequence	-11.6399
▁brake	-11.6404
▁rehearse	-11.6405
▁unlocks	-11.6406
uzz	-11.6409
▁onion	-11.6409
▁cannons	-11.6415
▁divisions	-11.6431
▁blankets	-11.6431
▁volunteers	-11.6432
▁repairs	-11.6444
ital	-11.6444
iate	-11.6459
▁exception	-11.6463
▁oc	-11.6465
▁playin	-11.6467
dra	-11.6467
any	-11.6477
▁desi	-11.6486
▁ut	-11.6496
▁dada	-11.6501
▁dodg	-11.6516
▁employ	-11.6516
▁announc	-11.6533
▁hike	-11.6543
▁fright	-11.655
▁blinkin	-11.6557
▁stinks	-11.6564
▁execution	-11.6566
▁myr	-11.6567
▁shudder	-11.657
▁disgust	-11.6571
▁enchant	-11.6576
▁cloth	-11.6576
▁reap	-11.6576
▁dod	-11.6576
▁meals	-11.6578
▁andre	-11.6585
▁amaze	-11.6585
great	-11.6587
lift	-11.6587
level	-11.659
▁homo	-11.659
▁felon	-11.659
why	-11.6591
▁genuine	-11.6592
▁goddam	-11.6592
▁elliot	-11.6597
▁korea	-11.6598
▁solar	-11.66
▁wil	-11.6601
hour	-11.6601
▁republic	-11.6602
▁outrage	-11.6602
▁excess	-11.6603
▁improve	-11.6603
▁righteous	-11.6603
▁neglect	-11.6604
▁adrenaline	-11.6604
▁afghanistan	-11.6604
▁alligator	-11.6604
▁antoninus	-11.6604
▁arrogant	-11.6604
▁atlanta	-11.6604
▁bagshaw	-11.6604
▁barracks	-11.6604
▁baxter	-11.6604
▁bicycle	-11.6604
▁bizarre	-11.6604
▁britney	-11.6604
▁calendar	-11.6604
▁cavendish	-11.6604
▁component	-11.6604
▁concentration	-11.6604
▁congrats	-11.6604
▁continuing	-11.6604
▁cornwall	-11.6604
▁corporation	-11.6604
▁crusade	-11.6604
▁declaration	-11.6604
▁definition	-11.6604
▁detention	-11.6604
▁discount	-11.6604
▁disposal	-11.6604
▁duchess	-11.6604
▁earthquake	-11.6604
▁eloise	-11.6604
▁enthusiasm	-11.6604
▁eponine	-11.6604
▁everlasting	-11.6604
▁excellency	-11.6604
▁exhusband	-11.6604
▁expedition	-11.6604
▁firefight	-11.6604
▁footprint	-11.6604
▁frequency	-11.6604
▁goodfellow	-11.6604
▁goomgoom	-11.6604
▁grandchildren	-11.6604
▁grocery	-11.6604
▁hammond	-11.6604
▁hermione	-11.6604
▁hertzfeld	-11.6604
▁horace	-11.6604
▁hurray	-11.6604
▁industrial	-11.6604
▁inspiring	-11.6604
▁introducing	-11.6604
▁jangling	-11.6604
▁jeanbaptiste	-11.6604
▁jeremy	-11.6604
▁kirby	-11.6604
▁lichtenstein	-11.6604
▁louisiana	-11.6604
▁magnus	-11.6604
▁monique	-11.6604
▁morphine	-11.6604
▁munro	-11.6604
▁naughton	-11.6604
▁odonnell	-11.6604
▁optimistic	-11.6604
▁pelican	-11.6604
▁portorosso	-11.6604
▁provoke	-11.6604
▁rebellion	-11.6604
▁regulations	-11.6604
▁scotland	-11.6604
▁sculley	-11.6604
▁seduce	-11.6604
▁selfdefense	-11.6604
▁september	-11.6604
▁sharla	-11.6604
▁sizzling	-11.6604
▁slevin	-11.6604
▁sordino	-11.6604
▁specimen	-11.6604
▁spectacle	-11.6604
▁sweeney	-11.6604
▁thermal	-11.6604
▁toschi	-11.6604
▁vaughn	-11.6604
▁veteran	-11.6604
▁virgil	-11.6604
▁voyles	-11.6604
▁yeehaw	-11.6604
▁yoohoo	-11.6604
▁yvonne	-11.6604
▁bartender	-11.6604
▁continuous	-11.6604
▁cyrus	-11.6604
▁douche	-11.6604
▁gabriel	-11.6604
▁grimsby	-11.6604
▁gulf	-11.6604
▁leila	-11.6604
▁metropolis	-11.6604
▁missouri	-11.6604
▁sarnt	-11.6604
▁sermon	-11.6604
▁walsh	-11.6604
▁whooshes	-11.6604
▁zulu	-11.6604
▁depressing	-11.6604
▁deux	-11.6604
▁mashed	-11.6604
▁neena	-11.6604
▁predator	-11.6604
▁wolfwalker	-11.6604
▁lenny	-11.6604
▁nug	-11.6604
▁crateros	-11.6604
▁fbl	-11.6604
▁noticing	-11.6604
▁settling	-11.6604
▁bosley	-11.6604
▁bulb	-11.6604
▁fungus	-11.6604
▁harness	-11.6604
▁illinois	-11.6604
▁illuminat	-11.6604
▁premier	-11.6604
▁divas	-11.6604
▁classmates	-11.6604
▁revolv	-11.6604
▁vienna	-11.6604
▁ounce	-11.6604
▁interstate	-11.6604
▁aaaah	-11.6604
▁gauge	-11.6604
▁twirl	-11.6604
▁bleating	-11.6604
▁bethany	-11.6604
▁profound	-11.6604
▁casper	-11.6604
▁redeem	-11.6604
▁zebra	-11.6604
▁benjamin	-11.6604
▁wickles	-11.6604
▁curtis	-11.6604
▁sahar	-11.6604
▁lizzy	-11.6604
▁shboom	-11.6604
▁compass	-11.6605
▁leroy	-11.6605
▁crucial	-11.6605
▁josie	-11.6605
▁wadia	-11.6605
bel	-11.6605
▁denise	-11.6605
▁masha	-11.6605
▁employment	-11.6605
▁stump	-11.6605
▁involvement	-11.6605
▁stomp	-11.6605
▁repay	-11.6605
▁riend	-11.6605
▁consciousness	-11.6605
▁verge	-11.6605
▁nosy	-11.6605
▁jeff	-11.6605
▁slug	-11.6605
▁conserv	-11.6605
▁farther	-11.6605
▁superstar	-11.6605
▁drugged	-11.6605
▁expertise	-11.6605
▁greve	-11.6605
▁liking	-11.6605
▁trumpet	-11.6605
▁colorado	-11.6605
▁skipping	-11.6606
▁breakthrough	-11.6606
▁loaf	-11.6606
▁clich	-11.6606
▁hamster	-11.6606
▁psychotic	-11.6606
▁jello	-11.6606
▁interior	-11.6606
▁chapman	-11.6606
▁lump	-11.6606
▁sept	-11.6606
▁resistance	-11.6606
▁igby	-11.6606
▁jonas	-11.6606
▁organic	-11.6606
▁disappearance	-11.6607
▁pacha	-11.6607
▁underage	-11.6607
▁seren	-11.6607
▁purty	-11.6607
▁darian	-11.6607
▁bounty	-11.6607
▁persian	-11.6607
▁portland	-11.6607
▁scarce	-11.6607
▁toad	-11.6607
▁scav	-11.6607
▁logic	-11.6607
▁foam	-11.6607
▁uglyville	-11.6607
▁gateway	-11.6607
▁flora	-11.6608
▁icu	-11.6608
▁outhouse	-11.6608
▁wyler	-11.6608
▁ruff	-11.6609
▁ewell	-11.6609
▁frell	-11.6609
▁voila	-11.661
▁liable	-11.661
▁roland	-11.661
▁shade	-11.661
▁atf	-11.661
▁gossie	-11.6611
▁installed	-11.6611
▁hence	-11.6611
▁solara	-11.6611
▁spaceship	-11.6611
▁ogres	-11.6611
▁wack	-11.6612
▁ballroom	-11.6612
▁allegedly	-11.6612
▁stalker	-11.6613
▁lockdown	-11.6613
▁perish	-11.6613
▁ironic	-11.6614
▁barbie	-11.6614
▁fireplace	-11.6614
▁tripping	-11.6615
▁contender	-11.6615
▁dickhead	-11.6615
▁lndistinct	-11.6615
▁hunterson	-11.6615
▁qualified	-11.6616
▁ditt	-11.6616
▁canal	-11.6617
▁signora	-11.6617
▁lava	-11.6618
manship	-11.6618
▁decoy	-11.6619
▁humiliated	-11.6619
▁tiles	-11.6619
oca	-11.662
▁alma	-11.662
band	-11.662
▁beany	-11.6621
▁notify	-11.6621
▁refin	-11.6622
▁bind	-11.6625
▁flicker	-11.6625
▁irre	-11.6626
▁sharpen	-11.6627
▁hijack	-11.6627
▁compromised	-11.6629
▁tenant	-11.663
▁jammer	-11.663
▁formation	-11.6631
▁rusty	-11.6632
▁fulltime	-11.6633
▁fireball	-11.6635
▁reel	-11.6638
▁aaa	-11.6638
▁ir	-11.6639
▁childish	-11.6639
▁litera	-11.664
▁soy	-11.664
▁sonya	-11.664
▁partial	-11.6642
▁conquered	-11.6642
▁talon	-11.6643
▁controlling	-11.6644
▁seagulls	-11.6646
▁contractor	-11.6647
▁jacobo	-11.6647
▁wat	-11.665
▁addicted	-11.6651
▁rental	-11.6654
▁participate	-11.6655
▁romeo	-11.6658
▁desperately	-11.6659
▁kurt	-11.6661
▁uglydolls	-11.6663
▁defect	-11.6663
itude	-11.6669
▁pager	-11.6671
▁deadline	-11.6672
▁frightening	-11.6673
▁jingle	-11.6674
▁applying	-11.6676
▁tossed	-11.6676
▁dum	-11.6677
▁winch	-11.6684
▁jamm	-11.6687
▁ignored	-11.6689
▁chased	-11.669
▁cheaper	-11.6692
▁claiming	-11.6705
▁breakup	-11.6706
▁peel	-11.6706
▁oral	-11.6707
▁demanding	-11.6708
▁loo	-11.6715
▁dolly	-11.6723
▁wired	-11.6725
▁stripe	-11.6726
▁creamy	-11.673
▁bandit	-11.6739
▁avoided	-11.6741
▁mai	-11.6742
▁layer	-11.6746
▁thruster	-11.6747
▁olympics	-11.6748
▁pumping	-11.676
▁risky	-11.6761
▁cheerleaders	-11.6765
▁forensics	-11.6765
▁cling	-11.6769
▁slots	-11.6774
▁ohoh	-11.678
▁ruler	-11.6782
▁dub	-11.6784
▁charts	-11.6785
▁penn	-11.6792
▁kilos	-11.6798
▁rattles	-11.6799
▁iot	-11.6801
▁whin	-11.6803
▁blamed	-11.6807
▁completed	-11.6808
▁outsider	-11.6812
▁louie	-11.6815
▁cadets	-11.6816
▁gaze	-11.6817
▁singin	-11.6819
▁peed	-11.6822
horse	-11.6831
▁rituals	-11.6833
▁missiles	-11.6833
▁tasted	-11.6836
▁seb	-11.6845
▁tributes	-11.685
▁organs	-11.6852
▁chast	-11.6867
oth	-11.6871
▁targeted	-11.6875
▁weirdo	-11.6881
▁washing	-11.6882
▁heating	-11.6885
▁turks	-11.6889
oma	-11.689
have	-11.6893
▁pissing	-11.6893
▁semi	-11.691
▁associates	-11.6919
▁hose	-11.6925
▁gladly	-11.6926
state	-11.6936
▁restless	-11.694
▁volt	-11.6946
ucker	-11.6953
▁dinosaurs	-11.6954
▁fae	-11.6957
▁arrows	-11.6988
▁camper	-11.699
▁multi	-11.7004
▁squirrels	-11.7006
▁gifted	-11.7046
coup	-11.7054
▁sweeps	-11.7054
▁abe	-11.7056
▁comeback	-11.7063
▁pap	-11.7064
gone	-11.7068
▁respected	-11.7092
▁lightly	-11.7093
▁colt	-11.7103
ili	-11.7119
▁ado	-11.7121
elli	-11.7129
▁smelled	-11.7132
tech	-11.7134
▁poo	-11.714
▁bridget	-11.7152
trained	-11.7162
▁kilo	-11.7167
▁romania	-11.7182
▁creak	-11.7202
hem	-11.7205
▁stammer	-11.7205
▁whup	-11.7206
mation	-11.7216
▁mortar	-11.7229
▁expense	-11.723
▁rattle	-11.7231
▁exhale	-11.7236
▁heel	-11.7245
▁squeez	-11.7246
▁vein	-11.7248
horn	-11.7267
star	-11.728
▁coo	-11.732
aux	-11.7321
arve	-11.7336
watch	-11.7347
bug	-11.7351
▁after	-11.7355
ike	-11.7367
▁wedge	-11.737
▁valid	-11.7373
▁tack	-11.738
wit	-11.738
▁tex	-11.7395
friend	-11.7398
▁flyer	-11.7403
▁applaud	-11.7404
born	-11.7404
▁inject	-11.7409
▁retain	-11.741
▁bubb	-11.7412
▁dismiss	-11.7413
▁demi	-11.7414
craft	-11.7415
▁croc	-11.7416
speed	-11.7417
▁wick	-11.7417
▁execute	-11.7418
child	-11.742
week	-11.7421
tooth	-11.7421
yeah	-11.7423
buck	-11.7423
▁spank	-11.7424
▁surprising	-11.7425
uel	-11.7428
▁rider	-11.7428
making	-11.7429
okay	-11.7431
▁heave	-11.7433
▁whee	-11.7434
▁inquir	-11.7435
▁neighbour	-11.7437
▁confidential	-11.7437
▁abilities	-11.7437
▁albany	-11.7437
▁allegiance	-11.7437
▁anacott	-11.7437
▁andante	-11.7437
▁appointed	-11.7437
▁arkansas	-11.7437
▁ascend	-11.7437
▁astonish	-11.7437
▁athena	-11.7437
▁athlete	-11.7437
▁audrey	-11.7437
▁baghdad	-11.7437
▁baracus	-11.7437
▁beacon	-11.7437
▁beryllium	-11.7437
▁bolivar	-11.7437
▁britani	-11.7437
▁brittany	-11.7437
▁caterpillar	-11.7437
▁challenging	-11.7437
▁cheyenne	-11.7437
▁closure	-11.7437
▁connecticut	-11.7437
▁contempt	-11.7437
▁convincing	-11.7437
▁corwin	-11.7437
▁crimson	-11.7437
▁crotch	-11.7437
▁curiosity	-11.7437
▁degenerate	-11.7437
▁destined	-11.7437
▁donnie	-11.7437
▁dynamic	-11.7437
▁einstein	-11.7437
▁extension	-11.7437
▁facial	-11.7437
▁glabrus	-11.7437
▁gladiator	-11.7437
▁glamorous	-11.7437
▁gorignak	-11.7437
▁haddonfield	-11.7437
▁happiest	-11.7437
▁hazard	-11.7437
▁herakles	-11.7437
▁hillbilly	-11.7437
▁honghui	-11.7437
▁ignition	-11.7437
▁ignorant	-11.7437
▁imagining	-11.7437
▁intimidate	-11.7437
▁jerusalem	-11.7437
▁jupiter	-11.7437
▁jurisdiction	-11.7437
▁karras	-11.7437
▁kazakhstan	-11.7437
▁lafayette	-11.7437
▁lalalala	-11.7437
▁liwen	-11.7437
▁loneliness	-11.7437
▁lyrics	-11.7437
▁makebelieve	-11.7437
▁malcolm	-11.7437
▁manifest	-11.7437
▁medieval	-11.7437
▁mediocre	-11.7437
▁militia	-11.7437
▁munich	-11.7437
▁norwegian	-11.7437
▁offensive	-11.7437
▁outnumbered	-11.7437
▁pajamas	-11.7437
▁pankot	-11.7437
▁pharaoh	-11.7437
▁phenomenon	-11.7437
▁pittsburgh	-11.7437
▁pruitt	-11.7437
▁qualities	-11.7437
▁railroad	-11.7437
▁raspberry	-11.7437
▁recognition	-11.7437
▁reconsider	-11.7437
▁rematch	-11.7437
▁ribbon	-11.7437
▁rifki	-11.7437
▁sabotage	-11.7437
▁sardine	-11.7437
▁scapelli	-11.7437
▁serpent	-11.7437
▁shrike	-11.7437
▁slytherin	-11.7437
▁snitch	-11.7437
▁spleen	-11.7437
▁subscribe	-11.7437
▁substance	-11.7437
▁sullivan	-11.7437
▁summit	-11.7437
▁swollen	-11.7437
▁syringe	-11.7437
▁telegram	-11.7437
▁thieves	-11.7437
▁trousers	-11.7437
▁truce	-11.7437
▁tsunami	-11.7437
▁tyranny	-11.7437
▁unbreakable	-11.7437
▁unemployed	-11.7437
▁unleash	-11.7437
▁vandergeld	-11.7437
▁variety	-11.7437
▁vegetarian	-11.7437
▁ventura	-11.7437
▁versailles	-11.7437
▁whisky	-11.7437
▁wisconsin	-11.7437
▁wrench	-11.7437
▁xanax	-11.7437
▁yorkshire	-11.7437
▁youtube	-11.7437
▁coworker	-11.7437
▁hooray	-11.7437
▁madonna	-11.7437
▁messiah	-11.7437
▁minuti	-11.7437
▁philosophy	-11.7437
▁redmond	-11.7437
▁reduction	-11.7437
▁revolt	-11.7437
▁sweden	-11.7437
▁syrup	-11.7437
▁thatcher	-11.7437
▁tressler	-11.7437
▁aiways	-11.7437
▁clements	-11.7437
▁outmode	-11.7437
▁reinforcements	-11.7437
▁eager	-11.7437
▁jamaica	-11.7437
▁whereabouts	-11.7437
▁lease	-11.7437
▁stabilize	-11.7437
▁peacekeepers	-11.7437
▁ronald	-11.7437
▁wickwire	-11.7437
▁marijuana	-11.7437
▁overhear	-11.7437
▁argos	-11.7437
▁goddess	-11.7437
▁grudge	-11.7437
▁gunther	-11.7437
▁lorna	-11.7437
▁brawl	-11.7437
▁piston	-11.7437
▁molecul	-11.7437
▁resolution	-11.7437
▁bullseye	-11.7437
▁underworld	-11.7437
▁headphones	-11.7437
▁lonesome	-11.7437
▁susie	-11.7437
▁thatthat	-11.7437
▁uppercut	-11.7437
▁francoise	-11.7437
▁nogood	-11.7437
▁biological	-11.7437
▁coolsville	-11.7437
▁hypocrite	-11.7437
▁investigating	-11.7437
▁singsong	-11.7437
▁spectrum	-11.7437
▁cunning	-11.7437
▁adolf	-11.7437
▁contamination	-11.7437
▁sultan	-11.7437
▁dagger	-11.7437
▁pedal	-11.7437
▁underwater	-11.7437
▁dontdont	-11.7438
▁context	-11.7438
▁ellis	-11.7438
▁levinson	-11.7438
▁granddaughter	-11.7438
▁scalp	-11.7438
▁baroness	-11.7438
▁ollie	-11.7438
▁flunk	-11.7438
▁cawing	-11.7438
▁tread	-11.7438
▁holler	-11.7438
▁henley	-11.7438
▁doodle	-11.7438
▁demonstration	-11.7438
▁rake	-11.7438
▁yonas	-11.7438
▁weave	-11.7438
▁evacuation	-11.7438
▁brazilian	-11.7438
▁winslow	-11.7438
▁amo	-11.7438
▁flourish	-11.7438
▁milord	-11.7438
▁urine	-11.7438
▁upright	-11.7438
▁furious	-11.7438
▁triumphant	-11.7438
▁disorder	-11.7438
▁spacecraft	-11.7439
▁baylor	-11.7439
▁venom	-11.7439
▁josephine	-11.7439
door	-11.7439
▁brett	-11.7439
▁argh	-11.7439
▁meade	-11.7439
▁granddad	-11.7439
▁verde	-11.7439
▁jeep	-11.7439
▁squish	-11.7439
▁jonah	-11.7439
▁bailey	-11.7439
▁swish	-11.7439
▁arise	-11.7439
▁cesar	-11.7439
ibble	-11.7439
▁mature	-11.7439
▁wiley	-11.7439
▁bowden	-11.7439
▁gagging	-11.7439
▁marino	-11.7439
▁ruling	-11.7439
▁veil	-11.7439
▁impose	-11.744
▁cruelty	-11.744
▁shoppers	-11.744
▁iris	-11.744
▁flare	-11.744
▁notebook	-11.744
▁eww	-11.744
▁tiff	-11.744
▁samoan	-11.744
▁babysit	-11.744
▁dandy	-11.744
▁fellowship	-11.7441
▁vicar	-11.7441
▁inbound	-11.7441
lght	-11.7441
▁callahan	-11.7441
▁glue	-11.7441
▁liberat	-11.7441
▁judas	-11.7441
▁shred	-11.7441
▁visa	-11.7441
▁tuna	-11.7442
▁zap	-11.7442
▁reef	-11.7442
▁rival	-11.7442
▁winston	-11.7442
▁dental	-11.7443
▁sophisticated	-11.7443
▁gooks	-11.7443
▁leah	-11.7444
▁payload	-11.7444
▁haji	-11.7444
▁stressful	-11.7444
made	-11.7444
▁depot	-11.7444
▁european	-11.7444
▁raj	-11.7445
▁belongings	-11.7445
▁dune	-11.7446
▁puert	-11.7446
▁valve	-11.7446
▁heth	-11.7447
▁elite	-11.7447
▁atm	-11.7447
▁donor	-11.7448
▁oversee	-11.7448
▁nile	-11.7448
▁shant	-11.7449
theless	-11.745
▁burt	-11.7451
▁fisherman	-11.7452
▁oof	-11.7452
▁stow	-11.7453
▁carved	-11.7453
▁potion	-11.7453
▁hover	-11.7453
▁aww	-11.7454
▁payday	-11.7455
▁flown	-11.7456
▁warmth	-11.7456
▁redwood	-11.7456
▁ballad	-11.7456
▁condemned	-11.7456
▁tito	-11.7457
▁sandman	-11.7457
▁zipper	-11.7458
▁portal	-11.7459
▁consideration	-11.7459
▁stigman	-11.746
▁rue	-11.7461
▁elected	-11.7462
▁retainer	-11.7464
▁collapsed	-11.7464
▁compared	-11.7464
igned	-11.7465
▁stalking	-11.7465
▁campus	-11.7466
▁drunken	-11.7466
▁approaches	-11.7467
▁dew	-11.7469
▁highline	-11.747
▁sonmi	-11.7471
▁avenger	-11.7472
▁lint	-11.7472
▁recruited	-11.7472
▁oww	-11.7474
▁picket	-11.7475
▁trespassing	-11.748
▁tartar	-11.7481
▁exploded	-11.7482
▁fury	-11.7483
▁scooby	-11.7485
▁boiler	-11.7485
▁coop	-11.7487
▁bask	-11.7488
▁equally	-11.749
▁inherited	-11.749
▁franco	-11.749
▁framed	-11.7492
▁stinky	-11.7494
▁hiring	-11.7496
▁gambler	-11.7496
▁psyche	-11.7497
▁foy	-11.7498
▁weaken	-11.7499
▁cub	-11.75
nne	-11.7501
▁wakeup	-11.7501
▁lash	-11.7501
▁developing	-11.7504
▁dio	-11.7504
▁fiance	-11.7505
▁skilled	-11.7514
▁assured	-11.7517
▁cutter	-11.7518
▁hauling	-11.7519
▁complications	-11.752
▁reced	-11.752
▁freakin	-11.7521
▁gene	-11.7522
▁superb	-11.7523
▁volunteered	-11.7524
▁dusty	-11.7525
iang	-11.7529
▁insulted	-11.7532
▁lust	-11.7532
▁performed	-11.7532
▁pup	-11.7533
▁confessed	-11.7534
▁maggots	-11.7538
▁lesions	-11.7538
▁setup	-11.7541
▁perv	-11.7542
▁stressed	-11.7543
▁dib	-11.7547
▁bursting	-11.7548
▁engineering	-11.7554
▁detailed	-11.7554
▁here	-11.7555
▁briefed	-11.756
▁simpler	-11.7561
▁roller	-11.7569
▁attending	-11.7569
▁scann	-11.758
▁sald	-11.7581
▁spying	-11.7581
▁licking	-11.7587
▁publicly	-11.759
mph	-11.7603
▁ache	-11.7606
hut	-11.7614
▁loot	-11.762
▁vick	-11.7621
▁ninety	-11.7628
▁chaps	-11.7631
▁titans	-11.7631
start	-11.7637
▁ripe	-11.7641
▁cri	-11.7643
▁spelling	-11.7644
▁aiming	-11.7645
▁mortars	-11.765
▁gathering	-11.765
▁foreigners	-11.7659
▁carrier	-11.766
▁ren	-11.766
bang	-11.7661
▁tres	-11.7662
▁grad	-11.7674
▁stupido	-11.7674
▁linked	-11.7679
itis	-11.7679
▁flyin	-11.7679
▁pretended	-11.7685
▁witnessed	-11.7689
▁healer	-11.7694
▁starters	-11.7709
▁birdie	-11.7735
▁methods	-11.7742
▁fishy	-11.7763
lite	-11.7767
▁patron	-11.7776
prompt	-11.7777
▁appreciated	-11.7778
▁elect	-11.7789
tee	-11.7793
till	-11.7797
▁gel	-11.7835
▁sher	-11.7835
▁knots	-11.7838
heim	-11.7849
▁terr	-11.7864
roni	-11.787
▁norm	-11.7874
▁unite	-11.7876
rock	-11.7878
▁idol	-11.7888
tail	-11.7888
▁milli	-11.7909
▁watches	-11.7931
▁iit	-11.7939
▁patroni	-11.8007
▁shhh	-11.8019
▁barge	-11.8023
▁heroic	-11.8037
▁assemble	-11.804
dog	-11.8044
augh	-11.8049
▁troop	-11.8056
▁ned	-11.8064
hold	-11.8068
rous	-11.8076
▁ofa	-11.8096
gun	-11.8141
▁titan	-11.8143
▁chime	-11.8148
▁uri	-11.8152
▁chart	-11.8158
▁marker	-11.8169
zen	-11.818
rtz	-11.8223
▁crumb	-11.8236
▁stir	-11.8237
▁foreigner	-11.8245
▁chap	-11.8255
▁ohhh	-11.8255
position	-11.8263
▁aff	-11.8292
▁flatter	-11.8297
world	-11.8305
▁atten	-11.8305
look	-11.8311
▁contro	-11.8313
spect	-11.8316
school	-11.8317
▁summon	-11.832
▁flick	-11.8321
▁deceive	-11.8327
▁humiliate	-11.8327
mount	-11.8328
mobile	-11.8329
claim	-11.8329
related	-11.8329
stream	-11.8329
proof	-11.8329
flower	-11.833
paint	-11.8331
▁thirst	-11.8333
▁compose	-11.8333
▁thorough	-11.8335
▁merge	-11.8336
▁cuban	-11.8336
▁doom	-11.8337
wire	-11.8337
▁neuro	-11.8337
coat	-11.8339
▁merri	-11.834
▁isabel	-11.8342
▁pupil	-11.8342
▁boogey	-11.8343
▁voil	-11.8343
▁dancin	-11.8344
▁darlin	-11.8344
▁construct	-11.8344
▁orient	-11.8345
▁ratio	-11.8345
▁diploma	-11.8345
▁smug	-11.8346
▁reinforce	-11.8346
▁obtain	-11.8346
▁parallel	-11.8346
▁radical	-11.8346
▁subpoena	-11.8346
▁abomination	-11.8346
▁accommodat	-11.8346
▁accurate	-11.8346
▁alvarez	-11.8346
▁amazon	-11.8346
▁android	-11.8346
▁baptize	-11.8346
▁boulevard	-11.8346
▁brigid	-11.8346
▁brigman	-11.8346
▁butterflies	-11.8346
▁caitlyn	-11.8346
▁camouflage	-11.8346
▁casserole	-11.8346
▁chayim	-11.8346
▁chowdhury	-11.8346
▁cilician	-11.8346
▁clumsy	-11.8346
▁collateral	-11.8346
▁compensation	-11.8346
▁cougar	-11.8346
▁cybertron	-11.8346
▁cynic	-11.8346
▁danburry	-11.8346
▁decorating	-11.8346
▁dixon	-11.8346
▁driscoll	-11.8346
▁duplicate	-11.8346
▁eclipse	-11.8346
▁elijah	-11.8346
▁encouraging	-11.8346
▁ercole	-11.8346
▁exploring	-11.8346
▁felix	-11.8346
▁feminine	-11.8346
▁firephina	-11.8346
▁florine	-11.8346
▁frobisher	-11.8346
▁frustrating	-11.8346
▁graphic	-11.8346
▁griffith	-11.8346
▁grumble	-11.8346
▁gunfight	-11.8346
▁gurgling	-11.8346
▁gypsy	-11.8346
▁hampshire	-11.8346
▁harriman	-11.8346
▁hudson	-11.8346
▁humility	-11.8346
▁inappropriate	-11.8346
▁incorrect	-11.8346
▁intervention	-11.8346
▁intuition	-11.8346
▁invincible	-11.8346
▁involving	-11.8346
▁irresistible	-11.8346
▁isolation	-11.8346
▁jurgen	-11.8346
▁kababik	-11.8346
▁kungfu	-11.8346
▁landscape	-11.8346
▁lazarus	-11.8346
▁leisure	-11.8346
▁leviosa	-11.8346
▁lifeanddeath	-11.8346
▁litvenko	-11.8346
▁maestro	-11.8346
▁magdalene	-11.8346
▁mandatory	-11.8346
▁marathon	-11.8346
▁mariejosephe	-11.8346
▁marshmallow	-11.8346
▁mccool	-11.8346
▁memorial	-11.8346
▁millennium	-11.8346
▁mohammed	-11.8346
▁motorbike	-11.8346
▁mulqueen	-11.8346
▁muzzle	-11.8346
▁myseif	-11.8346
▁narracott	-11.8346
▁negotiator	-11.8346
▁neptune	-11.8346
▁nevada	-11.8346
▁nietzsche	-11.8346
▁nobility	-11.8346
▁outpost	-11.8346
▁overseas	-11.8346
▁premises	-11.8346
▁prudence	-11.8346
▁psychiatric	-11.8346
▁quesadilla	-11.8346
▁rafto	-11.8346
▁rizu	-11.8346
▁rottingham	-11.8346
▁rycart	-11.8346
▁satisfaction	-11.8346
▁saumensch	-11.8346
▁schmidt	-11.8346
▁seizure	-11.8346
▁sheppard	-11.8346
▁sneeze	-11.8346
▁sonofabitch	-11.8346
▁souvenir	-11.8346
▁stegman	-11.8346
▁sufficient	-11.8346
▁suspension	-11.8346
▁swept	-11.8346
▁trojan	-11.8346
▁twoshoes	-11.8346
▁tyrant	-11.8346
▁vicinity	-11.8346
▁voldemort	-11.8346
▁vukmir	-11.8346
▁yourseif	-11.8346
▁zephyr	-11.8346
▁benedict	-11.8346
▁brotherinlaw	-11.8346
▁cheeseburger	-11.8346
▁convoy	-11.8346
▁daffy	-11.8346
▁ferris	-11.8346
▁fizel	-11.8346
▁frederick	-11.8346
▁gravy	-11.8346
▁hitchhike	-11.8346
▁ireland	-11.8346
▁levant	-11.8346
▁midwest	-11.8346
▁momentarily	-11.8346
▁mulanax	-11.8346
▁ninja	-11.8346
▁nixon	-11.8346
▁richmond	-11.8346
▁shuffle	-11.8346
▁sliding	-11.8346
▁storage	-11.8346
▁superhero	-11.8346
▁terrain	-11.8346
▁tofu	-11.8346
▁wharf	-11.8346
▁yzma	-11.8346
▁cheesy	-11.8346
▁ekg	-11.8346
▁erwin	-11.8346
▁refusing	-11.8346
▁regain	-11.8346
▁tuxedo	-11.8346
▁philosopher	-11.8346
▁serial	-11.8346
▁confine	-11.8346
▁coroner	-11.8346
▁shilling	-11.8346
▁vietnamese	-11.8346
▁abyss	-11.8346
▁lumber	-11.8346
▁dreary	-11.8346
▁ratchet	-11.8346
▁sterling	-11.8346
▁proving	-11.8346
▁swiss	-11.8346
▁testicle	-11.8346
▁berthold	-11.8346
▁detain	-11.8346
▁flatbed	-11.8346
▁governess	-11.8346
▁margie	-11.8346
▁eteon	-11.8346
▁copperbottom	-11.8346
ometer	-11.8346
▁reek	-11.8346
▁convertible	-11.8346
▁applied	-11.8346
▁endanger	-11.8346
▁zach	-11.8346
▁deflect	-11.8346
▁gomez	-11.8346
▁lagoon	-11.8346
▁billionaire	-11.8346
▁cocksucker	-11.8346
▁psychology	-11.8346
▁arcana	-11.8346
▁hathaway	-11.8346
▁inconvenience	-11.8347
▁genny	-11.8347
▁icecream	-11.8347
▁wrath	-11.8347
▁apollonia	-11.8347
▁stepmother	-11.8347
▁aspro	-11.8347
▁vocal	-11.8347
▁bahia	-11.8347
▁tumbl	-11.8347
▁popcorn	-11.8347
▁oxford	-11.8347
caution	-11.8347
▁burke	-11.8347
▁ceii	-11.8347
▁analyz	-11.8347
▁merit	-11.8347
▁tidy	-11.8347
jitsu	-11.8347
▁outrageous	-11.8348
▁shady	-11.8348
▁burial	-11.8348
▁kenny	-11.8348
▁dldnt	-11.8348
▁fantine	-11.8348
▁elsa	-11.8348
▁rustles	-11.8348
▁bidding	-11.8348
▁magda	-11.8348
▁stale	-11.8348
▁buyer	-11.8348
▁valium	-11.8348
▁rye	-11.8348
▁info	-11.8348
▁blowjob	-11.8348
▁blondie	-11.8348
▁squat	-11.8348
▁achievement	-11.8348
▁highbury	-11.8348
▁shortcut	-11.8348
▁inquiries	-11.8348
▁pooch	-11.8348
▁bamba	-11.8348
▁salud	-11.8348
▁pinned	-11.8348
▁reload	-11.8349
▁minni	-11.8349
▁tryouts	-11.8349
▁sofa	-11.8349
▁boogeyman	-11.8349
▁assembly	-11.8349
▁thatsthats	-11.8349
▁offline	-11.8349
▁playground	-11.8349
▁lilli	-11.8349
▁outof	-11.8349
▁whim	-11.835
▁dangling	-11.835
▁lyin	-11.835
▁jessup	-11.835
▁gunnar	-11.835
▁overall	-11.835
▁starboard	-11.835
▁divers	-11.835
▁consist	-11.8351
▁battlefield	-11.8351
▁courtney	-11.8351
▁preferred	-11.8351
▁province	-11.8351
▁mmmmm	-11.8351
▁samuel	-11.8351
▁tung	-11.8351
▁armour	-11.8351
▁collective	-11.8352
▁broward	-11.8352
▁maxwell	-11.8352
▁ellic	-11.8353
▁buddh	-11.8353
▁thong	-11.8354
▁barney	-11.8354
▁opposed	-11.8354
▁overwhelming	-11.8354
▁motivation	-11.8355
▁chess	-11.8355
▁dung	-11.8355
▁symbolic	-11.8355
▁betsy	-11.8355
▁tripped	-11.8356
▁calum	-11.8356
▁condor	-11.8356
▁kane	-11.8356
▁elsewhere	-11.8357
▁generate	-11.8357
▁veal	-11.8357
▁bayou	-11.8357
▁frat	-11.8357
▁hallow	-11.8357
▁exceeding	-11.8357
▁stuttering	-11.8357
▁traders	-11.8358
▁soar	-11.8358
▁gringo	-11.8358
▁coil	-11.8359
▁vast	-11.8359
▁firefall	-11.8359
▁heathen	-11.836
▁sustained	-11.836
▁erika	-11.836
▁rite	-11.836
▁grit	-11.8361
▁courthouse	-11.8361
▁overhead	-11.8361
▁sundown	-11.8361
▁spanky	-11.8361
▁checkmate	-11.8362
▁travelling	-11.8362
▁countryside	-11.8363
▁ark	-11.8363
▁bravery	-11.8363
▁ridden	-11.8364
▁eff	-11.8364
▁hoid	-11.8364
▁neutral	-11.8364
▁marina	-11.8365
▁controller	-11.8365
▁elderly	-11.8366
▁slurping	-11.8367
▁publicity	-11.8367
▁shortage	-11.8368
▁mimic	-11.8368
▁layton	-11.8368
▁deai	-11.8368
▁raiden	-11.8369
▁greedy	-11.8369
▁randy	-11.837
▁chunky	-11.8372
▁realistic	-11.8375
▁unfi	-11.8377
▁condom	-11.8379
▁vickie	-11.838
gular	-11.838
▁berry	-11.8382
▁standby	-11.8383
▁feei	-11.8383
▁realizing	-11.8384
▁melon	-11.8384
▁shuddering	-11.8387
▁disk	-11.8387
▁gina	-11.8389
▁invested	-11.839
▁replaced	-11.839
▁fitch	-11.8391
▁enlist	-11.8395
fucking	-11.8395
▁decorate	-11.8397
▁recruiting	-11.8397
▁losin	-11.8398
▁cour	-11.8398
▁knuckles	-11.8398
▁lax	-11.8399
▁wiser	-11.84
front	-11.8401
▁hangar	-11.8401
▁traced	-11.8401
▁manhood	-11.8405
▁fargo	-11.8405
▁builders	-11.8405
▁recovered	-11.8407
▁entertainer	-11.8414
▁quiz	-11.8415
▁realised	-11.8417
▁flushing	-11.8418
▁healy	-11.8419
▁cale	-11.8424
▁glowing	-11.8426
▁ville	-11.8426
ahl	-11.8431
▁rational	-11.8435
▁beaches	-11.8437
arie	-11.8439
▁splashing	-11.8442
▁revealed	-11.8443
▁hun	-11.8447
▁mesh	-11.8454
▁ford	-11.8455
▁gained	-11.8471
▁heartless	-11.8473
▁messes	-11.8473
▁poured	-11.8473
▁bled	-11.8475
dale	-11.8476
▁scored	-11.8477
▁eyeballs	-11.8478
▁goombas	-11.8478
▁grasshoppers	-11.8478
▁plaintiffs	-11.8478
▁sewer	-11.8488
▁blasted	-11.8488
▁directed	-11.8496
hunt	-11.8521
▁practiced	-11.8523
▁mayan	-11.8533
▁treaty	-11.8534
▁tying	-11.8538
▁bert	-11.8539
▁oysters	-11.8539
▁disappearing	-11.8542
comm	-11.8544
▁lag	-11.855
▁concerning	-11.8552
▁condoms	-11.8555
▁dumping	-11.8556
▁loosen	-11.8559
▁joyful	-11.856
▁deserted	-11.8572
▁dai	-11.8577
▁bathing	-11.8584
god	-11.8587
▁tilt	-11.8589
▁irs	-11.8608
▁insert	-11.8615
▁vern	-11.8616
▁examine	-11.8617
▁zed	-11.8621
▁screamed	-11.8621
▁admir	-11.863
▁meth	-11.8641
▁noted	-11.8652
▁ooo	-11.8657
aaa	-11.8658
▁lifting	-11.8658
▁oneill	-11.8665
▁zing	-11.8669
▁epi	-11.8676
▁fallin	-11.8692
▁committ	-11.8694
▁pest	-11.8695
▁stud	-11.87
custome	-11.8709
umm	-11.871
▁linen	-11.8712
▁spaz	-11.8715
▁beaut	-11.8723
▁slot	-11.8726
market	-11.8737
youre	-11.8747
▁sly	-11.875
nix	-11.8764
▁mais	-11.8784
high	-11.8796
▁this	-11.8805
▁cali	-11.8811
udge	-11.8851
ional	-11.8851
▁induc	-11.8855
▁ere	-11.8867
▁bov	-11.8876
nish	-11.8896
urdy	-11.892
▁vl	-11.8946
▁ou	-11.8953
▁pier	-11.8972
▁turk	-11.8986
▁cog	-11.8996
trude	-11.9004
aving	-11.9009
yard	-11.9009
▁indulge	-11.9025
lr	-11.9028
▁idle	-11.9039
▁tame	-11.9041
oft	-11.9059
▁infiltrate	-11.9067
▁roo	-11.9067
▁ez	-11.9076
▁shatter	-11.9079
▁dag	-11.9082
produc	-11.9085
▁grim	-11.9093
▁clatter	-11.9107
▁convers	-11.9112
▁plott	-11.9114
▁spl	-11.9118
▁oyster	-11.9137
▁forensic	-11.9138
▁cheerleader	-11.9138
▁vegetable	-11.9141
▁relation	-11.9141
▁giggle	-11.9143
▁oop	-11.9148
▁sieg	-11.9148
▁lem	-11.9154
▁deli	-11.9157
wright	-11.9162
▁serv	-11.9169
▁legion	-11.9173
this	-11.9184
▁growl	-11.9185
huh	-11.9202
ization	-11.9205
▁energ	-11.9233
▁sk	-11.9238
quit	-11.9259
▁cob	-11.9287
▁mack	-11.9288
▁willy	-11.929
▁stalk	-11.9303
▁rib	-11.9316
hom	-11.9318
▁retard	-11.932
▁intent	-11.932
▁render	-11.932
▁encourage	-11.9326
known	-11.9326
▁evolve	-11.9327
▁educate	-11.9327
▁expire	-11.9328
plant	-11.9328
▁excite	-11.9328
tempo	-11.9328
stroke	-11.9329
century	-11.9329
third	-11.9329
true	-11.9329
fighting	-11.9329
type	-11.9329
james	-11.9329
naked	-11.9329
▁interpret	-11.933
▁prodig	-11.9332
▁hulk	-11.9332
▁murph	-11.9333
▁promote	-11.9333
storm	-11.9334
sick	-11.9335
▁supervis	-11.9337
▁macedonia	-11.934
▁poke	-11.9342
▁lndia	-11.9342
estate	-11.9342
▁conspir	-11.9343
▁drivin	-11.9343
▁muff	-11.9343
▁riva	-11.9343
▁kiddin	-11.9344
ological	-11.9344
▁cecil	-11.9345
▁automatic	-11.9345
▁continent	-11.9346
▁disobey	-11.9346
▁abstract	-11.9346
▁amnesia	-11.9346
▁babbitt	-11.9346
▁baptist	-11.9346
▁beethoven	-11.9346
▁berkeley	-11.9346
▁bleach	-11.9346
▁blindfold	-11.9346
▁blunt	-11.9346
▁buongiorno	-11.9346
▁cackling	-11.9346
▁canadian	-11.9346
▁cartridge	-11.9346
▁cassander	-11.9346
▁catapult	-11.9346
▁clutch	-11.9346
▁coiiins	-11.9346
▁compact	-11.9346
▁competitive	-11.9346
▁cruces	-11.9346
▁debutante	-11.9346
▁defensive	-11.9346
▁democrat	-11.9346
▁dermot	-11.9346
▁dictionary	-11.9346
▁dishonor	-11.9346
▁donovan	-11.9346
▁encrypted	-11.9346
▁enslave	-11.9346
▁epidemic	-11.9346
▁equipped	-11.9346
▁excellence	-11.9346
▁exorcism	-11.9346
▁exploding	-11.9346
▁exquisite	-11.9346
▁facetoface	-11.9346
▁facilitat	-11.9346
▁faculty	-11.9346
▁forgiving	-11.9346
▁funkyzeit	-11.9346
▁furnace	-11.9346
▁gauntlet	-11.9346
▁gavroche	-11.9346
▁ghetto	-11.9346
▁glamour	-11.9346
▁gorilla	-11.9346
▁grievance	-11.9346
▁grieve	-11.9346
▁handkerchief	-11.9346
▁henderson	-11.9346
▁himmler	-11.9346
▁humanitarian	-11.9346
▁implies	-11.9346
▁incompetent	-11.9346
▁inconvenient	-11.9346
▁inevitable	-11.9346
▁instagram	-11.9346
▁itaiian	-11.9346
▁jacqueline	-11.9346
▁jeopardy	-11.9346
▁jukebox	-11.9346
▁katharine	-11.9346
▁lettuce	-11.9346
▁limousine	-11.9346
▁lorenzo	-11.9346
▁lsabel	-11.9346
▁luxury	-11.9346
▁mafia	-11.9346
▁magarri	-11.9346
▁maharaja	-11.9346
▁maitland	-11.9346
▁maleficent	-11.9346
▁maneuver	-11.9346
▁manipulate	-11.9346
▁marcellus	-11.9346
▁margarita	-11.9346
▁mcginty	-11.9346
▁miguel	-11.9346
▁millimeter	-11.9346
▁mockingbird	-11.9346
▁monastery	-11.9346
▁morahan	-11.9346
▁nitrogen	-11.9346
▁notorious	-11.9346
▁nuhuh	-11.9346
▁oatmeal	-11.9346
▁obama	-11.9346
▁obligation	-11.9346
▁obscure	-11.9346
▁perception	-11.9346
▁perpetua	-11.9346
▁phenomenal	-11.9346
▁philotas	-11.9346
▁plumbing	-11.9346
▁prague	-11.9346
▁precision	-11.9346
▁prejudice	-11.9346
▁probability	-11.9346
▁quarrel	-11.9346
▁quatre	-11.9346
▁ralph	-11.9346
▁redneck	-11.9346
▁regroup	-11.9346
▁remix	-11.9346
▁respirator	-11.9346
▁resurrection	-11.9346
▁roosevelt	-11.9346
▁roulette	-11.9346
▁satisfy	-11.9346
▁schenectady	-11.9346
▁schlomo	-11.9346
▁sesterces	-11.9346
▁singapore	-11.9346
▁skumps	-11.9346
▁slocumb	-11.9346
▁slovnik	-11.9346
▁sprained	-11.9346
▁squelching	-11.9346
▁stepfather	-11.9346
▁substantial	-11.9346
▁symptoms	-11.9346
▁technician	-11.9346
▁toothpicks	-11.9346
▁tricia	-11.9346
▁umbrella	-11.9346
▁unavailable	-11.9346
▁unemployment	-11.9346
▁unfinished	-11.9346
▁unlucky	-11.9346
▁velocity	-11.9346
▁verdict	-11.9346
▁vibrate	-11.9346
▁vibration	-11.9346
▁watermelon	-11.9346
▁wheirdicht	-11.9346
▁yellowjacket	-11.9346
dolph	-11.9346
▁annabelle	-11.9346
▁bogey	-11.9346
▁consumed	-11.9346
▁cyber	-11.9346
▁equation	-11.9346
▁figuring	-11.9346
▁harewood	-11.9346
▁interpol	-11.9346
▁mandarin	-11.9346
▁monument	-11.9346
▁pepperoni	-11.9346
▁shivering	-11.9346
▁sisterinlaw	-11.9346
▁sooah	-11.9346
▁southeast	-11.9346
▁sprout	-11.9346
▁stench	-11.9346
▁stranded	-11.9346
▁swedish	-11.9346
▁warfare	-11.9346
▁woojin	-11.9346
▁borat	-11.9346
▁byron	-11.9346
▁edwin	-11.9346
▁gaby	-11.9346
▁keister	-11.9346
▁medusa	-11.9346
▁minimal	-11.9346
▁pneumonia	-11.9346
▁salander	-11.9346
▁sedative	-11.9346
▁sensor	-11.9346
▁soothe	-11.9346
▁terek	-11.9346
▁bryan	-11.9346
▁essence	-11.9346
▁nikas	-11.9346
▁unison	-11.9346
▁volpe	-11.9346
▁wiener	-11.9346
▁eurostream	-11.9346
▁gramps	-11.9346
▁margin	-11.9346
▁relay	-11.9346
▁sushi	-11.9346
▁thrive	-11.9346
▁sizzle	-11.9346
▁barrier	-11.9346
▁emilie	-11.9346
▁pattering	-11.9346
▁spiral	-11.9346
▁viral	-11.9346
▁candlewick	-11.9346
▁rooftops	-11.9346
▁vapor	-11.9346
▁bosom	-11.9346
▁fieri	-11.9346
▁raylee	-11.9346
▁fresno	-11.9346
▁bennie	-11.9346
▁fumes	-11.9346
▁lydia	-11.9346
▁adios	-11.9346
▁brodie	-11.9346
▁crepe	-11.9346
▁hypnotized	-11.9346
▁codfish	-11.9346
▁aero	-11.9346
▁gobble	-11.9346
▁hexa	-11.9346
▁carbon	-11.9346
▁heiress	-11.9346
▁residency	-11.9346
▁patricia	-11.9346
▁detonate	-11.9346
▁housing	-11.9346
▁yawp	-11.9346
▁clarence	-11.9346
▁destructive	-11.9346
▁basil	-11.9346
▁levin	-11.9346
▁swap	-11.9347
▁tuition	-11.9347
▁refund	-11.9347
▁hisses	-11.9347
▁huron	-11.9347
▁graveyard	-11.9347
▁paddle	-11.9347
▁meself	-11.9347
▁anthill	-11.9347
▁clunk	-11.9347
▁strode	-11.9347
▁horrific	-11.9347
▁loony	-11.9347
▁refill	-11.9347
▁noelle	-11.9347
▁accomplishment	-11.9347
▁debris	-11.9347
▁hartfield	-11.9347
▁janice	-11.9347
▁cowgirl	-11.9347
▁lilith	-11.9347
▁attaboy	-11.9347
▁independent	-11.9347
▁boolie	-11.9347
▁grease	-11.9347
▁brag	-11.9347
▁representative	-11.9347
▁swipe	-11.9347
▁innovati	-11.9347
▁saturn	-11.9347
▁fowl	-11.9347
▁barrett	-11.9347
▁twentyfour	-11.9347
▁lesley	-11.9348
▁hasty	-11.9348
▁vouch	-11.9348
▁purring	-11.9348
▁hankins	-11.9348
▁mojo	-11.9348
▁sacha	-11.9348
▁orientation	-11.9348
▁confidentiality	-11.9348
▁venture	-11.9348
▁whyre	-11.9348
▁amigo	-11.9348
▁fluent	-11.9348
▁underway	-11.9348
piration	-11.9348
▁reborn	-11.9348
▁scram	-11.9348
▁fathom	-11.9348
▁brute	-11.9348
▁permitted	-11.9348
▁jefe	-11.9348
▁injection	-11.9348
▁architecture	-11.9348
▁nonny	-11.9349
▁miriam	-11.9349
▁marchino	-11.9349
▁flipped	-11.9349
▁corona	-11.9349
▁commute	-11.9349
▁oslo	-11.9349
▁paycheck	-11.9349
▁skipper	-11.9349
▁ethan	-11.9349
▁untie	-11.9349
▁dink	-11.9349
▁reflexes	-11.9349
▁calder	-11.9349
▁chum	-11.9349
▁nude	-11.935
▁hatchet	-11.935
▁scarlet	-11.935
▁flipping	-11.935
▁toby	-11.935
▁alleged	-11.935
▁cheerio	-11.935
▁underline	-11.935
▁legendary	-11.9351
▁ravage	-11.9351
▁alimony	-11.9351
▁efficient	-11.9351
▁huit	-11.9351
▁reich	-11.9351
▁trois	-11.9351
▁bradley	-11.9351
▁todo	-11.9351
▁crispin	-11.9352
▁amuse	-11.9352
▁knit	-11.9352
▁copyright	-11.9352
▁nascar	-11.9352
▁slash	-11.9353
▁deposition	-11.9353
▁iife	-11.9353
▁blight	-11.9354
▁walkabout	-11.9354
▁gangster	-11.9354
▁staging	-11.9354
▁sensational	-11.9354
▁indy	-11.9354
▁undone	-11.9354
▁ector	-11.9354
▁conductor	-11.9354
▁korean	-11.9354
▁supervisor	-11.9354
▁alcoholic	-11.9354
▁rotate	-11.9354
▁receptionist	-11.9354
▁expectations	-11.9355
▁tomatoes	-11.9355
▁stung	-11.9355
▁betcha	-11.9355
▁acquired	-11.9355
▁postponed	-11.9355
▁semen	-11.9355
▁muffin	-11.9355
▁overtime	-11.9356
▁regional	-11.9356
join	-11.9356
▁portion	-11.9357
▁scrambled	-11.9357
▁twat	-11.9358
▁stern	-11.9358
▁curb	-11.9358
▁cuss	-11.9359
▁fractured	-11.9359
▁dumbass	-11.9359
strial	-11.936
▁playfully	-11.9361
▁luisa	-11.9361
▁chile	-11.9361
▁midst	-11.9362
▁huss	-11.9363
nroll	-11.9363
▁oggie	-11.9364
▁shipping	-11.9365
▁stoke	-11.9365
▁expired	-11.9365
tobe	-11.9365
▁nell	-11.9366
lngton	-11.9367
▁departed	-11.9367
home	-11.9367
▁deceived	-11.9367
▁charter	-11.9367
▁danielle	-11.9368
▁shag	-11.9369
▁maxim	-11.9369
▁chica	-11.9369
▁santo	-11.9371
▁eval	-11.9371
▁alas	-11.9371
▁rendered	-11.9372
▁transition	-11.9373
▁knockout	-11.9373
▁shattered	-11.9373
▁woe	-11.9373
▁colorful	-11.9374
▁monte	-11.9376
▁royce	-11.9377
▁indicated	-11.9377
▁shallow	-11.9378
▁injected	-11.9378
▁dose	-11.9379
▁fatty	-11.9379
▁douse	-11.9379
▁demise	-11.9382
▁sully	-11.9382
▁remotely	-11.9383
▁bane	-11.9383
▁brow	-11.9383
▁selected	-11.9384
▁auntie	-11.9384
▁piper	-11.9384
▁transformed	-11.9386
▁brandt	-11.9388
▁restored	-11.9389
▁faded	-11.939
rington	-11.9391
▁rewrite	-11.9391
▁cork	-11.9392
▁salon	-11.9392
▁predicted	-11.9392
▁berg	-11.9395
▁fulfilled	-11.9398
▁modif	-11.9399
▁bloomin	-11.9399
▁wanker	-11.9401
▁counties	-11.9403
▁cee	-11.9403
▁purchased	-11.9407
▁gummi	-11.9407
▁sunk	-11.9409
▁trot	-11.9409
▁eel	-11.9411
▁whit	-11.9411
▁kiiier	-11.9413
▁mustang	-11.9414
▁wager	-11.9414
▁cass	-11.9415
▁barker	-11.9417
▁oxy	-11.9417
▁stumble	-11.9419
▁carley	-11.942
▁flooded	-11.942
▁mining	-11.942
▁prow	-11.9421
▁homeboy	-11.9422
▁bulletin	-11.9423
▁ration	-11.9424
▁shutting	-11.9425
▁ingredients	-11.9425
▁hacked	-11.9426
▁wildman	-11.9428
▁dyer	-11.943
▁capit	-11.9438
▁punishing	-11.9439
▁grinding	-11.9439
▁pinky	-11.9443
▁ruthless	-11.9445
▁logo	-11.9447
▁cath	-11.9451
▁sailed	-11.9451
renata	-11.9451
▁garn	-11.946
▁heartbreak	-11.946
▁responded	-11.9462
▁sung	-11.9465
▁balder	-11.9465
▁pid	-11.9466
▁peek	-11.9471
▁oy	-11.9475
▁batt	-11.9477
▁collected	-11.9479
▁pawn	-11.9484
▁handful	-11.9488
▁sensei	-11.9489
▁wrecked	-11.9493
▁hosting	-11.9494
inister	-11.9495
▁healed	-11.95
▁bund	-11.9504
▁weaker	-11.9508
▁twentyeight	-11.9509
▁lining	-11.9515
▁approached	-11.9516
▁printing	-11.9525
▁gaining	-11.9527
▁interviewed	-11.9533
▁defended	-11.9534
▁triggered	-11.9535
▁difficulty	-11.9536
▁budge	-11.954
▁carve	-11.955
▁downer	-11.9553
mingly	-11.9553
▁fled	-11.9557
▁bosses	-11.9557
▁scratching	-11.9562
▁mute	-11.9565
▁dame	-11.9565
▁cryin	-11.9571
▁cutest	-11.9577
▁proceeding	-11.9585
▁shifting	-11.9586
▁hacker	-11.959
▁cobb	-11.9607
▁viv	-11.9618
▁cater	-11.9621
▁dreamt	-11.9623
▁hoop	-11.9634
▁mam	-11.964
▁survey	-11.9646
▁cum	-11.9657
▁lib	-11.9672
audi	-11.9678
▁fuse	-11.9681
▁holo	-11.9687
bbing	-11.9695
amas	-11.9701
▁seeker	-11.9706
▁pear	-11.9707
quest	-11.971
mean	-11.9726
▁strippe	-11.9732
▁rah	-11.978
▁anthe	-11.981
▁boner	-11.982
atu	-11.9829
▁dreamer	-11.9831
▁brok	-11.9836
▁programme	-11.9847
▁remark	-11.9851
gar	-11.9889
mil	-11.9925
▁sai	-11.9927
▁ww	-11.9948
aaaaa	-11.9954
▁plank	-11.9965
▁compet	-11.9999
▁dispose	-12.0014
nter	-12.0073
▁kn	-12.0103
▁jor	-12.0121
▁taikin	-12.0123
▁chic	-12.0128
▁craz	-12.014
name	-12.0173
▁chai	-12.0188
eering	-12.0194
▁mort	-12.0196
osa	-12.023
▁bruise	-12.0231
▁miz	-12.0244
▁patriot	-12.0248
▁olympic	-12.0249
▁biscuit	-12.025
▁prosecute	-12.0253
▁earring	-12.0254
▁iate	-12.0289
▁ord	-12.0297
▁publish	-12.0306
▁scor	-12.034
▁why	-12.0346
▁cleanse	-12.035
▁belli	-12.0373
▁particip	-12.0382
▁receiv	-12.0382
posts	-12.0383
▁accelera	-12.0385
logged	-12.0394
▁ohohoh	-12.0394
▁alphabet	-12.0395
▁scatter	-12.0397
▁mach	-12.0406
▁cracker	-12.0409
▁blond	-12.0416
▁detect	-12.0421
▁slay	-12.0422
▁chug	-12.0423
person	-12.0423
drops	-12.0425
▁ira	-12.0429
▁condemn	-12.0431
▁suspend	-12.0431
style	-12.0433
▁nurs	-12.0434
▁eliminate	-12.0438
piece	-12.0439
▁confuse	-12.0439
▁complicate	-12.0439
ridden	-12.044
qualified	-12.044
identified	-12.044
bottom	-12.044
american	-12.044
loyal	-12.044
pipe	-12.0441
betty	-12.0441
guy	-12.0441
▁clam	-12.0441
pound	-12.0443
safe	-12.0445
▁apparent	-12.0446
▁definite	-12.0446
▁chillin	-12.0447
▁austria	-12.0451
▁michel	-12.0452
▁sentiment	-12.0452
▁fabi	-12.0454
▁heath	-12.0455
▁distinct	-12.0455
▁contra	-12.0455
▁scholar	-12.0457
ault	-12.0457
▁convert	-12.0457
▁alternat	-12.0457
▁intellect	-12.0457
▁enthrall	-12.0457
▁remorse	-12.0457
diagnose	-12.0457
▁academic	-12.0457
▁adequate	-12.0457
▁afghan	-12.0457
▁alabama	-12.0457
▁americus	-12.0457
▁anarchy	-12.0457
▁anomaly	-12.0457
▁anxiety	-12.0457
▁archibald	-12.0457
▁aristotle	-12.0457
▁arizona	-12.0457
▁arriba	-12.0457
▁arrogance	-12.0457
▁aurelia	-12.0457
▁baloney	-12.0457
▁batcave	-12.0457
▁batiatus	-12.0457
▁beignet	-12.0457
▁blimey	-12.0457
▁blonsky	-12.0457
▁boggs	-12.0457
▁bolster	-12.0457
▁brilliance	-12.0457
▁cadillac	-12.0457
▁cafeteria	-12.0457
▁caldwell	-12.0457
▁chimichanga	-12.0457
▁cholera	-12.0457
▁clemens	-12.0457
▁climate	-12.0457
▁cockpit	-12.0457
▁collision	-12.0457
▁communicating	-12.0457
▁concussion	-12.0457
▁contlnue	-12.0457
▁copilot	-12.0457
▁cristina	-12.0457
▁crucifix	-12.0457
▁cuisine	-12.0457
▁czechs	-12.0457
▁dammit	-12.0457
▁darrell	-12.0457
▁decommissioned	-12.0457
▁describing	-12.0457
▁dildo	-12.0457
▁disengage	-12.0457
▁dishonest	-12.0457
▁dishwasher	-12.0457
▁ecstasy	-12.0457
▁eiffel	-12.0457
▁elaborate	-12.0457
▁encryption	-12.0457
▁enjolras	-12.0457
▁enrique	-12.0457
▁escalator	-12.0457
▁eunice	-12.0457
▁evident	-12.0457
▁expelled	-12.0457
▁extensive	-12.0457
▁extort	-12.0457
▁famiiy	-12.0457
▁fanfare	-12.0457
▁felicity	-12.0457
▁foofie	-12.0457
▁furthermore	-12.0457
▁gallahxar	-12.0457
▁glanton	-12.0457
▁grandkids	-12.0457
▁grieving	-12.0457
▁grumpy	-12.0457
▁guacamole	-12.0457
▁gulapa	-12.0457
▁gypsies	-12.0457
▁harmonica	-12.0457
▁hawthorne	-12.0457
▁hermann	-12.0457
▁hexham	-12.0457
▁hilbert	-12.0457
▁ieft	-12.0457
▁imaginary	-12.0457
▁immigration	-12.0457
▁incarcerate	-12.0457
▁incorporated	-12.0457
▁index	-12.0457
▁ingenious	-12.0457
▁inhuman	-12.0457
▁injustice	-12.0457
▁insecure	-12.0457
▁insensitive	-12.0457
▁invalid	-12.0457
▁jigsaw	-12.0457
▁joohwan	-12.0457
▁kangaroo	-12.0457
▁kennedi	-12.0457
▁ketchup	-12.0457
▁kindergarten	-12.0457
▁knicks	-12.0457
▁kobritz	-12.0457
▁kubitz	-12.0457
▁latrell	-12.0457
▁latrine	-12.0457
▁lennox	-12.0457
▁ludwig	-12.0457
▁macintosh	-12.0457
▁mackerel	-12.0457
▁maelstrom	-12.0457
▁marjorie	-12.0457
▁marlak	-12.0457
▁marquez	-12.0457
▁marzzone	-12.0457
▁mascot	-12.0457
▁masculine	-12.0457
▁mashido	-12.0457
▁massapequa	-12.0457
▁mcbain	-12.0457
▁mechanism	-12.0457
▁mellark	-12.0457
▁merchandise	-12.0457
▁merilee	-12.0457
▁microwave	-12.0457
▁mongrel	-12.0457
▁monstrous	-12.0457
▁montreal	-12.0457
▁mutiny	-12.0457
▁natasha	-12.0457
▁niagara	-12.0457
▁nitwit	-12.0457
▁obligated	-12.0457
▁oprah	-12.0457
▁orchid	-12.0457
▁oregon	-12.0457
▁overpass	-12.0457
▁pamphlet	-12.0457
▁paragraph	-12.0457
▁parliament	-12.0457
▁pathfinder	-12.0457
▁pentagon	-12.0457
▁pierrot	-12.0457
▁platter	-12.0457
▁podacter	-12.0457
▁pornography	-12.0457
▁porridge	-12.0457
▁possum	-12.0457
▁prescient	-12.0457
▁presumably	-12.0457
▁prettier	-12.0457
▁prohibit	-12.0457
▁proximity	-12.0457
▁reboot	-12.0457
▁regulator	-12.0457
▁relevant	-12.0457
▁retiring	-12.0457
▁rodriguez	-12.0457
▁rumpelstiltskin	-12.0457
▁selfdestruct	-12.0457
▁sentencing	-12.0457
▁shabbos	-12.0457
▁shampoo	-12.0457
▁sheila	-12.0457
▁shortsighted	-12.0457
▁shuffling	-12.0457
▁sleazy	-12.0457
▁smuggling	-12.0457
▁sought	-12.0457
▁sputtering	-12.0457
▁stagger	-12.0457
▁stanhope	-12.0457
▁streak	-12.0457
▁stunned	-12.0457
▁suffocate	-12.0457
▁suture	-12.0457
▁sweatshirt	-12.0457
▁talladega	-12.0457
▁temporarily	-12.0457
▁tequila	-12.0457
▁teschmacher	-12.0457
▁thrash	-12.0457
▁tobacco	-12.0457
▁totem	-12.0457
▁tourniquet	-12.0457
▁translation	-12.0457
▁trickortreating	-12.0457
▁uncertain	-12.0457
▁unfold	-12.0457
▁unmask	-12.0457
▁urging	-12.0457
▁vibrating	-12.0457
▁walenski	-12.0457
▁wilhemina	-12.0457
▁xavier	-12.0457
▁zhou	-12.0457
▁aloud	-12.0457
▁beaver	-12.0457
▁buckingham	-12.0457
▁canaan	-12.0457
▁darien	-12.0457
▁deranged	-12.0457
▁guild	-12.0457
▁neuf	-12.0457
▁nffa	-12.0457
▁nineteen	-12.0457
▁podesta	-12.0457
▁postcard	-12.0457
▁rookie	-12.0457
▁sedition	-12.0457
▁shrine	-12.0457
▁snail	-12.0457
▁tangled	-12.0457
▁ahahah	-12.0457
▁athens	-12.0457
▁consumer	-12.0457
▁errand	-12.0457
▁gospel	-12.0457
▁inclined	-12.0457
▁keller	-12.0457
▁manipulati	-12.0457
▁protein	-12.0457
▁sierra	-12.0457
▁website	-12.0457
▁klaus	-12.0457
▁nauseous	-12.0457
▁pipeworks	-12.0457
▁thurman	-12.0457
▁amendment	-12.0457
▁cmb	-12.0457
▁ernie	-12.0457
▁juror	-12.0457
▁lurking	-12.0457
▁petrie	-12.0457
▁bateman	-12.0457
▁bialy	-12.0457
▁velvet	-12.0457
▁triads	-12.0457
▁immune	-12.0457
▁northeast	-12.0457
▁gloss	-12.0457
▁imminent	-12.0457
▁jiu	-12.0457
▁plasma	-12.0457
▁diving	-12.0457
▁chalk	-12.0457
▁hubert	-12.0457
▁seminar	-12.0457
▁angei	-12.0457
▁dorm	-12.0457
▁hardworking	-12.0457
▁winnie	-12.0457
▁tampa	-12.0457
▁cinnamon	-12.0457
▁genital	-12.0457
▁solitude	-12.0457
▁mohawk	-12.0457
▁tampon	-12.0457
▁bosco	-12.0457
▁floss	-12.0457
▁havens	-12.0457
▁camille	-12.0457
▁smudge	-12.0457
▁rubbing	-12.0457
▁ooooh	-12.0457
▁stephen	-12.0457
▁automobile	-12.0457
▁whirs	-12.0457
▁attagirl	-12.0458
▁longhorns	-12.0458
▁gollum	-12.0458
▁merryweather	-12.0458
▁repeatedly	-12.0458
▁titanium	-12.0458
▁alaska	-12.0458
▁fraction	-12.0458
▁molten	-12.0458
▁sarcastically	-12.0458
▁stunning	-12.0458
▁mimicking	-12.0458
▁alexandria	-12.0458
▁downhill	-12.0458
▁regina	-12.0458
▁bulldog	-12.0458
▁upstate	-12.0458
▁beetee	-12.0458
▁justjust	-12.0458
▁squaw	-12.0458
▁oooow	-12.0458
▁overmeyer	-12.0458
▁fritz	-12.0458
▁thirtyfive	-12.0458
▁waive	-12.0458
▁thigh	-12.0458
▁verify	-12.0458
▁courier	-12.0458
▁gender	-12.0458
▁tolan	-12.0458
▁hartley	-12.0458
▁colonial	-12.0458
▁trolley	-12.0458
▁daphne	-12.0458
▁speculat	-12.0458
▁limitations	-12.0458
▁tsung	-12.0458
▁defence	-12.0458
▁obedient	-12.0458
▁daryl	-12.0458
▁capuano	-12.0458
▁junebug	-12.0458
▁sperm	-12.0458
▁whwhat	-12.0458
▁aspect	-12.0459
▁rahil	-12.0459
▁hummingbird	-12.0459
▁devin	-12.0459
▁playoffs	-12.0459
▁honjo	-12.0459
▁tobin	-12.0459
▁disturbance	-12.0459
▁shuttle	-12.0459
▁chemo	-12.0459
▁dairy	-12.0459
▁belial	-12.0459
▁mugged	-12.0459
▁worshipped	-12.0459
▁turbo	-12.0459
▁fantasies	-12.0459
▁commentator	-12.0459
▁divert	-12.0459
▁attachment	-12.0459
▁ezra	-12.0459
▁disney	-12.0459
▁antique	-12.0459
▁vince	-12.0459
▁coochle	-12.0459
▁cinq	-12.0459
▁revive	-12.0459
▁garlic	-12.0459
▁zong	-12.0459
▁edition	-12.0459
▁patmore	-12.0459
▁millionaire	-12.0459
▁pussycat	-12.0459
▁squid	-12.046
▁frail	-12.046
▁bergen	-12.046
▁cherish	-12.046
▁torment	-12.046
▁hunch	-12.046
▁deployment	-12.046
▁denver	-12.046
▁fudge	-12.046
▁agua	-12.046
▁zakir	-12.046
▁naptime	-12.046
▁curry	-12.0461
▁gerry	-12.0461
▁ladles	-12.0461
▁pennies	-12.0461
▁sinned	-12.0461
▁interpretation	-12.0461
▁caroline	-12.0461
▁cray	-12.0461
▁humid	-12.0461
▁inhaler	-12.0461
▁windmill	-12.0461
▁cuffee	-12.0461
▁dunk	-12.0461
▁hull	-12.0461
▁biii	-12.0461
▁turf	-12.0461
▁fifi	-12.0461
▁snot	-12.0462
▁martinez	-12.0462
▁apprehended	-12.0462
▁dotson	-12.0462
▁conviction	-12.0462
▁repent	-12.0462
▁marley	-12.0462
▁pavel	-12.0462
▁chaz	-12.0462
▁transformation	-12.0463
▁rutt	-12.0463
▁cuz	-12.0463
▁whorehouse	-12.0463
▁frequently	-12.0463
▁blueberry	-12.0464
▁shear	-12.0464
▁swimmer	-12.0464
▁poppin	-12.0464
▁beginner	-12.0464
▁tux	-12.0464
▁foolishness	-12.0464
▁representation	-12.0464
▁liftoff	-12.0465
hearted	-12.0465
▁terminated	-12.0465
▁jerkoff	-12.0466
▁barron	-12.0466
▁guv	-12.0466
▁imply	-12.0466
▁bookkeeper	-12.0466
▁equality	-12.0466
▁truthfully	-12.0466
▁peachy	-12.0466
▁rakel	-12.0466
▁hlt	-12.0467
▁weil	-12.0467
▁feur	-12.0468
▁pact	-12.0468
▁potty	-12.0468
▁glve	-12.0468
▁shushes	-12.0468
▁nicole	-12.0469
▁splitting	-12.0469
▁meaningless	-12.047
▁wade	-12.047
▁debra	-12.047
▁patty	-12.0471
▁reins	-12.0471
▁muck	-12.0471
▁cardio	-12.0471
▁waterfall	-12.0472
▁shipped	-12.0472
▁footmen	-12.0472
▁heist	-12.0472
▁sondra	-12.0473
▁caveman	-12.0473
▁comon	-12.0474
▁relic	-12.0474
▁nursery	-12.0474
▁concluded	-12.0474
▁lifestyle	-12.0474
▁deported	-12.0474
▁valet	-12.0476
▁stealth	-12.0476
▁newborn	-12.0476
▁weaknesses	-12.0476
▁utterly	-12.0477
▁georgetown	-12.0477
▁withdrawal	-12.0477
▁severely	-12.0478
▁bardo	-12.0478
▁kickoff	-12.0478
▁flamel	-12.0479
▁restroom	-12.048
▁anton	-12.0481
▁restart	-12.0482
vious	-12.0483
▁phi	-12.0483
▁chang	-12.0485
▁abel	-12.0485
▁smartass	-12.0485
▁holly	-12.0486
▁jive	-12.0487
▁vanity	-12.0487
▁aida	-12.0487
etta	-12.0487
▁taunting	-12.0488
▁bakery	-12.0488
▁snapping	-12.0489
▁homecoming	-12.0489
▁flattered	-12.049
▁omen	-12.049
▁mattie	-12.0491
▁playboy	-12.0491
▁etta	-12.0492
▁iko	-12.0492
▁instantly	-12.0492
▁peers	-12.0492
▁rog	-12.0493
▁erased	-12.0494
▁permanently	-12.0494
▁publishing	-12.0496
▁enchanted	-12.0496
▁warden	-12.0496
▁disconnected	-12.05
▁flattering	-12.05
▁defined	-12.0501
▁ballet	-12.0501
▁inna	-12.0502
▁receiver	-12.0502
▁pinched	-12.0503
▁kia	-12.0504
defining	-12.0505
▁vive	-12.0508
▁adriana	-12.0508
▁comply	-12.0509
▁binding	-12.0509
▁defy	-12.0512
▁wider	-12.0513
▁challenger	-12.0516
▁painfully	-12.0518
▁supporters	-12.0519
▁brandy	-12.0519
▁disguised	-12.0519
▁isla	-12.0523
mie	-12.0524
▁entertaining	-12.0524
▁backstage	-12.0525
▁tailor	-12.0526
[...]
