<unk>	0
<s>	0
</s>	0
s	-2.99167
e	-3.98422
ing	-4.11699
t	-4.14486
d	-4.23463
y	-4.30353
n	-4.44704
ed	-4.4663
a	-4.47016
o	-4.49037
p	-4.56255
▁s	-4.72986
er	-4.74618
r	-4.80882
▁im	-4.86344
c	-4.90112
g	-4.99848
▁know	-5.00662
i	-5.02457
▁dont	-5.05211
h	-5.05491
m	-5.10037
▁go	-5.11058
u	-5.13638
b	-5.15468
in	-5.16126
▁get	-5.23686
le	-5.26954
v	-5.27436
▁	-5.27929
f	-5.30193
▁like	-5.31041
▁right	-5.381
ar	-5.39056
▁oh	-5.40734
or	-5.41901
▁come	-5.43934
al	-5.48155
▁yeah	-5.48201
w	-5.48359
▁youre	-5.49194
k	-5.51277
▁well	-5.5309
▁na	-5.54904
▁got	-5.5582
▁t	-5.57024
en	-5.59326
▁see	-5.6024
▁p	-5.60526
▁one	-5.62939
ll	-5.63021
l	-5.63888
▁want	-5.6458
it	-5.6524
ly	-5.67417
▁re	-5.68906
▁good	-5.70985
▁think	-5.71386
▁l	-5.71953
on	-5.7231
▁thats	-5.72882
an	-5.74676
▁us	-5.77407
▁look	-5.77753
▁e	-5.78182
es	-5.79647
▁okay	-5.79845
ch	-5.84419
il	-5.87454
▁a	-5.90582
re	-5.91409
▁de	-5.9212
▁w	-5.92792
▁st	-5.93494
▁b	-5.95937
ur	-5.96363
▁c	-5.96426
at	-5.97719
st	-5.98393
▁gon	-5.98439
▁man	-5.99732
▁back	-6.04543
▁time	-6.05277
▁say	-6.06007
▁co	-6.06573
▁yes	-6.06931
ri	-6.09912
▁take	-6.10096
▁g	-6.10739
▁going	-6.11253
ra	-6.11276
▁k	-6.11597
▁hey	-6.11959
ter	-6.12732
ent	-6.12762
ic	-6.18806
▁ill	-6.19488
▁love	-6.20859
▁cant	-6.20998
▁ho	-6.2134
el	-6.22421
▁be	-6.22731
un	-6.2301
▁bo	-6.23147
▁ma	-6.23543
▁tell	-6.23636
th	-6.25065
▁need	-6.25812
▁would	-6.27454
▁pa	-6.27552
ke	-6.28301
ir	-6.28797
te	-6.30993
▁really	-6.31322
ow	-6.31902
▁in	-6.32069
▁make	-6.32132
ie	-6.32537
ro	-6.3449
▁hes	-6.34993
li	-6.35133
▁o	-6.36071
▁ro	-6.375
ce	-6.37679
▁never	-6.37975
ve	-6.38387
la	-6.39067
▁m	-6.39521
▁let	-6.39595
▁f	-6.40208
▁ra	-6.40673
ate	-6.41033
▁mean	-6.41249
▁could	-6.41716
is	-6.42186
▁way	-6.4278
ion	-6.42805
▁something	-6.43677
▁th	-6.44415
▁cr	-6.44872
z	-6.45864
▁lets	-6.46927
se	-6.46962
▁thank	-6.47239
ea	-6.4736
et	-6.48158
▁br	-6.49759
▁little	-6.49859
▁ha	-6.50258
▁sp	-6.50814
ne	-6.50909
▁didnt	-6.51122
▁ca	-6.51236
▁sh	-6.51686
▁give	-6.517
ol	-6.52351
ick	-6.5317
ation	-6.53708
▁bu	-6.54239
▁sorry	-6.55344
▁to	-6.55888
▁po	-6.55991
▁ta	-6.56688
▁people	-6.58822
▁whats	-6.59293
us	-6.60037
ry	-6.60916
▁hi	-6.61704
▁please	-6.62313
▁tr	-6.62574
▁god	-6.62907
▁day	-6.63074
age	-6.64352
ul	-6.65743
▁d	-6.6693
est	-6.67622
▁theres	-6.67795
x	-6.6788
▁v	-6.68408
▁un	-6.68857
▁work	-6.69178
▁ive	-6.70056
▁ba	-6.7025
▁con	-6.70663
▁mo	-6.70908
▁wh	-6.71374
▁mr	-6.72301
▁wait	-6.74438
▁sure	-6.74712
▁ex	-6.74981
ers	-6.75127
▁new	-6.75645
▁fa	-6.76625
tion	-6.76891
▁ch	-6.77483
▁even	-6.77938
▁mi	-6.78822
▁feel	-6.79987
▁so	-6.80266
ug	-6.80426
▁help	-6.80726
▁car	-6.8095
▁thing	-6.81104
▁la	-6.81569
ge	-6.81985
lo	-6.82327
ck	-6.82613
im	-6.827
end	-6.82855
▁much	-6.83847
▁shes	-6.83881
▁call	-6.84104
▁uh	-6.84216
ut	-6.84707
am	-6.84816
▁said	-6.85032
▁two	-6.85701
id	-6.86319
▁great	-6.86437
▁an	-6.87068
▁stop	-6.88143
ive	-6.88425
ist	-6.88469
▁life	-6.88886
ant	-6.89975
▁al	-6.90058
▁pro	-6.91152
▁home	-6.92882
▁do	-6.92954
▁talk	-6.92964
ight	-6.93195
▁he	-6.94107
▁first	-6.94273
▁fl	-6.94322
▁lo	-6.94333
ies	-6.945
me	-6.94835
▁girl	-6.9542
▁ru	-6.95709
▁big	-6.95851
mb	-6.96075
▁nothing	-6.96082
▁n	-6.96252
▁still	-6.96588
and	-6.97358
ian	-6.97528
ig	-6.97653
▁sir	-6.97719
▁theyre	-6.97921
ment	-6.9894
ip	-6.98972
▁dr	-6.99855
▁long	-6.99988
ting	-7.00101
ect	-7.00261
▁mar	-7.00276
per	-7.00499
▁keep	-7.00838
▁di	-7.01607
▁id	-7.02091
▁put	-7.02181
▁ever	-7.02215
ine	-7.03722
▁no	-7.03913
ma	-7.04105
▁boy	-7.04509
▁ask	-7.05064
▁maybe	-7.05509
▁thought	-7.05651
▁em	-7.059
▁da	-7.06389
co	-7.06783
▁fi	-7.07006
▁hell	-7.07357
▁jo	-7.07468
mm	-7.07837
na	-7.07859
▁hu	-7.08179
▁cl	-7.0857
▁show	-7.0914
▁hand	-7.09406
▁night	-7.0949
▁friend	-7.09944
▁old	-7.10349
ally	-7.10594
▁miss	-7.10699
▁kill	-7.10722
▁anything	-7.10901
▁sha	-7.11307
▁find	-7.11321
▁ok	-7.11591
▁better	-7.11684
ther	-7.11807
▁always	-7.12064
ta	-7.12168
▁li	-7.12504
▁away	-7.12718
▁ar	-7.12913
ful	-7.13599
▁stay	-7.13896
▁guys	-7.14006
▁must	-7.14174
▁told	-7.14248
▁things	-7.14859
▁for	-7.16127
▁leave	-7.16646
▁everything	-7.17879
▁part	-7.18289
▁ri	-7.18956
ty	-7.19013
▁kind	-7.19146
▁du	-7.1948
▁last	-7.20275
▁name	-7.20513
ance	-7.20542
▁sa	-7.20982
▁me	-7.21086
▁years	-7.21367
▁move	-7.22258
▁start	-7.22459
▁listen	-7.22526
▁nice	-7.22968
ia	-7.23138
▁live	-7.23253
▁fine	-7.24076
▁believe	-7.24268
▁every	-7.24616
▁baby	-7.24722
▁comp	-7.24729
▁around	-7.25152
▁lot	-7.25171
▁fr	-7.25638
ure	-7.2572
▁wan	-7.26219
j	-7.26232
▁remember	-7.26268
▁hear	-7.26299
um	-7.26497
▁vi	-7.26839
able	-7.26863
▁war	-7.2747
ous	-7.27679
▁ad	-7.27738
uck	-7.28218
▁mom	-7.2947
▁play	-7.30176
▁dis	-7.30834
ard	-7.31925
▁made	-7.31955
▁place	-7.32761
▁youve	-7.33964
mo	-7.34729
▁pre	-7.35115
▁world	-7.35675
▁wont	-7.35945
▁dad	-7.36377
▁care	-7.36821
▁today	-7.37417
▁youll	-7.38173
less	-7.38409
▁i	-7.3875
▁real	-7.39342
up	-7.39689
▁thanks	-7.42146
ity	-7.42262
▁turn	-7.42321
ish	-7.42812
▁coming	-7.43134
▁guy	-7.43423
▁meet	-7.43641
▁doesnt	-7.44164
▁left	-7.44165
▁men	-7.44168
▁je	-7.44218
▁wa	-7.44232
▁house	-7.44447
▁wanted	-7.4516
▁ga	-7.45524
ca	-7.45816
▁ready	-7.45856
▁ju	-7.46088
▁minute	-7.4661
▁mind	-7.46667
▁bad	-7.46935
▁came	-7.46939
▁cha	-7.4695
▁mother	-7.47066
▁fe	-7.47528
ang	-7.48125
▁win	-7.48299
▁ab	-7.48354
▁enough	-7.48554
▁three	-7.4885
▁course	-7.49402
to	-7.50483
▁next	-7.50539
▁else	-7.50547
▁head	-7.50857
▁woman	-7.51691
ach	-7.51728
▁huh	-7.52084
▁sit	-7.52416
▁hello	-7.52537
be	-7.52564
▁money	-7.52858
ha	-7.5294
tic	-7.53216
man	-7.53364
▁son	-7.53393
▁trying	-7.53942
▁hold	-7.54051
▁laugh	-7.54222
▁gra	-7.54242
▁try	-7.55552
for	-7.56079
▁isnt	-7.56431
▁wrong	-7.57039
▁someone	-7.57959
▁watch	-7.57968
em	-7.57973
▁ap	-7.5809
▁ass	-7.58495
iz	-7.58563
▁talking	-7.58613
ling	-7.58804
▁understand	-7.58888
▁ne	-7.59417
ok	-7.59684
▁shit	-7.59687
▁might	-7.59842
▁bar	-7.60007
▁father	-7.6002
▁done	-7.60188
▁en	-7.60375
▁ja	-7.6078
▁hard	-7.6113
ide	-7.6117
▁getting	-7.61445
▁happen	-7.61499
▁may	-7.62076
▁best	-7.62224
▁die	-7.62968
▁together	-7.6334
▁j	-7.63388
▁job	-7.63392
▁end	-7.6453
▁fight	-7.64982
▁whole	-7.65001
▁another	-7.65312
▁plan	-7.65705
▁door	-7.66585
▁damn	-7.66999
ton	-7.67958
▁open	-7.68357
▁room	-7.68372
▁school	-7.68683
▁dead	-7.68786
▁happened	-7.68928
ence	-7.69032
▁ah	-7.69418
▁ya	-7.69437
▁guess	-7.69718
▁change	-7.69761
ack	-7.69996
▁walk	-7.70078
▁family	-7.70764
▁pretty	-7.71116
ness	-7.71153
mi	-7.71618
▁music	-7.72552
ph	-7.72769
▁aint	-7.72944
▁eat	-7.72991
▁actually	-7.73246
▁drink	-7.73251
▁che	-7.73466
▁morning	-7.73606
▁excuse	-7.73966
▁high	-7.73981
ever	-7.74683
▁close	-7.75464
▁many	-7.75604
▁chi	-7.75774
▁idea	-7.75928
▁week	-7.76161
▁gun	-7.76504
▁kids	-7.77015
▁beautiful	-7.77275
▁pi	-7.77277
▁everybody	-7.78026
▁bit	-7.78151
▁inter	-7.78333
▁person	-7.78787
▁qu	-7.78795
▁kid	-7.79247
▁cut	-7.7928
▁stand	-7.79427
▁late	-7.8039
▁fire	-7.80407
▁happy	-7.81086
▁went	-7.81391
▁um	-7.81775
▁run	-7.82251
▁free	-7.82829
▁heard	-7.8299
▁fun	-7.83076
▁second	-7.83443
▁found	-7.83443
▁since	-7.83468
▁saw	-7.83982
▁face	-7.84033
▁wasnt	-7.84243
land	-7.84351
▁without	-7.84643
▁word	-7.84687
▁whos	-7.85281
▁pain	-7.85911
▁hit	-7.86274
ary	-7.86655
▁matter	-7.86697
▁tonight	-7.87095
ated	-7.87404
▁brother	-7.87505
▁read	-7.87544
▁true	-7.88379
▁weve	-7.88773
▁hope	-7.88973
▁tomorrow	-7.89171
lu	-7.89646
▁luck	-7.89679
▁hour	-7.90146
▁set	-7.90468
▁dee	-7.91164
▁playing	-7.91289
▁act	-7.91319
▁cause	-7.91335
▁break	-7.91732
▁sound	-7.91739
▁year	-7.91893
▁doctor	-7.92162
▁bring	-7.9227
▁already	-7.93034
▁far	-7.93539
ical	-7.93674
▁took	-7.93702
▁hurt	-7.93946
▁dog	-7.94011
ward	-7.9424
▁mama	-7.94588
▁heart	-7.94879
▁arm	-7.95082
▁knew	-7.95251
▁rest	-7.95874
▁dance	-7.95988
▁office	-7.96145
▁crazy	-7.96145
▁star	-7.96197
▁chris	-7.96343
▁speak	-7.96601
▁wouldnt	-7.96693
▁problem	-7.97509
▁young	-7.9751
▁alone	-7.97993
que	-7.98343
▁youd	-7.98434
▁sleep	-7.98894
▁pass	-7.98983
▁clear	-7.99398
▁check	-7.99986
ial	-8.00198
▁wonder	-8.00294
▁sighs	-8.00294
over	-8.00312
▁met	-8.00484
▁wall	-8.00962
▁forget	-8.01722
▁yet	-8.01753
▁vou	-8.01953
▁ph	-8.01962
▁called	-8.02246
tive	-8.02435
▁four	-8.0269
▁christmas	-8.03643
▁game	-8.03895
▁stuff	-8.04365
▁soon	-8.04451
▁wife	-8.04621
▁book	-8.04962
▁z	-8.05102
▁nobody	-8.05113
▁honey	-8.05128
▁am	-8.05397
▁women	-8.05609
▁different	-8.06106
▁everyone	-8.06128
▁power	-8.06153
▁ago	-8.06206
▁scream	-8.06606
▁light	-8.06622
ious	-8.06625
▁couldnt	-8.06697
▁laughing	-8.07291
▁month	-8.07626
▁town	-8.07661
▁moment	-8.07981
▁ring	-8.08359
▁mu	-8.08525
▁worry	-8.08637
▁shut	-8.08707
▁train	-8.09709
▁air	-8.10346
▁pick	-8.10479
▁luc	-8.11045
▁question	-8.11223
▁easy	-8.11232
▁point	-8.11276
▁line	-8.11939
▁havent	-8.12283
▁sister	-8.12339
▁story	-8.12351
▁whoa	-8.12861
▁bye	-8.13561
▁chuckles	-8.13882
▁business	-8.13882
▁sweet	-8.13882
▁cool	-8.14069
ump	-8.14089
▁somebody	-8.14422
▁anyone	-8.14423
▁america	-8.14966
▁five	-8.15008
▁country	-8.15639
▁also	-8.1571
▁song	-8.16356
▁whatever	-8.16615
▁lost	-8.16691
▁probably	-8.1717
▁children	-8.17174
▁sign	-8.17207
▁fall	-8.17575
▁beat	-8.17711
▁phone	-8.17747
▁rock	-8.18435
▁learn	-8.18857
▁dream	-8.19435
▁hang	-8.19473
▁hate	-8.19641
▁order	-8.20572
▁write	-8.20763
▁mine	-8.21032
▁breath	-8.21151
▁side	-8.2119
▁leg	-8.21359
▁important	-8.21729
▁wheres	-8.21746
uff	-8.22606
▁black	-8.22906
▁inside	-8.22921
ade	-8.23831
▁later	-8.24079
▁welcome	-8.24089
▁serious	-8.24098
▁lord	-8.24214
▁pull	-8.25333
▁lou	-8.25638
▁shoot	-8.26508
▁count	-8.27068
▁anymore	-8.27119
▁teach	-8.27144
▁out	-8.27573
▁stupid	-8.27738
▁daughter	-8.28358
▁record	-8.28359
▁supposed	-8.2892
▁movie	-8.28998
▁taking	-8.29022
▁full	-8.29053
lock	-8.29248
▁shot	-8.29716
▁safe	-8.29807
▁exactly	-8.30245
▁ow	-8.30915
▁death	-8.30925
▁blood	-8.31523
ible	-8.31624
▁number	-8.32168
▁promise	-8.32172
▁jack	-8.32507
▁max	-8.32526
▁drive	-8.32567
▁married	-8.32828
▁wish	-8.32829
▁wear	-8.32932
▁john	-8.33496
▁special	-8.34129
▁mess	-8.34419
▁chance	-8.34496
▁hair	-8.34672
▁water	-8.34788
▁anyway	-8.34792
▁half	-8.35469
▁step	-8.35817
▁afraid	-8.36129
▁follow	-8.36129
▁sometimes	-8.36804
▁grow	-8.36826
▁bill	-8.37107
▁fact	-8.37479
▁elvis	-8.37485
▁picture	-8.37485
▁answer	-8.37486
▁jesus	-8.37508
▁trust	-8.37511
▁burn	-8.38266
▁up	-8.38296
▁fell	-8.39217
▁trouble	-8.40253
▁reason	-8.40256
▁six	-8.40286
▁quick	-8.40518
▁yo	-8.4157
▁surprise	-8.42381
▁church	-8.42385
▁least	-8.4239
▁touch	-8.42392
▁arent	-8.42513
▁control	-8.43101
▁ooh	-8.43156
▁city	-8.43174
▁figure	-8.4383
▁front	-8.43845
▁body	-8.44002
▁general	-8.44555
▁grand	-8.44604
▁save	-8.45145
▁ladies	-8.46786
▁bitch	-8.47379
▁anybody	-8.47529
▁perfect	-8.47529
▁ahead	-8.47535
▁dress	-8.47625
▁president	-8.48286
▁husband	-8.48287
▁lead	-8.48332
▁team	-8.48354
▁though	-8.49051
▁daddy	-8.49111
▁broke	-8.49211
▁gave	-8.50381
▁drop	-8.50659
way	-8.51329
▁lose	-8.52057
▁truth	-8.52176
▁blow	-8.52178
▁funny	-8.52194
▁making	-8.52227
▁frank	-8.52962
▁quite	-8.52974
▁alex	-8.52977
▁white	-8.53015
▁majesty	-8.53757
▁horse	-8.53785
▁park	-8.53838
▁cover	-8.54273
ept	-8.544
▁shouldnt	-8.54563
▁hurry	-8.54568
▁class	-8.54582
▁clean	-8.5462
▁throw	-8.55395
▁gentlemen	-8.56196
▁command	-8.56197
▁outside	-8.562
▁glad	-8.57053
▁hank	-8.57059
▁lady	-8.57141
▁sort	-8.57459
▁sell	-8.57492
▁charles	-8.58697
▁report	-8.58703
▁push	-8.58719
▁build	-8.58728
▁grunting	-8.59543
▁straight	-8.59547
▁favor	-8.59559
▁itll	-8.59597
▁cold	-8.59641
iff	-8.59681
▁continue	-8.60398
▁brought	-8.6126
▁become	-8.61261
▁couple	-8.61265
▁child	-8.61292
▁heres	-8.61353
time	-8.62044
▁secret	-8.6213
▁voice	-8.6213
▁goodbye	-8.62132
▁police	-8.62132
▁yell	-8.62133
▁living	-8.62169
▁felt	-8.62179
▁strong	-8.63007
▁knock	-8.63892
▁expect	-8.63898
qui	-8.64022
▁tried	-8.64029
▁indistinct	-8.64785
▁behind	-8.64785
▁hmm	-8.648
▁visit	-8.64864
▁dinner	-8.65687
▁prince	-8.66595
▁almost	-8.66596
▁german	-8.66601
▁short	-8.6671
▁ride	-8.66712
▁hospital	-8.67512
▁theyll	-8.67513
▁guard	-8.67518
▁sub	-8.67691
▁either	-8.68448
▁prison	-8.69373
q	-8.69407
▁uncle	-8.70345
▁parents	-8.7127
▁street	-8.71278
▁south	-8.71342
▁sex	-8.71398
▁captain	-8.7223
▁peace	-8.72237
▁kiss	-8.72367
▁leaving	-8.73201
▁foot	-8.73203
▁seven	-8.73206
▁mouth	-8.73215
▁pray	-8.73271
▁strange	-8.74187
▁agent	-8.74209
▁somewhere	-8.75171
▁forgot	-8.75172
▁finish	-8.75179
▁million	-8.76175
▁york	-8.76177
▁smart	-8.76182
▁dark	-8.76206
▁kidding	-8.76234
▁proud	-8.77236
▁ski	-8.78153
▁food	-8.79234
▁judy	-8.79304
▁sense	-8.79314
wood	-8.79469
▁attack	-8.80275
▁blue	-8.80292
▁squ	-8.81912
▁security	-8.82391
▁middle	-8.82392
▁radio	-8.82392
▁gasps	-8.82402
▁along	-8.82407
▁present	-8.82442
▁entire	-8.83467
▁direct	-8.83475
▁allow	-8.83486
▁small	-8.83488
▁buddy	-8.84556
▁agree	-8.8456
▁slow	-8.84624
▁glass	-8.8566
▁piece	-8.85673
▁fool	-8.86783
▁chatter	-8.86783
▁goddamn	-8.87887
▁drunk	-8.87893
▁worth	-8.87904
▁running	-8.87942
▁amazing	-8.89023
▁heaven	-8.89023
▁treat	-8.89341
▁quiet	-8.90188
▁cheering	-8.90223
▁apart	-8.90225
▁obvious	-8.91335
▁color	-8.91438
▁screw	-8.92512
▁realize	-8.92577
▁panting	-8.92588
▁colonel	-8.93702
▁offer	-8.93702
▁groans	-8.93703
▁choice	-8.93703
▁relax	-8.93708
▁enjoy	-8.96126
▁language	-8.96126
▁film	-8.96171
▁bank	-8.96199
▁super	-8.96215
▁shell	-8.96327
▁protect	-8.97374
▁martha	-8.97384
▁club	-8.97388
▁till	-8.97462
▁weird	-8.98612
▁decide	-8.98629
▁merry	-8.98635
▁soldier	-8.99877
▁swear	-8.9988
▁lunch	-8.99893
▁fault	-8.99896
▁earth	-8.999
▁clothes	-9.01159
▁idiot	-9.0116
▁danny	-9.01161
▁will	-9.01694
▁certain	-9.02458
▁minister	-9.02458
▁darling	-9.02464
▁product	-9.03773
▁travel	-9.03774
▁french	-9.03781
▁arrest	-9.03788
▁smell	-9.03804
▁attention	-9.05107
▁caitlyn	-9.05107
▁future	-9.05108
▁grunts	-9.06458
▁simple	-9.06459
▁return	-9.06459
▁commun	-9.06462
▁perhaps	-9.07828
▁mistake	-9.07828
▁presley	-9.0783
▁green	-9.07852
▁worse	-9.07857
▁smile	-9.07859
▁honest	-9.07866
▁sweetheart	-9.09217
▁group	-9.09219
▁possible	-9.10626
▁bastard	-9.10628
▁spirit	-9.10635
▁anywhere	-9.12054
▁imagine	-9.12055
▁window	-9.12068
▁government	-9.13503
▁giving	-9.13504
▁henry	-9.13518
▁notice	-9.13681
▁mmhmm	-9.14974
▁sudden	-9.14974
▁explain	-9.14974
▁consider	-9.14975
▁bunny	-9.14977
▁engine	-9.14977
▁chuckling	-9.16467
▁folks	-9.16467
▁farnaz	-9.16467
▁forgive	-9.16471
▁wedding	-9.16473
▁hundred	-9.17981
▁student	-9.17982
▁respect	-9.17983
▁except	-9.17986
▁yesterday	-9.1952
▁terrible	-9.1952
▁destroy	-9.1952
▁belong	-9.1952
▁emperor	-9.19524
▁audience	-9.21082
▁support	-9.21082
▁ground	-9.21082
▁neighbor	-9.21082
▁system	-9.21083
▁shouting	-9.21083
▁gift	-9.21084
▁afshin	-9.2267
▁jeannette	-9.2267
▁uhhuh	-9.2267
▁nelson	-9.2267
▁invite	-9.22682
▁suppose	-9.22829
▁perform	-9.24283
▁weapon	-9.24283
▁murder	-9.24284
▁target	-9.24284
▁isaac	-9.25922
▁caught	-9.25922
▁impress	-9.25923
▁absolutely	-9.29283
▁piranha	-9.29283
▁history	-9.29284
▁theyve	-9.29284
▁concern	-9.29285
▁birthday	-9.31008
▁especially	-9.31008
▁worried	-9.31008
