<unk>	0
<s>	0
</s>	0
s	-3.05343
ing	-4.17191
d	-4.52729
ed	-4.53399
e	-4.54153
t	-4.61951
y	-4.70866
r	-4.71113
▁im	-4.86197
▁know	-4.89942
▁dont	-4.90698
er	-4.90818
i	-4.95063
n	-5.05773
u	-5.07639
▁go	-5.09275
▁get	-5.09621
▁well	-5.1512
a	-5.19443
o	-5.24243
▁come	-5.24593
p	-5.25823
▁oh	-5.29591
▁right	-5.29752
▁like	-5.29827
m	-5.30427
in	-5.33039
▁	-5.36134
b	-5.40067
▁one	-5.40961
▁got	-5.42477
g	-5.45888
▁youre	-5.46294
▁s	-5.49803
ly	-5.51102
▁thats	-5.53714
▁yeah	-5.55953
▁see	-5.56198
▁good	-5.58882
▁na	-5.60906
▁want	-5.62517
c	-5.66562
al	-5.67917
le	-5.67933
▁think	-5.69643
▁look	-5.70338
l	-5.71469
or	-5.71587
▁l	-5.757
h	-5.77641
▁yes	-5.7856
▁f	-5.80391
▁okay	-5.83624
▁ill	-5.85281
▁back	-5.85358
▁time	-5.8656
▁man	-5.88097
f	-5.90237
▁take	-5.90573
v	-5.90683
▁us	-5.90719
▁going	-5.95165
▁hey	-5.95627
▁gon	-5.95923
▁would	-6.0081
k	-6.02121
▁hes	-6.03201
▁re	-6.03992
▁cant	-6.07819
▁p	-6.08905
w	-6.09362
re	-6.10013
▁tell	-6.10827
il	-6.12872
es	-6.13288
▁w	-6.14174
an	-6.14519
ck	-6.16091
▁way	-6.16632
▁a	-6.17152
▁mean	-6.17605
it	-6.18258
▁could	-6.18389
▁say	-6.18816
en	-6.19226
▁make	-6.19804
▁need	-6.20544
▁mr	-6.21281
▁love	-6.23461
ur	-6.23769
▁little	-6.24853
▁de	-6.25023
on	-6.25642
ar	-6.25673
▁in	-6.28203
ic	-6.28574
▁never	-6.28578
▁something	-6.29166
ch	-6.29396
▁let	-6.31659
▁lets	-6.31836
▁really	-6.33608
▁st	-6.34101
▁whats	-6.34495
▁didnt	-6.35448
▁thank	-6.3563
▁give	-6.38102
▁c	-6.39593
ve	-6.40919
▁music	-6.43765
▁sir	-6.44839
▁please	-6.46108
▁ive	-6.4714
th	-6.48349
el	-6.49329
▁help	-6.51086
la	-6.51908
▁b	-6.52199
▁two	-6.52844
▁even	-6.5425
ra	-6.55314
▁theres	-6.55474
▁sorry	-6.5554
▁said	-6.56244
▁sure	-6.56501
▁people	-6.56848
ion	-6.57236
▁o	-6.57497
▁y	-6.57557
z	-6.59147
▁j	-6.59957
▁m	-6.59977
▁ta	-6.61673
▁much	-6.62826
ie	-6.62928
▁work	-6.63587
ent	-6.64256
▁thing	-6.64264
am	-6.6478
ation	-6.65489
is	-6.65513
ll	-6.65949
▁wait	-6.66299
et	-6.66691
▁t	-6.66807
▁uh	-6.6713
▁call	-6.68
▁day	-6.68239
at	-6.70219
▁new	-6.70476
▁ha	-6.73134
▁must	-6.73178
▁life	-6.73603
▁car	-6.74598
ce	-6.74709
ist	-6.76087
ke	-6.76642
▁hi	-6.76784
▁sp	-6.77222
▁better	-6.77652
▁home	-6.77818
ter	-6.7823
▁maybe	-6.78428
▁great	-6.78575
▁keep	-6.79378
as	-6.80019
ro	-6.80635
st	-6.80931
li	-6.81247
▁first	-6.82395
ies	-6.82701
▁th	-6.82816
un	-6.83054
▁talk	-6.83608
▁cr	-6.83809
▁boy	-6.84284
▁nothing	-6.8446
▁un	-6.8457
▁god	-6.84758
pp	-6.84855
▁long	-6.86074
▁ever	-6.86091
▁ma	-6.86674
ne	-6.87179
▁shes	-6.8734
ate	-6.87553
▁stop	-6.88654
▁find	-6.8928
▁e	-6.9015
▁theyre	-6.91663
▁old	-6.92
▁anything	-6.92037
▁r	-6.92351
▁away	-6.93016
▁ba	-6.93085
▁thought	-6.93431
▁con	-6.94305
im	-6.94503
▁night	-6.94504
ers	-6.95655
▁put	-6.95881
▁play	-6.9589
▁la	-6.95965
▁name	-6.96308
ol	-6.9664
▁always	-6.97034
x	-6.97047
▁still	-6.9734
▁dad	-6.97692
um	-6.98633
ment	-6.98885
ge	-6.99019
▁everything	-6.99428
▁around	-6.99643
▁id	-6.99755
▁ra	-6.9981
▁father	-6.99831
▁youve	-7.00466
▁po	-7.00668
▁guys	-7.0124
co	-7.01495
▁be	-7.01505
▁made	-7.01582
▁to	-7.02013
▁believe	-7.02085
▁sh	-7.03012
te	-7.03136
▁ch	-7.03574
▁k	-7.0365
▁fine	-7.04238
▁feel	-7.04772
▁hear	-7.05174
▁ro	-7.05524
▁wont	-7.05677
oo	-7.05973
est	-7.06094
▁big	-7.06369
id	-7.06406
ow	-7.06758
▁di	-7.068
▁world	-7.06969
us	-7.07994
▁lo	-7.08367
▁co	-7.08368
lo	-7.08524
▁stay	-7.09064
▁miss	-7.09149
▁may	-7.09368
▁hell	-7.09441
▁last	-7.10481
▁youll	-7.10535
ant	-7.10586
▁g	-7.11007
▁money	-7.11422
▁sa	-7.11764
▁ho	-7.12065
▁things	-7.12988
▁told	-7.13308
▁listen	-7.13489
age	-7.13499
▁hold	-7.13511
ive	-7.13946
▁dr	-7.14043
▁win	-7.14294
▁do	-7.14322
▁nice	-7.14921
▁course	-7.16554
▁br	-7.16639
▁live	-7.17157
▁show	-7.17375
▁coming	-7.17897
▁se	-7.17936
▁remember	-7.18002
▁place	-7.18246
▁bu	-7.18442
▁pa	-7.18991
▁doesnt	-7.19718
▁kind	-7.2047
▁care	-7.20791
ity	-7.20832
▁war	-7.22442
▁head	-7.22522
▁lot	-7.22643
▁turn	-7.23243
▁su	-7.23548
ul	-7.23949
▁might	-7.24012
▁three	-7.24535
▁years	-7.24922
▁leave	-7.25311
▁so	-7.25423
▁hello	-7.26181
▁mi	-7.26587
▁every	-7.26612
▁bo	-7.27177
ha	-7.27617
▁mom	-7.27834
▁enough	-7.28228
▁isnt	-7.29042
▁try	-7.29369
▁done	-7.29441
me	-7.30195
▁girl	-7.30341
▁al	-7.30345
▁came	-7.30501
▁move	-7.30629
▁ru	-7.30779
▁v	-7.31106
▁ask	-7.31301
▁pro	-7.31986
▁bad	-7.32431
ver	-7.32528
▁hope	-7.3266
ell	-7.32738
▁wan	-7.32926
ance	-7.32936
ot	-7.33049
▁cl	-7.33321
▁ca	-7.33341
▁huh	-7.33625
mp	-7.33692
▁morning	-7.34049
na	-7.34566
able	-7.34661
▁ah	-7.35419
▁son	-7.35645
▁i	-7.36037
▁baby	-7.36125
tion	-7.36356
▁start	-7.36615
▁mo	-7.36725
▁far	-7.3673
▁wrong	-7.3753
ard	-7.38032
▁mother	-7.38148
▁du	-7.38226
▁getting	-7.38592
▁mind	-7.38739
op	-7.38919
▁mar	-7.39048
man	-7.39056
nt	-7.39219
ting	-7.39401
ine	-7.39445
▁best	-7.3947
▁da	-7.39864
ad	-7.39866
▁ga	-7.40048
▁bit	-7.4021
▁house	-7.40227
▁left	-7.40229
▁matter	-7.40303
▁ex	-7.40345
▁door	-7.40357
▁jack	-7.40402
▁weve	-7.40535
▁sw	-7.40974
ling	-7.41571
ct	-7.41903
▁friend	-7.41969
ure	-7.41975
▁dis	-7.42137
▁another	-7.42683
▁le	-7.42794
▁gra	-7.42926
▁run	-7.43254
▁understand	-7.43307
▁no	-7.43376
▁today	-7.43935
▁meet	-7.44353
▁fl	-7.44396
ty	-7.45171
ry	-7.45212
ma	-7.45746
ci	-7.45826
▁else	-7.45869
▁wanted	-7.46279
▁thanks	-7.47274
▁ready	-7.47463
▁horse	-7.4779
▁hard	-7.47869
▁em	-7.48184
▁pay	-7.48374
▁real	-7.48814
▁end	-7.48928
ho	-7.49778
ence	-7.50132
ill	-7.50275
▁idea	-7.51964
ia	-7.52072
▁sha	-7.52462
▁eat	-7.53846
▁next	-7.5421
▁men	-7.54624
▁part	-7.54748
▁watch	-7.5491
▁bring	-7.55011
▁happen	-7.55233
▁cha	-7.55277
▁found	-7.55461
▁um	-7.55829
▁talking	-7.55947
j	-7.56065
▁gr	-7.56648
om	-7.56705
▁kill	-7.57128
ian	-7.57623
ful	-7.57759
ig	-7.57783
ug	-7.57981
▁hand	-7.58032
▁dog	-7.58095
▁open	-7.58128
▁ne	-7.58347
▁h	-7.58548
▁kids	-7.59024
to	-7.59149
▁everybody	-7.59219
▁he	-7.59311
ee	-7.59397
▁ad	-7.59435
ious	-7.59704
▁week	-7.60326
▁young	-7.60338
▁wish	-7.6049
▁went	-7.60535
▁without	-7.60698
▁together	-7.60698
▁four	-7.60705
▁close	-7.60728
▁happened	-7.60729
▁ja	-7.61032
▁word	-7.61087
▁someone	-7.61445
os	-7.61678
ide	-7.61918
▁tr	-7.6215
▁walk	-7.62204
▁vi	-7.62572
▁beautiful	-7.62577
ise	-7.62838
▁family	-7.62958
ta	-7.63276
▁many	-7.63549
▁excuse	-7.64107
▁heart	-7.64414
▁ok	-7.64451
▁use	-7.64563
▁wouldnt	-7.64842
▁seen	-7.65051
▁happy	-7.65272
▁yet	-7.653
▁fire	-7.65677
▁high	-7.65702
ous	-7.65743
▁trying	-7.65937
▁minute	-7.66021
▁havent	-7.66054
▁woman	-7.66448
▁fight	-7.66451
▁whos	-7.6646
▁an	-7.66874
▁water	-7.67251
▁pre	-7.6761
▁whole	-7.67638
▁town	-7.67641
▁guess	-7.67648
tic	-7.67997
▁guy	-7.6802
▁problem	-7.68439
▁whoa	-7.6844
▁bar	-7.68668
▁wasnt	-7.68842
▁stand	-7.68997
▁sit	-7.70576
ner	-7.70615
▁tonight	-7.70882
▁aint	-7.70907
▁kid	-7.71271
▁ab	-7.7144
▁dead	-7.71585
▁knew	-7.71711
▁saw	-7.7212
▁job	-7.73295
▁true	-7.73401
be	-7.73787
▁tra	-7.74069
up	-7.74214
▁school	-7.74237
▁dream	-7.7424
▁late	-7.74488
ba	-7.74503
ff	-7.74549
▁soon	-7.74591
▁arm	-7.74825
▁light	-7.74913
▁forget	-7.75095
he	-7.75335
tter	-7.75674
▁boys	-7.75742
ak	-7.75782
▁sc	-7.76079
▁tomorrow	-7.76392
eat	-7.76618
▁com	-7.77124
▁cut	-7.77495
▁lost	-7.77591
end	-7.77597
ness	-7.77657
if	-7.77773
▁brother	-7.78151
▁cause	-7.78172
▁heard	-7.78253
▁worry	-7.78596
▁ow	-7.78801
ng	-7.79002
▁somebody	-7.79041
ti	-7.79374
▁read	-7.79428
▁laughing	-7.7954
▁year	-7.79716
▁ball	-7.79824
▁for	-7.79947
▁free	-7.7998
▁since	-7.80399
que	-7.80452
▁lady	-7.80495
▁looking	-7.80997
▁book	-7.81021
bo	-7.81059
▁easy	-7.81307
▁alone	-7.81357
▁mrs	-7.81601
▁pass	-7.81767
▁z	-7.82039
▁team	-7.82097
▁hurt	-7.82234
▁train	-7.82301
▁te	-7.82303
▁hit	-7.8245
ok	-7.82573
▁dear	-7.82712
▁save	-7.82799
▁friends	-7.82828
▁pi	-7.83127
▁follow	-7.83152
▁pretty	-7.83152
▁gone	-7.83748
▁ass	-7.83928
no	-7.84056
ca	-7.8459
▁ti	-7.84955
▁pe	-7.84987
▁en	-7.85072
▁second	-7.8551
son	-7.85686
ph	-7.85819
▁actually	-7.85989
ap	-7.86154
per	-7.86172
▁everyone	-7.86527
▁dan	-7.86644
▁playing	-7.86879
▁star	-7.87011
▁gu	-7.87292
▁met	-7.87478
▁ago	-7.87624
▁sound	-7.8783
▁president	-7.87926
▁ya	-7.87934
ted	-7.8808
▁youd	-7.88318
▁break	-7.88417
▁girls	-7.88536
▁mine	-7.88598
▁shall	-7.88612
▁already	-7.88909
▁check	-7.88915
▁ar	-7.89259
▁room	-7.89275
▁moment	-7.89314
▁bl	-7.89393
▁nobody	-7.89404
▁face	-7.89426
▁couldnt	-7.89779
▁used	-7.89798
ish	-7.90185
▁me	-7.90199
▁rest	-7.90259
▁bet	-7.90371
and	-7.90878
▁fun	-7.90988
▁took	-7.91512
for	-7.91515
▁plan	-7.91572
▁change	-7.92366
ust	-7.92423
▁sleep	-7.92427
▁side	-7.92503
▁mad	-7.9253
▁gun	-7.92851
▁per	-7.93482
▁says	-7.9385
ble	-7.93965
▁drink	-7.94497
ite	-7.94951
▁number	-7.95017
by	-7.95149
▁days	-7.95157
▁pick	-7.95278
▁business	-7.95544
▁crazy	-7.95544
ton	-7.95694
▁eyes	-7.95816
ound	-7.96003
▁damn	-7.9661
▁speak	-7.96664
▁chance	-7.96773
▁clear	-7.97684
▁comp	-7.9791
▁later	-7.98087
ac	-7.98155
▁honey	-7.9822
▁wife	-7.98221
▁group	-7.98762
igh	-7.9878
▁sign	-7.99313
▁line	-7.99606
▁buy	-7.99695
▁called	-8.00076
▁full	-8.00485
▁chi	-8.00597
mon	-8.00789
▁doctor	-8.00965
lic	-8.01091
less	-8.01234
▁whi	-8.01378
▁air	-8.01924
▁captain	-8.0267
▁office	-8.02679
▁white	-8.02754
▁nick	-8.02767
▁laughs	-8.02887
rie	-8.0318
▁important	-8.03219
▁promise	-8.0322
▁point	-8.03244
▁least	-8.03794
▁daddy	-8.04485
ction	-8.04896
▁exactly	-8.04943
▁learn	-8.04946
▁fact	-8.0511
ize	-8.05186
ated	-8.05403
▁screaming	-8.06051
▁act	-8.06087
▁country	-8.06168
▁saying	-8.06173
▁five	-8.0631
▁die	-8.06355
▁trouble	-8.06697
▁anyway	-8.06698
▁order	-8.06699
ary	-8.06709
▁stuff	-8.06796
▁leg	-8.06952
▁anyone	-8.07289
▁game	-8.0746
▁probably	-8.07884
▁half	-8.07889
▁quite	-8.08426
▁jo	-8.08449
▁whatever	-8.08483
▁hu	-8.09168
▁grow	-8.09297
▁phone	-8.09726
▁six	-8.10311
▁set	-8.10364
out	-8.10369
▁party	-8.11261
ni	-8.11293
dy	-8.11418
▁cal	-8.11452
▁sighs	-8.11555
▁send	-8.11561
▁ed	-8.11574
▁also	-8.11589
iv	-8.11601
▁hate	-8.11623
▁sta	-8.11833
ade	-8.12007
▁pu	-8.12028
▁law	-8.12891
▁finish	-8.13409
▁blood	-8.1341
▁fast	-8.13498
▁arent	-8.13591
▁hot	-8.139
▁taking	-8.14061
▁ac	-8.14198
▁power	-8.14693
▁ka	-8.14727
▁case	-8.14877
▁heh	-8.15266
▁question	-8.15318
▁children	-8.15321
old	-8.15576
▁deal	-8.15702
va	-8.16521
▁wheres	-8.16718
press	-8.16721
▁mama	-8.16856
che	-8.16913
▁wonder	-8.17215
▁perfect	-8.17266
▁ahead	-8.17268
▁along	-8.17269
▁worth	-8.1727
▁fall	-8.17322
▁king	-8.17501
▁anybody	-8.17924
▁rock	-8.17929
▁gold	-8.18094
▁luck	-8.18363
▁wow	-8.18579
▁afraid	-8.18586
▁hurry	-8.18587
▁child	-8.18595
▁shot	-8.18827
▁col	-8.19057
▁welcome	-8.19253
▁hmm	-8.19257
▁ph	-8.19726
▁count	-8.19872
▁serious	-8.19931
▁land	-8.20197
▁dave	-8.20302
▁reason	-8.20604
▁minutes	-8.20654
▁drive	-8.2092
▁red	-8.21074
one	-8.21223
▁dinner	-8.21281
▁pull	-8.21458
▁lead	-8.2146
▁fair	-8.21544
ush	-8.21887
▁killed	-8.21988
▁john	-8.22136
▁lose	-8.22405
ach	-8.22642
▁different	-8.22655
▁interest	-8.22655
▁safe	-8.22709
▁alright	-8.23349
▁anymore	-8.23349
▁married	-8.2335
▁france	-8.23356
▁shoot	-8.23356
▁gentlemen	-8.24053
▁working	-8.24689
▁out	-8.24715
▁brought	-8.24782
▁beat	-8.24871
▁drop	-8.25059
▁cap	-8.2541
▁german	-8.25463
▁el	-8.25865
▁continue	-8.26176
▁champ	-8.26321
ward	-8.26385
▁exp	-8.26703
▁expect	-8.26896
▁glad	-8.2699
▁san	-8.27265
▁bear	-8.27522
▁almost	-8.2762
▁secret	-8.2762
▁quick	-8.27621
▁write	-8.27628
▁wear	-8.27642
▁cat	-8.27682
▁bell	-8.27834
▁hands	-8.27939
▁ear	-8.28
▁lie	-8.28201
tle	-8.28327
▁supposed	-8.28343
▁behind	-8.2835
▁story	-8.28374
▁step	-8.28617
▁gave	-8.28757
go	-8.28894
▁though	-8.2895
▁record	-8.29086
▁making	-8.29105
▁bird	-8.29826
▁sweet	-8.29831
▁sister	-8.29853
▁bob	-8.29925
▁er	-8.30247
▁thinking	-8.30354
▁goes	-8.3043
▁asked	-8.30517
▁dark	-8.30579
▁nu	-8.30784
log	-8.30823
▁chuckles	-8.31324
▁touch	-8.3133
▁shut	-8.3139
ran	-8.31743
▁speaking	-8.32
▁andrew	-8.32082
▁va	-8.32102
▁running	-8.32106
▁wonderful	-8.32142
▁gi	-8.32181
▁human	-8.3227
▁sam	-8.32302
▁funny	-8.32856
▁george	-8.33614
▁figure	-8.33615
▁truth	-8.33616
▁heres	-8.33646
▁giant	-8.33701
▁careful	-8.33777
▁hang	-8.33834
tain	-8.34123
▁either	-8.3439
▁whoo	-8.34415
ga	-8.34426
▁state	-8.34754
▁ladies	-8.35177
▁itll	-8.3518
nny	-8.35181
row	-8.35209
▁catch	-8.35404
▁roll	-8.35682
▁seems	-8.35983
air	-8.36225
▁sun	-8.3639
ther	-8.36422
▁wind	-8.36619
▁applause	-8.36752
▁street	-8.36754
▁scared	-8.36879
▁feeling	-8.36941
ank	-8.37104
▁cool	-8.37117
ible	-8.37376
▁report	-8.37553
▁become	-8.37554
▁ooh	-8.37568
hi	-8.37679
qui	-8.37755
ally	-8.3798
▁ten	-8.38008
▁waiting	-8.38047
▁lm	-8.38317
▁answer	-8.38359
▁slow	-8.38367
▁death	-8.38369
▁food	-8.38371
▁ran	-8.384
▁bye	-8.38428
▁inside	-8.39191
▁sort	-8.39287
▁christ	-8.39992
▁camp	-8.40202
▁sergeant	-8.40817
▁special	-8.40817
▁straight	-8.40817
▁class	-8.40839
▁american	-8.41223
▁peter	-8.41564
▁short	-8.41692
▁coach	-8.4176
▁gl	-8.41843
▁less	-8.42105
▁fault	-8.42491
▁theyll	-8.42491
▁blue	-8.42507
▁alive	-8.42752
▁till	-8.43074
▁person	-8.43309
▁french	-8.43339
▁club	-8.43347
▁shouldnt	-8.4337
▁deep	-8.43432
▁past	-8.43435
▁pop	-8.43571
▁bill	-8.43691
light	-8.43847
▁rid	-8.43965
▁able	-8.44121
▁fool	-8.44207
▁sometimes	-8.44255
▁push	-8.44509
▁mark	-8.44856
▁husband	-8.45055
▁return	-8.45056
▁strong	-8.45056
▁quiet	-8.45056
▁seem	-8.45265
▁aw	-8.45815
▁hoo	-8.45897
▁police	-8.45927
▁breath	-8.46805
▁perhaps	-8.47687
▁stupid	-8.47687
▁dress	-8.47736
▁cook	-8.47866
▁wed	-8.48281
▁near	-8.48283
▁picture	-8.4858
▁trust	-8.48674
▁lord	-8.4868
▁professor	-8.49481
▁hair	-8.49583
▁cheering	-8.50243
▁clean	-8.50403
▁age	-8.50732
▁started	-8.51151
ition	-8.51175
▁leaving	-8.51307
▁knock	-8.51308
▁front	-8.51309
▁sarah	-8.51309
▁black	-8.51312
▁pray	-8.51322
▁present	-8.51322
▁aah	-8.51325
▁tried	-8.51333
▁realize	-8.51399
▁up	-8.51497
▁ii	-8.51817
▁hour	-8.51977
▁bed	-8.52223
▁entire	-8.52234
▁small	-8.52235
▁goodbye	-8.52242
▁build	-8.52242
▁wake	-8.52247
▁ride	-8.52277
▁cow	-8.52664
▁ahh	-8.52702
▁bon	-8.53119
▁engine	-8.53169
▁living	-8.53176
▁stick	-8.53193
▁wall	-8.53299
▁scar	-8.53779
▁city	-8.53809
▁sense	-8.54119
▁fix	-8.54121
com	-8.5434
▁road	-8.5441
▁ash	-8.54511
▁mountain	-8.55064
▁poor	-8.55697
▁join	-8.55897
▁uncle	-8.56032
▁hours	-8.56185
▁mer	-8.56523
▁surprise	-8.56996
▁couple	-8.56997
▁fear	-8.57029
▁hows	-8.57053
▁shoe	-8.57154
▁sent	-8.57368
▁x	-8.57455
▁lucy	-8.57977
▁piece	-8.57981
▁papa	-8.58021
▁sick	-8.58021
▁billy	-8.5804
▁princess	-8.58115
▁months	-8.58143
▁earth	-8.5819
kin	-8.58439
▁died	-8.58652
▁lock	-8.5894
▁henry	-8.58968
▁bank	-8.59167
ical	-8.59236
▁mum	-8.59704
gue	-8.60808
▁voice	-8.60976
▁women	-8.60979
▁rich	-8.60989
▁throw	-8.61127
▁band	-8.6133
ship	-8.6145
▁mess	-8.61453
▁over	-8.61529
▁others	-8.62007
▁master	-8.62037
▁pain	-8.62094
men	-8.62278
▁hero	-8.62331
▁tree	-8.62336
room	-8.62455
▁ni	-8.62691
▁david	-8.63029
▁outside	-8.63032
▁sell	-8.63056
▁super	-8.63214
ator	-8.63634
▁can	-8.6371
time	-8.63765
▁english	-8.6407
▁middle	-8.6407
▁grunting	-8.6407
▁glass	-8.64079
▁proud	-8.64095
▁fell	-8.64154
▁eye	-8.64663
unk	-8.64772
▁radio	-8.65123
▁forgive	-8.65123
▁agree	-8.65125
▁seven	-8.65131
▁broke	-8.65156
▁ringing	-8.65261
▁tape	-8.65276
▁dance	-8.65515
land	-8.6599
▁top	-8.6616
▁allow	-8.66189
▁martin	-8.66211
▁burn	-8.66235
▁blow	-8.66373
▁art	-8.66415
▁cup	-8.66698
▁cop	-8.66753
▁certain	-8.66852
▁plane	-8.66981
▁dramatic	-8.67261
▁woods	-8.67262
▁strange	-8.67263
▁million	-8.67263
▁kiss	-8.67301
way	-8.67716
▁joe	-8.67787
▁absolutely	-8.68348
▁control	-8.68349
▁animal	-8.68349
▁suppose	-8.68359
▁boo	-8.68371
uff	-8.68373
▁teach	-8.68433
▁ham	-8.68444
ically	-8.68703
▁rule	-8.6875
▁summer	-8.69447
▁parents	-8.69448
▁personal	-8.69602
▁body	-8.69625
▁bang	-8.69715
▁offer	-8.70001
▁ben	-8.70063
▁cost	-8.70333
▁chattering	-8.70561
▁frank	-8.70564
▁jump	-8.70567
▁crowd	-8.70567
▁visit	-8.70591
act	-8.71469
▁attack	-8.71682
▁daughter	-8.71682
▁indistinct	-8.71682
▁belong	-8.71682
▁yelling	-8.71691
▁maddy	-8.71776
▁trans	-8.71802
▁brand	-8.71869
▁qua	-8.72165
qua	-8.72497
▁omi	-8.72968
▁suit	-8.73108
nous	-8.73584
▁handle	-8.73934
▁darling	-8.7397
▁moving	-8.73984
▁quit	-8.74107
▁para	-8.7411
▁west	-8.74205
▁lts	-8.7489
▁pack	-8.75015
▁tea	-8.751
▁village	-8.75131
▁cross	-8.75157
▁russia	-8.7518
▁field	-8.75334
▁spend	-8.75459
▁cold	-8.76198
▁enjoy	-8.76307
▁mistake	-8.76307
▁murder	-8.76307
▁lonely	-8.76312
▁port	-8.76747
▁opera	-8.77028
▁samurai	-8.77497
▁future	-8.77498
▁theyve	-8.77498
▁thousand	-8.77498
▁consider	-8.77498
▁bag	-8.7782
▁boat	-8.78108
▁mon	-8.78607
▁hed	-8.78722
▁wild	-8.78736
▁east	-8.78746
▁form	-8.78898
▁test	-8.78918
▁fish	-8.79449
▁pal	-8.79554
▁language	-8.79922
▁annie	-8.79928
▁daniel	-8.79929
▁fan	-8.80429
▁carry	-8.80456
▁song	-8.80734
▁beg	-8.80905
▁pleasure	-8.81156
▁choice	-8.81157
▁feet	-8.81196
▁round	-8.81401
▁letter	-8.8166
q	-8.81702
▁date	-8.81833
▁service	-8.82406
▁somewhere	-8.82406
▁forever	-8.82408
▁lunch	-8.82412
▁tough	-8.8251
▁changed	-8.82562
▁mor	-8.82863
▁max	-8.83088
▁brazil	-8.83672
▁imagine	-8.83672
▁possible	-8.83672
▁pepper	-8.8368
▁york	-8.8368
▁smell	-8.83684
▁key	-8.83764
▁rather	-8.8383
▁base	-8.83964
▁maam	-8.84677
▁heaven	-8.84954
▁commun	-8.84956
▁search	-8.84956
▁maria	-8.84969
▁werent	-8.84969
▁park	-8.84984
▁felt	-8.85015
▁ground	-8.85081
▁america	-8.85618
▁bull	-8.85758
▁snake	-8.86256
▁eight	-8.86267
▁wedding	-8.8628
▁trip	-8.86327
▁direct	-8.86351
▁hallie	-8.86379
▁marry	-8.8655
▁ice	-8.87098
▁invincible	-8.87569
▁charlie	-8.87569
▁simple	-8.87569
▁worse	-8.87571
▁chief	-8.87578
▁born	-8.87621
▁miles	-8.87661
▁shell	-8.87974
▁except	-8.88902
▁buddy	-8.88905
▁general	-8.88908
▁kick	-8.88915
▁magic	-8.88982
▁paper	-8.89178
▁soul	-8.89302
▁cover	-8.89341
▁certainly	-8.89414
▁begin	-8.8944
▁shh	-8.89609
▁you	-8.9012
▁dex	-8.90234
▁explain	-8.90255
▁protect	-8.90273
▁foot	-8.90281
▁bother	-8.90386
▁hunt	-8.90482
▁calm	-8.9052
▁gene	-8.90952
▁judge	-8.91623
▁coffee	-8.91623
▁grunts	-8.91624
▁ernest	-8.91625
▁self	-8.91642
▁paris	-8.91663
▁kidding	-8.91679
▁conc	-8.91743
▁grand	-8.91792
▁guard	-8.9181
▁finally	-8.9193
▁joke	-8.91981
▁lucky	-8.92119
▁none	-8.92129
▁laugh	-8.92155
▁finger	-8.92163
▁low	-8.92273
▁eh	-8.92692
▁murray	-8.93012
▁studi	-8.93019
cut	-8.93118
▁ought	-8.9338
▁van	-8.93968
▁quixote	-8.94421
▁respect	-8.94421
▁court	-8.94441
▁soft	-8.94448
▁teacher	-8.94664
▁unless	-8.94703
▁birthday	-8.95849
▁midnight	-8.95849
▁smart	-8.9585
▁machine	-8.95851
▁peace	-8.95853
▁christmas	-8.95855
▁movie	-8.95862
▁green	-8.95864
▁fill	-8.96043
▁div	-8.96108
▁corn	-8.96193
▁discuss	-8.97299
▁price	-8.97299
▁flowers	-8.97299
▁decided	-8.9787
▁paid	-8.97881
▁race	-8.98291
work	-8.98299
ncy	-8.98688
▁forgot	-8.98768
▁church	-8.98772
▁shouting	-8.98772
▁arrest	-8.98773
▁charge	-8.98777
▁giving	-8.9878
▁honor	-8.98788
▁brain	-8.98794
▁area	-8.98835
▁beans	-8.98859
▁treat	-8.99
▁completely	-8.99023
▁aron	-8.99399
▁early	-8.99612
▁pete	-8.99732
▁hall	-8.99938
▁where	-9.00043
▁month	-9.00215
▁amazing	-9.00262
▁attention	-9.00262
▁spirit	-9.00262
▁public	-9.00262
▁bridge	-9.00262
▁study	-9.00265
▁harry	-9.00268
▁shit	-9.0034
▁box	-9.00818
▁board	-9.01076
▁moon	-9.01263
▁destroy	-9.01777
▁government	-9.01777
▁marshal	-9.01777
▁thunder	-9.01777
▁force	-9.02477
▁hospital	-9.03315
▁instrument	-9.03315
▁louise	-9.03317
▁prepare	-9.03317
▁jesus	-9.03319
▁milk	-9.03326
▁botat	-9.03327
▁medal	-9.03372
▁charm	-9.03419
▁hum	-9.03623
▁taste	-9.03793
▁kate	-9.04363
▁difference	-9.04878
▁hungry	-9.04878
▁across	-9.04878
▁produc	-9.04882
▁idiot	-9.04882
▁sky	-9.04957
▁prince	-9.0624
▁account	-9.06465
▁afternoon	-9.06465
▁kept	-9.06466
▁guitar	-9.06466
▁relax	-9.06468
▁queen	-9.06469
▁evil	-9.06471
▁witch	-9.06475
▁crack	-9.06481
▁south	-9.06489
▁mmm	-9.06498
▁tired	-9.06509
▁bought	-9.06596
▁nose	-9.06897
▁terr	-9.06908
▁seat	-9.06912
▁accept	-9.08078
▁saturday	-9.08078
▁honest	-9.08084
▁position	-9.08086
▁draw	-9.08087
▁floor	-9.08099
▁terrible	-9.08102
▁match	-9.08107
▁mister	-9.08132
▁busy	-9.08376
▁anne	-9.08574
▁yesterday	-9.09717
▁chirping	-9.09717
▁groans	-9.09718
▁gasps	-9.09724
▁indian	-9.09727
▁favorite	-9.09745
▁dangerous	-9.09746
▁jewish	-9.09754
▁window	-9.09902
▁butt	-9.10447
▁appear	-9.11384
▁revolution	-9.11384
▁student	-9.11384
▁whether	-9.11384
▁folks	-9.11384
▁wolf	-9.11389
▁jew	-9.11437
▁stole	-9.1167
▁hide	-9.1176
▁store	-9.11773
▁track	-9.1222
board	-9.13007
▁immediate	-9.13079
▁majesty	-9.13079
▁sudden	-9.13079
▁doubt	-9.13079
▁besides	-9.1308
▁arrive	-9.13082
▁company	-9.13085
▁tight	-9.13088
▁kelly	-9.13089
▁sight	-9.13097
▁film	-9.13116
▁tires	-9.13129
▁scream	-9.13249
▁sonny	-9.13276
▁score	-9.13325
▁proper	-9.13344
▁sitting	-9.13414
▁reach	-9.13716
▁exist	-9.13763
▁anywhere	-9.14803
▁sweetheart	-9.14803
▁tommy	-9.14803
▁third	-9.14804
▁double	-9.14805
▁monster	-9.14814
▁travel	-9.14834
▁horn	-9.14866
▁awful	-9.14909
▁hans	-9.15193
▁nowhere	-9.16557
▁football	-9.16557
▁brooks	-9.16558
▁kevin	-9.16558
▁mouth	-9.16564
▁fail	-9.16594
▁howd	-9.16601
▁button	-9.16767
▁upon	-9.16931
▁bless	-9.17104
▁tj	-9.17196
▁raise	-9.17423
▁announce	-9.18343
▁caught	-9.18343
▁history	-9.18343
▁jamaica	-9.18343
▁often	-9.18343
▁remind	-9.18344
▁extra	-9.18352
▁dying	-9.18373
▁paul	-9.19077
▁off	-9.19772
▁should	-9.20093
▁impossible	-9.20161
▁twice	-9.20161
▁within	-9.20161
▁faith	-9.20162
▁normal	-9.20162
▁major	-9.20163
▁jenny	-9.20165
▁truck	-9.20168
▁concern	-9.20168
▁lift	-9.20187
▁wave	-9.20199
▁knee	-9.20239
▁forward	-9.20271
▁notice	-9.20284
well	-9.20337
▁emma	-9.20517
▁cheer	-9.20675
ought	-9.2104
▁note	-9.21254
▁final	-9.21653
▁clouseau	-9.22013
▁elephant	-9.22013
▁weird	-9.22013
▁instead	-9.22013
▁member	-9.22013
▁became	-9.22013
▁garden	-9.22014
▁totally	-9.22015
▁island	-9.2202
▁national	-9.22021
▁bright	-9.22024
▁beginning	-9.22027
▁brave	-9.22035
▁serve	-9.22174
▁slip	-9.22341
▁accident	-9.239
▁anabel	-9.239
▁clothes	-9.239
▁darryl	-9.239
▁donkey	-9.239
▁foreign	-9.239
▁hundred	-9.239
▁prison	-9.239
▁ghost	-9.23901
▁comrade	-9.23901
▁angel	-9.2393
▁simon	-9.23934
▁linh	-9.2395
▁gang	-9.2418
down	-9.24568
▁there	-9.24655
▁chuckling	-9.25823
▁sheriff	-9.25823
▁worried	-9.25823
▁gunshot	-9.25823
▁battle	-9.25827
▁invite	-9.25832
▁bunch	-9.25836
▁steal	-9.25907
▁message	-9.25979
▁toward	-9.26072
▁chair	-9.26078
▁fred	-9.26211
▁congratulations	-9.27784
▁suggest	-9.27784
▁strike	-9.27784
▁deserve	-9.27785
▁chicken	-9.27785
▁bottle	-9.27786
▁admit	-9.2779
▁swear	-9.27797
▁north	-9.27804
▁egg	-9.27809
▁stuck	-9.27809
▁large	-9.27812
▁royal	-9.27813
▁manolo	-9.27815
▁loud	-9.27845
▁beep	-9.27864
▁spoke	-9.27865
▁vote	-9.27944
▁mention	-9.28161
▁usual	-9.28379
▁especially	-9.29784
▁explosion	-9.29784
▁lieutenant	-9.29784
▁heavy	-9.29784
▁involve	-9.29784
▁writing	-9.29784
▁indeed	-9.29786
▁pardon	-9.29787
▁situation	-9.29788
▁united	-9.29819
▁stopped	-9.29847
ified	-9.29849
▁hank	-9.29941
▁laughter	-9.29961
▁danny	-9.29966
▁create	-9.30137
▁nine	-9.30243
nder	-9.31305
▁appreciate	-9.31825
▁everywhere	-9.31825
▁nervous	-9.31825
▁particular	-9.31825
▁practice	-9.31825
▁system	-9.31825
▁conversation	-9.31825
▁decision	-9.31825
▁hyah	-9.31825
▁uhhuh	-9.31825
▁sunday	-9.31825
▁throat	-9.31827
▁screw	-9.31827
▁whistle	-9.31831
▁remain	-9.31834
▁dumb	-9.31842
▁roaring	-9.31854
▁breakfast	-9.33908
▁definitely	-9.33908
▁experience	-9.33908
▁mmhmm	-9.33908
▁rumbling	-9.33908
▁sunshine	-9.33908
▁derice	-9.33909
▁neither	-9.33909
▁receive	-9.33911
▁crash	-9.33915
▁sanka	-9.33918
▁scene	-9.33942
▁yep	-9.33997
▁pants	-9.34037
▁neighbor	-9.36036
▁wheel	-9.36037
▁computer	-9.36039
▁axel	-9.36039
▁nature	-9.36064
▁ryan	-9.36066
▁collect	-9.36096
you	-9.37265
▁address	-9.38209
▁bamboo	-9.38209
▁difficult	-9.38209
▁electric	-9.38209
▁inspector	-9.38209
▁kitchen	-9.38209
▁marriage	-9.38209
▁groaning	-9.3821
▁soldier	-9.3821
▁choose	-9.3821
▁fruit	-9.3821
▁colonel	-9.38211
▁wilson	-9.38212
▁defeat	-9.38213
▁driving	-9.38214
▁dirty	-9.38216
▁pecos	-9.38232
▁robot	-9.38237
▁settle	-9.38328
▁drunk	-9.38381
▁department	-9.40432
▁vietnamese	-9.40432
▁frosty	-9.40432
▁ticket	-9.40433
▁health	-9.40435
▁hadnt	-9.40443
▁wash	-9.40449
▁willing	-9.40458
▁blame	-9.40503
▁tense	-9.40575
▁dude	-9.40576
▁fellow	-9.40617
hood	-9.42493
▁africa	-9.42704
▁awesome	-9.42704
▁beauty	-9.42704
▁information	-9.42704
▁object	-9.42704
▁pikachu	-9.42704
▁dollars	-9.42704
▁robert	-9.42705
▁nurse	-9.42706
▁allyson	-9.42707
▁angry	-9.42707
▁refuse	-9.42707
▁block	-9.42713
▁prefer	-9.42718
▁waste	-9.42762
izz	-9.4321
▁favor	-9.44991
▁jeanclaude	-9.4503
▁taught	-9.4503
▁robber	-9.4503
▁perform	-9.45031
▁bobsled	-9.45031
▁boddy	-9.45034
▁patty	-9.45039
▁trick	-9.45043
▁awake	-9.45046
▁upset	-9.45047
▁view	-9.45048
▁river	-9.45049
▁james	-9.45066
▁lawyer	-9.45077
▁steve	-9.45083
▁bomb	-9.45105
gger	-9.46336
▁complete	-9.47007
▁francis	-9.47411
▁claude	-9.47411
▁friday	-9.47411
▁upstairs	-9.47411
▁support	-9.47411
▁whatd	-9.47411
▁empty	-9.47414
▁complain	-9.47414
▁sheep	-9.47415
▁smile	-9.47417
▁suffer	-9.47421
▁teeth	-9.47424
▁gentleman	-9.47468
▁apartment	-9.47478
▁commission	-9.4985
▁joaquin	-9.4985
▁official	-9.4985
▁orchestra	-9.4985
▁jordan	-9.4985
▁patient	-9.49851
▁natural	-9.49852
▁deliver	-9.49852
▁thatll	-9.49852
▁defend	-9.49853
▁wrote	-9.49853
▁space	-9.49868
▁truly	-9.49872
▁blind	-9.49877
▁hasnt	-9.49902
▁musicians	-9.49905
▁sport	-9.4991
▁roger	-9.49929
▁excellent	-9.5235
▁olympic	-9.5235
▁screeching	-9.5235
▁survive	-9.5235
▁escape	-9.5235
▁opinion	-9.5235
▁slappy	-9.5235
▁correct	-9.5235
▁whistling	-9.5235
▁cheese	-9.52351
▁clicks	-9.52351
▁bastard	-9.52351
▁rough	-9.52352
▁jacob	-9.52353
▁condition	-9.52353
▁scott	-9.52356
▁charles	-9.52359
▁bread	-9.5236
▁surf	-9.52406
▁apologize	-9.54914
▁asleep	-9.54914
▁california	-9.54914
▁dartagnan	-9.54914
▁dooyoung	-9.54914
▁effect	-9.54914
▁introduce	-9.54914
▁someday	-9.54914
▁strength	-9.54914
▁superhero	-9.54914
▁scoffs	-9.54914
▁harris	-9.54914
▁london	-9.54914
▁discover	-9.54915
▁resign	-9.54915
▁forgotten	-9.54919
▁risk	-9.5492
▁command	-9.5492
▁worst	-9.5493
▁center	-9.54946
▁greg	-9.54959
▁emergency	-9.57546
▁however	-9.57546
▁journey	-9.57546
▁governor	-9.57546
▁instruct	-9.57546
▁weight	-9.57546
▁bullshit	-9.57546
▁goddamn	-9.57546
▁ancient	-9.57546
▁arrange	-9.57546
▁committee	-9.57547
▁courage	-9.57548
▁buzz	-9.57548
▁freedom	-9.57549
▁climb	-9.5755
▁weak	-9.5756
▁gift	-9.57561
▁miep	-9.57616
▁amy	-9.57762
▁gentle	-9.6017
▁glauben	-9.60248
▁possibly	-9.60248
▁thudding	-9.60248
▁baseball	-9.60248
▁buttermaker	-9.60248
▁duggal	-9.60248
▁clapping	-9.60249
▁college	-9.6025
▁fresh	-9.6025
▁pocket	-9.60252
▁threw	-9.60257
▁blond	-9.6026
▁humming	-9.60262
▁alvin	-9.60262
▁tower	-9.60296
▁coast	-9.60297
▁planning	-9.60302
screen	-9.60531
▁harm	-9.6107
▁decide	-9.61939
maker	-9.6251
field	-9.62541
▁danger	-9.63007
▁disappear	-9.63026
▁medicine	-9.63026
▁theyd	-9.63028
▁civil	-9.63028
▁speech	-9.6303
▁jamie	-9.63035
▁devil	-9.63044
▁cancer	-9.63053
▁mommy	-9.63072
▁term	-9.63164
▁adventure	-9.65883
▁justice	-9.65883
▁written	-9.65883
▁convince	-9.65883
▁disappoint	-9.65883
▁beyond	-9.65884
▁plenty	-9.65884
▁steady	-9.65884
▁british	-9.65884
▁mattie	-9.65884
▁sniff	-9.65884
▁terrific	-9.65885
▁kingdom	-9.65886
▁require	-9.65887
▁julie	-9.65889
▁shock	-9.65907
▁barking	-9.65912
▁cantrell	-9.65915
▁credit	-9.65924
▁flame	-9.6593
▁loose	-9.6601
▁snap	-9.66202
▁europe	-9.68824
▁lebraque	-9.68824
▁private	-9.68824
▁security	-9.68824
▁trumpet	-9.68824
▁uniform	-9.68824
▁zarkorr	-9.68824
▁junior	-9.68825
▁competition	-9.68825
▁energy	-9.68825
▁stanley	-9.68825
▁enemy	-9.68825
▁garret	-9.68825
▁squeak	-9.68826
▁equal	-9.68827
▁smoke	-9.68827
▁quarter	-9.68827
▁request	-9.68828
▁depend	-9.68832
▁limit	-9.68837
▁built	-9.68851
▁farooqi	-9.71855
▁halloween	-9.71855
▁military	-9.71855
▁necessary	-9.71855
▁profession	-9.71855
▁ridiculous	-9.71855
▁author	-9.71855
▁bottom	-9.71855
▁aurora	-9.71855
▁bravo	-9.71855
▁contract	-9.71855
▁simply	-9.71855
▁cloud	-9.71855
▁session	-9.7186
▁shadow	-9.71864
▁repeat	-9.71864
▁threat	-9.71877
▁grandpa	-9.71881
▁sighing	-9.71893
▁held	-9.719
▁emily	-9.71901
▁chocolate	-9.7498
▁copperfield	-9.7498
▁dulcinea	-9.7498
▁example	-9.7498
▁innocent	-9.7498
▁phoenix	-9.7498
▁recognize	-9.7498
▁restaurant	-9.7498
▁somehow	-9.7498
▁treasure	-9.7498
▁develop	-9.7498
▁project	-9.7498
▁cardinal	-9.7498
▁creature	-9.7498
▁england	-9.7498
▁famous	-9.74983
▁contact	-9.74983
▁among	-9.74985
▁alarm	-9.74992
▁talent	-9.75006
▁shark	-9.75008
▁miller	-9.75014
▁cream	-9.75016
ezvous	-9.75016
▁attempt	-9.78206
▁brilliant	-9.78206
▁counselor	-9.78206
▁original	-9.78206
▁whoever	-9.78206
▁material	-9.78206
▁pizza	-9.78208
▁several	-9.78209
▁pretend	-9.78209
▁detail	-9.7821
▁kathy	-9.78213
▁eddie	-9.78221
▁split	-9.78243
ribu	-9.784
though	-9.81052
▁apart	-9.81445
▁effort	-9.81539
▁fantastic	-9.81539
▁gertrude	-9.81539
▁international	-9.81539
▁knight	-9.81539
▁telephone	-9.81539
▁whenever	-9.81539
▁employ	-9.81539
▁memory	-9.81539
▁program	-9.81539
▁weather	-9.81539
▁flicka	-9.81539
▁elliot	-9.81539
▁voiceover	-9.8154
▁kitty	-9.81541
▁howling	-9.81542
▁priest	-9.81542
▁handsome	-9.81544
▁silver	-9.81551
▁shift	-9.81553
▁ugh	-9.81554
▁plus	-9.81555
▁piano	-9.81564
▁bolshevi	-9.84987
▁chipmunk	-9.84987
▁telegram	-9.84987
▁weapon	-9.84987
▁current	-9.84987
▁disturb	-9.84987
▁gandhi	-9.84987
▁clanging	-9.84987
▁dummy	-9.84987
▁valley	-9.84987
▁sweetmeat	-9.84988
▁victor	-9.8499
▁type	-9.8499
▁issue	-9.84991
▁switch	-9.84992
▁freak	-9.84993
▁palace	-9.84993
▁video	-9.84994
▁commit	-9.84994
▁norman	-9.84994
▁ethan	-9.84994
▁creep	-9.84995
▁spread	-9.84996
▁umney	-9.84997
▁claim	-9.84999
▁medical	-9.85046
▁chose	-9.85211
yeah	-9.88078
▁suspense	-9.88558
▁equipment	-9.88559
▁girlfriend	-9.88559
▁grandfather	-9.88559
▁jekyll	-9.88559
▁surrender	-9.88559
▁understood	-9.88559
▁afford	-9.88559
▁avoid	-9.88559
▁embarrass	-9.88559
▁jacques	-9.88559
▁monday	-9.88559
▁ignor	-9.88559
▁pokemon	-9.88559
▁zeena	-9.88559
▁washington	-9.88559
▁degree	-9.8856
▁design	-9.88561
▁cahill	-9.88561
▁capital	-9.88562
▁gasping	-9.88563
▁damage	-9.88565
▁sancho	-9.88566
▁biggest	-9.88568
▁route	-9.88906
▁journal	-9.92262
▁champagne	-9.92262
▁cigarette	-9.92262
▁criminal	-9.92262
▁defense	-9.92262
▁investigation	-9.92262
▁japanese	-9.92262
▁jealous	-9.92262
▁rainbow	-9.92262
▁steerforth	-9.92262
▁success	-9.92262
▁thompson	-9.92262
▁attend	-9.92262
▁birth	-9.92263
▁register	-9.92263
▁sanchez	-9.92263
▁anxious	-9.92263
▁affair	-9.92263
▁honking	-9.92263
▁paddle	-9.92263
▁potato	-9.92263
▁gloria	-9.92263
▁magnet	-9.92263
▁knowledge	-9.92264
▁proctor	-9.92265
▁recall	-9.92265
▁nightmare	-9.92266
▁punish	-9.92266
▁witness	-9.92266
▁curse	-9.92302
▁dragonball	-9.96108
▁familiar	-9.96108
▁godmother	-9.96108
▁horrible	-9.96108
▁monsieur	-9.96108
▁research	-9.96108
▁suspect	-9.96108
▁advice	-9.96109
▁diamond	-9.96109
▁scratch	-9.96109
▁yvette	-9.96109
▁accord	-9.96109
▁female	-9.96109
▁excited	-9.96109
▁holiness	-9.96109
▁physical	-9.96109
▁byebye	-9.96111
▁constance	-9.96111
▁desire	-9.96112
▁election	-9.96113
▁jesse	-9.96113
▁release	-9.96116
▁organiz	-9.96875
▁attorney	-10.0011
▁birkin	-10.0011
▁celebrate	-10.0011
▁citizen	-10.0011
▁deposit	-10.0011
▁elevator	-10.0011
▁giggling	-10.0011
▁nonsense	-10.0011
▁progress	-10.0011
▁responsible	-10.0011
▁sandwich	-10.0011
▁splashing	-10.0011
▁subject	-10.0011
▁szalinski	-10.0011
▁university	-10.0011
▁approach	-10.0011
▁rabbit	-10.0011
▁twenty	-10.0011
▁musket	-10.0011
▁unusual	-10.0011
▁insurance	-10.0011
▁minister	-10.0011
▁whiskey	-10.0011
▁lucia	-10.0011
▁possess	-10.0011
▁revving	-10.0011
▁whooshing	-10.0011
▁affect	-10.0011
▁result	-10.0011
▁provide	-10.0013
▁andrada	-10.0428
▁basketball	-10.0428
▁engaged	-10.0428
