<unk>	0
<s>	0
</s>	0
s	-3.36264
▁im	-4.43432
▁dont	-4.56433
▁know	-4.57595
▁get	-4.77563
▁go	-4.88224
▁right	-4.89397
▁like	-4.924
▁come	-4.97765
▁oh	-5.00215
▁got	-5.00284
▁youre	-5.0277
▁yeah	-5.02811
▁na	-5.12804
ing	-5.13307
▁thats	-5.20753
▁well	-5.21555
▁one	-5.23168
ed	-5.23238
▁okay	-5.25984
▁want	-5.36629
▁good	-5.38534
▁gon	-5.41051
▁think	-5.42494
▁see	-5.42871
d	-5.52179
▁hey	-5.54358
▁man	-5.54937
▁look	-5.55016
▁back	-5.61119
▁going	-5.68789
▁yes	-5.69065
▁time	-5.71165
▁take	-5.71985
▁hes	-5.736
▁us	-5.74262
▁ill	-5.74639
▁l	-5.75717
▁cant	-5.78618
▁tell	-5.85604
▁say	-5.85787
▁need	-5.865
▁would	-5.91019
y	-5.91971
er	-5.95933
▁really	-5.98779
▁way	-6.00757
▁could	-6.01792
▁please	-6.0275
▁love	-6.0304
▁something	-6.05182
▁let	-6.05346
▁make	-6.05807
▁thank	-6.06614
▁little	-6.06978
▁never	-6.07283
▁sorry	-6.11137
▁lets	-6.11393
▁whats	-6.13918
▁didnt	-6.15237
▁mean	-6.15283
▁god	-6.17933
▁give	-6.19185
▁ive	-6.21529
e	-6.22088
▁theres	-6.23524
t	-6.2505
▁people	-6.25423
in	-6.2553
▁two	-6.29311
▁thing	-6.32639
▁uh	-6.33294
▁help	-6.34132
ly	-6.34145
▁stop	-6.34484
▁wait	-6.35783
▁	-6.37402
▁said	-6.37886
▁mr	-6.40459
▁shes	-6.43337
▁much	-6.44276
▁shit	-6.44501
▁sure	-6.45839
▁day	-6.4816
▁sir	-6.48374
▁call	-6.48899
n	-6.50883
▁theyre	-6.51218
▁life	-6.51854
▁home	-6.52513
r	-6.52852
▁great	-6.54351
▁fuck	-6.54909
▁ta	-6.54984
▁find	-6.5508
a	-6.55329
▁night	-6.56997
▁even	-6.5832
▁work	-6.58823
▁keep	-6.59755
▁anything	-6.60503
▁first	-6.61022
▁talk	-6.61529
▁put	-6.62011
▁nothing	-6.63178
▁maybe	-6.64694
▁ever	-6.65065
▁guys	-6.65071
o	-6.65551
▁hi	-6.67305
▁new	-6.67511
▁fucking	-6.67582
▁away	-6.67674
g	-6.6792
▁still	-6.69195
▁around	-6.7121
▁last	-6.72292
▁thought	-6.72375
▁wan	-6.72396
▁better	-6.73814
▁name	-6.74018
▁stay	-6.74601
▁hell	-6.75254
▁always	-6.77805
▁guy	-6.78721
▁baby	-6.7893
▁feel	-6.79443
▁long	-6.79659
u	-6.80002
▁nice	-6.80988
▁leave	-6.81215
i	-6.81648
p	-6.82919
l	-6.8308
es	-6.83214
▁told	-6.83673
▁car	-6.84272
▁place	-6.84693
▁must	-6.85233
▁girl	-6.85498
▁listen	-6.85866
▁years	-6.85946
▁hear	-6.86475
▁big	-6.87241
▁coming	-6.87814
▁boy	-6.88125
▁everything	-6.88351
▁id	-6.88804
▁fine	-6.89764
▁hello	-6.89932
▁world	-6.90164
▁show	-6.90502
▁youve	-6.90542
▁things	-6.90976
▁every	-6.9145
▁ok	-6.91776
▁lot	-6.92099
▁money	-6.92144
▁done	-6.92285
▁wont	-6.92529
▁remember	-6.93373
▁youll	-6.9403
c	-6.94273
▁doesnt	-6.94953
b	-6.95224
▁believe	-6.9536
▁move	-6.95745
▁kill	-6.96406
▁dad	-6.96967
▁old	-6.97336
▁house	-6.97861
▁son	-6.98057
▁hold	-6.99207
▁three	-6.99779
▁bad	-7.00222
▁understand	-7.00476
al	-7.00674
▁kind	-7.00768
▁made	-7.01022
▁father	-7.01246
▁huh	-7.02323
▁real	-7.03783
▁aint	-7.04045
▁care	-7.047
m	-7.04885
▁mom	-7.05039
▁woman	-7.05588
▁left	-7.06396
▁talking	-7.07319
▁wrong	-7.08273
▁thanks	-7.0959
▁music	-7.09842
▁door	-7.09917
h	-7.11227
▁enough	-7.13885
▁isnt	-7.13965
▁someone	-7.14044
▁try	-7.1443
▁another	-7.16565
le	-7.16593
▁today	-7.17061
▁may	-7.17081
▁ask	-7.17111
▁miss	-7.17164
▁might	-7.17227
▁live	-7.18455
▁dead	-7.1874
re	-7.19081
▁happened	-7.19181
▁ready	-7.19569
▁trying	-7.20023
▁else	-7.20095
▁wanted	-7.20337
▁mind	-7.20532
▁course	-7.20769
▁um	-7.21138
▁best	-7.21572
▁run	-7.21907
▁phone	-7.23917
▁next	-7.24353
▁friend	-7.24819
▁tonight	-7.2489
▁room	-7.2535
▁head	-7.25801
▁job	-7.26213
▁getting	-7.2638
▁came	-7.26513
▁men	-7.26815
▁mother	-7.2698
▁looking	-7.27088
▁morning	-7.27889
en	-7.28383
▁cause	-7.2872
▁lm	-7.29075
▁seen	-7.29141
k	-7.29937
or	-7.31207
▁whole	-7.32424
▁everybody	-7.32606
f	-7.32736
▁found	-7.33033
▁playing	-7.33548
▁watch	-7.33943
▁together	-7.34657
▁excuse	-7.34756
ie	-7.35318
▁family	-7.3545
▁saw	-7.35566
▁meet	-7.35573
▁die	-7.36159
▁hard	-7.36222
▁ah	-7.36707
▁play	-7.37468
▁face	-7.37681
▁open	-7.38079
▁heart	-7.38745
▁wasnt	-7.3889
it	-7.39146
▁bring	-7.39217
▁end	-7.39521
▁re	-7.39613
▁guess	-7.4097
▁turn	-7.42585
▁s	-7.43187
▁em	-7.43407
▁many	-7.43551
▁fire	-7.43695
▁whoa	-7.44418
▁fight	-7.44459
▁knew	-7.45045
▁weve	-7.4505
▁actually	-7.45383
▁start	-7.458
▁tomorrow	-7.45815
▁beautiful	-7.46368
el	-7.46631
▁idea	-7.46652
▁matter	-7.46687
▁pretty	-7.46701
▁school	-7.4682
▁went	-7.46824
▁bit	-7.47493
▁wouldnt	-7.47597
▁ha	-7.48195
▁without	-7.49294
▁heard	-7.49352
▁hope	-7.49369
▁damn	-7.49427
▁hand	-7.49612
▁second	-7.49693
ch	-7.49979
▁whos	-7.50085
▁kid	-7.50275
ic	-7.50734
▁alone	-7.50795
ers	-7.51912
▁jack	-7.52096
▁un	-7.52735
▁called	-7.53213
man	-7.5419
▁took	-7.54214
▁five	-7.54253
▁everyone	-7.5435
▁crazy	-7.56521
▁use	-7.56675
▁used	-7.57107
▁shut	-7.5711
▁wife	-7.57505
▁minute	-7.57733
▁somebody	-7.5825
▁gone	-7.58505
▁part	-7.59227
▁water	-7.60407
▁anyone	-7.60908
an	-7.61035
▁brother	-7.61228
▁friends	-7.61517
▁kids	-7.61626
▁walk	-7.61744
▁eat	-7.61851
on	-7.62517
▁sit	-7.63262
▁eyes	-7.63624
▁happy	-7.63639
▁four	-7.64025
▁pay	-7.64191
▁youd	-7.642
il	-7.64541
▁ass	-7.64995
▁yet	-7.65156
▁problem	-7.65391
▁worry	-7.65502
ur	-7.65693
▁days	-7.65716
▁killed	-7.65753
▁saying	-7.66026
▁check	-7.66289
▁hit	-7.66375
▁c	-7.6722
▁close	-7.67406
▁fun	-7.67456
▁ago	-7.67527
▁read	-7.67693
▁hurt	-7.67936
▁already	-7.6864
▁true	-7.68642
▁boys	-7.68963
▁break	-7.69032
▁havent	-7.69196
ri	-7.69197
▁change	-7.69224
▁story	-7.69616
▁far	-7.69765
▁lost	-7.69929
ar	-7.70101
na	-7.70118
est	-7.70195
▁de	-7.70269
▁sighs	-7.70582
▁easy	-7.70741
▁grunts	-7.70852
▁couldnt	-7.71154
ion	-7.71238
▁chuckles	-7.71808
▁laughing	-7.7199
▁inside	-7.72175
▁war	-7.72251
us	-7.72755
▁stand	-7.73358
ra	-7.73387
▁cut	-7.73578
▁trust	-7.73906
▁dr	-7.74158
▁since	-7.74207
is	-7.74909
▁business	-7.74933
ation	-7.75154
▁set	-7.75392
z	-7.75477
▁six	-7.75502
w	-7.75772
▁bye	-7.75823
▁gun	-7.76242
▁stuff	-7.76723
▁minutes	-7.76748
▁late	-7.77354
▁hands	-7.776
▁in	-7.77787
▁ya	-7.77921
▁nobody	-7.77965
▁honey	-7.78091
▁jesus	-7.78846
▁sleep	-7.78879
▁daddy	-7.7904
▁supposed	-7.79119
▁shot	-7.79475
▁deal	-7.79653
▁point	-7.79737
▁sam	-7.7988
▁dog	-7.80011
▁free	-7.80082
▁wheres	-7.80345
▁whatever	-7.80705
▁exactly	-7.80879
▁welcome	-7.81175
▁happen	-7.81183
ve	-7.81705
▁rest	-7.82059
▁cool	-7.82135
▁young	-7.82828
▁side	-7.82971
▁mine	-7.83014
▁wow	-7.83412
▁probably	-7.83564
▁case	-7.84295
▁year	-7.84412
▁gave	-7.84541
▁later	-7.84884
▁afraid	-7.85346
▁drink	-7.85422
▁thinking	-7.85499
▁number	-7.85649
▁working	-7.85755
▁line	-7.85767
v	-7.85865
▁st	-7.86152
▁clear	-7.86183
▁soon	-7.86442
▁light	-7.87103
▁game	-7.87157
▁chance	-7.87171
▁lady	-7.87214
▁taking	-7.87878
at	-7.87885
▁moment	-7.87918
▁king	-7.88009
▁high	-7.8836
▁hot	-7.8878
▁safe	-7.88824
▁hate	-7.8896
▁pick	-7.89613
ter	-7.89871
▁city	-7.8991
▁word	-7.89932
▁different	-7.90213
▁forget	-7.90531
te	-7.90799
▁says	-7.91507
▁wish	-7.91678
▁looks	-7.92034
▁blood	-7.92213
ro	-7.92472
▁continues	-7.93032
▁black	-7.93716
▁week	-7.93893
th	-7.94049
▁bed	-7.94155
ll	-7.94539
▁party	-7.9463
▁book	-7.94671
▁mrs	-7.94902
▁doctor	-7.95073
▁hmm	-7.95554
▁i	-7.96051
▁promise	-7.96209
▁answer	-7.96393
▁th	-7.96797
▁f	-7.96922
▁shoot	-7.96974
▁red	-7.97036
▁making	-7.97342
▁full	-7.9745
▁waiting	-7.986
▁truth	-7.98828
ment	-7.98843
▁person	-7.98923
▁hours	-7.99298
▁police	-7.99338
▁though	-7.99369
▁couple	-7.99397
▁touch	-7.99415
ist	-7.99615
▁met	-7.9966
▁george	-7.99769
▁death	-7.99769
ies	-7.99789
▁b	-7.99916
▁bitch	-7.9994
▁speak	-8.00019
▁laughs	-8.00026
▁girls	-8.00441
▁behind	-8.00529
▁half	-8.00537
▁gasps	-8.0084
▁lord	-8.00914
▁ben	-8.01446
▁anyway	-8.01873
▁anybody	-8.02066
▁p	-8.02908
▁child	-8.03234
▁grunting	-8.0349
▁la	-8.03587
se	-8.0385
co	-8.03879
▁almost	-8.04021
▁trouble	-8.04021
▁goes	-8.04122
▁question	-8.04211
▁sound	-8.04222
st	-8.04707
la	-8.0472
able	-8.05248
et	-8.05359
ry	-8.05541
▁lose	-8.05792
▁e	-8.05993
▁front	-8.06015
▁y	-8.06022
▁town	-8.06032
▁sister	-8.06114
▁reason	-8.06184
▁married	-8.06419
▁also	-8.06424
▁wants	-8.06937
▁daughter	-8.06958
▁hang	-8.07081
▁important	-8.07231
▁send	-8.07286
▁shall	-8.07652
▁buy	-8.07735
▁makes	-8.07882
▁sign	-8.07958
▁o	-8.08176
▁drive	-8.08245
▁anymore	-8.08462
▁voice	-8.08464
▁outside	-8.08466
▁rock	-8.08575
ce	-8.08639
▁speaking	-8.08679
ne	-8.08737
▁save	-8.09148
▁john	-8.09257
▁white	-8.0978
▁win	-8.09937
▁dear	-8.09937
▁ho	-8.10528
▁perfect	-8.10536
▁women	-8.10971
▁ahead	-8.1098
▁stupid	-8.12034
▁arent	-8.12047
▁a	-8.12115
▁children	-8.12469
ity	-8.12593
▁power	-8.12782
id	-8.12845
▁started	-8.12858
▁follow	-8.12859
▁body	-8.12901
ia	-8.13123
▁husband	-8.13542
▁least	-8.13761
ling	-8.14017
▁telling	-8.14192
▁special	-8.14197
▁yo	-8.14317
▁top	-8.1446
▁food	-8.1486
▁asked	-8.14941
ate	-8.14977
▁news	-8.15102
▁means	-8.15111
▁k	-8.15507
▁sometimes	-8.15653
um	-8.15823
ful	-8.15966
▁air	-8.16007
ive	-8.16221
am	-8.16291
▁team	-8.16452
▁quite	-8.1696
▁plan	-8.17235
▁step	-8.17309
▁ten	-8.17474
▁fast	-8.17529
▁alive	-8.17562
▁feeling	-8.17999
▁funny	-8.18007
▁street	-8.18443
▁control	-8.18666
▁gentlemen	-8.18668
▁sweet	-8.18824
▁heres	-8.18897
▁running	-8.18898
▁times	-8.18919
▁died	-8.19216
▁dance	-8.19327
▁buddy	-8.19362
ent	-8.19362
▁hair	-8.19625
▁brought	-8.19815
▁mama	-8.20308
▁luck	-8.20336
ty	-8.20439
▁law	-8.20447
▁screaming	-8.20893
▁blue	-8.2145
▁order	-8.21825
▁co	-8.2205
▁theyll	-8.22155
▁ladies	-8.22162
▁hurry	-8.22392
less	-8.22811
ck	-8.23159
▁scared	-8.23368
▁dream	-8.23426
▁lts	-8.24228
▁fall	-8.24239
▁goodbye	-8.24308
▁living	-8.24314
ul	-8.24323
▁fact	-8.24336
li	-8.24934
▁parents	-8.24999
▁goddamn	-8.25036
▁hows	-8.25038
▁captain	-8.2528
▁along	-8.25288
▁till	-8.25567
to	-8.25991
▁either	-8.26015
▁panting	-8.26025
▁pull	-8.26142
▁r	-8.2626
▁wake	-8.2628
▁al	-8.26352
▁tried	-8.26423
lo	-8.26746
▁human	-8.26761
▁calm	-8.27303
▁ride	-8.27423
▁bet	-8.27595
▁dinner	-8.27752
▁land	-8.27956
▁company	-8.28254
▁sick	-8.28518
nt	-8.28979
ant	-8.28982
up	-8.29534
▁ow	-8.29646
▁seven	-8.29784
▁office	-8.29864
▁catch	-8.30086
▁christ	-8.30412
▁country	-8.30571
▁pa	-8.30671
ting	-8.30853
▁j	-8.30906
ton	-8.31123
▁ooh	-8.31325
▁drop	-8.3133
▁general	-8.3158
sh	-8.3167
▁bar	-8.31818
▁months	-8.31918
▁tv	-8.32127
▁clean	-8.32296
▁president	-8.32363
▁alright	-8.3263
▁eye	-8.32659
▁million	-8.32902
▁york	-8.33153
▁report	-8.33396
▁itll	-8.33687
▁song	-8.33754
▁moving	-8.33955
▁ball	-8.34149
▁past	-8.34202
▁leaving	-8.34219
x	-8.34858
▁radio	-8.3502
as	-8.35071
ma	-8.35152
▁hour	-8.35766
▁straight	-8.36032
▁maam	-8.36111
▁strong	-8.36118
im	-8.36545
▁serious	-8.36744
▁sounds	-8.36925
▁mo	-8.37126
me	-8.37321
▁kiss	-8.37364
▁pain	-8.37377
no	-8.37482
▁feet	-8.37511
▁mad	-8.37647
▁h	-8.37684
▁glad	-8.37765
▁boss	-8.37829
▁fear	-8.38053
▁happening	-8.38213
▁short	-8.38303
▁cover	-8.3864
▁figure	-8.38744
▁careful	-8.39073
▁sun	-8.39096
▁mouth	-8.39437
▁vi	-8.39504
▁bob	-8.39523
▁slow	-8.39548
▁screams	-8.39626
▁sense	-8.39704
▁charlie	-8.39705
▁fat	-8.39813
▁dis	-8.39911
▁beat	-8.40195
▁groans	-8.40241
▁con	-8.40249
▁quiet	-8.4038
▁choice	-8.40554
▁become	-8.40838
▁act	-8.41087
ine	-8.41703
▁able	-8.41726
▁lucky	-8.4174
▁calling	-8.42221
▁seat	-8.42585
▁dude	-8.4287
▁round	-8.43155
▁sent	-8.4323
▁poor	-8.43502
▁weeks	-8.43707
be	-8.43891
▁throw	-8.43896
▁seems	-8.43959
▁mark	-8.43961
ee	-8.44104
▁relax	-8.44321
▁lives	-8.44461
ance	-8.44517
▁sing	-8.44619
▁sort	-8.44619
▁forever	-8.44622
per	-8.44647
▁bag	-8.44781
j	-8.4522
▁earth	-8.45221
▁wear	-8.45296
▁quick	-8.45338
▁shouldnt	-8.45511
▁taken	-8.45619
▁kidding	-8.45833
▁write	-8.45894
tic	-8.46028
▁shell	-8.46111
▁po	-8.46358
▁somewhere	-8.47016
ish	-8.47042
▁wonderful	-8.47055
▁amazing	-8.4732
▁honor	-8.47348
▁frank	-8.47832
ff	-8.4789
de	-8.48019
▁d	-8.48134
▁da	-8.48176
▁piece	-8.48283
ig	-8.4844
▁singing	-8.48548
▁road	-8.48561
▁happens	-8.48827
▁class	-8.49315
▁cold	-8.496
▁learn	-8.49605
▁count	-8.49732
▁court	-8.49785
▁mike	-8.49842
▁joe	-8.50101
▁fly	-8.50294
▁michael	-8.50411
▁asking	-8.50414
▁marry	-8.5044
▁picture	-8.50497
ous	-8.50769
▁words	-8.50936
ness	-8.50972
▁worth	-8.51029
▁cross	-8.51384
▁absolutely	-8.51692
ke	-8.5182
ver	-8.52209
▁cheering	-8.5222
▁mary	-8.52254
▁dark	-8.52343
do	-8.52362
▁charge	-8.52364
▁secret	-8.52479
ure	-8.52499
ian	-8.5251
▁army	-8.52551
ir	-8.52627
▁ground	-8.52636
▁seem	-8.52809
▁mistake	-8.52811
▁stick	-8.52972
ber	-8.52986
▁finish	-8.53724
▁needs	-8.53827
he	-8.54094
▁asshole	-8.54261
▁g	-8.5428
▁small	-8.54319
▁laugh	-8.54502
▁future	-8.54579
▁finally	-8.54675
▁lie	-8.54675
▁cat	-8.54866
▁smart	-8.54907
▁tommy	-8.5491
▁nick	-8.54981
▁meeting	-8.55181
▁weird	-8.55236
▁roy	-8.55347
▁fish	-8.55386
▁breathing	-8.55954
▁date	-8.56044
▁bill	-8.56248
▁ship	-8.56388
age	-8.56541
▁he	-8.56583
ta	-8.56722
▁br	-8.56731
▁pass	-8.56773
▁art	-8.56793
▁eight	-8.56931
▁crowd	-8.56936
▁officer	-8.57438
▁di	-8.57492
▁wonder	-8.57618
▁state	-8.57632
rs	-8.57866
em	-8.58021
▁explain	-8.58246
▁ra	-8.58339
▁cr	-8.58348
▁mmm	-8.58482
▁rain	-8.58498
▁kick	-8.58508
▁soul	-8.58611
▁ro	-8.58894
▁star	-8.59102
▁protect	-8.59157
▁bro	-8.59206
▁join	-8.59227
▁english	-8.5927
▁loved	-8.59525
▁w	-8.59713
▁ring	-8.59904
▁lock	-8.5991
▁wed	-8.59931
▁felt	-8.59965
▁hed	-8.59973
mp	-8.59996
ad	-8.60018
ge	-8.60142
▁ex	-8.60522
▁pop	-8.60542
▁lll	-8.60581
▁whoo	-8.60628
▁dress	-8.6071
▁fair	-8.60772
▁deep	-8.60951
▁bell	-8.60978
▁lead	-8.61142
▁wind	-8.61184
▁none	-8.61211
▁french	-8.61349
▁rather	-8.61359
▁burn	-8.61718
▁sp	-8.61743
▁handle	-8.61899
▁breathe	-8.62244
ts	-8.62457
▁t	-8.62828
▁attack	-8.62946
▁n	-8.63012
▁uncle	-8.63117
mo	-8.63167
▁so	-8.63285
▁hospital	-8.63473
▁super	-8.63485
ah	-8.63537
▁mar	-8.63595
▁to	-8.63667
▁record	-8.6389
▁wall	-8.63894
▁roll	-8.64004
▁ba	-8.64015
▁horse	-8.64042
▁message	-8.64209
▁agent	-8.64226
▁less	-8.64375
▁arm	-8.64379
▁machine	-8.64552
▁perhaps	-8.64552
▁system	-8.64552
▁max	-8.64567
ut	-8.64626
ill	-8.64911
▁hundred	-8.64915
▁age	-8.64975
▁en	-8.64975
ol	-8.65073
▁lt	-8.65093
▁ca	-8.65234
▁ray	-8.65414
▁table	-8.65458
ho	-8.65569
▁box	-8.65591
▁american	-8.65994
▁respect	-8.66018
▁sea	-8.66023
▁fuckin	-8.6613
▁crying	-8.66146
▁sex	-8.66157
▁pro	-8.66262
▁tree	-8.66337
▁truck	-8.6638
▁questions	-8.66397
▁across	-8.66746
▁paul	-8.66767
▁fault	-8.67117
▁master	-8.67146
po	-8.67172
▁shouting	-8.67268
▁shh	-8.67364
da	-8.67372
▁present	-8.67489
▁engine	-8.67849
▁jump	-8.68083
ca	-8.68211
▁possible	-8.68236
▁bullshit	-8.68237
ary	-8.68263
▁suit	-8.68266
▁queen	-8.68271
▁tired	-8.68297
▁blow	-8.68298
▁grab	-8.68497
▁tom	-8.6857
▁watching	-8.68583
▁werent	-8.68612
▁grace	-8.68628
▁adam	-8.68632
pe	-8.68637
▁broke	-8.68663
▁meant	-8.6871
▁forward	-8.68992
les	-8.69032
▁smell	-8.69036
ha	-8.69415
son	-8.69459
▁copy	-8.69617
▁swear	-8.69749
▁darling	-8.69763
▁fix	-8.69789
▁train	-8.69846
▁ii	-8.69947
▁holy	-8.70066
▁track	-8.70142
ted	-8.70194
▁return	-8.70369
om	-8.70497
▁imagine	-8.70514
▁born	-8.70533
▁papa	-8.70535
go	-8.70708
▁longer	-8.70711
▁known	-8.70807
▁sell	-8.70848
▁church	-8.7088
▁grow	-8.7091
ac	-8.70921
dy	-8.70926
▁expect	-8.70943
un	-8.70989
▁hungry	-8.71292
▁cute	-8.71629
▁over	-8.71767
▁mu	-8.71786
▁mess	-8.71811
ow	-8.71845
▁fool	-8.72047
vi	-8.72072
▁hide	-8.72243
▁enjoy	-8.72259
▁smile	-8.72451
▁middle	-8.72451
▁floor	-8.72471
▁dick	-8.7248
▁building	-8.72485
▁wh	-8.72582
▁boat	-8.72879
▁lying	-8.73279
▁computer	-8.73632
▁bo	-8.73668
▁v	-8.7374
▁gold	-8.73993
▁strange	-8.74041
▁fighting	-8.74168
ard	-8.74223
▁seriously	-8.74286
ey	-8.74317
▁spot	-8.74831
▁me	-8.7488
▁hotel	-8.74962
▁nine	-8.75038
ci	-8.75062
▁bear	-8.75139
▁mission	-8.75179
▁others	-8.7523
▁worked	-8.75374
▁coffee	-8.75632
ag	-8.75636
▁mommy	-8.75656
▁america	-8.7566
▁groaning	-8.75695
▁per	-8.75747
out	-8.75856
▁evening	-8.75864
▁cell	-8.7594
▁anywhere	-8.76037
▁worse	-8.76037
▁except	-8.7604
▁pre	-8.761
▁needed	-8.76149
▁do	-8.76257
▁changed	-8.76374
▁tough	-8.76449
▁surprise	-8.76455
▁cl	-8.76541
▁early	-8.76573
▁given	-8.76694
▁month	-8.76751
▁gift	-8.76852
▁lunch	-8.76853
▁ran	-8.77008
▁band	-8.77168
os	-8.77398
▁teach	-8.77464
▁turned	-8.7765
▁offer	-8.77703
▁unless	-8.7777
▁busy	-8.77844
bo	-8.77935
▁an	-8.78074
▁space	-8.78085
▁motherfucker	-8.78087
▁proud	-8.78096
ang	-8.78445
▁lawyer	-8.78505
▁security	-8.78507
▁giving	-8.78507
▁sad	-8.78606
▁soldier	-8.78884
▁ice	-8.79137
▁attention	-8.79337
▁partner	-8.79382
▁test	-8.79493
▁el	-8.79717
▁major	-8.79757
▁no	-8.79815
▁cop	-8.80192
▁code	-8.80311
▁entire	-8.80424
▁billy	-8.80518
▁yall	-8.80715
▁knock	-8.80782
▁chatter	-8.80881
▁peter	-8.80958
▁history	-8.81028
▁terrible	-8.81029
▁field	-8.81109
▁bank	-8.81145
▁murder	-8.81195
▁walking	-8.81234
▁cry	-8.81301
▁definitely	-8.81455
▁christmas	-8.81457
▁magic	-8.8149
▁rich	-8.81495
▁spend	-8.81744
▁yesterday	-8.81885
▁near	-8.82203
▁birthday	-8.82318
▁ne	-8.82419
▁sherman	-8.82749
▁wedding	-8.8276
▁sitting	-8.82848
▁out	-8.82957
▁key	-8.83036
▁tight	-8.83192
▁bl	-8.83378
land	-8.83484
▁trip	-8.8351
▁reach	-8.8358
▁appreciate	-8.8362
▁theyve	-8.8362
▁totally	-8.83726
▁softly	-8.83752
▁push	-8.83831
ley	-8.83904
▁plane	-8.83956
▁mm	-8.84049
▁favorite	-8.84067
▁station	-8.84219
▁indistinct	-8.84324
▁letter	-8.84336
▁wa	-8.84432
▁dangerous	-8.84506
▁trick	-8.84517
▁stuck	-8.8453
▁rose	-8.84591
▁david	-8.84942
▁harry	-8.84942
▁missing	-8.84952
ler	-8.85049
▁kate	-8.85055
▁quit	-8.85285
▁bomb	-8.85387
▁gods	-8.85408
ny	-8.85545
▁warm	-8.85599
ni	-8.85828
▁evil	-8.85833
▁jake	-8.85863
▁force	-8.8593
▁prove	-8.85966
and	-8.86
▁low	-8.86018
▁fit	-8.86292
▁share	-8.86377
▁se	-8.86387
▁up	-8.86419
▁sh	-8.86512
▁lovely	-8.8656
▁glass	-8.86626
▁contact	-8.86731
▁simple	-8.86731
oo	-8.86783
min	-8.86956
▁caught	-8.87184
▁throat	-8.87184
▁weekend	-8.87217
▁james	-8.87234
▁carl	-8.87453
▁sa	-8.87464
ot	-8.87648
line	-8.87726
▁wild	-8.88097
▁roger	-8.88112
▁flight	-8.88123
▁mmhmm	-8.88152
▁honest	-8.88396
▁service	-8.88397
▁peace	-8.88462
▁forgot	-8.88547
▁ar	-8.88712
ated	-8.8878
▁er	-8.89135
▁dying	-8.8918
▁wi	-8.89516
▁joke	-8.8969
▁ringing	-8.89803
▁leg	-8.89984
▁van	-8.90207
▁z	-8.90312
▁paper	-8.90337
▁hole	-8.90424
▁san	-8.90632
you	-8.90633
ai	-8.90817
▁broken	-8.9106
op	-8.91201
▁wolf	-8.91351
▁crime	-8.91352
▁command	-8.91391
▁paid	-8.91407
cu	-8.91426
▁miles	-8.91559
▁killing	-8.91635
▁moon	-8.91686
▁thousand	-8.91775
▁crack	-8.91806
▁clothes	-8.91825
▁pleasure	-8.91825
ga	-8.91868
▁fa	-8.9191
▁prison	-8.91983
ba	-8.9223
▁visit	-8.92237
▁pray	-8.92355
av	-8.92758
▁deserve	-8.9278
▁bird	-8.92793
di	-8.92826
▁looked	-8.93048
ble	-8.93193
▁distance	-8.9326
▁owe	-8.93304
▁bastard	-8.93744
▁position	-8.9378
▁yep	-8.93795
▁begin	-8.93851
▁suck	-8.93852
▁single	-8.939
▁list	-8.94052
▁nervous	-8.94229
ner	-8.9429
▁missed	-8.94426
▁mi	-8.9467
▁audience	-8.94717
▁colonel	-8.94732
▁personal	-8.94747
▁seeing	-8.94798
ct	-8.9487
▁loud	-8.95127
▁green	-8.95207
▁color	-8.95246
▁talked	-8.95251
ass	-8.9536
▁brothers	-8.95471
▁saved	-8.95651
▁wearing	-8.95676
▁accident	-8.9569
▁uhhuh	-8.957
▁river	-8.95718
▁breath	-8.95839
end	-8.95933
▁rick	-8.95992
pa	-8.96014
▁finished	-8.96014
ping	-8.96187
▁south	-8.96194
▁instead	-8.96195
▁idiot	-8.96196
▁horn	-8.96229
▁sake	-8.9626
ger	-8.96424
▁ann	-8.96762
▁sl	-8.96803
▁chattering	-8.96876
▁press	-8.96925
▁ab	-8.96986
ial	-8.971
▁pal	-8.97105
▁treat	-8.9713
▁forgive	-8.97172
▁worried	-8.97192
▁jerry	-8.97192
▁names	-8.97201
▁information	-8.97207
lng	-8.97209
time	-8.97401
io	-8.9766
▁grand	-8.97717
▁stone	-8.97793
▁fell	-8.97933
our	-8.97951
▁cost	-8.98184
▁double	-8.982
▁driving	-8.982
▁remind	-8.98201
▁chicken	-8.98265
▁pat	-8.98466
way	-8.98479
▁aw	-8.98497
▁certain	-8.9853
▁afternoon	-8.98707
▁chief	-8.98712
▁store	-8.98721
▁bigger	-8.98817
▁completely	-8.98843
ating	-8.99141
▁smoke	-8.99218
▁group	-8.99225
▁outta	-8.99241
▁upon	-8.99274
▁camera	-8.9968
lic	-8.99704
▁sweetheart	-8.9973
▁heavy	-8.9973
▁lf	-8.99823
▁board	-8.99833
▁suppose	-8.99846
▁carry	-8.99941
▁correct	-9.00246
▁bathroom	-9.00248
▁public	-9.00249
hi	-9.00394
▁brain	-9.00524
▁fl	-9.0054
▁lay	-9.00625
▁gasping	-9.00919
▁park	-9.01033
▁movie	-9.0104
ii	-9.01196
▁freak	-9.01223
▁bobby	-9.01304
▁ln	-9.01326
▁ri	-9.01461
▁doin	-9.01532
▁tea	-9.01535
▁card	-9.01554
▁ricky	-9.01567
ster	-9.01583
▁pen	-9.01807
▁girlfriend	-9.01815
▁seconds	-9.02079
▁favor	-9.02324
▁spirit	-9.02334
▁foot	-9.02341
▁dreams	-9.02354
▁taste	-9.02525
▁ed	-9.02579
der	-9.02806
▁college	-9.02864
▁impossible	-9.02864
▁guard	-9.03222
▁hall	-9.03259
▁pig	-9.03333
bi	-9.03357
▁congratulations	-9.03396
▁kept	-9.03396
▁situation	-9.03396
▁sky	-9.03424
▁form	-9.03521
▁amy	-9.03579
▁ver	-9.03806
▁build	-9.03884
▁remain	-9.03931
▁block	-9.03947
▁beach	-9.03954
▁moved	-9.04404
▁hasnt	-9.04472
▁judge	-9.04483
▁promised	-9.04556
▁eh	-9.04788
▁bought	-9.05009
▁choose	-9.05009
▁upset	-9.05554
▁raise	-9.05716
▁mate	-9.05917
▁window	-9.06033
▁standing	-9.06103
▁bother	-9.06111
▁pack	-9.06153
▁bud	-9.0617
ier	-9.06221
iv	-9.06318
▁shed	-9.06339
▁decided	-9.06431
▁continue	-9.06557
▁alexander	-9.06648
▁wrote	-9.06648
▁blind	-9.06649
king	-9.06776
▁tony	-9.068
▁certainly	-9.0684
che	-9.06851
▁bloody	-9.06935
▁fucked	-9.07106
▁hero	-9.07167
▁lou	-9.07182
▁sergeant	-9.072
▁area	-9.0721
▁lve	-9.07242
▁princess	-9.07295
▁gas	-9.07578
▁beer	-9.07699
▁pie	-9.07707
▁emily	-9.07758
▁hook	-9.07909
▁interesting	-9.08086
▁normal	-9.08136
▁whose	-9.08162
▁drunk	-9.08315
▁worst	-9.08315
▁albert	-9.08316
▁faith	-9.0832
▁alarm	-9.08326
▁north	-9.08326
▁east	-9.08329
▁race	-9.08375
▁bi	-9.08545
▁ad	-9.08579
▁brave	-9.08604
lin	-9.0866
▁fan	-9.08669
▁du	-9.08723
▁note	-9.08766
mer	-9.08816
▁doubt	-9.08877
▁summer	-9.08879
tion	-9.09017
▁corner	-9.0907
▁lived	-9.09261
▁si	-9.09327
▁account	-9.09415
▁nose	-9.09537
▁teacher	-9.0957
▁starting	-9.09619
ence	-9.09895
▁hill	-9.099
▁club	-9.10017
▁dancing	-9.10019
▁agree	-9.1015
▁works	-9.10201
▁wine	-9.10478
▁upstairs	-9.10581
▁kevin	-9.10581
▁chair	-9.10593
▁pants	-9.10607
▁babe	-9.10617
▁qu	-9.10651
▁fill	-9.10717
▁ga	-9.10987
▁andy	-9.10989
▁greatest	-9.11172
▁fe	-9.11176
▁accept	-9.11198
▁le	-9.11605
va	-9.11647
▁pe	-9.11729
▁difference	-9.11734
▁enemy	-9.11734
▁price	-9.11739
▁shake	-9.11761
▁jail	-9.11778
▁realize	-9.11998
▁listening	-9.12055
▁bat	-9.1216
▁dollars	-9.12217
ell	-9.12298
▁film	-9.12315
▁camp	-9.12344
▁apartment	-9.12348
▁soft	-9.12725
▁shoes	-9.12764
▁lee	-9.12821
▁third	-9.129
▁island	-9.12902
▁destroy	-9.12954
ney	-9.13432
▁post	-9.13444
ens	-9.13457
▁neither	-9.13488
▁fresh	-9.13488
▁ugly	-9.13488
▁support	-9.1349
▁twice	-9.13492
the	-9.13506
▁feed	-9.1362
▁fr	-9.13701
▁lake	-9.13839
bb	-9.13867
▁planet	-9.13895
▁commander	-9.14038
▁target	-9.1408
▁lisa	-9.14088
▁rocky	-9.14252
▁carter	-9.14533
▁where	-9.14672
▁within	-9.14675
▁molly	-9.14676
▁type	-9.14686
▁belong	-9.14886
▁apart	-9.15244
▁boo	-9.15245
▁extra	-9.15266
▁program	-9.15274
▁spent	-9.15322
▁annie	-9.15406
▁gay	-9.1555
ap	-9.15725
▁keys	-9.15757
▁everywhere	-9.15876
▁travel	-9.15895
▁cops	-9.15922
▁dan	-9.15977
▁arms	-9.16058
▁sy	-9.16189
▁sub	-9.16397
▁conversation	-9.16482
▁ghost	-9.16482
▁spanish	-9.16482
▁sophie	-9.16498
▁cash	-9.16527
ned	-9.16573
wa	-9.16783
▁be	-9.16912
▁named	-9.17073
▁government	-9.17092
▁writing	-9.17092
▁ought	-9.17094
▁ding	-9.17149
▁rule	-9.1718
▁folks	-9.17224
▁tape	-9.1729
▁action	-9.17329
▁comp	-9.17397
ium	-9.1742
▁cup	-9.17451
und	-9.17532
▁final	-9.17569
head	-9.17581
▁charles	-9.17719
ung	-9.1772
▁m	-9.17721
▁bunch	-9.17722
▁beast	-9.17723
▁steal	-9.17737
▁books	-9.17755
▁ja	-9.17812
▁rid	-9.18122
▁yi	-9.18187
▁washington	-9.18323
▁picked	-9.18384
▁goin	-9.1846
▁rings	-9.18466
▁rules	-9.18675
▁howd	-9.18676
▁heaven	-9.1868
▁cook	-9.18929
▁decision	-9.18944
▁monsieur	-9.18944
▁address	-9.18944
▁risk	-9.19018
▁paris	-9.19059
▁hat	-9.19291
▁amen	-9.19331
▁ke	-9.19336
rr	-9.19346
▁fi	-9.1935
▁for	-9.19509
▁emergency	-9.19569
▁lieutenant	-9.19569
▁private	-9.19569
▁brown	-9.19569
▁stopped	-9.1958
▁ni	-9.1959
▁neck	-9.19606
▁jim	-9.19623
▁gate	-9.1967
▁sin	-9.19754
ue	-9.20154
▁heavily	-9.20198
▁department	-9.20204
▁shame	-9.20217
▁russian	-9.20225
by	-9.20258
▁reading	-9.20345
▁sarah	-9.20831
▁beeping	-9.20981
▁holding	-9.21063
▁chris	-9.21111
▁yelling	-9.21112
▁unit	-9.21115
▁wood	-9.21117
ab	-9.21222
▁jet	-9.21311
▁li	-9.21393
▁punch	-9.21468
ize	-9.21517
▁aah	-9.21541
▁va	-9.21584
men	-9.21604
▁lo	-9.21858
vo	-9.21981
kin	-9.22035
▁professor	-9.22109
▁bottle	-9.22112
▁sw	-9.2215
▁crap	-9.22171
▁neil	-9.22179
ite	-9.22196
▁notice	-9.22361
▁su	-9.22367
ps	-9.2239
▁chi	-9.22429
ina	-9.22536
▁animal	-9.22598
▁killer	-9.22682
▁weak	-9.22746
▁experience	-9.22754
▁larry	-9.22755
▁allow	-9.22895
▁whatd	-9.22901
ions	-9.23006
▁exhales	-9.2304
ized	-9.23245
ay	-9.23306
▁lights	-9.23381
▁awesome	-9.23403
▁shouldve	-9.23408
▁blame	-9.2341
▁excited	-9.23428
▁paint	-9.23436
▁decide	-9.23665
▁dogs	-9.23688
▁jo	-9.23936
▁match	-9.23996
▁boyfriend	-9.24065
▁angry	-9.24069
▁games	-9.24109
▁skin	-9.24171
▁size	-9.24307
▁interested	-9.24412
fi	-9.24483
▁wondering	-9.24533
▁gl	-9.24562
ak	-9.24576
one	-9.24587
▁fred	-9.24637
▁admit	-9.24715
▁phil	-9.24761
▁walter	-9.24765
▁cake	-9.24797
▁screw	-9.24846
▁huge	-9.2486
ze	-9.25011
▁quickly	-9.25106
led	-9.25136
▁complete	-9.25202
ally	-9.25226
▁stole	-9.25233
ln	-9.25305
ron	-9.2534
▁language	-9.25377
▁noise	-9.25392
▁awful	-9.2546
▁bus	-9.25509
▁chuckling	-9.26064
▁dirty	-9.26142
▁consider	-9.26181
▁guns	-9.26255
▁dig	-9.26325
▁pan	-9.26358
ake	-9.26467
bu	-9.26619
▁ant	-9.26695
▁suspect	-9.26717
▁repeat	-9.26721
▁beauty	-9.26721
▁apple	-9.26826
of	-9.26943
▁couldve	-9.27075
▁pet	-9.27189
▁wouldve	-9.27192
▁switch	-9.27391
▁katie	-9.27419
▁pressure	-9.27421
ator	-9.27483
▁faster	-9.27504
▁male	-9.27593
▁sweetie	-9.27601
▁using	-9.27833
▁file	-9.27932
▁heh	-9.28012
▁difficult	-9.28071
▁self	-9.28089
▁mon	-9.28133
▁main	-9.2819
▁val	-9.28339
▁et	-9.28367
ring	-9.285
▁gen	-9.28529
ka	-9.28531
▁painting	-9.28751
▁military	-9.28756
▁weapon	-9.28804
pped	-9.29051
▁fired	-9.2921
▁prince	-9.29327
▁stories	-9.29446
▁scene	-9.29446
▁west	-9.29514
▁tall	-9.29564
▁breaking	-9.29568
▁hiding	-9.29571
ise	-9.29608
▁sal	-9.2979
ev	-9.29923
▁snow	-9.30133
▁ugh	-9.30146
▁devil	-9.3016
▁common	-9.30174
▁dare	-9.30187
▁ch	-9.30206
▁states	-9.30206
▁meat	-9.30235
▁rat	-9.30503
cy	-9.30515
▁bite	-9.30626
▁chocolate	-9.30839
▁harold	-9.30839
▁bridge	-9.30849
▁cap	-9.30869
▁whispers	-9.30871
▁doll	-9.30874
▁cu	-9.30876
▁arrest	-9.31009
▁aii	-9.31146
▁hu	-9.31149
▁putting	-9.31221
▁eating	-9.31224
ship	-9.31287
▁crew	-9.3156
tro	-9.31589
▁fathers	-9.31603
▁can	-9.31635
lt	-9.31837
▁learned	-9.32043
▁suggest	-9.32142
▁flying	-9.3216
▁feels	-9.32187
light	-9.32195
▁nurse	-9.32253
▁strike	-9.32253
▁dumb	-9.32254
▁martin	-9.32256
▁dragon	-9.32278
▁swim	-9.32278
▁hitler	-9.32332
▁obviously	-9.32355
▁cock	-9.32359
▁bra	-9.32402
▁figured	-9.32548
▁crash	-9.32564
▁steve	-9.32822
▁problems	-9.32845
▁especially	-9.32967
▁whether	-9.32967
▁focus	-9.32967
▁priest	-9.3297
▁starts	-9.33036
▁sc	-9.3321
▁rip	-9.33279
▁survive	-9.33288
▁locked	-9.33355
▁u	-9.33458
▁united	-9.33567
lie	-9.33664
▁strength	-9.33686
▁batman	-9.33753
▁sight	-9.33844
ham	-9.33885
▁monster	-9.3393
▁buck	-9.33974
off	-9.34114
▁scott	-9.34142
▁german	-9.34165
▁closed	-9.3431
▁leader	-9.34375
▁nowhere	-9.34411
▁client	-9.34411
▁greg	-9.34412
▁shop	-9.34449
▁ma	-9.34524
▁losing	-9.3476
▁ti	-9.34802
▁besides	-9.34825
▁cab	-9.34942
▁total	-9.34965
▁pi	-9.34982
tra	-9.35028
▁built	-9.35141
▁teeth	-9.35156
▁rush	-9.3516
▁richard	-9.35168
▁gang	-9.35187
red	-9.35273
▁rep	-9.35628
▁patient	-9.35876
▁karen	-9.35881
▁large	-9.35902
▁str	-9.36251
▁balls	-9.36302
down	-9.36449
▁nah	-9.36603
▁breakfast	-9.36617
▁enter	-9.36696
tor	-9.36712
ical	-9.36782
▁bow	-9.36861
▁boom	-9.37119
▁matthew	-9.37363
▁taught	-9.37363
▁shirt	-9.37364
▁wheel	-9.37364
▁battle	-9.37374
▁aunt	-9.37383
▁speed	-9.37396
▁pin	-9.37554
▁hip	-9.37627
▁indistinctly	-9.37664
tle	-9.37726
▁who	-9.37974
▁marriage	-9.38115
▁thomas	-9.38115
▁level	-9.38116
▁rent	-9.38388
▁paying	-9.3841
▁base	-9.3859
pp	-9.38659
ect	-9.38699
▁butt	-9.38792
▁artist	-9.38813
▁tongue	-9.38873
▁bottom	-9.38874
art	-9.38996
▁whispering	-9.39009
▁search	-9.39048
ud	-9.39053
▁waste	-9.39243
▁gra	-9.39268
▁dar	-9.3951
▁swing	-9.39563
▁village	-9.39613
▁kitchen	-9.39636
▁pardon	-9.39636
▁paige	-9.39636
▁center	-9.39637
▁edward	-9.39644
▁closer	-9.39693
au	-9.399
▁dean	-9.39907
▁rise	-9.39944
▁bucks	-9.40119
▁pictures	-9.40195
▁tri	-9.40392
▁relationship	-9.40408
▁square	-9.40412
we	-9.40473
▁stage	-9.40533
ten	-9.40547
sta	-9.40575
▁gosh	-9.40611
▁takes	-9.40776
▁training	-9.40812
▁dressed	-9.40813
▁bless	-9.4096
que	-9.4098
▁ms	-9.41127
▁cal	-9.41128
▁ridiculous	-9.41181
▁sacrifice	-9.41181
▁speech	-9.41181
▁truly	-9.41181
▁beginning	-9.41182
▁kinda	-9.41207
▁bright	-9.4122
▁link	-9.41282
▁dave	-9.41286
▁legs	-9.41307
▁brad	-9.41369
▁tank	-9.41388
▁ted	-9.41407
▁bum	-9.41502
▁signal	-9.41529
▁escape	-9.41563
▁lu	-9.41582
▁serve	-9.41597
▁scar	-9.41933
side	-9.41944
▁knife	-9.41962
▁project	-9.41962
▁maggie	-9.41962
▁insane	-9.41963
▁gunfire	-9.41973
▁liar	-9.42018
▁played	-9.42108
aw	-9.42398
▁on	-9.42446
▁bella	-9.4247
▁sleeping	-9.4258
▁speaks	-9.42729
▁opportunity	-9.42749
▁purpose	-9.42749
▁rumbling	-9.42749
▁somehow	-9.42749
▁crawl	-9.42749
▁cream	-9.42766
▁dump	-9.42775
▁june	-9.42809
▁loose	-9.42858
▁doc	-9.43126
▁finger	-9.43344
▁bowl	-9.43384
▁witness	-9.43427
ong	-9.43431
▁hanging	-9.43431
▁mac	-9.43521
▁excellent	-9.43543
▁majesty	-9.43543
▁climb	-9.43543
▁contract	-9.43543
▁text	-9.43543
▁robert	-9.43544
▁desk	-9.43557
▁belt	-9.43694
▁fingers	-9.43758
▁due	-9.43857
▁angel	-9.43906
▁mention	-9.4391
▁sha	-9.43954
▁passed	-9.44014
▁staying	-9.44063
▁am	-9.44139
▁tie	-9.44287
▁apologize	-9.44343
▁became	-9.44343
▁beyond	-9.44343
▁claire	-9.44343
▁creaking	-9.44343
▁hadnt	-9.44343
▁credit	-9.44344
▁often	-9.4435
▁detective	-9.44352
▁roof	-9.44365
▁jason	-9.44367
▁alex	-9.44369
▁hunter	-9.44872
ex	-9.45012
▁appear	-9.45128
▁willing	-9.4515
▁percent	-9.45158
▁walked	-9.45216
▁laughter	-9.45239
▁op	-9.45276
▁honestly	-9.45462
▁piss	-9.45561
▁gu	-9.45602
▁settle	-9.45609
▁pete	-9.45762
▁siren	-9.45841
ction	-9.45845
▁footsteps	-9.45962
▁mmmhmm	-9.45962
▁memory	-9.45972
▁clock	-9.45994
▁pool	-9.46014
▁usually	-9.46091
▁papers	-9.4615
▁bone	-9.46285
▁cheer	-9.46324
▁liked	-9.46458
com	-9.46482
▁threat	-9.46782
▁female	-9.46782
▁jungle	-9.46782
▁doyle	-9.46783
▁lift	-9.46814
▁milk	-9.46816
▁march	-9.46935
▁mia	-9.47069
ew	-9.47355
▁somethin	-9.47484
▁bruce	-9.47608
▁empty	-9.47609
▁all	-9.47871
bra	-9.47871
ack	-9.4791
con	-9.47973
▁che	-9.48274
▁spit	-9.4839
car	-9.48427
▁introduce	-9.48442
▁release	-9.48442
▁henry	-9.48461
▁smith	-9.48483
▁incredible	-9.48495
▁rome	-9.48499
▁birds	-9.48499
▁yard	-9.48512
▁soldiers	-9.48521
▁involved	-9.4853
▁orders	-9.48625
▁pretend	-9.48694
▁dale	-9.48854
▁joey	-9.49181
▁zodiac	-9.49282
▁issue	-9.49282
▁video	-9.49282
▁scoffs	-9.49282
▁access	-9.49283
▁toast	-9.49292
ja	-9.49296
▁view	-9.49305
▁fellow	-9.4931
▁def	-9.49327
▁add	-9.49829
▁allowed	-9.49977
▁bu	-9.49983
▁weapons	-9.5007
ball	-9.50071
▁evidence	-9.5013
▁london	-9.5013
▁sheriff	-9.5013
▁handsome	-9.50156
▁nope	-9.50165
▁champion	-9.50167
▁guest	-9.50185
▁medical	-9.50216
ade	-9.50237
▁robin	-9.50262
▁lies	-9.50295
▁tip	-9.50515
▁ends	-9.50549
▁tear	-9.50601
med	-9.50698
▁pregnant	-9.50984
▁prefer	-9.50985
▁tower	-9.50985
▁susan	-9.50987
▁monkey	-9.50988
▁damage	-9.50998
▁khan	-9.51004
▁farm	-9.51068
press	-9.51194
▁wash	-9.51367
gy	-9.51447
ice	-9.51614
▁beg	-9.51766
▁twenty	-9.51844
▁asleep	-9.51846
▁dramatic	-9.51855
▁snap	-9.51866
▁slip	-9.51869
▁director	-9.51889
▁alice	-9.5189
▁button	-9.51903
▁shoulder	-9.51953
▁feelings	-9.51984
ible	-9.52107
ea	-9.52181
house	-9.5253
▁pee	-9.52711
▁condition	-9.52716
▁justice	-9.52716
▁regret	-9.52716
▁cur	-9.52719
▁daniel	-9.52721
▁shock	-9.52727
▁jane	-9.52854
mm	-9.52932
cha	-9.53042
▁draw	-9.5305
▁trade	-9.53186
▁bringing	-9.53254
▁opening	-9.53287
▁following	-9.53326
▁stars	-9.53365
▁heat	-9.53436
▁nothin	-9.53469
▁path	-9.53471
ook	-9.53493
ide	-9.53586
▁advice	-9.53593
▁dawn	-9.53593
▁split	-9.53593
▁afford	-9.53596
▁plus	-9.5363
▁ge	-9.53692
▁shooting	-9.53741
▁down	-9.53801
▁heal	-9.53833
▁fu	-9.53882
▁knocking	-9.5392
▁hub	-9.53955
▁under	-9.54001
▁nuts	-9.54185
▁plans	-9.5436
▁discuss	-9.54405
▁gilbert	-9.54478
▁practice	-9.54478
▁william	-9.54478
▁theyd	-9.54479
▁held	-9.5448
▁lied	-9.5451
▁grave	-9.54529
▁pulled	-9.54616
▁opens	-9.54669
▁bullet	-9.54676
lon	-9.54684
▁char	-9.54739
▁cia	-9.54826
▁deeply	-9.5493
uck	-9.54961
▁wire	-9.55075
▁bang	-9.5511
nor	-9.5527
ther	-9.55333
▁defend	-9.55359
▁silly	-9.55373
▁print	-9.55374
▁whoever	-9.55377
▁gunshot	-9.55383
▁thatll	-9.55405
▁exist	-9.55448
let	-9.55482
▁mel	-9.55529
▁ph	-9.55654
ight	-9.55711
ks	-9.55857
▁driver	-9.5586
▁und	-9.5588
▁harder	-9.5588
▁talkin	-9.56181
▁je	-9.56205
▁written	-9.56272
▁rachel	-9.56272
▁lonely	-9.56273
▁jerk	-9.56275
▁garden	-9.56277
▁bee	-9.56298
▁weather	-9.56298
▁assume	-9.56331
▁tour	-9.56388
▁ls	-9.56398
▁tr	-9.56564
▁goodness	-9.56685
▁mid	-9.56844
▁scream	-9.56856
fa	-9.56984
▁mc	-9.57178
▁possibly	-9.57181
▁sebastian	-9.57181
▁plenty	-9.57181
▁zeus	-9.57181
▁drown	-9.57182
▁spread	-9.57192
▁elliott	-9.57206
▁flat	-9.57207
▁golden	-9.57339
▁beeps	-9.57468
▁rec	-9.57541
▁ag	-9.57584
ile	-9.57586
▁drinking	-9.57672
▁mothers	-9.58007
▁circle	-9.58098
▁explosion	-9.58098
▁innocent	-9.58098
▁thunder	-9.58098
▁airport	-9.58118
▁bull	-9.58132
▁grandma	-9.58291
▁storm	-9.58354
▁photo	-9.5845
▁victor	-9.58479
well	-9.58528
qu	-9.58621
▁prepare	-9.58627
▁tro	-9.58635
▁yells	-9.58644
▁or	-9.58785
field	-9.58834
▁gr	-9.58881
▁map	-9.59001
▁borrow	-9.59024
▁texas	-9.59024
▁ocean	-9.59024
▁sobbing	-9.59024
▁collins	-9.59025
▁cousin	-9.59025
▁silence	-9.59029
▁operation	-9.59029
▁chill	-9.59113
▁freeze	-9.59122
▁ka	-9.59193
▁study	-9.59386
▁sat	-9.59439
▁tickets	-9.59521
ax	-9.59832
▁demon	-9.59834
▁stranger	-9.59942
back	-9.59951
▁recognize	-9.59959
▁famous	-9.59959
▁genius	-9.59959
▁sugar	-9.59959
▁bloom	-9.59959
▁indeed	-9.59959
▁saving	-9.5996
▁guilty	-9.60015
ville	-9.60032
▁chain	-9.60089
▁anna	-9.60112
▁pot	-9.60116
▁turning	-9.60336
▁hoping	-9.60409
▁sisters	-9.60466
ire	-9.6047
▁that	-9.60509
▁x	-9.60571
▁we	-9.60591
▁vo	-9.60626
▁turns	-9.60636
▁clicks	-9.60702
jo	-9.60841
▁sold	-9.60892
▁interview	-9.60902
▁pinocchio	-9.60902
▁davis	-9.60904
▁friday	-9.60905
▁scare	-9.60913
▁brian	-9.60914
▁acting	-9.60957
▁reporter	-9.6102
▁mister	-9.61043
▁weight	-9.61059
▁keeping	-9.61179
▁royal	-9.61296
▁sch	-9.61478
ious	-9.6155
▁prime	-9.61608
ou	-9.61621
▁seal	-9.61703
▁te	-9.61819
▁katniss	-9.61855
▁jimmy	-9.61861
▁cheap	-9.61869
▁giant	-9.61876
▁bay	-9.61943
▁lesson	-9.62002
rate	-9.62043
▁showed	-9.62092
▁pipe	-9.62118
▁ticket	-9.62321
▁load	-9.62438
▁closes	-9.62569
ism	-9.62668
▁clears	-9.62669
▁headed	-9.627
▁chick	-9.6273
▁organ	-9.62815
▁arthur	-9.62816
▁monday	-9.62824
▁chip	-9.62835
▁fbi	-9.62881
▁announcer	-9.62903
▁tucker	-9.62916
▁mag	-9.62982
▁nation	-9.63081
▁au	-9.63148
▁oil	-9.63188
▁pea	-9.63463
▁metal	-9.63496
▁mmhm	-9.63666
▁row	-9.63722
▁pocket	-9.63787
▁freedom	-9.63787
▁biggest	-9.63788
▁dylan	-9.6379
▁minister	-9.63797
▁football	-9.63801
▁talent	-9.63803
▁nature	-9.63804
▁score	-9.63806
▁awake	-9.63806
▁bread	-9.63811
▁stock	-9.63822
▁comin	-9.63822
▁safety	-9.63944
▁whore	-9.63949
▁loser	-9.63982
▁chest	-9.64062
▁matt	-9.64162
▁page	-9.64218
▁concern	-9.64233
▁fo	-9.64295
▁everythings	-9.6465
▁cons	-9.64671
▁interest	-9.64678
▁app	-9.64741
▁criminal	-9.64767
▁pilot	-9.64768
▁market	-9.64878
▁jacket	-9.65034
mon	-9.65051
▁cos	-9.65062
▁heading	-9.65132
▁lion	-9.65257
▁checked	-9.65668
wood	-9.65728
▁surprised	-9.65729
▁fantastic	-9.65757
▁launch	-9.65758
▁eliza	-9.65762
▁spring	-9.65775
▁claim	-9.65789
▁immediately	-9.65818
▁zoey	-9.65828
▁cheers	-9.65975
▁ru	-9.66118
▁expected	-9.66135
▁shower	-9.66163
▁event	-9.66211
▁loves	-9.66279
▁ty	-9.66286
fe	-9.66349
▁noticed	-9.66371
▁chuck	-9.66388
▁bur	-9.66391
ino	-9.66492
▁hardly	-9.66518
tch	-9.6656
▁helping	-9.66561
▁hug	-9.66698
▁schedule	-9.66757
▁vegas	-9.66757
▁local	-9.66763
▁sword	-9.66769
▁romantic	-9.66774
▁scout	-9.66781
▁alien	-9.66852
▁mail	-9.6688
▁mask	-9.66892
▁sand	-9.66952
▁cast	-9.67018
▁cow	-9.6704
▁vote	-9.67097
▁falling	-9.67161
ations	-9.67181
ng	-9.67687
▁gotten	-9.67709
▁brilliant	-9.67768
▁california	-9.67768
▁fought	-9.67768
▁mirror	-9.67768
▁peabody	-9.67768
▁yellow	-9.6778
▁records	-9.68044
▁wet	-9.68082
▁stu	-9.68193
ik	-9.68594
pi	-9.68702
▁pieces	-9.68731
▁foreign	-9.68788
▁earlier	-9.68795
▁comfortable	-9.68808
▁lots	-9.68826
▁pr	-9.68833
▁duty	-9.68837
▁mum	-9.6888
▁pair	-9.68893
▁deliver	-9.69012
▁character	-9.69046
▁fella	-9.69048
▁invited	-9.6906
▁tim	-9.69119
▁joy	-9.69407
▁gettin	-9.69744
gh	-9.69784
▁log	-9.69807
▁elizabeth	-9.69819
▁otherwise	-9.69819
▁simply	-9.69819
▁daisy	-9.69819
ran	-9.69991
▁tires	-9.7007
▁tan	-9.70074
▁warning	-9.70256
▁manage	-9.70421
▁ye	-9.70436
▁ear	-9.70465
▁wave	-9.7049
ries	-9.70571
▁slave	-9.70641
▁spoke	-9.70716
▁mis	-9.70772
▁letting	-9.70812
ding	-9.7083
▁trans	-9.70855
▁woods	-9.70858
▁downstairs	-9.70861
▁whirring	-9.70861
▁whistling	-9.70861
▁byebye	-9.70861
▁courage	-9.70861
▁crush	-9.70861
▁cheese	-9.70864
▁hank	-9.70871
▁bravo	-9.70875
▁robot	-9.70878
▁jam	-9.70888
ify	-9.70893
▁ruth	-9.70895
▁salt	-9.70905
gging	-9.7096
▁squ	-9.70976
▁original	-9.70989
▁forest	-9.71034
ris	-9.71105
ef	-9.71136
▁prepared	-9.7131
▁hearing	-9.71331
▁pounds	-9.71352
ez	-9.71402
▁letters	-9.71619
▁mountain	-9.71677
▁lang	-9.71698
▁official	-9.71735
▁strip	-9.71764
▁collect	-9.71868
▁loss	-9.71878
▁throwing	-9.71893
▁affair	-9.71913
▁creature	-9.71913
▁caesar	-9.71913
▁barbara	-9.71913
▁bodies	-9.71914
▁limit	-9.71914
▁sunday	-9.71934
▁energy	-9.71954
▁of	-9.71993
py	-9.72057
▁plant	-9.72123
▁player	-9.72159
▁bleeding	-9.72247
▁helped	-9.72341
▁tu	-9.72371
▁lips	-9.72449
▁drugs	-9.72473
▁ahh	-9.72605
pro	-9.72664
▁heads	-9.72936
▁quarter	-9.7297
▁process	-9.72977
▁piano	-9.72977
▁midnight	-9.72979
▁apparently	-9.72995
▁clearly	-9.73044
▁rope	-9.73046
▁terry	-9.73096
▁rub	-9.73171
▁plays	-9.73191
▁itd	-9.73211
▁ig	-9.73306
▁approaching	-9.73465
▁bath	-9.73787
▁mayor	-9.73845
▁hunt	-9.73905
val	-9.7399
▁whimpering	-9.74052
▁equal	-9.74053
▁brief	-9.74076
▁secure	-9.74082
▁clue	-9.74087
▁fighter	-9.74119
▁winner	-9.74122
▁marty	-9.74135
▁chanting	-9.74209
▁comm	-9.74378
▁fixed	-9.7448
▁at	-9.74561
▁pu	-9.74743
lor	-9.74881
▁del	-9.74893
▁lower	-9.74894
▁calls	-9.7491
▁lab	-9.74914
▁prayer	-9.75027
▁witch	-9.75038
ified	-9.75108
▁subject	-9.75139
▁england	-9.75139
▁threw	-9.7514
▁taylor	-9.7514
▁nancy	-9.75141
▁barely	-9.75142
▁grandpa	-9.75171
▁legal	-9.75232
▁trap	-9.75324
▁animals	-9.75404
▁buzz	-9.75536
▁inter	-9.75584
▁success	-9.75601
▁lin	-9.75682
▁buzzing	-9.75723
▁cor	-9.75746
▁inc	-9.75777
▁fail	-9.75788
ane	-9.75961
▁eli	-9.75995
▁older	-9.76003
board	-9.7606
▁rob	-9.76139
▁bugs	-9.76142
▁applause	-9.76238
▁exciting	-9.76238
▁jealous	-9.76238
▁smash	-9.76238
▁require	-9.76239
▁permission	-9.76244
▁fancy	-9.76257
▁rough	-9.76258
▁spell	-9.76273
▁onto	-9.76275
▁season	-9.76294
▁steady	-9.76299
▁chase	-9.76437
▁numbers	-9.76484
▁non	-9.76552
▁coat	-9.76641
▁ko	-9.76672
nce	-9.76726
▁arrived	-9.76744
▁dads	-9.76859
▁pure	-9.76867
▁sexy	-9.77046
ov	-9.77061
▁off	-9.77133
▁ac	-9.77222
▁towards	-9.77261
▁student	-9.77301
▁streets	-9.77321
▁horrible	-9.77349
▁arnie	-9.7735
▁penny	-9.77381
▁burr	-9.77489
▁grade	-9.77521
▁madame	-9.77553
▁rare	-9.77623
▁mood	-9.77647
tie	-9.77895
▁arrested	-9.782
▁sharp	-9.78294
▁usual	-9.78302
▁gum	-9.78314
row	-9.78316
▁blows	-9.78432
▁sneak	-9.78473
▁august	-9.78473
▁saturday	-9.78473
▁pride	-9.78481
▁coward	-9.78513
▁fake	-9.787
▁tra	-9.78848
▁raya	-9.7896
▁fate	-9.79019
▁expecting	-9.79053
▁signed	-9.79125
ker	-9.79267
▁tw	-9.79292
▁writer	-9.79331
ola	-9.79404
▁dry	-9.79531
▁guests	-9.79595
▁attempt	-9.79609
▁british	-9.79609
▁rebecca	-9.79609
▁restaurant	-9.79609
▁slept	-9.79609
▁someday	-9.79609
▁thirty	-9.79609
▁defense	-9.79609
▁rescue	-9.7961
▁grew	-9.79618
▁medicine	-9.7962
hrer	-9.79622
▁proper	-9.79628
▁blade	-9.79629
▁gentleman	-9.79653
▁style	-9.79669
den	-9.79671
▁tech	-9.79681
▁bon	-9.79699
▁suddenly	-9.79758
▁laid	-9.79792
▁screeching	-9.79815
▁seemed	-9.79822
▁kit	-9.79858
▁flag	-9.79858
▁created	-9.79931
▁dec	-9.79966
▁tense	-9.79984
▁nearly	-9.8008
▁doctors	-9.80091
▁gar	-9.80103
▁hon	-9.80126
▁sweat	-9.80142
▁lover	-9.80146
▁design	-9.80223
▁nobodys	-9.80483
▁gi	-9.80563
room	-9.8059
▁believed	-9.80618
▁chose	-9.80648
▁sec	-9.80713
▁celebrate	-9.80759
▁regular	-9.80759
▁vehicle	-9.80759
▁poison	-9.80759
▁expert	-9.8076
▁dropped	-9.80762
▁ginger	-9.80769
▁bike	-9.80824
▁tur	-9.80847
▁trial	-9.80906
▁aim	-9.8101
▁ears	-9.81039
▁spare	-9.81116
▁horses	-9.81233
▁hired	-9.81254
▁grown	-9.81255
▁failed	-9.81322
▁career	-9.8137
▁not	-9.81388
▁hum	-9.81447
▁ton	-9.8169
▁min	-9.81787
▁destroyed	-9.81814
▁aid	-9.81904
▁den	-9.8191
▁district	-9.81921
▁familiar	-9.81921
▁universe	-9.81921
▁shift	-9.81922
▁glory	-9.81922
▁robyn	-9.81922
▁humming	-9.81922
▁desert	-9.81922
▁birth	-9.8194
▁rev	-9.82165
▁cage	-9.82178
▁deck	-9.82328
▁request	-9.82559
qui	-9.82588
▁prom	-9.82624
ative	-9.82892
day	-9.82971
gged	-9.83039
▁challenge	-9.83098
▁georgia	-9.83098
▁however	-9.83098
▁magazine	-9.83098
▁mystery	-9.83098
▁babies	-9.83098
▁senator	-9.83098
▁planning	-9.83106
▁woo	-9.83119
▁brandon	-9.83141
▁bruno	-9.83142
▁connection	-9.83155
▁professional	-9.8317
▁stig	-9.83249
▁and	-9.83259
▁lately	-9.83303
▁hercules	-9.8337
▁bug	-9.83434
her	-9.83509
▁movies	-9.83655
boy	-9.8367
ford	-9.83754
▁agreed	-9.83924
▁wise	-9.84065
▁health	-9.84068
▁knight	-9.84284
▁guarantee	-9.84288
▁photograph	-9.84288
▁science	-9.84288
▁location	-9.84289
▁changing	-9.84289
▁flame	-9.84296
▁therell	-9.84302
▁boring	-9.84323
▁bedroom	-9.84326
▁vada	-9.8433
▁students	-9.8434
▁basement	-9.84342
▁france	-9.8435
▁iron	-9.84358
▁data	-9.84369
▁bump	-9.84412
▁chosen	-9.84441
▁pour	-9.84561
▁exp	-9.8458
▁dollar	-9.84599
▁victory	-9.84635
▁higher	-9.84922
▁gather	-9.84969
▁dies	-9.84986
▁doors	-9.8513
▁aye	-9.8517
▁ruin	-9.85176
▁tap	-9.85299
▁drove	-9.85299
▁sending	-9.85318
▁advance	-9.85493
▁easier	-9.85493
▁miracle	-9.85493
▁rupert	-9.85493
▁opinion	-9.85493
▁social	-9.85493
▁aware	-9.85494
▁cigarette	-9.85494
▁demand	-9.85496
▁border	-9.85505
▁stink	-9.85508
ock	-9.85516
▁legend	-9.85527
▁growling	-9.85588
▁tiny	-9.85664
▁plate	-9.858
ities	-9.85933
▁reality	-9.85999
ya	-9.86037
▁backup	-9.86055
over	-9.86193
▁union	-9.86237
▁provide	-9.86315
▁obvious	-9.86536
▁perform	-9.867
▁jasmine	-9.86713
▁pizza	-9.86713
▁contain	-9.86713
▁palace	-9.86713
▁nightmare	-9.86714
▁julia	-9.86715
▁ronnie	-9.86716
▁danny	-9.86743
▁zone	-9.86746
hold	-9.86749
▁shape	-9.86764
izing	-9.86793
▁pussy	-9.86807
pping	-9.86878
▁trees	-9.8689
▁rap	-9.86959
▁virgin	-9.87003
▁glasses	-9.87026
▁troy	-9.8707
▁concerned	-9.87383
▁disappear	-9.87412
▁bust	-9.87434
▁pur	-9.87613
▁cards	-9.87643
▁port	-9.87672
air	-9.87715
▁perfectly	-9.87749
▁stronger	-9.87883
▁chicago	-9.87947
▁chirping	-9.87947
▁complicated	-9.87947
▁garbage	-9.87947
▁society	-9.87947
▁stomach	-9.87947
▁whimpers	-9.87947
▁sexual	-9.8795
▁assistant	-9.8796
▁lucy	-9.87963
▁regard	-9.87963
▁guide	-9.87965
▁ponyo	-9.88004
▁pl	-9.88044
▁beating	-9.88055
▁slam	-9.88072
▁sue	-9.88075
▁es	-9.88108
▁danger	-9.88124
▁jackson	-9.88143
▁bones	-9.88296
▁bake	-9.88314
▁picking	-9.88438
▁matters	-9.88528
ub	-9.88538
just	-9.88605
▁cheat	-9.88711
▁madam	-9.89099
▁adventure	-9.89197
▁andrew	-9.89197
▁antonio	-9.89197
▁oclock	-9.89197
▁unbelievable	-9.89197
▁morgan	-9.89197
▁staff	-9.89198
▁fruit	-9.89198
▁aaron	-9.89204
▁steel	-9.89204
▁defeat	-9.89206
▁eva	-9.89216
▁scr	-9.89216
▁blew	-9.89219
ok	-9.89252
▁tor	-9.89283
▁tail	-9.89313
hand	-9.89399
▁winter	-9.89421
▁barking	-9.89601
ood	-9.89631
▁guards	-9.8964
▁flowers	-9.89685
▁wide	-9.8978
ana	-9.89989
▁stayed	-9.90049
▁spin	-9.9011
▁lad	-9.90114
▁ate	-9.90207
▁natural	-9.90284
▁elevator	-9.90463
▁particular	-9.90463
▁subtitles	-9.90463
▁turkish	-9.90463
▁understood	-9.90463
▁rhythm	-9.90463
▁disease	-9.90463
▁snake	-9.90463
▁blaring	-9.90464
▁eddie	-9.90464
▁zero	-9.90465
▁funeral	-9.90465
▁memories	-9.90466
▁investigation	-9.90468
▁pooh	-9.90477
▁harm	-9.90485
▁joking	-9.90487
▁value	-9.90491
▁powerful	-9.90633
▁plain	-9.90641
▁national	-9.90672
right	-9.90733
▁manager	-9.90752
▁ordered	-9.90773
▁murdered	-9.90777
hal	-9.90781
▁checking	-9.90828
for	-9.90886
▁tune	-9.90892
▁victim	-9.90898
▁fellas	-9.90926
▁daughters	-9.90938
ru	-9.91041
▁approach	-9.91159
▁gru	-9.91186
tru	-9.91199
▁pissed	-9.91304
▁buying	-9.91544
▁hurts	-9.9162
▁alpha	-9.91745
▁balboa	-9.91745
▁hamilton	-9.91745
▁trigger	-9.91745
▁tuesday	-9.91745
▁vanessa	-9.91745
▁confused	-9.91745
▁jacob	-9.91746
▁whenever	-9.91748
▁wilson	-9.91752
▁growls	-9.91757
▁trash	-9.91777
▁naked	-9.91798
▁ap	-9.91874
▁statement	-9.91876
▁col	-9.91904
ette	-9.91923
▁exit	-9.91975
▁hm	-9.91998
▁received	-9.92081
▁murderer	-9.92215
▁sometime	-9.92237
ever	-9.92277
▁ape	-9.92335
▁powers	-9.92344
han	-9.92353
▁grant	-9.92402
▁arrive	-9.92449
▁thin	-9.92506
▁staring	-9.92639
▁goal	-9.92764
▁wipe	-9.92797
▁forced	-9.92895
▁ana	-9.92903
▁gal	-9.92914
work	-9.93009
▁tone	-9.93024
▁diamond	-9.93044
▁brendan	-9.93044
▁suicide	-9.93044
▁nobby	-9.93044
▁austin	-9.93044
▁exclaims	-9.93044
▁warrior	-9.93044
▁toilet	-9.93044
▁fur	-9.93066
▁bride	-9.93072
▁property	-9.93075
▁santa	-9.93106
▁crackling	-9.93127
▁disgusting	-9.93155
▁reg	-9.93185
▁patch	-9.93271
▁anger	-9.93307
▁meal	-9.9333
ren	-9.93339
▁ban	-9.93355
▁howling	-9.93377
win	-9.93498
▁yell	-9.93508
▁ld	-9.93645
▁knee	-9.93652
▁toy	-9.93674
▁wound	-9.93836
▁burning	-9.93909
mate	-9.93916
▁cho	-9.93925
▁ju	-9.93974
▁raised	-9.93999
▁gut	-9.94041
cut	-9.94167
gram	-9.94201
▁flow	-9.94227
▁ken	-9.94229
▁kissed	-9.94265
load	-9.94281
▁license	-9.9436
▁someplace	-9.9436
▁japanese	-9.9436
▁kingdom	-9.9436
▁cancer	-9.94361
▁sisu	-9.94376
▁unfortunately	-9.9442
▁edge	-9.94424
▁duck	-9.94451
▁roman	-9.94507
zy	-9.94601
▁dust	-9.94817
▁germany	-9.9485
all	-9.94869
▁los	-9.95332
▁ham	-9.95402
▁indian	-9.95541
▁louis	-9.95561
▁jj	-9.9559
▁showing	-9.95693
▁according	-9.95693
▁attend	-9.95693
▁guitar	-9.95693
▁necessary	-9.95693
▁cloud	-9.95693
▁pearl	-9.95693
▁whyd	-9.95697
▁coach	-9.95704
▁vision	-9.95711
▁moses	-9.95717
▁peeta	-9.95724
fl	-9.95755
▁jean	-9.95769
▁milo	-9.95847
▁pla	-9.9587
arm	-9.96015
▁watched	-9.96212
▁drug	-9.9633
▁shadow	-9.96337
▁flo	-9.96385
▁jackie	-9.96431
▁pound	-9.96456
ust	-9.96485
▁wo	-9.96503
lan	-9.96572
ward	-9.96599
port	-9.96801
away	-9.96838
▁sudden	-9.96867
▁les	-9.96979
book	-9.97028
▁fortune	-9.97044
▁helicopter	-9.97044
▁kaulder	-9.97044
▁literally	-9.97044
▁several	-9.97044
▁coughs	-9.97046
▁route	-9.97056
▁scrap	-9.97062
▁zak	-9.97075
▁brand	-9.97077
▁began	-9.97123
▁maid	-9.97143
▁cole	-9.97158
van	-9.97159
▁cameron	-9.97192
▁castle	-9.97196
▁scary	-9.97556
▁nail	-9.97708
▁lack	-9.97773
▁quietly	-9.97897
▁wing	-9.97981
▁direct	-9.98025
▁finding	-9.98205
▁mikey	-9.98217
▁neighbor	-9.98412
▁appointment	-9.98414
▁channel	-9.98414
▁desperate	-9.98414
▁gorgeous	-9.98414
▁responsibility	-9.98414
▁swallow	-9.98414
▁chinese	-9.98415
▁knowledge	-9.98415
▁proceed	-9.98415
▁adrian	-9.98415
▁flesh	-9.98416
▁insurance	-9.98419
▁solve	-9.9843
▁prick	-9.98435
▁firing	-9.98439
▁sentence	-9.98467
▁ella	-9.9852
▁jones	-9.98521
▁clark	-9.98631
▁hood	-9.98835
▁clicking	-9.98838
▁ron	-9.98874
low	-9.98952
▁mor	-9.99027
▁chef	-9.99203
▁slr	-9.99318
▁monsters	-9.99361
▁brains	-9.99418
▁players	-9.996
nning	-9.9964
▁gentle	-9.99756
▁avoid	-9.99803
▁central	-9.99803
▁including	-9.99803
▁progress	-9.99803
▁responsible	-9.99803
▁revolution	-9.99803
▁sandwich	-9.99803
▁scratch	-9.99803
▁smooth	-9.99803
▁viktor	-9.99803
▁vincent	-9.99803
▁vacation	-9.99803
▁stella	-9.99807
▁bunny	-9.99811
▁insist	-9.99814
▁mimi	-9.99833
▁teddy	-9.99836
▁kitty	-9.99837
▁foreman	-9.99838
▁simon	-9.99983
▁ven	-10.0007
▁drag	-10.0009
▁discovered	-10.0022
▁bound	-10.0024
▁porter	-10.0036
▁personally	-10.0038
▁flip	-10.0044
more	-10.0046
▁sale	-10.0051
▁hop	-10.0059
▁mini	-10.0064
▁songs	-10.0072
▁refuse	-10.0081
▁create	-10.0081
▁touched	-10.0093
▁filled	-10.0111
▁among	-10.0119
▁citizen	-10.0121
▁effort	-10.0121
▁junior	-10.0121
▁physical	-10.0121
▁positive	-10.0121
▁research	-10.0121
▁federal	-10.0121
▁telephone	-10.0121
▁desire	-10.0121
▁shark	-10.0123
▁resist	-10.0123
▁don	-10.0125
▁stood	-10.0126
▁decent	-10.0129
▁boots	-10.0131
▁thousands	-10.0136
▁panic	-10.0136
bar	-10.0143
▁model	-10.0144
▁ski	-10.0152
▁honking	-10.0154
▁shout	-10.0155
▁corn	-10.016
cent	-10.0165
▁rate	-10.0167
▁walls	-10.0173
▁tears	-10.0178
▁growing	-10.0194
fully	-10.0198
▁knees	-10.02
▁sooner	-10.0201
▁younger	-10.0209
▁whistle	-10.021
▁member	-10.021
face	-10.0212
▁warn	-10.0231
gen	-10.0235
▁bel	-10.0236
▁que	-10.024
ko	-10.0249
nic	-10.0254
▁attorney	-10.0264
▁champagne	-10.0264
▁example	-10.0264
▁illegal	-10.0264
▁represent	-10.0264
▁tattoo	-10.0264
▁television	-10.0264
▁tunnel	-10.0264
▁result	-10.0264
▁robbie	-10.0264
▁wreck	-10.0264
▁silver	-10.0264
▁firm	-10.0264
▁blast	-10.0266
▁accus	-10.0267
▁mental	-10.0268
▁wherever	-10.0269
ache	-10.0269
▁warren	-10.027
▁loving	-10.027
▁med	-10.0278
▁mindy	-10.0281
▁sink	-10.0281
▁mercy	-10.0284
▁mile	-10.0289
▁rabbit	-10.0293
▁wha	-10.0295
▁points	-10.0305
za	-10.0308
▁eggs	-10.0313
▁pulling	-10.0317
▁former	-10.0337
▁kicked	-10.0345
▁cookie	-10.0374
izz	-10.0374
read	-10.0374
▁falls	-10.0378
▁skip	-10.038
ei	-10.0387
▁flower	-10.0388
▁jud	-10.0389
▁rig	-10.0392
▁object	-10.0399
▁inform	-10.0407
▁mademoiselle	-10.0409
▁respond	-10.0409
▁becky	-10.0409
▁martha	-10.0409
▁screen	-10.0409
▁article	-10.0409
▁generation	-10.0409
▁stress	-10.041
▁jeez	-10.041
▁hammer	-10.041
▁pump	-10.0411
▁woke	-10.0411
▁coast	-10.0412
▁section	-10.0413
▁yearold	-10.0414
▁thud	-10.0415
▁oliver	-10.0417
▁treated	-10.0418
▁darkness	-10.0418
▁nasty	-10.0423
▁pink	-10.0424
▁direction	-10.0424
▁baron	-10.0427
▁commit	-10.0431
▁healthy	-10.0442
▁grass	-10.0449
▁carlo	-10.045
▁barb	-10.0452
▁cha	-10.0458
▁butter	-10.0463
▁lil	-10.0466
▁shouts	-10.0466
▁roaring	-10.0467
▁bush	-10.0468
▁ol	-10.0469
▁pit	-10.0478
ett	-10.0479
▁attacked	-10.0481
▁led	-10.0492
▁image	-10.0498
▁stan	-10.0499
ith	-10.0501
▁ram	-10.0514
▁roar	-10.0516
ough	-10.0549
▁riding	-10.0551
▁dam	-10.0553
▁fifty	-10.0556
▁grandmother	-10.0556
▁journey	-10.0556
▁orlean	-10.0556
▁russell	-10.0556
▁temple	-10.0556
▁lewis	-10.0556
▁clever	-10.0558
▁jules	-10.0558
▁failure	-10.0559
▁donna	-10.0561
▁engineer	-10.0561
▁lick	-10.0564
▁crown	-10.0565
▁poem	-10.0565
▁charming	-10.0594
▁bail	-10.0598
▁bury	-10.06
▁hen	-10.0604
▁she	-10.0606
▁counter	-10.0608
▁las	-10.0613
▁heavens	-10.0622
▁chap	-10.0634
▁wings	-10.0643
▁bean	-10.0648
▁invite	-10.0666
looking	-10.0688
▁mas	-10.07
▁stab	-10.0704
▁although	-10.0705
▁clamoring	-10.0705
▁disturb	-10.0705
▁material	-10.0705
▁merry	-10.0705
▁ogre	-10.0705
▁presence	-10.0705
▁terrorist	-10.0707
▁winning	-10.0707
▁falco	-10.0707
▁candy	-10.0709
▁junk	-10.071
▁sail	-10.0715
▁fuel	-10.0715
▁josh	-10.0716
▁barn	-10.0718
▁engaged	-10.0721
▁betty	-10.0722
▁cabin	-10.0728
▁tied	-10.0732
▁debt	-10.0735
▁stolen	-10.0738
▁lines	-10.074
▁lean	-10.0747
▁gain	-10.0762
iy	-10.0771
▁fin	-10.0773
▁chat	-10.0795
▁photos	-10.0799
▁emotional	-10.0803
ark	-10.0815
▁passing	-10.0818
▁plates	-10.0826
▁rum	-10.0827
▁sport	-10.0827
▁emma	-10.0841
▁range	-10.0846
tz	-10.0853
▁eventually	-10.0857
▁recommend	-10.0857
▁senior	-10.0857
▁jersey	-10.0857
▁measure	-10.0857
▁kathy	-10.0857
▁closing	-10.0857
▁gym	-10.0857
▁alert	-10.0858
▁juice	-10.0858
▁orange	-10.0858
▁committed	-10.0859
▁online	-10.086
▁linda	-10.086
▁package	-10.0862
▁leo	-10.0863
▁capable	-10.0864
▁secretary	-10.0865
▁recently	-10.0866
▁ox	-10.0891
▁dee	-10.0901
▁para	-10.0901
▁dot	-10.0907
▁host	-10.0907
▁jon	-10.0927
▁core	-10.0953
▁carol	-10.0954
▁egg	-10.097
mar	-10.0973
▁detail	-10.0979
▁odd	-10.098
▁nicky	-10.0982
▁spy	-10.0982
▁fund	-10.0986
▁county	-10.0988
▁product	-10.1005
▁friendly	-10.1005
▁fabulous	-10.1011
▁surrender	-10.1011
▁vietnam	-10.1011
▁jenny	-10.1011
▁nigger	-10.1011
▁mount	-10.1011
▁nerve	-10.1011
▁fucker	-10.1011
▁email	-10.1011
▁ignore	-10.1011
▁transport	-10.1011
▁keith	-10.1012
▁honour	-10.1012
▁francisco	-10.1012
▁squad	-10.1013
▁abby	-10.1014
▁stack	-10.1018
▁planned	-10.1018
▁extremely	-10.1019
▁uhoh	-10.1025
▁bout	-10.1031
▁moral	-10.1043
▁gena	-10.106
▁thy	-10.1078
▁followed	-10.1082
▁rot	-10.1095
ki	-10.1097
▁seek	-10.11
▁doug	-10.1104
▁sniff	-10.1106
▁victims	-10.1113
law	-10.1126
▁mat	-10.1127
▁ali	-10.1128
▁hung	-10.1145
▁zoo	-10.1155
▁cro	-10.1161
▁develop	-10.1163
▁amount	-10.1167
▁apollo	-10.1167
▁ashamed	-10.1167
▁available	-10.1167
▁christopher	-10.1167
▁enemies	-10.1167
▁servant	-10.1167
▁traffic	-10.1167
▁violence	-10.1167
▁international	-10.1167
▁muscle	-10.1167
▁spartacus	-10.1167
▁brush	-10.1167
▁wailing	-10.1167
▁ease	-10.1167
▁virus	-10.1167
▁buried	-10.1167
▁stairs	-10.1167
▁candle	-10.1167
▁sobs	-10.1168
▁clay	-10.1168
▁forgotten	-10.117
▁jew	-10.117
▁drover	-10.1199
▁assure	-10.1208
▁miller	-10.1212
▁twin	-10.1222
▁mace	-10.1234
▁disappeared	-10.1235
lar	-10.1236
▁lily	-10.124
▁rio	-10.1263
▁singer	-10.1266
▁belongs	-10.127
▁invent	-10.1272
▁complain	-10.1288
▁curse	-10.1295
▁realized	-10.1297
▁nat	-10.1303
▁exact	-10.1308
top	-10.1323
▁experiment	-10.1326
▁hollywood	-10.1326
▁jennifer	-10.1326
▁judgment	-10.1326
▁knox	-10.1326
▁ursula	-10.1326
▁rattling	-10.1326
▁violet	-10.1326
▁insult	-10.1326
▁distant	-10.1326
▁jenna	-10.1326
▁outfit	-10.1326
▁chimes	-10.1326
▁cancel	-10.1326
▁basically	-10.1326
▁flik	-10.1328
▁wrap	-10.1328
▁proof	-10.133
▁twist	-10.1331
▁cunt	-10.1331
▁fox	-10.1333
▁ended	-10.1335
▁flies	-10.1337
▁archie	-10.1338
▁benny	-10.1338
▁standard	-10.1343
▁spoken	-10.1348
▁china	-10.1352
▁drum	-10.1357
▁mountains	-10.1361
iest	-10.1368
▁services	-10.138
▁ruined	-10.1397
hu	-10.1402
▁served	-10.1407
▁mustve	-10.1433
▁meaning	-10.145
▁lucas	-10.1474
▁champ	-10.148
▁explosiveskull	-10.1487
▁fashion	-10.1487
▁muffled	-10.1487
▁twelve	-10.1487
▁volunteer	-10.1487
▁gordon	-10.1487
▁hidden	-10.1487
▁swimming	-10.1487
▁todd	-10.1488
▁navy	-10.1488
▁bald	-10.1489
▁atom	-10.1492
▁bounce	-10.1492
▁comment	-10.1494
▁gross	-10.1498
▁delight	-10.1498
my	-10.1502
▁drill	-10.1507
▁carrying	-10.151
▁bot	-10.1511
▁slaves	-10.1522
▁janet	-10.1528
▁fourth	-10.153
▁suffering	-10.1538
▁trained	-10.1551
▁dial	-10.1555
▁rosa	-10.1569
pin	-10.1584
ast	-10.1585
▁slowly	-10.159
▁tick	-10.1594
▁bin	-10.1601
▁theo	-10.1608
▁separate	-10.1611
▁gil	-10.1612
▁cave	-10.1623
▁anti	-10.1635
▁mario	-10.1642
▁transfer	-10.165
mont	-10.165
▁fifteen	-10.1651
▁smoking	-10.1651
▁source	-10.1651
▁augie	-10.1651
▁period	-10.1651
▁shrek	-10.1651
▁shatter	-10.1651
▁assassin	-10.1651
▁haunt	-10.1651
▁device	-10.1652
▁julie	-10.1652
▁baseball	-10.1652
▁helen	-10.1653
▁bernie	-10.1657
▁mal	-10.1657
▁harper	-10.1659
▁prize	-10.1659
▁nor	-10.166
▁foolish	-10.166
▁labor	-10.1661
▁plug	-10.1663
▁details	-10.1685
▁kim	-10.1685
▁fade	-10.1687
▁evan	-10.1714
▁burned	-10.1738
▁dancer	-10.174
▁blowing	-10.1742
▁ci	-10.175
▁pitch	-10.175
▁echo	-10.1762
▁kicking	-10.177
▁closet	-10.1783
▁whip	-10.1788
▁deb	-10.1795
▁covered	-10.1802
▁express	-10.1812
▁comfort	-10.1814
▁flash	-10.1817
▁automated	-10.1817
▁compliment	-10.1817
▁technology	-10.1817
▁breast	-10.1817
▁coughing	-10.1818
▁solid	-10.1818
▁static	-10.1818
▁saint	-10.1818
▁lonnie	-10.1818
▁theory	-10.1821
istic	-10.1823
▁officers	-10.1826
▁tool	-10.1826
▁shine	-10.1854
▁wander	-10.186
▁fallen	-10.1865
▁hire	-10.1869
▁ew	-10.188
▁lap	-10.1881
▁whistles	-10.1881
▁hail	-10.1888
hole	-10.189
▁secrets	-10.1892
▁pm	-10.1893
▁eaten	-10.1906
▁taxi	-10.1945
▁screwed	-10.1954
▁dy	-10.196
ipped	-10.1964
▁par	-10.1966
▁smells	-10.1966
table	-10.1969
▁belle	-10.1973
▁tale	-10.1974
▁effect	-10.1984
▁civil	-10.1985
▁ku	-10.1986
eat	-10.1986
▁describe	-10.1987
▁inspector	-10.1987
▁negative	-10.1987
▁potential	-10.1987
▁suspense	-10.1987
▁interrupt	-10.1987
▁shield	-10.1987
▁wolves	-10.1987
▁moxy	-10.1987
▁reveal	-10.1987
▁laura	-10.1987
▁misery	-10.1987
▁ronny	-10.1989
▁shopping	-10.199
▁leak	-10.1991
▁duke	-10.1993
▁rumor	-10.1995
tte	-10.1995
▁marshall	-10.2001
▁johnson	-10.2002
▁pills	-10.2007
▁term	-10.2007
▁protection	-10.2009
▁rem	-10.2019
▁actor	-10.2029
▁boot	-10.203
▁est	-10.204
▁drawing	-10.2102
▁mentioned	-10.2102
▁ki	-10.2121
what	-10.2141
▁qui	-10.2148
▁sucks	-10.2152
▁files	-10.2159
▁ambulance	-10.2159
▁europe	-10.2159
▁nonsense	-10.2159
▁occasion	-10.2159
▁veronica	-10.2159
▁leigh	-10.2159
▁recover	-10.2161
▁curious	-10.2161
▁precious	-10.2161
▁trapped	-10.2161
▁sheet	-10.2163
▁treatment	-10.2171
▁johnny	-10.2172
▁highway	-10.2172
▁title	-10.2174
▁swan	-10.2174
▁der	-10.2174
▁wallet	-10.2175
▁highness	-10.218
▁customers	-10.2184
▁fort	-10.2185
▁pod	-10.2192
▁nu	-10.2193
▁louise	-10.2194
▁mill	-10.2197
▁moo	-10.2197
▁offered	-10.221
ox	-10.2212
ggle	-10.2213
▁sally	-10.2221
▁hal	-10.2228
▁hunting	-10.2254
▁fully	-10.2259
pot	-10.2269
▁atta	-10.227
▁confirm	-10.2277
▁smaller	-10.2298
▁tag	-10.23
▁string	-10.2306
▁bid	-10.2318
▁bart	-10.2318
▁stealing	-10.2326
▁confess	-10.2328
▁ashley	-10.2335
▁capitol	-10.2335
▁families	-10.2335
▁newspaper	-10.2335
▁satellite	-10.2335
▁emperor	-10.2335
▁mostly	-10.2335
▁paddy	-10.2335
▁warrant	-10.2335
▁electronic	-10.2335
▁boston	-10.2335
▁tits	-10.2335
▁sniffles	-10.2337
▁mulan	-10.2337
▁cattle	-10.2339
▁aboard	-10.2339
▁ships	-10.234
▁squeeze	-10.234
▁applauding	-10.2347
▁toward	-10.2351
▁producer	-10.2352
▁luca	-10.2353
▁allen	-10.2354
▁opened	-10.236
▁leon	-10.2369
▁forty	-10.237
▁hurting	-10.237
▁squeaking	-10.2375
▁neo	-10.2377
▁payne	-10.238
▁chucky	-10.2382
▁psycho	-10.2392
▁eric	-10.2395
▁bev	-10.2398
▁ang	-10.2414
▁gro	-10.2432
▁cameras	-10.2439
▁halt	-10.2448
▁tuk	-10.2453
▁discover	-10.246
▁tax	-10.2465
▁conf	-10.2467
▁vol	-10.2478
▁banks	-10.2493
▁earl	-10.2509
▁airplane	-10.2513
▁florida	-10.2513
▁italian	-10.2513
▁publish	-10.2513
▁review	-10.2513
▁sosuke	-10.2513
▁sunshine	-10.2513
▁llttle	-10.2513
▁towel	-10.2513
▁wendy	-10.2513
▁dozen	-10.2513
▁frost	-10.2513
▁adult	-10.2513
▁moaning	-10.2514
▁ryan	-10.2514
▁convict	-10.2514
▁cosette	-10.2515
▁blanket	-10.2515
▁flush	-10.2518
▁reward	-10.2522
▁colon	-10.2522
ita	-10.2522
▁ger	-10.2524
▁marine	-10.2526
▁touching	-10.2526
▁fence	-10.2527
ology	-10.2536
▁parking	-10.2537
▁july	-10.2538
ito	-10.2543
▁gem	-10.2543
▁rude	-10.2543
▁windows	-10.2544
▁mere	-10.2547
▁odds	-10.255
▁media	-10.2554
▁jess	-10.2574
cho	-10.2585
▁depends	-10.2591
▁warned	-10.2596
▁bond	-10.2598
▁iii	-10.26
▁my	-10.2609
▁chop	-10.2614
▁rolling	-10.2627
▁whoohoo	-10.2633
▁divorce	-10.2655
▁creep	-10.2669
▁dirt	-10.2669
ability	-10.2678
▁jan	-10.2679
▁earn	-10.2682
▁cooking	-10.2684
▁orphan	-10.2695
▁conference	-10.2695
▁holiday	-10.2695
▁incident	-10.2695
▁lloyd	-10.2695
▁rizvan	-10.2695
▁smiling	-10.2695
▁soccer	-10.2695
▁donkey	-10.2695
▁clown	-10.2695
▁miserable	-10.2695
▁torture	-10.2695
▁scoob	-10.2695
▁divide	-10.2695
▁shining	-10.2696
▁dottie	-10.2696
▁reaction	-10.2701
chi	-10.2704
▁chew	-10.2707
▁homework	-10.2716
▁creepy	-10.2722
▁parent	-10.2727
▁cutting	-10.2728
▁reached	-10.2734
▁cleaning	-10.2737
▁corps	-10.2743
▁gee	-10.2746
▁confirmed	-10.2751
▁surely	-10.2756
▁mob	-10.2767
berg	-10.2787
▁badly	-10.2793
▁liz	-10.28
lve	-10.2812
▁connect	-10.2821
▁blessed	-10.2822
▁bleed	-10.2823
▁speakers	-10.2831
▁bend	-10.2852
▁learning	-10.2857
bird	-10.2863
▁plea	-10.2871
▁hoo	-10.2879
▁amelia	-10.288
▁terrific	-10.288
▁ulrich	-10.288
▁unusual	-10.288
▁violent	-10.288
▁pathetic	-10.288
▁studio	-10.288
▁grateful	-10.288
▁vivian	-10.288
▁cheek	-10.288
▁adela	-10.2881
▁internet	-10.2883
▁charley	-10.2884
▁tiger	-10.2884
▁shaw	-10.2894
▁vow	-10.2897
▁murmuring	-10.2899
▁yea	-10.29
jack	-10.2901
▁kissing	-10.2902
▁freaking	-10.2903
▁chu	-10.2904
▁sock	-10.2904
▁classic	-10.2905
▁joint	-10.2911
▁gear	-10.2913
▁com	-10.2923
▁rust	-10.2934
▁fart	-10.2938
▁chad	-10.2938
▁tryin	-10.2941
▁suffer	-10.2956
▁designed	-10.2968
ello	-10.2976
▁movement	-10.2977
▁pam	-10.2981
▁joker	-10.299
ude	-10.2995
lam	-10.301
oon	-10.302
▁crashing	-10.3034
▁remove	-10.3045
▁click	-10.3051
▁prop	-10.3055
▁grunt	-10.3056
▁merc	-10.3065
▁arrange	-10.3066
▁arch	-10.3068
▁financial	-10.3069
▁behave	-10.3069
▁chamber	-10.3069
▁exclaiming	-10.3069
▁intention	-10.3069
▁nicola	-10.3069
▁scientist	-10.3069
▁popular	-10.3069
▁shelter	-10.3069
▁empire	-10.3069
▁pablo	-10.3069
▁cannon	-10.3069
▁thief	-10.3069
▁punk	-10.3069
▁weep	-10.307
▁community	-10.307
▁despi	-10.3071
▁shush	-10.3072
box	-10.3073
▁frame	-10.3074
▁garth	-10.3075
▁maria	-10.3075
▁aside	-10.3076
▁melt	-10.3076
▁award	-10.3079
▁stake	-10.308
▁soup	-10.3083
lock	-10.3084
▁forth	-10.3089
▁yup	-10.3094
▁it	-10.3097
▁fog	-10.3098
▁purge	-10.3103
▁chon	-10.3103
▁shoe	-10.3114
▁angels	-10.3115
▁sports	-10.3115
▁rav	-10.313
▁til	-10.3143
▁ace	-10.3144
▁af	-10.3151
▁prisoners	-10.3155
ically	-10.3157
▁sup	-10.3166
▁selling	-10.3169
▁wasted	-10.3169
▁fran	-10.3179
▁shy	-10.3182
▁recording	-10.3186
▁psych	-10.3198
▁squeal	-10.3202
▁mass	-10.3205
▁helpless	-10.3217
▁boun	-10.3222
▁bullets	-10.3225
▁shi	-10.3228
hhh	-10.3236
▁terms	-10.3257
▁philip	-10.326
▁behavior	-10.3261
▁concentrate	-10.3261
▁education	-10.3261
▁geppetto	-10.3261
▁giggling	-10.3261
▁graduate	-10.3261
▁response	-10.3261
▁survivor	-10.3261
▁underneath	-10.3261
▁escort	-10.3261
▁greek	-10.3261
▁inhales	-10.3261
▁stretch	-10.3261
▁uniform	-10.3261
▁passenger	-10.3261
▁thrill	-10.3261
▁troops	-10.3261
▁fiona	-10.3262
▁johnnie	-10.3262
▁propose	-10.3262
▁shove	-10.3262
▁blink	-10.3263
▁impressed	-10.3263
▁rosie	-10.3263
▁spark	-10.3264
▁rudy	-10.3265
▁keating	-10.3265
▁myth	-10.3265
▁mutt	-10.3266
▁motor	-10.3267
ski	-10.3267
▁porn	-10.3268
▁mobile	-10.3268
▁jessie	-10.3268
▁juan	-10.3269
▁rising	-10.3269
▁owner	-10.3272
▁gim	-10.3287
▁disappointed	-10.3299
▁payment	-10.3312
▁option	-10.3313
▁messed	-10.3334
▁pity	-10.3334
▁members	-10.3334
▁survived	-10.3369
▁based	-10.3374
cious	-10.338
▁fed	-10.338
▁degrees	-10.338
▁mix	-10.3413
▁dive	-10.3414
▁library	-10.3457
▁symbol	-10.3457
▁thursday	-10.3457
▁treasure	-10.3457
▁uncomfortable	-10.3457
▁wednesday	-10.3457
▁relative	-10.3457
▁rufus	-10.3457
▁samantha	-10.3457
▁becoming	-10.3457
▁rodney	-10.3457
▁cherry	-10.3458
▁sheep	-10.3458
▁mortal	-10.3458
▁beverly	-10.3458
▁neighborhood	-10.3458
▁bishop	-10.3458
▁surgery	-10.3459
▁kenai	-10.346
▁chasing	-10.346
▁grey	-10.3461
▁audition	-10.3461
▁silent	-10.3462
▁noble	-10.3464
▁charity	-10.3464
▁whooping	-10.3465
▁agreement	-10.3469
▁visitor	-10.3486
▁spa	-10.3494
▁angela	-10.3496
▁document	-10.3514
▁billion	-10.3518
▁provided	-10.3522
▁pushing	-10.3523
▁bunk	-10.3526
▁stopping	-10.353
▁hated	-10.3532
▁jumped	-10.3542
▁thrown	-10.3555
▁escaped	-10.3559
▁louder	-10.3567
q	-10.3586
▁cart	-10.3652
▁ancient	-10.3657
▁benefit	-10.3657
▁delicious	-10.3657
▁division	-10.3657
▁goldmember	-10.3657
▁jefferson	-10.3657
▁lindsey	-10.3657
▁lynch	-10.3657
▁mexico	-10.3657
▁pupkin	-10.3657
▁establish	-10.3657
▁paradise	-10.3657
▁reserve	-10.3657
▁calvin	-10.3657
▁eagle	-10.3657
▁spoil	-10.3658
▁flank	-10.3658
▁session	-10.3658
▁starving	-10.3658
▁wrestle	-10.3658
▁marcus	-10.3658
▁operator	-10.3658
hoo	-10.3658
▁granny	-10.3658
▁lightning	-10.3658
▁repair	-10.3659
▁pirate	-10.3659
▁golf	-10.3659
▁foster	-10.366
▁whatre	-10.3665
▁io	-10.3667
▁highly	-10.3668
▁iike	-10.3668
▁coke	-10.3678
▁setting	-10.3693
▁badge	-10.3697
▁knocked	-10.3709
beat	-10.3724
shit	-10.3728
ably	-10.3729
▁dc	-10.3735
▁returned	-10.3736
▁kisses	-10.3742
▁carrie	-10.3743
oh	-10.3747
▁dom	-10.3752
▁gloves	-10.3755
▁skills	-10.376
▁guts	-10.3774
▁tub	-10.3785
tom	-10.3786
▁rabbi	-10.382
▁cooper	-10.3828
▁q	-10.3841
▁favour	-10.3861
▁century	-10.3862
▁communication	-10.3862
▁exercise	-10.3862
▁grandfather	-10.3862
▁invitation	-10.3862
▁ominous	-10.3862
▁political	-10.3862
▁revenge	-10.3862
▁satisfied	-10.3862
▁peanut	-10.3862
▁reckon	-10.3862
▁harris	-10.3862
▁mandira	-10.3862
▁trauma	-10.3862
▁flint	-10.3862
▁impression	-10.3862
▁ganda	-10.3862
▁broadway	-10.3863
▁noon	-10.3863
▁salad	-10.3867
▁cleaned	-10.3868
▁selfish	-10.3868
▁theme	-10.3869
▁drones	-10.3871
▁slim	-10.3874
▁moron	-10.3877
▁nun	-10.3889
▁fee	-10.391
▁aa	-10.3914
▁hack	-10.3915
▁lifetime	-10.3923
▁chin	-10.3928
▁scotty	-10.3938
▁cookies	-10.3945
▁wounded	-10.3945
eth	-10.3949
▁joined	-10.3977
stone	-10.3977
▁menu	-10.398
cat	-10.3995
▁carefully	-10.4006
▁site	-10.4013
▁thor	-10.4017
▁options	-10.4017
▁you	-10.402
▁searching	-10.4022
▁convince	-10.403
▁react	-10.4044
▁math	-10.4049
▁possess	-10.4061
udge	-10.4064
▁avenue	-10.407
▁background	-10.407
▁circumstances	-10.407
▁destiny	-10.407
▁matrix	-10.407
▁procedure	-10.407
▁solution	-10.407
▁zombie	-10.407
▁prevent	-10.407
▁quentin	-10.407
▁zeke	-10.407
▁appeal	-10.407
▁miami	-10.407
▁rifle	-10.407
▁impressive	-10.407
▁protest	-10.407
▁specific	-10.4071
▁version	-10.4071
▁mickey	-10.4071
▁urgent	-10.4071
▁delay	-10.4072
▁tee	-10.4074
▁parade	-10.4077
▁accountant	-10.408
▁airline	-10.4084
▁loan	-10.4088
▁rode	-10.4096
▁dating	-10.4097
▁penis	-10.4104
▁clattering	-10.4112
▁tend	-10.4114
▁indi	-10.4118
got	-10.4123
▁painful	-10.4123
▁combat	-10.4135
▁gasp	-10.4138
▁bea	-10.4145
▁degree	-10.4153
tine	-10.4155
▁rear	-10.416
can	-10.4164
▁shadows	-10.418
fall	-10.4181
▁fri	-10.4201
▁rad	-10.421
▁wage	-10.4217
▁doo	-10.4217
▁fairy	-10.4233
▁coin	-10.4239
▁considered	-10.4239
▁drawer	-10.4248
▁bark	-10.4249
▁counting	-10.4253
▁what	-10.4255
▁actual	-10.4265
power	-10.4271
▁traveling	-10.4276
▁axe	-10.4277
▁loyal	-10.428
▁mit	-10.4282
▁attitude	-10.4283
▁lincoln	-10.4283
▁murdock	-10.4283
▁stadium	-10.4283
▁fridge	-10.4283
▁madison	-10.4283
▁mebh	-10.4283
▁steak	-10.4283
▁intend	-10.4283
▁pleasant	-10.4283
▁sweep	-10.4283
▁cowboy	-10.4284
▁cricket	-10.4284
▁cents	-10.4285
▁wrist	-10.4286
▁valley	-10.4287
▁rapid	-10.4288
▁defendant	-10.4289
▁goat	-10.4289
▁heartbeat	-10.4289
▁lii	-10.429
▁upper	-10.4293
▁raid	-10.4306
some	-10.4306
cal	-10.4311
▁angeles	-10.4314
▁cries	-10.4316
▁dreamed	-10.4327
▁wayne	-10.4331
▁rocket	-10.4339
▁vice	-10.4343
▁prim	-10.4345
▁blown	-10.4366
tric	-10.4371
▁beside	-10.4379
▁parker	-10.4391
iff	-10.4405
ique	-10.4425
▁cure	-10.4435
town	-10.448
▁distract	-10.4488
▁sul	-10.4488
▁affect	-10.449
rick	-10.4492
▁alcohol	-10.45
▁behalf	-10.45
▁helmet	-10.45
▁instrument	-10.45
▁opposite	-10.45
▁reputation	-10.45
▁resident	-10.45
▁struggle	-10.45
▁museum	-10.45
▁routine	-10.45
▁wizard	-10.45
▁honeymoon	-10.45
▁governor	-10.45
▁marvin	-10.45
▁cassie	-10.45
▁sentinel	-10.45
▁downtown	-10.4501
▁thump	-10.4501
▁mummy	-10.4501
▁woodhouse	-10.4503
▁obs	-10.4503
▁jared	-10.4504
▁garage	-10.4504
▁uhuh	-10.4504
▁arrangement	-10.4504
▁slide	-10.4505
▁habit	-10.4505
▁leap	-10.4505
▁lazy	-10.4506
▁thirsty	-10.4508
▁flu	-10.4509
▁weii	-10.451
▁eu	-10.451
▁poop	-10.4511
▁saul	-10.4513
▁heck	-10.4516
▁tele	-10.4519
▁buzzes	-10.4523
▁mil	-10.4527
▁answering	-10.4533
▁tori	-10.4554
▁receive	-10.4561
▁the	-10.4577
▁tink	-10.4582
▁managed	-10.4586
▁kin	-10.4589
▁shu	-10.4603
▁armed	-10.4606
▁messing	-10.4612
▁fore	-10.4617
▁nut	-10.4635
cina	-10.4644
▁finest	-10.4645
▁banging	-10.4646
▁allie	-10.4684
▁painted	-10.4697
bag	-10.4704
phone	-10.4712
▁author	-10.4718
like	-10.4719
▁bigweld	-10.4722
▁creaks	-10.4722
▁easily	-10.4722
▁expensive	-10.4722
▁ordinary	-10.4722
▁rochester	-10.4722
▁therapy	-10.4722
▁drift	-10.4722
▁pashto	-10.4722
▁spencer	-10.4722
▁constant	-10.4722
▁reggie	-10.4722
▁chorus	-10.4722
▁snack	-10.4722
▁kelly	-10.4722
▁costume	-10.4722
▁intern	-10.4723
▁hobbs	-10.4723
▁instructions	-10.4723
▁waitress	-10.4723
▁auction	-10.4724
▁massage	-10.4725
▁lemon	-10.4725
▁brick	-10.4726
▁howard	-10.4727
▁bored	-10.4728
▁doorbell	-10.4729
▁hush	-10.4732
▁swell	-10.4741
▁directly	-10.4751
▁dna	-10.4755
▁embarrassing	-10.4767
▁protector	-10.4767
▁whit	-10.4772
▁when	-10.4773
▁asset	-10.4777
▁sim	-10.4795
▁loudly	-10.4804
ula	-10.4819
▁cheating	-10.4832
▁pile	-10.4834
▁skill	-10.4841
▁scan	-10.4844
▁loaded	-10.4848
▁successful	-10.4853
▁casey	-10.487
▁wishes	-10.4872
▁leading	-10.4873
keeper	-10.4878
▁documents	-10.4884
▁howl	-10.4892
▁loo	-10.4892
▁frighten	-10.4896
▁comb	-10.4897
maker	-10.4901
fish	-10.4912
▁produce	-10.4927
▁makeup	-10.4935
position	-10.4943
▁zip	-10.4944
▁approve	-10.495
▁catherine	-10.495
▁conduct	-10.495
▁exchange	-10.495
▁gekko	-10.495
▁inspire	-10.495
▁league	-10.495
▁mysterious	-10.495
▁vioiet	-10.495
▁wrestling	-10.495
▁explode	-10.495
▁unknown	-10.495
▁allison	-10.495
▁bargain	-10.495
▁clifford	-10.495
▁jaeger	-10.495
▁argue	-10.495
▁policy	-10.495
▁supply	-10.495
▁novel	-10.495
▁permit	-10.495
▁surface	-10.495
▁contest	-10.495
▁flirt	-10.495
▁locate	-10.4951
▁robby	-10.4952
▁accent	-10.4953
▁shaking	-10.4953
▁lousy	-10.4954
▁begun	-10.4954
▁chapter	-10.4955
▁conlon	-10.4955
▁jury	-10.4955
▁unlock	-10.4956
▁abuse	-10.4957
▁thou	-10.4958
▁fold	-10.4958
▁practically	-10.4958
▁potter	-10.4959
▁motion	-10.4959
▁ronit	-10.496
▁axel	-10.4962
▁humor	-10.4963
▁minor	-10.4966
▁teenager	-10.4967
▁dl	-10.4978
▁poet	-10.4979
▁boil	-10.498
▁farmer	-10.4985
▁beth	-10.4985
▁mall	-10.4985
▁surrounded	-10.4987
▁lip	-10.4989
▁peg	-10.4995
▁betrayed	-10.4999
fuck	-10.5019
▁earned	-10.502
▁toss	-10.5025
▁entirely	-10.5047
▁dreaming	-10.5047
▁asp	-10.5053
▁charm	-10.5055
▁auto	-10.5069
▁chuckle	-10.5093
▁studying	-10.5095
▁bam	-10.5098
▁inn	-10.5104
▁pretending	-10.5112
▁joining	-10.5113
▁clar	-10.514
▁asses	-10.515
form	-10.5154
▁tut	-10.5158
grade	-10.5168
▁yay	-10.5171
life	-10.5179
▁drama	-10.5181
▁recruit	-10.5182
▁shrink	-10.5182
▁archbishop	-10.5182
▁coincidence	-10.5182
▁crassus	-10.5182
▁exhaust	-10.5182
▁higgins	-10.5182
▁murdoch	-10.5182
▁nullah	-10.5182
▁wealth	-10.5182
▁dolphin	-10.5182
▁offense	-10.5182
▁splash	-10.5182
▁anytime	-10.5182
▁communicate	-10.5182
▁gwen	-10.5182
▁temper	-10.5182
▁random	-10.5182
▁theater	-10.5182
▁cruel	-10.5182
▁element	-10.5182
▁impact	-10.5182
▁strict	-10.5182
▁personnel	-10.5182
draic	-10.5182
▁sunset	-10.5183
▁smee	-10.5184
▁attractive	-10.5184
▁fetch	-10.5185
▁diane	-10.5189
▁potatoes	-10.519
▁franklin	-10.5191
▁eve	-10.5195
▁function	-10.5196
▁trace	-10.5196
wick	-10.5197
▁belly	-10.5199
▁improv	-10.5199
▁miri	-10.5204
▁trailer	-10.5228
▁ammo	-10.5228
▁steven	-10.523
▁cub	-10.5237
▁palm	-10.5239
▁roz	-10.524
▁parties	-10.5252
▁landing	-10.5259
▁ticking	-10.5266
▁spending	-10.5268
▁depend	-10.5277
five	-10.5304
▁delivered	-10.5305
▁dock	-10.5308
lson	-10.5313
▁lame	-10.5336
▁pub	-10.5354
▁rank	-10.5362
▁gotcha	-10.537
▁tin	-10.5385
▁unh	-10.5398
▁marshal	-10.5401
▁faint	-10.5403
▁clip	-10.5404
▁africa	-10.5405
▁mae	-10.5408
place	-10.5413
▁achieve	-10.542
▁trevor	-10.542
▁withdraw	-10.542
▁fifth	-10.542
▁multiple	-10.542
▁traitor	-10.542
▁houston	-10.542
▁renfield	-10.542
▁status	-10.542
▁stroke	-10.542
▁balance	-10.542
▁breach	-10.542
▁berlin	-10.542
▁izzy	-10.542
▁whooshing	-10.542
▁activate	-10.542
▁hustle	-10.542
▁basic	-10.542
▁insect	-10.5421
▁favourite	-10.5421
▁glenn	-10.5422
▁wives	-10.5422
▁employee	-10.5422
▁ofthe	-10.5423
▁offend	-10.5423
▁chopper	-10.5423
▁estate	-10.5424
▁puff	-10.5425
▁ellie	-10.5426
▁height	-10.5428
▁scum	-10.543
▁craft	-10.5433
▁roommate	-10.5433
▁bible	-10.5436
▁skies	-10.544
▁burst	-10.544
▁christian	-10.544
▁passion	-10.5455
▁terr	-10.5459
▁task	-10.5461
▁bono	-10.5465
▁angle	-10.547
▁ave	-10.5476
▁useless	-10.5476
▁paulie	-10.5478
▁mixed	-10.5486
▁victoria	-10.5492
four	-10.5512
▁realise	-10.5512
▁dia	-10.552
▁fixing	-10.555
▁stark	-10.555
but	-10.5599
▁ai	-10.5601
▁rebel	-10.5602
▁diet	-10.5616
▁net	-10.5644
▁speaker	-10.5645
▁sca	-10.5647
▁medic	-10.5648
▁counsel	-10.5657
▁beef	-10.5659
▁alejandro	-10.5664
▁ceremony	-10.5664
▁equipment	-10.5664
▁imagination	-10.5664
▁puzzle	-10.5664
▁skull	-10.5664
▁unhappy	-10.5664
▁chamberlain	-10.5664
▁dallas	-10.5664
▁maureen	-10.5664
▁reverend	-10.5664
▁robbery	-10.5664
▁capital	-10.5664
▁fentry	-10.5664
▁remote	-10.5664
▁monitor	-10.5664
▁pattern	-10.5664
▁sauce	-10.5664
▁cindy	-10.5664
▁snoring	-10.5664
▁threatened	-10.5664
▁shore	-10.5664
▁activity	-10.5664
▁freezing	-10.5664
ologist	-10.5665
▁langford	-10.5665
▁kiii	-10.5666
▁pillar	-10.5668
▁gerty	-10.5668
▁flea	-10.5668
▁thls	-10.5669
▁cuff	-10.5671
▁viola	-10.5672
▁tourist	-10.5674
▁cities	-10.5674
▁broad	-10.5677
▁headache	-10.5677
▁shane	-10.5677
▁nino	-10.5678
▁retired	-10.5684
▁fianc	-10.5691
▁humanity	-10.5694
▁reasonable	-10.5704
▁hatch	-10.5719
▁frightened	-10.5722
▁delivery	-10.5729
▁jude	-10.5738
▁sew	-10.5739
▁demo	-10.5746
▁emotion	-10.5751
▁gray	-10.5752
▁lane	-10.5781
▁enjoying	-10.5786
▁sie	-10.5832
▁bun	-10.5848
▁crashed	-10.585
▁betray	-10.586
▁trail	-10.5876
▁ut	-10.5878
▁epi	-10.5896
▁packed	-10.5908
▁rag	-10.5911
▁detect	-10.5912
ograph	-10.5914
▁assignment	-10.5914
▁beckett	-10.5914
▁beneath	-10.5914
▁broadcast	-10.5914
▁gallegos	-10.5914
▁hebrew	-10.5914
▁misunderstand	-10.5914
▁terribly	-10.5914
▁whinnies	-10.5914
▁intense	-10.5914
▁mammy	-10.5914
▁merrin	-10.5914
▁retreat	-10.5914
▁jazz	-10.5914
▁maintain	-10.5914
▁anchor	-10.5914
▁thumb	-10.5914
▁luigi	-10.5914
▁mankind	-10.5915
▁marcel	-10.5915
▁update	-10.5915
▁hahaha	-10.5915
▁bernard	-10.5916
▁poetry	-10.5918
▁performance	-10.5919
▁karate	-10.5919
▁owns	-10.5919
▁cabinet	-10.592
▁merger	-10.592
▁papi	-10.5921
▁diana	-10.5923
▁gabe	-10.5923
▁guardian	-10.5924
▁glow	-10.5924
▁bucket	-10.5925
▁diner	-10.5925
▁cady	-10.5926
▁armand	-10.5926
▁vent	-10.5927
▁morse	-10.5931
▁dj	-10.5932
▁liesel	-10.5933
▁entry	-10.5935
▁brent	-10.5936
▁gino	-10.5939
▁friendship	-10.594
▁mock	-10.5941
▁globe	-10.5943
▁sack	-10.5948
▁ranger	-10.5967
▁pushed	-10.5969
▁gunn	-10.597
▁assist	-10.5975
▁highest	-10.5983
▁connected	-10.5987
▁deny	-10.6001
▁shave	-10.6006
▁wr	-10.6024
▁bass	-10.6027
▁gig	-10.6028
▁gall	-10.6049
▁opera	-10.6051
▁timing	-10.606
▁dip	-10.6063
▁bitches	-10.607
▁hitch	-10.6073
▁spec	-10.6084
▁float	-10.611
▁squeak	-10.6112
headed	-10.6119
atory	-10.6162
▁invest	-10.6167
▁assault	-10.6171
▁associate	-10.6171
▁council	-10.6171
▁distress	-10.6171
▁facility	-10.6171
▁fairfax	-10.6171
▁handwriting	-10.6171
▁include	-10.6171
▁instinct	-10.6171
▁intelligence	-10.6171
▁jordan	-10.6171
▁pacific	-10.6171
▁perimeter	-10.6171
▁trunk	-10.6171
▁gamble	-10.6171
▁quote	-10.6171
▁false	-10.6171
▁wallace	-10.6171
▁jiro	-10.6171
▁centre	-10.6171
▁error	-10.6171
▁laurie	-10.6171
▁zain	-10.6171
▁concert	-10.6171
▁cried	-10.6172
▁connie	-10.6172
▁flashlight	-10.6172
▁cliff	-10.6172
▁choking	-10.6173
▁philippe	-10.6173
▁struck	-10.6173
▁electricity	-10.6173
▁begging	-10.6173
▁supper	-10.6174
▁bugger	-10.6174
▁jewish	-10.6174
▁tanner	-10.6174
▁series	-10.6174
▁effective	-10.6175
▁admire	-10.6175
▁medication	-10.6176
▁unique	-10.6177
▁unlike	-10.6177
▁counselor	-10.6178
▁tribe	-10.6178
▁filthy	-10.6178
▁grid	-10.6178
▁villain	-10.6179
▁footage	-10.618
▁arlo	-10.6185
▁wore	-10.6186
▁recall	-10.6186
▁currently	-10.6187
▁heather	-10.6191
▁lois	-10.6191
▁perry	-10.6192
▁neat	-10.6197
▁tess	-10.6197
▁determined	-10.6199
▁dep	-10.6201
▁laying	-10.6208
▁thas	-10.6211
▁officially	-10.6214
▁embarrassed	-10.6218
▁hitting	-10.6221
▁stare	-10.6227
▁prisoner	-10.6228
▁straighten	-10.6236
▁hugh	-10.6238
▁clap	-10.6265
▁beep	-10.6271
▁teaching	-10.6281
▁howdy	-10.6284
eight	-10.6343
▁danced	-10.636
▁tire	-10.6361
▁corpse	-10.6368
▁blessing	-10.6369
▁fisher	-10.6377
▁jab	-10.6399
▁custom	-10.6402
star	-10.6404
▁shared	-10.6406
▁weigh	-10.6408
▁honk	-10.6418
▁tuck	-10.6418
bound	-10.6423
▁advantage	-10.6434
▁architect	-10.6434
▁consequence	-10.6434
▁custody	-10.6434
▁episode	-10.6434
▁extraordinary	-10.6434
▁harvard	-10.6434
▁inaudible	-10.6434
▁individual	-10.6434
▁intelligent	-10.6434
▁kuzco	-10.6434
▁perfume	-10.6434
▁unconscious	-10.6434
▁unicorn	-10.6434
▁university	-10.6434
▁vampire	-10.6434
▁beloved	-10.6434
▁congress	-10.6434
▁reject	-10.6434
▁signature	-10.6434
▁instant	-10.6434
▁angelica	-10.6434
▁disaster	-10.6434
▁obey	-10.6434
▁oath	-10.6434
▁spear	-10.6434
▁daryn	-10.6434
▁daily	-10.6434
▁forbidden	-10.6434
▁organization	-10.6434
▁oops	-10.6434
▁wasting	-10.6434
▁engagement	-10.6436
▁paperwork	-10.6436
▁childhood	-10.6437
▁announcement	-10.6437
▁plot	-10.6437
▁replace	-10.6437
▁denny	-10.6437
▁bingo	-10.6438
▁dun	-10.6438
▁poppy	-10.6439
▁sammy	-10.6441
▁weakness	-10.6442
▁jewel	-10.6444
▁chili	-10.6445
▁gaston	-10.6446
▁brianna	-10.6446
▁quant	-10.6448
▁rita	-10.6448
▁memo	-10.645
▁fever	-10.645
▁elise	-10.645
▁dope	-10.6452
▁ability	-10.646
▁alter	-10.6474
▁hunger	-10.6478
bell	-10.6486
▁thee	-10.649
▁grind	-10.6491
▁peaceful	-10.6495
▁role	-10.6515
▁sandy	-10.6516
▁momma	-10.6521
▁mistaken	-10.6555
▁weed	-10.6581
▁gram	-10.6601
▁washed	-10.6601
bit	-10.6616
▁sum	-10.6618
▁hump	-10.6622
▁deeper	-10.6638
▁punish	-10.6646
▁butch	-10.6657
▁capture	-10.6664
▁manny	-10.6677
▁accepted	-10.6684
▁gus	-10.6686
▁current	-10.6686
▁lex	-10.6686
school	-10.6686
▁oi	-10.67
▁entertain	-10.67
▁employ	-10.6701
ification	-10.6702
▁basket	-10.6704
▁commercial	-10.6704
▁disgrace	-10.6704
▁happiness	-10.6704
▁meredith	-10.6704
▁nuclear	-10.6704
▁puppet	-10.6704
▁sensitive	-10.6704
▁tragedy	-10.6704
▁accomplish	-10.6704
▁embrace	-10.6704
▁initiat	-10.6704
▁melody	-10.6704
▁turkey	-10.6704
▁bubble	-10.6704
▁creative	-10.6704
▁generous	-10.6704
▁pulse	-10.6704
▁confusing	-10.6704
▁revving	-10.6704
▁stream	-10.6704
▁amara	-10.6704
▁willie	-10.6704
▁briony	-10.6704
▁thrust	-10.6704
▁knot	-10.6704
▁await	-10.6704
▁thick	-10.6704
▁resume	-10.6704
▁harlan	-10.6704
▁sample	-10.6705
▁rotten	-10.6706
▁burden	-10.6706
▁moans	-10.6706
▁hattie	-10.6707
▁maura	-10.6707
▁burger	-10.6708
▁massive	-10.6708
▁convention	-10.6708
▁zack	-10.6709
▁upside	-10.6709
▁doris	-10.6709
▁stripper	-10.671
▁mud	-10.6711
▁javi	-10.6712
▁suite	-10.6712
▁electrical	-10.6713
▁caii	-10.6713
▁blah	-10.6715
▁possession	-10.6716
▁slice	-10.6716
▁dull	-10.6723
▁battery	-10.6723
▁arne	-10.6723
▁weston	-10.6724
▁witches	-10.6733
▁painter	-10.6735
▁tart	-10.6739
▁naturally	-10.6742
▁properly	-10.6747
▁musical	-10.6758
▁divorced	-10.6764
▁useful	-10.677
▁haul	-10.6773
▁kab	-10.6774
▁suffered	-10.6782
while	-10.6783
▁laser	-10.6789
▁passes	-10.6799
▁echoing	-10.68
▁announce	-10.6818
▁dealer	-10.682
▁busted	-10.6833
▁settled	-10.6839
▁solo	-10.6882
▁arse	-10.6908
▁folk	-10.6921
▁disappoint	-10.6925
▁formal	-10.6936
▁tradition	-10.6951
▁electric	-10.6969
▁bern	-10.6975
▁yank	-10.698
▁ay	-10.698
▁refer	-10.6981
▁relation	-10.6981
▁hysterical	-10.6982
▁interpret	-10.6982
▁disagree	-10.6982
▁doughnut	-10.6982
▁eternal	-10.6982
▁halloween	-10.6982
▁invisible	-10.6982
▁katherine	-10.6982
▁moustache	-10.6982
▁phantom	-10.6982
▁underwear	-10.6982
▁agency	-10.6982
▁autobot	-10.6982
▁bennett	-10.6982
▁instance	-10.6982
▁raymond	-10.6982
▁visual	-10.6982
▁jorge	-10.6982
▁hyah	-10.6982
▁patrol	-10.6982
▁fenton	-10.6982
▁superior	-10.6982
▁ouch	-10.6982
▁factory	-10.6982
▁llke	-10.6982
▁pork	-10.6982
▁facing	-10.6982
▁terrified	-10.6982
▁drain	-10.6982
▁mmmmmm	-10.6982
▁lyla	-10.6983
▁ladder	-10.6985
▁civilian	-10.6985
▁dolan	-10.6985
▁existence	-10.6985
▁balloon	-10.6985
▁authority	-10.6986
▁preach	-10.6986
▁youth	-10.6987
▁romance	-10.6988
▁erik	-10.6989
▁foul	-10.6989
▁ripped	-10.6991
▁herr	-10.6992
▁ridge	-10.6994
▁oak	-10.6996
▁spill	-10.6996
▁taxes	-10.7
▁grove	-10.7003
▁fraud	-10.7005
▁barnes	-10.7005
▁spain	-10.701
▁hut	-10.7018
itating	-10.7022
▁ranch	-10.7026
▁brie	-10.703
▁bait	-10.7031
▁apply	-10.7033
hood	-10.7037
▁carson	-10.707
▁boxes	-10.7071
will	-10.7082
aaa	-10.7092
▁meantime	-10.7103
▁gathered	-10.7108
▁india	-10.7111
uk	-10.714
▁tent	-10.7165
▁asia	-10.7169
▁esti	-10.7172
▁mmmm	-10.7191
▁advise	-10.7227
fire	-10.7228
▁kl	-10.723
▁immediate	-10.725
know	-10.725
two	-10.7255
▁francis	-10.7264
▁arrival	-10.7267
▁brooklyn	-10.7267
▁doolittle	-10.7267
▁encourage	-10.7267
▁finnick	-10.7267
▁hannibal	-10.7267
▁lorraine	-10.7267
▁navorski	-10.7267
▁occur	-10.7267
▁squirrel	-10.7267
▁theseus	-10.7267
▁ultimate	-10.7267
▁homosexual	-10.7267
▁immortal	-10.7267
▁kidnapping	-10.7267
▁phillip	-10.7267
▁slaughter	-10.7267
▁purchase	-10.7267
▁negro	-10.7267
▁smack	-10.7267
▁motive	-10.7267
▁scheme	-10.7267
▁couch	-10.7268
▁wrapped	-10.7268
▁ferry	-10.7268
▁italy	-10.7268
▁daesu	-10.7268
▁deaf	-10.7268
▁brutal	-10.7268
▁profit	-10.7268
▁kyle	-10.7268
▁oscar	-10.7268
▁worm	-10.7268
▁estimate	-10.7268
▁columbia	-10.7268
▁increase	-10.7268
▁avenge	-10.7269
▁grantham	-10.7269
▁flood	-10.727
▁recent	-10.7271
▁dunne	-10.7271
▁loyalty	-10.7271
▁koba	-10.7271
▁passport	-10.7272
▁flew	-10.7272
▁lyle	-10.7272
▁bacon	-10.7274
▁coordinates	-10.7274
▁buff	-10.7274
▁appearance	-10.7275
▁severe	-10.7276
▁root	-10.7279
▁magician	-10.7281
▁cora	-10.7285
horn	-10.729
▁alley	-10.7291
terior	-10.7294
ada	-10.7299
▁pace	-10.7313
▁diego	-10.7317
▁dug	-10.7332
▁fist	-10.7344
job	-10.7357
▁mode	-10.7368
▁eeri	-10.7386
▁dough	-10.7389
▁spine	-10.7401
▁camel	-10.7402
poli	-10.7428
▁foundation	-10.7446
▁embarrass	-10.7449
▁wel	-10.7455
sky	-10.7482
▁frankie	-10.7486
▁virginia	-10.7491
spect	-10.7494
▁clatter	-10.7503
▁commission	-10.7506
nine	-10.7528
▁dang	-10.7541
point	-10.7545
girl	-10.7546
▁acc	-10.7556
▁stamp	-10.756
▁argument	-10.7562
▁bialystock	-10.7562
▁dinosaur	-10.7562
▁eleven	-10.7562
▁environment	-10.7562
▁fabietto	-10.7562
▁infected	-10.7562
▁joseph	-10.7562
▁kaiju	-10.7562
▁liberty	-10.7562
▁manhattan	-10.7562
▁merlyn	-10.7562
▁pancakes	-10.7562
▁proposal	-10.7562
▁similar	-10.7562
▁structure	-10.7562
▁surveillance	-10.7562
▁survival	-10.7562
▁underground	-10.7562
▁creek	-10.7562
▁curtain	-10.7562
▁patience	-10.7562
▁permanent	-10.7562
▁quality	-10.7562
▁sacred	-10.7562
▁vodka	-10.7562
▁profile	-10.7562
▁relief	-10.7562
▁polite	-10.7562
▁kirk	-10.7562
▁conquer	-10.7562
▁spray	-10.7562
▁demonstrat	-10.7562
▁wicked	-10.7562
▁ivy	-10.7562
▁justin	-10.7562
▁clapping	-10.7563
▁hostile	-10.7563
▁concept	-10.7564
▁colour	-10.7564
▁knightley	-10.7565
▁teii	-10.7565
▁species	-10.7566
▁expose	-10.7566
▁related	-10.7568
▁stall	-10.7568
▁choke	-10.7569
▁acid	-10.757
▁beings	-10.7571
▁passage	-10.7579
▁mayday	-10.7582
▁copies	-10.7588
▁ava	-10.7599
tta	-10.7601
▁poll	-10.7602
▁goodnight	-10.7602
▁medal	-10.7603
▁bash	-10.7604
▁abandoned	-10.7608
▁sharply	-10.7609
▁cooperate	-10.761
▁adopted	-10.7613
▁kiddo	-10.7614
▁convinced	-10.7619
▁armor	-10.7619
▁carried	-10.7622
▁latest	-10.7641
▁whale	-10.7642
▁unable	-10.7644
▁refused	-10.7646
▁aj	-10.7647
▁normally	-10.7657
▁rage	-10.7658
▁sniffing	-10.7673
▁shitty	-10.7768
▁kat	-10.7824
▁glob	-10.783
▁sucker	-10.7843
▁bio	-10.7844
▁incredibl	-10.7845
▁lovin	-10.7852
mission	-10.7858
▁customer	-10.7859
▁ambush	-10.7865
▁cocktail	-10.7865
▁elephant	-10.7865
▁explanation	-10.7865
▁fingerprint	-10.7865
▁injured	-10.7865
▁mackenzie	-10.7865
▁marvelous	-10.7865
▁motorcycle	-10.7865
▁plague	-10.7865
▁politics	-10.7865
▁protocol	-10.7865
▁serving	-10.7865
▁technique	-10.7865
▁vallejo	-10.7865
▁divine	-10.7865
▁exhibit	-10.7865
▁inherit	-10.7865
▁stevie	-10.7865
▁dignity	-10.7865
▁pepper	-10.7865
▁april	-10.7865
▁chloe	-10.7865
▁crisis	-10.7865
▁martian	-10.7865
▁editor	-10.7865
▁trinity	-10.7865
▁gemini	-10.7865
▁inspiration	-10.7865
▁worship	-10.7865
▁fourteen	-10.7865
▁eben	-10.7865
▁ankle	-10.7865
▁harass	-10.7865
▁spider	-10.7865
▁northern	-10.7865
▁jelly	-10.7865
▁civilization	-10.7865
▁denied	-10.7865
▁jodie	-10.7865
▁isolat	-10.7865
▁fireworks	-10.7865
▁network	-10.7865
▁piease	-10.7865
▁greed	-10.7866
▁pill	-10.7866
▁collar	-10.7866
▁multi	-10.7866
▁feast	-10.7867
▁isabelle	-10.7867
▁adjust	-10.7867
▁nathan	-10.7868
▁spoon	-10.7868
▁latin	-10.7869
▁nerd	-10.7869
▁imitate	-10.787
▁ditch	-10.787
▁stiff	-10.787
cept	-10.7871
▁robinson	-10.7871
▁tessa	-10.7872
▁critical	-10.7872
▁freddy	-10.7873
▁norman	-10.7875
▁elder	-10.7876
▁technically	-10.7876
▁regan	-10.7877
▁inches	-10.7877
▁purse	-10.7878
▁churchill	-10.7879
▁dodg	-10.7881
▁explorer	-10.7885
▁jock	-10.7885
▁colm	-10.7886
▁broom	-10.789
▁brace	-10.7895
▁booth	-10.7897
▁annoying	-10.7898
▁toll	-10.7899
▁raw	-10.7912
▁mist	-10.7916
▁hua	-10.7927
▁dearest	-10.7932
▁beau	-10.7937
▁complaint	-10.7937
▁ul	-10.7939
▁fried	-10.7945
▁cursed	-10.7949
▁von	-10.7951
self	-10.7955
▁squealing	-10.7959
▁dresses	-10.7967
▁rape	-10.7982
▁erin	-10.8
▁requested	-10.8006
▁wwe	-10.8031
▁frankly	-10.8046
▁filed	-10.8052
▁driven	-10.8084
▁margo	-10.8087
bone	-10.8098
post	-10.8111
▁adopt	-10.8123
▁strap	-10.8135
burg	-10.8139
▁journal	-10.815
▁condo	-10.8159
mouth	-10.8161
▁constitution	-10.8177
▁almighty	-10.8177
▁bachelor	-10.8177
▁cinderella	-10.8177
▁colleague	-10.8177
▁dessert	-10.8177
▁gambling	-10.8177
▁greece	-10.8177
▁harriet	-10.8177
▁harvest	-10.8177
▁magnificent	-10.8177
▁olivia	-10.8177
▁privacy	-10.8177
▁religious	-10.8177
▁therapist	-10.8177
▁therefore	-10.8177
▁translating	-10.8177
▁tremendous	-10.8177
▁whiskey	-10.8177
▁assigned	-10.8177
▁promotion	-10.8177
▁savage	-10.8177
▁tigger	-10.8177
▁companion	-10.8177
▁elbow	-10.8177
▁couid	-10.8177
▁ganz	-10.8177
▁tempt	-10.8177
▁cotton	-10.8177
▁irene	-10.8177
▁sodom	-10.8177
▁sarge	-10.8177
▁adele	-10.8177
▁distort	-10.8178
▁declare	-10.8178
▁authorities	-10.8178
▁yelp	-10.8178
▁hayes	-10.8178
▁genetic	-10.8178
▁vital	-10.8178
▁sparta	-10.8178
▁plumber	-10.8179
▁maniac	-10.8179
▁phase	-10.8179
▁saddle	-10.8179
▁surgeon	-10.818
▁webb	-10.8181
▁poker	-10.8183
▁draft	-10.8184
▁crook	-10.8185
▁nearby	-10.8185
▁nazi	-10.8185
▁bolt	-10.8185
▁myers	-10.8189
▁soak	-10.8189
▁dropping	-10.8193
▁kris	-10.8197
▁vail	-10.8201
▁classical	-10.8201
▁rice	-10.8206
▁dash	-10.8207
▁chart	-10.8214
▁scale	-10.8215
▁there	-10.8217
▁straining	-10.8218
▁witnesses	-10.8223
▁haha	-10.8224
▁cape	-10.8224
▁comic	-10.823
▁matches	-10.8234
▁blonde	-10.8238
▁taik	-10.8238
▁punished	-10.824
▁rug	-10.8242
▁removed	-10.8244
▁rex	-10.8261
▁badger	-10.8265
▁gary	-10.8288
▁brady	-10.8296
▁cory	-10.8298
▁inch	-10.8318
▁sip	-10.8375
▁whisper	-10.8427
▁screech	-10.8429
with	-10.8439
▁surround	-10.8446
▁ness	-10.8448
woman	-10.848
▁conc	-10.8482
▁extreme	-10.8482
▁deposit	-10.8484
weight	-10.8491
play	-10.8493
▁greet	-10.8498
ological	-10.8499
▁essential	-10.85
▁alakay	-10.85
▁australia	-10.85
▁babysitter	-10.85
▁cavalry	-10.85
▁culture	-10.85
▁decepticon	-10.85
▁faggot	-10.85
▁fantasy	-10.85
▁frozen	-10.85
▁maurice	-10.85
▁principle	-10.85
▁reception	-10.85
▁reservation	-10.85
▁strawberry	-10.85
▁temporary	-10.85
▁complex	-10.85
▁inject	-10.85
▁joanna	-10.85
▁meeks	-10.85
▁powder	-10.85
▁scotch	-10.85
▁anderson	-10.85
▁purple	-10.85
▁register	-10.85
▁relieve	-10.85
▁typical	-10.85
▁wlth	-10.85
▁extend	-10.85
▁nigel	-10.85
▁trump	-10.85
▁noisy	-10.85
▁mercedes	-10.85
▁focker	-10.85
▁predict	-10.85
▁mouse	-10.85
▁lottery	-10.85
▁transform	-10.8501
▁cecilia	-10.8501
▁canada	-10.8501
▁construction	-10.8501
▁breed	-10.8502
▁aircraft	-10.8502
▁andand	-10.8504
▁korea	-10.8504
▁depth	-10.8504
▁avery	-10.8504
▁fluid	-10.8504
▁titan	-10.8505
▁rustling	-10.8505
▁terror	-10.8506
▁classified	-10.8506
force	-10.8507
▁commitment	-10.8507
▁hallway	-10.8508
▁drone	-10.8508
▁owned	-10.8514
▁limb	-10.8515
▁mick	-10.8515
▁clone	-10.8516
▁drew	-10.8517
▁hans	-10.8518
▁halfway	-10.8522
▁clive	-10.8524
▁tt	-10.8524
shot	-10.8526
▁discussion	-10.8527
▁superman	-10.8549
▁suggestion	-10.8551
▁gin	-10.8554
▁prep	-10.8557
▁tender	-10.8559
▁paw	-10.8568
▁sixth	-10.8578
▁separated	-10.858
▁darn	-10.8583
▁unto	-10.8588
▁dime	-10.8591
▁invented	-10.861
▁classes	-10.8623
walk	-10.8652
▁jay	-10.8656
▁vari	-10.8671
▁sweater	-10.8679
▁slap	-10.8724
havin	-10.8734
year	-10.8755
▁entr	-10.8811
craft	-10.8812
▁absolute	-10.8815
▁russia	-10.8819
▁potato	-10.8821
▁attract	-10.8822
▁soph	-10.8827
▁prior	-10.883
▁anniversary	-10.8833
▁beiieve	-10.8833
▁breeze	-10.8833
▁campaign	-10.8833
▁disguise	-10.8833
▁exclusive	-10.8833
▁headquarters	-10.8833
▁hephaistion	-10.8833
▁klump	-10.8833
▁margaret	-10.8833
▁mermaid	-10.8833
▁mexican	-10.8833
▁possibility	-10.8833
▁sponsor	-10.8833
▁territory	-10.8833
▁execute	-10.8833
▁feather	-10.8833
▁foxxy	-10.8833
▁investigate	-10.8833
▁snowflake	-10.8833
▁stereo	-10.8833
▁tournament	-10.8833
▁wouid	-10.8833
▁clinking	-10.8833
▁valuable	-10.8833
▁jessica	-10.8833
▁vagina	-10.8833
▁legacy	-10.8833
▁druun	-10.8833
▁modern	-10.8833
▁buddies	-10.8833
▁derek	-10.8833
▁travis	-10.8833
▁motel	-10.8833
▁skirt	-10.8833
▁heip	-10.8833
▁method	-10.8833
▁barrel	-10.8833
▁pym	-10.8833
▁racing	-10.8834
▁dripping	-10.8834
▁dishes	-10.8834
▁karl	-10.8834
▁pony	-10.8834
▁declan	-10.8834
▁pillow	-10.8835
▁transferred	-10.8835
▁creed	-10.8835
▁assistance	-10.8836
▁select	-10.8836
▁decade	-10.8836
▁reverse	-10.8836
▁backwards	-10.8836
▁goose	-10.8836
▁bluestar	-10.8837
tell	-10.8837
▁replacement	-10.8837
▁capone	-10.8838
▁bert	-10.8839
▁hostage	-10.884
▁promote	-10.884
▁kano	-10.8842
▁crow	-10.8843
▁arab	-10.8843
▁slut	-10.8846
▁hopefully	-10.8847
▁kara	-10.8847
▁manual	-10.8848
▁collection	-10.8848
▁objection	-10.8848
▁peck	-10.8848
▁dido	-10.8853
▁luis	-10.8857
▁bedtime	-10.8858
▁lena	-10.8862
▁pge	-10.8866
▁missile	-10.8867
▁pran	-10.8873
▁internal	-10.8873
▁define	-10.8877
▁duh	-10.888
▁sighing	-10.8884
▁flop	-10.8887
▁butcher	-10.8894
▁beam	-10.8898
▁judy	-10.8901
▁magical	-10.8902
▁flap	-10.8904
▁heroes	-10.8904
▁marion	-10.8906
▁thus	-10.8924
▁dim	-10.894
▁cello	-10.8951
▁soo	-10.8959
▁signor	-10.8979
night	-10.8987
▁sean	-10.9009
after	-10.9031
▁gran	-10.9035
ogan	-10.9069
talk	-10.9073
▁abandon	-10.9124
worth	-10.916
stick	-10.9171
▁depart	-10.9174
class	-10.9174
▁blank	-10.9175
▁forbid	-10.9177
▁abilene	-10.9178
▁alleged	-10.9178
▁anxious	-10.9178
▁byrd	-10.9178
▁candidate	-10.9178
▁catholic	-10.9178
▁collapse	-10.9178
▁domestic	-10.9178
▁fabric	-10.9178
▁fulfill	-10.9178
▁happily	-10.9178
▁heffalump	-10.9178
▁intensifies	-10.9178
▁lawsuit	-10.9178
▁opponent	-10.9178
▁poirot	-10.9178
▁portuguese	-10.9178
▁practicing	-10.9178
▁pronounce	-10.9178
▁succeed	-10.9178
▁supreme	-10.9178
▁thompson	-10.9178
▁unexpected	-10.9178
▁crunch	-10.9178
▁darlene	-10.9178
▁gloria	-10.9178
▁identify	-10.9178
▁japan	-10.9178
▁kidnapped	-10.9178
▁mumbling	-10.9178
▁nargle	-10.9178
▁population	-10.9178
▁weasel	-10.9178
▁perseus	-10.9178
▁tribute	-10.9178
▁election	-10.9178
▁koopa	-10.9178
▁narrator	-10.9178
▁rainbow	-10.9178
▁scatter	-10.9178
▁praise	-10.9178
▁becker	-10.9178
▁chunk	-10.9178
▁interfere	-10.9178
▁sixteen	-10.9178
▁vault	-10.9178
▁expense	-10.9178
▁titties	-10.9178
▁fecking	-10.9178
▁clinch	-10.9178
▁retard	-10.9178
▁irish	-10.9178
▁incoming	-10.9178
▁reduce	-10.9178
▁robbed	-10.9178
▁muttering	-10.9178
▁oui	-10.9178
▁psychological	-10.9178
▁yacht	-10.9178
▁cartoon	-10.9179
▁ceo	-10.918
▁thudding	-10.918
▁youyou	-10.918
▁pickering	-10.9181
identified	-10.9181
▁capcom	-10.9182
▁nolan	-10.9182
▁formula	-10.9183
▁utter	-10.9183
▁tramp	-10.9184
▁coma	-10.9184
▁koda	-10.9184
▁precisely	-10.9185
▁gaga	-10.9187
▁packard	-10.9188
▁villagers	-10.919
▁screeches	-10.919
▁flatter	-10.9192
▁puss	-10.9192
▁iook	-10.9192
▁inez	-10.9193
▁compare	-10.9193
▁affection	-10.9193
order	-10.9194
▁kimi	-10.9201
▁panel	-10.9208
aries	-10.9208
▁label	-10.921
▁jaw	-10.9213
▁boz	-10.9215
▁jamie	-10.9224
▁soil	-10.9225
▁captured	-10.923
▁grin	-10.9239
▁carney	-10.9241
▁erm	-10.9247
▁slit	-10.9247
▁restore	-10.925
▁swat	-10.927
▁mainly	-10.927
▁musician	-10.9271
▁endless	-10.9273
▁policeman	-10.9279
case	-10.9304
▁cf	-10.9348
▁seize	-10.9362
▁mai	-10.943
term	-10.9434
▁era	-10.9475
this	-10.9492
▁determine	-10.9495
foot	-10.9523
born	-10.9524
▁critic	-10.9526
▁confident	-10.9534
ization	-10.9535
▁aggressive	-10.9535
▁ambassador	-10.9535
▁ambrosia	-10.9535
▁apologies	-10.9535
▁approximately	-10.9535
▁autograph	-10.9535
▁awkward	-10.9535
▁believing	-10.9535
▁casual	-10.9535
▁circus	-10.9535
▁confidence	-10.9535
▁desmond	-10.9535
▁dispatch	-10.9535
▁dracula	-10.9535
▁fugitive	-10.9535
▁geoghan	-10.9535
▁graduation	-10.9535
▁influence	-10.9535
▁november	-10.9535
▁oxygen	-10.9535
▁philadelphia	-10.9535
▁politician	-10.9535
▁refuge	-10.9535
▁shrieks	-10.9535
▁stammers	-10.9535
▁stauffenberg	-10.9535
▁suspend	-10.9535
▁wisdom	-10.9535
▁dismissed	-10.9535
▁heimish	-10.9535
▁laundry	-10.9535
▁patriot	-10.9535
▁shaggy	-10.9535
▁hampton	-10.9535
▁radiation	-10.9535
▁bruise	-10.9535
▁szell	-10.9535
▁buffalo	-10.9535
▁giggles	-10.9535
▁identity	-10.9535
▁dalton	-10.9535
▁album	-10.9535
▁depressed	-10.9535
▁pistol	-10.9535
▁einon	-10.9535
▁peasant	-10.9535
▁southern	-10.9535
style	-10.9535
▁indicate	-10.9535
▁micro	-10.9536
▁gertie	-10.9536
▁mamma	-10.9536
▁stanford	-10.9536
▁reese	-10.9536
▁addict	-10.9537
▁quarterback	-10.9537
▁tragic	-10.9537
▁entrance	-10.9537
▁retirement	-10.9538
▁stuart	-10.9538
▁herb	-10.9539
▁vicious	-10.9539
▁humble	-10.9539
▁passionate	-10.9539
▁extract	-10.954
▁springtime	-10.954
▁adore	-10.954
▁riddle	-10.954
▁investment	-10.954
▁confirmation	-10.9544
▁heath	-10.9545
▁solar	-10.9546
▁tide	-10.9553
▁expression	-10.9554
▁raven	-10.9555
▁satan	-10.9556
▁jill	-10.956
ittie	-10.9562
▁trish	-10.9563
▁journalist	-10.9566
▁modest	-10.957
▁wink	-10.958
▁attached	-10.9583
▁runner	-10.9592
▁drawn	-10.9596
▁commissioner	-10.9603
iness	-10.9617
▁shutter	-10.9647
▁chet	-10.9656
▁mustnt	-10.9681
▁wei	-10.9682
about	-10.9691
▁operate	-10.97
▁closest	-10.9715
▁duel	-10.9755
▁viva	-10.9797
range	-10.9843
▁engage	-10.9862
▁involve	-10.9866
▁jun	-10.9867
▁zoe	-10.9879
▁now	-10.9879
knock	-10.9888
▁grip	-10.989
▁groan	-10.9895
▁kilo	-10.9902
▁urge	-10.9904
▁academy	-10.9905
▁anonymous	-10.9905
▁appropriate	-10.9905
▁compromise	-10.9905
▁disrespect	-10.9905
▁embassy	-10.9905
▁explosive	-10.9905
▁fascinating	-10.9905
▁fortunate	-10.9905
▁grenouille	-10.9905
▁happier	-10.9905
▁krakozhia	-10.9905
▁nephew	-10.9905
▁oblige	-10.9905
▁obsessed	-10.9905
▁principal	-10.9905
▁privilege	-10.9905
▁receipt	-10.9905
▁rendezvous	-10.9905
▁skank	-10.9905
▁squawking	-10.9905
▁vegetable	-10.9905
▁average	-10.9905
▁companies	-10.9905
▁orchestra	-10.9905
▁republic	-10.9905
▁triumph	-10.9905
▁flavor	-10.9905
▁grazie	-10.9905
▁kronk	-10.9905
▁liquid	-10.9905
▁quigley	-10.9905
▁statue	-10.9905
▁tissue	-10.9905
▁initial	-10.9905
▁randall	-10.9905
▁vespa	-10.9905
▁evelyn	-10.9905
▁shotgun	-10.9905
▁dentist	-10.9905
▁sworn	-10.9905
▁lyons	-10.9905
▁shaft	-10.9905
▁consult	-10.9905
▁hastings	-10.9905
▁reign	-10.9905
▁porch	-10.9906
▁pervert	-10.9906
▁oven	-10.9906
▁flick	-10.9906
▁apology	-10.9906
▁authorized	-10.9907
▁overnight	-10.9907
▁stampler	-10.9907
▁bratt	-10.9908
▁morrison	-10.9908
▁yankee	-10.9909
▁begged	-10.9909
▁championship	-10.9909
▁remarkable	-10.9909
▁ulla	-10.9909
▁dutch	-10.991
▁sidewalk	-10.991
▁expand	-10.991
▁arrow	-10.991
▁punishment	-10.991
▁sharon	-10.991
retti	-10.991
▁hissing	-10.9911
▁hesitate	-10.9911
▁chaos	-10.9911
▁pitts	-10.9912
▁grill	-10.9912
▁clinic	-10.9913
▁franz	-10.9914
▁extraction	-10.9915
▁alike	-10.9915
▁wiii	-10.9915
▁pike	-10.9916
▁soap	-10.9917
▁production	-10.9919
▁poppa	-10.992
▁kong	-10.9922
▁babo	-10.9923
▁slot	-10.9923
▁claw	-10.9924
▁shelley	-10.9927
▁examine	-10.9927
▁fitting	-10.9928
▁baba	-10.9929
▁sniper	-10.9932
▁sitka	-10.9932
▁region	-10.9935
▁hoke	-10.9942
▁advised	-10.9958
▁acknowledge	-10.9959
▁vest	-10.9963
▁vine	-10.9977
▁inner	-10.9982
▁perfection	-10.9987
▁sonny	-10.9988
▁sore	-10.9989
▁tit	-11.0003
▁nest	-11.0007
▁vet	-11.0009
▁marie	-11.0015
▁shep	-11.0028
▁ami	-11.003
▁pose	-11.0046
▁fii	-11.0054
▁hash	-11.007
▁cable	-11.0088
▁agh	-11.011
▁boost	-11.0113
▁moi	-11.0151
▁fang	-11.0152
▁ml	-11.0176
▁seq	-11.0204
▁sigh	-11.0229
▁brun	-11.0262
▁unfortunate	-11.0272
world	-11.0272
▁olive	-11.0277
six	-11.0278
▁sittin	-11.0279
▁batter	-11.0285
▁overwhelm	-11.029
▁atmosphere	-11.029
▁burlington	-11.029
▁celebrating	-11.029
▁descend	-11.029
▁enormous	-11.029
▁fletcher	-11.029
▁length	-11.029
▁oglethorpe	-11.029
▁particip	-11.029
▁pilgrim	-11.029
▁religion	-11.029
▁ritual	-11.029
▁throughout	-11.029
▁trespass	-11.029
▁valkyrie	-11.029
▁vengeance	-11.029
▁vessel	-11.029
nahnahnah	-11.029
▁diploma	-11.029
▁mattiece	-11.029
▁twitter	-11.029
▁belief	-11.029
▁handcuff	-11.029
▁stephanie	-11.029
▁willow	-11.029
▁grief	-11.029
▁studied	-11.029
▁clucking	-11.029
▁jensen	-11.029
▁darius	-11.029
▁blush	-11.029
▁widow	-11.029
▁sphere	-11.029
▁drank	-11.029
▁everdeen	-11.029
▁senate	-11.029
▁spike	-11.029
▁tomato	-11.029
▁altar	-11.029
▁branch	-11.029
▁cycl	-11.029
▁slick	-11.029
▁gently	-11.029
▁vocalizing	-11.029
▁stitch	-11.029
▁disconnect	-11.0291
▁carrot	-11.0291
▁orbit	-11.0291
▁password	-11.0291
▁conscious	-11.0291
▁patrick	-11.0292
▁lutz	-11.0292
▁turtle	-11.0293
▁slipped	-11.0294
▁crick	-11.0295
▁sync	-11.0295
▁typing	-11.0295
▁sharing	-11.0296
▁hopper	-11.0296
▁digging	-11.0297
▁radar	-11.0299
▁development	-11.0299
uppper	-11.0299
▁grownup	-11.0299
▁percy	-11.0299
▁horsemen	-11.0301
▁geez	-11.0302
▁chan	-11.0303
▁macho	-11.0303
▁spice	-11.0303
▁exam	-11.0304
▁grandson	-11.0305
▁tooth	-11.0306
▁forgiveness	-11.0306
▁spotted	-11.0308
▁cmon	-11.0309
▁chow	-11.0312
▁personality	-11.0315
ucci	-11.0317
▁wax	-11.0319
▁scent	-11.0323
▁coup	-11.0325
▁geek	-11.0326
▁benson	-11.0328
▁forgetting	-11.035
▁tube	-11.0378
▁metro	-11.039
▁pole	-11.0436
guard	-11.0669
▁alfred	-11.0675
burn	-11.0675
▁audit	-11.0683
ibility	-11.069
▁afterwards	-11.069
▁apologise	-11.069
▁astronaut	-11.069
▁barbecue	-11.069
▁broccoli	-11.069
▁bulgarian	-11.069
▁competition	-11.069
▁dedicated	-11.069
▁dialogue	-11.069
▁eternity	-11.069
▁garrison	-11.069
▁harbor	-11.069
▁imprint	-11.069
▁infection	-11.069
▁institution	-11.069
▁isaac	-11.069
▁knives	-11.069
▁lisbeth	-11.069
▁luggage	-11.069
▁michelle	-11.069
▁miraculous	-11.069
▁oldfashioned	-11.069
▁previous	-11.069
▁residence	-11.069
▁supplies	-11.069
▁suspicious	-11.069
▁valentine	-11.069
▁deploy	-11.069
▁luthor	-11.069
▁mistress	-11.069
▁rhode	-11.069
▁sausage	-11.069
▁analyst	-11.069
▁brazil	-11.069
▁macedonia	-11.069
▁regiment	-11.069
▁addition	-11.069
▁butler	-11.069
▁butterfly	-11.069
▁committee	-11.069
▁conflict	-11.069
▁cruise	-11.069
▁keeley	-11.069
▁lobby	-11.069
▁pookie	-11.069
▁leather	-11.069
▁sensation	-11.069
▁evacuate	-11.069
▁lecture	-11.069
▁motherfucking	-11.069
▁cease	-11.069
▁creating	-11.069
▁cardinal	-11.069
▁stabbed	-11.069
▁worn	-11.069
▁duties	-11.069
▁creation	-11.069
▁crank	-11.069
▁dragged	-11.069
▁ifyou	-11.069
▁causing	-11.069
▁steam	-11.069
▁cathy	-11.069
▁cadet	-11.069
▁scholarship	-11.069
▁chiming	-11.069
▁digital	-11.069
▁jasper	-11.069
▁invade	-11.069
▁carpet	-11.069
▁translate	-11.0691
▁intercept	-11.0691
▁mitchell	-11.0691
▁backyard	-11.0691
▁stain	-11.0691
▁reference	-11.0692
▁suitcase	-11.0692
▁display	-11.0693
▁skylar	-11.0694
▁nadine	-11.0694
▁batteries	-11.0694
▁salmon	-11.0694
▁lamb	-11.0694
▁entertainment	-11.0695
▁roast	-11.0696
▁mansfield	-11.0696
tempo	-11.0697
▁tango	-11.0698
▁lindy	-11.0698
▁luke	-11.0702
▁consent	-11.0704
▁alfredo	-11.0705
▁limp	-11.0706
▁confession	-11.0706
▁coleman	-11.0706
▁native	-11.0707
▁sailor	-11.0708
▁shack	-11.0711
▁elton	-11.0715
▁sanders	-11.0719
▁madness	-11.072
▁faintly	-11.072
▁lowry	-11.0721
▁marian	-11.0736
▁paco	-11.0741
▁active	-11.0746
quit	-11.0754
▁monk	-11.0755
▁attach	-11.0799
▁intel	-11.0818
miss	-11.082
▁pinch	-11.0823
▁quest	-11.0858
▁buttle	-11.0972
stage	-11.1037
▁shoo	-11.1048
▁explore	-11.1079
▁mornin	-11.1094
▁egypt	-11.1105
▁appetite	-11.1107
▁barricade	-11.1107
▁bonjour	-11.1107
▁celebration	-11.1107
▁cherevin	-11.1107
▁conscience	-11.1107
▁corridor	-11.1107
▁entitled	-11.1107
▁executive	-11.1107
▁furniture	-11.1107
▁giulia	-11.1107
▁godfrey	-11.1107
▁groceries	-11.1107
▁harvey	-11.1107
▁homicide	-11.1107
▁horizon	-11.1107
▁humiliate	-11.1107
▁iraq	-11.1107
▁mcbride	-11.1107
▁naughty	-11.1107
▁neighing	-11.1107
▁prostitute	-11.1107
▁siobh	-11.1107
▁splendid	-11.1107
▁treasury	-11.1107
▁tshirt	-11.1107
▁becca	-11.1107
▁dreadful	-11.1107
▁gideon	-11.1107
▁hooyah	-11.1107
▁lobster	-11.1107
▁minimum	-11.1107
▁snatch	-11.1107
▁software	-11.1107
▁emmett	-11.1107
▁generator	-11.1107
▁itsits	-11.1107
▁melinda	-11.1107
▁rogue	-11.1107
▁overcome	-11.1107
▁submit	-11.1107
▁vomit	-11.1107
▁carriage	-11.1107
▁abbey	-11.1107
▁corky	-11.1107
▁psychiatri	-11.1107
▁edgar	-11.1107
▁marius	-11.1107
▁mutant	-11.1107
▁niece	-11.1107
▁chemical	-11.1107
▁megan	-11.1107
▁clothing	-11.1107
▁ashes	-11.1107
▁donald	-11.1107
▁western	-11.1107
▁narrow	-11.1107
▁content	-11.1107
▁annual	-11.1107
▁assuming	-11.1107
▁briefcase	-11.1107
▁thorough	-11.1108
▁isabella	-11.1108
▁excitement	-11.1108
▁destruction	-11.1108
▁confidential	-11.1108
▁confusion	-11.1109
▁violation	-11.1109
▁youii	-11.1109
▁tanya	-11.1109
▁steer	-11.1109
▁sector	-11.111
▁bodyguard	-11.111
▁lizard	-11.111
▁waltz	-11.1111
▁earring	-11.1111
▁item	-11.1111
▁tension	-11.1112
▁herd	-11.1112
▁rattle	-11.1113
▁booze	-11.1113
▁cafe	-11.1114
▁lockwood	-11.1115
▁accidentally	-11.1115
▁toot	-11.1115
▁attic	-11.1116
▁barrow	-11.1116
▁murphy	-11.1116
▁delta	-11.1118
▁elias	-11.1119
▁lima	-11.1123
▁minus	-11.1125
▁heii	-11.1126
▁distraction	-11.113
▁african	-11.1133
▁chant	-11.1138
▁legat	-11.1141
▁worthless	-11.1145
▁itch	-11.1148
▁vous	-11.1151
▁traditional	-11.1153
▁torn	-11.1157
▁barry	-11.1161
▁rake	-11.1192
▁tries	-11.1193
▁devi	-11.1202
aux	-11.1252
▁mau	-11.1254
▁thug	-11.1261
▁loop	-11.1409
master	-11.1476
▁guilt	-11.1515
▁walt	-11.1528
▁movin	-11.1529
▁accompany	-11.1541
▁ambition	-11.1541
▁analysis	-11.1541
▁application	-11.1541
▁brixton	-11.1541
▁coconut	-11.1541
▁deborah	-11.1541
▁description	-11.1541
▁glorious	-11.1541
▁grasshopper	-11.1541
▁haymitch	-11.1541
▁infinite	-11.1541
▁lindsay	-11.1541
▁negotiate	-11.1541
▁platform	-11.1541
▁prescription	-11.1541
▁prosecutor	-11.1541
▁resolve	-11.1541
▁rhyme	-11.1541
▁script	-11.1541
▁semester	-11.1541
▁shakespeare	-11.1541
▁shakily	-11.1541
▁spazzatura	-11.1541
▁vulnerable	-11.1541
▁absurd	-11.1541
▁agador	-11.1541
▁cocaine	-11.1541
▁historical	-11.1541
▁katrine	-11.1541
▁kendall	-11.1541
▁forensic	-11.1541
▁loxley	-11.1541
▁audio	-11.1541
▁volume	-11.1541
▁crystal	-11.1541
▁lambert	-11.1541
▁mortar	-11.1541
▁salute	-11.1541
▁yunger	-11.1541
▁guinea	-11.1541
▁oyster	-11.1541
▁dovid	-11.1541
▁cradle	-11.1541
▁pledge	-11.1541
▁nickname	-11.1542
▁zach	-11.1542
▁gallery	-11.1542
▁terminal	-11.1542
▁clyde	-11.1542
▁dennis	-11.1542
▁eema	-11.1542
▁silk	-11.1542
▁spank	-11.1542
▁plastic	-11.1542
▁crib	-11.1542
▁larson	-11.1542
▁eastern	-11.1542
▁heep	-11.1542
▁raising	-11.1542
▁loomis	-11.1542
▁transplant	-11.1542
▁claus	-11.1542
▁particle	-11.1542
▁grabbed	-11.1542
▁blouse	-11.1542
▁aisle	-11.1542
▁bold	-11.1542
▁preston	-11.1542
▁observe	-11.1543
▁lucie	-11.1543
▁cotys	-11.1543
▁ansel	-11.1544
▁uptown	-11.1544
▁graham	-11.1546
▁reset	-11.1548
▁piglet	-11.1548
▁stallion	-11.1548
▁brew	-11.1552
▁fanny	-11.1553
▁pickett	-11.1554
▁grape	-11.1557
▁bonus	-11.1561
▁gps	-11.1562
speed	-11.1564
▁mechanical	-11.1565
▁quitting	-11.1568
cloth	-11.1569
▁maiden	-11.1578
▁bowers	-11.1581
shop	-11.1603
who	-11.1668
▁communi	-11.1699
▁condom	-11.1719
▁scrub	-11.1776
▁herm	-11.191
▁strain	-11.1937
▁snipe	-11.1963
▁numb	-11.1965
▁knuckle	-11.197
▁technical	-11.1978
▁practical	-11.1978
minute	-11.1978
▁balcony	-11.1996
▁brigade	-11.1996
▁corporal	-11.1996
▁davinier	-11.1996
▁eeyore	-11.1996
▁evaluation	-11.1996
▁evolution	-11.1996
▁evolve	-11.1996
▁fountain	-11.1996
▁gracias	-11.1996
▁johanna	-11.1996
▁liquor	-11.1996
▁mississippi	-11.1996
▁mulwray	-11.1996
▁namaari	-11.1996
▁novalee	-11.1996
▁olympic	-11.1996
▁refrigerator	-11.1996
▁reynolds	-11.1996
▁riordan	-11.1996
▁scenario	-11.1996
▁temperature	-11.1996
▁testimony	-11.1996
▁tokyo	-11.1996
▁contaminat	-11.1996
▁inviting	-11.1996
▁lunatic	-11.1996
▁ministry	-11.1996
▁picnic	-11.1996
▁adorable	-11.1996
▁bluff	-11.1996
▁cortez	-11.1996
▁dummy	-11.1996
▁horror	-11.1996
▁sherwood	-11.1996
▁zuba	-11.1996
▁baggage	-11.1996
▁carlisle	-11.1996
▁razor	-11.1996
▁sarris	-11.1996
▁velma	-11.1996
▁farewell	-11.1996
▁graeme	-11.1996
▁warehouse	-11.1996
▁lounge	-11.1996
▁pencil	-11.1996
▁google	-11.1996
▁income	-11.1996
▁allyson	-11.1996
▁debbie	-11.1996
▁sunrise	-11.1996
▁bouncing	-11.1996
▁saverio	-11.1996
▁token	-11.1996
▁retain	-11.1996
▁leaf	-11.1996
▁judging	-11.1996
▁frog	-11.1996
▁imperial	-11.1996
▁dragging	-11.1996
▁lunar	-11.1996
▁lgby	-11.1996
▁robbing	-11.1996
▁absence	-11.1996
▁scoot	-11.1997
▁salesman	-11.1997
▁transmission	-11.1997
▁parole	-11.1997
▁twentyfive	-11.1997
▁banana	-11.1998
▁basis	-11.1998
▁dining	-11.1999
▁inquir	-11.1999
▁dunno	-11.2
▁stanley	-11.2001
▁commence	-11.2001
▁snowball	-11.2001
▁fiction	-11.2002
▁compete	-11.2002
▁programmed	-11.2002
▁piggy	-11.2003
▁clayton	-11.2003
▁slack	-11.2004
▁reflection	-11.2006
▁spotlight	-11.2006
▁skinny	-11.2007
▁pimp	-11.2007
▁strut	-11.2008
▁amongst	-11.2009
▁seattle	-11.2009
▁groom	-11.2009
▁riley	-11.2009
▁plow	-11.2014
▁monet	-11.2018
▁soda	-11.202
lift	-11.2028
▁lsnt	-11.2029
▁toto	-11.203
▁lamp	-11.2045
dependent	-11.2078
▁scam	-11.2163
lov	-11.2177
think	-11.2186
▁lexi	-11.2233
▁ego	-11.2294
▁retire	-11.2429
▁teenage	-11.2436
▁frau	-11.2439
turn	-11.2444
▁stead	-11.2452
child	-11.2455
piece	-11.2462
fold	-11.2471
▁alternative	-11.2472
▁altitude	-11.2472
▁armstrong	-11.2472
▁asylum	-11.2472
▁atlantic	-11.2472
▁automatic	-11.2472
▁biscuit	-11.2472
▁certificate	-11.2472
▁chelsea	-11.2472
▁hagrid	-11.2472
▁hallelujah	-11.2472
▁heinrich	-11.2472
▁hurricane	-11.2472
▁industry	-11.2472
▁kragen	-11.2472
▁linderman	-11.2472
▁longstreet	-11.2472
▁malfunction	-11.2472
▁mccormack	-11.2472
▁muslim	-11.2472
▁mutual	-11.2472
▁napoleon	-11.2472
▁optimus	-11.2472
▁platoon	-11.2472
▁psychopath	-11.2472
▁quarantine	-11.2472
▁rebuild	-11.2472
▁retrieve	-11.2472
▁sequence	-11.2472
▁sylvia	-11.2472
▁tiffany	-11.2472
▁treason	-11.2472
▁amateur	-11.2472
▁ceiling	-11.2472
▁compassion	-11.2472
▁educate	-11.2472
▁fiddle	-11.2472
▁galaxy	-11.2472
▁massacre	-11.2472
▁shrimp	-11.2472
▁sleeve	-11.2472
▁tornado	-11.2472
▁column	-11.2472
▁hydra	-11.2472
▁toxic	-11.2472
▁combination	-11.2472
▁martial	-11.2472
▁beatrice	-11.2472
▁dominic	-11.2472
▁preparing	-11.2472
▁wabac	-11.2472
▁pamela	-11.2472
▁clacking	-11.2472
▁linnet	-11.2472
▁orient	-11.2472
▁outrage	-11.2472
▁thisll	-11.2472
▁boogey	-11.2472
▁hobby	-11.2472
▁jinx	-11.2472
▁rumbles	-11.2472
▁swore	-11.2472
▁essay	-11.2472
▁throne	-11.2472
▁presume	-11.2472
▁harsh	-11.2472
▁arena	-11.2472
▁otis	-11.2472
▁hottest	-11.2472
▁chord	-11.2473
▁serum	-11.2473
▁scumbag	-11.2473
▁duncan	-11.2473
▁asap	-11.2473
▁summon	-11.2473
▁ramses	-11.2474
▁pension	-11.2475
▁skate	-11.2475
▁mellow	-11.2475
▁darwin	-11.2475
▁tackle	-11.2476
▁primary	-11.2476
▁trading	-11.2476
seven	-11.2477
▁operating	-11.2477
▁katia	-11.2477
▁kiah	-11.2477
▁instructor	-11.2478
▁hades	-11.2478
▁feedback	-11.2478
▁sanford	-11.2478
▁bonnie	-11.2478
▁joyner	-11.2478
▁keyboard	-11.2479
▁hooting	-11.2479
▁abortion	-11.248
▁pbs	-11.248
▁admiral	-11.2481
▁moonlight	-11.2481
▁bertie	-11.2482
▁kenton	-11.2482
▁objective	-11.2482
▁haircut	-11.2482
▁harmless	-11.2483
▁whys	-11.2483
▁duct	-11.2484
▁limo	-11.2487
▁vika	-11.2488
▁mitch	-11.2491
▁flaw	-11.2491
▁meow	-11.2492
▁saber	-11.2494
▁puke	-11.2498
▁mason	-11.25
▁jax	-11.2504
▁demi	-11.2511
tip	-11.2545
iggly	-11.2685
fusion	-11.2711
write	-11.2794
watch	-11.2861
▁blond	-11.2875
▁admir	-11.2953
yearold	-11.2954
▁coordinat	-11.2961
▁surge	-11.2964
▁corrupt	-11.2964
▁administration	-11.2972
▁allergic	-11.2972
▁battalion	-11.2972
▁blanchard	-11.2972
▁burmese	-11.2972
▁cambodia	-11.2972
▁continent	-11.2972
▁correspond	-11.2972
▁cynthia	-11.2972
▁december	-11.2972
▁dispute	-11.2972
▁fragile	-11.2972
▁fredricksen	-11.2972
▁griffin	-11.2972
▁introduction	-11.2972
▁invasion	-11.2972
▁juilliard	-11.2972
▁kumandra	-11.2972
▁metaphor	-11.2972
▁morpheus	-11.2972
▁pennsylvania	-11.2972
▁refresh	-11.2972
▁rehearsal	-11.2972
▁sentimental	-11.2972
▁shannon	-11.2972
▁shrieking	-11.2972
▁solemn	-11.2972
▁somewhat	-11.2972
▁tranquil	-11.2972
▁twilight	-11.2972
▁virtue	-11.2972
▁walmart	-11.2972
▁wheelchair	-11.2972
▁wrinkle	-11.2972
▁yosille	-11.2972
▁beware	-11.2972
▁claude	-11.2972
▁compound	-11.2972
▁enlighten	-11.2972
▁exploit	-11.2972
▁install	-11.2972
▁kennedy	-11.2972
▁phrase	-11.2972
▁portrait	-11.2972
▁delicate	-11.2972
▁hawaii	-11.2972
▁milady	-11.2972
▁penthouse	-11.2972
▁abbess	-11.2972
▁finkle	-11.2972
▁groove	-11.2972
▁kovic	-11.2972
▁penalty	-11.2972
▁sorrow	-11.2972
▁garvin	-11.2972
▁grunion	-11.2972
▁choosing	-11.2972
▁landlord	-11.2972
▁amaze	-11.2972
▁excess	-11.2972
▁wilderness	-11.2972
▁xray	-11.2972
▁bloke	-11.2972
▁scandal	-11.2972
▁canyon	-11.2972
▁izzi	-11.2972
▁leash	-11.2972
▁granddad	-11.2972
▁magua	-11.2972
▁lodge	-11.2972
▁cramp	-11.2972
▁shaving	-11.2972
▁yield	-11.2972
▁waving	-11.2973
▁hawk	-11.2973
▁ellen	-11.2973
▁courtesy	-11.2973
▁tweet	-11.2973
▁francs	-11.2973
▁llama	-11.2973
▁chores	-11.2973
▁dorm	-11.2974
▁crisp	-11.2974
▁stepped	-11.2974
▁fond	-11.2974
▁egyptian	-11.2975
▁rlght	-11.2975
▁pluck	-11.2975
▁psst	-11.2976
▁iggy	-11.2976
▁denise	-11.2976
▁behold	-11.2977
▁priority	-11.2977
▁aaah	-11.2977
▁denial	-11.2978
▁leadership	-11.2979
▁testify	-11.298
▁finance	-11.298
▁whatll	-11.2981
▁fading	-11.2982
▁tutar	-11.2982
▁spacecom	-11.2982
▁amuse	-11.2983
▁subway	-11.2983
▁attraction	-11.2984
▁debate	-11.2984
▁thread	-11.2984
▁salary	-11.2985
▁blend	-11.2987
▁ripping	-11.2987
▁shook	-11.2989
▁lime	-11.2993
▁brax	-11.2999
relia	-11.3055
high	-11.3146
▁semi	-11.323
▁persia	-11.3291
▁erase	-11.3299
▁annoy	-11.3442
called	-11.3456
daughter	-11.3481
kick	-11.3494
▁cigar	-11.3498
responsibilities	-11.3498
▁ancestors	-11.3498
▁approval	-11.3498
▁babbling	-11.3498
▁chemistry	-11.3498
▁congratulate	-11.3498
▁conspiracy	-11.3498
▁coyote	-11.3498
▁destination	-11.3498
▁discipline	-11.3498
▁envelope	-11.3498
▁fernando	-11.3498
▁gratitude	-11.3498
▁grenade	-11.3498
▁herald	-11.3498
▁hyperion	-11.3498
▁investigator	-11.3498
▁michigan	-11.3498
▁negotiation	-11.3498
▁pursuit	-11.3498
▁pyramid	-11.3498
▁rhesus	-11.3498
▁scientific	-11.3498
▁seatbelt	-11.3498
▁significant	-11.3498
▁stewart	-11.3498
▁surviving	-11.3498
▁swift	-11.3498
▁trophy	-11.3498
▁unnecessary	-11.3498
▁vetlesen	-11.3498
▁wheezing	-11.3498
▁gravity	-11.3498
▁macleish	-11.3498
▁maximum	-11.3498
▁obligat	-11.3498
▁preparation	-11.3498
▁rosenberg	-11.3498
▁shirley	-11.3498
▁worries	-11.3498
▁ignoring	-11.3498
▁southwest	-11.3498
▁javert	-11.3498
▁recipe	-11.3498
▁wolfwalker	-11.3498
▁deepcore	-11.3498
▁ruddy	-11.3498
▁sydney	-11.3498
▁accelera	-11.3498
▁curtis	-11.3498
▁distinct	-11.3498
▁rouge	-11.3498
▁boogie	-11.3499
▁gittes	-11.3499
▁zoil	-11.3499
▁berries	-11.3499
▁scusa	-11.3499
▁truman	-11.3499
▁studies	-11.3499
▁violin	-11.3499
▁pigeon	-11.3499
▁natalie	-11.3499
▁ringtone	-11.3499
▁vanished	-11.3499
▁eighteen	-11.3499
▁hunk	-11.3499
▁panties	-11.3499
▁pierce	-11.3499
▁casino	-11.3499
▁spinning	-11.3499
▁merk	-11.3499
▁pursue	-11.3499
▁eyre	-11.3499
▁meteorite	-11.3499
▁renai	-11.3499
▁chinatown	-11.3499
▁hollis	-11.35
▁darnell	-11.35
▁masterpiece	-11.35
▁molest	-11.3501
▁thethe	-11.3502
▁departure	-11.3502
▁prospect	-11.3502
▁greetings	-11.3502
▁malone	-11.3502
▁pumpkin	-11.3502
▁darren	-11.3502
▁titty	-11.3503
▁resent	-11.3504
▁luther	-11.3504
▁cheque	-11.3504
▁logue	-11.3504
▁annette	-11.3504
▁communist	-11.3504
tivity	-11.3504
▁dislike	-11.3504
▁disappointment	-11.3505
▁jewelry	-11.3505
▁corruption	-11.3507
▁lobo	-11.3512
▁heap	-11.3515
▁lauren	-11.3517
▁delete	-11.352
▁compose	-11.3523
▁magnet	-11.357
lght	-11.3612
active	-11.3692
nnies	-11.3713
pitched	-11.3746
plied	-11.3799
▁profession	-11.4019
word	-11.4029
free	-11.4033
mobile	-11.4036
▁villa	-11.4037
claim	-11.404
▁acquaintance	-11.4054
▁activities	-11.4054
▁alligator	-11.4054
▁arguing	-11.4054
▁arriving	-11.4054
▁artillery	-11.4054
▁cambridge	-11.4054
▁capacity	-11.4054
▁celebrity	-11.4054
▁chromium	-11.4054
▁circum	-11.4054
▁cleitus	-11.4054
▁database	-11.4054
▁dimension	-11.4054
▁elegant	-11.4054
▁enforcement	-11.4054
▁etienne	-11.4054
▁ferguson	-11.4054
▁frazier	-11.4054
▁glabrus	-11.4054
▁harlem	-11.4054
▁hilarious	-11.4054
▁hinkley	-11.4054
▁hogwarts	-11.4054
▁interrogation	-11.4054
▁intimate	-11.4054
▁jumanji	-11.4054
▁kraken	-11.4054
▁literature	-11.4054
▁majesties	-11.4054
▁maradona	-11.4054
▁mccann	-11.4054
▁necessarily	-11.4054
▁olbricht	-11.4054
▁oskar	-11.4054
▁paranoid	-11.4054
▁penguin	-11.4054
▁phoenix	-11.4054
▁prototype	-11.4054
▁reaiiy	-11.4054
▁rhonda	-11.4054
▁shanghai	-11.4054
▁shouid	-11.4054
▁strategy	-11.4054
▁sunglasses	-11.4054
▁surprising	-11.4054
▁taliban	-11.4054
▁thirteen	-11.4054
▁wolverton	-11.4054
▁aurora	-11.4054
▁brandnew	-11.4054
▁foxtrot	-11.4054
▁gretel	-11.4054
▁neutral	-11.4054
▁omega	-11.4054
▁resurrect	-11.4054
▁rubbish	-11.4054
▁yoohoo	-11.4054
▁complication	-11.4054
▁deputy	-11.4054
▁gauge	-11.4054
▁genuine	-11.4054
▁montana	-11.4054
▁mwah	-11.4054
▁oracle	-11.4054
▁bureau	-11.4054
▁hiphop	-11.4054
▁pudding	-11.4054
▁critter	-11.4054
▁pearce	-11.4054
▁lawrence	-11.4054
▁reliable	-11.4054
▁resign	-11.4054
▁mattress	-11.4054
▁scoop	-11.4054
▁seventeen	-11.4054
▁zulu	-11.4054
precedent	-11.4054
▁womb	-11.4054
▁importance	-11.4054
▁mcara	-11.4054
▁conceal	-11.4054
▁wagon	-11.4054
▁gavin	-11.4054
▁promising	-11.4054
▁andrea	-11.4054
▁bleep	-11.4054
▁envy	-11.4054
▁strangle	-11.4054
▁fender	-11.4054
▁spicy	-11.4054
▁assessment	-11.4054
▁restrain	-11.4054
▁stash	-11.4054
▁idella	-11.4054
▁flynn	-11.4054
▁provinc	-11.4054
▁hawkins	-11.4055
▁funky	-11.4055
▁smuggl	-11.4055
▁stirr	-11.4055
▁clerk	-11.4055
▁marston	-11.4055
▁clich	-11.4056
▁quince	-11.4056
▁parlor	-11.4056
▁beacon	-11.4056
▁referring	-11.4056
▁doomed	-11.4056
▁tumbl	-11.4056
▁specifically	-11.4057
▁forehead	-11.4057
▁infantry	-11.4057
▁hulk	-11.4057
▁yonas	-11.4058
▁gown	-11.4058
▁bamba	-11.4058
▁insur	-11.4059
▁comedian	-11.4059
ovich	-11.406
▁diaper	-11.406
▁donut	-11.4061
▁felon	-11.4062
▁nuke	-11.4065
▁crust	-11.4066
▁emerge	-11.4068
▁oooh	-11.415
▁murmur	-11.4583
▁mechanic	-11.461
▁harp	-11.4621
weather	-11.4625
▁reflect	-11.463
▁livin	-11.4631
▁convent	-11.4632
▁instruct	-11.4634
▁infant	-11.4639
▁drip	-11.464
▁morris	-11.4641
▁absorb	-11.4642
▁adhemar	-11.4642
▁advisor	-11.4642
▁allegra	-11.4642
▁baltimore	-11.4642
▁blossom	-11.4642
▁bypass	-11.4642
▁centuries	-11.4642
▁cepheus	-11.4642
▁cherokee	-11.4642
▁compartment	-11.4642
▁condemn	-11.4642
▁convenient	-11.4642
▁crocodile	-11.4642
▁despair	-11.4642
▁dumbledore	-11.4642
▁execution	-11.4642
▁festival	-11.4642
▁fitzgerald	-11.4642
▁garabedian	-11.4642
▁goodfellowe	-11.4642
▁hancock	-11.4642
▁hemingway	-11.4642
▁indictment	-11.4642
▁ingredient	-11.4642
▁jeanbaptiste	-11.4642
▁jocelyn	-11.4642
▁juvenile	-11.4642
▁kilometers	-11.4642
▁lucinda	-11.4642
▁maintenance	-11.4642
▁medevac	-11.4642
▁mortgage	-11.4642
▁moscow	-11.4642
▁nicholas	-11.4642
▁pterodactyl	-11.4642
▁retrieval	-11.4642
▁schmuck	-11.4642
▁schuyler	-11.4642
▁sixsmith	-11.4642
▁spaghetti	-11.4642
▁spectacular	-11.4642
▁sprinkle	-11.4642
▁sympathy	-11.4642
▁thanksgiving	-11.4642
▁unacceptable	-11.4642
▁yummy	-11.4642
▁aaahhh	-11.4642
▁barbarian	-11.4642
▁concrete	-11.4642
▁deception	-11.4642
▁discriminat	-11.4642
▁intact	-11.4642
▁kirby	-11.4642
▁lesbian	-11.4642
▁militia	-11.4642
▁primitive	-11.4642
▁salvation	-11.4642
▁transaction	-11.4642
▁cockroach	-11.4642
▁depression	-11.4642
▁gesture	-11.4642
▁gipsy	-11.4642
▁girard	-11.4642
▁operative	-11.4642
▁poverty	-11.4642
▁puppy	-11.4642
▁fortress	-11.4642
▁gupta	-11.4642
▁ofyour	-11.4642
▁squash	-11.4642
▁denahi	-11.4642
▁filip	-11.4642
▁prophet	-11.4642
▁woogie	-11.4642
▁trudy	-11.4642
▁payroll	-11.4642
▁retail	-11.4642
▁blaze	-11.4642
▁polish	-11.4642
▁shelf	-11.4642
▁blares	-11.4642
▁swamp	-11.4642
▁phony	-11.4642
▁tumor	-11.4642
▁budget	-11.4642
▁howre	-11.4642
▁spiritual	-11.4642
▁fierce	-11.4642
▁domain	-11.4642
▁actress	-11.4642
▁pascal	-11.4642
▁trilling	-11.4642
▁render	-11.4643
▁unreal	-11.4643
▁stroll	-11.4643
▁euros	-11.4643
▁douglas	-11.4643
▁romesha	-11.4643
▁atlas	-11.4643
▁penetrat	-11.4643
▁bosley	-11.4643
▁dork	-11.4643
▁ransom	-11.4643
▁cnn	-11.4643
▁numero	-11.4643
▁nanny	-11.4643
▁illusion	-11.4644
▁laptop	-11.4644
▁tennis	-11.4644
▁bracelet	-11.4644
▁barrett	-11.4644
▁drool	-11.4644
▁plaza	-11.4644
▁bliss	-11.4645
▁theories	-11.4645
▁timmy	-11.4645
▁sheik	-11.4645
▁whitney	-11.4645
▁saloon	-11.4645
▁download	-11.4646
▁jingle	-11.4646
▁ollie	-11.4646
▁scanner	-11.4646
▁darrow	-11.4647
▁mold	-11.4647
▁shiny	-11.4648
▁hls	-11.465
▁nsa	-11.4651
▁pause	-11.4662
▁ammi	-11.4903
hunt	-11.5052
▁should	-11.5181
dollar	-11.525
plant	-11.525
blood	-11.525
▁abort	-11.5258
▁beautif	-11.5265
▁electro	-11.5267
convenience	-11.5267
efficient	-11.5267
▁achilles	-11.5267
▁ammunition	-11.5267
▁anticipate	-11.5267
▁anyhow	-11.5267
▁barracks	-11.5267
▁cemetery	-11.5267
▁chittering	-11.5267
▁colombia	-11.5267
▁contender	-11.5267
▁corporate	-11.5267
▁courbet	-11.5267
▁dibiasky	-11.5267
▁earthquake	-11.5267
▁economic	-11.5267
▁encounter	-11.5267
▁gauguin	-11.5267
▁glimpse	-11.5267
▁independence	-11.5267
▁industries	-11.5267
▁infirmary	-11.5267
▁injuries	-11.5267
▁inspiring	-11.5267
▁intellectual	-11.5267
▁jeremy	-11.5267
▁kansas	-11.5267
▁lichtenstein	-11.5267
▁marilyn	-11.5267
▁melissa	-11.5267
▁misunderstood	-11.5267
▁moonquake	-11.5267
▁naughton	-11.5267
▁neighs	-11.5267
▁observation	-11.5267
▁obsession	-11.5267
▁obstacle	-11.5267
▁offensive	-11.5267
▁opportunities	-11.5267
▁outnumbered	-11.5267
▁parmenion	-11.5267
▁perspective	-11.5267
▁plummer	-11.5267
▁precinct	-11.5267
▁rathbone	-11.5267
▁regulations	-11.5267
▁restricted	-11.5267
▁rezendes	-11.5267
▁saviano	-11.5267
▁scorpion	-11.5267
▁september	-11.5267
▁sheldon	-11.5267
▁slannen	-11.5267
▁struggling	-11.5267
▁syndicate	-11.5267
▁thunderclap	-11.5267
▁transmitter	-11.5267
▁trembling	-11.5267
▁vacuum	-11.5267
▁valjean	-11.5267
▁vandergeld	-11.5267
migrant	-11.5267
▁abraham	-11.5267
▁bikini	-11.5267
▁dwight	-11.5267
▁gretta	-11.5267
▁guidance	-11.5267
▁ieave	-11.5267
▁inspection	-11.5267
▁svenning	-11.5267
▁britain	-11.5267
▁fluffy	-11.5267
▁hereby	-11.5267
▁snoop	-11.5267
▁theatre	-11.5267
▁veteran	-11.5267
▁bohme	-11.5267
▁gladiator	-11.5267
▁gossip	-11.5267
▁ludlow	-11.5267
▁unfair	-11.5267
▁cletus	-11.5267
▁hoghead	-11.5267
▁horace	-11.5267
▁hector	-11.5267
▁kmart	-11.5267
▁exotic	-11.5267
▁melvin	-11.5267
▁rouran	-11.5267
▁resort	-11.5267
▁reunion	-11.5267
▁juicy	-11.5267
▁peyton	-11.5267
▁deceive	-11.5267
▁trench	-11.5267
▁eliminate	-11.5267
▁totem	-11.5267
▁whatsoever	-11.5267
pathy	-11.5267
▁lease	-11.5267
▁waterloo	-11.5267
▁martel	-11.5268
▁flaming	-11.5268
▁iady	-11.5268
▁prodig	-11.5268
▁microphone	-11.5268
▁charging	-11.5268
▁psychologist	-11.5268
▁elvis	-11.5268
▁slurp	-11.5268
▁chanice	-11.5269
▁rational	-11.5269
▁lassie	-11.5269
▁vocal	-11.5269
▁sameer	-11.527
▁wray	-11.527
▁righteous	-11.527
▁sept	-11.5281
▁aaaah	-11.5289
▁intensi	-11.5293
nnoy	-11.5294
▁litera	-11.53
easley	-11.533
▁blog	-11.5388
circ	-11.5418
azar	-11.5422
▁receiv	-11.5572
rubbing	-11.5684
▁disgust	-11.5875
▁elliot	-11.5915
▁energ	-11.5918
▁leavin	-11.5921
▁heave	-11.5925
▁algorithm	-11.5934
▁ambitious	-11.5934
▁antidote	-11.5934
▁arcamax	-11.5934
▁baptist	-11.5934
▁behaviour	-11.5934
▁beresford	-11.5934
▁bolivia	-11.5934
▁bourbon	-11.5934
▁cereal	-11.5934
▁circuit	-11.5934
▁circula	-11.5934
▁cleveland	-11.5934
▁conclusion	-11.5934
▁conservative	-11.5934
▁continuing	-11.5934
▁corporation	-11.5934
▁crucified	-11.5934
▁cultural	-11.5934
▁curfew	-11.5934
▁discharge	-11.5934
▁dungeon	-11.5934
▁evergreen	-11.5934
▁exhusband	-11.5934
▁exposure	-11.5934
▁forfeit	-11.5934
▁fracture	-11.5934
▁gauntlet	-11.5934
▁goddammit	-11.5934
▁greasy	-11.5934
▁grimsby	-11.5934
▁gryffindor	-11.5934
▁haddonfield	-11.5934
▁hillbilly	-11.5934
▁increasing	-11.5934
▁innocence	-11.5934
▁invincible	-11.5934
▁irrelevant	-11.5934
▁lyrics	-11.5934
▁morphine	-11.5934
▁munchausen	-11.5934
▁nowadays	-11.5934
▁outstanding	-11.5934
▁persuade	-11.5934
▁physics	-11.5934
▁pomatter	-11.5934
▁prague	-11.5934
▁recognition	-11.5934
▁schmidt	-11.5934
▁seagull	-11.5934
▁snuff	-11.5934
▁stubborn	-11.5934
▁telescope	-11.5934
▁thieves	-11.5934
▁underestimate	-11.5934
▁ungrateful	-11.5934
▁vaughn	-11.5934
▁volcano	-11.5934
▁wardrobe	-11.5934
▁xanax	-11.5934
▁youtube	-11.5934
▁aggravat	-11.5934
▁austria	-11.5934
▁babysitting	-11.5934
▁bathtub	-11.5934
▁calendar	-11.5934
▁chugga	-11.5934
▁clanking	-11.5934
▁contrary	-11.5934
▁cottage	-11.5934
▁devoted	-11.5934
▁diablo	-11.5934
▁einhorn	-11.5934
▁hamburger	-11.5934
▁selfdefense	-11.5934
▁terrifying	-11.5934
▁adolf	-11.5934
▁coffey	-11.5934
▁eject	-11.5934
▁mathesar	-11.5934
▁merchant	-11.5934
▁messenger	-11.5934
▁nigga	-11.5934
▁peopie	-11.5934
▁savior	-11.5934
▁shimmer	-11.5934
▁tactical	-11.5934
▁uglydoll	-11.5934
▁crusade	-11.5934
▁detroit	-11.5934
▁eloise	-11.5934
▁geneva	-11.5934
▁nathaniel	-11.5934
▁slevin	-11.5934
▁confront	-11.5934
▁voyage	-11.5934
▁weyland	-11.5934
▁alliance	-11.5934
▁thrace	-11.5934
▁rooster	-11.5934
▁handshake	-11.5934
▁minimal	-11.5934
▁outcome	-11.5934
▁storage	-11.5934
▁woozle	-11.5934
▁chrisann	-11.5934
▁dennit	-11.5934
▁harmony	-11.5934
▁scope	-11.5934
▁stiii	-11.5934
▁waffle	-11.5934
▁bleating	-11.5934
▁surf	-11.5934
▁ratchet	-11.5934
▁adapt	-11.5934
▁goomba	-11.5934
▁neighbourhood	-11.5934
▁panicked	-11.5934
▁callahan	-11.5934
▁stove	-11.5934
▁info	-11.5934
▁coroner	-11.5934
▁investigating	-11.5934
▁jolly	-11.5934
▁noticing	-11.5934
▁mourn	-11.5934
▁lipstick	-11.5934
▁cawing	-11.5935
▁lulu	-11.5935
▁trask	-11.5935
▁helpmann	-11.5935
▁tyres	-11.5936
▁pond	-11.5938
▁stumbl	-11.594
▁yoshi	-11.5941
▁flare	-11.5942
metry	-11.5944
lumber	-11.6024
▁announc	-11.6272
▁glove	-11.63
▁thirst	-11.6621
▁craz	-11.6624
american	-11.663
▁neighbour	-11.6648
▁continuous	-11.6648
▁discreet	-11.6648
▁heartbreak	-11.6648
▁marvellous	-11.6648
▁sufficient	-11.6648
▁unpleasant	-11.6648
▁altogether	-11.6648
▁anthony	-11.6648
▁athlete	-11.6648
▁authentic	-11.6648
▁bollocks	-11.6648
▁byrnes	-11.6648
▁cavendish	-11.6648
▁cincinnati	-11.6648
▁cipher	-11.6648
▁cocksucker	-11.6648
▁congrats	-11.6648
▁contempt	-11.6648
▁cyrus	-11.6648
▁daydream	-11.6648
▁destined	-11.6648
▁discretion	-11.6648
▁dynamite	-11.6648
▁excellency	-11.6648
▁fundamental	-11.6648
▁gibberish	-11.6648
▁gracchus	-11.6648
▁hehhehheh	-11.6648
▁herakles	-11.6648
▁hertzfeld	-11.6648
▁hmhmm	-11.6648
▁huddle	-11.6648
▁humiliating	-11.6648
▁hydro	-11.6648
▁ignition	-11.6648
▁inappropriate	-11.6648
▁injury	-11.6648
▁institute	-11.6648
▁lalalala	-11.6648
▁levinson	-11.6648
▁malcolm	-11.6648
▁molecul	-11.6648
▁obannon	-11.6648
▁occupied	-11.6648
▁october	-11.6648
▁otterbourne	-11.6648
▁pelican	-11.6648
▁picasso	-11.6648
▁plaintiff	-11.6648
▁prosecution	-11.6648
▁raspberry	-11.6648
▁recognise	-11.6648
▁reflex	-11.6648
▁reinforcements	-11.6648
▁rupture	-11.6648
▁sabotage	-11.6648
▁satisfaction	-11.6648
▁separation	-11.6648
▁shaughnessy	-11.6648
▁shepherd	-11.6648
▁skeleton	-11.6648
▁spectacle	-11.6648
▁survey	-11.6648
▁talbot	-11.6648
▁vulgar	-11.6648
▁wilkes	-11.6648
▁wretched	-11.6648
▁billionaire	-11.6648
▁boggs	-11.6648
▁burglar	-11.6648
▁carnival	-11.6648
▁diversion	-11.6648
▁malaysia	-11.6648
▁preserve	-11.6648
▁sketch	-11.6648
▁songwriter	-11.6648
▁stefan	-11.6648
▁tallulah	-11.6648
▁teresa	-11.6648
▁thomson	-11.6648
▁watermelon	-11.6648
▁component	-11.6648
▁metropolis	-11.6648
▁shrike	-11.6648
▁tractor	-11.6648
▁underdog	-11.6648
▁bartender	-11.6648
▁dizzy	-11.6648
▁garcia	-11.6648
▁muntz	-11.6648
▁premier	-11.6648
▁quincy	-11.6648
▁sardine	-11.6648
▁variety	-11.6648
▁fromm	-11.6648
▁gasoline	-11.6648
▁casualties	-11.6648
▁richmond	-11.6648
▁philosopher	-11.6648
▁motherinlaw	-11.6648
▁nipple	-11.6648
▁hooray	-11.6648
▁agenda	-11.6648
▁bronson	-11.6648
▁messiah	-11.6648
▁pupil	-11.6648
▁theft	-11.6648
▁yonder	-11.6648
▁bethany	-11.6648
▁courtyard	-11.6648
▁gleam	-11.6648
▁piace	-11.6648
▁sarnt	-11.6648
▁sermon	-11.6648
▁jeannie	-11.6648
▁overdose	-11.6648
▁parasite	-11.6648
▁leila	-11.6648
▁antoine	-11.6648
▁coffin	-11.6648
▁millionaire	-11.6648
▁depressing	-11.6648
▁wadia	-11.6648
▁tolerate	-11.6648
▁hlm	-11.6648
▁toschi	-11.6648
▁rewind	-11.6648
▁convey	-11.6648
▁samoan	-11.6649
▁brute	-11.6649
▁eager	-11.6649
▁fungus	-11.6649
▁falk	-11.6649
▁implicat	-11.6649
▁mashed	-11.6649
▁napkin	-11.6649
▁doodle	-11.6649
▁carbon	-11.6649
▁overhear	-11.6649
▁draco	-11.6649
▁lorna	-11.6649
▁lrish	-11.665
▁tlg	-11.665
▁weave	-11.6651
▁crescen	-11.6651
▁merit	-11.6652
▁coven	-11.6654
▁lndia	-11.6681
▁frisk	-11.682
▁slug	-11.6828
storm	-11.6843
▁rewrit	-11.692
forcing	-11.7008
▁exhale	-11.7072
▁smit	-11.7392
▁silen	-11.7395
great	-11.74
three	-11.7401
bank	-11.7401
horse	-11.7402
▁dancin	-11.7405
people	-11.7413
▁meteor	-11.7417
▁aborigin	-11.7417
▁astonish	-11.7417
▁neglect	-11.7417
▁acquired	-11.7417
▁allegations	-11.7417
▁allegiance	-11.7417
▁antoninus	-11.7417
▁audrey	-11.7417
▁baghdad	-11.7417
▁barclay	-11.7417
▁bizarre	-11.7417
▁boulevard	-11.7417
▁breakthrough	-11.7417
▁brundusium	-11.7417
▁carpenter	-11.7417
▁catastrophe	-11.7417
▁chronicle	-11.7417
▁cripple	-11.7417
▁degenerate	-11.7417
▁deutsche	-11.7417
▁exploding	-11.7417
▁february	-11.7417
▁footprint	-11.7417
▁frequent	-11.7417
▁grandchildren	-11.7417
▁graysmith	-11.7417
▁grieving	-11.7417
▁handkerchief	-11.7417
▁happiest	-11.7417
▁jurisdiction	-11.7417
▁krypton	-11.7417
▁legitimate	-11.7417
▁loneliness	-11.7417
▁makebelieve	-11.7417
▁manuscript	-11.7417
▁mohammed	-11.7417
▁murray	-11.7417
▁mushroom	-11.7417
▁muzzle	-11.7417
▁obtain	-11.7417
▁occupation	-11.7417
▁optimistic	-11.7417
▁overlapping	-11.7417
▁paralyzed	-11.7417
▁peculiar	-11.7417
▁pharaoh	-11.7417
▁reconsider	-11.7417
▁resolution	-11.7417
▁scotland	-11.7417
▁seduce	-11.7417
▁seizure	-11.7417
▁sonofabitch	-11.7417
▁sophisticated	-11.7417
▁superintendent	-11.7417
▁toothbrush	-11.7417
▁toothpicks	-11.7417
▁turbulence	-11.7417
▁unbreakable	-11.7417
▁windshield	-11.7417
▁yeehaw	-11.7417
▁zephyr	-11.7417
▁autopsy	-11.7417
▁clements	-11.7417
▁consulate	-11.7417
▁crimson	-11.7417
▁facetoface	-11.7417
▁georgie	-11.7417
▁january	-11.7417
▁lsabel	-11.7417
▁molesley	-11.7417
▁morgue	-11.7417
▁sensible	-11.7417
▁substance	-11.7417
▁thermal	-11.7417
▁baracus	-11.7417
▁bessner	-11.7417
▁britney	-11.7417
▁comrade	-11.7417
▁hammond	-11.7417
▁hermione	-11.7417
▁improvement	-11.7417
▁philosophy	-11.7417
▁pretzel	-11.7417
▁sheiiy	-11.7417
▁specimen	-11.7417
▁summit	-11.7417
▁varinia	-11.7417
▁wickles	-11.7417
▁assemble	-11.7417
▁baxter	-11.7417
▁thlnk	-11.7417
▁antenna	-11.7417
▁gardner	-11.7417
▁hollow	-11.7417
▁rafto	-11.7417
▁revelation	-11.7417
▁yzma	-11.7417
▁brotherinlaw	-11.7417
▁dagger	-11.7417
▁effie	-11.7417
▁julio	-11.7417
▁libby	-11.7417
▁musket	-11.7417
▁trousers	-11.7417
▁ventura	-11.7417
▁branson	-11.7417
▁cinema	-11.7417
▁liwen	-11.7417
▁magnus	-11.7417
▁scrunt	-11.7417
▁hardware	-11.7417
▁truce	-11.7417
▁undress	-11.7417
▁whereabouts	-11.7417
▁damien	-11.7418
▁cullen	-11.7418
▁sponge	-11.7418
▁nonstop	-11.7418
▁hunch	-11.7418
▁edition	-11.7418
▁illinois	-11.7418
▁loaf	-11.7418
▁whooshes	-11.7418
▁deux	-11.7418
▁arius	-11.7418
▁coworker	-11.7418
▁guild	-11.7418
▁vigil	-11.7418
▁eteon	-11.7418
▁munch	-11.7418
▁memoirs	-11.7418
▁drumming	-11.7418
▁settling	-11.7418
voluntar	-11.7418
▁neena	-11.7418
▁which	-11.7418
▁chrissake	-11.7418
▁mathias	-11.7418
▁fbl	-11.7418
▁rpg	-11.7418
▁staging	-11.7418
▁drugged	-11.7418
▁milord	-11.7418
▁offsho	-11.7418
acott	-11.7418
▁deduc	-11.7418
▁snapped	-11.7418
▁stomp	-11.7418
▁predator	-11.7418
▁innovat	-11.7418
▁goddess	-11.7418
▁revolv	-11.7419
▁deflect	-11.7419
▁aspirin	-11.742
▁puert	-11.7457
ometer	-11.756
whipped	-11.8134
▁origin	-11.8145
▁applaud	-11.8192
friend	-11.8212
cream	-11.8227
▁merge	-11.8232
▁precise	-11.8233
tooth	-11.8233
birth	-11.8233
related	-11.8233
▁construct	-11.8246
▁smug	-11.8249
▁disobey	-11.8251
▁guatemala	-11.8251
▁railroad	-11.8251
hypnotize	-11.8251
▁abducted	-11.8251
▁abrupt	-11.8251
▁accommodat	-11.8251
▁accomplice	-11.8251
▁advertising	-11.8251
▁anxiety	-11.8251
▁arbitra	-11.8251
▁arrogant	-11.8251
▁association	-11.8251
▁autopilot	-11.8251
▁beethoven	-11.8251
▁beryllium	-11.8251
▁bicycle	-11.8251
▁bolivar	-11.8251
▁britani	-11.8251
▁butterflies	-11.8251
▁caitlyn	-11.8251
▁canadian	-11.8251
▁concentration	-11.8251
▁cornwall	-11.8251
▁crucial	-11.8251
▁deceased	-11.8251
▁declaration	-11.8251
▁defensive	-11.8251
▁eduardo	-11.8251
▁encouraging	-11.8251
▁enterprise	-11.8251
▁eurostream	-11.8251
▁exceeding	-11.8251
▁expedition	-11.8251
▁extensive	-11.8251
▁exwife	-11.8251
▁francoise	-11.8251
▁frustrating	-11.8251
▁gabriel	-11.8251
▁goomgoom	-11.8251
▁gorignak	-11.8251
▁griffith	-11.8251
▁gypsy	-11.8251
▁hampshire	-11.8251
▁harriman	-11.8251
▁ignorant	-11.8251
▁industrial	-11.8251
▁introducing	-11.8251
▁jeopardy	-11.8251
▁kazakhstan	-11.8251
▁kungfu	-11.8251
▁lifeanddeath	-11.8251
▁macintosh	-11.8251
▁manufacture	-11.8251
▁marshmallow	-11.8251
▁mechanism	-11.8251
▁melanchol	-11.8251
▁mohawk	-11.8251
▁northcott	-11.8251
▁oklahoma	-11.8251
▁patrizia	-11.8251
▁perpetua	-11.8251
▁playground	-11.8251
▁plutarch	-11.8251
▁precaution	-11.8251
▁pregnancy	-11.8251
▁premises	-11.8251
▁prophecy	-11.8251
▁registration	-11.8251
▁rehearse	-11.8251
▁rochelle	-11.8251
▁satisfy	-11.8251
▁saumensch	-11.8251
▁seldom	-11.8251
▁shampoo	-11.8251
▁slytherin	-11.8251
▁spectrum	-11.8251
▁statute	-11.8251
▁supervisor	-11.8251
▁suspension	-11.8251
▁symptoms	-11.8251
▁tyranny	-11.8251
▁urban	-11.8251
▁vegetarian	-11.8251
▁virgil	-11.8251
▁wilhemina	-11.8251
▁android	-11.8251
▁bagshaw	-11.8251
▁coakley	-11.8251
▁detention	-11.8251
▁diminish	-11.8251
▁easiest	-11.8251
▁injun	-11.8251
▁interstate	-11.8251
▁minuti	-11.8251
▁narracott	-11.8251
▁prevail	-11.8251
▁ribbon	-11.8251
▁snitch	-11.8251
▁stepmother	-11.8251
▁yorkshire	-11.8251
▁bulldog	-11.8251
▁magarri	-11.8251
▁maitland	-11.8251
▁marcellus	-11.8251
▁memorial	-11.8251
▁pankot	-11.8251
▁sorcer	-11.8251
▁undercover	-11.8251
▁athena	-11.8251
▁athens	-11.8251
▁chubby	-11.8251
▁exploring	-11.8251
▁imagining	-11.8251
▁louisiana	-11.8251
▁munich	-11.8251
▁rebellion	-11.8251
▁rematch	-11.8251
▁syringe	-11.8251
▁tummy	-11.8251
▁arcana	-11.8251
▁chayim	-11.8251
▁codfish	-11.8251
▁interpol	-11.8251
▁alphabet	-11.8251
▁monument	-11.8251
▁ninja	-11.8251
▁spiral	-11.8251
▁voicemail	-11.8251
▁buckingham	-11.8251
▁hazard	-11.8251
▁conceive	-11.8251
▁stalker	-11.8251
▁petition	-11.8251
▁sharla	-11.8251
▁benthic	-11.8251
▁smear	-11.8251
▁dillon	-11.8251
▁elected	-11.8251
▁contribute	-11.8251
▁fizel	-11.8251
▁stabilize	-11.8251
▁watts	-11.8251
▁redmond	-11.8251
▁walsh	-11.8251
▁wharf	-11.8251
▁grease	-11.8251
▁peacekeepers	-11.8251
▁tofu	-11.8251
▁greve	-11.8251
▁hopkins	-11.8251
▁bueno	-11.8251
▁levant	-11.8251
▁ninth	-11.8251
▁bribe	-11.8251
▁contri	-11.8251
▁wiener	-11.8251
▁flunk	-11.8251
▁brawl	-11.8252
▁detonate	-11.8252
ucius	-11.8253
▁analyz	-11.8253
▁jeep	-11.8253
▁scalp	-11.8254
decoration	-11.8285
communica	-11.8877
▁squeez	-11.913
▁filth	-11.9133
around	-11.9142
▁givin	-11.9148
ndistinct	-11.9156
▁scholar	-11.9159
▁democrat	-11.916
▁affirmative	-11.916
▁cautious	-11.916
▁competitive	-11.916
▁fratern	-11.916
▁imprison	-11.916
▁ingenious	-11.916
▁maneuver	-11.916
▁obscene	-11.916
▁sarcastic	-11.916
▁adrenaline	-11.916
▁afghanistan	-11.916
▁alabama	-11.916
▁anarchy	-11.916
▁annihilat	-11.916
▁babbitt	-11.916
▁bankrupt	-11.916
▁brilliance	-11.916
▁bullseye	-11.916
▁challenging	-11.916
▁clarissa	-11.916
▁context	-11.916
▁convincing	-11.916
▁cruces	-11.916
▁dakota	-11.916
▁dazzl	-11.916
▁definition	-11.916
▁delusional	-11.916
▁discount	-11.916
▁disposal	-11.916
▁donovan	-11.916
▁dynamic	-11.916
▁eclipse	-11.916
▁economy	-11.916
▁einstein	-11.916
▁eponine	-11.916
▁escaping	-11.916
▁extension	-11.916
▁faculty	-11.916
▁figuring	-11.916
▁gurgling	-11.916
▁hawthorne	-11.916
▁incompetent	-11.916
▁interrogate	-11.916
▁intervention	-11.916
▁intimidate	-11.916
▁intuition	-11.916
▁israel	-11.916
▁jacqueline	-11.916
▁joohwan	-11.916
▁kababik	-11.916
▁ketchup	-11.916
▁krushka	-11.916
▁kubitz	-11.916
▁kurokawa	-11.916
▁lafayette	-11.916
▁lennox	-11.916
▁litvenko	-11.916
▁lucille	-11.916
▁luxury	-11.916
▁maharaja	-11.916
▁maleficent	-11.916
▁mariejosephe	-11.916
▁masculine	-11.916
▁mcdonalds	-11.916
▁medieval	-11.916
▁millimeter	-11.916
▁negotiator	-11.916
▁neptune	-11.916
▁nevada	-11.916
▁nuhuh	-11.916
▁odonnell	-11.916
▁overmeyer	-11.916
▁pajamas	-11.916
▁paranoia	-11.916
▁phenomenon	-11.916
▁pneumonia	-11.916
▁possibilities	-11.916
▁prudence	-11.916
▁refusing	-11.916
▁roosevelt	-11.916
▁selfdestruct	-11.916
▁serpent	-11.916
▁singapore	-11.916
▁sordino	-11.916
▁souvenir	-11.916
▁stewardess	-11.916
▁sullivan	-11.916
▁swollen	-11.916
▁talladega	-11.916
▁tequila	-11.916
▁unavailable	-11.916
▁unfinished	-11.916
▁unlucky	-11.916
▁versailles	-11.916
▁wisconsin	-11.916
▁yvonne	-11.916
▁albany	-11.916
▁appointed	-11.916
▁compensation	-11.916
▁decorating	-11.916
▁everlasting	-11.916
▁foofie	-11.916
▁glamour	-11.916
▁gulapa	-11.916
▁jurgen	-11.916
▁justjust	-11.916
▁karras	-11.916
▁mccool	-11.916
▁parallel	-11.916
▁qualities	-11.916
▁sheppard	-11.916
▁soviet	-11.916
▁thatthat	-11.916
▁vibrating	-11.916
▁bleach	-11.916
▁cheeseburger	-11.916
▁cupcake	-11.916
▁enrique	-11.916
▁hathaway	-11.916
▁lazarus	-11.916
▁morahan	-11.916
▁nixon	-11.916
▁provoke	-11.916
▁recycl	-11.916
▁dermot	-11.916
▁dixon	-11.916
▁gunfight	-11.916
▁mcbain	-11.916
▁superhero	-11.916
▁trolley	-11.916
▁apollonia	-11.916
▁godmother	-11.916
▁parrish	-11.916
▁shuffle	-11.916
▁tuition	-11.916
▁ventress	-11.916
▁cellular	-11.916
▁sparring	-11.916
