<unk>	0
<s>	0
</s>	0
s	-3.5726
▁im	-4.48868
▁know	-4.62525
▁dont	-4.62595
▁get	-4.81539
▁go	-4.89178
▁oh	-4.95057
▁right	-4.9567
▁like	-5.01392
▁youre	-5.03787
▁got	-5.07057
▁yeah	-5.10917
▁come	-5.13099
▁well	-5.16217
ing	-5.16731
▁one	-5.21346
▁thats	-5.23723
▁na	-5.25145
▁okay	-5.35449
ed	-5.4152
▁think	-5.41809
▁good	-5.431
▁see	-5.49456
▁gon	-5.51022
▁want	-5.51759
▁hey	-5.55347
▁man	-5.5926
▁look	-5.63592
▁us	-5.63857
▁back	-5.65693
▁hes	-5.68288
▁time	-5.68736
▁yes	-5.71393
▁ill	-5.72133
d	-5.72593
▁going	-5.73288
▁take	-5.75967
▁	-5.7878
▁would	-5.78808
▁cant	-5.79148
▁need	-5.81319
▁tell	-5.89793
▁could	-5.91177
▁say	-5.95812
▁something	-5.97859
▁really	-5.99608
▁way	-6.00954
▁l	-6.00973
▁never	-6.01979
▁sorry	-6.02493
▁love	-6.02772
▁thank	-6.02919
▁make	-6.03771
e	-6.06655
▁god	-6.08658
y	-6.08849
▁lets	-6.09217
▁little	-6.09544
▁let	-6.10104
▁whats	-6.1146
▁didnt	-6.12349
▁please	-6.16316
▁mean	-6.20593
▁theres	-6.21086
ly	-6.24871
▁mr	-6.25023
er	-6.25712
▁give	-6.27396
▁ive	-6.28818
▁two	-6.28908
▁thing	-6.32681
▁said	-6.33293
▁wait	-6.3656
▁sir	-6.36787
▁find	-6.37595
▁life	-6.40412
▁help	-6.41003
▁shes	-6.41219
▁sure	-6.41439
▁people	-6.4148
▁call	-6.4263
▁first	-6.43792
i	-6.4553
▁much	-6.46959
▁stop	-6.47272
▁day	-6.48096
▁great	-6.48833
▁even	-6.49008
▁maybe	-6.49405
▁still	-6.49732
t	-6.50268
n	-6.52572
▁home	-6.52775
▁night	-6.5634
▁theyre	-6.56584
▁guys	-6.56663
▁new	-6.57605
▁hell	-6.58627
▁last	-6.59654
▁work	-6.59682
▁put	-6.60925
▁keep	-6.64027
▁nothing	-6.64118
▁hi	-6.65578
▁uh	-6.66053
▁shit	-6.67011
in	-6.67651
▁ever	-6.68007
▁ta	-6.68391
▁anything	-6.69412
▁must	-6.70214
▁thought	-6.708
▁better	-6.71246
▁everything	-6.72896
r	-6.7705
a	-6.77377
▁away	-6.77604
▁name	-6.78513
▁talk	-6.79319
▁always	-6.79357
▁guy	-6.79702
▁every	-6.81179
▁years	-6.81188
▁id	-6.81219
▁long	-6.81416
▁ok	-6.81836
es	-6.827
▁leave	-6.83966
▁baby	-6.84142
▁world	-6.85366
▁old	-6.85602
▁car	-6.85746
▁around	-6.86026
▁stay	-6.86433
o	-6.86798
▁nice	-6.88269
▁believe	-6.88347
▁wont	-6.89413
▁wan	-6.89675
▁made	-6.89965
▁miss	-6.90211
▁hello	-6.90296
▁told	-6.91655
▁three	-6.91908
▁dad	-6.9221
▁things	-6.92406
▁feel	-6.93135
▁kill	-6.93688
▁dead	-6.93696
▁hear	-6.94659
▁girl	-6.94797
▁youve	-6.95238
▁de	-6.95593
▁move	-6.96207
▁youll	-6.96286
▁kind	-6.96443
▁fine	-6.96778
▁coming	-6.979
▁left	-6.98148
▁may	-6.98559
▁remember	-6.99042
▁might	-6.99245
▁doesnt	-7.00044
▁thanks	-7.01943
▁woman	-7.01989
▁place	-7.03102
al	-7.03663
▁done	-7.03959
en	-7.03974
▁listen	-7.04536
▁hold	-7.04566
▁someone	-7.05094
▁wrong	-7.05382
▁boy	-7.06406
▁son	-7.06598
▁big	-7.06631
▁wanted	-7.08079
▁course	-7.08611
▁show	-7.08638
▁house	-7.0922
▁lot	-7.10704
▁mom	-7.11022
▁care	-7.11218
▁understand	-7.11346
▁isnt	-7.11635
▁door	-7.1188
▁ask	-7.12163
▁die	-7.12499
▁next	-7.14755
▁best	-7.14784
▁real	-7.14879
▁another	-7.15391
▁enough	-7.17323
▁getting	-7.17435
▁talking	-7.18823
▁try	-7.18941
▁happened	-7.19534
ve	-7.1992
▁morning	-7.20294
▁mind	-7.20307
▁found	-7.20637
▁bad	-7.20766
▁money	-7.21305
▁friend	-7.22053
▁end	-7.22642
▁today	-7.23673
▁run	-7.2406
▁looking	-7.24465
▁ready	-7.24545
▁job	-7.2476
▁trying	-7.2571
▁jay	-7.25869
▁open	-7.26996
▁came	-7.28309
▁actually	-7.28325
▁else	-7.2868
▁huh	-7.30147
▁um	-7.30264
▁head	-7.30785
▁saw	-7.31642
▁play	-7.32026
▁guess	-7.32387
▁whos	-7.3244
▁meet	-7.3296
▁live	-7.33381
l	-7.33493
▁watch	-7.34048
▁hard	-7.34318
▁idea	-7.34617
▁bring	-7.34904
▁start	-7.3514
u	-7.35253
▁excuse	-7.35458
▁father	-7.35778
▁knew	-7.35849
c	-7.36259
▁use	-7.3628
▁ik	-7.36669
▁ah	-7.36863
▁family	-7.3703
▁many	-7.37984
▁took	-7.39435
▁room	-7.39478
▁late	-7.3998
▁wasnt	-7.40249
▁lost	-7.41088
▁seen	-7.4126
▁mother	-7.41577
▁five	-7.41928
▁turn	-7.42016
▁minutes	-7.42619
▁damn	-7.42693
▁called	-7.43113
▁hope	-7.43209
▁already	-7.43576
▁tonight	-7.43576
▁school	-7.43587
▁whole	-7.44006
▁without	-7.44426
▁yet	-7.45291
▁aint	-7.45292
or	-7.45344
▁phone	-7.46158
p	-7.46294
▁part	-7.47017
▁everybody	-7.47018
▁je	-7.47183
m	-7.47408
▁shut	-7.4744
▁together	-7.47459
▁dr	-7.47731
▁hand	-7.47871
▁lm	-7.48609
▁face	-7.48652
▁weve	-7.48791
▁heard	-7.48939
▁men	-7.49138
k	-7.49479
▁whoa	-7.49692
▁year	-7.50537
▁happy	-7.50581
▁honey	-7.50583
▁fire	-7.50706
▁ago	-7.51514
▁un	-7.51762
▁second	-7.52382
▁wouldnt	-7.5249
▁tomorrow	-7.52875
▁music	-7.5334
▁bit	-7.53642
▁daisy	-7.54276
▁friends	-7.54363
▁alone	-7.54751
▁four	-7.55209
▁van	-7.55267
▁power	-7.55722
▁heart	-7.56005
▁kids	-7.56033
▁met	-7.56187
▁pretty	-7.57141
▁matter	-7.57249
▁beautiful	-7.57626
g	-7.57652
▁minute	-7.57769
▁saying	-7.58077
▁gone	-7.58138
▁days	-7.58174
▁kid	-7.58263
an	-7.58683
▁used	-7.58707
▁cause	-7.58765
▁game	-7.59253
▁dear	-7.60651
▁captain	-7.61094
ers	-7.61336
▁welcome	-7.61599
▁inside	-7.61602
▁light	-7.62423
▁sit	-7.6312
▁anyone	-7.63127
▁went	-7.63133
▁pay	-7.63614
▁probably	-7.63643
▁hit	-7.63921
▁somebody	-7.64994
▁crazy	-7.65211
▁couldnt	-7.65284
▁chuckles	-7.65382
h	-7.6621
▁since	-7.66728
▁check	-7.66823
▁read	-7.67087
on	-7.67123
▁wife	-7.6733
▁working	-7.67394
▁break	-7.67836
▁john	-7.67847
▁whatever	-7.68406
▁true	-7.68406
▁stuff	-7.6841
▁point	-7.68842
▁re	-7.68853
▁everyone	-7.68966
▁playing	-7.69231
▁problem	-7.69421
▁stand	-7.69467
▁shall	-7.6949
▁close	-7.69594
▁supposed	-7.69596
▁ass	-7.71295
re	-7.71559
▁air	-7.71724
▁set	-7.71861
▁en	-7.71924
▁wish	-7.72844
▁eyes	-7.73473
▁water	-7.73522
f	-7.73605
▁mine	-7.74022
▁side	-7.74046
ic	-7.74674
▁sighs	-7.74847
▁trust	-7.75131
▁wow	-7.75135
▁rest	-7.7517
▁een	-7.75181
▁killed	-7.75559
▁forget	-7.76296
▁walk	-7.76618
▁speak	-7.76794
▁worry	-7.76885
▁story	-7.76889
▁ho	-7.77053
▁hurt	-7.77597
▁chance	-7.78075
▁city	-7.78109
le	-7.78264
▁deal	-7.78275
▁save	-7.78365
▁blood	-7.78672
▁children	-7.78674
▁child	-7.78693
▁doctor	-7.78858
▁wheres	-7.79317
▁hands	-7.79478
▁week	-7.79502
▁death	-7.7988
▁youd	-7.799
▁sleep	-7.79911
▁ship	-7.80137
▁looks	-7.80259
▁dog	-7.80297
▁s	-7.80744
▁mrs	-7.80822
▁happen	-7.80976
▁far	-7.81187
▁havent	-7.81721
▁war	-7.81872
▁c	-7.82644
▁cut	-7.82842
▁change	-7.82948
▁thinking	-7.8371
▁pick	-7.83827
▁line	-7.83942
▁drink	-7.83972
▁says	-7.84088
▁hot	-7.84408
▁fun	-7.84534
▁i	-7.84577
▁exactly	-7.84888
▁yo	-7.8546
▁eat	-7.85487
est	-7.8602
b	-7.86091
▁town	-7.8616
ion	-7.86418
▁question	-7.86605
▁word	-7.86608
▁fight	-7.86679
▁laughing	-7.87018
▁nobody	-7.87905
▁girls	-7.87944
▁trouble	-7.88112
▁promise	-7.88445
▁drive	-7.88525
▁black	-7.89422
▁half	-7.89436
▁taking	-7.89473
▁moment	-7.89485
▁died	-7.89554
▁order	-7.90207
▁easy	-7.90788
▁alive	-7.90798
▁gave	-7.9081
able	-7.91026
▁em	-7.9129
▁number	-7.91384
▁plan	-7.91408
▁anyway	-7.91468
▁sweet	-7.92118
▁afraid	-7.92153
▁white	-7.92189
▁in	-7.92266
▁cool	-7.92848
el	-7.93
▁lose	-7.94191
▁lord	-7.94232
▁clear	-7.95086
▁later	-7.95157
▁means	-7.95289
▁business	-7.95616
▁free	-7.95659
▁lady	-7.95686
▁high	-7.95931
▁young	-7.96171
▁police	-7.9633
ation	-7.9664
ie	-7.97515
▁bed	-7.9774
▁almost	-7.97808
st	-7.97843
▁st	-7.98333
▁hours	-7.98458
▁six	-7.98527
▁bye	-7.98539
▁quite	-7.98611
▁person	-7.99916
▁different	-8.00016
▁earth	-8.00025
▁follow	-8.00417
▁funny	-8.00768
w	-8.00809
▁perfect	-8.01271
▁jesus	-8.01514
▁human	-8.01709
▁shot	-8.03271
▁safe	-8.0346
▁russian	-8.04095
man	-8.04338
▁red	-8.04355
▁soon	-8.04551
ar	-8.04575
▁reason	-8.04798
▁though	-8.05196
▁anymore	-8.05359
▁living	-8.05359
▁president	-8.05359
▁truth	-8.05359
▁brother	-8.05691
▁wants	-8.05708
▁arent	-8.06149
▁dat	-8.06703
▁hate	-8.06829
▁mij	-8.06861
▁chris	-8.07055
▁book	-8.07376
▁boys	-8.07399
▁laughs	-8.07448
▁send	-8.07527
▁maam	-8.07743
▁catch	-8.0776
▁hang	-8.07981
▁full	-8.08315
▁behind	-8.08546
▁makes	-8.09004
▁drop	-8.0936
▁ride	-8.09548
▁outside	-8.10166
▁hmm	-8.10187
▁sometimes	-8.10476
▁church	-8.11005
▁least	-8.11007
▁case	-8.11026
ur	-8.11225
▁date	-8.11319
▁asked	-8.11377
▁bitch	-8.11758
▁anybody	-8.11839
▁telling	-8.12091
▁husband	-8.12334
▁gun	-8.12475
▁train	-8.12505
▁stupid	-8.12679
▁la	-8.13033
▁attack	-8.13073
▁running	-8.13531
▁party	-8.13973
▁jack	-8.14045
▁ahead	-8.14385
▁also	-8.1442
z	-8.14465
▁started	-8.1452
▁answer	-8.14787
▁frank	-8.15036
▁months	-8.15094
▁sick	-8.16109
▁grunts	-8.16113
▁married	-8.16117
▁mama	-8.16146
▁het	-8.16152
▁speaking	-8.16964
▁control	-8.16969
▁boat	-8.17002
▁making	-8.17013
▁p	-8.17562
▁daughter	-8.17875
▁island	-8.17875
▁protect	-8.18539
▁eye	-8.18734
ment	-8.1951
▁dream	-8.20191
▁mike	-8.20349
us	-8.2051
▁either	-8.20578
▁important	-8.20578
▁blue	-8.20578
▁throw	-8.20907
▁wear	-8.20957
▁able	-8.21013
▁news	-8.21093
th	-8.21164
▁secret	-8.21389
▁voice	-8.21437
▁waiting	-8.21449
▁road	-8.21495
▁sound	-8.21935
▁pull	-8.21974
▁win	-8.21999
te	-8.22006
▁ball	-8.22487
▁feeling	-8.22553
▁th	-8.22939
▁shoot	-8.23194
▁clean	-8.23252
▁perhaps	-8.23356
▁body	-8.23359
▁ha	-8.23698
▁beat	-8.23711
ate	-8.2379
▁niet	-8.24302
▁buy	-8.24691
▁bet	-8.24996
▁fear	-8.25237
▁gasps	-8.25256
▁bella	-8.25299
▁times	-8.25708
▁fair	-8.25772
▁heres	-8.25852
▁pain	-8.25955
▁office	-8.26087
▁past	-8.26368
▁hour	-8.2638
▁sign	-8.26695
it	-8.26722
▁finish	-8.26734
▁k	-8.26899
ce	-8.26985
▁serious	-8.26991
▁leaving	-8.27187
▁couple	-8.27188
ity	-8.27208
ies	-8.28101
▁dark	-8.28129
▁gentlemen	-8.28168
▁ladies	-8.28169
▁feet	-8.28187
la	-8.28192
▁tried	-8.28238
▁finally	-8.28277
▁b	-8.28337
▁loud	-8.28459
▁top	-8.28606
▁happens	-8.28708
▁fly	-8.28799
▁seems	-8.28832
▁food	-8.29159
▁seven	-8.29162
▁parents	-8.2937
▁touch	-8.29973
▁asking	-8.30011
▁front	-8.30161
▁ten	-8.30234
ous	-8.3068
▁special	-8.30703
▁david	-8.31165
▁women	-8.31166
▁goes	-8.31669
▁future	-8.32185
▁moving	-8.32187
▁ooh	-8.32187
▁wake	-8.32187
▁building	-8.32389
v	-8.3261
▁dance	-8.32619
▁fast	-8.32928
▁write	-8.33045
▁english	-8.33216
▁honor	-8.33222
▁continues	-8.33342
▁mary	-8.34331
▁choice	-8.34522
▁return	-8.34857
▁cover	-8.34859
▁lives	-8.34912
▁green	-8.34978
▁luck	-8.35079
▁smart	-8.35107
▁seem	-8.35136
▁e	-8.35294
▁possible	-8.3531
▁spanish	-8.3531
▁henry	-8.35312
▁shell	-8.35314
▁tv	-8.3532
▁step	-8.35627
▁breathe	-8.35632
▁sister	-8.3567
▁star	-8.35751
▁song	-8.35792
▁land	-8.35834
▁dinner	-8.36374
▁goddamn	-8.36374
▁count	-8.36423
▁none	-8.36518
▁message	-8.36704
ry	-8.36961
▁fall	-8.3718
▁kidding	-8.37456
▁sounds	-8.37475
▁cold	-8.37516
▁team	-8.37869
▁small	-8.38338
▁general	-8.38536
▁history	-8.38537
▁goodbye	-8.38537
▁bernie	-8.38544
▁careful	-8.38602
▁lucky	-8.3878
▁hows	-8.38869
▁dan	-8.39034
▁worth	-8.39379
▁strong	-8.39398
▁handle	-8.39516
▁bilbo	-8.39635
▁somewhere	-8.39635
▁security	-8.39644
▁till	-8.39645
▁upon	-8.39654
▁sense	-8.3966
▁born	-8.39684
▁sent	-8.3972
ge	-8.39772
less	-8.40076
▁cat	-8.40085
▁a	-8.40559
ch	-8.4072
▁company	-8.40746
▁machine	-8.40747
▁hair	-8.40757
▁loved	-8.40938
▁groans	-8.41023
▁words	-8.41086
ive	-8.41218
▁rey	-8.41222
▁street	-8.41279
▁lie	-8.41293
up	-8.41493
ll	-8.41702
▁fact	-8.41745
▁spend	-8.41877
▁grace	-8.41878
▁itll	-8.41881
▁theyll	-8.41891
▁f	-8.42144
▁breathing	-8.42208
▁screams	-8.42283
▁cell	-8.42385
li	-8.42697
▁indistinct	-8.42807
▁mad	-8.42876
▁space	-8.43019
▁needs	-8.4303
▁sing	-8.43572
▁figure	-8.43825
▁entire	-8.4396
▁york	-8.44155
▁shouldnt	-8.44156
▁ground	-8.44179
▁james	-8.44187
▁wild	-8.44212
▁trip	-8.44217
▁blow	-8.44584
▁ow	-8.44928
▁they	-8.44971
▁happening	-8.45239
▁grunting	-8.45319
▁forever	-8.4532
▁rather	-8.45323
▁te	-8.45385
▁radio	-8.45428
▁meant	-8.45569
et	-8.46014
▁state	-8.46264
▁jane	-8.46359
▁hurry	-8.46495
▁professor	-8.46495
▁finn	-8.46495
▁ya	-8.4656
▁bar	-8.46573
▁kiss	-8.46621
▁king	-8.46806
▁questions	-8.46857
▁million	-8.47218
▁relax	-8.47686
▁country	-8.47712
▁given	-8.4782
▁u	-8.48116
▁meeting	-8.48297
▁master	-8.48473
il	-8.48485
▁comes	-8.48567
▁officer	-8.48575
▁taken	-8.48756
▁hero	-8.48805
▁respect	-8.48878
▁fault	-8.4889
▁weird	-8.4889
▁charles	-8.4889
▁others	-8.4889
▁favor	-8.48892
▁middle	-8.48892
▁zach	-8.48902
▁scared	-8.49151
▁become	-8.49656
▁floor	-8.49658
▁brought	-8.5011
▁gandalf	-8.5011
▁susan	-8.5011
▁launch	-8.50111
▁cady	-8.50114
▁suit	-8.50337
▁er	-8.50394
▁sun	-8.50622
▁lead	-8.50718
▁ja	-8.51088
▁law	-8.5128
▁calm	-8.51355
▁absolutely	-8.51372
▁sort	-8.51389
▁calling	-8.52242
▁known	-8.52327
▁truck	-8.52594
▁along	-8.52596
▁birthday	-8.52597
▁screaming	-8.52688
▁lts	-8.53107
▁seat	-8.53293
na	-8.53341
▁soul	-8.53502
▁imagine	-8.53531
▁explain	-8.53594
▁terrible	-8.5386
▁straight	-8.53861
▁swear	-8.53862
▁richard	-8.53866
▁west	-8.53905
▁daddy	-8.53919
▁rock	-8.5459
▁bank	-8.54753
▁christ	-8.54926
▁slow	-8.54948
▁caleb	-8.55142
▁werent	-8.55142
▁giving	-8.55144
▁wonderful	-8.55157
▁tom	-8.55161
▁crowd	-8.55207
▁sea	-8.55301
▁learn	-8.55398
▁wed	-8.55541
▁ii	-8.55866
▁mo	-8.55885
▁gas	-8.5595
▁class	-8.56201
▁longer	-8.56242
▁strange	-8.56264
▁hospital	-8.56441
▁buddy	-8.56443
▁glad	-8.5645
▁heb	-8.56455
▁felt	-8.56494
▁grab	-8.56506
▁unless	-8.56506
▁single	-8.56526
▁planet	-8.56545
▁code	-8.56566
▁ge	-8.56668
po	-8.5684
▁h	-8.5697
▁piece	-8.57529
▁fool	-8.57529
▁information	-8.57763
▁test	-8.57941
▁push	-8.58035
▁con	-8.58149
▁worked	-8.58353
▁whoo	-8.58455
▁act	-8.58502
▁broke	-8.58784
▁queen	-8.58929
▁plane	-8.58994
▁stephen	-8.5909
▁george	-8.59091
▁panting	-8.59093
▁aye	-8.59164
▁an	-8.59493
▁system	-8.60341
▁ben	-8.60382
▁peace	-8.60425
▁mouth	-8.60448
▁danny	-8.60451
▁eight	-8.60476
▁r	-8.6062
▁nine	-8.60627
▁evening	-8.61117
x	-8.61501
▁window	-8.61665
▁battle	-8.61817
▁mgan	-8.61818
▁dude	-8.61823
▁weekend	-8.61824
▁voor	-8.61831
ist	-8.61939
lo	-8.62035
j	-8.62154
▁hed	-8.62389
ke	-8.62412
▁mess	-8.62501
▁g	-8.62801
▁quick	-8.63015
is	-8.63121
▁picture	-8.63169
▁accident	-8.632
▁coffee	-8.632
▁table	-8.63271
▁killing	-8.63527
▁park	-8.63557
▁burn	-8.63565
at	-8.63567
▁wind	-8.64012
▁zo	-8.64035
▁gift	-8.64062
de	-8.64173
ness	-8.64194
▁n	-8.64268
▁missed	-8.6434
▁horse	-8.64378
▁join	-8.64477
▁les	-8.6451
▁amazing	-8.64609
▁hundred	-8.64609
▁alright	-8.64612
▁girlfriend	-8.64615
▁station	-8.64682
▁bag	-8.64748
▁less	-8.65018
to	-8.65197
ro	-8.65215
ter	-8.6533
▁saved	-8.6544
▁force	-8.65769
▁service	-8.65992
▁across	-8.66037
▁anywhere	-8.66037
▁michael	-8.66037
▁key	-8.66163
▁seriously	-8.66326
▁op	-8.66344
▁destroy	-8.6645
▁dress	-8.66916
▁wat	-8.67243
▁sex	-8.67276
▁except	-8.67416
▁college	-8.67486
▁round	-8.67486
▁evil	-8.67494
▁gemma	-8.67497
▁lll	-8.67806
▁wonder	-8.67892
▁watching	-8.6821
▁greville	-8.68958
▁jason	-8.68974
▁early	-8.69066
▁turned	-8.69069
▁list	-8.69153
ra	-8.69708
▁roll	-8.69972
▁deep	-8.70081
▁fantasy	-8.7045
▁summer	-8.7045
▁area	-8.70453
▁sky	-8.70464
▁mm	-8.7052
um	-8.70523
▁present	-8.7086
▁miles	-8.71038
▁looked	-8.71059
ne	-8.71178
▁poe	-8.71192
▁weeks	-8.71396
▁command	-8.71672
▁worried	-8.71965
▁gerry	-8.71965
▁zijn	-8.71972
▁dying	-8.72066
▁owe	-8.7212
▁al	-8.72253
▁month	-8.72264
ng	-8.72586
▁co	-8.72781
▁robert	-8.73285
▁language	-8.73503
▁tough	-8.73503
▁christmas	-8.73504
▁position	-8.73506
▁produce	-8.7351
▁flight	-8.73512
▁poor	-8.73554
▁moon	-8.7356
▁mistake	-8.73606
▁holly	-8.73619
▁club	-8.73702
▁block	-8.73721
▁age	-8.73802
▁weapon	-8.73805
ful	-8.73858
▁missing	-8.74001
▁murder	-8.74046
▁hole	-8.74121
▁fix	-8.74613
▁short	-8.74856
▁near	-8.74872
▁emergency	-8.75066
▁hazel	-8.75066
▁pleasure	-8.75066
▁lunch	-8.75079
▁yall	-8.75097
▁cheering	-8.75192
▁smell	-8.75344
▁joke	-8.75382
▁begin	-8.75456
▁mission	-8.75488
▁v	-8.75664
▁om	-8.75716
▁art	-8.76132
▁speaks	-8.76259
ts	-8.76601
▁impossible	-8.76653
▁tower	-8.76653
▁favorite	-8.76653
▁worse	-8.76653
▁rachel	-8.76658
▁anna	-8.76687
▁m	-8.76957
▁pass	-8.77071
▁expect	-8.77222
▁pro	-8.77837
ten	-8.77991
▁foot	-8.78029
▁engine	-8.78185
▁definitely	-8.78269
▁beach	-8.78275
ri	-8.78282
▁field	-8.78305
▁boss	-8.78307
▁board	-8.78355
▁hide	-8.78439
▁do	-8.78461
▁movie	-8.78697
▁alien	-8.78703
▁ex	-8.78796
▁plant	-8.78943
▁reach	-8.79134
ta	-8.79319
▁offer	-8.794
▁accept	-8.79519
ance	-8.79559
▁quiet	-8.79698
▁lovely	-8.79715
▁america	-8.79757
▁keys	-8.79821
▁attention	-8.79905
▁bomb	-8.79936
▁thorin	-8.79943
out	-8.8
▁seconds	-8.80012
▁thousand	-8.8035
▁super	-8.80499
▁american	-8.80523
▁crewe	-8.80787
▁wearing	-8.80947
▁travel	-8.8096
▁stick	-8.81019
▁pa	-8.81152
▁magic	-8.81493
▁chuckling	-8.81573
▁contact	-8.81574
▁gasping	-8.8158
▁rain	-8.81642
▁totally	-8.81647
▁lay	-8.8214
ine	-8.8257
ul	-8.82607
▁final	-8.83072
▁chief	-8.83267
▁drunk	-8.83267
▁simple	-8.83267
▁alice	-8.83272
▁brian	-8.83278
▁aah	-8.83281
▁yep	-8.83292
▁low	-8.83294
▁laugh	-8.833
▁standing	-8.83352
▁ice	-8.83554
ty	-8.83791
ling	-8.84199
ian	-8.84478
▁nick	-8.84778
▁dis	-8.84939
ish	-8.8496
▁darling	-8.84991
▁wedding	-8.84994
▁north	-8.85001
▁duke	-8.85005
▁thou	-8.85017
▁river	-8.85022
▁stopped	-8.85063
id	-8.85141
▁warm	-8.85157
▁joe	-8.8527
▁feed	-8.85298
▁interesting	-8.8533
▁o	-8.85411
▁ones	-8.85439
▁needed	-8.85636
▁spirit	-8.85647
▁paper	-8.85665
▁crew	-8.85816
▁lived	-8.86502
▁junior	-8.86745
▁kappa	-8.86745
▁paid	-8.86761
▁hat	-8.86845
▁appreciate	-8.86854
▁hotel	-8.86858
▁reading	-8.86879
▁leg	-8.86927
▁jo	-8.87208
▁base	-8.87335
▁ran	-8.87427
ma	-8.87593
▁named	-8.87629
▁ver	-8.87645
ant	-8.88072
▁surprise	-8.88198
▁realize	-8.88229
▁po	-8.88336
▁maid	-8.88446
▁fell	-8.8846
▁grand	-8.88511
▁langdon	-8.88531
▁worst	-8.88531
▁sydney	-8.88531
▁difference	-8.88531
▁driving	-8.88531
▁mask	-8.88532
▁watson	-8.88548
▁amy	-8.88641
▁sad	-8.88656
▁wondering	-8.89241
▁el	-8.89812
as	-8.89918
▁del	-8.90324
▁faith	-8.90331
▁bullshit	-8.90349
▁french	-8.90349
▁mirror	-8.90349
▁research	-8.90349
▁shield	-8.90349
▁thomas	-8.90349
▁cindy	-8.9036
▁within	-8.90366
▁teacher	-8.90695
▁hij	-8.90714
▁mayor	-8.90807
▁enjoy	-8.91145
▁cop	-8.91445
▁be	-8.91514
▁sell	-8.91628
▁report	-8.91829
▁suppose	-8.9188
un	-8.92091
▁strike	-8.92201
▁uncle	-8.92201
▁government	-8.92203
nt	-8.92217
▁anne	-8.92226
▁unit	-8.92231
▁tape	-8.92288
▁hilly	-8.92377
▁works	-8.9259
ent	-8.92983
▁brain	-8.93136
ary	-8.93187
▁mi	-8.9387
▁normal	-8.93888
▁record	-8.93966
▁public	-8.94088
▁yesterday	-8.94088
▁caught	-8.94089
▁east	-8.9409
▁smile	-8.94092
▁throat	-8.94097
▁spent	-8.941
▁center	-8.94131
▁per	-8.9447
▁moved	-8.94569
▁breath	-8.94849
▁kick	-8.94966
tic	-8.9503
▁agent	-8.95052
no	-8.95062
▁mountain	-8.9509
▁changed	-8.95159
▁w	-8.95263
▁chatter	-8.95437
▁press	-8.95571
▁box	-8.95964
▁beyond	-8.96011
▁william	-8.96011
▁military	-8.96012
▁focus	-8.96013
▁italian	-8.96013
▁diane	-8.96017
▁proud	-8.96024
▁clothes	-8.96026
▁obviously	-8.9607
by	-8.96081
▁bond	-8.96094
▁rose	-8.96228
▁tea	-8.96324
▁guards	-8.96797
▁finished	-8.96914
▁singing	-8.97004
se	-8.9705
▁consider	-8.97509
▁agree	-8.97609
▁feels	-8.97832
▁program	-8.97905
▁shh	-8.97956
▁weak	-8.97957
▁south	-8.97966
▁aibileen	-8.97972
▁congratulations	-8.97972
▁video	-8.97972
▁forward	-8.97973
▁kept	-8.97974
▁katie	-8.97974
▁detective	-8.97976
▁third	-8.97981
▁heat	-8.98005
ass	-8.98009
▁tony	-8.98037
▁animals	-8.98083
▁copy	-8.98222
▁broken	-8.98229
me	-8.98549
son	-8.9876
▁knock	-8.9892
▁cops	-8.99009
▁guard	-8.99149
▁rule	-8.99169
▁grow	-8.9921
▁marry	-8.9938
▁lock	-8.99478
▁pack	-8.99504
▁mmm	-8.99652
▁d	-8.99857
▁pre	-8.99857
ia	-8.99872
▁koning	-8.99964
▁instead	-8.99972
▁majesty	-8.99972
▁nervous	-8.99972
▁situation	-8.99972
▁ed	-8.99972
▁group	-8.99976
▁horn	-8.99977
▁outta	-8.9998
▁store	-8.99985
▁button	-9.00002
▁personal	-9.00003
▁doubt	-9.00004
▁talked	-9.00015
▁marie	-9.00048
▁shouting	-9.00086
men	-9.00104
▁army	-9.00161
ol	-9.0042
▁thy	-9.0047
be	-9.01147
▁card	-9.01541
▁ring	-9.0177
▁forgive	-9.01992
▁freedom	-9.02013
▁choose	-9.02014
▁heavily	-9.02019
▁match	-9.0202
▁nina	-9.02023
▁josh	-9.02024
▁rich	-9.02035
▁fleet	-9.02052
▁thee	-9.02111
▁wide	-9.02207
ton	-9.02239
▁x	-9.02479
▁rules	-9.02849
▁charge	-9.02923
▁shoes	-9.03063
▁mark	-9.03257
way	-9.0353
go	-9.03594
▁color	-9.03667
▁complete	-9.03916
ad	-9.04033
▁walking	-9.04052
▁forgot	-9.0408
▁christian	-9.04092
▁saturday	-9.04096
▁bathroom	-9.04098
▁maar	-9.04122
im	-9.04151
▁fit	-9.04194
▁howd	-9.04217
ted	-9.04301
▁double	-9.04439
▁certain	-9.0446
▁wine	-9.04645
▁jump	-9.0514
tion	-9.05279
▁robot	-9.05496
▁level	-9.05502
▁spot	-9.05503
▁bird	-9.0561
▁search	-9.05624
▁pop	-9.05775
am	-9.05845
▁tight	-9.06026
▁wouldve	-9.06072
▁correct	-9.06138
▁court	-9.0614
▁dracula	-9.06224
▁especially	-9.06224
▁neither	-9.06224
▁seymour	-9.06224
▁stuck	-9.06231
▁apartment	-9.06246
▁jail	-9.06262
den	-9.06437
▁fate	-9.06444
▁busy	-9.06451
▁cost	-9.06494
▁cross	-9.07209
ot	-9.07309
▁books	-9.07332
▁crash	-9.07339
▁j	-9.07397
▁gate	-9.07452
▁over	-9.07676
▁tree	-9.07723
▁visit	-9.07726
▁soldier	-9.07747
▁prove	-9.07992
age	-9.08033
mo	-9.08103
▁bus	-9.08278
▁carl	-9.08393
▁bought	-9.08397
▁brenda	-9.08397
▁heavy	-9.08397
▁wrote	-9.08397
▁holmes	-9.08398
▁linda	-9.08402
▁universe	-9.08405
▁football	-9.08406
▁shame	-9.08407
▁minny	-9.0842
▁dit	-9.08493
▁dean	-9.08717
▁locked	-9.08892
▁crying	-9.08915
▁peter	-9.08999
▁chattering	-9.09056
▁da	-9.09075
▁teach	-9.09643
▁bill	-9.09836
▁pe	-9.09913
▁training	-9.09913
▁wave	-9.10092
▁wall	-9.10213
▁share	-9.10299
▁angel	-9.10378
vi	-9.10557
▁boyfriend	-9.1062
▁stories	-9.1062
▁uhhuh	-9.1062
▁charlie	-9.1062
▁edward	-9.10623
▁conversation	-9.10625
▁nose	-9.10641
▁risk	-9.10643
▁clay	-9.10656
▁immediately	-9.10657
▁mmhmm	-9.10664
▁balls	-9.10672
▁chicken	-9.10673
▁woody	-9.10826
▁ringing	-9.11258
▁lied	-9.11589
▁lights	-9.11686
▁si	-9.11695
▁du	-9.11783
▁bear	-9.11991
▁mate	-9.1209
▁target	-9.12277
▁asshole	-9.12289
▁pal	-9.12401
▁allow	-9.12446
▁weapons	-9.12457
dy	-9.12522
▁farm	-9.12557
▁waste	-9.12624
▁daniel	-9.12681
▁stole	-9.12754
▁se	-9.12756
▁glass	-9.12779
▁audrey	-9.12892
▁skeeter	-9.12892
▁beginning	-9.12894
▁vader	-9.12899
▁sake	-9.12902
▁excited	-9.12904
▁jim	-9.12906
▁dangerous	-9.12913
▁cash	-9.12922
▁it	-9.12928
▁tired	-9.1299
▁hath	-9.13018
▁putting	-9.13024
▁tess	-9.1305
▁dick	-9.13215
▁z	-9.1323
ig	-9.13342
ck	-9.1341
▁gosh	-9.13583
▁nu	-9.13633
▁ga	-9.13657
▁cute	-9.1381
▁lt	-9.13929
▁suggest	-9.13991
▁starting	-9.1403
▁form	-9.1408
pa	-9.14161
red	-9.14252
▁treat	-9.14522
▁bastard	-9.14658
▁remind	-9.14659
▁fish	-9.14685
▁doc	-9.15009
▁fat	-9.15021
▁council	-9.15218
▁difficult	-9.15218
▁elizabeth	-9.15218
▁clark	-9.15218
▁pretend	-9.15218
▁hasnt	-9.15219
▁twice	-9.15219
▁license	-9.15229
▁satine	-9.15232
▁common	-9.15245
▁skin	-9.153
▁path	-9.15325
▁taste	-9.15428
▁interested	-9.15577
om	-9.15731
▁doors	-9.15821
▁tires	-9.16009
▁rid	-9.16414
▁ender	-9.16604
▁following	-9.17053
ud	-9.17086
▁pet	-9.17283
▁signal	-9.17316
▁carry	-9.17342
▁soft	-9.17409
▁quit	-9.17467
em	-9.17482
▁angry	-9.17599
▁tommy	-9.17599
▁admit	-9.17599
▁wherever	-9.17599
▁crime	-9.176
▁bridge	-9.17601
▁extra	-9.17601
▁helsing	-9.17601
▁hungry	-9.17607
▁whatd	-9.17641
▁doin	-9.17787
▁quickly	-9.17938
ag	-9.18144
▁cup	-9.18463
▁track	-9.1847
▁cook	-9.18993
▁arm	-9.19078
and	-9.19097
▁deserve	-9.19232
▁ad	-9.19452
▁guardian	-9.19575
▁due	-9.1962
▁spider	-9.1966
▁cry	-9.19673
▁als	-9.19749
▁sleeping	-9.19912
▁seek	-9.19929
▁trade	-9.19982
▁paul	-9.20024
▁built	-9.20038
▁regret	-9.20038
▁twenty	-9.20038
▁vatican	-9.20038
▁enemy	-9.20038
▁bruce	-9.20041
▁salt	-9.20043
▁shouldve	-9.20045
▁film	-9.2005
▁jacket	-9.20101
▁milo	-9.20108
▁losing	-9.20165
▁whispering	-9.20178
▁speed	-9.20183
▁corner	-9.20188
▁dare	-9.20275
▁decided	-9.20313
▁aw	-9.20581
▁beg	-9.20709
▁paris	-9.2082
▁folks	-9.2101
▁cap	-9.21169
time	-9.21376
▁so	-9.21986
da	-9.22085
▁honest	-9.22104
▁health	-9.22315
▁private	-9.22333
▁calls	-9.22335
▁camera	-9.22353
▁prins	-9.22414
gen	-9.22431
▁laws	-9.22446
▁yi	-9.22455
▁tie	-9.22487
▁lies	-9.22497
▁afternoon	-9.22538
▁purpose	-9.22538
▁teeth	-9.22538
▁gollum	-9.22538
▁blind	-9.22539
▁lisa	-9.22541
▁aunt	-9.2255
▁hiding	-9.22563
▁science	-9.2259
▁sand	-9.226
▁lying	-9.22606
▁band	-9.22624
▁saving	-9.22665
▁gary	-9.22689
▁action	-9.22753
▁amen	-9.22766
▁roberta	-9.22872
rs	-9.23039
▁using	-9.23146
▁greatest	-9.23147
▁sat	-9.23148
▁figured	-9.23267
▁learned	-9.23424
▁rings	-9.23519
▁lf	-9.23651
▁wood	-9.23837
▁continue	-9.2401
▁dogs	-9.24094
▁remain	-9.24193
▁suck	-9.24383
▁sp	-9.24531
▁prison	-9.24854
▁barr	-9.24857
▁eating	-9.24857
▁student	-9.24861
▁support	-9.25077
▁storm	-9.25099
▁ancient	-9.25102
▁everywhere	-9.25102
▁kitchen	-9.25102
▁practice	-9.25102
▁sweetheart	-9.25102
▁kingdom	-9.25102
▁sarge	-9.25102
▁indeed	-9.25102
▁repeat	-9.25103
▁sharon	-9.25105
▁price	-9.25105
▁paddle	-9.25107
▁score	-9.25115
▁large	-9.25116
▁inter	-9.25118
▁hall	-9.2515
▁sonny	-9.25159
▁sitting	-9.25162
▁medical	-9.25163
▁male	-9.2524
▁breaking	-9.25288
▁paint	-9.25345
▁completely	-9.25345
▁dreams	-9.25348
▁numbers	-9.25425
ir	-9.25457
ting	-9.25473
▁ze	-9.25713
os	-9.25989
▁pray	-9.26382
▁seeing	-9.26398
▁draw	-9.26521
▁legs	-9.26652
▁lo	-9.26908
▁cars	-9.27003
▁ear	-9.2707
▁ne	-9.27252
▁le	-9.27363
▁secure	-9.27383
▁notice	-9.274
▁idiot	-9.27531
▁steve	-9.27582
▁animal	-9.27584
▁hum	-9.27597
▁stone	-9.27678
▁major	-9.27705
▁apart	-9.27711
▁access	-9.27734
▁apparently	-9.27734
▁bottom	-9.27734
▁computer	-9.27734
▁dillon	-9.27734
▁ridiculous	-9.27734
▁square	-9.27734
▁suspect	-9.27734
▁pardon	-9.27734
▁however	-9.27735
▁swing	-9.27735
▁audience	-9.27735
▁often	-9.27744
▁whered	-9.27757
▁heh	-9.27758
▁bunch	-9.27777
▁safety	-9.27786
▁groaning	-9.27869
▁nature	-9.27901
▁systems	-9.27931
▁certainly	-9.27986
ba	-9.28147
▁arms	-9.28148
▁fan	-9.28189
▁starts	-9.28352
der	-9.28403
▁theyd	-9.28494
▁growing	-9.28505
▁plus	-9.28558
▁map	-9.28578
▁bite	-9.286
▁bones	-9.28993
ure	-9.29554
▁steal	-9.29821
ff	-9.29933
▁mention	-9.30037
▁partner	-9.30259
ard	-9.30302
▁san	-9.30362
▁colonel	-9.30436
▁foreign	-9.30436
▁pocket	-9.30436
▁smoke	-9.30436
▁rome	-9.30437
▁address	-9.30438
▁local	-9.30438
▁memory	-9.30439
▁sugar	-9.3044
▁crap	-9.30443
▁dumb	-9.30443
▁scene	-9.30476
▁pressure	-9.30482
▁type	-9.30498
▁hut	-9.30506
▁danger	-9.30518
▁incredible	-9.30523
▁willing	-9.30656
▁warning	-9.30682
▁gods	-9.30699
▁sight	-9.30706
▁fucking	-9.30926
▁pope	-9.31147
ring	-9.31207
▁passed	-9.3121
▁robots	-9.31322
act	-9.31325
▁promised	-9.31815
▁showed	-9.31847
ial	-9.32034
ise	-9.32291
▁to	-9.32319
▁picked	-9.32411
▁serve	-9.32554
▁liked	-9.32654
▁survive	-9.32933
▁escape	-9.32935
▁bell	-9.32957
▁account	-9.33091
▁appear	-9.33138
▁cardinal	-9.33154
▁zamunda	-9.33207
▁quarter	-9.33208
▁anspeak	-9.33214
▁awesome	-9.33214
▁cheese	-9.33214
▁dudley	-9.33214
▁excellent	-9.33214
▁insurance	-9.33214
▁judge	-9.33214
▁orchestra	-9.33214
▁silver	-9.33214
▁upstairs	-9.33214
▁ryan	-9.33215
▁susie	-9.33216
▁vacation	-9.33216
▁monday	-9.33216
▁romantic	-9.33218
▁possibly	-9.33219
▁roof	-9.33219
▁bobby	-9.33222
▁grail	-9.33231
▁christine	-9.33248
pe	-9.33256
▁sold	-9.33273
▁up	-9.33397
ster	-9.33508
land	-9.33694
▁stars	-9.33705
▁sh	-9.33786
di	-9.33809
▁maria	-9.33866
▁ty	-9.33892
▁sam	-9.33958
▁mac	-9.33993
just	-9.34039
▁destroyed	-9.34098
▁diamonds	-9.3424
king	-9.34404
▁on	-9.34542
▁ren	-9.34771
▁brothers	-9.3486
▁closed	-9.34927
▁plays	-9.34951
oo	-9.35059
ah	-9.35413
▁worlds	-9.35466
▁build	-9.35497
▁wheel	-9.35607
▁hol	-9.35642
ated	-9.35739
▁raise	-9.35887
▁gold	-9.36014
▁mmhm	-9.36014
▁doug	-9.36022
▁adaline	-9.36071
▁anderson	-9.36071
▁chirping	-9.36071
▁christopher	-9.36071
▁doubtfire	-9.36071
▁evidence	-9.36071
▁insane	-9.36071
▁plenty	-9.36071
▁project	-9.36071
▁shirt	-9.36071
▁strength	-9.36071
▁subject	-9.36071
▁cruel	-9.36071
▁rafo	-9.36071
▁denise	-9.36071
▁jerry	-9.36071
▁taught	-9.36072
▁truly	-9.36072
▁brown	-9.36073
▁silly	-9.36078
▁scratch	-9.36079
▁noise	-9.36079
▁awful	-9.3609
▁famous	-9.36109
▁listening	-9.36132
▁manager	-9.36159
▁usually	-9.36166
▁note	-9.3648
▁lab	-9.36699
▁besides	-9.37131
▁t	-9.37236
▁staying	-9.37302
ha	-9.3744
▁ab	-9.37455
▁pulled	-9.37495
co	-9.37761
▁freak	-9.3795
▁interest	-9.38027
▁surf	-9.38054
▁takes	-9.38225
sh	-9.3848
▁piss	-9.3862
▁fighting	-9.38679
▁decide	-9.38683
▁create	-9.38688
▁ma	-9.38786
▁russia	-9.38865
▁fought	-9.39013
▁grandfather	-9.39013
▁pregnant	-9.39013
▁pilot	-9.39015
▁source	-9.39017
▁ugh	-9.39025
▁beauty	-9.39041
▁claudio	-9.39052
▁shaw	-9.39056
▁pink	-9.39066
▁shake	-9.39098
▁decision	-9.39104
▁prince	-9.3912
▁heaven	-9.39122
▁coat	-9.39136
▁hoping	-9.39251
▁uit	-9.39278
▁problems	-9.39423
line	-9.39521
▁ends	-9.39556
▁screeching	-9.39561
▁ra	-9.39567
▁commander	-9.39597
▁cons	-9.39725
▁dollars	-9.39754
bi	-9.39808
▁whispers	-9.39846
▁seemed	-9.40328
com	-9.40368
▁player	-9.40661
▁trained	-9.40688
▁shower	-9.4069
ca	-9.40718
▁cleaning	-9.40871
ions	-9.41043
▁lou	-9.41053
▁rip	-9.413
▁stu	-9.41394
▁bother	-9.41434
▁lift	-9.4156
▁fill	-9.41735
▁drinking	-9.41775
▁spoke	-9.41892
▁killer	-9.41923
▁gentle	-9.42002
▁exciting	-9.42043
▁monitor	-9.42043
▁simply	-9.42043
▁earlier	-9.42043
▁empty	-9.42043
▁snow	-9.42043
▁cousin	-9.42043
▁trapped	-9.42048
▁allison	-9.42049
▁innocent	-9.42051
▁loose	-9.42051
▁blackwood	-9.42053
▁biggest	-9.42054
▁elevator	-9.42056
▁pants	-9.42057
▁ronan	-9.42061
▁literally	-9.42065
▁dna	-9.42076
▁shop	-9.42081
▁operation	-9.42083
▁view	-9.42096
▁held	-9.42133
▁kate	-9.42153
▁plate	-9.42164
ee	-9.42207
▁egg	-9.42215
▁ticket	-9.42283
▁honestly	-9.42283
▁grown	-9.42286
▁circle	-9.42296
▁iron	-9.42328
▁approaching	-9.42375
ally	-9.42408
▁bo	-9.42469
▁horses	-9.42546
▁harm	-9.42569
▁pen	-9.42671
▁headed	-9.42701
▁shed	-9.42704
vo	-9.42811
▁letter	-9.42841
▁beer	-9.42875
▁prom	-9.42905
▁ba	-9.43117
▁believed	-9.43163
▁file	-9.43367
▁kinda	-9.43409
▁fe	-9.438
▁flying	-9.4386
▁shine	-9.43874
▁enter	-9.44181
▁hanging	-9.4428
▁screech	-9.44588
▁goin	-9.44634
led	-9.44864
▁prepare	-9.44962
▁ought	-9.45046
▁butt	-9.45062
▁post	-9.45126
▁rod	-9.45158
▁among	-9.45168
▁bertleman	-9.45168
▁exhales	-9.45168
▁fresh	-9.45168
▁somehow	-9.45168
▁thunder	-9.45168
▁whether	-9.45168
▁kitai	-9.45168
▁thief	-9.45168
▁threw	-9.45168
▁larry	-9.45168
▁groot	-9.45171
▁spock	-9.45171
▁alex	-9.45177
▁baseball	-9.4518
▁abby	-9.45187
▁jody	-9.45189
▁clock	-9.45189
▁hier	-9.45193
▁holding	-9.45242
▁keeping	-9.45257
▁suddenly	-9.45296
▁wise	-9.45358
▁invited	-9.45363
▁row	-9.45368
▁softly	-9.45428
▁spy	-9.45477
▁beeping	-9.45484
ea	-9.45507
▁mu	-9.4557
▁plans	-9.45584
▁heights	-9.45586
▁tail	-9.45593
▁failed	-9.45597
▁orders	-9.45742
▁gus	-9.45858
▁sin	-9.45926
▁leader	-9.45957
▁nation	-9.45963
he	-9.46152
▁rent	-9.46305
▁pin	-9.464
▁returned	-9.4654
▁beeps	-9.46713
▁rob	-9.4726
▁fuck	-9.47326
▁sub	-9.47497
off	-9.47559
▁ms	-9.47741
ther	-9.47803
▁cu	-9.47892
▁arrest	-9.47935
▁concern	-9.47937
▁sara	-9.48358
▁bourne	-9.48394
▁chinese	-9.48394
▁enemies	-9.48394
▁london	-9.48394
▁marriage	-9.48394
▁nuclear	-9.48394
▁relationship	-9.48394
▁stormtrooper	-9.48394
▁credit	-9.48394
▁location	-9.48394
▁social	-9.48394
▁jerk	-9.48395
▁sammy	-9.484
▁blame	-9.48405
▁marshall	-9.48406
▁macho	-9.48409
▁dropped	-9.48421
▁max	-9.48424
▁johnny	-9.4843
▁bro	-9.48432
▁brave	-9.48441
▁panic	-9.4845
▁chili	-9.48467
▁rise	-9.48495
▁powerful	-9.48505
▁writing	-9.48507
▁bigger	-9.48524
▁trick	-9.48578
▁zoon	-9.48588
▁stage	-9.48604
▁voices	-9.48605
▁confirmed	-9.48631
▁spare	-9.48635
▁grave	-9.48646
▁sue	-9.48657
▁wil	-9.48663
▁bb	-9.48744
▁size	-9.48788
▁belong	-9.48806
▁patient	-9.4882
▁orc	-9.49152
▁cl	-9.49189
▁chase	-9.4934
mi	-9.49442
▁ti	-9.49712
ak	-9.49969
▁names	-9.50391
▁disappear	-9.50642
▁fail	-9.50645
▁no	-9.50785
▁aliens	-9.50822
▁older	-9.51126
▁bless	-9.51223
▁tu	-9.51283
▁hill	-9.51338
▁sacrifice	-9.51375
q	-9.51396
ect	-9.51451
▁deliver	-9.51485
▁contract	-9.51585
▁bike	-9.51611
▁ch	-9.51646
▁bright	-9.51699
▁split	-9.51715
▁brand	-9.51717
▁asleep	-9.51727
▁breakfast	-9.51727
▁brilliant	-9.51727
▁carlisle	-9.51727
▁fantastic	-9.51727
▁galaxy	-9.51727
▁jij	-9.51727
▁lanning	-9.51727
▁penguin	-9.51727
▁percent	-9.51727
▁response	-9.51727
▁sheriff	-9.51727
▁traffic	-9.51727
▁zidler	-9.51727
▁vanessa	-9.51727
▁upset	-9.51728
▁alert	-9.51729
▁trash	-9.51729
▁tyler	-9.51734
▁bride	-9.51735
▁nope	-9.51736
▁department	-9.51738
▁blast	-9.51768
▁director	-9.51785
▁winter	-9.51794
▁neck	-9.518
▁pictures	-9.51803
▁under	-9.51807
ver	-9.51808
▁labor	-9.51815
ating	-9.51876
▁sweetie	-9.51901
▁babe	-9.51999
▁stranger	-9.52192
ow	-9.52214
▁missile	-9.5231
▁main	-9.52324
▁aan	-9.52516
▁toy	-9.52524
▁ld	-9.52621
▁nurse	-9.52623
▁loss	-9.52651
▁murdered	-9.52716
dog	-9.52769
▁goodness	-9.52811
▁nuts	-9.52833
▁birds	-9.52836
▁closer	-9.52903
lin	-9.52973
▁cheers	-9.53079
▁crack	-9.53252
▁va	-9.53768
▁newt	-9.53789
▁vi	-9.53825
▁wh	-9.53846
▁games	-9.54091
▁screw	-9.54136
▁fired	-9.54241
▁switch	-9.54688
▁experience	-9.54864
▁letters	-9.54891
▁waters	-9.55096
▁chair	-9.5515
▁birth	-9.55165
▁apologize	-9.55175
▁bottle	-9.55175
▁chirps	-9.55175
▁female	-9.55175
▁gabriel	-9.55175
▁minho	-9.55175
▁otherwise	-9.55175
▁patrick	-9.55175
▁piragua	-9.55175
▁restaurant	-9.55175
▁soviet	-9.55175
▁speech	-9.55175
▁toilet	-9.55175
▁tongue	-9.55175
▁italy	-9.55176
▁precious	-9.55176
▁desire	-9.55177
▁mood	-9.55178
▁claim	-9.55178
▁orb	-9.55178
▁camp	-9.55179
▁disease	-9.55179
▁available	-9.55181
▁balin	-9.55184
▁roarke	-9.55185
▁martin	-9.55189
▁sunday	-9.55194
▁cody	-9.55202
▁priory	-9.55204
▁market	-9.55212
▁gra	-9.55216
▁freeze	-9.55233
▁proper	-9.55234
▁af	-9.55237
▁carver	-9.55289
▁wipe	-9.55381
▁yelling	-9.55398
▁ca	-9.55504
▁queens	-9.55567
op	-9.5562
▁gotham	-9.55674
hi	-9.55723
▁pipe	-9.55786
▁watched	-9.55803
ier	-9.55807
▁surprised	-9.55826
▁condition	-9.55835
▁model	-9.55881
▁dot	-9.56171
▁bucks	-9.5626
▁chill	-9.563
▁families	-9.5636
bu	-9.56793
▁ka	-9.56815
▁chest	-9.57168
▁ira	-9.57323
og	-9.57352
▁who	-9.57766
▁walked	-9.57914
▁ian	-9.57928
▁ruin	-9.58288
▁grant	-9.58299
▁official	-9.58546
do	-9.5865
▁and	-9.58744
▁advice	-9.58747
▁dwarf	-9.58747
▁easier	-9.58747
▁friday	-9.58747
▁suicide	-9.58747
▁vehicle	-9.58747
▁weather	-9.58747
▁wolf	-9.58747
▁benedick	-9.58747
▁cheap	-9.58747
▁usnavi	-9.58747
▁evelyn	-9.58747
▁hadnt	-9.58747
▁desert	-9.58747
▁signior	-9.58747
▁cancer	-9.58747
▁theory	-9.58748
▁kelly	-9.5875
▁staff	-9.58751
▁slide	-9.58751
▁campbell	-9.58751
▁augustus	-9.58751
▁adler	-9.58755
▁grew	-9.58758
▁spring	-9.58761
▁familiar	-9.58764
▁written	-9.58778
▁penny	-9.58797
▁waar	-9.58819
▁weight	-9.5884
▁flat	-9.58843
ft	-9.58844
▁national	-9.58849
▁lesson	-9.58906
▁zero	-9.58962
▁original	-9.58966
ence	-9.58981
▁saun	-9.58987
▁fred	-9.59009
▁cure	-9.59011
▁checking	-9.59067
▁indian	-9.5915
▁created	-9.59157
▁out	-9.59211
ac	-9.59245
▁bent	-9.59247
▁sexy	-9.59325
▁joint	-9.59367
▁allowed	-9.59469
▁wayne	-9.595
bo	-9.59523
▁page	-9.59527
▁hearing	-9.59618
▁sooner	-9.59661
▁knocking	-9.59808
▁ohh	-9.60069
▁fel	-9.60173
▁driver	-9.60185
▁states	-9.60219
▁bringing	-9.60573
▁pie	-9.60605
over	-9.60617
▁hardly	-9.60624
one	-9.6067
▁attacked	-9.60711
▁fingers	-9.60948
▁ar	-9.61403
▁hoe	-9.61745
▁tip	-9.61808
▁am	-9.61926
▁discuss	-9.61938
▁matt	-9.62018
▁forces	-9.62353
▁helen	-9.6238
▁helped	-9.6241
▁comfort	-9.62413
▁chick	-9.62431
▁although	-9.6245
▁became	-9.6245
▁horrible	-9.6245
▁kobayashi	-9.6245
▁particular	-9.6245
▁sophie	-9.6245
▁treasure	-9.6245
▁attempt	-9.6245
▁piano	-9.62451
▁complicated	-9.62451
▁repair	-9.62452
▁marisa	-9.62452
▁mommy	-9.62452
▁belt	-9.62452
▁insist	-9.62453
▁yellow	-9.62453
▁clue	-9.62455
▁tiger	-9.62458
▁surgery	-9.62462
▁oak	-9.62468
▁fellow	-9.62469
▁naked	-9.62475
▁q	-9.6248
▁bert	-9.62483
▁rocket	-9.62516
▁nathan	-9.62529
▁eric	-9.62593
▁ray	-9.62754
▁healthy	-9.62796
▁scan	-9.62876
fi	-9.63003
her	-9.6304
▁entirely	-9.63097
▁bath	-9.63111
▁faster	-9.63165
▁announc	-9.63283
▁ghost	-9.63297
▁holiday	-9.63332
▁bullet	-9.63338
▁satellite	-9.63364
▁pirate	-9.63379
▁metal	-9.634
▁guest	-9.63402
▁data	-9.63514
▁dressed	-9.63637
▁bi	-9.64081
ze	-9.64103
ball	-9.64232
▁creatures	-9.64736
▁cares	-9.64829
▁sisters	-9.64993
ga	-9.65031
▁doctors	-9.65083
day	-9.65104
▁opens	-9.65685
▁ln	-9.65734
▁study	-9.65804
▁request	-9.65831
▁powers	-9.65896
ger	-9.66017
ize	-9.66069
▁scott	-9.66084
per	-9.66086
▁chew	-9.66173
▁woods	-9.66173
▁akeem	-9.66296
▁babies	-9.66296
▁benjamin	-9.66296
▁confess	-9.66296
▁courage	-9.66296
▁destiny	-9.66296
▁intelligence	-9.66296
▁schedule	-9.66296
▁surveillance	-9.66296
▁whenever	-9.66296
▁buried	-9.66297
▁disaster	-9.66297
▁jimmy	-9.66297
▁opinion	-9.66297
▁ugly	-9.66297
▁devil	-9.66297
▁fake	-9.66297
▁opportunity	-9.66298
▁barely	-9.66298
▁whoever	-9.663
▁creak	-9.663
▁jonathan	-9.663
▁virgin	-9.66301
▁assistant	-9.66302
▁alarm	-9.66302
▁thatll	-9.66303
▁france	-9.66304
▁spell	-9.66311
▁internet	-9.66313
▁property	-9.66313
▁distance	-9.66315
▁duck	-9.66315
▁cake	-9.66318
▁cabin	-9.66353
▁darkness	-9.66369
▁loan	-9.66382
▁honking	-9.66382
▁wet	-9.66405
▁dirty	-9.66456
▁scare	-9.66567
▁geen	-9.66634
▁cameras	-9.66786
▁exist	-9.66865
▁bull	-9.67034
▁all	-9.67108
kin	-9.67343
▁walls	-9.67352
▁soldiers	-9.67478
ped	-9.67561
▁bust	-9.67715
▁expecting	-9.67723
▁flowers	-9.67894
▁acting	-9.68031
▁turner	-9.68148
▁lines	-9.68237
▁blowing	-9.6828
ph	-9.68381
▁port	-9.68402
▁di	-9.68572
▁wings	-9.68686
▁y	-9.68739
▁ships	-9.6881
▁grade	-9.68912
▁hunt	-9.69111
side	-9.6915
▁sending	-9.6918
▁humans	-9.69245
▁mile	-9.69274
▁fl	-9.69621
▁hook	-9.69633
ov	-9.69637
▁rush	-9.69686
▁dump	-9.69825
▁bail	-9.69832
▁of	-9.699
▁damage	-9.69954
▁direct	-9.69981
ep	-9.7006
▁spoon	-9.70106
▁natural	-9.70127
▁threat	-9.70202
▁clears	-9.70267
▁alabanza	-9.70296
▁current	-9.70296
▁heeft	-9.70296
▁moscow	-9.70296
▁experiment	-9.70297
▁hermia	-9.70297
▁vote	-9.70297
▁downtown	-9.70297
▁strip	-9.70297
▁habit	-9.70297
▁recognize	-9.70299
▁permission	-9.70299
▁lawyer	-9.70301
▁calvin	-9.70302
▁loving	-9.70306
▁value	-9.70307
▁quill	-9.70308
▁merry	-9.70311
▁applause	-9.70311
▁saint	-9.70312
▁witch	-9.70323
▁droid	-9.70324
▁nasty	-9.7034
▁thud	-9.70342
▁yearold	-9.70355
▁basement	-9.70361
▁nah	-9.70362
▁glen	-9.70376
▁vision	-9.70379
▁ruby	-9.70391
▁hem	-9.70405
▁coughing	-9.70407
▁scary	-9.70476
▁directly	-9.70495
▁carson	-9.70615
▁feelings	-9.70718
▁noticed	-9.70809
▁spiders	-9.70929
▁lu	-9.71008
▁fathers	-9.71041
lu	-9.71262
▁cooking	-9.71273
▁effect	-9.7146
▁monster	-9.71469
▁fully	-9.71476
▁fixed	-9.71486
▁dragon	-9.71574
▁ranger	-9.71603
▁greene	-9.71624
▁sec	-9.71899
wa	-9.72076
▁me	-9.72106
ach	-9.72107
▁keeps	-9.7213
▁wee	-9.72163
▁records	-9.72325
ism	-9.72337
▁par	-9.72356
▁shape	-9.72495
val	-9.72517
▁dry	-9.72517
ble	-9.72731
ick	-9.72733
▁opening	-9.7287
▁wit	-9.72929
cy	-9.73237
ay	-9.73254
the	-9.73442
ste	-9.73523
▁coast	-9.73646
▁defend	-9.73847
▁introduce	-9.74114
▁assume	-9.74115
down	-9.74117
▁curse	-9.74143
▁mar	-9.74176
▁showing	-9.74246
gar	-9.74278
lic	-9.74299
▁abuela	-9.74463
▁charlotte	-9.74463
▁cliff	-9.74463
▁elliot	-9.74463
▁firm	-9.74463
▁jacob	-9.74463
▁mercedes	-9.74463
▁nowhere	-9.74463
▁ocean	-9.74463
▁oxygen	-9.74463
▁surrender	-9.74463
▁berlin	-9.74463
▁greek	-9.74463
▁shift	-9.74463
▁byebye	-9.74463
▁practical	-9.74463
▁therefore	-9.74464
▁intend	-9.74464
▁policy	-9.74464
▁funeral	-9.74465
▁dancing	-9.74465
▁interview	-9.74465
▁shock	-9.74468
▁hydra	-9.74468
▁decent	-9.74471
▁laura	-9.74477
▁role	-9.74477
▁meat	-9.74482
▁arizona	-9.74484
▁bodies	-9.74484
▁santa	-9.74488
▁china	-9.74488
▁hogs	-9.74496
▁grandma	-9.74499
▁pair	-9.745
▁ev	-9.74541
▁mister	-9.74544
▁meal	-9.74591
▁tomb	-9.74594
pt	-9.74603
▁huge	-9.74615
▁link	-9.74631
▁baron	-9.74641
▁que	-9.74671
▁eh	-9.74715
▁navy	-9.74726
▁sucks	-9.74899
▁personally	-9.74929
▁bug	-9.74952
▁wel	-9.75188
▁kan	-9.75277
▁event	-9.75301
▁played	-9.7534
▁jam	-9.75452
▁tale	-9.75466
▁ay	-9.75504
ized	-9.75708
ible	-9.75831
▁knight	-9.75873
ities	-9.75957
▁challenge	-9.75999
▁guns	-9.76021
▁shows	-9.76032
▁gi	-9.76045
ap	-9.76062
▁wiggin	-9.76263
▁med	-9.76301
▁covered	-9.76317
▁net	-9.76359
oon	-9.7642
▁mountains	-9.76512
▁streets	-9.76722
▁heads	-9.76794
ious	-9.76836
▁chi	-9.76992
▁followed	-9.77089
▁vo	-9.77415
▁rap	-9.77432
▁nee	-9.77666
ken	-9.77969
onto	-9.78214
▁dom	-9.78239
▁we	-9.78245
▁or	-9.78268
▁crush	-9.78379
▁require	-9.78442
back	-9.78464
▁release	-9.78465
▁bounce	-9.7848
▁moet	-9.78485
ping	-9.7863
▁total	-9.7866
▁atari	-9.78811
▁avoid	-9.78811
▁camerlengo	-9.78811
▁champagne	-9.78811
▁downstairs	-9.78811
▁england	-9.78811
▁freya	-9.78811
▁gilcrest	-9.78811
▁honour	-9.78811
▁increase	-9.78811
▁lieutenant	-9.78811
▁lomax	-9.78811
▁potential	-9.78811
▁vittoria	-9.78811
▁eventually	-9.78811
▁gwen	-9.78811
▁random	-9.78811
▁trigger	-9.78811
▁joffer	-9.78811
▁taylor	-9.78811
▁erik	-9.78811
▁beneath	-9.78812
▁washington	-9.78813
▁europe	-9.78814
▁celia	-9.78814
▁choking	-9.78815
▁illuminati	-9.78815
▁bunny	-9.78816
▁basically	-9.78817
▁sword	-9.78817
▁ellis	-9.78817
▁route	-9.78818
▁ridley	-9.78821
▁harry	-9.78824
▁diana	-9.78827
▁howard	-9.78834
▁hawaiian	-9.78839
▁growling	-9.78845
▁rumbling	-9.78846
▁process	-9.78846
▁according	-9.78851
▁season	-9.7886
▁technically	-9.78879
▁tiny	-9.78893
▁pool	-9.78906
▁trap	-9.78923
▁reid	-9.78934
▁phil	-9.78939
▁cr	-9.78941
▁cia	-9.79014
▁fourth	-9.79071
▁badge	-9.79122
▁cage	-9.79182
▁butter	-9.79195
▁sa	-9.79279
▁billy	-9.7928
▁coughs	-9.79404
▁agreed	-9.79566
▁app	-9.79585
ny	-9.79588
▁county	-9.7978
ern	-9.79831
gg	-9.79907
▁perfectly	-9.79986
▁opened	-9.80012
▁wie	-9.80111
▁symbol	-9.80358
▁prefer	-9.80635
▁burning	-9.80674
ler	-9.80712
tra	-9.80997
▁her	-9.81148
▁reports	-9.81182
▁falling	-9.81241
▁rat	-9.81694
uit	-9.82069
▁checked	-9.82677
▁respond	-9.82757
▁image	-9.82793
▁wash	-9.82903
ship	-9.82935
▁tr	-9.82995
▁refuse	-9.83023
ator	-9.83173
▁swan	-9.832
▁lion	-9.83275
▁corn	-9.83284
▁spit	-9.83311
▁asgard	-9.83341
▁swim	-9.83355
▁affair	-9.83356
▁amsterdam	-9.83356
▁baggins	-9.83356
▁british	-9.83356
▁empire	-9.83356
▁jerome	-9.83356
▁katherine	-9.83356
▁maintain	-9.83356
▁miracle	-9.83356
▁professional	-9.83356
▁scientific	-9.83356
▁sergeant	-9.83356
▁silence	-9.83356
▁teresa	-9.83356
▁unusual	-9.83356
▁village	-9.83356
▁arthur	-9.83357
▁pathetic	-9.83357
▁sobbing	-9.83357
▁wicked	-9.83357
▁appointment	-9.83357
▁hidden	-9.83357
▁kimble	-9.83359
▁modern	-9.8336
▁celebrate	-9.8336
▁spread	-9.83361
▁guide	-9.83362
▁bravo	-9.83363
▁community	-9.83363
▁happiness	-9.83365
▁barrio	-9.83366
▁guldan	-9.83366
▁hillard	-9.8337
▁alle	-9.83374
▁wound	-9.83379
▁handsome	-9.8338
▁bedroom	-9.8338
▁michelle	-9.83382
▁coach	-9.83383
▁energy	-9.83394
▁race	-9.83397
▁drill	-9.83412
▁julia	-9.83413
▁guilty	-9.83416
▁zori	-9.83428
▁hatch	-9.83452
▁began	-9.83454
▁castle	-9.83492
▁joan	-9.83505
▁snap	-9.83559
▁stark	-9.83604
▁rep	-9.83612
▁sitar	-9.83653
▁eve	-9.83654
▁pm	-9.83662
▁lake	-9.83685
▁here	-9.83708
▁students	-9.83817
▁impressed	-9.83825
▁cole	-9.83829
▁jet	-9.8384
▁taxi	-9.83898
▁deeply	-9.83973
▁concerned	-9.84008
▁filled	-9.84075
▁fellas	-9.84147
▁blessing	-9.84165
ties	-9.84311
end	-9.84318
▁mae	-9.84325
▁riding	-9.84501
▁highly	-9.84655
▁beast	-9.85131
▁cave	-9.85224
▁creature	-9.8524
▁finger	-9.85242
ey	-9.85266
▁sha	-9.85267
▁yard	-9.85449
▁barn	-9.85482
▁chas	-9.85701
▁pu	-9.85774
▁units	-9.85829
len	-9.86107
▁mis	-9.8614
▁ross	-9.86193
▁painting	-9.86242
▁papers	-9.86331
bb	-9.86449
▁remembered	-9.86579
▁sean	-9.86629
▁para	-9.86632
ja	-9.8665
▁meaning	-9.86665
▁wing	-9.86993
▁mothers	-9.87094
▁artist	-9.87167
▁mistakes	-9.87309
▁orcs	-9.87455
ily	-9.87496
▁mass	-9.87517
▁suite	-9.87518
▁can	-9.87578
▁sink	-9.87604
▁design	-9.8766
▁talent	-9.87663
▁stayed	-9.87672
▁tickets	-9.87749
▁separate	-9.87766
▁jealous	-9.87881
▁sharp	-9.8791
▁sudden	-9.87922
▁ac	-9.87944
▁pr	-9.87946
▁federal	-9.8799
▁somethin	-9.88065
istic	-9.88097
▁beatrice	-9.88118
▁benefit	-9.88118
▁biosyn	-9.88118
▁bofur	-9.88118
▁climb	-9.88118
▁desperate	-9.88118
▁dwarves	-9.88118
▁figaro	-9.88118
▁fortune	-9.88118
▁ignore	-9.88118
▁league	-9.88118
▁medivh	-9.88118
▁necessary	-9.88118
▁ninetysix	-9.88118
▁revenge	-9.88118
▁society	-9.88118
▁someday	-9.88118
▁sweep	-9.88118
▁unknown	-9.88118
▁prevent	-9.88118
▁caroline	-9.88119
▁personnel	-9.88119
▁bandera	-9.88119
▁giggling	-9.88119
▁ate	-9.88119
▁channel	-9.88119
▁mitchell	-9.8812
▁application	-9.8812
▁pepper	-9.88121
▁monkey	-9.88123
▁sensitive	-9.88125
▁afford	-9.88126
▁youth	-9.88126
▁impressive	-9.8813
▁bread	-9.88137
▁screen	-9.88142
▁joking	-9.88144
▁march	-9.8815
▁duty	-9.88151
▁jenny	-9.88154
▁wallet	-9.88167
▁comfortable	-9.88167
▁tour	-9.88171
▁unfortunately	-9.88172
▁term	-9.88187
▁aim	-9.88191
▁sarah	-9.88192
▁standard	-9.88203
▁louisa	-9.88206
▁lonely	-9.88207
▁aware	-9.88215
▁toss	-9.8826
▁chewie	-9.88273
▁milk	-9.88286
▁su	-9.88307
▁print	-9.88314
▁involved	-9.88314
▁attend	-9.88351
▁thatd	-9.88361
▁buzzing	-9.88391
▁stolen	-9.88438
ight	-9.88452
▁arrived	-9.88466
▁letting	-9.88588
▁host	-9.88642
▁lower	-9.8868
▁paying	-9.8876
▁waited	-9.88809
▁pissed	-9.8887
▁raised	-9.88876
▁stronger	-9.88989
▁writer	-9.8913
▁boo	-9.8924
▁sequence	-9.89291
▁fairy	-9.89306
▁waves	-9.89471
uw	-9.89536
▁inc	-9.89543
ford	-9.8956
ley	-9.89723
▁cha	-9.89778
▁legal	-9.89918
▁tunnel	-9.90141
▁parking	-9.9018
▁parts	-9.90293
▁viv	-9.90661
▁dig	-9.90739
▁counting	-9.90818
▁heading	-9.90928
▁talkin	-9.90942
head	-9.90946
ill	-9.91208
▁bugs	-9.91432
▁ending	-9.91617
ple	-9.91687
let	-9.91823
▁suffer	-9.92049
▁begins	-9.92114
▁spin	-9.92117
lly	-9.92189
▁pi	-9.92463
▁fighter	-9.92635
▁borrow	-9.92656
▁limit	-9.92661
▁stress	-9.92672
▁awake	-9.92689
ette	-9.9272
▁mc	-9.92732
ose	-9.92737
▁files	-9.92737
ably	-9.92821
▁li	-9.93097
▁success	-9.93102
▁arrival	-9.93118
▁broadcast	-9.93118
▁catholic	-9.93118
▁custody	-9.93118
▁florida	-9.93118
▁genius	-9.93118
▁lucinda	-9.93118
▁mandarin	-9.93118
▁mmmhmm	-9.93118
▁physical	-9.93118
▁rough	-9.93118
▁cypher	-9.93118
▁dwalin	-9.93118
▁niece	-9.93118
▁sweat	-9.93118
▁kurt	-9.93119
▁mostly	-9.93119
▁presence	-9.93119
▁evacuation	-9.9312
▁collins	-9.93121
▁border	-9.93121
▁conference	-9.93122
▁gunshot	-9.93122
▁pride	-9.93123
▁curious	-9.93124
▁represent	-9.93124
▁unbelievable	-9.93125
▁punk	-9.93126
▁understood	-9.93127
▁protest	-9.93131
▁media	-9.93134
▁aidan	-9.93135
▁giant	-9.93135
▁dawn	-9.93148
▁desk	-9.9315
▁nova	-9.93162
▁deaf	-9.93164
▁apple	-9.93171
▁highway	-9.93206
▁decade	-9.93208
▁setting	-9.93216
▁proof	-9.93227
▁tank	-9.93235
▁jackson	-9.93239
▁ease	-9.93244
▁fury	-9.93265
▁skull	-9.93273
▁range	-9.93304
▁self	-9.9331
▁protection	-9.93345
▁spoken	-9.93369
▁qua	-9.93383
▁blade	-9.93397
▁nog	-9.93426
▁eden	-9.93434
▁hired	-9.93553
▁nearly	-9.93768
▁survived	-9.93862
▁cur	-9.93891
▁lungs	-9.93952
▁degrees	-9.93953
▁hills	-9.94051
▁freaking	-9.94137
▁kicked	-9.94344
ical	-9.94516
▁younger	-9.94534
▁closet	-9.94558
▁expected	-9.94584
▁burned	-9.948
▁settle	-9.94893
▁princess	-9.94898
io	-9.94927
▁pan	-9.94928
▁masters	-9.94975
▁bat	-9.94994
▁rate	-9.9509
▁rogers	-9.9533
▁politic	-9.95369
ax	-9.95389
▁pig	-9.95421
▁toward	-9.95462
▁shoulder	-9.95467
▁jewel	-9.95625
▁cos	-9.95756
▁harder	-9.9577
▁au	-9.95809
gh	-9.95811
▁prisoner	-9.95848
tu	-9.95852
▁bla	-9.9599
▁as	-9.96026
▁yards	-9.96259
▁ted	-9.96264
▁dez	-9.96296
lan	-9.96344
▁siren	-9.96365
▁beating	-9.96372
▁transport	-9.96717
▁naar	-9.96718
ky	-9.96758
▁ve	-9.96843
▁sc	-9.96967
▁auto	-9.96999
▁movies	-9.97021
▁engines	-9.97069
▁drugs	-9.97176
▁he	-9.97285
ade	-9.97474
we	-9.97577
▁approach	-9.97672
fa	-9.97709
well	-9.97804
▁kyl	-9.97832
▁poison	-9.97901
ify	-9.97936
▁invite	-9.98049
▁flow	-9.98067
▁manage	-9.98165
▁exact	-9.98218
umb	-9.98275
▁witness	-9.98283
▁flag	-9.98302
▁fifty	-9.98374
pro	-9.98375
▁amount	-9.98382
▁archibald	-9.98382
▁attorney	-9.98382
▁colleague	-9.98382
▁defeat	-9.98382
▁demetrius	-9.98382
▁empress	-9.98382
▁equipment	-9.98382
▁extreme	-9.98382
▁grateful	-9.98382
▁harvard	-9.98382
▁isaac	-9.98382
▁leonato	-9.98382
▁maisie	-9.98382
▁margaret	-9.98382
▁megget	-9.98382
▁memories	-9.98382
▁nemerov	-9.98382
▁pyramus	-9.98382
▁rebecca	-9.98382
▁smoking	-9.98382
▁sneak	-9.98382
▁species	-9.98382
▁anytime	-9.98382
▁closing	-9.98382
▁trail	-9.98382
▁plain	-9.98382
▁privacy	-9.98382
▁pump	-9.98382
▁temperature	-9.98382
▁shore	-9.98382
▁telephone	-9.98384
▁tracy	-9.98384
▁demand	-9.98384
▁sniff	-9.98385
▁museum	-9.98385
▁fruit	-9.98386
▁clever	-9.98387
▁prime	-9.98387
▁woodward	-9.98387
▁status	-9.98388
▁cream	-9.98388
▁houten	-9.9839
▁toast	-9.98392
▁purse	-9.98395
▁section	-9.98397
▁coward	-9.98399
▁gather	-9.984
▁stock	-9.98405
lijk	-9.98409
▁mental	-9.98411
▁touchdown	-9.98415
▁benny	-9.98415
▁heel	-9.98419
▁liar	-9.9842
▁maze	-9.98424
▁responsible	-9.98427
▁gentleman	-9.9844
▁math	-9.98448
▁edge	-9.98451
ville	-9.98471
▁capable	-9.98489
▁rare	-9.98493
▁advanced	-9.98518
▁chain	-9.98521
▁ability	-9.98548
▁golden	-9.98552
▁thus	-9.98556
▁billion	-9.98587
▁bleeding	-9.98589
▁apply	-9.98622
▁scotty	-9.98707
▁kane	-9.98708
▁wire	-9.98726
▁beth	-9.9874
▁moe	-9.98771
▁gain	-9.98786
▁discovered	-9.98793
▁doll	-9.98799
for	-9.98827
▁banging	-9.98942
▁gloves	-9.98942
▁joy	-9.99095
▁screwed	-9.99096
▁escaped	-9.99117
▁finest	-9.99207
▁wheeler	-9.9928
light	-9.99325
▁lots	-9.99399
row	-9.99454
▁non	-9.99467
pped	-9.99945
▁sigh	-10.0001
▁lin	-10.0015
▁spots	-10.0022
▁murderer	-10.0035
ging	-10.0038
lor	-10.0053
▁seal	-10.0058
ide	-10.0064
▁thor	-10.0072
▁device	-10.0092
▁member	-10.01
▁tall	-10.0103
▁shoe	-10.011
▁carr	-10.0125
▁manner	-10.0127
▁changes	-10.0129
▁jew	-10.0136
▁scar	-10.0149
tru	-10.0153
ps	-10.016
▁falls	-10.0192
ont	-10.0204
▁russians	-10.0207
▁lack	-10.0217
▁shots	-10.0224
▁shin	-10.023
▁ri	-10.024
rie	-10.0253
ab	-10.0261
▁cheat	-10.0286
tti	-10.0289
tz	-10.0294
▁there	-10.0296
▁missiles	-10.0302
▁matters	-10.0303
▁onz	-10.0315
▁belongs	-10.0319
▁tricks	-10.032
▁twist	-10.0322
▁bang	-10.0343
▁interrupt	-10.0345
▁fra	-10.0346
▁signs	-10.0356
▁comp	-10.0359
▁tear	-10.0362
like	-10.0369
▁dirt	-10.0371
face	-10.0373
bell	-10.0381
▁olive	-10.0383
▁tradition	-10.0384
port	-10.0385
▁custom	-10.0388
▁fashion	-10.0393
▁buckingham	-10.0394
▁chekov	-10.0394
▁chicago	-10.0394
▁complex	-10.0394
▁elrond	-10.0394
▁explosive	-10.0394
▁gorgeous	-10.0394
▁helicopter	-10.0394
▁including	-10.0394
▁lavelle	-10.0394
▁leigh	-10.0394
▁lemarc	-10.0394
▁mexico	-10.0394
▁miranda	-10.0394
▁oclock	-10.0394
▁pledge	-10.0394
▁rufus	-10.0394
▁subtitles	-10.0394
▁supper	-10.0394
▁terrific	-10.0394
▁terug	-10.0394
▁aether	-10.0394
▁counsel	-10.0394
▁journey	-10.0394
▁kathy	-10.0394
▁false	-10.0394
▁scoffs	-10.0394
▁stood	-10.0394
▁dork	-10.0394
▁fireworks	-10.0394
▁claire	-10.0394
▁sista	-10.0394
▁neighborhood	-10.0394
▁midnight	-10.0394
▁nicole	-10.0394
▁agency	-10.0394
▁pimp	-10.0394
▁positive	-10.0394
▁sacred	-10.0394
▁throne	-10.0394
▁valley	-10.0394
als	-10.0394
▁planning	-10.0394
▁lightning	-10.0395
▁behavior	-10.0395
▁quarterback	-10.0395
▁terrorist	-10.0395
▁governor	-10.0395
▁online	-10.0395
▁legend	-10.0396
▁mortal	-10.0396
▁century	-10.0396
▁flash	-10.0397
▁cmon	-10.0397
▁batman	-10.0397
▁emotional	-10.0399
▁comin	-10.0399
▁bl	-10.04
▁milt	-10.04
▁bags	-10.0401
▁jones	-10.0401
▁string	-10.0402
▁smith	-10.0402
▁penis	-10.0402
▁betty	-10.0403
▁sally	-10.0404
▁homework	-10.0405
▁chosen	-10.0406
▁hail	-10.0407
▁deny	-10.0407
▁statement	-10.0407
▁cow	-10.0411
▁bound	-10.0413
▁loop	-10.0415
▁received	-10.0416
▁hopeful	-10.0416
▁recall	-10.0417
▁equal	-10.0418
▁nest	-10.0419
▁laid	-10.0419
nd	-10.0421
▁predict	-10.0423
▁glasses	-10.0424
▁bra	-10.0431
▁photograph	-10.0436
▁bowl	-10.044
▁limited	-10.0445
▁designed	-10.0448
▁served	-10.0463
▁ahh	-10.0464
▁closes	-10.0466
▁ruined	-10.0466
▁janet	-10.047
▁gl	-10.0474
▁arrested	-10.0474
▁beard	-10.0481
▁woo	-10.0492
min	-10.0492
que	-10.0496
▁counter	-10.0499
▁gives	-10.0509
▁carna	-10.0516
▁stealing	-10.0518
▁forced	-10.0528
▁tracking	-10.0532
▁wha	-10.0555
▁dinosaurs	-10.0555
▁clearly	-10.0556
▁answers	-10.0568
▁trees	-10.0573
▁leads	-10.0573
▁messed	-10.0584
▁ended	-10.0589
ron	-10.0593
▁tryin	-10.0616
▁millions	-10.0622
▁scientists	-10.0624
▁torture	-10.063
tro	-10.0638
▁gar	-10.0642
▁learning	-10.0656
▁touched	-10.0658
▁beep	-10.066
▁client	-10.0687
▁goal	-10.0693
▁issue	-10.0694
▁bu	-10.0735
▁hu	-10.0739
▁mage	-10.0775
eld	-10.0816
ice	-10.0831
▁mag	-10.0859
▁pleased	-10.0883
ire	-10.0884
ors	-10.089
▁por	-10.0891
▁ski	-10.091
▁discover	-10.0916
▁career	-10.092
▁tend	-10.0921
▁betray	-10.0926
▁picking	-10.0939
board	-10.0943
▁retire	-10.0944
▁remove	-10.0948
▁provide	-10.0948
cia	-10.0953
▁glob	-10.0957
▁german	-10.0958
▁actual	-10.0964
▁invest	-10.0968
▁hm	-10.0979
▁usual	-10.0979
▁specific	-10.0981
▁andrew	-10.0982
▁ceremony	-10.0982
▁chapel	-10.0982
▁chechnya	-10.0982
▁exegol	-10.0982
▁explosion	-10.0982
▁footsteps	-10.0982
▁gardner	-10.0982
▁malekith	-10.0982
▁material	-10.0982
▁megasaki	-10.0982
▁murmuring	-10.0982
▁mystery	-10.0982
▁negative	-10.0982
▁nonsense	-10.0982
▁occasion	-10.0982
▁regular	-10.0982
▁snails	-10.0982
▁spectacular	-10.0982
▁supply	-10.0982
▁texas	-10.0982
▁traitor	-10.0982
▁vault	-10.0982
▁whirring	-10.0982
▁wynne	-10.0982
▁virus	-10.0982
▁becoming	-10.0982
▁dedicate	-10.0982
▁root	-10.0982
▁boldwood	-10.0982
▁verris	-10.0982
▁blink	-10.0982
▁trace	-10.0982
▁grandmother	-10.0982
▁everdene	-10.0982
▁committed	-10.0982
▁winning	-10.0983
▁medicine	-10.0983
▁stink	-10.0983
▁diner	-10.0983
▁kitty	-10.0983
▁garage	-10.0983
▁shopping	-10.0983
▁wiggle	-10.0983
▁foul	-10.0984
▁reward	-10.0985
▁massive	-10.0985
▁anger	-10.0985
▁rita	-10.0985
▁hank	-10.0985
▁begun	-10.0986
▁fbi	-10.0987
▁iyou	-10.0987
▁task	-10.0987
▁calor	-10.0988
▁rot	-10.0989
▁moul	-10.0991
▁boom	-10.0991
▁trial	-10.0991
▁lena	-10.0993
▁background	-10.0996
▁ballet	-10.0996
▁colt	-10.0997
▁constant	-10.0997
▁bump	-10.0999
▁style	-10.1
▁warden	-10.1
▁squealing	-10.1002
▁tele	-10.1005
▁powerless	-10.1011
▁divorced	-10.1012
▁deck	-10.1012
▁chanting	-10.1012
▁abandoned	-10.1014
▁fry	-10.1014
▁highest	-10.1016
▁gray	-10.1022
▁idiots	-10.1028
▁edie	-10.103
▁paci	-10.1036
▁sith	-10.1047
▁remains	-10.1051
▁coordinates	-10.1054
che	-10.1064
▁unh	-10.1075
▁prepared	-10.1079
▁add	-10.1081
▁fools	-10.1081
▁the	-10.1084
▁indistinctly	-10.1088
▁usr	-10.1103
bacc	-10.1103
▁crossed	-10.1111
▁armed	-10.1113
▁bob	-10.1128
▁gem	-10.1129
▁col	-10.1134
▁depends	-10.1135
▁bikers	-10.1137
zi	-10.1138
ast	-10.1147
▁boot	-10.1149
gie	-10.115
▁knees	-10.1173
▁nobodys	-10.1174
▁odd	-10.1175
▁backup	-10.1178
▁jacks	-10.1179
▁log	-10.1183
▁passing	-10.1206
bl	-10.1207
▁marks	-10.121
▁nights	-10.1213
ress	-10.1232
▁turning	-10.1233
▁ju	-10.1257
ham	-10.1262
▁ph	-10.1263
▁lad	-10.1263
bar	-10.1266
▁ook	-10.1266
▁bone	-10.1269
▁nail	-10.1269
▁primar	-10.127
▁signed	-10.1272
py	-10.1273
lar	-10.1282
▁protected	-10.1298
▁wrap	-10.1304
▁direction	-10.1315
▁val	-10.1325
art	-10.134
▁tor	-10.1357
ex	-10.1367
▁ken	-10.1402
▁cab	-10.1424
ko	-10.1427
ned	-10.1439
▁sport	-10.1442
▁rem	-10.1451
▁fla	-10.1482
▁conditions	-10.1487
▁jokes	-10.1487
▁led	-10.1494
tel	-10.1496
▁slap	-10.1497
▁helping	-10.1524
▁roar	-10.1545
▁disturb	-10.1557
▁ere	-10.1558
▁confirm	-10.1562
▁rooms	-10.1568
house	-10.1571
▁eggs	-10.1575
▁object	-10.1583
▁obvious	-10.1587
▁kom	-10.1591
▁for	-10.1598
▁possess	-10.1598
▁exam	-10.1602
▁revolution	-10.1606
▁expert	-10.1606
▁benedict	-10.1607
▁burglar	-10.1607
▁cancan	-10.1607
▁coincidence	-10.1607
▁disgusting	-10.1607
▁helmet	-10.1607
▁hobbit	-10.1607
▁lesbian	-10.1607
▁manhattan	-10.1607
▁nebula	-10.1607
▁newspaper	-10.1607
▁penkovsky	-10.1607
▁responsibility	-10.1607
▁rouge	-10.1607
▁scroll	-10.1607
▁shelter	-10.1607
▁toulouse	-10.1607
▁whimpers	-10.1607
▁worship	-10.1607
▁admire	-10.1607
▁anchor	-10.1607
▁dentist	-10.1607
▁deputy	-10.1607
▁pearl	-10.1607
▁twelve	-10.1607
▁candle	-10.1607
▁flesh	-10.1607
▁ursa	-10.1607
▁loki	-10.1607
▁blew	-10.1607
▁kili	-10.1607
▁robbed	-10.1607
▁illegal	-10.1607
▁roommate	-10.1607
▁dolittle	-10.1607
▁incident	-10.1607
▁authorities	-10.1607
▁unique	-10.1607
▁division	-10.1607
▁university	-10.1607
▁pillow	-10.1607
▁solution	-10.1607
▁crisis	-10.1607
▁rope	-10.1608
▁surface	-10.1608
▁growls	-10.1608
▁punch	-10.1608
▁vincent	-10.1608
▁blank	-10.1608
▁annie	-10.1608
▁fuel	-10.1608
▁faint	-10.1608
▁existence	-10.1608
▁couch	-10.1608
▁theme	-10.1608
▁pitch	-10.1608
▁fancy	-10.1608
▁review	-10.1609
▁failure	-10.1609
▁temple	-10.1609
▁atmosphere	-10.1609
▁bury	-10.161
▁golf	-10.161
▁appearance	-10.1611
▁dropping	-10.1612
▁deploy	-10.1612
▁stealth	-10.1614
▁forth	-10.1614
▁forest	-10.1615
▁owned	-10.1617
▁web	-10.1618
▁rusty	-10.1618
▁tech	-10.162
▁jedi	-10.1621
▁zone	-10.1627
mat	-10.1628
▁engaged	-10.163
▁stopping	-10.1632
▁alan	-10.1632
▁wander	-10.1635
▁grid	-10.1637
uc	-10.1637
▁breed	-10.164
ium	-10.164
▁fo	-10.1642
▁core	-10.1649
▁doen	-10.165
▁instructions	-10.1655
▁required	-10.1656
▁betrayed	-10.1656
owns	-10.1657
▁mor	-10.1657
▁sewer	-10.1659
▁bay	-10.166
▁gu	-10.1664
▁secrets	-10.1672
▁site	-10.1673
▁stairs	-10.1674
▁gay	-10.1675
▁classic	-10.1676
▁sadly	-10.1679
▁dull	-10.1691
▁union	-10.1691
▁hunting	-10.1702
▁mutants	-10.1713
▁off	-10.1718
▁hy	-10.1719
zz	-10.1723
test	-10.1732
▁musketeers	-10.1732
▁treated	-10.1735
▁points	-10.1741
▁sla	-10.1747
▁louis	-10.175
ied	-10.175
▁warn	-10.1766
you	-10.1772
▁dancer	-10.1785
▁reached	-10.1789
▁likely	-10.1809
▁surely	-10.1811
▁beta	-10.1812
▁yells	-10.1812
▁bid	-10.1816
▁anti	-10.1823
▁alli	-10.1829
tri	-10.1832
▁scale	-10.1835
▁options	-10.1849
▁vampires	-10.1849
▁sen	-10.1866
▁somebodys	-10.187
iss	-10.1872
▁criminals	-10.1888
ole	-10.1901
even	-10.1926
▁result	-10.1974
lock	-10.1975
▁nightmare	-10.1976
▁luke	-10.1982
▁criminal	-10.1982
▁roger	-10.1984
▁goed	-10.2007
▁hates	-10.2037
▁ordered	-10.2057
▁dragons	-10.2066
▁guests	-10.2106
▁pirates	-10.2106
▁turns	-10.2113
con	-10.2114
▁fore	-10.2115
▁announce	-10.212
cho	-10.2123
▁drivers	-10.2137
▁gear	-10.217
sigu	-10.2194
▁drag	-10.2204
▁complain	-10.2213
▁perform	-10.2223
▁contain	-10.2224
▁dads	-10.2229
▁ag	-10.2231
▁divorce	-10.224
▁rescue	-10.2243
room	-10.225
▁affect	-10.227
▁recommend	-10.227
▁zac	-10.2271
▁progress	-10.2272
▁basic	-10.2273
▁atlantic	-10.2274
▁california	-10.2274
▁caretaker	-10.2274
▁centuries	-10.2274
▁circus	-10.2274
▁compliment	-10.2274
▁divine	-10.2274
▁durotan	-10.2274
▁expensive	-10.2274
▁harold	-10.2274
▁inspiration	-10.2274
▁jersey	-10.2274
▁knife	-10.2274
▁magazine	-10.2274
▁mobile	-10.2274
▁muffled	-10.2274
▁patrol	-10.2274
▁pizza	-10.2274
▁rehearsal	-10.2274
▁rhoda	-10.2274
▁salmon	-10.2274
▁sandwich	-10.2274
▁sparrow	-10.2274
▁struggle	-10.2274
▁terribly	-10.2274
▁thieves	-10.2274
▁towel	-10.2274
▁trunk	-10.2274
▁uncomfortable	-10.2274
▁vessel	-10.2274
▁wreck	-10.2274
▁yahoo	-10.2274
▁balance	-10.2274
▁eminence	-10.2274
▁kijk	-10.2274
▁recover	-10.2274
▁several	-10.2274
▁silent	-10.2274
▁slaughter	-10.2274
▁rude	-10.2274
▁senior	-10.2274
▁stewart	-10.2274
▁drove	-10.2274
▁insight	-10.2274
▁ruth	-10.2274
▁cowboy	-10.2274
▁francisco	-10.2274
▁uniform	-10.2274
▁debt	-10.2274
▁hahaha	-10.2274
▁rodney	-10.2274
▁yorktown	-10.2274
▁example	-10.2274
▁mercy	-10.2274
▁latin	-10.2274
▁elves	-10.2274
▁scanner	-10.2275
▁phase	-10.2275
▁sexual	-10.2275
▁lucy	-10.2275
▁garden	-10.2275
▁fache	-10.2275
▁carrier	-10.2275
▁constantine	-10.2275
▁destruction	-10.2275
▁fox	-10.2276
▁engagement	-10.2276
▁shaking	-10.2276
▁thirty	-10.2276
▁aboard	-10.2276
▁electric	-10.2276
▁brake	-10.2276
▁genetic	-10.2277
▁spill	-10.2277
▁winner	-10.2277
▁rail	-10.2277
▁effective	-10.2277
▁stake	-10.2277
▁package	-10.2278
▁gang	-10.2279
▁forgotten	-10.2279
▁airport	-10.2279
▁contest	-10.228
▁richter	-10.228
▁motion	-10.228
▁uhuh	-10.228
▁ox	-10.2281
▁cabot	-10.2281
▁recently	-10.2284
five	-10.2285
▁ofthe	-10.2285
▁painful	-10.2285
▁connection	-10.2286
▁captured	-10.2286
▁delight	-10.2288
▁cardinals	-10.2288
▁appears	-10.2289
▁lane	-10.2289
▁gim	-10.2289
ological	-10.2289
▁mol	-10.2296
▁hood	-10.2297
▁dave	-10.2298
▁pity	-10.2309
▁developed	-10.2315
▁loaded	-10.2317
bur	-10.2318
itt	-10.2332
▁lamb	-10.2332
▁ears	-10.2333
▁sealed	-10.2336
▁dive	-10.2337
▁gene	-10.2343
▁crushed	-10.2346
▁pot	-10.2347
▁sighing	-10.2348
yard	-10.2357
▁meer	-10.2362
▁my	-10.2375
▁pat	-10.2396
▁mer	-10.2396
ner	-10.2397
▁mid	-10.2399
▁pod	-10.241
▁latest	-10.2412
▁realized	-10.2417
mbo	-10.2437
▁farmer	-10.2441
▁ob	-10.2446
▁enjoyed	-10.2447
ada	-10.2483
▁metro	-10.2487
rade	-10.2496
▁enjoying	-10.2496
▁samples	-10.2512
▁sayin	-10.2512
▁sm	-10.2515
▁unto	-10.2522
▁formal	-10.2537
▁clouds	-10.2554
▁ke	-10.2575
▁cal	-10.2581
▁cont	-10.2581
▁pushing	-10.2585
▁hip	-10.2607
▁drinks	-10.2618
▁lately	-10.2619
▁kn	-10.2639
▁cheer	-10.264
▁brains	-10.2642
▁ros	-10.2647
▁fund	-10.2654
▁towards	-10.266
▁shooter	-10.2673
ina	-10.2683
▁tornado	-10.2686
▁cats	-10.2687
▁photo	-10.2695
▁cloud	-10.2695
ook	-10.2697
▁scientist	-10.2697
▁folk	-10.2702
▁cuba	-10.2709
ita	-10.2712
▁shooting	-10.2718
ified	-10.2723
▁flower	-10.2727
▁dreaming	-10.2731
mon	-10.2754
▁answering	-10.2757
▁steps	-10.2768
nder	-10.2779
▁americans	-10.2791
▁thousands	-10.2791
▁trans	-10.282
right	-10.2823
▁loser	-10.2825
ient	-10.2825
uff	-10.2828
▁events	-10.284
tle	-10.2851
▁victor	-10.2861
ology	-10.2873
▁patients	-10.2896
▁gri	-10.2897
▁wast	-10.2925
▁inform	-10.2936
▁text	-10.294
▁dia	-10.294
▁cancel	-10.2941
▁reveal	-10.2941
▁pee	-10.2942
▁load	-10.2945
▁guarantee	-10.2952
spite	-10.2955
cut	-10.2956
▁corps	-10.2963
▁incredibl	-10.2964
▁hung	-10.2968
▁sauce	-10.2969
▁chose	-10.2975
pping	-10.2985
▁viol	-10.2985
▁defense	-10.2985
▁intern	-10.2987
▁dec	-10.2987
annah	-10.2988
▁lysander	-10.2988
▁attitude	-10.2988
▁awkward	-10.2988
▁brucie	-10.2988
▁character	-10.2988
▁cigarette	-10.2988
▁comanche	-10.2988
▁conclave	-10.2988
▁embassy	-10.2988
▁emmett	-10.2988
▁encounter	-10.2988
▁escort	-10.2988
▁garbage	-10.2988
▁intense	-10.2988
▁jessica	-10.2988
▁kemosabe	-10.2988
▁koninklijk	-10.2988
▁krall	-10.2988
▁library	-10.2988
▁luggage	-10.2988
▁mississippi	-10.2988
▁pamela	-10.2988
▁physics	-10.2988
▁pleasant	-10.2988
▁pulse	-10.2988
▁rabbit	-10.2988
▁religion	-10.2988
▁renesmee	-10.2988
▁satisfied	-10.2988
▁sciama	-10.2988
▁spencer	-10.2988
▁splash	-10.2988
▁stanley	-10.2988
▁swarm	-10.2988
▁technology	-10.2988
▁unexpected	-10.2988
▁yondu	-10.2988
▁adult	-10.2988
▁snake	-10.2988
▁flew	-10.2988
▁kgb	-10.2988
▁sensors	-10.2988
▁email	-10.2988
▁element	-10.2988
▁incoming	-10.2988
▁proceed	-10.2988
▁tooth	-10.2988
▁davis	-10.2988
▁bachelorette	-10.2988
▁whyd	-10.2988
▁priest	-10.2988
▁underground	-10.2988
▁clapping	-10.2988
▁dewey	-10.2988
▁digging	-10.2989
▁magnet	-10.2989
▁title	-10.2989
▁pogue	-10.2989
▁hammer	-10.2989
▁nonny	-10.2989
▁reaction	-10.2989
▁flame	-10.299
▁inspector	-10.299
▁kirk	-10.299
▁whatre	-10.299
▁radar	-10.299
▁successful	-10.299
▁tuck	-10.299
▁identity	-10.2991
▁leak	-10.2991
▁slip	-10.2991
▁myth	-10.2991
▁survival	-10.2992
▁aside	-10.2993
▁minor	-10.2993
▁weakness	-10.2995
▁swell	-10.2995
▁discussion	-10.2996
▁precisely	-10.2996
▁sailor	-10.2996
▁oil	-10.2997
▁bedtime	-10.2998
▁secretary	-10.2999
▁stamper	-10.3
▁stray	-10.3002
▁vent	-10.3003
▁cellar	-10.301
▁dragged	-10.301
▁royal	-10.301
▁boring	-10.3011
▁forty	-10.3011
▁bij	-10.3012
▁embarrassing	-10.3012
▁convinced	-10.3014
▁bumpy	-10.3017
▁discovery	-10.3017
▁beats	-10.3017
▁dies	-10.3018
▁tone	-10.3018
▁earn	-10.3024
▁cargo	-10.3027
▁cock	-10.3028
▁magical	-10.3029
▁hug	-10.3029
▁connected	-10.3031
▁nss	-10.3031
▁passion	-10.3033
▁earned	-10.3035
▁lifetime	-10.3039
tie	-10.304
▁sets	-10.3043
▁whistles	-10.3043
cha	-10.3044
▁todays	-10.3049
▁former	-10.3051
▁tempt	-10.3059
▁actor	-10.3059
▁fr	-10.3064
▁honks	-10.3068
▁jean	-10.3077
▁reacher	-10.3078
▁granted	-10.3083
▁tag	-10.3086
▁hostages	-10.3088
▁nicky	-10.3089
▁mil	-10.3093
▁slowly	-10.3104
▁jd	-10.3104
▁ton	-10.3111
▁smaller	-10.3123
▁maya	-10.3132
▁transfer	-10.3144
▁disco	-10.3149
je	-10.3151
jo	-10.3155
▁skills	-10.3155
▁frankly	-10.3161
▁considered	-10.3163
ber	-10.3164
gul	-10.3178
▁clan	-10.3184
▁crashing	-10.3191
▁shouts	-10.3201
▁gifted	-10.3233
▁pushed	-10.3249
▁dial	-10.3261
▁drawer	-10.3264
▁ant	-10.3264
▁officers	-10.3282
▁kings	-10.3325
▁will	-10.3358
▁issues	-10.3358
▁scream	-10.3364
▁kissing	-10.3365
▁lee	-10.3372
ency	-10.3383
ddle	-10.3399
rt	-10.3406
▁prisoners	-10.3419
▁beam	-10.3463
▁victim	-10.3463
▁vampire	-10.3465
▁diamond	-10.3472
▁option	-10.3472
▁beside	-10.3473
▁sometime	-10.3473
▁sale	-10.3477
▁throwing	-10.3478
▁cleared	-10.3483
▁fed	-10.3484
▁asset	-10.3489
▁ni	-10.3512
▁walker	-10.353
▁odds	-10.3533
fer	-10.3548
▁spa	-10.3557
▁satellites	-10.3566
lle	-10.3572
tre	-10.3611
▁smells	-10.3618
ell	-10.3621
▁toys	-10.3636
▁lookin	-10.3646
ack	-10.366
not	-10.3664
nny	-10.3684
▁regard	-10.3695
▁connect	-10.3697
▁crawl	-10.3697
▁arrive	-10.37
▁pur	-10.3704
▁ape	-10.3705
▁bow	-10.3705
▁develop	-10.3708
▁summon	-10.371
work	-10.3711
woman	-10.3715
▁leaders	-10.3717
▁qui	-10.3718
print	-10.3725
bird	-10.3727
book	-10.3731
oh	-10.3733
▁rapid	-10.3739
▁pale	-10.3743
▁cruise	-10.3745
▁claudi	-10.3747
▁express	-10.3753
▁terror	-10.3755
▁surge	-10.3757
▁replace	-10.3757
▁anniversary	-10.3757
▁annoying	-10.3757
▁bonzo	-10.3757
▁breeze	-10.3757
▁chadwick	-10.3757
▁chemical	-10.3757
▁chenkov	-10.3757
▁clattering	-10.3757
▁dartagnan	-10.3757
▁december	-10.3757
▁dessert	-10.3757
▁easily	-10.3757
▁exercise	-10.3757
▁falcon	-10.3757
▁identify	-10.3757
▁international	-10.3757
▁invasion	-10.3757
▁invisible	-10.3757
▁ipkiss	-10.3757
▁justice	-10.3757
▁malfunction	-10.3757
▁monsieur	-10.3757
▁natasha	-10.3757
▁outlaw	-10.3757
▁outstanding	-10.3757
▁patience	-10.3757
▁popular	-10.3757
▁proposal	-10.3757
▁rosalie	-10.3757
▁scraping	-10.3757
▁sebastian	-10.3757
▁sheila	-10.3757
▁shrieks	-10.3757
▁swiss	-10.3757
▁traynor	-10.3757
▁widow	-10.3757
▁central	-10.3757
▁companion	-10.3757
▁federation	-10.3757
▁fetch	-10.3757
▁insult	-10.3757
▁joseph	-10.3757
▁mobley	-10.3757
▁outfit	-10.3757
▁smooth	-10.3757
▁succeed	-10.3757
▁visual	-10.3757
▁flood	-10.3757
▁jarvis	-10.3757
▁raji	-10.3757
▁gracias	-10.3757
▁lamia	-10.3757
▁pussy	-10.3757
▁pursue	-10.3757
▁serum	-10.3757
▁superior	-10.3757
▁treadstone	-10.3757
▁extend	-10.3757
▁wellesley	-10.3757
▁jeez	-10.3757
▁wacht	-10.3757
▁drew	-10.3757
▁banana	-10.3757
▁bishop	-10.3757
▁goddess	-10.3757
▁television	-10.3757
▁jasper	-10.3757
▁ventura	-10.3757
▁bald	-10.3757
▁kidnapping	-10.3757
▁dood	-10.3758
▁stein	-10.3758
▁altijd	-10.3758
▁declare	-10.3758
▁urgent	-10.3758
▁firing	-10.3758
▁legacy	-10.3758
▁polite	-10.3758
▁bargain	-10.3758
▁brush	-10.3758
▁halt	-10.3758
▁commitment	-10.3759
▁noble	-10.3759
▁competition	-10.3759
▁severe	-10.3759
▁daily	-10.3759
▁moeder	-10.3759
▁steady	-10.376
▁groom	-10.376
▁owner	-10.376
▁quest	-10.376
▁bowman	-10.376
▁impression	-10.3761
▁witter	-10.3761
▁tool	-10.3761
▁memorial	-10.3761
▁realms	-10.3761
▁leia	-10.3761
▁planned	-10.3763
▁intention	-10.3763
▁ashes	-10.3763
▁bible	-10.3763
▁laughter	-10.3766
▁exchange	-10.3766
▁heal	-10.3768
▁thisby	-10.3769
▁confused	-10.377
▁chart	-10.3771
▁cutting	-10.3771
▁formic	-10.3773
uch	-10.3773
berry	-10.3773
▁authorized	-10.3775
▁ons	-10.3776
▁daylight	-10.3781
▁victory	-10.3783
au	-10.3783
▁assured	-10.3783
▁humanity	-10.3785
▁haar	-10.3787
▁leven	-10.3788
▁goodnight	-10.3789
▁cast	-10.379
▁jackie	-10.3791
▁poem	-10.3793
▁resources	-10.3794
▁angela	-10.38
▁officially	-10.3802
▁payment	-10.3802
▁provided	-10.3802
▁june	-10.3802
▁internal	-10.3803
▁prize	-10.3804
▁useless	-10.3806
▁bully	-10.3806
▁changing	-10.3807
wind	-10.3808
▁bud	-10.3811
▁har	-10.3816
▁down	-10.3818
▁cursed	-10.3823
▁stones	-10.3826
▁borrowed	-10.383
▁treaty	-10.3838
▁players	-10.3841
▁normally	-10.3842
▁fort	-10.385
▁lips	-10.3862
▁liver	-10.3865
▁dew	-10.3869
ever	-10.3896
▁pieces	-10.3902
▁tw	-10.3908
▁sta	-10.3909
▁crashed	-10.3929
▁colored	-10.3935
log	-10.3943
▁gig	-10.3944
▁carrying	-10.3957
▁fishing	-10.3962
▁stab	-10.3976
away	-10.3991
▁bills	-10.3997
stone	-10.4006
▁neighbors	-10.4011
berg	-10.402
▁faces	-10.4041
hou	-10.4053
▁sales	-10.4055
▁victims	-10.406
▁husbands	-10.409
▁mon	-10.4101
ese	-10.4104
▁goat	-10.4113
▁aro	-10.4115
▁testing	-10.4121
▁cards	-10.4122
igu	-10.4137
rand	-10.4142
▁hast	-10.4153
▁thr	-10.4159
▁cleaned	-10.416
▁sounded	-10.4165
▁tears	-10.4179
▁members	-10.4184
nes	-10.4186
burg	-10.4186
▁deze	-10.419
▁est	-10.4194
▁hop	-10.4198
vol	-10.4201
ue	-10.421
▁ir	-10.4213
▁ward	-10.4225
oc	-10.4231
ana	-10.4234
▁hits	-10.4236
ock	-10.4237
▁wars	-10.4247
▁badly	-10.4248
▁lit	-10.426
ito	-10.4281
▁tire	-10.4284
▁dozen	-10.4289
▁generation	-10.429
▁teams	-10.4293
▁rumor	-10.4294
▁pound	-10.4299
▁sample	-10.43
▁familie	-10.4303
▁chuckle	-10.4308
▁reasons	-10.4311
▁caused	-10.4326
▁mari	-10.434
ically	-10.4341
▁jur	-10.4343
hot	-10.4353
▁fur	-10.4368
ture	-10.4373
▁leaves	-10.4378
ative	-10.4388
▁dock	-10.4412
▁flip	-10.443
▁com	-10.4435
▁places	-10.4435
aged	-10.4437
all	-10.4452
▁chip	-10.4474
hole	-10.4481
▁lover	-10.4489
▁gal	-10.4502
oid	-10.4505
▁prepar	-10.4511
▁understanding	-10.4538
▁abandon	-10.4545
▁mix	-10.455
▁privilege	-10.4554
▁evacuate	-10.4556
▁receive	-10.4557
▁shove	-10.4557
know	-10.456
▁heavens	-10.4565
▁decisions	-10.4565
▁relat	-10.4571
▁dust	-10.4581
▁inject	-10.4581
▁ap	-10.4587
▁collect	-10.4587
▁logic	-10.4588
▁dorm	-10.459
▁butch	-10.459
▁koushik	-10.459
▁bastaard	-10.459
▁aibee	-10.459
▁ambulance	-10.459
▁applauding	-10.459
▁argue	-10.459
▁budget	-10.459
▁cadillac	-10.459
▁candidate	-10.459
▁curtain	-10.459
▁delicious	-10.459
▁distress	-10.459
▁dungeon	-10.459
▁education	-10.459
▁extension	-10.459
▁fantasies	-10.459
▁forbid	-10.459
▁frankenstein	-10.459
▁frightened	-10.459
▁function	-10.459
▁generaal	-10.459
▁grenade	-10.459
▁initial	-10.459
▁mexican	-10.459
▁natalie	-10.459
▁pacific	-10.459
▁palpatine	-10.459
▁pattern	-10.459
▁plaza	-10.459
▁pyramid	-10.459
▁radagast	-10.459
▁rattling	-10.459
▁republic	-10.459
▁residence	-10.459
▁retrieve	-10.459
▁rhyme	-10.459
▁ribbon	-10.459
▁routine	-10.459
▁sleeve	-10.459
▁slept	-10.459
▁someplace	-10.459
▁transmission	-10.459
▁turkey	-10.459
▁tuscany	-10.459
▁valentine	-10.459
▁valuable	-10.459
▁vodka	-10.459
▁whoaohoh	-10.459
▁wizard	-10.459
▁await	-10.459
▁brief	-10.459
▁caesar	-10.459
▁crystal	-10.459
▁miserable	-10.459
▁peanut	-10.459
▁period	-10.459
▁profion	-10.459
▁tattoo	-10.459
▁hebben	-10.459
▁horde	-10.4591
▁pagan	-10.4591
▁fourteen	-10.4591
▁palmer	-10.4591
▁swimming	-10.4591
▁hustle	-10.4591
▁mouse	-10.4591
▁pause	-10.4591
▁nerve	-10.4591
▁statue	-10.4591
▁vangor	-10.4591
▁blunt	-10.4591
▁generous	-10.4591
▁sobs	-10.4591
▁chamber	-10.4591
▁shadow	-10.4591
▁glorious	-10.4591
▁purple	-10.4591
▁morrow	-10.4591
▁bernard	-10.4591
▁eternal	-10.4591
▁celebration	-10.4591
▁signature	-10.4591
▁wailing	-10.4591
▁iets	-10.4591
▁carried	-10.4592
▁sulu	-10.4592
▁prick	-10.4592
▁foster	-10.4592
▁authority	-10.4592
▁juice	-10.4592
▁scotch	-10.4592
▁crop	-10.4592
▁breach	-10.4592
▁violent	-10.4592
▁eagle	-10.4592
▁claus	-10.4592
▁begging	-10.4592
▁flush	-10.4592
▁performance	-10.4592
▁medication	-10.4593
▁crypt	-10.4593
▁depart	-10.4593
▁inhales	-10.4593
▁critical	-10.4593
▁objective	-10.4594
▁soda	-10.4594
▁wore	-10.4594
▁comment	-10.4594
▁gps	-10.4595
▁management	-10.4595
▁gently	-10.4595
▁affection	-10.4596
▁grandpa	-10.4596
▁headache	-10.4596
▁patch	-10.4597
▁squawk	-10.4597
▁dated	-10.4597
▁gross	-10.4597
▁orbit	-10.4597
▁vow	-10.4598
▁toll	-10.4598
▁article	-10.4598
▁modest	-10.4599
▁petra	-10.4599
net	-10.4599
▁sock	-10.46
▁ditch	-10.46
▁temporary	-10.46
▁madam	-10.4601
▁peaceful	-10.4601
yl	-10.4603
▁agreement	-10.4603
▁formation	-10.4604
▁friendship	-10.4605
▁uhoh	-10.4605
▁dinky	-10.4606
▁lester	-10.4607
▁hitting	-10.4609
▁disappointed	-10.4609
▁jeff	-10.461
▁laat	-10.461
▁skip	-10.461
▁determined	-10.461
▁portal	-10.461
▁della	-10.4611
▁crown	-10.4612
▁dish	-10.4612
▁creepy	-10.4612
▁waitress	-10.4616
▁cord	-10.4617
▁grass	-10.4618
▁lean	-10.4618
▁bells	-10.462
▁gee	-10.462
▁programme	-10.4621
polit	-10.4624
▁endure	-10.4625
▁bass	-10.4625
▁timing	-10.4629
▁manual	-10.4629
▁mild	-10.463
▁poke	-10.4631
▁spooner	-10.4633
▁naturally	-10.4634
▁outer	-10.4638
▁skid	-10.464
▁mur	-10.464
▁killian	-10.4642
▁steven	-10.4644
▁gut	-10.465
how	-10.4656
▁giggles	-10.4656
▁shitty	-10.4659
▁lend	-10.4666
▁willy	-10.4671
blo	-10.4673
▁pure	-10.4676
▁archives	-10.4682
▁pills	-10.4684
▁tri	-10.4684
▁damned	-10.4685
▁movement	-10.4686
▁hooked	-10.4691
▁lap	-10.4692
▁requested	-10.4694
▁shave	-10.4699
▁forks	-10.4708
▁disappeared	-10.4712
▁rev	-10.4716
▁safer	-10.4728
▁yea	-10.4738
▁singer	-10.4746
▁dy	-10.476
▁twins	-10.4761
▁clicks	-10.4762
▁hom	-10.4764
▁tracker	-10.4768
▁drug	-10.4775
vy	-10.4777
▁signals	-10.4778
▁worthy	-10.4779
▁greater	-10.478
▁asses	-10.4781
▁planets	-10.4786
▁engineer	-10.4792
▁reminds	-10.48
▁bastards	-10.48
▁rocks	-10.481
▁teaching	-10.4826
▁assholes	-10.4827
▁targets	-10.4827
▁crossing	-10.4832
▁tied	-10.4832
▁higher	-10.4837
pers	-10.4838
▁thoughts	-10.484
▁kicking	-10.4863
▁bee	-10.4863
▁amerika	-10.4878
▁mop	-10.4879
▁bre	-10.4879
▁bon	-10.4882
▁traveling	-10.4905
▁charges	-10.4938
▁punish	-10.4941
win	-10.4945
▁photos	-10.4945
▁mut	-10.4973
ella	-10.4974
▁lukes	-10.4975
▁equi	-10.4987
▁sports	-10.4988
▁ye	-10.5002
▁bend	-10.501
▁lovers	-10.5013
eren	-10.5015
▁clients	-10.503
▁agents	-10.5041
▁heir	-10.506
▁pigs	-10.5085
▁shoulders	-10.5086
▁yell	-10.5102
▁jaw	-10.511
▁dei	-10.5127
▁knee	-10.5134
▁plu	-10.5138
ition	-10.5139
▁buying	-10.515
▁princes	-10.5153
mar	-10.5162
▁mud	-10.5163
▁diet	-10.517
gs	-10.5181
▁buck	-10.5185
▁meter	-10.5188
span	-10.5191
▁knights	-10.5194
▁kon	-10.52
▁civilian	-10.5202
▁employee	-10.5203
▁neighbor	-10.5205
▁tub	-10.5208
▁detail	-10.5209
eemed	-10.5213
▁grap	-10.5217
▁hated	-10.5229
▁sur	-10.5231
▁how	-10.5254
▁organ	-10.5261
▁choices	-10.5263
▁virtu	-10.5271
▁nut	-10.5275
▁mit	-10.5277
ule	-10.5307
▁hurts	-10.5311
za	-10.5316
▁models	-10.5333
▁peters	-10.5358
▁fee	-10.537
▁blocks	-10.5371
▁chil	-10.5372
lect	-10.5404
▁wa	-10.5409
ans	-10.541
ren	-10.5416
nded	-10.5427
▁sew	-10.5439
▁charm	-10.5442
▁crow	-10.5446
▁impress	-10.5448
hood	-10.5463
bound	-10.5464
▁advise	-10.5464
▁engage	-10.5465
▁propose	-10.5465
▁convince	-10.5466
life	-10.5469
▁solve	-10.547
box	-10.5473
▁sides	-10.5475
▁creep	-10.5477
▁absolute	-10.548
self	-10.5484
▁discipl	-10.549
▁meek	-10.5493
▁hawaii	-10.5493
▁invent	-10.5495
cular	-10.5497
▁detect	-10.5498
▁resist	-10.5499
▁favour	-10.55
▁absurd	-10.55
▁accent	-10.55
▁argument	-10.55
▁athos	-10.55
▁belief	-10.55
▁cavendish	-10.55
▁cheek	-10.55
▁chocolate	-10.55
▁column	-10.55
▁committee	-10.55
▁concert	-10.55
▁dispatch	-10.55
▁enterprise	-10.55
▁exclaiming	-10.55
▁explanation	-10.55
▁fabulous	-10.55
▁fifth	-10.55
▁frodo	-10.55
▁fugitive	-10.55
▁galadriel	-10.55
▁immortal	-10.55
▁judgment	-10.55
▁leefolt	-10.55
▁maddox	-10.55
▁mahalik	-10.55
▁maharajah	-10.55
▁maximum	-10.55
▁metcalf	-10.55
▁oswald	-10.55
▁paddling	-10.55
▁patriot	-10.55
▁plastic	-10.55
▁powder	-10.55
▁procedure	-10.55
▁raphael	-10.55
▁robbery	-10.55
▁roxanne	-10.55
▁sanctuary	-10.55
▁saruman	-10.55
▁sattler	-10.55
▁seizure	-10.55
▁selina	-10.55
▁squeak	-10.55
▁switzerland	-10.55
▁swore	-10.55
▁tuesday	-10.55
▁velkan	-10.55
▁videotape	-10.55
▁volturi	-10.55
▁volume	-10.55
▁vortex	-10.55
▁wayfinder	-10.55
▁wednesday	-10.55
▁whistling	-10.55
▁wisdom	-10.55
▁alexander	-10.55
▁burden	-10.55
▁cheque	-10.55
▁chieftain	-10.55
▁debbie	-10.55
▁dutch	-10.55
▁emperor	-10.55
▁gringo	-10.55
▁hazard	-10.55
▁junk	-10.55
▁leather	-10.55
▁novel	-10.55
▁snack	-10.55
▁canyon	-10.55
▁grief	-10.55
▁miami	-10.55
▁survey	-10.55
▁utter	-10.55
▁courtesan	-10.55
▁moira	-10.55
▁troops	-10.55
▁warrant	-10.55
▁plot	-10.55
▁profit	-10.55
▁entry	-10.55
▁error	-10.55
▁chimes	-10.55
▁irene	-10.55
▁measure	-10.55
▁assuming	-10.55
▁fold	-10.55
▁glory	-10.55
▁tennis	-10.55
▁rug	-10.55
▁combat	-10.55
▁apology	-10.55
▁farewell	-10.55
▁smash	-10.55
▁langley	-10.55
▁liddy	-10.55
▁ensure	-10.55
▁dormov	-10.55
▁network	-10.55
▁forehead	-10.55
▁savage	-10.55
▁biology	-10.55
▁update	-10.55
▁violence	-10.55
▁drank	-10.55
▁gettin	-10.5501
▁zeggen	-10.5501
▁rear	-10.5501
▁superstar	-10.5501
▁stuart	-10.5501
▁tribe	-10.5501
▁vince	-10.5501
▁ladder	-10.5501
▁possibility	-10.5501
▁wrist	-10.5501
▁fraud	-10.5501
▁mitch	-10.5502
▁studies	-10.5502
▁candy	-10.5502
▁selfish	-10.5502
▁southern	-10.5502
▁ripped	-10.5503
▁sniper	-10.5503
▁marina	-10.5503
▁ordinary	-10.5503
▁creation	-10.5503
▁instant	-10.5503
▁spice	-10.5504
▁distraction	-10.5504
▁crackling	-10.5504
▁collection	-10.5504
▁lothar	-10.5504
▁investment	-10.5504
▁retirement	-10.5504
▁remarkable	-10.5504
▁thumb	-10.5505
▁slice	-10.5505
▁troll	-10.5505
▁fence	-10.5506
▁yup	-10.5506
▁sentence	-10.5506
▁cries	-10.5506
▁elder	-10.5506
▁mail	-10.5506
▁production	-10.5506
▁thick	-10.5506
▁campus	-10.5508
▁inches	-10.5508
▁robertson	-10.5508
▁cities	-10.5509
▁clone	-10.5509
▁blah	-10.551
lbert	-10.551
▁logical	-10.551
▁coverage	-10.551
▁dori	-10.5511
▁laser	-10.5512
▁slave	-10.5512
▁rum	-10.5512
▁growth	-10.5513
▁stir	-10.5513
▁offense	-10.5515
▁thirsty	-10.5517
▁vice	-10.5518
▁zeg	-10.5518
▁robotic	-10.552
▁sickness	-10.552
▁humor	-10.5522
▁miller	-10.5522
▁blackout	-10.5522
▁shhh	-10.5523
▁salad	-10.5524
▁embarrassed	-10.5524
▁bora	-10.5526
▁chat	-10.553
▁sch	-10.5532
boy	-10.5534
▁triple	-10.5537
ati	-10.5542
▁pile	-10.5545
▁bush	-10.5545
▁jealousy	-10.5546
▁canceled	-10.556
▁revealed	-10.556
▁iim	-10.5562
▁nor	-10.5564
▁civil	-10.5564
▁kay	-10.5571
▁crawling	-10.5571
▁fuegos	-10.5572
▁journals	-10.5575
▁min	-10.5576
▁armor	-10.5578
▁belly	-10.5583
▁br	-10.5585
▁suffered	-10.5587
▁cre	-10.5594
▁heroes	-10.5595
▁closest	-10.5597
▁mall	-10.56
▁suffering	-10.5612
▁toes	-10.5612
▁lily	-10.5616
▁responding	-10.5623
▁opu	-10.5628
▁resumes	-10.5629
▁penni	-10.563
▁ham	-10.5633
▁sab	-10.5634
otch	-10.5635
▁bitches	-10.5639
squeeze	-10.564
▁shared	-10.5648
▁fianc	-10.5672
▁lil	-10.5673
▁tests	-10.5677
▁pete	-10.5678
▁tent	-10.5678
▁deserves	-10.568
▁tracks	-10.5689
▁oops	-10.5694
▁prayers	-10.5707
▁tot	-10.5713
▁makeup	-10.5714
▁knocked	-10.5724
▁mikey	-10.5751
▁ideas	-10.5753
pher	-10.5759
▁jou	-10.5768
▁explains	-10.5769
▁searching	-10.5769
▁jumping	-10.5771
ile	-10.5799
▁employees	-10.5805
▁selling	-10.5811
▁suburb	-10.5815
▁planes	-10.5826
tage	-10.583
▁wr	-10.5834
▁pounds	-10.5834
▁levels	-10.5851
▁mee	-10.5856
▁becomes	-10.5859
▁clip	-10.5871
▁translate	-10.5936
▁whoop	-10.5953
▁boots	-10.5966
▁hou	-10.5979
ime	-10.5982
low	-10.5983
▁kin	-10.599
▁negotiate	-10.5992
ura	-10.6009
▁jews	-10.6014
▁rub	-10.6019
▁tar	-10.6026
▁answered	-10.6028
▁ori	-10.6031
▁cells	-10.6036
▁operat	-10.6041
too	-10.6044
ung	-10.6062
▁friendly	-10.6083
▁cho	-10.6112
▁papa	-10.6131
hand	-10.6137
▁sail	-10.6138
▁spirits	-10.615
▁shout	-10.6153
▁whisper	-10.6153
▁kans	-10.6175
ware	-10.6187
▁warrior	-10.6202
▁cullen	-10.6202
▁bats	-10.6209
▁dinosaur	-10.621
▁toe	-10.6221
▁nap	-10.6222
▁visitor	-10.6226
▁bean	-10.6227
▁bri	-10.623
▁spe	-10.6239
▁bulls	-10.6241
rous	-10.6242
▁dating	-10.6253
▁holidays	-10.6258
▁chu	-10.6286
▁clearing	-10.6338
while	-10.6343
▁reed	-10.6355
▁clubs	-10.6366
▁ol	-10.6377
▁drown	-10.639
▁buzz	-10.6442
▁adopt	-10.6452
oof	-10.6453
▁spark	-10.6454
born	-10.6456
ward	-10.6462
plane	-10.6465
▁adventure	-10.6466
maker	-10.6466
skull	-10.6468
▁violate	-10.6468
style	-10.6469
yeah	-10.6469
power	-10.6469
year	-10.6469
play	-10.6476
▁undo	-10.6477
cop	-10.6478
▁spi	-10.648
▁gro	-10.648
▁assure	-10.6484
▁examine	-10.6488
▁unlike	-10.649
▁product	-10.649
looking	-10.6491
▁roman	-10.6495
▁hearts	-10.6496
▁xandar	-10.6498
▁basket	-10.6499
▁horizon	-10.6499
▁vietnam	-10.65
through	-10.65
▁advantage	-10.65
▁antidote	-10.65
▁ascend	-10.65
▁beacon	-10.65
▁bedankt	-10.65
▁bohemian	-10.65
▁canaima	-10.65
▁chapter	-10.65
▁dorothy	-10.65
▁elegant	-10.65
▁entrance	-10.65
▁envelope	-10.65
▁essential	-10.65
▁explode	-10.65
▁extraordinary	-10.65
▁feather	-10.65
▁flava	-10.65
▁fluid	-10.65
▁gamora	-10.65
▁ganush	-10.65
▁gravity	-10.65
▁guitar	-10.65
▁individual	-10.65
▁instructor	-10.65
▁izmer	-10.65
▁kevin	-10.65
▁kovaks	-10.65
▁krelborn	-10.65
▁malcolm	-10.65
▁milady	-10.65
▁neski	-10.65
▁orlov	-10.65
▁override	-10.65
▁paprika	-10.65
▁phelan	-10.65
▁praise	-10.65
▁profile	-10.65
▁reclaim	-10.65
▁reputation	-10.65
▁respira	-10.65
▁rochefort	-10.65
▁squish	-10.65
▁stereo	-10.65
▁suspens	-10.65
▁sworn	-10.65
▁terrified	-10.65
▁therapy	-10.65
▁thursday	-10.65
▁venice	-10.65
▁worries	-10.65
▁airborne	-10.65
▁assault	-10.65
▁buddies	-10.65
▁connors	-10.65
▁filthy	-10.65
▁kendra	-10.65
▁lawrence	-10.65
▁lecture	-10.65
▁radiation	-10.65
▁relief	-10.65
▁teenager	-10.65
▁unleash	-10.65
▁volunteer	-10.65
▁echoing	-10.65
▁struck	-10.65
▁achter	-10.65
▁alpha	-10.65
▁bleep	-10.65
▁dochter	-10.65
▁elected	-10.65
▁melon	-10.65
▁smiling	-10.65
▁spray	-10.65
▁gloin	-10.65
▁inherit	-10.65
▁battery	-10.65
▁jimeno	-10.65
▁raptor	-10.65
▁stretch	-10.65
▁yelp	-10.65
▁ochi	-10.65
▁vital	-10.65
▁darn	-10.65
▁narrat	-10.65
▁typical	-10.65
▁harris	-10.65
▁steel	-10.65
▁elite	-10.65
▁tackle	-10.65
▁stomach	-10.65
▁slams	-10.65
▁tissue	-10.65
▁meteor	-10.65
▁montana	-10.65
▁mankind	-10.65
▁templar	-10.65
▁hamburg	-10.65
▁nattie	-10.65
▁liquid	-10.65
▁winston	-10.65
▁kidnapped	-10.65
▁addition	-10.65
▁defect	-10.65
▁orange	-10.65
▁elsie	-10.65
▁aloha	-10.65
▁dining	-10.65
▁sheep	-10.65
▁version	-10.65
▁leeuw	-10.65
▁nickname	-10.65
▁reef	-10.6501
▁accurate	-10.6501
▁backwards	-10.6501
▁kennedy	-10.6501
▁investigation	-10.6501
▁bacon	-10.6501
▁appropriate	-10.6501
▁display	-10.6501
▁expertise	-10.6501
▁flank	-10.6501
▁assistance	-10.6501
▁edition	-10.6501
▁navigation	-10.6501
▁equation	-10.6501
▁lenny	-10.6502
▁blaring	-10.6502
▁simulation	-10.6502
▁riddle	-10.6502
▁emerge	-10.6502
▁reference	-10.6502
▁babu	-10.6502
▁relative	-10.6502
▁scent	-10.6502
▁troth	-10.6502
▁classified	-10.6502
▁decorat	-10.6502
▁oleg	-10.6503
▁spear	-10.6503
▁alza	-10.6503
▁behave	-10.6503
▁estate	-10.6503
▁geez	-10.6503
▁pony	-10.6503
▁marta	-10.6504
▁notes	-10.6504
▁infection	-10.6504
▁significant	-10.6504
▁dealing	-10.6504
▁dodo	-10.6504
▁tonto	-10.6505
▁violation	-10.6505
▁weaver	-10.6505
▁development	-10.6505
▁mensen	-10.6506
▁popped	-10.6506
▁refer	-10.6506
▁erase	-10.6506
▁zie	-10.6507
▁tide	-10.6507
▁kenne	-10.6508
▁series	-10.6508
▁dice	-10.6509
▁customers	-10.651
▁alter	-10.6511
▁stroke	-10.6512
▁sela	-10.6512
▁attached	-10.6512
▁gre	-10.6513
▁woodman	-10.6513
▁humble	-10.6514
▁sack	-10.6514
▁hoop	-10.6515
▁megan	-10.6515
▁hack	-10.6515
▁label	-10.6516
▁spain	-10.6518
▁active	-10.6518
▁obey	-10.6518
▁consumed	-10.652
▁noon	-10.652
terior	-10.6522
▁witnesses	-10.6523
▁grey	-10.6523
▁gaan	-10.6524
▁craft	-10.6525
▁ciao	-10.6526
▁surrounded	-10.6527
▁kit	-10.6531
▁pole	-10.6531
▁hotter	-10.6531
▁threatened	-10.6532
▁assist	-10.6533
▁eig	-10.6533
▁bitten	-10.6536
▁cerebr	-10.6537
▁tick	-10.6537
▁accused	-10.6537
▁dc	-10.6537
▁solved	-10.6538
▁strongest	-10.6539
▁woke	-10.6539
▁particle	-10.654
ney	-10.6541
▁thrilled	-10.6542
▁offended	-10.6542
new	-10.6545
▁brutal	-10.6545
ability	-10.6549
▁exception	-10.6551
▁speaker	-10.6553
▁yelled	-10.6554
two	-10.6554
▁barking	-10.6556
▁removed	-10.656
▁summoned	-10.6562
▁stable	-10.6562
▁gifts	-10.6564
▁boxes	-10.6566
▁dw	-10.6567
▁whooping	-10.6568
▁indicate	-10.657
▁useful	-10.6572
▁contained	-10.6577
▁refused	-10.6579
▁vegas	-10.658
▁hint	-10.658
▁followers	-10.6581
▁cheated	-10.6587
▁shy	-10.6589
▁settled	-10.6589
▁winds	-10.6589
▁rad	-10.659
▁fallen	-10.659
▁ron	-10.6592
▁gotcha	-10.6595
▁grad	-10.6596
▁tro	-10.6597
▁tighter	-10.6599
▁sandy	-10.6604
▁wilt	-10.6604
▁locker	-10.6607
▁washed	-10.6607
▁cheating	-10.6612
▁windows	-10.6617
▁minu	-10.662
▁busted	-10.6631
▁broker	-10.6631
▁cracked	-10.6644
▁deserved	-10.6648
made	-10.6649
▁studying	-10.6663
▁hump	-10.6666
▁fib	-10.6667
▁freaked	-10.6668
ash	-10.6668
▁shaki	-10.6689
ache	-10.67
read	-10.6702
onic	-10.6708
▁frickin	-10.6715
▁kar	-10.6726
▁wasted	-10.6727
▁od	-10.673
▁landy	-10.6739
▁cents	-10.674
▁drum	-10.6744
▁demons	-10.6745
▁placed	-10.6747
▁driven	-10.6748
oop	-10.6763
eyed	-10.6765
▁rd	-10.6776
▁bearing	-10.6781
bel	-10.6797
▁accepted	-10.6804
▁warriors	-10.6806
▁imagined	-10.6808
▁souls	-10.681
ang	-10.6811
▁marrying	-10.6819
▁details	-10.6839
▁wondered	-10.6842
▁handled	-10.6854
▁mont	-10.6858
▁hei	-10.6879
othe	-10.6888
ado	-10.6895
▁floors	-10.6907
gal	-10.6936
▁fights	-10.6939
▁she	-10.6953
cor	-10.6961
▁wo	-10.6964
▁lone	-10.6964
▁nightmares	-10.6972
▁landed	-10.6979
▁directions	-10.7007
▁dove	-10.7023
▁dreamed	-10.7057
▁pose	-10.7066
ility	-10.7084
bag	-10.7116
▁mod	-10.7127
▁shoo	-10.7139
▁tunnels	-10.714
▁zu	-10.7142
▁sends	-10.7155
cker	-10.7164
▁mam	-10.7183
▁supervis	-10.7199
▁rats	-10.7207
af	-10.7208
▁images	-10.7208
▁now	-10.7209
▁ps	-10.7216
▁protecting	-10.7233
▁sni	-10.7251
▁bigg	-10.7254
▁dim	-10.7263
▁messages	-10.7273
▁groan	-10.7273
bil	-10.7276
▁effects	-10.7277
▁protocol	-10.7311
▁citizen	-10.7312
mber	-10.7314
▁document	-10.7315
▁exists	-10.7315
▁songs	-10.7319
▁depend	-10.732
night	-10.7321
▁stare	-10.7324
▁dollar	-10.7331
▁bullets	-10.7346
▁biker	-10.7361
▁maniac	-10.737
▁prop	-10.7375
▁domestic	-10.7386
▁fare	-10.7389
aar	-10.7416
chie	-10.7433
▁nic	-10.7457
▁offend	-10.7465
▁tis	-10.7483
▁rais	-10.7518
▁convert	-10.7549
▁entertain	-10.755
▁circles	-10.7554
▁chant	-10.7561
▁register	-10.7561
▁crook	-10.7563
▁thrill	-10.7565
▁delay	-10.7566
wood	-10.7572
▁collapse	-10.7574
▁graduate	-10.7578
level	-10.7579
school	-10.758
free	-10.758
phone	-10.7581
ploy	-10.7584
cla	-10.7584
beat	-10.7585
four	-10.7587
tender	-10.759
▁stamp	-10.7591
▁immediate	-10.7591
rock	-10.7591
dig	-10.7596
▁obsess	-10.7604
▁nothin	-10.7605
▁reject	-10.7606
▁bern	-10.7609
▁loyal	-10.761
some	-10.761
▁lamp	-10.761
▁mechani	-10.761
▁afflict	-10.7611
▁aggressive	-10.7611
▁alfred	-10.7611
▁anarchy	-10.7611
▁apologies	-10.7611
▁assignment	-10.7611
▁azeroth	-10.7611
▁baltimore	-10.7611
▁becca	-10.7611
▁beowulf	-10.7611
▁bicycle	-10.7611
▁butler	-10.7611
▁campaign	-10.7611
▁clucking	-10.7611
▁clutch	-10.7611
▁cobblepot	-10.7611
▁commercial	-10.7611
▁conflict	-10.7611
▁cricket	-10.7611
▁crucial	-10.7611
▁damodar	-10.7611
▁destination	-10.7611
▁diplomati	-10.7611
▁district	-10.7611
▁einstein	-10.7611
▁elsewhere	-10.7611
▁erebor	-10.7611
▁eternity	-10.7611
▁eugenia	-10.7611
▁exclusive	-10.7611
▁gianni	-10.7611
▁giselle	-10.7611
▁hallelujah	-10.7611
▁harvest	-10.7611
▁horror	-10.7611
▁identical	-10.7611
▁include	-10.7611
▁independent	-10.7611
▁injury	-10.7611
▁invalid	-10.7611
▁janitor	-10.7611
▁jullie	-10.7611
▁jungle	-10.7611
▁lancaster	-10.7611
▁lewis	-10.7611
▁liberty	-10.7611
▁lloyd	-10.7611
▁mactaggert	-10.7611
▁magdalene	-10.7611
▁magnificent	-10.7611
▁misunderstand	-10.7611
▁mysterious	-10.7611
▁necessarily	-10.7611
▁necklace	-10.7611
▁parasite	-10.7611
▁pentagon	-10.7611
▁popcorn	-10.7611
▁puppet	-10.7611
▁quality	-10.7611
▁rhodes	-10.7611
▁richelieu	-10.7611
▁scepter	-10.7611
▁silvano	-10.7611
▁similar	-10.7611
▁specimen	-10.7611
▁starfleet	-10.7611
▁stubborn	-10.7611
▁sunglasses	-10.7611
▁symptoms	-10.7611
▁tequila	-10.7611
▁turley	-10.7611
▁turtle	-10.7611
▁vagina	-10.7611
▁whimpering	-10.7611
▁wolves	-10.7611
▁amanda	-10.7611
▁dainard	-10.7611
▁darcy	-10.7611
▁dignity	-10.7611
▁dominican	-10.7611
▁editor	-10.7611
▁exotic	-10.7611
▁felix	-10.7611
▁friar	-10.7611
▁insects	-10.7611
▁napalm	-10.7611
▁promotion	-10.7611
▁shatter	-10.7611
▁swallow	-10.7611
▁thanos	-10.7611
▁toxic	-10.7611
▁wagon	-10.7611
▁cannon	-10.7611
▁conceal	-10.7611
▁decreas	-10.7611
▁deposit	-10.7611
▁distant	-10.7611
▁honeymoon	-10.7611
▁lestrade	-10.7611
▁remote	-10.7611
▁revving	-10.7611
▁shark	-10.7611
▁coffin	-10.7611
▁consult	-10.7611
▁favourite	-10.7611
▁harvey	-10.7611
▁imperial	-10.7611
▁jennings	-10.7611
▁oath	-10.7611
▁poetry	-10.7611
▁windigo	-10.7611
▁capsule	-10.7611
▁senshi	-10.7611
▁altar	-10.7611
▁bueno	-10.7611
▁neveu	-10.7611
▁ferry	-10.7611
▁gemini	-10.7611
▁madrid	-10.7611
▁knowledge	-10.7611
▁whoohoo	-10.7611
rfume	-10.7611
▁gym	-10.7611
▁invad	-10.7611
▁region	-10.7611
▁cooper	-10.7611
▁presume	-10.7611
▁bold	-10.7611
▁define	-10.7611
▁humming	-10.7611
▁underneath	-10.7611
▁carpet	-10.7611
▁jennifer	-10.7611
▁racing	-10.7611
▁alai	-10.7611
▁lottery	-10.7611
▁unconscious	-10.7611
▁grabbed	-10.7611
▁ntl	-10.7611
▁huntsman	-10.7611
▁premises	-10.7611
▁nukes	-10.7611
▁scholarship	-10.7611
▁blond	-10.7611
▁devastating	-10.7611
▁dagger	-10.7611
▁acres	-10.7611
▁echt	-10.7611
▁survivors	-10.7611
▁ritual	-10.7611
▁yankee	-10.7611
▁fridge	-10.7611
▁ellie	-10.7611
▁lobby	-10.7611
▁hostile	-10.7611
▁tactic	-10.7612
▁confront	-10.7612
▁whens	-10.7612
▁leslie	-10.7612
▁fond	-10.7612
▁starving	-10.7612
▁solid	-10.7612
▁connie	-10.7612
▁arrow	-10.7612
▁imagination	-10.7612
▁pinned	-10.7612
▁frequency	-10.7613
▁jonas	-10.7613
▁paperwork	-10.7613
▁fanny	-10.7613
▁haunt	-10.7613
▁bake	-10.7614
▁pipeline	-10.7614
▁vetra	-10.7614
▁lousy	-10.7614
▁scout	-10.7614
▁attendant	-10.7614
▁psychic	-10.7614
▁deacon	-10.7614
▁edgar	-10.7615
▁obsession	-10.7615
▁marty	-10.7615
▁brax	-10.7615
▁polish	-10.7615
▁electricity	-10.7615
▁compare	-10.7615
▁containment	-10.7616
▁dressler	-10.7616
▁salesman	-10.7616
▁depressed	-10.7616
▁announcement	-10.7616
▁qualified	-10.7617
▁facing	-10.7617
▁expression	-10.7617
▁damon	-10.7617
▁frozen	-10.7617
▁raid	-10.7617
▁welch	-10.7617
▁shelley	-10.7617
▁onder	-10.7618
▁psycho	-10.7618
▁trem	-10.7618
▁latte	-10.7618
▁artoo	-10.7618
▁transportation	-10.7619
▁passage	-10.762
▁harmless	-10.762
▁boil	-10.762
▁identified	-10.762
▁beings	-10.7621
▁rach	-10.7622
▁chairman	-10.7622
▁diaper	-10.7623
▁encourage	-10.7623
armed	-10.7624
▁foolish	-10.7624
▁treatment	-10.7625
▁audi	-10.7626
▁illumination	-10.7627
▁brandon	-10.7628
▁vast	-10.7629
▁curve	-10.7629
▁fam	-10.7629
▁itch	-10.7629
▁trauma	-10.7629
▁dough	-10.763
▁forgetting	-10.7633
▁halfway	-10.7633
▁unlikely	-10.7634
▁restored	-10.7634
▁inspired	-10.7634
▁ranch	-10.7634
▁fist	-10.7636
▁exhausted	-10.7636
▁lazy	-10.7636
▁involve	-10.7637
▁vig	-10.7638
▁fi	-10.7639
▁mmmm	-10.764
▁dang	-10.764
▁johnson	-10.7643
▁bout	-10.7643
▁ahem	-10.7644
▁queenie	-10.7645
▁delete	-10.7647
▁services	-10.7647
▁cutter	-10.7648
▁jon	-10.765
▁hawking	-10.765
▁medal	-10.7652
▁genie	-10.7653
▁rex	-10.7656
▁fatal	-10.7657
▁slim	-10.7657
igor	-10.7657
▁bitter	-10.7659
▁kent	-10.766
▁accounts	-10.7662
▁adopted	-10.7664
▁gally	-10.7666
▁factor	-10.7666
▁businessman	-10.7667
heim	-10.7669
▁mayoral	-10.767
rmal	-10.7671
▁realise	-10.7673
▁feature	-10.7674
▁retired	-10.7678
▁parties	-10.7688
▁koningin	-10.7689
▁proven	-10.7694
▁cable	-10.7695
▁partners	-10.7698
▁fog	-10.7702
dingen	-10.7702
▁released	-10.7703
▁warned	-10.7705
▁manley	-10.7707
▁bio	-10.7709
▁damaged	-10.7711
▁ink	-10.7712
▁lang	-10.7712
▁roaring	-10.7722
▁classes	-10.7723
▁hen	-10.7724
▁talented	-10.7725
▁reli	-10.7726
▁moron	-10.773
▁stud	-10.7734
▁coin	-10.7738
azy	-10.7747
▁dumped	-10.7748
▁interpret	-10.7752
atch	-10.7755
▁discussed	-10.7759
▁sinking	-10.7762
▁blown	-10.7769
▁goblins	-10.7775
▁victoria	-10.7777
▁hunter	-10.7789
▁mentioned	-10.7816
▁dreamt	-10.7817
▁screwing	-10.7817
▁worms	-10.7819
▁mmmmm	-10.7822
▁cor	-10.7839
▁entering	-10.7839
▁cooked	-10.784
▁guardians	-10.7843
▁vet	-10.7871
▁cart	-10.7875
▁drawing	-10.7884
▁cracker	-10.789
zal	-10.7901
ijn	-10.7905
▁fil	-10.7909
▁citizens	-10.7918
▁protocols	-10.7919
▁sum	-10.792
▁lens	-10.7938
▁cullens	-10.7956
▁continu	-10.7973
▁ally	-10.7979
▁coco	-10.799
▁civilians	-10.7993
▁mona	-10.7999
▁bun	-10.8002
▁danced	-10.8014
▁robe	-10.8025
▁docks	-10.8027
▁stra	-10.803
▁tested	-10.8038
▁sticking	-10.8045
▁offering	-10.8053
▁beams	-10.8068
▁assets	-10.8068
▁nato	-10.8074
▁margi	-10.808
▁kissed	-10.809
▁bees	-10.8091
▁destroyer	-10.8093
▁overhea	-10.8103
▁reporter	-10.812
arm	-10.8127
▁losers	-10.813
▁results	-10.8143
▁frigg	-10.8177
▁needle	-10.8198
▁manners	-10.8258
▁handy	-10.8273
ogen	-10.8283
▁jewels	-10.8294
▁len	-10.8296
▁staring	-10.8305
▁lai	-10.8323
▁vin	-10.8329
▁touching	-10.8347
zoek	-10.837
▁paintings	-10.8372
▁caves	-10.8372
▁beasts	-10.8372
▁snaps	-10.8386
▁uni	-10.8386
bro	-10.8392
▁observ	-10.8393
▁establish	-10.841
▁symbols	-10.8411
tec	-10.8425
▁hon	-10.8435
▁tap	-10.8442
graph	-10.8451
▁monsters	-10.8489
▁rangers	-10.8494
ques	-10.8539
hun	-10.8549
▁effort	-10.8556
▁walter	-10.8556
▁zombie	-10.8559
▁communication	-10.856
▁ghosts	-10.8567
▁skill	-10.8574
▁demon	-10.8578
▁parent	-10.8582
star	-10.859
▁iii	-10.8604
▁assassin	-10.8625
▁cent	-10.8646
▁opera	-10.8652
▁los	-10.8657
▁sav	-10.8657
▁that	-10.8658
▁temp	-10.8663
cra	-10.8665
▁wi	-10.871
erina	-10.8712
▁india	-10.8715
put	-10.8715
▁hoped	-10.872
▁chang	-10.8726
▁pit	-10.8728
gram	-10.8738
▁tube	-10.8739
▁metaphor	-10.874
▁quant	-10.8746
▁sip	-10.8752
heid	-10.8759
▁butts	-10.8771
shed	-10.8789
▁origin	-10.8791
▁cue	-10.8798
aint	-10.8804
▁plates	-10.8807
▁operations	-10.8809
▁recruit	-10.8812
▁publish	-10.8813
▁accus	-10.8814
▁calculat	-10.8821
▁roy	-10.8822
craft	-10.8823
▁tax	-10.8824
unt	-10.8825
place	-10.8825
field	-10.8827
▁advance	-10.8827
castle	-10.8829
found	-10.883
▁thirst	-10.8837
tail	-10.8837
▁rust	-10.8837
▁dink	-10.8839
▁illuminat	-10.8841
▁recent	-10.8841
▁lame	-10.8842
stick	-10.8845
▁technical	-10.8846
▁potato	-10.8848
▁cans	-10.8851
▁caf	-10.8853
▁intercept	-10.8854
stop	-10.8855
▁alcohol	-10.8856
▁initiat	-10.8858
▁descend	-10.8859
▁moral	-10.8859
osaurus	-10.886
▁euro	-10.886
▁micro	-10.886
▁execution	-10.8861
▁jurisdiction	-10.8861
reservation	-10.8861
▁administer	-10.8861
▁afterward	-10.8861
▁algorithm	-10.8861
▁ancestor	-10.8861
▁approximate	-10.8861
▁arquillian	-10.8861
▁artifact	-10.8861
▁assigned	-10.8861
▁athens	-10.8861
▁atherton	-10.8861
▁bextrum	-10.8861
▁cannibal	-10.8861
▁clamoring	-10.8861
▁commodore	-10.8861
▁conclusion	-10.8861
▁conduct	-10.8861
▁conklin	-10.8861
▁continent	-10.8861
▁dammit	-10.8861
▁deliberate	-10.8861
▁disrupt	-10.8861
▁drained	-10.8861
▁elaborate	-10.8861
▁elbow	-10.8861
▁enormous	-10.8861
▁executive	-10.8861
▁expense	-10.8861
▁faculty	-10.8861
▁fascinating	-10.8861
▁financial	-10.8861
▁galileo	-10.8861
▁generator	-10.8861
▁goedemorgen	-10.8861
▁graduation	-10.8861
▁gravitation	-10.8861
▁gunfire	-10.8861
▁handshake	-10.8861
▁headquarters	-10.8861
▁hiphop	-10.8861
▁housekeeping	-10.8861
▁hurricane	-10.8861
▁ifyou	-10.8861
▁impulse	-10.8861
▁infinity	-10.8861
▁injuries	-10.8861
▁institution	-10.8861
▁investigate	-10.8861
▁investigator	-10.8861
▁invitation	-10.8861
▁knauer	-10.8861
▁kunnen	-10.8861
▁lindsey	-10.8861
▁mademoiselle	-10.8861
▁maintenance	-10.8861
▁matthew	-10.8861
▁melissa	-10.8861
▁mushnik	-10.8861
▁myrna	-10.8861
▁nixon	-10.8861
▁nypd	-10.8861
▁pajama	-10.8861
▁passenger	-10.8861
▁patricia	-10.8861
▁pennsylvania	-10.8861
▁perimeter	-10.8861
▁permanent	-10.8861
▁phelpmitter	-10.8861
▁picnic	-10.8861
▁pistol	-10.8861
▁puzzle	-10.8861
▁rosario	-10.8861
▁servant	-10.8861
▁shreck	-10.8861
▁sneeze	-10.8861
▁sobiech	-10.8861
▁soccer	-10.8861
▁strict	-10.8861
▁struggling	-10.8861
▁tennessee	-10.8861
▁terrence	-10.8861
▁therapist	-10.8861
▁threshold	-10.8861
▁transplant	-10.8861
▁typewriter	-10.8861
▁vanquished	-10.8861
▁vegetable	-10.8861
▁venezia	-10.8861
▁villain	-10.8861
▁werewolf	-10.8861
▁xavier	-10.8861
▁yelena	-10.8861
▁brooklyn	-10.8861
▁cheeseburger	-10.8861
▁cherish	-10.8861
▁defcon	-10.8861
▁election	-10.8861
▁essay	-10.8861
▁fierce	-10.8861
▁junson	-10.8861
▁luister	-10.8861
▁midget	-10.8861
▁prefect	-10.8861
▁probation	-10.8861
▁scrambl	-10.8861
▁storage	-10.8861
▁streak	-10.8861
▁xander	-10.8861
▁cairo	-10.8861
▁chemo	-10.8861
▁dolce	-10.8861
▁handcuff	-10.8861
▁marvin	-10.8861
▁planchet	-10.8861
▁roast	-10.8861
▁robbie	-10.8861
▁trouwen	-10.8861
▁vinci	-10.8861
▁yuri	-10.8861
beloved	-10.8861
▁branch	-10.8861
▁pursuit	-10.8861
▁garona	-10.8861
▁holiness	-10.8861
▁tomato	-10.8861
▁denied	-10.8861
▁scattered	-10.8861
▁jolene	-10.8861
▁norris	-10.8861
▁worn	-10.8861
▁strauss	-10.8861
▁appeal	-10.8861
▁aisle	-10.8861
▁lassie	-10.8861
▁mcgivern	-10.8861
▁bosom	-10.8861
▁inmate	-10.8861
▁arriving	-10.8861
▁boston	-10.8861
▁lemonade	-10.8861
▁pervert	-10.8861
▁aero	-10.8861
▁donor	-10.8861
▁snore	-10.8861
▁celebrating	-10.8861
▁crunch	-10.8861
▁tragic	-10.8861
▁mistress	-10.8861
▁steep	-10.8861
▁moaning	-10.8861
▁vulnerable	-10.8861
▁underwear	-10.8861
▁bolt	-10.8861
▁blithe	-10.8861
▁verander	-10.8861
▁studio	-10.8861
▁lampley	-10.8861
▁bubble	-10.8861
▁concourse	-10.8861
▁sunset	-10.8861
▁culture	-10.8861
▁cartoon	-10.8861
▁skirt	-10.8862
▁flunk	-10.8862
▁chorus	-10.8862
▁puddle	-10.8862
▁expand	-10.8862
▁resent	-10.8862
▁suspicious	-10.8862
▁moroe	-10.8862
▁lct	-10.8862
▁frog	-10.8862
▁waking	-10.8862
▁flex	-10.8862
▁causing	-10.8862
▁communist	-10.8862
▁construction	-10.8862
▁audition	-10.8862
▁suitcase	-10.8862
▁administration	-10.8862
▁decree	-10.8862
▁nooit	-10.8862
▁loyalty	-10.8862
▁facility	-10.8862
▁territory	-10.8862
▁asap	-10.8862
▁devr	-10.8862
▁feast	-10.8863
▁festival	-10.8863
▁debate	-10.8863
▁specifically	-10.8863
▁freaks	-10.8863
▁allergic	-10.8863
▁howling	-10.8863
▁pierce	-10.8863
▁mcdunnough	-10.8863
▁spike	-10.8863
▁liking	-10.8863
▁drama	-10.8863
▁heck	-10.8864
▁token	-10.8864
▁mutter	-10.8864
▁riot	-10.8864
▁halley	-10.8864
▁hissing	-10.8864
▁bucket	-10.8864
▁migs	-10.8864
▁limo	-10.8864
▁noah	-10.8864
▁rook	-10.8864
▁slot	-10.8864
▁furry	-10.8865
▁trager	-10.8865
▁atom	-10.8865
▁skinny	-10.8865
▁glow	-10.8865
▁moans	-10.8865
▁molecul	-10.8866
▁artific	-10.8866
▁subway	-10.8866
▁huis	-10.8866
▁sunlight	-10.8866
▁laten	-10.8866
▁solar	-10.8866
▁therell	-10.8866
▁alike	-10.8866
▁corporation	-10.8867
▁damp	-10.8867
▁childhood	-10.8867
▁frame	-10.8867
▁restricted	-10.8867
▁bark	-10.8868
▁dash	-10.8869
▁operator	-10.8869
▁twee	-10.887
▁korean	-10.887
▁rick	-10.887
▁pinch	-10.8871
▁twistle	-10.8871
▁whoosh	-10.8872
▁oud	-10.8872
▁rice	-10.8872
▁toch	-10.8872
▁merely	-10.8872
▁greg	-10.8873
▁potatoes	-10.8873
▁fortunately	-10.8873
▁snarling	-10.8873
▁stall	-10.8873
▁aaah	-10.8876
▁stomp	-10.8876
▁runner	-10.8877
▁ahab	-10.8877
ual	-10.8877
▁ego	-10.8877
▁prostitute	-10.8878
▁keen	-10.8879
▁whore	-10.8879
▁mature	-10.8879
▁gen	-10.8881
istine	-10.8882
▁anton	-10.8883
▁daar	-10.8883
▁haha	-10.8883
▁pace	-10.8883
▁exit	-10.8883
▁outsiders	-10.8884
▁haul	-10.8884
▁mei	-10.8886
▁approved	-10.8886
actic	-10.8887
▁oliver	-10.8889
▁infected	-10.889
real	-10.889
▁clearance	-10.8891
▁troy	-10.8892
▁komt	-10.8894
▁mayday	-10.8895
▁vein	-10.8896
▁komen	-10.8896
▁protective	-10.8896
▁multiple	-10.8897
▁weten	-10.8898
▁linger	-10.8898
▁kim	-10.8898
▁keer	-10.89
▁exposed	-10.8902
▁swann	-10.8906
▁floating	-10.8906
▁vest	-10.8907
▁inch	-10.8909
▁proposed	-10.891
▁yale	-10.8911
▁oughta	-10.8912
▁threatening	-10.8914
▁bored	-10.8914
▁sala	-10.8915
▁pam	-10.8915
▁clicking	-10.8915
▁weet	-10.8919
▁viki	-10.8919
▁flatter	-10.8921
▁cosm	-10.8924
▁gale	-10.8925
▁momma	-10.8926
▁deano	-10.8928
▁entertaining	-10.893
▁maiden	-10.893
▁angeles	-10.8934
▁temper	-10.8936
▁wilde	-10.8937
▁owl	-10.8942
tual	-10.8944
▁drowning	-10.8946
▁zei	-10.8947
▁delivery	-10.8956
ifi	-10.8958
gun	-10.8961
▁tender	-10.8962
▁breasts	-10.8964
▁circumstances	-10.8964
▁eyebrows	-10.8964
▁kneel	-10.8967
▁tune	-10.897
▁assumed	-10.8971
▁thoughtful	-10.8973
▁twisted	-10.8973
▁dresses	-10.8974
▁reality	-10.8976
▁complaining	-10.8979
mmer	-10.8982
pot	-10.8983
▁stressed	-10.8985
▁spite	-10.8995
▁mistaken	-10.8996
▁ribs	-10.9004
▁locusts	-10.9005
open	-10.9016
▁thin	-10.9016
▁existed	-10.9022
▁vibrate	-10.9025
dding	-10.9028
▁shortly	-10.9037
▁legion	-10.904
▁rushing	-10.9063
▁helpless	-10.9074
▁ranks	-10.9083
▁bub	-10.9088
▁methods	-10.9088
▁messy	-10.9096
▁doe	-10.9104
▁sank	-10.9104
▁tim	-10.9106
▁owen	-10.9107
▁smarter	-10.9121
▁seize	-10.9126
▁marker	-10.9132
▁sac	-10.9137
▁fili	-10.9146
▁hire	-10.917
▁sau	-10.9171
▁zombies	-10.9172
▁praying	-10.9174
▁communications	-10.9174
▁packed	-10.9181
▁virtual	-10.919
▁average	-10.9205
▁communicate	-10.9205
▁arch	-10.9206
▁documents	-10.9214
▁suggesting	-10.9216
▁safely	-10.9225
▁meg	-10.9228
▁warp	-10.9237
▁visiting	-10.9239
▁batt	-10.9254
▁beans	-10.9258
▁visitors	-10.9259
▁sails	-10.9259
▁transporter	-10.9274
▁lent	-10.9287
▁banker	-10.9293
hell	-10.9295
▁recording	-10.9296
▁der	-10.9299
ington	-10.9307
▁comm	-10.9322
uh	-10.933
▁dozens	-10.9342
▁generations	-10.9342
▁rumors	-10.9342
▁observe	-10.9351
trap	-10.9364
ram	-10.9364
▁vu	-10.9367
▁closely	-10.9375
▁speakers	-10.9381
▁tin	-10.9383
▁jar	-10.9395
▁dam	-10.9396
orr	-10.9414
▁rolling	-10.9418
▁bugg	-10.9419
▁tornados	-10.9428
lover	-10.9431
atic	-10.9433
path	-10.9433
▁sor	-10.9445
▁bou	-10.9464
▁pep	-10.9483
▁with	-10.9483
▁sol	-10.9492
▁wai	-10.9507
jack	-10.952
▁negotiat	-10.9543
▁cata	-10.9552
▁naive	-10.9553
▁grease	-10.9557
▁stap	-10.958
▁shown	-10.9586
▁devices	-10.9602
ization	-10.9623
nnie	-10.9636
▁rag	-10.9644
▁politics	-10.9646
▁psych	-10.9659
▁titan	-10.9721
▁rage	-10.9736
ologist	-10.9768
ease	-10.9788
▁gel	-10.9804
iest	-10.9833
▁trie	-10.9844
city	-10.9864
this	-10.9895
▁salv	-10.99
▁pott	-10.9913
bul	-10.9926
▁click	-10.9935
▁bum	-10.9957
▁ani	-10.9979
▁musketeer	-10.9998
acy	-10.9999
▁mode	-11.0018
▁twin	-11.0021
ory	-11.0055
ification	-11.0057
▁squeez	-11.0066
▁prayer	-11.0111
eful	-11.0145
▁alo	-11.0147
▁exp	-11.017
izer	-11.0199
▁pier	-11.0201
▁refu	-11.0201
▁ban	-11.0208
▁threaten	-11.0216
ground	-11.0221
▁bleed	-11.0232
▁deceiv	-11.0249
▁doom	-11.025
household	-11.0255
foot	-11.0256
▁neuro	-11.0256
nathan	-11.0256
proof	-11.0258
science	-11.0258
hold	-11.0264
▁flee	-11.0265
▁offens	-11.0266
▁ultimate	-11.0268
▁weigh	-11.027
rank	-11.0275
▁slight	-11.0279
▁vrouw	-11.0279
▁associate	-11.0281
rich	-11.0281
▁medic	-11.0282
▁kidnap	-11.0283
▁ches	-11.0285
▁convers	-11.0286
▁zip	-11.0286
▁select	-11.0287
▁whip	-11.0288
▁ravage	-11.0288
▁commit	-11.0288
▁afrika	-11.0289
nstitute	-11.0289
▁academic	-11.0289
▁accustomed	-11.0289
▁advisor	-11.0289
▁aleera	-11.0289
▁apocalypse	-11.0289
▁athlete	-11.0289
▁barbossa	-11.0289
▁batroc	-11.0289
▁bizarre	-11.0289
▁cackling	-11.0289
▁capitol	-11.0289
▁cemetery	-11.0289
▁commission	-11.0289
▁concentrate	-11.0289
▁concept	-11.0289
▁convention	-11.0289
▁convict	-11.0289
▁cripple	-11.0289
▁definitive	-11.0289
▁delacourt	-11.0289
▁disguise	-11.0289
▁doreena	-11.0289
▁earthquake	-11.0289
▁elephant	-11.0289
▁fifteen	-11.0289
▁fraternity	-11.0289
▁frequencies	-11.0289
▁gambling	-11.0289
▁gibbons	-11.0289
▁happier	-11.0289
▁happily	-11.0289
▁hologram	-11.0289
▁infinite	-11.0289
▁injured	-11.0289
▁intelligent	-11.0289
▁isolation	-11.0289
▁january	-11.0289
▁khrushchev	-11.0289
▁krijg	-11.0289
▁mathematical	-11.0289
▁mathematician	-11.0289
▁matsui	-11.0289
▁matveyev	-11.0289
▁mcdowell	-11.0289
▁merchant	-11.0289
▁minimum	-11.0289
▁motorcycle	-11.0289
▁napoleon	-11.0289
▁nigga	-11.0289
▁nigger	-11.0289
▁pakistan	-11.0289
▁peculiar	-11.0289
▁perspective	-11.0289
▁phenomenon	-11.0289
▁phoenix	-11.0289
▁platform	-11.0289
▁population	-11.0289
▁possibilities	-11.0289
▁probability	-11.0289
▁prospect	-11.0289
▁rackham	-11.0289
▁ramsay	-11.0289
▁religious	-11.0289
▁rendezvous	-11.0289
▁resign	-11.0289
▁rooster	-11.0289
▁scenario	-11.0289
▁scranton	-11.0289
▁serving	-11.0289
▁shampoo	-11.0289
▁siempre	-11.0289
▁skarratt	-11.0289
▁skywalker	-11.0289
▁sloane	-11.0289
▁stammering	-11.0289
▁stockbroker	-11.0289
▁switowski	-11.0289
▁technique	-11.0289
▁theories	-11.0289
▁tortuga	-11.0289
▁trembling	-11.0289
▁tshirt	-11.0289
▁tugboat	-11.0289
▁undercover	-11.0289
▁unfair	-11.0289
▁yorgi	-11.0289
▁aldrich	-11.0289
▁barbara	-11.0289
▁batteries	-11.0289
▁dogflu	-11.0289
▁environment	-11.0289
▁israel	-11.0289
▁liefde	-11.0289
▁northeast	-11.0289
▁peggy	-11.0289
▁prevail	-11.0289
▁proportion	-11.0289
▁radius	-11.0289
▁southwest	-11.0289
▁venom	-11.0289
▁album	-11.0289
▁alicia	-11.0289
▁buffalo	-11.0289
▁copeland	-11.0289
▁divide	-11.0289
▁electronic	-11.0289
▁hayseed	-11.0289
▁ignit	-11.0289
▁martha	-11.0289
▁nelec	-11.0289
▁predator	-11.0289
▁sermon	-11.0289
▁slamm	-11.0289
▁swam	-11.0289
▁canister	-11.0289
▁capital	-11.0289
▁czech	-11.0289
▁fumble	-11.0289
▁poppet	-11.0289
▁ankle	-11.0289
▁leroy	-11.0289
▁praten	-11.0289
▁theater	-11.0289
▁vomit	-11.0289
▁condom	-11.0289
▁daycare	-11.0289
▁drift	-11.0289
▁madison	-11.0289
▁maggot	-11.0289
▁palace	-11.0289
▁pigeon	-11.0289
▁relieve	-11.0289
▁xray	-11.0289
▁arranged	-11.0289
▁puerto	-11.0289
▁granddad	-11.0289
▁keala	-11.0289
▁cadet	-11.0289
▁tumor	-11.0289
▁ragged	-11.0289
▁steam	-11.0289
▁adios	-11.0289
▁crave	-11.0289
▁marvel	-11.0289
▁reign	-11.0289
▁gesture	-11.0289
▁jammed	-11.0289
▁electro	-11.0289
▁terry	-11.0289
▁chiming	-11.0289
▁salon	-11.0289
▁panicked	-11.0289
▁tourists	-11.0289
▁industrial	-11.0289
▁facilities	-11.0289
▁mechanical	-11.029
▁boobs	-11.029
▁freezing	-11.029
▁impact	-11.029
▁bodyguarddog	-11.029
▁youyou	-11.029
▁burger	-11.029
assemble	-11.029
▁yawn	-11.029
▁casualties	-11.029
▁championship	-11.029
▁oye	-11.029
▁uptown	-11.029
▁steward	-11.029
▁password	-11.029
▁investigating	-11.029
▁reproduce	-11.029
▁studied	-11.029
▁stumbl	-11.029
▁cryptex	-11.029
▁smack	-11.029
▁zulu	-11.029
▁attractive	-11.029
▁bingo	-11.029
▁slander	-11.029
▁compell	-11.029
▁pension	-11.029
▁cloth	-11.029
▁doughnut	-11.029
▁nobel	-11.0291
ography	-11.0291
▁behold	-11.0291
▁jacksonville	-11.0291
▁priority	-11.0291
▁contrary	-11.0291
venue	-11.0291
▁vinden	-11.0291
▁hamster	-11.0291
▁bronx	-11.0291
▁crab	-11.0291
▁subtle	-11.0291
▁slipped	-11.0291
▁bleat	-11.0291
▁combination	-11.0291
▁melanie	-11.0291
▁alternative	-11.0291
▁eaux	-11.0291
▁disappointment	-11.0291
trained	-11.0291
▁reverse	-11.0291
▁hollywood	-11.0292
▁marcy	-11.0292
▁deactivate	-11.0292
▁shaft	-11.0292
▁yyou	-11.0292
▁translation	-11.0292
▁resistance	-11.0292
▁stevenson	-11.0292
▁costume	-11.0292
▁extinction	-11.0292
▁slapped	-11.0292
▁content	-11.0292
▁archies	-11.0292
▁retreat	-11.0293
▁sheet	-11.0293
ereen	-11.0293
▁typing	-11.0293
▁vials	-11.0293
▁sellner	-11.0293
▁upper	-11.0293
▁romance	-11.0293
▁preferred	-11.0293
▁chaos	-11.0293
▁nooo	-11.0294
▁crank	-11.0294
▁jolly	-11.0294
▁pond	-11.0294
▁irv	-11.0294
▁amuse	-11.0294
▁motel	-11.0294
▁asgardian	-11.0294
▁leap	-11.0294
▁peak	-11.0295
▁grill	-11.0295
▁centre	-11.0295
▁notion	-11.0295
▁adjust	-11.0295
▁worldwide	-11.0295
▁starboard	-11.0296
▁submit	-11.0296
▁invention	-11.0296
▁fuss	-11.0296
▁torment	-11.0297
▁hallway	-11.0297
▁toby	-11.0297
▁hisse	-11.0297
▁amazed	-11.0297
▁compromised	-11.0297
▁african	-11.0298
▁luckily	-11.0298
▁cabinet	-11.0298
▁digit	-11.0298
▁mooi	-11.0298
▁troon	-11.0299
endous	-11.0299
▁award	-11.0299
▁intel	-11.0299
▁abuse	-11.0299
▁iso	-11.0299
▁luv	-11.0299
▁compet	-11.03
▁flies	-11.03
▁chopper	-11.03
▁billings	-11.0301
▁grove	-11.0301
▁hence	-11.0302
▁unlock	-11.0303
▁nearby	-11.0303
▁premi	-11.0303
▁franklin	-11.0303
▁clap	-11.0305
▁dart	-11.0305
▁rubber	-11.0306
▁sincerely	-11.0307
▁attracted	-11.0308
▁mason	-11.0309
▁odin	-11.0309
▁embrace	-11.0309
▁possession	-11.031
▁slightly	-11.031
▁ballot	-11.031
▁papi	-11.031
ooit	-11.0311
▁newborn	-11.0311
▁dishes	-11.0311
▁paulie	-11.0312
▁bloodline	-11.0312
▁denk	-11.0313
▁frost	-11.0313
▁unger	-11.0313
▁dune	-11.0313
▁mira	-11.0313
▁marion	-11.0313
▁traditional	-11.0315
▁tina	-11.0315
▁madness	-11.0315
▁solo	-11.0316
▁stain	-11.0316
▁sustained	-11.0318
▁skies	-11.0321
▁tense	-11.0321
▁clacking	-11.0323
▁dismissed	-11.0323
▁worthless	-11.0323
▁factory	-11.0324
▁forge	-11.0326
▁torn	-11.0328
▁hoot	-11.0328
coin	-11.0328
▁shutting	-11.0329
▁deac	-11.0329
▁geld	-11.0332
tamina	-11.0335
▁graduated	-11.0335
▁geda	-11.0338
▁simon	-11.0339
▁bam	-11.0339
▁july	-11.0341
▁helena	-11.0341
▁trim	-11.0341
eight	-11.0342
▁juli	-11.0342
▁thine	-11.0344
▁published	-11.0345
▁twister	-11.0345
discretion	-11.0345
▁advised	-11.0346
▁giu	-11.0349
▁shovel	-11.035
▁peek	-11.035
▁tickle	-11.035
▁correction	-11.0351
▁germany	-11.0351
▁globe	-11.0353
▁sharply	-11.0355
▁evacuated	-11.0356
▁sole	-11.0357
▁pak	-11.0358
▁guin	-11.036
▁cinc	-11.0361
▁this	-11.0362
▁emotions	-11.0362
▁policeman	-11.0364
▁andand	-11.0364
▁reasonable	-11.0367
▁deeds	-11.0368
▁converting	-11.037
▁purr	-11.037
▁hah	-11.0371
▁suggestion	-11.0376
▁alley	-11.0378
▁idol	-11.038
▁allen	-11.0385
▁scr	-11.0387
▁charming	-11.0389
▁cycle	-11.039
▁operate	-11.0396
▁bc	-11.0396
▁engineering	-11.0397
▁separated	-11.0401
▁moest	-11.0401
▁disturbed	-11.0405
▁passes	-11.0409
▁fingerprints	-11.0409
▁organisms	-11.0409
mews	-11.041
▁consequences	-11.0412
▁privately	-11.0417
▁awaken	-11.0419
tract	-11.0421
▁more	-11.0423
▁transmitt	-11.0424
▁newton	-11.0425
▁poisoned	-11.0427
▁meantime	-11.0427
▁have	-11.0427
▁jeb	-11.0434
▁beck	-11.0437
▁honesty	-11.0439
▁dragg	-11.0449
▁sacrificed	-11.045
tale	-11.0456
▁experienced	-11.0456
▁errands	-11.0457
▁arrangements	-11.0457
▁helpful	-11.0466
▁oer	-11.0476
ige	-11.0479
▁dell	-11.0481
▁touches	-11.0482
omb	-11.0486
ocht	-11.0487
▁mcc	-11.0488
▁lawn	-11.0501
▁deeper	-11.0503
▁instincts	-11.0506
isc	-11.0509
▁shad	-11.051
▁defending	-11.0515
▁ash	-11.0518
▁kyle	-11.052
grunt	-11.0522
zen	-11.0524
▁posted	-11.0525
▁seri	-11.0525
▁starters	-11.0527
▁geef	-11.0537
▁proved	-11.054
▁charged	-11.0552
zar	-11.0558
▁sucker	-11.0567
▁cracking	-11.0567
▁prep	-11.0573
▁prayed	-11.0573
▁disappearing	-11.0575
▁failing	-11.0575
▁rocky	-11.0586
will	-11.0592
▁bothering	-11.0603
▁filling	-11.0604
▁suggested	-11.0611
▁yay	-11.0615
nob	-11.0617
▁warg	-11.0618
▁tab	-11.062
ost	-11.0627
▁fairly	-11.0628
▁jumped	-11.0642
ckey	-11.0643
▁beter	-11.0643
▁efforts	-11.0652
▁walters	-11.0652
▁remaining	-11.0663
▁dub	-11.0681
▁recorded	-11.0684
▁reported	-11.0693
air	-11.0697
tox	-11.0701
▁ai	-11.0703
▁pressed	-11.0703
▁hay	-11.0705
▁ew	-11.0715
▁ave	-11.0717
▁sim	-11.072
part	-11.0739
thug	-11.0743
▁strap	-11.0757
cal	-11.0776
▁snapp	-11.0796
▁addict	-11.0821
▁mill	-11.0821
▁aged	-11.0821
vision	-11.0823
▁deem	-11.0832
▁leo	-11.0834
wyn	-11.0849
rah	-11.0902
bby	-11.092
ende	-11.0927
▁cone	-11.0953
ector	-11.0962
▁zoo	-11.0999
▁specialize	-11.1015
▁whit	-11.1052
▁char	-11.1072
chester	-11.1078
▁unsu	-11.1088
▁mal	-11.1123
ident	-11.119
base	-11.1215
▁gall	-11.1222
▁cau	-11.1237
▁pil	-11.1256
▁muni	-11.1259
mont	-11.1264
▁anticipate	-11.1281
ppe	-11.1306
tory	-11.1307
▁author	-11.1311
▁pest	-11.1328
ynn	-11.134
▁coma	-11.1372
▁mat	-11.141
▁sli	-11.1471
▁mali	-11.1472
▁presente	-11.1474
▁nurs	-11.1502
▁cla	-11.1516
bra	-11.1564
cola	-11.1591
▁rossi	-11.1595
▁bonn	-11.1608
▁bli	-11.1631
▁perk	-11.1647
▁goede	-11.1652
▁method	-11.1652
▁worm	-11.1657
▁degree	-11.1666
▁mutant	-11.1667
▁prec	-11.1672
uf	-11.1701
▁lung	-11.1722
▁via	-11.173
▁chop	-11.1739
▁ador	-11.1769
term	-11.1801
▁fella	-11.1808
▁scal	-11.1813
▁embarrass	-11.185
▁surviv	-11.1865
helf	-11.1866
neck	-11.1877
▁acqui	-11.1886
▁float	-11.1895
▁hawk	-11.1896
▁squeal	-11.1897
▁accomplish	-11.1906
▁surround	-11.1909
▁neat	-11.1914
▁congr	-11.1918
view	-11.1919
▁describe	-11.192
▁approve	-11.1921
▁inspire	-11.1921
▁consume	-11.1922
rational	-11.1922
stream	-11.1922
▁restore	-11.1923
break	-11.1924
▁capture	-11.1924
iemand	-11.1924
minute	-11.1925
girl	-11.1925
cause	-11.1925
blood	-11.1925
three	-11.1925
broken	-11.1926
listen	-11.1926
▁irre	-11.1927
changing	-11.193
▁guilt	-11.1933
▁aureli	-11.1934
job	-11.1935
case	-11.1936
▁unfortunate	-11.1936
▁precise	-11.1937
coat	-11.1937
mery	-11.1938
force	-11.1939
▁intent	-11.1943
▁torpedo	-11.1943
hoe	-11.1943
▁leonard	-11.1945
fall	-11.1945
▁corporat	-11.1948
▁marshal	-11.1949
▁leavin	-11.1951
▁reflect	-11.1952
▁champ	-11.1952
▁commun	-11.1953
▁raven	-11.1954
▁orphan	-11.1955
appointed	-11.1955
▁extract	-11.1955
▁urge	-11.1955
▁francis	-11.1955
▁casual	-11.1955
▁dodg	-11.1956
convenience	-11.1956
cryption	-11.1956
responsibilities	-11.1956
▁abilities	-11.1956
▁academy	-11.1956
▁acquaintance	-11.1956
▁activity	-11.1956
▁alejandro	-11.1956
▁ambassad	-11.1956
▁approval	-11.1956
▁aramis	-11.1956
▁architect	-11.1956
▁asteroid	-11.1956
▁astrophysic	-11.1956
▁australia	-11.1956
▁begrijp	-11.1956
▁beijing	-11.1956
▁beresford	-11.1956
▁beseech	-11.1956
▁bruiloft	-11.1956
▁budapest	-11.1956
▁cassiopeia	-11.1956
▁clumsy	-11.1956
▁cockroach	-11.1956
▁collision	-11.1956
▁conceived	-11.1956
▁confidential	-11.1956
▁conspiracy	-11.1956
▁convergence	-11.1956
▁corridor	-11.1956
▁croque	-11.1956
▁curfew	-11.1956
▁curiosity	-11.1956
▁debris	-11.1956
▁enrique	-11.1956
▁erfgenaam	-11.1956
▁eyelash	-11.1956
▁fabric	-11.1956
▁frightening	-11.1956
▁gattaca	-11.1956
▁genoeg	-11.1956
▁grandchildren	-11.1956
▁grandparents	-11.1956
▁gurkin	-11.1956
▁housekeeper	-11.1956
▁huwelijk	-11.1956
▁hyperventilat	-11.1956
▁increasing	-11.1956
▁integrity	-11.1956
▁introducing	-11.1956
▁invincible	-11.1956
▁inviting	-11.1956
▁judging	-11.1956
▁jupiter	-11.1956
▁kijimi	-11.1956
▁kilometers	-11.1956
▁koestler	-11.1956
▁koji	-11.1956
▁lsabel	-11.1956
▁luxury	-11.1956
▁lyrics	-11.1956
▁manifest	-11.1956
▁manipulat	-11.1956
▁michigan	-11.1956
▁norrington	-11.1956
▁november	-11.1956
▁oblige	-11.1956
▁oblivion	-11.1956
▁oklahoma	-11.1956
▁orleans	-11.1956
▁ounce	-11.1956
▁parachute	-11.1956
▁parallel	-11.1956
▁paramedic	-11.1956
▁parliament	-11.1956
▁paycheck	-11.1956
▁peppermint	-11.1956
▁persuade	-11.1956
▁physician	-11.1956
▁porthos	-11.1956
▁postcard	-11.1956
▁previous	-11.1956
▁principle	-11.1956
▁qualify	-11.1956
▁radiant	-11.1956
▁reelection	-11.1956
▁reordan	-11.1956
▁selvig	-11.1956
▁squirrel	-11.1956
▁sunshine	-11.1956
▁supermarket	-11.1956
▁surprising	-11.1956
▁sympathy	-11.1956
▁thanksgiving	-11.1956
▁thorough	-11.1956
▁tiffany	-11.1956
▁toulour	-11.1956
▁transylvania	-11.1956
▁trevor	-11.1956
▁triumph	-11.1956
▁tupac	-11.1956
▁twinkle	-11.1956
▁underestimate	-11.1956
▁unpredictable	-11.1956
▁upgrade	-11.1956
▁urinating	-11.1956
▁venezuela	-11.1956
▁vicious	-11.1956
▁vladimir	-11.1956
▁vroeg	-11.1956
▁welfare	-11.1956
▁achieve	-11.1956
▁allegian	-11.1956
▁ashamed	-11.1956
▁bounty	-11.1956
▁condemn	-11.1956
▁curtis	-11.1956
▁detroit	-11.1956
▁disorder	-11.1956
▁espn	-11.1956
▁frakel	-11.1956
▁frustrat	-11.1956
▁gupta	-11.1956
▁inflict	-11.1956
▁mummy	-11.1956
▁obtain	-11.1956
▁opposit	-11.1956
▁overdue	-11.1956
▁participat	-11.1956
▁penalty	-11.1956
▁penthouse	-11.1956
▁plaster	-11.1956
▁rebuil	-11.1956
▁russell	-11.1956
▁sprinkle	-11.1956
▁stanford	-11.1956
▁suspend	-11.1956
▁tivan	-11.1956
▁uplink	-11.1956
▁wereld	-11.1956
▁bunker	-11.1956
▁capacity	-11.1956
▁defence	-11.1956
▁delicate	-11.1956
▁elaine	-11.1956
▁grazie	-11.1956
▁instance	-11.1956
▁izzi	-11.1956
▁misschien	-11.1956
▁nigel	-11.1956
▁pantry	-11.1956
▁plead	-11.1956
▁reckon	-11.1956
▁refresh	-11.1956
▁salute	-11.1956
▁armour	-11.1956
▁bernini	-11.1956
▁brogan	-11.1956
▁bulb	-11.1956
▁cherry	-11.1956
▁colony	-11.1956
▁noisy	-11.1956
▁saturn	-11.1956
▁slut	-11.1956
▁truce	-11.1956
▁zelf	-11.1956
tempo	-11.1956
▁alfon	-11.1956
▁crib	-11.1956
▁dacht	-11.1956
▁excess	-11.1956
▁frik	-11.1956
▁guild	-11.1956
▁hypothetical	-11.1956
▁lundy	-11.1956
▁sooth	-11.1956
▁spoil	-11.1956
▁venus	-11.1956
▁barbie	-11.1956
▁motive	-11.1956
▁preacher	-11.1956
▁angle	-11.1956
▁gulf	-11.1956
▁imminent	-11.1956
acci	-11.1956
▁adapt	-11.1956
▁clerk	-11.1956
▁illusions	-11.1956
▁burst	-11.1956
▁denser	-11.1956
▁scorn	-11.1956
etched	-11.1956
▁skate	-11.1956
▁yacht	-11.1956
▁japan	-11.1956
▁session	-11.1956
▁oui	-11.1956
▁outrage	-11.1956
▁sasha	-11.1956
▁douche	-11.1956
▁rodeo	-11.1956
▁motor	-11.1956
▁greedy	-11.1956
▁snag	-11.1956
▁narrow	-11.1956
▁kree	-11.1956
▁circula	-11.1956
▁turd	-11.1956
▁putnam	-11.1956
▁countries	-11.1956
▁microphone	-11.1956
▁grabbing	-11.1956
▁stunn	-11.1956
▁thump	-11.1956
▁plutonium	-11.1956
▁egyptian	-11.1956
▁influence	-11.1956
▁exgirlfriend	-11.1956
▁mignon	-11.1956
▁cocktail	-11.1956
▁escalat	-11.1956
destined	-11.1956
▁occurred	-11.1956
▁charging	-11.1956
▁creative	-11.1957
▁commandeer	-11.1957
▁silas	-11.1957
▁melt	-11.1957
▁explor	-11.1957
▁outrun	-11.1957
▁autograph	-11.1957
▁principal	-11.1957
▁cult	-11.1957
▁database	-11.1957
▁furzeez	-11.1957
▁shiva	-11.1957
▁dennis	-11.1957
▁wives	-11.1957
▁commence	-11.1957
▁fortress	-11.1957
▁klein	-11.1957
▁raige	-11.1957
▁representative	-11.1957
▁alternat	-11.1957
▁babysitter	-11.1957
▁harley	-11.1957
▁broadway	-11.1957
▁collar	-11.1957
▁brandnew	-11.1957
▁stalk	-11.1957
▁prada	-11.1957
▁flashlight	-11.1957
▁tuition	-11.1958
▁devise	-11.1958
▁elector	-11.1958
▁oracle	-11.1958
▁granny	-11.1958
▁medium	-11.1958
▁choir	-11.1958
▁banish	-11.1958
▁slipping	-11.1958
▁devote	-11.1958
▁lockwood	-11.1958
▁ravenna	-11.1958
▁psychotic	-11.1958
▁theft	-11.1958
▁wherere	-11.1958
▁groceries	-11.1958
▁recogni	-11.1958
inlaw	-11.1959
▁various	-11.1959
▁repay	-11.1959
ulsion	-11.1959
▁onboard	-11.1959
▁mount	-11.1959
▁skipped	-11.1959
▁charity	-11.1959
▁rico	-11.1959
▁initiative	-11.1959
▁bind	-11.1959
▁compassion	-11.1959
▁furniture	-11.1959
▁irish	-11.1959
poppin	-11.1959
▁champion	-11.196
▁leaf	-11.196
▁griev	-11.196
▁marco	-11.196
▁gutter	-11.196
▁claw	-11.196
▁eleven	-11.196
▁sharing	-11.196
▁orient	-11.196
▁shortcut	-11.196
▁establishment	-11.196
wave	-11.196
▁confusion	-11.196
▁senator	-11.196
▁revolutionary	-11.196
▁soap	-11.1961
▁dawg	-11.1961
▁slightest	-11.1961
▁rotten	-11.1961
▁grote	-11.1961
▁graff	-11.1961
▁hobby	-11.1961
▁passport	-11.1961
▁whack	-11.1961
▁native	-11.1961
▁hyde	-11.1962
▁rising	-11.1962
▁acid	-11.1962
▁actress	-11.1962
▁naples	-11.1962
▁lima	-11.1962
▁promote	-11.1962
▁dios	-11.1962
▁bidet	-11.1962
▁hyper	-11.1963
▁replacement	-11.1963
▁semi	-11.1963
▁merit	-11.1963
▁inbound	-11.1964
▁lauren	-11.1964
▁makin	-11.1964
▁rodent	-11.1964
▁hanse	-11.1964
▁choke	-11.1964
▁klaa	-11.1964
forsake	-11.1964
▁cili	-11.1965
▁heartbeat	-11.1965
bone	-11.1965
▁hula	-11.1966
▁kidney	-11.1966
▁expose	-11.1966
▁buff	-11.1966
▁tux	-11.1966
▁dorian	-11.1966
▁structure	-11.1966
▁broad	-11.1967
▁flaw	-11.1967
kerry	-11.1967
▁dope	-11.1967
▁carlton	-11.1967
▁vanish	-11.1967
▁inner	-11.1967
▁spanky	-11.1967
▁linus	-11.1967
▁leonardo	-11.1967
▁halen	-11.1967
▁spotted	-11.1968
door	-11.1968
▁stepped	-11.1968
▁oom	-11.1968
▁snot	-11.1969
▁shred	-11.1969
▁panel	-11.197
aware	-11.197
▁clownin	-11.197
rudy	-11.197
▁uncha	-11.1971
▁litera	-11.1971
▁probe	-11.1971
▁beef	-11.1972
▁psychological	-11.1972
▁soil	-11.1972
▁cuff	-11.1972
▁delta	-11.1973
▁tegen	-11.1973
▁tallis	-11.1973
▁stung	-11.1973
▁taxes	-11.1973
itating	-11.1974
▁controlled	-11.1975
▁dj	-11.1975
▁render	-11.1976
▁phi	-11.1976
▁injection	-11.1976
▁strategy	-11.1976
▁shipping	-11.1976
▁eerste	-11.1977
▁sour	-11.1977
told	-11.1977
▁esc	-11.1977
▁armies	-11.1977
▁aurelia	-11.1977
▁payback	-11.1977
▁brightest	-11.1979
▁weg	-11.1979
▁fried	-11.1979
▁meeka	-11.198
▁christianity	-11.198
▁hele	-11.1981
▁ultimately	-11.1981
▁lust	-11.1981
▁vari	-11.1981
▁willen	-11.1982
▁vile	-11.1983
▁clown	-11.1983
▁zien	-11.1984
▁mumbling	-11.1984
▁cruiser	-11.1984
▁betrayal	-11.1985
▁jake	-11.1985
▁jackass	-11.1986
▁combined	-11.1987
▁mansion	-11.1988
▁helicarriers	-11.1988
▁bench	-11.1988
▁iemand	-11.199
▁stream	-11.199
▁shrink	-11.1991
▁zola	-11.1991
▁described	-11.1992
hill	-11.1992
ullen	-11.1993
▁adam	-11.1994
▁zap	-11.1998
▁nori	-11.1998
▁verse	-11.1998
▁sanders	-11.1999
assic	-11.2
▁examiner	-11.2001
▁monk	-11.2001
▁masses	-11.2003
▁radical	-11.2004
▁rank	-11.2004
▁vanished	-11.2005
▁peel	-11.2006
▁cuss	-11.2006
fraction	-11.2006
▁bucky	-11.2006
▁mum	-11.2006
▁dose	-11.2006
▁dried	-11.2007
▁az	-11.2008
▁sang	-11.2009
▁takin	-11.2017
▁corpse	-11.2018
▁aid	-11.2018
▁violated	-11.202
▁farts	-11.2021
courtesy	-11.2021
▁grim	-11.2021
▁recruited	-11.2022
▁sore	-11.2024
▁foe	-11.2027
▁hose	-11.2028
▁crooked	-11.2031
gain	-11.2032
▁badass	-11.2033
▁contractor	-11.2035
▁hadd	-11.2036
itation	-11.2036
▁yen	-11.2036
▁guaranteed	-11.2044
▁drowned	-11.2045
▁hmo	-11.2046
▁prinses	-11.2047
▁hitch	-11.2047
▁hooker	-11.205
▁rescued	-11.205
▁jac	-11.2052
▁punished	-11.2054
▁mixed	-11.2058
▁homeland	-11.2059
▁cane	-11.2061
▁bron	-11.2061
▁cel	-11.2062
▁sailing	-11.2068
rath	-11.2068
▁screamed	-11.2071
andere	-11.2072
ogue	-11.2072
▁hind	-11.2074
▁texted	-11.2076
▁informed	-11.2077
▁performed	-11.2085
▁compos	-11.2086
▁tricky	-11.2093
sits	-11.2096
▁regarding	-11.2099
▁teen	-11.2108
▁introduced	-11.2109
▁interrupted	-11.2112
▁daniela	-11.2125
▁fasten	-11.2127
▁soy	-11.2136
▁dame	-11.2138
▁sion	-11.215
▁scaring	-11.216
aving	-11.2165
▁server	-11.2167
▁sincere	-11.2173
▁lando	-11.2175
▁bailed	-11.2175
▁quietly	-11.2191
oogie	-11.2198
▁adore	-11.2199
hard	-11.2201
▁secured	-11.2202
done	-11.2211
▁switched	-11.2213
▁joey	-11.2223
gio	-11.2226
▁eaten	-11.2231
▁fucked	-11.2231
▁entered	-11.2241
▁foote	-11.2243
thou	-11.2244
▁lifted	-11.2248
▁waive	-11.2259
gress	-11.2275
▁mint	-11.2301
▁taw	-11.2308
▁gap	-11.2314
▁coaster	-11.2317
▁gele	-11.232
▁hel	-11.233
▁exterminat	-11.2339
org	-11.2344
liner	-11.235
name	-11.2358
▁what	-11.2368
har	-11.2369
▁philipp	-11.2378
about	-11.2407
loss	-11.2408
▁jess	-11.2432
▁mock	-11.2467
▁riv	-11.2511
▁jonge	-11.2524
▁wink	-11.2525
▁you	-11.2558
▁vip	-11.2572
▁parker	-11.2597
urging	-11.2603
aux	-11.2632
▁gir	-11.2651
▁pap	-11.2673
▁lid	-11.2679
▁mist	-11.2692
oul	-11.2706
▁dip	-11.2721
timate	-11.2737
▁rubb	-11.2777
▁tun	-11.279
▁menu	-11.2817
▁nominat	-11.2826
raw	-11.2832
tif	-11.2841
teau	-11.2854
▁anth	-11.2865
cup	-11.2885
▁greas	-11.2899
run	-11.2906
tham	-11.2909
▁equ	-11.2927
shaped	-11.2935
▁prima	-11.2968
mine	-11.2987
ama	-11.2991
illa	-11.2994
▁friggin	-11.2996
iva	-11.3027
okay	-11.3046
▁notifi	-11.3061
wag	-11.3063
▁wigg	-11.3066
last	-11.3103
▁oog	-11.3183
bora	-11.3186
▁chippe	-11.319
▁haste	-11.3198
bomb	-11.3199
▁dank	-11.3201
eva	-11.3233
rted	-11.3315
▁bru	-11.3351
▁improve	-11.3364
▁dime	-11.3402
lau	-11.3426
hola	-11.3451
nks	-11.346
your	-11.3533
cul	-11.3534
▁ava	-11.3558
gone	-11.357
▁hull	-11.357
▁cough	-11.3608
▁infect	-11.3638
▁gru	-11.3647
▁instinct	-11.3652
▁goblin	-11.3654
▁resume	-11.3661
▁hostage	-11.3669
▁bor	-11.3672
▁height	-11.3675
▁fork	-11.3682
▁drie	-11.3701
bic	-11.3748
▁penn	-11.376
dieu	-11.3767
▁indicat	-11.3809
▁writ	-11.3812
▁cycl	-11.3812
ando	-11.383
pressed	-11.3851
▁tram	-11.388
▁gev	-11.39
▁disappoint	-11.3906
▁conquer	-11.3907
▁dismiss	-11.3908
▁exhaust	-11.3909
fty	-11.3919
frost	-11.3923
front	-11.3923
clip	-11.3924
ofthe	-11.3924
yearold	-11.3924
smith	-11.3925
prince	-11.3925
american	-11.3925
scene	-11.3926
thisby	-11.3926
▁eerst	-11.3931
▁strateg	-11.3931
watch	-11.3932
letter	-11.3933
▁pour	-11.3934
flow	-11.3934
▁craz	-11.3934
▁philosoph	-11.3935
▁fortunate	-11.3937
chick	-11.394
▁korea	-11.394
▁heave	-11.3941
zoon	-11.3941
fianc	-11.3944
core	-11.3945
saw	-11.3945
train	-11.3945
▁demonstrat	-11.3945
▁technic	-11.3946
▁elevat	-11.3947
produc	-11.3947
pool	-11.3947
▁corrupt	-11.3952
▁sittin	-11.3952
▁extinct	-11.3952
▁occup	-11.3952
▁runnin	-11.3952
▁assembly	-11.3952
nounce	-11.3952
▁august	-11.3953
▁kiddin	-11.3953
script	-11.3953
▁grocer	-11.3954
duction	-11.3954
action	-11.3954
▁scholar	-11.3955
▁squad	-11.3955
▁bachelor	-11.3955
▁jenni	-11.3956
▁priv	-11.3956
berries	-11.3956
▁eject	-11.3956
cipal	-11.3956
orthodo	-11.3956
▁abducted	-11.3956
▁abroad	-11.3956
▁accompany	-11.3956
▁afghanistan	-11.3956
▁altitude	-11.3956
▁amazon	-11.3956
▁ambigram	-11.3956
▁ambition	-11.3956
▁annihilation	-11.3956
▁annual	-11.3956
▁appreciation	-11.3956
▁apprehend	-11.3956
▁arrogant	-11.3956
▁athenian	-11.3956
▁auction	-11.3956
▁barbecue	-11.3956
▁biscuits	-11.3956
▁bordeaux	-11.3956
▁bridetobe	-11.3956
▁brochure	-11.3956
▁bypass	-11.3956
▁caliban	-11.3956
▁caribbean	-11.3956
▁cavalry	-11.3956
▁cheerleader	-11.3956
▁cherlinski	-11.3956
▁chipmunks	-11.3956
▁circuit	-11.3956
▁cocaine	-11.3956
▁compressor	-11.3956
▁conclude	-11.3956
▁consumption	-11.3956
▁contempt	-11.3956
▁covenant	-11.3956
▁cyrus	-11.3956
▁decommission	-11.3956
▁defensive	-11.3956
▁definition	-11.3956
▁depression	-11.3956
▁deterrent	-11.3956
▁diptet	-11.3956
▁discriminat	-11.3956
▁disgrace	-11.3956
▁dixon	-11.3956
▁download	-11.3956
▁dummy	-11.3956
▁econom	-11.3956
▁electromagnet	-11.3956
▁employment	-11.3956
▁episode	-11.3956
▁eugene	-11.3956
▁exaggerat	-11.3956
▁exhaling	-11.3956
▁exhibit	-11.3956
▁exhusband	-11.3956
▁exploding	-11.3956
▁extremis	-11.3956
▁faggot	-11.3956
▁february	-11.3956
▁ferrari	-11.3956
▁fingertip	-11.3956
▁finnegan	-11.3956
▁fitzhugh	-11.3956
▁florence	-11.3956
▁fracture	-11.3956
▁frenzy	-11.3956
▁frostwolves	-11.3956
▁galaxies	-11.3956
▁gefeliciteerd	-11.3956
▁gracious	-11.3956
▁gratitude	-11.3956
▁greenwich	-11.3956
▁grozny	-11.3956
▁guidance	-11.3956
▁holbrook	-11.3956
▁inappropriate	-11.3956
▁incantation	-11.3956
▁incorrect	-11.3956
▁independence	-11.3956
▁insanity	-11.3956
▁intruder	-11.3956
▁ipswich	-11.3956
▁karazhan	-11.3956
▁khadgar	-11.3956
▁koninkrijk	-11.3956
▁kremlin	-11.3956
▁lahiri	-11.3956
▁landfill	-11.3956
▁laptop	-11.3956
▁lehnsherr	-11.3956
▁liaison	-11.3956
▁liberal	-11.3956
▁lidewij	-11.3956
▁lydia	-11.3956
▁majesteit	-11.3956
▁mathematics	-11.3956
▁miraculous	-11.3956
▁naughty	-11.3956
▁nexdoria	-11.3956
▁nightcrawler	-11.3956
▁nonsmoking	-11.3956
▁oakenshield	-11.3956
▁obituary	-11.3956
▁obligation	-11.3956
▁october	-11.3956
▁osteosarcoma	-11.3956
▁outpost	-11.3956
▁paralysis	-11.3956
▁patterson	-11.3956
▁peterquince	-11.3956
▁pezzulo	-11.3956
▁plague	-11.3956
▁preserve	-11.3956
▁prinselijk	-11.3956
▁qualities	-11.3956
▁quarantine	-11.3956
▁reception	-11.3956
▁resurrect	-11.3956
▁rodrigue	-11.3956
▁roosevelt	-11.3956
▁sacrament	-11.3956
▁salamander	-11.3956
▁sarcophagus	-11.3956
▁sassmouthing	-11.3956
▁scandalous	-11.3956
▁scavenger	-11.3956
▁schumann	-11.3956
▁semester	-11.3956
▁september	-11.3956
▁sequel	-11.3956
▁smaug	-11.3956
▁sophisticated	-11.3956
▁souvenir	-11.3956
▁splendid	-11.3956
▁spontane	-11.3956
▁stepfather	-11.3956
▁storyteller	-11.3956
▁stuttering	-11.3956
▁submarine	-11.3956
▁supplie	-11.3956
▁suspicion	-11.3956
▁swedish	-11.3956
▁swift	-11.3956
▁syrup	-11.3956
▁tortoise	-11.3956
▁transform	-11.3956
▁trespassing	-11.3956
▁trophy	-11.3956
▁uncovered	-11.3956
▁unprecedented	-11.3956
▁upload	-11.3956
▁utility	-11.3956
▁vacuum	-11.3956
▁valerious	-11.3956
▁vegetarian	-11.3956
▁veracruz	-11.3956
▁vriend	-11.3956
▁vulcan	-11.3956
▁wheelchair	-11.3956
▁wheezing	-11.3956
▁withdraw	-11.3956
▁autopsy	-11.3956
▁bifur	-11.3956
▁chalice	-11.3956
▁companies	-11.3956
▁dowry	-11.3956
▁employer	-11.3956
▁eradicat	-11.3956
▁insured	-11.3956
▁lunatic	-11.3956
▁marcus	-11.3956
▁nieuw	-11.3956
▁phrase	-11.3956
▁practicing	-11.3956
▁pretence	-11.3956
▁ralph	-11.3956
▁reckless	-11.3956
▁refrigerator	-11.3956
▁revoir	-11.3956
▁serpent	-11.3956
▁shepherd	-11.3956
▁snitch	-11.3956
▁snoring	-11.3956
▁superhero	-11.3956
▁tulip	-11.3956
▁tyrant	-11.3956
▁vacant	-11.3956
▁vandaag	-11.3956
▁verrassing	-11.3956
▁zaak	-11.3956
▁abode	-11.3956
▁bikini	-11.3956
▁blijf	-11.3956
▁disdain	-11.3956
▁donating	-11.3956
▁dunno	-11.3956
▁embark	-11.3956
▁grudge	-11.3956
▁machtig	-11.3956
▁overcome	-11.3956
▁preferiti	-11.3956
▁rifle	-11.3956
▁rooftop	-11.3956
▁rumour	-11.3956
▁savior	-11.3956
▁stroll	-11.3956
▁wealth	-11.3956
▁caddy	-11.3956
▁colombia	-11.3956
▁harbor	-11.3956
▁honeycutt	-11.3956
▁jfk	-11.3956
▁minister	-11.3956
▁pryde	-11.3956
▁scraps	-11.3956
▁singular	-11.3956
▁snoop	-11.3956
▁starlord	-11.3956
▁wassen	-11.3956
▁humour	-11.3956
▁oyster	-11.3956
▁propriet	-11.3956
▁slug	-11.3956
imprison	-11.3956
▁bmw	-11.3956
▁ceremoni	-11.3956
▁formula	-11.3956
▁merci	-11.3956
▁recap	-11.3956
▁thuis	-11.3956
▁tierra	-11.3956
▁warehouse	-11.3956
▁wheat	-11.3956
swipe	-11.3956
▁applied	-11.3956
▁faia	-11.3956
▁janson	-11.3956
▁nfl	-11.3956
▁terminal	-11.3956
▁vicky	-11.3956
▁whew	-11.3956
▁endanger	-11.3956
▁heathen	-11.3956
▁aaron	-11.3956
▁constable	-11.3956
▁swat	-11.3956
▁unstable	-11.3956
▁zich	-11.3956
▁concre	-11.3956
▁thrust	-11.3956
▁toxin	-11.3956
▁income	-11.3956
▁amusing	-11.3956
▁duct	-11.3956
▁sentiment	-11.3956
▁hijacked	-11.3956
▁visible	-11.3956
▁backseat	-11.3956
▁compound	-11.3956
▁guidelines	-11.3956
▁jaylah	-11.3956
▁confine	-11.3956
▁swindle	-11.3956
▁educate	-11.3956
▁estimate	-11.3956
▁shalt	-11.3956
▁intersect	-11.3956
▁ruling	-11.3956
▁larson	-11.3956
▁signora	-11.3956
▁assessment	-11.3956
▁scoring	-11.3956
▁terra	-11.3956
▁venge	-11.3956
▁durin	-11.3956
▁geneva	-11.3956
▁menace	-11.3956
▁signori	-11.3956
▁strawberr	-11.3956
▁carbon	-11.3956
▁alec	-11.3956
▁teabing	-11.3956
▁insert	-11.3956
▁sizzl	-11.3956
▁funnel	-11.3956
▁ransom	-11.3956
▁scatt	-11.3956
▁sherlock	-11.3956
▁fuzz	-11.3956
▁dialogue	-11.3956
▁santos	-11.3956
▁signore	-11.3956
▁basis	-11.3956
▁doggy	-11.3956
▁jilt	-11.3956
▁whining	-11.3956
▁disrespect	-11.3956
▁freight	-11.3956
▁sniffles	-11.3956
▁exwife	-11.3956
elvet	-11.3956
▁koi	-11.3956
▁olsen	-11.3956
▁tripod	-11.3957
▁shylock	-11.3957
▁slop	-11.3957
▁transition	-11.3957
▁numer	-11.3957
▁retina	-11.3957
▁located	-11.3957
▁wrestl	-11.3957
▁comrade	-11.3957
▁excitement	-11.3957
▁scoop	-11.3957
▁lethal	-11.3957
▁premature	-11.3957
▁thudding	-11.3957
▁santi	-11.3957
▁kabul	-11.3957
▁overflow	-11.3957
▁summar	-11.3957
▁buckley	-11.3957
▁glue	-11.3957
▁incapable	-11.3957
▁waylon	-11.3957
length	-11.3957
▁compass	-11.3957
▁basketball	-11.3957
▁nodig	-11.3957
▁sublevel	-11.3958
▁defile	-11.3958
▁hunch	-11.3958
▁alignment	-11.3958
bereid	-11.3958
▁ceo	-11.3958
▁waving	-11.3958
▁romanoff	-11.3958
▁terrorism	-11.3958
▁rattle	-11.3958
▁believing	-11.3958
▁creating	-11.3958
▁titanium	-11.3958
▁saddle	-11.3958
▁collet	-11.3958
▁mutual	-11.3958
▁ravagers	-11.3958
▁crate	-11.3958
▁ginger	-11.3958
▁riley	-11.3958
▁energies	-11.3958
▁contend	-11.3958
▁casa	-11.3958
▁panhead	-11.3958
▁niko	-11.3958
▁dramatic	-11.3958
▁overnight	-11.3958
▁pawn	-11.3958
▁panties	-11.3958
▁enhanc	-11.3959
▁gorman	-11.3959
▁congress	-11.3959
▁stormwind	-11.3959
▁harsh	-11.3959
ketch	-11.3959
▁inscription	-11.3959
▁inaudible	-11.3959
litary	-11.3959
▁booze	-11.3959
▁hiya	-11.3959
▁sober	-11.3959
▁bongo	-11.3959
▁checkpoint	-11.3959
▁unnatural	-11.3959
▁evict	-11.3959
▁flick	-11.396
▁filter	-11.396
▁transferred	-11.396
itable	-11.396
ajun	-11.396
▁swap	-11.396
▁slack	-11.396
▁leadership	-11.396
▁yield	-11.396
▁corruption	-11.396
▁prohibit	-11.396
▁paranoia	-11.396
▁ouch	-11.396
▁winehouse	-11.396
▁klau	-11.396
▁judy	-11.3961
▁obsessive	-11.3961
▁schat	-11.3961
▁adorable	-11.3961
▁keystone	-11.3961
▁extraction	-11.3961
▁litter	-11.3961
▁upside	-11.3961
▁alliance	-11.3962
▁involvement	-11.3962
▁valid	-11.3962
▁voting	-11.3962
▁vermin	-11.3962
▁tasty	-11.3962
▁bonnie	-11.3962
▁mainland	-11.3962
donna	-11.3962
▁blend	-11.3962
▁kir	-11.3962
▁dwell	-11.3963
▁reduce	-11.3963
▁barber	-11.3963
▁epic	-11.3963
▁vivian	-11.3963
▁amber	-11.3963
▁scum	-11.3963
▁haircut	-11.3963
▁defenseless	-11.3963
▁wack	-11.3963
▁eastern	-11.3963
▁kidnapper	-11.3963
▁mush	-11.3963
▁scarf	-11.3964
▁willis	-11.3964
▁feedback	-11.3964
▁alcoholic	-11.3964
▁rejection	-11.3964
ocus	-11.3964
▁hydrant	-11.3964
▁shack	-11.3964
▁inevitable	-11.3965
▁leah	-11.3965
▁riva	-11.3965
▁humbl	-11.3965
▁cube	-11.3966
▁canna	-11.3966
▁wilson	-11.3966
▁airplane	-11.3966
▁fax	-11.3966
▁frontier	-11.3967
▁fade	-11.3967
▁rebel	-11.3967
▁wax	-11.3967
▁demonstration	-11.3967
▁substan	-11.3967
▁renee	-11.3967
▁mega	-11.3967
▁brace	-11.3967
▁warren	-11.3967
▁belongings	-11.3968
▁antique	-11.3968
▁associat	-11.3968
▁rash	-11.3968
▁recommendation	-11.3968
▁geze	-11.3968
▁poking	-11.3968
▁envy	-11.3969
▁kira	-11.3969
▁corona	-11.3969
▁crater	-11.3969
▁havin	-11.3969
▁sunny	-11.3969
▁recon	-11.3969
▁paleis	-11.397
▁lono	-11.397
▁midst	-11.397
▁rotation	-11.397
▁prejudice	-11.397
▁rapper	-11.3971
▁reese	-11.3971
▁mort	-11.3971
▁apri	-11.3972
▁geek	-11.3972
▁diary	-11.3972
▁plumber	-11.3973
▁parade	-11.3973
▁footage	-11.3974
▁herman	-11.3974
▁proton	-11.3974
▁alight	-11.3974
▁lighthouse	-11.3975
▁shades	-11.3975
▁lordship	-11.3975
chio	-11.3975
▁gaat	-11.3975
▁pronounced	-11.3976
▁fu	-11.3977
▁philosopher	-11.3977
▁dings	-11.3977
▁faithful	-11.3977
▁discipline	-11.3978
▁wager	-11.3978
▁pork	-11.3979
▁voel	-11.3979
▁majority	-11.398
▁sadness	-11.398
▁slet	-11.398
▁zit	-11.3982
▁detonat	-11.3982
▁brah	-11.3982
▁betting	-11.3983
▁installed	-11.3984
▁evolved	-11.3984
▁hitler	-11.3984
▁itit	-11.3984
▁coke	-11.3985
ponent	-11.3985
▁hound	-11.3987
▁cabo	-11.3987
▁personality	-11.3987
▁crest	-11.3988
▁icon	-11.3988
▁shallow	-11.3989
▁fowler	-11.399
▁determine	-11.399
▁universal	-11.3991
fusion	-11.3991
▁logan	-11.3992
▁fulfilled	-11.3995
▁morally	-11.3995
▁distracted	-11.3995
speed	-11.3996
▁controlling	-11.3997
▁neem	-11.3997
▁rational	-11.3998
legge	-11.4
▁lever	-11.4
▁brom	-11.4002
▁klo	-11.4003
▁gigi	-11.4004
▁reem	-11.4004
▁greeting	-11.4005
▁conquered	-11.4006
▁shush	-11.4006
▁activate	-11.4006
▁sixty	-11.4006
▁distracting	-11.4006
▁cafe	-11.4007
▁approaches	-11.4009
▁eag	-11.401
▁fearless	-11.4014
▁federales	-11.4014
▁rapidly	-11.4016
▁allies	-11.4016
▁porn	-11.4016
▁accomplished	-11.4017
▁opge	-11.4018
▁saucer	-11.4018
ilus	-11.4019
▁household	-11.4019
▁pouring	-11.402
▁hunger	-11.402
▁disabl	-11.402
▁dusty	-11.4021
▁flown	-11.4023
▁barnes	-11.4023
▁epi	-11.4024
▁collapsed	-11.4025
▁brat	-11.4025
▁sage	-11.4025
▁operational	-11.4026
▁deceived	-11.4028
▁doomed	-11.4028
assup	-11.403
▁cocky	-11.4031
▁jingl	-11.4033
gage	-11.4034
▁spat	-11.4035
▁calculated	-11.4039
▁taller	-11.4042
▁recipe	-11.4043
▁privileged	-11.4049
▁delayed	-11.405
▁registered	-11.405
▁restless	-11.4052
▁sparkl	-11.4052
▁topic	-11.4064
▁kai	-11.4065
▁lip	-11.4065
ipping	-11.4066
▁mustard	-11.4068
quisition	-11.4079
▁brew	-11.4082
▁perfection	-11.4082
▁savin	-11.4084
▁crosses	-11.4087
▁spine	-11.4087
▁hopeless	-11.4088
▁related	-11.4095
▁bk	-11.4096
▁moss	-11.4105
▁matty	-11.4108
▁lotto	-11.4118
▁jenk	-11.4119
▁bounc	-11.4122
▁reaches	-11.4131
▁iwh	-11.4136
▁nun	-11.4137
▁offender	-11.4146
▁visa	-11.4151
wept	-11.4161
▁macki	-11.4169
▁wage	-11.4189
▁voter	-11.4216
▁uphol	-11.4218
▁ole	-11.4228
▁sher	-11.423
▁massac	-11.4244
rett	-11.4281
fan	-11.4288
▁ofyou	-11.4328
▁carla	-11.4352
▁pitt	-11.4354
▁cam	-11.437
▁navigat	-11.4374
▁bore	-11.4377
▁astr	-11.4396
shire	-11.4423
▁harp	-11.45
▁biz	-11.4508
treat	-11.4518
pinning	-11.4542
improvement	-11.4586
count	-11.4593
tious	-11.4611
▁mere	-11.4625
▁morgu	-11.4665
▁ark	-11.4669
▁beha	-11.4683
▁surfer	-11.4693
▁ober	-11.4755
cated	-11.4756
▁cuban	-11.4848
▁accelerate	-11.4863
▁coordinate	-11.4895
▁capp	-11.4908
kaar	-11.495
gling	-11.5001
knit	-11.5006
▁hond	-11.5014
▁wrappe	-11.5075
▁beaut	-11.5081
cou	-11.5137
orge	-11.521
▁elvis	-11.5262
▁mono	-11.5312
▁sustain	-11.5364
▁dag	-11.5366
▁contra	-11.5444
tile	-11.5494
▁elk	-11.5584
zonder	-11.5612
hub	-11.566
▁obe	-11.5728
lie	-11.5753
▁imagin	-11.5774
llis	-11.5822
▁fric	-11.5921
▁stat	-11.5978
▁pill	-11.5979
▁unwi	-11.6
▁amor	-11.6012
immer	-11.6016
tonic	-11.6021
casi	-11.6104
range	-11.6107
▁vibrat	-11.6115
▁honk	-11.6119
niner	-11.6137
▁arrangement	-11.6152
▁locust	-11.6155
▁errand	-11.616
▁remark	-11.6163
▁glove	-11.6167
▁archive	-11.6167
▁stair	-11.6176
olina	-11.6197
▁rib	-11.6242
home	-11.6248
billa	-11.6249
awn	-11.6271
called	-11.6311
▁mak	-11.6315
▁organize	-11.6322
icles	-11.6331
▁distract	-11.6333
▁recip	-11.6345
▁plac	-11.6354
▁escap	-11.6355
▁poli	-11.6368
▁multipl	-11.6381
▁greet	-11.64
▁clack	-11.64
▁confus	-11.6405
▁fulfill	-11.6407
▁cere	-11.6407
look	-11.6414
▁evolve	-11.642
town	-11.6422
▁should	-11.6422
nuts	-11.6422
what	-11.6423
exchange	-11.6424
famous	-11.6425
movie	-11.6425
floor	-11.6425
shoot	-11.6425
first	-11.6425
child	-11.6425
stroke	-11.6427
owned	-11.6427
thinking	-11.6428
▁indulge	-11.6428
authorized	-11.6429
▁prior	-11.643
▁nigh	-11.6431
komen	-11.6432
master	-11.6434
weight	-11.6435
wide	-11.6435
▁plumb	-11.6435
mature	-11.6438
water	-11.6439
▁africa	-11.644
▁froze	-11.644
▁rang	-11.6442
human	-11.6442
tration	-11.6445
▁govern	-11.6445
▁scot	-11.6446
class	-11.6447
▁critic	-11.6447
▁literal	-11.6448
▁inspect	-11.6449
▁virg	-11.645
▁guld	-11.645
▁movin	-11.6451
▁lovin	-11.6451
▁energ	-11.6451
▁competiti	-11.6453
metric	-11.6453
half	-11.6453
▁accur	-11.6453
▁chuck	-11.6453
fight	-11.6454
▁empti	-11.6454
onkey	-11.6455
▁stew	-11.6455
▁bodyguard	-11.6455
▁compartment	-11.6456
scious	-11.6456
▁neighbour	-11.6456
▁sync	-11.6456
inhabit	-11.6456
▁oppressi	-11.6456
acquainted	-11.6456
astoria	-11.6456
borough	-11.6456
ceivable	-11.6456
saturationcrisis	-11.6456
splatter	-11.6456
▁abrupt	-11.6456
▁admission	-11.6456
▁adrenaline	-11.6456
▁aggravat	-11.6456
▁allfather	-11.6456
▁andiamo	-11.6456
▁antimatter	-11.6456
▁apologizing	-11.6456
▁argentinean	-11.6456
▁arsenal	-11.6456
▁arzamas	-11.6456
▁aspect	-11.6456
▁assumption	-11.6456
▁beechwood	-11.6456
▁berklee	-11.6456
▁blijven	-11.6456
▁boulevard	-11.6456
▁bouquet	-11.6456
▁bureau	-11.6456
▁camouflage	-11.6456
▁carnivor	-11.6456
▁challenging	-11.6456
▁chauffeur	-11.6456
▁chittering	-11.6456
▁choochoo	-11.6456
▁circum	-11.6456
▁civic	-11.6456
▁clatters	-11.6456
▁cologne	-11.6456
▁comprehend	-11.6456
▁confidence	-11.6456
▁constitution	-11.6456
▁consulate	-11.6456
▁consummat	-11.6456
▁contaminated	-11.6456
▁convenient	-11.6456
▁convincing	-11.6456
▁corresponde	-11.6456
▁corvette	-11.6456
▁crawfish	-11.6456
▁credential	-11.6456
▁crossbow	-11.6456
▁crumple	-11.6456
▁cunning	-11.6456
▁deceased	-11.6456
▁dedication	-11.6456
▁democrat	-11.6456
▁despise	-11.6456
▁diagnosis	-11.6456
▁diagnostics	-11.6456
▁dimension	-11.6456
▁disposal	-11.6456
▁distorted	-11.6456
▁donald	-11.6456
▁dongdongdong	-11.6456
▁doppler	-11.6456
▁dreadful	-11.6456
▁dunmeyer	-11.6456
▁eliminate	-11.6456
▁engaging	-11.6456
▁enslave	-11.6456
▁espresso	-11.6456
▁evolving	-11.6456
▁exodus	-11.6456
▁ezekiel	-11.6456
▁fabonan	-11.6456
▁facial	-11.6456
▁flavaflav	-11.6456
▁fleurdelis	-11.6456
▁forecast	-11.6456
▁forgave	-11.6456
▁fountain	-11.6456
▁frostwolf	-11.6456
▁fundamental	-11.6456
▁gedroomd	-11.6456
▁generosity	-11.6456
▁genuine	-11.6456
▁geweldig	-11.6456
▁ghastly	-11.6456
▁ghetto	-11.6456
▁gluten	-11.6456
▁granddaughter	-11.6456
▁hendrix	-11.6456
▁histories	-11.6456
▁humiliation	-11.6456
▁hypocri	-11.6456
▁identification	-11.6456
▁imbecile	-11.6456
▁infestation	-11.6456
▁injustice	-11.6456
▁inquir	-11.6456
▁instrument	-11.6456
▁interject	-11.6456
▁iphitos	-11.6456
▁ironbark	-11.6456
▁irrelevant	-11.6456
▁jeopard	-11.6456
▁juggling	-11.6456
▁kaartjes	-11.6456
▁kalashov	-11.6456
▁kikk	-11.6456
▁kuwait	-11.6456
▁lassiter	-11.6456
▁laundry	-11.6456
▁leprechaun	-11.6456
▁leukemia	-11.6456
▁lnteresting	-11.6456
▁lobster	-11.6456
▁loneliness	-11.6456
▁majordomo	-11.6456
▁maneuver	-11.6456
▁manufacturer	-11.6456
▁mclntyre	-11.6456
▁medieval	-11.6456
▁mercenar	-11.6456
▁merchandise	-11.6456
▁metaboli	-11.6456
▁microscop	-11.6456
▁millennium	-11.6456
▁mischief	-11.6456
▁mislead	-11.6456
▁moneypenny	-11.6456
▁mortuary	-11.6456
▁motivat	-11.6456
▁muffet	-11.6456
▁mystique	-11.6456
▁nachttrein	-11.6456
▁nanites	-11.6456
▁natuurlijk	-11.6456
▁necro	-11.6456
▁necromancer	-11.6456
▁nephew	-11.6456
▁neptune	-11.6456
▁nutmeg	-11.6456
▁oldfashioned	-11.6456
▁omhoog	-11.6456
▁ordinance	-11.6456
▁oregon	-11.6456
▁pancakes	-11.6456
▁parameter	-11.6456
▁pedestrian	-11.6456
▁pentacle	-11.6456
▁pharaoh	-11.6456
▁phenomena	-11.6456
▁physicist	-11.6456
▁prachtig	-11.6456
▁precaution	-11.6456
▁prototype	-11.6456
▁puppies	-11.6456
▁purchase	-11.6456
▁quadrant	-11.6456
▁qualms	-11.6456
▁quarrel	-11.6456
▁railroad	-11.6456
▁rambling	-11.6456
▁reboot	-11.6456
▁recalibrat	-11.6456
▁recharge	-11.6456
▁reconsider	-11.6456
▁redirect	-11.6456
▁refract	-11.6456
▁regulate	-11.6456
▁rehearse	-11.6456
▁rehearsing	-11.6456
▁relentless	-11.6456
▁resolve	-11.6456
▁rupert	-11.6456
▁savrille	-11.6456
▁scissors	-11.6456
▁selenium	-11.6456
▁shrewd	-11.6456
▁slurp	-11.6456
▁snorting	-11.6456
▁snoutfever	-11.6456
▁snuck	-11.6456
▁sonofabitch	-11.6456
▁sorority	-11.6456
▁sought	-11.6456
▁sovereign	-11.6456
▁spassky	-11.6456
▁sprung	-11.6456
▁subversive	-11.6456
▁sufficient	-11.6456
▁suicidal	-11.6456
▁supreme	-11.6456
▁syllabus	-11.6456
▁theoretically	-11.6456
▁trajector	-11.6456
▁transducing	-11.6456
▁tsunami	-11.6456
▁tummy	-11.6456
▁ukrainian	-11.6456
▁unanswered	-11.6456
▁unfold	-11.6456
▁ungrateful	-11.6456
▁unhappy	-11.6456
▁unmistakable	-11.6456
▁unnecessary	-11.6456
▁vague	-11.6456
▁vocalizing	-11.6456
▁wagner	-11.6456
▁wardrobe	-11.6456
▁watanabe	-11.6456
▁yoohoo	-11.6456
▁yummy	-11.6456
▁zafrina	-11.6456
eductive	-11.6456
▁allemaal	-11.6456
▁baggia	-11.6456
▁bianca	-11.6456
▁cashmere	-11.6456
▁concentrati	-11.6456
▁disagree	-11.6456
▁dunbar	-11.6456
▁dunham	-11.6456
▁emblem	-11.6456
▁expired	-11.6456
▁fascis	-11.6456
▁gokarts	-11.6456
▁infirm	-11.6456
▁interfere	-11.6456
▁interrogat	-11.6456
▁knitting	-11.6456
▁laboratory	-11.6456
▁mcgoo	-11.6456
▁morgan	-11.6456
▁nigra	-11.6456
▁oasis	-11.6456
▁payload	-11.6456
▁pencil	-11.6456
▁polland	-11.6456
▁retaliat	-11.6456
▁scribbl	-11.6456
▁semmi	-11.6456
▁sketches	-11.6456
▁southeast	-11.6456
▁spectro	-11.6456
▁suction	-11.6456
▁thirteen	-11.6456
▁unworthy	-11.6456
▁website	-11.6456
▁woorden	-11.6456
▁ambush	-11.6456
▁apparel	-11.6456
▁beaver	-11.6456
▁bennett	-11.6456
▁bogus	-11.6456
▁brothel	-11.6456
▁conscious	-11.6456
▁critter	-11.6456
▁essence	-11.6456
▁eulog	-11.6456
▁flemming	-11.6456
▁flute	-11.6456
▁frypan	-11.6456
▁gamble	-11.6456
▁gerald	-11.6456
▁grotesque	-11.6456
▁hysterical	-11.6456
▁interpol	-11.6456
▁kensington	-11.6456
▁lydie	-11.6456
▁monica	-11.6456
▁negro	-11.6456
▁northwest	-11.6456
▁notify	-11.6456
▁outcome	-11.6456
▁paradise	-11.6456
▁phillip	-11.6456
▁praat	-11.6456
▁racist	-11.6456
▁reserve	-11.6456
▁seatbelt	-11.6456
▁segment	-11.6456
▁temperament	-11.6456
▁variety	-11.6456
▁wimp	-11.6456
nquish	-11.6456
▁enlighten	-11.6456
▁mannelijk	-11.6456
▁snatch	-11.6456
▁alumn	-11.6456
▁alumnae	-11.6456
▁amigo	-11.6456
▁automatical	-11.6456
▁bidara	-11.6456
▁blouse	-11.6456
▁chastity	-11.6456
▁curtsy	-11.6456
▁foaming	-11.6456
▁lillian	-11.6456
▁parrot	-11.6456
▁ronnie	-11.6456
▁spenser	-11.6456
▁sunrise	-11.6456
▁threepio	-11.6456
▁woude	-11.6456
▁bleak	-11.6456
▁bruises	-11.6456
▁comfy	-11.6456
▁dexter	-11.6456
▁efficien	-11.6456
▁infant	-11.6456
▁ireland	-11.6456
▁nevertheless	-11.6456
▁pavement	-11.6456
▁cotton	-11.6456
▁erotic	-11.6456
▁hydro	-11.6456
▁jimmie	-11.6456
▁reenact	-11.6456
▁robbin	-11.6456
▁sierra	-11.6456
▁stitch	-11.6456
▁belgi	-11.6456
▁deduce	-11.6456
▁draka	-11.6456
▁edison	-11.6456
▁mccoy	-11.6456
▁riddance	-11.6456
▁stiff	-11.6456
▁laddie	-11.6456
▁melan	-11.6456
▁whirl	-11.6456
▁polk	-11.6456
▁seduce	-11.6456
▁stabbed	-11.6456
▁synd	-11.6456
▁whatsoever	-11.6456
▁crumbs	-11.6456
▁gallery	-11.6456
▁scheme	-11.6456
synchron	-11.6456
▁tinker	-11.6456
▁enchanted	-11.6456
▁mourn	-11.6456
▁refugee	-11.6456
▁smear	-11.6456
▁optimi	-11.6456
▁cavern	-11.6456
▁tyrann	-11.6456
▁backpack	-11.6456
▁dvd	-11.6456
▁gorilla	-11.6456
▁overdose	-11.6456
▁zeker	-11.6456
▁belch	-11.6456
▁drafted	-11.6456
▁gracie	-11.6456
▁attic	-11.6456
▁checkmate	-11.6456
▁isolate	-11.6456
▁limb	-11.6456
▁detach	-11.6456
▁persisten	-11.6456
▁strive	-11.6456
▁trek	-11.6456
▁trippin	-11.6456
▁denial	-11.6456
▁straining	-11.6456
▁urine	-11.6456
▁emerson	-11.6456
▁exceed	-11.6456
▁retaine	-11.6456
iterate	-11.6456
▁aerosmith	-11.6456
▁huntsmen	-11.6456
measur	-11.6456
▁barricad	-11.6456
▁pennyways	-11.6456
▁neighbourhood	-11.6456
▁padre	-11.6456
▁beginnen	-11.6456
▁deenz	-11.6456
▁offcourse	-11.6456
▁scumbag	-11.6456
ographic	-11.6456
▁decoy	-11.6456
▁harmoniz	-11.6456
▁alek	-11.6456
▁reece	-11.6456
itude	-11.6456
▁cathy	-11.6456
▁relay	-11.6456
▁withhold	-11.6456
▁prosper	-11.6456
njun	-11.6456
▁items	-11.6456
▁sumdall	-11.6456
▁ifthe	-11.6456
▁mystic	-11.6456
▁begged	-11.6456
▁funki	-11.6456
▁tacky	-11.6456
▁swimmer	-11.6456
▁irritat	-11.6456
▁scrub	-11.6456
▁sensation	-11.6456
▁eighteen	-11.6456
▁wormhole	-11.6456
▁horizontal	-11.6456
▁specs	-11.6456
▁civilization	-11.6456
▁bootstrap	-11.6457
▁nancy	-11.6457
▁inventory	-11.6457
▁subterranean	-11.6457
gegaan	-11.6457
scription	-11.6457
▁oversee	-11.6457
platz	-11.6457
▁danvers	-11.6457
▁intuiti	-11.6457
▁sterk	-11.6457
▁clink	-11.6457
▁sculpture	-11.6457
▁blitz	-11.6457
▁implie	-11.6457
▁whwhat	-11.6457
▁generate	-11.6457
▁subscription	-11.6457
▁millionaire	-11.6457
▁lhc	-11.6457
▁ravish	-11.6457
▁mineral	-11.6457
proxim	-11.6457
▁analysis	-11.6457
▁gallons	-11.6457
trustworthy	-11.6457
▁outbreak	-11.6457
▁brook	-11.6457
▁oppose	-11.6457
dfather	-11.6457
▁complication	-11.6457
▁cornfield	-11.6457
▁icu	-11.6457
▁amazement	-11.6457
shop	-11.6457
▁whereas	-11.6457
▁biologist	-11.6457
▁commend	-11.6457
▁prado	-11.6457
▁navier	-11.6457
ternal	-11.6458
▁flapping	-11.6458
▁esme	-11.6458
▁trudy	-11.6458
▁registration	-11.6458
▁josie	-11.6458
▁creator	-11.6458
▁groping	-11.6458
▁sideways	-11.6458
▁bluff	-11.6458
▁expectations	-11.6458
junct	-11.6458
▁emptiness	-11.6458
▁patron	-11.6458
▁feeble	-11.6458
haald	-11.6458
▁headlines	-11.6458
▁hugging	-11.6458
▁chopping	-11.6458
▁llane	-11.6458
▁burt	-11.6458
▁caution	-11.6458
▁evelle	-11.6458
▁internship	-11.6458
▁oxford	-11.6458
▁nerd	-11.6458
▁timetable	-11.6458
▁dodgson	-11.6458
▁opponent	-11.6458
▁bonehead	-11.6458
▁gravy	-11.6459
▁purga	-11.6459
▁axe	-11.6459
▁decay	-11.6459
▁parole	-11.6459
▁leash	-11.6459
▁birthright	-11.6459
▁genome	-11.6459
▁rogue	-11.6459
▁quiver	-11.6459
▁plateau	-11.6459
▁nadine	-11.6459
▁norda	-11.6459
▁graveyard	-11.6459
rummy	-11.6459
▁courtney	-11.646
▁tedious	-11.646
▁petition	-11.646
▁tayo	-11.646
▁cried	-11.646
▁garbl	-11.646
▁skipping	-11.646
▁norway	-11.646
▁offline	-11.646
▁hathaway	-11.646
▁syd	-11.646
loop	-11.646
▁bailey	-11.6461
▁assemblyman	-11.6461
▁avenge	-11.6461
▁afoot	-11.6461
▁tray	-11.6461
probable	-11.6461
▁precies	-11.6461
▁occupation	-11.6461
▁shavers	-11.6461
▁brick	-11.6461
▁courtroom	-11.6461
▁cupboard	-11.6461
▁leche	-11.6461
▁gangway	-11.6461
▁railway	-11.6461
▁amper	-11.6462
▁encoder	-11.6462
▁meow	-11.6462
▁tinder	-11.6462
▁sofa	-11.6462
▁overex	-11.6462
▁twig	-11.6462
▁reek	-11.6462
▁housing	-11.6462
▁memo	-11.6462
▁ammo	-11.6462
▁steed	-11.6462
▁holler	-11.6463
▁zipper	-11.6463
▁quack	-11.6463
▁reflection	-11.6463
▁productive	-11.6463
▁scam	-11.6463
▁awhile	-11.6463
▁portland	-11.6463
▁harness	-11.6463
▁cheerful	-11.6463
▁zamundaans	-11.6463
▁factories	-11.6463
▁teddy	-11.6463
▁headmaster	-11.6464
▁disturbance	-11.6464
▁polar	-11.6464
▁rue	-11.6464
▁gloria	-11.6464
okken	-11.6464
▁kunt	-11.6464
▁babysit	-11.6464
▁selection	-11.6464
▁nazis	-11.6464
▁messina	-11.6464
asch	-11.6464
▁heant	-11.6464
▁glance	-11.6464
▁assassination	-11.6465
▁thrive	-11.6465
▁cease	-11.6465
dolin	-11.6465
▁moonlight	-11.6465
▁banner	-11.6466
▁sector	-11.6466
▁splitting	-11.6466
▁erupt	-11.6466
▁cattle	-11.6466
▁asian	-11.6466
▁dabu	-11.6466
▁virginia	-11.6466
▁seaboard	-11.6466
▁progressive	-11.6466
▁bonus	-11.6467
▁aircraft	-11.6467
▁airfield	-11.6467
▁heather	-11.6467
▁flea	-11.6467
▁anomaly	-11.6467
▁blake	-11.6467
▁passionate	-11.6467
▁gewe	-11.6468
▁blackhand	-11.6468
▁restraint	-11.6468
▁ciara	-11.6468
▁puke	-11.6468
▁diaz	-11.6469
▁flock	-11.6469
▁princeton	-11.6469
▁vowel	-11.6469
▁stabilize	-11.6469
▁interceptor	-11.647
▁wade	-11.647
thrand	-11.647
▁stom	-11.647
▁overtime	-11.6471
▁popping	-11.6471
▁waist	-11.6471
▁purge	-11.6472
tijd	-11.6473
▁tension	-11.6473
▁fever	-11.6473
▁revel	-11.6473
▁void	-11.6473
▁surfng	-11.6474
▁muse	-11.6474
▁iook	-11.6474
▁meaningless	-11.6474
▁vrouwen	-11.6474
▁stack	-11.6474
▁mamma	-11.6475
▁toek	-11.6475
▁incur	-11.6476
▁todd	-11.6476
▁requirement	-11.6476
▁hardware	-11.6476
▁torpedoes	-11.6477
▁vito	-11.6478
▁hush	-11.6478
▁stepping	-11.6478
▁bead	-11.6479
▁broom	-11.6479
▁vibe	-11.6479
▁markings	-11.6481
▁felici	-11.6481
▁shuttle	-11.6482
▁jamie	-11.6482
gora	-11.6482
▁mime	-11.6483
chia	-11.6483
▁supportive	-11.6484
▁forgiveness	-11.6484
▁werd	-11.6484
▁travelling	-11.6485
▁karen	-11.6485
▁sitwell	-11.6485
▁frigga	-11.6486
lasses	-11.6487
▁milton	-11.6488
▁rik	-11.6489
▁dung	-11.6489
▁fitch	-11.649
▁rival	-11.6491
▁hinge	-11.6493
▁whup	-11.6497
▁respectful	-11.6499
▁hugh	-11.6499
▁cris	-11.6499
▁tenant	-11.6501
▁exempl	-11.6502
▁stem	-11.6503
▁cds	-11.6503
▁darkling	-11.6505
▁slick	-11.6506
▁cort	-11.6507
▁investor	-11.6507
▁tapping	-11.651
▁astronomer	-11.651
otage	-11.6512
▁whine	-11.6513
▁baker	-11.6513
ennis	-11.6514
alvin	-11.6517
▁yuck	-11.6518
▁dale	-11.652
aaah	-11.652
▁cora	-11.6522
song	-11.6523
▁gum	-11.6524
▁startled	-11.6525
▁peach	-11.6527
oorde	-11.6531
▁doet	-11.6534
▁dug	-11.6535
fish	-11.6535
▁peep	-11.6536
▁colin	-11.6538
▁taser	-11.6543
termination	-11.6543
▁inhaler	-11.6545
▁minn	-11.6546
▁adventurer	-11.6548
▁objection	-11.6549
ature	-11.6551
▁combin	-11.6554
wear	-11.6554
eith	-11.6555
rink	-11.6555
who	-11.6557
otto	-11.6558
▁conform	-11.6562
▁volgen	-11.6564
▁daw	-11.6564
▁veron	-11.657
culate	-11.6571
▁clang	-11.6578
▁consist	-11.6579
▁pressur	-11.6581
zero	-11.6582
▁onion	-11.6583
▁bori	-11.6592
iberia	-11.6593
▁flipper	-11.6595
ammy	-11.6595
unch	-11.6614
bab	-11.662
refund	-11.6622
▁fig	-11.6633
▁authoris	-11.6638
▁dil	-11.6638
▁grind	-11.6649
▁willie	-11.6665
▁modif	-11.6672
▁enti	-11.6707
ussen	-11.6735
▁presto	-11.6761
compens	-11.6798
muri	-11.6808
▁frie	-11.6867
▁nou	-11.6871
draft	-11.6892
▁fend	-11.6908
▁flipp	-11.6941
▁assassinate	-11.6969
sail	-11.6993
▁whil	-11.7004
mile	-11.7046
▁tolera	-11.7046
orsten	-11.7059
▁maniacal	-11.7062
rdes	-11.7065
clea	-11.7072
▁peas	-11.7073
▁cosmo	-11.7077
nnel	-11.7154
capita	-11.7179
managing	-11.7224
▁choppe	-11.7294
arrange	-11.73
comb	-11.7452
▁mach	-11.7508
▁titani	-11.7556
ference	-11.7595
adequate	-11.7612
sustainable	-11.7622
adium	-11.7643
▁psycholog	-11.7675
bidder	-11.769
▁gand	-11.7701
ijden	-11.7744
▁brut	-11.7804
gallon	-11.7813
▁beau	-11.8024
▁extr	-11.8113
hat	-11.8122
dental	-11.8131
dunk	-11.8217
point	-11.827
tribution	-11.8284
▁settl	-11.829
omination	-11.8305
diction	-11.835
rake	-11.8384
touch	-11.8509
urban	-11.8578
rite	-11.8585
risk	-11.8753
▁distributi	-11.8785
▁contribut	-11.8916
▁gent	-11.8925
▁philip	-11.8927
▁frig	-11.9008
▁journal	-11.9014
▁parlo	-11.9016
▁prosecut	-11.9019
nova	-11.9145
▁doubl	-11.9166
▁evolution	-11.9198
plicated	-11.928
▁sif	-11.932
stokes	-11.9372
snij	-11.9435
▁where	-11.9456
▁kop	-11.9475
▁consequence	-11.9487
lunk	-11.9487
▁circumstance	-11.9489
▁eyebrow	-11.9489
▁organism	-11.949
▁fingerprint	-11.949
▁breast	-11.9492
▁fuego	-11.9495
▁giggle	-11.9496
▁whistle	-11.9498
▁instruction	-11.9502
▁vega	-11.951
▁involv	-11.9535
escent	-11.9561
▁featur	-11.9581
acceptable	-11.9591
▁replica	-11.965
▁expos	-11.9651
close	-11.9655
▁inhal	-11.9656
▁ratio	-11.9657
▁wij	-11.9658
tantly	-11.9681
ucky	-11.9696
quit	-11.9704
traumati	-11.9728
▁fowl	-11.9729
▁attract	-11.9739
▁install	-11.974
▁attach	-11.9749
natural	-11.9752
cloth	-11.9757
worms	-11.9757
electric	-11.9757
rescue	-11.9757
grass	-11.9758
world	-11.9758
identified	-11.9758
process	-11.9758
rumbling	-11.9758
original	-11.9758
written	-11.9758
screw	-11.9758
writing	-11.9758
complete	-11.9758
▁pronounce	-11.9758
security	-11.9758
together	-11.9758
people	-11.9759
believe	-11.9759
something	-11.9759
model	-11.9759
walk	-11.9759
issue	-11.9759
space	-11.9759
thats	-11.9762
course	-11.9763
ooga	-11.9763
common	-11.9764
▁temporar	-11.9766
▁mumbl	-11.9766
▁spank	-11.9767
reason	-11.9767
tube	-11.9768
word	-11.9769
▁weave	-11.977
dream	-11.9771
▁zij	-11.9775
▁atta	-11.9781
▁posit	-11.9781
▁smug	-11.9782
▁celebr	-11.9782
▁allergi	-11.9783
▁investigati	-11.9783
▁steppin	-11.9784
mother	-11.9784
cold	-11.9784
▁givin	-11.9784
▁destructi	-11.9784
quisit	-11.9785
▁fortuna	-11.9786
▁align	-11.9786
▁differ	-11.9787
acles	-11.9787
▁regime	-11.9787
negotia	-11.9787
ordinate	-11.9787
▁admiral	-11.9787
▁liqu	-11.9788
▁occur	-11.9788
▁sculpt	-11.9788
terranean	-11.9788
gnant	-11.9789
▁volt	-11.9789
neutral	-11.9789
▁triang	-11.9789
▁anonym	-11.9789
▁apollo	-11.9789
▁contracepti	-11.9789
▁crucifix	-11.9789
▁stimulat	-11.9789
alimentatie	-11.9789
evaluate	-11.9789
ezvous	-11.9789
franchise	-11.9789
inaugura	-11.9789
sacrificing	-11.9789
snorharen	-11.9789
sponsored	-11.9789
▁abbott	-11.9789
▁accommodation	-11.9789
▁accomplice	-11.9789
▁acknowledg	-11.9789
▁activities	-11.9789
▁admirabl	-11.9789
▁adversary	-11.9789
▁advertising	-11.9789
▁advising	-11.9789
▁afghan	-11.9789
▁afterlife	-11.9789
▁alaska	-11.9789
▁allergy	-11.9789
▁alsjeblieft	-11.9789
▁anesthetic	-11.9789
▁annihilate	-11.9789
▁antibiotic	-11.9789
▁anxiety	-11.9789
▁anxious	-11.9789
▁apologise	-11.9789
▁aristocrat	-11.9789
▁armstrong	-11.9789
▁artillery	-11.9789
▁astronaut	-11.9789
▁automobile	-11.9789
▁backbuilding	-11.9789
▁bacteria	-11.9789
▁bagpipes	-11.9789
▁bahamas	-11.9789
▁bangkok	-11.9789
▁banquet	-11.9789
▁baptist	-11.9789
▁bashful	-11.9789
▁bathsheba	-11.9789
▁bathtub	-11.9789
▁betekent	-11.9789
▁beverage	-11.9789
▁binnen	-11.9789
▁bleachers	-11.9789
▁bodega	-11.9789
▁bonanza	-11.9789
▁bonfire	-11.9789
▁botanist	-11.9789
▁brazil	-11.9789
▁brethren	-11.9789
▁brigade	-11.9789
▁buonasera	-11.9789
▁buongiorno	-11.9789
▁burroughs	-11.9789
▁buzzkill	-11.9789
▁calendar	-11.9789
▁caliber	-11.9789
▁cambridge	-11.9789
▁canvas	-11.9789
▁cappuccino	-11.9789
▁caravan	-11.9789
▁casablanca	-11.9789
▁category	-11.9789
▁caviar	-11.9789
▁charisse	-11.9789
▁cheesy	-11.9789
▁chellini	-11.9789
▁chelsea	-11.9789
▁chemistry	-11.9789
▁cherpitski	-11.9789
▁chopchop	-11.9789
▁chortling	-11.9789
▁cinnamon	-11.9789
▁clandestine	-11.9789
▁clergy	-11.9789
▁cleveland	-11.9789
▁compatible	-11.9789
▁confiscated	-11.9789
▁consolidat	-11.9789
▁conspiring	-11.9789
▁constellation	-11.9789
▁cornpone	-11.9789
▁counterfeit	-11.9789
▁cramps	-11.9789
▁crawdad	-11.9789
▁cucina	-11.9789
▁dandruff	-11.9789
▁dauntless	-11.9789
▁davina	-11.9789
▁declaration	-11.9789
▁deficit	-11.9789
▁delegate	-11.9789
▁delegation	-11.9789
▁delgado	-11.9789
▁demeanor	-11.9789
▁desperation	-11.9789
▁devastate	-11.9789
▁diagramma	-11.9789
▁dictate	-11.9789
▁disadvantage	-11.9789
▁dissuade	-11.9789
▁distantuncle	-11.9789
▁distinct	-11.9789
▁distorting	-11.9789
▁doberman	-11.9789
▁dogcatchers	-11.9789
▁dondervogel	-11.9789
▁dreadnought	-11.9789
▁dwarvish	-11.9789
▁editorhiroshi	-11.9789
▁emerald	-11.9789
▁enforcement	-11.9789
▁enteprise	-11.9789
▁enthusiastic	-11.9789
▁euphegenia	-11.9789
▁evaluation	-11.9789
▁exclaims	-11.9789
▁expelled	-11.9789
▁exponentially	-11.9789
▁fascinated	-11.9789
▁ferret	-11.9789
▁figurines	-11.9789
▁firecracker	-11.9789
▁flirting	-11.9789
▁flutter	-11.9789
▁frakesh	-11.9789
▁freckles	-11.9789
▁frohm	-11.9789
▁gadget	-11.9789
▁gebruik	-11.9789
▁gehoord	-11.9789
▁georgia	-11.9789
▁giggins	-11.9789
▁grushkov	-11.9789
▁gucci	-11.9789
▁gypsy	-11.9789
▁haiku	-11.9789
▁hancock	-11.9789
▁hashanah	-11.9789
▁hemorrhag	-11.9789
▁henceforth	-11.9789
▁henderson	-11.9789
▁historian	-11.9789
▁horrific	-11.9789
▁hulahoop	-11.9789
▁hybrid	-11.9789
▁hypnotize	-11.9789
▁icbm	-11.9789
▁ignorant	-11.9789
▁impaired	-11.9789
▁impeccable	-11.9789
▁implant	-11.9789
▁improvise	-11.9789
▁inaccurate	-11.9789
▁indestructible	-11.9789
▁insecure	-11.9789
▁insomnia	-11.9789
▁instructed	-11.9789
▁intimidate	-11.9789
▁jeremy	-11.9789
▁juvenile	-11.9789
▁kassimatis	-11.9789
▁kovacs	-11.9789
▁leisure	-11.9789
▁limousine	-11.9789
▁luminosity	-11.9789
▁marishka	-11.9789
▁marshmallow	-11.9789
▁maserati	-11.9789
▁masterpiece	-11.9789
▁mcloughlin	-11.9789
▁mcqueen	-11.9789
▁melody	-11.9789
▁minimal	-11.9789
▁mirembe	-11.9789
▁miriam	-11.9789
▁mitosis	-11.9789
▁moriarty	-11.9789
▁motherfuck	-11.9789
▁motorbike	-11.9789
▁narcolep	-11.9789
▁nebraska	-11.9789
▁neefje	-11.9789
▁neighing	-11.9789
▁nightclub	-11.9789
▁nipples	-11.9789
▁nominal	-11.9789
▁nostalgi	-11.9789
▁obituaries	-11.9789
▁odwyer	-11.9789
▁offshore	-11.9789
▁offspring	-11.9789
▁olympi	-11.9789
▁oranjee	-11.9789
▁overexcited	-11.9789
▁pantheon	-11.9789
▁papyrus	-11.9789
▁pasquale	-11.9789
▁peacekeepers	-11.9789
▁persuasi	-11.9789
▁petroleum	-11.9789
▁pharmaceutical	-11.9789
▁piazza	-11.9789
▁pointshaving	-11.9789
▁poodle	-11.9789
▁poverty	-11.9789
▁practitioner	-11.9789
▁prague	-11.9789
▁primitive	-11.9789
▁proposition	-11.9789
▁prosecco	-11.9789
▁provocat	-11.9789
▁psychiatric	-11.9789
▁puncture	-11.9789
▁quileute	-11.9789
▁quincy	-11.9789
▁raccoon	-11.9789
▁rafael	-11.9789
▁ramsey	-11.9789
▁regulator	-11.9789
▁relativity	-11.9789
▁releasing	-11.9789
▁rescuing	-11.9789
▁rigorous	-11.9789
▁rishkov	-11.9789
▁safeguard	-11.9789
▁scaffold	-11.9789
▁scalpel	-11.9789
▁schmuck	-11.9789
▁shaneequa	-11.9789
▁shankland	-11.9789
▁shivering	-11.9789
▁shrapnel	-11.9789
▁skeevies	-11.9789
▁skeptical	-11.9789
▁slouch	-11.9789
▁smallteeth	-11.9789
▁snorts	-11.9789
▁snuggl	-11.9789
▁solenoid	-11.9789
▁somewhat	-11.9789
▁soprano	-11.9789
▁squint	-11.9789
▁strumming	-11.9789
▁supplement	-11.9789
▁susceptib	-11.9789
▁syria	-11.9789
▁tarconi	-11.9789
▁terrifying	-11.9789
▁thatthat	-11.9789
▁thermometer	-11.9789
▁theseus	-11.9789
▁tinzaparin	-11.9789
▁tminus	-11.9789
▁toothbrush	-11.9789
▁toupee	-11.9789
▁tournament	-11.9789
▁trachtenberg	-11.9789
▁twitch	-11.9789
▁udub	-11.9789
▁ultimatum	-11.9789
▁umbrella	-11.9789
▁unconditional	-11.9789
▁undefeat	-11.9789
▁underestimating	-11.9789
▁unforgiv	-11.9789
▁unpainted	-11.9789
▁unscramble	-11.9789
▁vaccine	-11.9789
▁velocities	-11.9789
▁verkoop	-11.9789
▁verschil	-11.9789
▁vertrekt	-11.9789
▁verzorg	-11.9789
▁viaduct	-11.9789
▁viceadmiral	-11.9789
▁vigilante	-11.9789
▁vildan	-11.9789
▁villette	-11.9789
▁volleyball	-11.9789
▁waffles	-11.9789
▁watchtower	-11.9789
▁welterusten	-11.9789
▁wendys	-11.9789
▁werewolves	-11.9789
▁whinnies	-11.9789
▁whiskey	-11.9789
▁wilkensen	-11.9789
▁wobbly	-11.9789
▁woohoo	-11.9789
▁wreath	-11.9789
▁wskid	-11.9789
▁zakarewski	-11.9789
▁zwakke	-11.9789
▁zwarte	-11.9789
hearted	-11.9789
migration	-11.9789
orpheus	-11.9789
▁affiliat	-11.9789
▁agricultur	-11.9789
▁breastfeed	-11.9789
▁chaotic	-11.9789
▁debrief	-11.9789
▁dertig	-11.9789
▁ecsta	-11.9789
▁glitch	-11.9789
▁gloom	-11.9789
▁incarcerat	-11.9789
▁intensifie	-11.9789
▁intoleran	-11.9789
▁spooky	-11.9789
▁wreak	-11.9789
▁anagram	-11.9789
▁angmar	-11.9789
▁appetit	-11.9789
▁ascertain	-11.9789
▁bailiff	-11.9789
▁bamboo	-11.9789
▁beloof	-11.9789
▁capitana	-11.9789
▁casino	-11.9789
▁cassette	-11.9789
▁certifi	-11.9789
▁coggan	-11.9789
▁combust	-11.9789
▁courier	-11.9789
▁darren	-11.9789
▁depict	-11.9789
▁deshawn	-11.9789
▁discard	-11.9789
▁dishonor	-11.9789
▁disintegrat	-11.9789
▁disobedien	-11.9789
▁dispute	-11.9789
▁doilies	-11.9789
▁dwaas	-11.9789
▁emptyhanded	-11.9789
▁fluffy	-11.9789
▁georgie	-11.9789
▁highpitch	-11.9789
▁hurley	-11.9789
▁lavender	-11.9789
▁midgard	-11.9789
▁oahu	-11.9789
▁outsmart	-11.9789
▁overreact	-11.9789
▁penrose	-11.9789
▁perceive	-11.9789
▁pixie	-11.9789
▁potassium	-11.9789
▁prophet	-11.9789
▁provost	-11.9789
▁pudgie	-11.9789
▁radioactive	-11.9789
▁residents	-11.9789
▁rosenberg	-11.9789
▁segno	-11.9789
▁serendip	-11.9789
▁shelby	-11.9789
▁slippery	-11.9789
▁tranquil	-11.9789
▁unhunh	-11.9789
▁vergeten	-11.9789
▁verloren	-11.9789
▁vijf	-11.9789
▁warchief	-11.9789
▁wrench	-11.9789
▁zealot	-11.9789
druk	-11.9789
prehensi	-11.9789
▁attribute	-11.9789
▁commodit	-11.9789
▁empathy	-11.9789
▁fancies	-11.9789
▁flavor	-11.9789
▁gebeur	-11.9789
▁gloat	-11.9789
▁havoc	-11.9789
▁ifhe	-11.9789
▁junction	-11.9789
▁ninja	-11.9789
▁ochre	-11.9789
▁overseas	-11.9789
▁rainbow	-11.9789
▁rebellion	-11.9789
▁redgick	-11.9789
▁sensual	-11.9789
▁snoke	-11.9789
▁sponge	-11.9789
▁stefan	-11.9789
▁titties	-11.9789
▁upstate	-11.9789
▁voyage	-11.9789
▁walnut	-11.9789
▁whiff	-11.9789
▁bandaid	-11.9789
▁bloodsuck	-11.9789
▁bloom	-11.9789
▁buurt	-11.9789
▁cactus	-11.9789
▁collide	-11.9789
▁dmv	-11.9789
▁egeus	-11.9789
▁glaze	-11.9789
▁housepets	-11.9789
▁hudson	-11.9789
▁invoke	-11.9789
▁isabel	-11.9789
▁medallion	-11.9789
▁paralyze	-11.9789
▁quince	-11.9789
▁scoffing	-11.9789
▁solemn	-11.9789
▁unpack	-11.9789
▁zorkin	-11.9789
▁acute	-11.9789
▁alibi	-11.9789
▁colour	-11.9789
▁cronan	-11.9789
▁fiesta	-11.9789
▁fishermen	-11.9789
▁imperative	-11.9789
▁lindir	-11.9789
▁offiic	-11.9789
▁padlock	-11.9789
▁zaad	-11.9789
maakt	-11.9789
▁burial	-11.9789
▁constance	-11.9789
▁deciding	-11.9789
▁impotent	-11.9789
▁misfit	-11.9789
▁shareholder	-11.9789
▁simeon	-11.9789
▁vicki	-11.9789
▁fetish	-11.9789
▁trouwd	-11.9789
▁conduit	-11.9789
▁creek	-11.9789
▁cyber	-11.9789
▁fenway	-11.9789
▁leuk	-11.9789
▁phew	-11.9789
▁popolo	-11.9789
▁scuse	-11.9789
▁ugli	-11.9789
▁vapori	-11.9789
mobilize	-11.9789
▁dealership	-11.9789
▁emission	-11.9789
▁kroon	-11.9789
▁replies	-11.9789
▁tidings	-11.9789
▁trading	-11.9789
▁collectibles	-11.9789
▁gallows	-11.9789
▁juicy	-11.9789
▁keef	-11.9789
▁kobe	-11.9789
▁gossip	-11.9789
▁pilgrim	-11.9789
▁gaspar	-11.9789
▁gospel	-11.9789
▁index	-11.9789
▁permit	-11.9789
▁sensible	-11.9789
▁surgeries	-11.9789
▁torches	-11.9789
▁trilling	-11.9789
▁yatter	-11.9789
▁sylv	-11.9789
ukki	-11.9789
▁cultural	-11.9789
▁shilling	-11.9789
▁himoff	-11.9789
▁kike	-11.9789
blossom	-11.9789
▁blazing	-11.9789
▁drumming	-11.9789
▁hunk	-11.9789
▁ihey	-11.9789
▁lava	-11.9789
▁roam	-11.9789
▁sixteen	-11.9789
▁angst	-11.9789
▁barracks	-11.9789
▁marilyn	-11.9789
▁mayhem	-11.9789
▁reaper	-11.9789
▁unseen	-11.9789
▁resort	-11.9789
complicate	-11.9789
▁pillars	-11.9789
▁recess	-11.9789
▁steak	-11.9789
▁cozy	-11.9789
▁meatballs	-11.9789
▁cutlass	-11.9789
▁houston	-11.9789
▁neutralize	-11.9789
▁primates	-11.9789
▁sorcere	-11.9789
▁whatwhat	-11.9789
▁oldtimer	-11.9789
▁pincer	-11.9789
▁krau	-11.9789
mdall	-11.9789
▁camilla	-11.9789
▁rerout	-11.9789
▁rennen	-11.9789
▁silicon	-11.9789
▁zamundanen	-11.9789
▁francesca	-11.979
▁indoors	-11.979
avond	-11.979
▁depriv	-11.979
▁thermo	-11.979
▁ipad	-11.979
▁brawl	-11.979
▁handicap	-11.979
▁maximiz	-11.979
▁herpes	-11.979
▁luncheon	-11.979
▁oneonone	-11.979
induce	-11.979
▁decode	-11.979
▁detain	-11.979
▁toshi	-11.979
▁kilo	-11.979
▁ahmm	-11.979
▁industrious	-11.979
▁lipstick	-11.979
▁nessie	-11.979
▁piggyback	-11.979
▁repuls	-11.979
▁opportunities	-11.979
▁overlapp	-11.979
haired	-11.979
▁churn	-11.979
▁cynicism	-11.979
▁myspace	-11.979
▁butchered	-11.979
▁lump	-11.979
▁bestowed	-11.979
▁cpr	-11.979
▁smits	-11.979
akku	-11.979
▁immense	-11.979
▁hovering	-11.979
▁wilhelm	-11.979
▁ufo	-11.979
▁dissect	-11.979
▁lvan	-11.979
▁absent	-11.979
▁revolv	-11.979
▁chomp	-11.979
▁cortex	-11.979
▁knots	-11.979
▁oven	-11.979
▁dispose	-11.979
▁settlements	-11.979
▁governess	-11.979
▁mingle	-11.979
▁headphones	-11.979
▁sentries	-11.979
▁wrinkl	-11.979
▁whatnot	-11.979
▁nini	-11.979
▁heilig	-11.979
▁sloppy	-11.979
▁underworld	-11.979
▁squadron	-11.979
▁niks	-11.979
▁chainsaw	-11.979
undant	-11.979
▁snapcount	-11.979
▁shelv	-11.979
▁exposure	-11.979
▁intercourse	-11.979
▁nutritio	-11.979
▁savannah	-11.979
▁underwater	-11.979
▁anatom	-11.979
▁consort	-11.979
▁rumlow	-11.979
▁weasel	-11.979
▁abdom	-11.9791
▁reproducti	-11.9791
▁mailbox	-11.9791
▁simpson	-11.9791
▁horrifying	-11.9791
▁troubling	-11.9791
▁triangula	-11.9791
▁voltage	-11.9791
▁crust	-11.9791
▁dominate	-11.9791
trivial	-11.9791
▁interference	-11.9791
▁sunscreen	-11.9791
▁decaf	-11.9791
▁cdc	-11.9791
▁foreplay	-11.9791
▁crackles	-11.9791
▁vocal	-11.9791
▁admiralty	-11.9791
▁fragil	-11.9791
▁outdoor	-11.9791
▁wield	-11.9791
▁regiment	-11.9791
▁synt	-11.9791
▁barkley	-11.9791
▁madonna	-11.9791
▁verenig	-11.9791
▁writhe	-11.9791
trouwe	-11.9791
▁lgor	-11.9791
▁whipped	-11.9791
▁airlines	-11.9791
▁irina	-11.9791
animate	-11.9791
▁peasant	-11.9791
▁loath	-11.9791
▁storing	-11.9791
▁convertible	-11.9792
▁spazz	-11.9792
polis	-11.9792
▁frantic	-11.9792
▁milner	-11.9792
▁authentication	-11.9792
▁procur	-11.9792
idential	-11.9792
▁paws	-11.9792
▁rosko	-11.9792
magine	-11.9792
▁carving	-11.9792
▁consciousness	-11.9792
▁cind	-11.9792
▁orphanage	-11.9792
▁outward	-11.9792
▁papacy	-11.9792
▁zitten	-11.9793
▁bruid	-11.9793
▁leftovers	-11.9793
▁degas	-11.9793
▁whipping	-11.9793
▁strippers	-11.9793
▁tradecraft	-11.9793
▁celesti	-11.9793
▁boredom	-11.9793
▁glide	-11.9793
▁marti	-11.9793
▁tread	-11.9793
▁omnis	-11.9793
▁parcha	-11.9793
▁fashionably	-11.9793
▁hollow	-11.9793
omsti	-11.9793
▁meiden	-11.9793
sulp	-11.9794
▁clinic	-11.9794
▁patsy	-11.9794
▁capability	-11.9794
▁merger	-11.9794
▁depose	-11.9794
dominant	-11.9794
▁homesick	-11.9794
▁dizz	-11.9794
▁blanc	-11.9794
▁steer	-11.9794
▁methodist	-11.9794
▁bragg	-11.9794
▁pedal	-11.9794
▁descendant	-11.9794
▁wewe	-11.9794
▁tyberg	-11.9794
▁heap	-11.9795
▁yank	-11.9795
▁ammoni	-11.9795
▁arab	-11.9795
▁fiftyone	-11.9795
▁argh	-11.9795
▁lemon	-11.9796
behaving	-11.9796
▁xandarian	-11.9796
▁maroon	-11.9796
▁disney	-11.9796
twerp	-11.9796
talian	-11.9796
▁smuggl	-11.9796
lphin	-11.9796
▁vauit	-11.9796
▁perpet	-11.9796
▁grond	-11.9797
▁rinse	-11.9797
▁aroma	-11.9797
▁rotting	-11.9797
▁flop	-11.9797
▁effi	-11.9798
▁verified	-11.9798
▁condole	-11.9798
▁moria	-11.9798
aggering	-11.9799
▁knul	-11.9799
libr	-11.9799
▁excel	-11.9799
▁bibli	-11.9799
▁staat	-11.98
▁trav	-11.98
▁atla	-11.98
▁catalys	-11.9801
▁flem	-11.9801
▁verify	-11.9802
concil	-11.9802
▁sauri	-11.9802
▁poging	-11.9802
▁fuse	-11.9803
▁dringend	-11.9803
▁trina	-11.9803
tilton	-11.9804
▁grasp	-11.9804
▁crud	-11.9804
enchant	-11.9806
mpson	-11.9807
mitte	-11.9809
flamma	-11.9811
strial	-11.9815
▁camar	-11.9815
mooch	-11.9815
▁generati	-11.9815
▁vond	-11.9816
pporo	-11.9817
hwart	-11.982
ikto	-11.9821
exap	-11.9829
tomy	-11.9831
▁restrain	-11.9833
kerel	-11.9841
uvre	-11.9847
▁precede	-11.9847
▁trage	-11.9847
▁heerse	-11.9853
▁leverage	-11.9856
▁vamo	-11.9858
acent	-11.9872
anticipated	-11.9874
▁irrev	-11.9878
▁avia	-11.9884
▁arteri	-11.9884
▁revere	-11.9891
imaginative	-11.9901
arissa	-11.9904
acerated	-11.9907
mpet	-11.9912
erhaal	-11.9912
▁trampl	-11.9941
hnai	-12.0003
abbing	-12.0043
bouche	-12.0098
▁pillag	-12.0111
shaw	-12.0119
▁schaa	-12.012
munition	-12.0142
▁metaphorical	-12.0156
▁stoke	-12.0225
ridge	-12.0234
▁banne	-12.0237
entice	-12.0276
journalist	-12.0294
▁tingl	-12.0299
▁bumbl	-12.0346
enige	-12.0394
▁replicate	-12.0474
blime	-12.0504
receding	-12.0531
avari	-12.0543
dynamic	-12.0553
domesticated	-12.0582
▁rhythm	-12.0696
narian	-12.0834
▁salvag	-12.0865
▁furthe	-12.088
▁authoriz	-12.1011
▁organiz	-12.105
established	-12.1246
ushing	-12.1291
ointment	-12.153
▁glori	-12.1553
llaba	-12.1643
elvish	-12.1731
operative	-12.2122
punisher	-12.2232
▁translat	-12.2235
▁magnif	-12.2405
▁intimat	-12.2425
▁hoppin	-12.2446
▁tortur	-12.2448
▁accelerat	-12.253
thorn	-12.2561
challenged	-12.2705
ficial	-12.3099
▁rappin	-12.3161
▁communicat	-12.3262
▁averag	-12.3268
▁sequenc	-12.3354
▁terminat	-12.3379
rhythmi	-12.3462
structure	-12.3502
▁dynam	-12.3654
sportsman	-12.3687
mmm	-12.3701
marked	-12.3755
when	-12.3868
interpreted	-12.4044
uggies	-12.4084
tribute	-12.4222
▁transmit	-12.4244
cocked	-12.431
civiliz	-12.4349
explained	-12.4352
mighty	-12.4384
▁emotion	-12.4432
chita	-12.4465
attended	-12.4467
▁resource	-12.45
lattery	-12.4535
formed	-12.4543
▁determin	-12.4546
▁volg	-12.4548
spirited	-12.4552
▁discre	-12.4557
▁senat	-12.4623
▁univers	-12.4663
▁astronom	-12.4668
riving	-12.4674
▁experienc	-12.4678
▁activat	-12.4679
▁shrin	-12.4692
▁embrac	-12.4706
▁encourag	-12.472
▁suppos	-12.4722
▁snarl	-12.4729
▁accord	-12.4732
rijd	-12.4743
activate	-12.4745
▁amaze	-12.4752
▁analys	-12.4754
▁excite	-12.4754
capable	-12.4754
▁compromise	-12.4755
related	-12.4756
screen	-12.4756
worth	-12.4756
grim	-12.4757
drowning	-12.4757
restricted	-12.4757
temper	-12.4757
girlfriend	-12.4757
respect	-12.4757
qualified	-12.4757
wife	-12.4757
contained	-12.4757
mcc	-12.4757
settled	-12.4757
little	-12.4757
pound	-12.4758
temporary	-12.4758
memorial	-12.4758
century	-12.4758
responsible	-12.4758
michelle	-12.4758
wound	-12.4758
arizona	-12.4758
facing	-12.4758
hydra	-12.4758
familiar	-12.4758
patient	-12.4758
bodies	-12.4758
camera	-12.4758
wheel	-12.4758
student	-12.4758
grown	-12.4759
distance	-12.4759
weapon	-12.4759
throat	-12.4759
gemma	-12.4759
filled	-12.4759
control	-12.4759
captain	-12.4759
chuckles	-12.4759
