<unk>	0
<s>	0
</s>	0
s	-4.1153
▁im	-4.38784
▁dont	-4.52885
▁know	-4.53807
▁get	-4.73532
▁go	-4.78056
▁like	-4.80575
▁right	-4.85482
▁oh	-4.88566
▁come	-4.95136
▁youre	-4.96127
▁yeah	-4.96701
▁well	-4.99863
▁got	-5.02596
▁one	-5.15102
▁want	-5.21235
▁good	-5.21895
▁thats	-5.22364
▁na	-5.27477
▁okay	-5.27717
▁see	-5.31684
▁think	-5.33436
ing	-5.48236
▁yes	-5.52115
▁going	-5.53772
▁look	-5.55068
▁gon	-5.56181
▁us	-5.56663
▁back	-5.56742
▁hey	-5.57462
▁man	-5.60744
▁time	-5.60885
▁cant	-5.68725
▁ill	-5.69663
▁take	-5.71323
▁would	-5.76648
▁hes	-5.77407
▁really	-5.77421
▁say	-5.80432
▁tell	-5.82498
▁never	-5.85163
▁could	-5.89496
▁lets	-5.9016
▁love	-5.91108
▁need	-5.91128
ed	-5.93172
▁something	-5.93876
▁way	-5.94853
▁little	-5.96378
▁make	-5.97676
▁didnt	-5.97847
▁thank	-5.98226
▁let	-5.98512
▁sorry	-6.03274
▁whats	-6.03282
▁people	-6.04622
▁give	-6.05483
▁please	-6.08592
▁mean	-6.10402
▁god	-6.12959
▁theres	-6.13404
▁ive	-6.17531
y	-6.18581
▁l	-6.20912
▁sure	-6.21985
▁	-6.2727
▁shes	-6.28255
▁thing	-6.28367
▁said	-6.28805
▁much	-6.30255
▁two	-6.32774
d	-6.33066
▁day	-6.34751
▁life	-6.4039
▁help	-6.41555
▁still	-6.42189
▁even	-6.42219
▁first	-6.43512
▁nothing	-6.43683
▁theyre	-6.44016
▁uh	-6.44347
▁mr	-6.45916
▁new	-6.47658
▁wait	-6.48843
▁stop	-6.4916
▁sir	-6.49477
▁great	-6.49563
▁big	-6.49706
▁home	-6.50841
▁ever	-6.50941
▁talk	-6.52086
▁hell	-6.52811
▁call	-6.53119
▁thought	-6.53985
▁ok	-6.56697
▁hi	-6.57271
▁anything	-6.57837
▁maybe	-6.58032
▁away	-6.58034
ly	-6.58313
▁guys	-6.5886
▁things	-6.5932
▁better	-6.59584
▁keep	-6.59863
▁put	-6.59972
▁always	-6.60965
▁find	-6.63005
▁work	-6.63113
▁long	-6.64108
▁told	-6.64197
▁feel	-6.66069
▁must	-6.67315
▁old	-6.68084
▁night	-6.6841
▁id	-6.71004
▁everything	-6.71269
▁years	-6.72086
▁name	-6.7225
▁every	-6.72545
▁last	-6.72991
▁nice	-6.73904
▁wan	-6.74263
▁lot	-6.74698
▁leave	-6.74981
▁baby	-6.75474
▁around	-6.75475
▁believe	-6.76914
▁fine	-6.77775
▁move	-6.80012
▁stay	-6.80719
▁girl	-6.80822
▁remember	-6.81118
▁youll	-6.81632
▁kind	-6.81656
▁listen	-6.82181
▁youve	-6.8286
▁wont	-6.83603
▁ta	-6.84822
▁hear	-6.8513
▁show	-6.85416
e	-6.85556
▁made	-6.86145
▁wanted	-6.86459
▁world	-6.8776
▁thanks	-6.88013
▁coming	-6.88737
▁left	-6.8897
▁ready	-6.89339
▁today	-6.89768
▁huh	-6.90298
▁doesnt	-6.90832
▁real	-6.91337
▁boy	-6.92044
▁place	-6.92695
▁dad	-6.94496
▁hello	-6.95003
▁course	-6.9549
er	-6.96461
▁car	-6.96783
▁enough	-6.96903
▁money	-6.9776
▁mom	-6.9799
▁guy	-6.98546
▁house	-6.99508
▁next	-6.99789
▁three	-7.00084
▁woman	-7.01565
▁might	-7.0246
▁talking	-7.02531
▁else	-7.0373
▁try	-7.04857
▁men	-7.04918
▁wrong	-7.05204
▁best	-7.05213
▁miss	-7.05298
▁bad	-7.05362
▁mind	-7.05898
▁kill	-7.06445
▁trying	-7.0655
▁play	-7.06969
▁getting	-7.07502
▁shit	-7.07671
▁mother	-7.08123
▁isnt	-7.09952
▁done	-7.1028
▁ask	-7.10794
▁job	-7.11778
▁understand	-7.11802
▁came	-7.11887
▁father	-7.12418
▁another	-7.12579
▁someone	-7.13087
▁pretty	-7.13921
▁together	-7.14259
▁son	-7.14441
▁guess	-7.14936
▁live	-7.15979
▁family	-7.17351
▁excuse	-7.17699
▁happened	-7.17855
▁may	-7.18147
▁hold	-7.18674
▁dead	-7.19327
▁morning	-7.20183
▁whole	-7.20543
▁many	-7.20803
▁music	-7.21555
▁kids	-7.21605
▁care	-7.22557
▁beautiful	-7.23096
▁actually	-7.23473
▁meet	-7.23801
▁damn	-7.23947
▁door	-7.2423
▁friend	-7.24413
▁looking	-7.24923
▁everybody	-7.26099
▁aint	-7.26481
▁saw	-7.26482
▁idea	-7.26968
▁school	-7.27686
▁went	-7.28412
▁em	-7.28519
▁heard	-7.28758
▁tonight	-7.28802
▁head	-7.29012
▁run	-7.29297
▁turn	-7.29324
▁without	-7.29587
▁tomorrow	-7.30778
▁um	-7.30831
▁room	-7.30894
▁wasnt	-7.31579
▁happy	-7.3158
▁seen	-7.32752
▁weve	-7.32795
▁sit	-7.33013
▁ah	-7.34116
▁playing	-7.34144
a	-7.34569
▁cause	-7.3467
▁took	-7.34852
▁die	-7.35211
r	-7.36267
▁hard	-7.36689
▁knew	-7.37379
▁start	-7.37878
▁found	-7.38206
▁hand	-7.39154
▁wouldnt	-7.39569
▁war	-7.40039
▁true	-7.40409
▁used	-7.40453
▁eat	-7.40718
▁end	-7.40739
▁already	-7.40849
▁face	-7.41116
▁late	-7.41534
▁yet	-7.41739
▁drink	-7.42513
▁dr	-7.43744
es	-7.43973
▁alone	-7.44448
▁says	-7.44878
▁hope	-7.45043
▁use	-7.45236
▁called	-7.46486
▁matter	-7.47155
▁since	-7.47215
▁forget	-7.47232
▁fight	-7.48043
▁bring	-7.48202
▁friends	-7.48212
▁sighs	-7.48298
▁hit	-7.48323
▁stuff	-7.48859
▁youd	-7.49149
▁watch	-7.49283
▁doctor	-7.49541
▁open	-7.49829
▁young	-7.5
▁fire	-7.50316
▁laughing	-7.50681
▁whos	-7.51088
in	-7.51249
▁havent	-7.5205
▁five	-7.523
▁thinking	-7.52692
▁town	-7.52878
▁dance	-7.53098
▁women	-7.53544
▁everyone	-7.5358
▁bit	-7.5388
▁somebody	-7.54046
▁days	-7.54511
▁crazy	-7.5455
▁lost	-7.55069
▁year	-7.5557
▁wife	-7.55571
▁part	-7.55866
▁second	-7.56098
▁worry	-7.56596
▁saying	-7.56889
▁easy	-7.57115
▁minute	-7.5715
▁couldnt	-7.57152
▁kid	-7.57673
▁girls	-7.57783
▁four	-7.58155
▁honey	-7.5816
▁ago	-7.58169
▁wants	-7.58203
▁brother	-7.5821
▁mama	-7.58314
▁dog	-7.58539
▁laughs	-7.58575
▁fun	-7.58578
▁christmas	-7.58614
▁business	-7.58686
▁chuckles	-7.58829
▁read	-7.59238
al	-7.59745
▁anyone	-7.59746
▁boys	-7.60081
▁story	-7.60285
▁rest	-7.60416
▁different	-7.60673
▁cool	-7.60785
▁walk	-7.61675
▁supposed	-7.62506
▁gone	-7.62817
▁looks	-7.63336
▁phone	-7.63735
▁soon	-7.64035
▁whoa	-7.64114
▁country	-7.64663
▁stupid	-7.64665
▁children	-7.64837
▁problem	-7.65399
▁minutes	-7.66327
▁set	-7.66333
▁check	-7.66452
▁hurt	-7.66702
▁ass	-7.6686
▁dee	-7.66965
n	-7.67063
▁moment	-7.67143
▁eyes	-7.67607
▁whatever	-7.68084
o	-7.68206
▁heart	-7.68476
▁happen	-7.68746
▁change	-7.68764
▁vou	-7.69131
▁probably	-7.69254
▁word	-7.69485
t	-7.69762
▁break	-7.70306
▁bye	-7.70435
▁wheres	-7.70592
▁pay	-7.70595
▁hands	-7.70735
▁mine	-7.70861
▁inside	-7.71635
▁king	-7.72094
▁high	-7.72515
▁free	-7.72769
▁also	-7.72834
▁hate	-7.73299
▁stand	-7.73347
▁important	-7.73903
▁welcome	-7.74056
▁taking	-7.74074
▁point	-7.74093
▁later	-7.74772
▁shut	-7.74976
▁killed	-7.75189
▁makes	-7.75448
▁met	-7.75527
▁working	-7.75919
▁lord	-7.76294
▁death	-7.77183
▁blood	-7.77816
▁full	-7.78053
▁un	-7.7952
▁max	-7.79737
▁anymore	-7.79754
▁pick	-7.80468
▁close	-7.80782
▁game	-7.80857
▁line	-7.8093
▁exactly	-7.81075
▁la	-7.81305
▁party	-7.81328
▁light	-7.8152
▁mrs	-7.81641
▁afraid	-7.81727
▁married	-7.81728
▁waiting	-7.81937
▁cut	-7.81971
▁wish	-7.82042
ll	-7.82151
▁sister	-7.82201
▁sleep	-7.82273
▁goes	-7.82986
▁elvis	-7.83065
▁side	-7.83609
▁daughter	-7.83741
▁deal	-7.84232
▁dear	-7.84391
▁jesus	-7.84468
▁th	-7.84591
▁anyway	-7.8496
▁far	-7.85195
▁nobody	-7.85649
▁number	-7.85655
▁book	-7.85807
▁movie	-7.86354
▁song	-7.86358
▁shot	-7.86365
▁shall	-7.8649
▁least	-7.86495
▁lm	-7.8662
▁city	-7.87206
▁wow	-7.87896
▁rock	-7.88451
▁week	-7.8849
▁chance	-7.885
▁sometimes	-7.88808
▁black	-7.89214
▁sick	-7.89312
▁power	-7.89845
▁ooh	-7.90039
▁person	-7.90634
▁gun	-7.90772
▁beat	-7.91071
▁started	-7.91208
▁making	-7.91492
▁president	-7.92226
▁luck	-7.92777
▁trouble	-7.92964
▁majesty	-7.92967
▁arent	-7.92968
▁hot	-7.93048
▁ladies	-7.93715
▁water	-7.94459
▁half	-7.94462
▁anybody	-7.94465
▁asked	-7.95068
▁sweet	-7.95204
▁though	-7.95216
▁gave	-7.95226
▁front	-7.95227
▁hang	-7.95517
▁comes	-7.95959
ve	-7.96518
▁months	-7.96675
▁six	-7.96738
▁reason	-7.97078
▁general	-7.97382
▁special	-7.97437
▁trust	-7.97594
▁send	-7.97903
v	-7.98235
▁times	-7.98515
▁shouldnt	-7.99099
▁ahead	-7.99101
▁sound	-7.99151
▁news	-7.99619
▁ya	-7.99919
▁hair	-8.00486
▁hurry	-8.01499
▁daddy	-8.01598
▁outside	-8.01963
▁body	-8.02318
▁scared	-8.02369
▁husband	-8.02412
est	-8.02961
▁air	-8.03057
▁gentlemen	-8.03133
▁office	-8.03163
▁ring	-8.03826
▁control	-8.03938
▁almost	-8.03958
l	-8.04006
▁walls	-8.04068
▁bed	-8.04138
▁red	-8.04522
▁hmm	-8.048
▁quite	-8.04847
▁itll	-8.05633
▁funny	-8.05637
▁write	-8.05694
▁dream	-8.05701
▁clear	-8.05784
▁fall	-8.06184
▁serious	-8.07197
▁brought	-8.07334
▁truth	-8.07334
▁white	-8.07876
▁hours	-8.07914
▁s	-8.0798
▁lose	-8.08182
▁couple	-8.08197
▁step	-8.08211
▁heres	-8.08237
▁cold	-8.09068
▁alive	-8.09078
▁promise	-8.09088
▁parents	-8.09117
▁win	-8.09452
▁shoot	-8.09575
▁sort	-8.09945
▁goodbye	-8.09951
▁touch	-8.1015
▁lady	-8.10189
▁telling	-8.10363
▁answer	-8.10793
▁case	-8.1081
▁behind	-8.10828
▁star	-8.10915
▁sing	-8.1114
▁sounds	-8.11664
▁grunting	-8.1173
▁living	-8.1217
▁top	-8.12417
▁order	-8.12479
▁bitch	-8.12586
▁dinner	-8.12622
▁glad	-8.12624
▁feeling	-8.12829
▁lives	-8.13008
▁died	-8.13036
▁question	-8.13385
▁felt	-8.13531
▁learn	-8.13764
▁team	-8.13831
▁hour	-8.13843
▁american	-8.13866
▁ha	-8.13997
▁safe	-8.15156
▁gets	-8.15237
▁alex	-8.15299
▁maam	-8.15375
▁tried	-8.15386
▁hows	-8.15397
▁screaming	-8.15477
▁marry	-8.15887
▁charles	-8.163
▁boat	-8.16673
▁frank	-8.1712
▁drive	-8.17359
▁church	-8.17954
▁straight	-8.18176
▁buy	-8.18404
▁become	-8.18598
▁theyll	-8.19167
▁running	-8.19173
▁hank	-8.19182
▁able	-8.19336
▁fear	-8.1955
▁speak	-8.20015
▁ten	-8.20113
▁either	-8.20137
▁captain	-8.20536
▁kidding	-8.2112
▁follow	-8.2138
▁means	-8.21566
▁proud	-8.22108
▁child	-8.22119
▁ride	-8.22129
or	-8.22346
▁pull	-8.22434
▁pain	-8.22893
▁peace	-8.23092
▁food	-8.23113
▁blue	-8.23671
▁police	-8.24093
▁dark	-8.24109
▁needs	-8.24114
▁york	-8.24118
▁leaving	-8.24118
▁judy	-8.24121
▁c	-8.24164
i	-8.24272
▁an	-8.24642
▁fast	-8.24841
▁jack	-8.24915
▁strong	-8.25047
▁hospital	-8.25138
▁seven	-8.25146
▁past	-8.25165
▁gasps	-8.2539
▁horse	-8.25812
▁plan	-8.26166
▁somewhere	-8.2617
▁lucky	-8.26453
▁speaking	-8.26603
▁mouth	-8.2671
▁ruth	-8.26983
▁knows	-8.27509
▁buddy	-8.28265
▁brian	-8.28268
▁crying	-8.2852
▁seems	-8.28706
▁voice	-8.28838
▁drop	-8.28864
st	-8.291
▁peter	-8.29106
▁loved	-8.29111
▁secret	-8.29313
▁uncle	-8.2932
ion	-8.29811
ers	-8.29867
▁p	-8.30171
p	-8.30197
▁dick	-8.304
▁wonderful	-8.30442
▁weeks	-8.30567
▁re	-8.30724
▁clean	-8.3099
▁perfect	-8.31369
▁train	-8.31447
▁security	-8.31491
▁eight	-8.31502
▁human	-8.31744
▁record	-8.32565
on	-8.32741
▁fact	-8.33167
▁south	-8.33695
▁finally	-8.33754
▁seem	-8.33807
▁roll	-8.34167
▁surprise	-8.3421
▁short	-8.34229
▁wear	-8.34373
▁along	-8.34822
▁amazing	-8.34823
▁colonel	-8.34824
▁master	-8.34844
▁sent	-8.34856
▁singing	-8.35344
m	-8.35555
▁ho	-8.35619
▁bet	-8.35686
▁a	-8.36174
▁lie	-8.36325
▁pass	-8.36402
▁soul	-8.3671
▁language	-8.37109
▁stage	-8.37145
▁burn	-8.37249
▁taken	-8.37803
▁picture	-8.379
▁sense	-8.38126
▁small	-8.38174
▁radio	-8.38275
▁tv	-8.38297
en	-8.38302
▁sign	-8.38324
▁kate	-8.38509
▁count	-8.38523
▁changed	-8.38652
▁quick	-8.39207
▁rules	-8.3935
▁calm	-8.39453
▁cheering	-8.39524
▁test	-8.39593
c	-8.39846
▁goddamn	-8.40647
▁grunts	-8.40686
▁wed	-8.40701
▁m	-8.40704
▁save	-8.4083
▁worked	-8.40976
▁words	-8.41359
▁land	-8.41375
▁happens	-8.41378
▁ball	-8.41603
▁indistinct	-8.41705
▁born	-8.41845
▁fault	-8.41847
▁sad	-8.41887
▁groans	-8.41929
▁less	-8.41977
able	-8.42096
us	-8.42771
▁middle	-8.43053
▁martha	-8.43063
▁state	-8.43066
▁panting	-8.43071
▁million	-8.43992
▁agent	-8.44
ic	-8.44245
▁wake	-8.44296
▁moving	-8.44298
▁till	-8.44309
▁fly	-8.44612
▁age	-8.44622
▁meeting	-8.45343
▁smart	-8.45418
▁strange	-8.45471
▁lunch	-8.45536
▁drunk	-8.45556
▁lucy	-8.45587
▁art	-8.45796
▁cover	-8.45811
▁ones	-8.46257
▁continues	-8.46361
▁officer	-8.46627
h	-8.46752
▁rather	-8.46814
▁none	-8.46845
▁greatest	-8.47049
▁calling	-8.47086
▁asking	-8.47127
▁throw	-8.47337
man	-8.47493
ies	-8.47539
▁happening	-8.47707
▁entire	-8.47954
▁known	-8.48018
▁relax	-8.48095
▁kiss	-8.48448
▁pray	-8.48849
▁cute	-8.48921
▁figure	-8.48935
▁catch	-8.49023
▁missed	-8.49193
▁eye	-8.49197
▁pop	-8.49318
▁feet	-8.494
▁b	-8.49432
▁fish	-8.49484
▁act	-8.49681
▁street	-8.50487
▁weird	-8.50659
▁soo	-8.50698
▁poor	-8.50717
▁joe	-8.50802
▁meant	-8.51233
▁wonder	-8.51294
▁sell	-8.51326
▁attack	-8.51518
g	-8.51769
▁others	-8.52043
▁anywhere	-8.52043
▁sweetheart	-8.52044
▁aah	-8.52055
▁in	-8.52069
▁princess	-8.5219
▁longer	-8.52654
▁enjoy	-8.52664
▁dress	-8.52807
▁wall	-8.52954
▁heaven	-8.53208
▁quiet	-8.53253
▁perhaps	-8.53394
▁possible	-8.53394
▁terrible	-8.53395
▁swear	-8.53395
▁darling	-8.53398
▁company	-8.53399
▁clothes	-8.534
▁shh	-8.53405
▁emma	-8.53416
▁lena	-8.53425
▁prom	-8.53475
▁merr	-8.53656
▁liked	-8.53974
▁f	-8.54147
▁club	-8.54567
▁attention	-8.54764
▁future	-8.54764
▁crowd	-8.54774
▁al	-8.54843
ie	-8.55531
▁rain	-8.55909
▁choice	-8.55988
▁minister	-8.55992
▁glass	-8.5609
▁america	-8.561
▁yall	-8.56148
▁forgot	-8.56152
▁french	-8.56153
▁forever	-8.56154
▁arm	-8.56191
▁simple	-8.56247
f	-8.56648
▁visit	-8.5682
▁teach	-8.56957
▁bill	-8.57189
▁worth	-8.5734
▁watching	-8.57352
▁slow	-8.57421
▁piece	-8.5744
▁caitlyn	-8.57562
▁presley	-8.57562
▁government	-8.57562
▁road	-8.57565
▁dangerous	-8.57566
▁wedding	-8.57573
▁shouting	-8.57688
▁wind	-8.57845
▁d	-8.57979
▁stick	-8.5844
▁prison	-8.58702
▁ow	-8.58732
▁matt	-8.58743
▁mad	-8.5898
▁danny	-8.58991
▁mmhmm	-8.58995
▁class	-8.5928
b	-8.59789
le	-8.59907
▁kat	-8.60015
▁leg	-8.60067
▁giving	-8.6044
▁evening	-8.61143
▁green	-8.61498
▁fair	-8.61705
▁takes	-8.61751
▁careful	-8.61834
▁date	-8.61887
▁uhhuh	-8.61912
▁alright	-8.61912
▁unless	-8.61934
▁crap	-8.62043
▁push	-8.62711
▁present	-8.6302
▁g	-8.63208
▁yo	-8.63254
▁emperor	-8.63334
▁chuckling	-8.63404
▁army	-8.63622
▁de	-8.63737
▁join	-8.64108
▁chris	-8.64596
▁smile	-8.6466
▁film	-8.64877
▁farnaz	-8.64918
▁worse	-8.64918
▁hundred	-8.64923
▁hungry	-8.64925
▁alan	-8.64939
▁broken	-8.64966
▁totally	-8.64969
▁completely	-8.6498
▁building	-8.65169
▁k	-8.65361
▁plane	-8.6583
▁lead	-8.65842
▁breathe	-8.65948
▁looked	-8.66073
▁jeannette	-8.66381
▁camera	-8.66444
▁doc	-8.66445
▁mmm	-8.66452
▁werent	-8.66456
▁isaac	-8.66456
▁near	-8.6646
▁laughter	-8.66464
▁smell	-8.66464
▁dude	-8.66475
▁stone	-8.66529
▁guns	-8.66619
▁lovely	-8.67048
▁bell	-8.67288
▁expect	-8.67313
▁questions	-8.67515
▁band	-8.67545
▁spend	-8.67602
▁chatter	-8.67607
▁finish	-8.67755
▁trip	-8.6796
▁audience	-8.68019
▁rex	-8.68029
▁paid	-8.68043
▁native	-8.68047
ary	-8.68234
▁wine	-8.68425
▁kick	-8.68837
▁mess	-8.68889
▁card	-8.69114
▁feels	-8.69202
▁fat	-8.69243
▁st	-8.69294
▁seconds	-8.6955
▁broke	-8.69597
▁david	-8.69606
▁earth	-8.69612
▁idiot	-8.69618
▁tired	-8.69625
▁ray	-8.69678
▁parker	-8.69682
▁bomb	-8.69734
▁folks	-8.69744
▁sun	-8.6978
▁respect	-8.6985
▁sea	-8.70652
▁t	-8.70881
▁brand	-8.71067
▁quit	-8.71093
▁shell	-8.71165
▁except	-8.71193
▁yesterday	-8.71219
▁outta	-8.71225
▁larry	-8.71227
▁absolutely	-8.71242
▁hide	-8.71283
▁christ	-8.71331
▁early	-8.71431
▁whoo	-8.71872
▁fell	-8.72464
k	-8.72484
▁carry	-8.72495
▁fool	-8.72587
▁guard	-8.72639
▁deep	-8.72691
▁afshin	-8.72858
▁nelson	-8.72858
▁island	-8.72859
▁caught	-8.72861
▁chief	-8.72871
▁busy	-8.73034
▁figured	-8.73092
▁miles	-8.73342
an	-8.73458
u	-8.73502
▁reach	-8.7426
▁imagine	-8.74331
▁yussef	-8.74525
▁rule	-8.74555
▁handle	-8.74566
▁john	-8.74589
▁field	-8.74613
▁spot	-8.74623
ity	-8.7491
ful	-8.75028
▁cry	-8.75809
▁blow	-8.75844
▁explain	-8.75926
▁ground	-8.76022
▁force	-8.76196
▁favor	-8.76216
▁coffee	-8.7622
▁dancing	-8.7622
▁toby	-8.7622
▁favorite	-8.76224
▁kept	-8.76226
▁prime	-8.76228
▁decided	-8.76284
▁sally	-8.7633
▁month	-8.76404
▁bag	-8.76477
▁rose	-8.76542
▁shoes	-8.76582
▁whose	-8.76595
▁hero	-8.76788
▁given	-8.76956
▁lts	-8.77
▁turned	-8.7736
▁standing	-8.77378
▁n	-8.77878
▁german	-8.77938
▁bunny	-8.77944
▁especially	-8.77948
▁duke	-8.77989
▁brave	-8.7803
▁race	-8.78056
▁store	-8.78106
▁works	-8.78239
▁breathing	-8.78282
▁bo	-8.78463
▁lou	-8.78816
w	-8.78993
▁gold	-8.79232
▁fighting	-8.79451
▁agree	-8.79495
▁suppose	-8.79523
▁starting	-8.79633
▁personal	-8.79672
▁tom	-8.79675
▁seat	-8.79678
▁tough	-8.79698
▁theyve	-8.797
▁piranha	-8.797
▁sake	-8.79839
re	-8.80297
▁snow	-8.81154
▁forgive	-8.81415
▁henry	-8.81485
▁professor	-8.81486
▁crumb	-8.81496
▁mm	-8.81501
▁tape	-8.8155
▁beer	-8.81558
▁hed	-8.81717
▁group	-8.81726
▁seriously	-8.81773
▁bank	-8.82072
▁list	-8.82085
▁seeing	-8.82186
▁screams	-8.82238
▁history	-8.82243
▁needed	-8.8262
▁grow	-8.82815
▁nervous	-8.83154
▁certain	-8.83154
▁bar	-8.83156
▁lay	-8.83203
▁english	-8.83275
▁college	-8.83302
▁pleasure	-8.83302
▁instead	-8.83302
▁jimmy	-8.83303
▁idgie	-8.83318
▁creaking	-8.83323
▁legs	-8.83409
▁states	-8.83479
▁lived	-8.84258
▁hat	-8.84567
▁travel	-8.84691
el	-8.84712
▁offer	-8.84724
▁truck	-8.84767
▁spent	-8.85155
▁bunch	-8.85155
▁private	-8.85157
▁yellow	-8.85157
▁stopped	-8.85173
▁low	-8.8527
▁boss	-8.85318
▁evil	-8.85462
▁bastard	-8.85474
▁richard	-8.85492
▁table	-8.85493
▁awful	-8.85592
▁choose	-8.85814
▁lock	-8.86282
▁fix	-8.86433
▁walking	-8.86569
▁reading	-8.86605
▁played	-8.86716
▁bus	-8.86824
▁engine	-8.87036
▁wrote	-8.87041
▁throat	-8.87041
▁bullshit	-8.87044
▁foot	-8.87051
▁return	-8.87079
▁hotel	-8.87091
▁cop	-8.87222
▁mission	-8.87259
ness	-8.87432
▁ship	-8.87455
▁pictures	-8.87649
▁ben	-8.88165
▁laugh	-8.88665
▁honor	-8.88672
▁normal	-8.88825
▁target	-8.88863
▁grab	-8.88942
▁grace	-8.88945
▁stuck	-8.88951
▁sarafina	-8.88964
▁upstairs	-8.88964
▁strength	-8.88966
▁thev	-8.8897
▁summer	-8.89271
▁owe	-8.89273
▁court	-8.89309
▁law	-8.89335
▁station	-8.89373
▁soldier	-8.89373
z	-8.89507
▁lights	-8.89561
▁games	-8.89593
▁painting	-8.89662
▁loves	-8.90199
▁tea	-8.90382
it	-8.90598
▁contact	-8.90615
ation	-8.90852
▁warm	-8.90919
▁north	-8.90924
▁lonely	-8.90925
▁information	-8.90927
th	-8.9093
▁forward	-8.90948
▁amen	-8.90951
▁interesting	-8.91211
▁mistake	-8.91308
▁tour	-8.91404
▁o	-8.91437
▁taste	-8.9215
▁support	-8.92181
▁cure	-8.92758
▁punch	-8.92838
▁impossible	-8.92925
▁worried	-8.92925
▁driving	-8.92925
▁birthday	-8.92926
▁dying	-8.92927
▁laura	-8.92927
▁rafe	-8.92937
▁definitely	-8.92946
▁groaning	-8.92963
▁sitting	-8.92981
▁sex	-8.93048
▁arms	-8.93141
▁asshole	-8.93334
▁accident	-8.93349
▁spirit	-8.93376
▁talked	-8.93805
▁ms	-8.93905
▁fit	-8.94082
▁cross	-8.94271
▁box	-8.94472
▁realize	-8.94826
▁afternoon	-8.94966
▁congratulations	-8.94966
▁pregnant	-8.94966
▁sergei	-8.94967
▁double	-8.94968
▁sold	-8.94987
ia	-8.9501
▁e	-8.95011
▁highness	-8.95014
▁round	-8.95395
▁system	-8.95469
▁tree	-8.95473
is	-8.9559
▁killing	-8.95595
▁training	-8.95743
▁out	-8.95819
▁students	-8.95826
▁post	-8.96205
▁knock	-8.96339
▁thinks	-8.96362
▁orders	-8.96409
▁plays	-8.96604
▁public	-8.96788
ist	-8.9689
▁claire	-8.97049
▁everywhere	-8.9706
▁gift	-8.97287
▁breath	-8.97332
▁product	-8.9758
▁service	-8.9759
▁cup	-8.97623
▁code	-8.97752
▁wearing	-8.97822
▁dare	-8.97861
▁moved	-8.98626
▁build	-8.98764
▁floor	-8.98868
▁earl	-8.99133
▁jim	-8.99139
▁charlie	-8.99177
▁memory	-8.99177
▁luke	-8.99178
▁teeth	-8.99178
▁practice	-8.99179
▁excited	-8.99179
▁rachel	-8.9918
▁jail	-8.99183
▁third	-8.99183
▁barry	-8.99189
▁director	-8.99196
▁w	-8.99206
▁putting	-8.99294
▁brad	-8.99345
▁interested	-8.99378
▁billy	-8.99497
▁promised	-8.9962
▁difference	-8.99691
▁cell	-8.99707
▁flight	-8.99749
up	-8.9975
▁patient	-8.99788
▁area	-8.99924
▁records	-9.00016
ive	-9.00029
▁fuck	-9.00595
▁protect	-9.0061
▁staying	-9.00663
▁leavey	-9.01078
▁rich	-9.01279
▁enemy	-9.0135
▁erik	-9.01351
▁upset	-9.01351
▁beginning	-9.01352
▁jungle	-9.01355
▁battle	-9.01356
▁dreams	-9.01427
▁gasping	-9.01496
▁appreciate	-9.0158
▁charge	-9.01765
▁mo	-9.01843
▁friday	-9.01934
▁learned	-9.01983
▁teacher	-9.02139
▁fan	-9.02932
▁names	-9.02946
▁over	-9.03178
▁books	-9.03196
▁mike	-9.03363
▁health	-9.03371
▁extra	-9.0356
▁super	-9.03561
▁admit	-9.03565
▁major	-9.03573
▁situation	-9.03573
▁beauty	-9.03573
▁ethan	-9.03574
▁japanese	-9.03574
▁steele	-9.03602
▁goodnight	-9.03654
▁mary	-9.03703
▁tally	-9.03711
▁allowed	-9.03825
▁saved	-9.04033
▁cost	-9.04361
▁ringing	-9.04691
▁honest	-9.05499
▁share	-9.05674
▁report	-9.0577
▁london	-9.05845
▁hasnt	-9.05846
▁video	-9.05853
led	-9.05864
▁ran	-9.05867
▁mister	-9.05869
▁united	-9.05969
▁nine	-9.05995
▁exhales	-9.06011
▁mikey	-9.06063
▁shed	-9.06135
▁accept	-9.06258
▁bottom	-9.0653
▁decision	-9.06531
▁tony	-9.06564
▁nation	-9.06579
▁joke	-9.06588
▁sam	-9.06921
▁starts	-9.07098
▁ii	-9.07712
▁board	-9.07798
▁arrest	-9.07906
▁allow	-9.07914
▁waste	-9.0799
▁george	-9.08171
▁risk	-9.08172
▁truly	-9.08173
▁taught	-9.08173
▁evelyn	-9.08174
▁quinn	-9.08175
▁shame	-9.08176
▁duty	-9.08183
▁upon	-9.08184
▁message	-9.08184
▁national	-9.08287
▁pig	-9.0854
▁holding	-9.08549
▁talent	-9.08628
▁besides	-9.08672
▁flowers	-9.0868
▁boyfriend	-9.08887
▁machine	-9.0891
▁mountain	-9.08946
▁brain	-9.08984
▁picked	-9.09121
▁goin	-9.09608
▁trick	-9.09877
▁continue	-9.09899
▁divorce	-9.10363
▁eating	-9.10382
▁asleep	-9.10552
▁stories	-9.10552
▁twice	-9.10552
▁price	-9.10553
▁awake	-9.10554
▁incredible	-9.10581
▁michele	-9.10587
▁faster	-9.10777
▁gosh	-9.10969
▁dollars	-9.11293
▁bro	-9.11414
▁window	-9.11414
▁thousand	-9.11423
▁hanging	-9.1186
▁sleeping	-9.12046
▁jump	-9.12223
▁blind	-9.12695
ch	-9.12745
▁beach	-9.12923
▁horn	-9.12963
▁fresh	-9.12991
▁neither	-9.12991
▁whether	-9.12991
▁tiger	-9.12993
▁yep	-9.12998
▁medical	-9.13004
▁obviously	-9.13085
▁mark	-9.13279
▁kinda	-9.13647
▁color	-9.13655
▁writing	-9.13827
▁conversation	-9.13876
▁shaw	-9.13883
▁action	-9.1391
▁wouldve	-9.1401
▁shooting	-9.14158
▁chicken	-9.14662
▁feelings	-9.14799
▁aw	-9.14808
▁press	-9.15149
▁notice	-9.1533
▁shop	-9.15434
▁apart	-9.15481
▁bought	-9.15491
▁mercy	-9.15491
▁mohsen	-9.15491
▁often	-9.15491
▁jeannie	-9.15492
▁local	-9.15492
▁eric	-9.15498
▁france	-9.15519
▁loud	-9.15522
▁single	-9.1554
▁dirty	-9.15565
▁hiding	-9.15591
▁smoke	-9.15675
▁copy	-9.15758
▁quickly	-9.15787
▁sal	-9.15844
▁surprised	-9.15896
▁sh	-9.16242
▁wondering	-9.16277
▁scene	-9.16375
▁i	-9.16445
▁relationship	-9.1646
▁begin	-9.16506
▁russian	-9.16508
▁cat	-9.16601
▁rid	-9.16619
▁suit	-9.16698
▁letter	-9.16719
▁helping	-9.16753
less	-9.16943
▁focus	-9.17321
▁screw	-9.17348
▁stars	-9.17362
▁due	-9.17467
▁gas	-9.17498
▁r	-9.1804
▁cash	-9.1805
▁crime	-9.18055
▁dauntless	-9.18055
▁insane	-9.18055
▁worst	-9.18055
▁style	-9.18055
▁famous	-9.18073
▁space	-9.18076
▁danger	-9.18081
▁lying	-9.18084
▁nature	-9.18091
▁corey	-9.18101
▁beth	-9.18109
▁pants	-9.18126
▁wellington	-9.1813
ting	-9.18502
▁nobodys	-9.18608
▁mommy	-9.18985
▁marriage	-9.19044
▁doubt	-9.1905
▁key	-9.19093
▁da	-9.19103
▁ohh	-9.20039
▁experience	-9.20119
▁con	-9.2017
▁brothers	-9.20415
▁wild	-9.20634
▁aunt	-9.20672
▁kantmiss	-9.20687
▁sobbing	-9.20687
▁angry	-9.20687
▁ronnie	-9.20689
▁within	-9.20689
▁detective	-9.20689
▁weather	-9.2069
▁sheryl	-9.2069
▁desk	-9.20692
▁paris	-9.20692
▁chess	-9.20692
▁harry	-9.20698
▁dumb	-9.20721
▁arrived	-9.20733
▁sweetie	-9.20754
▁beeping	-9.20872
▁pre	-9.20934
▁losing	-9.21021
▁knocking	-9.21213
▁passed	-9.2131
way	-9.21348
▁sisters	-9.2146
▁flying	-9.21575
▁tie	-9.21643
▁artist	-9.21803
▁position	-9.2183
▁animal	-9.21832
▁older	-9.21864
▁papers	-9.22017
▁consider	-9.2203
▁joy	-9.22195
▁ice	-9.22283
▁rings	-9.23004
▁dig	-9.23065
▁mention	-9.23137
▁butt	-9.23246
▁beg	-9.233
▁magic	-9.23338
▁steal	-9.2338
▁awesome	-9.23389
▁lieutenant	-9.23389
▁mandela	-9.23389
▁cancer	-9.2339
▁philip	-9.23391
▁sparkle	-9.23397
▁involved	-9.23407
▁bull	-9.23425
▁turning	-9.235
▁yelling	-9.23522
▁gotten	-9.23538
▁command	-9.23692
▁lucas	-9.23933
rs	-9.23974
ne	-9.24104
▁selling	-9.24248
▁missing	-9.24291
▁winner	-9.24465
▁lesson	-9.24623
▁falling	-9.24726
▁grand	-9.24868
▁bother	-9.25455
ter	-9.25493
▁hunt	-9.25611
▁cops	-9.25633
▁gods	-9.25648
▁repeat	-9.25703
time	-9.25853
▁interview	-9.25879
▁difficult	-9.2594
▁tou	-9.2599
▁brown	-9.26145
▁across	-9.26167
▁beyond	-9.26167
▁england	-9.26167
▁helen	-9.26167
▁ugly	-9.26167
▁somehow	-9.26167
▁neck	-9.26169
▁bathroom	-9.26169
▁nose	-9.26175
▁principal	-9.26176
▁memphis	-9.26192
▁sky	-9.26262
▁planes	-9.26335
▁ja	-9.26347
ar	-9.26395
▁interest	-9.26633
▁remind	-9.26671
▁vour	-9.26688
▁prefer	-9.26808
▁feed	-9.27019
▁final	-9.27183
▁girlfriend	-9.27321
▁prince	-9.27371
▁pageant	-9.27398
▁studio	-9.27427
▁san	-9.27448
▁vote	-9.27518
▁walked	-9.27535
▁h	-9.2831
▁soldiers	-9.28424
▁camp	-9.28593
▁paint	-9.28729
▁announce	-9.28823
▁recognize	-9.28833
▁tight	-9.28877
▁africa	-9.28969
▁advertising	-9.29024
▁district	-9.29024
▁address	-9.29024
▁biggest	-9.29024
▁empire	-9.29024
▁diane	-9.29026
▁abigail	-9.29028
▁juice	-9.29029
▁japan	-9.29029
▁boring	-9.29031
▁thou	-9.29032
▁corner	-9.29047
▁eh	-9.29055
▁moon	-9.29084
▁softly	-9.29111
▁mv	-9.29127
▁hoping	-9.2916
▁heat	-9.292
▁gay	-9.2935
ah	-9.29384
▁opens	-9.29432
▁vi	-9.29583
▁harder	-9.29668
te	-9.29758
▁prove	-9.30099
▁jean	-9.30282
ry	-9.30369
▁river	-9.30386
▁birds	-9.30573
▁listening	-9.30984
▁dogs	-9.31633
▁howd	-9.31763
▁introduce	-9.31786
▁invite	-9.31801
▁match	-9.31908
▁calls	-9.31924
▁became	-9.31965
▁django	-9.31965
▁possibly	-9.31965
▁request	-9.31965
▁warren	-9.31966
▁nikki	-9.31966
▁washington	-9.31968
▁airport	-9.31968
▁sunday	-9.31969
▁shouldve	-9.3197
▁center	-9.31986
▁rent	-9.32034
▁bud	-9.32034
▁huge	-9.32042
▁pool	-9.32044
▁silly	-9.32075
▁west	-9.32083
▁usually	-9.32084
ian	-9.32322
▁bearing	-9.32345
▁powerful	-9.32372
▁wet	-9.32416
▁destroy	-9.32557
▁form	-9.3256
▁tires	-9.32667
▁trained	-9.32702
age	-9.32909
▁bob	-9.32946
▁dads	-9.33107
▁weapon	-9.33393
▁sight	-9.33423
▁shake	-9.33921
▁base	-9.33955
▁heads	-9.34239
▁clears	-9.34412
▁murder	-9.34599
▁honk	-9.34606
um	-9.34666
▁paul	-9.34879
▁cheap	-9.34886
▁dillon	-9.34996
▁guitar	-9.34996
▁havana	-9.34996
▁bravo	-9.34996
▁sugar	-9.34996
▁eliot	-9.34996
▁nowhere	-9.34997
▁responsible	-9.34998
▁santa	-9.35005
▁immediately	-9.35007
▁weekend	-9.35013
▁plus	-9.35081
▁cia	-9.35117
ta	-9.35122
▁suddenly	-9.35126
▁commander	-9.35155
▁keeping	-9.35232
▁closer	-9.35304
▁finished	-9.35519
▁signed	-9.35689
na	-9.35707
▁matters	-9.35749
▁chattering	-9.35809
▁bowl	-9.36152
▁exist	-9.36181
▁belong	-9.36261
▁apartment	-9.36454
▁plans	-9.365
▁queen	-9.3651
▁official	-9.36516
▁ticket	-9.36555
▁paper	-9.36571
▁kings	-9.36646
▁keys	-9.36828
os	-9.37252
▁using	-9.37346
▁ad	-9.37375
▁ships	-9.37515
il	-9.37647
▁shows	-9.37669
▁sub	-9.37723
▁sacrifice	-9.37766
▁faith	-9.38099
▁cheese	-9.3812
▁chisolm	-9.38121
▁distance	-9.38121
▁europe	-9.38121
▁necessary	-9.38121
▁social	-9.38121
▁heavy	-9.38121
▁jorge	-9.38121
▁horrible	-9.38123
▁chug	-9.38123
▁kitty	-9.38124
▁thunder	-9.38124
▁military	-9.38125
▁alarm	-9.38129
▁ardi	-9.3813
▁pressure	-9.38135
▁rita	-9.38141
▁fellow	-9.38141
▁chorus	-9.38151
▁van	-9.38152
▁whispering	-9.38181
▁scoffs	-9.38197
▁whispers	-9.38348
▁lies	-9.38955
▁bum	-9.39
▁goodness	-9.39037
▁fingers	-9.39151
ment	-9.39286
▁chair	-9.39653
▁concert	-9.39694
▁gate	-9.3973
▁monster	-9.39751
▁pilot	-9.39752
▁signal	-9.39809
ous	-9.40145
▁breaking	-9.40346
▁problems	-9.4036
▁everythings	-9.40392
▁pack	-9.40615
▁nights	-9.40986
▁per	-9.41184
▁sudden	-9.41208
one	-9.4123
▁rob	-9.41272
ng	-9.41273
▁chloe	-9.41347
▁hadnt	-9.41347
▁pizza	-9.41347
▁excellent	-9.41347
▁fantastic	-9.41347
▁sergeant	-9.41347
▁thatll	-9.41351
▁freedom	-9.41352
▁maria	-9.4136
▁angie	-9.41362
▁empty	-9.41364
▁ballet	-9.41364
▁shams	-9.41434
▁sean	-9.41461
▁willing	-9.41525
▁personally	-9.41641
▁papa	-9.41658
▁nuts	-9.41896
▁fucking	-9.41975
▁pro	-9.42076
▁gorgonites	-9.42152
▁cook	-9.42218
tic	-9.42685
▁peanut	-9.4296
▁opinion	-9.43044
▁strike	-9.43053
▁remain	-9.43059
▁whistle	-9.43066
▁magazine	-9.43085
▁ar	-9.43139
▁los	-9.43153
ure	-9.43484
▁lake	-9.43522
▁ways	-9.43901
▁fill	-9.44007
▁roar	-9.4427
though	-9.44471
▁teen	-9.44479
▁survive	-9.44505
▁escape	-9.44576
▁ought	-9.44608
▁stole	-9.44635
▁complete	-9.44641
▁aware	-9.44665
▁swim	-9.44677
▁advice	-9.4468
▁television	-9.4468
▁understood	-9.4468
▁whistling	-9.4468
▁opportunity	-9.4468
▁juliette	-9.44681
▁zach	-9.44681
▁cream	-9.44681
▁amber	-9.44681
▁meat	-9.44688
▁simply	-9.44692
▁growling	-9.44693
▁milk	-9.44699
▁rush	-9.44709
▁large	-9.44713
▁dale	-9.44715
▁pam	-9.44716
▁whatd	-9.44731
▁buffy	-9.44732
▁butter	-9.44797
▁lance	-9.44823
▁lily	-9.44903
▁freeze	-9.45037
▁indistinctly	-9.45069
▁clicks	-9.45084
▁moms	-9.45316
▁closed	-9.45624
ster	-9.46063
ine	-9.46255
▁judge	-9.4635
▁satellite	-9.46448
▁grady	-9.46449
▁christian	-9.46462
▁tail	-9.46496
ton	-9.46511
▁bottle	-9.46523
▁gunshot	-9.46527
▁ex	-9.46548
ally	-9.46703
▁helped	-9.46741
▁no	-9.4681
▁bear	-9.46981
ass	-9.47139
▁page	-9.47551
▁germans	-9.47738
▁hall	-9.47743
▁create	-9.47946
▁levi	-9.48076
▁usual	-9.48106
▁apologize	-9.48128
▁rough	-9.48128
▁senior	-9.48128
▁split	-9.48128
▁novel	-9.48128
▁whenever	-9.48128
▁gordy	-9.48128
▁albert	-9.48129
▁mickey	-9.48129
▁hollywood	-9.4813
▁audition	-9.4813
▁whore	-9.4813
▁built	-9.48132
▁california	-9.48132
▁hostage	-9.48133
▁department	-9.48134
▁british	-9.48134
▁mack	-9.48147
▁co	-9.48154
▁barking	-9.48158
▁professional	-9.48162
▁meal	-9.48166
▁cake	-9.48173
▁skin	-9.48185
▁manager	-9.48186
▁holly	-9.48234
▁lab	-9.48379
▁sexy	-9.48479
▁program	-9.48495
ty	-9.48517
▁arrested	-9.48525
▁locked	-9.48621
▁doctors	-9.48647
▁twenty	-9.4871
▁ned	-9.48818
to	-9.48893
▁trap	-9.48946
▁mans	-9.49163
▁horses	-9.49359
▁li	-9.49418
im	-9.49489
▁following	-9.49606
▁tear	-9.49792
▁size	-9.50011
▁poem	-9.50046
▁path	-9.50047
▁neighbor	-9.50073
▁photo	-9.50074
▁nurse	-9.50074
▁toy	-9.50235
▁writer	-9.50406
▁moments	-9.5044
▁mothers	-9.50618
▁treat	-9.50747
▁park	-9.50766
▁serve	-9.51179
▁seek	-9.51258
▁pretend	-9.5128
▁natural	-9.51554
▁obvious	-9.51561
ant	-9.51624
▁nothin	-9.51681
▁thirty	-9.51699
▁clarissa	-9.517
▁common	-9.517
▁knife	-9.517
▁nuclear	-9.517
▁plenty	-9.517
▁saturday	-9.517
▁afford	-9.517
▁mmmhmm	-9.51701
▁edward	-9.51701
▁dropped	-9.51705
▁hyah	-9.51705
▁handsome	-9.51717
▁bible	-9.5172
▁bigger	-9.51724
▁lila	-9.51728
▁confused	-9.51734
▁received	-9.5177
▁doin	-9.51774
▁showed	-9.51823
▁main	-9.51965
▁bright	-9.52056
▁letting	-9.52069
▁v	-9.52141
▁bucks	-9.52187
▁movies	-9.52414
▁dressed	-9.5244
▁track	-9.52591
▁driver	-9.52695
▁seemed	-9.52724
▁closes	-9.52814
▁lately	-9.5284
▁chip	-9.53192
▁garden	-9.53255
▁ear	-9.53291
▁keeps	-9.53292
▁toys	-9.53292
▁scream	-9.53435
▁someones	-9.53451
▁ld	-9.53506
▁dancer	-9.53584
▁career	-9.53654
▁note	-9.53664
▁skate	-9.5367
▁file	-9.53689
▁account	-9.53734
▁shirt	-9.53778
▁partner	-9.53848
▁sucker	-9.53849
▁student	-9.53849
▁trade	-9.53946
▁showing	-9.53959
▁type	-9.54104
▁boo	-9.54393
▁sil	-9.54403
▁se	-9.54528
ious	-9.54543
▁opening	-9.54843
▁separate	-9.55067
▁drinking	-9.5509
▁schedule	-9.55207
▁release	-9.55223
▁raise	-9.55248
▁prepare	-9.55253
▁pitch	-9.55253
▁russia	-9.5535
▁jar	-9.55397
▁project	-9.55399
▁clap	-9.55401
▁babies	-9.55403
▁easier	-9.55403
▁empress	-9.55403
▁tahime	-9.55403
▁morgan	-9.55403
▁purpose	-9.55403
▁rancor	-9.55403
▁tongue	-9.55403
▁according	-9.55403
▁political	-9.55404
▁stuart	-9.55404
▁rumbling	-9.55404
▁community	-9.55404
▁phil	-9.55405
▁roger	-9.55406
▁johnny	-9.55408
▁forgotten	-9.55409
▁fleet	-9.5541
▁earlier	-9.55414
▁written	-9.55414
▁theyd	-9.5542
▁treatment	-9.55421
▁abby	-9.55422
▁indeed	-9.55429
▁unfortunately	-9.55432
▁taxi	-9.55434
▁mona	-9.55439
▁laid	-9.55444
▁speed	-9.55448
▁angeles	-9.5546
▁prepared	-9.5566
▁noticed	-9.55699
▁perfectly	-9.55884
▁higher	-9.55991
▁dan	-9.56192
▁blowing	-9.56323
▁pulled	-9.56409
▁acting	-9.56605
and	-9.56752
▁fired	-9.56814
▁lots	-9.57137
▁cab	-9.57374
▁operation	-9.57524
▁album	-9.5761
▁cousin	-9.5761
▁jerk	-9.5761
▁ghost	-9.57635
▁guest	-9.57663
id	-9.57754
▁ro	-9.58085
▁lt	-9.584
▁tap	-9.58756
ce	-9.58863
▁market	-9.58865
▁correct	-9.58992
▁settle	-9.5906
▁regular	-9.59104
▁research	-9.59119
▁silence	-9.5917
▁roof	-9.5922
▁birth	-9.59246
▁avocado	-9.59249
▁delicious	-9.59249
▁mousavi	-9.59249
▁ridiculous	-9.59249
▁threadgoode	-9.59249
▁however	-9.5925
▁insurance	-9.5925
▁pardon	-9.5925
▁hannah	-9.5925
▁babe	-9.59252
▁medicine	-9.59252
▁marco	-9.59253
▁coach	-9.59253
▁scott	-9.59253
▁breakfast	-9.59254
▁madiba	-9.59254
▁bastian	-9.59254
▁performance	-9.59254
▁miami	-9.59255
▁chrissy	-9.59258
▁macon	-9.59259
▁legend	-9.59265
▁mount	-9.59266
▁funeral	-9.5927
▁auntie	-9.59278
▁noise	-9.59286
ling	-9.59288
▁madame	-9.59306
▁weight	-9.59326
▁march	-9.59347
▁en	-9.59389
▁male	-9.59431
▁carla	-9.59463
▁invited	-9.59514
▁certainly	-9.59547
▁fran	-9.59591
▁stronger	-9.59611
▁screwed	-9.59653
▁eggs	-9.5978
▁terms	-9.6009
▁fate	-9.60252
▁maps	-9.60283
▁lines	-9.60489
▁hardly	-9.60542
se	-9.60565
▁commercial	-9.60574
out	-9.60616
▁burning	-9.60659
▁freak	-9.60741
▁all	-9.60882
ate	-9.61206
▁tickets	-9.61219
men	-9.61291
▁crack	-9.61431
▁channel	-9.61622
▁shoulder	-9.61677
▁hearing	-9.6174
▁leader	-9.61851
▁hurts	-9.6186
▁publish	-9.61872
▁headed	-9.61955
▁du	-9.62045
▁paintings	-9.62417
▁bite	-9.62474
▁turns	-9.62497
▁add	-9.62644
▁wash	-9.62797
▁cancel	-9.62974
▁total	-9.63112
▁east	-9.63125
▁bennett	-9.63249
▁expensive	-9.63249
▁monsieur	-9.63249
▁sinestro	-9.63249
▁hawaii	-9.63249
▁held	-9.63249
▁piano	-9.63249
▁attitude	-9.6325
▁nagra	-9.6325
▁agency	-9.63254
▁hogue	-9.63254
▁impressive	-9.63257
▁selfish	-9.63258
▁liar	-9.63261
▁amin	-9.63275
▁chirping	-9.63275
▁spell	-9.63283
▁edge	-9.63301
▁victory	-9.63313
▁clicking	-9.63379
▁math	-9.63429
▁raised	-9.63517
▁oil	-9.63536
▁shy	-9.63574
▁stayed	-9.63597
▁towards	-9.63866
▁joey	-9.63969
▁songs	-9.64071
x	-9.64271
▁mi	-9.64354
la	-9.64928
▁faces	-9.64935
▁ends	-9.64977
▁buying	-9.65029
▁dry	-9.65115
▁deserve	-9.65607
▁contest	-9.65678
▁abbott	-9.65688
▁element	-9.6569
▁appear	-9.65821
▁angel	-9.65823
▁reporter	-9.65929
▁fl	-9.6594
▁there	-9.66067
▁pa	-9.66254
▁siren	-9.66357
▁minds	-9.66499
▁discuss	-9.66579
▁search	-9.66631
▁rip	-9.66717
▁hug	-9.66781
▁bringing	-9.66854
▁hal	-9.66864
▁sharp	-9.67132
▁spoke	-9.67367
▁loose	-9.67368
▁regret	-9.67409
▁dramatic	-9.67412
▁bureau	-9.67416
▁criminal	-9.67416
▁fought	-9.67416
▁habibeh	-9.67416
▁harbor	-9.67416
▁ocean	-9.67416
▁vacation	-9.67416
▁vegas	-9.67416
▁rosalyn	-9.67416
▁unbelievable	-9.67417
▁families	-9.67417
▁radar	-9.67417
▁johnston	-9.67418
▁theme	-9.67419
▁fbi	-9.67423
▁poetry	-9.67423
▁gentleman	-9.67426
▁fancy	-9.67426
▁extreme	-9.67427
▁sniffles	-9.67428
▁trial	-9.6743
▁pair	-9.67431
▁cassie	-9.67434
▁itd	-9.67434
▁johnson	-9.67436
▁loving	-9.6744
▁archer	-9.67457
▁royal	-9.67477
▁recently	-9.67478
▁useless	-9.67515
▁footsteps	-9.67519
▁disappeared	-9.67581
▁hire	-9.676
▁glasses	-9.67632
ts	-9.67774
ma	-9.6786
land	-9.67969
as	-9.68026
▁riding	-9.68107
▁streets	-9.68136
▁wings	-9.68196
▁bust	-9.68297
▁shine	-9.68301
▁drugs	-9.68402
nt	-9.68783
▁bullet	-9.68824
▁couldve	-9.68977
▁cow	-9.69218
ey	-9.69272
▁loss	-9.69352
▁points	-9.69436
▁br	-9.69923
▁vehicle	-9.70035
▁apache	-9.70035
▁miracle	-9.70077
▁theater	-9.70083
▁appointment	-9.70122
▁devil	-9.7018
▁sa	-9.70273
▁hole	-9.70364
▁stranger	-9.70382
▁perform	-9.70489
▁answers	-9.70557
▁claim	-9.71076
▁draw	-9.71134
▁schools	-9.71224
li	-9.71283
▁wood	-9.71326
▁blame	-9.71568
▁damage	-9.71578
▁chose	-9.71718
▁village	-9.71752
▁boom	-9.71759
▁female	-9.71764
▁olivia	-9.71764
▁soviet	-9.71764
▁technology	-9.71764
▁pardeep	-9.71764
▁italian	-9.71765
▁surgery	-9.71765
▁nyx	-9.71766
▁whoever	-9.71766
▁candy	-9.71766
▁lori	-9.71768
▁fifteen	-9.71769
▁hayes	-9.71774
▁soup	-9.71775
▁trash	-9.71775
▁logan	-9.71775
▁alice	-9.71778
▁literally	-9.7178
▁responsibility	-9.71787
▁thee	-9.71793
▁vision	-9.71802
▁winter	-9.71871
▁giggles	-9.71872
▁parties	-9.71953
▁pu	-9.72019
▁bridesmaids	-9.72083
▁deeply	-9.7214
▁metal	-9.72181
▁guts	-9.72205
▁realized	-9.72221
▁powers	-9.7231
▁heavens	-9.72379
▁do	-9.72465
▁covered	-9.72701
▁pie	-9.72736
▁growing	-9.72781
▁lied	-9.72821
▁non	-9.7291
▁expecting	-9.7295
et	-9.72985
▁fellas	-9.73008
▁you	-9.731
▁bird	-9.73907
▁mate	-9.7391
▁fathers	-9.73949
▁concern	-9.7396
▁weapons	-9.74071
▁up	-9.74242
▁pal	-9.74281
▁animals	-9.74361
▁sin	-9.74518
▁flat	-9.74553
▁crew	-9.74582
▁bridge	-9.74589
▁source	-9.74667
▁lu	-9.74677
▁issue	-9.7471
▁bone	-9.74856
▁paying	-9.74913
▁pee	-9.75016
▁pat	-9.75143
▁believed	-9.75276
▁shout	-9.75599
▁hill	-9.75679
▁mis	-9.75769
▁ideas	-9.75854
ial	-9.75957
▁mood	-9.76018
▁soft	-9.7607
▁chase	-9.76122
▁gross	-9.76218
▁cards	-9.76234
▁character	-9.76309
▁defense	-9.76309
▁downstairs	-9.76309
▁explosion	-9.76309
▁faraday	-9.76309
▁including	-9.76309
▁jordan	-9.76309
▁nonsense	-9.76309
▁restaurant	-9.76309
▁therefore	-9.76309
▁ugh	-9.76309
▁universe	-9.76309
▁university	-9.76309
▁voysey	-9.76309
▁confidence	-9.76309
▁nope	-9.76309
▁example	-9.7631
▁available	-9.7631
▁pathetic	-9.7631
▁rugby	-9.7631
▁joseph	-9.76311
▁blew	-9.76311
▁grandpa	-9.76311
▁vicki	-9.76311
▁raven	-9.76311
▁webster	-9.76312
▁wilson	-9.76314
▁romantic	-9.76317
▁apparently	-9.76319
▁belt	-9.76324
▁annie	-9.76329
▁pom	-9.7633
▁china	-9.76338
▁james	-9.76342
▁bogue	-9.76347
▁murmuring	-9.76378
ted	-9.7643
▁grown	-9.7644
▁scary	-9.76449
▁changing	-9.76457
▁embarrassing	-9.76475
▁depends	-9.76497
▁ahh	-9.76536
▁concerned	-9.76581
▁honestly	-9.76593
▁ate	-9.7665
▁coughs	-9.76653
the	-9.76668
ge	-9.76735
▁harm	-9.76908
▁honking	-9.76946
▁yi	-9.76971
▁offered	-9.76974
▁singer	-9.77003
▁expected	-9.77103
at	-9.77293
▁sucks	-9.77388
ism	-9.77427
▁mutants	-9.7746
▁balls	-9.77595
▁ordered	-9.77687
▁rats	-9.77759
▁units	-9.77817
no	-9.77865
▁insist	-9.77905
▁passing	-9.7801
ent	-9.78188
▁places	-9.78216
▁partners	-9.78282
▁chips	-9.78292
▁tears	-9.7839
▁warn	-9.7869
▁score	-9.79144
em	-9.79167
▁letters	-9.79273
▁hearts	-9.79315
▁thousands	-9.79331
▁melissa	-9.79345
▁demand	-9.79451
▁sav	-9.79454
▁computer	-9.79459
▁member	-9.79491
▁finger	-9.79511
ois	-9.79529
ier	-9.79836
▁mistakes	-9.80011
▁ruin	-9.8035
▁el	-9.80438
son	-9.80467
▁piss	-9.80478
▁ca	-9.80486
▁forces	-9.80658
oo	-9.80675
▁guards	-9.80776
▁dust	-9.8082
▁chest	-9.80844
▁tune	-9.80877
▁convince	-9.80886
▁positive	-9.80932
▁meg	-9.80947
▁toast	-9.80969
▁wha	-9.80987
ize	-9.81005
ps	-9.81006
▁education	-9.81012
▁emergency	-9.81071
▁jersey	-9.81071
▁madeleine	-9.81071
▁routine	-9.81071
▁society	-9.81071
▁forbidden	-9.81072
▁kitchen	-9.81072
▁justice	-9.81072
▁jeez	-9.81072
▁teddy	-9.81072
▁patrice	-9.81073
▁percent	-9.81073
▁subject	-9.81073
▁saint	-9.81074
▁oei	-9.81075
▁elise	-9.81075
▁pearl	-9.81076
▁happiness	-9.81077
▁valdez	-9.81077
▁frozen	-9.81082
▁fence	-9.81088
▁began	-9.81102
▁bath	-9.81107
▁j	-9.81113
▁uhuh	-9.81122
▁guilty	-9.81136
▁lift	-9.81143
▁misty	-9.81146
▁lack	-9.81148
▁navy	-9.81172
▁finding	-9.81182
▁bleeding	-9.81184
▁troops	-9.8119
▁successful	-9.81204
▁kay	-9.81238
▁union	-9.81254
▁downing	-9.81301
▁ruined	-9.8134
▁based	-9.81381
▁unit	-9.81396
▁shower	-9.81427
▁filled	-9.81464
▁destroyed	-9.81503
▁warning	-9.8153
▁row	-9.81552
▁germany	-9.81643
▁secure	-9.81985
▁hol	-9.82113
▁millions	-9.82286
▁bones	-9.8279
▁drinks	-9.82796
tt	-9.82885
▁pulling	-9.83123
▁nah	-9.8313
ul	-9.83642
▁sending	-9.83701
▁watched	-9.83803
▁rat	-9.83841
▁so	-9.83924
▁ended	-9.84043
ance	-9.84275
▁worlds	-9.843
▁spit	-9.84302
▁cabinet	-9.84341
▁passport	-9.84342
▁monkey	-9.84385
▁apple	-9.84405
▁level	-9.84409
▁plate	-9.84453
▁result	-9.84494
▁wrap	-9.84504
▁faction	-9.8454
▁dollar	-9.84559
▁lips	-9.85055
▁sweat	-9.85272
ri	-9.85319
▁load	-9.85421
▁blows	-9.85613
▁enter	-9.85679
▁study	-9.85698
▁spy	-9.8577
▁parts	-9.85813
house	-9.85854
town	-9.85859
▁ignore	-9.85874
▁spare	-9.85883
▁coast	-9.85945
▁occasion	-9.85997
▁cap	-9.86005
▁doors	-9.86057
▁smells	-9.8607
▁chocolate	-9.86071
▁combination	-9.86071
▁competition	-9.86071
▁equipment	-9.86071
▁exciting	-9.86071
▁intense	-9.86071
▁jeffords	-9.86071
▁monday	-9.86071
▁morteza	-9.86071
▁moscow	-9.86071
▁niflheim	-9.86071
▁surrender	-9.86071
▁atwater	-9.86072
▁duncan	-9.86072
▁maggie	-9.86072
▁section	-9.86073
▁companies	-9.86073
▁otherwise	-9.86073
▁culture	-9.86073
▁garland	-9.86074
▁cowboy	-9.86074
▁onto	-9.86074
▁trent	-9.86074
▁giant	-9.86074
▁gym	-9.86074
▁byebye	-9.86075
▁property	-9.86077
▁familiar	-9.86077
▁jealous	-9.86077
▁comfortable	-9.86078
▁violence	-9.86078
▁kingdom	-9.86079
▁label	-9.86081
▁lousy	-9.86081
▁planning	-9.86082
▁tobin	-9.86083
▁wong	-9.86083
▁offense	-9.86085
▁fifty	-9.86087
▁molly	-9.8609
▁gum	-9.86094
▁wide	-9.86096
▁megan	-9.86099
▁role	-9.86099
▁wailing	-9.86104
▁brighton	-9.86107
▁trapped	-9.86109
▁mail	-9.86119
▁stolen	-9.86146
▁secretary	-9.86157
▁tiny	-9.86158
▁float	-9.86164
▁disgusting	-9.86168
▁aim	-9.86178
▁fred	-9.8628
▁mills	-9.8629
▁lang	-9.86298
▁crashing	-9.86363
▁fa	-9.86454
▁tris	-9.86464
▁license	-9.8656
▁nick	-9.86629
▁roaring	-9.86707
▁cares	-9.86903
▁messed	-9.86934
▁wh	-9.86975
▁guardians	-9.87017
▁martin	-9.87049
▁numbers	-9.87157
▁spending	-9.87461
▁pushing	-9.87511
▁talkin	-9.87551
▁results	-9.87673
▁hook	-9.87779
▁landing	-9.87859
▁rolling	-9.8799
ba	-9.88073
ow	-9.88167
▁pet	-9.88179
▁lovell	-9.88207
sh	-9.8837
▁bug	-9.88597
▁grandma	-9.88667
▁represent	-9.89216
▁hee	-9.89337
▁colors	-9.89337
op	-9.89337
▁bow	-9.8941
▁wound	-9.8941
▁decide	-9.89427
▁civil	-9.89464
▁review	-9.89583
go	-9.89606
▁closet	-9.89612
▁beast	-9.89613
▁coward	-9.89711
▁wheel	-9.89734
▁holiday	-9.89746
▁sometime	-9.89786
▁mile	-9.89847
▁dis	-9.90213
▁le	-9.90247
mo	-9.90324
▁bastards	-9.90415
ol	-9.90445
▁foreign	-9.90624
▁mar	-9.9074
▁self	-9.90785
▁weak	-9.90885
▁ma	-9.91033
▁dump	-9.91045
▁borrow	-9.91046
▁desperate	-9.91183
▁replace	-9.91202
▁robert	-9.91287
▁somethin	-9.91314
▁courage	-9.91332
▁brilliant	-9.91334
▁chalk	-9.91334
▁charlotte	-9.91334
▁firm	-9.91334
▁geronimo	-9.91334
▁gonggil	-9.91334
▁gorgeous	-9.91334
▁international	-9.91334
▁lantern	-9.91334
▁maureen	-9.91334
▁outfit	-9.91334
▁threw	-9.91334
▁ashamed	-9.91335
▁presence	-9.91335
▁advantage	-9.91335
▁drove	-9.91335
▁progress	-9.91335
▁claus	-9.91335
▁midnight	-9.91335
▁spanish	-9.91335
▁starving	-9.91335
▁location	-9.91336
▁humming	-9.91336
▁pacific	-9.91336
▁among	-9.91337
▁recover	-9.91337
▁joking	-9.91337
▁clever	-9.91337
▁bodies	-9.91337
▁palace	-9.91338
▁bike	-9.9134
▁energy	-9.91341
▁material	-9.91341
▁cliff	-9.91342
▁vince	-9.91344
▁bobby	-9.91344
▁zone	-9.9135
▁bush	-9.91352
▁season	-9.91356
▁indiana	-9.91357
▁complicated	-9.91368
▁hughes	-9.91374
▁fortune	-9.91375
▁becky	-9.91376
▁satin	-9.91379
▁collection	-9.91382
▁winning	-9.91388
▁chosen	-9.91395
▁whooping	-9.91405
▁ramy	-9.91412
▁cutting	-9.91426
▁chanting	-9.91434
▁askey	-9.91442
▁shape	-9.91446
▁jacket	-9.91456
▁pm	-9.91498
▁cars	-9.91557
▁richie	-9.91559
▁screeching	-9.91596
▁marie	-9.91645
▁alien	-9.91692
▁stops	-9.91695
▁treated	-9.91742
▁tied	-9.91825
▁marketing	-9.91914
▁talented	-9.91945
▁fixed	-9.92098
▁mayor	-9.92131
▁strip	-9.9219
▁switch	-9.92194
▁kicked	-9.92243
▁sooner	-9.92272
▁brings	-9.92275
▁hind	-9.92952
▁ann	-9.93209
▁towns	-9.93367
cy	-9.93462
ess	-9.93626
▁ears	-9.93634
▁notes	-9.93666
▁odd	-9.93742
▁badly	-9.938
▁he	-9.93843
▁belongs	-9.9408
▁me	-9.94135
▁speaks	-9.94511
▁ed	-9.94683
▁bang	-9.94763
▁clock	-9.94929
▁suspect	-9.94942
▁refuse	-9.95064
▁contract	-9.95101
▁scare	-9.95139
▁valley	-9.95156
▁pan	-9.95157
▁fans	-9.95176
▁poet	-9.95222
▁tradition	-9.95224
▁deck	-9.95224
▁suicide	-9.95225
▁threat	-9.95243
▁roxy	-9.95277
▁lawyer	-9.95277
▁chuckle	-9.95354
▁tank	-9.95369
▁doll	-9.95424
▁where	-9.95491
▁lookin	-9.95522
▁pen	-9.95541
▁deliver	-9.95944
▁ac	-9.96142
▁u	-9.96156
▁fail	-9.96186
▁charm	-9.96374
▁spread	-9.96454
down	-9.96537
▁fella	-9.96622
well	-9.9663
▁award	-9.9663
just	-9.96638
▁curse	-9.9668
▁solve	-9.96715
ford	-9.96759
▁led	-9.96771
▁drag	-9.96778
▁bells	-9.96842
▁muff	-9.96863
▁mistress	-9.9689
▁nightmare	-9.9689
▁rekker	-9.9689
▁rifle	-9.9689
▁slept	-9.9689
▁someplace	-9.9689
▁sophia	-9.9689
▁shirin	-9.9689
▁strict	-9.9689
▁grandfather	-9.9689
▁barbara	-9.9689
▁hisham	-9.96891
▁commission	-9.96891
▁innocent	-9.96892
▁carolina	-9.96892
▁zeke	-9.96892
▁precious	-9.96892
▁tommy	-9.96892
▁prize	-9.96894
▁winston	-9.96895
▁bread	-9.96896
▁swimming	-9.96896
▁rude	-9.96899
▁gail	-9.969
▁jason	-9.96902
▁heavily	-9.96902
▁thirsty	-9.96903
▁howard	-9.96904
▁abc	-9.96906
▁mere	-9.9691
▁coz	-9.96914
▁mayday	-9.96919
▁closing	-9.96927
▁ew	-9.96932
▁physical	-9.96934
▁jp	-9.96944
▁event	-9.96949
▁dean	-9.96962
▁player	-9.9697
▁aye	-9.96998
▁coughing	-9.97
▁x	-9.97008
▁maid	-9.97019
▁embarrassed	-9.97021
▁placement	-9.97066
▁pity	-9.97139
▁classes	-9.97144
▁served	-9.97179
lv	-9.97214
▁inhales	-9.9722
▁jane	-9.97271
▁springboks	-9.97303
▁murdered	-9.9739
▁bills	-9.97442
▁slowly	-9.97456
▁mira	-9.97583
▁meaning	-9.97716
▁details	-9.97763
▁tall	-9.97776
▁quarters	-9.97947
ence	-9.98015
▁attacked	-9.98036
▁springs	-9.98129
side	-9.98162
▁agents	-9.98323
▁carrying	-9.98352
ir	-9.98427
▁dressing	-9.98666
▁walker	-9.98731
▁snap	-9.98806
▁who	-9.98843
ac	-9.99098
ble	-9.99171
▁lover	-9.99242
ur	-9.99387
▁drops	-9.99491
▁ba	-9.99544
▁va	-9.99606
▁waited	-9.99777
▁pin	-10.0015
ile	-10.0018
mi	-10.0032
un	-10.0042
▁boats	-10.0056
▁sigh	-10.0066
▁beep	-10.0082
me	-10.0093
▁effort	-10.0108
▁rope	-10.0108
▁article	-10.0108
▁screen	-10.011
▁affair	-10.0117
▁products	-10.012
▁map	-10.0125
▁knowing	-10.013
▁goat	-10.0131
▁woo	-10.0156
▁stations	-10.0158
▁saving	-10.016
▁talks	-10.016
▁wire	-10.0167
▁drawing	-10.0167
▁uhh	-10.0192
▁collect	-10.0193
▁cast	-10.0205
▁mix	-10.0206
▁buzz	-10.0228
▁drift	-10.0233
▁unh	-10.0239
▁success	-10.0242
▁chill	-10.0248
▁demo	-10.0267
▁sever	-10.0267
▁violet	-10.027
▁process	-10.0274
▁access	-10.0274
▁iron	-10.0275
▁sexual	-10.0276
▁drama	-10.0276
▁admiral	-10.0277
▁abnegation	-10.0277
▁attorney	-10.0277
▁buried	-10.0277
▁challenge	-10.0277
▁chicago	-10.0277
▁detention	-10.0277
▁egypt	-10.0277
▁escort	-10.0277
▁hallelujah	-10.0277
▁horvath	-10.0277
▁insomnia	-10.0277
▁isabel	-10.0277
▁kelekian	-10.0277
▁september	-10.0277
▁sheriff	-10.0277
▁tuesday	-10.0277
▁hanssen	-10.0277
▁rudolf	-10.0277
▁banana	-10.0277
▁pride	-10.0277
▁terrific	-10.0277
▁hawkins	-10.0277
▁library	-10.0277
▁museum	-10.0277
▁dawn	-10.0277
▁lisa	-10.0277
▁barbecue	-10.0278
▁rosie	-10.0278
▁trina	-10.0278
▁rise	-10.0278
▁sensation	-10.0278
▁abilities	-10.0278
▁victim	-10.0278
▁beloved	-10.0278
▁wherever	-10.0278
▁dj	-10.0278
▁football	-10.0278
▁champion	-10.0279
▁fake	-10.0279
▁yup	-10.0279
▁fuel	-10.0279
▁stock	-10.0279
▁decent	-10.0281
▁safety	-10.0282
▁chain	-10.0283
▁gim	-10.0284
▁hm	-10.0284
▁title	-10.0285
▁sch	-10.0286
▁lean	-10.0288
▁port	-10.0288
▁barely	-10.0288
▁bitter	-10.0289
▁dish	-10.029
▁factory	-10.0291
▁abandoned	-10.0294
▁blown	-10.0297
▁eaten	-10.0309
▁created	-10.0309
▁loaded	-10.0309
▁fi	-10.0309
▁heading	-10.0311
▁pissed	-10.0311
coming	-10.0317
▁bored	-10.0324
▁agreed	-10.034
▁pills	-10.034
▁fires	-10.0342
▁carefully	-10.0342
▁pretending	-10.0348
▁cha	-10.0349
▁boots	-10.037
▁pi	-10.0372
▁her	-10.0375
▁ban	-10.0378
▁clearly	-10.0378
▁hits	-10.0396
▁younger	-10.0397
▁y	-10.0402
▁commit	-10.0406
▁legal	-10.0422
▁cy	-10.0433
▁followed	-10.0443
▁grave	-10.0475
ph	-10.0487
▁plant	-10.0499
▁media	-10.0499
▁fist	-10.0503
▁nd	-10.0525
▁bal	-10.0532
▁cheer	-10.0537
ations	-10.0543
▁hated	-10.0554
▁judges	-10.0557
am	-10.0561
ee	-10.0581
▁ra	-10.0596
▁bi	-10.0641
▁changes	-10.065
▁cats	-10.0656
▁hoo	-10.0668
▁picking	-10.0672
unk	-10.069
▁reports	-10.0697
▁gasp	-10.0712
▁punk	-10.0712
▁sponsor	-10.0714
▁ver	-10.0715
▁reservation	-10.0728
▁newspaper	-10.0729
▁grade	-10.0731
▁rooms	-10.0732
▁direction	-10.074
▁mutant	-10.0745
▁gorgonite	-10.0746
▁coat	-10.0748
▁steps	-10.0754
▁actor	-10.0755
▁fur	-10.0783
▁wil	-10.0809
▁steve	-10.0816
▁suggest	-10.0829
ping	-10.0837
▁range	-10.0855
▁horne	-10.0857
ship	-10.0868
▁defeat	-10.0874
▁adopt	-10.0875
▁brands	-10.0875
▁hung	-10.0876
▁bombs	-10.0883
▁proper	-10.0892
▁exam	-10.0896
▁develop	-10.0896
▁knowledge	-10.0899
▁revolution	-10.09
▁traffic	-10.0902
▁expert	-10.0902
▁ambassador	-10.0902
▁applause	-10.0902
▁cheerleader	-10.0902
▁dalloway	-10.0902
▁fabulous	-10.0902
▁grew	-10.0902
▁halifax	-10.0902
▁kungfu	-10.0902
▁literature	-10.0902
▁politics	-10.0902
▁retreat	-10.0902
▁someday	-10.0902
▁stress	-10.0902
▁tattoo	-10.0902
▁underneath	-10.0902
▁mostly	-10.0902
▁snoring	-10.0902
▁launch	-10.0902
▁division	-10.0902
▁hidden	-10.0902
▁rattling	-10.0902
▁circus	-10.0902
▁device	-10.0902
▁piggy	-10.0902
▁waffle	-10.0902
▁maintain	-10.0902
▁jerry	-10.0903
▁credit	-10.0903
▁route	-10.0903
▁nathanial	-10.0903
▁blackstone	-10.0903
▁bruno	-10.0903
▁patrol	-10.0903
▁lucis	-10.0904
▁reward	-10.0904
▁package	-10.0904
▁anniversary	-10.0904
▁exchange	-10.0904
▁mental	-10.0905
▁barton	-10.0905
▁subtitl	-10.0906
▁allen	-10.0906
▁cycle	-10.0906
▁jackson	-10.0906
▁bitsy	-10.0907
dy	-10.0907
▁border	-10.0908
▁original	-10.0912
▁palm	-10.0913
▁clattering	-10.0915
▁ruby	-10.0915
▁yearold	-10.0916
▁coordinates	-10.0918
▁ol	-10.0919
▁confirmed	-10.0922
▁teaching	-10.0923
▁passion	-10.0924
▁pump	-10.0925
ha	-10.0925
▁kan	-10.0928
▁approaching	-10.0931
▁concentrate	-10.0938
▁reality	-10.0941
▁buzzing	-10.0947
▁pounds	-10.0949
▁shared	-10.0954
▁naser	-10.0959
▁healthy	-10.0962
▁pace	-10.0968
▁marines	-10.097
▁forced	-10.0971
▁colored	-10.0974
▁comedy	-10.0979
ible	-10.0982
co	-10.0989
▁trini	-10.099
▁commandos	-10.0993
▁yards	-10.1002
over	-10.1004
ns	-10.1007
▁fights	-10.101
▁brat	-10.1018
▁reporting	-10.102
▁ka	-10.1022
▁knees	-10.1024
ang	-10.1034
▁ranch	-10.1042
▁evans	-10.1053
▁counter	-10.1061
work	-10.1083
▁bu	-10.1104
▁fishing	-10.1112
▁members	-10.1116
▁compete	-10.1157
▁luc	-10.1178
ish	-10.1184
▁writers	-10.1198
▁staring	-10.1211
▁planet	-10.1238
▁be	-10.1259
▁breaks	-10.1266
▁fr	-10.1267
ves	-10.1269
▁ne	-10.1294
▁lee	-10.1299
end	-10.1303
▁sid	-10.131
▁gal	-10.1336
ite	-10.1336
▁goal	-10.1341
▁sue	-10.1343
▁condition	-10.1352
▁suck	-10.1359
▁childrens	-10.1363
▁damned	-10.1375
▁generation	-10.1396
▁gil	-10.1399
▁spark	-10.1401
▁rehearsal	-10.1402
▁shadow	-10.1402
▁dozen	-10.1405
▁clown	-10.1407
▁cigarette	-10.1407
▁duck	-10.1407
▁drug	-10.1407
▁mortal	-10.1408
▁standard	-10.1413
▁evan	-10.1413
▁movement	-10.1419
▁sk	-10.1437
ons	-10.1439
ck	-10.1441
▁til	-10.1458
▁cl	-10.1461
▁avoid	-10.1494
▁shock	-10.1497
▁disappear	-10.1497
▁bless	-10.1504
▁sur	-10.1524
▁confess	-10.1534
▁impress	-10.1537
▁shift	-10.1538
▁rasp	-10.1544
five	-10.1547
▁dirt	-10.1549
▁guarantee	-10.1549
▁wipe	-10.155
▁advance	-10.155
▁duk	-10.1555
▁sink	-10.1556
▁wise	-10.156
▁journal	-10.1564
▁doug	-10.1565
▁transfer	-10.1569
rquez	-10.1569
▁ancient	-10.1569
▁celebrate	-10.1569
▁ceremony	-10.1569
▁charleshenri	-10.1569
▁corporal	-10.1569
▁cricket	-10.1569
▁december	-10.1569
▁declare	-10.1569
▁dummy	-10.1569
▁fetch	-10.1569
▁flew	-10.1569
▁grateful	-10.1569
▁invasion	-10.1569
▁kurtz	-10.1569
▁mexico	-10.1569
▁modern	-10.1569
▁november	-10.1569
▁panama	-10.1569
▁paradise	-10.1569
▁rainbow	-10.1569
▁reputation	-10.1569
▁respond	-10.1569
▁response	-10.1569
▁thomas	-10.1569
▁whinnies	-10.1569
▁period	-10.1569
▁smash	-10.1569
▁afghanistan	-10.1569
▁jenkins	-10.1569
▁campbell	-10.1569
▁journey	-10.1569
▁hammer	-10.1569
▁argue	-10.1569
▁stax	-10.1569
▁false	-10.1569
▁solid	-10.1569
▁resistance	-10.1569
▁neighborhood	-10.1569
▁ammo	-10.1569
▁fisherman	-10.1569
▁stood	-10.1569
▁basically	-10.1569
▁popular	-10.1569
▁capital	-10.1569
▁motion	-10.157
▁georgia	-10.157
▁steady	-10.157
▁appearance	-10.157
▁chinese	-10.157
▁flare	-10.157
▁kaos	-10.157
▁deaf	-10.157
▁shopping	-10.157
▁begun	-10.157
▁flash	-10.157
▁planned	-10.157
▁off	-10.1571
▁southern	-10.1571
▁youth	-10.1571
▁storm	-10.1571
▁bail	-10.1571
▁poker	-10.1572
▁pink	-10.1572
▁capable	-10.1572
▁hitler	-10.1572
▁intelligence	-10.1573
▁exercise	-10.1573
▁dating	-10.1573
▁whv	-10.1573
▁perry	-10.1573
▁surrounded	-10.1574
▁fever	-10.1574
▁emily	-10.1575
▁task	-10.1575
▁katia	-10.1575
▁sat	-10.1575
▁glory	-10.1575
▁robbery	-10.1576
▁golden	-10.1576
▁gae	-10.1576
▁invented	-10.1577
▁smoking	-10.1578
▁labor	-10.1578
▁chap	-10.1578
▁shaking	-10.1578
▁pure	-10.1578
▁darkness	-10.1579
▁threatened	-10.1579
▁jet	-10.1581
▁vice	-10.1581
▁ticking	-10.1582
▁inspect	-10.1583
▁walters	-10.1586
▁critical	-10.1586
▁tits	-10.1587
▁fallen	-10.1588
▁raid	-10.1594
▁presents	-10.1595
▁louder	-10.1596
▁mass	-10.1597
▁mixed	-10.16
▁failed	-10.1602
▁bride	-10.1603
▁gettin	-10.1609
▁waves	-10.1612
▁published	-10.1619
▁bitches	-10.1621
▁smarter	-10.1621
▁scar	-10.1623
▁studying	-10.1626
▁missiles	-10.1641
▁entirely	-10.1645
▁slams	-10.1652
▁makeup	-10.1653
▁squeals	-10.1664
▁hunting	-10.1673
▁reached	-10.168
▁county	-10.169
▁joined	-10.1692
▁backup	-10.1696
ga	-10.1714
▁leaves	-10.1763
▁holidays	-10.1775
▁visiting	-10.1776
ized	-10.1801
ov	-10.1814
▁testing	-10.1815
▁hon	-10.1828
▁friendly	-10.183
▁bam	-10.1834
ze	-10.185
▁ira	-10.1851
▁learning	-10.189
▁checked	-10.1897
▁chi	-10.1902
do	-10.1903
▁sn	-10.1927
▁manage	-10.1928
com	-10.1938
▁greater	-10.1945
▁beating	-10.1974
▁becomes	-10.2
▁russians	-10.2002
▁sale	-10.2006
▁brains	-10.2035
▁flag	-10.2037
▁bomber	-10.204
▁block	-10.2049
▁americans	-10.2051
▁flow	-10.2059
be	-10.2059
▁anna	-10.207
▁bat	-10.2072
▁cells	-10.208
▁volunteer	-10.2081
▁fo	-10.2102
▁trees	-10.2103
▁mirror	-10.2109
▁potter	-10.211
▁view	-10.2114
▁disease	-10.2115
▁pocket	-10.2116
▁diamond	-10.2116
▁adult	-10.2118
▁servant	-10.2119
▁spring	-10.2127
▁beside	-10.2128
▁shoe	-10.2128
▁snake	-10.2129
don	-10.2132
▁elses	-10.2137
▁term	-10.2137
▁flower	-10.2138
▁vet	-10.2181
▁flip	-10.2201
▁crash	-10.2205
▁suffer	-10.2214
▁roses	-10.2217
fully	-10.223
▁direct	-10.223
▁to	-10.2231
room	-10.2251
▁faint	-10.2254
▁crown	-10.2256
▁crush	-10.2257
▁corps	-10.2258
▁engage	-10.2261
two	-10.2263
▁constant	-10.2269
▁teenage	-10.2269
▁assure	-10.2274
▁madam	-10.2275
▁india	-10.2276
▁weigh	-10.2277
▁alcohol	-10.228
▁pot	-10.2281
▁righteous	-10.2283
▁cruel	-10.2283
▁fruit	-10.2283
▁jeff	-10.2283
▁stomach	-10.2283
▁apollo	-10.2283
▁attached	-10.2283
▁bokke	-10.2283
▁brodsky	-10.2283
▁deborah	-10.2283
▁enemies	-10.2283
▁environment	-10.2283
▁evidence	-10.2283
▁individual	-10.2283
▁manchukuo	-10.2283
▁shrimp	-10.2283
▁sorrv	-10.2283
▁stadium	-10.2283
▁underwear	-10.2283
▁vienna	-10.2283
▁whew	-10.2283
▁zealand	-10.2283
▁crystal	-10.2283
▁revving	-10.2283
▁tammy	-10.2283
▁senator	-10.2283
▁navid	-10.2283
▁warrant	-10.2283
▁zazz	-10.2283
▁alexander	-10.2283
▁mankind	-10.2283
▁holmesburg	-10.2283
▁lesbian	-10.2283
▁revenge	-10.2283
▁square	-10.2283
▁collins	-10.2283
▁policy	-10.2283
▁unfair	-10.2283
▁curious	-10.2283
▁describe	-10.2283
▁urgent	-10.2283
▁bovs	-10.2283
▁edgar	-10.2283
▁network	-10.2283
▁grandmother	-10.2284
▁firing	-10.2284
▁inaudible	-10.2284
▁telephone	-10.2284
▁anytime	-10.2284
▁heck	-10.2284
▁wore	-10.2284
▁aaah	-10.2284
▁century	-10.2284
▁khanoum	-10.2284
▁stix	-10.2284
▁thursday	-10.2284
▁anderson	-10.2284
▁dugan	-10.2284
▁failure	-10.2284
▁foul	-10.2284
▁blah	-10.2285
▁silver	-10.2285
▁satan	-10.2285
▁bound	-10.2285
▁filthy	-10.2286
▁recommend	-10.2286
▁chew	-10.2286
▁aside	-10.2286
▁connection	-10.2287
▁barnes	-10.2287
▁stones	-10.2287
▁julien	-10.2287
▁committed	-10.2288
▁religion	-10.2288
▁exit	-10.229
▁fried	-10.229
▁stepped	-10.2291
▁praise	-10.2291
▁whinnying	-10.2291
▁bout	-10.2291
▁ego	-10.2291
▁protection	-10.2292
▁mmmm	-10.2293
▁sang	-10.2294
▁anger	-10.2295
▁discovered	-10.2296
▁deny	-10.2299
▁nailed	-10.2299
▁properly	-10.23
▁toss	-10.23
▁sand	-10.2302
▁connected	-10.2302
▁tone	-10.2303
▁lend	-10.2309
▁fond	-10.2309
▁wig	-10.2309
▁farm	-10.231
▁suffered	-10.231
▁seth	-10.2315
▁released	-10.2319
▁propose	-10.232
▁geez	-10.2321
▁highest	-10.2325
▁survived	-10.2325
▁eve	-10.2327
▁claimed	-10.2329
▁latest	-10.2329
▁ham	-10.233
▁visa	-10.2331
▁beard	-10.2336
▁safer	-10.2336
▁wasted	-10.2342
ong	-10.2356
▁carl	-10.2361
▁freaking	-10.2362
chi	-10.2366
▁hah	-10.2368
▁parking	-10.237
▁bon	-10.2377
▁christy	-10.2381
▁flu	-10.2384
▁noon	-10.2396
▁sports	-10.2397
▁becom	-10.2405
▁engineer	-10.241
ero	-10.2415
▁ab	-10.2417
line	-10.242
cal	-10.2421
▁snakes	-10.2446
▁prisoners	-10.2447
king	-10.2447
▁burned	-10.2456
▁sponsors	-10.247
▁leading	-10.2487
▁psycho	-10.2487
▁para	-10.2509
▁touched	-10.2511
▁formula	-10.2517
▁throwing	-10.2529
▁burns	-10.2536
▁counting	-10.2551
▁tip	-10.2553
ists	-10.2555
▁shoulders	-10.2579
▁om	-10.2596
▁jo	-10.26
▁pages	-10.2625
io	-10.2679
▁reminds	-10.27
▁positions	-10.2724
▁artists	-10.2727
▁classic	-10.2731
▁mel	-10.2738
▁shove	-10.2744
▁nicely	-10.2754
▁tal	-10.2779
▁bullets	-10.2796
ney	-10.2813
▁fare	-10.282
▁teachers	-10.2837
▁sp	-10.2838
▁lit	-10.2838
▁cups	-10.2847
ok	-10.2854
▁systems	-10.2859
▁stink	-10.2866
▁rabbit	-10.2879
▁feminist	-10.2879
▁owner	-10.2881
▁chick	-10.2886
▁han	-10.2889
▁luca	-10.2906
ell	-10.2923
ors	-10.2927
▁hip	-10.2931
ti	-10.2935
▁prayer	-10.2941
▁prisoner	-10.2946
otech	-10.2964
▁com	-10.2966
▁shel	-10.297
▁loser	-10.2975
▁cheat	-10.2978
▁sneak	-10.2982
▁interrupt	-10.2993
▁ali	-10.3
▁thin	-10.3
▁mock	-10.3007
▁delay	-10.3024
▁desert	-10.3025
of	-10.303
ball	-10.3033
jar	-10.3035
▁silent	-10.3036
▁michel	-10.3039
▁particular	-10.304
▁wolf	-10.3043
▁genius	-10.3044
▁groom	-10.3045
▁betray	-10.3048
▁religio	-10.3048
▁express	-10.3051
▁scholar	-10.3052
▁monk	-10.3052
▁combat	-10.3052
▁ezekiel	-10.3052
▁ambulance	-10.3052
▁anthony	-10.3052
▁average	-10.3052
▁beatrice	-10.3052
▁benefit	-10.3052
▁charlene	-10.3052
▁dammit	-10.3052
▁dominique	-10.3052
▁elevator	-10.3052
▁favour	-10.3052
▁flesh	-10.3052
▁florida	-10.3052
▁kennedy	-10.3052
▁melvin	-10.3052
▁monitor	-10.3052
▁proceed	-10.3052
▁purple	-10.3052
▁sikh	-10.3052
▁twelve	-10.3052
▁whimpers	-10.3052
▁eleven	-10.3052
▁mathalon	-10.3052
▁previous	-10.3052
▁snarl	-10.3052
▁kelly	-10.3052
▁facing	-10.3052
▁leather	-10.3053
▁apology	-10.3053
▁dinesh	-10.3053
▁freezing	-10.3053
▁kenny	-10.3053
▁potential	-10.3053
▁internet	-10.3053
▁scout	-10.3053
▁accent	-10.3053
▁permission	-10.3053
▁sweden	-10.3053
▁consent	-10.3053
▁slice	-10.3053
▁erma	-10.3053
▁downtown	-10.3053
▁diana	-10.3053
▁kidnapped	-10.3053
▁charity	-10.3053
▁garage	-10.3053
▁assistant	-10.3053
▁chili	-10.3053
▁mutation	-10.3053
▁imperial	-10.3053
▁beggar	-10.3053
▁amount	-10.3053
▁knight	-10.3053
▁destiny	-10.3053
▁static	-10.3054
▁jewish	-10.3054
▁bucket	-10.3054
▁gunfire	-10.3054
▁budget	-10.3054
▁clapping	-10.3054
▁magneto	-10.3055
▁cafe	-10.3055
▁gunny	-10.3055
▁robbed	-10.3055
▁leeman	-10.3055
▁cries	-10.3055
▁poop	-10.3056
▁bedroom	-10.3056
▁ease	-10.3057
▁flies	-10.3057
▁glaive	-10.3059
▁roberto	-10.306
▁friendship	-10.3062
▁july	-10.3062
▁swing	-10.3063
▁betty	-10.3064
▁compared	-10.3066
▁bugger	-10.3066
▁hopefully	-10.3066
▁bucky	-10.3067
▁disappointed	-10.3067
▁particularly	-10.3067
▁timing	-10.3068
▁pager	-10.307
▁stopping	-10.3071
▁rot	-10.3073
▁fourth	-10.3074
▁sonia	-10.3083
▁surely	-10.3084
▁bare	-10.3089
▁under	-10.309
▁dresses	-10.309
▁separated	-10.3092
▁hired	-10.3096
▁suffering	-10.3099
▁lifetime	-10.3102
▁shutter	-10.3104
▁heal	-10.3106
▁sweater	-10.3107
▁mentioned	-10.3132
▁pit	-10.3138
▁knocked	-10.3156
for	-10.3161
▁belly	-10.3161
▁documents	-10.3163
▁mall	-10.3164
▁shelly	-10.3169
▁sentence	-10.3184
▁wally	-10.3195
si	-10.3205
▁protecting	-10.3208
lf	-10.322
▁fed	-10.3227
lic	-10.3227
▁standards	-10.3241
▁assume	-10.3255
▁cheers	-10.3256
▁su	-10.3259
▁beeps	-10.3268
▁anchor	-10.3269
▁woods	-10.3302
he	-10.3319
ho	-10.3322
▁trusted	-10.3333
▁sons	-10.3339
ice	-10.3351
▁appears	-10.336
val	-10.3394
▁jobs	-10.3405
▁ye	-10.3414
▁cart	-10.3414
▁oooh	-10.3468
▁rivers	-10.3491
ily	-10.3562
▁val	-10.3576
▁windows	-10.3584
▁knee	-10.3589
▁teams	-10.3614
ys	-10.3617
▁costs	-10.3624
head	-10.3647
▁tr	-10.3649
▁patients	-10.365
▁yell	-10.3659
you	-10.3683
▁runs	-10.3686
▁walks	-10.3688
▁effect	-10.3689
▁photograph	-10.3694
▁flood	-10.3704
▁ep	-10.3708
▁skip	-10.3708
▁text	-10.3712
▁craft	-10.3713
▁limit	-10.3719
▁falls	-10.3719
▁value	-10.3719
▁billion	-10.3719
▁nerve	-10.3722
▁customer	-10.3724
▁brake	-10.3725
▁cookie	-10.3725
▁quarter	-10.3729
▁guardian	-10.3733
▁caster	-10.3737
▁evils	-10.3744
▁med	-10.3746
we	-10.3748
▁bars	-10.3759
▁cr	-10.3765
ming	-10.3777
▁dol	-10.3826
▁screech	-10.3837
more	-10.3842
▁mini	-10.3842
▁tells	-10.3844
ca	-10.3845
board	-10.3851
▁swallow	-10.3857
▁grant	-10.3858
▁twist	-10.3859
▁confirm	-10.3859
▁idiots	-10.3866
▁compromise	-10.3868
▁exact	-10.3872
▁current	-10.3874
▁julie	-10.3876
▁speech	-10.3876
▁olive	-10.3881
▁louis	-10.3883
▁despi	-10.3883
▁republic	-10.3884
▁hugh	-10.3884
▁mmhm	-10.3884
▁down	-10.3884
▁scum	-10.3885
▁gorgon	-10.3885
▁greg	-10.3886
▁unique	-10.3886
▁anxious	-10.3886
▁behalf	-10.3886
▁campaign	-10.3886
▁cuch	-10.3886
▁democracy	-10.3886
▁elaheh	-10.3886
▁eleanor	-10.3886
▁embassy	-10.3886
▁horror	-10.3886
▁hossein	-10.3886
▁houston	-10.3886
▁integrity	-10.3886
▁jennifer	-10.3886
▁noctis	-10.3886
▁phase	-10.3886
▁prevent	-10.3886
▁smiling	-10.3886
▁spectacular	-10.3886
▁sperm	-10.3886
▁symbol	-10.3886
▁tenebrae	-10.3886
▁tetsuzo	-10.3886
▁texas	-10.3886
▁theft	-10.3886
▁tshirt	-10.3886
▁ultimate	-10.3886
▁unhappy	-10.3886
▁velvet	-10.3886
▁vernon	-10.3886
▁vodka	-10.3886
▁climb	-10.3886
▁dinosaur	-10.3886
▁illegal	-10.3886
▁judgment	-10.3886
▁motherfuck	-10.3886
▁oclock	-10.3886
▁otis	-10.3886
▁technique	-10.3886
▁confident	-10.3886
▁wagon	-10.3886
▁tissue	-10.3886
▁ibs	-10.3886
▁choking	-10.3886
▁skirt	-10.3886
▁sontee	-10.3886
▁jazz	-10.3886
▁graveyard	-10.3886
▁violent	-10.3886
▁gooz	-10.3886
▁burke	-10.3886
▁online	-10.3886
▁nickname	-10.3886
▁survival	-10.3886
▁hound	-10.3886
▁gabe	-10.3886
▁scholarship	-10.3886
▁assault	-10.3886
▁wax	-10.3886
▁sentimental	-10.3886
▁authority	-10.3887
▁baseball	-10.3887
▁pike	-10.3887
▁daily	-10.3887
▁burt	-10.3887
▁rice	-10.3887
▁blast	-10.3887
▁iran	-10.3887
▁noble	-10.3887
▁boze	-10.3888
▁miller	-10.3888
▁dougie	-10.3888
▁forth	-10.3889
▁rally	-10.3889
▁creating	-10.3889
▁data	-10.3889
▁frightened	-10.389
per	-10.389
▁preacher	-10.389
▁heh	-10.3891
▁alley	-10.3891
▁thatd	-10.3891
▁academy	-10.3892
▁journalist	-10.3892
ra	-10.3892
▁skies	-10.3892
▁gee	-10.3893
▁grass	-10.3893
▁sec	-10.3894
▁circumstances	-10.3894
▁traditional	-10.3894
▁plain	-10.3894
▁blaring	-10.3895
▁boil	-10.3896
▁production	-10.3896
▁spoken	-10.3896
▁tax	-10.3896
▁background	-10.3898
▁shaken	-10.3901
▁uhoh	-10.3902
▁pounding	-10.3903
▁pickup	-10.3903
back	-10.3905
▁matches	-10.3905
▁designed	-10.3906
▁engaged	-10.3908
▁ramp	-10.3909
▁paps	-10.3909
ville	-10.391
▁morales	-10.3913
▁beaten	-10.3914
▁former	-10.3914
▁yah	-10.3914
▁nasty	-10.3914
▁delivery	-10.3918
▁convinced	-10.3919
▁thrown	-10.392
▁si	-10.3928
▁settled	-10.3928
▁skills	-10.3935
▁wing	-10.3938
▁manners	-10.395
▁baron	-10.3958
▁considered	-10.3973
▁profit	-10.3974
▁helpful	-10.3974
▁pieces	-10.3974
▁quietly	-10.3977
▁pe	-10.3979
▁ministers	-10.3988
▁finest	-10.399
▁fore	-10.4001
▁rocks	-10.4002
▁slave	-10.4005
▁fairy	-10.4008
▁cocks	-10.4015
▁feeding	-10.4016
▁lo	-10.4033
▁can	-10.4038
▁needle	-10.4052
▁jam	-10.4052
▁armed	-10.4056
all	-10.4063
▁image	-10.4085
▁traveling	-10.4085
▁officers	-10.4095
▁actors	-10.4108
ner	-10.4109
▁peters	-10.4119
▁understanding	-10.412
▁fund	-10.4121
ern	-10.4122
▁mars	-10.4137
▁wheels	-10.4149
ec	-10.4155
▁dreamed	-10.4167
▁signs	-10.4172
▁chickens	-10.4183
▁melt	-10.4188
▁souls	-10.4192
ight	-10.4211
og	-10.422
▁sirens	-10.4221
▁sued	-10.4223
▁drown	-10.4238
▁guests	-10.4249
▁pr	-10.4271
de	-10.4275
▁sales	-10.4275
▁wa	-10.428
▁voices	-10.4289
ette	-10.4293
ber	-10.43
▁magazines	-10.4307
▁touching	-10.431
▁stands	-10.4312
▁pilots	-10.4321
▁am	-10.4357
bo	-10.4381
▁gen	-10.4387
sk	-10.4387
▁fu	-10.4419
wa	-10.4425
▁suits	-10.4436
▁jokes	-10.4495
▁nations	-10.4499
▁gr	-10.4499
▁slim	-10.4504
da	-10.4506
▁ln	-10.4512
▁cases	-10.4543
▁di	-10.455
▁gala	-10.4553
▁services	-10.4554
▁ani	-10.4575
ring	-10.4609
▁kinds	-10.4612
▁barlow	-10.4612
▁client	-10.4612
▁suitcase	-10.4613
▁andrew	-10.4615
▁script	-10.4619
▁riot	-10.4627
▁uniform	-10.463
ak	-10.463
▁comrade	-10.4631
▁trailer	-10.4633
▁african	-10.4637
▁clinic	-10.4638
▁nut	-10.4642
▁toe	-10.4644
▁visitor	-10.4646
▁at	-10.4652
▁groups	-10.4671
▁husbands	-10.468
▁defend	-10.468
utti	-10.4685
▁daddys	-10.4694
ward	-10.4705
▁moves	-10.471
▁approach	-10.4715
▁attend	-10.4716
▁zoo	-10.4717
▁spoil	-10.4719
aged	-10.472
▁thinkin	-10.4733
oh	-10.4745
▁pour	-10.4753
▁witness	-10.4757
▁resign	-10.4765
▁alert	-10.4765
▁drip	-10.4765
▁abandon	-10.4768
▁delight	-10.4768
field	-10.4769
helm	-10.4769
pack	-10.477
▁po	-10.4772
▁moral	-10.4775
▁distant	-10.4779
▁rare	-10.4781
▁faithful	-10.4782
▁recent	-10.4782
orna	-10.4782
▁absolute	-10.4783
▁incredibl	-10.4784
▁virgin	-10.4786
▁complex	-10.4788
▁experiment	-10.4789
▁manchuria	-10.479
▁chuck	-10.479
▁gentle	-10.4792
▁rebel	-10.4792
▁painful	-10.4793
▁dull	-10.4793
▁livin	-10.4793
▁darlin	-10.4793
▁terror	-10.4794
▁jew	-10.4794
▁jung	-10.4794
beat	-10.4795
▁appeal	-10.4795
▁attempt	-10.4795
▁slaughter	-10.4795
▁aggressive	-10.4795
▁alabama	-10.4795
▁aloha	-10.4795
▁aslo	-10.4795
▁awkward	-10.4795
▁broadcast	-10.4795
▁creek	-10.4795
▁dahl	-10.4795
▁eugene	-10.4795
▁eventually	-10.4795
▁evolution	-10.4795
▁exclaiming	-10.4795
▁giggling	-10.4795
▁independence	-10.4795
▁katrina	-10.4795
▁kevin	-10.4795
▁libertus	-10.4795
▁lloyd	-10.4795
▁massacre	-10.4795
▁mastronardi	-10.4795
▁mexican	-10.4795
▁minnesota	-10.4795
▁mistletoe	-10.4795
▁morris	-10.4795
▁negative	-10.4795
▁nephew	-10.4795
▁parviz	-10.4795
▁promotion	-10.4795
▁prophecy	-10.4795
▁proposal	-10.4795
▁pulse	-10.4795
▁retard	-10.4795
▁seriozha	-10.4795
▁sorrow	-10.4795
▁struck	-10.4795
▁supreme	-10.4795
▁terribly	-10.4795
▁thief	-10.4795
▁throughout	-10.4795
▁toilet	-10.4795
▁tournament	-10.4795
▁tunnel	-10.4795
▁wicked	-10.4795
▁yonggary	-10.4795
▁doyle	-10.4795
▁keiying	-10.4795
▁sipsey	-10.4795
▁superior	-10.4795
▁tolerate	-10.4795
▁jingle	-10.4795
▁lomu	-10.4795
▁sensitive	-10.4795
▁sabela	-10.4795
▁taafe	-10.4795
▁jacob	-10.4795
▁susan	-10.4795
▁costume	-10.4795
▁jones	-10.4795
▁committee	-10.4795
▁sheila	-10.4795
▁whyd	-10.4795
▁marcia	-10.4795
▁smith	-10.4795
▁wives	-10.4795
▁underground	-10.4795
▁appetite	-10.4795
▁eddie	-10.4795
▁mumbling	-10.4795
▁priest	-10.4795
▁addition	-10.4795
▁duties	-10.4795
▁tully	-10.4795
▁onlv	-10.4795
▁marvelous	-10.4795
▁banned	-10.4795
▁inspiration	-10.4795
▁skating	-10.4795
▁ashley	-10.4795
▁sharing	-10.4795
▁poking	-10.4795
▁honour	-10.4795
▁waking	-10.4795
▁ravenwood	-10.4795
▁entertainment	-10.4795
▁influence	-10.4795
▁joanna	-10.4795
▁gatlin	-10.4795
▁uncomfortable	-10.4795
▁levinson	-10.4795
▁skipper	-10.4796
▁visual	-10.4796
▁broadway	-10.4796
▁june	-10.4796
▁classified	-10.4796
▁studies	-10.4796
▁western	-10.4796
▁observation	-10.4796
▁worn	-10.4796
▁canada	-10.4796
▁plastic	-10.4796
▁spiritual	-10.4796
▁portrait	-10.4796
▁switzerland	-10.4796
▁burden	-10.4796
▁punishment	-10.4796
▁conference	-10.4796
▁wednesday	-10.4796
▁chaos	-10.4796
▁documentary	-10.4796
▁balan	-10.4796
▁genetic	-10.4796
▁assignment	-10.4796
▁version	-10.4797
▁heartbreak	-10.4797
▁practically	-10.4797
▁hungary	-10.4798
▁aboard	-10.4798
▁extraordinary	-10.4798
▁darn	-10.4798
▁series	-10.4798
▁wrapped	-10.4799
▁required	-10.4799
▁couch	-10.4799
▁civilian	-10.48
▁amma	-10.4801
▁yong	-10.4801
▁mud	-10.4801
▁injured	-10.4801
▁shining	-10.4802
▁assigned	-10.4803
▁inner	-10.4803
▁vampires	-10.4804
▁cave	-10.4804
▁assuming	-10.4806
▁gray	-10.4807
▁iii	-10.4807
▁mum	-10.4808
▁provided	-10.4808
▁wander	-10.4809
▁coal	-10.481
▁constantly	-10.4813
▁forty	-10.4814
▁sincere	-10.4814
▁leak	-10.4814
▁bury	-10.4816
▁momma	-10.4816
▁waters	-10.4822
▁lawn	-10.4822
▁cryin	-10.4823
▁fighter	-10.4825
▁mustnt	-10.4828
lin	-10.4828
▁suggested	-10.4835
▁goodlooking	-10.4837
▁whoops	-10.4838
▁bond	-10.4843
▁closest	-10.4848
▁chester	-10.4849
▁beta	-10.4852
▁torture	-10.4852
▁bald	-10.4853
▁homeless	-10.4853
▁elli	-10.4856
▁gotcha	-10.4861
▁pastor	-10.4861
▁hop	-10.4868
der	-10.4875
▁communications	-10.4882
▁wd	-10.4882
▁site	-10.4884
▁sticks	-10.4886
▁winds	-10.4894
▁focused	-10.4896
wept	-10.4903
▁asses	-10.4904
▁accepted	-10.4906
▁ob	-10.4907
ap	-10.4908
▁choices	-10.4908
▁rely	-10.492
▁packing	-10.492
▁crossed	-10.4922
ions	-10.4926
▁socks	-10.4927
fish	-10.4929
▁chances	-10.4935
▁frankly	-10.4939
▁citizens	-10.4942
▁screwing	-10.4953
▁ding	-10.4956
▁discipline	-10.4962
▁ace	-10.4963
istic	-10.4967
▁yells	-10.4975
▁tricks	-10.4975
▁shots	-10.4978
▁shal	-10.4985
▁boxing	-10.4994
▁kissed	-10.4997
ute	-10.4997
ever	-10.5007
▁lower	-10.5018
▁hopes	-10.5024
▁ga	-10.5029
▁recorded	-10.5031
▁feelin	-10.504
▁messing	-10.5042
▁sob	-10.5048
▁affairs	-10.5053
▁sticking	-10.508
iz	-10.5091
▁tests	-10.5094
cha	-10.5113
▁rode	-10.512
▁issues	-10.5131
▁sins	-10.5137
▁behave	-10.5137
ated	-10.5147
▁bra	-10.5154
▁angels	-10.5163
▁commercials	-10.5183
ade	-10.5198
▁nap	-10.5204
▁accounts	-10.5211
ay	-10.5212
▁tracks	-10.5215
▁rate	-10.5229
ii	-10.5232
▁pens	-10.5236
zel	-10.5245
▁fart	-10.5259
med	-10.5261
▁zero	-10.5272
▁bb	-10.5273
▁hells	-10.5308
can	-10.5316
urban	-10.5329
ina	-10.5331
ick	-10.5335
▁opened	-10.5341
▁odds	-10.5342
▁finals	-10.5345
▁sings	-10.5348
▁stuffed	-10.5348
▁mu	-10.5357
ka	-10.537
▁relationships	-10.5402
▁begins	-10.5403
▁drives	-10.5413
by	-10.545
▁carol	-10.5461
ium	-10.5496
▁phones	-10.55
▁lap	-10.5508
use	-10.552
▁checking	-10.5523
▁codes	-10.5531
▁gifts	-10.5533
tes	-10.5536
▁impression	-10.5551
gi	-10.5562
▁spirits	-10.5563
▁wins	-10.5565
▁vin	-10.5571
▁prior	-10.5605
▁ge	-10.5605
▁detail	-10.5607
▁arrive	-10.5608
▁finds	-10.5613
▁model	-10.5614
▁stiff	-10.5614
▁rhythm	-10.5615
▁keg	-10.5621
▁clay	-10.5622
▁terrorist	-10.5626
▁muscle	-10.5628
▁cabin	-10.5628
▁explosive	-10.5629
▁sha	-10.5629
▁warrior	-10.563
▁daniel	-10.563
▁breast	-10.5631
▁citizen	-10.5634
▁sport	-10.5636
▁toward	-10.5638
▁yard	-10.5644
▁button	-10.5647
▁twin	-10.5657
ham	-10.5659
▁debt	-10.566
▁fe	-10.566
▁es	-10.566
eat	-10.5662
▁greeting	-10.5662
▁seats	-10.5684
▁slap	-10.5701
off	-10.5706
▁bags	-10.5711
▁connect	-10.5712
▁scratch	-10.5738
▁contain	-10.574
▁boot	-10.5744
▁brush	-10.5748
ko	-10.575
▁react	-10.5762
▁complain	-10.5771
▁den	-10.5774
free	-10.5774
▁choke	-10.5775
▁suspicious	-10.5777
▁objective	-10.5778
▁unlike	-10.578
▁emotional	-10.5783
▁scru	-10.5787
▁medic	-10.5787
▁wate	-10.5792
▁slight	-10.5794
▁compassion	-10.5794
▁motor	-10.5794
▁squad	-10.5795
▁measure	-10.5795
▁alpha	-10.5795
▁belgium	-10.5795
▁bleep	-10.5795
▁bonjour	-10.5795
▁cheerleading	-10.5795
▁crisis	-10.5795
▁custody	-10.5795
▁daemon	-10.5795
▁debbie	-10.5795
▁dovlatov	-10.5795
▁downhill	-10.5795
▁draisen	-10.5795
▁dunkirk	-10.5795
▁erudite	-10.5795
▁explanation	-10.5795
▁fernand	-10.5795
▁gnarnia	-10.5795
▁gypsy	-10.5795
▁industry	-10.5795
▁investigation	-10.5795
▁jeffrey	-10.5795
▁lincoln	-10.5795
▁manhattan	-10.5795
▁moira	-10.5795
▁niece	-10.5795
▁orchestra	-10.5795
▁pellegrini	-10.5795
▁pendant	-10.5795
▁pomegranate	-10.5795
▁reverend	-10.5795
▁roxeanne	-10.5795
▁satisfaction	-10.5795
▁schwow	-10.5795
▁serving	-10.5795
▁smooth	-10.5795
▁squeak	-10.5795
▁struggle	-10.5795
▁tehran	-10.5795
▁theory	-10.5795
▁towanda	-10.5795
▁traitor	-10.5795
▁ulric	-10.5795
▁worries	-10.5795
▁awav	-10.5795
▁feihung	-10.5795
▁terrified	-10.5795
▁viva	-10.5795
▁hunch	-10.5795
▁protest	-10.5795
▁spurlock	-10.5795
▁cried	-10.5795
▁lazy	-10.5795
▁mollie	-10.5795
▁tennis	-10.5795
▁typical	-10.5795
▁battery	-10.5795
▁vital	-10.5795
▁atkins	-10.5795
▁october	-10.5795
▁whimpering	-10.5795
▁eternity	-10.5795
▁draft	-10.5795
▁barrel	-10.5795
▁tribe	-10.5795
▁puppy	-10.5795
▁bruce	-10.5795
▁imagination	-10.5795
▁woke	-10.5795
▁pammie	-10.5795
▁clue	-10.5795
▁rotten	-10.5795
▁nicholson	-10.5795
▁pillow	-10.5795
▁dispatch	-10.5795
▁blank	-10.5795
▁kasi	-10.5795
▁skinny	-10.5796
▁parade	-10.5796
▁construction	-10.5796
▁hobbs	-10.5796
▁unknown	-10.5796
what	-10.5796
▁snapping	-10.5796
▁festival	-10.5796
▁sunset	-10.5796
▁margo	-10.5796
▁incompetent	-10.5796
▁bonnie	-10.5796
▁singular	-10.5796
▁estate	-10.5796
▁scumbag	-10.5796
▁muttering	-10.5796
▁electricity	-10.5796
▁brennan	-10.5796
▁virginia	-10.5796
▁paperwork	-10.5796
▁abortion	-10.5796
▁steak	-10.5796
▁pork	-10.5796
▁marita	-10.5796
▁elite	-10.5796
▁brick	-10.5797
▁throne	-10.5797
▁donne	-10.5797
▁cue	-10.5797
▁crackling	-10.5797
▁whatll	-10.5797
▁polish	-10.5797
▁aircraft	-10.5797
▁fascinating	-10.5797
▁anthem	-10.5797
▁foolish	-10.5798
▁drank	-10.5798
▁occurred	-10.5798
▁haircut	-10.5798
▁raw	-10.5798
▁castle	-10.5798
▁slightest	-10.5798
▁kansas	-10.5798
▁solo	-10.5799
▁childish	-10.5799
▁voiceover	-10.5799
▁rankin	-10.5799
▁apply	-10.58
▁tomar	-10.5801
▁countess	-10.5801
▁aww	-10.5801
▁supper	-10.5801
▁identity	-10.5802
▁proof	-10.5802
▁moaning	-10.5802
▁quitting	-10.5802
▁showcase	-10.5802
▁deeds	-10.5803
▁technically	-10.5803
▁tina	-10.5803
▁fulfill	-10.5804
▁lyrics	-10.5805
▁stammers	-10.5805
▁personality	-10.5805
▁emiss	-10.5806
▁agreement	-10.5807
▁andrey	-10.5807
▁exhausted	-10.5811
▁hunger	-10.5811
▁peaceful	-10.5812
▁stable	-10.5813
▁punished	-10.5814
▁crowe	-10.5815
▁lion	-10.5818
▁trumps	-10.5821
▁shatters	-10.5821
▁factor	-10.5824
▁films	-10.5824
▁buildings	-10.5824
▁boxes	-10.5828
▁brit	-10.583
▁net	-10.5838
▁status	-10.5839
▁tube	-10.5841
▁delivered	-10.5846
▁undress	-10.5854
▁cuba	-10.5856
▁vulgar	-10.5859
▁lemon	-10.5861
▁pun	-10.5864
▁cracked	-10.5867
▁sucking	-10.587
▁sighing	-10.5871
▁escaped	-10.5872
▁charming	-10.5875
▁farmers	-10.5876
▁smokey	-10.5882
▁smaller	-10.5883
▁entering	-10.5883
▁spying	-10.5883
ley	-10.5885
▁bend	-10.5888
▁listened	-10.5893
▁remembered	-10.5905
▁katie	-10.5907
▁kidnappers	-10.5907
▁fort	-10.5911
▁las	-10.5912
▁tracking	-10.5918
▁treating	-10.592
▁degrees	-10.5925
▁rub	-10.5934
▁heels	-10.5942
▁worthy	-10.5953
▁greetings	-10.5959
▁considering	-10.5961
▁bee	-10.5962
▁tend	-10.5969
▁nan	-10.5975
▁cock	-10.5986
▁op	-10.6002
ai	-10.6007
▁chicks	-10.6012
▁hum	-10.6016
ef	-10.6017
▁easter	-10.602
▁sis	-10.6022
rry	-10.6024
▁losers	-10.6034
▁fighters	-10.6036
▁landed	-10.6037
▁actual	-10.6061
▁cleaned	-10.6062
▁hairy	-10.6073
hy	-10.6084
▁joining	-10.6096
▁lawyers	-10.6099
▁traditions	-10.6099
▁aliens	-10.6109
ron	-10.6123
▁hips	-10.613
▁worker	-10.6131
ot	-10.6144
our	-10.6147
▁computers	-10.6151
▁rev	-10.6153
▁somethings	-10.6166
▁hills	-10.6169
▁concerns	-10.6171
uck	-10.6178
▁signing	-10.6184
▁content	-10.6185
▁min	-10.619
▁strangers	-10.6196
▁thoughts	-10.6196
oro	-10.6201
▁holes	-10.6202
▁deserves	-10.6205
▁surprises	-10.6208
▁gar	-10.6212
▁booked	-10.6216
▁rec	-10.6232
▁lords	-10.6232
▁kar	-10.6236
▁suckers	-10.6261
ard	-10.6279
▁bottles	-10.6293
▁gunshots	-10.6293
▁hy	-10.6299
▁monsters	-10.6328
▁lad	-10.6331
▁hates	-10.6351
▁blues	-10.6375
▁er	-10.6376
new	-10.6395
▁pleased	-10.6414
▁lessons	-10.6421
▁tra	-10.6422
▁mayer	-10.6456
▁bay	-10.6459
ker	-10.6467
▁arrange	-10.6472
▁dealing	-10.6474
▁ki	-10.6479
▁ju	-10.6499
▁vic	-10.6524
ev	-10.6552
▁psych	-10.6556
ndo	-10.6557
▁chop	-10.6571
▁je	-10.6613
▁guide	-10.6621
▁mc	-10.6643
▁tryin	-10.6672
▁she	-10.6674
uf	-10.6685
▁targets	-10.669
▁squeal	-10.6703
ach	-10.6716
▁tables	-10.6722
▁instrument	-10.6723
▁turkey	-10.6723
▁burst	-10.6724
▁slip	-10.6725
▁pepper	-10.6727
▁pigs	-10.6728
▁option	-10.6731
▁application	-10.6731
▁sweep	-10.6731
▁corporation	-10.6736
▁creature	-10.6739
▁wrist	-10.6739
▁producer	-10.6742
▁string	-10.6743
▁document	-10.6744
▁contestant	-10.6745
▁sock	-10.6746
▁egg	-10.6749
▁heel	-10.6755
roll	-10.6767
▁commando	-10.6768
▁painter	-10.6774
ery	-10.6776
▁buck	-10.6783
▁hid	-10.6795
▁suite	-10.6803
▁dam	-10.6803
ten	-10.6807
scar	-10.6812
▁hom	-10.6827
▁gu	-10.6828
▁spots	-10.6832
ik	-10.6832
▁embarrass	-10.6837
▁speaker	-10.6839
▁ai	-10.6842
▁fools	-10.6853
▁resist	-10.6858
▁thump	-10.6861
▁dip	-10.6868
▁design	-10.6869
een	-10.687
▁detect	-10.6871
▁stretch	-10.6877
▁reasons	-10.6878
▁disgrace	-10.6881
skull	-10.6884
▁associate	-10.6885
child	-10.6885
▁rattle	-10.6885
▁approve	-10.6886
right	-10.6887
▁include	-10.6887
▁core	-10.6891
▁host	-10.6894
▁trail	-10.6894
▁spin	-10.6897
▁branch	-10.6899
▁regis	-10.6905
▁specific	-10.6905
▁basic	-10.6905
▁permit	-10.6905
▁remove	-10.6905
▁holmes	-10.6906
▁architect	-10.6906
▁shrink	-10.6906
▁telepath	-10.6906
▁adorable	-10.6906
▁afterwards	-10.6906
▁airplane	-10.6906
▁alyssa	-10.6906
▁ansarafina	-10.6906
▁applaud	-10.6906
▁ardent	-10.6906
▁arrogant	-10.6906
▁australia	-10.6906
▁bertie	-10.6906
▁cadillac	-10.6906
▁celebration	-10.6906
▁central	-10.6906
▁champagne	-10.6906
▁chilton	-10.6906
▁consort	-10.6906
▁convoy	-10.6906
▁credibility	-10.6906
▁cuz	-10.6906
▁darwin	-10.6906
▁deliberately	-10.6906
▁eagle	-10.6906
▁easily	-10.6906
▁elbow	-10.6906
▁equikrom	-10.6906
▁furniture	-10.6906
▁happier	-10.6906
▁hollister	-10.6906
▁honeymoon	-10.6906
▁jonathan	-10.6906
▁kenneth	-10.6906
▁loretta	-10.6906
▁merchandise	-10.6906
▁morphine	-10.6906
▁mysterious	-10.6906
▁omega	-10.6906
▁onao	-10.6906
▁opposite	-10.6906
▁overseas	-10.6906
▁passengers	-10.6906
▁pattern	-10.6906
▁pienaar	-10.6906
▁priscilla	-10.6906
▁procedure	-10.6906
▁reconsider	-10.6906
▁relief	-10.6906
▁robbie	-10.6906
▁sheep	-10.6906
▁siegfried	-10.6906
▁similar	-10.6906
▁socalled	-10.6906
▁staff	-10.6906
▁taylor	-10.6906
▁therapy	-10.6906
▁tremendous	-10.6906
▁whirring	-10.6906
▁worid	-10.6906
▁amusing	-10.6906
▁canyon	-10.6906
▁impact	-10.6906
▁pleasant	-10.6906
▁arena	-10.6906
▁mehran	-10.6906
▁gilbert	-10.6906
▁quality	-10.6906
▁transmission	-10.6906
▁mehdi	-10.6906
▁microphone	-10.6906
▁breach	-10.6906
▁hazard	-10.6906
▁stanley	-10.6906
▁email	-10.6906
▁columbia	-10.6906
▁lonnie	-10.6906
▁frost	-10.6906
▁beware	-10.6906
▁kabul	-10.6906
▁michael	-10.6906
▁bodine	-10.6906
▁orange	-10.6906
▁snack	-10.6906
▁digging	-10.6906
▁whiskey	-10.6906
▁francisco	-10.6906
▁oops	-10.6906
▁sheetz	-10.6906
▁proposition	-10.6906
▁retirement	-10.6906
▁dreadful	-10.6906
▁panties	-10.6906
▁coke	-10.6907
▁institution	-10.6907
▁primary	-10.6907
▁google	-10.6907
▁habit	-10.6907
▁soda	-10.6907
▁doorbell	-10.6907
▁gloomy	-10.6907
▁invitation	-10.6907
▁deposit	-10.6907
▁patience	-10.6907
▁pilates	-10.6907
▁hobby	-10.6908
▁holland	-10.6908
▁disaster	-10.6908
▁existence	-10.6908
▁pj	-10.6908
▁priority	-10.6908
▁jeb	-10.6908
▁juliana	-10.6908
▁babysitter	-10.6908
▁alike	-10.6908
▁childhood	-10.6908
▁choir	-10.6908
▁stav	-10.6908
▁dose	-10.6908
▁drunkard	-10.6908
▁fox	-10.6909
▁reaction	-10.6909
▁beam	-10.6909
▁glove	-10.6909
▁dax	-10.6909
▁tapping	-10.6909
▁weakness	-10.6909
▁churchill	-10.6909
▁sack	-10.691
▁glow	-10.691
▁rudy	-10.691
▁ability	-10.691
▁fantasy	-10.691
▁graduate	-10.691
▁rooty	-10.691
▁phony	-10.691
▁stall	-10.691
▁cathy	-10.6911
▁sanders	-10.6911
▁belcher	-10.6911
▁scan	-10.6911
▁nathan	-10.6911
▁pushkin	-10.6912
▁footage	-10.6912
▁sew	-10.6912
▁precisely	-10.6912
▁goose	-10.6912
▁burger	-10.6913
▁reno	-10.6913
▁misery	-10.6913
▁governor	-10.6913
▁confession	-10.6914
▁lame	-10.6915
▁certificate	-10.6916
▁hush	-10.6918
▁desire	-10.6919
▁haw	-10.6919
▁creepy	-10.6922
▁wolfe	-10.6922
▁captured	-10.6923
▁ahem	-10.6923
▁dragon	-10.6924
▁sincerely	-10.6924
▁boers	-10.6925
▁fin	-10.6926
▁rejected	-10.6927
▁earned	-10.6928
▁leads	-10.6929
▁setting	-10.6929
▁grosser	-10.6931
four	-10.6936
▁blaze	-10.6938
▁advanced	-10.6938
▁spoiled	-10.6942
▁packer	-10.6942
▁thrilling	-10.6944
▁photographer	-10.6945
▁deserted	-10.6947
▁volunteered	-10.695
▁heroes	-10.6951
▁interfere	-10.6951
maker	-10.6951
▁blessed	-10.6953
▁negotiations	-10.6955
▁effective	-10.6955
▁fry	-10.6955
ille	-10.6955
▁adopted	-10.6956
▁hood	-10.696
▁emperors	-10.696
▁burr	-10.6962
▁mid	-10.6969
▁hooked	-10.6969
cut	-10.6972
▁kindness	-10.6977
▁tons	-10.6978
▁gram	-10.698
▁warned	-10.698
▁suggesting	-10.6985
▁introduced	-10.6985
▁busted	-10.6986
▁canceled	-10.6986
▁churches	-10.6987
▁fee	-10.6989
▁howdy	-10.6989
▁cling	-10.699
▁pancakes	-10.6993
▁emotions	-10.6994
▁corpse	-10.6994
▁japs	-10.6996
▁banging	-10.6996
▁sniffs	-10.6998
▁belonged	-10.701
▁pete	-10.7013
▁formed	-10.7014
▁painted	-10.7026
▁encourage	-10.7028
▁mamamama	-10.7028
▁foundation	-10.7031
▁stairs	-10.7032
▁jumped	-10.7043
▁musical	-10.7063
tz	-10.7063
▁contestants	-10.7072
▁now	-10.7089
▁safely	-10.709
aries	-10.7091
▁buttons	-10.7093
▁siri	-10.7101
run	-10.7101
ating	-10.7106
▁dings	-10.7107
wasting	-10.7108
▁jumping	-10.7115
▁gi	-10.7116
▁pushed	-10.7125
ky	-10.713
▁brakes	-10.713
▁shown	-10.7145
ug	-10.7153
▁crossing	-10.716
▁gene	-10.7165
▁blocks	-10.7171
rian	-10.7173
els	-10.7178
▁bounce	-10.7179
▁recording	-10.718
▁highly	-10.7189
▁cigarettes	-10.7189
▁clowns	-10.7189
▁conditions	-10.719
▁sides	-10.72
▁presume	-10.7202
▁ph	-10.7213
▁yay	-10.7221
▁meetings	-10.7222
cr	-10.7241
▁threats	-10.7248
ipped	-10.7264
if	-10.7265
▁nicer	-10.7268
mm	-10.7268
ual	-10.7271
▁tin	-10.7281
▁kit	-10.7282
▁plates	-10.7288
▁praying	-10.7301
▁kissing	-10.7303
▁events	-10.7304
▁demands	-10.7307
▁salt	-10.7314
rous	-10.7327
ro	-10.7346
ill	-10.7348
▁players	-10.735
ire	-10.7371
las	-10.7376
▁humans	-10.738
▁deadly	-10.7391
▁ghosts	-10.7407
▁cos	-10.7426
pho	-10.743
▁cared	-10.7446
mer	-10.7448
ants	-10.7459
▁marrying	-10.746
▁del	-10.7465
▁mal	-10.7467
ut	-10.7475
▁mac	-10.7481
ric	-10.7482
▁whistles	-10.7487
ches	-10.7487
▁mouths	-10.75
old	-10.7504
▁ads	-10.7506
orn	-10.7517
▁dreaming	-10.7517
tical	-10.752
▁zeros	-10.7525
▁queens	-10.7527
▁we	-10.757
▁bv	-10.7582
▁kindly	-10.7616
▁fears	-10.7634
▁dealer	-10.7643
aye	-10.765
rubber	-10.7671
▁mat	-10.7692
▁barn	-10.7721
▁mountains	-10.7728
▁placed	-10.7753
▁cons	-10.7765
▁hu	-10.7772
ip	-10.7773
ye	-10.7782
▁tug	-10.7788
▁charges	-10.7791
nda	-10.7798
▁wanting	-10.7802
▁athe	-10.7805
▁hurting	-10.782
hu	-10.7821
▁era	-10.7824
▁ladys	-10.7828
▁stays	-10.7833
tor	-10.7835
looking	-10.7836
▁ripe	-10.7841
table	-10.7844
ms	-10.7845
ded	-10.7861
▁fits	-10.7869
kin	-10.7869
eral	-10.787
▁log	-10.7872
tar	-10.7891
oi	-10.79
▁ending	-10.7902
▁inter	-10.7912
▁laws	-10.7913
▁shave	-10.7915
ct	-10.7921
▁victor	-10.7927
▁engines	-10.7936
▁mamas	-10.7947
boy	-10.795
▁click	-10.7958
▁object	-10.796
▁equal	-10.7969
▁villa	-10.7973
▁carpet	-10.7973
▁aisle	-10.7973
▁smack	-10.7973
▁william	-10.7973
▁possession	-10.7974
▁commitment	-10.7975
▁moron	-10.7976
▁sonnet	-10.7981
▁neigh	-10.7981
▁instinct	-10.7986
▁tower	-10.7986
job	-10.7987
▁flame	-10.7989
▁chang	-10.7989
▁await	-10.799
▁shark	-10.7991
▁dagger	-10.7991
▁tool	-10.7991
▁orphan	-10.7992
▁degree	-10.7994
▁statement	-10.7995
▁slam	-10.7998
▁eli	-10.8023
ni	-10.8031
▁anti	-10.8036
▁ap	-10.8076
▁poison	-10.8078
ump	-10.8084
▁tale	-10.809
ened	-10.8101
▁multi	-10.8102
▁brid	-10.8106
▁reckon	-10.8107
▁nod	-10.8108
ix	-10.8111
▁skateboard	-10.8111
▁thrill	-10.8113
▁caus	-10.8114
▁affect	-10.8119
▁prepar	-10.8119
wood	-10.8122
▁deploy	-10.8125
ig	-10.8125
▁inform	-10.8127
▁rider	-10.8127
▁ko	-10.8132
▁rach	-10.8134
yearold	-10.8134
▁restore	-10.8136
▁capture	-10.8137
▁provide	-10.8137
▁irre	-10.8139
▁buff	-10.814
▁concept	-10.814
▁scrap	-10.8143
life	-10.8144
▁definite	-10.8146
▁sandwich	-10.8149
lop	-10.815
▁tux	-10.815
▁flatter	-10.815
▁fiction	-10.815
▁leni	-10.8151
▁depart	-10.8153
▁goddam	-10.8154
▁germ	-10.8154
▁electric	-10.8154
▁consult	-10.8155
▁brenn	-10.8155
▁johan	-10.8155
▁fright	-10.8156
▁adolescent	-10.8156
▁almighty	-10.8156
▁bandaid	-10.8156
▁budapest	-10.8156
▁butler	-10.8156
▁catholic	-10.8156
▁celebrating	-10.8156
▁celebrity	-10.8156
▁chocki	-10.8156
▁clifton	-10.8156
▁creative	-10.8156
▁dessert	-10.8156
▁destruction	-10.8156
▁dubai	-10.8156
▁duchannes	-10.8156
▁electronic	-10.8156
▁encounter	-10.8156
▁entitled	-10.8156
▁formavale	-10.8156
▁fossil	-10.8156
▁garbage	-10.8156
▁gesture	-10.8156
▁ghaffarian	-10.8156
▁grief	-10.8156
▁halberstrom	-10.8156
▁hokusai	-10.8156
▁independent	-10.8156
▁infinite	-10.8156
▁intelligent	-10.8156
▁isolation	-10.8156
▁karoli	-10.8156
▁kilowog	-10.8156
▁liquor	-10.8156
▁lonesome	-10.8156
▁loschek	-10.8156
▁luggage	-10.8156
▁magnificent	-10.8156
▁masembuko	-10.8156
▁messenger	-10.8156
▁mirhossein	-10.8156
▁narrow	-10.8156
▁negro	-10.8156
▁obsession	-10.8156
▁philadelphia	-10.8156
▁pithons	-10.8156
▁possibility	-10.8156
▁principle	-10.8156
▁puppies	-10.8156
▁purse	-10.8156
▁reckless	-10.8156
▁rehearse	-10.8156
▁roosevelt	-10.8156
▁santantonio	-10.8156
▁science	-10.8156
▁sophisticated	-10.8156
▁soporific	-10.8156
▁starbucks	-10.8156
▁submarine	-10.8156
▁surprising	-10.8156
▁swift	-10.8156
▁talbot	-10.8156
▁telegram	-10.8156
▁tennessee	-10.8156
▁territory	-10.8156
▁tokyo	-10.8156
▁tramp	-10.8156
▁vetsera	-10.8156
▁wardrobe	-10.8156
▁wiggle	-10.8156
▁bozo	-10.8156
▁cosmos	-10.8156
▁exclaims	-10.8156
▁install	-10.8156
▁italy	-10.8156
▁marcus	-10.8156
▁maud	-10.8156
▁satnin	-10.8156
▁shore	-10.8156
▁intel	-10.8156
▁kebab	-10.8156
▁norway	-10.8156
▁perimeter	-10.8156
▁storage	-10.8156
▁cognac	-10.8156
▁flirt	-10.8156
▁memories	-10.8156
▁temperature	-10.8156
▁chemotherap	-10.8156
▁ellen	-10.8156
▁introduction	-10.8156
▁marilyn	-10.8156
▁austria	-10.8156
▁intercept	-10.8156
▁transport	-10.8156
▁whining	-10.8156
▁trigger	-10.8156
▁casualties	-10.8156
▁courtesy	-10.8156
▁grammie	-10.8156
▁league	-10.8156
▁resume	-10.8156
▁mummy	-10.8156
▁shakily	-10.8156
▁reception	-10.8156
▁briefcase	-10.8156
▁splash	-10.8156
▁arizona	-10.8156
▁beaver	-10.8156
▁refrigerator	-10.8156
▁crucial	-10.8156
▁esther	-10.8156
▁conduct	-10.8156
▁shiro	-10.8156
▁flashlight	-10.8156
▁fiji	-10.8156
▁grenade	-10.8156
▁orson	-10.8156
▁boundaries	-10.8156
▁recall	-10.8156
▁broad	-10.8157
▁trunk	-10.8157
▁blade	-10.8157
▁rapid	-10.8157
▁plot	-10.8157
▁nancy	-10.8157
▁operator	-10.8157
▁jody	-10.8157
▁bizarre	-10.8157
▁nazi	-10.8157
▁soap	-10.8157
▁cattle	-10.8157
▁obey	-10.8157
▁interior	-10.8157
▁colorado	-10.8157
▁keon	-10.8157
▁seventeen	-10.8157
▁junior	-10.8157
▁nora	-10.8157
▁fame	-10.8157
▁cannon	-10.8157
▁ridley	-10.8157
▁sauce	-10.8157
▁cootie	-10.8157
▁passionate	-10.8157
▁upside	-10.8157
▁twentyfive	-10.8158
▁adventure	-10.8158
▁appropriate	-10.8158
▁essential	-10.8158
▁litter	-10.8158
▁mask	-10.8158
▁nym	-10.8158
▁spray	-10.8158
▁pumpkin	-10.8158
▁patriot	-10.8158
▁gennie	-10.8158
▁irish	-10.8158
▁sawyer	-10.8158
▁cities	-10.8158
▁vincent	-10.8158
▁cleaver	-10.8158
▁merrick	-10.8158
▁structure	-10.8158
▁adam	-10.8159
▁psychic	-10.8159
▁naked	-10.8159
▁rug	-10.8159
titude	-10.8159
ology	-10.8159
▁nickel	-10.816
▁yum	-10.816
▁gang	-10.816
▁quote	-10.816
▁stake	-10.816
▁ashes	-10.816
▁franklin	-10.816
▁comment	-10.816
▁surgeon	-10.816
▁lightning	-10.816
▁ninety	-10.816
▁dwell	-10.8161
▁lucian	-10.8161
▁sector	-10.8161
▁thick	-10.8162
▁carried	-10.8162
▁shelter	-10.8162
▁christianity	-10.8162
▁standby	-10.8162
▁grabbed	-10.8162
▁jose	-10.8162
▁humor	-10.8163
▁ordinary	-10.8163
▁kess	-10.8164
▁dug	-10.8164
▁drill	-10.8164
▁tries	-10.8165
▁injury	-10.8165
▁promoted	-10.8165
▁chairman	-10.8165
▁iv	-10.8165
▁shattering	-10.8165
▁sacred	-10.8165
▁coverage	-10.8166
▁swell	-10.8167
▁scrum	-10.8167
▁walsh	-10.8168
▁scoop	-10.8168
▁related	-10.8171
▁fearless	-10.8171
▁nail	-10.8173
▁louise	-10.8174
▁booby	-10.8175
▁seal	-10.8176
▁howling	-10.8177
▁haunting	-10.8177
▁included	-10.8177
drew	-10.8178
▁currently	-10.8178
inous	-10.8179
▁taller	-10.8179
▁cameras	-10.818
▁pole	-10.8181
▁viper	-10.8182
▁clothing	-10.8182
▁demon	-10.8184
▁ken	-10.8184
▁qu	-10.8184
▁fold	-10.8184
▁teenager	-10.8184
▁informed	-10.8185
▁complaint	-10.8186
▁generate	-10.8186
▁threatening	-10.8188
▁homework	-10.8188
▁dorris	-10.819
▁tryouts	-10.819
▁roots	-10.819
▁supplies	-10.819
▁wiped	-10.8193
▁badass	-10.8193
▁delighted	-10.8195
▁witch	-10.8196
uda	-10.8196
▁sputter	-10.8201
▁sharply	-10.8202
▁presentation	-10.8202
ets	-10.8204
▁useful	-10.8205
▁anne	-10.8205
▁squealing	-10.8206
▁pep	-10.8208
▁scored	-10.8209
▁naturally	-10.8209
▁shocked	-10.821
corn	-10.8211
▁drones	-10.8212
▁damaged	-10.8213
▁produce	-10.8215
▁begg	-10.8215
▁tender	-10.8216
▁dominate	-10.8217
▁cage	-10.8217
▁manda	-10.822
▁drowning	-10.822
▁impressed	-10.822
ler	-10.8221
tory	-10.8223
▁sole	-10.8223
▁ward	-10.8227
▁dolly	-10.8228
▁cheating	-10.8229
▁loudly	-10.8233
▁passes	-10.8241
▁bea	-10.8243
▁normally	-10.8257
▁failing	-10.8258
▁vomit	-10.8259
▁divorced	-10.8261
▁bully	-10.8265
▁waiter	-10.8266
▁quicker	-10.8268
▁meantime	-10.8269
ver	-10.8273
▁drums	-10.8278
▁performing	-10.8288
▁persons	-10.8291
▁washing	-10.8298
▁authoriz	-10.8298
▁blessings	-10.83
▁cher	-10.8302
▁clouds	-10.8302
▁manure	-10.8312
▁salad	-10.8313
▁reported	-10.8317
▁bunk	-10.8322
bi	-10.8322
▁orphans	-10.8323
▁blacks	-10.8328
▁cooking	-10.8331
▁posted	-10.8334
▁tracker	-10.8342
▁chops	-10.8346
▁destroying	-10.8349
uerto	-10.8351
▁bothering	-10.8364
▁twins	-10.8367
▁breasts	-10.8367
ado	-10.8369
▁victoria	-10.8369
tion	-10.8372
▁seated	-10.8372
▁bees	-10.838
▁comrades	-10.839
▁killer	-10.8394
▁bos	-10.8395
▁golf	-10.8398
ung	-10.8402
▁boarding	-10.8405
▁nerves	-10.8412
▁photographs	-10.8412
▁effects	-10.8413
▁for	-10.8416
▁abs	-10.8421
▁stinks	-10.8434
▁wo	-10.8447
ned	-10.8462
▁dom	-10.8474
▁covers	-10.8484
ram	-10.8497
▁chin	-10.8532
▁tanks	-10.8547
▁fla	-10.8565
▁cowards	-10.857
▁raining	-10.8576
upper	-10.8579
▁sleepy	-10.8585
▁enjoying	-10.8591
egged	-10.8593
▁spits	-10.8594
▁factions	-10.8596
▁tan	-10.8602
ab	-10.8604
▁counts	-10.8607
art	-10.8627
▁devils	-10.866
▁rome	-10.8668
▁cleaning	-10.8699
enne	-10.8702
▁channels	-10.8706
di	-10.8741
▁bump	-10.8745
▁trainer	-10.8748
ning	-10.8749
▁shirts	-10.8752
▁neighbors	-10.8775
▁photos	-10.8775
▁sip	-10.8789
▁cord	-10.8789
hi	-10.8796
iest	-10.8816
▁remains	-10.882
▁officials	-10.8866
iff	-10.8867
gie	-10.8879
rt	-10.8881
▁che	-10.8892
▁is	-10.8901
▁homes	-10.891
▁ze	-10.8912
▁ski	-10.8925
ki	-10.8927
▁realise	-10.8932
▁of	-10.8933
this	-10.8953
▁bun	-10.8961
▁vers	-10.8969
▁amy	-10.9036
▁conversations	-10.9052
▁missy	-10.9104
ny	-10.911
nal	-10.9118
▁gl	-10.9171
▁tab	-10.9181
who	-10.9185
▁flights	-10.9188
▁areas	-10.9189
▁rod	-10.9192
▁here	-10.9206
▁tire	-10.9217
its	-10.9238
▁ev	-10.9241
▁pers	-10.9259
ological	-10.9269
term	-10.9271
her	-10.9283
▁lea	-10.9289
tin	-10.9292
▁returns	-10.9333
▁achieve	-10.9337
rated	-10.9341
pin	-10.9352
▁tent	-10.9352
rted	-10.9358
▁arch	-10.9362
ks	-10.9363
▁tro	-10.9365
▁zu	-10.9365
▁owes	-10.9375
▁z	-10.9388
▁link	-10.9388
▁offices	-10.9388
erris	-10.9397
▁conscience	-10.9401
▁puppet	-10.9401
▁banks	-10.9402
▁slipper	-10.9402
▁intention	-10.9404
▁session	-10.941
▁relative	-10.941
▁eboat	-10.941
▁shipment	-10.9417
▁colleague	-10.9417
▁ram	-10.9418
▁sailor	-10.942
▁election	-10.942
▁stair	-10.9422
▁cloud	-10.9422
▁kidnapper	-10.9423
▁pipe	-10.9423
▁author	-10.9424
▁rank	-10.9424
int	-10.9426
▁marine	-10.9428
▁tapes	-10.9431
idge	-10.9437
▁pill	-10.9439
▁stores	-10.9445
▁missile	-10.9448
▁murderer	-10.9451
keeper	-10.9455
▁din	-10.9466
ped	-10.9474
▁pale	-10.9484
▁brief	-10.9488
▁scale	-10.9494
con	-10.95
▁disappoint	-10.9507
▁punish	-10.9507
▁crawl	-10.9508
night	-10.9513
▁blessing	-10.9518
▁escap	-10.952
▁everyones	-10.9526
▁rum	-10.9528
▁rail	-10.9535
▁discover	-10.9536
▁tag	-10.9537
▁handed	-10.954
school	-10.9547
▁hack	-10.9547
hood	-10.955
▁drain	-10.955
▁distract	-10.9551
light	-10.9552
▁corrupt	-10.9553
load	-10.9553
case	-10.9554
▁greet	-10.9555
▁extend	-10.9555
▁dismiss	-10.9556
▁intend	-10.9556
▁toure	-10.9556
▁reject	-10.9558
mark	-10.9561
temporary	-10.9561
▁stain	-10.9561
piece	-10.9561
▁rescue	-10.9563
▁creep	-10.9563
▁guilt	-10.9564
▁humiliate	-10.9564
ory	-10.9564
▁yayayaya	-10.9566
▁baker	-10.9566
▁slay	-10.9566
▁glob	-10.9567
▁sail	-10.9567
bury	-10.9568
▁nurs	-10.9568
▁boob	-10.9569
▁eternal	-10.9569
door	-10.957
▁locate	-10.9571
▁numb	-10.9574
▁loan	-10.9576
▁und	-10.9577
▁convention	-10.9579
▁lili	-10.9581
oughs	-10.9582
ox	-10.9582
▁admire	-10.9582
▁iris	-10.9583
▁junk	-10.9584
▁loyal	-10.9584
▁forbid	-10.9584
▁thud	-10.9585
▁analysis	-10.9585
▁argument	-10.9585
▁basij	-10.9585
▁bellefontaine	-10.9585
▁bernard	-10.9585
▁buttanda	-10.9585
▁caviar	-10.9585
▁challenging	-10.9585
▁chamberlain	-10.9585
▁cocktail	-10.9585
▁column	-10.9585
▁compliment	-10.9585
▁contrary	-10.9585
▁delicate	-10.9585
▁depth	-10.9585
▁descend	-10.9585
▁dizzy	-10.9585
▁esteban	-10.9585
▁excitement	-10.9585
▁exploit	-10.9585
▁exposure	-10.9585
▁garsik	-10.9585
▁guidance	-10.9585
▁happily	-10.9585
▁ingredient	-10.9585
▁initial	-10.9585
▁instagram	-10.9585
▁jeep	-10.9585
▁jetblue	-10.9585
▁lambert	-10.9585
▁lifestyle	-10.9585
▁lrwin	-10.9585
▁lunafreya	-10.9585
▁maintenance	-10.9585
▁mcbride	-10.9585
▁mccawley	-10.9585
▁millionaire	-10.9585
▁ministry	-10.9585
▁montgomery	-10.9585
▁naughty	-10.9585
▁orleans	-10.9585
▁parliament	-10.9585
▁petunia	-10.9585
▁ranakar	-10.9585
▁regime	-10.9585
▁rubbish	-10.9585
▁sarafine	-10.9585
▁scientist	-10.9585
▁septimus	-10.9585
▁sermon	-10.9585
▁slug	-10.9585
▁surveillance	-10.9585
▁thanksgiving	-10.9585
▁tragedy	-10.9585
▁tragic	-10.9585
▁transaction	-10.9585
▁transmitter	-10.9585
▁treasury	-10.9585
▁tumnus	-10.9585
▁unusual	-10.9585
▁vasquez	-10.9585
▁whickering	-10.9585
▁widow	-10.9585
▁worship	-10.9585
▁xavier	-10.9585
▁yankees	-10.9585
▁yoohoo	-10.9585
▁absurd	-10.9585
▁adapt	-10.9585
▁giddy	-10.9585
▁motel	-10.9585
▁nipples	-10.9585
▁shook	-10.9585
▁tientsin	-10.9585
▁unexpected	-10.9585
▁autograph	-10.9585
▁deprav	-10.9585
▁harvey	-10.9585
▁invisib	-10.9585
▁jelly	-10.9585
▁sausage	-10.9585
▁trembl	-10.9585
▁whatsoever	-10.9585
▁wretch	-10.9585
▁buddies	-10.9585
▁gossip	-10.9585
▁protocol	-10.9585
▁squeeze	-10.9585
▁islam	-10.9585
▁minimum	-10.9585
▁sebastian	-10.9585
▁ceiling	-10.9585
▁dynamite	-10.9585
▁kidnapping	-10.9585
▁phyllis	-10.9585
▁ditch	-10.9585
▁jessie	-10.9585
▁bolshevik	-10.9585
▁disarm	-10.9585
▁broomball	-10.9585
▁slipped	-10.9585
▁gallery	-10.9585
▁harold	-10.9585
▁operating	-10.9585
▁veteran	-10.9585
▁whitney	-10.9585
▁finley	-10.9585
▁steam	-10.9585
▁vivian	-10.9585
▁clink	-10.9585
▁profile	-10.9585
▁liberty	-10.9585
▁growls	-10.9585
▁entrance	-10.9585
▁polite	-10.9585
▁infection	-10.9585
▁remarkable	-10.9585
▁preview	-10.9585
▁snuck	-10.9585
▁chika	-10.9585
▁decode	-10.9585
▁abroad	-10.9585
▁randle	-10.9585
▁visualize	-10.9585
▁hustle	-10.9586
▁temple	-10.9586
▁supple	-10.9586
▁rising	-10.9586
▁puzzle	-10.9586
▁countries	-10.9586
▁jury	-10.9586
chard	-10.9586
▁raul	-10.9586
▁amuse	-10.9586
▁frustrated	-10.9586
▁chasing	-10.9586
▁loot	-10.9586
▁canine	-10.9586
▁hatred	-10.9586
▁headache	-10.9586
▁cherry	-10.9586
▁mutters	-10.9586
▁stroke	-10.9586
▁valuable	-10.9586
▁vietnam	-10.9586
▁divine	-10.9587
▁vibe	-10.9587
▁after	-10.9587
▁reverse	-10.9587
▁percy	-10.9587
▁fog	-10.9587
▁massive	-10.9588
▁adore	-10.9588
▁jocko	-10.9588
▁perfume	-10.9588
▁beef	-10.9588
▁eighteen	-10.9588
▁cardboard	-10.9588
▁towel	-10.9588
▁ovaries	-10.9588
▁leap	-10.9588
▁merrell	-10.9588
▁shipping	-10.9588
▁foil	-10.9588
▁betcha	-10.9588
▁straighten	-10.9589
▁ferry	-10.9589
▁revolutionary	-10.9589
▁announcement	-10.9589
▁hallway	-10.9589
▁debate	-10.9589
▁highlight	-10.9589
▁pinch	-10.9589
▁woof	-10.9589
▁stunt	-10.959
▁popping	-10.959
▁indulge	-10.959
▁conquer	-10.959
▁shiny	-10.959
▁potatoes	-10.959
▁brace	-10.959
▁sore	-10.959
▁suggestion	-10.9591
▁duper	-10.9591
▁recon	-10.9591
▁alongside	-10.9591
▁kitten	-10.9591
▁satisfied	-10.9591
▁metro	-10.9592
▁badge	-10.9592
▁heartbeat	-10.9592
▁penny	-10.9593
▁panic	-10.9593
▁balance	-10.9593
▁meanwhile	-10.9594
▁medication	-10.9594
▁comin	-10.9594
▁roth	-10.9595
▁clearance	-10.9595
▁dna	-10.9595
▁hats	-10.9595
▁trips	-10.9596
▁screeches	-10.9596
▁everyday	-10.9598
▁objection	-10.9598
▁oysters	-10.9599
▁fitting	-10.9599
▁linda	-10.96
▁determined	-10.96
▁dishes	-10.9602
▁equally	-10.9602
▁printing	-10.9602
▁bass	-10.9602
▁earn	-10.9603
▁dock	-10.9603
▁copies	-10.9603
yayayaya	-10.9603
▁patch	-10.9603
▁muffin	-10.9605
▁uncha	-10.9605
▁disturbed	-10.9606
▁emotionally	-10.9607
▁levin	-10.9607
▁valve	-10.9607
▁controlled	-10.9609
day	-10.9611
▁inspired	-10.9612
▁rear	-10.9613
▁skull	-10.9614
▁perish	-10.9614
▁vouch	-10.9615
dad	-10.9615
▁gathering	-10.9615
▁removed	-10.9616
▁slayer	-10.9619
▁paula	-10.9619
▁dies	-10.9621
▁endure	-10.9621
▁edo	-10.9621
▁hitch	-10.9622
▁dk	-10.9622
▁clanging	-10.9622
▁mistaken	-10.9625
▁dial	-10.9626
obbs	-10.9626
▁expectations	-10.9628
▁cable	-10.9629
alre	-10.9631
▁whens	-10.9637
▁wallet	-10.9637
▁gir	-10.9637
▁manual	-10.9639
▁ink	-10.9641
▁increase	-10.9642
▁homeland	-10.9642
▁holdup	-10.9643
▁smiles	-10.9646
▁ribs	-10.9649
▁requires	-10.965
▁sponsored	-10.9652
af	-10.9653
▁defeated	-10.9654
▁replaced	-10.9655
▁curl	-10.9657
▁tee	-10.9657
▁awarded	-10.966
▁suspected	-10.9661
▁dearest	-10.9664
▁kisses	-10.9664
▁wounded	-10.9666
▁cents	-10.9675
▁circles	-10.9675
▁diapers	-10.9676
mate	-10.9676
▁avoiding	-10.9683
ou	-10.9683
▁dec	-10.9686
▁recognized	-10.9686
▁rockin	-10.9694
▁rd	-10.9699
▁gain	-10.97
made	-10.9701
hen	-10.9701
▁drawer	-10.9702
▁jewels	-10.9703
▁joint	-10.9708
▁inn	-10.9713
▁cooked	-10.9715
▁packed	-10.9717
▁swan	-10.9719
stein	-10.972
▁existed	-10.9723
▁pissing	-10.9724
▁shrieks	-10.9727
▁skaters	-10.9732
▁musicians	-10.9735
rate	-10.9735
▁swor	-10.9737
▁bothered	-10.9739
▁wishes	-10.9739
▁squ	-10.9744
▁searching	-10.9745
▁wayne	-10.9745
▁elections	-10.9753
▁vis	-10.9756
gging	-10.9757
▁oneil	-10.9758
▁diet	-10.9773
▁sharks	-10.9779
▁tools	-10.9779
▁daggers	-10.9779
▁rape	-10.9785
▁shortly	-10.9787
rome	-10.9788
▁marker	-10.979
face	-10.9796
▁explore	-10.9797
berg	-10.9799
▁handled	-10.9807
▁cone	-10.9808
▁returned	-10.9811
▁strings	-10.9811
▁clubs	-10.9812
▁camping	-10.982
▁rem	-10.9827
▁any	-10.983
▁daniels	-10.9831
▁warriors	-10.9831
ez	-10.9834
▁cease	-10.9834
▁hoop	-10.9842
▁rais	-10.9845
▁aha	-10.9847
ters	-10.9855
▁uniforms	-10.9857
▁bl	-10.9861
▁presented	-10.9874
▁illness	-10.9879
▁customers	-10.9885
▁jackie	-10.9888
▁mole	-10.9889
▁optimist	-10.9897
▁pops	-10.9897
▁don	-10.9898
nce	-10.9902
ex	-10.991
▁posting	-10.9911
▁wondered	-10.9911
▁acted	-10.9917
▁supporting	-10.9925
▁glue	-10.9928
▁eva	-10.9932
▁servants	-10.9935
▁adults	-10.9936
bar	-10.9939
▁throws	-10.9941
▁fixing	-10.9944
▁tested	-10.9951
▁dozens	-10.9962
▁arts	-10.9974
ments	-10.9978
▁cra	-10.9979
▁getty	-10.9987
▁directions	-10.9989
▁har	-11.0007
▁chum	-11.0027
▁greene	-11.003
▁gut	-11.0038
uh	-11.0038
▁owed	-11.0038
▁workers	-11.0039
zed	-11.0044
▁refuses	-11.0044
▁humbl	-11.0046
▁strain	-11.0056
▁not	-11.0059
▁dada	-11.0059
▁wounds	-11.0068
▁improv	-11.0074
▁answered	-11.0078
▁on	-11.0085
▁endless	-11.0097
▁cleared	-11.0101
▁eats	-11.0118
▁chor	-11.0123
usion	-11.0139
▁asks	-11.014
▁sources	-11.0147
iki	-11.016
ridge	-11.0168
▁appointments	-11.0174
lt	-11.0183
▁danced	-11.0189
▁blu	-11.02
▁anyou	-11.0206
ison	-11.0209
▁adri	-11.0213
▁lovers	-11.0224
▁facts	-11.0228
ito	-11.0231
ke	-11.0244
▁prof	-11.0247
▁cousins	-11.0254
▁jerks	-11.0254
▁albums	-11.0254
▁leaders	-11.0255
▁shuts	-11.0269
▁types	-11.028
ins	-11.0288
▁kr	-11.0291
▁dia	-11.0298
▁disc	-11.0311
▁nurses	-11.0314
▁kin	-11.032
unt	-11.0324
▁princes	-11.0326
▁ahhh	-11.0339
▁caused	-11.0349
▁opinions	-11.0361
oa	-11.0363
ians	-11.0364
▁strikes	-11.0364
logical	-11.0367
▁gates	-11.0389
red	-11.0398
▁clearing	-11.0403
ify	-11.0429
master	-11.0433
top	-11.0437
▁cooper	-11.044
▁leo	-11.0449
▁forms	-11.0449
bra	-11.0453
▁kim	-11.0461
▁rage	-11.0475
feit	-11.0476
rutti	-11.0479
eight	-11.048
om	-11.0487
▁pageants	-11.0498
abin	-11.0523
▁tellin	-11.0533
▁sayin	-11.0552
cu	-11.0572
ole	-11.0583
onic	-11.0585
▁fortunate	-11.0594
rat	-11.0612
▁actions	-11.0637
ji	-11.0638
▁verse	-11.0649
▁grav	-11.0678
ei	-11.0682
▁prop	-11.0689
▁tar	-11.0691
▁improve	-11.0701
▁tonys	-11.0715
lessly	-11.0726
▁grip	-11.0734
q	-11.0734
▁tops	-11.0765
ack	-11.0784
▁chat	-11.0813
▁dost	-11.0824
▁gra	-11.0835
han	-11.0837
ookie	-11.0841
▁promises	-11.0843
hop	-11.0845
▁accidents	-11.0878
j	-11.0881
▁choos	-11.0881
▁ch	-11.0898
ake	-11.0918
ign	-11.0921
▁reads	-11.0929
▁courts	-11.0931
▁ideal	-11.0939
ampoo	-11.0943
atory	-11.0954
rus	-11.0967
▁rap	-11.0969
▁pad	-11.097
spective	-11.0979
▁chooses	-11.0994
▁critic	-11.1004
▁maze	-11.1028
▁af	-11.1039
▁sharpe	-11.1056
▁exception	-11.1062
▁editor	-11.1068
▁matthew	-11.1068
▁privilege	-11.1068
▁radical	-11.1069
that	-11.107
▁gear	-11.1071
▁distraction	-11.1071
▁chart	-11.1073
▁spivey	-11.1076
▁organ	-11.1078
▁dur	-11.1079
▁belief	-11.1081
▁divergent	-11.1081
▁kidney	-11.1081
▁airline	-11.1085
▁shriek	-11.1086
▁fianc	-11.1087
▁bean	-11.1088
▁willie	-11.1088
▁communication	-11.109
sible	-11.1091
▁q	-11.1095
▁folk	-11.1096
▁pea	-11.1108
pa	-11.1112
▁skater	-11.1119
▁thirteen	-11.1125
pped	-11.1128
real	-11.113
▁mag	-11.1132
▁musician	-11.1133
▁rang	-11.1134
▁drum	-11.1139
so	-11.1146
sty	-11.1148
take	-11.1153
▁web	-11.1172
▁entertain	-11.1177
▁sol	-11.1179
away	-11.1186
▁threaten	-11.1189
bby	-11.1194
place	-11.1198
▁comfort	-11.1202
▁ron	-11.1205
▁bleed	-11.1209
▁clang	-11.1211
▁breed	-11.1215
▁ana	-11.1216
▁triumph	-11.1217
▁roast	-11.1217
▁august	-11.1218
▁exhaust	-11.1222
▁powder	-11.1223
▁fashion	-11.1224
know	-11.1224
book	-11.1225
▁poke	-11.1226
▁karenin	-11.1229
count	-11.1229
walk	-11.1229
▁wealth	-11.1229
▁whit	-11.123
plant	-11.123
american	-11.123
guine	-11.123
mouth	-11.123
▁operate	-11.123
▁plea	-11.1231
▁cheek	-11.1231
minute	-11.1232
▁negotiate	-11.1232
water	-11.1232
▁receive	-11.1233
▁wit	-11.1234
▁andre	-11.1235
jan	-11.1236
dog	-11.1237
▁technical	-11.1237
▁inspire	-11.1237
▁trace	-11.1238
tech	-11.1238
▁blond	-11.124
▁advertise	-11.124
ja	-11.1241
▁butch	-11.1241
handed	-11.1242
▁colla	-11.1243
▁potato	-11.1245
▁dodge	-11.1245
▁asia	-11.1245
▁adjust	-11.1246
pit	-11.1247
▁marshal	-11.1247
▁harris	-11.1248
▁runnin	-11.1249
▁corn	-11.1249
▁casual	-11.125
▁trans	-11.125
mperial	-11.125
▁entr	-11.1251
▁amateur	-11.1251
▁fifth	-11.1251
▁alcazar	-11.1251
▁arguing	-11.1251
▁baggage	-11.1251
▁behavior	-11.1251
▁benjamin	-11.1251
▁beverage	-11.1251
▁bradshaw	-11.1251
▁brooklyn	-11.1251
▁bruton	-11.1251
▁bypass	-11.1251
▁caleb	-11.1251
▁calendar	-11.1251
▁canvas	-11.1251
▁casbah	-11.1251
▁cautious	-11.1251
▁cholesterol	-11.1251
▁cindy	-11.1251
▁cleanliness	-11.1251
▁clutter	-11.1251
▁coincidence	-11.1251
▁consequence	-11.1251
▁conservative	-11.1251
▁continent	-11.1251
▁council	-11.1251
▁diplomat	-11.1251
▁dmitrich	-11.1251
▁dolores	-11.1251
▁doolittle	-11.1251
▁eeew	-11.1251
▁enhance	-11.1251
▁evacuation	-11.1251
▁extension	-11.1251
▁fierce	-11.1251
▁frequenc	-11.1251
▁furthermore	-11.1251
▁gavin	-11.1251
▁ghetto	-11.1251
▁greenbrier	-11.1251
▁gurls	-11.1251
▁handcuff	-11.1251
▁harvest	-11.1251
▁henderson	-11.1251
▁hukilau	-11.1251
▁humiliating	-11.1251
▁hutterite	-11.1251
▁identification	-11.1251
▁identify	-11.1251
▁immortal	-11.1251
▁irene	-11.1251
▁janitor	-11.1251
▁jonah	-11.1251
▁jorgito	-11.1251
▁kangaroo	-11.1251
▁knives	-11.1251
▁kuznetsov	-11.1251
▁kyeta	-11.1251
▁laundry	-11.1251
▁levade	-11.1251
▁liquid	-11.1251
▁louisiana	-11.1251
▁malibu	-11.1251
▁margaret	-11.1251
▁mcnabb	-11.1251
▁mehrtens	-11.1251
▁mercedes	-11.1251
▁monica	-11.1251
▁murdock	-11.1251
▁mutual	-11.1251
▁namaste	-11.1251
▁nevada	-11.1251
▁obedient	-11.1251
▁odessa	-11.1251
▁oldfashioned	-11.1251
▁parachute	-11.1251
▁password	-11.1251
▁pelna	-11.1251
▁pentagon	-11.1251
▁philosophy	-11.1251
▁picasso	-11.1251
▁powwow	-11.1251
▁qualities	-11.1251
▁ralph	-11.1251
▁razor	-11.1251
▁reinhardt	-11.1251
▁reschedule	-11.1251
▁resort	-11.1251
▁resources	-11.1251
▁reuben	-11.1251
▁revival	-11.1251
▁rewrite	-11.1251
▁ritual	-11.1251
▁riviera	-11.1251
▁scattered	-11.1251
▁seoul	-11.1251
▁shakespeare	-11.1251
▁shanghai	-11.1251
▁sholom	-11.1251
▁skeleton	-11.1251
▁slut	-11.1251
▁soccer	-11.1251
▁sofoyan	-11.1251
▁solution	-11.1251
▁squash	-11.1251
▁stereo	-11.1251
▁stiva	-11.1251
▁struthers	-11.1251
▁stubborn	-11.1251
▁syrup	-11.1251
▁terranova	-11.1251
▁tyranny	-11.1251
▁ultrasound	-11.1251
▁universal	-11.1251
▁unnatural	-11.1251
▁uptight	-11.1251
▁violin	-11.1251
▁volume	-11.1251
▁wiggling	-11.1251
▁yaahh	-11.1251
▁beverly	-11.1251
▁chateau	-11.1251
▁cripple	-11.1251
▁intimate	-11.1251
▁juror	-11.1251
▁kaylee	-11.1251
▁opportunities	-11.1251
▁savior	-11.1251
▁tyler	-11.1251
▁vessel	-11.1251
▁craving	-11.1251
▁dragged	-11.1251
▁infrared	-11.1251
▁leslie	-11.1251
▁pussy	-11.1251
▁tummy	-11.1251
▁warehouse	-11.1251
▁denied	-11.1251
▁imitating	-11.1251
▁thisll	-11.1251
▁inmates	-11.1251
▁mystique	-11.1251
▁primitive	-11.1251
▁sideburns	-11.1251
▁kyle	-11.1251
▁montana	-11.1251
▁remote	-11.1251
▁doomed	-11.1251
▁onstage	-11.1251
▁susie	-11.1251
▁bleating	-11.1251
▁feature	-11.1251
▁thudding	-11.1251
▁deteriorat	-11.1251
▁titmarch	-11.1251
▁yummy	-11.1251
▁financial	-11.1251
▁denise	-11.1251
▁pistol	-11.1251
▁inventory	-11.1251
▁cairo	-11.1251
▁communism	-11.1251
▁electro	-11.1251
▁gogol	-11.1251
▁instructions	-11.1251
▁brenda	-11.1251
▁housing	-11.1251
▁ballad	-11.1251
▁selected	-11.1251
▁gently	-11.1251
▁truce	-11.1251
▁opposition	-11.1251
▁salvation	-11.1251
▁depression	-11.1251
▁gogh	-11.1251
▁rowboat	-11.1251
▁upstage	-11.1251
▁shuffl	-11.1251
▁suppress	-11.1251
▁candle	-11.1251
▁item	-11.1251
▁prescribe	-11.1251
▁denmark	-11.1252
▁edition	-11.1252
▁blaming	-11.1252
▁rival	-11.1252
▁importance	-11.1252
▁overthrow	-11.1252
▁thems	-11.1252
▁krstic	-11.1252
▁domingo	-11.1252
▁update	-11.1252
▁lothos	-11.1252
▁wench	-11.1252
▁arise	-11.1252
▁organization	-11.1252
▁francis	-11.1252
▁executive	-11.1252
▁lunatic	-11.1252
▁yardner	-11.1252
▁biological	-11.1252
▁demonstration	-11.1252
▁signature	-11.1252
aught	-11.1252
▁bankrupt	-11.1252
▁welch	-11.1252
▁scam	-11.1252
▁sandra	-11.1252
▁beatles	-11.1252
▁bingo	-11.1252
▁ouch	-11.1252
▁define	-11.1252
▁inquir	-11.1252
▁tackle	-11.1252
▁angle	-11.1252
▁bindle	-11.1252
▁davis	-11.1252
▁rogue	-11.1252
▁jammed	-11.1252
▁glide	-11.1252
▁romance	-11.1252
▁miserable	-11.1252
▁patron	-11.1252
▁feminine	-11.1252
▁iceberg	-11.1252
▁malta	-11.1252
▁catherine	-11.1253
▁hiya	-11.1253
▁specifically	-11.1253
▁grey	-11.1253
▁robot	-11.1253
▁overnight	-11.1253
▁phys	-11.1253
▁clich	-11.1253
urance	-11.1253
▁tension	-11.1253
▁whatre	-11.1253
▁centuries	-11.1253
▁carbs	-11.1253
▁tanya	-11.1253
▁tutor	-11.1253
▁feedback	-11.1253
▁iike	-11.1253
▁sixteen	-11.1253
▁benny	-11.1253
▁stove	-11.1253
▁facility	-11.1253
▁pregnancy	-11.1253
▁expense	-11.1254
▁judging	-11.1254
▁length	-11.1254
▁hallowed	-11.1254
▁actress	-11.1254
▁atom	-11.1254
▁pbr	-11.1254
acial	-11.1254
▁flaw	-11.1254
▁pettinger	-11.1254
▁disconnected	-11.1254
ndez	-11.1254
▁depressed	-11.1254
▁instructor	-11.1254
▁booey	-11.1255
▁rash	-11.1255
▁joan	-11.1255
▁nearby	-11.1255
▁mule	-11.1255
▁savage	-11.1255
▁hex	-11.1255
▁twink	-11.1255
▁factionless	-11.1255
▁grandson	-11.1255
uine	-11.1255
▁lamb	-11.1255
▁dix	-11.1256
▁depressing	-11.1256
▁whine	-11.1256
▁carrot	-11.1256
▁paso	-11.1256
▁chico	-11.1256
▁diary	-11.1256
▁basement	-11.1256
▁relieved	-11.1257
▁barker	-11.1257
▁latin	-11.1257
ara	-11.1257
▁disappointment	-11.1257
▁kicks	-11.1257
▁luxury	-11.1257
▁fuss	-11.1257
▁subway	-11.1257
▁temper	-11.1257
▁global	-11.1258
▁whoosh	-11.1258
▁cul	-11.1258
▁epic	-11.1258
▁occasionally	-11.1258
▁dropping	-11.1258
▁affection	-11.1259
▁carrier	-11.1259
▁development	-11.126
▁dignity	-11.126
▁bonus	-11.126
▁gener	-11.126
▁exposed	-11.1261
▁partiz	-11.1261
▁trish	-11.1261
▁consideration	-11.1261
▁rango	-11.1261
▁roman	-11.1261
▁manchurian	-11.1261
▁activity	-11.1262
▁josh	-11.1262
▁forest	-11.1262
▁limo	-11.1262
▁blonde	-11.1263
ption	-11.1263
▁fries	-11.1263
▁labella	-11.1263
▁mild	-11.1264
▁identified	-11.1264
▁salary	-11.1265
▁loop	-11.1265
▁shallow	-11.1266
▁figuring	-11.1266
▁oliver	-11.1266
▁activated	-11.1266
▁abort	-11.1266
▁pierre	-11.1266
▁forgiveness	-11.1267
▁pta	-11.1267
▁wholl	-11.1268
▁crashes	-11.1268
▁replacement	-11.1268
▁fingerprints	-11.1268
▁hormones	-11.1268
▁spectacles	-11.1268
▁graphics	-11.1269
▁hike	-11.1269
▁soaked	-11.1269
▁specialty	-11.127
▁compare	-11.127
▁surrounding	-11.1272
▁poked	-11.1272
▁andy	-11.1272
▁gust	-11.1272
▁wealthy	-11.1273
▁triple	-11.1273
▁yea	-11.1274
▁convicted	-11.1274
▁gathered	-11.1275
▁artistic	-11.1275
▁hooting	-11.1275
▁reel	-11.1276
▁boxers	-11.1277
▁haha	-11.1277
▁tucker	-11.1277
▁discovery	-11.1277
▁located	-11.1277
▁bakery	-11.1277
▁leash	-11.1277
▁anim	-11.1278
▁wanda	-11.1279
▁bands	-11.1279
▁annoying	-11.128
▁losin	-11.128
▁inch	-11.128
▁salva	-11.1281
▁dc	-11.1282
▁booma	-11.1283
▁charmer	-11.1284
▁freeway	-11.1284
▁intended	-11.1285
▁admirer	-11.1285
▁shutting	-11.1285
▁reviewer	-11.1285
▁crawled	-11.1286
▁nacho	-11.1288
▁coma	-11.1291
▁discussion	-11.1292
▁lick	-11.1294
teral	-11.1294
▁fuckin	-11.1296
▁statistics	-11.1298
▁employees	-11.1298
▁gaze	-11.13
▁weed	-11.1301
▁smartest	-11.1303
▁sealed	-11.1305
▁hopeful	-11.1305
▁crawling	-11.1305
▁manso	-11.1307
▁spa	-11.1311
▁twisted	-11.1311
▁yelled	-11.1312
▁gig	-11.1313
▁willy	-11.1314
▁gap	-11.1318
▁mash	-11.1319
▁weirdo	-11.1321
▁jest	-11.1321
▁blocked	-11.1322
▁steer	-11.1323
▁handful	-11.1323
▁refused	-11.1327
▁chased	-11.1328
▁snorts	-11.1329
▁eunuchs	-11.1329
▁headquarters	-11.1329
▁belles	-11.133
▁soy	-11.133
▁expression	-11.133
▁havin	-11.1339
estic	-11.1341
▁tempt	-11.1341
hand	-11.1347
▁getaway	-11.1351
▁chee	-11.1352
▁interrupting	-11.1353
▁warhead	-11.1355
▁cramps	-11.136
▁refugees	-11.136
▁balloons	-11.136
▁customs	-11.136
▁strays	-11.136
▁rumors	-11.136
▁roy	-11.136
ified	-11.1366
▁wal	-11.1368
▁will	-11.1369
▁shocking	-11.1369
▁fallin	-11.137
▁specialist	-11.1375
▁tighten	-11.1376
▁washed	-11.1378
▁announced	-11.1379
▁dun	-11.1379
erina	-11.1381
▁goody	-11.139
▁residents	-11.139
▁arrangements	-11.1391
▁tracked	-11.1392
▁indians	-11.1392
▁spreading	-11.1393
▁atta	-11.1395
▁nervously	-11.1399
▁ian	-11.1402
▁hardest	-11.1404
▁sonic	-11.1409
lu	-11.1414
jo	-11.1421
▁honesty	-11.1424
▁ohio	-11.143
▁pitcher	-11.1434
▁bla	-11.144
▁ti	-11.1451
▁colleagues	-11.1453
▁sailors	-11.1453
▁uses	-11.1459
▁interpret	-11.1465
▁tinkl	-11.1473
▁exceptional	-11.1473
▁awaits	-11.1483
▁flames	-11.1484
▁protected	-11.1489
▁filling	-11.1493
urray	-11.1496
▁bandy	-11.1505
▁louie	-11.1506
▁imper	-11.1507
▁creatures	-11.1515
▁blog	-11.1515
▁wrists	-11.1515
▁mist	-11.1516
▁ny	-11.1519
▁honored	-11.1519
▁sab	-11.152
▁tis	-11.1525
▁lads	-11.153
▁addie	-11.1544
▁debts	-11.1546
▁muscles	-11.1546
wing	-11.155
▁mow	-11.1552
▁tori	-11.1558
▁visitors	-11.1583
▁zip	-11.1583
▁or	-11.1585
let	-11.1587
▁cass	-11.1588
▁tri	-11.159
ament	-11.1602
que	-11.1607
▁values	-11.1609
▁limits	-11.1609
▁images	-11.1612
▁casters	-11.1617
▁cookies	-11.1622
▁mob	-11.1632
▁gin	-11.1641
▁burm	-11.1643
▁anyways	-11.1646
▁wr	-11.1646
▁acts	-11.1648
▁figures	-11.1655
ue	-11.1668
▁maker	-11.167
▁flows	-11.1673
▁diamonds	-11.1675
▁flags	-11.1675
anche	-11.1681
ssing	-11.1703
▁mortals	-11.1704
▁rehearsals	-11.1704
▁shadows	-11.1704
fire	-11.171
ther	-11.1711
▁naive	-11.1733
flo	-11.1752
▁differently	-11.1762
▁drawings	-11.1767
▁kicking	-11.1768
▁bases	-11.1785
▁dolls	-11.1794
▁suicides	-11.1799
▁contracts	-11.1799
▁poets	-11.1799
▁roxys	-11.1799
▁suspects	-11.18
▁clocks	-11.1802
bit	-11.1811
hold	-11.1813
shed	-11.1815
▁scares	-11.1818
ound	-11.182
▁et	-11.1823
▁reviews	-11.1828
▁represents	-11.1833
▁bugs	-11.1838
▁tu	-11.1842
▁halt	-11.1866
ashi	-11.187
▁stac	-11.1884
▁ange	-11.1887
som	-11.1907
▁layer	-11.1911
▁pals	-11.1933
lie	-11.1954
▁fil	-11.1957
▁wars	-11.1961
▁bets	-11.1964
tain	-11.1973
▁instant	-11.2001
▁observe	-11.2004
▁kai	-11.2005
▁reporters	-11.2014
there	-11.2042
▁barb	-11.2049
ux	-11.2076
ota	-11.2086
woman	-11.2086
▁gardens	-11.2091
▁advise	-11.2093
▁files	-11.21
ob	-11.2107
▁dud	-11.2109
▁pointed	-11.2111
▁poems	-11.212
▁jr	-11.2124
▁qualif	-11.2129
war	-11.215
▁tails	-11.2153
oe	-11.2155
tro	-11.2163
▁questioning	-11.2163
ised	-11.2167
▁kills	-11.2167
ray	-11.2188
▁handy	-11.2189
oid	-11.2196
▁concerts	-11.2218
▁caring	-11.223
▁ste	-11.2242
▁ri	-11.2269
▁mines	-11.2275
▁bites	-11.228
▁sights	-11.2284
au	-11.232
▁proves	-11.2324
▁au	-11.2326
▁bin	-11.234
ities	-11.2344
▁captains	-11.2387
dle	-11.2404
▁rep	-11.2408
▁checks	-11.2423
▁strap	-11.2438
▁inc	-11.2445
▁marriages	-11.2448
ban	-11.2452
nder	-11.2464
ats	-11.2472
aging	-11.248
long	-11.2486
▁hor	-11.2489
▁sniff	-11.2527
zer	-11.2535
▁helpless	-11.2536
come	-11.2536
▁liver	-11.2557
ably	-11.2575
▁machines	-11.2581
bble	-11.2581
hipped	-11.2585
▁cru	-11.2585
▁decisions	-11.2615
▁bottoms	-11.2618
▁bah	-11.2619
▁tes	-11.2641
▁cro	-11.2653
▁fridays	-11.2682
▁squat	-11.2683
get	-11.2684
elle	-11.2706
▁sla	-11.2712
ister	-11.2739
say	-11.2754
any	-11.2756
ility	-11.2761
▁assholes	-11.2817
rie	-11.2822
rick	-11.2826
shit	-11.2828
▁tactic	-11.2839
▁martine	-11.284
▁careless	-11.2848
ffe	-11.2848
▁tours	-11.286
▁richards	-11.2862
▁scramble	-11.2916
▁stat	-11.2948
inka	-11.2951
▁trucks	-11.2964
▁offers	-11.2972
▁yu	-11.298
▁jewel	-11.2987
▁diver	-11.299
nit	-11.3015
ada	-11.3022
▁clatter	-11.3038
▁cough	-11.3051
▁whisper	-11.3053
▁mamama	-11.3054
hine	-11.3055
▁appa	-11.3055
▁groan	-11.3056
▁explode	-11.3056
▁robber	-11.3062
▁function	-11.3068
▁thumb	-11.3068
▁cuff	-11.3068
▁dentist	-11.3069
▁pound	-11.307
▁tick	-11.3074
lapping	-11.3074
▁yank	-11.3075
▁chan	-11.3075
▁spider	-11.3076
▁stream	-11.3076
▁reference	-11.3077
▁blanket	-11.3078
▁nu	-11.3078
br	-11.3079
▁chopper	-11.3082
▁emotion	-11.3083
▁resident	-11.3084
▁arrangement	-11.3086
▁pancake	-11.3089
▁springbok	-11.3093
▁indian	-11.3093
fly	-11.3093
▁bridesmaid	-11.3094
▁exhale	-11.3099
▁jap	-11.3108
lemons	-11.3114
▁laps	-11.3118
▁audi	-11.3119
▁jesu	-11.3126
▁farmer	-11.3126
owned	-11.3126
▁mor	-11.3126
see	-11.3128
▁dive	-11.313
▁smuggl	-11.3149
▁stud	-11.315
▁johns	-11.3153
spel	-11.3154
od	-11.3158
▁what	-11.3165
▁hen	-11.3165
▁grandmas	-11.3168
▁increas	-11.3169
▁wage	-11.3169
▁invent	-11.3172
uttering	-11.3174
ugged	-11.3175
▁disturb	-11.3176
mine	-11.3179
▁gather	-11.3179
▁clam	-11.3186
▁preach	-11.3191
▁manner	-11.3197
▁cloth	-11.3202
▁tim	-11.3202
▁mourn	-11.3203
▁refer	-11.3204
where	-11.3206
cake	-11.3209
▁disgust	-11.3209
hair	-11.3213
▁shush	-11.3216
▁transform	-11.3219
▁invest	-11.3219
▁employ	-11.322
▁convict	-11.3223
▁reform	-11.3223
burn	-11.3223
▁cruise	-11.3224
▁colon	-11.3225
read	-11.3225
mother	-11.3226
shot	-11.3226
▁singers	-11.3227
jab	-11.3229
jack	-11.323
patient	-11.323
foot	-11.323
▁determine	-11.3232
weight	-11.3233
show	-11.3234
name	-11.3234
▁exclusive	-11.3235
▁should	-11.3236
▁thorough	-11.3236
▁rox	-11.3237
▁glor	-11.3237
▁unfortunate	-11.3237
hour	-11.3238
▁clark	-11.3239
▁norm	-11.3241
▁wav	-11.3242
lalala	-11.3244
▁bolsh	-11.3246
▁withdraw	-11.3246
▁froze	-11.3246
▁tobi	-11.3247
▁fal	-11.3248
▁reflect	-11.3248
▁distribut	-11.3248
▁melanchol	-11.3249
▁leavin	-11.3249
ruly	-11.325
▁luther	-11.325
▁retire	-11.325
▁peel	-11.325
▁torme	-11.3251
▁urge	-11.3251
▁aeroplane	-11.3251
▁aggression	-11.3251
▁applied	-11.3251
▁artificial	-11.3251
▁bazooka	-11.3251
▁beneath	-11.3251
▁blooper	-11.3251
▁boulevard	-11.3251
▁bumblebee	-11.3251
▁calais	-11.3251
▁caution	-11.3251
▁chemical	-11.3251
▁cheoseon	-11.3251
▁chipmunk	-11.3251
▁circuit	-11.3251
▁cleveland	-11.3251
▁cloak	-11.3251
▁colada	-11.3251
▁compartment	-11.3251
▁competing	-11.3251
▁comprende	-11.3251
▁conspiracy	-11.3251
▁context	-11.3251
▁controversy	-11.3251
▁crazier	-11.3251
▁crib	-11.3251
▁deidre	-11.3251
▁detroit	-11.3251
▁disagree	-11.3251
▁disguise	-11.3251
▁disorder	-11.3251
▁distorted	-11.3251
▁donnahew	-11.3251
▁dottie	-11.3251
▁dunwoody	-11.3251
▁economy	-11.3251
▁espionage	-11.3251
▁fimple	-11.3251
▁flotilla	-11.3251
▁fluffy	-11.3251
▁forecast	-11.3251
▁gaijin	-11.3251
▁ganthet	-11.3251
▁garrison	-11.3251
▁genevieve	-11.3251
▁grueller	-11.3251
▁gypsies	-11.3251
▁harbour	-11.3251
▁hayride	-11.3251
▁hendry	-11.3251
▁hilarious	-11.3251
▁homosexual	-11.3251
▁honeybelle	-11.3251
▁hulett	-11.3251
▁instance	-11.3251
▁intoleran	-11.3251
▁investigating	-11.3251
▁jackpot	-11.3251
▁jangling	-11.3251
▁kamata	-11.3251
▁knix	-11.3251
▁kristine	-11.3251
▁lamaze	-11.3251
▁larabee	-11.3251
▁lipstick	-11.3251
▁lothario	-11.3251
▁mastallone	-11.3251
▁maurice	-11.3251
▁melody	-11.3251
▁merci	-11.3251
▁minstrels	-11.3251
▁misunderstood	-11.3251
▁necessarily	-11.3251
▁nowadays	-11.3251
▁obituary	-11.3251
▁ordnance	-11.3251
▁orinoco	-11.3251
▁orlando	-11.3251
▁oxygen	-11.3251
▁pajamas	-11.3251
▁palardis	-11.3251
▁penalty	-11.3251
▁pencil	-11.3251
▁penthouse	-11.3251
▁pineapple	-11.3251
▁pollution	-11.3251
▁precision	-11.3251
▁prevail	-11.3251
▁probation	-11.3251
▁rafferty	-11.3251
▁raymond	-11.3251
▁reinforce	-11.3251
▁safaa	-11.3251
▁scientific	-11.3251
▁scotch	-11.3251
▁scotland	-11.3251
▁seizure	-11.3251
▁snezhana	-11.3251
▁sorokina	-11.3251
▁striptease	-11.3251
▁supernatural	-11.3251
▁suspicion	-11.3251
▁syllabus	-11.3251
▁techno	-11.3251
▁tequila	-11.3251
▁turmoil	-11.3251
▁twitter	-11.3251
▁umbrella	-11.3251
▁underestimate	-11.3251
▁unpleasant	-11.3251
▁valdosta	-11.3251
▁vronsky	-11.3251
▁wheelchair	-11.3251
▁whickers	-11.3251
▁wimps	-11.3251
▁wrath	-11.3251
▁yacov	-11.3251
▁yawpy	-11.3251
▁youtube	-11.3251
▁zenjirou	-11.3251
▁ankle	-11.3251
▁antoine	-11.3251
▁bounty	-11.3251
▁clamoring	-11.3251
▁clutch	-11.3251
▁conceal	-11.3251
▁eager	-11.3251
▁estimate	-11.3251
▁evervthing	-11.3251
▁flavor	-11.3251
▁forged	-11.3251
▁imminent	-11.3251
▁irrelevant	-11.3251
▁kasper	-11.3251
▁lettuce	-11.3251
▁nashville	-11.3251
▁necklace	-11.3251
▁slick	-11.3251
▁slope	-11.3251
▁vegeta	-11.3251
▁vichv	-11.3251
▁wacky	-11.3251
▁emilia	-11.3251
▁galahd	-11.3251
▁goodwill	-11.3251
▁klein	-11.3251
▁metasta	-11.3251
▁proverb	-11.3251
▁reopen	-11.3251
▁turtle	-11.3251
▁calorie	-11.3251
▁hoyos	-11.3251
▁juilliard	-11.3251
▁personnel	-11.3251
▁serum	-11.3251
▁decoy	-11.3251
▁ursula	-11.3251
▁aaa	-11.3251
▁worms	-11.3251
▁clerk	-11.3251
▁deedee	-11.3251
▁feather	-11.3251
▁liberals	-11.3251
▁mozart	-11.3251
▁provoke	-11.3251
▁ryan	-11.3251
▁stranded	-11.3251
▁unanimous	-11.3251
▁vear	-11.3251
▁bullseye	-11.3251
▁gomez	-11.3251
▁mactaggert	-11.3251
▁josie	-11.3251
▁micky	-11.3251
▁splendid	-11.3251
▁curtain	-11.3251
▁grape	-11.3251
▁naomi	-11.3251
▁waitress	-11.3251
▁ambush	-11.3251
▁basis	-11.3251
▁popsicle	-11.3251
▁granddaughter	-11.3251
▁interstate	-11.3251
▁sunshine	-11.3251
▁archduke	-11.3251
▁tornado	-11.3251
▁womb	-11.3251
▁enormous	-11.3251
▁jenny	-11.3251
▁apsa	-11.3251
▁pollute	-11.3251
▁stanford	-11.3251
▁gordon	-11.3251
▁authorities	-11.3251
▁walrus	-11.3251
▁bracelet	-11.3251
▁arcade	-11.3251
▁argentina	-11.3251
▁gracious	-11.3251
▁dennys	-11.3251
▁alwavs	-11.3251
▁liability	-11.3251
▁plunge	-11.3251
▁vibrat	-11.3251
▁uncover	-11.3251
▁joust	-11.3251
▁petersburg	-11.3251
▁enforcement	-11.3252
▁manlio	-11.3252
▁mcduff	-11.3252
▁radley	-11.3252
▁fragile	-11.3252
▁bruise	-11.3252
▁magda	-11.3252
▁oxford	-11.3252
▁goddess	-11.3252
▁zipper	-11.3252
▁cheesy	-11.3252
▁spinning	-11.3252
▁alternative	-11.3252
▁bapti	-11.3252
▁robinson	-11.3252
▁gregory	-11.3252
▁cursing	-11.3252
▁nigger	-11.3252
▁assistance	-11.3252
▁pimp	-11.3252
▁dried	-11.3252
▁infant	-11.3252
▁fdr	-11.3252
▁rico	-11.3252
▁sharon	-11.3252
▁exwife	-11.3252
▁sarcastic	-11.3252
lastic	-11.3252
▁involvement	-11.3252
▁surface	-11.3252
▁strut	-11.3252
▁brett	-11.3252
▁criticism	-11.3252
▁gerard	-11.3252
▁dickens	-11.3252
▁ginger	-11.3252
▁jeanpierre	-11.3252
▁dang	-11.3252
▁northeast	-11.3252
▁harsh	-11.3252
▁regardless	-11.3252
▁scheme	-11.3252
▁ofem	-11.3252
▁random	-11.3252
▁tango	-11.3252
▁fortyfive	-11.3252
▁vitami	-11.3252
▁cooperate	-11.3252
▁nikolai	-11.3252
▁analyst	-11.3252
▁comedian	-11.3252
▁cellphone	-11.3252
▁sopho	-11.3252
▁tumor	-11.3252
▁filter	-11.3252
▁persand	-11.3252
▁blazing	-11.3252
▁chute	-11.3252
▁finland	-11.3253
▁interrogation	-11.3253
▁annette	-11.3253
▁birthright	-11.3253
▁banner	-11.3253
▁inevitable	-11.3253
▁unbearable	-11.3253
▁sarah	-11.3253
▁departure	-11.3253
▁overcome	-11.3253
▁broomstick	-11.3253
▁yoshi	-11.3253
▁generous	-11.3253
▁mizz	-11.3253
▁shuttle	-11.3253
▁anvone	-11.3253
▁comma	-11.3253
▁prance	-11.3253
▁championship	-11.3253
▁crane	-11.3253
▁delta	-11.3253
▁bacon	-11.3253
▁youyou	-11.3253
▁temptation	-11.3253
▁sinner	-11.3253
▁kennelly	-11.3253
▁raindrop	-11.3253
▁prank	-11.3253
rc	-11.3253
▁violation	-11.3253
▁warfare	-11.3253
▁warlord	-11.3253
▁heir	-11.3253
▁contribution	-11.3254
▁receptionist	-11.3254
▁baba	-11.3254
▁cubes	-11.3254
▁cocoa	-11.3254
▁wmia	-11.3254
▁dedicated	-11.3254
▁pitts	-11.3254
▁spotlight	-11.3254
▁facial	-11.3254
▁whack	-11.3254
▁furious	-11.3254
▁beings	-11.3254
▁scope	-11.3254
▁category	-11.3254
▁embrace	-11.3254
▁haemostat	-11.3254
▁mcdonald	-11.3254
▁reliable	-11.3254
▁variety	-11.3254
▁oak	-11.3254
▁oohwhee	-11.3254
▁studied	-11.3254
▁crust	-11.3254
▁organic	-11.3254
▁brotherinlaw	-11.3254
▁sunny	-11.3254
▁harrison	-11.3255
▁booze	-11.3255
▁overwhelmed	-11.3255
▁destined	-11.3255
▁courageous	-11.3255
▁masterpiece	-11.3255
▁attractive	-11.3255
▁shade	-11.3255
▁kung	-11.3255
▁courtney	-11.3255
▁conve	-11.3255
ethel	-11.3256
▁hamlet	-11.3256
▁mmmmmm	-11.3256
▁error	-11.3256
▁norman	-11.3256
▁laptop	-11.3256
▁billboard	-11.3257
▁tomatoes	-11.3257
▁keen	-11.3257
▁attraction	-11.3257
▁cult	-11.3257
▁lining	-11.3257
▁squawking	-11.3257
▁intimidating	-11.3257
▁paw	-11.3257
▁stammering	-11.3257
▁classroom	-11.3257
▁arrow	-11.3258
▁grownup	-11.3258
▁swaddle	-11.3258
▁isolated	-11.3258
ehr	-11.3258
▁morality	-11.3258
▁tripping	-11.3258
tami	-11.3258
▁anthe	-11.3259
▁cove	-11.3259
▁lizard	-11.3259
▁benson	-11.3259
▁assassination	-11.3259
▁comic	-11.3259
▁facebook	-11.3259
▁romeo	-11.3259
▁wales	-11.326
▁gull	-11.326
▁hamster	-11.326
alalala	-11.326
▁fork	-11.326
▁spotted	-11.326
▁spoon	-11.326
▁payroll	-11.3261
▁warden	-11.3261
▁spank	-11.3261
▁dumbass	-11.3261
▁engagement	-11.3261
▁overtime	-11.3262
▁jamie	-11.3262
▁eine	-11.3262
▁opposed	-11.3262
▁saba	-11.3263
eerie	-11.3263
▁aii	-11.3263
▁sync	-11.3263
▁marion	-11.3263
▁agenda	-11.3263
▁butcher	-11.3264
▁hawk	-11.3264
▁cultural	-11.3264
osity	-11.3264
▁noodle	-11.3264
▁chatting	-11.3265
▁alton	-11.3265
▁haul	-11.3265
▁overhead	-11.3266
▁canal	-11.3266
▁stabbed	-11.3266
▁rocket	-11.3266
▁thoroughly	-11.3266
▁slurping	-11.3267
▁collapsed	-11.3267
▁frightening	-11.3267
▁plumber	-11.3267
▁tasty	-11.3267
▁complexion	-11.3267
▁playboy	-11.3267
▁approaches	-11.3267
▁thrashed	-11.3267
▁timmy	-11.3268
break	-11.3268
▁organized	-11.3268
▁kent	-11.3269
▁bouncing	-11.3269
singi	-11.3269
▁worthless	-11.3269
▁tres	-11.3269
▁odor	-11.3269
▁audio	-11.327
▁brownies	-11.327
▁passage	-11.327
▁tooth	-11.327
▁designer	-11.3271
▁breakdown	-11.3271
▁ula	-11.3271
▁controlling	-11.3272
▁weaponers	-11.3272
▁ancestors	-11.3273
▁eternally	-11.3273
▁colony	-11.3273
▁barf	-11.3273
▁flashes	-11.3273
▁yipp	-11.3273
▁elected	-11.3274
▁wrecked	-11.3274
▁milo	-11.3274
▁tore	-11.3274
▁haunted	-11.3274
▁katz	-11.3274
▁messinger	-11.3275
fil	-11.3275
▁negotiated	-11.3275
▁hut	-11.3275
▁plead	-11.3276
▁sober	-11.3276
▁lurking	-11.3276
▁depending	-11.3277
▁avenger	-11.3277
▁established	-11.3278
▁corny	-11.3278
▁peeking	-11.3278
▁loosen	-11.3279
▁divided	-11.3279
▁heist	-11.3279
▁sadness	-11.328
▁gown	-11.3281
▁hotter	-11.3282
▁mansion	-11.3283
▁backyard	-11.3284
▁guine	-11.3285
▁frame	-11.3285
iation	-11.3287
▁slide	-11.3288
▁paulo	-11.3288
▁approved	-11.3288
birds	-11.3289
▁disrespectful	-11.329
▁formal	-11.3292
▁corrupted	-11.3293
▁dismissed	-11.3293
▁proven	-11.3293
▁accountant	-11.3293
▁curly	-11.3295
▁sleeve	-11.3295
▁humping	-11.3296
▁sum	-11.3296
▁magical	-11.3297
▁directly	-11.3297
▁historical	-11.3297
▁toaster	-11.3298
▁oughta	-11.3298
▁severe	-11.3299
▁armor	-11.3299
▁poly	-11.3299
▁clank	-11.3299
▁sickness	-11.3299
▁flush	-11.3299
▁wisely	-11.33
▁lane	-11.33
▁tortured	-11.3301
▁xe	-11.3301
▁stirr	-11.3302
▁bidd	-11.3302
▁assist	-11.3303
▁toll	-11.3303
▁checkup	-11.3305
▁setup	-11.3305
▁compromised	-11.3305
▁stretched	-11.3306
headed	-11.3306
▁shitty	-11.3309
▁toots	-11.3309
▁govern	-11.3309
▁troublemakers	-11.331
▁cosmetics	-11.331
good	-11.331
▁assured	-11.331
▁barks	-11.3312
▁sneaky	-11.3313
▁detailed	-11.3313
▁desperately	-11.3313
▁breeding	-11.3315
▁guaranteed	-11.3315
▁hacking	-11.3316
▁forgiven	-11.3317
▁disappointing	-11.3317
rin	-11.3319
▁reasonable	-11.332
▁newsman	-11.3321
▁hog	-11.3323
▁pic	-11.3325
▁sailing	-11.3325
▁swallowed	-11.3325
▁lace	-11.3326
vus	-11.3326
▁weep	-11.333
▁delayed	-11.3331
▁raspberr	-11.3332
ellie	-11.3333
juven	-11.3333
▁lighten	-11.3334
▁ching	-11.3334
▁commandeer	-11.3335
▁ignored	-11.3337
▁harp	-11.3337
▁regularly	-11.3337
▁directed	-11.3338
▁crushed	-11.3338
▁crowned	-11.3339
▁separately	-11.334
▁utilit	-11.3342
▁hint	-11.3343
▁tuned	-11.3344
▁regulations	-11.3348
▁cigars	-11.3348
▁prints	-11.3348
▁predict	-11.335
▁blamed	-11.335
▁connecting	-11.335
unning	-11.3352
▁dispose	-11.3353
▁jeweler	-11.3354
▁deserved	-11.3356
▁sheets	-11.3356
▁massage	-11.3357
▁collected	-11.3358
hooters	-11.3358
▁burnt	-11.3359
▁pouring	-11.336
ical	-11.3361
▁alas	-11.3362
▁bold	-11.3366
▁icon	-11.3367
▁scheduled	-11.3368
▁hunters	-11.337
▁dumped	-11.337
▁borrowed	-11.337
▁playful	-11.3375
▁sneaking	-11.3378
▁judged	-11.3378
▁segu	-11.338
▁communists	-11.3386
▁dreamt	-11.3388
tumbling	-11.3393
▁ross	-11.3395
▁disappearing	-11.3398
▁tickle	-11.3398
▁conditioning	-11.34
▁researchers	-11.3402
▁multiple	-11.3403
▁searched	-11.3403
▁discussed	-11.3404
▁te	-11.3409
▁proved	-11.3411
ace	-11.3411
▁noted	-11.3414
▁clar	-11.3421
▁posters	-11.3423
▁clatters	-11.3425
▁robbers	-11.3426
▁choppers	-11.3427
▁stare	-11.343
▁dame	-11.3438
▁coup	-11.344
▁representing	-11.3441
thats	-11.3441
▁sap	-11.3443
▁perk	-11.3445
▁loading	-11.3449
▁sweating	-11.345
▁horny	-11.3451
▁divergents	-11.3463
▁organs	-11.3463
▁raf	-11.3464
▁sta	-11.3466
▁beliefs	-11.3466
▁willies	-11.347
▁hearth	-11.3473
▁reminded	-11.3477
constructive	-11.3477
▁claiming	-11.3479
▁interviewed	-11.3481
▁barrac	-11.3486
▁cb	-11.3486
▁restrain	-11.349
▁discussing	-11.349
▁scal	-11.3492
▁meta	-11.35
▁pipes	-11.3502
▁cracking	-11.3502
▁prisons	-11.351
▁chant	-11.3511
frog	-11.352
▁imagined	-11.3524
ces	-11.3528
▁char	-11.3528
▁equi	-11.3534
ridden	-11.3536
▁tearing	-11.3539
aw	-11.3539
▁smiled	-11.354
▁instincts	-11.3541
▁equals	-11.3541
▁statements	-11.3544
▁fucked	-11.3548
▁tol	-11.3561
orr	-11.3567
▁supported	-11.3574
▁env	-11.3578
▁corporations	-11.358
▁options	-11.358
▁minu	-11.358
uous	-11.358
▁producers	-11.3582
▁hast	-11.3584
▁laughed	-11.3584
▁jade	-11.359
▁riders	-11.3593
▁ku	-11.3607
▁uhm	-11.3607
▁explosives	-11.3609
▁kneel	-11.361
hea	-11.3616
▁arrives	-11.3619
▁terrorists	-11.362
rivi	-11.3625
▁grounded	-11.363
mat	-11.3642
rp	-11.3642
▁fooled	-11.3644
ese	-11.365
▁trailers	-11.3663
▁bandage	-11.3667
▁rates	-11.3668
etty	-11.3669
▁toes	-11.3678
addle	-11.368
▁shav	-11.3687
▁attacks	-11.369
ovich	-11.3691
▁generally	-11.3691
▁sells	-11.3693
lan	-11.3702
▁sting	-11.3702
▁tease	-11.3719
rings	-11.3724
inkle	-11.3729
▁lip	-11.3741
▁ruthless	-11.3748
▁staple	-11.3751
▁epi	-11.3759
berry	-11.3766
▁sniffl	-11.3776
▁pockets	-11.3776
▁warming	-11.3786
▁prayers	-11.3786
ckey	-11.379
ator	-11.3791
▁ni	-11.3794
▁offering	-11.3799
▁sic	-11.3802
▁ducks	-11.3815
▁sparks	-11.3816
thing	-11.3819
oster	-11.3833
▁teachings	-11.3857
▁ted	-11.3866
▁abo	-11.3882
moria	-11.3888
▁screens	-11.3891
▁ropes	-11.3895
▁efforts	-11.3895
▁savings	-11.3896
▁articles	-11.3904
▁snaps	-11.3909
▁bench	-11.391
lon	-11.3914
▁sau	-11.3917
▁leti	-11.392
▁decks	-11.3936
▁pros	-11.3939
▁casey	-11.3946
ders	-11.3952
▁hump	-11.3974
▁hooks	-11.399
put	-11.3993
▁est	-11.4007
▁chic	-11.4009
▁apples	-11.4011
▁levels	-11.4015
▁monkeys	-11.4015
inch	-11.4018
▁meter	-11.4027
rich	-11.4035
▁blo	-11.4036
▁pas	-11.4039
▁jock	-11.4061
▁covering	-11.407
▁ups	-11.4082
lyn	-11.4085
lash	-11.4103
ggy	-11.4133
▁miracles	-11.4137
▁theaters	-11.4137
erry	-11.4154
▁buyer	-11.4158
▁subs	-11.4165
wan	-11.4173
▁domin	-11.4196
▁cle	-11.421
ttle	-11.4211
song	-11.4221
▁ax	-11.4244
▁wished	-11.4249
▁outsider	-11.4253
▁violat	-11.427
▁ven	-11.4272
oka	-11.4299
▁skates	-11.43
bul	-11.4305
ola	-11.4316
▁hoped	-11.4317
▁linds	-11.4327
▁ag	-11.4337
▁joyful	-11.4337
▁pile	-11.4338
▁compos	-11.4339
▁paths	-11.434
cker	-11.4341
ties	-11.4364
ink	-11.4369
cra	-11.4371
▁gradys	-11.4381
▁satellites	-11.4381
ger	-11.4384
▁christians	-11.4384
▁ru	-11.4387
ven	-11.4412
▁thro	-11.4414
▁decorate	-11.4415
roy	-11.4423
▁frick	-11.4425
ition	-11.4443
owns	-11.4463
▁signals	-11.4464
▁chairs	-11.4464
▁distinct	-11.4465
▁cabr	-11.4486
tial	-11.4487
position	-11.4491
▁sacrifices	-11.4492
▁apartments	-11.4507
▁criticize	-11.4509
▁exists	-11.4511
▁rag	-11.4517
▁mas	-11.4525
▁memorize	-11.4532
▁venture	-11.4534
▁pose	-11.4544
▁kh	-11.4548
seven	-11.4549
▁tut	-11.4582
▁jeans	-11.459
occupied	-11.4594
drop	-11.4601
oku	-11.4604
▁flyer	-11.4606
▁trusting	-11.4608
▁reasoning	-11.4615
era	-11.4635
nx	-11.4653
▁wince	-11.467
▁dove	-11.4676
▁hav	-11.4676
▁commands	-11.4684
▁eu	-11.4695
▁oc	-11.4723
▁ic	-11.4727
▁aid	-11.4727
▁experiences	-11.4744
mic	-11.4753
▁doubts	-11.4758
stone	-11.4764
▁pla	-11.4765
tentious	-11.4769
▁qua	-11.4775
chen	-11.479
▁lecture	-11.479
tre	-11.479
▁behav	-11.4795
▁scenes	-11.4798
▁prett	-11.4801
▁smokes	-11.4813
ington	-11.4816
▁marks	-11.4836
▁shaws	-11.484
▁writings	-11.484
▁whooo	-11.4851
▁par	-11.4853
gm	-11.4863
lia	-11.4907
rds	-11.4925
▁whip	-11.4926
▁boyfriends	-11.4927
▁talents	-11.493
▁steven	-11.4946
illa	-11.4958
▁cal	-11.4959
▁logic	-11.4964
▁poo	-11.4972
ij	-11.498
ome	-11.4993
chorus	-11.4999
▁gutte	-11.5007
tive	-11.5017
gue	-11.5019
mart	-11.5025
▁stab	-11.5037
▁ou	-11.5057
cca	-11.5061
ank	-11.5074
den	-11.5076
ges	-11.5095
▁differences	-11.5097
▁pickle	-11.5103
nished	-11.5129
ane	-11.5133
oon	-11.5138
utton	-11.5141
cent	-11.5141
rge	-11.5158
die	-11.5174
▁rounds	-11.5178
verv	-11.5183
▁cho	-11.5187
ination	-11.5194
uk	-11.5194
▁optim	-11.5199
enge	-11.5201
ett	-11.5204
▁poster	-11.5206
▁stew	-11.5208
hap	-11.5219
hol	-11.522
▁raisin	-11.5229
aribo	-11.5234
have	-11.5244
▁mont	-11.525
hole	-11.5268
nb	-11.527
hat	-11.5288
▁resting	-11.5288
▁writes	-11.53
owing	-11.5309
▁summers	-11.5313
cho	-11.5329
▁fri	-11.5345
eased	-11.536
ich	-11.538
verse	-11.5382
vie	-11.5388
rained	-11.5395
some	-11.5397
▁mol	-11.541
▁app	-11.5414
agging	-11.5442
col	-11.5445
▁franc	-11.5451
going	-11.5451
cious	-11.5456
▁mur	-11.5492
ular	-11.5509
▁cur	-11.5511
▁regard	-11.552
▁sakes	-11.5536
▁crow	-11.5548
▁sens	-11.5548
▁moo	-11.5556
▁involve	-11.5559
▁pond	-11.5562
▁circle	-11.5563
ork	-11.5565
▁lodge	-11.5567
▁skill	-11.5568
▁earthquake	-11.5568
▁initiate	-11.5568
▁manuscript	-11.5568
▁recruit	-11.5568
▁method	-11.5568
▁obligation	-11.5569
▁economic	-11.557
▁custom	-11.5571
dressed	-11.5572
▁onion	-11.5573
▁races	-11.5576
▁greek	-11.5577
▁decoration	-11.5577
▁fluid	-11.5579
▁hungarian	-11.5581
▁communist	-11.5582
wise	-11.5583
▁screwup	-11.5583
▁anton	-11.5584
▁refugee	-11.5584
▁cramp	-11.5584
▁pawn	-11.5584
▁balloon	-11.5586
▁rumor	-11.5589
▁diaper	-11.559
▁temp	-11.5591
bro	-11.5593
▁tourist	-11.5596
▁parent	-11.5597
▁inhale	-11.5602
cat	-11.5602
▁stray	-11.5606
▁sword	-11.5612
▁cent	-11.5615
▁possess	-11.5619
▁wave	-11.562
gus	-11.5623
▁grounds	-11.5626
ization	-11.5634
itched	-11.564
▁tub	-11.5642
▁bou	-11.5647
▁mcc	-11.5648
▁that	-11.5649
▁researcher	-11.5656
▁graduat	-11.5664
▁graz	-11.5664
▁fields	-11.5665
cab	-11.5665
▁replac	-11.567
▁beck	-11.5673
▁swe	-11.5675
▁nic	-11.5675
▁offend	-11.5679
▁specials	-11.5679
▁tuck	-11.5684
▁haunt	-11.5684
ground	-11.569
burg	-11.5697
▁arc	-11.5697
▁refresh	-11.5698
▁harass	-11.57
speed	-11.5701
▁receiv	-11.5702
▁imply	-11.5703
▁emp	-11.5703
▁register	-11.5704
▁mort	-11.5705
▁annoy	-11.5707
▁accus	-11.5707
▁exp	-11.5707
▁howl	-11.5709
▁murmur	-11.571
brid	-11.5711
▁jan	-11.5711
▁sim	-11.5712
▁attract	-11.5713
umpy	-11.5715
▁portray	-11.5718
▁elect	-11.5719
▁intern	-11.572
▁succeed	-11.572
hearted	-11.5721
enas	-11.5721
▁stump	-11.5721
▁accomplish	-11.5722
dom	-11.5722
▁wreck	-11.5722
▁steel	-11.5723
clip	-11.5726
▁origin	-11.5726
connor	-11.5726
claim	-11.5727
track	-11.5727
▁scoo	-11.5727
▁sympath	-11.5728
like	-11.5728
▁acknowledge	-11.5728
tooth	-11.5728
pierre	-11.5728
drum	-11.5729
three	-11.5729
qua	-11.5729
glaive	-11.573
dollar	-11.573
physical	-11.573
▁conceive	-11.573
fortune	-11.573
winning	-11.573
type	-11.573
▁persuade	-11.573
space	-11.573
dead	-11.573
▁academ	-11.5731
wife	-11.5731
forces	-11.5731
lookin	-11.5731
wind	-11.5731
rapping	-11.5731
large	-11.5731
chief	-11.5731
paid	-11.5732
bearing	-11.5732
▁collapse	-11.5732
▁comp	-11.5732
odor	-11.5733
care	-11.5733
▁reduce	-11.5735
phone	-11.5736
box	-11.5737
▁divide	-11.5737
fund	-11.5737
▁brigad	-11.5737
power	-11.5738
▁supp	-11.5738
▁promote	-11.5739
▁blok	-11.574
fall	-11.5742
▁ruff	-11.5742
▁curren	-11.5742
▁prim	-11.5743
▁wrestle	-11.5744
▁allergi	-11.5744
ject	-11.5744
▁tow	-11.5744
▁tomato	-11.5744
▁ricard	-11.5745
▁region	-11.5745
wer	-11.5745
baby	-11.5746
▁champ	-11.5746
yard	-11.5747
▁precise	-11.5747
▁wend	-11.5748
▁exhibit	-11.5748
▁grisha	-11.5748
▁craw	-11.5748
▁taco	-11.5749
▁fundamental	-11.575
▁kiddin	-11.575
▁micro	-11.575
▁pilgrim	-11.575
▁sarcas	-11.575
▁marvel	-11.575
▁pape	-11.575
ecutive	-11.575
▁whisk	-11.5751
▁glamo	-11.5751
▁makin	-11.5751
▁decade	-11.5751
▁congratulat	-11.5751
▁metaphor	-11.5751
ographer	-11.5751
▁scurry	-11.5751
▁abducted	-11.5751
▁abernathy	-11.5751
▁abstract	-11.5751
▁acquisition	-11.5751
▁airborne	-11.5751
▁alfred	-11.5751
▁alkaseltzer	-11.5751
▁alligator	-11.5751
▁amakasu	-11.5751
▁amazon	-11.5751
▁anvwav	-11.5751
▁anxiety	-11.5751
▁anyhow	-11.5751
▁apologies	-11.5751
▁appliance	-11.5751
▁aristide	-11.5751
▁arrival	-11.5751
▁arriving	-11.5751
▁ashurst	-11.5751
▁aspirations	-11.5751
▁aspire	-11.5751
▁aspirin	-11.5751
▁athlete	-11.5751
▁atlanta	-11.5751
▁balcony	-11.5751
▁barriers	-11.5751
▁beyonc	-11.5751
▁bicycle	-11.5751
▁bimbo	-11.5751
▁boodikka	-11.5751
▁brainwashed	-11.5751
▁brochure	-11.5751
▁cafeteria	-11.5751
▁carnival	-11.5751
▁cassandra	-11.5751
▁censorship	-11.5751
▁chimney	-11.5751
▁cinnamon	-11.5751
▁citadel	-11.5751
▁clumsy	-11.5751
▁commotion	-11.5751
▁competitor	-11.5751
▁comprehend	-11.5751
▁concussion	-11.5751
▁copenhagen	-11.5751
▁copromotion	-11.5751
▁crocodile	-11.5751
▁czech	-11.5751
▁dalip	-11.5751
▁daphne	-11.5751
▁deflect	-11.5751
▁deputies	-11.5751
▁desperation	-11.5751
▁devote	-11.5751
▁devour	-11.5751
▁dictator	-11.5751
▁disobey	-11.5751
▁drautos	-11.5751
▁duguav	-11.5751
▁easiest	-11.5751
▁effmann	-11.5751
▁elisabeth	-11.5751
▁elizabeth	-11.5751
▁enterprises	-11.5751
▁evacuate	-11.5751
▁excavation	-11.5751
▁excellency	-11.5751
▁execution	-11.5751
▁fingernails	-11.5751
▁fontaine	-11.5751
▁forensic	-11.5751
▁fraud	-11.5751
▁frequently	-11.5751
▁frolov	-11.5751
▁fundraiser	-11.5751
▁gardner	-11.5751
▁gasoline	-11.5751
▁goddammit	-11.5751
▁grigori	-11.5751
▁guacamole	-11.5751
▁halloween	-11.5751
▁hemingway	-11.5751
▁humiliation	-11.5751
▁incident	-11.5751
▁infiltrate	-11.5751
▁infirmary	-11.5751
▁integration	-11.5751
▁intolerable	-11.5751
▁intruder	-11.5751
▁investigator	-11.5751
▁ismay	-11.5751
▁jeopardiz	-11.5751
▁jumbo	-11.5751
▁jumpjump	-11.5751
▁kuninao	-11.5751
▁larissa	-11.5751
▁lawsuit	-11.5751
▁lewis	-11.5751
▁lidocaine	-11.5751
▁loudspeaker	-11.5751
▁lucien	-11.5751
▁lucrative	-11.5751
▁maddogged	-11.5751
▁mademoiselle	-11.5751
▁mandelstam	-11.5751
▁manjido	-11.5751
▁mariepaule	-11.5751
▁mechanic	-11.5751
▁migraine	-11.5751
▁miguel	-11.5751
▁mikhailovich	-11.5751
▁monobrow	-11.5751
▁motorcycles	-11.5751
▁mussolini	-11.5751
▁neuromarketing	-11.5751
▁nixon	-11.5751
▁nobodv	-11.5751
▁nuhuh	-11.5751
▁occupation	-11.5751
▁octave	-11.5751
▁oregon	-11.5751
▁overflow	-11.5751
▁paramedic	-11.5751
▁paranoid	-11.5751
▁peculiar	-11.5751
▁penguin	-11.5751
▁pennsylvania	-11.5751
▁petrol	-11.5751
▁physician	-11.5751
▁pivot	-11.5751
▁platform	-11.5751
▁pledge	-11.5751
▁pocketknife	-11.5751
▁practicing	-11.5751
▁prejudice	-11.5751
▁pronounce	-11.5751
▁providing	-11.5751
▁radioactive	-11.5751
▁railroad	-11.5751
▁reconcil	-11.5751
▁rehearsing	-11.5751
▁reluctant	-11.5751
▁remarque	-11.5751
▁resolution	-11.5751
▁resolve	-11.5751
▁resuscitate	-11.5751
▁rethink	-11.5751
▁rhodes	-11.5751
▁rhyme	-11.5751
▁robicheaux	-11.5751
▁rouge	-11.5751
▁scissors	-11.5751
▁secrecy	-11.5751
▁semester	-11.5751
▁seminar	-11.5751
▁serpent	-11.5751
▁shield	-11.5751
▁shotgun	-11.5751
▁sidekick	-11.5751
▁sinatra	-11.5751
▁skeptical	-11.5751
▁solitary	-11.5751
▁somewhat	-11.5751
▁soweto	-11.5751
▁spaghetti	-11.5751
▁species	-11.5751
▁spritze	-11.5751
▁stagger	-11.5751
▁stenwick	-11.5751
▁stransky	-11.5751
▁strategy	-11.5751
▁struggling	-11.5751
▁subjugate	-11.5751
▁sullivan	-11.5751
▁tamtam	-11.5751
▁teresa	-11.5751
▁territories	-11.5751
▁token	-11.5751
▁tonybear	-11.5751
▁toothpaste	-11.5751
▁transmitting	-11.5751
▁treasure	-11.5751
▁tweak	-11.5751
▁ukiyoe	-11.5751
▁unattended	-11.5751
▁undercover	-11.5751
▁unemployment	-11.5751
▁unnecessary	-11.5751
▁utmost	-11.5751
▁veronique	-11.5751
▁volkswagen	-11.5751
▁vourself	-11.5751
▁vulnerable	-11.5751
▁vvedensky	-11.5751
▁warrensmith	-11.5751
▁wichita	-11.5751
▁wisdom	-11.5751
▁woohoo	-11.5751
▁wrangler	-11.5751
▁wrestling	-11.5751
▁yevtushenko	-11.5751
▁bergen	-11.5751
▁berlin	-11.5751
▁chieh	-11.5751
▁complement	-11.5751
▁conform	-11.5751
▁corporate	-11.5751
▁doughnuts	-11.5751
▁emphasi	-11.5751
▁envoy	-11.5751
▁godspell	-11.5751
▁juicy	-11.5751
▁kgb	-11.5751
▁lvovich	-11.5751
▁maddox	-11.5751
▁otto	-11.5751
▁posner	-11.5751
▁pulp	-11.5751
▁scheming	-11.5751
▁scottsdale	-11.5751
▁stalking	-11.5751
▁unarmed	-11.5751
▁vegetables	-11.5751
▁weasel	-11.5751
▁courtesan	-11.5751
▁edited	-11.5751
▁erecti	-11.5751
▁fertilizer	-11.5751
▁fortress	-11.5751
▁java	-11.5751
▁jingling	-11.5751
▁monstro	-11.5751
▁nonstop	-11.5751
▁scandal	-11.5751
▁irritat	-11.5751
▁bueno	-11.5751
▁editing	-11.5751
▁headband	-11.5751
▁ornament	-11.5751
▁utagawa	-11.5751
▁wiring	-11.5751
▁abyss	-11.5751
▁britain	-11.5751
▁callahan	-11.5751
▁swag	-11.5751
▁tahoe	-11.5751
▁chrissake	-11.5751
▁cockroach	-11.5751
▁crutch	-11.5751
▁fosse	-11.5751
▁limp	-11.5751
▁munitions	-11.5751
▁physics	-11.5751
▁vows	-11.5751
▁probing	-11.5751
▁brisk	-11.5751
▁gulp	-11.5751
▁vandal	-11.5751
▁slit	-11.5751
allelu	-11.5751
▁esteem	-11.5751
▁creator	-11.5751
▁mattress	-11.5751
▁curator	-11.5751
▁yelp	-11.5751
▁llfe	-11.5751
▁rehab	-11.5751
▁circulating	-11.5751
▁bunnies	-11.5751
▁communicate	-11.5751
▁defence	-11.5751
▁nitro	-11.5751
▁transition	-11.5751
▁ambition	-11.5751
▁gwend	-11.5751
▁orienta	-11.5751
▁immun	-11.5751
▁assessment	-11.5751
▁bridetobe	-11.5751
▁hahaha	-11.5751
▁wrinkle	-11.5751
▁hippie	-11.5751
▁grease	-11.5751
▁parole	-11.5751
▁hombre	-11.5751
▁pigeon	-11.5751
▁rusty	-11.5751
▁pursuit	-11.5751
▁molecul	-11.5751
▁relations	-11.5751
▁blink	-11.5751
▁dialogue	-11.5751
▁liber	-11.5751
▁liberated	-11.5752
▁decaf	-11.5752
▁clemmie	-11.5752
▁shiver	-11.5752
▁unstable	-11.5752
▁deceiving	-11.5752
▁ethic	-11.5752
▁mixture	-11.5752
▁waltz	-11.5752
credible	-11.5752
▁aching	-11.5752
▁display	-11.5752
▁landscape	-11.5752
▁outrageous	-11.5752
▁yawn	-11.5752
nflict	-11.5752
▁peop	-11.5752
▁argent	-11.5752
▁redemption	-11.5752
▁sicily	-11.5752
▁examination	-11.5752
▁internship	-11.5752
▁pakistani	-11.5752
▁swat	-11.5752
▁omelet	-11.5752
▁africanamerican	-11.5752
▁avenue	-11.5752
▁trolley	-11.5752
▁whitmore	-11.5752
▁compound	-11.5752
▁restrict	-11.5752
▁luanne	-11.5752
▁textbook	-11.5752
▁dislike	-11.5752
▁errand	-11.5752
▁onward	-11.5752
▁runnerup	-11.5752
▁creationism	-11.5752
▁denver	-11.5752
▁download	-11.5752
▁software	-11.5752
▁whoohoo	-11.5752
▁agri	-11.5752
▁hurl	-11.5752
▁lobby	-11.5752
▁slammed	-11.5752
▁spike	-11.5752
▁blurry	-11.5752
▁nomination	-11.5752
▁buckoff	-11.5752
▁opponent	-11.5752
▁microwave	-11.5752
▁opium	-11.5752
▁foryou	-11.5752
▁squadron	-11.5752
▁prostate	-11.5752
▁bullfight	-11.5752
▁quack	-11.5752
▁creation	-11.5752
▁huddle	-11.5752
▁cappie	-11.5752
▁discount	-11.5752
▁insufficient	-11.5752
▁flock	-11.5752
▁excessive	-11.5752
▁joko	-11.5752
▁sammy	-11.5752
▁babysitting	-11.5752
▁bookstore	-11.5752
▁kilman	-11.5752
▁bord	-11.5752
▁benedict	-11.5752
▁francine	-11.5752
▁slipping	-11.5752
▁shelby	-11.5752
▁fading	-11.5752
▁industries	-11.5752
▁torpedoes	-11.5752
▁forehead	-11.5752
▁valentina	-11.5752
▁definition	-11.5752
▁jabu	-11.5752
▁brunch	-11.5752
▁cotton	-11.5752
▁lucii	-11.5752
▁danj	-11.5752
▁trafficker	-11.5753
▁turf	-11.5753
▁mil	-11.5753
▁coleman	-11.5753
▁straw	-11.5753
▁gannon	-11.5753
▁booboo	-11.5753
▁loyalty	-11.5753
▁swine	-11.5753
▁worthwhile	-11.5753
▁consciousness	-11.5753
▁habitat	-11.5753
▁injunction	-11.5753
▁racing	-11.5753
▁choreographer	-11.5753
▁boogum	-11.5753
▁leona	-11.5753
▁improvement	-11.5753
▁permitted	-11.5753
▁penetrate	-11.5753
▁anticipation	-11.5753
▁moonlight	-11.5753
▁bebe	-11.5753
▁backwards	-11.5753
▁ensure	-11.5753
▁hmph	-11.5753
▁pause	-11.5753
▁offence	-11.5753
▁sponsorship	-11.5753
▁fangs	-11.5753
▁defi	-11.5753
▁roadblock	-11.5753
▁tractor	-11.5753
▁nemo	-11.5753
▁slot	-11.5753
▁influen	-11.5753
uhdu	-11.5753
▁addiction	-11.5753
▁mahalo	-11.5753
▁laurent	-11.5754
media	-11.5754
▁flick	-11.5754
▁lutheran	-11.5754
▁filmore	-11.5754
▁mhm	-11.5754
▁distinction	-11.5754
▁aza	-11.5754
▁coron	-11.5754
▁ravus	-11.5754
▁spar	-11.5754
▁destination	-11.5754
▁brun	-11.5754
▁barbie	-11.5754
▁literar	-11.5754
▁dork	-11.5754
▁psychotic	-11.5754
▁buddha	-11.5754
▁rca	-11.5754
▁melancholic	-11.5754
▁poof	-11.5754
▁educated	-11.5754
▁leadership	-11.5755
▁authorization	-11.5755
▁niff	-11.5755
▁retain	-11.5755
▁distribution	-11.5755
▁reflection	-11.5755
▁sunlight	-11.5755
▁regression	-11.5755
▁artillery	-11.5755
▁gnarly	-11.5755
▁insanity	-11.5755
▁chef	-11.5755
▁zeb	-11.5755
▁tempest	-11.5755
▁madison	-11.5755
▁einstein	-11.5755
▁adequate	-11.5755
▁compatible	-11.5755
▁knuckle	-11.5755
▁moderate	-11.5755
▁seventyfive	-11.5755
▁plasma	-11.5755
▁rumbles	-11.5755
▁whirl	-11.5755
▁equality	-11.5755
▁checkpoint	-11.5755
▁peak	-11.5755
▁reign	-11.5755
▁bandits	-11.5755
▁ripped	-11.5755
▁sequel	-11.5755
▁whys	-11.5755
▁sutton	-11.5755
▁fax	-11.5755
▁vanished	-11.5755
▁bribe	-11.5755
▁casing	-11.5755
▁mouse	-11.5755
▁tripped	-11.5756
▁liza	-11.5756
▁pigsty	-11.5756
▁throbbing	-11.5756
▁semi	-11.5756
▁glen	-11.5756
▁boobies	-11.5756
▁tendu	-11.5756
▁milton	-11.5756
▁shek	-11.5756
▁angri	-11.5756
▁inf	-11.5756
▁buckle	-11.5756
▁subscription	-11.5756
▁corruption	-11.5756
▁participate	-11.5756
▁recipe	-11.5756
▁luna	-11.5756
▁shish	-11.5756
▁requirement	-11.5757
▁itit	-11.5757
▁breeze	-11.5757
▁riddle	-11.5757
▁rebe	-11.5757
robic	-11.5757
▁marshall	-11.5757
▁soil	-11.5757
▁republican	-11.5757
▁righteousness	-11.5757
▁dramatically	-11.5757
▁samir	-11.5757
▁selfless	-11.5757
▁virginie	-11.5758
▁detonator	-11.5758
▁teii	-11.5758
assee	-11.5758
▁donegan	-11.5758
▁alito	-11.5758
▁bloodshed	-11.5758
eem	-11.5758
▁mason	-11.5758
▁daughterinlaw	-11.5758
▁hardware	-11.5758
▁withdrawn	-11.5758
▁jesse	-11.5758
▁fda	-11.5758
▁acceptance	-11.5758
▁hui	-11.5758
▁wakefield	-11.5759
▁quivering	-11.5759
▁gurgling	-11.5759
▁rump	-11.5759
▁proto	-11.5759
▁mustache	-11.5759
▁mast	-11.5759
▁spur	-11.5759
▁unison	-11.5759
▁rig	-11.5759
▁rebellio	-11.576
▁executed	-11.576
▁eliminated	-11.576
▁conscious	-11.576
stopp	-11.576
▁maryland	-11.576
▁programmed	-11.576
▁spain	-11.5761
▁broom	-11.5761
▁torn	-11.5761
▁nausea	-11.5761
▁kong	-11.5761
rtan	-11.5761
▁fuzzy	-11.5761
▁ricky	-11.5761
▁weaponry	-11.5761
▁clench	-11.5761
▁frag	-11.5762
▁conventional	-11.5762
▁bishop	-11.5762
▁brotherhood	-11.5762
byl	-11.5762
▁stance	-11.5762
▁permanently	-11.5762
▁inspection	-11.5763
▁surf	-11.5763
▁masha	-11.5763
▁tobe	-11.5763
▁gaines	-11.5763
▁quicklv	-11.5764
▁monte	-11.5764
▁knit	-11.5764
▁unlocked	-11.5764
▁hinge	-11.5764
▁exceed	-11.5764
▁lilies	-11.5764
▁developers	-11.5764
▁yadada	-11.5764
▁accusation	-11.5765
▁schm	-11.5765
▁layton	-11.5765
▁roommate	-11.5765
▁optional	-11.5765
▁tomas	-11.5765
▁excel	-11.5766
▁invaded	-11.5766
offer	-11.5766
▁household	-11.5766
▁sandwiches	-11.5766
▁coop	-11.5767
▁vanity	-11.5767
▁baton	-11.5767
▁hairdo	-11.5767
▁inches	-11.5767
▁essay	-11.5767
▁thong	-11.5768
▁hideous	-11.5768
▁bleeder	-11.5768
▁stack	-11.5768
▁branches	-11.5768
▁shah	-11.5769
▁via	-11.5769
▁quon	-11.5769
▁medal	-11.577
▁bryan	-11.577
▁manipulated	-11.577
▁uter	-11.5771
▁hart	-11.5771
meter	-11.5771
▁detonate	-11.5771
▁betrayal	-11.5771
▁pai	-11.5772
▁rockette	-11.5772
▁highfive	-11.5772
itis	-11.5772
▁typing	-11.5772
▁addicted	-11.5772
▁condemned	-11.5772
▁butthead	-11.5773
▁reduced	-11.5773
▁printed	-11.5773
▁consumed	-11.5773
▁swore	-11.5773
▁vest	-11.5773
▁whom	-11.5774
▁raft	-11.5774
▁flor	-11.5774
▁mav	-11.5775
▁publicity	-11.5775
gorou	-11.5775
▁crank	-11.5776
▁dav	-11.5776
▁superb	-11.5777
▁diner	-11.5777
▁exploded	-11.5778
▁wel	-11.5778
istan	-11.5778
▁suns	-11.5778
▁downs	-11.5778
▁gravel	-11.5779
▁takin	-11.5779
▁aspects	-11.5779
▁immigrants	-11.5779
▁maneuvers	-11.5779
▁parkinsons	-11.5779
▁phillips	-11.5779
knockknock	-11.578
▁heap	-11.578
▁plum	-11.5781
ounce	-11.5781
▁spilled	-11.5781
▁accomplished	-11.5781
▁attracted	-11.5781
▁ash	-11.5782
▁augusta	-11.5782
▁popup	-11.5782
▁active	-11.5782
▁homemade	-11.5782
▁vari	-11.5783
▁traced	-11.5783
▁taint	-11.5783
block	-11.5784
▁hya	-11.5784
vous	-11.5784
▁assembled	-11.5785
▁violeta	-11.5785
▁ton	-11.5786
▁jen	-11.5787
▁slime	-11.5788
▁iraqi	-11.5788
▁cleanup	-11.5788
▁snowman	-11.5788
▁humiliated	-11.5789
▁unto	-11.5789
▁drawn	-11.5789
▁thally	-11.5789
tyre	-11.579
▁freakin	-11.5791
vy	-11.5791
▁parasite	-11.5791
▁wool	-11.5791
▁orr	-11.5792
▁halftime	-11.5792
uce	-11.5792
▁radi	-11.5793
▁git	-11.5795
▁bom	-11.5795
▁betsy	-11.5795
▁janu	-11.5795
▁restored	-11.5795
▁temporary	-11.5795
▁spam	-11.5795
▁idiotic	-11.5796
▁deceive	-11.5796
▁ussr	-11.5797
▁fashioned	-11.5798
▁powerless	-11.5798
▁regarding	-11.5798
conclusive	-11.58
▁sunk	-11.58
ust	-11.58
▁armies	-11.5801
▁angela	-11.5802
▁spill	-11.5803
acher	-11.5803
▁foe	-11.5803
▁bigot	-11.5804
▁ox	-11.5805
▁leftover	-11.5805
▁choked	-11.5806
owski	-11.5807
▁sixth	-11.5808
van	-11.5808
heryl	-11.5809
▁greed	-11.5811
▁disturbing	-11.5811
▁closeup	-11.5812
▁preaching	-11.5813
rz	-11.5814
▁softer	-11.5816
▁pod	-11.5817
▁swipe	-11.5817
▁sniffing	-11.5819
mature	-11.5819
▁cape	-11.5819
ready	-11.5822
▁harle	-11.5823
▁mega	-11.5824
▁squish	-11.5824
▁keyes	-11.5828
▁biscuits	-11.5828
▁insects	-11.5828
▁spears	-11.5828
▁stutters	-11.5828
▁advertisers	-11.583
▁tailor	-11.583
▁luce	-11.5831
iy	-11.5832
▁peep	-11.5832
▁brighter	-11.5833
▁beaches	-11.5833
▁robin	-11.5833
▁rations	-11.5835
▁zing	-11.5835
grad	-11.5835
▁gags	-11.5836
▁followers	-11.5837
▁briefing	-11.5838
heads	-11.5838
▁did	-11.5838
▁aging	-11.5839
yder	-11.584
▁resigned	-11.584
▁alerted	-11.584
▁import	-11.5841
▁punkd	-11.5842
▁positively	-11.5842
▁maxie	-11.5845
▁formation	-11.5845
▁chrom	-11.5846
▁granted	-11.5849
erlock	-11.5849
▁gru	-11.5849
god	-11.5849
▁thankyou	-11.585
▁skateboarding	-11.5851
▁poisoning	-11.5851
▁solved	-11.5852
▁kickin	-11.5854
▁buses	-11.5858
▁robe	-11.5859
ifer	-11.5859
▁venue	-11.586
sucking	-11.5861
▁was	-11.5862
▁abra	-11.5863
▁salon	-11.5864
▁resisting	-11.5864
▁correctly	-11.5864
▁undermin	-11.5865
ladder	-11.5866
▁fainted	-11.5866
▁shabb	-11.5866
▁crashed	-11.5867
▁mccl	-11.5868
▁finale	-11.5871
▁geek	-11.5872
▁confessed	-11.5874
▁ren	-11.5877
▁weaken	-11.5877
▁brushing	-11.5878
▁highp	-11.5878
▁substances	-11.5878
▁survivors	-11.5879
▁whil	-11.5879
▁advertisements	-11.5879
▁consultants	-11.5879
▁smuggler	-11.5884
▁makeover	-11.5885
▁sewer	-11.5886
▁immature	-11.5888
▁jeannettes	-11.589
▁lud	-11.5891
▁attending	-11.5891
▁chilled	-11.5892
▁ves	-11.5894
▁vocaliz	-11.5894
▁teaches	-11.5898
app	-11.5899
▁height	-11.5901
▁container	-11.5902
hoppers	-11.5903
▁mocking	-11.5918
bbing	-11.5919
ware	-11.592
▁internal	-11.592
▁braver	-11.5921
▁lam	-11.5922
▁cardi	-11.5922
▁timm	-11.5923
▁thankful	-11.5926
▁bubble	-11.5926
rl	-11.5927
▁prohibit	-11.5928
▁hungarians	-11.5929
▁fluids	-11.5929
▁greeks	-11.5929
▁decorations	-11.5929
▁swords	-11.5929
▁involves	-11.593
ello	-11.593
▁crows	-11.5933
▁pawns	-11.5934
▁flowing	-11.5934
▁just	-11.5934
▁tourists	-11.5935
▁mop	-11.5938
▁surge	-11.5939
▁deb	-11.5944
▁performed	-11.5945
▁sinking	-11.5946
▁stark	-11.5946
▁laser	-11.5947
▁payment	-11.5948
▁coolest	-11.5948
▁deeper	-11.5949
▁coy	-11.5955
gar	-11.5958
▁tor	-11.596
▁hangin	-11.5969
▁starve	-11.597
▁drifting	-11.5972
▁mixing	-11.5972
▁streams	-11.598
▁references	-11.598
▁spiders	-11.598
▁explodes	-11.5981
▁blankets	-11.5981
▁difficulty	-11.5983
▁delivering	-11.5985
▁gout	-11.5986
▁friggin	-11.5988
icular	-11.5992
▁swi	-11.5994
▁bash	-11.5998
▁sleepin	-11.6001
view	-11.6003
▁girlie	-11.6004
▁hooking	-11.6008
▁greatness	-11.601
lets	-11.6013
▁charged	-11.6014
▁gam	-11.6016
osis	-11.6018
▁tricky	-11.6023
▁dates	-11.6025
▁ruining	-11.6026
▁medi	-11.6028
▁thoughtful	-11.6031
▁spiveys	-11.6031
▁airlines	-11.6031
▁critics	-11.6032
▁beans	-11.6032
rbon	-11.6032
▁tw	-11.6032
robbing	-11.6033
pound	-11.6035
▁peach	-11.6044
▁concerning	-11.6044
▁observ	-11.6056
▁walkin	-11.6058
fa	-11.6061
tologist	-11.6071
▁cured	-11.6071
▁sc	-11.6072
▁ros	-11.6073
▁relatives	-11.6083
▁sessions	-11.6083
▁eboats	-11.6083
▁ranks	-11.6085
▁shipments	-11.6086
▁shithead	-11.6089
bed	-11.6096
▁tags	-11.6096
▁blinded	-11.6098
▁watchin	-11.61
▁performer	-11.6102
mobile	-11.6103
▁booing	-11.6105
▁cages	-11.6127
craft	-11.6132
▁mane	-11.6133
▁neighs	-11.6134
▁sonnets	-11.6134
▁towers	-11.6137
▁nails	-11.6138
▁christmases	-11.614
▁dup	-11.6144
▁bait	-11.6146
▁carve	-11.6152
▁gifted	-11.6156
lobe	-11.6172
snip	-11.6181
▁sweeps	-11.6186
▁applications	-11.6186
▁bearer	-11.6188
▁chu	-11.6205
famous	-11.6206
▁oo	-11.6208
lier	-11.6211
▁tyra	-11.6215
▁achiev	-11.6223
arian	-11.6226
▁slate	-11.6231
▁repeating	-11.6231
iness	-11.6233
eye	-11.6234
▁clinical	-11.6234
▁clays	-11.6238
▁kegs	-11.6238
▁rhythms	-11.6239
▁ir	-11.6243
▁mus	-11.6246
▁rul	-11.6247
▁orderly	-11.6247
▁clippe	-11.625
exic	-11.6251
▁explained	-11.6256
act	-11.6259
▁understa	-11.6264
▁smok	-11.627
▁focusing	-11.6274
mb	-11.6281
▁lamp	-11.6283
terior	-11.629
▁riots	-11.629
▁scripts	-11.6295
▁africans	-11.6295
not	-11.63
▁profits	-11.6311
▁taped	-11.632
▁by	-11.6336
▁fasten	-11.6346
▁texts	-11.6346
▁nana	-11.6354
ould	-11.6354
▁crafts	-11.6358
▁visited	-11.6364
▁starr	-11.6366
ike	-11.6368
▁my	-11.6374
▁milli	-11.6381
▁owners	-11.6391
▁enjoyed	-11.6391
▁rabbits	-11.6396
▁feminists	-11.6396
▁tips	-11.6399
lessness	-11.6402
▁dung	-11.641
tuna	-11.6438
▁stayin	-11.6446
▁diseases	-11.6448
▁views	-11.6448
▁mirrors	-11.6448
▁potters	-11.6449
▁targeting	-11.6449
▁volunteers	-11.645
▁considerabl	-11.645
ppy	-11.6457
▁roller	-11.6457
gs	-11.6458
oop	-11.6464
awa	-11.6464
▁senseless	-11.6475
▁hay	-11.6477
▁conc	-11.6485
▁pala	-11.6487
▁counted	-11.6487
▁importantly	-11.6492
▁generations	-11.6502
eah	-11.6504
▁rad	-11.6507
rez	-11.6518
▁locker	-11.6521
▁movements	-11.6527
▁eras	-11.6549
▁coats	-11.6552
▁grades	-11.6554
▁neon	-11.6554
▁newspapers	-11.6554
▁reservations	-11.6554
▁punks	-11.6556
til	-11.6562
▁bartende	-11.6568
mie	-11.6571
▁workin	-11.6581
ement	-11.6586
▁wires	-11.6592
dding	-11.6597
▁ref	-11.6603
▁bombing	-11.6605
▁bullie	-11.6615
▁valleys	-11.6661
▁bangs	-11.6665
▁reserve	-11.6679
▁naw	-11.6686
port	-11.669
lm	-11.6694
▁lookie	-11.6705
▁beasts	-11.6715
▁decides	-11.672
ahu	-11.672
▁cre	-11.6727
▁pra	-11.6739
pt	-11.6756
acres	-11.6768
▁passports	-11.6769
▁cabinets	-11.6769
oft	-11.6777
posed	-11.6782
▁sites	-11.6806
sensitivity	-11.6808
wig	-11.6811
▁catching	-11.6811
▁lectur	-11.6817
▁melissas	-11.6823
▁bett	-11.6825
▁scores	-11.6825
▁coo	-11.6827
ana	-11.6831
▁fade	-11.6831
ood	-11.6863
akers	-11.6867
▁gall	-11.6874
brah	-11.6876
▁improper	-11.6877
▁crews	-11.6877
▁bridges	-11.6878
sick	-11.6879
▁knick	-11.6915
▁tilt	-11.6919
home	-11.6929
▁apaches	-11.6932
▁vehicles	-11.6932
▁interven	-11.6933
▁bol	-11.6942
verge	-11.6943
gged	-11.6944
▁elements	-11.6986
▁abbotts	-11.6987
▁contests	-11.6987
▁glute	-11.6988
▁rom	-11.6994
par	-11.6999
▁seduc	-11.7004
▁span	-11.7004
▁meditat	-11.7015
▁freaks	-11.7037
lent	-11.7051
▁debri	-11.7057
▁rein	-11.7062
▁gallo	-11.7064
▁pac	-11.7066
▁stra	-11.707
▁operations	-11.7097
▁ovari	-11.7101
▁lively	-11.7104
▁activat	-11.7106
▁translate	-11.7113
▁trad	-11.7116
ide	-11.7118
zan	-11.7119
nded	-11.7131
▁indicat	-11.7131
bre	-11.7133
archie	-11.7165
▁sine	-11.7189
▁sizes	-11.7211
▁criticiz	-11.7216
teen	-11.7217
▁programs	-11.7225
▁sel	-11.723
gon	-11.7273
phan	-11.7274
state	-11.728
za	-11.7287
list	-11.7298
incent	-11.7299
anne	-11.73
▁quadr	-11.7305
▁peanuts	-11.732
▁cooks	-11.7325
hm	-11.7337
▁cans	-11.7371
▁zi	-11.7385
▁wary	-11.7385
shi	-11.7392
▁advis	-11.7397
▁rav	-11.7398
▁foo	-11.7425
▁lind	-11.7426
▁ut	-11.7464
▁shakes	-11.7482
▁violate	-11.7486
▁destroys	-11.7486
ques	-11.749
▁ke	-11.7512
ieu	-11.7523
rth	-11.7537
▁fishie	-11.7567
▁experienc	-11.7575
▁studios	-11.7601
luxe	-11.7602
▁inhuman	-11.7605
▁girlfriends	-11.7605
hank	-11.7608
▁feeds	-11.7609
nies	-11.7613
ries	-11.7617
▁interests	-11.7618
▁seduce	-11.763
rien	-11.7631
▁dar	-11.7632
sses	-11.764
▁intervene	-11.7641
itters	-11.7656
▁winners	-11.7661
ways	-11.7679
▁karat	-11.7684
ini	-11.7685
▁heroin	-11.7686
▁bulls	-11.769
tom	-11.7695
▁diese	-11.7696
▁qui	-11.7703
▁continu	-11.7714
▁rin	-11.7743
▁kno	-11.7745
▁mommys	-11.7775
oration	-11.7829
ila	-11.7906
▁dine	-11.7922
ani	-11.7927
acceptable	-11.7971
cart	-11.7991
alle	-11.8001
overt	-11.8031
▁shi	-11.8095
tha	-11.8124
▁bart	-11.8129
nza	-11.8133
▁dyna	-11.8163
vich	-11.8176
▁assum	-11.8183
tone	-11.8201
▁incom	-11.8206
▁mill	-11.8209
▁unfi	-11.8212
▁it	-11.8222
▁tyr	-11.8224
▁ohho	-11.825
pp	-11.8256
▁ang	-11.8295
marry	-11.8309
six	-11.831
tops	-11.8313
▁cleaner	-11.8314
card	-11.8324
▁banker	-11.8338
cess	-11.8353
shop	-11.8396
▁establish	-11.841
upe	-11.8415
▁glut	-11.8421
▁sai	-11.8422
hopped	-11.8423
▁som	-11.8428
fi	-11.8436
▁bratfis	-11.8466
▁secur	-11.8486
uga	-11.8495
▁tumblin	-11.8497
▁lex	-11.8502
city	-11.8506
itting	-11.8537
▁belch	-11.8548
▁ei	-11.8558
uis	-11.8566
▁nob	-11.857
ise	-11.8577
▁slav	-11.8581
▁inde	-11.8608
gan	-11.8616
quis	-11.8617
avo	-11.8618
▁embar	-11.8638
▁shak	-11.865
▁frickin	-11.8667
nson	-11.867
live	-11.8674
rita	-11.8676
turban	-11.8686
▁construct	-11.8691
ture	-11.8696
▁synd	-11.8697
▁marina	-11.8715
tly	-11.8733
ulated	-11.8736
rot	-11.8747
▁virtu	-11.8749
mel	-11.8755
▁assembl	-11.878
rch	-11.8787
▁celi	-11.879
▁nest	-11.88
▁and	-11.8802
tric	-11.8804
had	-11.8808
emp	-11.8817
ula	-11.8824
▁relat	-11.8825
▁hoot	-11.8829
▁print	-11.8829
▁bore	-11.883
▁bubbl	-11.8846
stoy	-11.8852
ucking	-11.8863
▁grin	-11.887
▁depend	-11.8882
▁vocal	-11.8889
▁defect	-11.889
▁require	-11.8893
▁grunt	-11.8896
shes	-11.8897
rine	-11.89
bag	-11.89
▁substance	-11.891
▁survivor	-11.8911
▁advertisement	-11.8912
▁consultant	-11.8912
▁cigar	-11.8914
▁regulation	-11.8915
tched	-11.8915
▁sheet	-11.8916
▁eunuch	-11.8918
▁headquarter	-11.8918
▁snort	-11.8918
▁negotiation	-11.8922
arms	-11.8923
▁whoop	-11.8924
while	-11.8925
▁rib	-11.8925
▁bul	-11.8926
▁corp	-11.8927
▁interfer	-11.8935
▁asset	-11.8951
breaker	-11.8958
gal	-11.8961
▁ohhh	-11.8969
founded	-11.8974
▁snob	-11.8976
rows	-11.8982
hn	-11.8983
reaking	-11.8984
eezing	-11.8989
poli	-11.8989
▁brutal	-11.8989
▁instruct	-11.899
▁thrash	-11.8999
sparag	-11.9001
▁cruis	-11.9002
▁discre	-11.9002
▁drone	-11.9006
stage	-11.9007
▁stir	-11.9009
icle	-11.9009
▁narcissist	-11.9013
▁surround	-11.9013
▁disrespect	-11.9015
ech	-11.902
azz	-11.9024
witch	-11.9025
train	-11.9028
numbered	-11.903
▁invit	-11.9031
▁compar	-11.9031
▁bloom	-11.9032
▁crunch	-11.9032
▁holler	-11.9034
▁iraq	-11.9035
▁insult	-11.9036
▁injur	-11.9036
east	-11.9037
▁refus	-11.9038
▁aveng	-11.904
▁lurk	-11.904
▁whinny	-11.9042
title	-11.9043
▁inspir	-11.9044
▁creak	-11.9044
▁notic	-11.9045
uddle	-11.9045
cott	-11.9046
lift	-11.9049
▁sustain	-11.9051
▁clan	-11.9051
sticks	-11.9051
▁addict	-11.9053
▁repair	-11.9054
step	-11.9054
▁peek	-11.9054
▁condemn	-11.9055
▁dow	-11.9056
▁reveal	-11.9056
▁edg	-11.9056
girl	-11.9057
point	-11.9057
historic	-11.9057
▁porn	-11.9058
with	-11.9059
▁profession	-11.9059
▁bur	-11.906
▁grocer	-11.9061
origin	-11.9061
cultural	-11.9062
search	-11.9062
identified	-11.9062
soaked	-11.9062
▁occur	-11.9062
activity	-11.9062
pipe	-11.9062
▁sacr	-11.9062
front	-11.9062
passes	-11.9063
proof	-11.9063
▁bake	-11.9063
published	-11.9063
condition	-11.9063
level	-11.9063
▁donate	-11.9063
glasses	-11.9063
official	-11.9063
▁confine	-11.9063
▁combine	-11.9063
▁conclude	-11.9063
▁investigate	-11.9063
loving	-11.9063
standing	-11.9063
deep	-11.9064
intelligence	-11.9064
children	-11.9064
different	-11.9064
talk	-11.9064
together	-11.9064
people	-11.9064
class	-11.9064
▁responsibilit	-11.9064
▁invade	-11.9064
inlaw	-11.9064
▁oppose	-11.9065
cause	-11.9065
▁expose	-11.9065
around	-11.9066
chester	-11.9066
bitch	-11.9067
▁assign	-11.9067
▁inhal	-11.9067
itchy	-11.9067
▁manipulate	-11.9067
▁strik	-11.9068
boil	-11.9068
wait	-11.9068
▁ordinar	-11.9068
▁probabl	-11.9069
▁permanent	-11.9069
bound	-11.9069
fold	-11.9069
▁assassin	-11.907
magneti	-11.907
▁overhea	-11.9071
fever	-11.9071
lay	-11.9071
pump	-11.9071
▁anhe	-11.9072
fight	-11.9072
hmm	-11.9072
▁clog	-11.9073
▁swaddl	-11.9073
pants	-11.9073
pow	-11.9073
uma	-11.9073
▁literal	-11.9074
▁offens	-11.9074
▁revolv	-11.9074
▁hunter	-11.9074
▁slack	-11.9074
appa	-11.9076
▁indicate	-11.9077
burger	-11.9077
▁stitch	-11.9077
▁julian	-11.9078
▁feminis	-11.9079
estine	-11.9079
▁zo	-11.9081
▁collaborat	-11.9081
▁andr	-11.9082
▁anticipat	-11.9082
▁economi	-11.9082
▁choi	-11.9082
▁institut	-11.9082
▁plugg	-11.9082
imony	-11.9082
▁blazin	-11.9082
▁mornin	-11.9082
oogum	-11.9083
▁serge	-11.9083
hut	-11.9083
boat	-11.9083
▁tract	-11.9083
▁confus	-11.9083
annah	-11.9084
▁babysit	-11.9084
tral	-11.9084
▁differ	-11.9084
graph	-11.9084
▁spittin	-11.9084
intellig	-11.9084
stock	-11.9084
ification	-11.9084
▁brazil	-11.9084
▁insur	-11.9084
rainin	-11.9084
rrific	-11.9084
▁afghan	-11.9084
▁thundercl	-11.9084
▁illustr	-11.9085
▁aleksandr	-11.9085
▁apprais	-11.9085
▁automatic	-11.9085
▁befriend	-11.9085
▁infected	-11.9085
▁slob	-11.9085
▁unsettl	-11.9085
egreg	-11.9085
myelosuppression	-11.9085
viloula	-11.9085
▁abundan	-11.9085
▁acacia	-11.9085
▁accumulate	-11.9085
▁acknowledging	-11.9085
▁activities	-11.9085
▁ahmadinejad	-11.9085
▁aleluya	-11.9085
▁allegiance	-11.9085
▁amnesia	-11.9085
▁amphion	-11.9085
▁announcing	-11.9085
▁antenna	-11.9085
▁anvthing	-11.9085
▁anvwhere	-11.9085
▁apartheid	-11.9085
▁approval	-11.9085
▁approximat	-11.9085
▁april	-11.9085
▁arrogance	-11.9085
▁ashore	-11.9085
▁ashtray	-11.9085
▁association	-11.9085
▁astound	-11.9085
▁asylum	-11.9085
▁atmosphere	-11.9085
▁ayatollah	-11.9085
▁baccarat	-11.9085
▁bachelorette	-11.9085
▁bamakal	-11.9085
▁believing	-11.9085
▁bopaloobop	-11.9085
▁brezhnev	-11.9085
▁bricklayer	-11.9085
▁brittany	-11.9085
▁bukowski	-11.9085
▁caboose	-11.9085
▁cackling	-11.9085
▁camouflage	-11.9085
▁candace	-11.9085
▁carpenter	-11.9085
▁catastrophe	-11.9085
▁cavalry	-11.9085
▁celebrities	-11.9085
▁cheddar	-11.9085
▁cherubs	-11.9085
▁chitlin	-11.9085
▁cisco	-11.9085
▁coldblooded	-11.9085
▁conclusion	-11.9085
▁congrats	-11.9085
▁congregation	-11.9085
▁contempt	-11.9085
▁convincing	-11.9085
▁coordinator	-11.9085
▁corridor	-11.9085
▁courier	-11.9085
▁credential	-11.9085
▁crotch	-11.9085
▁dauntlessborn	-11.9085
▁decency	-11.9085
▁decoding	-11.9085
▁defensive	-11.9085
▁delfont	-11.9085
▁deodorant	-11.9085
▁description	-11.9085
▁desirable	-11.9085
▁despair	-11.9085
▁devotion	-11.9085
▁dictionary	-11.9085
▁dilemma	-11.9085
▁discharge	-11.9085
▁disoriented	-11.9085
▁disown	-11.9085
▁disperse	-11.9085
▁dissolve	-11.9085
▁dolphins	-11.9085
▁doorknob	-11.9085
▁dowager	-11.9085
▁downstream	-11.9085
▁eggleston	-11.9085
▁embalming	-11.9085
▁emerging	-11.9085
▁enchilada	-11.9085
▁endorsement	-11.9085
▁enthusiasm	-11.9085
▁enthusiastic	-11.9085
▁episode	-11.9085
▁eradicat	-11.9085
▁ernesto	-11.9085
▁ethnohistorian	-11.9085
▁evaluate	-11.9085
▁exploding	-11.9085
▁footprint	-11.9085
▁frustrating	-11.9085
▁gadbaw	-11.9085
▁gendarme	-11.9085
▁genocide	-11.9085
▁gestapo	-11.9085
▁glauca	-11.9085
▁gnome	-11.9085
▁gobefren	-11.9085
▁habsburg	-11.9085
▁hampton	-11.9085
▁hasbeen	-11.9085
▁hashtag	-11.9085
▁hector	-11.9085
▁helicopter	-11.9085
▁hellraiser	-11.9085
▁hemisphere	-11.9085
▁hendrix	-11.9085
▁herbert	-11.9085
▁hirohito	-11.9085
▁homicide	-11.9085
▁hooligans	-11.9085
▁hsiaohsiu	-11.9085
▁humbug	-11.9085
▁hurghada	-11.9085
▁hypo	-11.9085
▁iginol	-11.9085
▁ignoran	-11.9085
▁ignoring	-11.9085
▁immeasurable	-11.9085
▁implement	-11.9085
▁incapable	-11.9085
▁inherit	-11.9085
▁initiation	-11.9085
▁intact	-11.9085
▁invincible	-11.9085
▁irresponsible	-11.9085
▁israel	-11.9085
▁jessica	-11.9085
▁jiffy	-11.9085
▁kafka	-11.9085
▁kandinsky	-11.9085
▁kathleen	-11.9085
▁keffeir	-11.9085
▁kowtow	-11.9085
▁kuomintang	-11.9085
▁landlady	-11.9085
▁lezignac	-11.9085
▁lmagine	-11.9085
▁lolita	-11.9085
▁mamacita	-11.9085
▁manufactur	-11.9085
▁marseille	-11.9085
▁marvellous	-11.9085
▁mcclellan	-11.9085
▁memorial	-11.9085
▁mercenary	-11.9085
▁mislead	-11.9085
▁monroe	-11.9085
▁mossad	-11.9085
▁motivate	-11.9085
▁mujahideen	-11.9085
▁mushroom	-11.9085
▁muslim	-11.9085
▁mystery	-11.9085
▁nabokov	-11.9085
▁natasha	-11.9085
▁neurosurge	-11.9085
▁nielsen	-11.9085
▁nifontov	-11.9085
▁nonetheless	-11.9085
▁noogie	-11.9085
▁nuisance	-11.9085
▁nureyev	-11.9085
▁nutrition	-11.9085
▁obsessed	-11.9085
▁obstacle	-11.9085
▁offshore	-11.9085
▁olympic	-11.9085
▁parlor	-11.9085
▁pavilion	-11.9085
▁peoria	-11.9085
▁phenomenon	-11.9085
▁phoenix	-11.9085
▁picnic	-11.9085
▁pippin	-11.9085
▁plesac	-11.9085
▁pompadour	-11.9085
▁pontoon	-11.9085
▁population	-11.9085
▁portugal	-11.9085
▁possum	-11.9085
▁pouch	-11.9085
▁practitioner	-11.9085
▁pristine	-11.9085
▁privy	-11.9085
▁propellers	-11.9085
▁prophecie	-11.9085
▁prosecut	-11.9085
▁protegee	-11.9085
▁psychopath	-11.9085
▁pulitzer	-11.9085
▁racket	-11.9085
▁recognise	-11.9085
▁redirect	-11.9085
▁redundant	-11.9085
▁residency	-11.9085
▁respiration	-11.9085
▁retching	-11.9085
▁retriev	-11.9085
▁reunion	-11.9085
▁rheingold	-11.9085
▁rizzolis	-11.9085
▁roissy	-11.9085
▁rosseter	-11.9085
▁rumplemayers	-11.9085
▁safeguard	-11.9085
▁sapien	-11.9085
▁schoolteacher	-11.9085
▁scribble	-11.9085
▁scroggins	-11.9085
▁scythe	-11.9085
▁segregation	-11.9085
▁selfdefense	-11.9085
▁separation	-11.9085
▁serenity	-11.9085
▁shambuck	-11.9085
▁shareholders	-11.9085
▁shepherd	-11.9085
▁shreveport	-11.9085
▁shtarker	-11.9085
▁siblings	-11.9085
▁simpson	-11.9085
▁simulation	-11.9085
▁singlespaced	-11.9085
▁sklar	-11.9085
▁sloppy	-11.9085
▁sorority	-11.9085
▁sought	-11.9085
▁spiel	-11.9085
▁spock	-11.9085
▁sponge	-11.9085
▁spunky	-11.9085
▁squirrel	-11.9085
▁stalker	-11.9085
▁steinbeck	-11.9085
▁stimela	-11.9085
▁stokau	-11.9085
▁strangling	-11.9085
▁strung	-11.9085
▁stumble	-11.9085
▁submerged	-11.9085
▁submit	-11.9085
▁substanti	-11.9085
▁substitute	-11.9085
▁summit	-11.9085
▁summon	-11.9085
▁supercharge	-11.9085
▁supermarket	-11.9085
▁swollen	-11.9085
▁sydney	-11.9085
▁tajik	-11.9085
▁tampons	-11.9085
▁temporal	-11.9085
▁tendency	-11.9085
▁theories	-11.9085
▁therapist	-11.9085
▁thieves	-11.9085
▁thompson	-11.9085
▁toffee	-11.9085
▁townsfolk	-11.9085
▁troglo	-11.9085
▁tropical	-11.9085
▁tucson	-11.9085
▁twilight	-11.9085
▁twirl	-11.9085
▁ukrinsky	-11.9085
▁unemployed	-11.9085
▁ungrateful	-11.9085
▁unjam	-11.9085
▁unsuccessful	-11.9085
▁uprising	-11.9085
▁vacant	-11.9085
▁vibrant	-11.9085
▁vocabulary	-11.9085
▁voicemail	-11.9085
▁voyage	-11.9085
▁watermelon	-11.9085
▁yeeha	-11.9085
▁yogurt	-11.9085
▁zeppelin	-11.9085
▁accurate	-11.9085
▁baboon	-11.9085
▁bff	-11.9085
▁bourgeois	-11.9085
▁convenient	-11.9085
▁deceit	-11.9085
▁dutch	-11.9085
▁erotic	-11.9085
▁flounder	-11.9085
▁geometr	-11.9085
▁grotesque	-11.9085
▁handshake	-11.9085
▁impair	-11.9085
▁korea	-11.9085
▁snail	-11.9085
▁steep	-11.9085
▁wannabe	-11.9085
▁website	-11.9085
▁arbor	-11.9085
▁beacons	-11.9085
▁biochemistry	-11.9085
▁buffalo	-11.9085
▁candid	-11.9085
▁cannibalism	-11.9085
▁chainsaw	-11.9085
▁charging	-11.9085
▁denali	-11.9085
▁dennis	-11.9085
▁dickinson	-11.9085
▁distinguished	-11.9085
▁drastic	-11.9085
▁dylan	-11.9085
▁easv	-11.9085
▁emblem	-11.9085
▁firstborn	-11.9085
▁gauge	-11.9085
▁ghouls	-11.9085
▁gillesse	-11.9085
▁hazelnuts	-11.9085
▁hollow	-11.9085
▁leverage	-11.9085
▁lillian	-11.9085
▁margin	-11.9085
▁outlaw	-11.9085
▁parched	-11.9085
▁purity	-11.9085
▁simultaneous	-11.9085
▁snipers	-11.9085
▁taiwan	-11.9085
▁terminal	-11.9085
▁waiver	-11.9085
▁warbling	-11.9085
dnik	-11.9085
▁comfy	-11.9085
▁curfew	-11.9085
▁deprive	-11.9085
▁dutv	-11.9085
▁fishermen	-11.9085
▁hippo	-11.9085
▁larkin	-11.9085
▁limbs	-11.9085
▁mccoy	-11.9085
▁oath	-11.9085
▁protein	-11.9085
▁qualified	-11.9085
▁reneg	-11.9085
▁selfpro	-11.9085
▁spicy	-11.9085
▁stimulat	-11.9085
▁systematic	-11.9085
▁trek	-11.9085
▁wilderness	-11.9085
▁willows	-11.9085
mboree	-11.9085
▁bulgaria	-11.9085
▁compress	-11.9085
▁enema	-11.9085
▁jasmine	-11.9085
▁marvin	-11.9085
▁mumbles	-11.9085
▁nevertheless	-11.9085
▁ovation	-11.9085
▁pft	-11.9085
▁rudolph	-11.9085
▁trophy	-11.9085
▁weave	-11.9085
▁agnes	-11.9085
▁blitz	-11.9085
▁enlighten	-11.9085
▁harmony	-11.9085
▁patricia	-11.9085
▁ransack	-11.9085
▁telegraph	-11.9085
▁thonon	-11.9085
▁vagina	-11.9085
▁applicable	-11.9085
▁caffein	-11.9085
▁groomsmen	-11.9085
▁jensen	-11.9085
▁promoting	-11.9085
▁propaganda	-11.9085
▁salud	-11.9085
▁salvador	-11.9085
▁skewe	-11.9085
▁spook	-11.9085
▁thesis	-11.9085
▁viral	-11.9085
▁weiss	-11.9085
▁whirs	-11.9085
▁exiled	-11.9085
▁greasy	-11.9085
▁microchip	-11.9085
▁nachite	-11.9085
▁operative	-11.9085
▁stamp	-11.9085
▁superstar	-11.9085
▁volare	-11.9085
▁aswan	-11.9085
▁diving	-11.9085
▁ecstasy	-11.9085
▁countrv	-11.9085
▁abnormal	-11.9085
▁evangelical	-11.9085
▁floorboards	-11.9085
▁grasp	-11.9085
▁lesbo	-11.9085
▁untie	-11.9085
▁wolve	-11.9085
▁alloy	-11.9085
▁expans	-11.9085
▁nightgown	-11.9085
▁chaste	-11.9085
▁neighbourhood	-11.9085
▁thrive	-11.9085
▁acquaintance	-11.9085
▁babbling	-11.9085
▁distortion	-11.9085
▁donkey	-11.9085
▁stephens	-11.9085
▁bureaucrat	-11.9085
▁rubles	-11.9085
▁selection	-11.9085
▁ethn	-11.9085
▁ninny	-11.9085
▁premier	-11.9085
▁tonsils	-11.9085
▁judicia	-11.9085
▁mccarthy	-11.9085
▁abomination	-11.9085
▁hardworking	-11.9085
▁swap	-11.9085
▁swapped	-11.9085
▁vicinity	-11.9085
▁dvd	-11.9085
▁koran	-11.9085
▁reenactment	-11.9085
▁ashlie	-11.9085
▁basketball	-11.9085
▁reek	-11.9085
▁insert	-11.9085
▁justify	-11.9085
▁mitchell	-11.9085
▁antonito	-11.9085
▁blockbuster	-11.9085
▁plaque	-11.9085
▁midwest	-11.9085
▁rigged	-11.9085
▁smores	-11.9085
▁fraley	-11.9085
▁apost	-11.9085
▁bliss	-11.9085
▁communicating	-11.9085
▁grammy	-11.9085
▁blackboards	-11.9085
▁metaphorical	-11.9085
▁saunter	-11.9085
▁assassinated	-11.9085
▁resent	-11.9085
▁correspondent	-11.9085
▁evaluation	-11.9085
▁wisconsin	-11.9085
▁capitol	-11.9085
▁commenc	-11.9085
▁keats	-11.9085
▁persistence	-11.9085
▁temperament	-11.9085
▁ezekieljakobson	-11.9085
▁notified	-11.9085
▁snowflakes	-11.9085
policies	-11.9085
▁friendlies	-11.9085
▁sphere	-11.9085
▁lottery	-11.9085
▁zionists	-11.9085
▁cherries	-11.9085
▁crawfish	-11.9085
▁distress	-11.9085
▁swordfish	-11.9085
erman	-11.9085
▁disinfectant	-11.9085
▁drummer	-11.9085
▁lyons	-11.9085
▁nerine	-11.9085
neoplas	-11.9085
▁gratitude	-11.9085
▁humility	-11.9085
▁incoherent	-11.9085
▁colli	-11.9085
▁obtain	-11.9085
atherine	-11.9085
▁silverware	-11.9085
▁urine	-11.9085
▁venice	-11.9085
▁whatcha	-11.9085
▁dependent	-11.9085
▁provision	-11.9085
▁mavbe	-11.9085
▁delegation	-11.9085
▁dope	-11.9085
▁fender	-11.9085
▁drool	-11.9085
▁riley	-11.9085
▁navigator	-11.9085
▁cinema	-11.9085
▁diddy	-11.9085
▁disneyland	-11.9085
▁stool	-11.9085
▁xbox	-11.9085
▁cartoon	-11.9085
▁wuss	-11.9085
▁ikeep	-11.9085
▁petition	-11.9085
▁psychology	-11.9085
▁scrutin	-11.9085
▁yacht	-11.9085
▁captive	-11.9085
amese	-11.9085
▁extensive	-11.9085
▁granny	-11.9085
▁mailbox	-11.9085
vocation	-11.9085
▁jamison	-11.9085
▁claw	-11.9085
▁twentynine	-11.9085
▁beads	-11.9085
▁pudding	-11.9085
▁reassur	-11.9085
▁upgrade	-11.9085
▁glamour	-11.9085
▁connie	-11.9085
▁behold	-11.9086
▁alaska	-11.9086
▁cheeseburger	-11.9086
▁napoleon	-11.9086
▁yada	-11.9086
▁ephra	-11.9086
▁bastianini	-11.9086
▁clack	-11.9086
▁babble	-11.9086
▁panzer	-11.9086
▁decline	-11.9086
▁disturbance	-11.9086
▁xray	-11.9086
▁slamming	-11.9086
▁gringo	-11.9086
▁lungs	-11.9086
▁whoohoohoo	-11.9086
ranium	-11.9086
▁concede	-11.9086
▁counterfeit	-11.9086
▁razz	-11.9086
▁elders	-11.9086
▁kimball	-11.9086
▁spitfire	-11.9086
▁tiring	-11.9086
▁claret	-11.9086
▁shoplift	-11.9086
▁nannies	-11.9086
▁plaid	-11.9086
▁repent	-11.9086
▁vanilla	-11.9086
▁verbal	-11.9086
▁flinch	-11.9086
▁medley	-11.9086
▁monol	-11.9086
▁donald	-11.9086
toxic	-11.9086
▁creem	-11.9086
▁psg	-11.9086
▁stripped	-11.9086
▁ramad	-11.9086
▁flank	-11.9086
▁frisk	-11.9086
▁pilgrimage	-11.9086
▁stairwell	-11.9086
▁transferred	-11.9086
▁congressman	-11.9086
▁ultra	-11.9086
▁porch	-11.9086
▁duff	-11.9086
▁daddies	-11.9086
▁outlay	-11.9086
▁libra	-11.9086
▁courtmartial	-11.9086
▁gambling	-11.9086
▁plaster	-11.9086
▁adultery	-11.9086
▁employment	-11.9086
▁affectionate	-11.9086
▁hostile	-11.9086
▁punctuation	-11.9086
▁revision	-11.9086
therwise	-11.9086
▁springfield	-11.9086
▁handwriting	-11.9086
▁diagnosed	-11.9086
▁stateofthe	-11.9086
▁squid	-11.9086
▁cache	-11.9087
▁spice	-11.9087
▁roach	-11.9087
arina	-11.9087
▁jewelry	-11.9087
▁fundamentalist	-11.9087
▁peking	-11.9087
▁sanction	-11.9087
▁panels	-11.9087
▁tracy	-11.9087
▁liberation	-11.9087
▁frankenstein	-11.9087
▁neville	-11.9087
▁disney	-11.9087
▁luche	-11.9087
▁amput	-11.9087
▁notification	-11.9087
ribbon	-11.9087
▁lesa	-11.9087
▁marlin	-11.9087
▁radiation	-11.9087
▁excon	-11.9087
▁meltdown	-11.9087
▁dread	-11.9087
pee	-11.9087
▁uber	-11.9087
▁brew	-11.9087
▁denial	-11.9087
again	-11.9087
▁stripper	-11.9087
▁diversion	-11.9087
▁untold	-11.9087
▁brute	-11.9087
▁nsa	-11.9087
▁pursue	-11.9087
▁griev	-11.9087
▁confusion	-11.9087
▁bel	-11.9087
▁loco	-11.9087
▁hesitate	-11.9087
▁danko	-11.9087
▁pillar	-11.9087
▁interaction	-11.9087
▁unconscious	-11.9087
▁poisonous	-11.9087
▁oohooh	-11.9087
▁curb	-11.9088
▁woodward	-11.9088
▁scoreboard	-11.9088
▁compassionate	-11.9088
▁forum	-11.9088
▁imbecile	-11.9088
▁collectors	-11.9088
▁braid	-11.9088
▁hungover	-11.9088
▁footlong	-11.9088
▁dora	-11.9088
▁witty	-11.9088
▁aaaw	-11.9088
▁convertible	-11.9088
▁lsland	-11.9088
▁obli	-11.9088
▁caption	-11.9088
▁labour	-11.9088
ladi	-11.9088
▁attendant	-11.9088
▁memo	-11.9088
▁diaz	-11.9088
▁alcoholism	-11.9088
▁wildlife	-11.9088
izz	-11.9088
▁rational	-11.9088
▁trumpet	-11.9088
▁tothe	-11.9088
▁bummed	-11.9088
▁grisham	-11.9088
▁selfdestruct	-11.9088
▁scripture	-11.9089
▁reclaim	-11.9089
▁reich	-11.9089
▁uglie	-11.9089
▁semion	-11.9089
▁programming	-11.9089
▁lyin	-11.9089
▁reaii	-11.9089
▁seattle	-11.9089
▁perver	-11.9089
▁colonies	-11.9089
▁recite	-11.9089
▁elves	-11.9089
▁thatthat	-11.9089
▁cruelty	-11.9089
▁meatball	-11.9089
▁robberies	-11.9089
▁purchased	-11.9089
▁retro	-11.9089
▁freelanc	-11.9089
▁scroll	-11.9089
▁malar	-11.9089
▁redeye	-11.9089
▁tide	-11.9089
▁prettier	-11.9089
▁roam	-11.9089
▁decre	-11.9089
▁oui	-11.9089
▁sparrow	-11.9089
▁patent	-11.909
▁thirtyfive	-11.909
▁cork	-11.909
enzy	-11.909
▁blueberry	-11.909
▁hillside	-11.909
▁sketchy	-11.909
▁turk	-11.909
▁resembl	-11.909
▁xmen	-11.909
▁orion	-11.909
▁phrase	-11.909
▁spectr	-11.909
yllis	-11.909
▁speechless	-11.909
entity	-11.909
opher	-11.909
▁underway	-11.909
▁curve	-11.909
▁vander	-11.909
▁viking	-11.909
▁groin	-11.9091
▁subtle	-11.9091
▁polo	-11.9091
▁loneliness	-11.9091
▁apb	-11.9091
▁compensation	-11.9091
▁contradiction	-11.9091
▁prompt	-11.9091
▁disgraceful	-11.9091
▁hamst	-11.9091
▁waist	-11.9091
▁filmmaker	-11.9091
▁flee	-11.9091
▁leaf	-11.9091
▁viril	-11.9091
▁absorbed	-11.9091
▁rio	-11.9091
▁regretted	-11.9092
▁tread	-11.9092
▁salute	-11.9092
▁batch	-11.9092
▁natali	-11.9092
▁whim	-11.9092
▁ambi	-11.9092
▁jule	-11.9092
▁investment	-11.9092
▁stitches	-11.9092
▁roaches	-11.9092
▁ode	-11.9092
▁straightaway	-11.9092
▁smother	-11.9092
▁reload	-11.9092
▁commune	-11.9092
▁hotshot	-11.9092
▁macho	-11.9092
▁abuse	-11.9092
▁ieds	-11.9092
▁testimony	-11.9092
▁stockhol	-11.9093
▁statute	-11.9093
▁wireless	-11.9093
▁outline	-11.9093
▁schoolgirl	-11.9093
▁regional	-11.9093
▁christina	-11.9093
▁justin	-11.9093
▁stern	-11.9093
▁doorstep	-11.9093
▁railway	-11.9093
▁disk	-11.9093
acco	-11.9093
▁loner	-11.9093
▁spitter	-11.9093
▁preachin	-11.9093
▁battleship	-11.9093
▁shellback	-11.9093
▁alison	-11.9094
▁emmy	-11.9094
▁hooves	-11.9094
▁shortcut	-11.9094
▁belongings	-11.9094
▁brock	-11.9094
▁refine	-11.9094
▁delinquent	-11.9094
▁hairpin	-11.9094
▁hysterically	-11.9094
▁utterly	-11.9094
▁settlement	-11.9094
▁motherinlaw	-11.9094
▁rockaway	-11.9094
▁dripping	-11.9095
▁shabbes	-11.9095
▁speculat	-11.9095
▁arouse	-11.9095
vier	-11.9095
▁allergies	-11.9095
▁zion	-11.9095
▁identities	-11.9095
mbie	-11.9095
▁harmless	-11.9095
▁alda	-11.9095
▁reef	-11.9095
▁wrestler	-11.9095
▁cuttin	-11.9095
▁sizzling	-11.9095
▁revolver	-11.9096
▁silas	-11.9096
▁galli	-11.9096
▁slacker	-11.9096
quet	-11.9096
▁cheerful	-11.9096
▁lockdown	-11.9096
▁boycott	-11.9096
▁civilization	-11.9096
▁bub	-11.9097
▁bluffing	-11.9097
▁villagers	-11.9097
▁sisterhood	-11.9097
▁coven	-11.9097
▁controller	-11.9097
▁jeanine	-11.9097
▁joyce	-11.9097
▁sara	-11.9097
▁caf	-11.9097
▁spitting	-11.9097
▁defector	-11.9097
▁thread	-11.9097
ications	-11.9097
▁intr	-11.9098
khan	-11.9098
nika	-11.9098
▁admitted	-11.9098
▁fuse	-11.9098
▁yearbook	-11.9098
boom	-11.9098
▁nox	-11.9098
▁sundown	-11.9098
commod	-11.9098
▁thru	-11.9099
▁trio	-11.9099
▁peril	-11.9099
▁copier	-11.9099
▁crawlin	-11.9099
▁fireplace	-11.9099
▁napisy	-11.9099
west	-11.9099
▁impal	-11.9099
ubie	-11.9099
▁significant	-11.91
▁width	-11.91
▁daisy	-11.91
▁artwork	-11.91
▁heroism	-11.91
▁despise	-11.91
▁humanists	-11.91
▁imitate	-11.91
▁astr	-11.91
▁canned	-11.9101
past	-11.9101
▁potion	-11.9101
▁hopelessly	-11.9101
ounge	-11.9101
▁kinky	-11.9101
rose	-11.9101
feld	-11.9102
▁scenery	-11.9102
▁income	-11.9102
kok	-11.9102
▁travelling	-11.9102
▁fictional	-11.9102
pid	-11.9102
▁restart	-11.9103
bson	-11.9103
▁deport	-11.9103
▁pear	-11.9103
▁acquir	-11.9103
▁funky	-11.9103
▁appointed	-11.9103
▁portion	-11.9103
▁sittin	-11.9103
▁agony	-11.9103
▁menace	-11.9104
▁they	-11.9104
▁dodger	-11.9104
▁reside	-11.9104
▁examine	-11.9104
▁troll	-11.9104
▁frown	-11.9104
▁huss	-11.9105
▁cellar	-11.9105
▁logo	-11.9105
▁unpack	-11.9105
▁hideand	-11.9105
rank	-11.9105
▁connecti	-11.9105
avoc	-11.9105
▁sniffer	-11.9106
▁luckily	-11.9106
▁combined	-11.9106
▁concluded	-11.9106
▁confined	-11.9106
▁investigated	-11.9106
idel	-11.9106
▁baked	-11.9106
antali	-11.9106
▁peru	-11.9106
▁hippy	-11.9106
▁tuxes	-11.9106
▁headsup	-11.9107
▁wonderland	-11.9107
▁extract	-11.9107
gment	-11.9107
▁skv	-11.9107
fumes	-11.9107
loud	-11.9108
▁stealth	-11.9108
▁midst	-11.9108
▁sellout	-11.9108
▁grocery	-11.9108
▁airship	-11.9108
▁goofy	-11.9109
▁ironic	-11.9109
jakobson	-11.9109
▁payback	-11.9109
▁turd	-11.9109
▁maddie	-11.9109
▁experimental	-11.9109
▁jaw	-11.911
▁anhey	-11.911
thetic	-11.9111
▁protective	-11.9111
▁elf	-11.9113
▁emerge	-11.9113
▁exclusively	-11.9114
▁accompanying	-11.9114
▁persuaded	-11.9114
▁prow	-11.9114
▁err	-11.9114
▁gem	-11.9114
▁echoing	-11.9115
▁duh	-11.9115
▁witnesses	-11.9115
▁repaired	-11.9116
▁muse	-11.9116
▁receiver	-11.9117
tore	-11.9117
▁handlers	-11.9117
▁ames	-11.9117
▁mentor	-11.9117
▁sympathy	-11.9118
▁gutted	-11.9118
▁kiddo	-11.9118
▁consist	-11.9118
▁taxes	-11.9118
▁tov	-11.9118
▁kilo	-11.9118
annon	-11.9119
▁growth	-11.9119
▁boost	-11.9119
▁carny	-11.9119
▁mam	-11.912
▁disqualifie	-11.912
▁hev	-11.912
▁globe	-11.912
itive	-11.912
▁parkway	-11.9121
▁jackass	-11.9122
▁corsa	-11.9122
▁envelope	-11.9123
▁stabilize	-11.9123
▁navigate	-11.9123
iger	-11.9123
▁jac	-11.9124
▁tense	-11.9124
▁unclear	-11.9125
▁destroyers	-11.9126
▁applicants	-11.9126
▁pediatrics	-11.9126
▁coconuts	-11.9126
▁vain	-11.9126
▁hail	-11.9127
▁briefly	-11.9127
▁cine	-11.9127
▁succeeded	-11.9128
▁headline	-11.9128
▁vested	-11.9129
▁fellah	-11.9129
▁binding	-11.9129
▁sideline	-11.9129
▁dustin	-11.9129
▁sixty	-11.9129
▁backstage	-11.913
▁sow	-11.913
▁madness	-11.913
▁sinus	-11.913
▁convert	-11.9131
▁operated	-11.9131
vone	-11.9131
▁latte	-11.9132
nine	-11.9132
▁immediate	-11.9132
▁buzzes	-11.9133
▁educational	-11.9133
▁insulting	-11.9133
▁quin	-11.9133
▁lenin	-11.9133
seek	-11.9136
▁halo	-11.9136
▁connor	-11.9138
▁karenina	-11.9139
▁rescued	-11.9139
ethe	-11.9139
▁bushes	-11.9139
▁leah	-11.914
▁devise	-11.914
▁transformed	-11.914
▁badged	-11.914
▁employed	-11.914
▁reformed	-11.914
▁invested	-11.914
forget	-11.914
▁numberone	-11.9141
▁complicate	-11.9142
▁madera	-11.9142
▁lust	-11.9143
▁starch	-11.9143
▁honorable	-11.9143
▁wedge	-11.9144
earing	-11.9145
▁heroic	-11.9145
▁excess	-11.9145
esburg	-11.9145
▁unlikely	-11.9146
ag	-11.9146
▁statu	-11.9147
mary	-11.9147
▁partial	-11.9148
▁eyeb	-11.9149
▁bellies	-11.9149
▁jin	-11.9151
▁travelers	-11.9151
▁distantly	-11.9152
▁rarely	-11.9152
▁peeled	-11.9152
▁powdered	-11.9152
▁sein	-11.9153
▁hud	-11.9154
▁postp	-11.9155
udge	-11.9155
▁rattled	-11.9156
▁associated	-11.9156
▁miser	-11.9158
▁trim	-11.9159
▁jab	-11.9159
▁tack	-11.9159
match	-11.916
▁gyrat	-11.916
under	-11.9161
▁xv	-11.9162
chael	-11.9162
▁spine	-11.9162
▁advised	-11.9164
▁parisian	-11.9164
▁lacerat	-11.9164
▁pointless	-11.9164
▁extended	-11.9165
▁distracted	-11.9165
eckoning	-11.9166
▁linked	-11.9166
▁nuns	-11.9167
▁debat	-11.917
▁your	-11.9171
▁cocky	-11.9171
▁shushing	-11.9172
▁contractor	-11.9172
▁mourning	-11.9172
▁blar	-11.9173
▁meow	-11.9173
plies	-11.9173
rad	-11.9174
enian	-11.9175
▁hypocrite	-11.9175
finals	-11.9175
▁bounced	-11.9176
▁deployed	-11.9177
▁inventing	-11.9178
mind	-11.9178
▁poisoned	-11.9178
apolis	-11.9178
ife	-11.918
▁policeman	-11.9181
▁dunk	-11.9181
▁bale	-11.9182
▁jumpin	-11.9182
▁affected	-11.9183
▁begged	-11.9184
▁spite	-11.9186
▁revo	-11.9187
▁offender	-11.9189
▁correction	-11.919
▁comforting	-11.9191
▁vent	-11.9193
aby	-11.9193
▁helm	-11.9193
▁snoop	-11.9195
▁polls	-11.9196
▁singh	-11.9197
▁bodyguards	-11.9197
▁fountains	-11.9197
▁intellectuals	-11.9197
▁loofahs	-11.9197
▁politicians	-11.9197
▁ricochets	-11.9197
▁souvenirs	-11.9197
▁peasants	-11.9197
▁sentiments	-11.9197
▁swimmers	-11.9197
▁thugs	-11.9197
▁moans	-11.9197
aris	-11.9199
▁graduated	-11.92
▁colossal	-11.92
rogen	-11.9201
▁samples	-11.9201
▁reacted	-11.9202
dam	-11.9203
▁weakly	-11.9205
▁doe	-11.9205
▁stinky	-11.9206
oxing	-11.9207
▁sitch	-11.9208
▁railing	-11.921
▁punishing	-11.9211
mmed	-11.9213
▁witnessed	-11.9215
▁attended	-11.9215
▁approached	-11.9215
▁hose	-11.9217
▁manning	-11.9217
▁lens	-11.9218
▁allies	-11.9218
▁cruiser	-11.922
▁racin	-11.9223
▁cheaper	-11.9227
▁darts	-11.9228
▁sexes	-11.923
play	-11.9231
▁punches	-11.9231
▁reckoning	-11.9231
▁neutrali	-11.9233
ubert	-11.9233
▁cursed	-11.9233
crap	-11.9234
▁herd	-11.9234
▁takeoff	-11.9235
illed	-11.9236
▁pest	-11.9238
▁crescen	-11.9239
▁aud	-11.9239
▁leadin	-11.9241
▁cheated	-11.9241
▁vip	-11.9243
▁bosses	-11.9245
▁musically	-11.9245
bags	-11.9246
▁commercially	-11.9247
▁funded	-11.9247
▁entertainer	-11.9248
▁thumping	-11.925
erators	-11.9255
▁vene	-11.9256
oked	-11.9262
iiing	-11.9264
▁shifted	-11.9264
▁avoided	-11.9265
▁sellin	-11.9266
▁narcissists	-11.9269
▁sandy	-11.9269
▁scratching	-11.9269
▁nipp	-11.9269
▁defects	-11.927
▁unc	-11.9277
▁cheered	-11.9279
nnie	-11.928
▁num	-11.928
▁dusty	-11.9281
betwee	-11.9282
▁willi	-11.9286
▁assets	-11.9287
▁spoiling	-11.9289
▁abusi	-11.9292
▁spared	-11.9294
audi	-11.9295
▁nascar	-11.9295
torium	-11.9298
▁heights	-11.9301
▁flake	-11.9301
▁yalla	-11.9303
▁funding	-11.9309
▁fades	-11.9312
▁fishes	-11.9312
▁abdicat	-11.9313
▁poi	-11.9313
▁hotwire	-11.9321
▁vol	-11.9324
▁ford	-11.9324
▁goof	-11.9324
▁poli	-11.9325
▁healing	-11.9325
pper	-11.9326
▁ala	-11.9327
▁tribu	-11.9327
▁wildly	-11.9328
coat	-11.9334
▁tak	-11.9336
▁polk	-11.9338
empt	-11.9339
smell	-11.9339
▁preserve	-11.934
▁aa	-11.934
kes	-11.9342
▁earthquakes	-11.9345
▁initiates	-11.9345
▁manuscripts	-11.9345
▁methods	-11.9345
▁recruits	-11.9345
▁obligations	-11.9345
▁screwups	-11.9345
▁economics	-11.9345
▁onions	-11.9346
▁regards	-11.9346
▁treaty	-11.9348
being	-11.9352
▁blocking	-11.9352
▁scro	-11.9352
▁shouted	-11.9353
cras	-11.9357
▁specializ	-11.9363
▁teeny	-11.9366
▁qwar	-11.9367
▁redo	-11.9368
rupt	-11.9368
uela	-11.9369
▁dea	-11.9369
pad	-11.9369
my	-11.937
▁moody	-11.9371
▁nominate	-11.9374
enlist	-11.938
▁firearm	-11.9381
▁daytime	-11.9384
▁sen	-11.9389
▁freaked	-11.9394
▁antiqu	-11.9398
junction	-11.9399
▁understandable	-11.94
▁bred	-11.9404
▁collecting	-11.9408
▁camel	-11.9408
▁alexa	-11.9412
▁stings	-11.9414
▁yanks	-11.9415
▁dealt	-11.9416
▁wages	-11.9416
▁cuffs	-11.942
▁functions	-11.942
▁thumbs	-11.942
▁dentists	-11.942
▁hans	-11.9423
▁kisser	-11.9425
actu	-11.9428
▁matte	-11.9429
▁parked	-11.943
▁virtue	-11.9431
▁faun	-11.9432
▁shovel	-11.9437
▁missus	-11.9437
▁holders	-11.9441
▁aires	-11.9447
▁fiance	-11.9456
▁pickin	-11.9457
edict	-11.9458
▁server	-11.9459
gers	-11.9464
claud	-11.9466
▁empt	-11.9468
▁idle	-11.9475
▁abdo	-11.9476
▁stabb	-11.9477
boot	-11.9483
▁expressions	-11.9487
▁selfie	-11.9487
▁flogg	-11.9488
choo	-11.9488
▁gears	-11.9493
arter	-11.9494
▁radicals	-11.9495
▁editors	-11.9495
▁matthews	-11.9495
▁privileges	-11.9495
▁kidneys	-11.9495
▁distractions	-11.9496
▁charts	-11.9497
yeah	-11.9502
▁happenin	-11.9504
▁krs	-11.9506
martial	-11.9518
▁timeout	-11.9522
▁hyd	-11.955
▁bod	-11.9557
▁publication	-11.9557
eech	-11.9562
▁links	-11.957
▁slippers	-11.9571
▁consciences	-11.9571
▁intentions	-11.9571
▁puppets	-11.9571
▁convers	-11.9574
▁adding	-11.9574
arvar	-11.9578
▁marked	-11.9587
▁pressed	-11.9588
ease	-11.9594
▁amys	-11.9595
▁cords	-11.96
cio	-11.9605
▁pag	-11.9609
▁murderers	-11.9611
▁gardening	-11.9615
lester	-11.9617
decent	-11.9618
▁foreigner	-11.962
▁tur	-11.9622
▁dime	-11.9625
ndale	-11.9629
kins	-11.9632
▁interce	-11.9635
aki	-11.9635
mish	-11.9637
▁translat	-11.9638
story	-11.9644
▁smacks	-11.9647
▁aisles	-11.9647
▁carpets	-11.9647
▁williams	-11.9647
▁villas	-11.9648
▁possessions	-11.9648
▁morons	-11.9648
▁objects	-11.9648
▁commitments	-11.9649
▁belche	-11.9652
▁logs	-11.9654
▁cones	-11.9657
▁wen	-11.9663
chat	-11.9665
▁floored	-11.9669
tensive	-11.9675
▁brandy	-11.9676
rming	-11.9684
▁por	-11.9686
▁bind	-11.9686
amma	-11.9686
cs	-11.969
▁tales	-11.969
sap	-11.9696
▁rami	-11.9698
▁turnin	-11.9707
▁gy	-11.9714
▁slips	-11.9715
▁watches	-11.9716
▁vale	-11.9719
▁beau	-11.9721
▁contacted	-11.9723
▁peppers	-11.9724
▁bursts	-11.9724
▁instruments	-11.9724
▁turkeys	-11.9724
▁recordings	-11.9727
▁keepers	-11.9729
▁endings	-11.9732
▁sambo	-11.974
▁hums	-11.9744
▁carrie	-11.9749
▁sleeper	-11.9751
▁classy	-11.9759
▁reminding	-11.9776
▁painters	-11.9778
lish	-11.9786
▁snowed	-11.9787
▁replicat	-11.9788
▁fra	-11.9792
hello	-11.9797
▁impressions	-11.9799
▁models	-11.9801
▁stiffs	-11.9802
▁leech	-11.9802
▁ante	-11.9803
▁priors	-11.9804
▁commanding	-11.9805
▁cabins	-11.9805
ration	-11.9805
▁calli	-11.9806
▁overlook	-11.981
than	-11.9847
▁rosa	-11.9848
pse	-11.9849
duct	-11.9851
▁beet	-11.9851
▁guarded	-11.9852
▁speakers	-11.9852
kids	-11.9857
▁stepp	-11.9874
▁barlows	-11.9879
▁clients	-11.9879
▁suitcases	-11.9879
▁andrews	-11.9879
▁cole	-11.9892
ran	-11.9894
▁bugg	-11.9898
▁bugle	-11.9899
▁lions	-11.9914
hov	-11.9922
runs	-11.9926
▁deer	-11.9938
taking	-11.9941
uzzle	-11.9956
▁floods	-11.9957
▁billions	-11.9968
slas	-11.998
▁flipp	-11.9995
▁cod	-12
▁lik	-12
here	-12.0001
hire	-12.001
▁len	-12.0016
▁divers	-12.0025
▁killers	-12.0047
are	-12.0055
▁spect	-12.0057
ilk	-12.0092
▁meaningful	-12.0102
▁meth	-12.0118
▁patti	-12.0138
zar	-12.0143
▁gro	-12.0143
nish	-12.0147
▁penn	-12.0148
trapped	-12.0156
mination	-12.0176
sync	-12.0183
▁squatt	-12.0187
eering	-12.0203
▁coca	-12.0209
affle	-12.0217
attering	-12.0255
▁mai	-12.0276
itsy	-12.0309
culating	-12.0316
▁slapp	-12.0316
but	-12.0348
▁basti	-12.0359
elig	-12.0362
tipping	-12.0364
▁vicar	-12.0372
▁shov	-12.0375
ski	-12.0384
▁bella	-12.0421
ogue	-12.0426
▁callin	-12.0446
leys	-12.0482
kat	-12.0486
▁anan	-12.0491
▁andid	-12.0502
▁ble	-12.0508
▁trucker	-12.0522
▁meh	-12.0526
▁civiliz	-12.0529
▁ape	-12.0531
▁ando	-12.0556
zu	-12.0592
▁obscure	-12.0595
▁finance	-12.0602
pkin	-12.0612
oise	-12.063
▁plague	-12.0647
▁dari	-12.0648
fortunately	-12.0676
▁terminat	-12.0679
iev	-12.0737
idney	-12.0751
rete	-12.076
fety	-12.078
leg	-12.0808
▁vine	-12.0814
management	-12.0818
pat	-12.0833
clamation	-12.0854
ordial	-12.086
rock	-12.0866
gnosis	-12.0867
ether	-12.0878
plin	-12.0929
▁stevens	-12.0951
bou	-12.0967
▁hein	-12.0968
hit	-12.0968
altar	-12.1042
▁booth	-12.1067
diment	-12.1095
▁hatch	-12.1117
▁cooperati	-12.1122
zen	-12.116
▁plato	-12.1174
▁fret	-12.1187
▁dent	-12.1228
▁mari	-12.1253
▁anwe	-12.1268
itty	-12.1283
arm	-12.1289
bbers	-12.131
ost	-12.1341
ark	-12.1355
▁combo	-12.1372
undo	-12.1382
nickers	-12.1387
jun	-12.1446
▁patri	-12.1474
▁hock	-12.149
▁km	-12.1515
▁kimb	-12.1518
rack	-12.1534
▁samu	-12.1545
▁nurtur	-12.1616
rage	-12.1617
▁stu	-12.1619
hhh	-12.1635
▁cli	-12.1637
▁ruben	-12.1642
▁simpl	-12.1649
gent	-12.1661
found	-12.1665
elli	-12.1674
▁shu	-12.1676
mobilized	-12.1698
▁sacrific	-12.1705
▁batt	-12.1713
▁dart	-12.1723
▁sanit	-12.173
rf	-12.1773
olo	-12.1776
fricking	-12.1834
▁tame	-12.1836
youre	-12.1837
▁observa	-12.1879
mbi	-12.1887
▁terminate	-12.1922
▁when	-12.1923
▁bikin	-12.1989
boo	-12.1995
pile	-12.2011
▁bio	-12.2046
▁farha	-12.208
mx	-12.2085
▁zur	-12.2105
tiff	-12.2118
ushi	-12.2124
lli	-12.2136
vette	-12.2144
▁sto	-12.2172
eum	-12.2174
inde	-12.2192
▁apes	-12.2197
rift	-12.2221
tte	-12.2233
▁klu	-12.2244
▁topic	-12.2245
min	-12.2257
ith	-12.2289
handedly	-12.2325
▁wink	-12.2325
▁sw	-12.2331
uity	-12.2334
ferred	-12.2354
profitable	-12.2358
inky	-12.2384
fus	-12.2423
tender	-12.2423
▁stan	-12.2431
▁vot	-12.245
nh	-12.2452
▁affl	-12.2467
▁actuall	-12.2509
oni	-12.2512
ocula	-12.2524
pector	-12.2532
▁bounc	-12.2545
nk	-12.2549
meditate	-12.2577
women	-12.2581
▁presum	-12.2598
▁lau	-12.2631
mba	-12.2636
▁batteri	-12.2641
itation	-12.2652
lot	-12.2658
then	-12.2664
fulness	-12.269
brin	-12.2702
mn	-12.2707
crypt	-12.273
quin	-12.2731
▁tara	-12.2745
erson	-12.2749
▁croc	-12.2752
humanity	-12.2762
▁committ	-12.2768
zzle	-12.2819
guided	-12.283
slap	-12.2862
kk	-12.2869
▁vert	-12.2872
iro	-12.2888
exist	-12.2917
ela	-12.295
▁gag	-12.3018
▁amp	-12.3021
disciplined	-12.3022
▁liz	-12.3031
▁hea	-12.3107
▁scarf	-12.315
▁shin	-12.3158
▁bre	-12.3194
lamin	-12.3199
ooze	-12.3216
▁stun	-12.3221
intens	-12.323
key	-12.3238
▁sham	-12.3239
▁persecut	-12.324
ooh	-12.3254
harmed	-12.3271
dale	-12.3281
▁tit	-12.3296
▁pol	-12.3311
▁emigrat	-12.3324
equipp	-12.3338
unite	-12.3343
▁prep	-12.3345
lau	-12.3356
▁lcha	-12.3373
▁narrati	-12.3416
enstein	-12.342
▁appreciat	-12.343
ologist	-12.3433
▁mic	-12.3436
dresser	-12.3439
▁bien	-12.344
ardo	-12.3447
▁pap	-12.3448
lery	-12.3467
hose	-12.3476
logger	-12.3479
▁tum	-12.348
▁immobilize	-12.3482
inity	-12.3492
anky	-12.3496
bab	-12.3496
▁typ	-12.3514
pole	-12.3522
hause	-12.3547
minated	-12.3605
▁adi	-12.361
▁numer	-12.3617
aline	-12.3633
▁abd	-12.3646
▁targ	-12.3652
seldo	-12.3687
immon	-12.3701
lock	-12.3708
duced	-12.3708
logged	-12.3712
▁prov	-12.3724
▁cub	-12.3733
veil	-12.374
uba	-12.3748
▁plu	-12.3762
▁echo	-12.3765
tac	-12.3774
topped	-12.3798
hao	-12.3799
▁impuls	-12.3812
iveness	-12.3818
▁phon	-12.3827
trained	-12.3827
▁flak	-12.3842
rawl	-12.3845
▁neutr	-12.3847
▁clip	-12.3847
hors	-12.385
ault	-12.385
▁root	-12.3856
ality	-12.3859
▁gree	-12.3866
▁prud	-12.3869
▁supplie	-12.3873
▁shatter	-12.3882
final	-12.3884
illin	-12.3886
culate	-12.3895
bird	-12.3895
▁sentiment	-12.3898
▁fountain	-12.3903
▁loofah	-12.3903
▁politician	-12.3903
▁ricochet	-12.3903
▁souvenir	-12.3903
▁bodyguard	-12.3903
▁peasant	-12.3903
▁intellectual	-12.3904
vine	-12.3904
▁snoopin	-12.3908
▁swimmer	-12.3908
writer	-12.3911
▁biscuit	-12.3912
▁insect	-12.3912
▁stutter	-12.3912
▁spear	-12.3913
▁cosmetic	-12.3916
▁sample	-12.3918
▁statistic	-12.392
▁employee	-12.3921
▁trump	-12.3921
▁toot	-12.3921
▁moan	-12.3922
uccin	-12.3925
▁coordinate	-12.3928
▁dorri	-12.3928
▁thug	-12.3929
iders	-12.3929
▁scoff	-12.3931
▁giggle	-12.3931
▁walter	-12.3932
▁footstep	-12.3932
▁troop	-12.3933
ashing	-12.3936
▁devi	-12.3936
▁bark	-12.3939
cell	-12.394
▁troublemaker	-12.3941
ache	-12.3941
▁advertiser	-12.3941
entine	-12.3946
▁dim	-12.395
▁poll	-12.395
▁exce	-12.3951
▁fol	-12.3951
▁remov	-12.3957
▁nin	-12.3964
page	-12.3967
cles	-12.3969
▁floatin	-12.3969
▁admir	-12.397
fection	-12.3972
nclusive	-12.3975
rinating	-12.398
fficient	-12.398
umber	-12.3982
▁slid	-12.3988
▁insid	-12.3988
▁expectation	-12.3992
▁historic	-12.3995
▁ahah	-12.3996
▁clos	-12.3998
▁figur	-12.3998
mission	-12.3999
witched	-12.4002
▁unfor	-12.4003
ebb	-12.4008
▁imagin	-12.4012
look	-12.4015
▁morale	-12.4019
▁prais	-12.402
wester	-12.4025
▁how	-12.4025
▁frighten	-12.4027
uffl	-12.4028
nite	-12.4028
▁ration	-12.4033
heart	-12.4033
bet	-12.4034
▁expand	-12.4034
kaboo	-12.4035
color	-12.4036
code	-12.4036
▁accompany	-12.4037
▁consum	-12.4037
▁slurp	-12.404
▁perpet	-12.404
▁organiz	-12.4042
▁divid	-12.4044
▁decid	-12.4045
▁chirp	-12.4045
lifter	-12.4046
pol	-12.4046
▁introduc	-12.4047
▁skim	-12.4047
▁exercis	-12.4047
club	-12.4048
enat	-12.4048
ilized	-12.405
▁essa	-12.405
▁suppos	-12.4051
▁wail	-12.4051
▁plac	-12.4051
▁inseminat	-12.4052
▁confront	-12.4053
▁appoint	-12.4053
keep	-12.4054
toria	-12.4055
itude	-12.4055
wide	-12.4056
bust	-12.4056
conscious	-12.4056
inhabit	-12.4058
lord	-12.4058
fff	-12.4058
dispute	-12.4058
lulu	-12.4058
aganza	-12.4058
check	-12.4058
▁pester	-12.406
significant	-12.406
width	-12.406
daisy	-12.406
range	-12.4061
▁unlock	-12.4061
clench	-12.4061
precise	-12.4061
▁identit	-12.4061
tub	-12.4061
blis	-12.4061
▁soak	-12.4062
storm	-12.4062
bishop	-12.4062
present	-12.4062
▁nois	-12.4062
sailing	-12.4062
grown	-12.4062
sheets	-12.4062
breeding	-12.4062
▁expire	-12.4062
announced	-12.4062
indulge	-12.4062
satisfied	-12.4062
balance	-12.4062
locate	-12.4063
authoriz	-12.4063
conquer	-12.4063
▁somebod	-12.4063
pepper	-12.4063
jumped	-12.4063
crossing	-12.4063
kansas	-12.4063
bush	-12.4063
throw	-12.4063
effect	-12.4063
▁luxur	-12.4063
▁famil	-12.4063
▁compan	-12.4063
pocket	-12.4063
exchange	-12.4063
anniversary	-12.4063
blown	-12.4063
▁fantas	-12.4063
▁fuzz	-12.4063
fifty	-12.4064
positive	-12.4064
world	-12.4064
spending	-12.4064
▁fiddle	-12.4064
christian	-12.4064
spring	-12.4064
picking	-12.4064
monster	-12.4064
girlfriend	-12.4064
professional	-12.4064
strip	-12.4064
principal	-12.4064
fellow	-12.4064
group	-12.4064
protect	-12.4064
video	-12.4064
▁definit	-12.4064
hundred	-12.4064
problem	-12.4064
third	-12.4064
secret	-12.4064
goose	-12.4064
passed	-12.4064
peace	-12.4064
control	-12.4064
▁extraordinar	-12.4064
death	-12.4064
first	-12.4064
theyre	-12.4064
duty	-12.4064
meaning	-12.4064
something	-12.4064
▁eliminate	-12.4065
▁execute	-12.4065
white	-12.4065
crow	-12.4065
izard	-12.4065
▁hallucinati	-12.4065
bomb	-12.4065
river	-12.4065
▁isolate	-12.4065
parents	-12.4065
stark	-12.4065
important	-12.4065
strong	-12.4065
keit	-12.4065
igger	-12.4065
▁sampl	-12.4065
▁relieve	-12.4065
▁depo	-12.4066
▁macaro	-12.4066
▁fryin	-12.4066
kept	-12.4066
escent	-12.4066
fitting	-12.4066
jacket	-12.4066
wanted	-12.4067
month	-12.4067
knit	-12.4067
▁evident	-12.4067
▁exhal	-12.4067
agenda	-12.4068
▁inex	-12.4068
▁commun	-12.4068
shell	-12.4068
tobe	-12.4068
today	-12.4068
when	-12.4068
▁hysterical	-12.4069
waves	-12.4069
milk	-12.4069
personal	-12.4069
▁filth	-12.407
caster	-12.407
button	-12.407
tape	-12.407
▁consume	-12.407
based	-12.407
about	-12.407
▁slee	-12.4071
▁utter	-12.4071
seller	-12.4071
zip	-12.4071
dala	-12.4071
▁apparent	-12.4071
selling	-12.4072
▁especial	-12.4072
▁dignit	-12.4072
▁rona	-12.4072
▁singlehanded	-12.4072
▁absolut	-12.4073
▁participat	-12.4073
▁peg	-12.4073
entities	-12.4073
mobil	-12.4073
▁napis	-12.4073
▁unload	-12.4073
stack	-12.4073
strings	-12.4074
▁virgi	-12.4074
human	-12.4074
▁compensat	-12.4074
▁contradict	-12.4074
▁recip	-12.4074
▁quart	-12.4074
killer	-12.4075
▁disast	-12.4075
series	-12.4075
▁recept	-12.4076
mont	-12.4076
fare	-12.4076
▁glamm	-12.4076
▁sloven	-12.4076
max	-12.4077
▁lobs	-12.4077
vision	-12.4077
▁buddh	-12.4077
▁regress	-12.4078
▁contribut	-12.4078
destructive	-12.4078
▁canad	-12.4078
horse	-12.4078
▁georgi	-12.4078
▁rabbi	-12.4079
▁centuri	-12.4079
▁lauren	-12.4079
high	-12.408
▁incompeten	-12.408
▁mutat	-12.408
web	-12.408
▁mahal	-12.408
▁invol	-12.408
▁orga	-12.408
▁practical	-12.408
burnt	-12.4081
▁carefu	-12.4081
▁organize	-12.4081
quiri	-12.4081
▁retaliat	-12.4081
▁nikola	-12.4082
manner	-12.4082
▁equat	-12.4082
scribe	-12.4082
hoohoo	-12.4082
▁sancti	-12.4082
ustache	-12.4082
varia	-12.4082
▁anshe	-12.4082
▁opera	-12.4082
known	-12.4082
▁drivin	-12.4082
▁smitt	-12.4082
▁pacifi	-12.4082
▁congress	-12.4083
▁givin	-12.4083
renade	-12.4083
▁movin	-12.4083
▁risin	-12.4083
▁loneli	-12.4083
▁forgo	-12.4083
▁alternat	-12.4083
▁discipl	-12.4083
▁priva	-12.4083
▁dyin	-12.4083
▁imprison	-12.4083
▁uncertain	-12.4084
▁drippin	-12.4084
▁kidnap	-12.4084
▁disinfect	-12.4084
▁distr	-12.4084
ranquil	-12.4084
▁correspond	-12.4084
athon	-12.4084
▁ameri	-12.4084
▁mitch	-12.4084
▁slum	-12.4084
▁decisi	-12.4084
▁reproduc	-12.4084
▁thresh	-12.4084
▁neighbour	-12.4084
▁tranquili	-12.4084
▁suspe	-12.4084
▁smug	-12.4084
accord	-12.4084
corporat	-12.4084
anthrop	-12.4085
▁besieg	-12.4085
▁chloroform	-12.4085
▁confiscat	-12.4085
▁devastat	-12.4085
▁emancipati	-12.4085
▁fornicati	-12.4085
▁impregna	-12.4085
▁insinuati	-12.4085
▁legitima	-12.4085
▁miscarri	-12.4085
▁noncarbon	-12.4085
▁overreacti	-12.4085
▁redeploy	-12.4085
▁scorch	-12.4085
▁sculpt	-12.4085
▁shipwreck	-12.4085
▁spontane	-12.4085
▁strategic	-12.4085
▁suffocati	-12.4085
▁treacher	-12.4085
▁undetect	-12.4085
▁vigilan	-12.4085
aaaaaah	-12.4085
afrika	-12.4085
consuming	-12.4085
culty	-12.4085
damntee	-12.4085
fuge	-12.4085
impenetrable	-12.4085
politan	-12.4085
prehensible	-12.4085
provincial	-12.4085
rockabilly	-12.4085
satisfying	-12.4085
sibility	-12.4085
tanglement	-12.4085
witted	-12.4085
zerozero	-12.4085
▁accomplice	-12.4085
▁advocat	-12.4085
▁affiliate	-12.4085
▁aggravat	-12.4085
▁aibai	-12.4085
▁aikido	-12.4085
▁alannowshutup	-12.4085
▁alcatraz	-12.4085
▁aldercapt	-12.4085
▁allbodies	-12.4085
▁aloysius	-12.4085
▁amigo	-12.4085
▁anecdotes	-12.4085
▁antibiotic	-12.4085
▁antiseptic	-12.4085
▁anzunehmen	-12.4085
▁ardennes	-12.4085
▁aretha	-12.4085
▁arkadyevna	-12.4085
▁ascend	-12.4085
▁asswipe	-12.4085
▁athletic	-12.4085
▁attachment	-12.4085
▁aubrey	-12.4085
▁avantgarde	-12.4085
▁badabom	-12.4085
▁bakker	-12.4085
▁balkan	-12.4085
▁ballpark	-12.4085
▁banshee	-12.4085
▁barbeque	-12.4085
▁barricade	-12.4085
▁beagle	-12.4085
▁belgian	-12.4085
▁berkeley	-12.4085
▁biweekly	-12.4085
▁blurred	-12.4085
▁bonerattling	-12.4085
▁boohoo	-12.4085
▁bottleneck	-12.4085
▁bozxphd	-12.4085
▁bracket	-12.4085
▁breakthrough	-12.4085
▁brilliance	-12.4085
▁bucharest	-12.4085
▁burglar	-12.4085
▁burgundy	-12.4085
▁cackle	-12.4085
▁capturing	-12.4085
▁casserole	-12.4085
▁caucas	-12.4085
▁cemetery	-12.4085
▁censored	-12.4085
▁census	-12.4085
▁centimeter	-12.4085
▁ceremoni	-12.4085
▁chamber	-12.4085
▁chanchito	-12.4085
▁chauffeur	-12.4085
▁chauvinist	-12.4085
▁chechnya	-12.4085
▁chitchat	-12.4085
▁cinderella	-12.4085
▁clerical	-12.4085
▁cobrand	-12.4085
▁commute	-12.4085
▁competitive	-12.4085
▁compliance	-12.4085
▁condominiums	-12.4085
▁confetti	-12.4085
▁consolation	-12.4085
▁constellation	-12.4085
▁controversial	-12.4085
▁conundrum	-12.4085
▁convenience	-12.4085
▁corinne	-12.4085
▁cosmopolitan	-12.4085
▁counseling	-12.4085
▁counselor	-12.4085
▁crazies	-12.4085
▁creativity	-12.4085
▁crisco	-12.4085
▁crispy	-12.4085
▁cristal	-12.4085
▁critter	-12.4085
▁csection	-12.4085
▁cucumber	-12.4085
▁cullen	-12.4085
▁cunnilingus	-12.4085
▁curiosity	-12.4085
▁custodian	-12.4085
▁dafoe	-12.4085
▁dagneau	-12.4085
▁darryl	-12.4085
▁debacle	-12.4085
▁decanter	-12.4085
▁deception	-12.4085
▁degenerate	-12.4085
▁delirious	-12.4085
▁delphiniums	-12.4085
▁demographic	-12.4085
▁diarrhea	-12.4085
▁dictate	-12.4085
▁diligen	-12.4085
▁dinatelli	-12.4085
▁diplomacy	-12.4085
▁disapprove	-12.4085
▁discrepancy	-12.4085
▁displease	-12.4085
▁domaine	-12.4085
▁douche	-12.4085
▁electrifying	-12.4085
▁elegant	-12.4085
▁elevation	-12.4085
▁elongated	-12.4085
▁empathy	-12.4085
▁enchanted	-12.4085
▁encircled	-12.4085
▁energetic	-12.4085
▁engaging	-12.4085
▁etcetera	-12.4085
▁evolv	-12.4085
▁exaggerating	-12.4085
▁exboyfriend	-12.4085
▁exhusband	-12.4085
▁exorcise	-12.4085
▁facade	-12.4085
▁faggot	-12.4085
▁fanaticism	-12.4085
▁fascist	-12.4085
▁faucet	-12.4085
▁february	-12.4085
▁fischer	-12.4085
▁flamethrower	-12.4085
▁forgiving	-12.4085
▁fresno	-12.4085
▁frustrations	-12.4085
▁fullbody	-12.4085
▁furisode	-12.4085
▁gatorade	-12.4085
▁glandless	-12.4085
▁glickman	-12.4085
▁glisten	-12.4085
▁glitch	-12.4085
▁gonzalo	-12.4085
▁gradually	-12.4085
▁greyhound	-12.4085
▁grovel	-12.4085
▁guilbert	-12.4085
▁hairstyle	-12.4085
▁hedgehog	-12.4085
▁hendrick	-12.4085
▁highprofi	-12.4085
▁hightailed	-12.4085
▁historian	-12.4085
▁horizon	-12.4085
▁horrifying	-12.4085
▁huffs	-12.4085
▁hurricane	-12.4085
▁hydraulics	-12.4085
▁ibiza	-12.4085
▁impartial	-12.4085
▁incarcerat	-12.4085
▁incomplete	-12.4085
▁inconvenience	-12.4085
▁incorrect	-12.4085
▁indefinitely	-12.4085
▁inferior	-12.4085
▁injustice	-12.4085
▁insatiable	-12.4085
▁insecure	-12.4085
▁inseparable	-12.4085
▁insufferable	-12.4085
▁intoxicated	-12.4085
▁jagger	-12.4085
▁jeopardy	-12.4085
▁jfk	-12.4085
▁jordy	-12.4085
▁jubilation	-12.4085
▁jukebox	-12.4085
▁jurisdiction	-12.4085
▁kabuki	-12.4085
▁kapoor	-12.4085
▁kcam	-12.4085
▁kendall	-12.4085
▁kikiree	-12.4085
▁kikukawa	-12.4085
▁kilgore	-12.4085
▁kiwi	-12.4085
▁klerk	-12.4085
▁kreemo	-12.4085
▁lecithin	-12.4085
▁lehnsherr	-12.4085
▁leukemia	-12.4085
▁licorice	-12.4085
▁lifechanging	-12.4085
▁machete	-12.4085
▁magpies	-12.4085
▁mammals	-12.4085
▁manifesto	-12.4085
▁marijuana	-12.4085
▁marlborough	-12.4085
▁marshmallows	-12.4085
▁martynov	-12.4085
▁maturity	-12.4085
▁mechanism	-12.4085
▁mediocre	-12.4085
▁memorable	-12.4085
▁memorandum	-12.4085
▁mercury	-12.4085
▁merino	-12.4085
▁microprocess	-12.4085
▁milwaukee	-12.4085
▁minority	-12.4085
▁mirabel	-12.4085
▁misjudged	-12.4085
▁momentarily	-12.4085
▁montesquieu	-12.4085
▁morphia	-12.4085
▁multimillion	-12.4085
▁mvself	-12.4085
▁nebraska	-12.4085
▁necessity	-12.4085
▁newsletter	-12.4085
▁nigel	-12.4085
▁nineoneone	-12.4085
▁nishikie	-12.4085
▁noksu	-12.4085
▁nonbeliever	-12.4085
▁noriega	-12.4085
▁norris	-12.4085
▁nostalgi	-12.4085
▁nostril	-12.4085
▁notorious	-12.4085
▁nueveunouno	-12.4085
▁obscenity	-12.4085
▁okeydoke	-12.4085
▁oppression	-12.4085
▁ortisky	-12.4085
▁overthetop	-12.4085
▁pamphlet	-12.4085
▁parcel	-12.4085
▁participant	-12.4085
▁partizonol	-12.4085
▁pedrito	-12.4085
▁pelusa	-12.4085
▁perseverance	-12.4085
▁peugeot	-12.4085
▁pharmacy	-12.4085
▁phenomenal	-12.4085
▁philosopher	-12.4085
▁philosophi	-12.4085
▁phobia	-12.4085
▁photocopier	-12.4085
▁pinnacle	-12.4085
▁plow	-12.4085
▁pompoms	-12.4085
▁portfolio	-12.4085
▁possibilities	-12.4085
▁practis	-12.4085
▁precaution	-12.4085
▁precipice	-12.4085
▁predecessor	-12.4085
▁preliminar	-12.4085
▁premium	-12.4085
▁presbyterian	-12.4085
▁promposal	-12.4085
▁prospect	-12.4085
▁prostitute	-12.4085
▁proteas	-12.4085
▁psalm	-12.4085
▁quarrel	-12.4085
▁radiofriendly	-12.4085
▁rassinis	-12.4085
▁rattlesnake	-12.4085
▁reagan	-12.4085
▁reborn	-12.4085
▁receipt	-12.4085
▁recognizing	-12.4085
▁recycling	-12.4085
▁redneck	-12.4085
▁reelected	-12.4085
▁refractories	-12.4085
▁registration	-12.4085
▁regurg	-12.4085
▁releasing	-12.4085
▁representative	-12.4085
▁repression	-12.4085
▁repressive	-12.4085
▁retail	-12.4085
▁retiring	-12.4085
▁richmond	-12.4085
▁riebeeck	-12.4085
▁roberino	-12.4085
▁rostova	-12.4085
▁salieri	-12.4085
▁samaritan	-12.4085
▁satirize	-12.4085
▁scapegoat	-12.4085
▁scenario	-12.4085
▁scherbatsky	-12.4085
▁schlitz	-12.4085
▁schnapps	-12.4085
▁schwartz	-12.4085
▁scorpio	-12.4085
▁scoundrel	-12.4085
▁scruff	-12.4085
▁scuzz	-12.4085
▁selfdeceptive	-12.4085
▁semicolon	-12.4085
▁semiformal	-12.4085
▁serene	-12.4085
▁shirley	-12.4085
▁simplicity	-12.4085
▁simulate	-12.4085
▁simulator	-12.4085
▁slamfist	-12.4085
▁sleaze	-12.4085
▁slurring	-12.4085
▁smoote	-12.4085
▁snowglobe	-12.4085
▁somalia	-12.4085
▁sorrier	-12.4085
▁sovereign	-12.4085
▁spoof	-12.4085
▁sprinkle	-12.4085
▁stamey	-12.4085
▁stanhope	-12.4085
▁stellar	-12.4085
▁stewardesses	-12.4085
▁stonehenge	-12.4085
▁straightforward	-12.4085
▁streake	-12.4085
▁striations	-12.4085
▁strumming	-12.4085
▁stryker	-12.4085
▁subservien	-12.4085
▁suisse	-12.4085
▁superhero	-12.4085
▁supervisor	-12.4085
▁suspense	-12.4085
▁swindler	-12.4085
▁symposium	-12.4085
▁syphilis	-12.4085
▁tarantino	-12.4085
▁tarconi	-12.4085
▁tawdry	-12.4085
▁tchaikovsky	-12.4085
▁teapot	-12.4085
▁tendencies	-12.4085
▁threequarters	-12.4085
▁tiehhsin	-12.4085
▁timberlake	-12.4085
▁torrent	-12.4085
▁totoya	-12.4085
▁toulouse	-12.4085
▁tourniquet	-12.4085
▁tracheotomy	-12.4085
▁trampoline	-12.4085
▁transparency	-12.4085
▁trifle	-12.4085
▁trophies	-12.4085
▁turquoise	-12.4085
▁turrets	-12.4085
▁tweets	-12.4085
▁unadoptable	-12.4085
▁unavailable	-12.4085
▁uncompromising	-12.4085
▁uncontrollabl	-12.4085
▁underwent	-12.4085
▁uninvited	-12.4085
[...]
