<unk>	0
<s>	0
</s>	0
s	-3.03773
ing	-4.3928
t	-4.59781
d	-4.62892
ed	-4.67388
y	-4.77668
▁im	-4.78081
▁dont	-4.88363
e	-4.94916
▁know	-4.95655
n	-4.97488
er	-4.98507
▁go	-5.02202
▁get	-5.0629
▁oh	-5.14085
o	-5.21469
▁right	-5.21617
r	-5.22158
▁come	-5.23137
▁like	-5.25805
▁well	-5.31663
▁got	-5.3174
▁	-5.3228
c	-5.32873
i	-5.33
▁youre	-5.36388
a	-5.40067
in	-5.42899
▁one	-5.46842
u	-5.47382
▁na	-5.47854
▁yeah	-5.47964
p	-5.4914
▁thats	-5.49929
m	-5.51678
g	-5.51964
l	-5.56683
le	-5.5854
▁good	-5.59435
▁see	-5.64679
▁want	-5.68371
▁look	-5.68804
▁think	-5.69418
ly	-5.76887
al	-5.77763
▁okay	-5.78946
▁yes	-5.82613
▁hey	-5.83654
or	-5.84865
▁back	-5.86007
▁time	-5.87007
f	-5.87843
▁gon	-5.88537
w	-5.88576
▁ill	-5.90803
▁us	-5.90932
re	-5.93209
▁take	-5.93448
k	-5.94154
▁l	-5.95204
▁man	-5.95445
h	-6.00525
▁going	-6.00707
▁cant	-6.03224
v	-6.04405
▁hes	-6.04887
ar	-6.06698
▁de	-6.0839
▁re	-6.08561
▁s	-6.1109
b	-6.11667
▁say	-6.14045
▁tell	-6.16683
▁make	-6.17793
an	-6.17877
ri	-6.19442
▁would	-6.1989
it	-6.2071
▁mean	-6.21207
▁need	-6.21498
▁way	-6.22474
en	-6.22668
▁could	-6.22784
▁little	-6.23442
▁really	-6.24167
▁love	-6.2531
il	-6.26057
▁a	-6.2638
▁never	-6.29604
▁lets	-6.31093
es	-6.32216
▁let	-6.32348
st	-6.32484
▁thank	-6.33434
▁co	-6.34197
ck	-6.34889
▁something	-6.35118
▁w	-6.35968
on	-6.37087
ll	-6.37986
z	-6.381
ra	-6.38825
▁ta	-6.39172
▁whats	-6.40196
ve	-6.40928
ter	-6.4124
▁please	-6.4206
▁ive	-6.4247
th	-6.42769
▁in	-6.42891
▁give	-6.42949
ie	-6.43089
▁mr	-6.43511
ion	-6.44256
▁didnt	-6.44271
▁sorry	-6.45109
ic	-6.45369
▁ma	-6.49716
ke	-6.51498
▁help	-6.52144
▁theres	-6.52178
▁hi	-6.52835
▁wait	-6.53745
ch	-6.54255
li	-6.56381
▁sir	-6.56964
▁o	-6.57025
ce	-6.57637
▁two	-6.59257
▁work	-6.60759
ro	-6.62116
▁car	-6.62538
el	-6.62636
▁sure	-6.62989
▁stop	-6.63168
▁ha	-6.63676
▁even	-6.64252
▁thing	-6.66435
▁said	-6.66739
▁ho	-6.67312
▁great	-6.67739
et	-6.67842
▁day	-6.68625
▁people	-6.68651
x	-6.69101
▁uh	-6.69386
▁e	-6.69872
la	-6.7111
▁ro	-6.7118
ne	-6.71729
at	-6.722
▁new	-6.72233
▁call	-6.72348
▁theyre	-6.72964
▁much	-6.73045
ation	-6.73676
us	-6.74016
▁po	-6.74032
▁la	-6.74249
▁st	-6.74489
▁sh	-6.75868
sh	-6.76027
▁home	-6.76315
▁to	-6.76556
▁k	-6.76695
▁he	-6.77534
se	-6.77777
▁find	-6.78564
▁night	-6.78979
▁miss	-6.7906
ur	-6.7975
▁f	-6.80888
▁must	-6.81636
▁keep	-6.82105
ate	-6.82731
▁first	-6.83067
is	-6.83337
▁god	-6.83589
▁con	-6.83595
▁put	-6.83645
▁g	-6.83783
tion	-6.85064
▁life	-6.85356
▁th	-6.86221
▁un	-6.86508
est	-6.86549
▁c	-6.87453
▁guys	-6.87888
▁away	-6.88302
ir	-6.88644
▁talk	-6.8926
▁anything	-6.89273
▁shes	-6.89332
▁ever	-6.89419
▁mi	-6.89442
lo	-6.90011
ent	-6.90131
▁maybe	-6.90395
▁name	-6.90445
▁big	-6.90463
ge	-6.90893
▁long	-6.91115
▁play	-6.92716
ta	-6.92726
▁nothing	-6.92872
▁b	-6.9305
me	-6.93933
▁old	-6.94024
ol	-6.94031
▁better	-6.94507
na	-6.94564
▁thought	-6.9474
▁da	-6.9525
▁still	-6.95748
▁di	-6.95956
▁boy	-6.96533
▁id	-6.96876
▁mo	-6.96933
ers	-6.97298
▁nice	-7.00387
▁bu	-7.01057
te	-7.01647
ff	-7.01812
▁everything	-7.02231
▁sp	-7.02372
▁pi	-7.0245
ty	-7.0245
▁around	-7.02656
▁feel	-7.02952
▁pro	-7.03115
▁place	-7.03219
▁stay	-7.04002
▁dad	-7.0482
▁always	-7.05201
▁lot	-7.07565
▁show	-7.08295
▁lo	-7.08885
▁wont	-7.09345
▁listen	-7.10146
im	-7.10256
ment	-7.10437
▁youll	-7.10605
▁things	-7.11677
id	-7.11754
▁last	-7.11922
▁youve	-7.12121
▁move	-7.12564
▁house	-7.12653
▁pa	-7.13354
ist	-7.13445
▁kind	-7.13612
▁hold	-7.13819
um	-7.14032
man	-7.14112
▁hear	-7.14345
ul	-7.14508
▁fl	-7.14783
ry	-7.14963
▁ca	-7.15742
▁leave	-7.1577
▁world	-7.16442
▁je	-7.16499
▁hello	-7.16707
▁live	-7.16787
▁be	-7.16993
▁li	-7.17026
▁do	-7.17481
▁bad	-7.17539
ia	-7.1754
▁believe	-7.18049
▁coming	-7.185
ver	-7.19257
▁father	-7.19263
de	-7.19267
▁fine	-7.19551
▁made	-7.19768
▁told	-7.19943
▁may	-7.20654
▁i	-7.21108
▁three	-7.21154
▁hell	-7.21174
ig	-7.21235
▁ra	-7.21475
▁ba	-7.21576
▁ru	-7.21925
ma	-7.22001
nk	-7.22062
▁isnt	-7.2258
to	-7.22808
▁every	-7.2286
▁turn	-7.22924
▁no	-7.23158
ow	-7.23183
▁girl	-7.23231
▁run	-7.23372
nt	-7.23548
▁ch	-7.23677
pe	-7.24051
ny	-7.24055
▁ti	-7.24511
▁mother	-7.25131
▁em	-7.25262
▁ja	-7.25636
mo	-7.26557
▁wan	-7.26645
▁doesnt	-7.26702
▁huh	-7.26855
▁sa	-7.26988
▁t	-7.2736
▁dr	-7.28204
▁cr	-7.28306
ine	-7.28329
▁course	-7.28762
▁mom	-7.29474
▁kill	-7.29568
ts	-7.30398
am	-7.30643
▁so	-7.31039
▁plan	-7.31199
▁tr	-7.31288
▁me	-7.31449
▁head	-7.31464
▁remember	-7.31647
oo	-7.31807
▁years	-7.32004
▁might	-7.32104
op	-7.32441
▁watch	-7.32686
pp	-7.32779
▁bo	-7.32938
▁money	-7.32967
▁mu	-7.33064
▁enough	-7.33376
▁baby	-7.33404
ies	-7.33521
age	-7.33846
▁ask	-7.34083
▁real	-7.34267
▁try	-7.34518
▁start	-7.34849
ti	-7.34892
▁d	-7.34961
per	-7.35063
▁se	-7.35113
▁guy	-7.3525
▁done	-7.35259
co	-7.35486
▁left	-7.35807
ive	-7.36272
▁understand	-7.3655
▁mar	-7.366
▁al	-7.36733
ian	-7.36962
▁bar	-7.36989
▁care	-7.37338
ha	-7.37565
son	-7.37654
▁ready	-7.37679
▁du	-7.38092
ad	-7.38559
▁thanks	-7.38754
▁le	-7.39184
▁sc	-7.39602
ru	-7.39747
ant	-7.3984
ting	-7.39844
▁came	-7.40428
▁best	-7.4105
mp	-7.41578
▁meet	-7.41619
able	-7.4192
ance	-7.42186
▁son	-7.42404
▁friend	-7.42497
▁wrong	-7.42498
ac	-7.4273
▁ah	-7.42831
▁morning	-7.429
▁mind	-7.43098
mb	-7.43174
▁today	-7.43538
▁ne	-7.43597
▁weve	-7.44489
▁wh	-7.4489
▁ga	-7.44968
dy	-7.45239
▁talking	-7.45349
om	-7.45952
▁whoa	-7.4623
▁an	-7.47073
ni	-7.4732
bb	-7.47327
▁next	-7.47392
un	-7.47592
▁ju	-7.47682
ca	-7.47883
▁another	-7.47893
▁open	-7.47982
▁vi	-7.48281
▁gra	-7.48491
ling	-7.48704
▁door	-7.49473
▁dis	-7.49497
▁z	-7.5006
▁fuck	-7.50094
▁room	-7.50154
tch	-7.50227
ger	-7.51749
▁win	-7.52121
ure	-7.52378
▁cha	-7.52495
tic	-7.52597
▁hard	-7.5288
▁happened	-7.53223
as	-7.53647
▁eat	-7.5418
▁dead	-7.54226
ted	-7.54272
ence	-7.54652
▁guess	-7.54677
▁aint	-7.55046
▁wanted	-7.55105
▁fi	-7.55238
▁men	-7.55374
be	-7.5566
▁bring	-7.55971
▁p	-7.55998
ity	-7.56159
ap	-7.5623
▁end	-7.56328
▁hope	-7.56426
▁ok	-7.56463
▁ex	-7.56873
▁close	-7.5701
▁pe	-7.57109
▁excuse	-7.57496
▁war	-7.57655
ho	-7.57721
mi	-7.58316
▁che	-7.58818
▁getting	-7.58992
▁idea	-7.59479
▁mon	-7.59638
▁far	-7.5978
▁we	-7.59887
▁else	-7.59953
les	-7.59978
▁shit	-7.60069
▁together	-7.60214
ba	-7.60363
bo	-7.60998
j	-7.61089
ph	-7.61124
▁part	-7.61128
up	-7.6113
▁sta	-7.61296
da	-7.61424
▁kids	-7.61429
▁second	-7.61553
▁wouldnt	-7.61882
▁matter	-7.61944
▁school	-7.62132
▁job	-7.6254
▁use	-7.63297
▁pretty	-7.63302
▁high	-7.63305
▁word	-7.63311
▁ad	-7.63498
▁everybody	-7.63595
▁jo	-7.63781
▁tonight	-7.63892
▁fire	-7.64395
▁whos	-7.64942
▁su	-7.65537
▁family	-7.65781
▁fight	-7.65868
▁pr	-7.6624
▁minute	-7.6645
▁bit	-7.66494
▁fe	-7.66915
▁someone	-7.67096
▁chance	-7.67607
▁seen	-7.6766
▁te	-7.67692
▁game	-7.68053
▁music	-7.68156
▁hand	-7.68684
▁walk	-7.6906
▁stand	-7.69278
ee	-7.69334
▁ar	-7.69361
▁whole	-7.69469
▁trying	-7.69565
▁dog	-7.69836
▁woman	-7.69884
▁found	-7.70009
▁kid	-7.70437
no	-7.70523
▁heard	-7.70726
▁fa	-7.70907
▁looking	-7.70918
▁ya	-7.70921
▁without	-7.7104
▁wasnt	-7.7115
▁fun	-7.71352
▁happen	-7.71772
▁change	-7.72025
▁week	-7.72321
▁jack	-7.72485
ful	-7.72512
ious	-7.72735
▁cause	-7.7287
▁hu	-7.73025
▁tu	-7.73145
mon	-7.73455
and	-7.73795
if	-7.74018
▁face	-7.74107
▁dream	-7.74379
ng	-7.74416
▁late	-7.74582
▁tomorrow	-7.74706
▁john	-7.74818
ick	-7.74863
▁water	-7.74981
▁four	-7.75633
ton	-7.75865
▁many	-7.75961
po	-7.76154
▁ri	-7.76177
ard	-7.76814
▁worry	-7.77266
▁en	-7.774
▁pre	-7.77478
▁saw	-7.77484
▁honey	-7.77607
▁knew	-7.77831
end	-7.77934
▁ass	-7.78017
▁pick	-7.78026
ness	-7.7845
der	-7.78462
▁m	-7.78888
▁heart	-7.78974
▁yet	-7.78976
▁light	-7.79012
▁brother	-7.79102
ak	-7.79193
▁happy	-7.79777
▁break	-7.80497
▁everyone	-7.80527
ea	-7.80737
▁friends	-7.80821
▁ow	-7.80922
▁sound	-7.80992
▁die	-7.81042
ugh	-7.81152
▁playing	-7.81212
▁wish	-7.81463
ide	-7.81602
▁went	-7.81713
▁young	-7.81759
▁hit	-7.81954
▁cat	-7.82136
▁havent	-7.82233
ight	-7.82582
▁beautiful	-7.82706
▁free	-7.8296
▁vo	-7.82989
▁wa	-7.83221
▁gone	-7.83403
▁youd	-7.83547
▁problem	-7.83903
ous	-7.83942
▁sw	-7.84118
▁lost	-7.84259
▁read	-7.84421
▁pay	-7.84509
▁sit	-7.84575
▁book	-7.84659
▁inter	-7.84743
▁set	-7.84745
ise	-7.85123
▁dear	-7.85884
▁seem	-7.85928
ill	-7.85955
do	-7.86099
ten	-7.86315
▁easy	-7.86466
▁alone	-7.86517
ish	-7.8656
▁true	-7.86597
▁check	-7.86683
▁since	-7.86716
▁five	-7.87151
▁actually	-7.87457
▁pass	-7.87736
▁grow	-7.8779
▁stuff	-7.88142
▁dance	-7.88257
▁sleep	-7.88587
▁el	-7.88688
▁pu	-7.88869
bi	-7.88936
ner	-7.8897
▁um	-7.89497
▁took	-7.89532
▁gu	-7.90026
▁save	-7.9008
▁shut	-7.90128
▁used	-7.90387
▁boys	-7.90752
▁king	-7.91006
▁ben	-7.9102
▁per	-7.91599
▁fucking	-7.9223
▁ball	-7.92522
▁hurt	-7.92981
▁sha	-7.93151
▁star	-7.93159
▁nobody	-7.93633
▁laughing	-7.93692
ated	-7.93726
ped	-7.93899
▁number	-7.93899
ag	-7.94076
▁town	-7.94709
di	-7.9535
▁question	-7.95375
▁mrs	-7.96052
pa	-7.96111
▁soon	-7.96143
▁fast	-7.96278
ther	-7.96544
▁afraid	-7.96596
▁george	-7.96596
▁pull	-7.96769
tor	-7.96874
▁shall	-7.96918
▁drink	-7.97014
▁met	-7.97076
▁mine	-7.97226
▁already	-7.9742
▁clear	-7.97424
▁days	-7.97553
▁forget	-7.97697
▁cla	-7.98002
▁somebody	-7.98111
▁children	-7.98113
▁act	-7.98281
▁couldnt	-7.98433
▁wife	-7.9881
▁damn	-7.98956
▁line	-7.99116
▁business	-7.99368
▁ab	-7.99617
▁ka	-7.99739
▁power	-7.99943
▁si	-8.00124
▁year	-8.00138
he	-8.00369
▁eyes	-8.00539
▁called	-8.00807
▁sweet	-8.00928
ast	-8.01305
▁bi	-8.01377
ping	-8.01661
▁cut	-8.02341
▁fly	-8.02471
va	-8.02482
▁ni	-8.02508
ite	-8.02779
▁side	-8.02901
▁follow	-8.03091
▁par	-8.03131
min	-8.03463
king	-8.04159
▁party	-8.04178
▁wheres	-8.04271
▁promise	-8.04564
▁comp	-8.0464
▁anyone	-8.04709
▁joe	-8.04959
▁chuckles	-8.05154
▁perfect	-8.05154
ical	-8.0521
▁hurry	-8.05453
▁wow	-8.05665
▁rest	-8.05753
▁lu	-8.05884
▁trouble	-8.05902
▁point	-8.05934
go	-8.05943
▁sn	-8.0618
▁learn	-8.06358
▁later	-8.06402
▁crazy	-8.06504
▁anyway	-8.06504
und	-8.06568
▁cool	-8.06618
ary	-8.06925
▁sign	-8.06966
▁j	-8.07241
▁hang	-8.07302
▁touch	-8.07874
▁bra	-8.08035
▁rock	-8.08101
▁six	-8.08176
ga	-8.08179
▁welcome	-8.08486
tin	-8.08498
▁exp	-8.08531
▁phone	-8.08656
▁safe	-8.0874
▁team	-8.08763
▁hate	-8.08767
ally	-8.09087
▁deal	-8.09414
▁va	-8.09752
▁red	-8.0991
▁sea	-8.09913
ize	-8.09961
less	-8.09991
ah	-8.10074
▁inside	-8.10204
▁supposed	-8.10336
▁bed	-8.10796
▁lose	-8.11141
▁probably	-8.11296
out	-8.1133
▁pat	-8.11659
lin	-8.12223
▁har	-8.12396
▁half	-8.12738
▁ago	-8.12801
▁gre	-8.12896
▁bill	-8.13039
▁bet	-8.13067
▁bl	-8.13171
▁ge	-8.13298
▁land	-8.13359
▁bye	-8.13721
▁lm	-8.13735
▁cu	-8.13761
▁hmm	-8.13862
▁hot	-8.13943
▁arent	-8.142
▁speak	-8.14263
▁ten	-8.14317
ore	-8.14324
▁full	-8.14367
▁fo	-8.1456
uc	-8.14637
▁whatever	-8.14842
▁hands	-8.15514
▁city	-8.15539
▁human	-8.15554
▁minutes	-8.15571
▁story	-8.15681
▁moment	-8.16023
▁order	-8.16377
rn	-8.16393
▁sighs	-8.16496
que	-8.16819
▁saying	-8.1696
▁step	-8.17027
▁app	-8.17331
▁beat	-8.17607
▁exactly	-8.1784
▁says	-8.18039
fe	-8.18202
ki	-8.18248
way	-8.1873
ley	-8.18826
▁ac	-8.18933
▁wonder	-8.18986
▁leg	-8.19122
▁ooh	-8.19424
our	-8.19535
one	-8.1962
▁lady	-8.19653
▁count	-8.19658
▁boo	-8.19682
ai	-8.19694
▁doctor	-8.19717
▁au	-8.19852
▁along	-8.20065
▁bla	-8.20087
▁r	-8.20124
▁horse	-8.2024
▁send	-8.20456
▁gun	-8.20463
ward	-8.20691
ze	-8.2076
▁taking	-8.20979
qui	-8.21018
ade	-8.21261
red	-8.21265
▁am	-8.21279
▁fall	-8.21399
▁train	-8.21462
▁ve	-8.22237
ab	-8.22835
ator	-8.22889
▁thinking	-8.23335
▁funny	-8.23532
▁finish	-8.23582
▁air	-8.23746
▁stupid	-8.2376
▁though	-8.23793
▁special	-8.23939
▁drive	-8.23977
▁cl	-8.24084
▁working	-8.24109
▁girls	-8.2466
▁mer	-8.25073
▁secret	-8.25205
▁cre	-8.25394
io	-8.25523
▁important	-8.2557
nie	-8.25745
▁for	-8.25785
wa	-8.25826
▁blow	-8.25891
▁quite	-8.26081
▁different	-8.26119
▁hair	-8.26276
ook	-8.26313
vis	-8.26346
ell	-8.26431
▁ob	-8.26592
▁sun	-8.26711
▁daddy	-8.26893
▁ahead	-8.26927
▁throw	-8.26968
▁drop	-8.2724
▁shoot	-8.27241
▁bee	-8.27596
▁goodbye	-8.27602
▁heres	-8.2766
▁butt	-8.27759
tu	-8.27771
▁grunts	-8.27786
▁pl	-8.27914
▁fact	-8.28061
▁gave	-8.28165
▁serious	-8.28539
▁gl	-8.28575
ving	-8.28693
▁write	-8.28815
▁nu	-8.2895
che	-8.29106
▁wear	-8.29306
my	-8.2934
ven	-8.29385
▁shot	-8.29516
▁laughs	-8.29523
▁lead	-8.29551
▁the	-8.29588
▁child	-8.29677
▁yo	-8.29848
▁ran	-8.30044
▁kiss	-8.30084
row	-8.30228
▁killed	-8.3035
▁food	-8.30444
▁ring	-8.30594
▁behind	-8.30627
▁coach	-8.30991
▁pain	-8.31168
▁bre	-8.31272
ey	-8.31396
▁least	-8.31493
▁person	-8.31574
▁can	-8.31763
▁feeling	-8.31778
▁anybody	-8.31981
▁stu	-8.32375
▁dan	-8.32383
▁trust	-8.32574
▁catch	-8.32815
ron	-8.32945
▁goes	-8.33203
▁almost	-8.33552
▁fair	-8.33813
▁super	-8.33894
▁pop	-8.34035
▁ed	-8.34102
ating	-8.3429
▁art	-8.34837
▁waiting	-8.34841
▁song	-8.34892
▁gentlemen	-8.34945
led	-8.35051
▁report	-8.35102
▁cur	-8.3511
▁making	-8.35171
▁gar	-8.35527
▁cap	-8.35577
▁cop	-8.35613
▁country	-8.36052
▁screaming	-8.36242
ang	-8.36243
▁till	-8.36407
▁earth	-8.36505
ach	-8.36646
▁black	-8.36761
▁reason	-8.36771
press	-8.36988
▁pan	-8.37119
▁luck	-8.37217
▁theyll	-8.37384
▁blood	-8.37385
▁lock	-8.37465
▁daughter	-8.37588
▁ladies	-8.37592
▁sister	-8.37616
▁bird	-8.37807
▁anymore	-8.38001
men	-8.38101
▁bri	-8.38292
▁couple	-8.38417
▁glad	-8.38507
▁clean	-8.38629
▁death	-8.38633
▁wonderful	-8.38678
ii	-8.3872
lie	-8.38826
▁front	-8.38833
▁cor	-8.38837
em	-8.39
▁gasps	-8.39043
▁answer	-8.3925
▁arm	-8.39386
▁class	-8.39419
▁lord	-8.39513
▁dress	-8.39565
▁san	-8.39915
▁cent	-8.40078
▁also	-8.40165
▁teach	-8.4067
▁ship	-8.40685
▁expect	-8.40726
▁figure	-8.40728
▁cry	-8.40821
▁v	-8.41039
hi	-8.41205
▁christ	-8.41366
q	-8.41515
▁top	-8.41594
▁smell	-8.42014
▁bob	-8.42035
▁sla	-8.42041
▁control	-8.42225
▁sal	-8.42288
▁state	-8.42424
▁brought	-8.42658
by	-8.42697
▁aw	-8.427
▁parents	-8.42882
▁ce	-8.4298
▁body	-8.43508
▁white	-8.43626
▁careful	-8.43661
▁blue	-8.43756
bu	-8.43801
▁or	-8.43914
▁mor	-8.43965
ler	-8.44351
▁fu	-8.44486
▁pig	-8.44635
▁itll	-8.4464
▁lucky	-8.44653
▁ski	-8.44852
▁breath	-8.44855
▁yell	-8.44935
light	-8.44974
ress	-8.45016
▁chi	-8.45125
▁sometimes	-8.45129
lly	-8.45167
▁buy	-8.45395
▁whoo	-8.4548
ries	-8.45576
▁sent	-8.45847
▁case	-8.46121
▁gold	-8.4638
▁police	-8.46412
gu	-8.4655
▁piece	-8.46641
▁fish	-8.46694
▁over	-8.46718
▁president	-8.46862
hoo	-8.46978
▁bon	-8.47091
▁running	-8.47117
▁laugh	-8.47165
▁mess	-8.47761
▁animal	-8.47771
▁general	-8.47773
▁sick	-8.48154
▁hours	-8.48307
▁asked	-8.48426
com	-8.48677
▁million	-8.48688
▁dinner	-8.48688
▁continues	-8.48767
▁frank	-8.48984
▁mad	-8.49126
▁key	-8.49818
▁ear	-8.49832
▁law	-8.49834
con	-8.49843
▁married	-8.4985
▁bro	-8.50038
fa	-8.50118
▁ray	-8.50352
br	-8.5036
▁quick	-8.50465
▁surprise	-8.50545
▁tried	-8.50664
▁bur	-8.51326
uck	-8.5146
▁uncle	-8.51498
▁captain	-8.51724
▁street	-8.51726
▁bear	-8.51896
▁outside	-8.51963
▁magic	-8.52015
▁stick	-8.52256
▁near	-8.5268
▁duck	-8.52816
▁slow	-8.53102
▁truth	-8.53401
▁park	-8.53428
▁sort	-8.53728
▁join	-8.53997
▁women	-8.54127
▁mary	-8.54387
▁van	-8.54435
▁cook	-8.54563
▁mama	-8.54826
▁knock	-8.54857
▁small	-8.54858
▁chatter	-8.55353
▁alive	-8.55572
▁voice	-8.56094
▁bank	-8.56137
▁bat	-8.56181
▁jump	-8.56278
▁scared	-8.56593
▁ref	-8.5667
▁started	-8.56673
▁eye	-8.56854
▁gi	-8.57078
▁mmm	-8.57129
▁feet	-8.57182
▁quiet	-8.57336
▁bell	-8.5739
▁fear	-8.57452
▁road	-8.57491
▁less	-8.57584
▁hour	-8.57976
▁mark	-8.58294
▁ride	-8.58628
▁strong	-8.58855
▁cheering	-8.58874
time	-8.58958
▁exc	-8.59009
▁camp	-8.5989
▁perhaps	-8.60652
▁master	-8.60992
▁fool	-8.61093
▁jim	-8.61321
▁wall	-8.61666
▁crowd	-8.61699
▁moving	-8.61847
▁bea	-8.6186
▁field	-8.62126
▁test	-8.62204
▁dark	-8.62231
▁living	-8.62345
▁picture	-8.62484
▁straight	-8.62512
▁under	-8.62531
▁short	-8.62557
▁grand	-8.62648
▁egg	-8.6276
▁poor	-8.63071
▁either	-8.63281
▁strange	-8.63323
▁hows	-8.63375
▁roll	-8.6359
▁wake	-8.63889
▁tree	-8.64078
▁deep	-8.64178
▁fix	-8.64182
▁somewhere	-8.64351
▁weird	-8.64356
▁cal	-8.64387
▁rule	-8.64583
▁leaving	-8.64621
▁green	-8.64973
▁out	-8.64976
▁qua	-8.65434
▁sing	-8.65549
▁officer	-8.65656
▁wood	-8.65678
▁trans	-8.65744
▁fra	-8.65758
ute	-8.65779
ship	-8.65909
▁dude	-8.65929
▁seven	-8.66087
▁peter	-8.66172
▁all	-8.66261
▁cover	-8.66494
▁gro	-8.66518
▁worth	-8.66808
▁ann	-8.66956
▁moon	-8.67513
▁scream	-8.67796
▁husband	-8.68192
▁protect	-8.68193
▁ii	-8.68242
ette	-8.68326
▁pen	-8.68519
▁finally	-8.68649
▁enjoy	-8.68753
▁wed	-8.68907
▁attack	-8.69317
▁shouldnt	-8.69317
▁present	-8.69331
▁lovely	-8.69517
▁return	-8.69601
▁push	-8.6976
▁grunting	-8.69885
▁bitch	-8.6995
▁foot	-8.70077
▁base	-8.70094
▁brain	-8.70139
▁kick	-8.70218
rate	-8.70932
▁sex	-8.71246
▁smurf	-8.71317
▁henry	-8.71321
▁cold	-8.7166
▁able	-8.72075
▁rid	-8.72108
▁machine	-8.72188
▁form	-8.72326
port	-8.72544
▁kidding	-8.73098
▁destroy	-8.73358
▁space	-8.73366
gue	-8.73395
▁tom	-8.73448
spect	-8.73453
▁phil	-8.73897
▁christmas	-8.73955
▁low	-8.74137
▁office	-8.74301
▁burn	-8.74318
▁tri	-8.74641
▁speaking	-8.74707
▁min	-8.75072
▁past	-8.75095
▁gene	-8.75195
line	-8.75341
▁wind	-8.75424
▁become	-8.75443
▁direct	-8.75444
▁nick	-8.75511
▁lie	-8.75605
▁sub	-8.75646
▁charge	-8.75761
▁forgot	-8.76046
▁boss	-8.76138
▁singing	-8.76197
▁york	-8.7635
▁sense	-8.76363
▁sur	-8.76481
land	-8.76648
▁buddy	-8.76656
▁ground	-8.76688
▁shell	-8.76928
▁maam	-8.76999
▁fred	-8.77209
▁command	-8.77263
down	-8.77559
▁murder	-8.77571
▁radio	-8.77572
▁paper	-8.77624
▁eight	-8.77894
▁pet	-8.77993
▁lts	-8.78025
▁band	-8.78211
▁died	-8.78303
▁jesus	-8.78529
▁goddamn	-8.78806
▁proud	-8.7883
▁bomb	-8.79091
▁theyve	-8.7912
▁fault	-8.7912
▁decide	-8.79124
ible	-8.79774
▁fat	-8.8004
▁american	-8.80485
▁handle	-8.80582
▁amazing	-8.8069
▁engine	-8.81327
▁boat	-8.81336
▁rich	-8.81532
▁richard	-8.81691
▁darling	-8.81969
▁box	-8.82207
▁sell	-8.82209
▁ze	-8.82312
▁clo	-8.82438
▁north	-8.82624
umb	-8.82897
▁wha	-8.82901
▁mistake	-8.82934
▁hero	-8.83069
▁charlie	-8.83259
▁future	-8.83259
▁hy	-8.8365
▁ph	-8.83747
▁groans	-8.83923
▁none	-8.84061
▁harry	-8.84085
▁aah	-8.84327
▁happening	-8.84346
▁pla	-8.8435
▁dave	-8.84409
▁trip	-8.84557
▁seat	-8.84562
▁entire	-8.84568
▁hide	-8.84757
▁absolutely	-8.84898
▁suppose	-8.84928
▁window	-8.84974
▁company	-8.85233
▁offer	-8.85236
▁ice	-8.8527
▁reach	-8.85286
▁rather	-8.85412
▁mm	-8.85413
▁lunch	-8.85568
▁que	-8.8561
▁calm	-8.85852
you	-8.85978
▁record	-8.86229
▁pal	-8.86277
▁temp	-8.86475
▁chicken	-8.86565
▁guard	-8.87024
▁smart	-8.8724
▁mouth	-8.87244
▁force	-8.87686
▁rain	-8.87887
▁others	-8.88278
▁bag	-8.88291
▁river	-8.88507
low	-8.88739
▁tough	-8.88934
▁terrible	-8.89075
▁indistinct	-8.8929
▁dangerous	-8.89313
▁up	-8.89325
▁spend	-8.89574
▁forever	-8.89638
▁rat	-8.89751
▁miles	-8.89793
▁alright	-8.89985
▁realize	-8.90125
▁warn	-8.90142
▁imagine	-8.90335
▁agree	-8.90337
▁wild	-8.90364
▁hungry	-8.90377
▁allow	-8.90494
▁prison	-8.90684
▁tea	-8.90758
lock	-8.90848
▁nine	-8.91002
▁except	-8.91063
▁prince	-8.91151
▁age	-8.91282
the	-8.91633
ities	-8.91646
▁suit	-8.91708
▁beg	-8.91757
▁south	-8.9176
ative	-8.91777
▁queen	-8.91964
▁tro	-8.9197
▁honest	-8.92102
▁honor	-8.92115
▁round	-8.92387
▁marry	-8.92497
▁tired	-8.9265
▁date	-8.92717
▁pack	-8.92764
▁explain	-8.93525
▁thousand	-8.93885
▁anywhere	-8.94247
▁cross	-8.94256
▁movie	-8.94258
▁treat	-8.94298
▁sad	-8.94407
ja	-8.94428
▁monster	-8.94652
▁personal	-8.9485
▁choice	-8.94976
▁building	-8.95123
▁computer	-8.95344
▁louis	-8.95436
▁carry	-8.9547
▁freak	-8.9571
▁witch	-8.95721
▁attention	-8.96078
▁service	-8.96078
▁don	-8.96147
▁aunt	-8.96271
▁travel	-8.96449
▁bang	-8.9653
▁island	-8.96826
▁soul	-8.96892
▁hum	-8.97063
▁accident	-8.97194
▁trick	-8.97291
▁buck	-8.97433
▁busy	-8.97483
▁table	-8.97567
▁worse	-8.97574
▁rose	-8.97878
▁quit	-8.98033
ju	-8.98304
▁draw	-8.98331
▁coffee	-8.98701
▁joke	-8.98724
▁mc	-8.99079
▁system	-8.99081
▁relax	-8.99084
▁paul	-8.99743
▁shh	-8.99795
▁fail	-8.99819
▁belong	-8.99846
▁possible	-8.99846
▁middle	-8.99846
▁felt	-8.99872
▁pur	-8.99998
▁certainly	-9.0007
▁heaven	-9.00231
▁visit	-9.00287
▁begin	-9.00329
▁army	-9.00347
▁stra	-9.00761
▁grab	-9.00774
▁fan	-9.00938
▁soft	-9.01041
▁cell	-9.01184
▁hotel	-9.01355
▁spot	-9.01453
▁pray	-9.01805
▁letter	-9.02026
▁french	-9.02176
▁glass	-9.02188
▁port	-9.02622
▁birthday	-9.02965
▁forgive	-9.02965
▁mel	-9.0311
▁papa	-9.03213
▁suck	-9.03284
▁evil	-9.03308
▁apart	-9.03362
▁horn	-9.03778
▁unless	-9.04063
▁hundred	-9.0416
▁simple	-9.04161
▁message	-9.04279
▁opera	-9.04303
▁early	-9.04309
▁princess	-9.04429
▁pleasure	-9.04561
▁summer	-9.04562
▁flower	-9.04572
▁wash	-9.04586
▁ver	-9.04737
▁caught	-9.04967
▁stuck	-9.05132
▁born	-9.05201
▁enter	-9.05234
▁floor	-9.05385
▁club	-9.05398
▁mountain	-9.05776
▁normal	-9.05776
▁share	-9.05803
▁manage	-9.0585
▁cute	-9.06014
▁english	-9.06184
▁shouting	-9.06598
▁forward	-9.06657
▁outta	-9.06755
▁shake	-9.06767
▁notice	-9.0716
▁fell	-9.07961
▁hall	-9.08013
▁upon	-9.08049
▁mmhmm	-9.0825
▁hunt	-9.08703
▁loud	-9.08756
▁sch	-9.08876
▁fella	-9.09004
▁favorite	-9.09116
▁brown	-9.09129
▁brave	-9.09246
▁bother	-9.09297
▁race	-9.09526
ude	-9.09607
▁circ	-9.0994
▁werent	-9.09949
▁board	-9.10191
▁shadow	-9.10363
▁respect	-9.10691
▁puss	-9.10725
▁swear	-9.10794
▁tight	-9.11057
▁spirit	-9.11219
▁ought	-9.11245
▁wedding	-9.11669
▁giving	-9.117
▁buzz	-9.12084
▁idiot	-9.12086
▁fill	-9.1222
▁afternoon	-9.12515
▁finger	-9.12707
▁escape	-9.13832
▁history	-9.13832
▁nose	-9.14169
▁dollars	-9.14274
▁agent	-9.14391
▁raise	-9.14399
▁ghost	-9.1472
▁lucy	-9.14736
▁sake	-9.14776
▁broken	-9.1496
▁yesterday	-9.15165
▁worried	-9.15165
▁scott	-9.15165
▁peace	-9.1517
▁german	-9.15622
▁note	-9.15624
▁chip	-9.15651
▁slip	-9.15656
▁taste	-9.16388
▁college	-9.16516
▁double	-9.16516
▁football	-9.16516
▁broke	-9.16589
▁quickly	-9.16671
▁gift	-9.16986
▁sitting	-9.17264
▁third	-9.17437
▁settle	-9.17494
▁court	-9.17496
▁heh	-9.17504
▁group	-9.17517
▁consider	-9.17887
▁across	-9.17887
▁totally	-9.1789
▁prepare	-9.1789
▁hasnt	-9.17935
▁doubt	-9.18347
▁angel	-9.1841
▁awful	-9.18908
▁sam	-9.19025
▁tv	-9.19139
▁clothes	-9.19276
▁extra	-9.19284
▁ahh	-9.19672
▁michael	-9.19742
▁security	-9.19742
▁marshal	-9.19749
▁grandma	-9.19881
▁action	-9.20132
▁organ	-9.20216
▁ticket	-9.20685
work	-9.20718
▁east	-9.20727
well	-9.20919
▁area	-9.20927
▁search	-9.21162
▁single	-9.2155
▁uhhuh	-9.21633
▁crash	-9.2164
▁mention	-9.21743
gging	-9.21973
▁definitely	-9.22112
▁church	-9.22113
▁steal	-9.22152
▁kitchen	-9.22593
▁david	-9.22594
▁bunch	-9.22602
ified	-9.22645
▁medi	-9.22713
▁stone	-9.2288
▁major	-9.23078
▁invite	-9.23082
▁truck	-9.23218
▁mommy	-9.23277
board	-9.23982
▁deliver	-9.24052
▁chief	-9.24057
▁instead	-9.24539
▁weapon	-9.2454
▁wolf	-9.25053
▁shoes	-9.25058
▁stole	-9.25225
▁yep	-9.25417
▁bless	-9.2542
▁kept	-9.25527
▁throat	-9.25529
▁pardon	-9.25534
▁yall	-9.25767
▁howard	-9.25885
▁program	-9.26024
▁charles	-9.26028
▁smile	-9.2604
▁invest	-9.26537
▁alex	-9.26539
▁madam	-9.26754
▁victor	-9.27028
▁arrest	-9.27034
▁final	-9.27272
▁contact	-9.27532
▁drunk	-9.27536
▁beach	-9.27581
▁spell	-9.27816
▁remind	-9.28054
▁airport	-9.28086
head	-9.28097
▁colonel	-9.2855
▁folks	-9.2855
▁accept	-9.28574
▁build	-9.28874
▁champion	-9.29063
▁fresh	-9.29066
▁price	-9.29078
▁match	-9.29444
▁appear	-9.29584
▁arrive	-9.29585
▁color	-9.29636
▁pound	-9.29992
▁practice	-9.30096
▁blind	-9.30114
▁howd	-9.30184
▁america	-9.30433
▁position	-9.30617
▁besides	-9.30618
▁track	-9.30627
▁lawyer	-9.30639
▁self	-9.30647
▁completely	-9.30877
▁appreciate	-9.3114
▁giant	-9.31295
cut	-9.3134
▁store	-9.3136
▁quarter	-9.31669
▁jamie	-9.31678
▁julie	-9.31871
▁waste	-9.31883
▁congratulations	-9.32196
▁incredibl	-9.32196
▁creature	-9.32196
▁sky	-9.32254
▁lift	-9.32316
▁doug	-9.326
▁dorothy	-9.32728
▁neither	-9.32729
▁ernie	-9.32741
▁everywhere	-9.32763
▁ye	-9.33036
▁situation	-9.33265
▁dumb	-9.33289
▁certain	-9.33485
▁impossible	-9.338
▁soldier	-9.33806
wood	-9.3389
▁disappear	-9.34884
▁whistle	-9.34888
▁crack	-9.34897
▁speed	-9.34975
▁breakfast	-9.35431
▁battle	-9.35443
▁upset	-9.35443
▁andrew	-9.3598
▁bright	-9.35983
▁cheese	-9.35994
▁fellow	-9.3607
▁hospital	-9.36533
▁bastard	-9.36534
▁charm	-9.36625
▁guest	-9.36997
▁announce	-9.37088
▁nervous	-9.37088
▁heavy	-9.37088
▁strike	-9.37093
▁block	-9.37254
▁cream	-9.37315
▁account	-9.37647
▁james	-9.377
▁sudden	-9.38209
▁crime	-9.38225
▁excellent	-9.38774
▁london	-9.38774
▁favor	-9.3931
▁difference	-9.39342
▁sword	-9.39355
▁awesome	-9.39913
▁girlfriend	-9.39913
▁corner	-9.40053
▁continue	-9.40286
▁score	-9.40513
▁loose	-9.40523
▁panting	-9.40719
▁forest	-9.40824
▁professor	-9.41066
▁concern	-9.41067
▁rabbit	-9.41067
▁deserve	-9.41068
▁information	-9.41131
▁risk	-9.41201
▁experience	-9.41647
▁kingdom	-9.41651
▁smoke	-9.41651
▁wheel	-9.41657
▁large	-9.4188
▁public	-9.42232
▁bottom	-9.42232
▁truly	-9.4225
▁ybi	-9.42255
▁steve	-9.42406
▁collect	-9.4282
▁wrote	-9.42823
▁dirty	-9.42827
▁beauty	-9.43413
▁bobby	-9.43485
▁student	-9.44011
▁dancing	-9.44027
▁yi	-9.44316
▁language	-9.44606
▁embarrass	-9.45209
▁private	-9.45209
▁sweetheart	-9.45815
▁bridge	-9.45817
▁kitty	-9.45818
▁type	-9.45851
▁serve	-9.46002
stein	-9.46308
▁especially	-9.46424
▁village	-9.46426
▁member	-9.46432
▁faith	-9.46433
▁upstairs	-9.47038
▁silly	-9.47187
▁discuss	-9.47655
▁sniff	-9.47659
▁danger	-9.47816
▁comfort	-9.48276
▁majesty	-9.48276
▁dying	-9.4842
▁savage	-9.48903
▁bought	-9.48905
▁monkey	-9.4891
▁remain	-9.48912
cept	-9.4922
▁suggest	-9.4953
▁twice	-9.4953
▁support	-9.49531
▁yard	-9.49585
▁complete	-9.49861
▁success	-9.50163
▁scene	-9.50201
gged	-9.50724
▁health	-9.50808
▁garden	-9.50811
▁nowhere	-9.50842
▁spring	-9.50882
▁survive	-9.51441
▁judge	-9.5145
▁teeth	-9.51451
▁walter	-9.51457
▁worst	-9.52102
▁robot	-9.5214
bility	-9.52174
▁sheriff	-9.52736
▁bottle	-9.52736
▁angry	-9.52741
▁groaning	-9.52742
▁excited	-9.52742
▁taught	-9.52745
▁alien	-9.52766
▁climb	-9.53392
▁devil	-9.53403
▁nature	-9.53426
▁hung	-9.53623
▁friday	-9.54047
▁thunder	-9.54713
▁suffer	-9.54715
▁whatd	-9.54741
▁shouldve	-9.55376
▁miracle	-9.55376
▁robert	-9.55377
▁teddy	-9.55389
▁spoke	-9.5539
▁built	-9.55404
▁nothin	-9.55656
▁fantastic	-9.56047
▁theyd	-9.56081
▁restaurant	-9.56723
▁natural	-9.56725
▁alarm	-9.56732
▁grandpa	-9.56856
▁africa	-9.57403
▁difficult	-9.57403
▁somehow	-9.57403
▁kidnap	-9.57418
berg	-9.57481
▁william	-9.58088
ology	-9.58091
▁author	-9.5878
▁kelly	-9.58794
▁sharp	-9.58841
▁tommy	-9.58849
▁decision	-9.59472
▁object	-9.59472
▁correct	-9.59472
▁writing	-9.59476
▁milk	-9.595
▁knee	-9.5965
▁ridiculous	-9.60171
▁plenty	-9.60175
▁admit	-9.60181
▁sweat	-9.60207
▁drug	-9.60393
▁twenty	-9.60876
▁dawn	-9.60902
▁immediately	-9.61585
▁introduce	-9.61585
▁rescue	-9.61586
▁thatll	-9.61588
▁castle	-9.61598
▁defense	-9.62299
▁project	-9.62299
▁condition	-9.623
▁marriage	-9.623
▁often	-9.62302
▁screw	-9.62306
▁department	-9.63019
▁georgie	-9.63019
▁wizard	-9.63019
▁pretend	-9.63024
▁indeed	-9.63038
▁brand	-9.63094
▁perform	-9.63743
▁approach	-9.63743
▁weather	-9.63745
▁driving	-9.63745
▁arthur	-9.63745
▁comment	-9.63754
▁level	-9.6376
▁government	-9.64473
▁cousin	-9.64492
▁royal	-9.64534
▁bullshit	-9.65208
▁asshole	-9.6521
▁choose	-9.65211
▁release	-9.65212
▁usually	-9.65214
▁prefer	-9.65224
▁strength	-9.65949
▁conversation	-9.65949
▁whether	-9.65952
▁beyond	-9.66696
▁within	-9.66696
▁ugly	-9.66696
▁psych	-9.66696
▁receive	-9.66699
▁kurt	-9.66721
field	-9.66976
▁focus	-9.67451
▁enemy	-9.67451
▁hadnt	-9.67463
▁tower	-9.67492
▁whered	-9.67512
▁washington	-9.68206
▁patient	-9.68209
▁genius	-9.68969
▁england	-9.68969
▁squeak	-9.68969
▁address	-9.6897
▁nightmare	-9.68972
▁chitty	-9.68974
▁depend	-9.68975
▁stink	-9.69046
▁eric	-9.69079
▁invent	-9.69145
▁purpose	-9.69738
▁emergency	-9.70513
▁sergeant	-9.70513
▁switch	-9.70517
▁sassy	-9.70535
▁became	-9.71295
▁famous	-9.71296
▁defend	-9.71299
▁witness	-9.72084
▁nurse	-9.72089
▁linda	-9.72098
▁frog	-9.72119
▁bowl	-9.72164
foot	-9.72481
▁speech	-9.72877
▁punch	-9.72886
▁alvin	-9.72886
▁apologize	-9.73675
ville	-9.73983
▁motherfucker	-9.74481
▁saturday	-9.74481
▁discover	-9.74482
▁empty	-9.74488
▁ease	-9.74555
▁brilliant	-9.75294
▁sophie	-9.75296
▁among	-9.75306
▁gasping	-9.75314
▁view	-9.75315
▁bathroom	-9.76114
▁quo	-9.76114
▁lonely	-9.76124
▁repeat	-9.76133
▁flip	-9.76258
▁foreign	-9.76941
▁spanish	-9.76942
▁vacation	-9.76944
hold	-9.77367
▁comrade	-9.77774
▁byebye	-9.77775
▁sold	-9.77856
▁term	-9.78426
▁frighten	-9.78614
▁recognize	-9.78614
▁chuckling	-9.78614
▁knight	-9.7862
▁sugar	-9.78628
▁beginning	-9.78633
▁film	-9.7865
▁baker	-9.78685
▁written	-9.79462
▁connect	-9.79465
▁boyfriend	-9.80316
▁subject	-9.80316
▁sunday	-9.80319
▁pocket	-9.80322
▁advice	-9.81178
▁thomas	-9.8118
▁science	-9.81181
▁stories	-9.81188
▁national	-9.81211
▁creep	-9.81212
▁criminal	-9.82048
▁penguin	-9.82048
▁steady	-9.82049
▁hubie	-9.82053
▁eagle	-9.82054
▁ocean	-9.82056
▁jellicle	-9.82925
▁screech	-9.82925
▁jeremy	-9.82926
▁committee	-9.82927
▁female	-9.82929
▁freedom	-9.82931
▁common	-9.82932
▁shark	-9.82951
▁talent	-9.82953
▁asleep	-9.8381
▁valley	-9.83812
▁desert	-9.83867
▁dragon	-9.84704
▁memory	-9.84704
▁simply	-9.84704
▁contract	-9.85604
▁electric	-9.85604
▁square	-9.85604
▁terrific	-9.85604
▁tongue	-9.85607
▁handsome	-9.85612
▁fancy	-9.85614
▁cooper	-9.85635
▁develop	-9.86513
▁courage	-9.86516
▁distance	-9.86523
▁biggest	-9.86525
▁journey	-9.8743
▁official	-9.8743
▁sacrifice	-9.8743
▁gadget	-9.87431
▁regret	-9.87431
▁issue	-9.87432
▁evidence	-9.88356
▁social	-9.88357
▁degree	-9.88358
▁harold	-9.88362
▁cloud	-9.88378
▁karen	-9.88387
▁confirm	-9.89291
▁horrible	-9.89291
▁someday	-9.89291
▁launch	-9.89293
▁spread	-9.89295
▁spider	-9.89314
craft	-9.89351
▁commit	-9.90233
▁audience	-9.90234
▁pizza	-9.90234
▁somethin	-9.90787
▁francis	-9.91187
▁possibly	-9.91187
▁attract	-9.91187
▁stomach	-9.91187
▁request	-9.91191
▁require	-9.91202
▁nerve	-9.91205
▁vince	-9.91214
▁according	-9.92148
▁exclaims	-9.92148
▁knife	-9.92149
▁brenda	-9.92151
▁clever	-9.92157
▁afford	-9.93119
▁lewis	-9.93124
▁sneak	-9.93126
▁jerry	-9.9313
▁uniform	-9.941
▁whispering	-9.941
▁client	-9.94107
▁trash	-9.94112
▁disappoint	-9.9509
▁grandfather	-9.9509
▁sandwich	-9.9509
▁whoever	-9.9509
▁opinion	-9.9509
▁wilma	-9.95095
▁float	-9.95211
▁elephant	-9.9609
▁fruit	-9.96096
▁snake	-9.96108
▁character	-9.971
▁europe	-9.971
▁otherwise	-9.971
▁unbelievable	-9.971
▁justice	-9.971
▁schedule	-9.971
▁photo	-9.97102
▁delicious	-9.9812
▁guilty	-9.98122
▁jealous	-9.98122
▁engage	-9.98125
▁granny	-9.98126
▁particular	-9.99151
▁telephone	-9.99151
▁civil	-9.99151
▁midnight	-9.99151
▁energy	-9.99151
▁taylor	-9.99152
▁dennis	-9.99152
▁advance	-9.99153
▁chocolate	-10.0019
▁dramatic	-10.0019
▁interview	-10.0019
▁revolution	-10.0019
▁servant	-10.0019
▁wherever	-10.0019
▁exhales	-10.0019
▁british	-10.002
▁innocent	-10.0125
▁necessary	-10.0125
▁universe	-10.0125
▁attend	-10.0125
▁target	-10.0125
▁current	-10.0125
▁inform	-10.0219
▁pregnant	-10.0231
▁hannah	-10.0231
▁kermit	-10.0231
▁kevin	-10.0231
