<unk>	0
<s>	0
</s>	0
s	-3.04501
e	-3.80583
ing	-4.17211
d	-4.32182
t	-4.3522
a	-4.37265
ed	-4.42842
y	-4.46693
er	-4.594
o	-4.64658
▁	-4.75126
n	-4.75547
▁im	-4.82962
c	-4.88599
p	-4.91915
i	-4.93164
▁dont	-4.93423
▁know	-4.94482
m	-4.9849
in	-5.00329
r	-5.03756
▁p	-5.04334
g	-5.04465
h	-5.06982
l	-5.11353
▁get	-5.12717
▁s	-5.12814
b	-5.13192
▁go	-5.18985
u	-5.19926
▁like	-5.26761
▁right	-5.2706
▁yeah	-5.32345
▁got	-5.32925
k	-5.33771
al	-5.35373
le	-5.39377
ar	-5.40487
▁na	-5.40951
▁youre	-5.42905
v	-5.43945
▁come	-5.48217
or	-5.50956
ly	-5.52478
▁t	-5.52969
w	-5.53139
f	-5.54258
it	-5.55533
▁oh	-5.55908
▁want	-5.56088
▁thats	-5.59616
▁one	-5.60547
en	-5.63442
▁f	-5.64956
▁think	-5.6539
▁w	-5.66574
▁okay	-5.67501
▁well	-5.67787
ch	-5.67863
▁l	-5.67953
on	-5.68974
▁gon	-5.7036
at	-5.71023
▁see	-5.74292
es	-5.74687
▁b	-5.75567
▁c	-5.77234
ur	-5.778
▁re	-5.78282
▁good	-5.78886
▁a	-5.79809
an	-5.82431
▁g	-5.84095
▁look	-5.84491
▁man	-5.86276
▁st	-5.86558
re	-5.89
ra	-5.90842
ent	-5.92519
il	-5.92763
ll	-5.94802
▁time	-5.97766
▁fuck	-5.99999
▁de	-6.00147
ri	-6.00882
ic	-6.03204
▁hey	-6.03304
▁back	-6.03936
ck	-6.04246
▁take	-6.0627
▁ill	-6.07293
us	-6.0754
▁us	-6.07977
▁e	-6.09346
▁need	-6.11891
am	-6.13933
▁yes	-6.14384
▁hes	-6.16188
▁say	-6.16353
▁ma	-6.17312
▁tell	-6.17448
ve	-6.18095
ir	-6.1824
▁going	-6.18539
▁ho	-6.24723
th	-6.25084
▁r	-6.2526
▁be	-6.25995
▁cant	-6.26341
as	-6.26581
▁k	-6.27452
st	-6.27644
▁mean	-6.27938
▁sh	-6.28139
▁fucking	-6.28783
▁shit	-6.29207
▁would	-6.29754
z	-6.29755
▁make	-6.30036
el	-6.31537
▁in	-6.31616
ce	-6.32266
▁m	-6.34568
▁bo	-6.34736
▁could	-6.35069
la	-6.36535
ro	-6.37362
ter	-6.37667
▁love	-6.37916
▁didnt	-6.39608
▁let	-6.39739
▁way	-6.40446
▁really	-6.40534
▁pa	-6.4232
▁something	-6.42461
▁j	-6.42805
▁co	-6.47456
▁o	-6.47565
ow	-6.48571
▁please	-6.50342
▁god	-6.50578
▁sorry	-6.50714
ate	-6.50741
▁thank	-6.51555
ie	-6.51649
▁lets	-6.52195
id	-6.52322
▁people	-6.52672
▁little	-6.52766
un	-6.54528
ry	-6.54686
▁work	-6.5574
▁give	-6.56074
is	-6.56106
ers	-6.56459
▁cr	-6.56748
li	-6.57327
▁sp	-6.57577
▁car	-6.58015
▁whats	-6.58409
▁ro	-6.58844
▁call	-6.58891
ut	-6.59369
x	-6.59857
▁ive	-6.60488
▁two	-6.60629
ne	-6.60989
▁th	-6.61966
ul	-6.62197
et	-6.62643
▁ta	-6.63641
▁help	-6.64048
▁theres	-6.64366
ation	-6.64499
ni	-6.64539
▁day	-6.66118
ion	-6.67207
▁never	-6.6881
▁uh	-6.6905
lo	-6.69086
▁ha	-6.69745
age	-6.70275
▁said	-6.71712
te	-6.72412
▁ca	-6.7328
▁con	-6.73511
est	-6.74031
▁fa	-6.74333
▁wait	-6.74754
de	-6.74998
▁even	-6.75345
▁hi	-6.77372
and	-6.77472
end	-6.78024
▁stop	-6.78181
ive	-6.78275
▁thing	-6.79056
▁he	-6.79121
▁ex	-6.79602
▁mo	-6.80175
▁wh	-6.80239
▁talk	-6.80887
▁mr	-6.80958
▁la	-6.81504
ug	-6.83107
▁guys	-6.8313
▁much	-6.83429
▁new	-6.84261
ment	-6.84499
▁ba	-6.84599
▁feel	-6.84631
▁di	-6.84732
▁do	-6.84993
▁pro	-6.85074
▁lo	-6.85593
qu	-6.86103
▁sure	-6.86129
ge	-6.87045
tion	-6.87074
▁play	-6.87527
ist	-6.88874
oo	-6.8938
mp	-6.89633
▁un	-6.89903
um	-6.89993
▁put	-6.90082
ant	-6.901
▁d	-6.90729
om	-6.91585
im	-6.91653
▁su	-6.91929
▁shes	-6.91986
ff	-6.9205
▁maybe	-6.9245
▁anything	-6.92584
▁name	-6.93688
uck	-6.9378
ies	-6.94011
▁theyre	-6.94714
▁sc	-6.94716
▁sir	-6.95311
▁great	-6.95438
▁night	-6.95441
▁first	-6.95581
▁kill	-6.95672
▁life	-6.95735
ot	-6.98322
ect	-6.98329
▁boy	-6.98533
▁da	-6.9904
▁girl	-6.99272
▁find	-6.99302
▁no	-6.99459
▁cl	-6.99489
▁friend	-7.00175
▁se	-7.01378
ig	-7.01763
▁id	-7.02104
ting	-7.02282
▁ever	-7.02842
ake	-7.0304
▁to	-7.03118
▁money	-7.04041
▁li	-7.04331
▁nothing	-7.04673
▁start	-7.05175
▁home	-7.05677
▁keep	-7.05787
▁long	-7.05802
able	-7.05845
▁ask	-7.05881
▁hand	-7.06292
ight	-7.06812
▁mom	-7.07114
▁v	-7.07748
▁so	-7.08191
ill	-7.08929
ia	-7.08934
ma	-7.09296
▁ri	-7.09415
▁hell	-7.09456
▁stay	-7.09768
▁guy	-7.09992
▁son	-7.10758
▁move	-7.1078
ty	-7.11174
▁still	-7.11527
▁br	-7.11643
▁away	-7.11683
▁kid	-7.11915
▁ad	-7.12391
man	-7.12462
▁everything	-7.1328
▁dr	-7.13942
▁thought	-7.14922
▁around	-7.15022
ho	-7.15508
▁years	-7.15599
▁ne	-7.16025
▁tra	-7.16725
co	-7.16827
▁listen	-7.1806
▁bl	-7.18886
▁cha	-7.18889
▁nice	-7.18971
▁for	-7.19397
ta	-7.19545
▁dis	-7.20288
▁house	-7.2102
tic	-7.21322
▁place	-7.21943
▁three	-7.22143
▁mi	-7.22597
▁kind	-7.2272
▁fine	-7.22763
▁last	-7.23111
▁vi	-7.23129
ip	-7.23395
▁leave	-7.23653
▁ju	-7.24148
▁old	-7.26115
▁real	-7.26355
▁wan	-7.27087
▁doesnt	-7.27362
▁big	-7.27412
na	-7.27431
j	-7.2755
▁better	-7.27768
▁live	-7.27907
▁ass	-7.27937
▁hear	-7.28418
▁sa	-7.2858
ance	-7.28742
▁told	-7.29641
▁mar	-7.2979
▁bad	-7.30101
▁youve	-7.30392
▁lot	-7.3054
mo	-7.30617
▁always	-7.31011
▁fl	-7.31097
▁things	-7.31131
▁father	-7.31221
ard	-7.32022
▁baby	-7.32267
op	-7.32469
up	-7.32626
▁show	-7.32783
me	-7.33725
ang	-7.33909
▁came	-7.34093
▁hello	-7.34283
▁em	-7.3459
ine	-7.34596
▁al	-7.35022
pp	-7.35441
▁ar	-7.35595
▁coming	-7.35604
▁done	-7.36232
▁wont	-7.36549
to	-7.36849
▁talking	-7.37046
▁made	-7.3721
▁remember	-7.37842
▁mother	-7.37847
▁hold	-7.38313
▁must	-7.38646
▁part	-7.39626
ish	-7.40254
▁pre	-7.40565
▁che	-7.4128
▁minute	-7.41443
▁door	-7.41942
▁hu	-7.42144
▁head	-7.42394
▁happened	-7.42396
▁com	-7.42806
▁open	-7.43048
▁understand	-7.43526
▁believe	-7.44703
▁dad	-7.45577
▁youll	-7.45893
▁dead	-7.45965
▁happen	-7.46099
▁every	-7.46381
▁left	-7.46861
▁die	-7.47287
▁speak	-7.47828
▁tri	-7.48485
▁me	-7.48684
▁wrong	-7.49056
▁ok	-7.49713
▁miss	-7.49829
▁aint	-7.50852
▁gra	-7.51211
less	-7.51271
▁care	-7.52202
▁huh	-7.52234
▁turn	-7.52343
▁wanted	-7.52478
▁week	-7.5258
▁john	-7.52835
▁next	-7.52837
▁ja	-7.52965
ity	-7.53257
ence	-7.53452
▁try	-7.54494
▁watch	-7.54656
und	-7.54834
▁world	-7.5491
▁morning	-7.5491
▁ah	-7.55323
▁room	-7.55452
▁else	-7.55515
▁meet	-7.5566
▁run	-7.56039
ph	-7.56314
▁today	-7.56496
▁isnt	-7.56762
▁sit	-7.57044
▁might	-7.57595
▁gun	-7.57869
▁jack	-7.5852
▁app	-7.58829
ian	-7.59202
ress	-7.59205
▁enough	-7.59469
▁inter	-7.59633
▁woman	-7.59751
▁walk	-7.60035
▁job	-7.60036
▁thanks	-7.60273
▁du	-7.60951
▁hard	-7.61004
▁le	-7.61816
lu	-7.61906
▁getting	-7.62708
▁men	-7.62979
ful	-7.63686
▁pay	-7.63955
▁another	-7.63957
▁close	-7.64568
▁wasnt	-7.65987
▁um	-7.6601
▁game	-7.66369
▁someone	-7.67165
▁together	-7.68357
▁mind	-7.6841
▁war	-7.68591
▁course	-7.6896
▁plan	-7.69108
▁phone	-7.69269
▁laugh	-7.69565
▁bit	-7.70253
▁best	-7.70292
▁trying	-7.70486
for	-7.70495
▁second	-7.71093
▁fr	-7.7114
▁chi	-7.71548
▁check	-7.72032
▁whole	-7.72036
old	-7.72691
ack	-7.72938
ny	-7.72955
▁looking	-7.7339
ize	-7.73397
▁bar	-7.74237
▁whos	-7.74371
▁tea	-7.74529
ever	-7.74559
▁cause	-7.74585
▁guess	-7.74861
▁wife	-7.75182
▁took	-7.75791
▁drink	-7.75831
▁tonight	-7.76804
▁end	-7.77786
▁cop	-7.77943
▁face	-7.78067
▁may	-7.78135
▁dan	-7.78333
▁fire	-7.78765
▁jesus	-7.78781
▁saw	-7.7884
▁free	-7.78893
▁problem	-7.7911
▁family	-7.79444
▁weve	-7.79484
▁bitch	-7.79504
▁act	-7.80105
▁four	-7.80141
one	-7.80222
▁stand	-7.80291
ness	-7.81102
▁everybody	-7.81133
▁went	-7.81339
▁bill	-7.81792
▁idea	-7.81972
▁office	-7.82853
▁change	-7.82858
ise	-7.82937
own	-7.83174
▁wouldnt	-7.83597
▁pretty	-7.8425
▁actually	-7.846
ual	-7.84707
▁dog	-7.8495
ated	-7.85031
▁person	-7.85319
▁set	-7.85602
▁damn	-7.85683
▁found	-7.86026
▁killed	-7.86575
bo	-7.86623
▁use	-7.87186
mon	-7.87431
▁high	-7.87475
▁heard	-7.87526
▁school	-7.87826
▁ready	-7.87856
▁used	-7.88348
▁ab	-7.88502
▁read	-7.88667
▁hit	-7.88747
▁nobody	-7.88925
▁knew	-7.88928
▁brother	-7.89294
▁many	-7.89344
▁without	-7.89664
▁called	-7.89799
▁goddamn	-7.90036
▁eat	-7.90579
▁excuse	-7.90784
▁bring	-7.90957
▁saying	-7.91037
▁ya	-7.9111
▁five	-7.91131
▁christ	-7.9116
▁en	-7.92708
▁pick	-7.9273
▁z	-7.92959
▁hurt	-7.93466
▁point	-7.93833
▁break	-7.9422
▁shut	-7.9423
▁book	-7.94518
▁cor	-7.94578
▁fun	-7.94609
▁somebody	-7.95391
▁fight	-7.95454
▁cut	-7.95609
▁deal	-7.95723
▁youd	-7.96581
▁seen	-7.96636
▁va	-7.96639
▁ago	-7.97044
▁har	-7.97077
▁win	-7.97136
▁late	-7.97152
▁matter	-7.97394
▁word	-7.9743
▁shot	-7.98374
▁sound	-7.98736
▁heart	-7.98863
▁couldnt	-7.99865
▁probably	-8.00221
over	-8.00284
▁alone	-8.00748
▁ben	-8.01596
▁month	-8.01896
▁far	-8.01965
▁hope	-8.02075
▁question	-8.02304
▁op	-8.02695
▁ann	-8.02859
▁inside	-8.03578
▁easy	-8.03596
▁shoot	-8.03603
▁sleep	-8.04004
▁pull	-8.04482
▁beautiful	-8.05296
▁tomorrow	-8.05296
▁police	-8.05296
▁number	-8.05731
▁el	-8.0581
▁all	-8.06141
▁already	-8.06606
▁crazy	-8.06606
▁stuff	-8.06611
▁water	-8.06686
▁case	-8.07198
▁anyone	-8.07489
▁six	-8.07509
▁rest	-8.0782
▁america	-8.07934
▁clear	-8.07984
▁couple	-8.08382
ward	-8.08456
▁everyone	-8.08938
▁later	-8.08987
▁since	-8.0931
▁arm	-8.09316
▁blood	-8.10189
▁cool	-8.10246
ture	-8.10496
▁serious	-8.11569
▁music	-8.11578
▁year	-8.119
way	-8.11999
▁comp	-8.1216
▁whatever	-8.12491
▁bra	-8.12729
▁report	-8.13245
▁mu	-8.13305
▁doctor	-8.13427
▁black	-8.1356
▁bye	-8.13698
▁touch	-8.13905
ious	-8.14096
lic	-8.14098
▁lost	-8.14347
▁havent	-8.14377
▁worry	-8.1438
▁honey	-8.14384
▁young	-8.14849
ook	-8.15835
▁happy	-8.16294
▁sign	-8.16332
▁motherfucker	-8.16776
▁dream	-8.1728
▁whoa	-8.17814
▁full	-8.18371
▁side	-8.18403
▁sex	-8.18752
▁save	-8.19182
▁drive	-8.20078
▁mess	-8.20335
▁quit	-8.2076
▁sighs	-8.21255
▁bus	-8.21465
▁met	-8.21546
▁jim	-8.21874
▁lose	-8.22381
▁though	-8.22568
▁anyway	-8.22793
▁pass	-8.22828
port	-8.22846
▁supposed	-8.23764
▁wheres	-8.23852
▁gave	-8.23863
▁exactly	-8.24356
▁follow	-8.24356
▁breath	-8.24883
▁half	-8.24897
▁light	-8.24955
▁buy	-8.25488
▁air	-8.25811
▁hang	-8.25982
▁taking	-8.25984
▁safe	-8.26066
▁soon	-8.27216
▁wonder	-8.27557
▁true	-8.27557
▁finish	-8.27562
▁mine	-8.27605
▁yet	-8.27614
▁town	-8.28213
▁business	-8.28647
▁different	-8.29195
▁trust	-8.29196
▁also	-8.29878
▁leg	-8.30237
▁continue	-8.30303
▁truth	-8.30304
▁body	-8.30409
▁forget	-8.30869
▁line	-8.31221
▁order	-8.31993
▁mark	-8.32231
▁chance	-8.32576
▁daughter	-8.33129
▁richard	-8.3313
▁welcome	-8.33703
▁women	-8.33709
▁dance	-8.33887
▁story	-8.34358
▁million	-8.34865
▁write	-8.35155
▁drop	-8.35201
▁afraid	-8.35448
▁perfect	-8.36628
▁murder	-8.36628
▁promise	-8.3663
▁reason	-8.36639
▁hate	-8.36828
▁alright	-8.37224
▁death	-8.37272
▁funny	-8.37313
▁sweet	-8.37822
▁prison	-8.37823
▁street	-8.37828
▁outside	-8.38424
▁front	-8.38434
▁clean	-8.3847
▁making	-8.38493
▁sick	-8.39719
▁wish	-8.40604
ible	-8.40878
▁answer	-8.41492
▁record	-8.41492
▁ball	-8.41625
▁lock	-8.42006
▁ran	-8.42097
▁count	-8.42644
▁anymore	-8.42746
▁cover	-8.43271
▁chuckles	-8.44015
▁control	-8.44657
▁burn	-8.4535
▁behind	-8.45951
▁throw	-8.45982
▁arent	-8.46187
▁special	-8.46605
▁ski	-8.47023
▁trouble	-8.47262
▁grand	-8.47304
▁fast	-8.47363
▁bullshit	-8.48591
▁almost	-8.48592
▁indistinct	-8.49263
▁molly	-8.49292
▁phil	-8.49376
▁fact	-8.49434
▁least	-8.49955
▁city	-8.50195
▁either	-8.50619
▁sister	-8.50683
▁itll	-8.51345
▁stupid	-8.51995
▁wear	-8.52163
▁gui	-8.5266
▁sometimes	-8.52687
▁dress	-8.5306
▁park	-8.53484
▁yo	-8.53624
▁picture	-8.54094
▁broke	-8.54101
▁learn	-8.54813
▁country	-8.54978
▁brought	-8.55515
▁york	-8.55519
▁anybody	-8.56234
▁figure	-8.56236
▁key	-8.56482
▁michael	-8.56959
▁quick	-8.58424
▁heres	-8.58523
▁step	-8.58555
▁grow	-8.58556
▁straight	-8.59168
▁expect	-8.59169
▁children	-8.59169
▁protect	-8.59172
▁fell	-8.59411
▁truck	-8.59925
▁daddy	-8.59959
▁careful	-8.60067
▁dude	-8.60318
▁lawyer	-8.61421
▁power	-8.61492
▁alive	-8.61867
▁hurry	-8.62187
▁piece	-8.62197
▁catch	-8.62233
▁theyll	-8.62953
▁married	-8.62965
▁asshole	-8.6373
▁child	-8.63744
▁joel	-8.63745
▁leaving	-8.6451
▁fix	-8.64529
▁trans	-8.64692
▁david	-8.653
▁lead	-8.65356
▁hows	-8.65509
▁butt	-8.6551
time	-8.65788
▁slow	-8.66142
▁lady	-8.66191
▁radio	-8.6689
▁decide	-8.669
▁blue	-8.67097
▁frank	-8.67701
▁seven	-8.68542
▁kiss	-8.68605
▁husband	-8.6933
▁kick	-8.69362
▁white	-8.69401
▁voice	-8.70157
▁chatter	-8.70167
▁bomb	-8.70209
▁food	-8.71021
▁kidding	-8.71091
▁agent	-8.72712
▁screaming	-8.73532
▁glad	-8.73577
▁somewhere	-8.74394
▁surprise	-8.74394
▁important	-8.75265
▁parents	-8.75267
▁small	-8.75274
▁honest	-8.75282
▁medic	-8.7531
▁total	-8.75318
▁join	-8.75329
▁gentlemen	-8.76141
▁information	-8.76141
▁secret	-8.76141
▁weird	-8.76142
▁charge	-8.76148
▁apart	-8.77026
▁tired	-8.77089
▁sort	-8.77311
▁rule	-8.77525
▁certain	-8.77918
▁stick	-8.77987
▁wall	-8.78396
▁build	-8.7882
▁running	-8.78865
▁hmm	-8.7973
▁mouth	-8.79743
▁knock	-8.80646
▁sergeant	-8.80646
▁soldier	-8.80646
▁computer	-8.80653
▁cross	-8.80675
▁quiet	-8.81572
▁soft	-8.81603
▁sense	-8.81609
▁paper	-8.8173
▁owe	-8.81977
▁alexander	-8.82506
▁coffee	-8.8345
▁shouldnt	-8.83457
▁favor	-8.83465
▁dark	-8.83486
▁class	-8.83533
▁dollars	-8.84402
▁strong	-8.84403
▁moving	-8.84455
▁service	-8.85364
▁company	-8.85372
▁mike	-8.85422
▁shall	-8.85444
▁cell	-8.85548
mission	-8.85568
▁george	-8.86335
▁complete	-8.86337
▁along	-8.86345
▁offer	-8.86349
▁road	-8.86498
▁weapon	-8.87315
▁machine	-8.8831
▁court	-8.8838
▁push	-8.88381
▁under	-8.8847
▁choice	-8.89305
▁become	-8.89306
▁yell	-8.8931
▁movie	-8.89336
▁buddy	-8.90315
▁zodiac	-8.90315
▁respect	-8.90316
▁drunk	-8.90319
▁captain	-8.91335
▁bobby	-8.91336
▁groans	-8.91336
▁engine	-8.91337
▁south	-8.91349
▁begin	-8.914
▁accident	-8.92366
▁attack	-8.92367
▁animal	-8.93408
▁dinner	-8.93409
▁guard	-8.93417
▁scared	-8.93452
▁living	-8.93456
▁honor	-8.9346
▁partner	-8.93492
▁program	-8.94461
▁mistake	-8.94463
▁early	-8.94495
▁fbi	-8.9458
▁amazing	-8.95525
▁goodbye	-8.95528
▁ladies	-8.95538
▁super	-8.9564
▁short	-8.95665
▁absolutely	-8.966
▁freak	-8.96603
▁arrest	-8.96609
▁direct	-8.96609
▁agree	-8.96614
▁grunts	-8.98786
▁middle	-8.98786
▁glass	-8.98797
▁treat	-8.98895
▁possible	-8.99897
▁window	-8.99903
▁security	-9.0102
▁explain	-9.01021
▁shouting	-9.01021
▁smart	-9.01025
▁smell	-9.01032
▁wedding	-9.02164
▁hundred	-9.03306
▁uncle	-9.03337
▁floor	-9.03349
▁system	-9.04469
▁gunfire	-9.04469
▁savage	-9.04473
▁michel	-9.04474
▁horse	-9.04489
▁double	-9.05646
▁ronnie	-9.05646
▁group	-9.05649
▁enjoy	-9.06836
▁theyve	-9.06837
▁worth	-9.08066
▁french	-9.09266
▁tough	-9.09266
▁tommy	-9.10495
▁forgot	-9.10499
ified	-9.10528
▁hospital	-9.11745
▁bastard	-9.11747
▁ground	-9.11748
▁birthday	-9.13011
▁joke	-9.13032
▁attention	-9.14293
▁russian	-9.14293
▁entire	-9.14294
▁except	-9.14295
▁dangerous	-9.15591
▁grunting	-9.15591
▁church	-9.15592
▁forgive	-9.15597
▁others	-9.15598
▁ghost	-9.15598
▁should	-9.16897
▁anywhere	-9.16907
▁yesterday	-9.16907
▁swear	-9.1691
▁college	-9.18241
▁robert	-9.18242
▁clothes	-9.19592
▁contact	-9.19592
▁account	-9.20962
▁upset	-9.20962
▁north	-9.20975
▁waste	-9.21041
▁mmhmm	-9.22351
▁terrible	-9.22351
▁victor	-9.22351
▁future	-9.22357
▁department	-9.23759
▁government	-9.23759
▁president	-9.23759
▁normal	-9.23759
▁return	-9.2376
▁yep	-9.23774
▁neighbor	-9.25188
▁pleasure	-9.25188
▁sweetheart	-9.25188
▁across	-9.25188
▁history	-9.25188
▁imagine	-9.25188
▁strange	-9.25203
▁invite	-9.25204
▁difference	-9.26637
▁general	-9.26637
▁heavy	-9.26638
▁rather	-9.26638
▁giving	-9.26638
▁hungry	-9.28108
▁concern	-9.28109
▁smile	-9.2813
▁decision	-9.296
▁involve	-9.296
▁charlie	-9.296
▁smoke	-9.29601
▁kept	-9.29604
▁girlfriend	-9.31115
▁turkish	-9.31115
▁public	-9.31115
q	-9.88517
