<unk>	0
<s>	0
</s>	0
s	-2.99484
ing	-4.10972
t	-4.12412
e	-4.12896
d	-4.31785
n	-4.38831
ed	-4.42088
y	-4.443
a	-4.44818
o	-4.67438
▁	-4.71059
er	-4.71787
p	-4.74316
r	-4.81418
m	-4.81487
▁im	-4.84864
g	-4.88014
i	-4.89118
▁know	-4.93831
l	-4.95104
▁dont	-4.96383
in	-4.99504
b	-5.08365
▁go	-5.14943
▁get	-5.15506
u	-5.22131
▁right	-5.27083
c	-5.31389
▁like	-5.31581
▁yeah	-5.33397
▁na	-5.35075
▁l	-5.35696
▁got	-5.38201
▁come	-5.38793
▁youre	-5.39418
ll	-5.41876
le	-5.43482
or	-5.44526
ly	-5.45236
ar	-5.46286
al	-5.50611
▁oh	-5.57647
▁s	-5.58311
▁okay	-5.58693
▁thats	-5.59719
▁w	-5.61342
▁one	-5.61431
▁a	-5.62744
▁see	-5.62802
it	-5.63522
▁f	-5.66198
▁well	-5.67096
▁re	-5.68471
▁want	-5.68678
w	-5.69405
k	-5.69647
▁gon	-5.70105
en	-5.71513
re	-5.74011
f	-5.75355
▁think	-5.75628
on	-5.76729
v	-5.77702
▁good	-5.79467
h	-5.81015
▁man	-5.84859
▁hey	-5.87295
il	-5.87525
st	-5.88393
▁look	-5.88561
▁b	-5.90017
an	-5.9019
es	-5.92233
at	-5.94759
▁de	-5.94824
ck	-5.96595
▁say	-5.97429
▁fuck	-5.99355
▁take	-5.99941
▁back	-6.0082
▁g	-6.01035
ic	-6.01278
ch	-6.03616
▁j	-6.05373
▁us	-6.05951
▁be	-6.06119
▁time	-6.06302
th	-6.07384
ir	-6.08088
ter	-6.09305
▁e	-6.09547
▁need	-6.11474
▁tell	-6.11503
ra	-6.12026
▁co	-6.12515
▁c	-6.16052
ce	-6.16145
ve	-6.17275
ie	-6.19223
▁hes	-6.1985
ri	-6.20554
▁yes	-6.23261
el	-6.23775
ent	-6.24383
ur	-6.24494
▁cant	-6.24943
▁ill	-6.26047
▁pa	-6.26562
▁going	-6.2746
▁k	-6.27863
▁sh	-6.27925
▁mean	-6.2898
▁fucking	-6.31314
ke	-6.31714
▁in	-6.32172
▁ma	-6.32949
▁shit	-6.33197
▁make	-6.33551
z	-6.33934
ow	-6.33945
▁o	-6.35357
▁ro	-6.36253
▁would	-6.36945
▁let	-6.373
te	-6.37422
▁didnt	-6.38158
▁love	-6.38498
▁really	-6.38585
▁bu	-6.38602
am	-6.38832
▁ho	-6.39458
▁bo	-6.39778
▁something	-6.40944
▁ta	-6.41472
ro	-6.41607
▁whats	-6.42498
▁po	-6.43574
ne	-6.44807
▁could	-6.46087
ion	-6.46459
▁sorry	-6.46766
▁way	-6.49106
▁please	-6.49338
▁little	-6.49993
▁su	-6.50436
▁give	-6.50594
▁lets	-6.5087
▁con	-6.51483
▁never	-6.51676
▁th	-6.51937
▁work	-6.5285
se	-6.54809
ver	-6.55167
▁ba	-6.55172
▁st	-6.57102
▁day	-6.57147
ry	-6.59898
▁sp	-6.59967
▁help	-6.61408
▁mo	-6.61832
is	-6.62354
▁people	-6.63099
▁da	-6.63991
▁ca	-6.64093
ol	-6.64211
▁cr	-6.64659
lo	-6.6671
ate	-6.6685
▁thank	-6.67048
▁god	-6.67255
▁se	-6.67619
▁call	-6.68357
▁theres	-6.68708
▁said	-6.69146
and	-6.69558
▁ha	-6.69791
ation	-6.69838
▁to	-6.70068
▁even	-6.70312
▁un	-6.71201
▁fa	-6.71536
sh	-6.72429
▁car	-6.72458
▁m	-6.72808
▁ex	-6.7308
▁ch	-6.73934
▁ra	-6.7397
▁di	-6.73971
▁two	-6.74045
▁ive	-6.74288
▁hi	-6.74661
nt	-6.7504
▁wait	-6.7745
▁pe	-6.77646
▁sure	-6.77989
▁do	-6.78355
▁mi	-6.7872
x	-6.79462
▁he	-6.79647
▁te	-6.80381
id	-6.80401
▁feel	-6.81352
▁stop	-6.81571
▁put	-6.81645
▁shes	-6.81671
ge	-6.83141
▁talk	-6.83481
age	-6.83959
per	-6.84472
ers	-6.86024
▁much	-6.86044
▁kid	-6.86295
▁lo	-6.86461
▁kill	-6.86463
▁thing	-6.87261
ist	-6.87702
et	-6.87752
ff	-6.87789
de	-6.87869
▁li	-6.88621
▁pro	-6.88809
tion	-6.89208
▁night	-6.89272
man	-6.89304
▁la	-6.90347
ies	-6.90571
la	-6.90866
▁uh	-6.91617
ine	-6.91725
ment	-6.91798
▁mr	-6.92853
▁sa	-6.93288
▁keep	-6.93321
vi	-6.9352
▁home	-6.93652
est	-6.93987
▁anything	-6.94192
▁ti	-6.94375
ick	-6.94483
▁still	-6.96263
▁name	-6.97145
▁maybe	-6.97308
▁hear	-6.97556
us	-6.97797
ul	-6.97916
▁no	-6.97941
▁find	-6.98093
▁le	-6.98159
▁wan	-6.98205
ty	-6.98284
▁friend	-6.98515
▁theyre	-6.98667
▁life	-6.99756
▁tr	-7.00349
▁new	-7.01441
▁everything	-7.01454
im	-7.01573
ma	-7.02602
▁vi	-7.02795
▁boy	-7.03359
▁cl	-7.03418
▁ask	-7.03429
▁hell	-7.03775
ting	-7.03904
▁girl	-7.03997
▁hand	-7.04342
▁stay	-7.04382
co	-7.04469
▁guys	-7.0461
na	-7.04675
▁pi	-7.05515
end	-7.05745
▁nothing	-7.06111
▁great	-7.06274
ig	-7.07553
▁guy	-7.07818
▁first	-7.08775
um	-7.0889
un	-7.09225
▁tra	-7.09487
om	-7.10016
▁away	-7.10039
▁last	-7.10087
▁thought	-7.10296
▁around	-7.10303
▁long	-7.11191
▁baby	-7.11522
ho	-7.12667
▁better	-7.12918
▁so	-7.13099
ect	-7.1356
▁money	-7.14506
▁v	-7.14798
▁al	-7.14827
ive	-7.14909
▁big	-7.15006
▁listen	-7.15044
▁id	-7.15139
▁dr	-7.15234
▁told	-7.16321
if	-7.16661
▁wa	-7.16698
▁old	-7.16713
▁cha	-7.17744
▁dead	-7.17898
▁leave	-7.18145
▁ever	-7.18538
▁nice	-7.18714
▁n	-7.18806
ci	-7.18928
▁son	-7.18973
▁ne	-7.19374
ia	-7.19825
▁pu	-7.19959
▁head	-7.20337
ad	-7.20386
oo	-7.21229
▁mother	-7.22698
▁ri	-7.22828
ight	-7.23249
ni	-7.23435
gh	-7.23609
▁move	-7.23664
▁years	-7.23842
▁miss	-7.24264
uck	-7.24433
▁pre	-7.24483
▁care	-7.24619
▁start	-7.25086
▁every	-7.26092
▁show	-7.26098
▁sir	-7.2666
ful	-7.26795
▁always	-7.27258
▁lot	-7.27442
▁play	-7.27659
▁kind	-7.27689
▁du	-7.28167
▁door	-7.28379
ant	-7.28656
pp	-7.28745
▁believe	-7.28895
▁youve	-7.28895
▁ass	-7.29456
▁dis	-7.30049
▁place	-7.30561
▁fine	-7.30731
able	-7.30781
▁bad	-7.30958
und	-7.30977
▁mom	-7.3108
me	-7.31086
▁part	-7.31537
▁remember	-7.31827
ta	-7.32133
▁made	-7.32198
▁sc	-7.3259
▁three	-7.33342
▁real	-7.33523
ang	-7.33704
▁house	-7.33766
▁things	-7.34106
▁live	-7.34173
▁doesnt	-7.34411
▁mar	-7.3479
▁me	-7.35661
▁hold	-7.35974
▁someone	-7.36616
▁for	-7.37279
▁open	-7.38428
▁ad	-7.38433
ard	-7.38468
▁an	-7.38566
ph	-7.38735
▁done	-7.38977
▁ru	-7.39109
▁coming	-7.3937
▁came	-7.3956
▁laugh	-7.41881
▁youll	-7.41881
ze	-7.42299
op	-7.42306
▁aint	-7.42422
▁hu	-7.42465
▁dad	-7.42584
▁turn	-7.4283
▁happen	-7.43498
tch	-7.44112
▁wont	-7.44296
▁sta	-7.44408
▁huh	-7.44806
▁woman	-7.45233
ha	-7.45522
▁gra	-7.45568
ud	-7.45746
▁must	-7.46016
ance	-7.46308
▁die	-7.46322
ure	-7.46966
▁happened	-7.47231
▁ga	-7.47258
▁war	-7.4737
▁hello	-7.4809
▁wrong	-7.48436
ip	-7.49123
▁fight	-7.49142
cu	-7.49257
▁sl	-7.4952
▁understand	-7.49953
▁watch	-7.503
▁music	-7.50736
▁ste	-7.50889
▁gun	-7.51659
▁enough	-7.51752
▁fl	-7.52107
▁um	-7.52147
▁world	-7.52273
▁che	-7.53166
▁hard	-7.53349
▁next	-7.53852
▁left	-7.54658
▁isnt	-7.55187
▁minute	-7.55721
▁wasnt	-7.55731
ca	-7.55803
less	-7.55867
j	-7.55914
▁father	-7.56268
▁com	-7.56281
ous	-7.56448
▁family	-7.56807
▁end	-7.56837
▁course	-7.57082
▁meet	-7.57279
▁em	-7.57594
ian	-7.57639
ence	-7.58027
▁hope	-7.58613
▁men	-7.58807
▁sit	-7.58923
▁else	-7.59193
▁getting	-7.59526
▁pri	-7.59895
ak	-7.59957
ity	-7.60071
gu	-7.60333
▁talking	-7.60567
▁bill	-7.60719
▁job	-7.61012
▁room	-7.61308
ish	-7.62059
▁thanks	-7.62067
▁might	-7.62901
▁speak	-7.63582
tic	-7.63669
▁trying	-7.63957
▁ju	-7.64025
▁ar	-7.64633
▁person	-7.65361
▁wanted	-7.65613
mon	-7.65619
▁cut	-7.66378
▁another	-7.66542
▁mu	-7.6673
▁today	-7.66844
▁mind	-7.66906
▁win	-7.67376
▁walk	-7.67769
▁damn	-7.6778
▁may	-7.679
out	-7.67911
▁cause	-7.69926
▁bar	-7.70112
▁close	-7.70253
▁best	-7.7029
▁si	-7.7043
▁week	-7.70531
▁ye	-7.70546
▁sw	-7.71125
▁shut	-7.71194
▁bring	-7.7125
▁guess	-7.71475
bb	-7.71731
▁va	-7.7191
▁saw	-7.71959
▁plan	-7.72333
▁try	-7.72592
▁playing	-7.72765
▁bit	-7.73312
▁lm	-7.73504
▁phone	-7.74359
▁killed	-7.75061
▁whos	-7.76044
uc	-7.76072
▁found	-7.76334
▁hour	-7.76766
▁looking	-7.77082
▁everybody	-7.77329
▁second	-7.77329
▁run	-7.77409
▁stand	-7.78103
▁eye	-7.78993
▁already	-7.79019
▁whole	-7.79022
▁har	-7.79103
▁cop	-7.79186
▁qu	-7.79219
▁fire	-7.79297
ook	-7.79841
▁problem	-7.80046
▁business	-7.80046
▁went	-7.80474
▁hit	-7.80685
▁per	-7.80726
▁wouldnt	-7.80959
for	-7.81413
▁pretty	-7.81436
▁jesus	-7.81785
▁where	-7.81786
▁drink	-7.81787
▁en	-7.81918
▁act	-7.8207
▁blood	-7.82133
▁knew	-7.82136
▁idea	-7.82205
▁face	-7.8246
▁tonight	-7.82488
▁hurt	-7.8251
▁school	-7.82839
▁bra	-7.83342
▁many	-7.83554
▁used	-7.83609
▁word	-7.8396
▁matter	-7.84066
▁took	-7.84289
▁brother	-7.84624
▁inter	-7.84679
▁change	-7.84705
▁ya	-7.84727
ical	-7.84894
▁sound	-7.85132
▁use	-7.85639
▁together	-7.85711
▁deal	-7.8598
▁wife	-7.86457
▁ready	-7.87163
▁john	-7.87165
▁story	-7.87202
▁app	-7.87538
▁heard	-7.87986
▁shot	-7.88029
▁bitch	-7.88211
▁bri	-7.88299
ward	-7.88693
▁break	-7.89046
▁eat	-7.89576
▁actually	-7.89801
▁question	-7.90564
ated	-7.91145
▁shoot	-7.91347
▁mark	-7.91652
▁morning	-7.91718
▁year	-7.92295
ual	-7.92336
▁count	-7.92911
ary	-7.92951
▁alone	-7.93294
▁pl	-7.93417
▁pay	-7.94273
▁called	-7.9448
▁read	-7.94559
▁five	-7.94866
▁sleep	-7.95262
▁christ	-7.95266
▁point	-7.95327
▁game	-7.95454
▁young	-7.95662
▁happy	-7.95665
▁havent	-7.96069
▁cu	-7.96251
▁arm	-7.96324
▁tomorrow	-7.9647
▁everyone	-7.96487
ah	-7.96491
▁am	-7.96571
▁check	-7.97296
▁free	-7.97802
▁comp	-7.97835
▁crazy	-7.98519
▁four	-7.98539
▁met	-7.98835
▁scream	-7.98936
▁month	-7.98953
q	-7.99027
▁book	-7.99714
ness	-7.99748
▁whi	-8.00262
▁ago	-8.00731
▁stu	-8.00787
▁police	-8.01461
▁beautiful	-8.02317
▁probably	-8.02317
▁weve	-8.02354
▁el	-8.02657
▁excuse	-8.02749
▁office	-8.03183
▁light	-8.03387
▁far	-8.03607
▁daughter	-8.03616
▁jack	-8.04074
▁hang	-8.04096
▁set	-8.04312
▁true	-8.04515
▁couldnt	-8.04711
▁somebody	-8.05374
▁breath	-8.05374
▁daddy	-8.05404
▁lost	-8.05727
▁whatever	-8.05819
▁anyone	-8.05819
▁since	-8.05843
▁yet	-8.05886
▁continue	-8.06265
▁rest	-8.06406
▁high	-8.06994
▁body	-8.07249
▁mine	-8.07534
▁pick	-8.07911
▁str	-8.08263
▁black	-8.08279
▁whoa	-8.08539
▁case	-8.08749
▁sweet	-8.0899
port	-8.09387
▁supposed	-8.0941
▁rich	-8.09567
▁drive	-8.09741
▁exactly	-8.0991
▁promise	-8.09911
▁late	-8.09937
▁ah	-8.10063
▁soon	-8.10822
▁inside	-8.10844
▁mike	-8.11521
▁easy	-8.11789
▁grand	-8.11825
▁pain	-8.12082
▁anyway	-8.12258
que	-8.12947
▁fun	-8.12996
▁follow	-8.13212
▁death	-8.13243
▁stuff	-8.13337
▁youd	-8.14713
▁murder	-8.1515
▁cool	-8.15249
▁later	-8.15481
▁dream	-8.1614
▁worry	-8.1614
▁nobody	-8.16627
▁town	-8.16647
▁without	-8.17125
▁gave	-8.18107
▁sign	-8.18163
▁taking	-8.18666
▁paul	-8.18797
▁pass	-8.18877
▁trust	-8.19664
▁husband	-8.20163
▁forget	-8.2017
▁clear	-8.20202
▁ten	-8.2032
▁water	-8.20362
▁mess	-8.20826
▁write	-8.20836
spect	-8.20943
▁rock	-8.21292
▁ok	-8.21373
▁wonder	-8.21718
▁state	-8.22196
▁art	-8.22739
▁pull	-8.22873
▁six	-8.22972
▁tu	-8.23087
▁goddamn	-8.23297
▁though	-8.23846
▁sighs	-8.2437
ious	-8.24388
▁lts	-8.25275
▁order	-8.25445
▁max	-8.25665
▁stupid	-8.25986
▁up	-8.26276
▁serious	-8.26537
▁lord	-8.26684
▁hate	-8.27109
▁chance	-8.27373
▁couple	-8.27633
▁anymore	-8.28189
▁voice	-8.28189
▁jimmy	-8.28747
▁eddie	-8.28749
▁ring	-8.29249
ship	-8.29633
▁touch	-8.29881
▁america	-8.30443
▁anybody	-8.31588
▁different	-8.31588
▁honey	-8.31603
▁white	-8.32026
▁chuckles	-8.32167
▁half	-8.32192
▁bla	-8.32357
▁side	-8.3247
▁sex	-8.3277
▁safe	-8.32889
▁making	-8.33378
▁save	-8.3368
▁doctor	-8.33921
ept	-8.34152
▁sometimes	-8.34513
▁mmm	-8.35143
▁number	-8.35707
▁welcome	-8.35707
▁hmm	-8.35707
▁answer	-8.3631
▁almost	-8.36915
▁piece	-8.36928
▁bye	-8.37129
▁report	-8.3738
▁sister	-8.37593
▁record	-8.38139
▁clean	-8.38786
▁yo	-8.40336
▁send	-8.40553
▁fast	-8.40699
▁drop	-8.41581
▁bullshit	-8.41901
▁trouble	-8.42542
▁full	-8.42809
▁ski	-8.42995
▁finish	-8.43192
▁blow	-8.43208
▁dude	-8.44254
▁children	-8.44496
▁quick	-8.44678
▁small	-8.45156
▁also	-8.45997
▁wish	-8.46688
▁least	-8.47167
▁power	-8.4718
▁fell	-8.47453
▁moment	-8.4847
▁indistinct	-8.48504
ade	-8.48598
▁reason	-8.49192
▁worth	-8.49897
▁outside	-8.50573
▁behind	-8.50573
▁important	-8.50574
▁burn	-8.50749
▁alive	-8.50923
▁dance	-8.51332
▁cur	-8.51768
▁expect	-8.5198
▁women	-8.51982
▁scared	-8.51995
▁hows	-8.52123
▁gold	-8.52288
▁class	-8.52701
▁tried	-8.52742
▁city	-8.53316
▁perfect	-8.534
▁learn	-8.53429
▁afraid	-8.54119
▁funny	-8.54866
▁cold	-8.54971
▁arent	-8.55434
▁front	-8.55579
▁child	-8.55592
▁lose	-8.5808
▁lead	-8.58375
▁figure	-8.5855
▁lady	-8.5866
▁broke	-8.59311
▁kiss	-8.59395
▁motherfucker	-8.60069
▁key	-8.61127
▁secret	-8.61613
way	-8.61615
▁million	-8.61617
▁quite	-8.61629
▁throw	-8.6163
▁charlie	-8.62395
▁control	-8.62396
▁grow	-8.62421
ible	-8.62691
▁phil	-8.63192
▁teach	-8.63199
▁johnny	-8.63212
▁knock	-8.64776
▁street	-8.6559
▁married	-8.65592
▁radio	-8.66396
▁honest	-8.66414
▁living	-8.66426
▁either	-8.67215
▁groans	-8.67215
▁straight	-8.67218
▁truth	-8.67221
▁smell	-8.67224
▁drug	-8.67233
▁mouth	-8.68052
▁werent	-8.68081
▁wear	-8.68246
▁ahead	-8.68877
▁itll	-8.68956
▁grunts	-8.69715
▁leaving	-8.69715
▁fact	-8.69804
▁brought	-8.70562
▁grunting	-8.70562
▁dinner	-8.70563
▁pray	-8.70564
▁along	-8.70575
▁prison	-8.7061
▁matt	-8.7119
▁shouldnt	-8.71417
▁become	-8.71418
▁joe	-8.71658
▁theyll	-8.7228
▁annie	-8.72299
▁calm	-8.7324
▁bastard	-8.74028
▁james	-8.74035
▁ii	-8.74228
▁born	-8.74324
▁glad	-8.74947
▁mmhmm	-8.75804
▁asshole	-8.75805
time	-8.76034
▁seven	-8.76746
▁dark	-8.77638
▁alright	-8.78535
▁fault	-8.78544
▁heres	-8.78669
▁french	-8.79457
▁choice	-8.79457
▁running	-8.79513
qua	-8.79848
▁strong	-8.80397
▁mommy	-8.80434
▁nigga	-8.81335
▁frank	-8.81335
▁weird	-8.81336
▁horse	-8.8232
▁surprise	-8.83249
▁weapon	-8.83249
▁picture	-8.83249
▁parents	-8.8325
▁hurry	-8.83254
▁smart	-8.83256
▁alex	-8.83272
▁coach	-8.8329
▁special	-8.8422
▁coffee	-8.8422
▁drunk	-8.84222
▁north	-8.85219
▁shall	-8.85308
▁return	-8.86191
▁protect	-8.862
▁movie	-8.86252
▁worse	-8.87231
▁dress	-8.8729
▁teddy	-8.88202
▁henry	-8.88214
▁quiet	-8.88217
▁present	-8.88255
▁strange	-8.88313
▁buddy	-8.89223
▁direct	-8.89229
▁company	-8.8923
▁offer	-8.89235
▁fool	-8.89268
▁sense	-8.89293
▁enjoy	-8.90252
▁explain	-8.90252
▁park	-8.91337
▁hospital	-8.92346
▁middle	-8.92347
▁bru	-8.92918
▁somewhere	-8.9341
▁realize	-8.93414
▁glass	-8.93416
▁window	-8.93419
▁captain	-8.94485
▁smoke	-8.94486
▁others	-8.9449
▁agree	-8.94506
▁fix	-8.94507
▁crowd	-8.94508
▁food	-8.94516
▁felt	-8.94577
▁certain	-8.95572
▁type	-8.95573
▁complete	-8.95575
▁gasps	-8.95582
▁feet	-8.95629
▁birthday	-8.96671
▁table	-8.96783
▁decide	-8.97801
▁swear	-8.97806
will	-8.98635
▁hundred	-8.98906
▁across	-9.00042
▁guard	-9.00052
▁rather	-9.01213
▁bank	-9.01263
▁william	-9.02354
▁surviv	-9.02356
▁angel	-9.02412
▁georg	-9.03538
▁janet	-9.03539
▁forever	-9.04734
▁uncle	-9.04745
▁soft	-9.04779
▁anywhere	-9.05926
▁relax	-9.0593
▁bullet	-9.05935
▁nigger	-9.07146
▁amazing	-9.07146
▁russell	-9.07146
▁ladies	-9.07163
▁treat	-9.07281
▁absolutely	-9.0838
▁caught	-9.0838
▁theyve	-9.08381
▁ooh	-9.08442
▁simple	-9.0963
▁forgot	-9.09631
▁goodbye	-9.09633
▁shouting	-9.09643
▁floor	-9.09673
▁gentlemen	-9.10896
▁interview	-9.10896
▁psych	-9.10896
▁blue	-9.10898
▁ground	-9.10898
▁groaning	-9.12178
▁club	-9.12208
▁worried	-9.13477
▁entire	-9.13478
▁screw	-9.13484
▁student	-9.13488
▁south	-9.13492
▁forgive	-9.14796
▁mistake	-9.16126
▁julia	-9.16195
▁security	-9.17477
▁possible	-9.17478
▁giving	-9.17478
▁kevin	-9.17479
▁katie	-9.17499
▁consider	-9.18848
▁major	-9.18851
▁except	-9.18852
▁york	-9.18855
▁accident	-9.20236
▁charge	-9.20257
▁president	-9.21644
▁system	-9.21644
▁judge	-9.21657
▁obvious	-9.23073
▁definitely	-9.23073
▁language	-9.23073
▁service	-9.23073
▁escape	-9.23073
▁general	-9.23073
▁darling	-9.23074
▁imagine	-9.23074
▁deserve	-9.23076
▁suppose	-9.23191
▁strike	-9.24533
▁arrest	-9.24534
▁engine	-9.25997
▁photo	-9.27485
▁lawyer	-9.27486
▁dollars	-9.27486
▁situation	-9.27489
▁chicken	-9.2749
▁attention	-9.29
▁english	-9.29
▁information	-9.29
▁soldier	-9.29
▁terrible	-9.29
▁tommy	-9.29002
▁private	-9.29003
