<unk>	0
<s>	0
</s>	0
s	-3.84445
▁know	-4.493
▁dont	-4.49828
▁im	-4.50234
▁get	-4.70055
▁got	-4.76523
▁right	-4.77192
▁like	-4.88446
▁yeah	-4.89591
▁go	-4.9256
▁youre	-4.98299
▁na	-5.04965
▁come	-5.05247
▁thats	-5.11332
▁one	-5.17174
▁well	-5.22846
▁oh	-5.26119
▁want	-5.28674
▁fucking	-5.28716
▁gon	-5.31453
▁man	-5.32743
▁good	-5.34129
▁see	-5.41215
▁okay	-5.4309
▁think	-5.46405
▁fuck	-5.47217
▁	-5.47564
▁hes	-5.50644
ing	-5.53202
▁back	-5.58318
▁look	-5.59871
▁hey	-5.62463
▁take	-5.63527
▁time	-5.70219
▁l	-5.70363
▁tell	-5.72061
ed	-5.74375
▁ill	-5.74858
▁going	-5.75139
▁us	-5.80074
▁shit	-5.84733
▁yes	-5.84757
▁say	-5.8623
▁cant	-5.92182
▁could	-5.92581
▁didnt	-5.92756
▁need	-5.93542
▁would	-5.96242
▁give	-5.9788
▁make	-5.99247
▁way	-5.99957
▁mean	-6.01035
▁let	-6.02314
▁something	-6.02474
▁never	-6.04966
▁little	-6.06281
▁really	-6.08926
▁whats	-6.09276
▁lets	-6.11505
▁two	-6.13141
▁sir	-6.15474
▁please	-6.16127
▁theres	-6.17758
▁people	-6.19303
▁money	-6.20387
d	-6.20987
▁said	-6.21045
▁ive	-6.2453
▁thank	-6.2648
▁sorry	-6.29272
▁thing	-6.30997
▁mr	-6.31098
▁god	-6.33788
▁guy	-6.34729
▁love	-6.34902
▁call	-6.35652
▁put	-6.36811
▁anything	-6.41147
▁uh	-6.41818
▁theyre	-6.42365
▁sure	-6.42508
▁much	-6.4277
y	-6.43046
▁help	-6.45363
▁nothing	-6.46098
▁name	-6.48343
▁talk	-6.48736
▁life	-6.49239
▁guys	-6.50923
o	-6.51562
▁even	-6.51611
e	-6.52147
▁day	-6.53588
▁keep	-6.53615
▁stop	-6.53665
▁car	-6.54819
▁find	-6.5542
▁ta	-6.58956
▁around	-6.5902
▁wan	-6.59915
▁night	-6.60128
▁away	-6.60971
▁still	-6.62111
▁big	-6.63112
▁first	-6.64965
▁wait	-6.65241
▁work	-6.66282
▁home	-6.67351
▁maybe	-6.68431
▁new	-6.69653
▁old	-6.69927
ly	-6.70007
▁better	-6.7021
▁listen	-6.70382
▁shes	-6.71497
▁ever	-6.7225
▁hell	-6.74048
▁last	-6.75037
▁long	-6.76399
▁kill	-6.76488
▁years	-6.76671
▁things	-6.76699
▁always	-6.76881
▁everything	-6.76986
▁great	-6.78027
▁told	-6.78427
▁hear	-6.79003
▁thought	-6.7923
▁three	-6.7941
a	-6.79889
▁move	-6.80585
▁understand	-6.80767
▁bad	-6.81047
er	-6.81251
▁baby	-6.81796
▁boy	-6.81942
▁house	-6.82236
▁lot	-6.8255
▁aint	-6.8301
▁dead	-6.83497
▁place	-6.83871
▁id	-6.84048
▁every	-6.84202
▁door	-6.85134
▁fuckin	-6.86419
▁real	-6.87892
▁wont	-6.88241
▁son	-6.88422
▁leave	-6.89291
▁done	-6.89765
▁youve	-6.91741
▁nice	-6.91752
▁made	-6.9244
▁job	-6.93086
▁stay	-6.94973
▁youll	-6.95367
▁doesnt	-6.97461
▁father	-6.97534
▁talking	-6.98821
▁girl	-6.98974
▁ok	-6.99132
▁left	-6.99604
▁huh	-6.99845
▁kind	-7.00079
▁feel	-7.00229
▁ask	-7.0025
▁friend	-7.02067
▁believe	-7.04058
▁business	-7.05529
▁remember	-7.05995
in	-7.06343
▁coming	-7.06641
▁ass	-7.07273
▁mother	-7.07386
▁care	-7.07492
▁looking	-7.08051
▁fine	-7.08385
▁enough	-7.08404
▁happened	-7.08815
▁hold	-7.09244
▁getting	-7.09544
▁hello	-7.10206
▁wrong	-7.1026
▁else	-7.10262
▁wanted	-7.10349
▁family	-7.1099
▁hi	-7.12229
▁next	-7.12974
▁kid	-7.13291
▁run	-7.134
▁course	-7.13529
▁head	-7.13841
▁came	-7.14172
▁world	-7.14361
▁show	-7.15273
▁wasnt	-7.15481
▁phone	-7.15736
▁today	-7.16049
▁men	-7.16143
▁must	-7.17709
▁gun	-7.17753
▁another	-7.18343
▁shut	-7.18627
▁morning	-7.18929
r	-7.19043
i	-7.19073
▁wife	-7.1924
▁went	-7.19512
▁open	-7.20281
▁mind	-7.20593
▁trying	-7.20724
▁watch	-7.2131
▁em	-7.21317
▁knew	-7.22795
▁woman	-7.22797
▁hard	-7.23581
▁took	-7.23712
▁heard	-7.24024
▁best	-7.24645
▁might	-7.25253
▁found	-7.2554
▁thanks	-7.27067
▁deal	-7.27089
▁problem	-7.28605
▁isnt	-7.29057
▁killed	-7.29272
▁cause	-7.29498
▁jesus	-7.29711
▁may	-7.29861
▁seen	-7.30044
▁everybody	-7.30358
▁tony	-7.3069
▁sit	-7.308
▁room	-7.32352
▁wouldnt	-7.32379
▁hand	-7.32591
▁saw	-7.32682
▁hit	-7.33675
▁bring	-7.33973
▁um	-7.34317
▁brother	-7.35392
es	-7.35659
▁police	-7.3571
▁goddamn	-7.36798
▁someone	-7.36828
▁whos	-7.36981
▁pay	-7.3825
▁ready	-7.38306
▁nobody	-7.38617
▁bitch	-7.392
▁try	-7.39505
▁meet	-7.39574
▁happy	-7.39973
▁whole	-7.40332
▁playing	-7.41426
▁jimmy	-7.41789
▁four	-7.42155
▁shot	-7.42688
▁turn	-7.4271
▁tonight	-7.43267
▁case	-7.433
▁saying	-7.43673
▁says	-7.44935
▁pretty	-7.45147
▁days	-7.45147
▁die	-7.45224
t	-7.453
▁five	-7.45544
▁face	-7.45793
▁dad	-7.45889
▁end	-7.4622
▁weve	-7.46293
▁many	-7.46448
▁lm	-7.46583
▁without	-7.47065
▁alright	-7.47451
▁called	-7.47659
▁gone	-7.47696
▁used	-7.47792
▁play	-7.4795
▁n	-7.48218
al	-7.48426
▁together	-7.48622
▁start	-7.48921
▁hands	-7.49481
▁idea	-7.4977
▁friends	-7.49959
▁guess	-7.50188
▁use	-7.50267
▁cut	-7.50947
▁minutes	-7.51594
ll	-7.51675
▁whoa	-7.51816
▁somebody	-7.52198
▁couldnt	-7.5268
▁bit	-7.52958
▁frank	-7.53116
▁music	-7.53442
▁worry	-7.53447
▁youd	-7.54308
▁matter	-7.54324
▁second	-7.55135
▁beautiful	-7.55535
l	-7.56742
▁shoot	-7.56753
▁excuse	-7.56807
▁live	-7.57037
▁point	-7.57772
▁henry	-7.58505
▁anyone	-7.58527
▁wheres	-7.58554
m	-7.58821
▁crazy	-7.58962
▁alone	-7.5897
▁six	-7.59387
▁dog	-7.59799
▁already	-7.59837
▁damn	-7.59954
▁havent	-7.60278
▁easy	-7.6072
▁ah	-7.61395
n	-7.6159
▁ago	-7.61602
▁line	-7.61607
▁gave	-7.62064
▁kids	-7.62442
▁de	-7.62744
▁check	-7.63388
▁yet	-7.63877
▁drink	-7.64075
▁danny	-7.64794
▁clean	-7.64913
▁hope	-7.65301
▁set	-7.6536
▁minute	-7.65513
▁boss	-7.65632
▁john	-7.65714
▁half	-7.65715
▁forget	-7.66184
▁anybody	-7.66188
▁read	-7.67
▁inside	-7.67131
▁pick	-7.67215
▁number	-7.6792
▁million	-7.67934
▁supposed	-7.68008
▁stuff	-7.68223
▁un	-7.68332
▁eyes	-7.68489
▁tomorrow	-7.68558
▁drive	-7.69864
▁probably	-7.7001
▁walk	-7.70075
▁since	-7.70498
▁goes	-7.70599
▁close	-7.71475
▁later	-7.72046
▁working	-7.72128
▁week	-7.72398
▁lost	-7.72991
▁boys	-7.73086
▁captain	-7.73473
▁couple	-7.73474
▁motherfucker	-7.73934
▁wants	-7.74136
▁mom	-7.74453
▁christ	-7.75049
▁rest	-7.7512
▁fire	-7.75319
▁sleep	-7.75625
▁whatever	-7.76025
▁sighs	-7.76041
▁cool	-7.76699
▁street	-7.77082
▁black	-7.77283
▁bill	-7.77958
▁buy	-7.78158
▁word	-7.78162
▁part	-7.78516
▁dude	-7.78644
▁fight	-7.78682
▁year	-7.78747
▁laughing	-7.78792
▁miss	-7.78998
▁anyway	-7.79174
▁exactly	-7.79188
▁thinking	-7.79488
▁funny	-7.80246
▁looks	-7.803
▁lord	-7.8079
▁front	-7.80795
▁far	-7.80879
▁soon	-7.81227
▁school	-7.81346
▁free	-7.81416
▁game	-7.81451
▁stand	-7.81742
▁actually	-7.81885
▁red	-7.82071
▁behind	-7.82427
▁trust	-7.82652
▁que	-7.82715
▁blood	-7.82817
▁ahead	-7.82984
▁white	-7.82995
▁hate	-7.83115
▁war	-7.83423
▁change	-7.84492
▁pull	-7.84691
▁heart	-7.84848
▁happen	-7.85089
▁grunts	-7.85855
▁chuckles	-7.86525
▁young	-7.86827
▁chance	-7.87169
▁clear	-7.87306
▁though	-7.8752
▁mine	-7.87723
ve	-7.87861
▁answer	-7.88016
▁story	-7.88096
▁jack	-7.88189
▁making	-7.88691
▁question	-7.88788
▁piece	-7.88976
▁truth	-7.89267
▁eat	-7.89348
▁high	-7.89548
▁outside	-7.89859
▁water	-7.89882
▁taking	-7.89883
▁ten	-7.90307
▁continues	-7.9096
▁tommy	-7.91054
▁death	-7.91057
▁asked	-7.91244
▁e	-7.91313
▁sometimes	-7.91467
▁stupid	-7.91635
▁girls	-7.92036
▁hurt	-7.92209
▁side	-7.92667
▁town	-7.92876
▁tom	-7.92896
▁la	-7.93142
▁met	-7.93259
▁speak	-7.93331
▁bullshit	-7.93485
ie	-7.93949
▁cop	-7.94319
▁hours	-7.9451
▁times	-7.94732
▁sick	-7.94736
▁city	-7.94754
▁body	-7.95354
est	-7.95796
▁makes	-7.96684
▁ya	-7.96932
▁fucked	-7.97269
g	-7.97599
▁true	-7.97891
▁c	-7.97999
▁wish	-7.98461
▁daughter	-7.99065
u	-7.99675
p	-7.9969
▁months	-7.99782
▁send	-7.99968
▁afraid	-8.00494
▁anymore	-8.00494
▁gentlemen	-8.00494
▁telling	-8.01072
▁grand	-8.01146
▁grunting	-8.01171
▁break	-8.01239
▁doctor	-8.01749
▁country	-8.02501
▁touch	-8.03035
▁trouble	-8.03102
▁jordan	-8.03169
▁also	-8.03171
▁tried	-8.03199
▁re	-8.03265
▁means	-8.03632
▁light	-8.03741
▁alive	-8.03858
▁least	-8.03864
▁nick	-8.04243
▁nigger	-8.0452
▁order	-8.05164
▁office	-8.0583
▁comes	-8.06225
ers	-8.06251
▁tv	-8.06625
▁either	-8.07322
▁cash	-8.07324
▁bet	-8.07375
▁important	-8.08614
▁taken	-8.09333
▁late	-8.09352
▁person	-8.09489
▁swear	-8.1019
▁honey	-8.10192
▁eye	-8.10338
▁serious	-8.10797
▁michael	-8.1092
▁company	-8.10927
▁screaming	-8.10995
▁reason	-8.11019
▁moment	-8.1105
▁started	-8.11515
▁welcome	-8.11655
▁arent	-8.11656
▁everyone	-8.11812
▁heres	-8.11876
▁promise	-8.12952
▁howard	-8.13142
▁table	-8.13181
▁groans	-8.13214
▁party	-8.13371
▁dr	-8.13484
▁top	-8.13973
▁almost	-8.14651
▁hows	-8.14652
▁they	-8.15177
▁lts	-8.15194
▁different	-8.15287
▁officer	-8.15724
▁lll	-8.16049
▁cops	-8.16446
▁hmm	-8.16917
▁lose	-8.1694
▁waiting	-8.17207
▁hour	-8.17233
▁beat	-8.17388
▁shall	-8.17736
▁bank	-8.17743
c	-8.17858
▁bed	-8.18047
▁nicky	-8.18175
▁along	-8.18525
▁stem	-8.1854
▁s	-8.18613
▁bar	-8.18806
▁fun	-8.18868
▁died	-8.19035
▁stan	-8.19119
ar	-8.19273
▁happens	-8.19297
▁running	-8.1933
▁save	-8.19928
▁mrs	-8.20006
▁step	-8.20031
▁brought	-8.20121
▁living	-8.20128
▁a	-8.20396
▁club	-8.20428
▁roll	-8.20705
▁private	-8.20928
▁asshole	-8.21289
▁sent	-8.21337
▁fast	-8.21363
▁news	-8.21844
▁full	-8.22402
▁sense	-8.22561
▁english	-8.22563
▁buddy	-8.22563
le	-8.22563
▁calm	-8.22567
▁h	-8.22773
▁se	-8.22812
▁v	-8.22859
▁sign	-8.22946
ies	-8.2358
▁drop	-8.23768
▁husband	-8.23773
▁hed	-8.23778
▁asking	-8.23914
▁worth	-8.24226
on	-8.24275
▁wake	-8.24282
or	-8.24456
▁truck	-8.24693
▁win	-8.24944
▁hang	-8.25864
▁radio	-8.25913
▁prison	-8.26208
▁voice	-8.26345
▁sound	-8.26399
▁straight	-8.26736
▁floor	-8.2677
▁ace	-8.26816
▁past	-8.2692
▁children	-8.27243
▁team	-8.27265
▁sell	-8.27284
ic	-8.27337
▁book	-8.27416
▁hot	-8.27526
▁till	-8.27643
▁throw	-8.2804
▁blue	-8.28335
▁french	-8.29196
▁fat	-8.2927
▁karen	-8.29372
▁daddy	-8.29372
▁wow	-8.29374
▁blow	-8.29481
▁watching	-8.29659
ion	-8.29804
▁plan	-8.30113
▁hurry	-8.30257
▁york	-8.30257
▁itll	-8.30265
▁scared	-8.30349
▁safe	-8.30896
en	-8.3093
us	-8.3115
▁women	-8.31156
▁crime	-8.31169
▁holy	-8.31185
▁feeling	-8.31395
▁known	-8.31644
▁married	-8.32053
▁quite	-8.32152
▁laughs	-8.32491
▁questions	-8.3253
▁speaking	-8.32633
▁power	-8.32705
▁bastard	-8.32711
▁building	-8.32794
▁state	-8.32942
▁coffee	-8.32959
▁poor	-8.32972
▁sort	-8.32974
▁yo	-8.3317
▁aii	-8.33215
▁sister	-8.33634
▁hair	-8.33731
▁smart	-8.33749
▁groaning	-8.33896
▁lie	-8.34075
▁catch	-8.34404
▁bag	-8.34635
▁fact	-8.34754
▁somewhere	-8.34803
▁food	-8.34813
▁mouth	-8.34836
▁none	-8.34881
▁kidding	-8.35741
▁knows	-8.35965
b	-8.35988
▁child	-8.3647
▁count	-8.36565
▁corleone	-8.36681
▁detective	-8.36681
▁choice	-8.37634
▁iike	-8.37663
man	-8.37818
▁seems	-8.38111
▁special	-8.38316
▁boat	-8.38456
▁bye	-8.38595
▁thousand	-8.38601
▁panting	-8.38614
▁pain	-8.39411
▁dick	-8.39437
▁quiet	-8.39441
▁mitch	-8.39566
▁th	-8.39772
▁follow	-8.39822
▁stick	-8.40165
▁weeks	-8.40695
f	-8.40922
▁slow	-8.40986
▁control	-8.4117
▁perfect	-8.41382
▁lawyer	-8.4143
▁mary	-8.41461
▁ball	-8.4157
▁balls	-8.41623
▁calling	-8.41645
▁ride	-8.41805
▁respect	-8.4218
▁cam	-8.42225
▁eight	-8.42546
▁meeting	-8.4264
▁rock	-8.42764
▁learn	-8.42801
▁in	-8.42924
▁road	-8.4353
▁outta	-8.4355
▁sitting	-8.43573
▁paul	-8.44382
▁worked	-8.44412
▁grey	-8.44572
▁lucky	-8.44725
▁dinner	-8.45598
▁air	-8.45897
▁ringing	-8.45959
▁dollars	-8.46316
▁green	-8.46479
▁rat	-8.46537
▁luck	-8.46552
▁charlie	-8.4664
▁james	-8.46701
k	-8.46722
▁act	-8.46865
▁j	-8.47438
▁leaving	-8.47693
▁pop	-8.48393
▁lives	-8.48586
▁gets	-8.48683
▁handle	-8.49212
▁dance	-8.49526
▁maam	-8.49834
▁hundred	-8.49886
▁cold	-8.49896
▁month	-8.49923
▁tires	-8.49987
h	-8.50937
▁lady	-8.50987
▁loved	-8.51561
▁b	-8.51594
▁sweet	-8.518
▁master	-8.51868
▁max	-8.51981
▁dave	-8.52055
▁picture	-8.52145
▁lf	-8.52388
▁horse	-8.52751
▁seven	-8.52763
▁pleasure	-8.53128
▁jail	-8.53145
▁born	-8.53179
▁agent	-8.53241
▁hotel	-8.5326
▁machine	-8.53268
▁guns	-8.53288
▁needs	-8.533
▁names	-8.53318
▁looked	-8.53514
▁da	-8.53789
▁relax	-8.53908
▁engine	-8.53936
st	-8.54239
▁favor	-8.54249
▁across	-8.54251
▁become	-8.54421
▁bullet	-8.54433
▁less	-8.54803
▁knock	-8.54821
▁given	-8.54903
▁ring	-8.55162
▁situation	-8.55388
▁shouldnt	-8.55388
▁driving	-8.55389
▁doc	-8.55394
▁ladies	-8.55396
▁p	-8.55726
▁tape	-8.56095
re	-8.56294
▁near	-8.5637
▁gold	-8.56485
▁eu	-8.56666
▁kiss	-8.573
▁quick	-8.57463
▁glad	-8.57563
▁wall	-8.5776
▁short	-8.57868
▁talked	-8.57945
▁pass	-8.58058
▁race	-8.58537
▁missing	-8.58579
▁except	-8.58802
▁mad	-8.5885
▁sam	-8.58875
▁giving	-8.58879
▁paid	-8.58923
▁smell	-8.58936
▁al	-8.59293
▁finish	-8.59328
▁offer	-8.59388
▁bunch	-8.60069
▁grab	-8.60072
▁killing	-8.60152
▁charge	-8.60162
▁law	-8.60433
ity	-8.60603
▁g	-8.60809
▁tough	-8.61154
▁words	-8.6118
▁felt	-8.61272
▁information	-8.61273
▁present	-8.61275
▁theyve	-8.61332
▁figure	-8.61357
▁box	-8.61525
▁ran	-8.61589
▁service	-8.61589
▁enjoy	-8.61739
▁song	-8.61786
▁sounds	-8.61792
▁murder	-8.61915
ous	-8.61942
▁evening	-8.62075
▁small	-8.62379
▁glass	-8.62423
▁human	-8.62491
▁patrick	-8.62492
▁vincent	-8.62493
▁moving	-8.62496
v	-8.62721
▁ground	-8.62831
▁owe	-8.62854
▁window	-8.62867
▁expect	-8.6299
▁keys	-8.62992
▁seat	-8.63123
▁lock	-8.63365
▁smoke	-8.63555
▁anywhere	-8.63726
▁court	-8.64089
▁able	-8.64102
an	-8.64245
▁ha	-8.64391
▁rich	-8.64849
▁brothers	-8.64972
▁david	-8.64977
▁apartment	-8.6498
▁dark	-8.64981
▁wed	-8.65158
it	-8.65205
▁rid	-8.65559
▁card	-8.65818
▁mama	-8.65818
▁train	-8.659
▁appreciate	-8.66022
▁peace	-8.66242
▁worse	-8.66242
▁wear	-8.66283
▁sake	-8.66648
▁miles	-8.66848
▁chatter	-8.67114
▁dream	-8.6726
▁feet	-8.6754
▁dear	-8.67615
▁gasps	-8.67706
▁lt	-8.6787
▁k	-8.67945
▁date	-8.68196
▁works	-8.68663
▁joel	-8.68709
▁hospital	-8.68804
▁steal	-8.68808
▁gucci	-8.68823
▁terrible	-8.68823
▁list	-8.68915
▁busy	-8.68926
▁joke	-8.69179
▁fair	-8.69932
▁horn	-8.69983
▁quit	-8.69993
▁maurizio	-8.70138
▁hide	-8.7054
▁partner	-8.70717
▁american	-8.7088
▁driver	-8.70927
▁ben	-8.70942
up	-8.71002
▁d	-8.71127
▁needed	-8.71238
▁strong	-8.7136
▁beach	-8.71398
▁explain	-8.71412
▁mmm	-8.71462
▁chief	-8.71472
▁goodbye	-8.71472
▁kept	-8.71473
▁harry	-8.71474
ty	-8.7182
▁longer	-8.72232
▁cover	-8.72495
less	-8.72592
▁proud	-8.7282
▁london	-8.72823
▁werent	-8.72823
▁history	-8.72823
▁forever	-8.72824
▁dangerous	-8.72835
ur	-8.72855
▁accident	-8.72867
▁hunt	-8.7287
▁foot	-8.72889
▁early	-8.72928
▁cell	-8.73218
▁pa	-8.73406
▁paper	-8.73478
▁mess	-8.73683
▁attack	-8.73772
to	-8.73875
▁secret	-8.74184
▁caught	-8.74193
▁fault	-8.74193
▁ooh	-8.74194
▁river	-8.74194
▁mickey	-8.74198
▁harley	-8.74215
▁doin	-8.74228
▁uncle	-8.74268
▁drugs	-8.74705
ia	-8.74786
▁judge	-8.74811
▁return	-8.74838
▁ones	-8.74846
▁beer	-8.74899
▁key	-8.74975
▁pro	-8.75175
▁spend	-8.75175
▁turned	-8.7539
▁movie	-8.75421
▁sex	-8.7544
▁laugh	-8.75549
▁django	-8.75582
▁reggie	-8.75583
▁brian	-8.75588
▁tired	-8.75605
▁shouting	-8.75658
ter	-8.7614
▁seem	-8.76385
▁est	-8.76588
▁walking	-8.7673
ii	-8.76744
▁surprise	-8.76787
▁joe	-8.76794
▁king	-8.76823
▁mike	-8.76828
▁broke	-8.76844
▁write	-8.76888
▁mark	-8.76978
▁birthday	-8.76991
▁finally	-8.77052
▁maya	-8.77555
▁f	-8.77683
▁cab	-8.77872
▁join	-8.7796
▁bell	-8.78135
▁seconds	-8.78326
▁knife	-8.78419
▁possible	-8.78419
▁president	-8.78419
▁weird	-8.78419
▁crowd	-8.78429
▁richie	-8.78565
▁land	-8.78601
▁round	-8.7919
able	-8.79324
▁north	-8.79838
▁gerry	-8.79868
▁lying	-8.79897
▁shop	-8.80519
▁kick	-8.80637
▁mistake	-8.80642
▁general	-8.81206
▁indistinct	-8.81214
▁careful	-8.81281
▁andy	-8.81339
▁emily	-8.81339
▁clothes	-8.81345
▁unless	-8.8139
▁record	-8.81467
▁mate	-8.8205
▁wonder	-8.82085
▁price	-8.82133
▁message	-8.82216
▁lay	-8.82501
▁board	-8.82569
▁gang	-8.82657
▁gift	-8.82831
▁entire	-8.82832
▁rather	-8.82836
▁mmhmm	-8.8285
▁jackson	-8.82851
▁vegas	-8.82931
el	-8.83041
ch	-8.83611
▁missed	-8.83743
▁drug	-8.8376
▁guard	-8.83768
▁meant	-8.83797
▁forgive	-8.84336
▁christmas	-8.84347
▁scene	-8.84369
▁sean	-8.84405
▁putting	-8.84436
▁lance	-8.84491
▁mm	-8.84836
▁named	-8.84986
▁track	-8.85077
▁protect	-8.85113
▁prick	-8.85292
▁goin	-8.85437
▁r	-8.85439
is	-8.8555
▁arrest	-8.85561
▁para	-8.85632
▁orders	-8.85883
▁innocent	-8.85885
▁position	-8.85885
▁worried	-8.85885
▁dumb	-8.85891
▁earth	-8.85894
▁single	-8.85897
▁parents	-8.86166
▁nine	-8.86192
▁mons	-8.8633
▁dress	-8.87051
▁shooting	-8.87341
▁stole	-8.87398
▁personal	-8.87422
▁lauda	-8.87449
▁sun	-8.88028
▁nose	-8.88515
▁fathers	-8.88557
▁bought	-8.89036
▁dirty	-8.89103
▁report	-8.89238
▁theyd	-8.89457
▁casino	-8.90133
▁brain	-8.90179
▁cost	-8.9032
▁honor	-8.90331
▁amazing	-8.90647
▁island	-8.90648
▁sweetheart	-8.9065
▁tight	-8.90651
▁absolutely	-8.90662
▁low	-8.90677
▁decided	-8.90741
▁certainly	-8.90757
▁ice	-8.90891
▁bloody	-8.91124
▁takes	-8.91892
▁fear	-8.91937
▁deep	-8.92052
▁suppose	-8.92091
▁places	-8.92203
▁address	-8.92215
▁south	-8.92239
▁seeing	-8.92285
▁third	-8.92287
▁yesterday	-8.92287
▁area	-8.92287
▁brody	-8.92287
▁wick	-8.92288
▁bob	-8.92304
▁security	-8.92325
▁others	-8.92341
▁softly	-8.9239
▁yall	-8.9243
▁crying	-8.92617
th	-8.92625
▁listening	-8.92632
▁killer	-8.92728
▁papers	-8.93153
▁jan	-8.93159
▁fish	-8.93307
▁ron	-8.93331
▁stone	-8.93364
▁soul	-8.93507
▁fool	-8.93565
▁america	-8.93758
▁post	-8.93766
ra	-8.93855
▁strange	-8.93862
▁afternoon	-8.93953
▁everywhere	-8.93953
▁wedding	-8.93954
▁wonderful	-8.93967
▁simple	-8.93967
▁folks	-8.94079
▁reg	-8.94246
▁starts	-8.94357
ce	-8.94569
▁screams	-8.94875
▁cards	-8.95088
▁carry	-8.95363
▁mas	-8.95501
▁evidence	-8.95648
▁heaven	-8.95648
▁government	-8.95649
▁attention	-8.95649
▁shell	-8.95649
▁choose	-8.95649
▁drunk	-8.95654
▁louis	-8.95696
▁crewe	-8.95817
▁shed	-8.95852
ass	-8.95975
▁dry	-8.96031
z	-8.9613
▁ii	-8.96783
▁fighting	-8.96933
▁tyler	-8.9694
▁italian	-8.96971
▁super	-8.97349
▁fbi	-8.97372
▁future	-8.97372
▁niggers	-8.97408
▁doubt	-8.97444
▁copy	-8.97827
▁park	-8.97911
▁bucks	-8.9795
▁burn	-8.98068
▁cunt	-8.98713
▁spot	-8.98719
▁legal	-8.99037
▁shake	-8.99064
▁patrizia	-8.99127
▁summer	-8.99128
▁johnny	-8.99135
▁cheering	-8.99232
▁frankie	-8.99283
▁push	-8.99681
▁changed	-8.99777
rs	-9.00167
▁rain	-9.00512
▁patient	-9.00598
▁rose	-9.00631
▁field	-9.00675
▁imagine	-9.00698
ation	-9.00781
▁bro	-9.00855
▁george	-9.0091
▁francis	-9.00913
▁heavy	-9.00913
▁instead	-9.00913
▁sobbing	-9.00913
▁throat	-9.00913
▁plus	-9.00921
▁letter	-9.00925
▁upon	-9.00931
▁station	-9.00938
▁singing	-9.01072
▁fit	-9.01304
▁fall	-9.02079
▁happening	-9.02183
as	-9.02369
▁hole	-9.02516
▁certain	-9.0258
▁fell	-9.02679
▁closes	-9.02724
▁especially	-9.02731
▁niki	-9.02731
▁paolo	-9.02732
▁forward	-9.02743
▁totally	-9.0283
▁union	-9.02864
▁army	-9.02892
▁rules	-9.0295
▁eh	-9.03085
▁plays	-9.03247
am	-9.03386
ful	-9.03396
▁van	-9.03486
▁arm	-9.03936
▁standing	-9.04072
▁search	-9.04181
▁shoes	-9.04216
▁rule	-9.0433
▁plane	-9.0435
▁realize	-9.04411
ment	-9.04558
▁forgot	-9.0458
▁middle	-9.04583
▁neck	-9.04585
▁alex	-9.04585
▁chuckling	-9.04586
▁sonny	-9.04603
▁west	-9.04606
▁stopped	-9.04634
▁gasping	-9.04634
▁ray	-9.04642
▁walter	-9.04646
▁broken	-9.04663
▁t	-9.04695
▁co	-9.04704
▁interesting	-9.04884
▁breathing	-9.04954
▁saved	-9.05053
▁locked	-9.05069
▁finished	-9.05101
▁numbers	-9.05226
ant	-9.05318
▁whose	-9.05373
▁cousin	-9.06228
▁mothers	-9.06252
▁age	-9.06255
ha	-9.06308
▁skin	-9.06335
▁opens	-9.06363
▁narrat	-9.06441
▁public	-9.0645
▁split	-9.06467
▁release	-9.06469
▁lebowski	-9.0647
▁sergeant	-9.06472
▁noise	-9.06473
▁system	-9.06482
▁sight	-9.06487
▁milk	-9.06501
id	-9.06509
▁pal	-9.06576
▁pocket	-9.06709
▁wouldve	-9.07326
▁art	-9.07459
▁st	-9.07459
▁visit	-9.07572
▁dogs	-9.07815
▁liked	-9.08077
▁calls	-9.08082
ne	-9.08216
▁animal	-9.08227
▁action	-9.08238
▁honour	-9.08377
▁lieutenant	-9.08392
▁ginger	-9.08394
▁soze	-9.08395
▁spent	-9.08396
▁darling	-9.08397
▁mommy	-9.084
▁moved	-9.0841
▁press	-9.08412
▁whatd	-9.08426
▁where	-9.08494
▁feed	-9.08547
▁east	-9.08797
▁hill	-9.0887
▁bastards	-9.08944
▁problems	-9.0917
▁following	-9.09186
co	-9.09465
▁com	-9.09478
out	-9.096
▁dig	-9.09963
se	-9.09976
▁share	-9.10003
▁tea	-9.1011
um	-9.10115
▁nigga	-9.10211
▁soft	-9.10229
▁impossible	-9.10353
▁neighborhood	-9.10354
▁worst	-9.10354
▁difference	-9.10358
▁bright	-9.1036
▁lunch	-9.10365
▁corner	-9.104
▁voc	-9.10485
iy	-9.11049
▁neo	-9.11054
▁pounds	-9.11228
▁turns	-9.11481
▁i	-9.11511
lng	-9.11597
ou	-9.11687
▁reach	-9.11935
▁prove	-9.11947
▁cry	-9.11981
ive	-9.12088
▁crew	-9.12155
▁loose	-9.12231
la	-9.12328
time	-9.12343
▁major	-9.12349
▁bottle	-9.12353
▁definitely	-9.12353
▁teddy	-9.12353
▁empty	-9.12355
▁keller	-9.12355
▁hungry	-9.12358
x	-9.12411
▁brad	-9.12432
▁main	-9.12576
▁per	-9.12645
▁bags	-9.1284
▁breath	-9.12841
▁billy	-9.12978
▁piss	-9.13086
▁guards	-9.13103
▁m	-9.13214
▁casey	-9.13234
▁jump	-9.13328
▁holding	-9.13373
ta	-9.13508
▁pulled	-9.13509
▁fly	-9.13723
▁cars	-9.13773
▁grow	-9.13944
▁bus	-9.14001
▁accept	-9.14033
▁drinking	-9.14126
▁german	-9.1415
▁normal	-9.1428
▁criminal	-9.1437
▁beg	-9.14377
▁calvin	-9.14394
▁college	-9.14394
▁kitchen	-9.14394
▁morpheus	-9.14394
▁bigger	-9.14395
▁justice	-9.14395
▁shh	-9.14408
▁starting	-9.14413
▁distance	-9.14435
▁zero	-9.14438
▁gary	-9.14441
▁awful	-9.14539
▁ex	-9.14695
sh	-9.1506
▁am	-9.15551
▁lead	-9.15553
▁walked	-9.1576
▁iii	-9.15793
▁smile	-9.15983
▁cock	-9.16048
▁honest	-9.16199
▁unit	-9.16287
▁mick	-9.16297
ro	-9.16349
▁joint	-9.16476
▁aqui	-9.16477
▁became	-9.16477
▁breakfast	-9.16477
▁creasy	-9.16477
▁department	-9.16477
▁freedom	-9.16477
▁miami	-9.16477
▁neither	-9.16477
▁noodles	-9.16477
▁sheriff	-9.16477
▁stephanie	-9.16477
▁held	-9.16477
▁afford	-9.16478
▁beginning	-9.16479
▁ronnie	-9.16479
▁grace	-9.16482
▁stuck	-9.16484
▁license	-9.16511
▁bird	-9.16516
▁mister	-9.16533
▁cup	-9.16541
▁joker	-9.16726
ness	-9.16944
▁anna	-9.17025
▁pen	-9.17196
▁mum	-9.17442
▁selling	-9.17455
▁leg	-9.17503
▁warm	-9.1766
▁pot	-9.17682
▁test	-9.17951
▁staying	-9.18019
▁double	-9.18365
▁load	-9.18397
▁hero	-9.1844
▁lovely	-9.18567
▁danger	-9.18587
▁background	-9.18605
▁uhhuh	-9.18605
▁dying	-9.18606
▁aye	-9.18626
▁grave	-9.18652
▁laid	-9.18706
▁cat	-9.19076
▁nuts	-9.19367
ad	-9.19506
ry	-9.19654
▁cross	-9.19948
▁el	-9.20059
▁picked	-9.20072
eur	-9.20447
te	-9.20486
▁legs	-9.20744
▁pete	-9.20777
▁pussy	-9.20777
▁bodies	-9.20779
▁built	-9.20779
▁memory	-9.20779
▁insurance	-9.20779
▁gustave	-9.20781
▁wrote	-9.20784
▁wet	-9.20802
▁girlfriend	-9.20816
▁guilty	-9.20817
▁ow	-9.20823
▁condition	-9.20841
▁completely	-9.20871
▁ticket	-9.20876
▁crap	-9.20975
▁sad	-9.21097
▁promised	-9.21406
▁idiot	-9.21518
▁rob	-9.21547
▁suit	-9.21743
me	-9.21801
▁mo	-9.22007
▁consider	-9.22253
▁teach	-9.22296
▁ear	-9.2247
▁witness	-9.2259
▁discuss	-9.22602
▁waste	-9.22803
▁keaton	-9.23001
▁blind	-9.23001
▁yknow	-9.23001
▁hasnt	-9.23002
▁operator	-9.23002
▁shouldve	-9.23005
▁local	-9.23006
▁football	-9.23007
▁coke	-9.2301
▁involved	-9.23042
▁senator	-9.23045
▁meat	-9.23069
▁exhales	-9.23075
▁chicken	-9.23077
▁account	-9.23091
▁gunshot	-9.23159
▁client	-9.23168
▁fix	-9.23214
▁quickly	-9.23241
▁camera	-9.23256
▁gotten	-9.23261
▁interested	-9.23295
▁books	-9.23944
ist	-9.23967
▁lived	-9.24076
▁crack	-9.24458
▁rings	-9.24524
▁treat	-9.24587
▁points	-9.24812
▁teii	-9.24845
▁reading	-9.24915
▁howd	-9.25104
▁ears	-9.25128
▁total	-9.25151
▁nothin	-9.25241
▁church	-9.25274
▁cream	-9.25274
▁decision	-9.25274
▁perhaps	-9.25274
▁support	-9.25274
▁kenny	-9.25274
▁spirit	-9.25278
▁favorite	-9.25282
▁property	-9.25284
▁jim	-9.25286
▁space	-9.25303
▁ought	-9.25329
▁joy	-9.25357
▁lights	-9.25368
▁dope	-9.25457
▁diamond	-9.2548
▁motherfuckers	-9.25481
▁tree	-9.25506
▁queen	-9.25531
by	-9.25563
▁seriously	-9.25665
▁mac	-9.25712
▁no	-9.25905
▁when	-9.2593
nt	-9.26161
os	-9.26233
ate	-9.27151
▁apologize	-9.27386
▁risk	-9.27422
▁strike	-9.27583
▁relationship	-9.276
▁teeth	-9.276
▁platt	-9.276
▁loki	-9.276
▁colonel	-9.27601
▁aunt	-9.27603
▁chef	-9.27605
▁announce	-9.27619
▁stephen	-9.27622
▁barking	-9.27676
▁sold	-9.27679
▁baker	-9.27684
▁investigation	-9.2775
▁cowboy	-9.27831
▁vehicle	-9.27836
▁boom	-9.27849
▁store	-9.27858
▁jew	-9.27936
▁states	-9.27951
▁figured	-9.27996
▁clicks	-9.28081
▁tie	-9.28104
▁passed	-9.28247
▁helped	-9.28293
▁learned	-9.28384
▁heads	-9.28509
▁fucker	-9.28672
▁breathe	-9.28938
▁fingers	-9.29502
▁allow	-9.29668
▁blame	-9.29765
▁notice	-9.29779
▁gettin	-9.29952
▁taught	-9.2998
▁within	-9.2998
▁whether	-9.29981
▁conlon	-9.29982
▁fresh	-9.29984
▁w	-9.3001
▁bear	-9.30035
▁cake	-9.3004
▁large	-9.30076
▁wild	-9.30077
▁cocksucker	-9.30189
▁russian	-9.30231
▁bridge	-9.30266
▁paying	-9.30275
▁pants	-9.3029
▁roman	-9.30324
▁united	-9.30366
▁cute	-9.30391
▁paulie	-9.30423
▁murdered	-9.30617
▁wearing	-9.30736
▁fired	-9.30933
▁os	-9.30981
▁wine	-9.31005
▁class	-9.31105
▁kinda	-9.31118
▁trip	-9.31198
▁sirens	-9.3159
▁cap	-9.31673
▁be	-9.31695
▁victims	-9.31825
▁fill	-9.31846
▁jerk	-9.31988
▁interest	-9.32065
▁chris	-9.32123
▁pictures	-9.32134
▁faith	-9.32189
▁correct	-9.32258
▁con	-9.3228
▁match	-9.32364
▁extra	-9.32371
▁clementine	-9.32419
▁javi	-9.32419
▁upstairs	-9.32419
▁scoffs	-9.3242
▁upset	-9.32421
▁thatll	-9.32424
▁self	-9.32461
▁trade	-9.32496
▁motherfucking	-9.325
▁lake	-9.32502
▁lester	-9.32514
▁fredo	-9.32523
▁continue	-9.32638
▁foi	-9.32707
▁deserve	-9.32723
▁winning	-9.32747
▁wheel	-9.32779
▁stops	-9.33012
▁besides	-9.33029
ton	-9.33301
▁beeps	-9.33354
▁non	-9.33373
ai	-9.34315
▁sleeping	-9.34349
▁bullets	-9.34521
▁agree	-9.34706
▁survive	-9.3472
at	-9.34721
▁angel	-9.34818
▁whoo	-9.34876
ian	-9.34913
▁attorney	-9.34919
▁enemy	-9.34919
▁nervous	-9.34919
▁responsible	-9.34919
▁schultz	-9.34919
▁target	-9.34919
▁tongue	-9.3492
▁conversation	-9.34921
▁weii	-9.34922
▁excited	-9.34932
▁castle	-9.34939
gest	-9.34944
▁wailing	-9.34965
▁warden	-9.34972
▁weight	-9.34987
▁hiding	-9.3507
▁manager	-9.35073
▁indistinctly	-9.35133
▁trick	-9.3515
▁file	-9.35182
▁bosses	-9.3529
▁season	-9.35291
▁shoulder	-9.35299
▁operation	-9.35311
ri	-9.3535
▁weapon	-9.35367
▁begin	-9.35423
▁bare	-9.35439
▁yard	-9.35472
▁taste	-9.35534
▁wind	-9.35877
▁si	-9.3629
▁lve	-9.36398
▁pack	-9.36711
▁out	-9.36792
▁believed	-9.36965
▁bother	-9.37134
▁mention	-9.37204
ary	-9.37261
ut	-9.37391
▁bang	-9.37402
▁program	-9.37451
▁project	-9.37481
▁clem	-9.37483
▁audience	-9.37484
▁character	-9.37484
▁hadnt	-9.37484
▁however	-9.37484
▁jerry	-9.37484
▁lecter	-9.37484
▁friday	-9.37485
▁allison	-9.37486
▁common	-9.3749
▁fellow	-9.3749
▁clock	-9.37492
▁filthy	-9.3752
▁yelling	-9.37521
▁obviously	-9.37553
▁block	-9.37604
▁suspect	-9.37629
▁agreed	-9.37692
▁sal	-9.37855
▁tank	-9.37915
▁daughters	-9.3798
▁finger	-9.3803
▁closed	-9.38578
▁feels	-9.38584
▁shots	-9.38954
no	-9.39088
▁officers	-9.39387
▁suck	-9.39403
▁crash	-9.39624
▁sweat	-9.39699
▁lift	-9.39801
ine	-9.39929
you	-9.39968
▁anthony	-9.40115
▁derek	-9.40115
▁hoffa	-9.40115
▁shirt	-9.40115
▁whoever	-9.40115
▁pyle	-9.40115
▁rothstein	-9.40116
▁bathroom	-9.40117
▁muffled	-9.4012
▁repeat	-9.40121
▁immediately	-9.4015
▁amen	-9.40168
▁hup	-9.4017
▁usually	-9.40207
▁chill	-9.40323
▁losing	-9.40416
▁faster	-9.40474
▁closer	-9.40536
▁bringing	-9.40577
▁type	-9.40594
▁debt	-9.40665
▁parking	-9.40728
▁wondering	-9.40831
▁up	-9.40858
▁speaks	-9.41121
ma	-9.41385
▁ln	-9.41495
▁gods	-9.41502
▁vi	-9.41603
w	-9.41667
▁hat	-9.41939
▁wash	-9.42079
lie	-9.42113
▁map	-9.42239
▁pray	-9.42268
age	-9.42593
▁guarantee	-9.42603
▁freeze	-9.42713
▁corps	-9.42746
▁arthur	-9.42818
▁fortune	-9.42818
▁threw	-9.42818
▁otherwise	-9.42818
▁stories	-9.42818
▁provide	-9.42819
▁twice	-9.42819
▁cheese	-9.42819
▁dramatic	-9.4282
▁rush	-9.42822
▁starling	-9.42823
▁credit	-9.42825
▁cage	-9.42859
▁coughing	-9.4288
▁hearing	-9.42914
▁leon	-9.42985
▁dis	-9.43059
▁contact	-9.43064
▁concerned	-9.43065
▁lots	-9.43087
▁alarm	-9.43362
▁whispers	-9.4338
▁victim	-9.43481
▁score	-9.43504
▁gas	-9.43613
one	-9.43648
▁ends	-9.43839
▁lookin	-9.43888
▁due	-9.44272
▁nah	-9.44481
ent	-9.44617
▁played	-9.45099
▁weapons	-9.451
ever	-9.45225
▁jews	-9.45272
▁final	-9.45476
▁cheap	-9.45478
▁spoke	-9.45544
▁rats	-9.45582
▁bottom	-9.45596
▁bruce	-9.45596
▁regular	-9.45596
▁pardon	-9.45596
▁television	-9.45597
▁donnie	-9.45597
▁view	-9.45599
▁molly	-9.45616
▁penny	-9.4563
▁pair	-9.45667
▁papa	-9.45689
▁ld	-9.45737
▁fucks	-9.45771
▁beeping	-9.45798
▁por	-9.45811
▁arms	-9.45946
▁showed	-9.45993
▁force	-9.46086
▁arrested	-9.46186
▁whistle	-9.46237
▁group	-9.46253
▁pig	-9.46348
▁wood	-9.4735
▁camp	-9.47963
▁rug	-9.47965
▁taik	-9.48102
men	-9.48185
▁add	-9.48238
▁introduce	-9.48259
▁birds	-9.48432
▁traffic	-9.48447
▁easier	-9.48453
▁gorgeous	-9.48453
▁mercedes	-9.48453
▁often	-9.48454
▁murray	-9.48454
▁liar	-9.48455
▁eddie	-9.48456
▁arno	-9.4846
▁jury	-9.48461
▁exit	-9.48477
▁kickass	-9.48479
▁babe	-9.4848
▁storm	-9.48484
▁coat	-9.48497
▁itd	-9.48551
▁hoping	-9.48593
▁manny	-9.486
▁honestly	-9.48625
▁yells	-9.48673
▁honking	-9.48692
▁squealing	-9.48703
▁peter	-9.48782
▁build	-9.48782
▁dare	-9.48866
▁pissed	-9.48914
▁knees	-9.48923
ck	-9.49212
▁stock	-9.49231
▁wire	-9.49239
▁soldier	-9.49267
▁bite	-9.49389
▁drivers	-9.50193
▁older	-9.50228
go	-9.504
▁suggest	-9.50521
▁pulling	-9.50523
and	-9.50698
▁pretend	-9.50973
▁heat	-9.50981
▁horses	-9.5101
▁so	-9.51018
▁rent	-9.5102
do	-9.51031
▁sons	-9.51032
▁complete	-9.51048
▁streets	-9.51287
▁loud	-9.51315
▁steve	-9.51361
▁contract	-9.51373
▁difficult	-9.51394
▁sionis	-9.51394
▁trinity	-9.51394
▁congratulations	-9.51394
▁monday	-9.51396
▁shame	-9.51397
▁kay	-9.51401
▁sunday	-9.51402
▁yep	-9.51408
▁dropped	-9.51411
▁franklin	-9.51431
▁russ	-9.51483
▁comin	-9.51522
▁lila	-9.51619
▁over	-9.51628
▁joey	-9.51744
▁di	-9.51846
▁exist	-9.51903
▁county	-9.51907
▁bust	-9.51939
▁jane	-9.51985
▁shows	-9.52099
▁usa	-9.52146
▁garden	-9.52205
▁devil	-9.52217
▁bi	-9.52228
▁owner	-9.5223
▁tip	-9.52233
▁sometime	-9.52325
▁chattering	-9.52328
▁cheers	-9.52342
▁gate	-9.52349
▁dollar	-9.52432
▁ser	-9.52457
▁sh	-9.52483
▁you	-9.52967
▁fellas	-9.52996
the	-9.53222
▁lies	-9.53434
▁stars	-9.53463
▁plant	-9.53475
▁windows	-9.53494
land	-9.53785
ho	-9.53798
▁buzz	-9.53831
ting	-9.53915
▁helping	-9.53953
ig	-9.53964
fucking	-9.54
▁carlo	-9.54063
▁dump	-9.5409
▁switch	-9.5409
he	-9.54106
▁fitz	-9.54227
▁shower	-9.54251
▁rome	-9.54271
▁ho	-9.54323
▁insane	-9.54424
▁language	-9.54424
▁ridiculous	-9.54424
▁roulet	-9.54424
▁writing	-9.54424
▁opportunity	-9.54425
▁earlier	-9.54427
▁silly	-9.54429
▁norman	-9.54431
▁virginie	-9.54449
▁powerful	-9.54465
▁famous	-9.54475
▁protection	-9.54475
▁band	-9.54478
▁statement	-9.54484
j	-9.54644
▁blessed	-9.5467
line	-9.54816
▁allowed	-9.54839
▁nights	-9.5487
▁star	-9.54873
▁banging	-9.549
ey	-9.54956
▁remind	-9.55018
▁sisters	-9.5525
▁rifle	-9.55333
▁computer	-9.55377
▁sale	-9.55601
▁mask	-9.55653
▁records	-9.55692
▁breaking	-9.56289
▁ab	-9.56322
ac	-9.56459
▁doors	-9.56677
▁chuck	-9.57331
▁clients	-9.57332
▁experience	-9.57344
▁fake	-9.57461
▁an	-9.57465
▁cassandra	-9.57549
▁dixon	-9.57549
▁downtown	-9.57549
▁marsellus	-9.57549
▁mexico	-9.57549
▁miracle	-9.57549
▁monroe	-9.57549
▁nowhere	-9.57549
▁roger	-9.57549
▁garage	-9.57552
▁leonard	-9.57552
▁fancy	-9.57553
▁attempt	-9.57557
▁jobs	-9.57561
▁beauty	-9.57563
▁stage	-9.57565
▁marion	-9.57578
▁toilet	-9.5758
▁mental	-9.57583
▁rv	-9.57587
▁kg	-9.57633
▁center	-9.57638
▁sweetie	-9.57654
▁farm	-9.577
▁film	-9.57735
▁arrived	-9.57747
▁off	-9.57765
▁pin	-9.57786
▁letting	-9.57808
▁forced	-9.57813
▁approaching	-9.5785
▁form	-9.57892
▁remain	-9.58166
▁sooner	-9.58186
▁guts	-9.58382
ci	-9.58497
▁code	-9.5855
▁walt	-9.5865
▁gangster	-9.58653
▁using	-9.59009
▁ordered	-9.5904
head	-9.59055
▁paint	-9.59744
▁buying	-9.59987
▁screw	-9.60032
▁nobodys	-9.60058
▁games	-9.60131
▁flat	-9.60215
▁deliver	-9.60248
▁hammer	-9.60443
▁diamonds	-9.60482
▁gunshots	-9.60552
▁harm	-9.60752
▁chair	-9.60759
▁irish	-9.60761
▁advice	-9.60775
▁angry	-9.60775
▁california	-9.60775
▁damage	-9.60775
▁necessary	-9.60775
▁plenty	-9.60775
▁japanese	-9.60775
▁drove	-9.60775
▁funeral	-9.60775
▁sugar	-9.60776
▁clarice	-9.60776
▁roof	-9.60776
▁awake	-9.60776
▁matt	-9.60777
▁airport	-9.6078
▁marry	-9.60784
▁marla	-9.60784
▁aware	-9.60785
▁sentence	-9.60786
▁medical	-9.60789
▁sarah	-9.6079
▁grew	-9.60797
▁market	-9.60803
▁cj	-9.60812
▁laughter	-9.60813
▁oil	-9.60824
▁huge	-9.60826
▁trial	-9.60851
▁stolen	-9.60881
▁texas	-9.60883
▁po	-9.60913
▁row	-9.6096
▁somebodys	-9.60975
▁badge	-9.60989
▁moms	-9.60999
▁william	-9.6118
▁all	-9.61256
▁armed	-9.61347
▁command	-9.6162
▁do	-9.6171
▁followed	-9.61866
▁terrorist	-9.6188
▁prefer	-9.61919
▁whore	-9.61946
▁trace	-9.61947
▁medal	-9.61953
et	-9.62107
▁shape	-9.62122
▁details	-9.623
▁bay	-9.6287
▁eating	-9.63123
▁draw	-9.63496
ring	-9.63701
▁request	-9.63761
▁size	-9.63834
▁hutch	-9.64068
de	-9.64098
▁pre	-9.64103
▁beyond	-9.64108
▁crawford	-9.64108
▁downstairs	-9.64108
▁europe	-9.64108
▁families	-9.64108
▁mmmhmm	-9.64108
▁outfit	-9.64108
▁rachel	-9.64108
▁spanish	-9.64108
▁strength	-9.64108
▁russell	-9.64108
▁florida	-9.64109
▁border	-9.64109
▁slip	-9.64109
▁bunny	-9.64109
▁fifth	-9.6411
▁whirring	-9.6411
▁elevator	-9.64111
▁blew	-9.64112
▁trigger	-9.64117
▁clever	-9.64117
▁ugly	-9.64117
▁comfortable	-9.64118
▁duty	-9.64118
▁several	-9.6412
▁desk	-9.64122
▁buried	-9.64127
▁dancing	-9.64134
▁pool	-9.64134
▁vito	-9.64138
▁pure	-9.64152
▁marshall	-9.64161
▁evey	-9.64167
▁invited	-9.64195
▁robbery	-9.64255
▁sea	-9.64255
▁ed	-9.64272
▁haller	-9.64291
▁weed	-9.64352
▁personally	-9.64399
▁quietly	-9.64544
▁surprised	-9.64595
▁ideas	-9.64726
▁shoe	-9.64777
▁sky	-9.64811
▁dressed	-9.64852
lo	-9.65016
▁wound	-9.65045
▁thunder	-9.65196
▁pressure	-9.65325
▁pistol	-9.65339
▁blows	-9.65347
▁runs	-9.65427
▁guest	-9.65428
▁fan	-9.65446
▁salt	-9.65478
na	-9.65601
▁siren	-9.66259
▁player	-9.66389
▁checked	-9.66537
▁loves	-9.66683
▁freak	-9.66805
▁destroy	-9.66841
▁jo	-9.66875
▁announc	-9.6689
▁sin	-9.66922
il	-9.67166
though	-9.67265
▁escape	-9.67348
▁decide	-9.67358
▁tune	-9.67375
▁settle	-9.67392
▁units	-9.67554
▁video	-9.67556
▁access	-9.67557
▁ambulance	-9.67557
▁andrew	-9.67557
▁choking	-9.67557
▁horrible	-9.67557
▁positive	-9.67557
▁sneak	-9.67557
▁thursday	-9.67557
▁blaring	-9.67558
▁cancer	-9.67558
▁flight	-9.67564
▁juice	-9.67565
▁jewish	-9.67565
▁bread	-9.67575
▁pilot	-9.6758
▁wise	-9.67581
▁cr	-9.67583
tic	-9.67587
▁rip	-9.67594
▁fifty	-9.67603
▁steph	-9.67617
▁annie	-9.67636
▁magic	-9.67734
▁scare	-9.67764
▁earn	-9.68123
▁burned	-9.68207
▁bitches	-9.68283
▁carrying	-9.68387
▁regret	-9.68442
▁terms	-9.68512
▁slave	-9.68627
▁belong	-9.68644
ice	-9.68674
▁frances	-9.68733
▁plans	-9.6879
▁jean	-9.68862
▁ghost	-9.68925
▁career	-9.69034
▁ver	-9.69341
▁talkin	-9.69588
▁ls	-9.69755
▁los	-9.69837
mos	-9.70256
io	-9.7056
▁las	-9.70575
house	-9.70636
▁tao	-9.70818
▁gear	-9.70961
▁weak	-9.7098
▁usual	-9.71004
▁proper	-9.71033
be	-9.71085
ling	-9.71115
▁social	-9.71117
▁asleep	-9.71128
▁federal	-9.71128
▁flesh	-9.71128
▁genius	-9.71128
▁iittie	-9.71128
▁illegal	-9.71128
▁saturday	-9.71128
▁travis	-9.71128
▁warrant	-9.71128
▁stairs	-9.71128
▁purpose	-9.71129
▁candie	-9.71129
▁military	-9.7113
▁spring	-9.7113
▁fantastic	-9.71131
▁rough	-9.71131
▁soap	-9.71132
▁wiii	-9.71134
▁pe	-9.71135
▁anson	-9.71135
▁benny	-9.71137
▁interview	-9.71137
▁champion	-9.71142
▁friendship	-9.71143
▁roth	-9.71145
▁squad	-9.71147
▁apparently	-9.71149
▁mable	-9.71162
▁highway	-9.71165
▁woke	-9.71179
▁professional	-9.7118
▁chop	-9.71188
▁ter	-9.71195
▁golden	-9.71206
▁suddenly	-9.71231
▁tax	-9.7125
▁fourth	-9.71261
▁hired	-9.71294
▁gives	-9.71303
▁taro	-9.71382
▁simon	-9.71418
▁noticed	-9.71436
▁keyser	-9.71457
▁paris	-9.71479
▁fixed	-9.71653
▁loaded	-9.7168
▁flying	-9.71845
sa	-9.71971
▁sue	-9.72139
▁exchange	-9.72183
ga	-9.72216
▁concern	-9.72264
off	-9.72266
▁te	-9.72284
ious	-9.72314
▁boyfriend	-9.72573
que	-9.72619
▁taxi	-9.72636
▁button	-9.72662
▁cigarette	-9.72703
▁hm	-9.72713
way	-9.72976
im	-9.73268
▁gi	-9.73427
▁keeping	-9.73452
ge	-9.73515
ier	-9.74136
▁parts	-9.74489
▁silence	-9.74639
▁dirt	-9.74672
▁sharp	-9.7471
▁martin	-9.74731
▁caesar	-9.74798
▁somethin	-9.74798
▁cease	-9.74829
▁avoid	-9.74832
▁motel	-9.74832
▁subject	-9.74832
▁desert	-9.74832
▁fireworks	-9.74832
▁ugh	-9.74832
▁steady	-9.74833
▁trunk	-9.74833
▁jeez	-9.74833
▁square	-9.74834
▁desire	-9.74834
▁telephone	-9.74841
▁aah	-9.74851
▁spare	-9.74867
▁changing	-9.74872
▁giuseppe	-9.74911
▁bury	-9.74966
▁sink	-9.75021
▁brave	-9.75066
▁aw	-9.75086
▁turning	-9.75133
▁signal	-9.75148
▁nearly	-9.75242
▁movies	-9.75268
▁perfectly	-9.75308
▁sant	-9.75368
▁depends	-9.75651
▁metal	-9.7567
▁color	-9.76123
▁passing	-9.7613
▁scream	-9.76165
▁hon	-9.76212
▁robert	-9.76243
▁acting	-9.76284
va	-9.76293
▁sec	-9.76323
▁restaurant	-9.76459
▁pita	-9.7656
▁marine	-9.76563
▁dies	-9.76587
ance	-9.76619
ure	-9.76731
▁boyle	-9.76919
▁mil	-9.76934
▁assholes	-9.76988
▁there	-9.77061
ted	-9.7708
▁instrumenta	-9.7729
▁players	-9.7749
▁ma	-9.77526
▁ju	-9.77614
▁rocks	-9.77754
▁poison	-9.77879
▁disappear	-9.77909
▁files	-9.78022
▁spread	-9.78227
▁psycho	-9.78339
▁ar	-9.78352
▁enter	-9.78367
▁ruin	-9.78413
▁cameras	-9.78421
▁tin	-9.78452
▁recognize	-9.7846
▁hall	-9.78472
▁raise	-9.78477
▁pops	-9.78534
▁mmhm	-9.78629
▁admit	-9.7867
▁twenty	-9.78671
▁according	-9.78678
▁assault	-9.78678
▁bravo	-9.78678
▁cackling	-9.78678
▁destiny	-9.78678
▁emergency	-9.78678
▁enemies	-9.78678
▁expensive	-9.78678
▁gambling	-9.78678
▁garbage	-9.78678
▁heavily	-9.78678
▁jungle	-9.78678
▁kennedy	-9.78678
▁montoya	-9.78678
▁stomach	-9.78678
▁vacation	-9.78678
▁written	-9.78678
▁chancellor	-9.78678
▁stood	-9.78678
▁saburo	-9.78678
▁yellow	-9.78679
▁profit	-9.78681
▁winston	-9.78682
▁forgotten	-9.78684
▁brand	-9.78684
▁leeds	-9.78686
▁marcus	-9.78686
▁truly	-9.78691
▁doorbell	-9.78693
▁policy	-9.78694
▁rise	-9.78696
▁subtitle	-9.78704
▁aldo	-9.78704
▁weekend	-9.78707
▁opal	-9.78707
▁march	-9.78719
▁steak	-9.78722
▁disgusting	-9.78765
▁angeles	-9.78784
▁raised	-9.78882
▁ford	-9.789
▁policeman	-9.78945
▁billboards	-9.78975
▁watched	-9.79003
▁ms	-9.7901
▁wayne	-9.79182
theme	-9.79211
ul	-9.79282
▁mar	-9.79469
▁headed	-9.7947
▁o	-9.79544
▁boo	-9.79816
beat	-9.80053
▁harder	-9.80089
▁pr	-9.80132
▁robber	-9.80279
ot	-9.80354
▁meal	-9.80452
▁everythings	-9.80467
▁connection	-9.80505
▁ohh	-9.80586
▁hated	-9.80634
▁plate	-9.80664
▁fella	-9.80715
▁cigarettes	-9.80941
▁clears	-9.80941
▁partners	-9.80952
che	-9.81004
tion	-9.81093
▁ward	-9.81122
▁dreams	-9.81168
▁pat	-9.81284
ish	-9.81626
▁hates	-9.81712
down	-9.81767
ts	-9.81802
▁bless	-9.82014
▁picking	-9.82046
▁uma	-9.82291
ens	-9.82298
king	-9.82455
▁health	-9.82516
▁refuse	-9.82562
▁base	-9.82568
▁among	-9.82658
▁grandpa	-9.82664
▁gim	-9.82667
▁apart	-9.82673
▁amount	-9.82678
▁example	-9.82678
▁explosiveskull	-9.82678
▁marriage	-9.82678
▁probiem	-9.82678
▁understood	-9.82678
▁zasa	-9.82678
▁parole	-9.82678
▁whyd	-9.82678
▁recall	-9.82679
▁expert	-9.82679
▁closing	-9.8268
▁piease	-9.8268
▁formula	-9.8268
▁raymond	-9.8268
▁charles	-9.82681
▁brown	-9.82682
▁bail	-9.82683
▁model	-9.82683
▁morrie	-9.82684
▁nope	-9.82685
▁heck	-9.82685
▁brick	-9.82687
▁nature	-9.8269
▁mostly	-9.82691
▁poker	-9.82694
▁skinny	-9.827
▁simply	-9.82701
▁ricky	-9.82701
▁piano	-9.82707
▁bates	-9.82713
▁gunfire	-9.82714
▁national	-9.82716
▁confession	-9.82719
▁boring	-9.82735
▁whip	-9.82738
▁begging	-9.82757
▁reasonable	-9.82763
▁willing	-9.82765
▁yearold	-9.82809
▁quarter	-9.82815
▁under	-9.82833
▁pm	-9.82866
▁wide	-9.82885
▁carson	-9.82924
▁gotham	-9.82961
▁deeply	-9.82989
▁disappeared	-9.83019
▁opened	-9.83055
▁vern	-9.83255
▁letters	-9.83375
▁pills	-9.8343
▁celebrate	-9.83452
▁growing	-9.83481
▁sand	-9.835
▁falling	-9.83584
▁lou	-9.83676
▁dealing	-9.83765
▁ca	-9.83799
▁lied	-9.83887
▁dreaming	-9.83958
▁ted	-9.84103
▁knocking	-9.84129
▁artist	-9.84191
▁stayed	-9.84348
▁pie	-9.84377
ag	-9.84392
▁he	-9.84458
▁winner	-9.84667
▁member	-9.84702
▁egg	-9.84712
▁drinks	-9.84737
▁sub	-9.8476
tle	-9.84762
▁ahh	-9.84829
▁va	-9.84858
▁mile	-9.85121
ism	-9.85192
ack	-9.85211
▁port	-9.85793
▁tear	-9.85828
▁sucks	-9.85981
▁lad	-9.8603
▁dealer	-9.86131
▁approach	-9.86367
▁snow	-9.86395
▁iook	-9.86426
son	-9.86432
▁confess	-9.86465
▁fred	-9.86574
▁straighten	-9.86613
▁serve	-9.86631
▁prepare	-9.86642
▁tickets	-9.86661
▁clark	-9.86686
▁chest	-9.86765
▁casa	-9.86791
▁object	-9.86806
▁defense	-9.86845
▁fruit	-9.86845
▁nephew	-9.86845
▁ramona	-9.86845
▁shift	-9.86845
▁electronic	-9.86845
▁wallace	-9.86845
▁hollywood	-9.86845
▁golf	-9.86846
▁swat	-9.86847
▁inspector	-9.86849
▁failure	-9.86849
▁verbal	-9.86852
▁reward	-9.86852
▁trash	-9.86853
▁paso	-9.86854
▁unbelievable	-9.86856
▁available	-9.86856
▁at	-9.86866
▁whimpering	-9.86871
▁dragon	-9.86874
▁hail	-9.86878
▁title	-9.8688
▁bobby	-9.86886
▁rare	-9.86886
▁rabbit	-9.86903
▁unfortunately	-9.86916
ner	-9.86924
▁naked	-9.87029
▁boxes	-9.87085
▁travel	-9.87111
▁male	-9.87149
▁amy	-9.8719
▁punch	-9.87203
▁sexy	-9.87345
▁slowly	-9.87414
▁hairy	-9.87652
▁strip	-9.87764
▁san	-9.88169
ble	-9.88202
▁signed	-9.88527
▁sat	-9.8867
▁hanging	-9.88879
▁location	-9.88952
▁priest	-9.88955
▁costello	-9.89021
▁customer	-9.89107
▁pieces	-9.89118
▁stranger	-9.89246
▁reporter	-9.89248
▁belongs	-9.89407
▁pigs	-9.90072
▁yards	-9.90429
▁becomes	-9.90531
ile	-9.90595
boy	-9.90615
▁screech	-9.90787
▁houses	-9.90819
▁insist	-9.90846
▁talent	-9.90856
li	-9.9091
▁mood	-9.91018
red	-9.91036
▁sudden	-9.91067
▁process	-9.91106
▁sara	-9.91186
▁vietnam	-9.91191
▁appointment	-9.91192
▁belfort	-9.91192
▁current	-9.91192
▁footsteps	-9.91192
▁mathilda	-9.91192
▁matthew	-9.91192
▁somehow	-9.91192
▁boston	-9.91193
▁thomas	-9.91193
▁coincidence	-9.91193
▁authority	-9.91193
▁jimmie	-9.91193
▁vietnamese	-9.91194
▁british	-9.91195
▁muito	-9.91195
▁practice	-9.91195
▁fought	-9.91196
▁twelve	-9.91199
▁whatre	-9.91201
▁blast	-9.91203
▁advantage	-9.91203
▁crush	-9.91203
▁violence	-9.91203
▁pension	-9.91205
▁godfather	-9.91205
▁tour	-9.91205
▁chopper	-9.91222
▁plain	-9.91224
▁toss	-9.91234
▁katie	-9.91234
▁began	-9.91237
▁rude	-9.9124
▁belt	-9.91241
▁estate	-9.91242
▁vice	-9.91248
▁regan	-9.91249
▁allen	-9.91258
▁criminals	-9.91288
▁level	-9.9129
▁chase	-9.91321
▁tower	-9.9136
▁clicking	-9.91367
▁retired	-9.91367
▁fi	-9.91378
▁prepared	-9.91406
▁ad	-9.9149
▁official	-9.91502
▁page	-9.91573
▁wasted	-9.91598
▁merci	-9.91616
lin	-9.91719
ps	-9.91931
▁thy	-9.91939
lam	-9.92068
▁flowers	-9.92123
if	-9.92216
▁asses	-9.92373
▁offered	-9.92416
ina	-9.92515
▁bend	-9.92528
▁cook	-9.92548
▁training	-9.92609
mo	-9.92645
▁expecting	-9.92654
▁photos	-9.92789
▁tall	-9.9282
▁mu	-9.92894
▁showing	-9.93083
▁eggs	-9.93471
▁bedroom	-9.93481
▁friendly	-9.93542
▁sport	-9.93568
▁wave	-9.93603
▁detail	-9.93614
▁loss	-9.93795
▁wa	-9.94069
▁cleaned	-9.94366
▁walls	-9.94774
▁collect	-9.94795
▁complain	-9.94807
▁incident	-9.94855
▁proceed	-9.94944
▁squeal	-9.95337
▁mail	-9.95369
▁spook	-9.95386
▁path	-9.95402
▁register	-9.9541
▁heh	-9.95597
▁pink	-9.956
▁obvious	-9.95613
▁cats	-9.95617
▁virgin	-9.95689
▁cuba	-9.957
▁gross	-9.95712
▁specific	-9.95733
▁favour	-9.95733
▁akim	-9.95738
▁byron	-9.95738
▁couch	-9.95738
▁fifteen	-9.95738
▁league	-9.95738
▁matrix	-9.95738
▁nightmare	-9.95738
▁plastic	-9.95738
▁political	-9.95738
▁ralph	-9.95738
▁sarge	-9.95738
▁supper	-9.95738
▁wouid	-9.95738
▁karl	-9.95738
▁effort	-9.95738
▁briefcase	-9.95738
▁morgan	-9.95738
▁england	-9.95739
▁racing	-9.95739
▁staff	-9.95739
▁permission	-9.95739
▁marquis	-9.9574
▁merry	-9.95741
▁route	-9.95741
▁robbed	-9.95743
▁battle	-9.95744
▁vamos	-9.95745
▁connie	-9.95746
▁punk	-9.95749
▁revenge	-9.95749
▁decent	-9.95763
▁humming	-9.95767
▁weather	-9.95768
▁habit	-9.95772
▁queenan	-9.95774
▁sosa	-9.95777
▁mercy	-9.95782
▁indeed	-9.95791
▁familiar	-9.95794
▁lago	-9.95798
▁kate	-9.95804
▁tries	-9.95805
▁homicide	-9.95806
▁jacket	-9.95838
▁gina	-9.95867
ow	-9.95872
▁proof	-9.95875
▁shy	-9.95991
▁angela	-9.95998
▁blown	-9.96007
▁mission	-9.9602
▁warning	-9.96058
ff	-9.96061
▁tara	-9.96113
▁dust	-9.96135
▁bath	-9.96168
▁mikey	-9.9628
▁sing	-9.96411
▁feds	-9.96598
▁parked	-9.96609
▁carrie	-9.96737
▁clearly	-9.9675
▁lover	-9.96767
▁era	-9.968
▁bo	-9.96833
▁returned	-9.96834
▁pope	-9.96953
▁brains	-9.97145
▁riding	-9.97231
▁opening	-9.97406
▁interrupt	-9.97507
▁bones	-9.97817
▁heading	-9.97835
▁fate	-9.97911
▁throwing	-9.97919
ng	-9.97924
ado	-9.9796
uck	-9.98022
▁customers	-9.98041
▁pound	-9.981
ke	-9.98154
▁marshal	-9.98235
▁faggot	-9.98293
▁kray	-9.98293
▁helicopter	-9.98306
▁muscle	-9.98315
▁americans	-9.9846
▁sending	-9.98627
ial	-9.98818
▁dan	-9.98836
▁gangsters	-9.98847
▁en	-9.99012
back	-9.99038
▁soldiers	-9.99157
▁laws	-9.99272
ti	-9.99309
▁mountain	-9.99312
▁cocks	-9.99647
▁bone	-9.99739
▁romans	-9.99883
▁persons	-9.9994
nce	-10.0005
▁cow	-10.001
▁limit	-10.0014
▁speed	-10.0019
▁suits	-10.0024
▁value	-10.0029
▁convince	-10.0029
▁divorce	-10.0029
▁remove	-10.0031
▁junk	-10.0033
▁butch	-10.0036
▁exact	-10.0036
ue	-10.0037
▁natural	-10.0039
▁butt	-10.004
▁sandwich	-10.0043
▁stratton	-10.0049
▁almighty	-10.005
▁auction	-10.005
▁bollocks	-10.005
▁broomhilda	-10.005
▁chicago	-10.005
▁custody	-10.005
▁dozen	-10.005
▁dynamite	-10.005
▁fletcher	-10.005
▁horror	-10.005
▁jewelry	-10.005
▁mcmanus	-10.005
▁norcut	-10.005
▁oclock	-10.005
▁paranoid	-10.005
▁pizza	-10.005
▁precious	-10.005
▁terrific	-10.005
▁thief	-10.005
▁evil	-10.005
▁firm	-10.005
▁sicily	-10.005
▁zach	-10.005
▁daniel	-10.005
▁whod	-10.005
▁literally	-10.005
▁vinnie	-10.005
▁beckett	-10.005
▁apology	-10.005
▁flush	-10.005
▁edward	-10.005
▁explosion	-10.005
▁smoking	-10.005
▁blair	-10.005
▁fox	-10.0051
▁joking	-10.0051
▁babies	-10.0051
▁beef	-10.0051
▁bailey	-10.0051
▁onto	-10.0051
▁duke	-10.0051
▁magazine	-10.0051
▁shopping	-10.0051
▁romantic	-10.0051
▁basement	-10.0051
▁package	-10.0052
▁hola	-10.0052
▁mais	-10.0052
▁bull	-10.0052
▁asha	-10.0053
▁eron	-10.0053
▁princess	-10.0054
▁direction	-10.0054
▁chain	-10.0055
▁caii	-10.0056
▁confused	-10.0056
▁oui	-10.0056
▁gay	-10.0057
▁moon	-10.0057
▁stopping	-10.0059
▁sua	-10.006
▁directly	-10.0061
▁brings	-10.0062
▁witnesses	-10.0065
▁heroin	-10.0069
▁glasses	-10.0077
▁sally	-10.0077
▁addy	-10.0078
▁lab	-10.0089
▁destroyed	-10.0096
▁lawyers	-10.0102
▁sa	-10.0102
over	-10.0107
▁coughs	-10.0109
▁cos	-10.0132
▁boats	-10.0133
ang	-10.0149
▁tap	-10.0149
▁x	-10.0152
▁honk	-10.0154
▁walks	-10.0157
▁bomb	-10.0157
ied	-10.0165
▁jackie	-10.0177
▁nu	-10.02
▁tem	-10.0222
day	-10.0265
▁jos	-10.0303
▁mal	-10.0313
▁answers	-10.0327
▁duck	-10.0328
▁chick	-10.0329
▁mexican	-10.0331
▁lesson	-10.0338
▁vote	-10.0345
wa	-10.0352
mon	-10.0354
▁smith	-10.0362
▁tools	-10.0363
▁mis	-10.0363
tra	-10.0374
▁prisoner	-10.04
▁woods	-10.0416
ally	-10.0422
▁perform	-10.0423
▁charges	-10.0423
▁hack	-10.0455
▁moments	-10.0469
▁someones	-10.0477
▁cleaning	-10.0485
▁machines	-10.0486
just	-10.0504
▁flash	-10.0506
▁aiex	-10.0508
▁kiii	-10.0514
▁insult	-10.0516
▁fail	-10.0518
▁range	-10.0532
▁scott	-10.0532
▁threat	-10.0541
▁alcohol	-10.0547
▁stab	-10.0548
▁hung	-10.0549
▁swim	-10.055
▁heip	-10.055
▁awesome	-10.055
▁behalf	-10.055
▁bonjour	-10.055
▁champagne	-10.055
▁dufresne	-10.055
▁eventually	-10.055
▁excellent	-10.055
▁hildi	-10.055
▁international	-10.055
▁jersey	-10.055
▁kevin	-10.055
▁ofelia	-10.055
▁opinion	-10.055
▁routine	-10.055
▁shouid	-10.055
▁someplace	-10.055
▁tuddy	-10.055
▁period	-10.055
▁starving	-10.055
▁nurse	-10.055
▁nancy	-10.055
▁organization	-10.055
▁lansky	-10.055
▁hayes	-10.055
▁slept	-10.055
▁anger	-10.055
▁eliza	-10.055
▁saint	-10.055
▁canary	-10.055
▁pregnant	-10.055
▁curious	-10.0551
▁dawn	-10.0551
▁surgery	-10.0551
▁responsibility	-10.0551
▁wade	-10.0552
▁forth	-10.0552
▁lonely	-10.0553
▁moron	-10.0553
▁capable	-10.0553
▁intelligence	-10.0553
▁incredible	-10.0553
▁shine	-10.0554
▁jamie	-10.0554
▁castro	-10.0554
▁grass	-10.0554
▁motion	-10.0555
▁ability	-10.0556
▁wallet	-10.056
▁bem	-10.0563
▁jet	-10.0563
▁fold	-10.0564
▁toy	-10.0566
▁junkie	-10.0575
▁served	-10.0582
▁electric	-10.0587
▁sayin	-10.059
▁ruined	-10.0593
▁animals	-10.0595
▁screeching	-10.0597
▁carefully	-10.0598
▁wounded	-10.0599
▁manage	-10.0606
▁pit	-10.0608
▁doctors	-10.0608
▁tits	-10.0615
▁mustve	-10.0619
▁tied	-10.062
▁til	-10.0624
qu	-10.0626
▁lately	-10.064
▁higher	-10.0644
▁protected	-10.0661
▁kicked	-10.0664
▁burning	-10.0669
▁seemed	-10.0672
▁leader	-10.0679
▁le	-10.0723
mer	-10.0732
▁issues	-10.0735
▁suspensefu	-10.0736
der	-10.0739
oo	-10.0748
▁hurts	-10.0767
▁nos	-10.0768
hand	-10.0786
▁seu	-10.0793
▁touched	-10.08
▁fee	-10.0808
ise	-10.0811
▁thee	-10.0815
led	-10.0824
▁mass	-10.083
▁trusted	-10.0858
▁rate	-10.086
▁odd	-10.086
▁mi	-10.0885
▁ch	-10.0898
les	-10.0913
▁gates	-10.0917
▁chi	-10.0918
▁nail	-10.0925
▁ra	-10.0934
▁victor	-10.0951
▁speaker	-10.0955
▁fa	-10.0964
▁suspects	-10.0976
ped	-10.0981
▁goal	-10.101
▁williams	-10.101
ir	-10.1011
▁stores	-10.1019
▁hook	-10.103
▁to	-10.1036
▁direct	-10.104
▁study	-10.1042
▁sim	-10.1046
▁advance	-10.1055
▁hills	-10.1055
▁phil	-10.1064
▁original	-10.1064
▁chose	-10.1072
▁wolf	-10.1072
▁pipe	-10.1073
▁rice	-10.1074
▁institution	-10.1075
▁percent	-10.1076
▁thud	-10.1076
▁anytime	-10.1076
▁aronoff	-10.1076
▁detroit	-10.1076
▁education	-10.1076
▁energy	-10.1076
▁fbl	-10.1076
▁knauer	-10.1076
▁kurtz	-10.1076
▁maximus	-10.1076
▁nonsense	-10.1076
▁occasion	-10.1076
▁rebecca	-10.1076
▁silent	-10.1076
▁society	-10.1076
▁tuesday	-10.1076
▁undercover	-10.1076
▁willoughby	-10.1076
▁authorities	-10.1076
▁presence	-10.1076
▁mouse	-10.1076
▁wherever	-10.1076
▁coast	-10.1076
▁snake	-10.1076
▁naomi	-10.1076
▁orange	-10.1076
▁miserable	-10.1076
▁solomon	-10.1076
▁blake	-10.1076
▁isso	-10.1076
▁impressive	-10.1077
▁student	-10.1077
▁testify	-10.1077
▁anderson	-10.1077
▁committed	-10.1077
▁zone	-10.1077
▁jules	-10.1077
▁hahaha	-10.1077
▁takin	-10.1077
▁planning	-10.1078
▁towel	-10.1078
▁minton	-10.1079
▁coach	-10.108
▁cmon	-10.108
▁dover	-10.108
▁technically	-10.1081
▁secretary	-10.1083
▁leads	-10.1083
▁barry	-10.1084
▁embarrassed	-10.1084
▁echoing	-10.1086
▁aim	-10.1088
▁yup	-10.1089
▁spray	-10.1091
▁received	-10.1092
▁tail	-10.1093
▁ira	-10.1096
▁useless	-10.1099
▁pity	-10.1104
▁failed	-10.1111
ize	-10.1113
▁billion	-10.1117
▁stronger	-10.1121
▁sobs	-10.1142
▁buzzing	-10.1148
▁painting	-10.1148
▁filled	-10.1149
▁treated	-10.1154
▁considered	-10.1156
▁teacher	-10.1167
▁charged	-10.1169
▁chips	-10.1177
▁counts	-10.1191
▁mere	-10.1216
▁protecting	-10.1219
▁moe	-10.1227
▁med	-10.1228
▁expected	-10.1229
ni	-10.1229
▁ol	-10.1239
pe	-10.1245
▁banker	-10.1256
▁rot	-10.1262
▁faces	-10.1278
ite	-10.1279
▁gosh	-10.1279
▁tracks	-10.1279
▁col	-10.1288
▁bl	-10.1302
▁sol	-10.1322
▁pode	-10.1336
om	-10.1337
▁beep	-10.1376
▁monkey	-10.1413
▁pi	-10.1413
obby	-10.1414
▁sins	-10.1416
bs	-10.1429
▁trap	-10.1431
▁smells	-10.1504
em	-10.1523
▁pl	-10.1526
▁ze	-10.1529
berry	-10.1533
▁ended	-10.1546
cy	-10.1562
gen	-10.1563
▁comfort	-10.1585
▁wifes	-10.1589
▁borrow	-10.1597
▁pee	-10.1607
▁tra	-10.1608
▁commission	-10.1609
▁har	-10.1613
▁assume	-10.1614
▁sexual	-10.1618
▁equal	-10.1619
▁stretch	-10.162
▁crimes	-10.162
▁assure	-10.1622
▁ways	-10.1623
▁moves	-10.1624
▁gordo	-10.1627
▁ruth	-10.1631
▁becca	-10.1632
▁buffalo	-10.1632
▁catherine	-10.1632
▁committee	-10.1632
▁cypher	-10.1632
▁dhazghig	-10.1632
▁goldfarb	-10.1632
▁judgment	-10.1632
▁laeddis	-10.1632
▁leparq	-10.1632
▁liquor	-10.1632
▁patrol	-10.1632
▁purchase	-10.1632
▁response	-10.1632
▁sollozzo	-10.1632
▁extreme	-10.1632
▁indio	-10.1632
▁saving	-10.1632
▁symbol	-10.1632
▁gordie	-10.1632
▁montana	-10.1632
▁wives	-10.1632
▁ernie	-10.1632
▁rope	-10.1632
▁becoming	-10.1632
▁sauce	-10.1632
▁lisa	-10.1632
▁argue	-10.1632
▁negative	-10.1632
▁create	-10.1632
▁construction	-10.1632
▁sharon	-10.1633
▁firing	-10.1633
▁memories	-10.1633
▁identity	-10.1633
▁emotional	-10.1633
▁style	-10.1634
▁papi	-10.1634
▁booze	-10.1634
▁prince	-10.1635
▁mistress	-10.1636
▁plantation	-10.1636
▁monster	-10.1638
▁led	-10.1638
▁receiver	-10.1638
▁deny	-10.164
▁estava	-10.1642
▁colin	-10.1642
▁pole	-10.1643
▁bench	-10.1643
▁lick	-10.1643
▁cutting	-10.1643
▁quid	-10.1643
▁quote	-10.1643
▁lapd	-10.1645
▁grown	-10.1645
▁hitting	-10.1645
▁tense	-10.1646
▁describe	-10.1654
▁director	-10.1656
▁carried	-10.1657
▁delivery	-10.1661
▁hits	-10.1663
▁lifetime	-10.1676
▁bombing	-10.1679
ah	-10.1685
▁nada	-10.1686
▁screwed	-10.169
▁ne	-10.1691
▁drawing	-10.1701
▁mentioned	-10.1711
▁diet	-10.1726
▁ela	-10.1736
▁younger	-10.1742
▁counter	-10.175
▁slams	-10.1751
▁cents	-10.177
▁covered	-10.1771
▁trained	-10.178
▁bookies	-10.1794
▁knocked	-10.1797
air	-10.1806
ky	-10.1811
▁mist	-10.1826
▁note	-10.1828
▁du	-10.1833
▁dads	-10.1842
▁feelings	-10.1842
▁tool	-10.1845
▁blowing	-10.1897
▁prisoners	-10.1899
low	-10.1908
▁cares	-10.1923
▁lads	-10.1931
▁ap	-10.1931
▁tan	-10.1975
▁bum	-10.1978
▁guests	-10.1991
▁lifeguard	-10.1993
▁ba	-10.1994
▁royal	-10.1996
▁newspaper	-10.1998
▁coisa	-10.1998
▁tunnel	-10.1998
▁suitcase	-10.2002
▁mel	-10.2003
▁issue	-10.2006
▁photo	-10.2006
▁winter	-10.2007
ba	-10.2026
▁sales	-10.2043
▁maria	-10.2057
▁nut	-10.2062
▁loser	-10.2075
▁luca	-10.208
ze	-10.2112
side	-10.2116
sta	-10.2121
▁dia	-10.2156
▁dispatch	-10.2184
▁focus	-10.2187
▁au	-10.2188
▁faint	-10.2205
ria	-10.2207
▁charm	-10.2207
▁particular	-10.2208
▁it	-10.221
▁ann	-10.2218
▁commit	-10.2219
▁regard	-10.2219
▁amigo	-10.222
▁bacall	-10.222
▁benefit	-10.222
▁community	-10.222
▁companies	-10.222
▁corliss	-10.222
▁cotton	-10.222
▁creedy	-10.222
▁crucifixion	-10.222
▁dorothy	-10.222
▁exercise	-10.222
▁fantasy	-10.222
▁ferrari	-10.222
▁paddy	-10.222
▁peggy	-10.222
▁possibly	-10.222
▁professor	-10.222
▁reckon	-10.222
▁reputation	-10.222
▁revving	-10.222
▁screen	-10.222
▁surveillance	-10.222
▁tyrone	-10.222
▁vatican	-10.222
▁zsasz	-10.222
▁ghetto	-10.222
▁swiss	-10.222
▁including	-10.222
▁lean	-10.222
▁owned	-10.222
▁exciting	-10.222
▁tolan	-10.222
▁vision	-10.222
▁bounty	-10.222
▁struck	-10.222
▁championship	-10.222
▁theory	-10.222
▁kidnapped	-10.222
▁viggo	-10.222
▁brittle	-10.222
▁scumbag	-10.222
▁boris	-10.222
▁shaw	-10.222
▁basically	-10.222
▁robbie	-10.222
▁scum	-10.2221
▁martinez	-10.2221
▁franco	-10.2221
▁flip	-10.2221
▁escort	-10.2221
▁messiah	-10.2221
▁psychiatrist	-10.2221
▁owns	-10.2221
▁grandmother	-10.2221
▁gentleman	-10.2222
▁growling	-10.2222
▁giant	-10.2222
▁slim	-10.2223
▁aside	-10.2223
▁youse	-10.2223
▁role	-10.2223
▁porch	-10.2223
▁spell	-10.2223
▁alley	-10.2223
▁recently	-10.2224
▁fetch	-10.2224
▁thirty	-10.2224
▁intend	-10.2224
▁schedule	-10.2224
▁thatd	-10.2225
▁palm	-10.2225
▁facing	-10.2227
▁grandma	-10.2228
▁deke	-10.2231
▁discovered	-10.2231
▁embarrassing	-10.2231
▁safety	-10.2232
ight	-10.2232
▁johnson	-10.2233
▁naturally	-10.2236
▁whispering	-10.2244
▁anne	-10.2251
▁roberto	-10.2254
▁anti	-10.2254
ei	-10.2258
▁prize	-10.2259
▁registered	-10.2264
▁thin	-10.2267
▁based	-10.2269
▁foundation	-10.2276
▁hip	-10.2277
▁fl	-10.228
▁blessing	-10.2281
▁washed	-10.2293
▁toe	-10.2294
▁stoned	-10.2295
▁fairy	-10.2296
▁tent	-10.23
▁bow	-10.2306
▁taiking	-10.2306
▁ou	-10.2308
ade	-10.2311
▁phones	-10.2312
▁towards	-10.232
▁jingles	-10.232
▁patients	-10.2328
▁rape	-10.2334
▁makeup	-10.2338
▁reported	-10.2345
▁highly	-10.2351
▁tryin	-10.2362
▁nation	-10.2369
▁fishing	-10.2369
▁pile	-10.2371
end	-10.2374
ca	-10.2379
▁marian	-10.2391
▁appears	-10.2427
▁sides	-10.2471
▁image	-10.2477
ging	-10.2485
per	-10.2487
▁meaning	-10.2494
▁trucks	-10.2521
▁cases	-10.2522
▁strangers	-10.2526
▁rolling	-10.253
▁members	-10.2534
▁beating	-10.2542
▁fuckers	-10.2557
▁gene	-10.2559
▁marines	-10.2562
▁cu	-10.2564
ley	-10.2581
▁finding	-10.2592
▁appear	-10.2594
▁servant	-10.2618
▁fontaine	-10.2626
▁gook	-10.2627
▁clown	-10.2628
▁doll	-10.2629
▁shotgun	-10.2631
▁buck	-10.2633
▁france	-10.2633
▁apple	-10.2634
▁bug	-10.264
▁min	-10.2642
▁coin	-10.2649
▁ja	-10.2676
▁jam	-10.2683
ee	-10.2685
▁everyones	-10.2734
▁interests	-10.2757
ak	-10.2761
▁solid	-10.2778
▁vehicles	-10.2781
ated	-10.2789
▁me	-10.2791
▁bets	-10.2796
▁trees	-10.28
wood	-10.2804
▁mob	-10.281
▁smooth	-10.2813
▁claim	-10.2818
▁wrap	-10.2819
▁grant	-10.2822
▁wipe	-10.2824
▁tow	-10.2826
▁arrive	-10.2829
▁warn	-10.2831
▁violent	-10.2832
▁mix	-10.2833
▁debora	-10.2844
▁kara	-10.2844
den	-10.2844
▁transfer	-10.2845
▁barzini	-10.2845
▁brilliant	-10.2845
▁budapest	-10.2845
▁circumstances	-10.2845
▁couid	-10.2845
▁district	-10.2845
▁division	-10.2845
▁easily	-10.2845
▁epps	-10.2845
▁extraordinary	-10.2845
▁financial	-10.2845
▁kumar	-10.2845
▁macready	-10.2845
▁mirror	-10.2845
▁ocean	-10.2845
▁procedure	-10.2845
▁sempre	-10.2845
▁speech	-10.2845
▁superhero	-10.2845
▁tragedy	-10.2845
▁vargas	-10.2845
▁volunteer	-10.2845
▁carolyn	-10.2845
▁emperor	-10.2845
▁scrap	-10.2845
▁spoon	-10.2845
▁tattoo	-10.2845
▁knowledge	-10.2845
▁laura	-10.2845
▁iove	-10.2845
▁thick	-10.2845
▁planned	-10.2845
▁jones	-10.2845
▁snap	-10.2845
▁accent	-10.2845
▁poiice	-10.2845
▁sample	-10.2845
▁pathetic	-10.2845
▁root	-10.2845
▁november	-10.2845
▁burke	-10.2846
▁pride	-10.2846
▁ransom	-10.2846
▁cabinet	-10.2846
▁candyland	-10.2846
▁internet	-10.2846
▁ramos	-10.2846
▁massage	-10.2846
▁reaction	-10.2846
▁legend	-10.2846
▁loyalty	-10.2847
▁huntley	-10.2847
▁avi	-10.2847
▁madden	-10.2847
▁edge	-10.2848
▁salad	-10.2848
▁shelley	-10.2848
▁clip	-10.2848
▁jealous	-10.2849
▁chew	-10.285
▁serk	-10.285
▁handsome	-10.285
▁tim	-10.2852
▁bored	-10.2852
▁text	-10.2852
▁kidnapping	-10.2852
▁nasty	-10.2852
▁thou	-10.2852
▁sword	-10.2856
▁edie	-10.2857
▁lane	-10.2859
▁betty	-10.2861
▁gray	-10.2862
▁visitor	-10.2863
▁bound	-10.2864
▁agora	-10.2864
▁victory	-10.2865
▁unable	-10.2866
▁denied	-10.2869
▁physical	-10.2871
▁olive	-10.2872
▁actor	-10.2873
▁bleeding	-10.2873
▁operate	-10.2875
▁reai	-10.2875
related	-10.2876
▁riot	-10.2878
▁mixed	-10.2878
▁warned	-10.2878
▁squeeze	-10.2886
▁charming	-10.2889
▁niggas	-10.2891
shore	-10.2893
▁er	-10.2905
▁writer	-10.2906
▁nest	-10.2914
▁sheets	-10.2923
▁planet	-10.2931
▁prime	-10.2933
▁fu	-10.2942
▁jumped	-10.295
▁gra	-10.2952
ada	-10.2967
▁ao	-10.2967
▁roses	-10.2967
▁su	-10.2988
▁fully	-10.3
▁events	-10.3009
▁laying	-10.3024
▁remembered	-10.3024
ns	-10.3033
▁spending	-10.3036
our	-10.3043
▁reports	-10.3053
▁drag	-10.3053
pl	-10.3076
▁smit	-10.3101
▁mistakes	-10.3131
ndo	-10.3154
ock	-10.3166
▁bur	-10.323
ities	-10.324
▁steps	-10.3246
▁char	-10.3249
▁sco	-10.3255
▁print	-10.3259
ill	-10.3264
▁ac	-10.3266
▁cheer	-10.3268
▁banks	-10.3285
uc	-10.3287
▁deposit	-10.3289
▁intention	-10.3291
▁twin	-10.3293
▁bond	-10.3296
ster	-10.3305
ball	-10.3316
▁corpse	-10.3322
▁damned	-10.3338
▁scar	-10.334
▁murderer	-10.3354
▁ele	-10.3367
iest	-10.3372
▁rod	-10.3372
▁bent	-10.3383
▁organ	-10.3413
▁shock	-10.3434
▁ir	-10.3439
board	-10.3458
▁queens	-10.3467
▁leak	-10.3467
za	-10.3469
▁respond	-10.347
ph	-10.3471
▁bowl	-10.3475
▁twist	-10.3478
what	-10.348
▁mag	-10.3481
▁receive	-10.3483
▁separate	-10.3489
▁torture	-10.3491
▁pleased	-10.3495
▁brief	-10.3497
▁desperate	-10.3498
▁gamble	-10.3502
▁madam	-10.3504
▁yi	-10.3508
ville	-10.3509
▁civil	-10.351
▁effect	-10.3511
▁toot	-10.3511
▁agatha	-10.3512
▁avenue	-10.3512
▁belfast	-10.3512
▁campaign	-10.3512
▁caretaker	-10.3512
▁collignon	-10.3512
▁fenster	-10.3512
▁furniture	-10.3512
▁garnett	-10.3512
▁guinea	-10.3512
▁holiday	-10.3512
▁inhales	-10.3512
▁laundry	-10.3512
▁mafia	-10.3512
▁medium	-10.3512
▁offense	-10.3512
▁peopie	-10.3512
▁quinn	-10.3512
▁similar	-10.3512
▁skull	-10.3512
▁suicide	-10.3512
▁tangiers	-10.3512
▁vaughn	-10.3512
▁whistling	-10.3512
▁byebye	-10.3512
▁palace	-10.3512
▁recruit	-10.3512
▁omar	-10.3512
▁demany	-10.3512
▁sutler	-10.3512
▁willard	-10.3512
▁daily	-10.3512
▁whiskey	-10.3512
▁mildred	-10.3512
▁pearson	-10.3512
▁cocaine	-10.3512
▁practical	-10.3512
▁opposite	-10.3512
▁ordinary	-10.3512
▁bacon	-10.3512
▁library	-10.3512
▁lalala	-10.3512
▁stabbed	-10.3512
▁temptation	-10.3512
▁hmong	-10.3512
▁medicine	-10.3512
▁washington	-10.3512
▁studio	-10.3512
▁option	-10.3512
▁superstar	-10.3512
▁jason	-10.3512
▁birth	-10.3512
▁description	-10.3513
▁indian	-10.3513
▁defendant	-10.3513
▁wagon	-10.3513
▁basic	-10.3513
▁childhood	-10.3513
▁aggressive	-10.3513
▁boogie	-10.3514
▁bible	-10.3514
▁secure	-10.3514
▁deborah	-10.3514
▁potatoes	-10.3514
▁spill	-10.3515
▁dna	-10.3515
▁fever	-10.3516
▁choke	-10.3516
▁possibility	-10.3516
▁willie	-10.3516
▁iet	-10.3517
▁barish	-10.3517
▁flag	-10.3517
▁treatment	-10.3517
▁fuss	-10.3517
▁pitch	-10.3518
▁apply	-10.3519
▁caine	-10.3521
▁cane	-10.3523
erald	-10.3525
▁deck	-10.3528
▁singer	-10.3529
▁plank	-10.3529
▁zoo	-10.3532
▁mia	-10.3533
▁linda	-10.3533
▁germans	-10.3534
▁passion	-10.3534
▁whimpers	-10.3535
▁former	-10.3536
▁properly	-10.3538
▁sandy	-10.354
▁exclaims	-10.355
▁movement	-10.3554
▁tend	-10.3555
cl	-10.3557
▁stacks	-10.3565
▁finest	-10.3569
ber	-10.3571
▁commander	-10.3577
▁whoops	-10.3578
▁teamsters	-10.358
▁lower	-10.3584
▁dumped	-10.3586
▁lack	-10.3589
▁busted	-10.359
▁belly	-10.3597
▁meantime	-10.3598
▁pai	-10.36
▁dos	-10.3603
rian	-10.3605
▁ti	-10.3606
▁dings	-10.3609
▁leaves	-10.3609
▁clouds	-10.361
▁dime	-10.3614
▁walkin	-10.363
▁fields	-10.3637
▁pushed	-10.364
▁sucker	-10.3649
▁burns	-10.3659
▁childs	-10.3665
▁mc	-10.3666
▁des	-10.3676
▁pet	-10.3679
▁stones	-10.3699
win	-10.37
▁neighbors	-10.3702
▁likely	-10.3708
▁kissed	-10.3709
▁backup	-10.3715
▁shouts	-10.3718
▁here	-10.372
▁val	-10.3723
▁mei	-10.3726
▁ru	-10.3727
▁pu	-10.3729
▁bugs	-10.373
▁mon	-10.3731
▁lit	-10.3733
ez	-10.3736
▁shotguns	-10.3748
▁toes	-10.3766
▁whi	-10.377
ther	-10.3777
▁nails	-10.3796
▁fort	-10.38
▁messages	-10.3803
▁hid	-10.3807
▁counting	-10.3813
hi	-10.3819
▁marks	-10.3856
da	-10.3866
ik	-10.3871
▁tears	-10.3873
▁jokes	-10.3943
▁dealers	-10.3945
▁ai	-10.3966
▁tre	-10.3971
▁shout	-10.3972
▁shite	-10.3983
▁hurting	-10.3984
▁ate	-10.399
ib	-10.3994
▁tiger	-10.3999
▁uniform	-10.4001
▁pikey	-10.4005
▁string	-10.4006
▁sniper	-10.4007
▁result	-10.4009
▁broad	-10.4013
▁seats	-10.4014
▁chuckle	-10.4023
▁songs	-10.4033
▁sei	-10.4037
ame	-10.4047
▁debts	-10.4075
▁minds	-10.408
▁ke	-10.4087
ora	-10.4092
▁tricks	-10.4108
▁reasons	-10.4111
▁trauma	-10.4132
▁oi	-10.4144
▁suffer	-10.4152
work	-10.4152
▁cowboys	-10.4154
▁don	-10.4156
▁cast	-10.4171
▁spit	-10.4175
foot	-10.4177
▁blond	-10.4185
right	-10.4187
▁ye	-10.4187
▁hundreds	-10.4188
▁smash	-10.4191
▁noon	-10.4193
▁whack	-10.4195
▁success	-10.4197
▁curse	-10.4205
away	-10.4207
▁retire	-10.4209
▁urgent	-10.4212
ram	-10.4215
▁unlike	-10.4215
▁weigh	-10.4219
▁sittin	-10.4223
▁candy	-10.4224
▁loyal	-10.4224
▁motherfuckin	-10.4225
▁hump	-10.4226
▁alessandra	-10.4226
▁alpha	-10.4226
▁appeal	-10.4226
▁arbogast	-10.4226
▁bureau	-10.4226
▁catholic	-10.4226
▁century	-10.4226
▁corporal	-10.4226
▁courage	-10.4226
▁eagle	-10.4226
▁female	-10.4226
▁harvard	-10.4226
▁hazen	-10.4226
▁initial	-10.4226
▁invisible	-10.4226
▁karras	-10.4226
▁lardass	-10.4226
▁leprechaun	-10.4226
▁mechanic	-10.4226
▁meredith	-10.4226
▁moustafa	-10.4226
▁multiple	-10.4226
▁nunca	-10.4226
▁polish	-10.4226
▁prevent	-10.4226
▁sahib	-10.4226
▁satisfaction	-10.4226
▁shrink	-10.4226
▁stereo	-10.4226
▁stiff	-10.4226
▁sweeney	-10.4226
▁switzerland	-10.4226
▁tattaglia	-10.4226
▁torrance	-10.4226
▁wednesday	-10.4226
▁yourseif	-10.4226
▁caravan	-10.4226
▁courtesan	-10.4226
▁finch	-10.4226
▁innit	-10.4226
▁headquarters	-10.4226
▁kyle	-10.4226
▁december	-10.4226
▁durden	-10.4226
▁donkey	-10.4226
▁pursuit	-10.4226
▁alexander	-10.4226
▁entertainment	-10.4226
▁solando	-10.4226
▁swimming	-10.4226
▁cooperation	-10.4227
▁greek	-10.4227
▁pablo	-10.4227
▁ofthe	-10.4227
▁incoming	-10.4227
▁arab	-10.4227
▁glory	-10.4227
▁chaos	-10.4227
▁slipped	-10.4227
▁bush	-10.4227
▁earl	-10.4227
▁grabbed	-10.4227
▁award	-10.4228
▁julie	-10.4228
▁toid	-10.4228
▁fuel	-10.4228
▁isto	-10.4228
▁geek	-10.4228
▁kowalski	-10.4228
▁valuable	-10.4228
▁thoughts	-10.4228
▁fence	-10.4228
▁naughty	-10.4228
▁batman	-10.4228
▁quando	-10.4228
▁interrogation	-10.4228
▁complicated	-10.4229
▁whale	-10.4229
▁guardsmen	-10.4229
▁southern	-10.423
▁blondie	-10.423
▁fraud	-10.423
▁facility	-10.423
▁jurisdiction	-10.4231
▁sensitive	-10.4231
▁roy	-10.4231
▁brass	-10.4231
▁chat	-10.4232
nior	-10.4232
▁nearby	-10.4232
▁gordon	-10.4233
▁wiseguys	-10.4235
▁mesm	-10.4236
▁organized	-10.4237
▁gain	-10.4237
▁trooper	-10.4238
▁roads	-10.4239
▁obey	-10.4239
▁homework	-10.4239
▁task	-10.4241
▁digging	-10.4241
▁spin	-10.4241
▁nickel	-10.4242
▁bog	-10.4243
▁lara	-10.4243
▁butter	-10.4244
▁forty	-10.4244
▁false	-10.4244
▁scary	-10.4245
▁down	-10.4245
through	-10.4247
▁fuckedup	-10.4247
▁connected	-10.4249
▁instructions	-10.4251
▁owl	-10.4252
▁managed	-10.4256
▁tiny	-10.4257
▁sail	-10.4257
▁suffered	-10.4259
▁blonde	-10.4264
▁passes	-10.427
▁created	-10.4271
▁normally	-10.4272
▁celtics	-10.4283
▁campo	-10.4286
▁inch	-10.4287
▁jol	-10.4288
▁hood	-10.4291
▁reality	-10.4292
ab	-10.4296
▁tri	-10.4298
▁challenge	-10.4302
▁realized	-10.4319
▁bump	-10.4325
▁sucking	-10.4341
▁considering	-10.4362
▁tr	-10.4368
▁lo	-10.4371
▁leading	-10.4372
▁victoria	-10.4376
▁bra	-10.4381
▁watches	-10.44
▁mountains	-10.4409
▁cabin	-10.4428
▁manners	-10.4431
▁kicking	-10.4433
▁costs	-10.4459
▁cia	-10.446
ap	-10.4473
▁mini	-10.4475
▁oni	-10.4485
▁lee	-10.4492
▁engineer	-10.4508
▁ey	-10.4509
spite	-10.4512
▁odds	-10.453
▁gu	-10.4534
zz	-10.4541
▁speakers	-10.4571
▁z	-10.4577
▁ros	-10.4605
▁not	-10.4659
▁touching	-10.4683
▁ship	-10.469
▁dea	-10.4691
▁ob	-10.4693
▁caused	-10.4709
▁represent	-10.4727
▁fal	-10.4729
▁term	-10.4735
▁barn	-10.4736
die	-10.4737
▁possession	-10.4765
▁spider	-10.4765
▁circle	-10.4771
▁individual	-10.4777
▁neighbor	-10.4779
▁services	-10.4789
ical	-10.4792
▁owes	-10.4796
ay	-10.4807
ern	-10.4809
ney	-10.4821
▁dist	-10.4825
▁gal	-10.4834
▁rap	-10.4838
▁manner	-10.4877
▁op	-10.4878
▁the	-10.4898
▁dim	-10.4898
▁mill	-10.4903
▁checking	-10.491
▁sis	-10.4916
▁photograph	-10.4924
▁of	-10.4929
▁tag	-10.4935
▁matters	-10.4946
▁crown	-10.4952
▁scratch	-10.4952
▁shove	-10.4955
ors	-10.4957
▁stress	-10.4961
ence	-10.4963
her	-10.4968
pin	-10.4971
▁jai	-10.4974
▁invite	-10.4975
ations	-10.4975
▁ant	-10.4975
ized	-10.4981
▁iron	-10.4981
▁unfortunate	-10.4983
▁heii	-10.4983
▁spa	-10.499
▁material	-10.4995
▁resist	-10.4995
▁ambush	-10.4995
▁brooklyn	-10.4995
▁clattering	-10.4995
▁cortez	-10.4995
▁deputy	-10.4995
▁destination	-10.4995
▁hidetora	-10.4995
▁immobiliare	-10.4995
▁investigating	-10.4995
▁kingdom	-10.4995
▁oklahoma	-10.4995
▁oracle	-10.4995
▁phase	-10.4995
▁piace	-10.4995
▁polite	-10.4995
▁popular	-10.4995
▁previous	-10.4995
▁prostitute	-10.4995
▁rodolfo	-10.4995
▁spleen	-10.4995
▁sunshine	-10.4995
▁tournament	-10.4995
▁underwear	-10.4995
▁vengeance	-10.4995
▁article	-10.4995
▁madeleine	-10.4995
▁spud	-10.4995
▁widow	-10.4995
▁hysterical	-10.4995
▁protest	-10.4995
▁robbing	-10.4995
▁giggling	-10.4995
▁wasting	-10.4995
▁conflict	-10.4995
▁todd	-10.4995
▁freezing	-10.4995
▁meyer	-10.4995
▁typical	-10.4995
▁chacon	-10.4995
▁chinese	-10.4995
▁defence	-10.4995
▁denni	-10.4995
▁entrance	-10.4995
▁temporary	-10.4995
▁zeena	-10.4996
▁village	-10.4996
▁adult	-10.4996
▁granny	-10.4996
▁straw	-10.4996
▁addition	-10.4996
▁chanting	-10.4996
▁havana	-10.4996
▁valley	-10.4996
▁flew	-10.4996
▁loop	-10.4996
▁revs	-10.4996
▁serge	-10.4996
▁venice	-10.4996
▁delta	-10.4996
▁gamma	-10.4996
▁puff	-10.4996
▁loving	-10.4996
▁begbie	-10.4996
▁trapped	-10.4996
▁bingo	-10.4996
▁combat	-10.4996
▁jiro	-10.4996
▁manuel	-10.4996
▁pierce	-10.4996
▁cheque	-10.4996
▁impression	-10.4996
▁tuco	-10.4996
▁arrangement	-10.4996
▁shave	-10.4996
▁section	-10.4996
▁steel	-10.4997
▁neat	-10.4997
▁todo	-10.4997
▁harbor	-10.4997
▁frozen	-10.4997
▁bucket	-10.4997
▁behavior	-10.4997
▁beloved	-10.4997
▁cripple	-10.4997
▁dough	-10.4997
▁diaz	-10.4998
▁yessir	-10.4998
▁terry	-10.4998
▁moral	-10.4998
▁burst	-10.4998
▁activity	-10.4999
▁empire	-10.4999
▁samson	-10.5
▁inner	-10.5
▁labor	-10.5
▁unload	-10.5
▁alguma	-10.5
▁wore	-10.5
▁culture	-10.5001
▁snitch	-10.5001
▁math	-10.5001
▁chairman	-10.5001
▁wrapped	-10.5001
▁soup	-10.5001
▁haha	-10.5002
▁gem	-10.5002
▁rumbling	-10.5004
▁guide	-10.5004
▁sammy	-10.5004
▁chocolate	-10.5004
▁express	-10.5004
▁convicted	-10.5005
▁impressed	-10.5005
▁personality	-10.5005
▁approve	-10.5006
▁halfway	-10.5006
▁creepy	-10.5007
▁rubber	-10.5007
▁factory	-10.5008
▁grateful	-10.5008
▁setting	-10.5008
▁highness	-10.501
▁spoken	-10.501
▁stutter	-10.501
▁stable	-10.501
▁whooping	-10.5011
▁ridge	-10.5011
▁gap	-10.5011
▁powder	-10.5011
▁angle	-10.5011
▁ciao	-10.5011
▁moaning	-10.5012
▁frightened	-10.5013
load	-10.5014
▁betrayed	-10.5018
▁tales	-10.502
▁betsy	-10.5021
▁sharply	-10.5022
▁status	-10.5023
▁mistaken	-10.5023
▁threatened	-10.5026
▁commissioner	-10.5028
▁dana	-10.5028
▁successful	-10.5028
▁understanding	-10.5029
▁this	-10.5029
▁tone	-10.5031
▁mud	-10.5032
▁lawn	-10.5032
uit	-10.5033
▁healthy	-10.5033
▁hire	-10.5036
▁shovel	-10.5036
▁vow	-10.5042
▁deeper	-10.5049
▁erase	-10.5051
▁tate	-10.5052
▁remo	-10.5053
▁dial	-10.5056
▁raped	-10.5057
▁shares	-10.5061
▁redhead	-10.5071
▁politicians	-10.5075
▁shitting	-10.5075
▁delivered	-10.5077
▁painted	-10.5082
hole	-10.5088
▁painful	-10.5097
▁breaks	-10.5105
sse	-10.5126
▁lighter	-10.5126
▁porqu	-10.5127
▁gut	-10.5129
▁cracking	-10.5142
▁elvis	-10.5146
▁testing	-10.5149
▁je	-10.515
▁honored	-10.516
▁mau	-10.5169
▁sniffs	-10.5181
▁pan	-10.5187
▁messed	-10.519
▁loans	-10.52
▁souls	-10.5214
▁rode	-10.5222
▁results	-10.5235
▁hunting	-10.5239
▁marker	-10.5253
▁fuckup	-10.5264
▁naive	-10.5268
▁boxing	-10.5269
▁clowns	-10.5271
▁apples	-10.5271
▁deals	-10.5303
▁content	-10.5306
▁cave	-10.5308
▁dodge	-10.5329
gra	-10.5329
▁cor	-10.5336
ten	-10.535
vel	-10.5355
bag	-10.537
onde	-10.5378
▁on	-10.5381
▁workin	-10.5397
▁nd	-10.543
▁signs	-10.5438
ping	-10.5446
▁hop	-10.5466
▁sn	-10.5483
▁lines	-10.5489
tre	-10.549
▁popp	-10.5499
▁bars	-10.5502
▁gr	-10.5504
▁badly	-10.5519
unk	-10.5525
▁ficar	-10.5541
▁loan	-10.5577
▁dean	-10.5589
▁bat	-10.5593
▁experiment	-10.56
▁demand	-10.5601
▁beside	-10.5618
▁drawer	-10.5634
ose	-10.5647
▁fre	-10.565
▁stands	-10.565
▁bookie	-10.5651
▁blocks	-10.5676
▁listened	-10.5682
tal	-10.5683
ison	-10.5686
▁begins	-10.5693
point	-10.5699
▁auto	-10.5701
▁rub	-10.5705
bit	-10.573
▁surf	-10.5732
▁waited	-10.5763
ov	-10.5765
field	-10.5765
▁esta	-10.5767
▁rep	-10.5768
▁threaten	-10.577
▁goddamned	-10.5782
▁vo	-10.5784
tempo	-10.5784
▁pump	-10.5785
well	-10.5785
▁crawl	-10.5785
tu	-10.5788
▁shooter	-10.579
▁drill	-10.5791
▁occur	-10.5792
▁swallow	-10.5792
ably	-10.5795
▁raid	-10.5795
▁thr	-10.58
▁hustle	-10.5802
▁corn	-10.5803
▁conditions	-10.5804
▁replace	-10.5809
▁narc	-10.5815
▁swing	-10.5816
▁actual	-10.5816
▁admire	-10.5819
▁greed	-10.5825
▁attend	-10.5827
▁cancel	-10.5827
▁plug	-10.5828
▁drama	-10.5828
▁basket	-10.5829
▁mount	-10.5829
▁altobello	-10.5829
▁applause	-10.5829
▁beneath	-10.5829
▁brush	-10.5829
▁concentrate	-10.5829
▁connor	-10.5829
▁conspiracy	-10.5829
▁depois	-10.5829
▁dignam	-10.5829
▁dmitri	-10.5829
▁genuine	-10.5829
▁instance	-10.5829
▁intelligent	-10.5829
▁interfere	-10.5829
▁jonathan	-10.5829
▁lchimonji	-10.5829
▁lundegaard	-10.5829
▁marijuana	-10.5829
▁mierzwiak	-10.5829
▁motorcycle	-10.5829
▁pentangeli	-10.5829
▁phoenix	-10.5829
▁politics	-10.5829
▁recognise	-10.5829
▁review	-10.5829
▁rocco	-10.5829
▁scattered	-10.5829
▁someday	-10.5829
▁stroke	-10.5829
▁struggling	-10.5829
▁subpoena	-10.5829
▁succeed	-10.5829
▁talvez	-10.5829
▁theater	-10.5829
▁theft	-10.5829
▁thumb	-10.5829
▁traitor	-10.5829
▁actress	-10.5829
▁ballister	-10.5829
▁paradise	-10.5829
▁random	-10.5829
▁reverse	-10.5829
▁warehouse	-10.5829
▁iisten	-10.5829
▁santino	-10.5829
▁fond	-10.5829
▁hyman	-10.5829
▁negotiate	-10.5829
▁proposition	-10.5829
▁advisor	-10.5829
▁toast	-10.5829
▁ifyou	-10.5829
▁modern	-10.5829
▁violation	-10.5829
▁mysteri	-10.5829
▁drain	-10.5829
▁reeves	-10.5829
▁rossi	-10.5829
▁midget	-10.5829
▁smack	-10.5829
▁shook	-10.5829
▁flare	-10.5829
▁levin	-10.5829
▁twentyfive	-10.5829
▁jazz	-10.5829
▁bald	-10.5829
▁governor	-10.5829
▁patsey	-10.5829
▁stash	-10.5829
▁tracy	-10.5829
▁foul	-10.5829
▁sicilian	-10.5829
▁conduct	-10.5829
▁technology	-10.5829
▁operating	-10.5829
▁specifically	-10.5829
▁tech	-10.583
▁performance	-10.583
▁kobe	-10.583
▁slice	-10.583
▁chasing	-10.583
▁grade	-10.583
▁prosecutor	-10.583
▁toad	-10.583
▁tourist	-10.5831
▁blanket	-10.5831
▁selfish	-10.5831
▁corporation	-10.5831
▁management	-10.5831
▁tooth	-10.5831
▁media	-10.5831
▁standard	-10.5831
▁terribly	-10.5831
▁hagen	-10.5831
▁attractive	-10.5831
▁silver	-10.5832
▁deni	-10.5832
▁booth	-10.5833
▁youth	-10.5833
▁assigned	-10.5833
▁liberty	-10.5833
▁pub	-10.5833
▁deaf	-10.5834
▁dj	-10.5834
▁objection	-10.5834
▁charity	-10.5834
▁becky	-10.5835
▁fries	-10.5835
▁gourd	-10.5835
▁bribe	-10.5836
▁legitimate	-10.5836
▁tapping	-10.5838
▁spain	-10.5838
▁brat	-10.5839
▁pancakes	-10.5839
▁bout	-10.584
▁rig	-10.584
▁punish	-10.5841
▁defend	-10.5848
▁retarded	-10.5848
▁fried	-10.5852
▁emma	-10.5853
▁matches	-10.5853
▁intern	-10.5854
▁norm	-10.5857
▁flames	-10.5858
▁complaint	-10.5858
▁burnt	-10.5859
▁sniffing	-10.5867
▁suffering	-10.5877
▁carol	-10.5879
▁noone	-10.588
▁escaped	-10.588
▁timing	-10.5884
▁ending	-10.5885
▁lris	-10.5888
▁pawn	-10.5891
fire	-10.5895
▁troops	-10.5897
▁introduced	-10.5902
▁lungs	-10.5915
ory	-10.5932
▁shared	-10.5934
▁requires	-10.5935
▁oid	-10.5936
▁marys	-10.5937
▁vai	-10.5942
▁staring	-10.5945
nite	-10.5947
▁pork	-10.5953
▁employees	-10.5954
▁cracked	-10.5956
▁illness	-10.5966
▁sticky	-10.5977
▁kills	-10.5981
▁boot	-10.5991
▁candles	-10.5993
▁lips	-10.5993
gue	-10.6002
ung	-10.6002
▁tons	-10.6012
▁blades	-10.6012
▁sl	-10.6017
▁joely	-10.6021
▁wondered	-10.6024
ug	-10.6027
▁wh	-10.6031
▁italians	-10.6031
▁ent	-10.6036
▁boots	-10.6045
▁tellin	-10.605
▁fund	-10.6052
fore	-10.6058
▁tu	-10.6061
▁bid	-10.6064
▁disse	-10.6079
op	-10.6079
abie	-10.6097
▁chen	-10.6098
▁powers	-10.6108
▁casinos	-10.6108
▁classic	-10.611
▁prints	-10.6111
▁millions	-10.6115
▁offering	-10.6134
com	-10.6142
▁cent	-10.6145
ando	-10.6148
▁ven	-10.6149
▁ty	-10.6153
▁sc	-10.6167
▁sch	-10.6181
▁franky	-10.6189
▁und	-10.6201
ath	-10.622
ries	-10.6223
▁sets	-10.6224
▁rounds	-10.6243
▁waves	-10.6249
▁vin	-10.625
▁wi	-10.6259
▁costellos	-10.6268
jo	-10.628
▁fo	-10.6281
▁ni	-10.6282
▁signor	-10.6287
▁dip	-10.6298
all	-10.6299
rio	-10.6322
▁stays	-10.634
▁lovers	-10.6344
▁chances	-10.636
▁clubs	-10.6371
▁qu	-10.6379
ins	-10.6397
▁whores	-10.6406
▁af	-10.6424
▁lap	-10.6437
▁computers	-10.6448
▁pays	-10.6464
▁mat	-10.6466
▁et	-10.647
▁grounds	-10.6478
▁sniff	-10.648
▁rag	-10.6488
▁custom	-10.6492
▁murders	-10.6492
ct	-10.6501
▁nerve	-10.651
▁document	-10.651
▁superior	-10.6511
▁bodyguard	-10.6515
▁cri	-10.6517
▁barrel	-10.6519
tory	-10.6523
ido	-10.6533
▁butcher	-10.6535
▁mor	-10.6557
▁gen	-10.658
ub	-10.6589
orted	-10.6592
▁environment	-10.6601
▁knocks	-10.6609
▁wheels	-10.6611
▁hug	-10.6623
fuck	-10.6638
▁assassin	-10.6662
▁ski	-10.6663
▁par	-10.6665
▁design	-10.6669
▁continu	-10.6678
▁surely	-10.6682
▁meter	-10.6687
▁wr	-10.669
▁inform	-10.669
▁climb	-10.6693
▁shatter	-10.6693
▁accounts	-10.6693
▁disturb	-10.6693
▁jeff	-10.6694
yard	-10.6705
▁confirm	-10.6706
▁bleed	-10.6709
▁trail	-10.6712
▁log	-10.6713
▁marty	-10.6715
▁arrange	-10.6715
▁inter	-10.672
▁doug	-10.6721
▁prop	-10.6721
▁guilt	-10.6721
▁trans	-10.6724
▁immediate	-10.6725
▁handed	-10.6725
▁grin	-10.6726
▁recommend	-10.6732
▁foreign	-10.6734
▁movin	-10.6734
▁pedro	-10.6736
▁gentle	-10.6737
▁argument	-10.6738
▁arguing	-10.6738
▁ayabe	-10.6738
▁bartender	-10.6738
▁behave	-10.6738
▁carlisle	-10.6738
▁catherlne	-10.6738
▁cemetery	-10.6738
▁conclusion	-10.6738
▁consequences	-10.6738
▁continental	-10.6738
▁crease	-10.6738
▁disease	-10.6738
▁domenico	-10.6738
▁embrace	-10.6738
▁envelope	-10.6738
▁eternal	-10.6738
▁expand	-10.6738
▁fashion	-10.6738
▁fragile	-10.6738
▁happiness	-10.6738
▁immunity	-10.6738
▁llewelyn	-10.6738
▁lopez	-10.6738
▁ludwig	-10.6738
▁lunatic	-10.6738
▁macneil	-10.6738
▁melissa	-10.6738
▁mortgage	-10.6738
▁mystery	-10.6738
▁narcotics	-10.6738
▁pessoa	-10.6738
▁pimp	-10.6738
▁randall	-10.6738
▁roach	-10.6738
▁science	-10.6738
▁shawshank	-10.6738
▁storage	-10.6738
▁sunrise	-10.6738
▁surgeon	-10.6738
▁taylor	-10.6738
▁testimony	-10.6738
▁trousers	-10.6738
▁underground	-10.6738
▁underneath	-10.6738
▁unusual	-10.6738
▁wladek	-10.6738
▁yelps	-10.6738
▁bugger	-10.6738
▁lewis	-10.6738
▁mayhem	-10.6738
▁struggle	-10.6738
▁yacht	-10.6738
▁brower	-10.6738
▁collins	-10.6738
▁drew	-10.6738
▁iife	-10.6738
▁quentin	-10.6738
▁wholl	-10.6738
▁application	-10.6738
▁ashamed	-10.6738
▁campsite	-10.6738
▁stomp	-10.6738
▁crystal	-10.6738
▁jacob	-10.6738
▁midnight	-10.6738
▁fanucci	-10.6738
▁fisk	-10.6738
▁sweep	-10.6738
▁shaking	-10.6738
▁plague	-10.6738
▁errol	-10.6738
▁anxious	-10.6738
▁attitude	-10.6738
▁saddle	-10.6738
▁bamba	-10.6738
▁arsehole	-10.6738
▁network	-10.6738
▁imagination	-10.6738
▁richardson	-10.6738
▁misery	-10.6738
▁fridge	-10.6738
▁ferry	-10.6738
▁bracelet	-10.6738
▁judea	-10.6738
▁investment	-10.6738
▁snowball	-10.6738
▁junior	-10.6738
▁donny	-10.6739
▁certificate	-10.6739
▁motor	-10.6739
▁sheeran	-10.6739
▁wrist	-10.6739
▁burnham	-10.6739
▁bonnie	-10.6739
▁chapter	-10.6739
▁glen	-10.6739
▁nod	-10.6739
▁punishment	-10.6739
▁retirement	-10.6739
▁portland	-10.6739
▁luis	-10.6739
▁basis	-10.674
▁costume	-10.674
▁shep	-10.674
▁drank	-10.674
▁joseph	-10.674
▁revolution	-10.674
▁murphy	-10.674
▁territory	-10.674
▁nino	-10.674
▁adam	-10.6741
▁steam	-10.6741
▁condom	-10.6741
▁latin	-10.6741
▁swell	-10.6742
▁wing	-10.6743
▁darn	-10.6743
▁aiden	-10.6743
▁bandit	-10.6743
▁comb	-10.6745
▁advised	-10.6745
▁righteous	-10.6745
▁touchdown	-10.6746
▁hog	-10.6746
▁darkness	-10.6746
▁fazer	-10.6746
▁hideout	-10.6746
▁inches	-10.6747
▁chosen	-10.6747
▁freeway	-10.6749
▁mint	-10.6749
▁series	-10.675
▁clamp	-10.675
▁loom	-10.675
▁rocket	-10.6751
▁stepped	-10.6752
▁uhoh	-10.6753
▁momma	-10.6753
▁dougie	-10.6754
▁link	-10.6754
▁spy	-10.6756
▁hose	-10.6756
▁statie	-10.6756
▁taxes	-10.6756
▁bueno	-10.6757
▁discussion	-10.6757
▁philly	-10.676
▁madame	-10.6761
wait	-10.6762
▁sum	-10.6764
▁jay	-10.6766
▁cured	-10.6769
▁scotty	-10.677
▁eve	-10.677
▁informed	-10.6771
▁shithole	-10.6773
▁liver	-10.6773
▁robin	-10.6775
▁backyard	-10.6777
▁goodlooking	-10.6779
▁divorced	-10.6781
▁sew	-10.6781
▁copper	-10.6782
run	-10.6783
▁threatening	-10.6786
▁missus	-10.6786
▁tracey	-10.6786
▁chin	-10.6788
room	-10.6788
▁explosives	-10.6791
ester	-10.6793
▁abuse	-10.6794
▁settled	-10.6795
▁hustler	-10.6795
▁seth	-10.6797
▁hooked	-10.6797
▁helpful	-10.6823
▁smaller	-10.6825
▁fe	-10.6829
▁angelo	-10.6831
▁homeless	-10.6832
▁my	-10.6835
▁actions	-10.684
▁nem	-10.6847
▁fades	-10.6854
▁smarter	-10.6854
shit	-10.6863
▁glo	-10.6864
▁crossed	-10.6887
▁fart	-10.6891
art	-10.6894
▁socks	-10.6897
▁bolt	-10.6914
▁chambers	-10.6919
▁rumors	-10.6919
ming	-10.6929
ler	-10.6936
▁spic	-10.6939
▁comic	-10.6945
▁aid	-10.6952
▁depend	-10.6956
▁pushing	-10.6961
▁landed	-10.6961
▁barrels	-10.6961
▁finds	-10.6967
▁lu	-10.698
▁bats	-10.6984
ude	-10.6998
▁individuals	-10.7004
▁recording	-10.7005
▁ste	-10.7014
ito	-10.7018
▁parker	-10.7025
▁frankly	-10.704
list	-10.7041
▁buildings	-10.7044
▁ge	-10.7052
▁nate	-10.706
▁enjoying	-10.7066
▁fontaines	-10.7069
▁gooks	-10.7069
▁murderers	-10.7074
iu	-10.7081
▁comp	-10.7083
maker	-10.7085
▁lucas	-10.7089
▁suitcases	-10.7091
tor	-10.71
▁pricks	-10.7111
▁che	-10.714
gua	-10.7144
wi	-10.7167
▁muscles	-10.7178
▁killers	-10.7193
▁officials	-10.7196
tt	-10.7197
▁sports	-10.72
▁checks	-10.7204
ons	-10.721
▁bells	-10.7212
chi	-10.7242
▁bu	-10.7253
▁shorts	-10.7255
ava	-10.7256
acho	-10.7259
▁jacks	-10.7261
▁connections	-10.7266
gr	-10.727
tima	-10.7273
▁hunts	-10.7291
▁sabe	-10.7305
▁deai	-10.7326
▁dar	-10.7326
▁wounds	-10.7356
▁br	-10.7369
but	-10.7372
▁pulls	-10.7394
▁dent	-10.7396
▁opera	-10.7399
▁remains	-10.7402
▁forms	-10.7404
ny	-10.7413
▁exists	-10.7446
▁stink	-10.7456
oma	-10.7464
▁es	-10.7475
▁whisper	-10.7484
▁click	-10.7487
ire	-10.7488
▁forces	-10.7492
az	-10.7497
▁ci	-10.7504
▁repair	-10.7506
▁banana	-10.751
▁burger	-10.751
▁bubble	-10.751
▁affair	-10.7513
▁contacts	-10.7513
▁hostage	-10.7513
▁coward	-10.7514
▁glove	-10.7514
▁civilian	-10.7514
▁beast	-10.7514
▁colleague	-10.7515
▁expense	-10.7515
▁item	-10.7519
▁blade	-10.7521
▁woo	-10.7524
▁miller	-10.753
▁slam	-10.7533
of	-10.7545
istic	-10.7551
tive	-10.7552
▁payment	-10.7555
▁flower	-10.7556
how	-10.7557
inal	-10.7558
▁operations	-10.7578
▁plot	-10.7591
row	-10.7597
▁arch	-10.7604
▁sp	-10.7611
▁hotels	-10.7632
lia	-10.7636
▁connect	-10.7657
▁geez	-10.7657
ore	-10.7662
▁drown	-10.7662
light	-10.7677
▁gather	-10.7693
two	-10.7695
power	-10.7696
born	-10.7697
▁disrespect	-10.7703
norm	-10.7703
▁wee	-10.7705
▁heal	-10.7707
ions	-10.7709
▁skill	-10.7709
mate	-10.7712
ford	-10.7713
▁rescue	-10.7714
▁achieve	-10.7714
tro	-10.7716
▁wealth	-10.772
▁cheek	-10.7721
cent	-10.7728
▁harle	-10.7731
▁flow	-10.7734
▁runnin	-10.7735
▁inquir	-10.7735
▁makin	-10.7735
▁mutt	-10.7735
▁fag	-10.7736
▁afterwards	-10.7738
▁alibi	-10.7738
▁atlantic	-10.7738
▁barbara	-10.7738
▁beethoven	-10.7738
▁buddha	-10.7738
▁circuit	-10.7738
▁cirk	-10.7738
▁concrete	-10.7738
▁conference	-10.7738
▁confidence	-10.7738
▁crossbow	-10.7738
▁davis	-10.7738
▁denver	-10.7738
▁dorrie	-10.7738
▁dorsia	-10.7738
▁fingerprint	-10.7738
▁generous	-10.7738
▁hamilton	-10.7738
▁humor	-10.7738
▁identify	-10.7738
▁increase	-10.7738
▁independent	-10.7738
▁industry	-10.7738
▁investigate	-10.7738
▁investigator	-10.7738
▁invitation	-10.7738
▁jarvis	-10.7738
▁jennifer	-10.7738
▁journal	-10.7738
▁kansas	-10.7738
▁kujan	-10.7738
▁mclaren	-10.7738
▁outstanding	-10.7738
▁poulain	-10.7738
▁profile	-10.7738
▁pulse	-10.7738
▁randazzo	-10.7738
▁refuge	-10.7738
▁regazzoni	-10.7738
▁rodriguez	-10.7738
▁shadow	-10.7738
▁shelter	-10.7738
▁shepherd	-10.7738
▁sonofabitch	-10.7738
▁stockbroker	-10.7738
▁sullivan	-10.7738
▁surrender	-10.7738
▁tobacco	-10.7738
▁uncomfortable	-10.7738
▁volume	-10.7738
▁vomit	-10.7738
▁accomplish	-10.7738
▁affirmative	-10.7738
▁balance	-10.7738
▁brutal	-10.7738
▁dallas	-10.7738
▁extend	-10.7738
▁ezra	-10.7738
▁huntress	-10.7738
▁inherit	-10.7738
▁loony	-10.7738
▁renteria	-10.7738
▁retail	-10.7738
▁swamp	-10.7738
▁aiways	-10.7738
▁claus	-10.7738
▁session	-10.7738
▁method	-10.7738
▁italy	-10.7738
▁spades	-10.7738
▁oakmont	-10.7738
▁worries	-10.7738
▁delicious	-10.7738
▁association	-10.7738
▁judy	-10.7738
▁slurping	-10.7738
▁chirp	-10.7738
▁brainerd	-10.7738
▁olympic	-10.7738
▁vienna	-10.7738
▁residence	-10.7738
▁slide	-10.7738
▁appetite	-10.7738
▁weeknd	-10.7738
▁maggie	-10.7738
▁granville	-10.7738
▁monaco	-10.7738
▁ramone	-10.7738
▁zipper	-10.7738
▁whining	-10.7738
▁overnight	-10.7738
▁assistance	-10.7738
▁constant	-10.7738
▁thrill	-10.7738
▁margie	-10.7738
▁purse	-10.7738
▁torn	-10.7738
▁burden	-10.7738
▁sniffles	-10.7738
▁bargain	-10.7738
▁minister	-10.7738
▁device	-10.7738
▁hector	-10.7738
▁speck	-10.7738
▁partnership	-10.7739
▁piggy	-10.7739
▁humble	-10.7739
▁halloween	-10.7739
▁online	-10.7739
▁appearance	-10.7739
▁dummy	-10.7739
▁parasites	-10.7739
▁rita	-10.7739
▁sunset	-10.7739
▁breach	-10.7739
▁exorcism	-10.7739
▁hunch	-10.7739
▁rotten	-10.7739
▁deacon	-10.7739
▁raj	-10.7739
▁subway	-10.7739
▁disappearance	-10.7739
▁distant	-10.7739
▁phuc	-10.7739
▁unknown	-10.7739
▁proposal	-10.774
▁ripped	-10.774
▁exley	-10.774
▁ashes	-10.774
▁morto	-10.774
▁rebound	-10.774
▁commitment	-10.774
▁inmate	-10.774
▁paperwork	-10.774
▁sponsor	-10.774
▁tasty	-10.774
▁produce	-10.774
▁average	-10.774
▁michigan	-10.774
▁reservation	-10.774
▁grid	-10.774
▁champ	-10.774
▁courtesy	-10.774
▁reese	-10.7741
▁gutter	-10.7741
▁whinny	-10.7741
▁jaw	-10.7741
▁iot	-10.7741
▁dropping	-10.7741
▁alike	-10.7741
▁qua	-10.7742
▁untie	-10.7742
▁cameron	-10.7742
▁carpenter	-10.7742
▁minor	-10.7742
▁medication	-10.7743
▁dishes	-10.7743
▁whatll	-10.7743
▁ahhh	-10.7743
▁bruno	-10.7743
▁tango	-10.7744
▁june	-10.7744
▁bever	-10.7745
▁passage	-10.7745
▁eise	-10.7746
▁villain	-10.7746
▁surrounded	-10.7747
▁sacred	-10.7747
▁occurred	-10.7747
▁dumbass	-10.7747
▁rudy	-10.7747
mela	-10.7748
▁determined	-10.7748
▁demon	-10.7748
ort	-10.7749
▁triple	-10.7749
▁diner	-10.7749
▁drone	-10.775
▁fist	-10.7751
▁dolores	-10.7751
▁bike	-10.7751
▁tailor	-10.7752
▁alter	-10.7752
▁clinking	-10.7753
▁floating	-10.7753
▁flies	-10.7754
▁brandt	-10.7756
▁gram	-10.7757
▁disappointed	-10.7757
▁greedy	-10.7758
▁correction	-10.7758
▁heiio	-10.7758
▁refer	-10.7758
▁acid	-10.776
▁crane	-10.7761
▁southie	-10.7762
▁buzzes	-10.7762
▁event	-10.7762
▁assim	-10.7764
▁weep	-10.7765
▁accused	-10.7768
cient	-10.777
▁tortured	-10.777
▁drowned	-10.7772
▁leo	-10.7772
▁cass	-10.7773
▁brooks	-10.7774
▁creaks	-10.7774
▁trailer	-10.7775
▁cried	-10.7778
▁bitter	-10.7782
▁removed	-10.7783
▁convinced	-10.7783
▁whacked	-10.7786
▁fredd	-10.7786
ja	-10.7786
▁tempo	-10.7788
▁solved	-10.7788
▁brock	-10.7789
▁prey	-10.7792
▁stud	-10.7794
▁sic	-10.7795
▁focused	-10.7796
▁freezer	-10.7796
▁thrown	-10.7801
▁ton	-10.7808
▁hmmm	-10.7809
▁native	-10.7811
▁dominic	-10.7811
▁complained	-10.7814
▁carro	-10.7818
▁sinners	-10.782
▁beans	-10.7821
▁lina	-10.7824
lim	-10.7828
▁entered	-10.7828
▁cooking	-10.7834
▁filed	-10.7839
▁cookie	-10.784
▁lend	-10.7842
▁beard	-10.7842
▁vers	-10.7843
▁este	-10.7843
▁skirt	-10.7846
▁touches	-10.7848
ency	-10.7852
▁stake	-10.7854
▁grind	-10.7861
▁hatch	-10.7864
▁freaking	-10.7864
▁spe	-10.7871
▁horny	-10.7873
bed	-10.7875
▁cousins	-10.7875
▁controls	-10.7879
▁barks	-10.7886
▁ditch	-10.7894
oh	-10.7897
ail	-10.7899
▁sweating	-10.7904
▁lions	-10.7904
▁minh	-10.7905
▁bothering	-10.7907
▁differently	-10.7917
▁immigrant	-10.7921
ncer	-10.7931
▁teaching	-10.7935
▁fits	-10.7936
too	-10.7949
ich	-10.7949
▁items	-10.7963
▁stinks	-10.7964
hot	-10.7971
rate	-10.7973
▁searching	-10.7975
▁structure	-10.8
▁janie	-10.8011
roller	-10.8013
▁smelled	-10.8039
ancho	-10.8054
▁cha	-10.8074
sis	-10.8099
▁finishing	-10.8112
▁ringer	-10.8113
▁nicer	-10.8128
tte	-10.8139
▁notes	-10.8148
▁gar	-10.8155
▁monkeys	-10.8155
ette	-10.8175
▁rolled	-10.8181
▁mexicans	-10.8204
▁hopes	-10.8206
▁bombs	-10.8215
▁childrens	-10.822
▁helicopters	-10.8228
dade	-10.823
▁u	-10.8242
▁lined	-10.8247
▁needle	-10.8251
▁hangs	-10.8255
▁hoped	-10.8268
inda	-10.8269
▁grease	-10.8273
rez	-10.8291
▁rec	-10.8292
▁severe	-10.8308
▁beers	-10.8338
we	-10.8338
▁ro	-10.834
▁answered	-10.8359
▁buttons	-10.8376
▁thinkin	-10.8401
▁bas	-10.8406
▁suite	-10.8417
▁dates	-10.8442
q	-10.8443
▁prefers	-10.8449
▁medals	-10.8449
▁boob	-10.8449
▁commands	-10.8452
▁can	-10.8452
bar	-10.8458
rick	-10.8463
▁hun	-10.8468
▁wears	-10.8474
fully	-10.8484
▁masks	-10.8497
▁reminds	-10.8502
▁stuffed	-10.8503
ult	-10.8514
▁cooler	-10.8514
ect	-10.8521
▁plants	-10.8523
▁maker	-10.8525
are	-10.8538
▁coma	-10.8539
tes	-10.855
▁plea	-10.8601
▁chip	-10.8605
▁museum	-10.8617
▁pattern	-10.8617
▁eyeball	-10.8627
▁arrow	-10.8627
▁teammate	-10.8629
▁degree	-10.8629
▁chamber	-10.863
▁candle	-10.8631
▁elvi	-10.8631
▁rumor	-10.8632
▁brake	-10.8642
▁pill	-10.8649
▁parent	-10.8652
▁hooker	-10.8652
tur	-10.8666
▁tastes	-10.8669
headed	-10.8669
▁lip	-10.867
▁farmer	-10.8678
itched	-10.8688
▁what	-10.8689
▁ali	-10.8692
▁tapes	-10.8695
▁gum	-10.8714
▁bridges	-10.8726
▁fights	-10.873
▁agents	-10.8736
thats	-10.8747
▁qui	-10.8748
ux	-10.875
▁creep	-10.8761
▁bills	-10.8764
▁cart	-10.877
▁cheat	-10.8772
looking	-10.8774
▁eva	-10.8776
wn	-10.8792
book	-10.88
mouth	-10.8807
▁squeak	-10.8807
new	-10.8808
▁corrupt	-10.881
▁porn	-10.8813
▁spoil	-10.8814
▁abandon	-10.8815
▁betray	-10.8816
▁idiots	-10.8819
▁disguise	-10.8825
▁pursue	-10.8828
▁potential	-10.8834
▁gabriel	-10.8835
▁filth	-10.8836
▁solve	-10.8836
▁decorat	-10.8838
racks	-10.8839
▁pow	-10.8843
▁kidnap	-10.8844
▁maze	-10.8844
▁fran	-10.8845
▁grocer	-10.8846
▁blank	-10.8846
▁transport	-10.8848
▁leisure	-10.8849
wofourthreeseven	-10.8849
▁absurd	-10.8849
▁accurate	-10.8849
▁album	-10.8849
▁alejandro	-10.8849
▁anyhow	-10.8849
▁arizona	-10.8849
▁armstrong	-10.8849
▁ballpeen	-10.8849
▁bogdanski	-10.8849
▁bruv	-10.8849
▁ceiling	-10.8849
▁centurion	-10.8849
▁circus	-10.8849
▁clarlce	-10.8849
▁clemenza	-10.8849
▁cocktail	-10.8849
▁conscience	-10.8849
▁consigliere	-10.8849
▁convincing	-10.8849
▁cooperate	-10.8849
▁damien	-10.8849
▁desculpe	-10.8849
▁doughnut	-10.8849
▁eivira	-10.8849
▁enugu	-10.8849
▁equipment	-10.8849
▁fleck	-10.8849
▁harold	-10.8849
▁jerome	-10.8849
▁kimmie	-10.8849
▁kobayashi	-10.8849
▁lawrence	-10.8849
▁mattress	-10.8849
▁messenger	-10.8849
▁miggs	-10.8849
▁miiiion	-10.8849
▁moggy	-10.8849
▁moguy	-10.8849
▁monitor	-10.8849
▁mutual	-10.8849
▁ozzie	-10.8849
▁peirce	-10.8849
▁pencil	-10.8849
▁piscano	-10.8849
▁platoon	-10.8849
▁precinct	-10.8849
▁privacy	-10.8849
▁prothero	-10.8849
▁railroad	-10.8849
▁rainbow	-10.8849
▁receipt	-10.8849
▁research	-10.8849
▁sidewalk	-10.8849
▁smidge	-10.8849
▁tradition	-10.8849
▁treason	-10.8849
▁tremendous	-10.8849
▁universe	-10.8849
▁vegetable	-10.8849
▁welfare	-10.8849
▁womb	-10.8849
▁wreck	-10.8849
▁bateman	-10.8849
▁central	-10.8849
▁chivo	-10.8849
▁gesture	-10.8849
▁hayley	-10.8849
▁hypocrite	-10.8849
▁majesty	-10.8849
▁nylon	-10.8849
▁roast	-10.8849
▁salute	-10.8849
▁samuel	-10.8849
▁senate	-10.8849
▁absence	-10.8849
▁fink	-10.8849
▁posso	-10.8849
▁stiii	-10.8849
▁coroner	-10.8849
▁hush	-10.8849
▁worship	-10.8849
▁eighteen	-10.8849
▁mackenzie	-10.8849
▁technique	-10.8849
▁narrow	-10.8849
▁sincerely	-10.8849
▁drift	-10.8849
▁ease	-10.8849
▁susan	-10.8849
▁neighbourhood	-10.8849
▁pond	-10.8849
▁silk	-10.8849
▁channel	-10.8849
▁broadcast	-10.8849
▁oak	-10.8849
▁overlapping	-10.8849
▁appreciation	-10.8849
▁vivian	-10.8849
▁kimball	-10.8849
▁turkish	-10.8849
▁woah	-10.8849
▁magnificent	-10.8849
▁overlook	-10.8849
▁gould	-10.8849
▁confidential	-10.8849
▁sheep	-10.8849
▁wilson	-10.8849
▁antonio	-10.8849
▁kint	-10.8849
▁decade	-10.8849
▁behold	-10.8849
▁flood	-10.8849
▁paulsen	-10.8849
▁grandfather	-10.8849
▁smiling	-10.8849
▁comedian	-10.8849
▁turkey	-10.8849
▁tests	-10.8849
▁primary	-10.885
▁sleeve	-10.885
▁suspicious	-10.885
▁assistant	-10.885
▁oscar	-10.885
▁rosato	-10.885
▁transferred	-10.885
▁survival	-10.885
▁garry	-10.885
▁peak	-10.885
▁quality	-10.885
▁pumpkin	-10.885
▁informant	-10.885
▁lousy	-10.885
▁harrison	-10.885
▁passport	-10.885
▁sozinha	-10.8851
▁panties	-10.8851
▁blah	-10.8851
▁brotherfucker	-10.8851
▁jake	-10.8851
▁signature	-10.8851
▁councilman	-10.8851
▁arse	-10.8851
▁confident	-10.8851
▁lazy	-10.8851
▁apiece	-10.8851
▁massive	-10.8852
▁shred	-10.8852
▁academy	-10.8852
▁occupied	-10.8852
▁rory	-10.8852
▁ruthless	-10.8852
▁weakness	-10.8852
▁lightning	-10.8852
▁greenville	-10.8853
▁fax	-10.8853
▁ludes	-10.8853
▁reaiiy	-10.8853
▁eightball	-10.8853
▁foolish	-10.8853
▁kidnapper	-10.8853
▁mutters	-10.8853
▁panic	-10.8853
▁reel	-10.8853
▁barber	-10.8854
▁patty	-10.8854
▁acha	-10.8854
▁haul	-10.8854
▁mazel	-10.8854
▁funky	-10.8855
▁supply	-10.8855
▁ratner	-10.8855
izing	-10.8856
▁roma	-10.8857
▁jelly	-10.8857
▁kim	-10.8857
▁dating	-10.8857
▁blink	-10.8858
▁captured	-10.8858
▁scotch	-10.8858
▁penis	-10.8858
▁identified	-10.8859
▁soda	-10.8859
▁chatterlng	-10.8859
▁bold	-10.886
▁lust	-10.8861
▁publicity	-10.8861
▁pace	-10.8861
▁shushing	-10.8861
▁rooms	-10.8862
▁satisfied	-10.8862
▁illusion	-10.8862
▁northup	-10.8863
▁yum	-10.8863
▁mansion	-10.8863
duct	-10.8863
▁ego	-10.8865
▁reflect	-10.8866
▁rio	-10.8866
▁mustang	-10.8867
▁lily	-10.8867
▁aque	-10.8868
▁preacher	-10.8868
▁controlled	-10.8868
▁vou	-10.8869
▁sickness	-10.887
▁executed	-10.887
▁metro	-10.887
▁vari	-10.8871
▁willy	-10.8871
▁madman	-10.8873
▁patch	-10.8873
▁arranged	-10.8875
▁everyday	-10.8876
▁sore	-10.8878
▁tender	-10.8878
▁gam	-10.8879
▁mall	-10.8881
▁dock	-10.8882
▁abandoned	-10.8883
▁latest	-10.8887
▁payne	-10.8888
▁july	-10.8888
▁whir	-10.8889
▁squeaking	-10.8891
▁vc	-10.8891
▁weakly	-10.8891
▁sole	-10.8893
▁setup	-10.8893
▁pinky	-10.8894
▁louder	-10.8895
▁unto	-10.8895
▁hint	-10.8895
▁stinking	-10.8897
▁navy	-10.8897
▁rear	-10.8899
▁eaten	-10.89
▁tur	-10.8904
▁dialing	-10.8911
▁marie	-10.8912
can	-10.8914
zzle	-10.8914
▁oldtimers	-10.8915
▁fled	-10.8916
▁chuckie	-10.8917
▁sewer	-10.893
for	-10.8935
▁howdy	-10.8936
▁inf	-10.8937
▁talented	-10.8938
▁geezer	-10.8942
▁confessed	-10.8943
▁smiley	-10.8944
▁survived	-10.8954
▁collecting	-10.8956
▁fed	-10.8957
▁ham	-10.8958
▁belonged	-10.8961
▁quicker	-10.8964
eyed	-10.8965
▁iooking	-10.8965
▁cable	-10.8967
▁reminded	-10.8979
▁app	-10.898
▁pinch	-10.8983
▁gangs	-10.8987
ware	-10.8998
▁pals	-10.9
▁lotion	-10.9003
▁packed	-10.9004
▁mayor	-10.9007
▁meu	-10.9008
▁stare	-10.9015
▁rd	-10.9016
▁crashing	-10.9035
▁gee	-10.9038
▁sticks	-10.9041
▁accepted	-10.9044
▁chaps	-10.9048
▁includes	-10.9049
▁cons	-10.905
▁breaker	-10.905
▁dicks	-10.906
▁tracker	-10.9062
▁holes	-10.9062
▁falls	-10.9065
▁closet	-10.9067
▁lid	-10.9071
▁brakes	-10.9075
▁pd	-10.9075
▁degrees	-10.9075
▁hookers	-10.9082
▁lookout	-10.9087
▁farmers	-10.9088
▁emt	-10.9088
▁reaching	-10.9096
▁handled	-10.91
like	-10.9105
▁recorded	-10.9119
▁zip	-10.9123
ettes	-10.9123
▁hells	-10.9124
▁pros	-10.9132
▁explained	-10.9147
▁ally	-10.9148
car	-10.9159
pol	-10.9179
▁enjoyed	-10.9179
▁ships	-10.9186
▁site	-10.9188
▁brit	-10.9188
▁fools	-10.919
rica	-10.9199
▁lil	-10.9205
▁returning	-10.9207
▁lookit	-10.9209
▁pikeys	-10.921
ev	-10.922
evi	-10.9222
▁bounce	-10.9225
ning	-10.9228
aid	-10.9236
▁bonds	-10.9237
cha	-10.924
oster	-10.924
ative	-10.9257
▁ph	-10.9277
▁vu	-10.928
▁eles	-10.9285
▁les	-10.9309
▁gin	-10.9309
lon	-10.9311
▁traps	-10.9319
▁tw	-10.9329
ella	-10.9352
nny	-10.9401
▁faggots	-10.9401
▁krays	-10.9401
▁marc	-10.9409
net	-10.9442
til	-10.9445
▁wins	-10.9447
rus	-10.9463
▁travels	-10.9468
▁accuse	-10.9478
▁winners	-10.9484
▁gran	-10.9487
▁kings	-10.9492
▁pats	-10.9494
▁husbands	-10.95
▁drops	-10.95
▁plates	-10.9511
▁robbers	-10.9513
▁fri	-10.9523
rue	-10.9535
▁mindy	-10.9542
▁colors	-10.9543
▁scam	-10.9562
▁dec	-10.9573
ify	-10.958
▁ghosts	-10.9596
tention	-10.9602
▁ox	-10.961
▁deadly	-10.9623
▁sw	-10.9631
tar	-10.9637
▁tripp	-10.9677
▁nickys	-10.9685
lets	-10.9688
und	-10.9693
▁rattle	-10.97
▁pais	-10.9705
▁ww	-10.9715
▁questioning	-10.9719
▁tick	-10.9724
▁owners	-10.9737
▁tips	-10.9738
ex	-10.9749
ham	-10.9774
▁executi	-10.9777
con	-10.978
▁believes	-10.9782
set	-10.9785
▁cain	-10.9787
fui	-10.9787
▁figures	-10.9789
ery	-10.9792
▁groups	-10.9794
lip	-10.9795
hood	-10.9796
etic	-10.9808
ology	-10.981
▁knee	-10.9827
▁associate	-10.9854
▁deed	-10.9855
▁include	-10.9856
▁cont	-10.9865
▁breast	-10.9866
▁relative	-10.9867
▁shark	-10.9872
▁lamb	-10.9873
▁communist	-10.9874
▁limo	-10.9879
▁jingle	-10.9884
▁toward	-10.9884
my	-10.989
▁sock	-10.9891
▁chap	-10.9906
▁greeting	-10.9907
▁marble	-10.9907
▁seasons	-10.9908
▁shoulders	-10.991
▁angels	-10.9922
▁tro	-10.9935
▁deserves	-10.9937
▁winnings	-10.9937
▁russians	-10.9966
ility	-10.9968
ula	-10.9979
▁wil	-10.9982
fish	-10.9994
ties	-11.0004
mph	-11.0009
▁bee	-11.002
▁wo	-11.0021
rt	-11.0027
burg	-11.0033
let	-11.0034
▁dive	-11.0042
▁offend	-11.005
piece	-11.005
place	-11.0054
life	-11.0055
yearold	-11.0056
box	-11.0056
dollar	-11.0056
▁vibrat	-11.0056
heart	-11.0057
called	-11.0057
four	-11.0063
▁addict	-11.0064
▁haunt	-11.0064
kick	-11.0068
three	-11.0074
▁net	-11.0074
seven	-11.0074
▁engage	-11.0077
▁promote	-11.0077
▁korea	-11.0084
▁apoc	-11.0084
▁seize	-11.0084
▁sacrifice	-11.0087
▁absolute	-11.009
▁virtu	-11.0091
▁clam	-11.0094
▁julia	-11.0094
▁tomato	-11.0095
▁marsha	-11.0095
▁attract	-11.0096
▁council	-11.0096
▁cruel	-11.0097
▁predict	-11.0097
▁faz	-11.0097
▁measure	-11.0097
▁romi	-11.0098
▁cigar	-11.0099
▁douche	-11.0099
▁akira	-11.0099
▁amateur	-11.0099
▁amsterdam	-11.0099
▁architect	-11.0099
▁august	-11.0099
▁awkward	-11.0099
▁baltimore	-11.0099
▁believing	-11.0099
▁bertinelli	-11.0099
▁brett	-11.0099
▁bruise	-11.0099
▁bubba	-11.0099
▁bufalino	-11.0099
▁buiiet	-11.0099
▁cackles	-11.0099
▁cavalry	-11.0099
▁cherry	-11.0099
▁concierge	-11.0099
▁crucified	-11.0099
▁dascomb	-11.0099
▁desculpa	-11.0099
▁disagree	-11.0099
▁disaster	-11.0099
▁dufayel	-11.0099
▁eleven	-11.0099
▁elizabeth	-11.0099
▁exclusive	-11.0099
▁exwife	-11.0099
▁felix	-11.0099
▁finneran	-11.0099
▁flakka	-11.0099
▁fujimaki	-11.0099
▁glorious	-11.0099
▁grazie	-11.0099
▁grenade	-11.0099
▁grief	-11.0099
▁guillermo	-11.0099
▁hannibal	-11.0099
▁hockney	-11.0099
▁holland	-11.0099
▁jackpot	-11.0099
▁judicial	-11.0099
▁judith	-11.0099
▁kurogane	-11.0099
▁lachance	-11.0099
▁larkhill	-11.0099
▁lebron	-11.0099
▁lounge	-11.0099
▁lucchesi	-11.0099
▁lucien	-11.0099
▁magnum	-11.0099
▁mcpherson	-11.0099
▁melody	-11.0099
▁minimum	-11.0099
▁murmuring	-11.0099
▁obsessed	-11.0099
▁obstacle	-11.0099
▁october	-11.0099
▁olivia	-11.0099
▁orleans	-11.0099
▁orphan	-11.0099
▁palantine	-11.0099
▁panache	-11.0099
▁panama	-11.0099
▁passenger	-11.0099
▁penthouse	-11.0099
▁persuade	-11.0099
▁pittsburgh	-11.0099
▁protocol	-11.0099
▁pussies	-11.0099
▁rafterman	-11.0099
▁registration	-11.0099
▁relations	-11.0099
▁saigon	-11.0099
▁schmuck	-11.0099
▁schofield	-11.0099
▁shirley	-11.0099
▁slaughter	-11.0099
▁snarling	-11.0099
▁soccer	-11.0099
▁solution	-11.0099
▁splash	-11.0099
▁stensland	-11.0099
▁strategy	-11.0099
▁strict	-11.0099
▁suspicion	-11.0099
▁swift	-11.0099
▁therapy	-11.0099
▁thorough	-11.0099
▁tumbling	-11.0099
▁viddy	-11.0099
▁vlog	-11.0099
▁yulian	-11.0099
▁finance	-11.0099
▁freud	-11.0099
▁maintain	-11.0099
▁penalty	-11.0099
▁permit	-11.0099
▁shaii	-11.0099
inspired	-11.0099
▁dennings	-11.0099
▁howie	-11.0099
▁stalling	-11.0099
▁tackle	-11.0099
▁yolanda	-11.0099
▁depressed	-11.0099
▁rasul	-11.0099
▁chloe	-11.0099
▁arnold	-11.0099
▁convenient	-11.0099
▁unique	-11.0099
▁susieq	-11.0099
▁uhuh	-11.0099
▁bloodshed	-11.0099
▁ellis	-11.0099
▁picnic	-11.0099
▁tarde	-11.0099
▁antwan	-11.0099
▁competition	-11.0099
▁iast	-11.0099
▁forbid	-11.0099
▁baywatch	-11.0099
▁shining	-11.0099
▁wandering	-11.0099
▁lugar	-11.0099
▁balloon	-11.0099
▁whatsoever	-11.0099
▁guardian	-11.0099
▁puppy	-11.0099
▁thudding	-11.0099
▁devons	-11.0099
▁edmund	-11.0099
▁praise	-11.0099
▁supervisor	-11.0099
▁sparma	-11.0099
▁clay	-11.0099
etched	-11.0099
▁depot	-11.0099
▁vagina	-11.0099
▁landlord	-11.0099
▁vinyard	-11.0099
▁ankle	-11.0099
▁collar	-11.0099
▁pilate	-11.0099
▁reference	-11.0099
▁clue	-11.0099
▁morgue	-11.0099
▁celebration	-11.0099
▁indictment	-11.0099
▁slope	-11.0099
▁coldblooded	-11.0099
▁yankee	-11.0099
▁source	-11.0099
▁update	-11.0099
▁resident	-11.0099
▁whew	-11.0099
▁unger	-11.0099
▁skylar	-11.0099
▁anonymous	-11.0099
▁dimmy	-11.0099
▁marvelous	-11.0099
▁hidden	-11.01
▁depth	-11.01
▁souad	-11.01
▁capital	-11.01
▁skylight	-11.01
▁pepper	-11.01
▁pervert	-11.01
▁whys	-11.01
▁hatchet	-11.01
▁colour	-11.01
▁hmhm	-11.01
▁welby	-11.01
▁decline	-11.01
▁leslie	-11.01
▁ounce	-11.01
▁perkins	-11.01
▁iaw	-11.01
▁contestant	-11.01
▁merrily	-11.01
▁napkin	-11.01
▁dentist	-11.01
▁vital	-11.01
▁iong	-11.01
▁feei	-11.01
▁poem	-11.01
▁waking	-11.01
▁albie	-11.0101
▁dragged	-11.0101
▁curb	-11.0101
▁lease	-11.0101
▁cartel	-11.0101
▁asian	-11.0101
▁taint	-11.0101
▁arson	-11.0101
▁hallway	-11.0101
▁purp	-11.0101
▁marge	-11.0101
▁stir	-11.0101
▁flavor	-11.0101
▁sunny	-11.0101
▁modest	-11.0101
▁contest	-11.0101
▁cannon	-11.0101
▁erasing	-11.0101
▁courtroom	-11.0101
▁virus	-11.0101
▁diane	-11.0101
▁clemens	-11.0102
▁bronx	-11.0102
▁discipline	-11.0102
▁reliable	-11.0102
▁thorpe	-11.0102
▁version	-11.0102
▁venha	-11.0102
▁lois	-11.0102
▁crackling	-11.0103
▁execution	-11.0103
amento	-11.0103
▁agua	-11.0103
▁chimes	-11.0103
▁expression	-11.0103
▁meaningless	-11.0104
▁mug	-11.0104
▁meanwhile	-11.0104
▁western	-11.0104
▁carmine	-11.0104
▁ledger	-11.0104
▁aboard	-11.0105
▁vez	-11.0105
▁forest	-11.0105
break	-11.0105
▁lsland	-11.0105
▁divin	-11.0105
▁doublecross	-11.0105
▁windsor	-11.0105
▁parade	-11.0106
▁harmless	-11.0106
▁playmate	-11.0106
▁redfoot	-11.0107
▁alice	-11.0108
▁thirsty	-11.0108
▁hawk	-11.0108
▁cities	-11.0108
▁aurelio	-11.0108
▁biggus	-11.0108
▁forgiveness	-11.0108
▁dickhead	-11.0109
▁protective	-11.0109
▁donna	-11.0109
▁established	-11.011
▁gallo	-11.011
▁barker	-11.0111
▁dice	-11.0112
▁craft	-11.0112
▁stealth	-11.0113
▁exclaiming	-11.0113
▁upper	-11.0113
▁betting	-11.0113
▁employer	-11.0114
hop	-11.0114
▁armand	-11.0114
▁employment	-11.0114
▁stanton	-11.0115
▁developed	-11.0115
▁iine	-11.0115
▁china	-11.0115
▁premises	-11.0116
▁worrying	-11.0116
▁cub	-11.0116
▁payback	-11.0117
▁colt	-11.0117
▁superman	-11.0118
▁teenager	-11.0119
▁tuck	-11.0119
▁barco	-11.0119
▁skim	-11.0119
▁drum	-11.012
nel	-11.0121
▁forgetting	-11.0121
▁included	-11.0121
▁iearn	-11.0122
▁plead	-11.0124
▁dismissed	-11.0124
▁acts	-11.0126
▁bud	-11.0126
▁particularly	-11.0128
▁grandda	-11.0128
▁vanished	-11.0128
▁sealed	-11.013
▁ola	-11.0132
▁bugsy	-11.0132
▁mobile	-11.0133
▁vain	-11.0135
▁smuggler	-11.0135
▁clothing	-11.0135
▁shootout	-11.0136
▁cheated	-11.0138
▁kiddo	-11.0138
▁creat	-11.0139
▁herr	-11.0141
▁ticking	-11.0143
▁beaten	-11.0143
▁wiped	-11.0144
▁pisses	-11.0146
▁mmmm	-11.0146
▁pickup	-11.0148
lain	-11.015
▁drowning	-11.0153
▁factor	-11.0154
▁locate	-11.0154
▁hare	-11.0154
▁stressed	-11.0156
▁loudly	-11.0158
▁guessing	-11.0161
▁ranger	-11.0163
igan	-11.0165
▁jar	-11.017
▁popping	-11.0171
▁parties	-11.0173
▁greatness	-11.0175
▁scan	-11.0177
▁responding	-11.0181
▁shocking	-11.0181
▁bowling	-11.0182
▁highest	-11.0183
▁fore	-11.0185
aw	-11.0186
▁insulted	-11.0188
▁refused	-11.0189
▁cro	-11.0202
ard	-11.0204
tan	-11.0205
▁shorties	-11.0207
▁nap	-11.0211
dor	-11.0213
kins	-11.0216
▁photographer	-11.0218
▁deve	-11.0219
▁safer	-11.0222
▁wel	-11.0223
har	-11.0224
▁cliffs	-11.0235
ened	-11.0239
▁tub	-11.024
▁rollin	-11.0242
▁proved	-11.0254
▁screwing	-11.0272
▁bothered	-11.0274
▁remaining	-11.0275
▁lotus	-11.0279
▁misses	-11.028
▁smokey	-11.0284
▁iive	-11.0284
▁pretending	-11.0289
▁swor	-11.0294
▁safely	-11.0296
▁tyres	-11.0296
▁cleaner	-11.0298
▁praying	-11.0306
ese	-11.0309
▁packing	-11.0318
▁linen	-11.032
▁associates	-11.0327
▁shack	-11.033
▁filling	-11.0333
▁for	-11.0334
▁ri	-11.0337
▁anton	-11.0338
▁ana	-11.0345
skim	-11.0347
▁announced	-11.0348
cho	-11.0349
▁def	-11.0353
▁dealt	-11.0357
▁arrows	-11.0357
▁teammates	-11.0357
▁layer	-11.0365
▁posted	-11.0372
pping	-11.0383
▁colleagues	-11.0388
▁expenses	-11.0388
▁payments	-11.0388
fo	-11.0393
▁visiting	-11.0394
▁millers	-11.0394
▁armor	-11.0406
▁spots	-11.0407
eight	-11.0414
▁bodyguards	-11.0419
pound	-11.0435
▁tylers	-11.0437
▁rank	-11.0449
▁kit	-11.0452
▁closely	-11.0458
▁yay	-11.0463
▁drawers	-11.0464
▁rubb	-11.048
▁picks	-11.0482
▁familys	-11.0486
▁spun	-11.0497
▁dele	-11.05
▁dancer	-11.0501
▁strings	-11.0512
▁snipers	-11.0513
ello	-11.0515
gie	-11.052
▁rattl	-11.0523
▁explaining	-11.0523
ady	-11.0525
▁irs	-11.054
▁intentions	-11.0543
nha	-11.0553
fi	-11.0556
▁chic	-11.0558
ebra	-11.0578
cal	-11.0591
▁carve	-11.0592
▁coisas	-11.0606
▁newspapers	-11.0606
▁tunnels	-11.0606
▁bums	-11.0607
law	-11.0611
ong	-11.0616
lock	-11.0627
▁diver	-11.0633
met	-11.0647
▁propose	-11.0647
zo	-11.0649
▁learning	-11.0671
▁fam	-11.0693
hra	-11.0696
▁votes	-11.0699
ki	-11.0709
▁mates	-11.0717
▁catching	-11.0723
▁killin	-11.0724
▁teams	-11.0727
officially	-11.0734
ka	-11.0748
▁prisons	-11.0763
au	-11.0775
▁kindly	-11.0846
▁restaurants	-11.0891
▁fixin	-11.0893
port	-11.0893
▁roberts	-11.0893
▁der	-11.0894
▁questioned	-11.0897
nie	-11.0897
iah	-11.0897
▁cells	-11.0899
▁cleared	-11.0907
▁gent	-11.0924
▁mer	-11.0928
card	-11.0943
dra	-11.0943
▁nam	-11.0945
▁belle	-11.0948
▁yu	-11.0973
▁num	-11.0985
▁pistols	-11.0988
▁stu	-11.0989
▁waiter	-11.1023
▁psych	-11.1027
uke	-11.1028
▁is	-11.1029
state	-11.1048
▁callin	-11.105
bone	-11.1052
▁sakes	-11.1052
ax	-11.1052
itt	-11.1056
▁hearts	-11.1066
▁product	-11.108
▁rifles	-11.1086
▁ga	-11.1092
▁pens	-11.1112
▁devils	-11.1118
▁hoo	-11.1128
solved	-11.1137
▁stocks	-11.1151
key	-11.1159
more	-11.1182
▁conf	-11.1204
▁lasted	-11.1205
▁scores	-11.1206
▁von	-11.1206
▁clap	-11.1216
bul	-11.122
▁chan	-11.1232
ets	-11.1243
▁retard	-11.1262
ren	-11.1278
ato	-11.1281
▁tanks	-11.1283
▁prim	-11.1286
▁racket	-11.1287
▁bothers	-11.1292
▁gasp	-11.1295
▁crook	-11.1296
▁element	-11.1298
▁compliment	-11.13
▁submit	-11.1304
▁tyre	-11.1308
▁employee	-11.131
▁winds	-11.131
▁cloud	-11.1312
▁martini	-11.1328
oli	-11.1345
▁sadde	-11.1351
▁blackie	-11.1354
ound	-11.1361
eating	-11.1366
▁prayer	-11.1367
shak	-11.1371
▁engines	-11.1383
▁bears	-11.1386
▁carat	-11.1387
▁ned	-11.1389
▁chor	-11.1406
▁domini	-11.1418
▁hunter	-11.1429
▁recon	-11.1443
tore	-11.1451
mero	-11.1456
east	-11.1459
water	-11.1476
who	-11.1476
mother	-11.1479
wise	-11.1484
proof	-11.1484
▁chickens	-11.1485
worth	-11.1485
school	-11.1485
burn	-11.1485
pic	-11.1486
pants	-11.1486
▁conquer	-11.1492
▁exhaust	-11.1492
▁frighten	-11.1494
▁invest	-11.1498
▁vanish	-11.1498
▁encourage	-11.1504
▁expose	-11.1505
▁ew	-11.1505
five	-11.1508
▁greet	-11.1508
▁sk	-11.1508
ya	-11.1509
▁intense	-11.1513
▁instant	-11.1514
▁technical	-11.1515
▁disc	-11.1515
▁girlfriends	-11.1518
▁bunk	-11.1521
▁medic	-11.1522
▁nightclub	-11.1523
▁dedicat	-11.1524
▁condo	-11.1526
▁disgrace	-11.1526
▁livin	-11.1526
▁sorrow	-11.1526
knuckle	-11.1526
▁ambi	-11.1527
lcer	-11.1527
▁advertising	-11.1527
▁airborne	-11.1527
▁andolini	-11.1527
▁archbishop	-11.1527
▁atlanta	-11.1527
▁attaboy	-11.1527
▁austrian	-11.1527
▁autopsy	-11.1527
▁bazooka	-11.1527
▁bloke	-11.1527
▁bredoteau	-11.1527
▁cawley	-11.1527
▁clatters	-11.1527
▁claudia	-11.1527
▁cockroach	-11.1527
▁commercial	-11.1527
▁confusion	-11.1527
▁curfew	-11.1527
▁debbie	-11.1527
▁deceased	-11.1527
▁decree	-11.1527
▁delicate	-11.1527
▁dunno	-11.1527
▁dwayne	-11.1527
▁elsewhere	-11.1527
▁evacuate	-11.1527
▁expired	-11.1527
▁fabulous	-11.1527
▁feathers	-11.1527
▁forensics	-11.1527
▁helmet	-11.1527
▁hermandad	-11.1527
▁hollis	-11.1527
▁ieave	-11.1527
▁inglewood	-11.1527
▁injured	-11.1527
▁inspiration	-11.1527
▁january	-11.1527
▁jordy	-11.1527
▁judging	-11.1527
▁koji	-11.1527
▁lefferts	-11.1527
▁lincoln	-11.1527
▁lindsey	-11.1527
▁lloyd	-11.1527
▁lombardo	-11.1527
▁lorenzo	-11.1527
▁luggage	-11.1527
▁marseille	-11.1527
▁mccluskey	-11.1527
▁mclanden	-11.1527
▁mofet	-11.1527
▁offensive	-11.1527
▁pacific	-11.1527
▁paramedic	-11.1527
▁parliament	-11.1527
▁patience	-11.1527
▁pembry	-11.1527
▁pensacola	-11.1527
▁perfume	-11.1527
▁perimeter	-11.1527
▁poverty	-11.1527
▁recipe	-11.1527
▁reggiani	-11.1527
▁reunion	-11.1527
▁rhythm	-11.1527
▁rosalind	-11.1527
▁schooi	-11.1527
▁seideibaum	-11.1527
▁sergio	-11.1527
▁sherbert	-11.1527
▁somerset	-11.1527
▁sorority	-11.1527
▁spectacular	-11.1527
▁stammering	-11.1527
▁stardust	-11.1527
▁substance	-11.1527
▁suspended	-11.1527
▁tangerine	-11.1527
▁tennessee	-11.1527
▁thanksgiving	-11.1527
▁tommasino	-11.1527
▁toothbrush	-11.1527
▁transaction	-11.1527
▁trespass	-11.1527
▁verdict	-11.1527
▁weasel	-11.1527
▁wendell	-11.1527
▁wriggle	-11.1527
▁xerife	-11.1527
▁apologies	-11.1527
▁clamoring	-11.1527
▁generation	-11.1527
▁gypsies	-11.1527
▁iowa	-11.1527
▁kaede	-11.1527
▁nelson	-11.1527
▁noyce	-11.1527
▁orient	-11.1527
▁philip	-11.1527
▁replica	-11.1527
▁website	-11.1527
▁bishop	-11.1527
▁cornell	-11.1527
▁draft	-11.1527
▁havin	-11.1527
▁napalm	-11.1527
▁norton	-11.1527
▁sofa	-11.1527
▁error	-11.1527
▁examining	-11.1527
▁floyd	-11.1527
▁causing	-11.1527
▁daisy	-11.1527
▁gorilla	-11.1527
▁reemer	-11.1527
▁relay	-11.1527
▁reveal	-11.1527
securities	-11.1527
▁declare	-11.1527
▁helos	-11.1527
▁quart	-11.1527
▁senor	-11.1527
▁albert	-11.1527
▁hijack	-11.1527
▁kelly	-11.1527
▁veins	-11.1527
▁clutch	-11.1527
▁gypsy	-11.1527
▁infirmary	-11.1527
▁carpet	-11.1527
▁larry	-11.1527
▁asshoie	-11.1527
▁bliss	-11.1527
▁drugged	-11.1528
▁delaware	-11.1528
▁nathan	-11.1528
▁squawking	-11.1528
▁tamb	-11.1528
▁imitate	-11.1528
▁rival	-11.1528
▁trench	-11.1528
▁yank	-11.1528
▁jewels	-11.1528
▁urine	-11.1528
▁blaming	-11.1528
▁migraine	-11.1528
▁recess	-11.1528
▁terrifying	-11.1528
▁criminai	-11.1528
▁infect	-11.1528
▁chilton	-11.1528
▁fading	-11.1528
▁raquel	-11.1528
▁suzy	-11.1528
▁santiago	-11.1528
▁strangle	-11.1528
▁cluck	-11.1528
▁divide	-11.1528
▁patron	-11.1528
▁lamp	-11.1528
▁salvation	-11.1528
▁sandals	-11.1528
▁contingenc	-11.1528
▁establishment	-11.1528
▁logical	-11.1528
▁consist	-11.1528
▁principal	-11.1528
▁griev	-11.1528
▁worid	-11.1528
▁complex	-11.1528
▁zap	-11.1528
▁manual	-11.1528
▁vault	-11.1528
▁studied	-11.1528
▁aiso	-11.1528
▁enlist	-11.1528
▁seventeen	-11.1528
▁snuff	-11.1528
▁alert	-11.1528
▁butler	-11.1528
▁economic	-11.1528
▁patchett	-11.1528
▁snack	-11.1528
▁rising	-11.1528
▁estamos	-11.1529
▁resistance	-11.1529
▁nicol	-11.1529
▁meow	-11.1529
▁coordinat	-11.1529
▁destruction	-11.1529
▁broadway	-11.1529
▁elaborate	-11.1529
▁stool	-11.1529
▁tudo	-11.1529
▁lemon	-11.1529
▁cabbie	-11.1529
▁fidel	-11.1529
▁canteen	-11.1529
▁revoir	-11.1529
▁probable	-11.1529
▁motre	-11.1529
▁rapist	-11.1529
▁shade	-11.1529
▁remote	-11.1529
▁loot	-11.153
▁myth	-11.153
▁upside	-11.153
▁inspection	-11.153
▁counselor	-11.153
▁distribution	-11.153
▁boil	-11.153
▁percentage	-11.153
▁shipment	-11.153
▁terminal	-11.153
▁warsaw	-11.153
▁stale	-11.153
▁effective	-11.153
▁noite	-11.153
▁rookie	-11.153
▁tide	-11.153
▁obligation	-11.153
▁turf	-11.153
▁conviction	-11.1531
▁armour	-11.1531
▁aww	-11.1531
▁harb	-11.1531
▁abduction	-11.1531
▁chink	-11.1531
▁sentimental	-11.1531
▁petty	-11.1531
▁groceries	-11.1531
▁guv	-11.1531
▁shaft	-11.1531
▁vioience	-11.1531
▁essential	-11.1531
▁valerie	-11.1531
▁election	-11.1531
▁pillar	-11.1531
▁jerkoff	-11.1531
▁grindle	-11.1531
▁civilized	-11.1531
▁enforcement	-11.1532
▁rathole	-11.1532
▁merciful	-11.1532
▁acceptance	-11.1532
▁thug	-11.1532
▁grownup	-11.1532
▁bait	-11.1532
▁viva	-11.1533
▁ashecliffe	-11.1533
▁virginia	-11.1533
▁lsaiah	-11.1533
▁choir	-11.1533
▁azu	-11.1533
▁automatic	-11.1533
▁cann	-11.1534
▁combinat	-11.1534
▁nitro	-11.1534
▁attraction	-11.1534
▁wig	-11.1534
▁broom	-11.1534
▁outro	-11.1535
▁agreement	-11.1535
▁rash	-11.1535
▁keen	-11.1535
▁leper	-11.1535
▁worm	-11.1536
▁accountant	-11.1536
▁puke	-11.1536
▁benj	-11.1536
▁enterprise	-11.1536
▁degenerate	-11.1537
ana	-11.1537
▁refin	-11.1538
▁steer	-11.1538
▁hue	-11.1538
▁agency	-11.1538
▁educated	-11.1538
▁stream	-11.1538
▁cutler	-11.1538
▁scottie	-11.1539
▁email	-11.1539
▁sober	-11.1539
▁fry	-11.1539
▁distinguished	-11.1541
▁bien	-11.1541
▁after	-11.1541
▁ahem	-11.1542
▁skies	-11.1542
▁gabriela	-11.1543
▁giri	-11.1544
▁dish	-11.1545
▁hobby	-11.1545
▁batter	-11.1545
▁dino	-11.1546
▁packet	-11.1546
▁stillwater	-11.1546
▁fires	-11.1547
▁microprocessors	-11.1547
▁historic	-11.1547
▁ranch	-11.1547
▁fig	-11.1547
▁wheat	-11.1548
▁fallen	-11.1549
▁maniac	-11.1551
▁respectable	-11.1552
door	-11.1552
▁associated	-11.1553
▁alan	-11.1555
▁cloth	-11.1555
▁involve	-11.1555
▁engaged	-11.1555
▁mason	-11.1555
▁recovered	-11.1557
▁snorting	-11.1557
▁applauding	-11.1557
▁lala	-11.1557
▁handling	-11.1557
▁artie	-11.1558
▁stretcher	-11.1558
▁beeper	-11.156
▁palmer	-11.156
▁runner	-11.1561
▁parttime	-11.1561
▁chad	-11.1562
▁ink	-11.1562
▁equally	-11.1563
▁piaying	-11.1563
▁rage	-11.1564
▁trio	-11.1564
▁moss	-11.1564
▁lime	-11.1565
▁poll	-11.1565
▁compared	-11.1566
▁suggestion	-11.1566
▁exception	-11.1566
▁offended	-11.1567
▁lowery	-11.1568
▁cora	-11.1569
▁swed	-11.157
▁martyr	-11.1571
▁cue	-11.1574
▁we	-11.1574
▁feeiing	-11.1576
▁vibrating	-11.1577
▁parece	-11.1577
▁nearest	-11.1578
▁goldie	-11.1579
▁cure	-11.158
▁pint	-11.1581
▁mcdonalds	-11.1581
▁serving	-11.1581
▁designer	-11.1583
▁exceptional	-11.1586
stone	-11.1588
▁assist	-11.1588
▁fleet	-11.1589
▁sixty	-11.1589
▁grit	-11.1594
finite	-11.1595
▁mid	-11.1597
▁freeman	-11.1597
▁valentine	-11.16
▁copies	-11.1601
ature	-11.1603
▁twisted	-11.1604
▁cracker	-11.1605
▁romeo	-11.1607
▁henryk	-11.1608
ager	-11.1613
▁firearms	-11.1616
▁layin	-11.1616
▁corpos	-11.1618
▁gamblers	-11.1619
▁highp	-11.1619
▁loosen	-11.1621
▁kisses	-11.1623
▁devote	-11.1626
▁sod	-11.1629
▁seal	-11.163
▁bark	-11.1635
▁experienced	-11.1635
▁fighter	-11.1636
▁badass	-11.1638
▁hitman	-11.164
▁collected	-11.1642
▁carla	-11.1643
▁pla	-11.1646
▁guaranteed	-11.1649
▁studying	-11.1649
evac	-11.1653
▁honesty	-11.1655
▁zed	-11.1656
▁generally	-11.1666
▁hardon	-11.1672
▁faithful	-11.1672
▁businessman	-11.1677
▁just	-11.168
▁troubles	-11.1681
▁stripes	-11.1686
▁chemicals	-11.1686
▁citizens	-11.1686
▁stamps	-11.1686
▁emotions	-11.1686
▁skipp	-11.1693
iness	-11.1694
▁anos	-11.1694
▁iv	-11.1699
▁brokers	-11.1701
▁cal	-11.1703
▁earned	-11.1703
▁rented	-11.1706
▁planted	-11.1712
▁imagined	-11.1712
▁destroying	-11.1716
▁instincts	-11.1722
▁resumes	-11.1722
▁sausages	-11.1722
▁wankers	-11.1722
▁suspected	-11.1731
▁blocked	-11.1731
▁peed	-11.1734
iam	-11.1736
▁beni	-11.1742
▁fuckhead	-11.1744
zer	-11.1747
nine	-11.176
▁ages	-11.1762
▁peel	-11.1763
▁pleas	-11.1765
▁witnessed	-11.1765
▁washing	-11.1769
ost	-11.1774
▁tested	-11.1775
▁mim	-11.1776
quint	-11.1779
bie	-11.1784
▁forg	-11.18
▁visited	-11.1808
▁importantly	-11.1815
lar	-11.1816
▁fixing	-11.1824
▁sends	-11.1827
▁crossing	-11.1831
▁cord	-11.1844
▁cheg	-11.1859
bility	-11.1861
tai	-11.1863
▁affairs	-11.1865
▁beasts	-11.1865
▁civilians	-11.1865
▁cowards	-11.1865
▁hostages	-11.1865
▁seek	-11.1873
▁playin	-11.1879
mal	-11.1894
▁cunts	-11.1896
▁wings	-11.1901
▁documents	-11.1901
▁goodness	-11.1907
▁laughed	-11.191
ritz	-11.1912
stein	-11.1912
▁butchers	-11.1912
ator	-11.1919
▁deer	-11.1923
▁marked	-11.1937
▁ding	-11.1938
▁reporting	-11.1941
▁dreamed	-11.1944
▁repay	-11.1945
ition	-11.195
▁mills	-11.1959
▁supposedly	-11.1963
pse	-11.1971
▁circles	-11.1973
▁disco	-11.1976
▁meters	-11.199
▁watchin	-11.199
antes	-11.1992
▁landing	-11.1992
▁she	-11.2
▁relaxed	-11.2006
▁uniforms	-11.201
▁broads	-11.201
▁lively	-11.2013
▁formal	-11.2037
▁acted	-11.2041
▁deposits	-11.2042
▁twins	-11.2047
nic	-11.2051
▁instrument	-11.2057
some	-11.2063
▁respected	-11.2067
▁amp	-11.2073
cia	-11.2079
▁dolls	-11.2083
▁coins	-11.2086
offe	-11.2087
val	-11.2096
don	-11.2103
ked	-11.211
▁ther	-11.2112
▁winters	-11.212
▁noses	-11.2129
▁mute	-11.2138
▁coz	-11.214
▁prom	-11.2164
▁losers	-11.2164
uous	-11.2167
▁participate	-11.2168
▁flo	-11.2189
▁boxer	-11.2212
beats	-11.2217
▁ducks	-11.2231
▁lessons	-11.2234
ank	-11.2242
ome	-11.2251
▁prices	-11.2251
▁darr	-11.2255
▁marshals	-11.2268
iver	-11.2284
▁sab	-11.2288
▁quer	-11.229
▁sever	-11.2299
▁voices	-11.2307
▁sings	-11.2309
melon	-11.2321
▁slo	-11.2324
▁cooks	-11.2342
▁locations	-11.2343
▁worker	-11.2343
▁priests	-11.2347
lt	-11.2364
last	-11.2372
▁reporters	-11.2378
▁wage	-11.2415
▁judges	-11.2417
here	-11.2424
yu	-11.2426
cou	-11.2431
vy	-11.244
▁del	-11.2446
▁liz	-11.2448
pers	-11.246
amin	-11.2469
▁bake	-11.2481
▁nicely	-11.2485
▁diz	-11.2496
▁concerns	-11.2497
▁taxis	-11.2502
▁sta	-11.251
▁fora	-11.2511
▁fare	-11.2515
tri	-11.2519
▁jeans	-11.2533
▁her	-11.2536
▁parl	-11.258
▁han	-11.2598
▁terrorists	-11.2609
ifi	-11.262
▁codes	-11.2647
ide	-11.2649
lers	-11.2651
▁abu	-11.2654
▁films	-11.2656
▁courts	-11.2663
▁blackjack	-11.2673
▁trains	-11.2673
del	-11.2708
▁gardens	-11.2716
▁mol	-11.2745
nos	-11.2751
▁builds	-11.2759
▁bel	-11.2768
gged	-11.2776
▁whistles	-11.2802
▁alarms	-11.2841
skys	-11.2868
▁mont	-11.2871
▁cur	-11.2884
iike	-11.2903
▁bangs	-11.2916
▁compet	-11.2923
▁ninety	-11.2929
▁grunt	-11.2943
▁cough	-11.2943
▁melt	-11.2944
▁require	-11.2954
▁headache	-11.2962
▁mandingo	-11.2962
▁coffin	-11.2966
▁nazi	-11.2967
▁instinct	-11.2969
▁resume	-11.2969
▁sausage	-11.2969
▁pockets	-11.2973
▁sheet	-11.2979
▁sob	-11.298
▁wanker	-11.2983
▁plac	-11.2984
▁merc	-11.3004
gling	-11.3014
▁das	-11.3019
▁aspirin	-11.3024
▁trips	-11.3028
▁fade	-11.3028
▁cocksuckers	-11.3039
▁skip	-11.3049
▁bites	-11.3055
vert	-11.3057
pec	-11.3062
▁investigations	-11.3079
pire	-11.3079
ought	-11.3086
▁counsel	-11.3086
ski	-11.3087
▁jr	-11.3088
oc	-11.3088
eja	-11.3099
tters	-11.3099
▁rav	-11.3107
▁cared	-11.3112
▁disappoint	-11.3115
▁unlock	-11.3119
▁host	-11.3124
▁bab	-11.3125
▁physic	-11.3125
ough	-11.3127
gun	-11.313
▁treats	-11.3131
hold	-11.3138
ward	-11.3142
▁recover	-11.3143
▁discover	-11.3144
▁smuggle	-11.3145
bound	-11.3145
ken	-11.3151
free	-11.3151
security	-11.3152
phone	-11.3152
clear	-11.3152
yeah	-11.3152
▁piay	-11.3153
▁disgust	-11.3154
year	-11.3154
▁cra	-11.3154
track	-11.3155
▁stalk	-11.3156
▁giusepp	-11.3156
think	-11.3158
▁senators	-11.3159
▁dismiss	-11.316
bath	-11.316
kill	-11.3162
maid	-11.3165
ible	-11.3165
▁ante	-11.3169
this	-11.3169
▁toll	-11.317
blo	-11.317
mobile	-11.3172
kind	-11.3173
▁peach	-11.3175
▁fer	-11.3175
▁examine	-11.3175
▁sympath	-11.3176
▁cicci	-11.3179
▁quo	-11.3179
▁ultimate	-11.3179
▁precise	-11.3181
▁reform	-11.3181
▁villa	-11.3181
▁detect	-11.3182
▁numb	-11.3183
▁underestimate	-11.3183
▁cl	-11.3185
▁algu	-11.3188
▁religio	-11.3188
▁interrogat	-11.3188
▁potato	-11.3189
▁africa	-11.3189
▁givin	-11.3191
▁abduct	-11.3191
▁rehabilitat	-11.3191
▁compensat	-11.3191
▁distribut	-11.3191
▁psychiatri	-11.3192
▁yyou	-11.3192
onica	-11.3193
▁dread	-11.3193
▁explo	-11.3193
▁domestic	-11.3194
▁oppos	-11.3194
▁hollow	-11.3194
▁treach	-11.3194
dolph	-11.3194
▁infant	-11.3194
▁accelerate	-11.3194
▁acidente	-11.3194
▁adapt	-11.3194
▁aiberto	-11.3194
▁airplane	-11.3194
▁annabelle	-11.3194
▁arrogant	-11.3194
▁audio	-11.3194
▁babysitter	-11.3194
▁balcon	-11.3194
▁banner	-11.3194
▁barbecue	-11.3194
▁bonsoir	-11.3194
▁boulevard	-11.3194
▁bourbon	-11.3194
▁bracken	-11.3194
▁bretodeau	-11.3194
▁byandby	-11.3194
▁cambodia	-11.3194
▁capacity	-11.3194
▁cecelia	-11.3194
▁centuries	-11.3194
▁cetera	-11.3194
▁christopher	-11.3194
▁collapse	-11.3194
▁commodus	-11.3194
▁condemned	-11.3194
▁condolences	-11.3194
▁curtain	-11.3194
▁deitrich	-11.3194
▁deliberately	-11.3194
▁demais	-11.3194
▁desaparece	-11.3194
▁dessert	-11.3194
▁dilemma	-11.3194
▁distress	-11.3194
▁doorknob	-11.3194
▁dummies	-11.3194
▁ecoust	-11.3194
▁elbow	-11.3194
▁elephant	-11.3194
▁episode	-11.3194
▁erinmore	-11.3194
▁evolution	-11.3194
▁fingernails	-11.3194
▁fischer	-11.3194
▁fitzsimmons	-11.3194
▁flinching	-11.3194
▁fontane	-11.3194
▁fountain	-11.3194
▁fuentes	-11.3194
▁gareth	-11.3194
▁generator	-11.3194
▁halberstram	-11.3194
▁handwriting	-11.3194
▁hercules	-11.3194
▁horribie	-11.3194
▁huddle	-11.3194
▁hurricane	-11.3194
▁ieft	-11.3194
▁imbecile	-11.3194
▁impact	-11.3194
▁indicate	-11.3194
▁industri	-11.3194
▁injury	-11.3194
▁integrity	-11.3194
▁intimidat	-11.3194
▁itzak	-11.3194
▁journey	-11.3194
▁klubecks	-11.3194
▁leather	-11.3194
▁lippman	-11.3194
▁loneliness	-11.3194
▁lynn	-11.3194
▁manhattan	-11.3194
▁margaret	-11.3194
▁melhor	-11.3194
▁midwest	-11.3194
▁misunderstood	-11.3194
▁montauk	-11.3194
▁mortimer	-11.3194
▁muffin	-11.3194
▁mwah	-11.3194
▁nebelsbad	-11.3194
▁negotiation	-11.3194
▁nigeria	-11.3194
▁nowadays	-11.3194
▁oasis	-11.3194
▁orchestra	-11.3194
▁overseas	-11.3194
▁oxygen	-11.3194
▁pasternak	-11.3194
▁pieasure	-11.3194
▁population	-11.3194
▁quincampoix	-11.3194
▁ramirez	-11.3194
▁rebenga	-11.3194
▁rebuild	-11.3194
▁reconcile	-11.3194
▁refrigerator	-11.3194
▁reserve	-11.3194
▁ribbon	-11.3194
▁ritual	-11.3194
▁script	-11.3194
▁shield	-11.3194
▁shokner	-11.3194
▁sibling	-11.3194
▁sisterinlaw	-11.3194
▁skateboard	-11.3194
▁smooch	-11.3194
▁strategic	-11.3194
▁szpilman	-11.3194
▁talbot	-11.3194
▁therapist	-11.3194
▁ticktock	-11.3194
▁tissue	-11.3194
▁toledo	-11.3194
▁torino	-11.3194
▁tucson	-11.3194
▁upgrade	-11.3194
▁vegetarian	-11.3194
▁veteran	-11.3194
▁vietcong	-11.3194
▁vincenzo	-11.3194
▁visual	-11.3194
▁wheezing	-11.3194
▁wisdom	-11.3194
▁woltz	-11.3194
▁baggage	-11.3194
▁blackmail	-11.3194
▁daqui	-11.3194
▁departed	-11.3194
▁disconnect	-11.3194
▁disobey	-11.3194
▁dmv	-11.3194
▁doutor	-11.3194
▁fortico	-11.3194
▁hooray	-11.3194
▁input	-11.3194
▁install	-11.3194
▁intel	-11.3194
▁jeffrey	-11.3194
▁launch	-11.3194
▁marvin	-11.3194
▁palermo	-11.3194
▁prix	-11.3194
▁relief	-11.3194
▁sliding	-11.3194
▁soninlaw	-11.3194
▁violin	-11.3194
▁amendment	-11.3194
▁ariel	-11.3194
▁buddies	-11.3194
▁cayman	-11.3194
▁cristal	-11.3194
▁disabled	-11.3194
▁faun	-11.3194
▁heartbreaker	-11.3194
▁horrorshow	-11.3194
▁howre	-11.3194
▁precisa	-11.3194
▁scandal	-11.3194
▁snoring	-11.3194
▁licence	-11.3194
▁lutz	-11.3194
▁payroll	-11.3194
▁pbr	-11.3194
▁pigeon	-11.3194
▁santoro	-11.3194
▁strained	-11.3194
▁trucoat	-11.3194
▁ciear	-11.3194
▁container	-11.3194
▁possibilities	-11.3194
▁violet	-11.3194
▁combined	-11.3194
▁ipo	-11.3194
▁hoyt	-11.3194
▁meatballs	-11.3194
▁ninth	-11.3194
▁renee	-11.3194
▁seminar	-11.3194
▁thump	-11.3194
▁shears	-11.3194
▁balm	-11.3194
▁longterm	-11.3194
▁civilization	-11.3194
▁telegraph	-11.3194
▁guildford	-11.3194
▁raspail	-11.3194
▁sloppy	-11.3194
▁helen	-11.3194
▁approval	-11.3194
▁dizzy	-11.3194
▁injuries	-11.3194
▁lizzy	-11.3194
▁mushroom	-11.3194
▁covet	-11.3194
▁margin	-11.3194
▁prophet	-11.3194
▁strapped	-11.3194
▁barfed	-11.3194
▁hammond	-11.3194
▁screenplay	-11.3194
▁mauricio	-11.3194
▁mineral	-11.3194
▁sponsorship	-11.3194
▁deleye	-11.3194
▁imitation	-11.3194
▁suprem	-11.3194
▁applies	-11.3194
▁snatch	-11.3194
▁giggle	-11.3194
▁pucker	-11.3194
▁townsend	-11.3194
▁essence	-11.3194
▁bathtub	-11.3194
▁bloom	-11.3194
▁videotape	-11.3194
▁web	-11.3194
▁farewell	-11.3194
▁interstate	-11.3194
▁discreet	-11.3194
▁poiitic	-11.3194
odoo	-11.3194
▁mansell	-11.3194
▁skunk	-11.3194
▁gauge	-11.3194
▁mustache	-11.3194
▁gag	-11.3194
▁sierraone	-11.3194
▁brasi	-11.3194
▁dinah	-11.3194
▁insect	-11.3194
▁blunt	-11.3195
▁function	-11.3195
▁dipshit	-11.3195
▁graduation	-11.3195
▁furious	-11.3195
▁bragging	-11.3195
▁envy	-11.3195
▁canada	-11.3195
▁carru	-11.3195
▁appro	-11.3195
▁calib	-11.3195
▁haggle	-11.3195
▁cohen	-11.3195
▁enzo	-11.3195
▁crisp	-11.3195
▁mendl	-11.3195
▁incarceration	-11.3195
▁gloria	-11.3195
▁lenny	-11.3195
▁ponies	-11.3195
▁flashlight	-11.3195
▁mornin	-11.3195
▁interior	-11.3195
▁feature	-11.3195
▁sieep	-11.3195
▁consum	-11.3195
▁grove	-11.3195
▁begun	-11.3195
▁forehead	-11.3195
▁charging	-11.3195
▁consultant	-11.3195
▁romina	-11.3195
▁embarrassment	-11.3195
▁upstate	-11.3195
▁chinamen	-11.3195
▁abortion	-11.3195
▁scag	-11.3195
▁carolina	-11.3195
▁dork	-11.3195
▁crips	-11.3195
▁visto	-11.3195
▁monica	-11.3195
▁blowjob	-11.3195
▁cuff	-11.3195
▁ferri	-11.3195
▁stunt	-11.3195
▁unhappy	-11.3195
▁onions	-11.3195
▁pony	-11.3195
▁southbound	-11.3196
▁fiber	-11.3196
▁flipped	-11.3196
▁leap	-11.3196
▁dependent	-11.3196
▁baseball	-11.3196
▁creative	-11.3196
▁swimmer	-11.3196
▁southeast	-11.3196
▁slightest	-11.3196
▁celebrity	-11.3196
▁existence	-11.3196
▁temple	-11.3196
▁happie	-11.3196
▁compound	-11.3196
▁madrid	-11.3196
▁adjust	-11.3196
▁richard	-11.3196
▁morris	-11.3196
▁thieves	-11.3196
▁robot	-11.3196
▁transportation	-11.3196
▁poop	-11.3196
▁bride	-11.3196
▁henchm	-11.3196
▁turk	-11.3196
▁quarterback	-11.3196
▁roam	-11.3196
▁matou	-11.3196
▁georgette	-11.3196
▁aione	-11.3196
▁halt	-11.3196
▁powerboat	-11.3197
▁mmmmmm	-11.3197
icular	-11.3197
▁ladder	-11.3197
▁compensation	-11.3197
▁valet	-11.3197
▁trang	-11.3197
▁sermon	-11.3197
▁hoover	-11.3197
▁tension	-11.3197
▁survivor	-11.3197
▁sector	-11.3197
▁masterpiece	-11.3197
▁fourteen	-11.3197
▁swap	-11.3197
▁worn	-11.3197
▁chinaman	-11.3197
▁mumbles	-11.3197
▁biki	-11.3198
▁neri	-11.3198
▁pearl	-11.3198
imately	-11.3198
▁respectfully	-11.3198
▁kike	-11.3198
▁affection	-11.3198
▁branch	-11.3198
▁qual	-11.3198
▁corruption	-11.3198
▁centre	-11.3198
▁morality	-11.3199
▁courtney	-11.3199
▁define	-11.3199
▁dignity	-11.3199
▁solicit	-11.3199
▁statue	-11.3199
▁conway	-11.3199
▁slippery	-11.3199
▁smother	-11.3199
▁terrorism	-11.3199
▁inquiries	-11.3199
▁vince	-11.3199
▁regardless	-11.3199
▁sept	-11.3199
▁royalty	-11.32
▁spiderman	-11.32
▁celebrating	-11.32
sto	-11.32
▁creation	-11.32
▁philosophy	-11.3201
jah	-11.3201
▁salary	-11.3201
▁spotted	-11.3201
▁beings	-11.3201
▁rum	-11.3201
▁funnylooking	-11.3201
▁confine	-11.3201
▁electricity	-11.3201
▁exam	-11.3201
▁budget	-11.3201
▁microwave	-11.3201
▁troubie	-11.3201
▁julian	-11.3201
▁denny	-11.3202
▁fitts	-11.3202
▁vila	-11.3202
brew	-11.3202
▁colon	-11.3202
▁detector	-11.3202
▁chow	-11.3202
▁salesman	-11.3202
▁stra	-11.3202
▁frost	-11.3202
▁hopefully	-11.3202
▁breed	-11.3202
ulla	-11.3202
▁antib	-11.3202
▁temper	-11.3203
▁trainee	-11.3203
▁rosie	-11.3203
▁adjourned	-11.3204
▁facebook	-11.3204
▁amongst	-11.3204
▁outra	-11.3205
▁fuse	-11.3205
▁sheer	-11.3205
▁stripper	-11.3206
▁footage	-11.3206
▁household	-11.3206
▁certainiy	-11.3206
▁tappy	-11.3206
▁wop	-11.3207
▁wolfie	-11.3207
▁valid	-11.3207
▁precisely	-11.3207
▁bunker	-11.3208
ximo	-11.3209
▁zion	-11.321
▁dug	-11.321
▁obliged	-11.321
▁yea	-11.321
▁deliveries	-11.3211
▁comment	-11.3211
▁madness	-11.3211
▁stray	-11.3212
▁recovery	-11.3212
▁lighthouse	-11.3212
▁exploded	-11.3212
▁unhand	-11.3212
▁bushes	-11.3212
▁nba	-11.3213
▁qualified	-11.3213
▁ache	-11.3213
▁scrub	-11.3214
▁specialist	-11.3214
icious	-11.3214
▁ivan	-11.3214
▁partial	-11.3214
▁required	-11.3216
▁inout	-11.3217
▁alcoholic	-11.3217
▁dame	-11.3217
▁zlotys	-11.3218
▁scot	-11.3218
▁elected	-11.3219
▁hissing	-11.3221
▁narrator	-11.3221
▁daylight	-11.3221
▁clanging	-11.3222
▁tart	-11.3222
▁viu	-11.3223
▁region	-11.3223
▁wealthy	-11.3224
▁cheeky	-11.3224
▁specialty	-11.3228
cat	-11.3228
▁vocation	-11.3229
▁iate	-11.3229
▁cries	-11.3231
▁rental	-11.3231
▁violently	-11.3232
▁worthless	-11.3233
▁stalker	-11.3233
▁eighth	-11.3234
▁gunner	-11.3236
▁primeir	-11.3236
▁lever	-11.3237
▁safest	-11.324
▁improvis	-11.3241
▁haunted	-11.3242
▁kia	-11.3242
▁kor	-11.3242
▁shutting	-11.3244
▁maid	-11.3245
▁dickus	-11.3246
▁spoiled	-11.3248
▁peek	-11.3253
▁eta	-11.3254
▁useful	-11.3254
▁impulsive	-11.3255
▁sur	-11.3255
eza	-11.3258
▁prevails	-11.3258
working	-11.3258
eep	-11.3259
▁limb	-11.3259
▁rapid	-11.326
▁mums	-11.326
py	-11.3261
▁samm	-11.3261
▁herb	-11.3262
▁buzzer	-11.3264
▁rust	-11.3265
▁corporat	-11.3265
▁lineup	-11.3267
▁vet	-11.327
▁designed	-11.3273
▁dante	-11.3275
▁pina	-11.3275
▁valued	-11.3275
▁cutter	-11.3276
▁ruler	-11.3276
▁kneel	-11.3276
eller	-11.3276
▁pumping	-11.3284
▁swinging	-11.3285
▁smiles	-11.3287
▁silencer	-11.3287
▁printed	-11.3288
▁joints	-11.3288
▁tube	-11.329
▁nanny	-11.3292
▁assumed	-11.3292
▁scratching	-11.3292
▁granted	-11.3293
▁beaches	-11.3293
▁recognized	-11.3295
sap	-11.3296
▁supplies	-11.3297
▁spurs	-11.3298
▁hungarians	-11.33
▁investors	-11.33
▁offenders	-11.3305
▁sadly	-11.3305
▁cows	-11.3313
▁nailed	-11.3315
▁lim	-11.3316
zy	-11.3321
▁classy	-11.3325
▁cape	-11.3334
▁readers	-11.3336
▁insisted	-11.3337
rated	-11.3337
▁antiques	-11.3342
▁canvass	-11.3342
▁creatures	-11.3342
▁gotcha	-11.3345
▁punched	-11.3354
▁espere	-11.3354
▁blamed	-11.3359
▁consegui	-11.336
▁proves	-11.3367
▁sai	-11.337
▁traveling	-11.3378
▁requested	-11.3382
▁smiled	-11.3383
▁peanuts	-11.3384
▁stains	-11.3385
uli	-11.3386
▁tit	-11.3388
▁dose	-11.3393
▁driven	-11.3399
▁rud	-11.3403
▁shortly	-11.3403
▁moans	-11.3405
▁existed	-11.3406
▁pier	-11.3409
▁rebels	-11.3415
▁added	-11.3416
wing	-11.3417
eye	-11.3419
▁continued	-11.3422
▁unity	-11.3422
▁contacted	-11.3425
▁coffins	-11.3427
▁nazis	-11.3427
▁luc	-11.343
▁sucked	-11.3434
▁stared	-11.3435
ano	-11.3435
▁manson	-11.3447
vam	-11.3451
▁hacker	-11.3454
▁suggesting	-11.3461
rid	-11.3467
▁compliments	-11.347
▁carats	-11.347
▁shipp	-11.3474
▁rebel	-11.3474
▁cli	-11.3477
▁ohio	-11.3484
nies	-11.3484
bal	-11.3489
cede	-11.3492
▁prayers	-11.3493
esque	-11.3498
▁missin	-11.3503
▁hast	-11.3504
lan	-11.3508
▁resolve	-11.3509
▁communists	-11.351
▁marbles	-11.3511
▁nicker	-11.3512
▁lambs	-11.3513
▁greetings	-11.3513
▁sharks	-11.3513
▁diga	-11.3516
▁hunters	-11.3517
▁wat	-11.3535
▁din	-11.3536
▁treating	-11.3541
▁them	-11.355
▁quem	-11.3551
▁bomber	-11.3552
▁drinkin	-11.3553
▁eyeballs	-11.3556
hus	-11.3561
▁frenchy	-11.3561
cura	-11.3564
▁cans	-11.3567
▁cocking	-11.3572
▁pissing	-11.3584
▁ringo	-11.3594
▁bananas	-11.3599
▁bubbles	-11.3599
▁burgers	-11.3599
▁gloves	-11.3599
▁gl	-11.36
ker	-11.3605
▁batt	-11.3605
▁tease	-11.3607
star	-11.3617
▁lig	-11.362
▁raining	-11.3639
▁rags	-11.3641
▁superiors	-11.3643
▁nerves	-11.3643
▁stevens	-11.365
▁planes	-11.3674
▁funds	-11.3677
▁demands	-11.3686
▁coupe	-11.3694
bra	-11.3722
▁tickle	-11.3724
▁lion	-11.3728
▁spiders	-11.373
▁will	-11.3731
▁sou	-11.3732
▁bio	-11.3739
▁tab	-11.374
boat	-11.3746
▁joining	-11.3755
▁goat	-11.3755
▁tigers	-11.3774
▁attacking	-11.3779
▁holdin	-11.3823
sley	-11.3833
pan	-11.3838
▁imim	-11.3838
▁sm	-11.3841
▁workers	-11.3847
▁claims	-11.3848
▁murdering	-11.3853
▁servants	-11.3862
▁corpses	-11.3867
▁hike	-11.387
▁bern	-11.3879
▁moan	-11.3879
▁feelin	-11.3885
▁lifeguards	-11.3907
▁royals	-11.3907
ification	-11.3918
seventh	-11.3919
▁fortunate	-11.393
bble	-11.3945
baked	-11.3954
▁usc	-11.3963
▁sites	-11.3964
▁scams	-11.3977
dental	-11.3979
indo	-11.3995
▁clo	-11.4004
▁fees	-11.4015
▁slowing	-11.4017
▁chicks	-11.4041
▁bri	-11.4069
ior	-11.407
angle	-11.408
kin	-11.4106
try	-11.4117
▁bedrooms	-11.4132
erie	-11.4137
▁graduate	-11.4148
gh	-11.4164
▁waitin	-11.4184
▁handy	-11.4187
team	-11.4219
cut	-11.422
▁conc	-11.4237
gus	-11.4239
kes	-11.424
af	-11.4251
▁meals	-11.4269
▁wha	-11.4271
▁den	-11.4281
▁pitas	-11.4322
▁israel	-11.4336
▁improv	-11.4344
▁boyfriends	-11.4362
▁boyles	-11.4363
▁ordering	-11.439
▁regrets	-11.4403
▁ut	-11.4404
▁slaves	-11.4411
ario	-11.4437
▁moh	-11.4438
▁ref	-11.4443
▁pressures	-11.4455
▁mod	-11.4461
olo	-11.4462
▁devi	-11.4466
▁sizes	-11.4473
egan	-11.448
udge	-11.4486
▁reno	-11.449
ulate	-11.4497
▁aro	-11.4502
lett	-11.4505
▁pam	-11.4509
iotic	-11.4534
far	-11.4543
hia	-11.456
rad	-11.4578
emos	-11.4599
▁peri	-11.461
ept	-11.464
▁grip	-11.4658
erial	-11.4664
orn	-11.467
▁wires	-11.4671
vida	-11.4698
entry	-11.4707
▁bon	-11.4716
illa	-11.474
▁ber	-11.4746
rine	-11.476
anc	-11.477
▁duel	-11.4771
nder	-11.4775
nky	-11.4776
▁easter	-11.4803
▁digg	-11.4815
▁mam	-11.4823
cable	-11.4828
hopper	-11.4872
mond	-11.4874
▁tire	-11.488
uro	-11.4884
ummy	-11.4911
▁affect	-11.4921
▁metall	-11.4924
▁vir	-11.4932
▁groan	-11.4944
unning	-11.4953
▁razor	-11.4961
▁pic	-11.4962
▁cadillac	-11.4962
▁emotion	-11.4965
▁peanut	-11.4966
▁length	-11.4968
▁chemical	-11.4969
▁citizen	-11.4969
▁stamp	-11.4969
▁cliff	-11.4972
▁politician	-11.4977
▁raw	-11.4978
▁stain	-11.4978
▁teamster	-11.4991
ckers	-11.4994
▁wit	-11.5007
▁lass	-11.5029
▁bol	-11.5049
▁critic	-11.5052
▁lung	-11.5068
▁terror	-11.5072
etts	-11.5073
▁cran	-11.5074
▁compar	-11.5083
▁bun	-11.509
dge	-11.5097
face	-11.5098
▁flee	-11.5102
▁broker	-11.5103
mark	-11.511
▁refus	-11.5111
▁serv	-11.5111
night	-11.5114
▁embarrass	-11.5119
▁wiggl	-11.5124
▁div	-11.5125
nte	-11.5128
▁promis	-11.5129
real	-11.5129
ingu	-11.513
ship	-11.513
iage	-11.514
▁buff	-11.514
keep	-11.5144
fold	-11.5145
park	-11.5147
know	-11.5148
flower	-11.515
american	-11.515
powder	-11.515
▁applaud	-11.5152
distance	-11.5152
jesus	-11.5152
▁snort	-11.5152
lick	-11.5153
▁echo	-11.5153
▁reject	-11.5153
▁possess	-11.5156
▁reopen	-11.5156
level	-11.5156
class	-11.5156
▁buen	-11.5157
▁cit	-11.5158
▁adopt	-11.5159
▁vouch	-11.5159
▁ano	-11.516
▁wail	-11.516
▁teenage	-11.5161
▁shag	-11.5161
▁shar	-11.5162
itz	-11.5163
▁profession	-11.5163
▁soil	-11.5163
aiiy	-11.5165
ron	-11.5167
stand	-11.5168
▁pour	-11.5169
band	-11.5171
▁determine	-11.5173
▁explode	-11.5174
▁confuse	-11.5174
▁kat	-11.5174
▁ax	-11.5174
▁should	-11.5175
chop	-11.5175
▁oops	-11.5176
▁howl	-11.5177
▁aureli	-11.5178
▁incredibl	-11.5179
zero	-11.518
▁sway	-11.5182
▁apparent	-11.5182
▁execute	-11.5182
▁retain	-11.5182
▁simp	-11.5183
▁marsh	-11.5184
sized	-11.5185
▁choi	-11.5185
marked	-11.5185
cular	-11.5186
▁waitress	-11.5187
▁consult	-11.5188
▁react	-11.519
▁rook	-11.519
▁probab	-11.519
▁recent	-11.5191
▁leavin	-11.5191
▁prior	-11.5191
▁automat	-11.5192
▁darlin	-11.5192
▁commen	-11.5193
▁progress	-11.5193
▁cinema	-11.5193
orris	-11.5194
▁holly	-11.5194
▁neighbour	-11.5194
▁imagina	-11.5194
agonizing	-11.5194
behaving	-11.5194
dwarf	-11.5194
▁acontec	-11.5194
▁aerotyne	-11.5194
▁agencies	-11.5194
▁alimony	-11.5194
▁andretti	-11.5194
▁annoying	-11.5194
▁applied	-11.5194
▁appraise	-11.5194
▁appropriate	-11.5194
▁aristocrat	-11.5194
▁asylum	-11.5194
▁autograph	-11.5194
▁avalon	-11.5194
▁battalion	-11.5194
▁baxter	-11.5194
▁beaucoup	-11.5194
▁belief	-11.5194
▁bimmel	-11.5194
▁brantner	-11.5194
▁burglar	-11.5194
▁cartagena	-11.5194
▁catania	-11.5194
▁cellblock	-11.5194
▁chigurh	-11.5194
▁cicero	-11.5194
▁circling	-11.5194
▁classified	-11.5194
▁clerk	-11.5194
▁cobolt	-11.5194
▁compromise	-11.5194
▁corcoran	-11.5194
▁coworkers	-11.5194
▁creativity	-11.5194
▁croix	-11.5194
▁crucify	-11.5194
▁dalsum	-11.5194
▁damico	-11.5194
▁defeat	-11.5194
▁demolition	-11.5194
▁departure	-11.5194
▁dildo	-11.5194
▁diminish	-11.5194
▁dinosaur	-11.5194
▁discount	-11.5194
▁disneyland	-11.5194
▁disorder	-11.5194
▁duchess	-11.5194
▁eccentric	-11.5194
▁einstein	-11.5194
▁elegant	-11.5194
▁enhance	-11.5194
▁erika	-11.5194
▁errand	-11.5194
▁eternity	-11.5194
▁excellency	-11.5194
▁exleper	-11.5194
▁explanation	-11.5194
▁extortion	-11.5194
▁fabienne	-11.5194
▁fiction	-11.5194
▁flawless	-11.5194
▁fuji	-11.5194
▁georgia	-11.5194
▁gerard	-11.5194
▁google	-11.5194
▁guidance	-11.5194
▁gurdlinger	-11.5194
▁gustafson	-11.5194
▁hallelu	-11.5194
▁hancock	-11.5194
▁happily	-11.5194
▁hayworth	-11.5194
▁heaith	-11.5194
▁hehheh	-11.5194
▁homosexual	-11.5194
▁hubert	-11.5194
▁humiliation	-11.5194
▁humour	-11.5194
▁ieaving	-11.5194
▁insecure	-11.5194
▁intact	-11.5194
▁isolat	-11.5194
▁jagoff	-11.5194
▁jukebox	-11.5194
▁kalfus	-11.5194
▁kalliste	-11.5194
▁kamasutra	-11.5194
▁ketchup	-11.5194
▁kilometer	-11.5194
▁knicks	-11.5194
▁knives	-11.5194
▁kruczynski	-11.5194
▁kurlen	-11.5194
▁lambeau	-11.5194
▁laundering	-11.5194
▁lifestyle	-11.5194
▁limousine	-11.5194
▁lnfantry	-11.5194
▁lollipop	-11.5194
▁loretta	-11.5194
▁malchick	-11.5194
▁mathematic	-11.5194
▁mechanism	-11.5194
▁memphis	-11.5194
▁molasses	-11.5194
▁mouthwash	-11.5194
▁munroe	-11.5194
▁myseif	-11.5194
▁necessarily	-11.5194
▁necklace	-11.5194
▁nevada	-11.5194
▁nicholas	-11.5194
▁nipper	-11.5194
▁oblivio	-11.5194
▁ogura	-11.5194
▁oldfashioned	-11.5194
▁opium	-11.5194
▁osaka	-11.5194
▁outreach	-11.5194
▁overthrow	-11.5194
▁paranoia	-11.5194
▁peckerwood	-11.5194
▁peculiar	-11.5194
▁persuasive	-11.5194
▁postmortem	-11.5194
▁precaution	-11.5194
▁preciso	-11.5194
▁predator	-11.5194
▁prejudice	-11.5194
▁probation	-11.5194
▁raffle	-11.5194
▁reassigned	-11.5194
▁receiving	-11.5194
▁reclamation	-11.5194
▁renounce	-11.5194
▁reynaldo	-11.5194
▁rhonda	-11.5194
▁rockefeller	-11.5194
▁rollercoaster	-11.5194
▁sabrina	-11.5194
▁sarcastic	-11.5194
▁scorpion	-11.5194
▁seagull	-11.5194
▁serrano	-11.5194
▁shrieking	-11.5194
▁significance	-11.5194
▁significant	-11.5194
▁solidarity	-11.5194
▁somewhat	-11.5194
▁spaniard	-11.5194
▁species	-11.5194
▁spectacle	-11.5194
▁splendid	-11.5194
▁stammers	-11.5194
▁superficial	-11.5194
▁sybil	-11.5194
▁symphony	-11.5194
▁teiephone	-11.5194
▁tessio	-11.5194
▁throttle	-11.5194
▁toxic	-11.5194
▁treasure	-11.5194
▁triumph	-11.5194
▁tshirt	-11.5194
▁unemployed	-11.5194
▁unfair	-11.5194
▁university	-11.5194
▁unlucky	-11.5194
▁variety	-11.5194
▁vazir	-11.5194
▁vinegar	-11.5194
▁vulgar	-11.5194
▁walace	-11.5194
▁wardrobe	-11.5194
▁wheelchair	-11.5194
▁whereabouts	-11.5194
▁wouah	-11.5194
▁yelping	-11.5194
▁aconteceu	-11.5194
▁acredit	-11.5194
▁bethany	-11.5194
▁brotherinlaw	-11.5194
▁cannibal	-11.5194
▁canyon	-11.5194
▁casual	-11.5194
▁ciclo	-11.5194
▁cierra	-11.5194
▁dawg	-11.5194
▁debate	-11.5194
▁demise	-11.5194
▁dorfman	-11.5194
▁fatherinlaw	-11.5194
▁fuzzy	-11.5194
▁gracias	-11.5194
▁hadley	-11.5194
▁hamburger	-11.5194
▁houston	-11.5194
▁illustrat	-11.5194
▁jochen	-11.5194
▁landscape	-11.5194
▁leash	-11.5194
▁manacles	-11.5194
▁missouri	-11.5194
▁nickname	-11.5194
▁ongoing	-11.5194
▁oooh	-11.5194
▁pfft	-11.5194
▁practicing	-11.5194
▁rehab	-11.5194
▁remorse	-11.5194
▁sensation	-11.5194
▁thread	-11.5194
▁tragic	-11.5194
▁transsexual	-11.5194
▁wattles	-11.5194
▁angei	-11.5194
▁beautifui	-11.5194
▁emblem	-11.5194
▁evelyn	-11.5194
▁halina	-11.5194
▁hardcore	-11.5194
▁kovacs	-11.5194
▁nitroglycerin	-11.5194
▁porfavor	-11.5194
▁roaring	-11.5194
▁tactics	-11.5194
▁xray	-11.5194
niper	-11.5194
▁flicks	-11.5194
▁nevertheless	-11.5194
▁waving	-11.5194
▁zane	-11.5194
▁biood	-11.5194
▁grapes	-11.5194
▁liberat	-11.5194
▁majorek	-11.5194
▁oven	-11.5194
▁straining	-11.5194
▁surprising	-11.5194
▁synthe	-11.5194
▁douglas	-11.5194
▁blouse	-11.5194
▁depressing	-11.5194
▁garces	-11.5194
▁hottest	-11.5194
▁noticing	-11.5194
▁acquaintance	-11.5194
▁adios	-11.5194
▁backpack	-11.5194
▁bennings	-11.5194
▁goodwill	-11.5194
▁overseer	-11.5194
▁padre	-11.5194
▁wrestle	-11.5194
sensible	-11.5194
▁dyle	-11.5194
▁flynn	-11.5194
▁ouais	-11.5194
▁muttering	-11.5194
▁pepsi	-11.5194
▁fuchs	-11.5194
▁shiny	-11.5194
▁sieve	-11.5194
▁mourn	-11.5194
▁oppress	-11.5194
▁heights	-11.5194
▁tidy	-11.5194
▁cartridge	-11.5194
▁chisel	-11.5194
▁fasci	-11.5194
▁forecast	-11.5194
▁diversion	-11.5194
▁doris	-11.5194
▁gym	-11.5194
▁lipstick	-11.5194
▁influence	-11.5194
▁shabbos	-11.5194
▁temperature	-11.5194
▁titties	-11.5194
▁toffs	-11.5194
▁cannoli	-11.5194
▁cartoon	-11.5194
▁luckily	-11.5194
▁coiombians	-11.5194
▁normandy	-11.5194
▁psychological	-11.5194
▁bicycle	-11.5194
▁justify	-11.5194
▁sportscast	-11.5194
▁lamar	-11.5194
▁anchor	-11.5194
▁lottery	-11.5194
▁airlines	-11.5194
▁pause	-11.5194
▁priorities	-11.5194
▁scarface	-11.5194
▁trading	-11.5194
▁violated	-11.5194
▁bugged	-11.5194
▁meself	-11.5194
▁rookwood	-11.5194
▁twentysix	-11.5194
▁rooster	-11.5194
▁prescription	-11.5194
▁fluff	-11.5194
▁lodge	-11.5194
▁romy	-11.5194
▁steward	-11.5194
▁slren	-11.5194
▁penetrat	-11.5194
▁assignment	-11.5194
▁sizzling	-11.5195
▁leadership	-11.5195
▁stoning	-11.5195
▁liable	-11.5195
borough	-11.5195
▁kitten	-11.5195
▁scale	-11.5195
▁display	-11.5195
▁aaronson	-11.5195
▁cherie	-11.5195
▁jenny	-11.5195
▁swapped	-11.5195
▁degrad	-11.5195
▁resettle	-11.5195
▁roderick	-11.5195
▁thirtyfive	-11.5195
▁promotion	-11.5195
▁stacy	-11.5195
▁conceiv	-11.5195
▁cruz	-11.5195
▁intercom	-11.5195
▁leaf	-11.5195
▁forbidden	-11.5195
▁spinning	-11.5195
▁crabs	-11.5195
▁squash	-11.5195
▁ciose	-11.5195
▁whatwhat	-11.5195
▁outrageous	-11.5195
▁hostile	-11.5195
▁overcome	-11.5195
▁relevant	-11.5195
▁cooing	-11.5195
▁organisation	-11.5195
▁gooey	-11.5195
▁nineteen	-11.5195
▁meek	-11.5195
▁donald	-11.5195
▁patriot	-11.5195
▁resurrection	-11.5195
▁clinic	-11.5195
▁contribution	-11.5195
▁tenants	-11.5195
▁grill	-11.5195
▁moonlight	-11.5195
▁newswatch	-11.5195
▁sissy	-11.5195
▁consciousness	-11.5195
▁sailors	-11.5195
▁migue	-11.5195
▁verify	-11.5195
▁veal	-11.5195
▁dripping	-11.5195
▁infantry	-11.5195
▁wellbeing	-11.5195
▁massac	-11.5196
▁slack	-11.5196
▁crude	-11.5196
▁observation	-11.5196
▁dreadful	-11.5196
▁whiff	-11.5196
▁contrary	-11.5196
▁dags	-11.5196
▁sipping	-11.5196
▁beauties	-11.5196
▁metres	-11.5196
▁racist	-11.5196
▁knight	-11.5196
▁priority	-11.5196
▁tapped	-11.5196
▁favourite	-11.5196
▁income	-11.5196
▁massacre	-11.5196
▁cellphone	-11.5196
▁titty	-11.5196
▁anniversary	-11.5196
▁throne	-11.5196
▁storeroom	-11.5196
▁heir	-11.5197
▁lowlife	-11.5197
▁afghanis	-11.5197
▁hyp	-11.5197
▁intro	-11.5197
▁lauren	-11.5197
▁graveyard	-11.5197
▁boothby	-11.5197
▁sobel	-11.5197
▁hesitate	-11.5197
▁merit	-11.5197
▁yonder	-11.5197
▁kitty	-11.5197
▁haircut	-11.5197
▁conven	-11.5197
equil	-11.5197
▁chopped	-11.5197
▁beverage	-11.5197
▁quack	-11.5197
▁transform	-11.5197
▁sixteen	-11.5197
▁phu	-11.5197
▁shah	-11.5197
▁attendant	-11.5197
▁poke	-11.5198
▁tedious	-11.5198
▁frog	-11.5198
▁attic	-11.5198
▁stove	-11.5198
▁karate	-11.5198
▁psychotic	-11.5198
▁beggar	-11.5198
▁slick	-11.5198
▁merle	-11.5198
▁sophisticated	-11.5198
▁denise	-11.5198
▁fugi	-11.5199
▁deste	-11.5199
▁waist	-11.5199
▁poland	-11.5199
▁hoof	-11.5199
▁chlor	-11.5199
▁hound	-11.5199
▁shuddering	-11.5199
▁senile	-11.52
▁fiddle	-11.52
▁fernando	-11.52
▁snot	-11.52
▁intervention	-11.52
▁sheehan	-11.52
▁closure	-11.52
▁heist	-11.52
▁compel	-11.52
▁dominick	-11.52
▁vulnerable	-11.52
▁reset	-11.52
▁convention	-11.52
▁delgado	-11.5201
▁monk	-11.5201
▁baii	-11.5201
▁pelle	-11.5201
▁wax	-11.5201
▁brah	-11.5201
▁relieved	-11.5202
▁essa	-11.5202
▁undies	-11.5202
▁duh	-11.5202
▁waii	-11.5202
▁marina	-11.5203
▁terra	-11.5203
▁heather	-11.5203
look	-11.5203
▁armsby	-11.5203
▁floorboard	-11.5203
▁haif	-11.5204
▁minus	-11.5204
▁charon	-11.5204
▁buckle	-11.5204
ewer	-11.5204
▁yarbi	-11.5205
azza	-11.5205
▁barney	-11.5205
▁pius	-11.5205
▁vol	-11.5206
▁plum	-11.5206
▁chess	-11.5206
▁courthouse	-11.5206
▁attached	-11.5206
▁brotherhood	-11.5206
▁mailman	-11.5206
▁hence	-11.5206
▁witch	-11.5206
▁humiliated	-11.5206
▁invaded	-11.5206
▁pian	-11.5207
▁rusk	-11.5207
▁collection	-11.5208
aries	-11.5208
▁delia	-11.5208
▁authoriz	-11.5208
▁mustard	-11.5208
▁conscious	-11.5209
▁hardware	-11.5209
▁shallow	-11.5209
▁lsnt	-11.5209
▁scent	-11.521
▁gaga	-11.521
▁creaking	-11.5211
▁dizer	-11.5211
ullet	-11.5211
metric	-11.5211
▁lye	-11.5211
▁irishman	-11.5211
agged	-11.5211
▁entra	-11.5212
▁hugh	-11.5212
illiard	-11.5212
▁delay	-11.5212
▁tele	-11.5213
▁cellul	-11.5214
▁instantly	-11.5214
▁flattered	-11.5214
▁indicted	-11.5214
▁invented	-11.5214
▁frame	-11.5214
▁eunt	-11.5215
▁fertilize	-11.5215
▁hitler	-11.5215
▁contractor	-11.5215
▁fro	-11.5215
▁gobble	-11.5216
▁sympathy	-11.5216
▁campus	-11.5216
▁discovery	-11.5216
▁organised	-11.5216
post	-11.5216
▁comedy	-11.5217
▁retreating	-11.5219
▁surrounding	-11.5219
▁clanking	-11.5219
▁battery	-11.522
▁liability	-11.522
▁fitzg	-11.5221
▁mock	-11.5221
▁lecture	-11.5223
▁ej	-11.5223
▁atm	-11.5223
▁heroic	-11.5223
lnglng	-11.5224
▁driveway	-11.5224
▁bom	-11.5225
▁gig	-11.5227
▁viet	-11.5227
▁sandwiches	-11.5228
▁lobster	-11.5228
▁ricocheting	-11.5228
▁hospitality	-11.5228
▁adopted	-11.523
▁possessed	-11.523
▁bouncing	-11.523
▁dart	-11.523
▁promoted	-11.5231
▁mash	-11.5231
clubbing	-11.5231
▁filing	-11.5232
▁phd	-11.5233
▁starve	-11.5233
▁prosecuted	-11.5234
▁programme	-11.5234
▁carrier	-11.5237
▁active	-11.5237
▁desperately	-11.5238
▁neg	-11.5239
▁pale	-11.5239
▁seized	-11.5239
▁cuban	-11.524
▁achieved	-11.5241
legged	-11.5242
▁gimp	-11.5242
▁posters	-11.5244
▁exhausted	-11.5245
▁invested	-11.5245
▁barge	-11.5245
▁spine	-11.5246
▁digest	-11.5246
▁musician	-11.5246
▁skimm	-11.5246
▁sexually	-11.5247
▁goodnight	-11.5248
▁disappointing	-11.5248
▁wiser	-11.5249
▁jackass	-11.525
▁vig	-11.525
▁fur	-11.5251
▁skid	-11.5251
▁arc	-11.5252
▁mule	-11.5253
▁assum	-11.5253
▁esp	-11.5253
▁addicted	-11.5253
▁replaced	-11.5255
▁crashes	-11.5256
▁compare	-11.5257
▁steering	-11.5258
▁chester	-11.5258
▁berg	-11.526
▁logo	-11.5261
▁cursed	-11.5262
coming	-11.5262
▁conclude	-11.5264
▁lex	-11.5266
▁mono	-11.5267
▁disrespectful	-11.5267
▁stupidity	-11.5269
▁solo	-11.5269
▁harris	-11.5271
▁vitamins	-11.5274
▁mortes	-11.5274
▁maxie	-11.5274
▁straps	-11.5274
▁itch	-11.5277
▁beth	-11.5277
▁cheating	-11.5278
▁clarke	-11.5279
▁core	-11.5281
▁lighten	-11.5281
▁breez	-11.5283
▁dela	-11.5283
▁funded	-11.5285
▁poly	-11.5285
▁flowing	-11.5287
▁gaz	-11.5288
▁cheaper	-11.5288
▁cryin	-11.5293
▁yale	-11.5296
▁disturbing	-11.5297
▁skiing	-11.5297
▁depending	-11.5298
▁dresses	-11.5299
▁kindness	-11.53
▁smashed	-11.5301
▁oy	-11.5302
▁fiy	-11.5303
▁smoothie	-11.5304
▁geary	-11.5306
▁defending	-11.5306
▁harp	-11.5306
▁crawling	-11.5307
▁drilling	-11.5307
▁contra	-11.531
▁your	-11.531
▁slaver	-11.5312
▁bossman	-11.5316
▁appeared	-11.5319
▁counsell	-11.5324
▁kilos	-11.5326
▁footprints	-11.5326
▁implants	-11.5326
▁maggots	-11.5326
▁warriors	-11.5326
▁claws	-11.5326
kov	-11.5328
▁but	-11.5332
▁borrowed	-11.5332
quer	-11.5336
▁leaking	-11.5336
▁lame	-11.5338
▁cav	-11.5339
▁buster	-11.5339
itary	-11.5339
self	-11.5345
▁careless	-11.535
▁fisher	-11.5353
▁leaning	-11.5354
▁fra	-11.536
▁begg	-11.5362
▁risky	-11.5363
▁spooked	-11.5363
▁mailed	-11.5364
▁proceeded	-11.5365
▁legally	-11.5371
▁assassinate	-11.5373
▁ador	-11.5374
▁millionaires	-11.5378
▁principles	-11.5378
▁elders	-11.5378
▁ribs	-11.5379
▁understandable	-11.5381
▁emp	-11.5382
▁micky	-11.5384
▁tilt	-11.5384
▁straightened	-11.5385
▁flashing	-11.5386
▁germany	-11.5387
▁spli	-11.5387
▁tasted	-11.539
▁dots	-11.5391
▁poisoned	-11.5397
▁pounding	-11.5399
aves	-11.5404
▁complaining	-11.5406
▁proceeding	-11.5406
▁countin	-11.5407
▁tougher	-11.5413
raising	-11.5416
▁apologized	-11.5417
▁whoop	-11.542
▁freaked	-11.5421
▁pant	-11.543
▁bla	-11.5431
▁hehe	-11.5431
▁lengths	-11.5431
▁cadillacs	-11.5431
▁affects	-11.5432
▁hangin	-11.5432
▁aspir	-11.5433
▁razors	-11.5435
▁hammered	-11.5436
▁filmed	-11.5442
nois	-11.5443
▁disappearing	-11.5445
boom	-11.5452
▁switched	-11.5453
▁dared	-11.5457
ppy	-11.5461
▁som	-11.5462
▁batts	-11.5468
▁wishes	-11.5468
▁bin	-11.5478
vid	-11.5484
▁headaches	-11.5484
▁mandingos	-11.5484
▁messy	-11.5486
▁melts	-11.5488
▁neednt	-11.5488
▁beck	-11.5491
▁cong	-11.5493
▁lifted	-11.5493
▁filming	-11.5503
▁hothead	-11.5523
▁heating	-11.553
▁incompeten	-11.5531
▁shorty	-11.5535
▁crooks	-11.5538
▁elements	-11.5538
▁rackets	-11.5538
▁retards	-11.5539
▁eatin	-11.5541
▁greene	-11.5543
▁wally	-11.5548
▁martinis	-11.5548
▁discussed	-11.5549
iva	-11.5551
▁products	-11.5552
▁sweety	-11.5558
▁camper	-11.5563
iffe	-11.5566
▁lent	-11.557
▁buyin	-11.5582
▁devia	-11.5583
▁cb	-11.5583
▁irm	-11.5586
▁relatives	-11.5592
▁breasts	-11.5592
▁limos	-11.5593
▁jerking	-11.5596
▁appreciated	-11.5598
▁volt	-11.5604
▁mango	-11.5617
hov	-11.5617
▁blueberr	-11.5619
▁bleach	-11.562
nico	-11.5622
▁teiiing	-11.5627
verge	-11.5636
ovic	-11.5642
▁zee	-11.5646
▁museums	-11.5646
▁patterns	-11.5646
▁rely	-11.5648
nda	-11.5662
▁starter	-11.5676
▁pra	-11.5677
▁shootin	-11.5677
▁compos	-11.568
▁feared	-11.5681
▁fighters	-11.569
cast	-11.5692
▁asset	-11.5697
▁repairs	-11.57
▁peck	-11.5701
▁tolerate	-11.5705
aaah	-11.5727
▁encontrar	-11.5728
▁boarded	-11.5731
▁sac	-11.5739
▁sting	-11.574
▁gumb	-11.5743
▁cork	-11.5747
▁customs	-11.5755
llo	-11.5775
get	-11.5781
▁faci	-11.5784
▁specialize	-11.5785
▁cope	-11.579
▁ay	-11.58
▁experiments	-11.5802
▁evaluat	-11.5812
table	-11.5837
lton	-11.5838
mois	-11.5843
▁tet	-11.5843
▁operati	-11.5846
▁semi	-11.5851
▁racer	-11.5858
▁possessions	-11.5865
▁represents	-11.5867
▁tags	-11.5868
▁monte	-11.5868
▁boa	-11.5869
itude	-11.5879
gar	-11.5881
iro	-11.5889
▁entre	-11.5893
▁spits	-11.5905
▁pense	-11.5931
▁chim	-11.5934
craz	-11.5967
▁believer	-11.5974
chai	-11.5985
▁spi	-11.6005
▁jumper	-11.6021
som	-11.6023
dia	-11.6024
▁epi	-11.6035
not	-11.6049
▁askin	-11.6057
▁commend	-11.6059
▁indulge	-11.6088
elle	-11.6089
urt	-11.6097
quel	-11.61
▁deac	-11.6107
atch	-11.6163
▁mic	-11.6173
reen	-11.6183
▁jell	-11.6193
bel	-11.6193
▁mapp	-11.6199
▁exterminate	-11.6211
▁scheme	-11.6213
▁seduce	-11.6255
▁gall	-11.6269
▁wag	-11.627
▁lone	-11.6285
▁greas	-11.6288
▁guit	-11.6293
▁hee	-11.6301
▁taco	-11.6303
bid	-11.6329
ista	-11.6342
kn	-11.6379
dative	-11.6398
▁sentiment	-11.6405
fth	-11.6429
▁sni	-11.6439
nable	-11.644
▁poder	-11.6447
▁cert	-11.6506
▁milli	-11.6508
▁intolera	-11.6532
weigh	-11.6535
abby	-11.6585
uart	-11.6609
lagged	-11.661
▁il	-11.6639
dodger	-11.6673
▁laps	-11.6679
▁sto	-11.6711
▁fol	-11.6713
hibition	-11.6724
▁translat	-11.6725
aki	-11.6744
pal	-11.6747
▁dri	-11.6752
come	-11.6761
iggy	-11.677
ient	-11.6807
▁stripe	-11.6815
▁bounc	-11.6854
▁chei	-11.6863
faced	-11.6887
▁amus	-11.6894
▁morre	-11.6904
▁dishonor	-11.6916
▁av	-11.6922
▁dep	-11.6938
▁pedi	-11.6964
▁drip	-11.6982
▁starr	-11.6988
evo	-11.6991
▁mop	-11.702
▁ki	-11.7024
▁q	-11.7064
▁dot	-11.7088
making	-11.7091
wel	-11.7105
una	-11.7131
▁lac	-11.7162
cker	-11.7186
▁unh	-11.719
▁accus	-11.7195
saw	-11.7208
▁anda	-11.7215
▁ripe	-11.7229
▁ble	-11.7241
▁elect	-11.7242
stock	-11.7243
mble	-11.7245
▁corri	-11.7251
▁via	-11.7258
ike	-11.7263
▁rosa	-11.7264
▁cosm	-11.7296
minded	-11.7307
nard	-11.7307
hua	-11.7318
▁kno	-11.7338
hana	-11.7344
▁slap	-11.7375
▁typ	-11.7379
earned	-11.7379
▁wobbl	-11.7387
▁lud	-11.7387
▁fil	-11.7393
▁conta	-11.7399
ith	-11.7416
titude	-11.742
▁bean	-11.7423
▁yell	-11.7426
▁troop	-11.7432
▁ignoran	-11.7439
that	-11.7445
▁stack	-11.745
sec	-11.7462
▁millionaire	-11.7463
elas	-11.7463
▁principle	-11.7463
▁canvas	-11.7467
▁creature	-11.7468
▁elder	-11.7469
▁sme	-11.747
▁antique	-11.747
▁rib	-11.7475
▁celtic	-11.7478
▁sinner	-11.7479
▁folk	-11.7486
inny	-11.7486
aroon	-11.7488
timate	-11.7489
▁billboard	-11.7501
litary	-11.7537
▁that	-11.7545
tching	-11.7547
aldi	-11.7548
▁ram	-11.7554
▁relate	-11.7562
▁devo	-11.7565
eeling	-11.7581
▁arriv	-11.7587
▁gigant	-11.7595
▁loca	-11.7599
serving	-11.7599
▁pena	-11.7602
▁foll	-11.7604
▁temp	-11.7606
▁hustl	-11.761
▁lat	-11.7616
pita	-11.7619
▁stru	-11.7621
▁employ	-11.7625
▁prosecut	-11.7636
arbled	-11.7639
▁adventur	-11.7639
▁ammo	-11.764
▁cata	-11.7646
▁entertain	-11.7646
buster	-11.7648
leader	-11.7649
▁introduc	-11.7649
lift	-11.765
▁forc	-11.765
punish	-11.765
▁ricochet	-11.765
grateful	-11.7651
front	-11.7651
expected	-11.7651
friendly	-11.7651
control	-11.7652
dick	-11.7652
famous	-11.7653
million	-11.7653
▁clar	-11.7654
▁clang	-11.7655
known	-11.7655
▁convict	-11.7655
▁clink	-11.7655
stick	-11.7656
▁resign	-11.7656
▁impress	-11.7656
around	-11.7658
▁develop	-11.7659
thank	-11.766
check	-11.7661
type	-11.7661
trial	-11.7663
▁float	-11.7664
fuckin	-11.7668
seat	-11.7669
▁scen	-11.7672
made	-11.7672
long	-11.7673
▁capture	-11.7673
▁advise	-11.7673
bitches	-11.7673
▁organize	-11.7676
▁hobb	-11.7678
▁facilit	-11.7678
▁alleged	-11.7679
▁toda	-11.768
▁inde	-11.7682
▁ignore	-11.7683
▁exhibit	-11.7683
▁silv	-11.7683
rann	-11.7684
▁distinct	-11.7684
▁crow	-11.7684
ological	-11.7685
▁inspect	-11.7687
▁instruct	-11.7687
▁delusion	-11.7687
▁budge	-11.7688
▁algum	-11.7688
▁spra	-11.7688
▁trump	-11.7688
rupt	-11.7689
believable	-11.7689
▁froze	-11.7689
▁collie	-11.769
▁drivin	-11.7691
▁intent	-11.7691
▁construct	-11.7691
▁puttin	-11.7692
▁practi	-11.7692
▁flaming	-11.7693
▁liquid	-11.7693
urray	-11.7693
▁peep	-11.7693
▁libra	-11.7693
nipple	-11.7693
▁aaron	-11.7693
▁scarboro	-11.7693
rotti	-11.7693
▁georgie	-11.7693
▁culpa	-11.7693
▁confront	-11.7693
▁curio	-11.7694
forsaken	-11.7694
ghett	-11.7694
▁accomplice	-11.7694
▁acknowledge	-11.7694
▁acquire	-11.7694
▁ajudar	-11.7694
▁allegation	-11.7694
▁altogether	-11.7694
▁amnesty	-11.7694
▁anxiety	-11.7694
▁appraisal	-11.7694
▁apprentice	-11.7694
▁artificial	-11.7694
▁asparagus	-11.7694
▁atmospher	-11.7694
▁babyjoel	-11.7694
▁behaviour	-11.7694
▁bennett	-11.7694
▁bizarre	-11.7694
▁blasphemy	-11.7694
▁boogey	-11.7694
▁breadcrumbs	-11.7694
▁brendan	-11.7694
▁burrito	-11.7694
▁carnival	-11.7694
▁caviar	-11.7694
▁cecil	-11.7694
▁cerebr	-11.7694
▁clacking	-11.7694
▁collateral	-11.7694
▁commune	-11.7694
▁compact	-11.7694
▁compassion	-11.7694
▁compiete	-11.7694
▁concentration	-11.7694
▁connecticut	-11.7694
▁cormier	-11.7694
▁correlat	-11.7694
▁crescendo	-11.7694
▁cruise	-11.7694
▁dahlia	-11.7694
▁dartagnan	-11.7694
▁database	-11.7694
▁defensive	-11.7694
▁delilah	-11.7694
▁deputies	-11.7694
▁despair	-11.7694
▁dialectic	-11.7694
▁dictate	-11.7694
▁dimples	-11.7694
▁dynasty	-11.7694
▁ebbing	-11.7694
▁ellerbee	-11.7694
▁emilio	-11.7694
▁enlighten	-11.7694
▁ethiopia	-11.7694
▁exhusband	-11.7694
▁eyebrows	-11.7694
▁fawkes	-11.7694
▁felicia	-11.7694
▁felony	-11.7694
▁ferreiro	-11.7694
▁fetish	-11.7694
▁firecracker	-11.7694
▁fraction	-11.7694
▁fugazi	-11.7694
▁generosity	-11.7694
▁genitals	-11.7694
▁gentiemen	-11.7694
▁germs	-11.7694
▁gestapo	-11.7694
▁gibson	-11.7694
▁gossip	-11.7694
▁gracchus	-11.7694
▁grandchildren	-11.7694
▁groggy	-11.7694
▁groovy	-11.7694
▁guiiiver	-11.7694
▁gutierrez	-11.7694
▁hammock	-11.7694
▁havoc	-11.7694
▁heavier	-11.7694
▁heehaw	-11.7694
▁hurrah	-11.7694
▁hushhush	-11.7694
▁hyena	-11.7694
▁hypocrisy	-11.7694
▁ibiza	-11.7694
▁identical	-11.7694
▁immune	-11.7694
▁imprison	-11.7694
▁inappropriate	-11.7694
▁inclined	-11.7694
▁innocence	-11.7694
▁insanity	-11.7694
▁insignificant	-11.7694
▁intersection	-11.7694
▁intimacy	-11.7694
▁invasion	-11.7694
▁itsits	-11.7694
▁jenkins	-11.7694
▁juvenile	-11.7694
▁kendricks	-11.7694
▁kyoami	-11.7694
▁labyrinth	-11.7694
▁lesbian	-11.7694
▁liberal	-11.7694
▁lobos	-11.7694
▁lourdes	-11.7694
▁loxley	-11.7694
▁mafios	-11.7694
▁maguire	-11.7694
▁marilyn	-11.7694
▁maserati	-11.7694
▁mississippi	-11.7694
▁moioko	-11.7694
▁mozart	-11.7694
▁multiply	-11.7694
▁nazareth	-11.7694
▁negotiating	-11.7694
▁neuroleptics	-11.7694
▁nihilist	-11.7694
▁nixon	-11.7694
▁norwegian	-11.7694
▁nypd	-11.7694
▁obsession	-11.7694
▁octopus	-11.7694
▁odessa	-11.7694
▁opponent	-11.7694
▁optimistic	-11.7694
▁paddington	-11.7694
▁pastrami	-11.7694
▁pendejo	-11.7694
▁pennsylvania	-11.7694
▁perjury	-11.7694
▁pesach	-11.7694
▁pheasant	-11.7694
▁philadelphia	-11.7694
▁pneumonia	-11.7694
▁premature	-11.7694
▁premiere	-11.7694
▁premium	-11.7694
▁priviledge	-11.7694
▁pronounce	-11.7694
▁prophecy	-11.7694
▁psychiatry	-11.7694
▁pyjamas	-11.7694
▁pyotr	-11.7694
▁quaalude	-11.7694
▁quadriplegic	-11.7694
▁quarantine	-11.7694
▁quarterpounder	-11.7694
▁rathbun	-11.7694
▁rebuilt	-11.7694
▁recipient	-11.7694
▁reconsider	-11.7694
▁redneck	-11.7694
▁refrain	-11.7694
▁reinforcements	-11.7694
▁resolution	-11.7694
▁resources	-11.7694
▁retrieve	-11.7694
▁reutemann	-11.7694
▁reveille	-11.7694
▁revolver	-11.7694
▁rhetoric	-11.7694
▁rhyme	-11.7694
▁roosevelt	-11.7694
▁rouge	-11.7694
▁sanchez	-11.7694
▁sanitation	-11.7694
▁satellite	-11.7694
▁savages	-11.7694
▁scatting	-11.7694
▁scrimmage	-11.7694
▁sculpt	-11.7694
▁seidelbaum	-11.7694
▁semipro	-11.7694
▁senhor	-11.7694
▁shakespeare	-11.7694
▁shrapnel	-11.7694
▁shrieks	-11.7694
▁shtunk	-11.7694
▁smirk	-11.7694
▁sodium	-11.7694
▁specimen	-11.7694
▁sprinkle	-11.7694
▁squirt	-11.7694
▁stacey	-11.7694
▁stitches	-11.7694
▁stonesipher	-11.7694
▁subterfuge	-11.7694
▁swanney	-11.7694
▁sweatshirt	-11.7694
▁symptom	-11.7694
▁tallahassee	-11.7694
▁terrified	-11.7694
▁theories	-11.7694
▁tribute	-11.7694
▁trophy	-11.7694
▁tsurumaru	-11.7694
▁tucumcari	-11.7694
▁tyranny	-11.7694
▁unhappiness	-11.7694
▁unnecessary	-11.7694
▁unreasonable	-11.7694
▁upriver	-11.7694
▁uptown	-11.7694
▁urchin	-11.7694
▁vessel	-11.7694
▁vicinity	-11.7694
▁vigilant	-11.7694
▁vincennes	-11.7694
▁vulture	-11.7694
▁xanax	-11.7694
▁antoine	-11.7694
▁arvn	-11.7694
▁ascertain	-11.7694
▁benedict	-11.7694
▁blossom	-11.7694
▁bypass	-11.7694
▁casitas	-11.7694
▁cassidy	-11.7694
▁chalk	-11.7694
▁coolidge	-11.7694
▁courtmartial	-11.7694
▁crotch	-11.7694
▁deceive	-11.7694
▁doida	-11.7694
▁enthusias	-11.7694
▁excop	-11.7694
▁furnish	-11.7694
▁gasoline	-11.7694
▁grouch	-11.7694
▁hippie	-11.7694
▁iaugh	-11.7694
▁jurek	-11.7694
▁kathy	-11.7694
▁kilgo	-11.7694
▁libertad	-11.7694
▁miscarr	-11.7694
▁northwest	-11.7694
▁okonedo	-11.7694
▁permanent	-11.7694
▁pouco	-11.7694
▁procure	-11.7694
▁publish	-11.7694
▁reckless	-11.7694
▁reinforc	-11.7694
▁stagger	-11.7694
▁suppress	-11.7694
▁survey	-11.7694
▁systematic	-11.7694
▁thrust	-11.7694
▁tuscan	-11.7694
▁unravel	-11.7694
▁venture	-11.7694
▁versace	-11.7694
▁wendy	-11.7694
▁whoohoo	-11.7694
▁yussi	-11.7694
buk	-11.7694
desirable	-11.7694
eeniem	-11.7694
▁cynic	-11.7694
▁domino	-11.7694
▁gemini	-11.7694
▁handshake	-11.7694
▁homie	-11.7694
▁honeymoon	-11.7694
▁jerem	-11.7694
▁overture	-11.7694
▁paddie	-11.7694
▁parallel	-11.7694
▁peasants	-11.7694
▁piercing	-11.7694
▁polio	-11.7694
▁pubiic	-11.7694
▁pulp	-11.7694
▁quintus	-11.7694
▁rugrat	-11.7694
▁rumours	-11.7694
▁stimulat	-11.7694
▁tiptoe	-11.7694
▁afog	-11.7694
▁bundle	-11.7694
▁conceal	-11.7694
▁janitor	-11.7694
▁utopia	-11.7694
▁assumption	-11.7694
▁awaiting	-11.7694
▁comigo	-11.7694
▁cyber	-11.7694
▁daft	-11.7694
▁hesketh	-11.7694
▁juicy	-11.7694
▁lchaim	-11.7694
▁legacy	-11.7694
▁mooch	-11.7694
▁outdoors	-11.7694
▁outgoing	-11.7694
▁prairie	-11.7694
▁shoving	-11.7694
▁torment	-11.7694
▁urinat	-11.7694
▁visible	-11.7694
▁abusive	-11.7694
▁bloodstain	-11.7694
▁camila	-11.7694
▁clyde	-11.7694
▁demonstrat	-11.7694
▁requirements	-11.7694
▁shaman	-11.7694
▁suzann	-11.7694
▁testicle	-11.7694
▁dairy	-11.7694
▁orca	-11.7694
▁saloon	-11.7694
▁whooshing	-11.7694
▁radar	-11.7694
▁vejo	-11.7694
▁dyke	-11.7694
▁exceed	-11.7694
▁nassau	-11.7694
▁rational	-11.7694
▁reenie	-11.7694
▁witchcraft	-11.7694
▁appliance	-11.7694
▁detain	-11.7694
▁flaws	-11.7694
▁ripple	-11.7694
▁salud	-11.7694
▁sedated	-11.7694
▁thorns	-11.7694
▁aslan	-11.7694
▁backstage	-11.7694
▁blares	-11.7694
▁compliance	-11.7694
▁dlr	-11.7694
▁terminator	-11.7694
▁yeyo	-11.7694
▁judas	-11.7694
▁appointed	-11.7694
▁slogan	-11.7694
▁concept	-11.7694
▁francs	-11.7694
▁proverb	-11.7694
▁amari	-11.7694
▁dumas	-11.7694
▁lonesome	-11.7694
▁lump	-11.7694
▁pinned	-11.7694
▁medell	-11.7694
ograph	-11.7694
▁earrings	-11.7694
▁inaudible	-11.7694
▁myjob	-11.7694
▁resort	-11.7694
▁excel	-11.7694
▁idaho	-11.7694
▁radical	-11.7694
▁analog	-11.7694
ember	-11.7694
▁remand	-11.7694
▁upperclass	-11.7694
▁gallery	-11.7694
▁coupons	-11.7694
▁ponti	-11.7694
▁digital	-11.7694
▁florence	-11.7694
▁underworld	-11.7694
▁obligated	-11.7694
▁skank	-11.7694
▁entitle	-11.7694
▁jody	-11.7694
▁gunderson	-11.7694
▁muslim	-11.7694
▁deteriorat	-11.7694
▁flea	-11.7694
▁mutilat	-11.7694
▁cheesy	-11.7694
▁estrada	-11.7694
▁heels	-11.7694
▁prostitution	-11.7694
▁rigged	-11.7694
▁viddied	-11.7694
▁cooperating	-11.7694
▁gratitude	-11.7694
▁quaker	-11.7694
▁grudge	-11.7694
▁sensor	-11.7694
▁chazer	-11.7694
▁engiish	-11.7694
▁proprietor	-11.7695
▁harvest	-11.7695
▁schizophrenic	-11.7695
▁contains	-11.7695
▁puddin	-11.7695
▁vermont	-11.7695
▁accusations	-11.7695
▁concert	-11.7695
▁excessive	-11.7695
▁culpable	-11.7695
▁snider	-11.7695
▁shaving	-11.7695
▁creek	-11.7695
▁mingle	-11.7695
▁gravy	-11.7695
▁petition	-11.7695
▁sideways	-11.7695
▁wizard	-11.7695
▁teeny	-11.7695
▁poetry	-11.7695
▁yummy	-11.7695
▁harbour	-11.7695
▁cubber	-11.7695
▁plumber	-11.7695
▁berlin	-11.7695
▁thailand	-11.7695
slidy	-11.7695
▁hydro	-11.7695
▁orderlies	-11.7695
▁crisis	-11.7695
▁caution	-11.7695
▁frustration	-11.7695
▁edith	-11.7695
▁nipples	-11.7695
▁trustees	-11.7695
▁watson	-11.7695
▁wealthiest	-11.7695
▁centerfold	-11.7695
▁baptist	-11.7695
▁taxfree	-11.7695
▁outcome	-11.7695
▁iraq	-11.7695
▁mailbox	-11.7695
▁flute	-11.7695
▁basketball	-11.7695
▁timmy	-11.7695
▁pirate	-11.7695
▁domum	-11.7695
▁scoop	-11.7695
▁jesse	-11.7695
▁twel	-11.7695
▁insure	-11.7695
▁delightful	-11.7695
▁slots	-11.7695
residency	-11.7695
▁dozer	-11.7695
▁properties	-11.7696
▁flamingos	-11.7696
▁negro	-11.7696
▁keypad	-11.7696
▁notso	-11.7696
▁progressive	-11.7696
▁referred	-11.7696
▁cancelled	-11.7696
▁growls	-11.7696
▁twentytwo	-11.7696
▁iose	-11.7696
tenance	-11.7696
▁italianamerican	-11.7696
▁fanning	-11.7696
▁pennies	-11.7696
▁vague	-11.7696
▁oof	-11.7696
▁robinson	-11.7696
▁latter	-11.7696
▁gruntlng	-11.7696
▁doughboy	-11.7696
▁sharkey	-11.7696
▁poof	-11.7696
▁referring	-11.7696
▁tummy	-11.7696
▁whwhat	-11.7696
▁blend	-11.7696
▁oath	-11.7696
▁japan	-11.7696
▁tabletop	-11.7696
▁transition	-11.7697
▁sorrowful	-11.7697
▁utter	-11.7697
▁communicate	-11.7697
▁irresponsible	-11.7697
▁thatthat	-11.7697
▁jessi	-11.7697
▁gringo	-11.7697
▁amaze	-11.7697
▁ceremony	-11.7697
▁stronghold	-11.7697
▁allright	-11.7697
▁geneva	-11.7697
▁slut	-11.7697
▁raz	-11.7697
▁precl	-11.7697
▁lobe	-11.7697
▁cheerio	-11.7697
▁mario	-11.7697
▁wasp	-11.7697
▁projections	-11.7697
▁sobre	-11.7698
▁achievement	-11.7698
▁danish	-11.7698
▁digestion	-11.7698
▁raci	-11.7698
▁wiz	-11.7698
▁capric	-11.7698
▁subtle	-11.7698
▁webb	-11.7698
▁brace	-11.7698
▁confirmation	-11.7698
▁soak	-11.7698
cini	-11.7698
▁ceo	-11.7698
▁documentation	-11.7698
▁pressfield	-11.7698
▁ginny	-11.7698
▁voil	-11.7698
▁detection	-11.7698
▁blockade	-11.7699
▁memorial	-11.7699
▁withdrawal	-11.7699
▁robotic	-11.7699
▁octa	-11.7699
▁upped	-11.7699
▁parlor	-11.7699
▁slur	-11.7699
▁rasa	-11.7699
▁alias	-11.7699
▁primetime	-11.7699
▁hallowe	-11.77
▁ambition	-11.77
▁pelo	-11.77
▁addiction	-11.77
▁trafficking	-11.77
flake	-11.77
▁logan	-11.77
▁grue	-11.7701
▁casing	-11.7701
▁flock	-11.7701
▁unfold	-11.7701
▁consultation	-11.7701
▁hogan	-11.7701
▁ballistic	-11.7701
▁noble	-11.7701
▁proudfoot	-11.7701
▁pledge	-11.7701
▁dogface	-11.7701
▁ronda	-11.7701
▁exactiy	-11.7701
▁lilies	-11.7701
bach	-11.7702
▁earnings	-11.7702
▁mush	-11.7702
▁hazard	-11.7702
▁iunch	-11.7702
▁ketamine	-11.7702
▁assurance	-11.7702
▁saul	-11.7702
▁sufficient	-11.7702
▁vibe	-11.7702
▁imperial	-11.7702
▁lashes	-11.7702
▁nova	-11.7702
▁pornography	-11.7702
▁duas	-11.7702
▁magician	-11.7702
▁communication	-11.7702
▁xam	-11.7702
▁expectations	-11.7702
▁countries	-11.7702
▁objective	-11.7703
▁bandage	-11.7703
nstitutionalized	-11.7703
▁deception	-11.7703
▁socialist	-11.7703
▁rail	-11.7703
▁religion	-11.7703
▁african	-11.7703
▁betcha	-11.7703
▁ruben	-11.7703
▁polo	-11.7704
▁muita	-11.7704
▁unwise	-11.7704
▁heli	-11.7704
▁waitresses	-11.7704
▁echoes	-11.7704
▁reverend	-11.7704
▁slightly	-11.7704
▁diaper	-11.7704
ifled	-11.7704
▁capone	-11.7705
▁buono	-11.7705
▁successor	-11.7705
▁skinhead	-11.7706
▁overtime	-11.7706
▁adrenaline	-11.7706
▁cafe	-11.7706
▁valor	-11.7706
▁stella	-11.7707
▁pois	-11.7707
▁phony	-11.7707
ufus	-11.7707
▁frustrated	-11.7707
▁considerate	-11.7708
▁quoi	-11.7708
▁leve	-11.7708
▁delight	-11.7708
▁homemade	-11.7709
▁alongside	-11.7709
▁seja	-11.7709
▁satan	-11.771
▁hex	-11.771
▁fog	-11.771
▁retainer	-11.771
▁arouse	-11.771
▁iady	-11.771
▁recommendation	-11.771
▁deprived	-11.771
▁stranded	-11.771
▁housekeep	-11.771
▁grossman	-11.771
▁reside	-11.771
▁canal	-11.771
▁virtues	-11.771
▁tomatoes	-11.771
▁stealin	-11.771
▁velh	-11.771
▁theatre	-11.7711
▁hangover	-11.7711
ibbe	-11.7711
▁lining	-11.7711
▁pear	-11.7713
▁quitting	-11.7714
▁strikers	-11.7714
▁sighing	-11.7714
▁uhuhuh	-11.7714
▁kettle	-11.7715
▁chapin	-11.7715
▁ratting	-11.7717
▁herm	-11.7717
onese	-11.7717
▁oopsy	-11.7718
▁nung	-11.7718
qualification	-11.7718
▁cff	-11.7718
uda	-11.7719
▁northern	-11.7719
▁honourable	-11.7719
▁tout	-11.772
▁otter	-11.772
▁intensely	-11.772
▁sustained	-11.772
▁dove	-11.772
▁thai	-11.7722
▁mentor	-11.7722
▁jeannie	-11.7722
▁inci	-11.7722
▁realizing	-11.7722
zzes	-11.7722
▁renton	-11.7723
▁pico	-11.7723
▁certainty	-11.7723
▁tablets	-11.7724
▁passive	-11.7725
▁paddle	-11.7725
▁korean	-11.7725
▁vanity	-11.7726
▁terminate	-11.7726
▁sputtering	-11.7726
▁realistic	-11.7726
▁slavery	-11.7727
▁realtor	-11.7727
▁sync	-11.7728
▁cozy	-11.7728
▁droogie	-11.7729
▁sow	-11.7729
▁dash	-11.773
▁croak	-11.773
▁calo	-11.773
▁employed	-11.7731
▁informer	-11.7731
kid	-11.7731
▁streak	-11.7731
▁biscuits	-11.7733
▁blackandwhites	-11.7733
▁privileges	-11.7733
▁scissors	-11.7733
▁arman	-11.7733
▁croy	-11.7733
▁astr	-11.7734
▁punter	-11.7734
▁flirting	-11.7734
▁boost	-11.7735
ryan	-11.7736
▁exposed	-11.7736
▁lockup	-11.7737
▁mayday	-11.7738
▁acceptable	-11.7739
▁fargo	-11.7739
▁taser	-11.774
▁soiled	-11.7741
▁carny	-11.7741
▁ignored	-11.7742
▁fame	-11.7742
▁firemen	-11.7742
▁choo	-11.7742
▁unfucking	-11.7743
▁nadar	-11.7743
▁endure	-11.7744
▁spike	-11.7745
▁approaches	-11.7745
▁speculat	-11.7746
lew	-11.7746
▁info	-11.7747
gan	-11.7747
▁unlikely	-11.7748
▁distract	-11.7748
▁starring	-11.7748
▁payoff	-11.7749
▁adventurer	-11.7749
▁christian	-11.7749
▁affected	-11.7749
▁euh	-11.775
▁unlocked	-11.7751
▁howling	-11.7752
▁pouring	-11.7752
▁narco	-11.7752
iago	-11.7752
▁baer	-11.7754
plex	-11.7754
▁melted	-11.7756
▁funnie	-11.7756
▁bam	-11.7757
▁irony	-11.7759
▁ruby	-11.7759
▁secondary	-11.776
nderson	-11.7761
▁conquered	-11.7762
▁cramp	-11.7762
▁hunger	-11.7762
▁lash	-11.7764
▁cleanser	-11.7764
▁buffer	-11.7765
▁tolling	-11.7765
▁unlocking	-11.7765
▁policemen	-11.7765
▁rubbed	-11.7769
▁tracer	-11.7769
▁rodge	-11.777
▁legion	-11.7771
▁andr	-11.7775
▁sip	-11.7775
▁perfection	-11.7776
▁proven	-11.7776
vesti	-11.7776
▁hart	-11.7779
▁erased	-11.7779
▁pinched	-11.7781
▁hick	-11.7782
▁corrupted	-11.7782
▁classes	-11.7783
▁quero	-11.7784
▁ewing	-11.7784
▁playlng	-11.7785
▁shaken	-11.7786
▁hugo	-11.7787
▁homeboy	-11.7787
▁collector	-11.7787
▁separated	-11.7789
▁dom	-11.7792
▁passar	-11.7794
▁crosses	-11.7794
bell	-11.7796
▁heroes	-11.7796
▁challenged	-11.7796
▁hamptons	-11.7799
▁apol	-11.78
▁droogs	-11.78
▁gigante	-11.78
▁tempt	-11.7802
▁confirmed	-11.7803
▁jaii	-11.7803
▁whwh	-11.7805
▁mustnt	-11.7805
▁deadline	-11.7805
▁laser	-11.7807
▁hopeless	-11.7808
▁assured	-11.7809
▁sane	-11.7809
trip	-11.781
▁moody	-11.7812
▁bred	-11.7812
▁swallowed	-11.7814
▁raided	-11.7814
▁advanced	-11.7815
▁healing	-11.7816
▁loaned	-11.7816
▁connecting	-11.7817
▁gathering	-11.7818
▁hallo	-11.7819
▁km	-11.782
junction	-11.7821
▁lax	-11.7824
▁cous	-11.7826
▁addresses	-11.7826
▁baume	-11.7826
▁represented	-11.7827
fferson	-11.7827
▁radi	-11.7829
▁climbing	-11.783
▁trud	-11.7831
▁raging	-11.7834
▁fastest	-11.7835
▁shattering	-11.7837
▁ganj	-11.7839
▁funding	-11.7842
▁macer	-11.7845
▁shocked	-11.7848
▁hap	-11.7848
rite	-11.785
▁terrorize	-11.785
rlng	-11.7853
▁crowning	-11.7856
▁correctly	-11.7857
▁sig	-11.7857
▁pry	-11.7857
▁mild	-11.7861
▁hen	-11.7863
▁volte	-11.7865
▁dispatched	-11.7866
culo	-11.7867
▁fitzy	-11.7867
semblance	-11.7867
▁craigs	-11.7868
▁fabrics	-11.7868
▁instructors	-11.7868
▁clanks	-11.7869
▁wigg	-11.7873
▁soy	-11.7874
god	-11.7876
▁quad	-11.7877
▁lumi	-11.7878
▁rick	-11.788
▁vendo	-11.7882
▁scaring	-11.7883
▁estr	-11.7886
▁dod	-11.7887
▁traced	-11.789
▁queers	-11.7893
▁vat	-11.7894
▁stickin	-11.7894
▁mit	-11.7895
▁kiiied	-11.7897
▁hacked	-11.7898
▁gostar	-11.7898
▁nono	-11.79
▁tricky	-11.79
▁porno	-11.7901
▁chev	-11.7906
pending	-11.7907
▁bombed	-11.7907
▁limited	-11.7907
▁tuned	-11.7915
▁liter	-11.7916
ool	-11.7917
▁nursi	-11.7918
▁mong	-11.7921
▁comforting	-11.7921
▁morta	-11.7922
downloade	-11.7928
▁completed	-11.793
▁adore	-11.7935
skate	-11.7936
tell	-11.7947
▁devise	-11.7954
▁bella	-11.7957
▁ensu	-11.7959
▁speeding	-11.7961
▁interrupting	-11.7966
▁colored	-11.7967
▁psychopath	-11.7968
▁whe	-11.7974
▁lister	-11.7975
▁tun	-11.7979
▁gab	-11.7984
▁feit	-11.7987
▁tarzan	-11.7987
▁snowing	-11.8
▁doubled	-11.8006
▁cred	-11.8007
illy	-11.8009
▁fishy	-11.801
▁takeoff	-11.8013
▁locker	-11.8013
▁meth	-11.8017
▁dine	-11.8018
▁surfer	-11.8018
ncia	-11.8021
▁spreading	-11.8027
▁poisoning	-11.8028
▁beatin	-11.804
▁gladly	-11.8041
▁aged	-11.8042
▁const	-11.8044
▁suggested	-11.8049
▁abso	-11.8052
nows	-11.8057
▁cello	-11.8059
▁shiv	-11.8063
▁mugge	-11.8074
▁jac	-11.8089
ipped	-11.8093
▁rung	-11.8097
hoho	-11.8107
cott	-11.8123
▁bois	-11.8172
▁yahoo	-11.8178
take	-11.8198
▁flu	-11.8203
▁painter	-11.8212
▁brun	-11.8214
hell	-11.8226
▁tier	-11.8232
▁redeem	-11.8233
mara	-11.8243
▁pur	-11.8267
tem	-11.8273
itive	-11.8282
found	-11.8289
ucina	-11.831
▁constituti	-11.8316
roids	-11.8359
ridge	-11.8363
notch	-11.8372
uz	-11.8378
▁controll	-11.8381
▁visa	-11.8384
▁ching	-11.8384
▁espera	-11.8387
▁slum	-11.839
yala	-11.8391
▁tote	-11.8395
part	-11.8402
▁flyer	-11.8406
▁pisser	-11.8407
▁pose	-11.8415
▁refi	-11.8433
▁interpret	-11.8437
▁jap	-11.8441
tane	-11.8447
▁incidental	-11.8455
▁multi	-11.8474
qt	-11.8499
▁pusher	-11.85
▁conservati	-11.851
▁fasten	-11.8538
▁shitface	-11.8549
vast	-11.8558
flop	-11.8561
litter	-11.8562
▁pine	-11.8563
rosco	-11.8569
▁carbon	-11.8579
▁shu	-11.8604
▁sher	-11.8619
▁volto	-11.8624
▁cust	-11.8641
▁amuse	-11.8642
▁traveler	-11.8666
with	-11.8666
utch	-11.8677
▁dissolve	-11.8693
▁jangl	-11.8706
tial	-11.872
tonic	-11.8724
arian	-11.8765
▁translate	-11.8771
eek	-11.8773
▁mea	-11.8777
▁hiss	-11.8803
▁pez	-11.8806
oom	-11.8813
▁alas	-11.8816
hair	-11.8819
▁abra	-11.8832
▁bonn	-11.8833
▁rott	-11.8835
▁vega	-11.8851
▁israeli	-11.8914
▁desc	-11.8953
ench	-11.8956
dale	-11.8964
which	-11.8967
▁snip	-11.8968
▁bor	-11.898
▁isa	-11.9049
▁despi	-11.906
hoid	-11.9066
▁chee	-11.915
▁legit	-11.9169
▁gan	-11.9213
▁stepp	-11.9246
inie	-11.9254
pendable	-11.9261
▁encontr	-11.9277
equen	-11.9285
interrupted	-11.9317
mina	-11.9364
▁flor	-11.9373
bli	-11.9398
anna	-11.9402
ihua	-11.9403
nva	-11.9411
▁gree	-11.9424
ichi	-11.9428
arch	-11.9433
mission	-11.9451
mation	-11.9486
why	-11.9491
teau	-11.9515
noir	-11.9516
vana	-11.9532
tub	-11.9533
▁shap	-11.9537
helm	-11.955
mmy	-11.9554
▁propos	-11.9558
▁organis	-11.9591
zio	-11.9619
▁crunch	-11.9625
iche	-11.9666
pulsive	-11.9668
▁commendat	-11.9682
pad	-11.9706
rcraft	-11.9717
opped	-11.9738
▁embe	-11.9744
pho	-11.9746
abi	-11.9751
fatso	-11.9765
dressed	-11.9771
iza	-11.9787
▁ku	-11.9827
gina	-11.9835
bj	-11.9837
▁occup	-11.9838
gate	-11.9848
▁esper	-11.9848
▁tang	-11.9887
opper	-11.9899
han	-11.9901
▁gre	-11.992
iac	-11.9946
▁draggin	-11.9961
▁fac	-11.9964
explainable	-11.9983
▁importa	-11.9984
embar	-11.9998
guin	-12.0008
▁chari	-12.0035
tches	-12.004
mora	-12.0044
▁coup	-12.005
fic	-12.0051
misunderstanding	-12.0063
▁gau	-12.0085
ologist	-12.0105
six	-12.0159
▁willi	-12.0161
▁steven	-12.0179
hen	-12.0189
▁vem	-12.021
rank	-12.0239
▁tramp	-12.0241
very	-12.0241
azine	-12.0258
▁bookmak	-12.0258
▁pil	-12.0259
ltitude	-12.027
▁hisse	-12.0286
pala	-12.0291
▁peg	-12.035
▁acu	-12.0351
stically	-12.0362
anne	-12.0371
mont	-12.0383
▁hove	-12.0389
disposed	-12.0399
▁punche	-12.041
alone	-12.0445
▁dinin	-12.0463
lected	-12.0478
▁eth	-12.0507
▁ether	-12.0531
▁presi	-12.0533
job	-12.0544
gias	-12.0565
stakes	-12.0619
ilia	-12.0635
▁corpo	-12.0657
▁stat	-12.0659
bora	-12.0668
▁consegu	-12.0675
ribbling	-12.068
etzs	-12.0683
itch	-12.07
▁fica	-12.0702
▁chang	-12.0708
▁ado	-12.0747
▁clank	-12.0749
mour	-12.0751
▁beau	-12.0757
▁exclaim	-12.077
mine	-12.0773
city	-12.0776
▁fabric	-12.079
lcher	-12.079
▁craig	-12.0792
▁instructor	-12.0794
▁footprint	-12.0797
▁maggot	-12.0797
▁warrior	-12.0797
▁implant	-12.0797
▁kilo	-12.0798
▁hungarian	-12.0801
▁firearm	-12.0804
▁oldtimer	-12.0807
▁claw	-12.0808
▁investor	-12.0808
▁explosive	-12.081
grams	-12.0814
▁corp	-12.0814
▁trucker	-12.0825
▁offender	-12.0838
now	-12.0849
▁scram	-12.0853
▁gambler	-12.0855
▁seventy	-12.0867
escribed	-12.0878
▁rabi	-12.0895
▁ash	-12.091
▁tru	-12.0912
▁phon	-12.0912
▁preach	-12.0916
▁cram	-12.0917
▁contr	-12.0918
▁quarte	-12.0931
▁neutral	-12.0936
rched	-12.094
▁shortie	-12.0948
teen	-12.0948
▁surround	-12.095
write	-12.0953
▁poach	-12.0955
▁sacr	-12.0955
bore	-12.0959
daughter	-12.0964
damn	-12.0968
▁contradict	-12.0969
▁homicid	-12.097
gree	-12.0973
body	-12.0974
presso	-12.0975
reme	-12.0977
▁refresh	-12.0979
amus	-12.0979
loaf	-12.0979
▁punt	-12.0979
word	-12.0979
bird	-12.098
sync	-12.098
grim	-12.0981
▁holler	-12.0981
liability	-12.0982
cloth	-12.0983
▁flirt	-12.0983
▁sputter	-12.0983
employment	-12.0983
satisfied	-12.0983
illusion	-12.0983
structure	-12.0983
▁retreat	-12.0984
chocolate	-12.0984
guide	-12.0984
kidnapping	-12.0984
flies	-12.0984
teacher	-12.0985
pipe	-12.0985
familiar	-12.0985
mentioned	-12.0985
rabbit	-12.0985
whip	-12.0985
storm	-12.0985
destroy	-12.0985
fifty	-12.0985
steak	-12.0985
wheel	-12.0985
bury	-12.0985
▁oblig	-12.0985
girlfriend	-12.0985
correct	-12.0985
closed	-12.0985
bastard	-12.0985
floor	-12.0985
smith	-12.0985
company	-12.0986
white	-12.0986
black	-12.0986
food	-12.0986
text	-12.0986
beard	-12.0986
split	-12.0986
good	-12.0986
penny	-12.0987
week	-12.0987
rella	-12.0988
▁shush	-12.0988
broad	-12.0988
police	-12.0988
bitch	-12.0988
▁hyd	-12.0988
license	-12.0989
bridge	-12.0989
▁invent	-12.0989
▁stroll	-12.099
▁squa	-12.099
space	-12.099
▁encounter	-12.099
▁devastat	-12.099
▁brea	-12.099
▁indict	-12.0991
bob	-12.0991
▁sustain	-12.0991
▁establish	-12.0992
fall	-12.0993
egitimate	-12.0993
case	-12.0995
▁dye	-12.0995
finger	-12.0996
parent	-12.0997
bug	-12.0997
▁spar	-12.0999
▁polic	-12.0999
cav	-12.1
took	-12.1001
nski	-12.1003
were	-12.1003
▁distinguish	-12.1004
bomb	-12.1005
coat	-12.1005
▁humiliate	-12.1005
▁invade	-12.1005
▁excite	-12.1006
▁morn	-12.1007
hairy	-12.1008
▁dodg	-12.101
▁thirst	-12.101
▁limp	-12.1011
▁adrenalin	-12.1011
▁cours	-12.1011
▁activit	-12.1011
hose	-12.1011
▁terrib	-12.1012
play	-12.1013
▁observe	-12.1013
▁frau	-12.1014
▁memori	-12.1014
▁withdraw	-12.1015
▁flatter	-12.1016
writer	-12.1018
locker	-12.1018
abilities	-12.1018
▁ledge	-12.1019
▁luxur	-12.1019
youre	-12.102
▁suburb	-12.102
▁mumbl	-12.1021
▁origin	-12.1021
▁hospita	-12.1021
▁exorcis	-12.1022
oods	-12.1022
xtradition	-12.1023
manship	-12.1023
scription	-12.1023
▁kir	-12.1023
▁colombia	-12.1023
▁ouvi	-12.1023
fucker	-12.1023
char	-12.1024
▁penitentiar	-12.1024
▁smokin	-12.1024
▁dancin	-12.1024
▁cooperati	-12.1024
▁asia	-12.1024
▁winnin	-12.1024
▁colomb	-12.1024
▁chasin	-12.1025
▁hittin	-12.1025
▁klein	-12.1025
▁cleve	-12.1025
▁republic	-12.1025
okie	-12.1025
huckle	-12.1025
▁convers	-12.1025
▁sylv	-12.1026
▁blush	-12.1026
▁toke	-12.1026
nscript	-12.1026
▁engi	-12.1026
winkle	-12.1026
▁engl	-12.1026
▁viola	-12.1026
▁ordina	-12.1026
▁sierra	-12.1026
▁differ	-12.1026
▁catalog	-12.1027
▁urge	-12.1027
▁gaggi	-12.1027
▁kiddin	-12.1027
▁coiombia	-12.1027
▁handicap	-12.1027
▁prosper	-12.1027
▁resent	-12.1027
oulder	-12.1027
▁guild	-12.1027
▁twinkle	-12.1027
▁audit	-12.1027
mhm	-12.1027
▁shaq	-12.1027
▁hubba	-12.1027
▁shampoo	-12.1027
admini	-12.1027
azepam	-12.1027
bottoms	-12.1027
conclusive	-12.1027
dammit	-12.1027
ectomy	-12.1027
greatgrandfather	-12.1027
greatgrandmother	-12.1027
ounterinsurgency	-12.1027
voluntary	-12.1027
▁adequate	-12.1027
▁afastese	-12.1027
▁affidavit	-12.1027
▁aggression	-12.1027
▁ahhhhh	-12.1027
▁alexandre	-12.1027
▁algorithm	-12.1027
▁allegiance	-12.1027
▁alleyoop	-12.1027
▁anatomy	-12.1027
▁angrily	-12.1027
▁annmargret	-12.1027
▁antarctic	-12.1027
▁apologise	-12.1027
▁apparition	-12.1027
▁april	-12.1027
▁arraignment	-12.1027
▁artillery	-12.1027
▁authentic	-12.1027
▁avalanche	-12.1027
▁avenge	-12.1027
▁bailiff	-12.1027
▁baitimore	-12.1027
▁baptized	-12.1027
▁barragem	-12.1027
▁bartholomew	-12.1027
▁baufort	-12.1027
▁beiieved	-12.1027
▁benevolen	-12.1027
▁bianca	-12.1027
▁bickering	-12.1027
▁blaspheme	-12.1027
▁bocce	-12.1027
▁bogdanovich	-12.1027
▁bouquet	-12.1027
▁brackets	-12.1027
▁brennan	-12.1027
▁brilliance	-12.1027
▁brodsky	-12.1027
▁buchannon	-12.1027
▁buddhist	-12.1027
▁bullettooth	-12.1027
▁bystander	-12.1027
▁caddy	-12.1027
▁caffeine	-12.1027
▁caligari	-12.1027
▁candidate	-12.1027
▁catapults	-12.1027
▁caterpillar	-12.1027
▁catwalk	-12.1027
▁caucasian	-12.1027
▁certified	-12.1027
▁chantalle	-12.1027
▁characterdriven	-12.1027
▁charlene	-12.1027
▁charlotte	-12.1027
▁chitchat	-12.1027
▁chivato	-12.1027
▁cholesterol	-12.1027
▁chubby	-12.1027
▁cicatriz	-12.1027
▁ciothes	-12.1027
▁ciseau	-12.1027
▁coconut	-12.1027
▁cognac	-12.1027
▁collision	-12.1027
▁commerce	-12.1027
▁commonwealth	-12.1027
▁communities	-12.1027
▁compartment	-12.1027
▁concentrating	-12.1027
▁contempt	-12.1027
▁convenience	-12.1027
▁convulsion	-12.1027
▁coochie	-12.1027
▁cornelius	-12.1027
▁cortina	-12.1027
▁coyote	-12.1027
▁creedence	-12.1027
▁cucombre	-12.1027
▁cyborg	-12.1027
▁cynthia	-12.1027
▁daiquiri	-12.1027
▁deixe	-12.1027
▁desaparecido	-12.1027
▁desecrat	-12.1027
▁devotchka	-12.1027
▁dirosa	-12.1027
▁disciple	-12.1027
▁disput	-12.1027
▁dobbs	-12.1027
▁dtown	-12.1027
▁dudley	-12.1027
▁edinburgh	-12.1027
▁efficiency	-12.1027
▁efficient	-12.1027
▁eliminate	-12.1027
▁emergencies	-12.1027
▁emphasis	-12.1027
▁enchant	-12.1027
▁enquanto	-12.1027
▁entrepreneur	-12.1027
▁equilibrium	-12.1027
▁esmarelda	-12.1027
▁excellence	-12.1027
▁excommunicado	-12.1027
▁excusezmoi	-12.1027
▁extensive	-12.1027
▁eyewitness	-12.1027
▁ezekiel	-12.1027
▁fabrizio	-12.1027
▁facetoface	-12.1027
▁fantasma	-12.1027
▁fascinating	-12.1027
▁fazendo	-12.1027
▁february	-12.1027
▁ferocious	-12.1027
▁fiasco	-12.1027
▁financing	-12.1027
▁flowerpot	-12.1027
▁forrester	-12.1027
▁fouet	-12.1027
▁frazier	-12.1027
▁frederick	-12.1027
▁frenzy	-12.1027
▁frequent	-12.1027
▁furnace	-12.1027
▁gangbanger	-12.1027
▁garrison	-12.1027
▁geoffrey	-12.1027
▁ghastiy	-12.1027
▁gimmick	-12.1027
▁giraffe	-12.1027
▁gladiator	-12.1027
▁glimmer	-12.1027
▁goddamit	-12.1027
▁godfrey	-12.1027
▁goodfellas	-12.1027
▁gravity	-12.1027
▁grenada	-12.1027
▁grifters	-12.1027
▁gurgling	-12.1027
▁gwen	-12.1027
▁harassment	-12.1027
▁helenowski	-12.1027
▁henckels	-12.1027
▁hilarious	-12.1027
▁hildy	-12.1027
▁hillbilly	-12.1027
▁himalaya	-12.1027
▁hitchhik	-12.1027
▁hombre	-12.1027
▁horizon	-12.1027
▁humiliating	-12.1027
▁hurried	-12.1027
▁hygiene	-12.1027
▁hypnotiz	-12.1027
▁icecream	-12.1027
▁incapable	-12.1027
▁indiscre	-12.1027
▁infraction	-12.1027
▁injustice	-12.1027
▁insignia	-12.1027
▁instagram	-12.1027
▁intensifie	-12.1027
▁intrude	-12.1027
▁intrusion	-12.1027
▁invalid	-12.1027
▁inviting	-12.1027
▁irregular	-12.1027
▁irrelevant	-12.1027
▁irrigation	-12.1027
▁irvine	-12.1027
▁isabelle	-12.1027
▁jerusalem	-12.1027
▁justified	-12.1027
▁kamp	-12.1027
▁kangaroo	-12.1027
▁keeyai	-12.1027
▁kennefick	-12.1027
▁klingman	-12.1027
▁kodak	-12.1027
▁koskoff	-12.1027
▁krisp	-12.1027
▁kuznetsov	-12.1027
▁lebanon	-12.1027
▁lilliman	-12.1027
▁liquef	-12.1027
▁lisbon	-12.1027
▁lizewski	-12.1027
▁lobotom	-12.1027
▁ludicrous	-12.1027
▁lyrics	-12.1027
▁maestro	-12.1027
▁malibu	-12.1027
▁maneuver	-12.1027
▁manufactur	-12.1027
▁marlboro	-12.1027
▁maximum	-12.1027
▁mcandrew	-12.1027
▁mccowan	-12.1027
▁mcneil	-12.1027
▁meditation	-12.1027
▁memorized	-12.1027
▁mercenary	-12.1027
▁methadone	-12.1027
▁meticulous	-12.1027
▁metropolitan	-12.1027
▁miiiicents	-12.1027
▁miscalculation	-12.1027
▁mongoloid	-12.1027
▁montblanc	-12.1027
▁montmartre	-12.1027
▁motorcade	-12.1027
▁muddled	-12.1027
▁naehring	-12.1027
▁necessity	-12.1027
▁nedjma	-12.1027
▁nenhum	-12.1027
▁niggertorturing	-12.1027
▁nuhuh	-12.1027
▁oatmeal	-12.1027
▁oblongata	-12.1027
▁obrigada	-12.1027
▁oregon	-12.1027
▁oswald	-12.1027
▁overreact	-12.1027
▁overweight	-12.1027
▁pacifis	-12.1027
▁palazzo	-12.1027
▁paperweight	-12.1027
▁pappas	-12.1027
▁pederast	-12.1027
▁perspective	-12.1027
▁pharmaceutical	-12.1027
▁phenomenon	-12.1027
▁phrase	-12.1027
▁platinum	-12.1027
▁portrait	-12.1027
▁predecessor	-12.1027
▁preocup	-12.1027
▁preparation	-12.1027
▁pretzel	-12.1027
▁propaganda	-12.1027
▁prospect	-12.1027
▁province	-12.1027
▁proximity	-12.1027
▁pyramids	-12.1027
▁questadt	-12.1027
▁questionnaire	-12.1027
▁quincy	-12.1027
▁quintana	-12.1027
▁quinzel	-12.1027
▁rebuttal	-12.1027
▁reimburse	-12.1027
▁reincarnation	-12.1027
▁rendezvous	-12.1027
▁resourceful	-12.1027
▁resurfaced	-12.1027
▁retaliate	-12.1027
▁reynolds	-12.1027
▁rollsroyce	-12.1027
▁rosebud	-12.1027
▁rwanda	-12.1027
▁saucier	-12.1027
▁savior	-12.1027
▁sawdust	-12.1027
▁scholar	-12.1027
▁serpent	-12.1027
▁shekel	-12.1027
▁shrimp	-12.1027
▁sideroads	-12.1027
▁siegfried	-12.1027
▁skeleton	-12.1027
▁sledgehammer	-12.1027
▁soviet	-12.1027
▁stadium	-12.1027
▁staircase	-12.1027
▁stateoftheart	-12.1027
▁statistics	-12.1027
▁stericlean	-12.1027
▁stitching	-12.1027
▁substitute	-12.1027
▁suicida	-12.1027
▁sunglasses	-12.1027
▁superstitious	-12.1027
▁suspension	-12.1027
▁swoop	-12.1027
▁synagogue	-12.1027
▁syrup	-12.1027
▁technician	-12.1027
▁tiffany	-12.1027
▁torturing	-12.1027
▁tractor	-12.1027
▁transmitte	-12.1027
▁tuberculosis	-12.1027
▁tuttle	-12.1027
▁twilight	-12.1027
▁tyrant	-12.1027
▁unarmed	-12.1027
▁unforgettable	-12.1027
▁universal	-12.1027
▁unpredictable	-12.1027
▁unrepentant	-12.1027
▁unspeakabl	-12.1027
▁unstoppable	-12.1027
▁untouchable	-12.1027
▁unwanted	-12.1027
▁uptight	-12.1027
▁urgency	-12.1027
▁vacuum	-12.1027
▁vendetta	-12.1027
▁veterinarian	-12.1027
▁vocalizing	-12.1027
▁vodka	-12.1027
▁whomever	-12.1027
▁whoohoohoo	-12.1027
▁wiedersehen	-12.1027
▁windshield	-12.1027
▁zombie	-12.1027
▁zubrowka	-12.1027
▁administer	-12.1027
▁aggravat	-12.1027
▁bachelor	-12.1027
▁cherish	-12.1027
▁cresci	-12.1027
▁eightysix	-12.1027
▁exhilarat	-12.1027
▁handcuff	-12.1027
▁intercept	-12.1027
▁pharmac	-12.1027
▁scapegoat	-12.1027
▁solemn	-12.1027
▁splat	-12.1027
▁squirrel	-12.1027
mbrava	-12.1027
rrhea	-12.1027
▁azoff	-12.1027
▁barrette	-12.1027
▁blatant	-12.1027
▁bluffs	-12.1027
▁camelhair	-12.1027
▁choppie	-12.1027
▁clinton	-12.1027
▁commute	-12.1027
▁conform	-12.1027
▁crumb	-12.1027
▁depression	-12.1027
▁dixie	-12.1027
▁doorstep	-12.1027
▁equation	-12.1027
▁erotic	-12.1027
▁fairvale	-12.1027
▁fenway	-12.1027
▁fulfill	-12.1027
▁garlic	-12.1027
▁goocher	-12.1027
▁graft	-12.1027
▁handbill	-12.1027
▁hometown	-12.1027
▁increasing	-12.1027
▁jasmine	-12.1027
▁jigg	-12.1027
▁karma	-12.1027
▁lamberto	-12.1027
▁mandatory	-12.1027
▁pecado	-12.1027
▁reginald	-12.1027
▁ricans	-12.1027
▁scalp	-12.1027
▁simultaneous	-12.1027
▁substantial	-12.1027
▁supervision	-12.1027
▁tannen	-12.1027
▁tavern	-12.1027
▁ullman	-12.1027
▁unleash	-12.1027
▁unparallel	-12.1027
▁vacant	-12.1027
▁wilko	-12.1027
▁wolve	-12.1027
▁wrinkl	-12.1027
▁butterfly	-12.1027
▁deixa	-12.1027
▁dexter	-12.1027
▁douchebags	-12.1027
▁drakes	-12.1027
▁exotic	-12.1027
▁felons	-12.1027
▁figuring	-12.1027
▁firewall	-12.1027
▁galante	-12.1027
▁gitmo	-12.1027
▁gmac	-12.1027
▁hubbard	-12.1027
▁ignite	-12.1027
▁lraq	-12.1027
▁lucius	-12.1027
▁merrin	-12.1027
▁postpone	-12.1027
▁reagan	-12.1027
▁shomer	-12.1027
▁wilderness	-12.1027
savvy	-12.1027
▁accumulat	-12.1027
▁camille	-12.1027
▁causa	-12.1027
▁departing	-12.1027
▁kiios	-12.1027
▁lifeform	-12.1027
▁lndian	-12.1027
▁martha	-12.1027
▁protein	-12.1027
▁rascal	-12.1027
▁riddles	-12.1027
▁settling	-12.1027
▁shaquill	-12.1027
▁sibley	-12.1027
▁tristes	-12.1027
▁wesson	-12.1027
▁yeiiing	-12.1027
▁fluids	-12.1027
▁mountaineers	-12.1027
▁nastiness	-12.1027
▁seijas	-12.1027
▁stump	-12.1027
▁trends	-12.1027
▁boppers	-12.1027
▁containing	-12.1027
▁delahunt	-12.1027
▁ekg	-12.1027
▁expia	-12.1027
▁iawyer	-12.1027
▁motto	-12.1027
▁paola	-12.1027
▁especia	-12.1027
▁impersonat	-12.1027
▁inequ	-12.1027
▁ruptur	-12.1027
▁above	-12.1027
▁constanz	-12.1027
▁heartache	-12.1027
▁huds	-12.1027
▁restrictions	-12.1027
▁slander	-12.1027
▁uzi	-12.1027
▁damp	-12.1027
▁leaddis	-12.1027
▁niece	-12.1027
▁casper	-12.1027
▁dossier	-12.1027
▁laredo	-12.1027
▁opportunities	-12.1027
▁smuggling	-12.1027
▁vivo	-12.1027
▁jingling	-12.1027
▁presum	-12.1027
▁sentinel	-12.1027
▁bolivia	-12.1027
▁hobo	-12.1027
▁rerout	-12.1027
▁skeet	-12.1027
▁renegotiat	-12.1027
▁adeus	-12.1028
▁forfeit	-12.1028
▁jammed	-12.1028
▁klips	-12.1028
▁pronto	-12.1028
▁reign	-12.1028
▁rhd	-12.1028
▁cuddl	-12.1028
▁eldest	-12.1028
▁repetiti	-12.1028
▁eightyearolds	-12.1028
▁marino	-12.1028
analysis	-12.1028
cheeseburgers	-12.1028
▁iosing	-12.1028
▁manifest	-12.1028
entials	-12.1028
▁casque	-12.1028
▁convey	-12.1028
rview	-12.1028
▁noisy	-12.1028
▁porsche	-12.1028
atomic	-12.1028
▁exploding	-12.1028
▁hilf	-12.1028
▁hotshot	-12.1028
▁literature	-12.1028
▁expedit	-12.1028
zhei	-12.1028
▁proving	-12.1028
▁sasha	-12.1028
▁sinned	-12.1028
▁applicant	-12.1028
▁biind	-12.1028
▁cement	-12.1028
▁roars	-12.1028
▁chemistry	-12.1028
▁duchamp	-12.1028
▁floppy	-12.1028
▁sawedoff	-12.1028
▁surface	-12.1028
▁panels	-12.1028
▁rummag	-12.1028
▁inflict	-12.1028
▁presumably	-12.1028
▁regulations	-12.1028
▁sketch	-12.1028
nourish	-12.1028
▁acres	-12.1028
▁annual	-12.1028
▁panhandl	-12.1028
▁vidal	-12.1028
▁twitch	-12.1028
▁wrench	-12.1028
▁dandy	-12.1028
▁cruci	-12.1028
▁circulation	-12.1028
▁grumble	-12.1028
▁separation	-12.1028
▁fusion	-12.1028
▁pesos	-12.1028
▁rampart	-12.1028
▁shortening	-12.1028
▁susie	-12.1028
hetical	-12.1028
▁bidding	-12.1028
▁rasp	-12.1028
▁tumble	-12.1028
▁ashley	-12.1028
▁drape	-12.1028
▁humphr	-12.1028
▁lovebirds	-12.1028
▁madonna	-12.1028
▁roleplay	-12.1028
▁renown	-12.1028
▁qualify	-12.1028
▁handicapped	-12.1028
▁singsong	-12.1028
▁climate	-12.1028
▁deported	-12.1028
▁treachery	-12.1028
▁levar	-12.1028
▁goofy	-12.1028
▁overheard	-12.1028
▁wrongdoing	-12.1028
▁keith	-12.1028
▁mothba	-12.1028
▁lark	-12.1028
▁disqualified	-12.1028
▁staple	-12.1028
▁fortnight	-12.1028
▁undermine	-12.1028
▁semana	-12.1028
▁birthmark	-12.1028
▁youngsters	-12.1028
▁livro	-12.1028
▁tuition	-12.1028
kistan	-12.1028
othy	-12.1028
▁homophobic	-12.1028
▁rims	-12.1028
▁thunderstorm	-12.1028
▁trough	-12.1028
▁cody	-12.1028
▁removal	-12.1028
▁sternum	-12.1028
▁georgieboy	-12.1028
▁anitas	-12.1028
▁merchant	-12.1028
▁oyster	-12.1028
▁attachment	-12.1028
▁parlay	-12.1028
▁criticize	-12.1028
▁devotion	-12.1028
▁iris	-12.1028
▁qulet	-12.1028
▁lethal	-12.1028
▁paratroopers	-12.1028
▁botti	-12.1028
▁snappy	-12.1028
▁tompson	-12.1028
▁manoio	-12.1028
▁spann	-12.1028
▁friggin	-12.1028
▁pathological	-12.1028
▁slau	-12.1028
▁cashiers	-12.1028
▁qualifiers	-12.1028
▁flank	-12.1028
▁rogue	-12.1028
▁speedboat	-12.1028
▁participation	-12.1028
▁columbia	-12.1029
▁chowder	-12.1029
▁liking	-12.1029
▁mammy	-12.1029
▁slight	-12.1029
▁fantasize	-12.1029
▁puzzle	-12.1029
▁batshit	-12.1029
▁hypot	-12.1029
▁clover	-12.1029
▁moresque	-12.1029
▁overtake	-12.1029
▁walser	-12.1029
▁disrupt	-12.1029
▁imported	-12.1029
▁snub	-12.1029
▁rapaz	-12.1029
▁excitement	-12.1029
▁aisle	-12.1029
▁compulsive	-12.1029
edric	-12.1029
▁flapping	-12.1029
▁coloss	-12.1029
▁liquidate	-12.1029
▁ponte	-12.1029
▁rustling	-12.1029
▁entende	-12.1029
▁parlance	-12.1029
▁truce	-12.1029
▁marvel	-12.1029
▁occupation	-12.1029
▁farris	-12.1029
▁sherry	-12.1029
▁pollack	-12.1029
▁spiritual	-12.1029
▁elves	-12.1029
▁amusement	-12.1029
▁remarkable	-12.1029
▁scientist	-12.1029
▁diabet	-12.1029
▁injection	-12.1029
▁columbus	-12.1029
▁estranged	-12.1029
▁inkling	-12.1029
▁sylvia	-12.1029
tagoni	-12.1029
▁venom	-12.1029
▁development	-12.1029
▁allergies	-12.1029
▁micro	-12.1029
▁bertra	-12.1029
▁onshore	-12.1029
▁hassle	-12.1029
▁backwards	-12.1029
▁wept	-12.1029
▁prosperous	-12.103
▁prosecute	-12.103
▁password	-12.103
▁tickling	-12.103
▁junkyard	-12.103
▁fauit	-12.103
▁remington	-12.103
▁edition	-12.103
▁chunk	-12.103
▁stirring	-12.103
▁wither	-12.103
▁abdom	-12.103
▁casket	-12.103
▁stunning	-12.103
▁battlefield	-12.103
▁infern	-12.103
▁knuckles	-12.103
▁segre	-12.103
▁cartier	-12.103
▁heath	-12.103
▁samaritan	-12.103
▁kleinman	-12.103
▁stev	-12.103
▁shitshow	-12.103
▁lawsuit	-12.103
▁cobble	-12.103
▁deveria	-12.103
▁outlaw	-12.103
▁pullups	-12.103
▁gunned	-12.103
▁slag	-12.103
▁indochina	-12.103
▁invention	-12.103
▁iphone	-12.103
▁snapped	-12.103
▁steep	-12.103
▁fantasi	-12.103
actic	-12.103
ffles	-12.103
▁clarity	-12.103
▁sandbag	-12.103
comin	-12.103
▁auditor	-12.103
▁disappointment	-12.103
▁firefighter	-12.103
▁yeee	-12.1031
▁blushon	-12.1031
▁nonya	-12.1031
▁nitr	-12.1031
▁dislike	-12.1031
▁cabstand	-12.1031
▁iadies	-12.1031
▁scorn	-12.1031
fthan	-12.1031
▁heap	-12.1031
▁testifie	-12.1031
interact	-12.1031
▁gutted	-12.1031
▁bummer	-12.1031
▁valli	-12.1031
▁ajob	-12.1031
▁beware	-12.1031
▁cazz	-12.1031
▁sealant	-12.1031
▁putain	-12.1031
▁consent	-12.1031
▁involvement	-12.1031
▁powell	-12.1031
▁iosef	-12.1031
▁disgraceful	-12.1031
▁braze	-12.1031
▁disposal	-12.1031
▁nerd	-12.1031
▁baham	-12.1031
▁ajudeme	-12.1031
▁contribute	-12.1031
▁inconvenience	-12.1031
▁infiltrate	-12.1031
▁outof	-12.1031
▁peddle	-12.1031
▁scoot	-12.1031
contained	-12.1031
▁moses	-12.1031
▁belch	-12.1031
▁gnight	-12.1031
▁dominati	-12.1031
▁loafers	-12.1031
▁ouviu	-12.1031
▁unconscious	-12.1031
▁consol	-12.1031
ffled	-12.1031
pathy	-12.1031
fuiiy	-12.1031
▁domus	-12.1032
▁hungover	-12.1032
▁compton	-12.1032
▁engagement	-12.1032
▁ruling	-12.1032
▁radius	-12.1032
▁assembly	-12.1032
▁strattonite	-12.1032
ugula	-12.1032
▁whipping	-12.1032
▁frequency	-12.1032
▁okeydokey	-12.1032
▁postcard	-12.1032
▁contrast	-12.1032
▁extradition	-12.1032
▁waterfall	-12.1032
▁chili	-12.1032
▁stripped	-12.1032
▁shortcut	-12.1032
▁injun	-12.1032
▁wanders	-12.1032
▁bankrupt	-12.1032
▁apprehen	-12.1032
▁catastroph	-12.1032
▁selection	-12.1032
▁before	-12.1032
▁icon	-12.1032
▁bergman	-12.1032
▁birches	-12.1032
▁franz	-12.1032
▁drool	-12.1032
▁static	-12.1032
▁caroline	-12.1032
crot	-12.1032
▁niggerlov	-12.1032
▁yyoure	-12.1032
▁overboard	-12.1032
▁firebird	-12.1032
▁chapel	-12.1033
▁credi	-12.1033
▁remark	-12.1033
▁victorious	-12.1033
▁verified	-12.1033
▁font	-12.1033
▁disso	-12.1033
▁ramp	-12.1033
▁iying	-12.1033
▁blueberries	-12.1033
▁outright	-12.1033
▁barefoot	-12.1033
▁honda	-12.1033
▁bribery	-12.1033
▁hanna	-12.1033
▁committing	-12.1033
▁rejection	-12.1033
▁dumpster	-12.1033
▁inbound	-12.1033
ickety	-12.1033
▁withdrawn	-12.1033
▁marlin	-12.1033
colat	-12.1033
▁pathway	-12.1033
▁fogg	-12.1033
▁desde	-12.1034
▁mature	-12.1034
▁maiden	-12.1034
▁passionate	-12.1034
▁ofyou	-12.1034
lonia	-12.1034
▁rehabilitation	-12.1034
▁holies	-12.1034
▁fiim	-12.1034
▁maude	-12.1034
▁paisan	-12.1034
▁boast	-12.1034
▁wwhat	-12.1034
▁iad	-12.1034
osher	-12.1034
▁colombian	-12.1034
▁wether	-12.1034
▁token	-12.1034
▁smii	-12.1034
▁colonies	-12.1035
▁wor	-12.1035
▁amends	-12.1035
▁render	-12.1035
▁fleur	-12.1035
▁beret	-12.1035
▁dedication	-12.1035
▁ample	-12.1035
▁fork	-12.1035
▁weakling	-12.1035
▁coca	-12.1035
▁production	-12.1035
dorf	-12.1035
▁ripoff	-12.1035
▁pezz	-12.1036
▁whup	-12.1036
▁majorca	-12.1036
▁intrigued	-12.1036
▁biack	-12.1036
▁candyass	-12.1036
▁timid	-12.1036
▁loco	-12.1036
▁elite	-12.1036
▁teens	-12.1036
▁lordship	-12.1036
▁baggie	-12.1036
▁arise	-12.1036
▁tampin	-12.1037
▁showmanship	-12.1037
▁delusional	-12.1037
▁aka	-12.1037
▁embora	-12.1037
▁dwell	-12.1037
▁storytell	-12.1037
▁clan	-12.1037
▁personalities	-12.1037
▁mortal	-12.1037
▁uk	-12.1037
▁tarant	-12.1038
shufflin	-12.1038
▁offthe	-12.1038
▁belongings	-12.1038
▁holster	-12.1039
▁reassignment	-12.1039
▁recognition	-12.1039
▁slovenian	-12.1039
▁incon	-12.1039
▁contradiction	-12.1039
▁samoan	-12.1039
▁scout	-12.1039
zano	-12.1039
▁meaningful	-12.1039
▁batch	-12.1039
▁morphine	-12.1039
▁decency	-12.1039
▁ango	-12.1039
▁mixup	-12.1039
▁barbari	-12.104
▁mmmmm	-12.104
▁cupcake	-12.104
▁amish	-12.104
▁collier	-12.104
▁condone	-12.104
▁upand	-12.1041
▁vroom	-12.1041
▁giad	-12.1041
▁icy	-12.1041
▁heid	-12.1041
▁cele	-12.1041
▁continuar	-12.1041
▁rigor	-12.1041
▁yawn	-12.1042
▁kah	-12.1042
mot	-12.1042
istine	-12.1042
▁shakedown	-12.1042
pert	-12.1042
▁higherup	-12.1043
▁scarf	-12.1043
▁lyin	-12.1043
▁matar	-12.1043
▁settlement	-12.1043
▁reduce	-12.1043
▁pads	-12.1044
▁defian	-12.1044
▁bash	-12.1044
actical	-12.1044
▁myers	-12.1044
▁foreigners	-12.1044
▁notre	-12.1044
▁handgun	-12.1045
▁caf	-12.1045
▁oww	-12.1045
plugged	-12.1045
▁exhibition	-12.1045
▁geep	-12.1045
▁rumbl	-12.1045
▁passover	-12.1045
▁splitting	-12.1045
high	-12.1046
▁ingl	-12.1046
ranged	-12.1046
▁luxury	-12.1046
kka	-12.1046
▁freddie	-12.1047
▁peas	-12.1047
▁teasing	-12.1047
▁electro	-12.1047
discriminat	-12.1047
▁drab	-12.1047
▁exile	-12.1047
endar	-12.1047
▁newfound	-12.1048
▁allegedly	-12.1048
▁spur	-12.1048
xious	-12.1048
▁harem	-12.1048
▁restroom	-12.1048
▁stanley	-12.1049
▁whisk	-12.1049
▁goddaughter	-12.1049
▁baton	-12.1049
▁paw	-12.105
▁commi	-12.105
▁squat	-12.105
▁singh	-12.105
▁milan	-12.105
▁tov	-12.105
▁brag	-12.105
▁voltar	-12.105
perceptible	-12.1051
▁wedge	-12.1051
▁guardianes	-12.1051
▁madhouse	-12.1052
▁ardel	-12.1052
▁verb	-12.1052
▁claro	-12.1052
▁wool	-12.1053
▁hitters	-12.1053
▁enca	-12.1053
▁trot	-12.1054
▁unsee	-12.1054
▁hoot	-12.1054
▁beam	-12.1055
emic	-12.1055
▁coverage	-12.1055
▁coco	-12.1055
▁tsk	-12.1056
▁reforma	-12.1056
▁warmth	-12.1057
▁gland	-12.1058
▁cristy	-12.1058
▁intellectual	-12.1058
▁insert	-12.1058
▁marqu	-12.1058
▁descend	-12.1058
▁accountable	-12.1059
vian	-12.1059
▁bitten	-12.1059
▁ultimately	-12.1059
▁robberies	-12.106
▁mellow	-12.1061
gum	-12.1061
▁threesome	-12.1061
▁hopping	-12.1062
▁warped	-12.1062
▁sau	-12.1062
▁trim	-12.1063
▁lact	-12.1063
▁whim	-12.1063
▁donation	-12.1064
▁warmup	-12.1064
▁portion	-12.1064
▁identific	-12.1064
give	-12.1064
▁mores	-12.1064
▁dyer	-12.1064
▁fairness	-12.1065
▁eff	-12.1065
▁hora	-12.1065
▁decoration	-12.1065
▁devastated	-12.1065
▁encountered	-12.1065
▁most	-12.1065
▁strolled	-12.1065
▁joyous	-12.1066
▁hasty	-12.1066
▁feat	-12.1066
▁ciccio	-12.1066
▁bono	-12.1067
▁boyhood	-12.1067
▁hijo	-12.1068
▁gently	-12.1068
▁walton	-12.1068
▁grandson	-12.1068
▁lumber	-12.1068
itas	-12.1069
▁peachy	-12.1069
▁admirer	-12.1069
▁bind	-12.107
▁coit	-12.107
▁luco	-12.1071
▁apocal	-12.1071
▁leech	-12.1072
▁observed	-12.1072
clarify	-12.1073
▁syc	-12.1074
▁clearance	-12.1074
▁harmon	-12.1074
▁tempora	-12.1074
▁loaf	-12.1074
▁motivated	-12.1074
▁prone	-12.1074
▁hollering	-12.1074
▁clinging	-12.1074
▁refreshing	-12.1074
▁contradicting	-12.1075
▁preaching	-12.1075
▁limping	-12.1075
ussel	-12.1076
ppies	-12.1076
▁gallon	-12.1077
▁potentially	-12.1077
▁splitter	-12.1077
▁hutchie	-12.1078
eeding	-12.1078
▁myr	-12.1078
▁limey	-12.1078
▁stew	-12.1079
▁priceless	-12.1079
▁hinge	-12.1079
▁poii	-12.108
▁vali	-12.108
▁resigned	-12.108
▁transit	-12.1081
▁stacked	-12.1081
othing	-12.1082
▁forb	-12.1082
▁yelled	-12.1082
▁hoie	-12.1083
▁grim	-12.1083
obedience	-12.1084
▁tabie	-12.1085
ympho	-12.1085
▁comply	-12.1086
▁casal	-12.1087
▁underestimated	-12.1088
▁mira	-12.1088
▁encouraged	-12.1089
▁chame	-12.109
▁examined	-12.1091
▁alto	-12.1092
▁usuai	-12.1092
▁patsy	-12.1092
▁entertaining	-12.1093
▁sonora	-12.1094
▁portal	-12.1095
▁peeping	-12.1095
▁reopened	-12.1096
▁vouched	-12.1096
▁swayed	-12.1096
▁smartass	-12.1096
▁rejected	-12.1097
▁drawn	-12.1097
▁piper	-12.1098
arda	-12.1098
▁sour	-12.1099
▁hait	-12.1099
ssimo	-12.1099
▁losses	-12.11
▁poacher	-12.11
▁stinky	-12.1101
▁motive	-12.1102
▁aero	-12.1102
rena	-12.1102
▁chit	-12.1104
▁crest	-12.1105
▁processor	-12.1105
▁urgently	-12.1106
▁sang	-12.1106
▁instrumental	-12.1108
▁funda	-12.1108
▁disguised	-12.1108
▁hydra	-12.1108
▁paradox	-12.1109
lection	-12.111
▁torche	-12.1111
ristle	-12.1112
▁briefly	-12.1112
▁jeopardize	-12.1112
▁gild	-12.1114
▁mona	-12.1115
▁hotter	-12.1115
▁ober	-12.1116
▁corny	-12.1116
▁rescued	-12.1117
▁supplie	-12.1118
diment	-12.1118
▁grain	-12.1119
▁sacrificed	-12.1122
▁spark	-12.1122
ntless	-12.1123
▁faintly	-12.1124
▁poppy	-12.1126
▁fairies	-12.1126
▁beaner	-12.1131
▁boner	-12.1131
▁pursued	-12.1131
▁vassa	-12.1131
▁cling	-12.1135
▁originally	-12.1136
olhar	-12.1136
▁server	-12.1136
puncture	-12.1137
▁readout	-12.1141
▁faker	-12.1144
▁trembl	-12.1149
plies	-12.1149
▁esse	-12.1155
hat	-12.1156
▁vive	-12.1158
▁unde	-12.1159
▁losef	-12.1162
▁seii	-12.1167
▁coal	-12.1168
▁skilled	-12.1171
▁greased	-12.1173
▁bangin	-12.1175
▁ththat	-12.1176
erner	-12.1176
▁smel	-12.1178
▁label	-12.118
▁restore	-12.1185
▁fillin	-12.1185
▁wince	-12.1186
▁antig	-12.1188
▁measl	-12.1194
▁priv	-12.1198
▁crank	-12.12
▁dale	-12.1201
▁quar	-12.1202
▁vien	-12.122
▁blu	-12.123
▁malt	-12.1231
▁hostilit	-12.1231
▁mir	-12.1236
wrapping	-12.1241
umber	-12.1249
▁iess	-12.125
▁axe	-12.1252
ebo	-12.1261
▁wilt	-12.1261
avor	-12.1262
ector	-12.1263
▁creeper	-12.1272
consec	-12.1275
▁beaut	-12.1287
▁critical	-12.1288
rrifying	-12.129
▁fumbl	-12.1299
hugging	-12.13
top	-12.13
▁discre	-12.1302
▁gramm	-12.1306
▁pegge	-12.1315
ride	-12.1325
▁electr	-12.1331
▁occurr	-12.1335
▁estimat	-12.1337
▁ignor	-12.1341
▁deviate	-12.1351
▁defender	-12.1352
▁serb	-12.1353
lamour	-12.1374
emper	-12.1378
fund	-12.1379
▁chl	-12.1381
pau	-12.1382
▁chore	-12.1385
▁hebe	-12.1407
▁baba	-12.141
ointed	-12.1436
▁dribbl	-12.1444
link	-12.1453
everage	-12.1462
marc	-12.1466
emption	-12.1502
witz	-12.1513
▁skinn	-12.1513
▁rabin	-12.1518
recia	-12.1524
▁ofjo	-12.1525
▁archer	-12.1537
▁louie	-12.1539
pis	-12.155
classify	-12.1565
▁democrat	-12.1566
▁motivat	-12.1576
productive	-12.16
▁plott	-12.1601
▁tropi	-12.1602
▁environmental	-12.1616
▁regulat	-12.1621
▁submitt	-12.1626
▁purg	-12.163
onomy	-12.1642
destructi	-12.1656
▁adol	-12.1688
▁dispose	-12.1697
▁flatb	-12.1704
wan	-12.1715
▁buon	-12.1726
obbledy	-12.1744
inder	-12.1758
▁abort	-12.1774
cocksuck	-12.1779
▁subver	-12.1795
▁salv	-12.1795
iq	-12.1818
▁disk	-12.182
▁boz	-12.1875
▁trampl	-12.188
brar	-12.1891
▁jame	-12.19
▁cai	-12.1908
▁atropela	-12.1914
ability	-12.1939
eering	-12.1953
eresa	-12.1955
▁execut	-12.1979
eces	-12.2006
otations	-12.2018
▁termin	-12.205
▁encontra	-12.2061
▁misunderstand	-12.2093
▁performer	-12.2098
owl	-12.2104
▁calculate	-12.211
dded	-12.2112
▁pep	-12.2137
▁benz	-12.2166
▁chr	-12.2172
capita	-12.2186
▁dur	-12.2213
jacket	-12.2224
▁tente	-12.2235
tape	-12.2249
▁contar	-12.2249
▁morrer	-12.2254
▁rotat	-12.2277
▁pedir	-12.2283
bab	-12.2289
icia	-12.2316
▁kru	-12.2324
patter	-12.2339
urban	-12.2344
▁importan	-12.2375
▁undress	-12.2392
▁repuls	-12.2443
▁styl	-12.2456
▁esc	-12.2473
craft	-12.2487
▁arteri	-12.2508
pong	-12.2519
proved	-12.2533
culia	-12.2566
▁lank	-12.2577
mund	-12.2583
tits	-12.2591
▁dorm	-12.2591
incent	-12.2603
▁estive	-12.2613
horn	-12.2634
oxi	-12.268
▁tir	-12.2725
akin	-12.2746
culate	-12.2755
ripping	-12.2773
chilling	-12.2844
earing	-12.285
▁discharge	-12.2857
▁submissi	-12.294
▁cioc	-12.2951
nyan	-12.2952
▁wal	-12.2978
▁volta	-12.2984
viral	-12.2999
gain	-12.3045
imentos	-12.3137
illings	-12.3208
obes	-12.3216
▁poet	-12.3218
▁dost	-12.323
▁segu	-12.3298
▁jun	-12.3349
fel	-12.3351
onald	-12.3406
▁contaminate	-12.3466
▁gir	-12.3471
▁seduc	-12.3474
▁schem	-12.3538
▁exterminat	-12.3538
tler	-12.3564
lapping	-12.3587
▁swin	-12.3656
pla	-12.3675
poppin	-12.3703
brid	-12.3704
fortunately	-12.3766
waltz	-12.379
entity	-12.3797
▁accusati	-12.3891
rig	-12.391
▁dormi	-12.3911
▁suspense	-12.3935
cot	-12.4009
▁activat	-12.4025
▁cultivat	-12.4028
litz	-12.4053
ggle	-12.4056
fitting	-12.408
▁thunderbo	-12.415
nacio	-12.4225
▁charit	-12.4284
▁exchang	-12.4317
▁psychologi	-12.436
▁conserv	-12.4393
claimed	-12.4437
calculated	-12.4474
mics	-12.45
nejo	-12.455
erda	-12.4594
mbah	-12.4594
▁structur	-12.4612
aaaa	-12.4623
zzer	-12.4639
tamara	-12.4662
▁polar	-12.4664
▁atropel	-12.4727
atio	-12.4795
alaba	-12.4905
eemed	-12.4946
emba	-12.5002
apple	-12.5015
struction	-12.5075
forming	-12.53
▁raisin	-12.5331
imba	-12.5334
▁hirin	-12.5371
skirts	-12.5388
arzana	-12.5391
cidentally	-12.5404
pathic	-12.5431
▁suppl	-12.551
paste	-12.554
ooties	-12.5546
deeds	-12.5577
ickle	-12.5583
wakey	-12.5604
nomination	-12.5639
clean	-12.5652
ckey	-12.5657
reaking	-12.5701
▁droog	-12.5714
masking	-12.5719
▁valentin	-12.5727
odger	-12.5746
mandin	-12.5747
unction	-12.575
▁bree	-12.5752
▁sigh	-12.5766
▁creak	-12.5767
▁whimper	-12.5774
▁involv	-12.5792
▁hampton	-12.5792
▁vitamin	-12.5799
auf	-12.5803
▁prevail	-12.5803
▁mcdonald	-12.5806
▁morte	-12.5808
ubbing	-12.5809
▁brook	-12.5811
▁harri	-12.5811
▁strap	-12.5813
ixes	-12.5814
▁flame	-12.5816
▁exhale	-12.5819
▁statu	-12.5819
cluded	-12.5824
▁instruction	-12.5824
▁texa	-12.5825
▁other	-12.5827
weeds	-12.583
▁punctu	-12.5851
cakes	-12.5865
▁boun	-12.5868
prising	-12.5869
admissi	-12.588
▁jeopardiz	-12.589
▁preced	-12.5909
▁sacrific	-12.5934
eceu	-12.5936
chamel	-12.5937
▁lectur	-12.5944
▁surviv	-12.5948
mind	-12.5949
▁sym	-12.5952
vitie	-12.5953
tterlng	-12.5955
dragg	-12.5956
▁retir	-12.5959
range	-12.596
▁slug	-12.596
father	-12.5964
▁apologiz	-12.5971
▁pursu	-12.5973
▁toil	-12.5975
conscious	-12.5976
▁suppos	-12.5976
fighter	-12.5978
milli	-12.5978
descend	-12.5978
intellectual	-12.5978
mellow	-12.5978
insert	-12.5978
crest	-12.5978
hopping	-12.598
acceptable	-12.598
kettle	-12.598
woman	-12.5981
▁complet	-12.5981
qualified	-12.5981
feit	-12.5981
uhuhuh	-12.5982
authoriz	-12.5982
frame	-12.5982
educated	-12.5982
graduate	-12.5982
stream	-12.5982
active	-12.5982
alcoholic	-12.5982
designed	-12.5982
champ	-12.5984
tracted	-12.5984
identified	-12.5984
scotch	-12.5984
invest	-12.5984
trailer	-12.5984
hawk	-12.5984
confirm	-12.5984
righteous	-12.5984
counter	-12.5984
culture	-12.5984
healthy	-12.5984
wrapped	-12.5984
motive	-12.5984
successful	-12.5984
angels	-12.5985
jurisdiction	-12.5985
organized	-12.5985
possibility	-12.5985
sensitive	-12.5985
jealous	-12.5985
schedule	-12.5985
thirty	-12.5985
watch	-12.5985
mistress	-12.5985
secretary	-12.5985
respect	-12.5985
electric	-12.5985
coach	-12.5985
johnson	-12.5985
quarter	-12.5985
corn	-12.5985
happy	-12.5985
weather	-12.5985
intend	-12.5985
retired	-12.5985
pressure	-12.5985
subtitle	-12.5985
command	-12.5985
whistle	-12.5985
intelligence	-12.5985
punch	-12.5985
world	-12.5985
grew	-12.5985
switch	-12.5985
account	-12.5985
joint	-12.5986
interest	-12.5986
united	-12.5986
dancing	-12.5986
broken	-12.5986
finished	-12.5986
system	-12.5986
lord	-12.5986
minute	-12.5986
thousand	-12.5986
child	-12.5986
women	-12.5986
course	-12.5986
help	-12.5986
gold	-12.5986
seconds	-12.5986
poor	-12.5986
horse	-12.5986
donna	-12.5987
forward	-12.5987
agency	-12.5987
freeze	-12.5987
knock	-12.5987
forget	-12.5987
▁humm	-12.5988
winning	-12.5988
direct	-12.5988
wishes	-12.5988
radian	-12.5988
hammer	-12.5988
crimina	-12.5988
marine	-12.5988
castro	-12.5989
slowly	-12.5989
without	-12.5989
blink	-12.5989
after	-12.599
heard	-12.5991
scene	-12.5991
▁attach	-12.5991
▁strand	-12.5992
statement	-12.5992
criminal	-12.5992
gotten	-12.5992
prom	-12.5993
▁depriv	-12.5993
▁adjourn	-12.5993
▁assign	-12.5993
motion	-12.5995
pool	-12.5995
perated	-12.5996
cool	-12.5997
choke	-12.6
▁qualifie	-12.6004
pilot	-12.6005
▁relieve	-12.6006
▁crimin	-12.6006
▁clea	-12.6007
▁unplug	-12.6007
▁rabbi	-12.6008
while	-12.6009
▁observ	-12.6009
▁pornograph	-12.601
▁territor	-12.6011
▁murph	-12.6011
▁naught	-12.6011
▁fernand	-12.6011
▁fiddl	-12.6012
▁responsibilit	-12.6012
▁absolut	-12.6012
▁ugl	-12.6012
▁sorr	-12.6012
▁deixo	-12.6013
flag	-12.6013
▁reveren	-12.6013
▁tamp	-12.6013
liente	-12.6013
▁fift	-12.6014
▁anima	-12.6015
iberty	-12.6015
▁pledg	-12.6015
▁manipulati	-12.6017
▁branc	-12.6017
▁whinn	-12.6017
▁cicc	-12.6019
▁slipper	-12.6019
▁revoi	-12.6019
▁birch	-12.602
prehensi	-12.602
▁thiev	-12.602
▁familia	-12.602
▁afghan	-12.602
▁quand	-12.602
▁scrib	-12.6021
▁allerg	-12.6021
▁disposa	-12.6021
▁pregnan	-12.6022
ordinate	-12.6022
kln	-12.6022
▁govern	-12.6023
▁columb	-12.6023
propo	-12.6023
yzi	-12.6023
▁sicilia	-12.6023
▁elevat	-12.6023
▁virgi	-12.6023
▁supe	-12.6023
dispensa	-12.6023
uspicious	-12.6023
▁separa	-12.6024
▁parasit	-12.6024
▁smilin	-12.6024
▁vacanc	-12.6024
▁quittin	-12.6024
▁econom	-12.6024
▁recollect	-12.6024
[...]
