<unk>	0
<s>	0
</s>	0
s	-3.68932
▁im	-4.47051
▁dont	-4.54474
▁know	-4.62228
▁get	-4.78384
▁go	-4.87445
▁like	-4.88214
▁oh	-4.90687
▁right	-4.94535
▁well	-4.99166
▁come	-4.99757
▁youre	-5.01933
▁got	-5.02983
▁one	-5.18144
ing	-5.18281
▁thats	-5.18493
▁na	-5.27392
▁yeah	-5.28072
▁see	-5.33234
▁good	-5.35152
▁think	-5.40217
▁want	-5.48931
▁back	-5.49172
ed	-5.49964
▁look	-5.51443
▁hey	-5.54542
▁yes	-5.54648
▁gon	-5.58902
▁us	-5.58951
▁ill	-5.61556
▁time	-5.63393
▁man	-5.6471
▁going	-5.64885
▁hes	-5.65163
▁okay	-5.65771
▁take	-5.70233
▁cant	-5.7138
▁would	-5.7248
▁mr	-5.7482
▁say	-5.8448
▁could	-5.86021
▁way	-5.89662
d	-5.89696
▁never	-5.91362
▁tell	-5.92452
▁	-5.95573
▁little	-5.9617
▁make	-5.97892
▁l	-5.97895
▁really	-5.98435
▁something	-6.00627
▁let	-6.0101
▁need	-6.01746
▁whats	-6.02858
▁love	-6.07664
▁ive	-6.10752
▁theres	-6.12513
▁sir	-6.14911
▁lets	-6.16823
▁please	-6.17373
▁give	-6.17769
y	-6.18278
▁mean	-6.2019
▁thank	-6.20785
▁didnt	-6.24199
▁sorry	-6.24576
▁thing	-6.26494
▁sure	-6.27739
▁help	-6.28241
e	-6.28781
▁people	-6.29346
▁find	-6.31472
▁two	-6.32703
▁wait	-6.32708
▁day	-6.34111
▁said	-6.3491
er	-6.36074
ly	-6.37177
▁life	-6.37733
▁much	-6.40066
▁uh	-6.41194
▁home	-6.41374
▁stop	-6.41541
▁must	-6.42286
▁nothing	-6.43353
▁theyre	-6.45508
▁father	-6.46069
▁great	-6.48258
▁work	-6.51314
▁away	-6.51915
▁first	-6.53239
▁anything	-6.5425
▁always	-6.5493
▁call	-6.55181
▁put	-6.55955
▁better	-6.55965
▁ta	-6.56988
▁even	-6.57555
▁keep	-6.57613
▁maybe	-6.58056
▁new	-6.59275
▁ever	-6.60895
▁shes	-6.61473
▁boy	-6.62501
▁god	-6.63479
▁huh	-6.63657
▁night	-6.64897
▁youll	-6.65155
▁wan	-6.6516
▁still	-6.66485
▁thought	-6.67091
▁old	-6.6748
▁around	-6.6803
▁big	-6.69007
▁stay	-6.7003
▁name	-6.70254
▁id	-6.71835
▁long	-6.72031
▁talk	-6.73594
▁wont	-6.7445
▁everything	-6.75284
▁miss	-6.75749
▁guys	-6.77394
▁feel	-6.77881
▁world	-6.78414
▁things	-6.78791
▁youve	-6.789
▁leave	-6.7929
▁listen	-6.79434
▁told	-6.7977
▁last	-6.79784
▁dad	-6.80548
▁believe	-6.81479
▁hear	-6.81627
▁place	-6.82782
a	-6.83978
in	-6.8474
▁girl	-6.84873
▁nice	-6.85006
▁show	-6.86879
▁coming	-6.87779
▁bad	-6.87792
▁every	-6.87981
▁made	-6.88234
r	-6.89069
▁fine	-6.89162
t	-6.8946
▁remember	-6.9069
▁hello	-6.90691
▁music	-6.90771
▁son	-6.91849
▁thanks	-6.92712
▁house	-6.93
▁hi	-6.93774
▁lot	-6.93856
▁doesnt	-6.94332
▁hold	-6.94542
▁may	-6.94775
▁years	-6.95045
▁wrong	-6.97153
▁kind	-6.9747
▁best	-6.98215
o	-6.98484
▁left	-6.98727
▁another	-6.9899
▁today	-7.00056
▁isnt	-7.00593
▁done	-7.00597
▁course	-7.00865
▁money	-7.01676
▁care	-7.01963
▁move	-7.0248
▁hell	-7.03509
▁ah	-7.03528
▁real	-7.03682
▁mother	-7.03883
▁mind	-7.0445
▁enough	-7.04714
▁kid	-7.04854
▁understand	-7.07271
▁friend	-7.08199
▁ready	-7.08262
▁three	-7.08745
▁run	-7.09172
▁guy	-7.10797
▁might	-7.11478
▁ok	-7.12025
ll	-7.12089
▁morning	-7.13815
▁looking	-7.13854
▁family	-7.14427
▁ask	-7.15654
▁car	-7.15783
▁try	-7.16927
▁watch	-7.1821
▁fight	-7.1862
▁excuse	-7.18852
▁seen	-7.18994
▁talking	-7.19078
▁else	-7.19177
▁job	-7.19531
c	-7.19759
▁wouldnt	-7.20203
▁mom	-7.20538
▁together	-7.22806
▁school	-7.23147
▁many	-7.23463
n	-7.23575
▁head	-7.23971
▁happened	-7.25073
▁whos	-7.25493
▁guess	-7.25657
▁play	-7.25942
▁getting	-7.26028
▁found	-7.26188
▁weve	-7.26228
▁men	-7.26431
▁baby	-7.26574
▁playing	-7.26779
▁whoa	-7.27998
▁wanted	-7.2827
▁dead	-7.28687
▁bring	-7.28762
▁someone	-7.28912
▁next	-7.29047
▁whole	-7.29409
▁heart	-7.29445
▁matter	-7.2961
es	-7.30147
▁hope	-7.30195
▁dog	-7.30367
▁george	-7.30489
▁aint	-7.3049
▁tomorrow	-7.30786
▁everybody	-7.30852
al	-7.31164
▁trying	-7.3186
▁came	-7.32235
▁hard	-7.32306
▁bit	-7.32638
▁pretty	-7.32691
▁live	-7.33018
▁gone	-7.33045
▁turn	-7.33156
▁water	-7.3344
▁eat	-7.33687
▁start	-7.34818
▁minute	-7.3523
▁kill	-7.35724
▁cause	-7.35801
▁grunts	-7.35803
▁meet	-7.36689
▁beautiful	-7.37066
▁kids	-7.37428
▁open	-7.37452
▁true	-7.37664
▁tonight	-7.38025
i	-7.38167
▁woman	-7.38429
▁without	-7.38811
▁friends	-7.38885
▁harry	-7.39206
▁wasnt	-7.39206
▁everyone	-7.39222
▁lord	-7.39997
▁door	-7.40101
▁use	-7.40507
▁mine	-7.40568
▁boys	-7.41561
▁face	-7.42193
p	-7.42297
▁idea	-7.42485
▁gasps	-7.43145
▁ha	-7.43147
▁havent	-7.4366
▁saw	-7.43667
▁heard	-7.44593
▁hand	-7.45601
▁young	-7.45963
▁city	-7.46191
▁king	-7.46216
▁end	-7.46956
▁knew	-7.47029
▁worry	-7.47029
▁jack	-7.47374
▁somebody	-7.48203
▁room	-7.49559
▁youd	-7.4964
▁sit	-7.4999
▁forget	-7.51395
▁yet	-7.51868
▁laughing	-7.52988
▁used	-7.53124
l	-7.53505
▁went	-7.5413
▁mrs	-7.54307
▁de	-7.54402
▁um	-7.55219
▁town	-7.55469
▁lost	-7.56
▁general	-7.56456
▁lady	-7.56469
▁afraid	-7.56925
▁part	-7.57202
ve	-7.57247
▁un	-7.57557
▁crazy	-7.57877
▁read	-7.58071
▁alone	-7.58838
▁far	-7.59306
▁stuff	-7.59806
or	-7.6018
▁check	-7.60793
▁second	-7.61406
▁already	-7.61768
▁anyone	-7.61768
▁lm	-7.62035
m	-7.62166
▁shall	-7.62267
▁chance	-7.62267
▁couldnt	-7.63337
▁stand	-7.63488
▁fire	-7.63517
▁em	-7.63733
▁took	-7.63764
▁trust	-7.63872
▁looks	-7.64225
▁break	-7.64227
▁set	-7.64268
▁eyes	-7.64591
▁close	-7.64856
▁hit	-7.65166
▁hmm	-7.65331
▁saying	-7.66085
▁nobody	-7.66338
g	-7.66538
▁four	-7.6684
▁happy	-7.6686
▁late	-7.67143
▁since	-7.67387
▁wow	-7.67912
▁easy	-7.67915
▁phone	-7.67916
▁soon	-7.68807
▁wish	-7.69021
▁light	-7.70782
w	-7.71075
▁change	-7.71817
ers	-7.7224
▁rest	-7.72787
▁later	-7.73458
▁hands	-7.73682
h	-7.73864
▁point	-7.73923
▁brother	-7.74335
▁probably	-7.7445
▁power	-7.74914
▁wheres	-7.75039
▁thinking	-7.75655
▁die	-7.75741
▁wolf	-7.75772
▁called	-7.75787
▁days	-7.76126
▁minutes	-7.76299
▁tom	-7.76712
▁shut	-7.76721
▁honey	-7.7673
▁important	-7.76735
▁welcome	-7.77308
▁trouble	-7.78474
▁actually	-7.78488
▁exactly	-7.78493
▁daddy	-7.79096
▁high	-7.79229
▁word	-7.79646
▁children	-7.80318
▁says	-7.805
▁happen	-7.80512
▁anybody	-7.80848
▁pay	-7.80912
▁quite	-7.80932
▁taking	-7.81472
b	-7.815
▁send	-7.8156
▁damn	-7.81648
▁chuckles	-7.82199
▁gave	-7.82672
▁la	-7.83146
▁sherman	-7.83252
▁almost	-7.83279
▁different	-7.83718
▁business	-7.83871
▁deal	-7.84036
▁dear	-7.84527
▁waiting	-7.84547
▁five	-7.84554
▁hot	-7.8504
▁year	-7.85295
▁fun	-7.85494
▁wants	-7.85517
▁cool	-7.85553
▁making	-7.8578
▁sighs	-7.85889
est	-7.86144
▁cut	-7.86345
▁dr	-7.86468
▁perfect	-7.86831
▁walk	-7.86941
▁save	-7.87417
▁free	-7.87581
▁anyway	-7.87683
▁hurry	-7.87683
▁hurt	-7.87975
▁joe	-7.88122
▁inside	-7.88331
▁top	-7.88335
▁side	-7.89012
▁laughs	-7.89108
▁papa	-7.89712
▁dance	-7.89731
▁they	-7.89954
▁hate	-7.90535
▁sister	-7.90589
▁ya	-7.91008
▁week	-7.91235
▁air	-7.91622
▁ago	-7.91625
ar	-7.91703
▁s	-7.91923
▁sometimes	-7.91939
▁pick	-7.91979
ion	-7.92195
▁arent	-7.92292
▁working	-7.9252
▁story	-7.92967
▁sleep	-7.93082
▁follow	-7.93361
▁laura	-7.93647
▁miles	-7.93766
▁rock	-7.93804
▁girls	-7.93828
▁captain	-7.9433
▁gentlemen	-7.94331
▁marty	-7.94333
▁jerry	-7.94335
▁food	-7.94337
▁supposed	-7.94542
ic	-7.94917
▁ooh	-7.95022
▁wife	-7.95024
▁red	-7.95126
▁continues	-7.95253
▁problem	-7.95419
▁doctor	-7.95446
on	-7.95889
▁r	-7.95993
▁parents	-7.961
▁clear	-7.96251
▁half	-7.96441
▁speak	-7.96502
▁goes	-7.96587
▁party	-7.96716
▁yi	-7.96805
▁c	-7.97106
▁ahead	-7.97124
▁least	-7.97143
▁moment	-7.97631
▁six	-7.97785
▁line	-7.97825
▁behind	-7.97826
▁whatever	-7.98541
st	-7.98906
▁truth	-7.99261
▁front	-7.99268
▁plan	-8.00427
u	-8.00509
▁voice	-8.00715
▁bye	-8.00715
▁ow	-8.0085
▁bed	-8.01278
▁number	-8.01316
▁means	-8.01656
re	-8.0177
▁cat	-8.01971
▁batman	-8.02948
k	-8.02995
le	-8.0334
▁full	-8.03484
▁war	-8.03587
▁running	-8.0369
▁shot	-8.03704
f	-8.03792
▁ship	-8.03917
▁promise	-8.04087
▁times	-8.04101
▁child	-8.04436
▁outside	-8.04448
▁jim	-8.04461
▁wonderful	-8.04463
▁re	-8.04471
▁rocky	-8.04673
▁reason	-8.05107
▁though	-8.05136
▁case	-8.05214
▁win	-8.05235
▁luck	-8.05427
▁person	-8.05912
▁amanda	-8.05979
▁stupid	-8.05979
en	-8.06206
▁human	-8.067
▁dark	-8.06737
▁dinner	-8.06754
▁land	-8.07025
▁feeling	-8.07122
▁along	-8.07531
▁funny	-8.07542
▁strong	-8.08109
▁game	-8.08323
▁bet	-8.08602
▁heres	-8.08605
▁ten	-8.08755
▁perhaps	-8.09117
▁future	-8.09117
▁master	-8.09122
▁dragon	-8.09951
▁killed	-8.09958
▁hang	-8.10208
▁book	-8.11624
▁lose	-8.12303
▁also	-8.12359
▁sea	-8.12387
▁drink	-8.12743
▁safe	-8.12894
▁touch	-8.1303
▁sound	-8.13723
▁grunting	-8.14066
▁comes	-8.14332
▁anymore	-8.14856
▁brought	-8.14856
▁goodbye	-8.14856
▁earth	-8.14861
▁street	-8.1502
▁j	-8.15301
▁fly	-8.15623
▁beat	-8.16145
▁lead	-8.16345
▁police	-8.16531
▁mary	-8.16634
▁b	-8.16644
th	-8.16676
▁ball	-8.16924
ies	-8.1769
▁m	-8.17782
▁fast	-8.18051
▁learn	-8.1819
▁catch	-8.18245
▁sweet	-8.18251
▁jesus	-8.1829
▁itll	-8.1829
▁shouldnt	-8.1829
▁alive	-8.18307
▁living	-8.18317
▁met	-8.18346
▁started	-8.18347
▁step	-8.18539
it	-8.18773
▁doc	-8.19166
▁peabody	-8.19167
▁answer	-8.19334
▁gun	-8.19456
▁wonder	-8.19942
▁panting	-8.20085
▁hows	-8.20174
▁quiet	-8.20768
▁sam	-8.2096
▁hours	-8.21031
▁uncle	-8.21267
▁attack	-8.21756
▁blood	-8.21797
▁mark	-8.21841
▁robin	-8.21857
▁fish	-8.22002
▁h	-8.2212
▁act	-8.22194
▁screams	-8.22328
▁sign	-8.22329
▁sort	-8.22771
▁asked	-8.23016
▁eye	-8.23122
▁buy	-8.23147
▁fall	-8.23494
▁office	-8.23552
▁either	-8.23672
▁ugh	-8.23672
ch	-8.23815
▁ride	-8.23936
▁slow	-8.24423
▁black	-8.24598
▁married	-8.24604
an	-8.24711
▁tree	-8.25019
▁glad	-8.2554
▁seven	-8.25546
▁poor	-8.25555
ment	-8.2565
▁suppose	-8.2621
▁taken	-8.26455
▁blue	-8.2648
▁boat	-8.26488
▁tony	-8.26506
▁order	-8.2654
▁throw	-8.2679
▁ones	-8.26799
▁singing	-8.26923
▁daughter	-8.26948
▁rather	-8.27432
▁yo	-8.27749
▁needs	-8.28266
▁annie	-8.2839
▁feet	-8.28399
▁mama	-8.2845
▁york	-8.28539
▁seems	-8.28785
▁a	-8.291
▁makes	-8.29104
el	-8.29253
▁pinocchio	-8.29361
▁ladies	-8.29364
▁president	-8.29365
▁country	-8.29374
▁p	-8.29393
▁hair	-8.29426
▁less	-8.29827
▁fact	-8.2984
▁quick	-8.3001
man	-8.30179
▁sick	-8.30351
▁special	-8.31318
▁d	-8.31613
▁question	-8.31949
us	-8.32044
▁bill	-8.32106
▁th	-8.32223
▁seem	-8.32278
▁respect	-8.32305
▁chief	-8.32331
▁tried	-8.32333
▁charlie	-8.32335
▁shit	-8.32354
▁lts	-8.32869
able	-8.32914
▁spot	-8.32965
▁careful	-8.33261
▁evening	-8.33505
▁able	-8.33613
▁marry	-8.3379
▁round	-8.34017
▁doyle	-8.34018
▁drive	-8.34078
▁fair	-8.34155
▁lives	-8.3417
▁class	-8.34264
▁couple	-8.34362
▁shell	-8.35382
▁amazing	-8.35393
▁dream	-8.35455
▁k	-8.3557
▁died	-8.35975
▁become	-8.36132
▁piece	-8.36154
▁moving	-8.36439
▁kane	-8.36441
▁control	-8.36444
▁wake	-8.36445
▁cold	-8.36467
▁pull	-8.36502
▁knows	-8.36761
▁sounds	-8.37338
▁in	-8.37366
▁death	-8.37487
▁jungle	-8.37487
▁ground	-8.37487
▁maam	-8.3749
▁words	-8.375
▁scared	-8.3758
▁wed	-8.37647
▁join	-8.37748
▁finish	-8.38146
il	-8.38419
▁elliott	-8.38551
ity	-8.38731
▁bell	-8.39085
▁e	-8.39298
▁jump	-8.39626
▁others	-8.39626
▁kiss	-8.39631
▁news	-8.39709
▁lucky	-8.39916
▁laugh	-8.39954
▁figure	-8.4023
▁tough	-8.40716
▁sun	-8.40848
▁st	-8.41053
ness	-8.41126
▁group	-8.41623
▁fault	-8.41812
▁mayor	-8.42116
▁shoot	-8.42395
▁picture	-8.42762
▁secret	-8.42762
▁team	-8.42785
▁husband	-8.42923
▁buddy	-8.42926
▁darling	-8.42927
▁sense	-8.42936
▁finally	-8.43025
▁chattering	-8.43048
▁stick	-8.43251
▁small	-8.43869
▁present	-8.43902
▁bird	-8.43932
▁kidding	-8.44055
▁return	-8.44188
▁hour	-8.45085
▁happens	-8.45148
▁body	-8.45184
▁women	-8.45184
is	-8.45483
▁meeting	-8.45688
▁worth	-8.46114
▁write	-8.46204
▁court	-8.46342
▁dangerous	-8.46343
▁till	-8.46345
▁simple	-8.47495
▁song	-8.47656
▁expect	-8.477
▁handle	-8.47913
▁rules	-8.48351
▁magic	-8.48592
▁fool	-8.48662
▁attention	-8.48672
▁felt	-8.48672
▁loud	-8.48693
▁law	-8.48797
▁screaming	-8.48817
▁fix	-8.48882
▁pass	-8.49047
▁wind	-8.49243
▁t	-8.49496
▁smart	-8.4968
▁frank	-8.4968
▁da	-8.49778
▁sing	-8.49859
▁choice	-8.49862
▁company	-8.49862
▁proud	-8.49862
▁rupert	-8.49862
▁ella	-8.4987
▁tired	-8.49884
▁absolutely	-8.49888
▁teach	-8.50219
▁except	-8.51028
▁colonel	-8.51067
▁vada	-8.51068
▁forever	-8.51069
▁white	-8.51076
▁count	-8.51105
▁hub	-8.51115
▁mad	-8.51198
▁past	-8.51266
▁sent	-8.51307
▁known	-8.52139
▁strange	-8.52166
▁robyn	-8.52287
▁hungry	-8.52289
▁super	-8.52293
▁lake	-8.52332
▁soldier	-8.52347
▁position	-8.52355
▁test	-8.52359
▁busy	-8.52372
▁questions	-8.52763
ling	-8.52794
▁force	-8.53336
▁somewhere	-8.53521
▁nose	-8.53532
▁princess	-8.53578
▁broken	-8.53589
▁terrible	-8.53589
▁robot	-8.53608
▁press	-8.5381
▁groans	-8.53814
▁gold	-8.53851
▁et	-8.54621
▁f	-8.54645
▁smell	-8.54672
▁possible	-8.54771
▁raya	-8.54802
▁lie	-8.54848
▁army	-8.54903
▁clean	-8.55054
▁star	-8.55312
ro	-8.55464
▁lovely	-8.55532
▁short	-8.55643
▁forward	-8.56038
▁jones	-8.56048
▁drop	-8.56087
▁race	-8.56255
▁train	-8.56347
▁gets	-8.5701
▁prince	-8.57248
▁mouth	-8.5733
▁telling	-8.57353
▁unless	-8.5737
▁none	-8.57376
▁judge	-8.57512
ful	-8.57911
▁serious	-8.58444
▁ought	-8.5851
▁al	-8.58605
▁impossible	-8.58618
▁leaving	-8.58618
▁evil	-8.58621
▁floor	-8.58623
z	-8.58811
▁machine	-8.58834
▁million	-8.58846
up	-8.58904
▁greatest	-8.58934
▁weeks	-8.59368
▁wear	-8.59454
ter	-8.59619
▁happening	-8.59831
▁broke	-8.59866
▁shh	-8.59915
▁outta	-8.59941
▁table	-8.5999
▁cheering	-8.60058
▁paper	-8.60281
▁saved	-8.60504
less	-8.60648
▁asking	-8.60961
▁quit	-8.61116
▁straight	-8.61232
▁fear	-8.61255
▁calm	-8.61348
▁link	-8.61376
▁spirit	-8.61547
▁commander	-8.61595
▁crowd	-8.62224
▁pooh	-8.62621
▁interesting	-8.62778
▁carry	-8.63495
▁n	-8.63515
ive	-8.63533
▁relax	-8.63578
▁fighting	-8.63608
▁v	-8.6377
▁ugly	-8.63991
▁tv	-8.64008
▁ice	-8.64276
▁worked	-8.64578
▁command	-8.64826
▁honor	-8.64933
▁cover	-8.65015
ri	-8.65024
▁longer	-8.65158
▁g	-8.65216
▁hide	-8.65362
▁summer	-8.65377
▁favorite	-8.65381
▁turned	-8.65483
▁theyve	-8.65489
▁date	-8.66193
▁cross	-8.6636
▁seat	-8.66377
▁speaking	-8.66483
▁report	-8.66778
▁daisy	-8.66785
▁speed	-8.66786
▁kingdom	-8.66791
v	-8.66878
▁certainly	-8.66926
▁born	-8.67
▁aah	-8.67076
ous	-8.67163
▁push	-8.67222
▁teacher	-8.67429
▁hed	-8.67443
▁spend	-8.67637
▁state	-8.67706
▁ring	-8.68015
▁entire	-8.6804
▁giving	-8.68215
▁foot	-8.6823
▁eh	-8.68272
▁standing	-8.68352
▁loved	-8.6903
▁search	-8.69094
▁dre	-8.69232
▁watching	-8.69266
▁weird	-8.69563
▁audience	-8.69663
▁boom	-8.69749
▁early	-8.69885
▁pants	-8.69907
▁dreams	-8.70095
out	-8.70173
lo	-8.70872
ist	-8.70932
ry	-8.71001
▁explain	-8.71134
▁history	-8.71134
▁christmas	-8.71134
▁peter	-8.71457
▁calling	-8.71459
▁radio	-8.71505
▁destroy	-8.71638
la	-8.71969
▁surprise	-8.72348
▁meant	-8.72364
▁normal	-8.72453
▁coffee	-8.72626
▁sisu	-8.72628
▁stuck	-8.72635
▁trip	-8.72648
▁mmm	-8.7265
▁ass	-8.72656
▁eight	-8.72656
▁charge	-8.7295
ation	-8.73226
▁needed	-8.74098
▁grab	-8.74104
▁major	-8.74129
▁uhhuh	-8.74141
▁werent	-8.74141
▁alright	-8.74146
▁forest	-8.74159
▁mike	-8.74162
▁blow	-8.74167
▁knock	-8.74771
▁monster	-8.74815
et	-8.74831
▁deep	-8.75419
▁anywhere	-8.7568
▁arthur	-8.7568
▁crime	-8.75681
▁upon	-8.75706
▁madame	-8.75796
▁breaking	-8.75829
▁han	-8.75952
over	-8.76093
▁promised	-8.76243
▁heaven	-8.76407
▁park	-8.76497
▁age	-8.76594
ce	-8.77097
▁forgive	-8.77144
▁church	-8.77242
▁gift	-8.77242
▁message	-8.77253
▁months	-8.77856
ant	-8.77859
▁mistake	-8.7793
▁looked	-8.78039
to	-8.78147
▁pop	-8.7819
▁plane	-8.78263
▁reach	-8.78414
▁walking	-8.78617
▁aw	-8.78683
▁box	-8.78808
▁smile	-8.7883
▁code	-8.78845
▁appreciate	-8.78876
▁station	-8.78893
ie	-8.78976
▁holy	-8.78995
▁bar	-8.79191
▁dress	-8.79465
▁stone	-8.79484
▁buck	-8.79529
at	-8.79541
▁horse	-8.79642
▁brain	-8.79654
▁letter	-8.7997
▁warm	-8.80068
▁pet	-8.80068
▁rain	-8.80077
▁lll	-8.80208
▁waste	-8.80227
▁sen	-8.80237
▁near	-8.80293
▁lock	-8.80406
▁afternoon	-8.80443
▁dramatic	-8.80443
▁monsieur	-8.80443
▁ursula	-8.80443
▁dancing	-8.80443
▁smith	-8.8045
▁loves	-8.80664
▁over	-8.80789
co	-8.80985
▁protect	-8.80988
▁ho	-8.81176
▁bag	-8.81526
▁bat	-8.81555
▁favor	-8.82077
▁christopher	-8.82082
▁enemy	-8.82082
▁english	-8.82082
▁difference	-8.82082
▁monkey	-8.82083
▁clothes	-8.82087
▁neil	-8.82089
▁lois	-8.82221
▁cute	-8.82233
▁swing	-8.82276
▁planet	-8.82292
▁allowed	-8.82428
as	-8.82844
▁lou	-8.82912
▁shoes	-8.83033
▁visit	-8.8316
no	-8.83476
▁brave	-8.8373
▁south	-8.83738
▁mitsuha	-8.83749
▁worse	-8.83749
▁robert	-8.83749
▁birthday	-8.8375
▁alex	-8.83751
▁chicken	-8.83758
▁single	-8.83844
ish	-8.83914
▁mi	-8.83947
▁arms	-8.84152
▁mac	-8.84359
▁kick	-8.84451
▁grow	-8.84669
ta	-8.84707
▁given	-8.848
▁sad	-8.85108
▁mess	-8.85163
▁raise	-8.85168
▁con	-8.85215
▁works	-8.85248
▁hill	-8.85289
▁se	-8.85291
▁missed	-8.85302
▁across	-8.85443
▁college	-8.85443
▁crew	-8.85446
▁garth	-8.8545
▁shouting	-8.85527
▁completely	-8.85593
▁folks	-8.8593
▁enjoy	-8.86177
▁dogs	-8.86284
▁sell	-8.86284
▁doll	-8.86505
▁month	-8.86509
▁hole	-8.86615
▁cry	-8.86664
▁co	-8.86743
▁notice	-8.8689
▁certain	-8.86997
▁glass	-8.87097
▁hospital	-8.87142
▁grand	-8.87146
▁guitar	-8.87168
▁moxy	-8.87168
▁strength	-8.87168
▁sadiel	-8.87169
ine	-8.87178
um	-8.87194
▁moon	-8.87198
▁mo	-8.87636
▁fathers	-8.87775
▁ape	-8.87796
▁note	-8.88065
▁lo	-8.88138
▁lt	-8.88297
▁begin	-8.88331
▁track	-8.88362
▁lon	-8.88824
▁talked	-8.88845
▁north	-8.88919
▁miguel	-8.88922
▁neither	-8.88922
▁spell	-8.88922
▁lunch	-8.88922
▁pleasure	-8.88922
▁charles	-8.8893
▁yep	-8.88953
▁superman	-8.88958
▁imagine	-8.89033
ia	-8.89353
▁travel	-8.89388
▁trick	-8.89876
▁queen	-8.90073
▁continue	-8.90104
li	-8.90672
▁excited	-8.90708
▁luca	-8.90708
▁mommy	-8.90708
▁walter	-8.90722
▁champion	-8.90727
▁area	-8.90732
▁dave	-8.90787
na	-8.90804
▁pal	-8.9125
▁mm	-8.91336
▁rich	-8.91586
▁sight	-8.91927
▁doubt	-8.91935
▁beer	-8.92087
▁prove	-8.92191
▁deserve	-8.92237
▁extra	-8.92239
▁earl	-8.92337
▁bear	-8.92355
▁angel	-8.92411
▁adrian	-8.92526
▁breakfast	-8.92526
▁thomas	-8.92526
▁worried	-8.92526
▁fiona	-8.92526
▁space	-8.92526
▁account	-8.92526
▁pupkin	-8.92526
▁shake	-8.92528
▁chair	-8.9253
▁store	-8.92554
im	-8.92877
mo	-8.93049
ra	-8.93236
▁lion	-8.93238
▁gosh	-8.93326
▁pack	-8.93427
▁offer	-8.93428
▁ii	-8.93475
▁flying	-8.93742
▁ogre	-8.93816
▁system	-8.93818
▁tight	-8.94343
▁road	-8.94378
▁creed	-8.94379
▁bright	-8.94386
▁definitely	-8.94389
▁center	-8.94396
▁battle	-8.94467
▁howling	-8.94471
▁tea	-8.94612
▁double	-8.94633
▁ran	-8.94885
▁changed	-8.95318
▁per	-8.95351
▁roll	-8.95692
▁service	-8.95709
▁computer	-8.95721
▁belong	-8.9574
▁knight	-8.9575
▁field	-8.95792
▁suit	-8.95923
ur	-8.96033
▁final	-8.96102
▁apollo	-8.96265
▁majesty	-8.96265
▁science	-8.96265
▁silly	-8.96265
▁hasnt	-8.96266
▁truman	-8.96267
▁penny	-8.96268
▁share	-8.9627
▁boss	-8.96288
▁bridge	-8.96294
▁low	-8.96295
▁american	-8.96362
▁christ	-8.96373
▁danger	-8.96376
▁core	-8.96386
▁totally	-8.96401
▁hero	-8.96421
sh	-8.96602
▁paris	-8.96766
▁starting	-8.97157
▁do	-8.97176
ha	-8.97556
▁idiot	-8.9768
▁seeing	-8.97689
▁window	-8.97692
▁lived	-8.97723
▁action	-8.97766
▁papers	-8.97842
▁realize	-8.97926
▁river	-8.98087
▁mario	-8.98108
ts	-8.98155
▁balboa	-8.98188
▁chocolate	-8.98188
▁choose	-8.98188
▁geppetto	-8.98188
▁lawrence	-8.98188
▁swear	-8.98188
▁weather	-8.98188
▁green	-8.98189
▁flint	-8.9819
▁bottom	-8.98201
▁lying	-8.98231
▁baron	-8.98255
▁taste	-8.98344
▁arm	-8.98691
▁finished	-8.98953
▁problems	-8.99013
▁leader	-8.99125
▁soul	-8.99288
▁takes	-8.99409
▁missing	-8.99439
▁accept	-8.99733
▁allow	-8.99748
and	-8.99788
ard	-8.99917
▁complete	-8.99976
▁fell	-9.00044
▁personal	-9.00121
▁public	-9.00124
▁indeed	-9.00148
▁ridiculous	-9.00148
▁stories	-9.00148
▁worst	-9.00148
▁yesterday	-9.00148
▁tuk	-9.00158
▁distance	-9.00162
▁castle	-9.00169
▁gem	-9.00174
▁bates	-9.00243
▁mia	-9.00324
▁tail	-9.00411
▁owe	-9.00454
▁gru	-9.00545
▁building	-9.00679
▁be	-9.00788
▁learned	-9.01084
▁monsters	-9.01264
▁an	-9.01478
▁bro	-9.01478
ty	-9.01519
ting	-9.01625
▁photo	-9.01736
▁caught	-9.02148
▁david	-9.02148
▁mebh	-9.02148
▁situation	-9.02149
▁kept	-9.02149
▁doin	-9.02259
ted	-9.02276
▁whoo	-9.02302
▁jackie	-9.02434
▁quickly	-9.02504
▁hat	-9.02649
▁goodness	-9.03036
▁pure	-9.03257
te	-9.03673
▁char	-9.03738
▁movie	-9.03845
ian	-9.03927
▁i	-9.03994
▁peace	-9.04172
▁bought	-9.04189
▁shrek	-9.04189
▁wolves	-9.04189
▁blind	-9.04189
▁spent	-9.04194
▁clock	-9.04197
▁within	-9.04199
▁jail	-9.04211
▁cake	-9.04249
ent	-9.04385
▁ja	-9.04493
▁wearing	-9.05066
▁build	-9.05667
▁honest	-9.05886
▁there	-9.06053
▁fit	-9.06149
▁witch	-9.06206
▁ghost	-9.06273
▁twice	-9.06273
▁rush	-9.06273
▁dude	-9.06273
▁brown	-9.06274
▁john	-9.06276
▁wheel	-9.0629
▁salt	-9.06339
▁parker	-9.06553
▁nine	-9.06573
▁up	-9.06689
rs	-9.06722
▁crying	-9.0696
▁bath	-9.07039
▁orders	-9.07364
▁gods	-9.07401
▁fired	-9.07434
ton	-9.07516
ally	-9.07759
▁joke	-9.07945
▁cards	-9.08082
▁serve	-9.08115
▁record	-9.08123
▁key	-9.08256
▁apart	-9.08374
▁emergency	-9.084
▁everywhere	-9.084
▁heavy	-9.084
▁plenty	-9.084
▁club	-9.08402
▁haku	-9.08415
▁handsome	-9.08423
▁screeching	-9.08443
▁fred	-9.08578
▁faster	-9.08822
▁breathing	-9.08876
age	-9.0912
▁pre	-9.09123
▁ringing	-9.09247
▁theyd	-9.09309
▁bother	-9.09555
▁escape	-9.09663
▁pray	-9.09929
▁cook	-9.09963
▁color	-9.10145
▁en	-9.1032
▁wild	-9.10399
▁soft	-9.10401
▁price	-9.10556
▁forgot	-9.10568
▁bigweld	-9.10574
▁middle	-9.10574
▁mystery	-9.10574
▁whether	-9.10574
▁wrote	-9.10574
▁writing	-9.10574
▁foster	-9.10574
▁beast	-9.10589
▁truly	-9.10595
ary	-9.10616
▁button	-9.10626
▁dirty	-9.10635
▁feelings	-9.10835
be	-9.11052
▁bloody	-9.11076
▁form	-9.11131
▁shed	-9.11179
▁joey	-9.11277
▁killing	-9.11573
▁fill	-9.11841
ne	-9.12557
▁stan	-9.12566
nt	-9.12619
ctor	-9.12748
▁fresh	-9.12763
▁royal	-9.12783
▁angry	-9.12796
▁pardon	-9.12796
▁private	-9.12796
▁professor	-9.12796
▁someday	-9.12796
▁fortune	-9.12797
▁beginning	-9.12797
▁bigger	-9.12799
▁thunder	-9.12799
▁aunt	-9.128
▁fancy	-9.12801
▁toby	-9.12802
▁woodhouse	-9.12802
▁mason	-9.12805
▁throat	-9.12806
▁sky	-9.12816
▁post	-9.12879
▁x	-9.12998
ul	-9.13161
os	-9.13249
▁brothers	-9.13263
▁blessing	-9.13299
ate	-9.13558
▁names	-9.13977
▁engine	-9.1398
▁dare	-9.14373
▁guests	-9.14503
▁horn	-9.14686
▁butt	-9.14696
▁correct	-9.14848
▁fellow	-9.14953
▁toys	-9.14955
▁america	-9.14961
▁where	-9.15009
▁asleep	-9.15069
▁milk	-9.15069
▁simply	-9.15069
▁village	-9.15073
▁paid	-9.15079
▁spiderman	-9.15086
▁thatll	-9.15099
▁luke	-9.151
▁officer	-9.1521
▁growls	-9.15271
▁burn	-9.16283
▁following	-9.16974
per	-9.17048
▁agree	-9.17061
▁bomb	-9.17233
▁island	-9.17283
▁condition	-9.17317
▁stole	-9.17329
▁august	-9.17395
▁built	-9.17395
▁difficult	-9.17395
▁hiccup	-9.17395
▁langford	-9.17395
▁michael	-9.17395
▁reynolds	-9.17395
▁support	-9.17395
▁upset	-9.17395
▁susan	-9.17395
▁contact	-9.17396
▁instead	-9.17397
▁swallow	-9.174
▁zone	-9.17403
▁gentleman	-9.17404
▁arlo	-9.17408
▁moved	-9.17408
▁cabin	-9.17428
▁sitting	-9.17461
▁joker	-9.17587
▁hall	-9.17711
un	-9.1785
▁dressed	-9.1799
▁liked	-9.18104
▁no	-9.18557
▁wondering	-9.18885
▁mighty	-9.19018
▁ra	-9.19143
▁pa	-9.19286
▁total	-9.19603
▁awful	-9.19625
▁taki	-9.1969
▁remain	-9.19728
▁strike	-9.19747
▁giant	-9.19749
▁rodney	-9.19776
▁sweetheart	-9.19776
▁teeth	-9.19776
▁palace	-9.19779
▁pressure	-9.19787
▁french	-9.19789
▁gang	-9.19789
▁bank	-9.19791
▁storm	-9.19798
▁rise	-9.19807
▁sweetie	-9.19819
▁held	-9.19825
do	-9.1985
▁growling	-9.19852
▁band	-9.19859
▁camera	-9.19861
▁van	-9.19864
▁meat	-9.19897
▁interested	-9.19983
▁manage	-9.20119
▁besides	-9.20165
▁reading	-9.20173
▁out	-9.20181
▁holding	-9.2024
▁stacks	-9.20285
▁wing	-9.20424
▁freak	-9.21518
▁si	-9.2164
▁farm	-9.21679
by	-9.21686
▁el	-9.21949
▁ba	-9.22065
ir	-9.22199
▁famous	-9.22215
▁justice	-9.22215
▁rumbling	-9.22215
▁taught	-9.22215
▁justin	-9.22215
▁neck	-9.22217
▁goddamn	-9.22218
▁driving	-9.2222
▁dumb	-9.22224
▁boyfriend	-9.22226
▁soren	-9.22244
▁emma	-9.22256
▁protector	-9.22309
▁board	-9.22347
▁copy	-9.22403
▁wood	-9.2259
▁lots	-9.2266
▁ex	-9.22762
ee	-9.22938
▁lights	-9.23052
▁bum	-9.23296
▁picked	-9.23713
▁san	-9.23771
▁bless	-9.23795
▁hanging	-9.23942
▁steal	-9.24121
▁wall	-9.24143
▁fuck	-9.24162
▁switch	-9.24292
▁arrest	-9.24306
▁chris	-9.24463
▁nervous	-9.24531
▁bob	-9.24605
▁dig	-9.24645
▁bread	-9.24715
▁common	-9.24715
▁exclaims	-9.24715
▁russell	-9.24715
▁shield	-9.24715
▁mademoiselle	-9.24715
▁risk	-9.24718
▁view	-9.24719
▁sake	-9.24766
▁james	-9.24774
you	-9.24779
▁silence	-9.24785
son	-9.24786
▁breath	-9.24793
▁corner	-9.24797
j	-9.24802
▁mam	-9.24937
▁toy	-9.24975
▁art	-9.25065
▁pain	-9.26263
▁feels	-9.26381
▁pap	-9.26527
time	-9.26558
▁base	-9.26983
▁scoob	-9.27065
▁w	-9.27106
▁su	-9.27142
▁weak	-9.27183
▁match	-9.27213
▁punch	-9.27214
▁maid	-9.27254
▁joy	-9.2726
▁pig	-9.27266
▁admit	-9.27269
▁bunch	-9.27279
▁conversation	-9.27279
▁cruz	-9.27279
▁especially	-9.27279
▁negative	-9.27279
▁possibly	-9.27279
▁practice	-9.27279
▁saturday	-9.27279
▁target	-9.27279
▁third	-9.27279
▁sammy	-9.27279
▁awesome	-9.27279
▁chuckling	-9.27283
▁self	-9.273
▁weekend	-9.27307
▁softly	-9.27484
me	-9.2755
▁jane	-9.27691
▁pieces	-9.28033
▁br	-9.28271
▁training	-9.28419
one	-9.285
▁letters	-9.28561
▁bon	-9.28595
▁adventure	-9.28759
bo	-9.28769
▁cost	-9.28918
▁tall	-9.2896
▁po	-9.29025
▁tc	-9.29073
▁o	-9.29497
▁consider	-9.29546
▁dee	-9.29611
▁tape	-9.29662
▁woods	-9.29824
▁suggest	-9.29872
▁program	-9.29902
▁address	-9.2991
▁advice	-9.2991
▁mirror	-9.2991
▁mammy	-9.2991
▁however	-9.29911
▁lonely	-9.29911
▁security	-9.29914
▁wedding	-9.29915
▁focus	-9.29915
▁nope	-9.29917
▁chewie	-9.29919
▁roger	-9.29925
▁size	-9.29934
▁shop	-9.2997
▁steady	-9.29974
▁powerful	-9.3
▁fat	-9.30011
▁thousand	-9.30163
oo	-9.30202
▁carlo	-9.30225
▁ee	-9.30468
▁cop	-9.30499
way	-9.30581
▁perfectly	-9.30636
▁ay	-9.3075
▁vi	-9.30784
▁expected	-9.30838
tic	-9.30939
▁mate	-9.31292
▁treat	-9.31374
▁rid	-9.31518
▁acting	-9.31576
▁sh	-9.31622
▁bite	-9.31652
▁rings	-9.31762
head	-9.31904
▁murder	-9.31939
go	-9.31953
▁staying	-9.32053
▁dis	-9.322
▁howd	-9.32445
▁beg	-9.32446
▁louis	-9.32462
▁dragons	-9.32511
▁deuce	-9.32613
▁empty	-9.32613
▁fentry	-9.32613
▁mcfly	-9.32613
▁opinion	-9.32613
▁otherwise	-9.32613
▁maggie	-9.32613
▁keating	-9.32615
▁italian	-9.32616
▁spring	-9.32617
▁bathroom	-9.32617
▁mummy	-9.3264
▁page	-9.32654
▁level	-9.32668
▁immediately	-9.32706
▁lesson	-9.32793
▁girlfriend	-9.32909
▁keys	-9.32945
▁goin	-9.33094
▁powers	-9.33095
▁driver	-9.33224
▁so	-9.33481
▁lf	-9.3354
les	-9.33632
ig	-9.34002
▁closed	-9.34098
▁cr	-9.3416
▁bitch	-9.3429
▁heads	-9.34864
▁prepare	-9.35109
▁experience	-9.35131
▁rip	-9.35194
▁remind	-9.35354
▁swim	-9.35377
▁guard	-9.35387
▁accident	-9.35391
▁beyond	-9.35391
▁lieutenant	-9.35391
▁request	-9.35391
▁wizard	-9.35391
▁afford	-9.35392
▁opportunity	-9.35392
▁relationship	-9.35392
▁responsibility	-9.35395
▁information	-9.35396
▁cream	-9.3541
▁mmhmm	-9.3541
▁momma	-9.35463
ma	-9.3547
om	-9.35499
▁lex	-9.35502
▁leg	-9.35715
▁mountain	-9.35798
▁pictures	-9.35798
▁noticed	-9.35843
▁movies	-9.35875
▁surprised	-9.35914
▁destroyed	-9.36163
▁loser	-9.36227
ah	-9.36466
▁named	-9.36484
▁falls	-9.37029
▁animals	-9.37539
▁cos	-9.37661
▁shower	-9.37687
▁legs	-9.37823
▁feed	-9.37915
▁mar	-9.37941
▁decide	-9.37979
▁drunk	-9.38214
▁harm	-9.38228
▁innocent	-9.38248
▁nowhere	-9.38248
▁universe	-9.38248
▁vader	-9.38248
▁uhoh	-9.38249
▁dying	-9.38253
▁assume	-9.38253
▁clark	-9.38254
▁flight	-9.38254
▁shouldve	-9.38257
▁tour	-9.3826
▁tower	-9.38271
▁cup	-9.38318
▁books	-9.38367
▁card	-9.38392
se	-9.38704
▁decision	-9.38705
he	-9.38711
▁hundred	-9.38713
▁lawyer	-9.38732
▁list	-9.3874
▁weapon	-9.38747
▁mission	-9.38778
▁carl	-9.38896
▁locked	-9.38929
ho	-9.38956
▁higher	-9.39088
▁gas	-9.39534
▁hardly	-9.39612
▁er	-9.39681
va	-9.39842
ot	-9.39918
▁students	-9.3995
▁walked	-9.40099
em	-9.40164
▁pro	-9.40312
▁deliver	-9.40554
▁wash	-9.40607
▁load	-9.40776
▁fail	-9.4079
▁ar	-9.40807
▁nothin	-9.41143
▁faith	-9.4117
▁congratulations	-9.41189
▁kludd	-9.41189
▁extreme	-9.4119
▁local	-9.41195
▁benny	-9.41198
▁duty	-9.41199
▁comfortable	-9.412
▁paulie	-9.41211
▁freeze	-9.41225
▁type	-9.41226
ium	-9.41246
▁spare	-9.41252
▁stage	-9.41262
▁obviously	-9.41285
▁stopped	-9.41331
lin	-9.41364
▁all	-9.4139
▁metal	-9.41424
▁lower	-9.4146
▁z	-9.41544
▁concerned	-9.41562
▁add	-9.41751
▁creature	-9.41759
▁points	-9.41778
▁lies	-9.41785
▁seemed	-9.42416
▁tr	-9.42509
▁blame	-9.42568
▁turning	-9.42653
vi	-9.42764
▁dollars	-9.42793
▁blows	-9.42896
▁bus	-9.42905
▁ma	-9.42914
▁seek	-9.43055
▁com	-9.43606
ial	-9.43698
▁mention	-9.4387
ow	-9.43908
▁rescue	-9.43932
▁scene	-9.44201
▁vote	-9.44209
▁mail	-9.44211
▁material	-9.44219
▁sacrifice	-9.44219
▁suspens	-9.44219
▁upstairs	-9.44219
▁london	-9.4422
▁steve	-9.4422
▁tommy	-9.4422
▁dibble	-9.44221
▁lyla	-9.44222
▁noise	-9.44226
▁france	-9.44238
▁shine	-9.44239
ink	-9.4424
▁agent	-9.44243
▁indy	-9.44244
▁nancy	-9.44245
▁hoover	-9.44252
▁claim	-9.44286
▁ark	-9.44318
▁whispering	-9.44388
▁marion	-9.44397
▁yelling	-9.44475
▁decided	-9.44516
▁places	-9.44558
▁birds	-9.44579
▁gate	-9.44915
▁on	-9.44927
▁plans	-9.44965
po	-9.45145
am	-9.45649
▁matters	-9.45684
▁eating	-9.45747
ge	-9.45837
wa	-9.46107
▁bug	-9.46125
▁approach	-9.46775
▁ruin	-9.46933
▁breathe	-9.47147
▁bu	-9.47172
▁large	-9.47241
▁crack	-9.47272
▁split	-9.47336
▁applause	-9.47344
▁became	-9.47344
▁donkey	-9.47344
▁excellent	-9.47344
▁unicorn	-9.47344
▁derek	-9.47345
▁martin	-9.47345
▁shining	-9.47345
▁harvey	-9.47346
▁washington	-9.47347
▁monday	-9.47347
▁often	-9.47351
▁rita	-9.47351
▁sunday	-9.47353
▁trade	-9.47354
▁forgotten	-9.47355
▁apartment	-9.47383
▁boring	-9.4741
▁astro	-9.47417
▁golden	-9.47426
▁musician	-9.475
▁bi	-9.47517
▁arrived	-9.47553
▁putting	-9.4758
▁due	-9.47604
▁gasp	-9.47637
ag	-9.4771
▁heat	-9.47754
▁seriously	-9.47767
▁warning	-9.47883
▁block	-9.48063
▁animal	-9.48127
▁wine	-9.48139
▁guest	-9.48157
▁dads	-9.48363
x	-9.48439
▁kinda	-9.48628
fa	-9.48695
▁mon	-9.48936
end	-9.49147
mp	-9.49229
▁couldve	-9.49332
ance	-9.49435
ru	-9.49466
▁ms	-9.49569
▁ideas	-9.49605
men	-9.4966
▁ben	-9.49853
▁sleeping	-9.49997
▁discuss	-9.50104
▁bow	-9.5013
▁concern	-9.50162
▁older	-9.50172
dy	-9.50211
▁main	-9.50309
▁pen	-9.5041
ng	-9.50478
▁den	-9.50542
▁female	-9.5057
▁fought	-9.5057
▁garbage	-9.5057
▁government	-9.5057
▁kevin	-9.5057
▁kitchen	-9.5057
▁knox	-9.5057
▁language	-9.5057
▁merlyn	-9.5057
▁necessary	-9.5057
▁purpose	-9.5057
▁rosebud	-9.5057
▁spazzatura	-9.5057
▁stomach	-9.5057
▁evelyn	-9.5057
▁smoke	-9.50571
▁pizza	-9.50571
▁square	-9.50574
▁druun	-9.50574
▁butch	-9.50575
▁department	-9.50575
▁prefer	-9.50575
▁dido	-9.50576
▁biff	-9.50581
▁society	-9.50581
▁west	-9.50581
▁wings	-9.50583
▁grail	-9.50584
▁monte	-9.50594
▁deck	-9.50597
▁poppa	-9.50606
ol	-9.5065
▁cow	-9.50673
▁heh	-9.50692
▁dune	-9.50703
▁huge	-9.50711
▁nation	-9.50758
▁curse	-9.50766
▁nearly	-9.50921
▁rule	-9.50961
▁ye	-9.51078
▁played	-9.51099
▁bud	-9.51296
▁newspaper	-9.51422
ious	-9.51584
▁sooner	-9.51628
▁cars	-9.51649
▁owl	-9.51693
▁ac	-9.52171
▁listening	-9.52382
qu	-9.52401
▁warn	-9.52548
▁falling	-9.52573
ron	-9.53239
ten	-9.53348
▁climb	-9.53369
eful	-9.53525
▁stu	-9.53547
▁damage	-9.53613
▁refuse	-9.53618
▁prison	-9.53683
▁parts	-9.53722
▁champ	-9.53873
▁spider	-9.53881
▁ashamed	-9.53904
▁california	-9.53904
▁chicago	-9.53904
▁cricket	-9.53904
▁darien	-9.53904
▁exclaiming	-9.53904
▁journey	-9.53904
▁koopa	-9.53904
▁luigi	-9.53904
▁marriage	-9.53904
▁nahnahnah	-9.53904
▁strickland	-9.53904
▁violin	-9.53904
▁cousin	-9.53904
▁credit	-9.53904
▁desmond	-9.53904
▁simon	-9.53904
▁shame	-9.53904
▁medical	-9.53905
▁fetch	-9.53906
▁lyle	-9.53908
▁mask	-9.53909
▁brilliant	-9.53909
▁bike	-9.5391
▁johnny	-9.53911
▁nurse	-9.53912
▁knightley	-9.53914
▁alarm	-9.53915
▁fake	-9.53925
▁energy	-9.53935
▁safety	-9.53955
▁friday	-9.53957
▁path	-9.53971
▁jacket	-9.5402
▁highness	-9.54034
▁usually	-9.54037
▁paint	-9.54328
▁letting	-9.5433
▁failed	-9.5437
▁fl	-9.54434
▁stars	-9.54534
▁worlds	-9.54765
▁figured	-9.54833
▁jerk	-9.5486
▁mae	-9.54865
▁bobble	-9.54874
▁surely	-9.55019
▁growing	-9.5503
▁le	-9.55109
▁provide	-9.55128
▁cleaning	-9.55423
mi	-9.55762
▁tickets	-9.55816
▁followed	-9.55949
▁heading	-9.56063
▁hurts	-9.56179
tion	-9.56623
▁study	-9.56785
id	-9.5691
▁desert	-9.56915
ped	-9.5692
io	-9.57036
▁survive	-9.57062
▁fran	-9.57323
▁regret	-9.57341
▁grace	-9.57342
▁snow	-9.57348
▁character	-9.57352
▁hidden	-9.57352
▁junk	-9.57352
▁lieberman	-9.57352
▁sugar	-9.57352
▁mercy	-9.57352
▁surrender	-9.57352
▁insist	-9.57353
▁betsie	-9.57353
▁cheese	-9.57354
▁itd	-9.57355
▁shock	-9.57357
▁candy	-9.57357
▁truck	-9.57358
▁schedule	-9.57366
▁liar	-9.57371
▁grave	-9.57377
▁hiding	-9.57378
▁german	-9.57382
▁chill	-9.57388
▁wet	-9.57431
▁whatd	-9.57464
▁engaged	-9.57477
▁file	-9.57495
▁created	-9.57514
▁sand	-9.57544
▁attend	-9.57597
▁hoping	-9.57722
▁dang	-9.5773
▁tires	-9.57732
▁agreed	-9.5777
▁ahh	-9.57987
▁turns	-9.58086
▁lay	-9.5809
▁stealing	-9.58154
▁clearly	-9.58219
▁devil	-9.58433
▁yay	-9.58448
▁gives	-9.58678
▁tear	-9.58702
▁du	-9.58821
her	-9.58861
▁harder	-9.58986
uff	-9.59089
▁bones	-9.59092
▁tie	-9.59305
▁cares	-9.59504
▁guns	-9.59841
ac	-9.59977
▁mel	-9.60019
▁corps	-9.60173
▁weapons	-9.60301
▁coach	-9.60328
▁fighter	-9.6034
▁guards	-9.60408
▁gum	-9.60423
▁blast	-9.60538
down	-9.60566
▁rep	-9.60568
▁invite	-9.60644
▁robots	-9.60669
▁madam	-9.60674
back	-9.60685
▁ca	-9.6072
▁mood	-9.60724
▁particular	-9.60745
ax	-9.60765
▁among	-9.60923
▁cinderella	-9.60923
▁empire	-9.60923
▁harriet	-9.60923
▁itomori	-9.60923
▁kelani	-9.60923
▁nonsense	-9.60923
▁purrbles	-9.60923
▁source	-9.60923
▁whimpers	-9.60923
▁whistling	-9.60923
▁byebye	-9.60923
▁telephone	-9.60924
▁repeat	-9.60924
▁staff	-9.60925
▁hammer	-9.60925
▁gertie	-9.60925
▁beauty	-9.60926
▁indistinct	-9.60926
▁apologize	-9.60927
▁dump	-9.6093
▁screeches	-9.60933
▁potter	-9.60934
▁clever	-9.60936
▁jason	-9.60943
▁stock	-9.60948
▁bang	-9.6097
▁eric	-9.60973
▁haha	-9.61022
tra	-9.61034
▁who	-9.61056
▁darn	-9.61077
▁willing	-9.61078
▁barking	-9.61093
▁jet	-9.61154
▁recall	-9.61161
▁shy	-9.61187
▁invited	-9.61203
▁losing	-9.61218
▁raised	-9.6152
▁ate	-9.61565
▁gasping	-9.61565
▁cats	-9.61584
▁fairy	-9.61662
▁boun	-9.61701
cy	-9.61986
▁rope	-9.62143
▁bottle	-9.62295
▁fella	-9.62365
land	-9.62583
▁expecting	-9.6268
▁bucks	-9.62715
▁cha	-9.62899
▁es	-9.63005
pa	-9.63093
erry	-9.6315
ois	-9.63385
▁map	-9.63508
▁showed	-9.63541
▁enter	-9.63626
ier	-9.63749
▁whoohoo	-9.63836
▁flow	-9.63958
▁picking	-9.63995
▁settle	-9.64314
▁hook	-9.64319
▁release	-9.6434
house	-9.64359
▁thre	-9.64467
▁natural	-9.64477
▁speech	-9.64606
▁elizabeth	-9.64627
▁invisible	-9.64627
▁jasmine	-9.64627
▁kitty	-9.64627
▁phantom	-9.64627
▁poirot	-9.64627
▁precious	-9.64627
▁puppet	-9.64627
▁quilok	-9.64627
▁whimpering	-9.64627
▁wildhorn	-9.64627
▁dimension	-9.64627
▁ouch	-9.64627
▁smooth	-9.64627
▁hadnt	-9.64627
▁todd	-9.64628
▁insurance	-9.64628
▁example	-9.64628
▁binky	-9.64628
▁planning	-9.64629
▁saving	-9.6463
▁corrie	-9.64631
▁available	-9.64633
ess	-9.64636
▁mouse	-9.64637
▁trap	-9.64637
▁alberto	-9.64639
▁onto	-9.64647
▁wide	-9.64658
▁data	-9.64679
▁deland	-9.64688
▁worthless	-9.64689
cina	-9.64721
▁chip	-9.64724
▁amen	-9.64752
▁row	-9.64753
▁sally	-9.64761
▁model	-9.64765
▁shape	-9.64833
▁groaning	-9.64834
▁moody	-9.64843
▁solo	-9.64853
▁grown	-9.64893
▁union	-9.64921
ore	-9.64923
▁kate	-9.65425
▁fucking	-9.65475
▁doo	-9.65492
▁kicked	-9.65542
▁pleased	-9.65936
▁passed	-9.65937
▁exist	-9.65969
▁sever	-9.65992
▁thinks	-9.66006
▁of	-9.66074
▁ends	-9.66174
▁fo	-9.66481
▁shooting	-9.66566
▁fingers	-9.66666
▁fan	-9.67022
▁fans	-9.67041
▁draw	-9.67258
▁ni	-9.67268
▁collect	-9.67411
▁witness	-9.67438
▁gather	-9.67459
ey	-9.6777
▁checked	-9.67798
▁to	-9.67834
op	-9.68183
▁pi	-9.68361
▁shoo	-9.68376
▁birth	-9.6847
▁attempt	-9.68473
▁bruce	-9.68473
▁elephant	-9.68473
▁gwen	-9.68473
▁mackenzie	-9.68473
▁taylor	-9.68473
▁technology	-9.68473
▁defend	-9.68473
▁responsible	-9.68473
▁warehouse	-9.68473
mm	-9.68473
▁presence	-9.68473
▁biggest	-9.68474
▁airplane	-9.68477
▁wallace	-9.68477
▁lift	-9.68489
▁heavily	-9.6849
▁incredible	-9.68499
▁richard	-9.68499
▁winner	-9.68501
▁wha	-9.68502
▁literally	-9.68504
▁march	-9.68511
▁began	-9.68517
▁professional	-9.68524
▁laughter	-9.68541
▁fang	-9.68545
▁proof	-9.68547
▁squeaking	-9.68551
▁metro	-9.68561
▁winter	-9.68573
▁china	-9.68574
▁scary	-9.68576
▁career	-9.68595
▁ox	-9.68682
▁comet	-9.68684
▁gotham	-9.68701
▁hail	-9.68755
▁signal	-9.68768
▁concentrate	-9.68913
▁wayne	-9.68957
▁stink	-9.68968
▁treated	-9.69067
ery	-9.69082
▁carefully	-9.69149
▁arab	-9.69192
▁towards	-9.69211
▁billy	-9.69287
▁shelly	-9.69289
▁riding	-9.69293
▁boo	-9.69328
▁guts	-9.69419
▁using	-9.69511
▁dry	-9.69831
▁pocket	-9.69946
▁fi	-9.6996
▁servants	-9.70098
ated	-9.70641
ating	-9.70829
▁reporter	-9.709
▁tears	-9.71216
▁plant	-9.71505
▁mountains	-9.71887
▁discover	-9.72066
▁loose	-9.72173
▁zoo	-9.72174
▁guide	-9.72179
▁range	-9.72292
▁sub	-9.72366
▁marcel	-9.72455
▁according	-9.72473
▁bernstein	-9.72473
▁brooklyn	-9.72473
▁easily	-9.72473
▁introduce	-9.72473
▁klaus	-9.72473
▁miracle	-9.72473
▁occasion	-9.72473
▁oconnor	-9.72473
▁samantha	-9.72473
▁surface	-9.72473
▁zero	-9.72474
▁recognize	-9.72474
▁float	-9.72474
▁granny	-9.72475
▁contract	-9.72476
▁rotten	-9.72477
▁value	-9.72478
▁avoid	-9.72479
▁trail	-9.72479
▁jedi	-9.72479
▁desk	-9.7248
▁lewis	-9.7248
▁groov	-9.72481
▁easier	-9.72484
▁chet	-9.7249
▁bedroom	-9.7249
▁aboard	-9.72493
▁planned	-9.72499
▁rude	-9.72508
▁destiny	-9.72511
▁involved	-9.72525
▁ease	-9.72539
▁cage	-9.72548
▁cutting	-9.72554
▁minister	-9.72591
▁meeks	-9.72629
▁fa	-9.72701
▁helped	-9.72704
▁dean	-9.72709
▁busted	-9.72784
▁starts	-9.72788
▁charm	-9.72792
▁honestly	-9.72813
▁pin	-9.72838
▁personally	-9.72895
▁entirely	-9.72969
ley	-9.73212
ations	-9.7326
ber	-9.73522
que	-9.73562
▁knights	-9.73581
▁covered	-9.73678
line	-9.73793
ok	-9.73942
▁clears	-9.74009
ab	-9.74094
▁student	-9.74194
▁ordered	-9.74238
ther	-9.74251
ke	-9.74422
▁cookies	-9.74427
▁woo	-9.74677
ga	-9.747
▁ears	-9.74769
▁bringing	-9.74792
▁cave	-9.7499
▁lee	-9.75081
▁states	-9.7532
▁landing	-9.75441
▁seconds	-9.75501
▁balls	-9.75641
▁direct	-9.75762
ver	-9.758
▁doors	-9.75832
the	-9.75845
▁cops	-9.76191
▁thousands	-9.76239
▁talent	-9.76261
beat	-9.76334
▁arrive	-9.76367
▁soldiers	-9.76436
▁villain	-9.76442
▁camp	-9.76492
▁function	-9.76578
▁operation	-9.76582
▁sharp	-9.76623
▁transport	-9.76623
▁drug	-9.76631
▁transfer	-9.76636
▁bullshit	-9.7664
▁dimitri	-9.7664
▁disaster	-9.7664
▁elaine	-9.7664
▁ikioi	-9.7664
▁lindsay	-9.7664
▁lorraine	-9.7664
▁paradise	-9.7664
▁positive	-9.7664
▁shaggy	-9.7664
▁someplace	-9.7664
▁spanish	-9.7664
▁terrific	-9.7664
▁treasure	-9.7664
▁vespa	-9.7664
▁wilson	-9.7664
▁garden	-9.7664
▁greg	-9.7664
▁intend	-9.7664
▁jealous	-9.7664
▁lulu	-9.7664
▁glory	-9.76641
▁tongue	-9.76644
▁dante	-9.76646
▁youth	-9.76647
▁roof	-9.76649
▁wherever	-9.7665
▁inspector	-9.76653
▁secure	-9.76659
▁randy	-9.76659
▁rough	-9.7666
▁grandma	-9.76661
▁connection	-9.76669
▁soup	-9.76669
▁hm	-9.76673
▁coat	-9.76675
▁sword	-9.76679
▁season	-9.76699
▁mister	-9.7671
▁missile	-9.76714
▁mud	-9.76715
▁prize	-9.76715
▁unfortunately	-9.76725
▁under	-9.76737
▁paw	-9.76737
▁tiny	-9.76755
▁darkness	-9.76764
▁wounded	-9.76859
▁nature	-9.7687
▁gotcha	-9.76971
▁original	-9.77018
pe	-9.77077
▁spine	-9.77104
▁que	-9.77156
▁ships	-9.77223
▁sons	-9.77293
ze	-9.77371
▁closer	-9.77522
▁forced	-9.77599
▁headed	-9.7761
▁sail	-9.7781
▁relaxed	-9.77916
▁pie	-9.78041
▁eggs	-9.78192
ang	-9.78336
▁ear	-9.78391
▁ticket	-9.78541
▁parent	-9.78567
▁sp	-9.78724
▁kings	-9.78738
off	-9.78827
▁hood	-9.79192
ire	-9.79459
▁steps	-9.79743
▁badly	-9.79809
▁ed	-9.79936
ub	-9.80003
▁fii	-9.80345
▁drinks	-9.80389
▁sneak	-9.80412
led	-9.80484
▁crush	-9.80553
▁pr	-9.80598
▁spit	-9.80864
▁gettin	-9.80958
▁slip	-9.80979
▁laws	-9.80982
▁alakay	-9.80988
▁complex	-9.80988
▁delicious	-9.80988
▁division	-9.80988
▁interview	-9.80988
▁jubal	-9.80988
▁linnet	-9.80988
▁milady	-9.80988
▁museum	-9.80988
▁plummer	-9.80988
▁poison	-9.80988
▁progress	-9.80988
▁subject	-9.80988
▁henry	-9.80988
▁churchill	-9.80988
▁borrow	-9.80988
▁generator	-9.80988
▁piano	-9.80991
▁clue	-9.80992
▁priest	-9.80993
▁luthor	-9.80993
▁alexander	-9.80995
▁barrow	-9.80995
▁sheriff	-9.80996
▁games	-9.80997
▁bobblehead	-9.80999
▁freedom	-9.81
▁hoke	-9.81005
▁leia	-9.81005
▁inquirer	-9.81008
▁gross	-9.81008
▁elton	-9.81008
▁columbia	-9.81018
▁owner	-9.8102
▁cash	-9.81021
▁comment	-9.81027
▁male	-9.8106
▁cast	-9.8107
▁protection	-9.81089
▁east	-9.81093
▁madeline	-9.81101
▁usual	-9.81137
▁opened	-9.81174
▁sat	-9.81206
▁lane	-9.81265
▁reality	-9.81365
▁fu	-9.81379
▁mentioned	-9.81585
▁drawing	-9.81638
▁keeping	-9.81653
▁ron	-9.8169
▁hug	-9.81796
▁degrees	-9.81826
▁sw	-9.81905
▁fully	-9.82223
▁boots	-9.82276
▁lately	-9.82478
▁loss	-9.82481
ak	-9.82488
▁scream	-9.82542
▁flowers	-9.82767
▁opening	-9.82965
▁brings	-9.83019
▁snake	-9.83023
▁tigger	-9.83026
▁clown	-9.83043
▁pound	-9.83067
▁finger	-9.83081
▁hunter	-9.83138
▁touched	-9.83204
▁dollar	-9.83214
▁nah	-9.83381
▁trees	-9.83467
▁singer	-9.83754
▁bert	-9.83858
▁te	-9.83924
▁fellas	-9.84001
▁drinking	-9.84044
▁rat	-9.84132
ring	-9.84382
▁calls	-9.84387
ical	-9.844
ns	-9.8453
▁education	-9.84613
ung	-9.84732
▁judges	-9.84841
▁crash	-9.84875
▁pretend	-9.84949
work	-9.85053
▁suspect	-9.85097
▁defeat	-9.85108
uck	-9.85249
▁assure	-9.85252
knock	-9.85268
▁terribl	-9.85279
though	-9.85287
▁health	-9.85349
▁walls	-9.85362
▁pink	-9.85386
▁proper	-9.85429
▁genius	-9.85451
▁rhythm	-9.85475
▁somethin	-9.85485
▁silver	-9.85531
▁bubba	-9.85533
▁century	-9.85533
▁conference	-9.85533
▁davinier	-9.85533
▁experiment	-9.85533
▁giggling	-9.85533
▁junior	-9.85533
▁mandrake	-9.85533
▁namaari	-9.85533
▁ocean	-9.85533
▁politics	-9.85533
▁rabbit	-9.85533
▁snoring	-9.85533
▁spoil	-9.85533
▁spread	-9.85533
▁twenty	-9.85533
▁vacation	-9.85533
▁zuba	-9.85533
▁babies	-9.85533
▁proceed	-9.85533
▁including	-9.85533
▁coast	-9.85534
▁honour	-9.85534
▁heck	-9.85535
▁lightning	-9.85537
▁parade	-9.85537
▁miserable	-9.85538
▁whoever	-9.85538
▁twin	-9.8554
▁theme	-9.85542
▁fruit	-9.85553
▁estate	-9.85557
▁alley	-9.85566
▁memory	-9.85567
▁wise	-9.85572
▁ohh	-9.85576
▁max	-9.8558
▁meal	-9.85586
▁skin	-9.8559
▁chosen	-9.85603
▁moan	-9.85604
▁cries	-9.85608
▁section	-9.8561
▁defense	-9.85617
▁rocket	-9.85677
▁lina	-9.8568
▁clattering	-9.85707
ure	-9.85728
▁glasses	-9.8573
just	-9.85748
▁humans	-9.85761
▁lick	-9.85786
▁stairs	-9.85827
▁bee	-9.85834
▁latest	-9.85883
town	-9.85895
▁eaten	-9.85938
▁murderer	-9.85971
▁reasons	-9.85981
▁chin	-9.86055
▁yea	-9.86058
▁cents	-9.86063
▁writer	-9.86074
▁divide	-9.86097
▁tone	-9.86167
▁seal	-9.86357
▁slowly	-9.86411
▁lab	-9.86439
▁helping	-9.865
▁juice	-9.86566
▁nate	-9.86737
▁interest	-9.86843
▁fixed	-9.87153
▁showing	-9.87214
▁returned	-9.87229
▁cell	-9.87641
▁ad	-9.8771
gr	-9.87734
▁diamond	-9.87763
▁bastard	-9.87794
▁slave	-9.87795
▁direction	-9.87804
▁daughters	-9.87901
▁mistakes	-9.87974
▁ray	-9.88074
▁heavens	-9.88089
▁inc	-9.88101
▁honk	-9.8815
▁gu	-9.88306
ward	-9.88386
ors	-9.88641
▁ch	-9.88704
ism	-9.88994
ama	-9.89205
king	-9.89498
ite	-9.89537
ick	-9.89631
▁thin	-9.89637
▁indi	-9.89645
▁chew	-9.89707
▁closes	-9.8975
▁paying	-9.8999
▁ka	-9.90135
▁challenge	-9.90184
▁daddys	-9.90204
▁wage	-9.90214
▁chose	-9.90225
▁project	-9.90243
▁success	-9.90275
▁popular	-9.90276
▁pitts	-9.90292
▁admiral	-9.90295
▁british	-9.90295
▁chirping	-9.90295
▁england	-9.90295
▁false	-9.90295
▁fantastic	-9.90295
▁joseph	-9.90295
▁judgment	-9.90295
▁mmmhmm	-9.90295
▁morgan	-9.90295
▁outfit	-9.90295
▁patient	-9.90295
▁review	-9.90295
▁sergeant	-9.90295
▁somehow	-9.90295
▁television	-9.90295
▁thatcher	-9.90295
▁therefore	-9.90295
▁video	-9.90295
▁alodor	-9.90295
▁flank	-9.90295
▁footsteps	-9.90295
▁salesman	-9.90295
▁device	-9.90296
▁heal	-9.90298
▁basic	-9.90298
▁solid	-9.90299
▁community	-9.90299
▁aware	-9.903
▁blink	-9.90301
▁argue	-9.90302
▁stood	-9.90303
▁leland	-9.90305
▁plus	-9.90308
▁communist	-9.90308
▁nuclear	-9.90309
▁stephen	-9.90309
▁babo	-9.90316
▁dropped	-9.90322
▁swimming	-9.90324
▁mere	-9.90325
▁mick	-9.90326
▁duck	-9.90327
▁apparently	-9.90342
▁carried	-9.90344
▁quarter	-9.90347
▁wave	-9.90348
▁postman	-9.9035
▁labor	-9.90351
▁crown	-9.90353
▁speaks	-9.90357
▁poppy	-9.9036
▁math	-9.90364
▁statement	-9.90385
▁laid	-9.90432
▁surrounded	-9.90446
▁united	-9.90477
▁fourth	-9.9056
▁fellows	-9.90561
▁weight	-9.90563
▁louise	-9.90644
▁fur	-9.90682
side	-9.90698
▁discovered	-9.90789
▁ne	-9.90831
▁ruined	-9.90932
▁wi	-9.9104
ib	-9.91219
▁gotten	-9.91265
ca	-9.91437
▁lips	-9.91443
lic	-9.91444
▁chase	-9.91484
▁wa	-9.91575
▁knocked	-9.91604
jo	-9.9163
ner	-9.91634
top	-9.91637
ving	-9.91665
▁lines	-9.91838
▁lied	-9.9186
▁trained	-9.91868
▁announce	-9.92006
▁parking	-9.92075
con	-9.9212
ities	-9.92168
▁chatter	-9.92227
mer	-9.92259
▁carrying	-9.92326
▁shoe	-9.92405
▁staring	-9.92487
▁fund	-9.92505
▁signed	-9.92521
▁pe	-9.92523
▁creep	-9.92568
▁rose	-9.92622
▁suck	-9.92633
▁heffalump	-9.92783
▁talkin	-9.92788
▁whistle	-9.92791
▁bo	-9.92831
▁sport	-9.92841
▁sometime	-9.92867
▁image	-9.92922
▁throwing	-9.93234
▁at	-9.93381
▁lookin	-9.93497
ized	-9.93626
▁tale	-9.93708
▁answers	-9.93721
▁ln	-9.93966
▁can	-9.94162
▁screw	-9.94273
▁streets	-9.94303
▁lawyers	-9.94447
▁phil	-9.94682
▁losers	-9.94684
▁smells	-9.94826
▁wreck	-9.94862
▁ended	-9.95022
hand	-9.95078
▁exact	-9.95128
▁spin	-9.95144
cient	-9.95158
▁russia	-9.95202
hood	-9.95204
▁object	-9.95238
▁peanut	-9.95294
▁appointment	-9.95295
▁attitude	-9.95295
▁bruno	-9.95295
▁campaign	-9.95295
▁chihiro	-9.95295
▁dinosaur	-9.95295
▁gahhh	-9.95295
▁giggles	-9.95295
▁goodfellowe	-9.95295
▁hagrid	-9.95295
▁helicopter	-9.95295
▁kumandra	-9.95295
▁marvin	-9.95295
▁oclock	-9.95295
▁political	-9.95295
▁regular	-9.95295
▁subtitle	-9.95295
▁temple	-9.95295
▁tradition	-9.95295
▁tuesday	-9.95295
▁closing	-9.95295
▁deputy	-9.95295
▁emperor	-9.95295
▁federal	-9.95295
▁regard	-9.95295
▁shirt	-9.95295
▁humming	-9.95295
▁lucy	-9.95295
▁instructions	-9.95295
▁barely	-9.95296
▁latin	-9.95297
▁sobs	-9.95297
▁jeff	-9.95298
▁willow	-9.95298
▁amigo	-9.95299
▁shelter	-9.95299
▁alert	-9.953
▁percent	-9.953
▁guarantee	-9.953
▁becoming	-9.95301
▁detective	-9.95301
▁asshole	-9.95308
▁property	-9.95309
▁shep	-9.9531
▁horrible	-9.9531
▁loving	-9.9531
▁miami	-9.95311
▁imagination	-9.95314
▁ripper	-9.95314
▁pair	-9.95315
▁starving	-9.95316
▁shift	-9.95316
▁earlier	-9.95317
▁johnson	-9.95323
▁bury	-9.95323
▁chop	-9.95327
▁forth	-9.95331
▁pitch	-9.95344
▁tenma	-9.9535
▁guilty	-9.95354
▁bride	-9.95359
▁foolish	-9.95359
▁murmuring	-9.95369
▁recently	-9.95381
▁dug	-9.95385
▁grade	-9.95391
▁stolen	-9.95455
▁homework	-9.95481
▁embarrassing	-9.95486
▁manual	-9.95494
▁carson	-9.95535
ky	-9.95554
board	-9.95577
▁commissioner	-9.95588
▁received	-9.95628
▁officers	-9.95648
ny	-9.95812
▁yall	-9.95947
▁wishes	-9.96006
▁hu	-9.96006
▁lando	-9.96065
ka	-9.9627
▁leaves	-9.96328
▁drum	-9.9642
▁stronger	-9.96422
▁skills	-9.96525
▁whispers	-9.96531
ox	-9.96649
▁host	-9.9676
▁citizens	-9.96784
▁cl	-9.96906
ren	-9.97169
ug	-9.97191
▁knocking	-9.97197
ito	-9.97242
▁keeps	-9.97254
▁pulled	-9.97326
bi	-9.97347
▁bone	-9.97826
fi	-9.97911
▁nan	-9.97923
▁horses	-9.97926
▁poem	-9.98023
▁ga	-9.98037
▁demand	-9.98046
▁meaning	-9.98049
▁partner	-9.98064
▁detail	-9.98081
▁cookie	-9.98144
ise	-9.98166
ence	-9.98355
▁friendly	-9.98403
▁fishing	-9.98541
▁hop	-9.99381
▁gates	-9.99415
▁creatures	-9.99535
▁perform	-9.99968
ship	-10.0005
▁connect	-10.0013
▁bay	-10.0019
▁ver	-10.0026
▁disease	-10.0027
▁obvious	-10.0038
▁dust	-10.004
▁solve	-10.0045
▁quest	-10.0047
▁krypto	-10.0048
▁spoke	-10.0048
▁plain	-10.0052
▁advantage	-10.0056
▁anderson	-10.0056
▁audrey	-10.0056
▁believing	-10.0056
▁bessner	-10.0056
▁central	-10.0056
▁circle	-10.0056
▁council	-10.0056
▁darlene	-10.0056
▁eeyore	-10.0056
▁equipment	-10.0056
▁foreign	-10.0056
▁holiday	-10.0056
▁interrupt	-10.0056
▁league	-10.0056
▁linderman	-10.0056
▁melanie	-10.0056
▁pilot	-10.0056
▁recommend	-10.0056
▁reserve	-10.0056
▁toilet	-10.0056
▁woozle	-10.0056
▁written	-10.0056
▁distant	-10.0056
▁pride	-10.0056
▁turtle	-10.0056
▁cmon	-10.0056
▁senior	-10.0056
▁pleasant	-10.0056
▁daily	-10.0056
▁flash	-10.0056
▁vision	-10.0056
▁velma	-10.0056
▁woke	-10.0056
▁meade	-10.0056
▁poetry	-10.0056
▁aaah	-10.0057
▁rising	-10.0057
▁obey	-10.0057
▁airport	-10.0057
▁sentence	-10.0058
▁iron	-10.0058
▁fbi	-10.0058
▁studio	-10.0058
▁moron	-10.0058
▁dick	-10.0059
▁santa	-10.0059
▁beak	-10.0059
▁coward	-10.0059
▁grateful	-10.0059
▁reward	-10.006
▁giles	-10.006
▁nasty	-10.006
▁brush	-10.0061
▁fhe	-10.0061
▁exit	-10.0062
▁express	-10.0063
▁bratt	-10.0064
▁bowers	-10.0064
▁weston	-10.0064
▁talon	-10.0065
▁mass	-10.0066
▁apple	-10.0067
▁taxi	-10.0068
▁embarrassed	-10.007
▁ap	-10.0071
put	-10.0073
▁market	-10.0074
▁fallen	-10.0075
▁circumstances	-10.0077
▁sighing	-10.0079
▁poop	-10.0083
▁manager	-10.0086
▁explorer	-10.0092
▁butter	-10.0099
▁beach	-10.0101
▁oops	-10.0102
▁bound	-10.0104
▁prepared	-10.011
▁event	-10.0115
▁deeply	-10.0117
▁jokes	-10.0127
▁secrets	-10.0132
▁charming	-10.0136
▁finest	-10.0143
▁approaching	-10.0153
▁filled	-10.0156
▁photos	-10.0166
▁numbers	-10.0169
▁locker	-10.0169
▁howls	-10.0173
▁changes	-10.0189
▁dia	-10.0196
▁watched	-10.02
▁belongs	-10.0206
▁systems	-10.022
▁ven	-10.0224
ern	-10.0236
ay	-10.0245
▁matt	-10.0258
▁pat	-10.0262
▁sa	-10.0297
▁roar	-10.0297
nce	-10.0313
▁teaching	-10.0314
▁appear	-10.0317
for	-10.0318
▁roses	-10.0324
▁pit	-10.035
▁pounds	-10.0351
▁dreaming	-10.0352
▁tip	-10.0358
bra	-10.036
▁odd	-10.0377
ii	-10.0392
▁prayer	-10.0402
▁stranger	-10.0408
▁min	-10.0418
▁beating	-10.0421
▁non	-10.0472
com	-10.0475
▁flip	-10.0494
▁log	-10.0502
▁trusted	-10.0502
▁me	-10.0509
▁ld	-10.051
red	-10.0514
▁sex	-10.0524
▁op	-10.0526
ock	-10.0544
▁suffer	-10.0554
iest	-10.057
let	-10.0576
▁moto	-10.0586
▁represent	-10.061
▁siren	-10.061
▁alfred	-10.0611
▁argument	-10.0611
▁artillery	-10.0611
▁brigade	-10.0611
▁bubble	-10.0611
▁companion	-10.0611
▁district	-10.0611
▁downstairs	-10.0611
▁elevator	-10.0611
▁episode	-10.0611
▁exhales	-10.0611
▁fredricksen	-10.0611
▁grandmother	-10.0611
▁invitation	-10.0611
▁knife	-10.0611
▁longstreet	-10.0611
▁manhattan	-10.0611
▁military	-10.0611
▁reckon	-10.0611
▁scratch	-10.0611
▁sheik	-10.0611
▁slannen	-10.0611
▁tokyo	-10.0611
▁understood	-10.0611
▁uniform	-10.0611
▁victory	-10.0611
▁yubaba	-10.0611
▁dalton	-10.0611
▁exciting	-10.0611
▁forbidden	-10.0611
▁grunion	-10.0611
▁leap	-10.0611
▁nightmare	-10.0611
▁contain	-10.0611
▁expert	-10.0611
▁concert	-10.0611
▁rome	-10.0611
▁dawn	-10.0611
▁susie	-10.0611
▁carrot	-10.0611
▁suprem	-10.0611
▁feather	-10.0612
▁grantham	-10.0612
▁berthold	-10.0612
▁social	-10.0612
▁sacred	-10.0612
▁behavior	-10.0612
▁assignment	-10.0612
▁curious	-10.0612
▁crap	-10.0612
▁otis	-10.0612
▁supper	-10.0612
▁yellow	-10.0612
▁option	-10.0612
▁flesh	-10.0612
▁piglet	-10.0612
▁downton	-10.0612
▁heir	-10.0613
▁trial	-10.0613
▁banks	-10.0613
▁chasing	-10.0613
▁impression	-10.0614
▁radar	-10.0614
▁fungus	-10.0614
▁edge	-10.0614
▁yoda	-10.0614
▁brent	-10.0614
▁christian	-10.0615
nah	-10.0615
▁bible	-10.0616
▁precisely	-10.0617
▁familiar	-10.0617
▁spoken	-10.0619
▁print	-10.0624
▁grin	-10.0624
▁pool	-10.0624
▁standard	-10.0625
▁bust	-10.0625
▁jackson	-10.0627
▁disappointed	-10.0634
▁hotel	-10.0634
▁doon	-10.0634
▁naturally	-10.0638
▁useless	-10.0639
▁maine	-10.0647
▁manny	-10.0652
▁earned	-10.0655
▁finding	-10.0656
▁ew	-10.0663
▁cap	-10.0667
▁impressed	-10.0669
▁je	-10.0671
ned	-10.0678
▁the	-10.0682
▁useful	-10.0705
▁troops	-10.0705
▁hoo	-10.0708
▁led	-10.0721
▁di	-10.0722
▁lack	-10.0743
▁nuts	-10.0764
▁depends	-10.0767
▁selling	-10.0802
▁doyles	-10.0805
▁plumbers	-10.0822
ade	-10.0825
aw	-10.0827
▁aha	-10.085
▁guardians	-10.0851
▁ken	-10.0857
▁rocks	-10.0869
▁passing	-10.0889
▁cheer	-10.0907
▁pipe	-10.0938
▁thumb	-10.0948
▁shoulder	-10.0951
▁servant	-10.0954
▁guardian	-10.0954
▁charges	-10.0958
▁faces	-10.0981
▁teachers	-10.1035
▁por	-10.1077
▁mis	-10.1083
▁port	-10.1092
▁mu	-10.11
ue	-10.1106
▁skip	-10.1109
▁cheat	-10.1128
▁hip	-10.1129
▁snap	-10.1142
▁assist	-10.1144
▁adopt	-10.1154
umb	-10.1155
▁disappear	-10.1158
▁wander	-10.1159
▁pan	-10.1167
▁pigs	-10.1168
▁earn	-10.1169
▁replace	-10.1171
▁create	-10.1172
▁weigh	-10.1184
▁sandwich	-10.1191
▁gentle	-10.1196
▁entertain	-10.1197
▁inter	-10.1197
▁cec	-10.1198
▁inherit	-10.1199
▁pump	-10.1199
▁beloved	-10.12
▁bolivia	-10.12
▁carriage	-10.12
▁cavalry	-10.12
▁cheap	-10.12
▁cotton	-10.12
▁dumbledore	-10.12
▁edgar	-10.12
▁enemies	-10.12
▁escalante	-10.12
▁exercise	-10.12
▁families	-10.12
▁giulia	-10.12
▁patience	-10.12
▁reputation	-10.12
▁sarris	-10.12
▁skywalker	-10.12
▁snipe	-10.12
▁stephanie	-10.12
▁underneath	-10.12
▁wabac	-10.12
▁clifford	-10.12
▁gorgeous	-10.12
▁instinct	-10.12
▁knowledge	-10.12
▁wolfwalker	-10.12
▁boolie	-10.12
▁coughing	-10.12
▁mostly	-10.12
▁padre	-10.12
▁shao	-10.12
▁toast	-10.12
▁plaza	-10.12
▁insane	-10.12
▁funeral	-10.12
▁zoe	-10.12
▁dracone	-10.12
▁permission	-10.12
▁theory	-10.12
▁explosion	-10.12
▁chinese	-10.12
▁grew	-10.12
▁mount	-10.12
▁wrapped	-10.12
▁towel	-10.12
▁memories	-10.12
▁snowball	-10.12
▁bingo	-10.12
▁ridge	-10.1201
▁route	-10.1201
▁steel	-10.1201
▁football	-10.1201
▁unknown	-10.1201
▁library	-10.1202
▁structure	-10.1202
▁potatoes	-10.1202
▁capable	-10.1202
▁task	-10.1202
▁peak	-10.1203
▁thick	-10.1203
▁hattie	-10.1203
▁gear	-10.1203
▁fuel	-10.1203
▁willie	-10.1204
▁objection	-10.1204
▁bounce	-10.1204
▁collection	-10.1205
▁weasel	-10.1206
▁secretary	-10.1206
▁charity	-10.1207
▁elf	-10.1208
▁gim	-10.1209
▁flatter	-10.121
▁gump	-10.1211
▁hitting	-10.1215
▁lily	-10.1215
▁suddenly	-10.1215
▁oil	-10.1216
ode	-10.1217
▁kent	-10.1217
▁rent	-10.1219
▁sold	-10.122
▁witches	-10.1221
▁sink	-10.1222
▁sexy	-10.1222
▁sniffing	-10.1226
▁cable	-10.1227
▁fe	-10.1228
▁hired	-10.123
▁pity	-10.1239
▁tied	-10.125
▁down	-10.125
▁cock	-10.126
▁seth	-10.1262
pt	-10.1265
▁barn	-10.127
▁deeper	-10.127
▁seize	-10.1274
tro	-10.1279
▁national	-10.1279
▁bowl	-10.1283
▁loaded	-10.1284
▁checking	-10.1289
▁blessed	-10.13
▁barks	-10.1316
gu	-10.1325
▁mid	-10.1327
▁thy	-10.1327
ane	-10.1339
sure	-10.1354
▁rate	-10.1373
some	-10.1381
▁pearls	-10.1392
▁moments	-10.1396
tch	-10.1397
▁gus	-10.1406
▁orphans	-10.1408
▁dar	-10.142
▁yells	-10.1422
▁someones	-10.1431
▁doctors	-10.1439
▁rd	-10.1445
▁prisoners	-10.1447
▁cheers	-10.1454
ett	-10.1464
▁site	-10.1469
▁est	-10.1472
ou	-10.148
▁counting	-10.1487
▁cres	-10.1502
▁brains	-10.1505
▁we	-10.1509
▁hearing	-10.1509
▁joining	-10.1529
▁prisoner	-10.1609
▁privilege	-10.161
▁actor	-10.1613
▁eve	-10.1614
▁walks	-10.1615
▁that	-10.1633
▁gr	-10.164
cer	-10.165
▁cor	-10.166
▁flower	-10.1675
ition	-10.1678
ever	-10.1698
▁machines	-10.1719
▁inch	-10.1752
da	-10.1767
▁qui	-10.1768
▁score	-10.1771
min	-10.178
▁limit	-10.1781
right	-10.1793
▁separate	-10.1795
▁arrange	-10.1796
▁permanent	-10.1806
▁pot	-10.181
▁rare	-10.1814
▁africa	-10.1815
▁drag	-10.1823
▁yank	-10.1824
▁courbet	-10.1825
▁damascus	-10.1825
▁encourage	-10.1825
▁fairfax	-10.1825
▁frederick	-10.1825
▁galaxy	-10.1825
▁gordon	-10.1825
▁ignore	-10.1825
▁luisa	-10.1825
▁mermaid	-10.1825
▁metropolis	-10.1825
▁muntz	-10.1825
▁ofrenda	-10.1825
▁orange	-10.1825
▁policy	-10.1825
▁practicing	-10.1825
▁ralph	-10.1825
▁research	-10.1825
▁salmon	-10.1825
▁stallion	-10.1825
▁sweep	-10.1825
▁william	-10.1825
▁appeal	-10.1825
▁launch	-10.1825
▁niece	-10.1825
▁scheme	-10.1825
▁stress	-10.1825
▁ciao	-10.1825
▁whyd	-10.1825
▁thump	-10.1825
▁demon	-10.1825
▁jimmy	-10.1825
▁belt	-10.1825
▁entrance	-10.1825
▁whirring	-10.1825
▁divine	-10.1825
▁ordinary	-10.1825
▁rogas	-10.1825
▁whenever	-10.1825
▁blew	-10.1825
▁valley	-10.1825
▁lisa	-10.1825
▁performance	-10.1826
▁waltz	-10.1826
▁failure	-10.1826
▁bacon	-10.1826
▁toothless	-10.1826
▁tyto	-10.1826
▁upside	-10.1826
▁legend	-10.1826
▁ripped	-10.1826
▁expensive	-10.1827
▁blah	-10.1828
▁cannon	-10.1828
▁adoption	-10.1829
▁solution	-10.1829
▁unlike	-10.183
▁opposite	-10.183
▁digger	-10.183
▁qu	-10.1831
▁tense	-10.1836
▁flat	-10.1837
▁disgusting	-10.1838
▁rode	-10.1839
▁nun	-10.1842
▁determined	-10.1844
▁cher	-10.1845
▁christal	-10.1848
▁sul	-10.185
▁nest	-10.185
▁reb	-10.1851
▁fry	-10.1853
hole	-10.1854
▁magical	-10.1863
▁yah	-10.1866
▁disappeared	-10.1869
▁carter	-10.1877
▁wilder	-10.1881
ex	-10.1881
itch	-10.1889
ble	-10.1892
▁flyn	-10.1892
ack	-10.1894
headed	-10.1896
▁ge	-10.1899
▁stoney	-10.1909
▁safer	-10.1909
▁louder	-10.192
ba	-10.1923
▁ton	-10.1923
▁mutt	-10.1945
ew	-10.1946
▁sniffs	-10.1947
▁customers	-10.195
▁makeup	-10.1955
tt	-10.1957
▁para	-10.1969
▁wasted	-10.1972
▁dope	-10.199
▁manners	-10.2014
▁gra	-10.2032
more	-10.2039
▁tend	-10.2094
▁facts	-10.2107
▁thor	-10.211
▁souls	-10.2113
▁killer	-10.2119
▁for	-10.213
▁bags	-10.2133
▁fixing	-10.2139
▁slaves	-10.2163
▁yell	-10.2205
▁stands	-10.2206
of	-10.221
int	-10.2228
▁criminal	-10.2238
▁chamber	-10.224
▁plumber	-10.2243
▁egg	-10.2248
▁announc	-10.225
▁here	-10.2251
▁learning	-10.2253
▁rebel	-10.2256
▁sch	-10.2257
▁hated	-10.2262
▁owls	-10.2313
▁sin	-10.2351
▁sta	-10.2371
ler	-10.2375
ches	-10.2386
ens	-10.2387
▁reminds	-10.2399
ize	-10.2409
looking	-10.2413
▁ace	-10.2422
ied	-10.2427
▁jobs	-10.2445
like	-10.2459
ile	-10.2463
ball	-10.2469
▁equal	-10.247
ator	-10.2472
▁official	-10.2473
▁sudden	-10.2474
▁actual	-10.2477
ible	-10.2484
▁mill	-10.2486
▁organ	-10.2486
▁paul	-10.2488
▁author	-10.2488
▁comfort	-10.2489
▁courage	-10.249
graph	-10.249
▁maharaja	-10.249
▁disturb	-10.249
▁resist	-10.2491
▁access	-10.2491
▁bieber	-10.2491
▁channel	-10.2491
▁competition	-10.2491
▁critter	-10.2491
▁cruel	-10.2491
▁desperate	-10.2491
▁extraordinary	-10.2491
▁fabulous	-10.2491
▁francisco	-10.2491
▁gryffindor	-10.2491
▁happily	-10.2491
▁happiness	-10.2491
▁hogwarts	-10.2491
▁individual	-10.2491
▁institute	-10.2491
▁liberty	-10.2491
▁lucinda	-10.2491
▁magazine	-10.2491
▁moonquake	-10.2491
▁nicholas	-10.2491
▁nolan	-10.2491
▁otterbourne	-10.2491
▁process	-10.2491
▁scapelli	-10.2491
▁scoffs	-10.2491
▁teenager	-10.2491
▁tunnel	-10.2491
▁unbelievable	-10.2491
▁yelps	-10.2491
▁gently	-10.2491
▁honeymoon	-10.2491
▁sarah	-10.2491
▁sheep	-10.2491
▁estimate	-10.2491
▁eternal	-10.2491
▁warrior	-10.2491
▁worm	-10.2491
▁personnel	-10.2491
▁joking	-10.2491
▁repair	-10.2491
▁text	-10.2491
▁scale	-10.2491
▁coughs	-10.2491
▁tank	-10.2491
▁glob	-10.2491
▁doris	-10.2491
▁marvelous	-10.2491
▁mysterious	-10.2491
▁ribs	-10.2491
▁network	-10.2492
▁pumpkin	-10.2492
while	-10.2492
▁alternative	-10.2492
▁electron	-10.2492
▁lockwood	-10.2492
▁impressive	-10.2493
▁senator	-10.2493
kin	-10.2493
▁stopping	-10.2493
▁title	-10.2494
▁evan	-10.2494
▁thou	-10.2494
▁herr	-10.2494
ties	-10.2494
▁threat	-10.2495
▁tuck	-10.2495
▁grownup	-10.2495
▁wore	-10.2495
▁slight	-10.2495
▁favour	-10.2495
▁omice	-10.2495
▁panic	-10.2495
▁delay	-10.2496
▁winning	-10.2497
▁plate	-10.2498
▁basement	-10.2498
▁lordship	-10.2499
▁tia	-10.2499
▁halfway	-10.2501
▁intern	-10.2501
▁mice	-10.2501
▁piss	-10.2502
▁friendship	-10.2502
hh	-10.2504
▁flies	-10.2504
▁tax	-10.2506
▁frightened	-10.251
▁gray	-10.2512
▁stayed	-10.2517
doo	-10.2519
ably	-10.252
▁beeping	-10.252
▁armor	-10.2521
▁straining	-10.2521
▁spite	-10.2522
▁corn	-10.2523
▁healthy	-10.2525
▁parties	-10.2535
▁lifetime	-10.2538
▁adopted	-10.2539
▁engines	-10.2541
▁thrown	-10.2545
▁patch	-10.2548
▁snarls	-10.2553
▁mandy	-10.2577
cat	-10.2585
▁collecting	-10.2593
▁jar	-10.2595
▁fore	-10.2596
▁considered	-10.2599
▁arrested	-10.2605
▁fuss	-10.2612
▁spic	-10.2614
log	-10.2636
▁accepted	-10.2637
▁bl	-10.2645
▁bend	-10.2648
▁par	-10.2654
▁knees	-10.2658
▁enjoyed	-10.2658
lousy	-10.2686
▁terms	-10.269
▁wipe	-10.2697
▁ty	-10.2709
▁protecting	-10.2735
▁fr	-10.2738
▁ab	-10.2739
▁flora	-10.2741
rid	-10.275
▁hearts	-10.2751
▁ohhh	-10.2751
▁nights	-10.2763
▁searching	-10.2765
▁wr	-10.277
all	-10.2771
▁holes	-10.2776
▁shows	-10.2782
▁dancer	-10.2785
▁hills	-10.2786
▁odds	-10.28
▁details	-10.2818
ck	-10.2825
▁mc	-10.2832
▁sounded	-10.2836
rum	-10.2848
▁sisters	-10.2875
▁planes	-10.2926
▁issue	-10.2926
▁bot	-10.2939
ose	-10.2943
▁costume	-10.2954
▁member	-10.2954
▁pickett	-10.2956
▁orphan	-10.2956
▁balloon	-10.2956
▁not	-10.2957
▁damned	-10.2972
fe	-10.2975
▁reports	-10.2981
▁stare	-10.3
rate	-10.3031
▁leads	-10.3035
zy	-10.3061
▁il	-10.3081
▁millions	-10.3081
essie	-10.3082
▁fighters	-10.3083
▁mile	-10.3096
pping	-10.3128
▁hunt	-10.3128
▁lean	-10.3151
▁twist	-10.3162
▁towns	-10.3165
▁admire	-10.3166
▁gain	-10.3176
▁behave	-10.3176
▁dirt	-10.3185
coco	-10.3186
▁emotional	-10.319
▁mothers	-10.3194
▁moral	-10.3198
▁commit	-10.32
▁mmhm	-10.3201
▁bull	-10.3201
▁effect	-10.3204
▁revolution	-10.3204
▁troll	-10.3205
▁australia	-10.3206
▁beatrice	-10.3206
▁calculus	-10.3206
▁deploy	-10.3206
▁effort	-10.3206
▁evidence	-10.3206
▁filthy	-10.3206
▁gabriel	-10.3206
▁gloria	-10.3206
▁goomgoom	-10.3206
▁gracias	-10.3206
▁hollywood	-10.3206
▁insult	-10.3206
▁intelligent	-10.3206
▁investigation	-10.3206
▁jersey	-10.3206
▁maintain	-10.3206
▁mathesar	-10.3206
▁philadelphia	-10.3206
▁restaurant	-10.3206
▁shakespeare	-10.3206
▁stella	-10.3206
▁struck	-10.3206
▁sunrise	-10.3206
▁sunshine	-10.3206
▁technical	-10.3206
▁thief	-10.3206
▁thompson	-10.3206
▁werthan	-10.3206
▁advise	-10.3206
▁changing	-10.3206
▁commie	-10.3206
▁garcin	-10.3206
▁identity	-10.3206
▁pellet	-10.3206
▁period	-10.3206
▁ellie	-10.3206
▁magnificent	-10.3206
▁myra	-10.3206
▁squad	-10.3206
▁stretch	-10.3206
▁imperial	-10.3206
▁reveal	-10.3206
▁scott	-10.3206
▁drove	-10.3206
▁narrat	-10.3206
▁torture	-10.3206
▁sophie	-10.3206
▁desire	-10.3206
▁mumbling	-10.3206
▁patrick	-10.3206
▁meteorite	-10.3206
▁neighborhood	-10.3206
▁riddle	-10.3206
▁trash	-10.3206
▁sniffles	-10.3206
▁await	-10.3206
▁turkey	-10.3206
▁greetings	-10.3206
▁festival	-10.3206
▁bette	-10.3206
▁owlets	-10.3207
▁audition	-10.3207
▁chapter	-10.3207
▁kemo	-10.3207
▁noble	-10.3207
▁dino	-10.3208
▁appearance	-10.3208
▁foul	-10.3208
▁mental	-10.3208
▁decent	-10.3209
▁neat	-10.3209
▁panel	-10.3209
▁sentimental	-10.3209
▁package	-10.321
▁humor	-10.3211
▁sphere	-10.3211
▁elves	-10.3212
▁practically	-10.3213
▁whore	-10.3213
▁masha	-10.3214
▁strikes	-10.3214
▁giants	-10.3214
▁ember	-10.3215
▁spotted	-10.3215
▁muffled	-10.3215
▁african	-10.3216
▁aim	-10.3216
ough	-10.3217
▁perry	-10.3218
▁drawn	-10.322
▁lacey	-10.322
▁cameron	-10.3221
▁mum	-10.3221
▁fleet	-10.3221
▁tune	-10.3223
▁setting	-10.3224
▁chanting	-10.3225
▁pulse	-10.3225
ons	-10.3227
▁marie	-10.3232
▁historical	-10.3232
▁creepy	-10.3237
▁pole	-10.3238
▁au	-10.3238
▁this	-10.324
▁mistaken	-10.324
▁rage	-10.3242
▁songs	-10.3245
ese	-10.3249
▁perfection	-10.3249
▁frell	-10.3254
▁hint	-10.3259
▁howdy	-10.3263
▁blades	-10.3272
gram	-10.3276
▁snape	-10.3278
▁lass	-10.3281
▁cal	-10.3283
hoo	-10.3309
▁teams	-10.3315
▁frankly	-10.3316
▁gar	-10.3316
ets	-10.3316
▁suckers	-10.3317
▁murdered	-10.3319
▁tut	-10.3325
▁fate	-10.3326
▁pete	-10.3366
▁messed	-10.3388
▁pine	-10.3399
▁cooking	-10.3401
▁tu	-10.3404
▁fields	-10.3416
▁highly	-10.3429
▁rolling	-10.3431
▁ogres	-10.3434
▁offering	-10.3437
▁frog	-10.344
▁neighbors	-10.3443
fer	-10.3451
▁enjoying	-10.3454
cal	-10.3456
▁tricks	-10.3465
▁tin	-10.3479
▁cora	-10.349
itation	-10.3493
▁notes	-10.351
▁houses	-10.3513
your	-10.3516
ple	-10.3526
▁u	-10.3557
▁sports	-10.3573
▁ram	-10.3574
▁oneil	-10.3578
▁li	-10.3595
▁clowns	-10.3615
eater	-10.3636
bit	-10.3665
▁flag	-10.3679
ice	-10.3679
▁uncles	-10.3692
▁require	-10.3695
▁declare	-10.3699
▁sue	-10.3708
▁hum	-10.3709
▁article	-10.3719
▁squeal	-10.3719
▁yard	-10.3719
▁spark	-10.3724
▁neighbor	-10.3724
▁bullet	-10.3725
▁pearl	-10.3726
igh	-10.373
▁bobbles	-10.3752
▁newspapers	-10.377
▁ev	-10.3824
▁scar	-10.3827
▁carol	-10.3849
pic	-10.3853
▁gall	-10.3856
rie	-10.3874
au	-10.3886
▁sweat	-10.3888
▁tim	-10.3888
▁awake	-10.3907
▁waited	-10.3909
▁weep	-10.3916
▁wast	-10.3916
▁adventures	-10.392
▁develop	-10.3928
▁commission	-10.3929
▁cancel	-10.393
▁wound	-10.3934
▁grant	-10.3935
▁bump	-10.3935
▁mix	-10.3935
▁ration	-10.3935
▁silen	-10.3942
field	-10.3944
▁trace	-10.3945
girl	-10.3949
usual	-10.395
▁counter	-10.3954
▁absolute	-10.3958
▁app	-10.3959
▁chest	-10.3963
▁olive	-10.3965
▁heave	-10.3967
▁flame	-10.3969
▁distract	-10.3971
▁confess	-10.3971
▁civil	-10.3973
away	-10.3974
▁cigar	-10.3975
▁allomere	-10.3975
▁annette	-10.3975
▁avenue	-10.3975
▁benja	-10.3975
▁blanket	-10.3975
▁bravo	-10.3975
▁burden	-10.3975
▁ceremony	-10.3975
▁clamoring	-10.3975
▁disgrace	-10.3975
▁dynamite	-10.3975
▁earthquake	-10.3975
▁editor	-10.3975
▁ercole	-10.3975
▁ernesto	-10.3975
▁europe	-10.3975
▁evacuate	-10.3975
▁fortunate	-10.3975
▁frankenstein	-10.3975
▁gazzo	-10.3975
▁gylfie	-10.3975
▁hermione	-10.3975
▁jennifer	-10.3975
▁kidnapping	-10.3975
▁lunatic	-10.3975
▁medicine	-10.3975
▁messenger	-10.3975
▁munchausen	-10.3975
▁orchestra	-10.3975
▁patrol	-10.3975
▁platform	-10.3975
▁portuguese	-10.3975
▁possibility	-10.3975
▁preparing	-10.3975
▁principal	-10.3975
▁pterodactyl	-10.3975
▁reverend	-10.3975
▁santiago	-10.3975
▁slept	-10.3975
▁southpaw	-10.3975
▁stream	-10.3975
▁stubborn	-10.3975
▁suitcase	-10.3975
▁teschmacher	-10.3975
▁traffic	-10.3975
▁tremendous	-10.3975
▁uglydoll	-10.3975
▁ultimate	-10.3975
▁unexpected	-10.3975
▁university	-10.3975
▁volpe	-10.3975
▁wednesday	-10.3975
▁wickles	-10.3975
▁winslow	-10.3975
▁withdraw	-10.3975
▁farewell	-10.3975
▁jeez	-10.3975
▁outmode	-10.3975
▁wicked	-10.3975
▁idella	-10.3975
ological	-10.3975
▁hulie	-10.3975
▁salad	-10.3975
▁impact	-10.3975
▁error	-10.3975
▁transmission	-10.3975
▁dumpster	-10.3975
▁betray	-10.3975
▁election	-10.3975
▁pond	-10.3975
▁pregnant	-10.3975
▁basis	-10.3975
▁halt	-10.3975
▁spike	-10.3975
▁bagshaw	-10.3975
▁fender	-10.3975
▁frame	-10.3975
▁primary	-10.3975
▁accent	-10.3975
▁humble	-10.3975
▁jabba	-10.3975
▁brewery	-10.3975
▁pathetic	-10.3975
▁camelot	-10.3975
▁herd	-10.3975
▁jayson	-10.3975
▁pirate	-10.3976
▁uncomfortable	-10.3976
▁stamp	-10.3976
▁rosa	-10.3976
▁marble	-10.3976
▁meow	-10.3976
▁physical	-10.3976
▁yankee	-10.3976
▁fold	-10.3976
▁backwards	-10.3977
▁patty	-10.3977
▁granddad	-10.3977
▁electricity	-10.3977
▁echo	-10.3977
▁affection	-10.3977
▁combination	-10.3978
▁bounty	-10.3978
zio	-10.3978
▁ellison	-10.3978
▁bodies	-10.3978
▁fever	-10.3978
▁bobby	-10.3978
▁burst	-10.3978
▁grandpa	-10.3978
▁porch	-10.3978
▁stuart	-10.3979
▁bock	-10.3979
▁loop	-10.398
kind	-10.398
▁roommate	-10.398
▁melman	-10.3981
▁mock	-10.3981
▁habit	-10.3981
▁gettys	-10.3983
▁agh	-10.3984
▁currently	-10.3984
▁krypton	-10.3985
▁applauding	-10.3986
▁los	-10.3987
▁heartbeat	-10.3988
▁russian	-10.3989
▁anne	-10.399
▁ko	-10.399
▁sack	-10.3991
▁delighted	-10.3993
▁bald	-10.3993
▁ruby	-10.3995
▁sweetness	-10.3996
▁jab	-10.3996
▁invented	-10.3997
▁rot	-10.3998
▁comin	-10.4001
▁abandoned	-10.4003
▁blaring	-10.401
▁payment	-10.4011
▁goodnight	-10.4013
▁fury	-10.4013
▁hopeless	-10.4018
▁motor	-10.4018
▁aye	-10.4032
▁settled	-10.4036
▁hunting	-10.4037
▁mustnt	-10.4039
▁oughta	-10.4041
▁auto	-10.4042
▁suffering	-10.4056
▁goal	-10.4056
got	-10.4061
gen	-10.4061
▁promises	-10.4064
▁badge	-10.4064
▁chewing	-10.407
▁radioactiv	-10.407
▁robe	-10.4075
▁sneaking	-10.4079
▁whoops	-10.4083
▁tong	-10.4086
▁vegetables	-10.4087
▁delivered	-10.4088
▁cla	-10.4105
▁studying	-10.4107
▁greatgreatgrand	-10.4113
die	-10.4127
▁joint	-10.4151
▁toes	-10.4164
▁documents	-10.417
▁reached	-10.4186
ified	-10.4186
▁clouds	-10.419
▁shadows	-10.419
▁expos	-10.4191
▁somebodys	-10.4197
▁pushed	-10.4211
▁doubts	-10.4236
▁issues	-10.4253
itat	-10.4272
▁blowing	-10.4277
▁begins	-10.4278
▁dot	-10.4282
▁shave	-10.4292
room	-10.4295
▁dolls	-10.4304
day	-10.432
▁ana	-10.4325
▁plays	-10.4344
▁stones	-10.4386
tto	-10.4397
▁gin	-10.4405
▁am	-10.4431
ux	-10.4448
▁cab	-10.4515
pi	-10.4537
▁scare	-10.454
▁touching	-10.4542
▁scientist	-10.4552
▁string	-10.456
▁citizen	-10.4561
▁folk	-10.4564
▁term	-10.4567
▁seats	-10.4567
wood	-10.4572
▁wrap	-10.4576
gh	-10.4576
▁whip	-10.4579
▁rub	-10.46
▁wished	-10.4614
▁chat	-10.4614
▁manner	-10.4624
▁dan	-10.4635
▁moms	-10.4639
und	-10.4657
▁ri	-10.4661
▁del	-10.4685
▁rob	-10.4692
▁ke	-10.4699
▁shove	-10.4701
ute	-10.4703
ff	-10.4706
▁ali	-10.4714
▁jam	-10.4735
▁boot	-10.4743
▁lame	-10.4751
▁photograph	-10.4751
▁fle	-10.4754
▁pour	-10.4755
▁smash	-10.4764
▁inform	-10.4764
▁hon	-10.4766
▁chi	-10.4773
light	-10.4776
power	-10.4776
▁include	-10.4779
▁describe	-10.4779
▁mode	-10.4779
▁doom	-10.4781
▁what	-10.4782
▁nick	-10.4789
▁unfortunate	-10.4791
▁trans	-10.4791
▁stead	-10.4797
▁plot	-10.4807
▁meteor	-10.4808
▁assault	-10.4808
▁concept	-10.4808
▁disagree	-10.4808
▁intercept	-10.4808
▁triumph	-10.4808
▁academy	-10.4808
▁agnes	-10.4808
▁awkward	-10.4808
▁bargain	-10.4808
▁branson	-10.4808
▁broccoli	-10.4808
▁butkus	-10.4808
▁chemist	-10.4808
▁chorus	-10.4808
▁chronicle	-10.4808
▁ciccio	-10.4808
▁cigarette	-10.4808
▁collider	-10.4808
▁complicated	-10.4808
▁creative	-10.4808
▁elbow	-10.4808
▁elevate	-10.4808
▁explosiveskull	-10.4808
▁fantasy	-10.4808
▁fiji	-10.4808
▁froze	-10.4808
▁gizzard	-10.4808
▁grandfather	-10.4808
▁grumble	-10.4808
▁gunnison	-10.4808
▁highbury	-10.4808
▁introduction	-10.4808
▁kassar	-10.4808
▁lalalala	-10.4808
▁laundry	-10.4808
▁mexico	-10.4808
▁milord	-10.4808
▁molesley	-10.4808
▁nephew	-10.4808
▁pankot	-10.4808
▁peculiar	-10.4808
▁praise	-10.4808
▁regiment	-10.4808
▁rematch	-10.4808
▁screen	-10.4808
▁simpkins	-10.4808
▁splendid	-10.4808
▁strict	-10.4808
▁struggle	-10.4808
▁sultan	-10.4808
▁swamp	-10.4808
▁thrust	-10.4808
▁typical	-10.4808
▁widow	-10.4808
▁worship	-10.4808
▁alpha	-10.4808
▁anytime	-10.4808
▁chef	-10.4808
▁illegal	-10.4808
▁mumbles	-10.4808
▁permit	-10.4808
▁shaking	-10.4808
▁steak	-10.4808
▁supply	-10.4808
▁unique	-10.4808
▁wisdom	-10.4808
▁hustle	-10.4808
▁jaime	-10.4808
▁vanished	-10.4808
▁unreal	-10.4808
▁email	-10.4808
▁linda	-10.4808
▁patroni	-10.4808
▁headquarters	-10.4808
▁bliss	-10.4808
▁herb	-10.4808
▁rogue	-10.4808
▁ashford	-10.4808
▁thread	-10.4808
▁vain	-10.4808
▁astrid	-10.4808
▁lyze	-10.4808
▁basketball	-10.4808
▁yoyo	-10.4808
▁smack	-10.4808
▁angle	-10.4808
▁crust	-10.4808
▁exchange	-10.4808
▁culture	-10.4808
▁skate	-10.4809
▁plug	-10.4809
▁kryptonite	-10.4809
▁romantic	-10.4809
▁shark	-10.4809
▁navy	-10.4809
▁aaron	-10.4809
▁whiskers	-10.4809
▁redmond	-10.4809
▁utter	-10.4809
▁romance	-10.4809
▁western	-10.4809
▁reverse	-10.4809
▁conduct	-10.4809
▁slipped	-10.481
▁improvement	-10.481
▁leak	-10.481
▁online	-10.481
▁reaction	-10.481
▁assistant	-10.481
▁appropriate	-10.481
▁congressman	-10.481
▁heth	-10.481
▁legal	-10.4811
▁hush	-10.4811
▁scent	-10.4811
▁authority	-10.4811
▁sona	-10.4811
▁hunh	-10.4811
▁whatre	-10.4812
▁column	-10.4812
▁barron	-10.4812
five	-10.4812
▁aside	-10.4813
▁reactor	-10.4813
▁shatter	-10.4813
▁owned	-10.4814
▁amor	-10.4814
▁doggy	-10.4814
▁laser	-10.4814
▁hopefully	-10.4815
▁centre	-10.4816
▁til	-10.4816
▁weakness	-10.4816
▁tur	-10.4816
▁robbery	-10.4816
▁thirsty	-10.4816
▁passage	-10.4817
▁whatll	-10.4817
▁projector	-10.4817
augh	-10.4819
▁boiler	-10.482
▁influence	-10.482
▁rendezvous	-10.4821
▁fulfill	-10.4824
▁yearold	-10.4824
▁style	-10.4825
▁related	-10.4826
▁rin	-10.4826
▁tooth	-10.4826
▁preacher	-10.4828
▁mamma	-10.4828
▁receive	-10.4829
▁poll	-10.483
▁sweaty	-10.4831
▁advanced	-10.4834
▁convinced	-10.4834
▁whooping	-10.4835
▁when	-10.4837
▁jon	-10.4842
▁confirmed	-10.4843
▁designed	-10.4843
▁whale	-10.4844
▁removed	-10.4845
▁bucket	-10.4846
▁lamp	-10.4848
▁finn	-10.485
▁depend	-10.485
▁particularly	-10.4851
row	-10.4851
▁rank	-10.4852
▁bitter	-10.4854
▁director	-10.4856
▁val	-10.4866
nix	-10.4868
▁classes	-10.4872
▁sweater	-10.488
▁refused	-10.4882
▁exp	-10.4885
▁intruders	-10.4887
▁cheating	-10.4891
▁caf	-10.4894
▁movement	-10.4894
▁roaring	-10.49
burg	-10.4901
▁dam	-10.4916
▁warned	-10.4924
▁poets	-10.4939
▁ideal	-10.4946
▁scu	-10.4951
▁jews	-10.4954
▁shorty	-10.4954
▁county	-10.4961
▁tomorrows	-10.4967
gue	-10.4978
▁rooms	-10.498
▁feeding	-10.4984
▁sale	-10.4987
▁player	-10.4991
▁treating	-10.4994
▁flipp	-10.4994
▁nu	-10.4997
▁townie	-10.4997
▁rumors	-10.4998
▁shouts	-10.4999
▁archer	-10.5003
▁packed	-10.5006
▁offered	-10.5006
▁aliens	-10.5021
▁believed	-10.5037
▁suits	-10.504
▁turks	-10.5043
▁becomes	-10.5062
cha	-10.5069
▁sparks	-10.5088
▁bears	-10.5092
▁tracking	-10.5095
▁kinds	-10.5096
▁cleaned	-10.5099
▁members	-10.5111
▁balloons	-10.5111
▁dressing	-10.5123
▁squ	-10.5138
▁medi	-10.5153
▁reporting	-10.5164
▁pushing	-10.5164
▁younger	-10.5172
▁players	-10.5187
▁eg	-10.5196
▁appears	-10.5203
hal	-10.5213
ev	-10.5214
▁attacked	-10.5216
ace	-10.5218
▁bats	-10.5225
car	-10.5225
▁feelin	-10.5245
▁whistles	-10.5247
▁cape	-10.5259
▁bastards	-10.527
▁runs	-10.5271
▁hunters	-10.5299
elle	-10.5312
mate	-10.5319
▁mortal	-10.5367
kung	-10.5384
berry	-10.5388
nny	-10.5391
▁bea	-10.5407
▁grunt	-10.5424
▁devils	-10.5431
▁gl	-10.544
ech	-10.5442
▁rap	-10.5461
▁adult	-10.5463
▁crystal	-10.5463
▁victim	-10.5465
▁cloud	-10.5467
▁shadow	-10.5467
▁mat	-10.5467
▁turk	-10.5469
ina	-10.5476
▁nut	-10.548
▁chain	-10.5489
▁nicely	-10.5497
ban	-10.55
lon	-10.5512
ado	-10.5518
▁spirits	-10.5521
nde	-10.5545
▁arabia	-10.5547
▁cath	-10.5552
tes	-10.5553
▁decisions	-10.557
▁hundreds	-10.557
gon	-10.5576
▁peas	-10.5586
▁dru	-10.5589
▁tent	-10.5591
▁hurting	-10.5606
▁childrens	-10.5614
ture	-10.5635
▁dealing	-10.5643
▁forces	-10.566
▁possess	-10.5662
▁invest	-10.5669
gan	-10.5687
▁license	-10.5687
▁divorce	-10.5688
▁advance	-10.5689
▁convince	-10.5689
woman	-10.5691
weight	-10.5694
▁engage	-10.5697
job	-10.5699
pack	-10.57
box	-10.5701
▁electric	-10.5708
▁brat	-10.571
▁aa	-10.5713
▁fashion	-10.5714
▁congress	-10.5715
▁egypt	-10.5716
▁mash	-10.5717
▁thud	-10.5717
▁forbid	-10.5717
▁misunderstand	-10.5717
▁similar	-10.5717
▁adorable	-10.5717
▁aircraft	-10.5717
▁altitude	-10.5717
▁ambulance	-10.5717
▁amount	-10.5717
▁anxious	-10.5717
▁benefit	-10.5717
▁cairo	-10.5717
▁calcifer	-10.5717
▁candlewick	-10.5717
▁carnival	-10.5717
▁chanice	-10.5717
▁coincidence	-10.5717
▁communicate	-10.5717
▁companies	-10.5717
▁constitution	-10.5717
▁deflect	-10.5717
▁display	-10.5717
▁dozen	-10.5717
▁einstein	-10.5717
▁elected	-10.5717
▁executive	-10.5717
▁gibberish	-10.5717
▁graduate	-10.5717
▁hartfield	-10.5717
▁hawaii	-10.5717
▁intelligence	-10.5717
▁jernigan	-10.5717
▁majesties	-10.5717
▁mariejosephe	-10.5717
▁marshall	-10.5717
▁mcallister	-10.5717
▁miraculous	-10.5717
▁mortgage	-10.5717
▁muscle	-10.5717
▁mustache	-10.5717
▁mutual	-10.5717
▁obiwan	-10.5717
▁password	-10.5717
▁pennsylvania	-10.5717
▁picnic	-10.5717
▁playground	-10.5717
▁powder	-10.5717
▁previous	-10.5717
▁pursuit	-10.5717
▁religion	-10.5717
▁renata	-10.5717
▁resident	-10.5717
▁resume	-10.5717
▁retreat	-10.5717
▁satisfied	-10.5717
▁shrine	-10.5717
▁smeerensburg	-10.5717
▁souvenir	-10.5717
▁squirrel	-10.5717
▁swanson	-10.5717
▁terrified	-10.5717
▁thursday	-10.5717
▁tournament	-10.5717
▁unbreakable	-10.5717
▁valuable	-10.5717
▁virginia	-10.5717
▁vivian	-10.5717
▁wyler	-10.5717
▁xanadu	-10.5717
▁attached	-10.5717
▁coffin	-10.5717
▁fergus	-10.5717
▁importance	-10.5717
▁instant	-10.5717
▁straw	-10.5717
▁conquer	-10.5717
▁doorbell	-10.5717
▁mhm	-10.5717
▁modern	-10.5717
▁crunch	-10.5717
▁poker	-10.5717
▁tiger	-10.5717
▁acquaintance	-10.5717
▁superior	-10.5717
▁yawp	-10.5717
▁hamster	-10.5717
▁knot	-10.5717
▁tempo	-10.5717
▁locksley	-10.5717
▁larry	-10.5717
▁murray	-10.5717
▁bolt	-10.5717
▁vocalizing	-10.5717
▁saloon	-10.5717
▁lrish	-10.5717
▁administration	-10.5717
▁colour	-10.5717
▁plague	-10.5717
▁dimple	-10.5717
▁lizzy	-10.5717
▁drill	-10.5718
▁emily	-10.5718
▁cliff	-10.5718
▁lemonade	-10.5718
▁soc	-10.5718
▁scoobydoo	-10.5718
▁bamba	-10.5718
▁peacekeeper	-10.5718
▁wives	-10.5718
▁autograph	-10.5718
through	-10.5718
▁jewish	-10.5718
▁bodyguard	-10.5718
▁crawl	-10.5718
▁uglyville	-10.5718
▁wingfield	-10.5718
▁punk	-10.5719
▁arrow	-10.5719
▁discipline	-10.5719
▁garage	-10.5719
▁flux	-10.5719
▁heist	-10.5719
▁soda	-10.5719
▁activity	-10.5719
▁ofthe	-10.5719
▁chopper	-10.5719
▁species	-10.5719
▁convention	-10.572
▁canine	-10.572
▁puss	-10.5721
▁begun	-10.5721
▁sheet	-10.5721
▁wax	-10.5721
▁eventually	-10.5722
▁generation	-10.5722
▁dishes	-10.5722
▁brick	-10.5722
▁gig	-10.5722
▁footmen	-10.5722
▁announcement	-10.5723
▁faithful	-10.5723
imelda	-10.5724
▁beings	-10.5724
▁strip	-10.5724
▁broom	-10.5725
▁carpe	-10.5725
▁tech	-10.5725
▁prime	-10.5726
▁driveway	-10.5726
▁pointing	-10.5728
▁agreement	-10.5728
▁peril	-10.5728
▁confused	-10.573
▁minor	-10.573
▁frankie	-10.573
▁suggestion	-10.5731
▁fraud	-10.5731
▁mobile	-10.5732
▁katie	-10.5732
▁highway	-10.5733
▁smit	-10.5734
▁headline	-10.5735
▁tis	-10.5736
ford	-10.5736
▁pile	-10.5737
▁soak	-10.5737
▁amuse	-10.5738
▁sailor	-10.5738
▁coco	-10.5738
▁complaint	-10.5739
▁impress	-10.5745
▁divorced	-10.5746
▁cried	-10.5748
▁bleeding	-10.5748
▁mall	-10.5748
▁fond	-10.5751
▁sore	-10.5752
▁properly	-10.5754
▁sixth	-10.5756
▁wire	-10.5756
▁thee	-10.5759
▁directly	-10.5759
▁flea	-10.5763
▁blown	-10.5764
▁unable	-10.5768
▁pm	-10.5768
▁disguise	-10.5769
▁root	-10.5773
▁pastor	-10.5775
▁oww	-10.5777
▁kisses	-10.5784
▁deny	-10.5789
▁released	-10.579
▁former	-10.5794
▁scooby	-10.5795
▁viva	-10.5799
▁kindness	-10.5802
▁rescued	-10.5807
▁puzzle	-10.5814
▁ranger	-10.5819
▁rad	-10.582
▁gathered	-10.5821
▁hardest	-10.5821
▁hire	-10.5825
▁blasted	-10.5828
▁normally	-10.5832
▁based	-10.5834
▁jr	-10.5837
▁tub	-10.584
eyed	-10.584
▁records	-10.5841
cap	-10.5845
▁served	-10.5845
▁greatness	-10.5857
▁realized	-10.5877
▁fades	-10.5877
▁erase	-10.5885
▁painting	-10.5887
▁worthy	-10.5894
▁socks	-10.5902
▁capt	-10.5903
▁quietly	-10.5909
▁bells	-10.5933
▁units	-10.5936
fire	-10.594
▁sac	-10.5946
▁disco	-10.596
ake	-10.5962
▁protected	-10.5968
▁idiots	-10.597
▁windows	-10.597
▁placed	-10.597
▁actions	-10.597
▁victims	-10.5976
▁differently	-10.5996
▁and	-10.6018
▁nana	-10.6023
▁fightin	-10.6036
oid	-10.6037
▁costumes	-10.6051
ander	-10.6053
ule	-10.6072
▁chambers	-10.6078
▁beers	-10.6079
▁chu	-10.6086
▁kissed	-10.6092
ya	-10.6092
▁destroying	-10.6093
▁spending	-10.611
▁scores	-10.6111
▁ned	-10.6123
▁pipes	-10.6126
▁hai	-10.6128
▁ooo	-10.6142
▁ur	-10.6172
cho	-10.6176
▁demands	-10.6176
▁formal	-10.6189
▁heffalumps	-10.6201
▁sol	-10.6208
▁za	-10.6224
▁snakes	-10.6251
▁tiggers	-10.6251
▁af	-10.6252
▁events	-10.6258
nder	-10.6259
▁carbon	-10.6268
▁marrying	-10.627
tit	-10.6285
▁stinks	-10.6327
ify	-10.6339
▁devot	-10.634
▁answering	-10.6354
ual	-10.6378
▁remembered	-10.638
▁tit	-10.6384
▁pas	-10.6387
uld	-10.6395
dad	-10.6397
▁whisper	-10.6412
▁groan	-10.6419
▁chick	-10.6454
▁knee	-10.6462
▁goblin	-10.6463
▁gi	-10.6463
▁document	-10.6465
▁bid	-10.6467
▁alien	-10.6474
▁chuckle	-10.6477
▁skill	-10.6479
▁fog	-10.6489
▁gut	-10.6491
▁opera	-10.6505
▁design	-10.6515
thing	-10.6516
▁reli	-10.653
▁scrap	-10.6536
▁bri	-10.6567
arious	-10.6599
▁lover	-10.6608
▁girlfriends	-10.6609
▁lip	-10.6609
▁col	-10.6626
▁artist	-10.6635
night	-10.6636
▁cam	-10.6638
▁costs	-10.6642
ocus	-10.6643
▁signor	-10.6657
▁glow	-10.6658
▁confirm	-10.6666
▁disappoint	-10.6676
▁ski	-10.6679
▁crow	-10.6684
book	-10.6687
was	-10.6688
maker	-10.6689
izing	-10.6701
▁recent	-10.6702
▁hung	-10.6705
▁spy	-10.6705
▁produce	-10.6706
looker	-10.6708
▁slap	-10.6709
▁germ	-10.6709
▁lands	-10.6709
▁counsel	-10.6712
▁reject	-10.6713
▁mornin	-10.6714
▁fools	-10.6715
▁terror	-10.6715
▁lemon	-10.6717
▁relation	-10.6717
▁allenby	-10.6717
▁approval	-10.6717
▁assassin	-10.6717
▁asteroid	-10.6717
▁autopilot	-10.6717
▁average	-10.6717
▁behalf	-10.6717
▁breeze	-10.6717
▁butler	-10.6717
▁dedicated	-10.6717
▁destruction	-10.6717
▁entitled	-10.6717
▁essential	-10.6717
▁excitement	-10.6717
▁explanation	-10.6717
▁fifteen	-10.6717
▁fifth	-10.6717
▁financial	-10.6717
▁foofie	-10.6717
▁fridge	-10.6717
▁fundamental	-10.6717
▁gallahxar	-10.6717
▁gauntlet	-10.6717
▁geneva	-10.6717
▁godmother	-10.6717
▁halloween	-10.6717
▁hancock	-10.6717
▁inaudible	-10.6717
▁instance	-10.6717
▁laszlo	-10.6717
▁length	-10.6717
▁leviosa	-10.6717
▁llorona	-10.6717
▁maurice	-10.6717
▁mayfleet	-10.6717
▁miyamizu	-10.6717
▁muertos	-10.6717
▁oldfashioned	-10.6717
▁pawpaws	-10.6717
▁paxian	-10.6717
▁podesta	-10.6717
▁portorosso	-10.6717
▁prevent	-10.6717
▁procedure	-10.6717
▁profit	-10.6717
▁raspberry	-10.6717
▁rasputin	-10.6717
▁recruit	-10.6717
▁rhyme	-10.6717
▁scoop	-10.6717
▁shrubbery	-10.6717
▁slide	-10.6717
▁slytherin	-10.6717
▁sobbing	-10.6717
▁spectrum	-10.6717
▁stiltskin	-10.6717
▁struggling	-10.6717
▁succeed	-10.6717
▁suicide	-10.6717
▁symbol	-10.6717
▁thanksgiving	-10.6717
▁trunk	-10.6717
▁vehicle	-10.6717
▁vessel	-10.6717
▁violence	-10.6717
▁voldemort	-10.6717
▁wealth	-10.6717
▁brief	-10.6717
▁connie	-10.6717
▁edith	-10.6717
▁jefferies	-10.6717
▁legacy	-10.6717
▁libby	-10.6717
▁orale	-10.6717
▁pencil	-10.6717
▁pledge	-10.6717
▁premier	-10.6717
▁remote	-10.6717
▁snack	-10.6717
▁xray	-10.6717
▁buried	-10.6717
▁craft	-10.6717
▁film	-10.6717
▁hyah	-10.6717
▁retard	-10.6717
▁serving	-10.6717
▁spook	-10.6717
▁wailing	-10.6717
▁infant	-10.6717
▁quarrel	-10.6717
▁chunk	-10.6717
▁sorrow	-10.6717
▁candle	-10.6717
▁consent	-10.6717
▁muttering	-10.6717
▁multiple	-10.6717
▁kingpin	-10.6717
▁maniac	-10.6717
▁interfere	-10.6717
▁blonde	-10.6717
▁dropping	-10.6718
▁unger	-10.6718
▁beachport	-10.6718
▁mcq	-10.6718
▁novel	-10.6718
▁anger	-10.6718
▁neville	-10.6718
▁gettysburg	-10.6718
▁midnight	-10.6718
▁steer	-10.6718
▁absence	-10.6718
▁commandments	-10.6718
▁indicate	-10.6718
▁shiny	-10.6718
▁tyler	-10.6718
▁offend	-10.6718
▁celebration	-10.6718
▁chump	-10.6718
▁eddie	-10.6718
▁downtown	-10.6718
▁radiation	-10.6718
▁urgent	-10.6718
▁content	-10.6718
▁resistance	-10.6718
▁kong	-10.6718
▁grey	-10.6719
▁faint	-10.6719
▁shane	-10.6719
▁description	-10.6719
▁brand	-10.6719
▁stiff	-10.6719
▁megan	-10.6719
▁anti	-10.6719
▁element	-10.6719
▁oak	-10.672
▁resign	-10.672
▁sworn	-10.672
▁bold	-10.672
▁mold	-10.672
▁southern	-10.672
▁engagement	-10.672
▁jacobo	-10.672
▁development	-10.6721
▁massive	-10.6721
▁brandon	-10.6721
▁housekeeper	-10.6721
glove	-10.6721
▁betcha	-10.6721
▁slam	-10.6721
▁sample	-10.6721
▁possession	-10.6721
▁motion	-10.6722
▁hawkes	-10.6722
▁visitors	-10.6722
▁droid	-10.6722
▁alike	-10.6722
▁confession	-10.6722
▁barbara	-10.6722
▁indiana	-10.6722
▁stake	-10.6723
▁selfish	-10.6724
▁caveman	-10.6724
▁dried	-10.6724
▁sector	-10.6724
▁temper	-10.6725
▁alva	-10.6725
▁harv	-10.6726
▁vice	-10.6727
▁beam	-10.6727
▁peaceful	-10.6727
▁clearance	-10.6729
▁taxes	-10.6729
▁bait	-10.6729
▁product	-10.673
▁hideous	-10.6731
▁silent	-10.6732
▁fearless	-10.6733
▁vine	-10.6733
ummy	-10.6734
▁betty	-10.6735
▁programmed	-10.6737
▁inner	-10.6737
▁exhausted	-10.6737
▁cur	-10.6738
▁remains	-10.6738
▁bout	-10.6739
▁inventor	-10.674
▁alan	-10.674
▁captured	-10.674
▁rustling	-10.6741
▁wager	-10.6741
▁clap	-10.6741
▁dull	-10.6741
▁grid	-10.6743
▁maiden	-10.6744
▁trigger	-10.6744
▁officially	-10.6745
▁tada	-10.6745
▁lala	-10.6748
▁matches	-10.6748
▁dragging	-10.6749
▁reign	-10.6749
▁sang	-10.6749
▁passion	-10.675
▁sto	-10.6752
▁naked	-10.6754
▁drowned	-10.6755
▁billion	-10.6757
▁gay	-10.6762
▁required	-10.6763
▁arranged	-10.6764
▁fastest	-10.6766
▁mule	-10.6767
▁informed	-10.6769
▁foryou	-10.6769
▁oo	-10.6771
▁rear	-10.6771
▁lace	-10.6777
boy	-10.6778
▁factor	-10.6779
▁pl	-10.6788
ory	-10.6788
ora	-10.6791
▁horns	-10.6792
▁dies	-10.6795
iggly	-10.6795
▁awfully	-10.6796
▁lend	-10.68
▁lad	-10.68
▁maker	-10.6801
chi	-10.6803
rapping	-10.6806
▁shi	-10.6806
dog	-10.6809
▁circuits	-10.6813
▁tap	-10.6813
▁les	-10.6819
▁squeeze	-10.6819
▁od	-10.682
▁warmer	-10.684
▁emotions	-10.684
▁foundation	-10.6842
▁placement	-10.6845
▁painted	-10.6854
▁sup	-10.6854
▁prop	-10.6854
▁homeless	-10.6856
▁sailing	-10.6859
hen	-10.6866
▁skipp	-10.6891
▁miller	-10.6894
▁hack	-10.6894
▁fits	-10.6897
att	-10.6897
▁groups	-10.6901
▁psych	-10.6904
about	-10.6911
▁mop	-10.6912
▁coordinate	-10.6914
▁imagined	-10.6929
▁closet	-10.6932
▁figures	-10.6934
▁compliments	-10.6948
▁comic	-10.6967
tif	-10.6981
▁burning	-10.6982
▁if	-10.6997
▁der	-10.7013
▁computers	-10.7027
▁net	-10.703
▁strings	-10.7033
sday	-10.7034
use	-10.7035
rick	-10.7042
▁publish	-10.7048
▁packing	-10.7052
▁dep	-10.7053
▁requires	-10.7062
▁rounds	-10.7078
rous	-10.7087
▁engineer	-10.7098
▁accus	-10.7101
▁spots	-10.7103
▁queens	-10.7106
▁abs	-10.7108
▁rebels	-10.711
▁mona	-10.7116
▁criminals	-10.7116
▁he	-10.7116
▁dial	-10.7121
▁fed	-10.7126
▁sarge	-10.7145
▁dreamed	-10.7148
▁flyer	-10.7156
bar	-10.7157
ash	-10.7158
▁commanding	-10.7162
▁bam	-10.7177
tz	-10.7207
▁strangers	-10.7211
▁answered	-10.7226
▁goat	-10.7228
ano	-10.7235
▁dip	-10.724
▁celebrate	-10.7252
bel	-10.7268
▁unit	-10.7277
▁wh	-10.7278
▁traveler	-10.7281
▁hay	-10.7281
▁cells	-10.7284
▁interests	-10.7288
key	-10.7289
▁kissing	-10.7296
▁ages	-10.7308
▁rats	-10.7312
▁tales	-10.7315
▁pulling	-10.7317
▁dive	-10.7332
bling	-10.7363
▁radios	-10.7405
▁attacking	-10.7413
▁guessing	-10.7415
▁accuse	-10.7417
app	-10.7418
locka	-10.7425
▁cont	-10.7433
▁bottles	-10.7443
▁arch	-10.7447
▁ropes	-10.7447
▁scor	-10.7457
▁jerks	-10.7503
▁ranch	-10.7507
▁imagin	-10.7521
▁commands	-10.7524
▁shout	-10.7527
▁howl	-10.7527
▁cone	-10.7538
name	-10.7569
▁creak	-10.7569
▁nerve	-10.7571
▁sardine	-10.7572
▁studie	-10.7572
▁viking	-10.7574
wit	-10.7574
▁rumor	-10.7577
▁compliment	-10.7577
▁stack	-10.7588
▁liver	-10.7604
▁breathes	-10.7608
▁fri	-10.7613
▁belle	-10.7619
▁sola	-10.7644
▁toe	-10.7655
ara	-10.7656
▁immortal	-10.7669
▁flap	-10.7699
▁hut	-10.7709
▁rac	-10.7709
▁cue	-10.7722
▁drown	-10.7726
▁jan	-10.7734
▁complain	-10.7742
east	-10.7749
old	-10.7754
▁click	-10.7771
▁bal	-10.7771
▁scan	-10.7778
▁rust	-10.7779
▁positions	-10.7784
▁abandon	-10.7786
▁activate	-10.7798
▁approve	-10.7799
▁minist	-10.78
▁remove	-10.781
▁successful	-10.7816
q	-10.7822
▁affect	-10.7825
▁doug	-10.7827
▁daph	-10.7827
▁slaughter	-10.7828
▁underestimat	-10.7828
▁abbey	-10.7828
▁agency	-10.7828
▁ambition	-10.7828
▁annihilat	-10.7828
▁apologies	-10.7828
▁apprentice	-10.7828
▁arriving	-10.7828
▁beneath	-10.7828
▁bracelet	-10.7828
▁calrissian	-10.7828
▁calvin	-10.7828
▁cereal	-10.7828
▁chamaco	-10.7828
▁chittering	-10.7828
▁circus	-10.7828
▁conviction	-10.7828
▁escort	-10.7828
▁estonia	-10.7828
▁fountain	-10.7828
▁frequency	-10.7828
▁glorious	-10.7828
▁greedy	-10.7828
▁hamburger	-10.7828
▁hamegg	-10.7828
▁hamilton	-10.7828
▁harriman	-10.7828
▁hexham	-10.7828
▁incident	-10.7828
▁industries	-10.7828
▁invasion	-10.7828
▁knives	-10.7828
▁kosterman	-10.7828
▁lincoln	-10.7828
▁makunga	-10.7828
▁malfunction	-10.7828
▁mclaws	-10.7828
▁measure	-10.7828
▁mechanic	-10.7828
▁mistress	-10.7828
▁murdock	-10.7828
▁murney	-10.7828
▁musubi	-10.7828
▁okudera	-10.7828
▁overstreet	-10.7828
▁pepper	-10.7828
▁potential	-10.7828
▁premature	-10.7828
▁protocol	-10.7828
▁provision	-10.7828
▁quantonium	-10.7828
▁rainbow	-10.7828
▁ratchet	-10.7828
▁reelect	-10.7828
▁routine	-10.7828
▁rumpelstiltskin	-10.7828
▁scoundrel	-10.7828
▁shrimp	-10.7828
▁skull	-10.7828
▁spaghetti	-10.7828
▁survival	-10.7828
▁thirty	-10.7828
▁trixie	-10.7828
▁turgidson	-10.7828
▁underwear	-10.7828
▁unhappy	-10.7828
▁vegas	-10.7828
▁vicious	-10.7828
▁baku	-10.7828
▁crook	-10.7828
▁dignity	-10.7828
▁harold	-10.7828
▁morehouse	-10.7828
▁rattling	-10.7828
▁slick	-10.7828
▁smiling	-10.7828
▁spray	-10.7828
▁blush	-10.7828
▁collar	-10.7828
▁drank	-10.7828
▁kaiser	-10.7828
▁laredo	-10.7828
▁raft	-10.7828
▁scandal	-10.7828
▁irish	-10.7828
▁pipeworks	-10.7828
▁seattle	-10.7828
▁chimes	-10.7828
▁deraa	-10.7828
▁puppy	-10.7828
▁coolsville	-10.7828
▁preserv	-10.7828
▁prototype	-10.7828
▁scripture	-10.7828
▁turnip	-10.7828
▁bauer	-10.7828
▁coronation	-10.7828
▁role	-10.7828
▁japanese	-10.7828
▁headache	-10.7829
▁series	-10.7829
▁silk	-10.7829
▁trill	-10.7829
▁ricky	-10.7829
▁varga	-10.7829
▁fleck	-10.7829
▁proposition	-10.7829
▁inhale	-10.7829
▁balance	-10.7829
▁willem	-10.7829
▁patmore	-10.7829
▁furball	-10.7829
▁bloom	-10.7829
▁florine	-10.7829
▁tsar	-10.7829
▁thorpe	-10.7829
▁daphne	-10.7829
▁marlon	-10.7829
▁karen	-10.783
▁kiel	-10.783
▁specific	-10.783
▁celia	-10.783
▁cords	-10.783
▁existence	-10.783
▁pause	-10.783
▁assistance	-10.783
▁egyptian	-10.783
▁misery	-10.783
▁whine	-10.783
▁baseball	-10.783
▁temporary	-10.783
▁orphanage	-10.783
▁delta	-10.7831
▁protest	-10.7831
▁height	-10.7831
▁incoming	-10.7831
▁crab	-10.7831
sea	-10.7831
▁spaceship	-10.7831
▁lauren	-10.7831
▁bomposa	-10.7832
▁quiz	-10.7832
▁clive	-10.7833
acek	-10.7833
▁cecil	-10.7833
▁brew	-10.7833
▁crispin	-10.7833
▁howard	-10.7833
▁confidence	-10.7833
imble	-10.7834
▁lenin	-10.7834
▁alice	-10.7834
▁headpiece	-10.7834
▁babe	-10.7834
▁nov	-10.7834
▁upper	-10.7834
▁mccat	-10.7835
▁raid	-10.7835
▁proto	-10.7835
▁scum	-10.7835
▁fox	-10.7836
▁household	-10.7836
▁rice	-10.7837
▁portion	-10.7837
▁puff	-10.7837
▁shore	-10.7837
▁buff	-10.7837
▁sharpen	-10.7838
▁soil	-10.7838
▁carrier	-10.7838
▁stroke	-10.784
▁hola	-10.7841
▁gap	-10.7842
▁classical	-10.7842
▁drunken	-10.7842
▁portal	-10.7842
▁offense	-10.7844
▁peep	-10.7845
▁tele	-10.7847
▁loan	-10.7847
▁verse	-10.7848
▁dating	-10.7849
▁skipper	-10.785
▁weaken	-10.7852
▁snarling	-10.7853
▁pup	-10.7853
▁wedge	-10.7855
▁fist	-10.7856
▁wiser	-10.7857
▁etta	-10.7858
▁begging	-10.786
▁neighing	-10.786
▁hank	-10.7861
▁accomplished	-10.7861
▁forgetting	-10.7863
▁stain	-10.7864
▁gee	-10.7865
▁classic	-10.7865
▁cargo	-10.7865
▁reasonable	-10.7867
▁webb	-10.7873
▁clip	-10.7875
▁issued	-10.7875
▁businessman	-10.7878
▁scann	-10.7879
▁islands	-10.7884
▁conditions	-10.7885
▁forgiven	-10.7885
▁urge	-10.7886
ham	-10.7887
▁ol	-10.7887
▁clicking	-10.7887
▁diseased	-10.7892
▁bumped	-10.7895
ggle	-10.7902
▁bombs	-10.7903
▁dearest	-10.7905
▁cheated	-10.7911
▁driven	-10.7916
▁appeared	-10.7918
▁correctly	-10.7921
coming	-10.7921
▁connected	-10.7922
▁survived	-10.7926
▁screwed	-10.7927
agging	-10.7931
▁scouts	-10.7936
▁catches	-10.7937
▁provided	-10.7938
gy	-10.794
▁defeated	-10.7942
▁sal	-10.7942
▁daring	-10.7946
▁hooker	-10.7949
ugged	-10.7953
▁performing	-10.7956
▁presents	-10.7961
▁experienced	-10.7965
▁lice	-10.7965
▁consequences	-10.7966
▁tools	-10.7967
ont	-10.7971
▁operat	-10.7976
▁pretending	-10.7978
▁crashing	-10.7978
ction	-10.7978
▁om	-10.7978
een	-10.7981
angling	-10.7997
▁nazis	-10.7997
▁minu	-10.8002
▁helpful	-10.8008
▁drawer	-10.801
▁blo	-10.8011
▁bla	-10.8011
▁smaller	-10.8015
▁deserved	-10.8015
▁thankful	-10.8021
▁cheeks	-10.8027
▁goombas	-10.8028
▁principles	-10.8028
▁switched	-10.8028
▁climbing	-10.8034
▁burned	-10.8044
▁diet	-10.805
▁cared	-10.8052
▁formed	-10.8055
▁coins	-10.8059
▁instruments	-10.8059
af	-10.8064
▁off	-10.8065
▁fem	-10.8068
lapping	-10.8069
▁cole	-10.807
▁armed	-10.8085
▁travell	-10.8085
▁safely	-10.8088
▁nap	-10.809
▁freaking	-10.8114
▁artists	-10.8117
▁comedy	-10.8117
▁goblins	-10.8121
▁chart	-10.8141
▁adults	-10.8152
▁crystals	-10.8152
▁chains	-10.8153
▁ham	-10.816
▁quer	-10.8167
▁lookout	-10.817
▁ae	-10.8171
▁musical	-10.8174
▁services	-10.8178
▁wo	-10.8185
▁shown	-10.8209
▁bullets	-10.8211
▁farmer	-10.8229
▁backup	-10.8231
▁sights	-10.8239
▁visiting	-10.8245
▁picketts	-10.8246
▁counted	-10.8246
tie	-10.8251
▁pla	-10.8271
bab	-10.8282
▁gro	-10.8283
▁woohoo	-10.8295
▁gil	-10.8302
▁belly	-10.831
▁actors	-10.8317
▁thumbs	-10.834
▁shoulders	-10.8343
ates	-10.8343
▁lit	-10.8362
▁tips	-10.8371
▁beautifully	-10.8388
zo	-10.8392
▁bars	-10.8393
▁prayers	-10.8398
▁wondered	-10.8402
▁alo	-10.8412
▁sucks	-10.8424
▁callers	-10.8429
▁lucki	-10.8438
kay	-10.8439
▁yii	-10.8456
▁sticking	-10.8458
eur	-10.8461
ark	-10.8466
▁diamonds	-10.8466
▁directions	-10.8466
▁pod	-10.8545
act	-10.8552
▁noon	-10.8581
▁pockets	-10.8594
▁buying	-10.8603
▁exc	-10.861
▁dun	-10.8616
▁exists	-10.8626
iness	-10.866
▁rev	-10.8695
▁dreamer	-10.8697
▁ref	-10.8714
▁prom	-10.8736
▁pointed	-10.8741
▁caused	-10.8748
▁buds	-10.8759
▁inn	-10.8759
▁sigh	-10.8768
▁sniff	-10.8772
lam	-10.8773
▁stat	-10.8783
▁blocks	-10.8787
▁zip	-10.8789
▁caller	-10.8792
yl	-10.8793
▁bark	-10.8802
ders	-10.881
▁rem	-10.8812
▁instrument	-10.8816
▁client	-10.8819
▁relative	-10.8821
▁intention	-10.8821
▁degree	-10.8831
▁toward	-10.8834
▁ph	-10.8841
▁sock	-10.8843
▁customer	-10.8844
▁ele	-10.8863
▁gri	-10.8865
▁dim	-10.888
lock	-10.8884
▁ahhh	-10.8891
▁coin	-10.8903
pen	-10.8905
▁ami	-10.8906
▁hoped	-10.8908
▁swis	-10.8913
▁pee	-10.8914
zing	-10.8926
hes	-10.8929
▁limb	-10.8937
▁are	-10.8947
▁squeez	-10.8951
▁pul	-10.8954
▁origin	-10.8961
▁receiv	-10.8962
▁initial	-10.8971
fish	-10.8978
som	-10.8989
called	-10.8994
▁tid	-10.8994
lent	-10.8997
▁tick	-10.8998
▁magn	-10.9003
his	-10.9003
▁ic	-10.9009
▁strain	-10.9021
▁swell	-10.9021
▁will	-10.9034
iff	-10.9035
▁surround	-10.9037
az	-10.9045
what	-10.9049
print	-10.905
eight	-10.905
ja	-10.9051
▁cease	-10.9051
▁capture	-10.9051
tooth	-10.9051
claim	-10.9052
year	-10.9052
life	-10.9053
quick	-10.9054
▁frida	-10.9058
inlaw	-10.9059
▁constant	-10.906
▁spec	-10.906
cake	-10.9063
▁rag	-10.9064
wise	-10.9064
▁boil	-10.9067
▁liz	-10.9069
▁painful	-10.907
▁splash	-10.907
shop	-10.9074
bag	-10.9074
▁chuck	-10.9074
▁roman	-10.9074
▁nucle	-10.9075
▁greet	-10.9077
▁occur	-10.9078
▁exam	-10.9078
▁puter	-10.9078
▁calculat	-10.9078
▁accelerat	-10.9078
▁comrade	-10.9078
▁tragic	-10.9078
▁activities	-10.9078
▁altogether	-10.9078
▁ambush	-10.9078
▁ammunition	-10.9078
▁android	-10.9078
▁apologise	-10.9078
▁arrival	-10.9078
▁belloq	-10.9078
▁bicycle	-10.9078
▁bostock	-10.9078
▁brandnew	-10.9078
▁briefcase	-10.9078
▁brigid	-10.9078
▁bruise	-10.9078
▁burglar	-10.9078
▁chamberlain	-10.9078
▁choochoo	-10.9078
▁choosing	-10.9078
▁conbaby	-10.9078
▁conflict	-10.9078
▁delicate	-10.9078
▁dispatch	-10.9078
▁dougherty	-10.9078
▁dungeon	-10.9078
▁eglantine	-10.9078
▁elefun	-10.9078
▁ellingboe	-10.9078
▁encounter	-10.9078
▁environment	-10.9078
▁foretold	-10.9078
▁fragment	-10.9078
▁galahad	-10.9078
▁governor	-10.9078
▁griffith	-10.9078
▁guidance	-10.9078
▁guinea	-10.9078
▁gustavus	-10.9078
▁harewood	-10.9078
▁harridan	-10.9078
▁helmet	-10.9078
▁humility	-10.9078
▁identify	-10.9078
▁injured	-10.9078
▁jedediah	-10.9078
▁jonathan	-10.9078
▁judicia	-10.9078
▁kamajii	-10.9078
▁lancelot	-10.9078
▁lettuce	-10.9078
▁liquid	-10.9078
▁lobster	-10.9078
▁luggage	-10.9078
▁maizy	-10.9078
▁multiply	-10.9078
▁nottingham	-10.9078
▁nuisance	-10.9078
▁obedient	-10.9078
▁observation	-10.9078
▁observe	-10.9078
▁october	-10.9078
▁omega	-10.9078
▁pacifi	-10.9078
▁perimeter	-10.9078
▁pitiful	-10.9078
▁polite	-10.9078
▁preparation	-10.9078
▁pritchard	-10.9078
▁proposal	-10.9078
▁quality	-10.9078
▁result	-10.9078
▁rumbles	-10.9078
▁sankara	-10.9078
▁sennett	-10.9078
▁shanghai	-10.9078
▁snatch	-10.9078
▁somewhat	-10.9078
▁surgery	-10.9078
▁sydney	-10.9078
▁terrifying	-10.9078
▁toothache	-10.9078
▁traction	-10.9078
▁tragedy	-10.9078
▁twelve	-10.9078
▁twilight	-10.9078
▁underground	-10.9078
▁vault	-10.9078
▁violet	-10.9078
▁volcano	-10.9078
▁wookiee	-10.9078
▁yeehaw	-10.9078
▁yoohoo	-10.9078
▁brazil	-10.9078
▁choking	-10.9078
▁curtain	-10.9078
▁hmph	-10.9078
▁melvin	-10.9078
▁rifle	-10.9078
▁uhuh	-10.9078
▁worf	-10.9078
▁bulb	-10.9078
▁copperbottom	-10.9078
▁employees	-10.9078
▁holland	-10.9078
▁humbly	-10.9078
▁madison	-10.9078
▁oven	-10.9078
▁token	-10.9078
▁tribe	-10.9078
▁zong	-10.9078
▁frost	-10.9078
▁stroll	-10.9078
▁threatened	-10.9078
▁britons	-10.9078
▁entry	-10.9078
▁fresno	-10.9078
▁oscar	-10.9078
▁skirt	-10.9078
▁crisis	-10.9078
▁dork	-10.9078
▁essence	-10.9078
▁reduce	-10.9078
▁drip	-10.9078
▁ladder	-10.9078
▁broadcast	-10.9078
▁jesper	-10.9078
▁item	-10.9078
▁ancest	-10.9078
▁jeep	-10.9078
▁bakewell	-10.9078
▁intellectual	-10.9078
▁naught	-10.9078
▁harpoon	-10.9079
▁ellen	-10.9079
▁therm	-10.9079
▁uplift	-10.9079
▁greasy	-10.9079
▁drain	-10.9079
▁burger	-10.9079
▁departure	-10.9079
▁silverstone	-10.9079
▁automatically	-10.9079
▁retirement	-10.9079
▁selfdestruct	-10.9079
▁whys	-10.9079
▁select	-10.9079
▁plung	-10.9079
▁thorough	-10.9079
▁basket	-10.9079
▁propose	-10.9079
▁robbed	-10.9079
▁generous	-10.9079
▁leaf	-10.9079
▁dreadful	-10.9079
▁oxford	-10.9079
▁saint	-10.9079
▁favourite	-10.9079
▁mabel	-10.9079
▁chou	-10.908
▁purse	-10.908
▁allergic	-10.908
▁salary	-10.908
▁duties	-10.908
▁random	-10.908
▁saddle	-10.908
▁waking	-10.908
our	-10.908
raising	-10.908
▁atlantic	-10.908
▁beans	-10.908
▁armour	-10.908
▁formula	-10.908
▁flaw	-10.908
▁batteries	-10.908
▁footprint	-10.908
▁adore	-10.908
▁colorado	-10.908
▁harrison	-10.908
▁occupation	-10.908
▁pruitt	-10.908
▁andrew	-10.9081
▁ewell	-10.9081
▁firing	-10.9081
▁spaz	-10.9081
▁inspection	-10.9081
▁construction	-10.9081
▁mature	-10.9081
▁atom	-10.9081
▁gunshot	-10.9081
▁rico	-10.9081
▁compassion	-10.9081
▁rug	-10.9081
▁yonder	-10.9082
▁traitor	-10.9082
▁stanley	-10.9082
▁spitting	-10.9082
▁nickel	-10.9082
▁jill	-10.9082
jar	-10.9083
▁rubies	-10.9083
▁clang	-10.9083
▁parlor	-10.9084
▁operator	-10.9084
▁oooh	-10.9084
▁duce	-10.9085
▁deaf	-10.9085
▁shred	-10.9086
▁spacetime	-10.9086
▁bushes	-10.9086
▁flee	-10.9086
▁terry	-10.9086
▁grip	-10.9087
▁alongside	-10.9087
▁liege	-10.9087
▁shish	-10.9087
▁flamel	-10.9088
▁precedent	-10.9088
▁location	-10.9088
▁pub	-10.9088
▁authorized	-10.9089
▁stripes	-10.9089
imum	-10.9089
▁loco	-10.9091
▁raw	-10.9092
▁discussion	-10.9094
▁whoosh	-10.9094
▁mmmm	-10.9096
▁ability	-10.9096
▁located	-10.9096
▁award	-10.9096
▁oliver	-10.9097
▁chen	-10.9097
▁dna	-10.9098
asive	-10.9098
▁alter	-10.9098
▁grain	-10.9098
itched	-10.9099
▁translat	-10.9099
▁toss	-10.91
▁exploded	-10.91
▁curt	-10.9101
▁tickle	-10.9102
▁phy	-10.9103
▁honorable	-10.9103
▁slack	-10.9103
oon	-10.9104
▁squawking	-10.9106
▁taunting	-10.9106
▁chester	-10.9108
▁challenger	-10.9109
▁yumm	-10.9111
▁emotionally	-10.9112
▁fascinating	-10.9114
▁annoying	-10.9114
▁andy	-10.9115
were	-10.9118
▁shrieking	-10.9122
▁cel	-10.9122
▁attic	-10.9124
▁described	-10.9124
▁shade	-10.9125
▁hiya	-10.9125
▁sew	-10.9127
▁kiddo	-10.9128
▁cler	-10.9131
▁behaved	-10.9131
▁gary	-10.9133
▁proven	-10.9134
▁blar	-10.9135
▁zoot	-10.9136
▁sec	-10.9137
▁lint	-10.9138
▁peache	-10.9139
▁separated	-10.9139
▁lever	-10.914
▁restore	-10.9141
▁fried	-10.9142
▁realise	-10.9144
▁tor	-10.9146
▁purr	-10.9149
▁solved	-10.9151
▁pork	-10.9153
▁fee	-10.9158
▁lew	-10.9158
▁flu	-10.9159
▁nanny	-10.9161
▁mist	-10.9162
▁butts	-10.9171
▁delivery	-10.9176
▁speakers	-10.9176
▁weeping	-10.9177
▁scaring	-10.9178
▁grovel	-10.918
inine	-10.918
▁greater	-10.9181
etic	-10.919
▁highp	-10.92
▁communications	-10.9201
▁statues	-10.9201
▁underdogs	-10.9201
▁croc	-10.9204
▁youngest	-10.9207
ood	-10.921
▁bella	-10.9215
▁beep	-10.9217
▁explore	-10.9218
▁directed	-10.922
▁jay	-10.9229
▁gag	-10.9229
▁screwing	-10.9234
▁gummi	-10.924
ryll	-10.9244
▁shovel	-10.9245
▁discussed	-10.9254
▁sm	-10.9258
▁shortly	-10.9271
▁upgrades	-10.9271
▁bored	-10.9281
▁porter	-10.9282
stone	-10.9289
▁proved	-10.9292
▁affairs	-10.9307
▁coconuts	-10.9307
▁methods	-10.9307
▁boobs	-10.9314
▁pose	-10.932
▁quicker	-10.9323
▁hel	-10.9324
▁lettie	-10.9331
▁sticky	-10.9338
▁colored	-10.934
▁prayed	-10.9341
▁bothered	-10.9343
▁camel	-10.9346
hony	-10.9367
▁flaps	-10.937
▁nd	-10.9371
▁sardines	-10.9377
▁vikings	-10.9377
▁fre	-10.939
▁seller	-10.939
yman	-10.9399
▁fuse	-10.94
▁dale	-10.9401
gie	-10.942
▁lads	-10.942
▁filling	-10.9436
▁mob	-10.9442
▁unh	-10.9442
▁tag	-10.9464
▁oppos	-10.9471
▁scientists	-10.9484
▁crossed	-10.9487
▁zoom	-10.9489
▁honored	-10.9494
▁nash	-10.9497
▁scares	-10.9498
▁articles	-10.952
▁squeals	-10.952
▁yards	-10.952
▁lighter	-10.952
▁flags	-10.9523
▁sel	-10.9524
atory	-10.9531
▁tryin	-10.9544
▁kicking	-10.9551
▁hee	-10.9555
▁raining	-10.9574
▁cri	-10.9591
quil	-10.9611
▁sins	-10.9614
bre	-10.9618
▁qua	-10.9638
pec	-10.9682
▁danced	-10.9684
foot	-10.9688
▁lid	-10.9691
cent	-10.97
▁roars	-10.9703
▁boob	-10.9717
▁grit	-10.9732
▁poems	-10.9736
▁partners	-10.9736
▁comb	-10.974
▁hog	-10.9755
▁creeps	-10.9763
late	-10.9778
▁chatters	-10.9779
▁handy	-10.9782
▁returning	-10.9789
eel	-10.9795
▁honks	-10.9806
▁rays	-10.9811
▁pea	-10.9814
mortality	-10.9833
aided	-10.9834
▁warp	-10.984
▁eth	-10.9841
▁ban	-10.9853
▁sails	-10.9875
▁jock	-10.988
▁cleared	-10.9911
aire	-10.9932
dom	-10.9947
ura	-10.9954
▁loyal	-10.9959
▁sole	-10.9965
aaaa	-10.9972
▁media	-11.0014
enni	-11.0101
lier	-11.0113
▁perk	-11.0123
▁shu	-11.0126
well	-11.0152
▁chap	-11.0153
rak	-11.0162
cam	-11.0185
otic	-11.0187
hold	-11.0219
erte	-11.0234
ski	-11.0247
▁fin	-11.0248
▁affair	-11.025
▁coconut	-11.025
▁method	-11.025
▁principle	-11.0252
▁goomba	-11.0252
▁troop	-11.0259
berg	-11.0263
▁beside	-11.0266
▁jew	-11.0272
▁fade	-11.0303
▁cheek	-11.0311
istic	-11.0311
▁tire	-11.0323
youre	-11.0338
press	-11.0351
arts	-11.0352
▁explor	-11.0362
▁dev	-11.0389
▁frighten	-11.0405
▁embarrass	-11.0406
▁invent	-11.0428
▁exception	-11.0436
▁harp	-11.0448
▁clatter	-11.0451
▁roo	-11.0454
▁volunteer	-11.0463
▁accomplish	-11.0464
▁slim	-11.0465
▁historic	-11.0468
piece	-11.0476
▁rang	-11.0476
▁persuade	-11.0476
▁tame	-11.0477
nap	-11.0477
position	-11.0479
proof	-11.048
grade	-11.0481
class	-11.0482
▁examine	-11.0482
▁custom	-11.0484
▁programme	-11.0485
▁enchant	-11.0485
▁julie	-11.0488
▁current	-11.0489
▁voil	-11.0495
▁happie	-11.0496
▁hous	-11.0496
▁react	-11.0499
▁rehears	-11.05
▁sentiment	-11.05
▁ellis	-11.0501
▁dictat	-11.0501
▁communi	-11.0502
▁convent	-11.0503
▁improve	-11.0504
▁remark	-11.0505
ville	-11.0505
▁fabric	-11.0505
▁punish	-11.0505
▁detect	-11.0505
ndistinct	-11.0506
plosion	-11.0506
▁broad	-11.0506
▁confident	-11.0506
▁casual	-11.0507
▁vocal	-11.0507
iate	-11.0507
▁astonish	-11.0507
▁daydream	-11.0507
▁aaaargh	-11.0507
▁adequate	-11.0507
▁albrecht	-11.0507
▁alliance	-11.0507
▁almighty	-11.0507
▁amateur	-11.0507
▁ambassador	-11.0507
▁andiamo	-11.0507
▁annual	-11.0507
▁athlete	-11.0507
▁baloney	-11.0507
▁beijing	-11.0507
▁binturi	-11.0507
▁bixler	-11.0507
▁blix	-11.0507
▁bookwright	-11.0507
▁bottling	-11.0507
▁buzzing	-11.0507
▁campbell	-11.0507
▁catholic	-11.0507
▁chewbacca	-11.0507
▁clifton	-11.0507
▁cockroach	-11.0507
▁commence	-11.0507
▁continuum	-11.0507
▁crusade	-11.0507
▁december	-11.0507
▁delusion	-11.0507
▁deposit	-11.0507
▁despair	-11.0507
▁despite	-11.0507
▁detention	-11.0507
▁detroit	-11.0507
▁ebersol	-11.0507
▁eclipse	-11.0507
▁elaborate	-11.0507
▁elderly	-11.0507
▁elsewhere	-11.0507
▁expelled	-11.0507
▁explosive	-11.0507
▁eyebrow	-11.0507
▁facility	-11.0507
▁felicity	-11.0507
▁ferris	-11.0507
▁finnegan	-11.0507
▁gambling	-11.0507
▁genetic	-11.0507
▁greek	-11.0507
▁gronckle	-11.0507
▁guido	-11.0507
▁handkerchief	-11.0507
▁hannigan	-11.0507
▁haunted	-11.0507
▁hercule	-11.0507
▁ignoran	-11.0507
▁increase	-11.0507
▁independence	-11.0507
▁industry	-11.0507
▁inspiration	-11.0507
▁interrogat	-11.0507
▁january	-11.0507
▁jergens	-11.0507
▁jerusalem	-11.0507
▁juvie	-11.0507
▁kidnapped	-11.0507
▁kubitz	-11.0507
▁lazarus	-11.0507
▁mafia	-11.0507
▁malfoy	-11.0507
▁meddling	-11.0507
▁melody	-11.0507
▁necessarily	-11.0507
▁negotiate	-11.0507
▁noface	-11.0507
▁nuwanda	-11.0507
▁obsessed	-11.0507
▁overload	-11.0507
▁oyster	-11.0507
▁pennington	-11.0507
▁pharaoh	-11.0507
▁phoenix	-11.0507
▁plumbing	-11.0507
▁politician	-11.0507
▁population	-11.0507
▁portrait	-11.0507
▁possibilities	-11.0507
▁prevail	-11.0507
▁privacy	-11.0507
▁quirrell	-11.0507
▁railroad	-11.0507
▁reception	-11.0507
▁reference	-11.0507
▁referral	-11.0507
▁relieved	-11.0507
▁roast	-11.0507
▁scissors	-11.0507
▁scullery	-11.0507
▁separation	-11.0507
▁sequence	-11.0507
▁signature	-11.0507
▁skeleton	-11.0507
▁stanhope	-11.0507
▁stardestroyer	-11.0507
▁stepmother	-11.0507
▁stitches	-11.0507
▁supplies	-11.0507
▁survey	-11.0507
▁suspicious	-11.0507
▁switzerland	-11.0507
▁sylvia	-11.0507
▁temperature	-11.0507
▁tennessee	-11.0507
▁texas	-11.0507
▁unacceptable	-11.0507
▁unfair	-11.0507
▁vinci	-11.0507
▁violent	-11.0507
▁voyage	-11.0507
▁vulgar	-11.0507
▁yotsuha	-11.0507
▁album	-11.0507
▁breweries	-11.0507
▁catapult	-11.0507
▁cheeseburger	-11.0507
▁childcare	-11.0507
▁choir	-11.0507
▁clucking	-11.0507
▁couch	-11.0507
▁disrupt	-11.0507
▁drift	-11.0507
▁earphones	-11.0507
▁extend	-11.0507
▁falcon	-11.0507
▁fluffy	-11.0507
▁gramoo	-11.0507
▁hilarious	-11.0507
▁marvellous	-11.0507
▁mattress	-11.0507
▁phrase	-11.0507
▁pistol	-11.0507
▁reform	-11.0507
▁relief	-11.0507
▁skating	-11.0507
▁snitch	-11.0507
▁vanessa	-11.0507
▁zebra	-11.0507
▁zulu	-11.0507
corporate	-11.0507
▁decade	-11.0507
▁enslav	-11.0507
▁italy	-11.0507
▁oath	-11.0507
▁parallel	-11.0507
▁picard	-11.0507
▁valentin	-11.0507
▁revolt	-11.0507
▁theft	-11.0507
▁anita	-11.0507
▁creation	-11.0507
▁envy	-11.0507
▁firm	-11.0507
▁income	-11.0507
▁jello	-11.0507
▁knit	-11.0507
▁orbit	-11.0507
▁stashed	-11.0507
▁sundance	-11.0507
▁unstable	-11.0507
▁worn	-11.0507
▁burp	-11.0507
▁eager	-11.0507
▁nerra	-11.0507
▁payroll	-11.0507
▁region	-11.0507
▁throne	-11.0507
▁yves	-11.0507
▁zog	-11.0507
▁horizontal	-11.0507
▁lefors	-11.0507
▁merton	-11.0507
▁shalt	-11.0507
▁tattoo	-11.0507
illac	-11.0507
▁regulations	-11.0507
▁rooster	-11.0507
▁isham	-11.0507
▁chiming	-11.0507
▁marcus	-11.0507
▁shuttle	-11.0507
▁tennis	-11.0507
▁classmates	-11.0507
▁independent	-11.0507
▁myth	-11.0507
▁narrow	-11.0507
▁reflect	-11.0507
▁cooperate	-11.0507
▁pegg	-11.0507
▁florida	-11.0507
▁forster	-11.0507
▁exceed	-11.0507
▁gym	-11.0507
▁organization	-11.0507
▁kidney	-11.0507
▁tanis	-11.0507
▁yield	-11.0507
▁arrangements	-11.0507
▁calculations	-11.0507
▁slay	-11.0507
▁bouncing	-11.0507
▁amaze	-11.0507
▁tolling	-11.0507
▁numero	-11.0507
▁tango	-11.0507
▁goober	-11.0507
▁implie	-11.0507
▁violation	-11.0507
▁fisk	-11.0507
▁consume	-11.0507
▁clarence	-11.0507
▁casualties	-11.0507
▁eliminat	-11.0507
▁fireworks	-11.0507
▁squash	-11.0507
▁barrel	-11.0507
▁memorial	-11.0507
▁honcho	-11.0507
▁occurred	-11.0507
▁pedal	-11.0507
▁merge	-11.0508
▁outrageous	-11.0508
▁jewel	-11.0508
▁nogood	-11.0508
▁pronounce	-11.0508
▁flashlight	-11.0508
▁fiction	-11.0508
▁confront	-11.0508
▁donate	-11.0508
▁lamia	-11.0508
▁lesley	-11.0508
▁screwball	-11.0508
▁cowboy	-11.0508
▁axe	-11.0508
▁rubbish	-11.0508
▁oooow	-11.0508
▁piggy	-11.0508
▁yorkshire	-11.0508
▁naptime	-11.0508
▁shopping	-11.0508
▁bluff	-11.0509
▁shush	-11.0509
▁waving	-11.0509
▁delightful	-11.0509
▁mansfield	-11.0509
▁transferred	-11.0509
▁dutch	-11.0509
▁denied	-11.0509
▁haircut	-11.0509
▁sidewalk	-11.0509
▁mickey	-11.0509
▁wimp	-11.0509
▁collapse	-11.0509
▁adam	-11.0509
▁victori	-11.0509
▁remarkable	-11.0509
▁aspirin	-11.051
▁attraction	-11.051
▁committed	-11.051
▁punishment	-11.051
▁swimmer	-11.051
▁pupil	-11.051
▁flush	-11.051
▁pauline	-11.051
▁slice	-11.051
▁internet	-11.051
▁invention	-11.0511
▁todo	-11.0511
▁danny	-11.0512
▁moth	-11.0512
▁capital	-11.0512
▁gravity	-11.0512
▁whisky	-11.0512
▁budge	-11.0512
wind	-11.0512
▁twit	-11.0512
▁coke	-11.0513
▁objective	-11.0513
▁commitment	-11.0513
▁clapping	-11.0513
▁transportation	-11.0513
▁swap	-11.0513
▁probe	-11.0513
▁effective	-11.0513
▁sufficient	-11.0514
▁looney	-11.0514
▁unlock	-11.0514
▁contest	-11.0514
▁racket	-11.0515
▁freezing	-11.0515
▁stove	-11.0515
▁ferry	-11.0515
▁exile	-11.0516
▁coop	-11.0516
▁scenery	-11.0516
▁alfa	-11.0516
▁vow	-11.0516
▁tourist	-11.0516
▁infinitely	-11.0517
▁brad	-11.0517
▁nearby	-11.0517
ouf	-11.0517
▁pinch	-11.0517
▁flavor	-11.0518
▁expression	-11.0518
▁spain	-11.0518
▁rowan	-11.0518
▁royalty	-11.0518
▁electrical	-11.0519
▁joyful	-11.0519
▁wel	-11.0521
pool	-11.0522
▁battery	-11.0522
▁treatment	-11.0523
▁compared	-11.0523
▁carpet	-11.0524
▁ramp	-11.0524
▁maud	-11.0525
▁management	-11.0525
▁gambler	-11.0525
▁farther	-11.0527
▁specialty	-11.0528
▁constantly	-11.0528
▁bedtime	-11.0528
▁boost	-11.0529
▁dash	-11.053
▁rendered	-11.053
▁bush	-11.0531
▁inspired	-11.0532
▁crashes	-11.0533
ima	-11.0533
▁diego	-11.0534
▁vel	-11.0534
▁featur	-11.0535
▁sixty	-11.0536
▁grr	-11.0536
▁bind	-11.0537
▁annoyed	-11.0537
▁endure	-11.0538
▁heroic	-11.0538
▁consideration	-11.0538
▁piper	-11.054
▁madman	-11.0541
▁vip	-11.0541
▁apply	-11.0542
port	-11.0543
▁bane	-11.0544
▁stable	-11.0544
▁asset	-11.0545
creating	-11.0545
▁builders	-11.0545
▁approved	-11.0546
▁wholl	-11.0547
▁thus	-11.0549
▁bumper	-11.0549
▁jaw	-11.0551
▁booty	-11.0551
pie	-11.0552
▁vest	-11.0554
rail	-11.0555
▁humanity	-11.0556
cover	-11.0557
▁tookie	-11.0559
▁included	-11.0559
▁hup	-11.056
▁larger	-11.0561
▁farts	-11.0563
▁heroes	-11.0569
▁arr	-11.0572
▁buster	-11.0573
▁pale	-11.0574
▁camper	-11.0574
aid	-11.0575
▁dock	-11.0576
cide	-11.0576
gant	-11.0578
vulnerable	-11.0579
▁dime	-11.058
▁dresses	-11.0581
▁boxes	-11.0581
▁doomed	-11.0584
▁grind	-11.0585
▁drowning	-11.0586
▁villainy	-11.0586
▁pint	-11.059
▁engineering	-11.059
▁mixed	-11.0591
▁granted	-11.0591
▁buckle	-11.0592
▁bein	-11.0593
▁seeker	-11.0602
▁coolest	-11.0608
▁danburrys	-11.0609
▁passengers	-11.0609
▁producer	-11.061
▁ifyou	-11.0612
▁pouring	-11.0613
▁guided	-11.0619
▁nervously	-11.0619
▁timing	-11.0623
▁pant	-11.0628
▁dur	-11.0629
tell	-11.0632
▁achieve	-11.0634
▁wrecked	-11.0638
▁damaged	-11.0642
▁ruled	-11.0644
▁diem	-11.0652
▁rattle	-11.0655
▁wandering	-11.0659
▁assisting	-11.066
▁arse	-11.0671
▁lap	-11.0677
▁collected	-11.0678
val	-11.0686
▁tricky	-11.0695
▁peel	-11.0697
sexual	-11.0706
▁dice	-11.0713
▁brakes	-11.0732
▁claws	-11.0732
state	-11.0733
▁adjust	-11.0741
▁gathering	-11.0745
▁stewar	-11.0747
▁bin	-11.0748
howe	-11.0751
▁entering	-11.0754
▁coaching	-11.0763
▁puls	-11.0766
talk	-11.0773
▁laying	-11.0773
▁smelly	-11.0776
▁ci	-11.0776
shot	-11.0777
▁scrape	-11.0777
▁fus	-11.0782
▁beeps	-11.0798
osis	-11.0802
▁ash	-11.0803
▁charged	-11.0809
▁clients	-11.0814
▁intentions	-11.0814
▁relatives	-11.0815
▁mou	-11.0815
▁washing	-11.0818
▁educational	-11.0819
▁cann	-11.0822
this	-11.0826
▁nic	-11.0831
▁pur	-11.0842
▁nerves	-11.0856
▁creaks	-11.0856
▁studies	-11.0856
yan	-11.0859
▁fort	-11.0863
▁fishy	-11.0883
▁gal	-11.0883
▁chicks	-11.0897
semble	-11.0911
▁warmed	-11.0928
▁bothering	-11.0934
▁cooler	-11.0954
▁tents	-11.0969
▁reported	-11.0979
▁rio	-11.0982
▁fiddle	-11.0984
▁crowded	-11.1006
▁you	-11.1024
▁decorat	-11.1032
▁declar	-11.1059
▁weas	-11.1069
▁misses	-11.1083
▁poet	-11.1084
▁unto	-11.109
win	-11.1124
▁lovers	-11.1139
▁boyle	-11.118
▁spa	-11.1183
▁popp	-11.122
chin	-11.125
▁devo	-11.1252
▁sinne	-11.1298
▁riches	-11.1325
flop	-11.1334
ille	-11.1352
▁cart	-11.1373
rge	-11.1404
▁ut	-11.1431
▁grove	-11.1462
▁magnet	-11.1537
▁wease	-11.1537
▁retrieve	-11.1543
▁ot	-11.1548
▁severe	-11.1561
▁wolfe	-11.1592
▁shipp	-11.1593
urn	-11.16
▁flor	-11.1606
ease	-11.1619
▁how	-11.1704
▁ob	-11.1715
mad	-11.1717
cky	-11.1739
▁intr	-11.1866
▁eu	-11.1883
▁hahaha	-11.1896
dated	-11.191
step	-11.1913
▁brake	-11.1916
▁upgrade	-11.1918
▁nazi	-11.1919
▁vegetable	-11.1923
▁claw	-11.1926
▁heroin	-11.1928
uction	-11.1928
ttler	-11.1931
▁produc	-11.1965
▁era	-11.1966
▁sucker	-11.1987
▁liv	-11.2003
▁gerr	-11.2013
▁claus	-11.2035
▁carve	-11.2042
faced	-11.2058
▁cav	-11.2081
▁plac	-11.2084
▁mort	-11.2111
minded	-11.2111
▁shriek	-11.2114
▁bleed	-11.2116
▁branch	-11.2118
numbered	-11.2126
▁draft	-11.2129
▁delight	-11.2142
known	-11.2142
▁inspire	-11.2144
▁explode	-11.2144
▁should	-11.2145
mobile	-11.2146
yearold	-11.2147
james	-11.2147
condition	-11.2147
bird	-11.2147
phone	-11.2147
two	-11.2147
seven	-11.2147
section	-11.2148
safe	-11.2149
▁relate	-11.215
▁guilt	-11.2151
▁organize	-11.2153
four	-11.2153
▁harsh	-11.2154
▁practical	-11.2156
▁norm	-11.2156
▁apparent	-11.2156
root	-11.2157
▁precise	-11.2157
▁determine	-11.2158
▁intrude	-11.216
▁whee	-11.2161
▁familia	-11.2163
▁instruct	-11.2163
▁superhero	-11.2166
▁potato	-11.2166
▁bodi	-11.2166
▁hawk	-11.2167
▁navigat	-11.2168
▁manipulat	-11.2169
▁compass	-11.217
▁sherif	-11.217
▁depart	-11.217
▁dodge	-11.2172
▁daniel	-11.2172
▁makin	-11.2172
▁cult	-11.2173
plicate	-11.2173
▁enthrall	-11.2174
▁agricola	-11.2174
▁overwhelm	-11.2174
equipped	-11.2174
▁abuelita	-11.2174
▁accommodate	-11.2174
▁acconetti	-11.2174
▁ajam	-11.2174
▁alebrije	-11.2174
▁anubis	-11.2174
▁anyhow	-11.2174
▁aqaba	-11.2174
▁architect	-11.2174
▁arriba	-11.2174
▁ashtray	-11.2174
▁atmosphere	-11.2174
▁background	-11.2174
▁batcave	-11.2174
▁belief	-11.2174
▁bennett	-11.2174
▁bikini	-11.2174
▁biscuit	-11.2174
▁blackmail	-11.2174
▁bourbon	-11.2174
▁bourget	-11.2174
▁broomstick	-11.2174
▁capacitor	-11.2174
▁caution	-11.2174
▁cautious	-11.2174
▁champagne	-11.2174
▁clumsy	-11.2174
▁collateral	-11.2174
▁commercial	-11.2174
▁conclusion	-11.2174
▁concrete	-11.2174
▁confusion	-11.2174
▁consult	-11.2174
▁cornelia	-11.2174
▁crippled	-11.2174
▁dagobah	-11.2174
▁deceased	-11.2174
▁deciding	-11.2174
▁deevolve	-11.2174
▁dismiss	-11.2174
▁dobbs	-11.2174
▁dolphins	-11.2174
▁domestic	-11.2174
▁donwell	-11.2174
▁economic	-11.2174
▁effendi	-11.2174
▁enormous	-11.2174
▁evolve	-11.2174
▁exhusband	-11.2174
▁expotition	-11.2174
▁exquisite	-11.2174
▁ferret	-11.2174
▁gibson	-11.2174
▁gigawatts	-11.2174
▁gilbert	-11.2174
▁goodwill	-11.2174
▁gorilla	-11.2174
▁gossip	-11.2174
▁grabthars	-11.2174
▁grazie	-11.2174
▁gymnastic	-11.2174
▁hairdresser	-11.2174
▁hallucinat	-11.2174
▁harbor	-11.2174
▁harlem	-11.2174
▁hombres	-11.2174
▁hoolemere	-11.2174
▁inconvenien	-11.2174
▁indulge	-11.2174
▁inferior	-11.2174
▁inhabit	-11.2174
▁international	-11.2174
▁investigating	-11.2174
▁isolated	-11.2174
▁jacqueline	-11.2174
▁juilliard	-11.2174
▁knuckles	-11.2174
▁leather	-11.2174
▁leonardo	-11.2174
▁lobby	-11.2174
▁longhorns	-11.2174
▁lydia	-11.2174
▁lyrics	-11.2174
▁macklin	-11.2174
▁mariachi	-11.2174
▁mccadden	-11.2174
▁mellow	-11.2174
▁mercedes	-11.2174
▁merchant	-11.2174
▁miranda	-11.2174
▁misfortune	-11.2174
▁mississippi	-11.2174
▁misunderstood	-11.2174
▁monarch	-11.2174
▁monologue	-11.2174
▁motivat	-11.2174
▁negro	-11.2174
▁neutr	-11.2174
▁nowadays	-11.2174
▁nurhachi	-11.2174
▁ornament	-11.2174
▁orrin	-11.2174
▁parliament	-11.2174
▁pattern	-11.2174
▁penalty	-11.2174
▁pillow	-11.2174
▁piranhas	-11.2174
▁popcorn	-11.2174
▁porridge	-11.2174
▁presume	-11.2174
▁randamonium	-11.2174
▁ravensbruck	-11.2174
▁referring	-11.2174
▁reptile	-11.2174
▁resources	-11.2174
▁respond	-11.2174
▁response	-11.2174
▁rumpel	-11.2174
▁russkies	-11.2174
▁salome	-11.2174
▁samuels	-11.2174
▁sangimel	-11.2174
▁satisfy	-11.2174
▁shirley	-11.2174
▁sprinkle	-11.2174
▁strategy	-11.2174
▁stuttering	-11.2174
▁surprising	-11.2174
▁survivor	-11.2174
▁swift	-11.2174
▁tatiana	-11.2174
▁teetsi	-11.2174
▁theatre	-11.2174
▁thrilled	-11.2174
▁thuggee	-11.2174
▁tookietookie	-11.2174
▁transform	-11.2174
▁trashcan	-11.2174
▁trembling	-11.2174
▁trojan	-11.2174
▁trumpet	-11.2174
▁tsukasa	-11.2174
▁unmask	-11.2174
▁unnecessary	-11.2174
▁vincent	-11.2174
▁vitamin	-11.2174
▁vodka	-11.2174
▁welfare	-11.2174
▁weymouth	-11.2174
▁wrestling	-11.2174
▁zeniba	-11.2174
▁arguing	-11.2174
▁banana	-11.2174
▁blossom	-11.2174
▁bullseye	-11.2174
▁celeste	-11.2174
▁creator	-11.2174
▁crossbow	-11.2174
▁delhi	-11.2174
▁domain	-11.2174
▁embrace	-11.2174
▁federation	-11.2174
▁hunch	-11.2174
▁identical	-11.2174
▁kirk	-11.2174
▁montage	-11.2174
▁quote	-11.2174
▁randall	-11.2174
▁razor	-11.2174
▁rosie	-11.2174
▁shrink	-11.2174
▁bronze	-11.2174
▁bunk	-11.2174
▁cindy	-11.2174
▁dentist	-11.2174
▁expense	-11.2174
▁fluids	-11.2174
▁interior	-11.2174
▁jinx	-11.2174
▁juan	-11.2174
▁lonesome	-11.2174
▁promising	-11.2174
▁scorching	-11.2174
▁tracy	-11.2174
▁canyon	-11.2174
▁compete	-11.2174
▁koushik	-11.2174
▁parasite	-11.2174
▁poach	-11.2174
▁unveil	-11.2174
▁gesture	-11.2174
▁jeffries	-11.2174
▁jorel	-11.2174
▁kik	-11.2174
▁retain	-11.2174
▁tackle	-11.2174
▁tarath	-11.2174
▁grudge	-11.2174
▁june	-11.2174
▁rosalie	-11.2174
▁bogey	-11.2174
▁dripping	-11.2174
▁essay	-11.2174
▁fuzz	-11.2174
▁lodge	-11.2174
▁provinc	-11.2174
▁scattered	-11.2174
▁symp	-11.2174
▁tempt	-11.2174
▁visible	-11.2174
▁ankle	-11.2174
▁cunt	-11.2174
▁carpia	-11.2174
▁illuminat	-11.2174
▁luncheon	-11.2174
▁prune	-11.2174
▁snot	-11.2174
▁buddies	-11.2174
▁carmine	-11.2174
▁cattle	-11.2174
▁patriot	-11.2174
▁breach	-11.2174
▁tinker	-11.2174
▁pigeon	-11.2174
▁compose	-11.2174
▁donation	-11.2174
▁babysit	-11.2174
▁civilization	-11.2174
▁holler	-11.2174
▁kyle	-11.2174
▁bugger	-11.2174
▁july	-11.2174
▁aaaah	-11.2174
▁execute	-11.2174
▁breeding	-11.2174
▁dorm	-11.2174
▁zod	-11.2174
▁prowl	-11.2174
▁sidelines	-11.2174
▁grease	-11.2174
▁gulp	-11.2174
▁jigs	-11.2174
identified	-11.2174
▁steep	-11.2174
▁robbing	-11.2174
▁sparrin	-11.2174
▁sunset	-11.2174
▁mentor	-11.2174
▁resent	-11.2174
▁phew	-11.2174
▁eternity	-11.2174
▁sharing	-11.2174
▁native	-11.2174
▁whew	-11.2174
▁classification	-11.2174
▁owooo	-11.2174
▁phase	-11.2174
▁fratern	-11.2175
▁lifesav	-11.2175
▁hughes	-11.2175
▁olga	-11.2175
▁preschool	-11.2175
▁flourish	-11.2175
▁enforce	-11.2175
▁finance	-11.2175
▁nerd	-11.2175
▁charmont	-11.2175
▁initiative	-11.2175
▁cupcake	-11.2175
▁glamo	-11.2175
▁dining	-11.2175
▁robotics	-11.2175
▁choke	-11.2175
▁rapid	-11.2175
▁toot	-11.2175
▁welton	-11.2175
▁destination	-11.2175
▁golf	-11.2175
▁breast	-11.2175
▁uphold	-11.2175
▁woah	-11.2175
▁abner	-11.2175
▁attractive	-11.2175
▁brawl	-11.2175
▁mailbox	-11.2175
▁disrespectful	-11.2175
▁comedian	-11.2175
▁hasty	-11.2175
▁lizard	-11.2175
▁righteous	-11.2175
▁psst	-11.2175
▁trolley	-11.2175
▁specifically	-11.2175
▁orly	-11.2175
▁romania	-11.2176
▁logical	-11.2176
▁irresponsible	-11.2176
▁disturbance	-11.2176
▁documentary	-11.2176
▁tension	-11.2176
▁cour	-11.2176
▁moses	-11.2176
▁fifi	-11.2176
▁skinny	-11.2176
▁oona	-11.2176
▁sanza	-11.2176
▁metaphor	-11.2176
▁andand	-11.2176
▁plotting	-11.2176
▁flick	-11.2176
▁geez	-11.2177
▁terrorist	-11.2177
▁moonlight	-11.2177
▁barbaric	-11.2177
▁groot	-11.2177
▁onward	-11.2177
▁chapman	-11.2177
▁dwell	-11.2177
▁civilized	-11.2177
▁fanny	-11.2177
▁medium	-11.2177
▁critical	-11.2177
▁crumb	-11.2177
▁rodent	-11.2178
▁scarce	-11.2178
▁recover	-11.2178
▁fireplace	-11.2178
▁unconscious	-11.2178
▁cobra	-11.2178
▁lime	-11.2178
▁hotshot	-11.2179
▁wrist	-11.2179
▁spur	-11.2179
▁geek	-11.2179
▁representation	-11.2179
▁mijo	-11.2179
▁classroom	-11.2179
▁quant	-11.218
▁cheerful	-11.218
▁margo	-11.218
▁insecto	-11.218
▁spill	-11.218
▁atta	-11.218
▁otra	-11.218
▁rummy	-11.218
▁krum	-11.218
▁slavery	-11.2181
▁splitting	-11.2181
▁hallway	-11.2181
▁superheroes	-11.2181
▁scarf	-11.2182
▁entertainment	-11.2182
▁lena	-11.2182
▁valet	-11.2182
▁rehearsal	-11.2182
▁oof	-11.2182
▁amar	-11.2183
▁reasonably	-11.2183
▁julien	-11.2183
▁jean	-11.2183
▁modest	-11.2183
▁kneel	-11.2184
▁modesto	-11.2184
▁sunny	-11.2184
▁puck	-11.2185
▁facebook	-11.2185
▁lobo	-11.2185
▁keen	-11.2185
▁jake	-11.2185
ganas	-11.2186
▁abducted	-11.2186
▁grandson	-11.2186
▁juliet	-11.2186
▁fame	-11.2187
▁supes	-11.2187
▁settlement	-11.2187
under	-11.2187
▁beef	-11.2187
▁dough	-11.2187
▁baba	-11.2188
▁devin	-11.2188
▁wiggly	-11.2188
▁soninlaw	-11.2188
▁trapped	-11.2188
▁cellar	-11.2189
▁grass	-11.2189
▁mailman	-11.2189
▁bash	-11.219
▁colorful	-11.2191
▁bail	-11.2191
▁quitting	-11.2192
▁philosophy	-11.2192
▁tweety	-11.2192
▁dine	-11.2192
▁ruff	-11.2193
▁morales	-11.2193
▁magician	-11.2193
▁nno	-11.2194
▁stealth	-11.2195
▁publicity	-11.2197
▁slime	-11.2197
▁wu	-11.2197
▁wig	-11.2198
▁mansion	-11.2199
▁painfully	-11.2199
▁duh	-11.2199
▁slimy	-11.22
▁fence	-11.2201
▁presentation	-11.2202
▁established	-11.2202
▁alas	-11.2202
▁soot	-11.2202
▁bagel	-11.2203
▁forgiveness	-11.2203
▁majority	-11.2203
▁organized	-11.2205
▁hunger	-11.2205
▁slope	-11.2206
▁jammin	-11.2208
▁crm	-11.2209
▁runner	-11.2209
▁examined	-11.2209
▁banished	-11.221
▁tedd	-11.2211
▁flown	-11.2211
▁active	-11.2212
dded	-11.2214
▁cello	-11.2214
▁mein	-11.2214
▁phd	-11.2215
▁shutting	-11.2216
▁factory	-11.2217
▁cocoa	-11.2217
▁partial	-11.2218
izer	-11.2218
cca	-11.222
▁straighten	-11.2221
▁nicky	-11.2221
▁disintegrat	-11.2222
▁marine	-11.2222
▁generate	-11.2224
▁racking	-11.2224
uous	-11.2225
▁hooting	-11.2227
▁bully	-11.2228
▁grabb	-11.223
▁policeman	-11.2231
▁licensed	-11.2231
▁dame	-11.2231
▁dish	-11.2232
▁dak	-11.2236
qualified	-11.2238
▁restless	-11.224
illusion	-11.2243
▁frightening	-11.2246
▁closeup	-11.2246
▁wisely	-11.2246
rrito	-11.2247
▁setup	-11.2247
▁sleeves	-11.2248
▁dusty	-11.2249
▁uglies	-11.225
▁freakin	-11.2253
▁rosey	-11.2254
▁pb	-11.2255
▁shermanus	-11.2255
▁starve	-11.2261
▁pinky	-11.2263
▁replaced	-11.2264
▁complaining	-11.2267
▁takin	-11.2267
▁tide	-11.2269
▁strongest	-11.227
gis	-11.227
▁stinky	-11.2275
▁mainly	-11.2277
▁glowing	-11.2279
▁spying	-11.2279
▁twisted	-11.2281
▁deceive	-11.2284
how	-11.2289
▁assured	-11.2291
▁ingredients	-11.2296
▁limited	-11.2298
▁weirdo	-11.2298
▁taller	-11.2302
▁ripe	-11.2304
▁careless	-11.2309
▁ford	-11.2311
▁goodlooking	-11.2311
▁virtue	-11.2315
han	-11.2316
▁exceptional	-11.2321
▁treaty	-11.2323
▁leaning	-11.2323
▁tomb	-11.2325
lip	-11.2336
▁suspected	-11.2345
▁horny	-11.2349
▁taco	-11.2351
▁crushed	-11.2353
▁pope	-11.2357
▁menu	-11.2357
▁sealed	-11.2358
▁talented	-11.2362
▁haste	-11.2366
▁honesty	-11.2367
▁sadly	-11.2374
▁witnessed	-11.2379
▁entered	-11.2388
▁awe	-11.2402
▁deserted	-11.2403
▁goof	-11.2408
▁messy	-11.2412
▁flyin	-11.2412
▁obli	-11.2417
fect	-11.2417
▁bake	-11.2432
▁bre	-11.2432
▁crate	-11.2437
▁mango	-11.2443
▁smarter	-11.2454
▁guarded	-11.2457
▁witnessing	-11.2457
dis	-11.246
▁extract	-11.2468
▁fled	-11.248
ida	-11.248
▁ditch	-11.2483
▁lag	-11.2486
▁reminder	-11.2491
▁kly	-11.2496
▁bugle	-11.2512
▁sadde	-11.2519
▁fianc	-11.2527
▁fling	-11.2528
▁whoop	-11.253
test	-11.2537
▁stinker	-11.2552
▁wal	-11.2566
▁mah	-11.2574
▁beau	-11.2583
▁rubb	-11.2584
lage	-11.2611
emption	-11.2657
▁tru	-11.2685
▁tease	-11.2687
pot	-11.2712
▁meg	-11.2755
ata	-11.2764
▁leas	-11.2783
▁adm	-11.2788
▁ast	-11.2812
▁penetrate	-11.2829
▁var	-11.2896
hound	-11.2982
▁curl	-11.3028
▁strap	-11.3042
dium	-11.3051
than	-11.3076
▁cure	-11.3077
ngling	-11.3101
▁ec	-11.3108
ked	-11.3114
▁captiv	-11.3129
▁adventur	-11.313
▁aid	-11.3138
foam	-11.3148
▁construct	-11.3164
▁hom	-11.319
nching	-11.3231
span	-11.3241
owns	-11.3247
void	-11.3285
▁gala	-11.331
▁ea	-11.3378
any	-11.3383
▁lava	-11.3478
pressed	-11.3494
eye	-11.3495
▁oi	-11.3534
▁ofa	-11.3542
uke	-11.3557
ology	-11.3599
stage	-11.3631
luc	-11.3644
▁pu	-11.3722
cut	-11.3727
▁she	-11.379
aste	-11.3805
▁bloodsh	-11.3816
▁yorker	-11.3836
good	-11.3839
▁havin	-11.3846
▁stew	-11.3853
▁combin	-11.3853
▁multi	-11.3861
teen	-11.3871
ability	-11.3887
anne	-11.3896
▁emotion	-11.3912
▁consequence	-11.3918
▁tool	-11.3922
▁cent	-11.3969
▁bore	-11.3971
ceived	-11.3979
▁clar	-11.3988
basti	-11.399
▁mag	-11.3995
anning	-11.4003
▁virtu	-11.4004
▁cycl	-11.402
ayed	-11.4048
rella	-11.4062
▁peach	-11.4062
▁mmmmm	-11.4063
gia	-11.4066
▁annoy	-11.4071
lude	-11.4092
epsi	-11.4093
▁figur	-11.4108
evel	-11.4109
▁suppos	-11.4112
▁spank	-11.4112
▁fascinat	-11.4115
▁neigh	-11.4117
▁preach	-11.4125
▁jazz	-11.4129
▁sustain	-11.4129
▁stirr	-11.4129
▁flood	-11.413
▁chant	-11.4131
▁exhaust	-11.4131
attering	-11.4132
▁banish	-11.4132
▁dragg	-11.4134
▁rack	-11.4135
▁plea	-11.4141
place	-11.4142
▁locate	-11.4144
▁confuse	-11.4145
▁involve	-11.4146
▁muffle	-11.4146
atu	-11.4146
bride	-11.4147
given	-11.4147
worth	-11.4147
flyer	-11.4147
horse	-11.4147
finished	-11.4147
believe	-11.4147
school	-11.4147
seek	-11.4148
guard	-11.4149
self	-11.4151
bound	-11.4151
▁philosoph	-11.4151
▁tweet	-11.4151
hearted	-11.4151
▁rud	-11.4152
▁thirst	-11.4152
▁destin	-11.4153
force	-11.4153
▁energ	-11.4153
rrit	-11.4154
▁robber	-11.4154
▁slipper	-11.4157
took	-11.4157
▁literal	-11.4158
▁villa	-11.416
turn	-11.416
maid	-11.416
▁inspect	-11.4163
▁barbar	-11.4163
rific	-11.4163
▁pengu	-11.4165
▁thiev	-11.4166
▁cloth	-11.4166
conscious	-11.4168
▁attract	-11.4168
▁mcca	-11.4169
▁drivin	-11.4169
▁alcohol	-11.4169
▁disrespect	-11.4172
▁descend	-11.4172
▁volt	-11.4172
▁alternat	-11.4173
destruct	-11.4173
▁restrict	-11.4173
▁regulat	-11.4173
▁reinforce	-11.4173
▁bureau	-11.4174
▁enlighten	-11.4174
▁facilitat	-11.4174
▁gurgl	-11.4174
▁smooch	-11.4174
▁snicker	-11.4174
▁synchroniz	-11.4174
▁unload	-11.4174
dolph	-11.4174
responsibilities	-11.4174
spective	-11.4174
▁abbess	-11.4174
▁abilities	-11.4174
▁accomplice	-11.4174
▁accreditation	-11.4174
▁acquisition	-11.4174
▁afflict	-11.4174
▁afresh	-11.4174
▁aftershave	-11.4174
▁agamemnon	-11.4174
▁airspeed	-11.4174
▁alchem	-11.4174
▁altimeter	-11.4174
▁anastasia	-11.4174
▁ankhvanharis	-11.4174
▁anonymous	-11.4174
▁appointed	-11.4174
▁arrogant	-11.4174
▁asylum	-11.4174
▁attachment	-11.4174
▁avalanna	-11.4174
▁barbados	-11.4174
▁batsignal	-11.4174
▁bouquet	-11.4174
▁branzino	-11.4174
▁briggs	-11.4174
▁brutal	-11.4174
▁cadillac	-11.4174
▁capacity	-11.4174
▁ceiling	-11.4174
▁centuries	-11.4174
▁chauffeur	-11.4174
▁cheerleader	-11.4174
▁chimichanga	-11.4174
▁chirps	-11.4174
▁claudia	-11.4174
▁climate	-11.4174
▁clutche	-11.4174
▁colleen	-11.4174
▁compensation	-11.4174
▁conclude	-11.4174
▁concord	-11.4174
▁condemn	-11.4174
▁contrary	-11.4174
▁convenience	-11.4174
▁convenient	-11.4174
▁corporation	-11.4174
▁corridor	-11.4174
▁cottage	-11.4174
▁crocodile	-11.4174
▁crucial	-11.4174
▁curiosity	-11.4174
▁custody	-11.4174
▁dagger	-11.4174
▁deception	-11.4174
▁dedication	-11.4174
▁deevolution	-11.4174
▁defective	-11.4174
▁depression	-11.4174
▁dessert	-11.4174
▁dialogue	-11.4174
▁dishwasher	-11.4174
▁disposal	-11.4174
▁dixon	-11.4174
▁dolores	-11.4174
▁doohickey	-11.4174
▁download	-11.4174
▁dylan	-11.4174
▁enhance	-11.4174
▁eskimo	-11.4174
▁evacuation	-11.4174
▁evolution	-11.4174
▁exclusive	-11.4174
▁fanfare	-11.4174
▁feldstein	-11.4174
▁fergal	-11.4174
▁fifty	-11.4174
▁fortress	-11.4174
▁fracture	-11.4174
▁fragile	-11.4174
▁georgia	-11.4174
▁gestapo	-11.4174
▁ginormica	-11.4174
▁gratitude	-11.4174
▁greece	-11.4174
▁grenade	-11.4174
▁groceries	-11.4174
▁holeinthewall	-11.4174
▁hooligan	-11.4174
▁humiliating	-11.4174
▁humiliation	-11.4174
▁hurricane	-11.4174
▁hyperdrive	-11.4174
▁ignoring	-11.4174
▁imbecile	-11.4174
▁immune	-11.4174
▁increasing	-11.4174
▁indianapolis	-11.4174
▁industrial	-11.4174
▁ingenious	-11.4174
▁inject	-11.4174
▁injustice	-11.4174
▁intense	-11.4174
▁intensif	-11.4174
▁irrelevant	-11.4174
▁isabella	-11.4174
▁jurisdiction	-11.4174
▁katawaredoki	-11.4174
▁landlord	-11.4174
▁lecture	-11.4174
▁malvoli	-11.4174
▁matrimony	-11.4174
▁melrose	-11.4174
▁memoirs	-11.4174
▁merchandise	-11.4174
▁mongrel	-11.4174
▁moustache	-11.4174
▁narcotic	-11.4174
▁neighbourhood	-11.4174
▁niebold	-11.4174
▁november	-11.4174
▁obedience	-11.4174
▁occupied	-11.4174
▁offspring	-11.4174
▁outstanding	-11.4174
▁pacino	-11.4174
▁pajamas	-11.4174
▁paranoid	-11.4174
▁paycheck	-11.4174
▁persuasion	-11.4174
▁pianoforte	-11.4174
▁plutonium	-11.4174
▁preposterous	-11.4174
▁profile	-11.4174
▁prospect	-11.4174
▁qualities	-11.4174
▁ragazzi	-11.4174
▁receipt	-11.4174
▁recycling	-11.4174
▁refrain	-11.4174
▁refresh	-11.4174
▁register	-11.4174
▁residence	-11.4174
▁revelation	-11.4174
▁revenge	-11.4174
▁reverence	-11.4174
▁ribbon	-11.4174
▁ritual	-11.4174
▁robotolution	-11.4174
▁romanov	-11.4174
▁rossmore	-11.4174
▁sakana	-11.4174
▁savage	-11.4174
▁schematic	-11.4174
▁scientific	-11.4174
▁scroll	-11.4174
▁scrub	-11.4174
▁semester	-11.4174
▁shuddering	-11.4174
▁significant	-11.4174
▁sludge	-11.4174
▁smuggl	-11.4174
▁spideybells	-11.4174
▁squirt	-11.4174
▁striking	-11.4174
▁substance	-11.4174
▁sultenfuss	-11.4174
▁summon	-11.4174
▁surveillance	-11.4174
▁swahili	-11.4174
▁thwip	-11.4174
▁toothpick	-11.4174
▁trajectory	-11.4174
▁transparent	-11.4174
▁treason	-11.4174
▁treasury	-11.4174
▁trespassing	-11.4174
▁trophy	-11.4174
▁tvprogram	-11.4174
▁unpredictable	-11.4174
▁vacuum	-11.4174
▁vanquish	-11.4174
▁versailles	-11.4174
▁vigilante	-11.4174
▁vignaud	-11.4174
▁vogel	-11.4174
▁vomit	-11.4174
▁whiz	-11.4174
▁wilbur	-11.4174
▁youknowwh	-11.4174
▁zippleback	-11.4174
▁afterwards	-11.4174
▁avenge	-11.4174
▁bleating	-11.4174
▁ceremoni	-11.4174
▁chloe	-11.4174
▁covenant	-11.4174
▁democra	-11.4174
▁dispute	-11.4174
▁errand	-11.4174
▁executioner	-11.4174
▁frolic	-11.4174
▁grief	-11.4174
▁hollow	-11.4174
▁induce	-11.4174
▁investigate	-11.4174
▁judy	-11.4174
▁mccann	-11.4174
▁musket	-11.4174
▁obligation	-11.4174
▁override	-11.4174
▁sallah	-11.4174
▁sidekick	-11.4174
▁slug	-11.4174
▁slurping	-11.4174
▁strategi	-11.4174
▁trousers	-11.4174
▁clump	-11.4174
▁conceal	-11.4174
▁detach	-11.4174
▁harrow	-11.4174
▁hooray	-11.4174
▁hunk	-11.4174
▁norton	-11.4174
▁pillar	-11.4174
▁shotgun	-11.4174
▁vivid	-11.4174
▁freedonia	-11.4174
▁granger	-11.4174
▁jolly	-11.4174
▁monitor	-11.4174
▁motive	-11.4174
▁nevertheless	-11.4174
▁shuffle	-11.4174
▁singlehanded	-11.4174
▁steam	-11.4174
▁territor	-11.4174
▁update	-11.4174
▁committee	-11.4174
▁aloud	-11.4174
▁cube	-11.4174
▁depressing	-11.4174
▁invade	-11.4174
▁confine	-11.4174
▁dispose	-11.4174
▁dryden	-11.4174
▁flaming	-11.4174
▁hysterical	-11.4174
▁jennie	-11.4174
▁lenore	-11.4174
▁milan	-11.4174
▁roam	-11.4174
▁soap	-11.4174
▁thermians	-11.4174
▁trek	-11.4174
▁visual	-11.4174
▁warrant	-11.4174
▁waterfall	-11.4174
▁eusie	-11.4174
▁intima	-11.4174
▁threatening	-11.4174
▁thrive	-11.4174
▁spectacular	-11.4174
haired	-11.4174
▁actress	-11.4174
▁jury	-11.4174
▁adios	-11.4174
▁primitive	-11.4174
▁flunk	-11.4174
▁opponent	-11.4174
▁wrestle	-11.4174
▁lefthanded	-11.4174
▁mushroom	-11.4174
▁uhuhuh	-11.4174
▁loony	-11.4174
▁solitude	-11.4174
▁abstract	-11.4174
▁pedro	-11.4174
▁cabbage	-11.4174
▁yuck	-11.4174
▁fiind	-11.4174
▁mockingly	-11.4174
▁forecast	-11.4174
▁typewriter	-11.4174
▁courtesy	-11.4174
▁diversion	-11.4174
▁tornado	-11.4174
▁calibr	-11.4174
▁impose	-11.4174
▁underworld	-11.4174
▁booger	-11.4174
▁cartoon	-11.4174
▁thudding	-11.4174
▁heels	-11.4174
ologist	-11.4174
▁satisfaction	-11.4174
▁waitress	-11.4174
▁congregation	-11.4174
▁apology	-11.4174
▁concentration	-11.4174
▁scatt	-11.4174
▁torches	-11.4174
▁warden	-11.4174
▁prodigious	-11.4174
karetasokawatare	-11.4174
▁youngstown	-11.4174
▁converg	-11.4174
▁undies	-11.4174
▁duplicate	-11.4174
▁muggle	-11.4174
▁weasley	-11.4174
▁overridden	-11.4174
▁swoon	-11.4175
▁amusing	-11.4175
▁lallie	-11.4175
▁blackouts	-11.4175
▁barkley	-11.4175
morrow	-11.4175
▁pills	-11.4175
ounce	-11.4175
▁hologra	-11.4175
▁ripping	-11.4175
▁salute	-11.4175
▁tasties	-11.4175
▁whir	-11.4175
▁abduction	-11.4175
▁righthanded	-11.4175
▁radical	-11.4175
▁giddyup	-11.4175
▁babysitting	-11.4175
blank	-11.4175
▁investors	-11.4175
▁smoking	-11.4175
▁hager	-11.4175
▁squid	-11.4175
▁guilders	-11.4175
▁refrigerator	-11.4176
▁behold	-11.4176
▁boris	-11.4176
▁ofyour	-11.4176
▁indian	-11.4176
▁quake	-11.4176
▁truce	-11.4176
▁daniella	-11.4176
▁willard	-11.4176
▁establishment	-11.4176
▁eastern	-11.4176
▁babysitter	-11.4176
▁juju	-11.4176
▁stepping	-11.4176
▁limp	-11.4176
▁coloni	-11.4176
▁mija	-11.4176
▁tomatoes	-11.4176
▁contribution	-11.4176
▁inheritance	-11.4177
▁bribe	-11.4177
▁abortion	-11.4177
▁hissing	-11.4177
▁promotion	-11.4177
▁spade	-11.4177
▁dislike	-11.4177
▁transition	-11.4177
▁chopped	-11.4177
▁buffet	-11.4177
▁overnight	-11.4177
▁leftovers	-11.4177
▁conveyor	-11.4177
northwest	-11.4177
▁aggressi	-11.4177
▁enterprise	-11.4177
▁maintenance	-11.4177
▁vital	-11.4177
▁sixteen	-11.4177
▁revolutionary	-11.4177
▁ridgeway	-11.4177
▁denver	-11.4177
▁squish	-11.4178
▁puke	-11.4178
▁chapel	-11.4178
▁forge	-11.4178
▁sensational	-11.4178
zza	-11.4178
▁frown	-11.4178
▁embarrassment	-11.4178
▁detonator	-11.4178
▁lamb	-11.4178
▁wireless	-11.4178
▁elite	-11.4179
▁with	-11.4179
▁nailed	-11.4179
▁senile	-11.4179
▁decoration	-11.4179
▁border	-11.4179
▁acquainted	-11.4179
whupp	-11.4179
▁horror	-11.4179
▁crop	-11.4179
▁dummy	-11.4179
▁courageous	-11.418
▁isle	-11.418
▁diner	-11.418
▁outhouse	-11.418
▁manero	-11.418
▁investment	-11.418
▁spotlight	-11.418
▁nadder	-11.4181
▁capit	-11.4181
▁bathhouse	-11.4181
▁stimulating	-11.4181
▁scam	-11.4181
▁pittsie	-11.4181
▁brook	-11.4182
▁equality	-11.4182
inister	-11.4182
▁salon	-11.4182
▁unwell	-11.4182
▁youse	-11.4182
▁chow	-11.4182
▁production	-11.4183
▁retrac	-11.4183
▁paperwork	-11.4183
▁descent	-11.4184
▁retired	-11.4184
▁associate	-11.4184
▁nooo	-11.4185
▁teamwork	-11.4185
▁counselor	-11.4185
▁voters	-11.4185
▁admitted	-11.4185
▁thug	-11.4185
▁buts	-11.4186
▁norman	-11.4186
▁curve	-11.4186
▁tactic	-11.4186
▁lifestyle	-11.4186
▁instrumental	-11.4186
▁excellency	-11.4186
▁torn	-11.4186
▁kissoff	-11.4186
▁instructor	-11.4186
▁shelf	-11.4187
▁splashes	-11.4187
▁realistic	-11.4188
▁crackling	-11.4189
▁alleged	-11.4189
▁suspended	-11.4189
▁loot	-11.4189
▁betsy	-11.4189
▁childhood	-11.4189
▁harmless	-11.4189
▁motherinlaw	-11.419
▁ridden	-11.419
▁cleo	-11.419
▁oz	-11.419
▁skies	-11.419
▁acknowledged	-11.4191
▁humiliated	-11.4191
▁siva	-11.4191
▁cities	-11.4191
▁pug	-11.4191
▁begg	-11.4192
▁notion	-11.4192
▁funky	-11.4192
▁liza	-11.4193
▁version	-11.4193
▁coverage	-11.4193
▁stepped	-11.4193
▁touchdown	-11.4194
▁priceless	-11.4194
▁rite	-11.4195
▁monstr	-11.4195
▁princeton	-11.4195
▁nug	-11.4195
▁hump	-11.4195
▁tries	-11.4195
etched	-11.4196
▁slippery	-11.4196
▁julio	-11.4196
▁peachy	-11.4196
▁hutt	-11.4197
▁mug	-11.4197
▁pace	-11.4197
▁biggie	-11.4197
▁prejudiced	-11.4197
▁fitting	-11.4198
▁acre	-11.4198
▁bravery	-11.4198
rtz	-11.4198
▁digit	-11.4199
▁runaway	-11.4199
▁assigned	-11.42
▁knockout	-11.42
▁enchanter	-11.4201
▁digg	-11.4201
▁after	-11.4201
▁rhythmic	-11.4201
▁vien	-11.4202
▁booth	-11.4203
▁lipstick	-11.4203
▁canal	-11.4203
▁everyday	-11.4204
▁suitable	-11.4204
▁planters	-11.4205
▁legion	-11.4205
▁hospitality	-11.4206
cise	-11.4207
▁predicted	-11.4208
▁promoted	-11.4208
▁successfully	-11.4209
▁lair	-11.421
▁forty	-11.421
▁untied	-11.4211
▁label	-11.4211
▁trigg	-11.4211
▁drone	-11.4211
▁rash	-11.4211
▁operational	-11.4212
▁correction	-11.4213
▁deadline	-11.4214
▁tighten	-11.4215
▁rusty	-11.4216
▁persuaded	-11.4218
▁melon	-11.4218
▁flooded	-11.4218
▁jazzed	-11.4218
▁stirred	-11.4218
▁sustained	-11.4218
▁waf	-11.422
▁bach	-11.422
▁contender	-11.422
▁prim	-11.4221
take	-11.4222
▁flirting	-11.4222
▁distribut	-11.4224
▁ceased	-11.4224
▁melted	-11.4225
▁triple	-11.4226
▁drafted	-11.4228
▁hatch	-11.4229
▁activated	-11.4231
▁legally	-11.4232
▁respectable	-11.4232
▁remov	-11.4232
▁equally	-11.4235
▁spanking	-11.4235
▁fatal	-11.4235
▁volunteered	-11.4238
▁permanently	-11.4239
▁rarely	-11.4239
vast	-11.4241
▁haul	-11.4241
▁aww	-11.4241
▁punches	-11.4242
▁fairies	-11.4242
▁pickup	-11.4243
▁vida	-11.4243
▁hesitate	-11.4244
▁branching	-11.4248
▁tart	-11.425
▁idol	-11.4253
etta	-11.4254
▁shhh	-11.4256
▁traced	-11.4258
▁harper	-11.4259
▁hoot	-11.426
▁damp	-11.426
▁ache	-11.4263
▁fasten	-11.4265
▁web	-11.4265
▁metre	-11.4269
▁poo	-11.427
rnie	-11.4271
lotte	-11.4274
▁swelling	-11.4277
▁ticking	-11.4277
▁invested	-11.4278
▁possessed	-11.4278
▁burnt	-11.4279
▁handful	-11.4282
▁handling	-11.4286
▁hopeful	-11.4287
▁wit	-11.4288
▁smashed	-11.4288
▁additional	-11.4291
▁produced	-11.4293
▁jen	-11.4296
▁developed	-11.4297
▁canceled	-11.4298
▁nur	-11.4302
▁mmmmmm	-11.4306
▁rivera	-11.4306
▁sak	-11.4306
▁gained	-11.4308
▁unan	-11.4309
dang	-11.4311
▁topic	-11.4313
▁angela	-11.4313
▁cryin	-11.4318
▁batter	-11.4318
ronto	-11.4319
▁youyou	-11.4322
▁passes	-11.4323
▁ruler	-11.4324
▁photographer	-11.4324
▁sandy	-11.4325
▁teaches	-11.4326
▁pry	-11.433
▁operate	-11.4332
▁rink	-11.4339
▁chaser	-11.4339
enova	-11.434
▁loosen	-11.4342
▁clause	-11.4354
▁sor	-11.4371
estini	-11.4373
easy	-11.4382
▁winni	-11.439
▁define	-11.4398
▁lud	-11.4412
ordi	-11.4453
▁lam	-11.4507
mint	-11.451
▁rational	-11.4557
ada	-11.4606
▁corpse	-11.4644
olina	-11.4652
type	-11.4671
▁peer	-11.4697
hit	-11.4699
mot	-11.471
▁criticis	-11.4755
▁chatt	-11.4762
raj	-11.4783
whipped	-11.4793
▁priorit	-11.4805
▁melt	-11.4825
fan	-11.4849
rbour	-11.4861
spun	-11.4887
uda	-11.4896
apping	-11.4997
oyalty	-11.5017
▁pun	-11.5057
▁escap	-11.5142
▁gir	-11.5185
vol	-11.5191
count	-11.527
▁shel	-11.5314
▁cir	-11.5362
front	-11.539
▁wool	-11.5393
abby	-11.5469
▁blam	-11.5475
quit	-11.5501
▁deactivate	-11.5547
iel	-11.5589
▁mei	-11.5592
mir	-11.5623
▁kat	-11.5637
orium	-11.5663
▁mau	-11.5751
▁relev	-11.5848
ldie	-11.5896
▁domin	-11.5942
▁sancti	-11.5966
▁unti	-11.597
▁tou	-11.6055
▁juic	-11.6065
plication	-11.6073
apul	-11.6122
▁psycho	-11.6187
ookie	-11.6187
▁phi	-11.6245
igned	-11.6293
borne	-11.6294
balt	-11.633
overboard	-11.6362
▁snarl	-11.6365
▁communication	-11.6417
▁statue	-11.6418
▁underdog	-11.6418
▁scout	-11.6419
▁circuit	-11.6422
▁blade	-11.6426
▁intruder	-11.644
heard	-11.6455
▁growl	-11.6469
▁valid	-11.6496
flies	-11.6497
oggy	-11.65
▁chee	-11.6509
keeper	-11.6516
oohoohooh	-11.6519
▁addition	-11.6529
▁trig	-11.6565
▁gener	-11.6567
drops	-11.6576
▁screech	-11.661
▁determin	-11.6612
▁squawk	-11.6615
▁contend	-11.6616
▁disgust	-11.6616
▁squeak	-11.6617
▁taunt	-11.662
friend	-11.6623
▁establish	-11.6627
▁crib	-11.6628
▁feat	-11.6629
▁predict	-11.6629
▁promot	-11.663
homor	-11.663
climber	-11.6631
▁influen	-11.6635
ecution	-11.6639
walk	-11.6639
▁gamble	-11.664
▁profession	-11.6641
▁render	-11.6641
▁prejudice	-11.6643
stead	-11.6644
▁compare	-11.6644
julio	-11.6645
historic	-11.6645
found	-11.6646
stroke	-11.6646
product	-11.6646
fried	-11.6646
clap	-11.6646
level	-11.6646
▁frau	-11.6646
brush	-11.6647
order	-11.6647
grown	-11.6647
john	-11.6647
bridge	-11.6647
week	-11.6647
storm	-11.6647
control	-11.6647
blood	-11.6647
important	-11.6647
course	-11.6647
dead	-11.6647
around	-11.6647
fight	-11.6647
▁memor	-11.6649
pants	-11.665
making	-11.6652
▁incredibl	-11.6655
▁infinite	-11.6655
▁definite	-11.6656
food	-11.6656
quarter	-11.6657
person	-11.6657
letter	-11.6658
erci	-11.6659
▁inquire	-11.6661
least	-11.6662
▁crisp	-11.6663
▁insect	-11.6664
▁albert	-11.6664
▁mosquito	-11.6665
water	-11.6666
after	-11.6666
boat	-11.6666
▁ratio	-11.6666
▁continent	-11.6666
▁walt	-11.6667
point	-11.6668
▁freezin	-11.6669
▁movin	-11.6669
▁abort	-11.667
▁intent	-11.667
▁audit	-11.667
▁educat	-11.667
▁employ	-11.6671
▁puttin	-11.6671
idget	-11.6671
▁transmit	-11.6671
▁giddy	-11.6671
▁hazard	-11.6672
▁initiat	-11.6672
▁iso	-11.6672
▁kiddin	-11.6672
▁whwh	-11.6672
▁automatic	-11.6672
▁gert	-11.6672
wait	-11.6673
▁shari	-11.6673
▁prodig	-11.6673
▁emerge	-11.6673
▁scholar	-11.6673
▁scram	-11.6673
▁japan	-11.6673
▁intellect	-11.6673
itude	-11.6673
▁raven	-11.6673
megaton	-11.6673
▁trauma	-11.6673
▁horizon	-11.6673
omagn	-11.6674
▁bamboo	-11.6674
▁eccentric	-11.6674
▁hemorrh	-11.6674
▁abdullah	-11.6674
▁abnormal	-11.6674
▁acrobat	-11.6674
▁adapt	-11.6674
▁advertising	-11.6674
▁aggravate	-11.6674
▁agricolis	-11.6674
▁alligator	-11.6674
▁anticipat	-11.6674
▁antidote	-11.6674
▁anxiety	-11.6674
▁anyplace	-11.6674
▁apprehend	-11.6674
▁archaeology	-11.6674
▁athletic	-11.6674
▁atlanta	-11.6674
▁attorney	-11.6674
▁audacity	-11.6674
▁autumn	-11.6674
▁auxiliary	-11.6674
▁bagpipes	-11.6674
▁baltimore	-11.6674
▁barbecue	-11.6674
▁barracks	-11.6674
▁beehive	-11.6674
▁behaving	-11.6674
▁belfry	-11.6674
▁belgian	-11.6674
▁bleach	-11.6674
▁britain	-11.6674
▁bucephalos	-11.6674
▁bukuvu	-11.6674
▁bulldozer	-11.6674
▁burroughs	-11.6674
▁butbut	-11.6674
▁buzzer	-11.6674
▁candidate	-11.6674
▁catastroph	-11.6674
▁cemetery	-11.6674
▁cezi	-11.6674
▁chimney	-11.6674
▁chlorine	-11.6674
▁chomofsky	-11.6674
▁colleague	-11.6674
▁collision	-11.6674
▁competitor	-11.6674
▁condominiums	-11.6674
▁connecticut	-11.6674
▁connelly	-11.6674
▁connolly	-11.6674
▁consistent	-11.6674
▁conspiracy	-11.6674
▁continuing	-11.6674
▁convincing	-11.6674
▁copilot	-11.6674
▁crackalackin	-11.6674
▁curriculum	-11.6674
▁cushion	-11.6674
▁dazzle	-11.6674
▁debbie	-11.6674
▁deliberately	-11.6674
▁demonstration	-11.6674
▁diabolical	-11.6674
▁dialect	-11.6674
▁dilemma	-11.6674
▁disadvantage	-11.6674
▁disastrous	-11.6674
▁discouraged	-11.6674
▁disregard	-11.6674
▁douche	-11.6674
▁downpour	-11.6674
▁dubuque	-11.6674
▁dynamic	-11.6674
▁dynasty	-11.6674
▁eggbeater	-11.6674
▁encouraging	-11.6674
▁enscombe	-11.6674
▁episcopalians	-11.6674
▁exaggerat	-11.6674
▁exterminat	-11.6674
▁extinguish	-11.6674
▁extortion	-11.6674
▁ezylryb	-11.6674
▁fantasies	-11.6674
▁fascist	-11.6674
▁felicia	-11.6674
▁fiftyfifty	-11.6674
▁fishlegs	-11.6674
▁folklore	-11.6674
▁frigid	-11.6674
▁frustration	-11.6674
▁furniture	-11.6674
▁gahoole	-11.6674
▁garrison	-11.6674
▁genuine	-11.6674
▁giuseppe	-11.6674
▁gorignak	-11.6674
▁gracious	-11.6674
▁graffiti	-11.6674
▁grumbling	-11.6674
▁hallelujah	-11.6674
▁harmonica	-11.6674
▁heartbroken	-11.6674
▁hebrew	-11.6674
▁heritage	-11.6674
▁herlihy	-11.6674
▁hermia	-11.6674
▁honolulu	-11.6674
▁hydro	-11.6674
▁ignition	-11.6674
▁imprison	-11.6674
▁improper	-11.6674
▁incinerat	-11.6674
▁incorrect	-11.6674
▁infiltrat	-11.6674
▁inquiry	-11.6674
▁insectosaurus	-11.6674
▁insight	-11.6674
▁install	-11.6674
▁intimidat	-11.6674
▁intoxicated	-11.6674
▁intrigue	-11.6674
▁intrusion	-11.6674
▁invincible	-11.6674
▁irrevocable	-11.6674
▁itinerary	-11.6674
▁itsits	-11.6674
▁jellybean	-11.6674
▁jeopardi	-11.6674
▁jewellery	-11.6674
▁jude	-11.6674
▁knighfs	-11.6674
▁kristen	-11.6674
▁kuchikamizake	-11.6674
▁leisure	-11.6674
▁liberal	-11.6674
▁lionheart	-11.6674
▁liquor	-11.6674
▁lizzie	-11.6674
▁ltomori	-11.6674
▁maneuver	-11.6674
▁mayugoro	-11.6674
▁mccullough	-11.6674
▁mckitty	-11.6674
▁mechanism	-11.6674
▁militant	-11.6674
▁mineshaft	-11.6674
▁minimal	-11.6674
▁minivan	-11.6674
▁mitsubishi	-11.6674
▁mulatto	-11.6674
▁mutiny	-11.6674
▁narissa	-11.6674
▁nectar	-11.6674
▁negotiating	-11.6674
▁nesmith	-11.6674
▁nitwit	-11.6674
▁oasis	-11.6674
▁occupy	-11.6674
▁optimistic	-11.6674
▁ordinarily	-11.6674
▁participate	-11.6674
▁participation	-11.6674
▁peekajoo	-11.6674
▁pentagon	-11.6674
▁perigee	-11.6674
▁perpetual	-11.6674
▁phenomena	-11.6674
▁physician	-11.6674
▁physics	-11.6674
▁piccoletto	-11.6674
▁pineapple	-11.6674
▁pipeworkers	-11.6674
▁pontiero	-11.6674
▁precinct	-11.6674
▁prefix	-11.6674
▁pretzel	-11.6674
▁provoke	-11.6674
▁pyramid	-11.6674
▁quadrant	-11.6674
▁quellek	-11.6674
▁rattlesnake	-11.6674
▁rescuing	-11.6674
▁reservation	-11.6674
▁revoir	-11.6674
▁rhapsody	-11.6674
▁rouannet	-11.6674
▁rumour	-11.6674
▁salvation	-11.6674
▁sanctuary	-11.6674
▁sausage	-11.6674
▁savior	-11.6674
▁scarecrow	-11.6674
▁scrunchie	-11.6674
▁seduce	-11.6674
▁semifinal	-11.6674
▁separating	-11.6674
▁sermon	-11.6674
▁serpent	-11.6674
▁sleuth	-11.6674
▁snoop	-11.6674
▁snores	-11.6674
▁snotlout	-11.6674
▁solitary	-11.6674
▁stabb	-11.6674
▁stammers	-11.6674
▁starfleet	-11.6674
▁streak	-11.6674
▁suffocating	-11.6674
▁surgeon	-11.6674
▁sweetface	-11.6674
▁taggert	-11.6674
▁talbot	-11.6674
▁technique	-11.6674
▁temporarily	-11.6674
▁testimony	-11.6674
▁therapy	-11.6674
▁thoreau	-11.6674
▁thrilling	-11.6674
▁tiamat	-11.6674
▁transplant	-11.6674
▁trespasse	-11.6674
▁unpleasant	-11.6674
▁unravel	-11.6674
▁upheld	-11.6674
▁valiant	-11.6674
▁veggieos	-11.6674
▁virana	-11.6674
▁wardrobe	-11.6674
▁waterwheel	-11.6674
▁whinnies	-11.6674
▁woodcock	-11.6674
▁worldwide	-11.6674
▁worries	-11.6674
▁yanquis	-11.6674
▁absurd	-11.6674
▁belches	-11.6674
▁blended	-11.6674
▁bourgeois	-11.6674
▁cheque	-11.6674
▁cloak	-11.6674
▁competitive	-11.6674
▁cooperation	-11.6674
▁drastic	-11.6674
▁feisal	-11.6674
▁figment	-11.6674
▁fudge	-11.6674
▁gravy	-11.6674
▁indicator	-11.6674
▁jinkies	-11.6674
▁liberties	-11.6674
▁magali	-11.6674
▁marcie	-11.6674
▁molecul	-11.6674
▁monguer	-11.6674
▁outlaw	-11.6674
▁pimple	-11.6674
▁poverty	-11.6674
▁preceded	-11.6674
▁prision	-11.6674
▁puppies	-11.6674
▁reckless	-11.6674
▁refuge	-11.6674
▁sloppy	-11.6674
▁theories	-11.6674
▁valerie	-11.6674
▁wheat	-11.6674
▁wrench	-11.6674
▁absorb	-11.6674
▁austin	-11.6674
▁burial	-11.6674
▁defence	-11.6674
▁dowry	-11.6674
▁eleven	-11.6674
▁filter	-11.6674
▁graveyard	-11.6674
▁gulf	-11.6674
▁ireland	-11.6674
▁jefferson	-11.6674
▁scoot	-11.6674
▁seatbelt	-11.6674
▁siege	-11.6674
▁subtle	-11.6674
▁twinkle	-11.6674
▁vacanc	-11.6674
▁waffles	-11.6674
▁butterfly	-11.6674
▁toodle	-11.6674
▁avl	-11.6674
▁bamboozle	-11.6674
▁bedevere	-11.6674
▁coupon	-11.6674
▁cuz	-11.6674
▁doreen	-11.6674
▁eagle	-11.6674
▁holyoke	-11.6674
▁keypad	-11.6674
▁mandolin	-11.6674
▁monroe	-11.6674
▁moondance	-11.6674
▁obliged	-11.6674
▁obstacle	-11.6674
▁prank	-11.6674
▁stench	-11.6674
▁tissue	-11.6674
▁yidont	-11.6674
iquette	-11.6674
▁congee	-11.6674
▁irritat	-11.6674
▁nfl	-11.6674
▁sensitive	-11.6674
▁sherri	-11.6674
▁slum	-11.6674
▁strand	-11.6674
▁tyrann	-11.6674
▁ufo	-11.6674
▁anchor	-11.6674
▁blokes	-11.6674
▁linkav	-11.6674
▁poodle	-11.6674
▁redhot	-11.6674
▁dormitor	-11.6674
▁endanger	-11.6674
▁fiesta	-11.6674
▁galleon	-11.6674
▁plump	-11.6674
▁sassy	-11.6674
▁strive	-11.6674
pathy	-11.6674
▁chord	-11.6674
▁cramp	-11.6674
▁dairy	-11.6674
▁doggone	-11.6674
▁gobbling	-11.6674
▁reinforcements	-11.6674
omaniac	-11.6674
▁ehoh	-11.6674
▁martha	-11.6674
▁klan	-11.6674
▁ninth	-11.6674
▁doodle	-11.6674
▁flare	-11.6674
▁chores	-11.6674
▁literature	-11.6674
▁mormo	-11.6674
▁stephans	-11.6674
▁traumatiz	-11.6674
▁handicapp	-11.6674
▁reich	-11.6674
▁vase	-11.6674
▁characteristics	-11.6674
itzer	-11.6674
▁blanche	-11.6674
▁vertical	-11.6674
doubledgoddamn	-11.6674
▁crud	-11.6674
▁amnes	-11.6674
▁hostages	-11.6674
▁introducing	-11.6674
▁sheila	-11.6674
▁stepsister	-11.6674
▁corpu	-11.6674
▁lounge	-11.6674
▁slipping	-11.6674
ometer	-11.6674
▁casper	-11.6674
▁irre	-11.6674
▁townspeople	-11.6674
▁spinning	-11.6674
▁loveliness	-11.6674
berries	-11.6674
▁glaux	-11.6674
▁foyer	-11.6674
▁particle	-11.6674
▁sensors	-11.6674
▁countries	-11.6674
▁tombstone	-11.6674
hibit	-11.6674
▁hayworth	-11.6674
▁whiskey	-11.6674
▁tarla	-11.6674
▁hurray	-11.6674
▁lump	-11.6674
▁cement	-11.6674
▁oneliners	-11.6674
▁bestowed	-11.6674
renched	-11.6674
▁attaboy	-11.6674
▁facing	-11.6674
▁vez	-11.6674
▁goddess	-11.6674
▁pensive	-11.6674
▁cocktail	-11.6674
▁defy	-11.6674
▁scramble	-11.6674
▁unemployment	-11.6674
▁carrie	-11.6674
▁flour	-11.6674
▁mild	-11.6674
▁billionaire	-11.6674
▁scholarship	-11.6674
▁yawn	-11.6674
▁goddard	-11.6674
▁solberg	-11.6674
▁troy	-11.6674
▁analysis	-11.6674
▁lottery	-11.6674
▁grasp	-11.6674
▁brass	-11.6674
▁mumm	-11.6674
▁underwater	-11.6674
▁yarn	-11.6674
▁addict	-11.6674
▁purple	-11.6674
▁blouse	-11.6674
▁panicked	-11.6674
▁anarch	-11.6674
▁contravene	-11.6674
▁exwife	-11.6674
▁divert	-11.6674
▁parlo	-11.6674
▁enthusiasm	-11.6674
▁janice	-11.6674
▁appetite	-11.6675
▁efficien	-11.6675
▁complication	-11.6675
▁griev	-11.6675
▁bulg	-11.6675
▁minimum	-11.6675
▁matchmaking	-11.6675
▁richmond	-11.6675
▁conserv	-11.6675
▁velocity	-11.6675
▁discount	-11.6675
▁fading	-11.6675
▁banner	-11.6675
▁revving	-11.6675
▁garfield	-11.6675
▁spoon	-11.6675
▁yup	-11.6675
▁beware	-11.6675
▁helga	-11.6675
▁pancho	-11.6675
▁boogie	-11.6675
▁felon	-11.6675
swept	-11.6675
▁slammer	-11.6675
▁predator	-11.6675
▁rebuild	-11.6675
▁reset	-11.6675
abide	-11.6675
▁rainwater	-11.6675
▁dread	-11.6675
▁fluoridation	-11.6675
onnais	-11.6675
▁pooch	-11.6676
▁booboo	-11.6676
dammit	-11.6676
▁republican	-11.6676
▁futility	-11.6676
▁daddies	-11.6676
▁whwhat	-11.6676
▁descendant	-11.6676
▁tapped	-11.6676
▁panda	-11.6676
▁casa	-11.6676
▁peck	-11.6676
▁bragging	-11.6676
▁properties	-11.6676
▁cancer	-11.6676
▁fluent	-11.6676
▁scurr	-11.6676
▁dipper	-11.6676
▁bakery	-11.6676
▁drool	-11.6676
▁circulation	-11.6677
▁employment	-11.6677
▁ronda	-11.6677
▁absent	-11.6677
▁robbi	-11.6677
▁tumbl	-11.6677
▁dandy	-11.6677
▁edition	-11.6677
▁passionate	-11.6677
▁archaeologist	-11.6677
▁guiltless	-11.6677
▁fabrication	-11.6677
▁combat	-11.6677
▁saga	-11.6677
owski	-11.6677
▁pantry	-11.6677
▁accompany	-11.6677
▁celebrity	-11.6677
oula	-11.6677
▁cruising	-11.6677
which	-11.6677
▁sleepwalk	-11.6678
▁loaf	-11.6678
▁reef	-11.6678
▁baggy	-11.6678
▁passport	-11.6678
▁domination	-11.6678
versary	-11.6678
▁purity	-11.6678
▁fiinal	-11.6678
▁civilian	-11.6678
▁detonat	-11.6678
▁meatball	-11.6678
▁goldfish	-11.6678
▁insurers	-11.6679
▁morphia	-11.6679
▁pike	-11.6679
▁hyper	-11.6679
▁maj	-11.6679
▁alcoholic	-11.6679
▁battlefield	-11.6679
▁storeroom	-11.6679
▁vandaliz	-11.6679
▁tuna	-11.6679
▁enchantment	-11.6679
▁proving	-11.6679
▁tourism	-11.6679
▁blur	-11.6679
▁upright	-11.6679
▁jamie	-11.6679
▁pony	-11.668
▁cozy	-11.668
▁sputter	-11.668
▁torment	-11.668
▁algerian	-11.668
▁status	-11.668
▁bummer	-11.668
▁manipulation	-11.668
▁andre	-11.668
▁massage	-11.668
▁prote	-11.6681
▁flirt	-11.6681
▁cellul	-11.6681
pierre	-11.6681
▁rustl	-11.6681
▁interpretation	-11.6681
▁delude	-11.6681
▁fashionable	-11.6682
▁mosquitoes	-11.6682
▁sofa	-11.6682
▁sunlight	-11.6682
▁jewelry	-11.6682
▁discreetly	-11.6682
tail	-11.6682
▁empti	-11.6682
▁gusto	-11.6682
▁navigator	-11.6682
▁dios	-11.6682
plit	-11.6682
▁sellick	-11.6683
southwest	-11.6683
idos	-11.6683
▁longbottom	-11.6683
▁thigh	-11.6684
▁pong	-11.6684
▁infer	-11.6684
▁layton	-11.6684
▁dictator	-11.6684
▁thieves	-11.6684
▁chich	-11.6684
▁debat	-11.6685
▁ballroom	-11.6685
▁iike	-11.6685
▁chaos	-11.6685
▁stunt	-11.6685
▁percy	-11.6686
▁napis	-11.6686
▁frisk	-11.6686
▁continental	-11.6686
▁eyeball	-11.6686
▁silli	-11.6686
▁mooney	-11.6686
▁marcello	-11.6686
▁stern	-11.6687
▁static	-11.6687
▁decreed	-11.6687
▁distraction	-11.6688
▁collective	-11.6688
▁venus	-11.6689
▁billboard	-11.6689
▁penguin	-11.6689
▁popularity	-11.6689
▁speechless	-11.669
▁bonne	-11.669
shire	-11.669
unque	-11.669
▁plucky	-11.669
fur	-11.669
▁dinero	-11.669
▁bombard	-11.669
▁organic	-11.669
▁graceful	-11.6691
▁postage	-11.6691
▁shant	-11.6691
▁restroom	-11.6691
▁jug	-11.6692
▁firepower	-11.6692
▁macho	-11.6692
▁lazy	-11.6692
▁arden	-11.6692
▁wallet	-11.6693
▁yahoo	-11.6694
▁santo	-11.6694
▁voila	-11.6695
▁happier	-11.6696
▁pursued	-11.6696
▁anna	-11.6696
▁tow	-11.6697
▁confirmation	-11.6697
quel	-11.6698
▁weakling	-11.6698
▁mira	-11.6698
▁possesses	-11.6698
▁golly	-11.67
▁potion	-11.67
▁foresee	-11.6702
▁cruiser	-11.6702
▁peterson	-11.6703
▁teb	-11.6703
orthodox	-11.6703
▁wither	-11.6703
▁lawton	-11.6704
▁harshly	-11.6704
▁agreeable	-11.6707
▁frenchman	-11.6707
▁apprais	-11.6707
▁quiere	-11.6709
brain	-11.671
▁personality	-11.6711
elson	-11.6711
▁sandwiches	-11.6712
▁hardship	-11.6713
▁plead	-11.6714
▁fulltime	-11.6714
▁sadness	-11.6716
▁breakdown	-11.6716
▁freshen	-11.6719
▁plainti	-11.672
▁labar	-11.6721
▁sanders	-11.6722
▁passive	-11.6722
cast	-11.6722
sync	-11.6723
▁crackers	-11.6723
▁tidy	-11.6723
▁startled	-11.6724
▁geniuses	-11.6724
▁functional	-11.6725
▁growth	-11.6726
▁losses	-11.6726
▁fiive	-11.6728
zul	-11.6729
gano	-11.6732
▁caw	-11.6733
▁clan	-11.6734
itive	-11.6735
ware	-11.6739
aurus	-11.6741
ario	-11.6743
▁garne	-11.6744
▁jive	-11.6746
▁tel	-11.6747
affle	-11.6753
▁disma	-11.6758
aza	-11.6758
▁mystical	-11.6758
▁luci	-11.6765
▁exec	-11.677
eryl	-11.678
▁moss	-11.6781
▁abr	-11.6781
zers	-11.6803
turing	-11.6804
ural	-11.681
erogat	-11.682
dding	-11.6821
illo	-11.6822
▁admirer	-11.6828
indu	-11.6839
▁logo	-11.6876
▁mole	-11.6895
ppy	-11.691
▁gobs	-11.6915
utility	-11.6918
▁awaken	-11.6921
▁dye	-11.6996
ctic	-11.6997
pending	-11.7019
tract	-11.7031
alignment	-11.7033
mou	-11.7038
▁wiggl	-11.7057
▁contribut	-11.7079
recede	-11.7089
▁ahhhh	-11.7168
urdy	-11.7184
uk	-11.72
▁spi	-11.7202
oaring	-11.722
aham	-11.7275
nam	-11.7313
fren	-11.7315
buggy	-11.7327
▁insur	-11.7338
enwood	-11.7394
ometric	-11.7409
▁bor	-11.7541
▁journalis	-11.7583
diary	-11.7613
easant	-11.7623
ixi	-11.7668
▁marra	-11.7668
privileged	-11.7678
▁interpret	-11.773
▁mul	-11.7742
dadada	-11.7803
tensi	-11.7811
bach	-11.7818
▁sme	-11.7911
change	-11.7974
elves	-11.8045
buns	-11.8066
version	-11.8146
▁corr	-11.8239
afoot	-11.8329
▁wadi	-11.8335
▁div	-11.8461
chop	-11.852
▁invalid	-11.8606
▁wwe	-11.8673
style	-11.8707
▁tog	-11.876
▁swor	-11.8827
wald	-11.8837
atherin	-11.8862
▁amu	-11.8895
ouncy	-11.8896
▁critic	-11.8934
▁exemp	-11.9028
▁resembl	-11.9037
▁gla	-11.9145
▁anth	-11.929
tonic	-11.93
▁basin	-11.9317
agh	-11.9326
reatgreatgrandpa	-11.9355
verse	-11.9428
▁integr	-11.948
iterate	-11.9603
▁achiev	-11.968
▁ingredient	-11.9745
▁danburry	-11.9748
▁passenger	-11.9748
▁stair	-11.9766
▁mantel	-11.9792
▁shad	-11.9886
▁experienc	-11.9923
▁flir	-11.9923
efined	-11.9924
▁rod	-11.9935
▁defens	-11.9936
▁slop	-11.9937
▁applaud	-11.995
▁murmur	-11.995
earned	-11.9955
▁offens	-11.9957
▁assign	-11.996
mediately	-11.9965
bottom	-11.9967
▁cruise	-11.9967
arms	-11.9969
lasting	-11.9969
cream	-11.9976
▁pursue	-11.9976
ridden	-11.9976
▁acknowledge	-11.9977
▁humiliate	-11.9977
plane	-11.9977
flavor	-11.9979
authorized	-11.9979
precedent	-11.9979
location	-11.9979
temper	-11.9979
wife	-11.998
sphere	-11.998
solution	-11.998
wilder	-11.998
world	-11.998
winning	-11.998
connect	-11.998
grateful	-11.998
dollar	-11.998
columbia	-11.998
natural	-11.998
nancy	-11.998
secret	-11.998
haku	-11.9981
mission	-11.9981
major	-11.9981
distance	-11.9981
married	-11.9981
opening	-11.9981
left	-11.9981
wanted	-11.9982
master	-11.9982
▁rog	-11.9983
▁styl	-11.9984
▁excellenc	-11.9984
space	-11.9985
track	-11.9985
mouth	-11.9986
▁pluck	-11.9986
based	-11.9988
▁heavi	-11.999
▁immediate	-11.999
▁eventual	-11.9991
▁craz	-11.9993
▁whit	-11.9994
river	-11.9994
▁compute	-11.9996
▁trait	-11.9996
▁bompos	-11.9996
igger	-11.9999
scription	-12
▁sensation	-12.0001
▁harris	-12.0001
▁posse	-12.0001
▁cruisin	-12.0002
mond	-12.0002
▁archaeologi	-12.0002
▁corrupt	-12.0003
▁circulat	-12.0003
▁yum	-12.0003
▁gyps	-12.0003
▁harass	-12.0004
▁republic	-12.0004
escribed	-12.0004
▁outrage	-12.0005
▁ordina	-12.0005
▁allerg	-12.0005
▁differ	-12.0005
▁sarcastic	-12.0006
▁opportuni	-12.0006
ntraven	-12.0006
ization	-12.0006
excus	-12.0006
scope	-12.0006
describ	-12.0007
▁surre	-12.0007
▁comprehen	-12.0007
sibility	-12.0007
consequent	-12.0007
▁reload	-12.0007
eductive	-12.0007
extraterrestrial	-12.0007
itititito	-12.0007
javajavajavajava	-12.0007
knucklehead	-12.0007
legitimate	-12.0007
nquiries	-12.0007
tiktik	-12.0007
voluntarily	-12.0007
▁abroad	-12.0007
▁accumulat	-12.0007
▁accurate	-12.0007
▁advisor	-12.0007
▁ajedi	-12.0007
▁allcomers	-12.0007
▁allegiance	-12.0007
▁ambitious	-12.0007
▁amsterdam	-12.0007
▁anatomy	-12.0007
▁anguish	-12.0007
▁antihero	-12.0007
▁antoinette	-12.0007
▁approximately	-12.0007
▁armistead	-12.0007
▁artifact	-12.0007
▁aspect	-12.0007
▁assembly	-12.0007
▁avocado	-12.0007
▁babbling	-12.0007
▁barcelona	-12.0007
▁barracuda	-12.0007
▁bbomb	-12.0007
▁beethoven	-12.0007
▁beresford	-12.0007
▁bernadette	-12.0007
▁bernard	-12.0007
▁bickering	-12.0007
▁blasphem	-12.0007
▁blimey	-12.0007
▁blindfold	-12.0007
▁bluebells	-12.0007
▁blumburtt	-12.0007
▁bobbalicious	-12.0007
▁budbuddy	-12.0007
▁bujumbura	-12.0007
▁buongiorno	-12.0007
▁burbank	-12.0007
▁buzzes	-12.0007
▁cackling	-12.0007
▁cafeteria	-12.0007
▁calcium	-12.0007
▁cantaloupe	-12.0007
▁caramba	-12.0007
▁caravan	-12.0007
▁carefree	-12.0007
▁cavalier	-12.0007
▁certificate	-12.0007
▁challenging	-12.0007
▁chateau	-12.0007
▁chemical	-12.0007
▁chihuahua	-12.0007
▁childbirth	-12.0007
▁chivalry	-12.0007
▁chorizo	-12.0007
▁clarinet	-12.0007
▁clayface	-12.0007
▁clergyman	-12.0007
▁clobber	-12.0007
▁cocacola	-12.0007
▁cockteaser	-12.0007
▁commotion	-12.0007
▁commune	-12.0007
▁compound	-12.0007
▁compromise	-12.0007
▁concoction	-12.0007
▁condiment	-12.0007
▁confusing	-12.0007
▁contemplat	-12.0007
▁controvers	-12.0007
▁conundrum	-12.0007
▁convoy	-12.0007
▁corporal	-12.0007
▁cranky	-12.0007
▁creek	-12.0007
▁cucumber	-12.0007
▁cumulonimbus	-12.0007
▁cynic	-12.0007
▁debut	-12.0007
▁deduce	-12.0007
▁degenerate	-12.0007
▁demonstrate	-12.0007
▁dempsey	-12.0007
▁despise	-12.0007
▁devastating	-12.0007
▁devereaux	-12.0007
▁discharge	-12.0007
▁disciple	-12.0007
▁dishonor	-12.0007
▁disobey	-12.0007
▁distress	-12.0007
▁doughnuts	-12.0007
▁downfall	-12.0007
▁downhill	-12.0007
▁dunphy	-12.0007
▁embassy	-12.0007
▁embezzle	-12.0007
▁envious	-12.0007
▁epidemic	-12.0007
▁escobar	-12.0007
▁espresso	-12.0007
▁evaluat	-12.0007
▁excessive	-12.0007
▁exhibition	-12.0007
▁expulsion	-12.0007
▁extravagance	-12.0007
▁exxon	-12.0007
▁fingertips	-12.0007
▁fldsmdfr	-12.0007
▁fonnard	-12.0007
▁fraulein	-12.0007
▁fremantle	-12.0007
▁fremont	-12.0007
▁frequencies	-12.0007
▁frequent	-12.0007
▁fuehrer	-12.0007
▁galaxies	-12.0007
▁gandhi	-12.0007
▁gigantic	-12.0007
▁giulietta	-12.0007
▁gizmo	-12.0007
▁godzilla	-12.0007
▁gradually	-12.0007
▁greatgreat	-12.0007
▁guadalupe	-12.0007
▁haarlem	-12.0007
▁haycorns	-12.0007
▁heidi	-12.0007
▁hollister	-12.0007
▁horrifying	-12.0007
▁hufflepuff	-12.0007
▁hydrant	-12.0007
▁hypnoti	-12.0007
▁impenetrable	-12.0007
▁implore	-12.0007
▁inclination	-12.0007
▁incomplete	-12.0007
▁indestructible	-12.0007
▁infirm	-12.0007
▁inherent	-12.0007
▁injury	-12.0007
▁insignificant	-12.0007
▁inspiring	-12.0007
▁inviting	-12.0007
▁irregular	-12.0007
▁israel	-12.0007
▁jennings	-12.0007
▁judging	-12.0007
▁juvenile	-12.0007
▁katanga	-12.0007
▁ketchup	-12.0007
▁klutz	-12.0007
▁knicks	-12.0007
▁koonstra	-12.0007
▁kraut	-12.0007
▁lasalle	-12.0007
▁libyans	-12.0007
▁limousine	-12.0007
▁loverlover	-12.0007
▁manuscript	-12.0007
▁marshmallow	-12.0007
▁marxist	-12.0007
▁matrix	-12.0007
▁maturity	-12.0007
▁mazatlan	-12.0007
▁mazril	-12.0007
▁mcgonagall	-12.0007
▁meadow	-12.0007
▁memphis	-12.0007
▁metropolitan	-12.0007
▁mexican	-12.0007
▁microphone	-12.0007
▁militia	-12.0007
▁millimeter	-12.0007
▁miniature	-12.0007
▁momentarily	-12.0007
▁morilles	-12.0007
▁morrison	-12.0007
▁mosaic	-12.0007
▁murphy	-12.0007
▁musicmusic	-12.0007
▁nagila	-12.0007
▁necesita	-12.0007
▁negotiation	-12.0007
▁neighbours	-12.0007
▁netherland	-12.0007
▁nincompoop	-12.0007
▁ninepence	-12.0007
▁nostalgi	-12.0007
▁numbskull	-12.0007
▁ofjail	-12.0007
▁okeydokey	-12.0007
▁oklahoma	-12.0007
▁olivier	-12.0007
▁omelet	-12.0007
▁orchard	-12.0007
▁orientation	-12.0007
▁orleans	-12.0007
▁outlook	-12.0007
▁outsmart	-12.0007
▁overdress	-12.0007
▁paddle	-12.0007
▁paralyzed	-12.0007
▁participant	-12.0007
▁pedestal	-12.0007
▁pendragon	-12.0007
▁percepti	-12.0007
▁perfume	-12.0007
▁piffle	-12.0007
▁pipkin	-12.0007
▁platinum	-12.0007
▁pneumonia	-12.0007
▁policies	-12.0007
▁potomac	-12.0007
▁preoccupied	-12.0007
▁prettier	-12.0007
▁probability	-12.0007
▁prosperity	-12.0007
▁prosperous	-12.0007
▁python	-12.0007
▁reassure	-12.0007
▁recollect	-12.0007
▁recycle	-12.0007
▁reflexes	-12.0007
▁reindeer	-12.0007
▁rejuvenated	-12.0007
▁religious	-12.0007
▁replenish	-12.0007
▁representative	-12.0007
▁repulsive	-12.0007
▁residency	-12.0007
▁resolve	-12.0007
▁retiring	-12.0007
▁ridicule	-12.0007
▁riffraff	-12.0007
▁rigged	-12.0007
▁rigid	-12.0007
▁rocknroll	-12.0007
▁rrrah	-12.0007
▁safari	-12.0007
▁satellite	-12.0007
▁sauron	-12.0007
▁saviour	-12.0007
▁saxophone	-12.0007
▁scalpel	-12.0007
▁scowl	-12.0007
▁sedative	-12.0007
▁serendipity	-12.0007
▁servir	-12.0007
▁shaft	-12.0007
▁shortcircuit	-12.0007
▁shrewd	-12.0007
▁sidney	-12.0007
▁sleaz	-12.0007
▁sneeze	-12.0007
▁somnambulating	-12.0007
▁sparrow	-12.0007
▁sponsor	-12.0007
▁sprite	-12.0007
▁spuds	-12.0007
▁staircase	-12.0007
▁stamina	-12.0007
▁stammering	-12.0007
▁stevie	-12.0007
▁strykers	-12.0007
▁stugats	-12.0007
▁stunning	-12.0007
▁subscribe	-12.0007
▁substantial	-12.0007
▁surgeries	-12.0007
▁sussex	-12.0007
▁swimsuit	-12.0007
▁sybil	-12.0007
▁sympathize	-12.0007
▁sympathy	-12.0007
▁terrain	-12.0007
▁theoretical	-12.0007
▁tinhorn	-12.0007
▁treacher	-12.0007
▁tremble	-12.0007
▁trevor	-12.0007
▁tricorder	-12.0007
▁trombone	-12.0007
▁tropical	-12.0007
▁tutankhamun	-12.0007
▁tweak	-12.0007
▁undeniabl	-12.0007
▁undress	-12.0007
▁universal	-12.0007
▁unspeakable	-12.0007
▁unthinkable	-12.0007
▁unwrapped	-12.0007
▁upload	-12.0007
▁veteran	-12.0007
▁victrola	-12.0007
▁vocabulary	-12.0007
▁vouch	-12.0007
▁vulcan	-12.0007
▁werewolves	-12.0007
▁whitney	-12.0007
▁wimbledon	-12.0007
▁witchcraft	-12.0007
▁wrinkles	-12.0007
▁ziener	-12.0007
▁zoinks	-12.0007
▁zombie	-12.0007
▁zurich	-12.0007
compensate	-12.0007
▁cannoli	-12.0007
▁casino	-12.0007
▁concussi	-12.0007
▁diagnos	-12.0007
▁gleam	-12.0007
▁jutt	-12.0007
▁katrien	-12.0007
▁stereo	-12.0007
▁sykes	-12.0007
▁unfold	-12.0007
▁agitate	-12.0007
▁astray	-12.0007
▁bartender	-12.0007
▁bentley	-12.0007
▁census	-12.0007
▁charisma	-12.0007
▁confedera	-12.0007
▁deputies	-12.0007
▁disdain	-12.0007
▁dominoes	-12.0007
▁dublin	-12.0007
▁elitist	-12.0007
▁esteem	-12.0007
▁feroci	-12.0007
▁gigolo	-12.0007
▁griswald	-12.0007
▁handmedown	-12.0007
▁hangnail	-12.0007
▁hijack	-12.0007
▁iggy	-12.0007
▁johan	-12.0007
▁keister	-12.0007
▁kennedy	-12.0007
▁kentucky	-12.0007
▁livelihood	-12.0007
▁melodrama	-12.0007
▁oleary	-12.0007
▁ominous	-12.0007
▁oxygen	-12.0007
▁pfft	-12.0007
▁pranee	-12.0007
▁promptly	-12.0007
▁puberty	-12.0007
▁quincy	-12.0007
▁radius	-12.0007
▁railway	-12.0007
▁referee	-12.0007
▁schloss	-12.0007
▁sherlock	-12.0007
▁stooge	-12.0007
▁transpire	-12.0007
▁twig	-12.0007
▁unaware	-12.0007
▁wacko	-12.0007
▁whimsical	-12.0007
▁barnyard	-12.0007
▁blender	-12.0007
▁blending	-12.0007
▁calamo	-12.0007
▁charcoal	-12.0007
▁dudley	-12.0007
▁hudson	-12.0007
▁jonquils	-12.0007
▁knob	-12.0007
▁lazard	-12.0007
▁measly	-12.0007
▁overcome	-12.0007
▁reeves	-12.0007
▁rippling	-12.0007
▁scotch	-12.0007
▁shawl	-12.0007
▁simul	-12.0007
▁sweepstake	-12.0007
▁vicinit	-12.0007
issimo	-12.0007
▁albus	-12.0007
▁ankh	-12.0007
▁backflip	-12.0007
▁chariot	-12.0007
▁chomp	-12.0007
▁decaf	-12.0007
▁disorders	-12.0007
▁enlist	-12.0007
▁eyesight	-12.0007
▁filch	-12.0007
▁freud	-12.0007
▁grievances	-12.0007
▁imperfect	-12.0007
▁junkyard	-12.0007
▁niko	-12.0007
▁nylon	-12.0007
▁overdue	-12.0007
▁pervert	-12.0007
▁postcard	-12.0007
▁practis	-12.0007
▁purchas	-12.0007
▁smirk	-12.0007
▁snare	-12.0007
▁snob	-12.0007
▁spiral	-12.0007
▁storage	-12.0007
▁submit	-12.0007
▁terminal	-12.0007
▁tolerate	-12.0007
▁vernon	-12.0007
imentary	-12.0007
▁carcass	-12.0007
▁colony	-12.0007
▁deceit	-12.0007
▁donna	-12.0007
▁harith	-12.0007
▁inclined	-12.0007
▁luxur	-12.0007
▁meddle	-12.0007
▁parole	-12.0007
▁parrot	-12.0007
▁ultra	-12.0007
▁impound	-12.0007
eflex	-12.0007
▁aroma	-12.0007
▁ballancourt	-12.0007
▁condole	-12.0007
▁handcuff	-12.0007
rimmed	-12.0007
▁bayonet	-12.0007
▁feud	-12.0007
▁iceskat	-12.0007
▁innovat	-12.0007
▁klingon	-12.0007
▁kush	-12.0007
▁lifeform	-12.0007
▁monsoon	-12.0007
▁toyota	-12.0007
▁demoli	-12.0007
▁embark	-12.0007
▁gnat	-12.0007
▁plastic	-12.0007
▁spear	-12.0007
▁tangle	-12.0007
▁cherries	-12.0007
▁herbert	-12.0007
▁illustr	-12.0007
▁overreacti	-12.0007
▁polk	-12.0007
▁sensuous	-12.0007
▁session	-12.0007
▁truffle	-12.0007
▁yuk	-12.0007
▁courtyard	-12.0007
▁fierce	-12.0007
▁lreland	-12.0007
▁salesmen	-12.0007
▁slammed	-12.0007
▁bundle	-12.0007
▁cardinal	-12.0007
▁mirth	-12.0007
▁noctu	-12.0007
▁ramsey	-12.0007
▁syndicate	-12.0007
▁thong	-12.0007
▁tractor	-12.0007
▁zipping	-12.0007
▁info	-12.0007
▁muchacha	-12.0007
▁swoop	-12.0007
▁convert	-12.0007
▁igna	-12.0007
▁orca	-12.0007
▁whaaa	-12.0007
▁klein	-12.0007
▁proverb	-12.0007
▁douglas	-12.0007
▁maynard	-12.0007
▁vanishing	-12.0007
▁devastate	-12.0007
▁hoagie	-12.0007
▁iook	-12.0007
▁oui	-12.0007
▁revolve	-12.0007
▁urias	-12.0007
▁whatsoever	-12.0007
▁hadley	-12.0007
▁jammed	-12.0007
▁restrictions	-12.0007
▁assemble	-12.0007
▁plaster	-12.0007
▁eldest	-12.0007
▁idiom	-12.0007
▁juggl	-12.0007
▁pudding	-12.0007
▁seperate	-12.0007
▁fisherman	-12.0007
▁goverment	-12.0007
▁typing	-12.0007
▁namath	-12.0007
▁whining	-12.0007
▁sketch	-12.0007
▁telescope	-12.0007
▁vato	-12.0007
▁rupe	-12.0007
▁snapping	-12.0007
▁forcing	-12.0007
▁encas	-12.0007
▁modul	-12.0007
▁cadet	-12.0007
▁foureyes	-12.0007
▁harness	-12.0007
▁restrain	-12.0007
▁kelly	-12.0007
▁interven	-12.0007
▁toad	-12.0007
▁folly	-12.0007
▁merit	-12.0007
▁burly	-12.0007
▁bewitch	-12.0007
▁youjames	-12.0007
▁latte	-12.0007
▁screwups	-12.0007
▁fliers	-12.0007
▁pretties	-12.0007
▁berk	-12.0007
▁mimic	-12.0007
▁inflat	-12.0007
▁ravenwood	-12.0007
▁amputat	-12.0007
▁virus	-12.0007
▁sincerely	-12.0007
▁donor	-12.0007
▁vibes	-12.0007
▁virgins	-12.0007
▁hovering	-12.0007
▁gentil	-12.0007
▁munch	-12.0007
▁quaffle	-12.0007
▁appeti	-12.0008
▁elsie	-12.0008
▁minions	-12.0008
▁outburst	-12.0008
▁scopes	-12.0008
▁hidin	-12.0008
▁torso	-12.0008
▁frappe	-12.0008
monos	-12.0008
▁deathbed	-12.0008
▁pester	-12.0008
aminated	-12.0008
▁cookouts	-12.0008
▁clanking	-12.0008
▁lumin	-12.0008
▁rival	-12.0008
▁canada	-12.0008
▁commut	-12.0008
▁recognise	-12.0008
▁appreciation	-12.0008
▁digitise	-12.0008
gencies	-12.0008
▁hooves	-12.0008
▁megatons	-12.0008
▁cavities	-12.0008
▁peanutlovin	-12.0008
▁swindl	-12.0008
▁swipe	-12.0008
▁atheist	-12.0008
▁backhoe	-12.0008
▁debt	-12.0008
▁cappy	-12.0008
▁liberat	-12.0008
▁prescription	-12.0008
▁quaint	-12.0008
▁sarcastically	-12.0008
▁fancies	-12.0008
▁onions	-12.0008
▁oneofa	-12.0008
▁aloof	-12.0008
▁inevitab	-12.0008
▁mixture	-12.0008
▁finito	-12.0008
▁medal	-12.0008
▁deficien	-12.0008
▁napkin	-12.0008
▁libel	-12.0009
mutation	-12.0009
▁insurrection	-12.0009
▁offence	-12.0009
▁accessory	-12.0009
▁hippie	-12.0009
bilize	-12.0009
▁ethical	-12.0009
▁lupe	-12.0009
rilyn	-12.0009
▁glitch	-12.0009
▁socializing	-12.0009
▁justifie	-12.0009
▁venture	-12.0009
▁labour	-12.0009
▁britt	-12.0009
▁primate	-12.0009
▁otisburg	-12.0009
sauce	-12.0009
▁voltage	-12.0009
▁tolls	-12.0009
▁benjamin	-12.0009
▁confound	-12.0009
▁dissection	-12.0009
▁rarebit	-12.0009
▁confidential	-12.0009
▁debri	-12.0009
▁glug	-12.0009
▁obsession	-12.0009
▁deliri	-12.0009
▁wagon	-12.0009
▁poochie	-12.0009
▁amba	-12.0009
▁cleve	-12.0009
▁retaliation	-12.001
aragu	-12.001
▁butterfield	-12.001
▁exalt	-12.001
anza	-12.001
▁broadway	-12.001
▁hazardous	-12.001
▁dodg	-12.001
▁puddle	-12.001
▁viola	-12.001
▁harassment	-12.001
▁giantville	-12.001
▁hatchet	-12.001
▁transmitter	-12.001
▁capabilities	-12.001
▁wwhat	-12.001
▁ginger	-12.001
▁wong	-12.001
▁grindage	-12.001
▁gypsies	-12.001
▁jerkins	-12.001
▁sturdy	-12.001
▁liking	-12.001
▁monstrous	-12.0011
▁timber	-12.0011
▁migrat	-12.0011
▁welty	-12.0011
▁impost	-12.0011
▁fluke	-12.0011
▁grape	-12.0011
▁cuddle	-12.0011
▁femme	-12.0011
▁tinkl	-12.0011
▁dogsitt	-12.0011
▁corruption	-12.0011
▁spew	-12.0011
▁marina	-12.0011
▁abys	-12.0011
▁lowlife	-12.0011
affe	-12.0012
▁boise	-12.0012
▁mummies	-12.0012
▁iq	-12.0012
▁gps	-12.0012
▁babs	-12.0012
▁tubby	-12.0012
▁gingy	-12.0012
▁enci	-12.0012
tigious	-12.0012
▁arnie	-12.0012
▁coeur	-12.0012
▁whim	-12.0012
▁iora	-12.0013
▁repay	-12.0013
▁whack	-12.0013
▁brogan	-12.0013
▁caii	-12.0013
▁jagan	-12.0013
▁considerably	-12.0013
▁apron	-12.0013
▁khan	-12.0013
▁sargent	-12.0014
rnal	-12.0014
▁townsend	-12.0014
▁plotted	-12.0014
▁dressmaker	-12.0014
▁expand	-12.0014
▁perpetuate	-12.0014
▁caca	-12.0014
▁weeds	-12.0014
▁radish	-12.0014
▁fiber	-12.0014
▁quail	-12.0014
▁outof	-12.0014
▁clink	-12.0014
▁novelist	-12.0014
▁maharajaton	-12.0014
ibble	-12.0014
artridge	-12.0014
▁cray	-12.0015
▁caball	-12.0015
▁committing	-12.0015
▁achievement	-12.0015
▁kobo	-12.0015
▁derive	-12.0015
ggio	-12.0015
▁wellbeing	-12.0015
▁aero	-12.0015
▁amends	-12.0015
▁gutter	-12.0015
▁burb	-12.0015
▁gallant	-12.0016
▁fusil	-12.0016
▁burro	-12.0016
▁fiix	-12.0016
▁limo	-12.0016
▁testify	-12.0016
solation	-12.0016
▁nosy	-12.0016
▁frat	-12.0016
▁ofem	-12.0017
▁attendance	-12.0017
▁raving	-12.0017
▁tasty	-12.0017
▁abuse	-12.0017
▁transit	-12.0017
▁glue	-12.0017
▁hark	-12.0017
▁mush	-12.0017
▁cupid	-12.0017
▁stump	-12.0018
▁salu	-12.0018
▁korea	-12.0018
▁knav	-12.0018
disney	-12.0019
▁chess	-12.002
▁regrettabl	-12.002
▁glorif	-12.002
▁brag	-12.002
▁swat	-12.0021
▁acid	-12.0021
▁infu	-12.0022
▁ratings	-12.0022
▁faim	-12.0022
▁radiat	-12.0022
▁rejection	-12.0023
▁affi	-12.0023
skell	-12.0024
nappers	-12.0024
gestion	-12.0024
▁copper	-12.0025
▁crock	-12.0025
syllab	-12.0026
luxe	-12.0027
torious	-12.0028
▁vigo	-12.0029
▁burt	-12.003
▁draco	-12.0034
toile	-12.0035
model	-12.0036
▁slit	-12.004
▁horrifi	-12.0042
gistrat	-12.0045
onger	-12.0052
idna	-12.0056
▁luth	-12.0057
ertain	-12.0059
rrel	-12.0061
▁marqu	-12.0065
▁horr	-12.0065
▁bask	-12.0073
▁easie	-12.0076
▁nostr	-12.0078
▁gown	-12.0084
rawl	-12.0086
tune	-12.0087
▁volume	-12.0087
▁sensibl	-12.0097
sterian	-12.0107
▁conscien	-12.0112
▁deceiv	-12.0112
ntact	-12.0115
uddle	-12.0115
scot	-12.0128
▁blaz	-12.0132
▁actua	-12.0148
▁ji	-12.0166
▁eminen	-12.0182
ubdu	-12.0187
correspondent	-12.0194
addy	-12.0205
portable	-12.0256
choo	-12.0276
▁overhear	-12.0306
▁compress	-12.0319
kill	-12.0324
▁initializ	-12.0333
ueste	-12.0413
▁capabilit	-12.0483
ttered	-12.0542
▁pobr	-12.058
eavesdropper	-12.0614
▁designat	-12.0634
cdc	-12.0687
oval	-12.0712
discrimination	-12.0722
stool	-12.0749
spectacle	-12.0767
shaw	-12.077
espera	-12.082
aahh	-12.0825
potent	-12.0832
mingly	-12.0886
▁indigna	-12.091
▁multiplic	-12.0911
zipper	-12.0918
▁dominat	-12.1129
▁hemi	-12.1136
ppo	-12.1293
▁feli	-12.1506
▁heartbreak	-12.1552
arters	-12.1638
rray	-12.1724
rompt	-12.1739
▁montr	-12.1798
bertie	-12.18
ockey	-12.1871
bonite	-12.1898
marco	-12.1907
▁celebrat	-12.2222
▁invo	-12.2334
trapped	-12.2336
▁provid	-12.2444
argeant	-12.2717
▁shav	-12.2759
▁penetrat	-12.2968
decorate	-12.3042
▁journal	-12.32
akin	-12.3216
▁fiddl	-12.3216
▁prior	-12.3363
breaker	-12.3381
metric	-12.3397
ification	-12.3687
gnant	-12.3738
rloin	-12.3769
utters	-12.3863
tacles	-12.3877
lacking	-12.3907
▁discriminat	-12.3937
tribute	-12.4
harley	-12.4032
▁ofthi	-12.4034
trance	-12.4061
adjusted	-12.4084
qualify	-12.4158
▁doubl	-12.4165
shore	-12.4165
elope	-12.4173
hopping	-12.4208
oohoohoo	-12.4259
▁specif	-12.4274
ayah	-12.4317
breaking	-12.4417
▁utili	-12.4477
innie	-12.4506
▁hagg	-12.4525
attended	-12.4551
webs	-12.4553
shaped	-12.4666
specifi	-12.4667
▁correspond	-12.4708
▁battl	-12.4712
considerate	-12.4746
▁sleeve	-12.4747
▁infr	-12.476
▁circumstance	-12.4762
▁meek	-12.4764
▁ugl	-12.4774
solv	-12.479
▁mystic	-12.4817
▁atti	-12.4836
▁metaph	-12.484
ustard	-12.4867
