<unk>	0
<s>	0
</s>	0
s	-4.01028
▁im	-4.31744
▁dont	-4.41146
▁know	-4.45359
▁get	-4.71581
▁like	-4.78128
▁right	-4.82058
▁go	-4.84085
▁youre	-4.88688
▁yeah	-4.89329
▁got	-4.93127
▁oh	-4.96037
▁come	-4.98222
▁na	-5.02661
▁thats	-5.12851
▁okay	-5.13685
▁well	-5.21958
▁want	-5.23922
▁one	-5.25087
▁think	-5.28591
▁gon	-5.29831
▁good	-5.34006
ing	-5.40134
▁see	-5.40437
▁hey	-5.45145
▁man	-5.45269
▁look	-5.58097
▁yes	-5.58269
▁back	-5.62203
▁going	-5.63272
▁take	-5.64275
▁ill	-5.64339
▁hes	-5.65115
▁time	-5.68295
▁us	-5.73269
▁fuck	-5.73887
▁cant	-5.74243
▁need	-5.75294
▁tell	-5.76732
▁say	-5.78385
ed	-5.81292
▁would	-5.82065
▁really	-5.85397
▁please	-5.86095
▁fucking	-5.87408
▁shit	-5.89898
▁didnt	-5.90026
▁something	-5.92148
▁make	-5.98734
▁let	-5.98746
▁god	-5.99289
▁could	-6.01618
▁sorry	-6.02147
▁way	-6.034
▁thank	-6.03814
▁love	-6.04026
▁never	-6.04836
▁whats	-6.05139
▁little	-6.069
▁mean	-6.08818
▁lets	-6.09879
▁uh	-6.10855
▁give	-6.13678
d	-6.15075
▁	-6.15682
▁people	-6.1623
▁theres	-6.16232
▁said	-6.20504
▁ive	-6.21437
▁l	-6.21982
▁stop	-6.23355
▁much	-6.24629
▁help	-6.25322
▁two	-6.27579
▁sure	-6.31943
▁thing	-6.32276
▁shes	-6.3274
▁call	-6.36135
▁talk	-6.37441
▁home	-6.41872
▁anything	-6.42574
▁mr	-6.42927
▁find	-6.42975
▁wait	-6.43885
▁even	-6.50022
▁theyre	-6.50551
▁maybe	-6.50552
y	-6.50942
▁put	-6.51464
▁night	-6.52692
▁keep	-6.53131
▁work	-6.53248
▁wan	-6.5501
▁around	-6.55756
▁money	-6.56569
▁ever	-6.57089
▁music	-6.57323
▁day	-6.57432
▁first	-6.5805
▁ta	-6.59479
e	-6.59663
▁hell	-6.60315
▁better	-6.60737
▁life	-6.60892
▁still	-6.6124
▁thought	-6.63136
▁nothing	-6.63324
▁leave	-6.65092
▁last	-6.65633
▁told	-6.65799
▁feel	-6.66074
ly	-6.66122
▁sir	-6.66145
▁great	-6.66666
▁long	-6.69528
▁guy	-6.70088
▁listen	-6.70356
▁guys	-6.70861
▁baby	-6.71538
▁hear	-6.71782
▁ok	-6.72293
▁hi	-6.73224
▁years	-6.74287
▁stay	-6.74298
▁name	-6.74979
er	-6.75208
▁girl	-6.75356
▁things	-6.75962
▁understand	-6.76165
▁door	-6.77155
▁away	-6.7777
▁nice	-6.77771
▁hello	-6.78029
▁everything	-6.7862
▁id	-6.80271
▁doesnt	-6.80425
▁place	-6.81783
▁kill	-6.81951
▁new	-6.82396
▁wont	-6.8252
▁remember	-6.82624
▁car	-6.83078
▁lot	-6.83696
▁woman	-6.83757
▁always	-6.84014
▁fine	-6.85092
▁house	-6.85975
▁um	-6.86374
▁coming	-6.86643
▁phone	-6.86831
▁bad	-6.88639
▁boy	-6.88652
▁every	-6.88822
▁talking	-6.88933
▁old	-6.89199
▁youve	-6.90675
▁three	-6.91136
▁made	-6.91631
▁happened	-6.92654
▁father	-6.93565
▁son	-6.93803
▁someone	-6.94417
▁youll	-6.94418
▁done	-6.94897
▁real	-6.95132
▁huh	-6.95858
▁big	-6.96335
▁believe	-6.98339
▁world	-6.98555
▁hold	-6.98587
▁dad	-6.99721
▁must	-6.99769
▁isnt	-7.00561
in	-7.00947
▁trying	-7.01238
▁kind	-7.01259
▁ask	-7.01883
▁show	-7.02149
▁wrong	-7.0365
▁dead	-7.04047
▁enough	-7.04966
▁aint	-7.06032
▁thanks	-7.0618
▁else	-7.06299
▁care	-7.06795
▁wanted	-7.07095
▁try	-7.07651
▁mother	-7.08614
▁course	-7.09022
▁another	-7.09297
▁move	-7.09971
▁left	-7.10407
▁saw	-7.10411
▁found	-7.10647
▁cause	-7.10752
▁room	-7.12592
▁mind	-7.13318
▁might	-7.13666
▁today	-7.14114
▁playing	-7.144
▁looking	-7.16286
▁next	-7.16463
▁mom	-7.16736
▁friend	-7.17534
▁job	-7.17667
▁came	-7.18249
▁best	-7.18881
▁wife	-7.19174
▁run	-7.19208
▁head	-7.193
▁getting	-7.20813
▁morning	-7.21024
▁tonight	-7.23225
▁wasnt	-7.23543
a	-7.23554
▁hard	-7.25499
▁guess	-7.26786
▁knew	-7.27779
▁may	-7.28308
▁pretty	-7.28446
▁whole	-7.28784
▁face	-7.30314
▁went	-7.30478
▁live	-7.3116
▁family	-7.31163
▁ready	-7.31272
▁shut	-7.32424
▁ass	-7.34245
▁ah	-7.34699
t	-7.3485
▁many	-7.34943
▁open	-7.3497
▁called	-7.3512
▁seen	-7.35263
▁end	-7.35332
▁actually	-7.35387
▁heard	-7.35425
▁meet	-7.35649
▁miss	-7.37068
▁five	-7.37508
▁together	-7.37559
▁weve	-7.38667
r	-7.3869
n	-7.38908
▁crazy	-7.40162
▁men	-7.41241
▁die	-7.4146
▁hurt	-7.42106
▁problem	-7.43368
▁bit	-7.43441
▁whos	-7.44069
▁bitch	-7.45546
▁fuckin	-7.46048
▁hope	-7.46151
▁watch	-7.4637
▁alone	-7.46379
▁police	-7.46748
▁use	-7.46993
▁brother	-7.47173
▁nobody	-7.47182
▁story	-7.47182
▁idea	-7.47784
▁four	-7.48391
▁beautiful	-7.49223
▁wouldnt	-7.49295
▁school	-7.49897
▁everybody	-7.49905
▁excuse	-7.50468
▁anyone	-7.50468
▁took	-7.50468
▁start	-7.50504
▁em	-7.50573
▁sit	-7.50589
▁everyone	-7.50896
▁hand	-7.51271
▁ya	-7.51329
▁days	-7.51672
▁bring	-7.52034
▁damn	-7.52266
▁second	-7.52487
▁water	-7.52498
▁kids	-7.52548
▁turn	-7.52583
▁matter	-7.52937
▁easy	-7.53438
▁gone	-7.53514
▁youd	-7.53879
▁eat	-7.54287
▁tomorrow	-7.54298
▁gun	-7.54678
▁whatever	-7.54735
▁grunts	-7.54921
▁havent	-7.55608
▁six	-7.56029
▁happy	-7.5605
▁case	-7.56757
▁jesus	-7.56936
▁check	-7.56996
▁business	-7.57358
▁killed	-7.57572
▁used	-7.57718
▁close	-7.58202
o	-7.58276
l	-7.58378
▁heart	-7.58739
▁saying	-7.59204
▁kid	-7.59238
▁point	-7.59583
▁play	-7.59795
▁without	-7.60564
▁alright	-7.60565
▁true	-7.60773
▁ago	-7.61496
▁minutes	-7.62328
▁chuckles	-7.62485
▁friends	-7.62883
▁minute	-7.63002
▁already	-7.63375
i	-7.63932
es	-7.64044
▁since	-7.64332
al	-7.6449
▁eyes	-7.64511
▁probably	-7.64811
▁yet	-7.64822
▁couldnt	-7.6488
▁stuff	-7.65296
▁read	-7.65338
▁hit	-7.65529
▁goddamn	-7.65767
▁mrs	-7.6654
▁sighs	-7.66843
▁inside	-7.67252
▁supposed	-7.67311
▁daddy	-7.67419
▁looks	-7.6784
▁wheres	-7.68269
▁pay	-7.68412
▁fire	-7.68682
▁hmm	-7.68713
▁later	-7.69092
▁bye	-7.69244
▁part	-7.69251
▁walk	-7.69484
▁high	-7.69494
▁drink	-7.69506
▁late	-7.70029
▁worry	-7.70797
▁grunting	-7.70823
▁cut	-7.71059
▁year	-7.72097
▁trust	-7.73048
▁different	-7.73218
▁says	-7.73268
▁lost	-7.73377
▁fight	-7.73665
▁continues	-7.73719
▁thinking	-7.74371
▁free	-7.75062
▁hate	-7.7526
▁hands	-7.75334
▁working	-7.75405
ve	-7.75416
▁whoa	-7.75491
▁deal	-7.75524
▁somebody	-7.758
▁soon	-7.75908
▁exactly	-7.76032
▁ha	-7.76795
▁dr	-7.76983
▁couple	-7.7711
▁set	-7.7759
▁fun	-7.77985
▁number	-7.78049
▁bed	-7.78242
▁happen	-7.7887
▁tv	-7.79866
▁question	-7.8006
▁times	-7.80079
▁word	-7.80328
▁joe	-7.80893
▁truth	-7.80993
▁death	-7.80994
▁change	-7.8123
▁gave	-7.81561
▁wow	-7.81561
▁white	-7.81571
▁break	-7.82029
▁blood	-7.82558
▁week	-7.82638
▁buy	-7.82674
▁honey	-7.83285
▁sound	-7.83515
▁pick	-7.83566
▁makes	-7.83568
▁sleep	-7.83714
▁shot	-7.84368
▁dog	-7.8449
▁laughing	-7.84655
▁clear	-7.84685
▁wants	-7.84979
▁hours	-7.85188
▁body	-7.85634
▁stand	-7.85641
▁waiting	-7.85712
▁book	-7.85913
▁outside	-7.85982
▁line	-7.86005
▁young	-7.8611
▁person	-7.86123
▁boys	-7.86798
▁nick	-7.8726
▁important	-7.8729
▁afraid	-7.87426
▁also	-7.87428
▁rest	-7.87579
▁mine	-7.88131
▁anymore	-7.89255
▁doctor	-7.89291
▁sister	-7.89295
▁girls	-7.89308
▁light	-7.89339
▁full	-7.8962
▁women	-7.89869
▁husband	-7.89908
▁means	-7.9026
▁answer	-7.90386
▁far	-7.90679
▁ben	-7.90738
▁stupid	-7.9103
▁taking	-7.91145
▁christ	-7.91724
▁hot	-7.91826
▁daughter	-7.91834
▁party	-7.91942
▁news	-7.92043
▁scared	-7.92428
▁chance	-7.92467
▁safe	-7.92806
▁john	-7.92999
▁black	-7.93005
▁anybody	-7.93018
▁welcome	-7.93661
▁screaming	-7.93737
▁mike	-7.94154
▁cool	-7.94184
▁town	-7.94961
▁send	-7.95156
▁started	-7.95425
▁though	-7.95573
▁making	-7.95609
▁perfect	-7.9677
▁forget	-7.96921
▁side	-7.98449
▁jack	-7.98882
▁behind	-7.9894
▁un	-7.99367
▁child	-7.99822
▁touch	-8.0086
▁drive	-8.01126
▁street	-8.01258
▁laughs	-8.01266
▁arent	-8.01692
▁city	-8.02409
▁speak	-8.02813
g	-8.02987
▁funny	-8.03096
▁shoot	-8.03123
▁telling	-8.03191
▁michael	-8.03317
▁hair	-8.03646
▁mouth	-8.03812
▁moment	-8.0413
▁goes	-8.04344
▁tried	-8.04536
▁trouble	-8.04555
▁panting	-8.05237
▁order	-8.05281
▁breathing	-8.05409
▁power	-8.05555
▁anyway	-8.05566
▁ahead	-8.05964
▁children	-8.05965
p	-8.06056
▁dinner	-8.06247
▁promise	-8.06476
▁wish	-8.06638
ll	-8.06652
▁met	-8.06787
▁food	-8.0743
▁reason	-8.07807
▁pain	-8.07866
▁red	-8.07868
▁officer	-8.07884
▁front	-8.08162
▁half	-8.08165
▁emily	-8.08173
▁groans	-8.08989
▁died	-8.09435
est	-8.09656
▁sounds	-8.0973
▁sometimes	-8.09948
▁almost	-8.10423
▁married	-8.10425
▁asked	-8.10549
▁lm	-8.10605
▁game	-8.10895
▁million	-8.11667
▁leaving	-8.11957
▁calm	-8.1196
▁months	-8.12079
▁parents	-8.12103
▁ten	-8.12431
▁wake	-8.12717
▁feeling	-8.12844
▁yo	-8.13247
▁air	-8.1344
▁control	-8.13496
▁sick	-8.13503
▁church	-8.13508
▁either	-8.13511
ic	-8.13865
on	-8.14349
▁clean	-8.14683
▁screams	-8.14684
▁hour	-8.14905
▁quite	-8.15155
▁re	-8.16452
▁lady	-8.16754
▁p	-8.17487
▁buddy	-8.17514
▁pull	-8.17577
▁fucked	-8.1766
▁la	-8.18065
▁mary	-8.18098
▁war	-8.18293
▁least	-8.18332
▁ooh	-8.18332
▁hang	-8.1848
▁calling	-8.18655
▁hows	-8.18874
▁amy	-8.18996
▁asshole	-8.19012
▁piece	-8.19013
▁c	-8.19016
▁serious	-8.19038
m	-8.19147
▁ding	-8.19156
▁running	-8.19171
▁voice	-8.19836
▁motherfucker	-8.19847
▁hurry	-8.19998
▁alive	-8.20003
▁james	-8.20835
▁crying	-8.21145
▁company	-8.21679
▁lord	-8.21684
▁living	-8.21686
▁shall	-8.21731
▁law	-8.22356
▁goodbye	-8.22535
▁till	-8.22544
▁theyll	-8.22549
▁dress	-8.23099
b	-8.23165
▁th	-8.23374
▁seven	-8.23376
▁dear	-8.23379
▁charlie	-8.23397
▁office	-8.24193
▁top	-8.24252
▁brought	-8.24265
ie	-8.24842
▁save	-8.24976
▁ride	-8.25039
▁dance	-8.25074
▁dude	-8.25144
▁special	-8.25703
▁drop	-8.25889
▁speaking	-8.26599
▁itll	-8.26924
▁sam	-8.26941
▁holy	-8.26975
▁bet	-8.27855
▁weeks	-8.27926
▁lucky	-8.27948
▁radio	-8.28734
▁groaning	-8.28754
▁plan	-8.29115
▁art	-8.29347
▁sweet	-8.29602
▁david	-8.2964
▁gasps	-8.29777
▁loved	-8.2984
▁bullshit	-8.30575
▁needs	-8.3106
▁fast	-8.31234
▁asking	-8.31281
▁follow	-8.31555
▁relax	-8.31622
ion	-8.31842
▁moving	-8.32453
▁kidding	-8.32455
▁taken	-8.33366
▁able	-8.33586
▁king	-8.33729
▁fall	-8.33896
▁cross	-8.34053
▁hospital	-8.34347
▁yall	-8.34438
▁questions	-8.34557
▁wall	-8.35311
▁grace	-8.35337
▁softly	-8.35394
▁throw	-8.35792
▁sex	-8.35806
▁truck	-8.36317
▁happens	-8.36549
▁engine	-8.36879
▁bill	-8.37194
▁paul	-8.3731
▁along	-8.37312
▁seem	-8.38118
▁court	-8.383
▁fact	-8.38376
▁dream	-8.38632
▁murder	-8.38957
▁fear	-8.39093
▁comes	-8.39262
▁fault	-8.39318
▁country	-8.39324
▁poor	-8.39326
▁dick	-8.39451
▁lives	-8.39533
▁de	-8.3989
▁sense	-8.40289
▁swear	-8.40338
▁somewhere	-8.40338
▁ladies	-8.4034
▁glad	-8.4034
▁maam	-8.4034
▁fred	-8.40349
▁blue	-8.40459
or	-8.40465
▁mommy	-8.4054
▁mad	-8.40571
man	-8.40683
▁weird	-8.41279
▁past	-8.41328
▁lose	-8.41347
▁dark	-8.41353
▁state	-8.41353
▁figure	-8.41364
▁al	-8.41702
c	-8.41727
▁sign	-8.42175
▁shouldnt	-8.42411
▁absolutely	-8.42421
▁sent	-8.42423
▁hotel	-8.42431
▁class	-8.42494
▁frank	-8.42549
▁missing	-8.42662
▁quiet	-8.43333
▁english	-8.43463
▁jake	-8.43464
▁bobby	-8.43466
▁kiss	-8.43598
▁words	-8.43665
▁choice	-8.43756
▁road	-8.43775
▁report	-8.43875
▁longer	-8.44131
ies	-8.44248
▁worth	-8.44352
▁luck	-8.44391
▁straight	-8.44429
▁careful	-8.44466
▁shell	-8.4458
▁write	-8.44715
k	-8.4486
▁rick	-8.4545
▁birthday	-8.45603
▁mm	-8.45742
▁heres	-8.45775
▁mistake	-8.45823
▁song	-8.46087
▁mmhmm	-8.46701
▁hed	-8.47033
▁picture	-8.47083
▁lie	-8.47136
▁happening	-8.47584
▁indistinct	-8.47659
▁amazing	-8.47789
▁kate	-8.47797
▁sophie	-8.4781
▁become	-8.48145
▁b	-8.48685
▁team	-8.49294
▁beat	-8.49552
▁wind	-8.49708
▁caught	-8.50023
▁aii	-8.50252
▁sort	-8.50415
▁adam	-8.50429
us	-8.50508
▁catch	-8.50713
▁finish	-8.50858
▁quick	-8.50908
▁knows	-8.51154
▁felt	-8.51158
▁barbara	-8.51159
▁lying	-8.51174
▁tom	-8.5123
st	-8.51476
▁n	-8.51537
▁lawyer	-8.51611
▁bank	-8.51621
▁in	-8.5198
▁prison	-8.52169
▁blow	-8.52273
▁rather	-8.52309
▁forever	-8.5231
▁finally	-8.52377
▁bag	-8.5261
▁pass	-8.52841
▁explain	-8.53033
▁honor	-8.53156
able	-8.53164
▁s	-8.53413
▁coffee	-8.53471
▁gentlemen	-8.53472
▁andy	-8.53492
▁building	-8.5416
▁rock	-8.5429
▁ow	-8.54612
▁alice	-8.5465
▁mama	-8.54654
▁handle	-8.5558
▁accident	-8.55633
▁sad	-8.55719
▁bro	-8.55842
▁needed	-8.56014
▁a	-8.56109
▁meant	-8.56607
▁strong	-8.56785
▁cute	-8.56815
▁wonderful	-8.57057
▁ray	-8.57109
▁learn	-8.5749
▁floor	-8.5755
▁none	-8.57581
▁beer	-8.57621
▁cry	-8.5774
▁eight	-8.58091
▁davis	-8.58262
▁south	-8.58263
▁definitely	-8.58273
▁hundred	-8.58857
▁less	-8.58908
▁g	-8.59446
▁collins	-8.59497
▁bar	-8.59526
▁act	-8.59611
ers	-8.60034
▁cell	-8.601
▁step	-8.60124
▁paper	-8.60202
▁beach	-8.6069
▁boss	-8.60701
▁grand	-8.60727
▁yesterday	-8.60747
▁werent	-8.60747
▁harry	-8.60748
▁mmm	-8.6075
▁giving	-8.60756
ful	-8.60786
▁er	-8.61294
▁belt	-8.61314
▁sell	-8.61566
▁st	-8.6168
▁cop	-8.62136
▁date	-8.63084
▁small	-8.63175
▁laugh	-8.63195
▁evening	-8.63243
▁heavy	-8.63295
▁aah	-8.63303
▁cold	-8.6334
▁hide	-8.63346
▁roll	-8.63419
▁changed	-8.63781
▁expect	-8.63826
▁smile	-8.63955
f	-8.64019
▁eye	-8.64062
▁smell	-8.64065
▁fix	-8.64246
▁seems	-8.6433
▁possible	-8.64594
▁edward	-8.64597
▁earth	-8.64599
▁feet	-8.64605
▁doin	-8.64627
▁carl	-8.64671
▁gets	-8.64729
▁mate	-8.65038
re	-8.65117
▁train	-8.65154
▁secret	-8.65234
▁human	-8.65254
▁sing	-8.65292
▁babe	-8.65316
▁smoke	-8.65323
▁box	-8.65563
▁i	-8.65654
▁deep	-8.6566
▁imagine	-8.657
▁gods	-8.65776
▁karen	-8.65909
▁computer	-8.65911
▁seat	-8.66486
▁join	-8.66882
▁fat	-8.66883
▁meeting	-8.67025
ity	-8.67042
▁french	-8.67189
▁heavily	-8.67243
▁dying	-8.67296
▁kick	-8.67297
▁known	-8.67457
▁ted	-8.67524
▁talked	-8.67554
▁win	-8.67572
▁works	-8.67667
▁stick	-8.67711
▁message	-8.68155
▁shh	-8.68199
ch	-8.68267
▁kept	-8.68594
▁others	-8.68594
▁tough	-8.68594
▁vanessa	-8.68594
▁grab	-8.68598
▁dollars	-8.69083
▁gift	-8.69381
▁given	-8.69395
▁president	-8.69426
▁age	-8.6947
h	-8.69536
▁wear	-8.69552
▁worse	-8.69964
▁outta	-8.69966
▁nobby	-8.69969
▁copy	-8.70126
▁shed	-8.70442
ness	-8.70897
▁york	-8.71128
▁rich	-8.71198
▁walking	-8.71211
▁smart	-8.71216
▁personal	-8.71314
▁lunch	-8.71353
▁terrible	-8.71353
▁captain	-8.71355
▁brandon	-8.71358
u	-8.71376
▁sitting	-8.71384
▁names	-8.71531
ce	-8.71547
▁protect	-8.7194
▁push	-8.71991
▁pal	-8.7215
▁boat	-8.72222
▁boyfriend	-8.72246
▁bell	-8.7225
▁sake	-8.72293
▁slow	-8.72511
▁missed	-8.72514
▁across	-8.72763
▁ground	-8.72766
▁distance	-8.72768
▁apartment	-8.72777
▁seriously	-8.72982
▁file	-8.73169
en	-8.73293
▁short	-8.73482
▁charge	-8.73588
▁service	-8.7378
▁key	-8.73856
▁jump	-8.73881
▁bought	-8.7419
▁future	-8.7419
▁dottie	-8.7419
▁katie	-8.74197
▁goin	-8.74298
▁lovely	-8.7467
▁enjoy	-8.74842
le	-8.75081
▁whoo	-8.75144
▁movie	-8.75287
▁worst	-8.7564
▁breathe	-8.75691
▁cheering	-8.75764
▁killing	-8.75862
▁ringing	-8.76047
▁whose	-8.76156
▁mess	-8.76335
▁american	-8.76813
▁ran	-8.76857
▁sy	-8.77042
▁near	-8.77058
▁caesar	-8.7711
▁forgot	-8.7711
▁upstairs	-8.7711
▁phil	-8.77114
▁station	-8.77138
▁dean	-8.77148
▁broken	-8.77169
▁carter	-8.77198
▁howd	-8.77204
▁watching	-8.77304
▁test	-8.7748
▁keys	-8.7749
▁tape	-8.78016
an	-8.78061
▁chatter	-8.78149
▁plane	-8.78363
▁martin	-8.78401
▁soul	-8.78407
▁worked	-8.78459
▁strange	-8.78531
▁throat	-8.78602
▁tense	-8.78619
▁security	-8.7862
▁gasping	-8.78656
▁hall	-8.78669
▁early	-8.78679
▁totally	-8.78691
▁bart	-8.78809
▁wonder	-8.79307
▁ones	-8.79348
▁surprise	-8.79546
▁fly	-8.79612
▁respect	-8.79792
▁girlfriend	-8.79812
▁lights	-8.80009
▁proud	-8.80119
▁jail	-8.8012
▁drunk	-8.80123
▁unless	-8.80149
▁brad	-8.80195
▁land	-8.80982
▁system	-8.8129
▁store	-8.81321
▁fair	-8.81364
▁honest	-8.8137
z	-8.81397
▁month	-8.81423
▁glass	-8.81614
▁born	-8.81671
▁bob	-8.81857
▁wed	-8.81908
▁cops	-8.82297
▁arm	-8.82333
▁star	-8.82453
▁mindy	-8.82465
▁idiot	-8.82936
▁machine	-8.83002
▁entire	-8.83084
▁except	-8.8319
▁stig	-8.83199
▁charles	-8.8322
▁driving	-8.83222
▁hiding	-8.83258
▁dirty	-8.8326
▁sun	-8.83471
th	-8.83673
▁appreciate	-8.84562
▁owe	-8.84585
▁share	-8.84619
▁america	-8.84743
▁bathroom	-8.84807
▁bottle	-8.84807
▁single	-8.84834
▁yelling	-8.8495
▁takes	-8.84955
▁suck	-8.85563
▁present	-8.8577
up	-8.86035
▁broke	-8.86114
▁uncle	-8.86129
▁bastard	-8.86215
ive	-8.86272
▁pop	-8.86384
▁upset	-8.8641
▁kathy	-8.86418
▁situation	-8.86418
▁sweetheart	-8.86419
▁aaron	-8.86419
▁middle	-8.86419
▁code	-8.86446
▁busy	-8.86508
▁ring	-8.86706
▁burn	-8.86887
▁cover	-8.8703
▁form	-8.87468
▁spend	-8.87597
▁window	-8.8789
▁normal	-8.87932
▁looked	-8.87948
▁da	-8.88027
▁anywhere	-8.88058
▁crowd	-8.88084
▁completely	-8.88132
▁cook	-8.88165
▁guns	-8.88271
▁clicks	-8.88595
▁wearing	-8.88605
▁record	-8.88681
less	-8.88866
▁lock	-8.88956
▁fish	-8.89133
▁spot	-8.89354
▁attention	-8.89724
▁spanish	-8.89724
▁lewis	-8.89726
▁uhhuh	-8.89727
▁hungry	-8.89728
▁department	-8.89728
▁paid	-8.8973
▁walter	-8.89736
▁nine	-8.90118
▁finished	-8.90176
▁r	-8.90204
▁treat	-8.90322
▁return	-8.90342
▁count	-8.90358
▁listening	-8.90431
▁nah	-8.90552
nt	-8.90679
▁turned	-8.90918
▁where	-8.90937
▁judge	-8.91082
▁notice	-8.91203
▁camera	-8.91345
▁low	-8.91403
▁ed	-8.91411
▁address	-8.91419
▁maggie	-8.9142
▁angry	-8.9142
▁hasnt	-8.9142
▁information	-8.91422
▁richard	-8.91424
▁gena	-8.91429
▁ends	-8.91434
▁tired	-8.91482
▁whispers	-8.91562
▁exhales	-8.91593
▁demon	-8.91666
ation	-8.91747
▁master	-8.92054
▁killer	-8.92216
▁offer	-8.92226
▁lead	-8.92413
▁sea	-8.92478
▁problems	-8.92491
is	-8.92502
▁brown	-8.92705
▁round	-8.92925
▁favorite	-8.92971
▁agent	-8.9306
▁hole	-8.93126
▁admit	-8.93135
▁afternoon	-8.93143
▁pleasure	-8.93143
▁knife	-8.93146
▁oliver	-8.9315
▁flight	-8.93152
▁alarm	-8.93154
▁indistinctly	-8.93347
▁seconds	-8.93529
▁super	-8.93537
▁trip	-8.93611
▁peace	-8.93644
▁an	-8.93833
▁cat	-8.93999
▁picked	-8.9405
▁comet	-8.94075
▁they	-8.94675
▁quit	-8.94764
▁loud	-8.94785
▁heaven	-8.94793
▁fell	-8.94817
▁christmas	-8.94898
▁clothes	-8.94901
▁yep	-8.94917
▁whatd	-8.94923
▁warm	-8.95075
▁suit	-8.95171
▁sal	-8.95515
▁teach	-8.9605
▁attack	-8.96239
▁conversation	-8.9659
▁worried	-8.96684
▁language	-8.96686
▁mission	-8.96791
▁letter	-8.96845
▁bud	-8.97139
▁using	-8.97375
▁rain	-8.97744
▁track	-8.97978
▁wild	-8.98147
▁suppose	-8.98294
▁peter	-8.98475
▁north	-8.985
▁extra	-8.98501
▁evil	-8.98502
▁wedding	-8.98503
▁dramatic	-8.98503
▁instead	-8.98504
▁wrote	-8.98504
▁detective	-8.98505
▁shouting	-8.98625
▁list	-8.98717
▁stops	-8.9884
ally	-8.98889
▁knocking	-8.98892
el	-8.99279
▁pictures	-8.99689
ian	-8.99778
▁correct	-8.99925
▁ball	-8.99996
▁birds	-9.0001
▁press	-9.0006
▁public	-9.00084
▁lay	-9.00145
▁faith	-9.00335
▁favor	-9.00351
▁veronica	-9.00354
▁johnnie	-9.00354
▁elizabeth	-9.0036
▁creaking	-9.00375
▁account	-9.00382
▁crime	-9.00382
▁opens	-9.00405
▁joke	-9.00407
▁van	-9.00645
▁bloody	-9.00842
to	-9.01156
▁breath	-9.01222
ist	-9.017
▁val	-9.01787
▁fighting	-9.01978
▁stuck	-9.0224
▁color	-9.0224
▁difference	-9.0224
▁albert	-9.02241
▁west	-9.02245
▁dangerous	-9.02246
▁cash	-9.02252
▁board	-9.02313
▁brain	-9.02327
▁sweetie	-9.02341
▁cos	-9.03609
▁seeing	-9.03878
▁certain	-9.04028
▁general	-9.04029
▁deserve	-9.0403
▁contact	-9.04164
▁darling	-9.04167
▁bunch	-9.04167
▁lonely	-9.0417
▁everywhere	-9.04177
▁bigger	-9.04202
▁porter	-9.04203
▁books	-9.04217
▁sheriff	-9.04224
▁usually	-9.04243
▁table	-9.04246
▁neo	-9.04276
▁card	-9.04278
▁army	-9.04352
▁fit	-9.04399
▁he	-9.04663
▁wouldve	-9.05251
▁co	-9.05392
▁film	-9.05559
▁grow	-9.05577
▁rules	-9.05618
▁nat	-9.05659
▁bless	-9.05675
▁liked	-9.05764
▁allow	-9.05824
▁h	-9.05884
▁feels	-9.06026
▁forgive	-9.06069
▁chair	-9.06103
▁apart	-9.06105
▁earlier	-9.06126
▁cunt	-9.06127
▁jessie	-9.06129
▁upon	-9.06136
▁beeping	-9.06166
▁ex	-9.06186
▁area	-9.06224
▁horse	-9.06246
▁ii	-9.06254
▁thousand	-9.06277
▁awful	-9.06496
▁promised	-9.06708
ry	-9.06857
▁ls	-9.06988
it	-9.0699
▁papers	-9.07006
▁couldve	-9.07036
▁pray	-9.0721
▁ms	-9.07481
te	-9.07741
▁ice	-9.0777
▁fingers	-9.07869
▁nervous	-9.07989
▁evidence	-9.08124
▁footsteps	-9.08124
▁history	-9.08124
▁scoffs	-9.08124
▁pregnant	-9.08124
▁nowhere	-9.08125
▁common	-9.08127
▁perhaps	-9.08152
▁nose	-9.08162
▁d	-9.0818
▁obviously	-9.08188
▁island	-9.08237
▁club	-9.08253
▁deeply	-9.08322
▁interesting	-9.08327
▁whore	-9.08409
ment	-9.08522
▁so	-9.08622
ass	-9.08645
▁starts	-9.08758
▁cheers	-9.08819
▁ty	-9.08826
▁miles	-9.08934
▁victims	-9.09377
▁lt	-9.09482
▁rings	-9.09885
▁excited	-9.10027
▁simple	-9.10091
▁balls	-9.10104
▁private	-9.10165
▁rebecca	-9.10165
▁warren	-9.10165
▁vioiet	-9.10166
▁forward	-9.10166
▁texas	-9.10166
▁third	-9.10172
▁mister	-9.10182
▁stopped	-9.1026
▁dogs	-9.10313
▁drug	-9.10333
▁scene	-9.10334
▁weekend	-9.10362
▁corner	-9.10377
▁finger	-9.10427
▁ship	-9.10439
ant	-9.10842
▁calls	-9.10941
▁vi	-9.10986
▁mark	-9.1116
▁om	-9.11673
▁marry	-9.11772
▁chris	-9.12056
▁base	-9.12084
▁somethin	-9.12214
▁whether	-9.12248
▁somehow	-9.12249
▁martha	-9.12249
▁kitchen	-9.12249
▁twice	-9.12249
▁jim	-9.12253
▁within	-9.12257
et	-9.12311
▁eating	-9.12378
▁certainly	-9.12389
▁starting	-9.12443
▁decided	-9.12445
▁cup	-9.12471
▁teacher	-9.12635
▁matt	-9.12861
▁chattering	-9.1289
▁price	-9.12924
▁wine	-9.13377
▁fathers	-9.13498
▁hook	-9.13663
▁knock	-9.13818
▁moved	-9.13883
▁everythings	-9.13946
▁rid	-9.13983
▁realize	-9.1419
▁choose	-9.14376
▁college	-9.14376
▁emergency	-9.14376
▁rufus	-9.14376
▁gordon	-9.14376
▁willing	-9.14379
▁spent	-9.1438
▁meat	-9.14387
▁amen	-9.14419
▁angela	-9.14454
▁angel	-9.14517
▁gas	-9.14572
▁chucky	-9.14635
▁green	-9.14702
▁allowed	-9.14706
▁arms	-9.14712
▁leg	-9.14844
w	-9.14864
▁lied	-9.14945
▁cost	-9.15127
im	-9.15369
▁east	-9.15397
▁closed	-9.15405
▁tea	-9.15489
▁speaks	-9.15586
▁consider	-9.1616
▁carry	-9.16208
▁arrest	-9.16246
▁soft	-9.16421
▁total	-9.16422
▁fool	-9.16477
▁final	-9.16488
▁paris	-9.16492
▁congratulations	-9.1655
▁terry	-9.1655
▁hadnt	-9.1655
▁silence	-9.1655
▁tongue	-9.1655
▁bunny	-9.16551
▁teeth	-9.16553
▁jason	-9.16554
▁kitty	-9.16555
▁weak	-9.1656
▁dawn	-9.16561
▁ig	-9.16665
▁papa	-9.16754
ary	-9.16845
▁henry	-9.16846
▁shake	-9.16879
▁locked	-9.16961
▁shoes	-9.17017
▁di	-9.17231
▁dressed	-9.17323
▁park	-9.17876
▁doubt	-9.18439
▁reading	-9.18633
▁gold	-9.18689
draic	-9.18772
▁especially	-9.18772
▁antonio	-9.18772
▁rachel	-9.18773
▁senator	-9.18776
▁aunt	-9.18778
▁writing	-9.18781
▁space	-9.18798
▁jackson	-9.18799
▁whispering	-9.18821
▁t	-9.18857
▁nature	-9.18863
▁buzzing	-9.18963
▁contract	-9.19028
▁trial	-9.19048
▁decision	-9.19124
▁folks	-9.19125
▁client	-9.19196
▁priest	-9.1922
▁besides	-9.19458
▁prove	-9.20142
▁crack	-9.20361
out	-9.20416
▁wash	-9.20618
▁piss	-9.20693
▁bother	-9.20857
▁tight	-9.20898
▁doll	-9.20944
▁stole	-9.20985
▁byebye	-9.21045
▁matrix	-9.21045
▁zain	-9.21045
▁shame	-9.21047
▁shop	-9.2106
▁pants	-9.21062
▁robby	-9.21063
▁over	-9.21083
▁decide	-9.21129
▁tie	-9.21311
▁river	-9.2137
▁major	-9.21392
▁taste	-9.21455
▁bird	-9.21516
▁pa	-9.21921
▁mothers	-9.22093
ri	-9.22353
▁bucks	-9.22567
▁screw	-9.22592
▁standing	-9.22825
▁holding	-9.2298
▁mention	-9.23112
▁agree	-9.23116
▁drugs	-9.23202
▁witness	-9.23318
▁text	-9.23343
▁bodies	-9.23371
▁downstairs	-9.23371
▁gekko	-9.23371
▁neither	-9.23371
▁sobbing	-9.23371
▁abby	-9.23373
▁tommy	-9.23377
▁iike	-9.23379
▁access	-9.23389
▁risk	-9.23404
▁brothers	-9.23425
▁sky	-9.23429
▁interested	-9.23528
▁manage	-9.23667
▁billy	-9.23728
▁relationship	-9.23729
▁video	-9.23773
▁tree	-9.23881
▁learned	-9.23964
▁opening	-9.24011
▁singing	-9.24192
▁pulled	-9.24246
▁eh	-9.24299
▁k	-9.24406
ous	-9.24927
▁sleeping	-9.25229
▁priests	-9.25274
▁fucker	-9.25355
▁steve	-9.25696
▁fresh	-9.25702
▁mmhm	-9.25724
▁comin	-9.25751
▁mmmhmm	-9.25751
▁opportunity	-9.25751
▁sebastian	-9.25751
▁claire	-9.25752
▁romantic	-9.25752
▁larry	-9.25754
▁frost	-9.25755
▁thas	-9.25768
▁beauty	-9.25769
▁safety	-9.25781
▁papi	-9.25784
▁cake	-9.25786
▁pussy	-9.25797
▁ca	-9.25825
▁build	-9.25831
inous	-9.25832
▁beeps	-9.25954
▁devil	-9.26296
▁guard	-9.26345
▁noise	-9.26351
▁rule	-9.26536
rs	-9.26583
▁legs	-9.27792
▁accept	-9.27853
▁fill	-9.2793
▁match	-9.28148
▁became	-9.28191
▁empty	-9.28191
▁familiar	-9.28191
▁lieutenant	-9.28191
▁often	-9.28191
▁boston	-9.28191
▁bravo	-9.28191
▁impossible	-9.28191
▁bishop	-9.28191
▁monday	-9.28192
▁local	-9.28192
▁morse	-9.28192
▁yellow	-9.28193
▁archbishop	-9.28193
▁neck	-9.28194
▁stock	-9.28195
▁suspect	-9.28199
▁pressure	-9.28205
▁incredible	-9.28213
▁cady	-9.28222
▁lake	-9.28232
▁dumb	-9.28239
▁putting	-9.28323
▁force	-9.28585
▁animal	-9.28854
▁weapon	-9.28854
▁kinda	-9.28896
at	-9.28929
▁unit	-9.29129
ton	-9.29583
▁talkin	-9.29843
▁reach	-9.29868
▁search	-9.29909
ling	-9.30111
▁dreams	-9.30166
▁blame	-9.30447
▁paying	-9.30464
▁raise	-9.30487
▁plays	-9.30522
▁arthur	-9.3069
▁marriage	-9.3069
▁ridiculous	-9.3069
▁stories	-9.3069
▁whistling	-9.3069
▁fenton	-9.30691
▁insane	-9.30691
▁humming	-9.30692
▁foot	-9.30699
▁nino	-9.307
▁julia	-9.30703
▁laughter	-9.30708
▁clock	-9.30712
▁involved	-9.30713
▁large	-9.30734
▁mum	-9.30774
▁cock	-9.30915
▁cora	-9.31128
▁turns	-9.3125
▁summer	-9.31313
▁passed	-9.31354
▁type	-9.31408
▁photo	-9.31412
▁roger	-9.31422
▁murdered	-9.3145
▁staying	-9.31536
▁hearing	-9.31696
▁begin	-9.31778
▁o	-9.31846
▁states	-9.31852
ate	-9.31854
▁e	-9.32182
▁san	-9.32558
ra	-9.3265
▁breaking	-9.32726
▁toast	-9.32736
▁ma	-9.33017
▁dig	-9.33077
▁fort	-9.33106
▁prefer	-9.33248
▁provide	-9.33253
▁augie	-9.33255
▁energy	-9.33255
▁awesome	-9.33255
▁buried	-9.33255
▁vivian	-9.33256
▁regular	-9.33257
▁memories	-9.33257
▁innocent	-9.33258
▁shouldve	-9.3326
▁guilty	-9.33296
▁chirping	-9.33296
▁parker	-9.33393
▁group	-9.33399
▁fake	-9.33413
▁feed	-9.33522
▁closes	-9.33535
▁quickly	-9.3355
▁pro	-9.33711
▁continue	-9.33899
▁bugs	-9.33924
▁spirit	-9.33956
▁guest	-9.34026
▁chicken	-9.34029
▁tires	-9.3405
▁mo	-9.34067
um	-9.34717
ro	-9.34739
ter	-9.34848
▁lee	-9.34896
▁checked	-9.35033
▁there	-9.35283
▁pretend	-9.35417
▁sight	-9.35435
co	-9.35669
▁lts	-9.35733
▁hat	-9.35773
▁ho	-9.35784
▁difficult	-9.35886
▁double	-9.35886
▁asleep	-9.35886
▁murdoch	-9.35889
▁aware	-9.35897
▁johnny	-9.35897
▁armand	-9.35898
▁grandma	-9.35902
▁main	-9.35952
▁pete	-9.36003
age	-9.36029
▁clicking	-9.36104
▁closer	-9.36261
▁surprised	-9.36265
▁named	-9.3631
▁anna	-9.36354
▁figured	-9.3645
ever	-9.36457
▁movies	-9.36533
▁attorney	-9.36568
▁belong	-9.36722
▁yells	-9.36855
▁iii	-9.37124
▁crap	-9.37344
▁el	-9.37556
▁bus	-9.37977
▁marty	-9.3808
▁pack	-9.3813
▁steal	-9.38134
▁focus	-9.38269
▁destroy	-9.38279
ee	-9.38293
▁cares	-9.38319
▁split	-9.38578
▁chief	-9.38589
▁gerty	-9.38589
▁government	-9.38589
▁pablo	-9.38589
▁whirring	-9.38589
▁closing	-9.3859
▁misery	-9.38591
▁merrin	-9.38591
▁how	-9.38594
▁crackling	-9.386
▁memory	-9.38605
▁regan	-9.38609
▁famous	-9.38616
▁cole	-9.38639
▁huge	-9.38664
▁theyd	-9.38924
▁united	-9.38937
▁faster	-9.38937
▁m	-9.38964
▁buck	-9.39058
▁con	-9.39199
▁note	-9.39298
▁horn	-9.39415
▁liar	-9.3942
▁partner	-9.39487
▁harder	-9.39587
ish	-9.39637
▁ch	-9.40089
▁stage	-9.4018
▁lived	-9.40317
▁shooting	-9.40377
▁magic	-9.40399
il	-9.40776
▁sh	-9.40958
▁escape	-9.41148
▁en	-9.41229
▁apologize	-9.41367
▁quentin	-9.41367
▁ugly	-9.41367
▁theseus	-9.41368
▁gotten	-9.41369
▁whoever	-9.41374
▁bright	-9.41374
▁brilliant	-9.41377
▁trash	-9.41377
▁waste	-9.41397
▁thatll	-9.41397
▁tony	-9.41417
▁medical	-9.41435
▁hoping	-9.41556
▁records	-9.41618
▁losing	-9.41772
▁clearly	-9.4199
▁matters	-9.42003
▁experience	-9.42035
▁program	-9.42191
▁band	-9.42196
▁level	-9.42226
▁criminal	-9.42276
▁gunshot	-9.42363
▁bow	-9.42534
▁fan	-9.42729
▁painting	-9.42753
▁bite	-9.43025
▁freak	-9.43165
▁played	-9.43246
▁dis	-9.43352
▁ar	-9.43737
▁dan	-9.43794
▁complete	-9.43855
▁discuss	-9.43866
▁scott	-9.44067
▁legal	-9.44149
▁nothin	-9.44188
▁susan	-9.44206
▁twenty	-9.44221
▁abilene	-9.44224
▁particular	-9.44224
▁tattoo	-9.44224
▁firm	-9.44224
▁purpose	-9.44224
▁ugh	-9.44225
▁desk	-9.44225
▁nancy	-9.44226
▁nope	-9.44227
▁jenny	-9.44228
▁beginning	-9.44229
▁kano	-9.44231
▁view	-9.44236
▁crown	-9.44239
▁becky	-9.44266
▁bang	-9.44372
▁bringing	-9.44441
▁pearl	-9.44464
▁nuts	-9.44842
▁mikey	-9.44903
▁wood	-9.44923
▁ye	-9.4517
▁exist	-9.45265
▁feelings	-9.45299
▁queen	-9.45321
▁victim	-9.45346
▁that	-9.45404
▁circle	-9.45494
▁walked	-9.45978
▁visit	-9.4633
▁buying	-9.46543
you	-9.46548
▁self	-9.4656
▁daughters	-9.46759
ting	-9.46785
na	-9.46872
ted	-9.47
v	-9.47021
▁jud	-9.47028
▁george	-9.47163
▁audience	-9.47165
▁bottom	-9.47165
▁built	-9.47165
▁military	-9.47165
▁alejandro	-9.47166
▁chuckling	-9.47168
▁breakfast	-9.47168
▁create	-9.47168
▁horrible	-9.47169
▁society	-9.47172
▁plus	-9.47172
▁held	-9.47175
▁tori	-9.47176
▁chocolate	-9.47181
▁bedroom	-9.47187
▁annie	-9.47187
▁mental	-9.47197
▁sold	-9.47203
ar	-9.47206
▁heat	-9.47459
▁swim	-9.47494
tion	-9.47515
▁pills	-9.47525
▁thy	-9.47689
▁showed	-9.47693
▁target	-9.47837
▁bomb	-9.47863
land	-9.47931
▁wondering	-9.48069
▁casey	-9.48183
▁feck	-9.48213
▁rose	-9.48313
▁w	-9.48397
▁shower	-9.48868
ia	-9.49472
▁wa	-9.4954
▁paint	-9.49623
go	-9.49671
▁lies	-9.49734
▁believed	-9.49796
▁farm	-9.49851
▁keeping	-9.4986
ty	-9.49994
▁daniel	-9.50099
ma	-9.50132
the	-9.50138
▁junior	-9.50195
▁meredith	-9.50195
▁morgan	-9.50195
▁shirt	-9.50195
▁funeral	-9.50196
▁vegas	-9.50196
▁cancer	-9.50196
▁blade	-9.50198
▁grade	-9.50199
▁sarah	-9.502
▁vail	-9.50202
▁hammer	-9.50203
▁size	-9.50207
ine	-9.50213
▁brie	-9.50215
▁skin	-9.50218
▁wet	-9.50221
▁dare	-9.50231
▁jacket	-9.50263
▁male	-9.5028
▁barking	-9.50318
▁planet	-9.50367
▁turning	-9.50409
▁metal	-9.50412
▁screeching	-9.50471
no	-9.50554
▁assholes	-9.50768
▁souls	-9.50839
▁scout	-9.50959
▁f	-9.50975
▁saved	-9.50976
un	-9.51145
▁elevator	-9.51373
▁connection	-9.51403
▁monster	-9.51459
▁aw	-9.51475
▁pig	-9.51739
▁oil	-9.51908
▁lou	-9.52184
▁player	-9.52225
▁deliver	-9.5236
▁sending	-9.52372
son	-9.52375
▁repeat	-9.52521
▁helping	-9.52737
▁doc	-9.52806
▁lift	-9.53015
▁loose	-9.53051
▁settle	-9.53052
▁assume	-9.53099
▁sp	-9.53122
▁sisters	-9.53128
▁usual	-9.53293
▁alfredo	-9.5332
▁applause	-9.5332
▁easier	-9.5332
▁enemy	-9.5332
▁majesty	-9.5332
▁percent	-9.5332
▁sergeant	-9.5332
▁position	-9.53324
▁smith	-9.53325
▁arne	-9.53327
▁colm	-9.5333
▁speed	-9.53331
▁pair	-9.53334
▁gay	-9.53335
▁complicated	-9.53351
▁chest	-9.53365
▁letters	-9.53402
▁failed	-9.53529
▁hired	-9.53589
▁bear	-9.53883
▁tear	-9.54288
▁pre	-9.5439
▁acting	-9.54496
▁gang	-9.54581
▁shift	-9.54617
▁ghost	-9.54669
▁los	-9.54816
▁following	-9.54879
men	-9.5553
time	-9.55658
▁punch	-9.55734
▁crash	-9.55777
▁bo	-9.55948
▁sin	-9.55968
▁hero	-9.56033
▁market	-9.56047
▁spread	-9.5605
▁cheap	-9.56167
▁crawl	-9.56205
▁drinking	-9.56232
▁boo	-9.56236
▁doors	-9.56295
▁load	-9.56297
▁survive	-9.56326
▁strength	-9.56414
▁ought	-9.56466
▁gettin	-9.56521
▁support	-9.56522
▁camp	-9.56524
▁briony	-9.56546
▁suicide	-9.56546
▁justice	-9.56546
▁whyd	-9.56546
▁pardon	-9.56546
▁extreme	-9.56547
▁raymond	-9.56549
▁ellie	-9.56549
▁miri	-9.56551
▁elias	-9.56551
▁fox	-9.56551
▁village	-9.56556
▁credit	-9.56557
▁handsome	-9.56573
▁immediately	-9.56574
▁laid	-9.56584
▁marshal	-9.56592
▁smoking	-9.5661
▁chanting	-9.56644
▁prepared	-9.56738
▁forced	-9.56832
▁bath	-9.56896
▁arrested	-9.57002
▁sand	-9.57209
▁mall	-9.57359
▁lately	-9.5739
ng	-9.57488
▁menu	-9.57577
▁patient	-9.57904
▁fired	-9.57972
▁member	-9.58037
▁soldier	-9.58037
▁falling	-9.5812
▁heading	-9.58184
▁per	-9.58443
me	-9.58665
▁condition	-9.59225
▁aye	-9.59332
▁sexual	-9.59777
▁add	-9.59795
▁chose	-9.59819
▁beyond	-9.59879
▁responsible	-9.59879
▁suspense	-9.59879
▁thomas	-9.59879
▁threw	-9.59879
▁trinity	-9.59879
▁drove	-9.59879
▁freedom	-9.59879
▁kelly	-9.5988
▁renfield	-9.5988
▁style	-9.59882
▁orange	-9.59882
▁clark	-9.59882
▁coast	-9.59883
▁prick	-9.59891
▁dunne	-9.59891
▁truly	-9.59895
▁dropped	-9.599
▁anger	-9.59909
▁fellow	-9.59912
▁saving	-9.59919
▁leon	-9.59923
▁steven	-9.59968
▁subtitles	-9.59976
▁hire	-9.59984
▁moms	-9.60021
▁chimes	-9.60038
▁rent	-9.60061
▁approaching	-9.60066
▁tone	-9.60125
▁pieces	-9.60519
▁yea	-9.60704
▁nicky	-9.60735
▁who	-9.6082
▁pen	-9.61093
▁customers	-9.61178
▁effort	-9.61353
▁chef	-9.61355
▁regret	-9.61416
▁orlean	-9.61445
▁ticket	-9.61477
de	-9.6151
▁ear	-9.61588
▁fi	-9.61602
▁pure	-9.61764
ur	-9.6179
▁drinks	-9.61869
▁map	-9.62154
▁hurts	-9.62282
▁post	-9.62477
▁stab	-9.62522
▁woods	-9.62793
▁tip	-9.62811
▁recognize	-9.63103
▁doctors	-9.63126
▁speech	-9.63254
▁natural	-9.63254
▁spoke	-9.63264
lo	-9.63281
▁agador	-9.63328
▁florida	-9.63328
▁globe	-9.63328
▁taught	-9.63328
▁taylor	-9.63328
▁terrific	-9.63328
▁beverly	-9.63328
▁blind	-9.63328
▁ocean	-9.63328
▁cindy	-9.63328
▁fabietto	-9.63328
▁mickey	-9.63328
▁jerk	-9.63329
▁kevin	-9.63329
▁merger	-9.6333
▁roof	-9.63332
▁victoria	-9.63333
▁teddy	-9.63334
▁milk	-9.63345
▁brave	-9.63448
▁swing	-9.63517
▁sacrifice	-9.63667
▁v	-9.63683
▁dj	-9.63726
▁due	-9.63777
▁pissed	-9.63795
▁do	-9.63821
▁boots	-9.63825
▁suggest	-9.64025
▁thuds	-9.64144
▁concern	-9.64185
▁brings	-9.64249
▁bust	-9.64269
▁field	-9.64307
▁numbers	-9.64366
he	-9.64512
▁knees	-9.64621
▁whistles	-9.6467
▁cars	-9.64759
▁trigger	-9.64883
▁mask	-9.65037
▁print	-9.65054
▁fella	-9.6521
▁hanging	-9.65294
▁stayed	-9.65305
▁stan	-9.65336
and	-9.65681
▁switch	-9.66018
▁suffer	-9.66125
▁picking	-9.66138
▁heads	-9.66228
ge	-9.66233
▁draw	-9.66241
▁introduce	-9.66697
▁pee	-9.66744
▁traffic	-9.66892
▁ambulance	-9.66899
▁champagne	-9.66899
▁geoghan	-9.66899
▁insurance	-9.66899
▁lorraine	-9.66899
▁margaret	-9.66899
▁mirror	-9.66899
▁philippe	-9.66899
▁rough	-9.66899
▁slept	-9.66899
▁staff	-9.66899
▁unfortunate	-9.66899
▁rescue	-9.66899
▁garden	-9.66899
▁sugar	-9.669
▁square	-9.669
▁blaring	-9.669
▁flies	-9.66901
▁assistant	-9.66903
▁crew	-9.66903
▁saul	-9.66903
▁whenever	-9.66903
▁pocket	-9.66904
▁bluestar	-9.66906
▁kyle	-9.66906
▁naked	-9.66907
▁linda	-9.66911
▁trapped	-9.66916
▁background	-9.66917
▁eeri	-9.66931
▁buzzes	-9.66934
▁thunder	-9.66941
▁barnes	-9.66941
▁lf	-9.66942
▁bury	-9.66951
▁jet	-9.66967
▁suddenly	-9.67011
▁bay	-9.67025
▁loves	-9.67066
▁out	-9.67084
▁reality	-9.67164
ley	-9.67382
▁sever	-9.67419
▁sexy	-9.67462
▁hurting	-9.67596
▁options	-9.6761
▁gi	-9.67664
▁fixed	-9.67752
▁expected	-9.67756
▁staring	-9.67976
▁scream	-9.68331
▁bullet	-9.68643
▁gives	-9.68655
▁cousin	-9.68676
▁cigarette	-9.68732
▁loss	-9.68948
▁rob	-9.69167
▁weapons	-9.69602
am	-9.69639
head	-9.69685
▁showing	-9.69758
▁las	-9.69968
▁graves	-9.70028
▁foreign	-9.70073
se	-9.70085
▁seek	-9.70121
▁prepare	-9.70387
▁plans	-9.70532
▁jobs	-9.70563
▁fog	-9.70578
▁channel	-9.70603
▁godfrey	-9.70603
▁heimish	-9.70603
▁oglethorpe	-9.70603
▁tunnel	-9.70603
▁lindy	-9.70603
▁silent	-9.70604
▁british	-9.70604
▁location	-9.70604
▁rattling	-9.70604
▁online	-9.70605
▁violet	-9.70605
▁genius	-9.70607
▁robbie	-9.70609
▁duty	-9.7061
▁gino	-9.70611
▁airport	-9.70619
▁rushman	-9.7062
▁planning	-9.70622
▁highway	-9.70625
▁prime	-9.70633
▁tour	-9.70638
▁barely	-9.7064
▁basic	-9.70656
▁victory	-9.70697
id	-9.70828
▁louis	-9.70846
▁nearly	-9.70936
▁agreed	-9.70951
▁raised	-9.70954
▁emotional	-9.71073
▁gosh	-9.71192
ne	-9.7122
▁stars	-9.71229
▁piease	-9.71239
▁greatest	-9.71253
▁tall	-9.71318
▁tits	-9.7133
▁finding	-9.71375
▁higher	-9.71492
▁op	-9.71577
▁heh	-9.71594
▁details	-9.71703
▁towards	-9.71907
▁training	-9.71928
▁everybodys	-9.71951
▁ofthe	-9.7203
▁remain	-9.72072
▁passing	-9.72106
▁students	-9.72333
eat	-9.72491
▁value	-9.72525
▁swan	-9.72586
▁stranger	-9.72753
itd	-9.72767
▁scouts	-9.72844
▁siren	-9.72953
king	-9.73087
▁du	-9.73865
ady	-9.73874
▁enter	-9.74132
▁disappear	-9.74138
though	-9.74156
▁trade	-9.74277
▁perfume	-9.74286
▁health	-9.74303
▁bi	-9.74347
▁rome	-9.74426
▁attend	-9.74432
▁kris	-9.74444
▁thirty	-9.74446
▁plenty	-9.74449
▁possibly	-9.74449
▁responsibility	-9.74449
▁fantastic	-9.74449
▁biggest	-9.74449
▁oclock	-9.74449
▁potential	-9.7445
▁boring	-9.7445
▁current	-9.7445
▁distant	-9.7445
▁virus	-9.74454
▁bike	-9.74458
▁zero	-9.74459
▁pool	-9.74471
▁center	-9.74476
▁path	-9.74488
▁freeze	-9.74498
▁johnson	-9.74511
▁birth	-9.74519
▁shape	-9.74544
▁navy	-9.74548
▁original	-9.74561
▁statement	-9.74563
▁glasses	-9.74581
▁pm	-9.74585
▁signal	-9.74633
▁charming	-9.74657
▁honestly	-9.7478
▁county	-9.74814
▁bump	-9.74898
▁quietly	-9.74934
▁kit	-9.74937
▁noticed	-9.74948
▁coughs	-9.75
▁counter	-9.75003
▁motherfuckers	-9.75136
ent	-9.753
▁files	-9.75555
▁burning	-9.75557
▁ba	-9.75839
▁hardly	-9.76034
▁butt	-9.76254
▁german	-9.76318
▁wheel	-9.76434
▁tower	-9.76455
▁quarter	-9.76475
▁project	-9.76475
▁grandmother	-9.76477
▁fellas	-9.76482
▁william	-9.76523
▁older	-9.76528
▁nurse	-9.76548
▁affair	-9.76566
▁gate	-9.76566
▁egg	-9.76588
▁flat	-9.7659
▁student	-9.76611
ke	-9.7675
▁j	-9.76858
▁cia	-9.76956
iy	-9.7699
▁mis	-9.77032
▁page	-9.77112
▁animals	-9.77366
▁strip	-9.7737
▁watched	-9.77478
▁dump	-9.77622
▁announc	-9.77814
▁artist	-9.78223
▁curse	-9.78233
ni	-9.7828
▁obvious	-9.7832
▁spit	-9.7839
▁brush	-9.78403
▁snow	-9.78424
▁among	-9.78431
▁favour	-9.78441
▁apparently	-9.78449
▁dracula	-9.78449
▁inspector	-9.78449
▁jeez	-9.78449
▁london	-9.78449
▁melody	-9.78449
▁rumbling	-9.78449
▁stevie	-9.78449
▁understood	-9.78449
▁wouid	-9.78449
▁cecilia	-9.78449
▁daesu	-9.78449
▁literally	-9.78449
▁afford	-9.78449
▁ansel	-9.78449
▁garbage	-9.7845
▁operator	-9.7845
▁stampler	-9.7845
▁sharon	-9.78451
▁written	-9.78454
▁proof	-9.78456
▁onto	-9.78456
▁weii	-9.78458
▁sunday	-9.78462
▁wherever	-9.78463
▁silver	-9.78463
▁maria	-9.7847
▁mercy	-9.78475
▁rex	-9.78479
▁wallet	-9.78497
▁angeles	-9.78548
▁uhoh	-9.78549
▁arrived	-9.787
▁ken	-9.78797
▁covered	-9.79213
▁flowers	-9.79255
▁younger	-9.79265
▁sat	-9.79284
side	-9.79327
▁fa	-9.79376
▁fund	-9.80074
▁character	-9.80099
▁kissing	-9.80236
▁grunt	-9.80349
▁officers	-9.80359
▁restaurant	-9.80601
▁saturday	-9.80601
▁investigation	-9.80604
▁plate	-9.80609
▁pulling	-9.8077
▁odd	-9.80818
▁leader	-9.80888
▁iitti	-9.81206
ca	-9.81753
▁wrap	-9.81835
▁beg	-9.81926
▁rip	-9.82106
▁ai	-9.82185
▁borrow	-9.82257
▁celebrate	-9.82361
▁secure	-9.82366
ped	-9.82373
ship	-9.82387
▁social	-9.8247
▁sudden	-9.82485
▁joy	-9.82518
▁event	-9.82548
▁catherine	-9.82616
▁community	-9.82616
▁excellent	-9.82616
▁gideon	-9.82616
▁intense	-9.82616
▁lisbeth	-9.82616
▁monsieur	-9.82616
▁morpheus	-9.82616
▁necessary	-9.82616
▁paige	-9.82616
▁stadium	-9.82616
▁wreck	-9.82616
▁changing	-9.82616
▁indeed	-9.82616
▁inez	-9.82616
▁uncomfortable	-9.82616
▁sniffles	-9.82616
▁keeley	-9.82617
▁cardinal	-9.82617
▁dancing	-9.82618
▁internet	-9.82619
▁owns	-9.8262
▁joking	-9.82623
▁twelve	-9.82624
▁baseball	-9.82625
▁gentleman	-9.82625
▁salad	-9.82627
▁robbery	-9.82632
▁tank	-9.82635
▁therapy	-9.8264
▁webb	-9.8264
▁bash	-9.82653
▁bout	-9.82655
▁national	-9.82655
▁weight	-9.8266
▁bound	-9.82689
▁protection	-9.82695
▁moaning	-9.82706
▁gary	-9.82706
▁erm	-9.82712
▁yearold	-9.82722
▁professional	-9.82723
▁powerful	-9.82725
▁commander	-9.82753
▁boom	-9.82766
▁rise	-9.8281
▁beans	-9.82815
▁confirmed	-9.8287
▁lips	-9.83052
▁windows	-9.8307
▁created	-9.83104
▁je	-9.83247
just	-9.83288
▁depends	-9.83302
▁searching	-9.83397
▁route	-9.83431
▁pushed	-9.83543
ts	-9.83599
ul	-9.83868
▁vo	-9.84016
▁sue	-9.84057
▁pot	-9.84067
one	-9.84094
▁rub	-9.84172
▁bones	-9.84461
▁touched	-9.84513
▁tune	-9.84694
▁thin	-9.84865
▁bone	-9.84892
▁subject	-9.84949
▁interview	-9.8495
fully	-9.84999
▁manager	-9.85068
▁shoulder	-9.85087
▁blows	-9.851
▁sons	-9.85101
▁matthew	-9.85115
▁yard	-9.85154
▁rat	-9.85434
▁daddys	-9.85492
▁murderer	-9.85502
▁sio	-9.85811
▁awake	-9.86081
tch	-9.86124
▁deb	-9.86216
▁defend	-9.86382
▁sub	-9.86428
▁serve	-9.86542
▁roy	-9.86553
▁apple	-9.86599
▁answers	-9.86604
▁release	-9.86761
▁les	-9.86783
▁lick	-9.86816
▁grass	-9.86817
▁illegal	-9.86818
ta	-9.86891
▁bridge	-9.86894
▁margo	-9.86896
▁advice	-9.86963
▁california	-9.86963
▁darnell	-9.86963
▁england	-9.86963
▁escort	-9.86963
▁opinion	-9.86963
▁otherwise	-9.86963
▁teii	-9.86963
▁lgby	-9.86964
▁midnight	-9.86964
▁beast	-9.86965
▁friday	-9.86965
▁smiling	-9.86965
▁karate	-9.86965
▁diana	-9.86966
▁battle	-9.86968
▁shopping	-9.86969
▁spotlight	-9.86978
▁race	-9.86979
▁jones	-9.86992
▁comfortable	-9.86994
▁cast	-9.86996
▁golden	-9.86996
▁hm	-9.86999
▁silly	-9.87006
▁darkness	-9.87036
▁of	-9.8704
▁palm	-9.87053
▁honking	-9.87057
▁exit	-9.87069
bh	-9.87097
▁mood	-9.87104
▁grown	-9.87105
▁invited	-9.87105
▁discovered	-9.87134
▁creaks	-9.87178
▁ace	-9.87188
▁echoing	-9.872
▁thrown	-9.87251
▁concerned	-9.87348
▁kab	-9.87354
▁hill	-9.87482
▁gim	-9.87486
▁viva	-9.87492
▁gee	-9.87562
▁dads	-9.87631
ff	-9.87816
ated	-9.87873
▁sayin	-9.87925
▁travel	-9.87927
▁sooner	-9.87949
day	-9.87998
ck	-9.88037
▁expecting	-9.88552
ler	-9.88722
▁ward	-9.88772
▁se	-9.88773
▁interest	-9.88809
ors	-9.88828
▁reasons	-9.89012
▁dealer	-9.89056
x	-9.8906
▁pan	-9.89131
▁claim	-9.89224
▁places	-9.89276
▁threat	-9.89417
▁clue	-9.89478
om	-9.89595
▁airline	-9.89621
▁stone	-9.89626
▁union	-9.89747
▁streets	-9.89766
▁ri	-9.89776
▁gut	-9.89799
off	-9.89853
▁mile	-9.90023
▁wha	-9.9028
▁signs	-9.90335
▁gum	-9.90382
▁fail	-9.90708
▁ended	-9.90821
▁opened	-9.90835
▁hunt	-9.90864
▁sec	-9.90874
▁walls	-9.90902
▁pin	-9.90977
▁avoid	-9.91176
▁ruin	-9.91244
▁wire	-9.91279
▁chase	-9.91332
▁woke	-9.91464
▁plant	-9.91491
▁alpha	-9.91509
▁blew	-9.91509
▁climb	-9.91509
▁eventually	-9.91509
▁exciting	-9.91509
▁explosion	-9.91509
▁fortune	-9.91509
▁grenouille	-9.91509
▁intensifies	-9.91509
▁revenge	-9.91509
▁tutar	-9.91509
▁warrant	-9.91509
▁mostly	-9.91509
▁muffled	-9.91509
▁eddie	-9.9151
▁honour	-9.9151
▁juice	-9.9151
▁washington	-9.91511
▁nadine	-9.91511
▁candy	-9.91511
▁decent	-9.91511
▁property	-9.91515
▁minister	-9.91515
▁laurie	-9.91515
▁practice	-9.91515
▁version	-9.91516
▁defense	-9.91516
▁football	-9.91517
▁fancy	-9.91517
▁corky	-9.91519
▁disgusting	-9.91521
▁capable	-9.91525
▁russell	-9.9153
▁aside	-9.91531
▁nasty	-9.91531
▁storm	-9.91534
▁dragon	-9.91541
▁director	-9.91555
▁kimi	-9.91577
▁dating	-9.91593
▁chosen	-9.91596
▁earn	-9.91628
▁stolen	-9.91643
▁ewing	-9.91724
▁policeman	-9.91774
▁sally	-9.91915
▁slowly	-9.9194
▁stronger	-9.91968
▁movement	-9.91994
▁based	-9.92013
▁reached	-9.92077
▁bastards	-9.921
▁realized	-9.92108
▁mentioned	-9.92117
▁equal	-9.92142
▁trap	-9.9225
▁mustve	-9.92321
▁terms	-9.92424
▁perfectly	-9.92431
▁praying	-9.92584
▁charges	-9.92804
ney	-9.92821
▁dry	-9.92846
▁followed	-9.93035
▁ohh	-9.93078
▁goodness	-9.93165
▁selling	-9.93213
▁games	-9.9332
▁beating	-9.9344
▁block	-9.93595
▁ln	-9.93669
▁prints	-9.93921
▁remind	-9.93923
▁orders	-9.93961
▁members	-9.94097
▁helped	-9.94143
▁desire	-9.94264
tic	-9.94413
▁whistle	-9.94435
▁chain	-9.94439
▁action	-9.94458
▁sometime	-9.9446
▁customer	-9.94462
ier	-9.94467
▁le	-9.94506
ger	-9.94512
▁writer	-9.94552
▁horns	-9.94653
ized	-9.94871
led	-9.94918
▁ol	-9.94972
▁va	-9.95361
▁abuse	-9.95521
▁chill	-9.95691
▁screen	-9.95756
▁proceed	-9.95779
▁study	-9.95831
▁ja	-9.95899
▁coward	-9.9613
▁can	-9.96137
▁exact	-9.96142
▁sharp	-9.96144
▁shows	-9.96165
ial	-9.96195
▁drag	-9.96237
▁success	-9.96245
▁media	-9.96251
▁europe	-9.96253
▁benefit	-9.96271
▁blanchard	-9.96271
▁challenge	-9.96271
▁gorgeous	-9.96271
▁guarantee	-9.96271
▁professor	-9.96271
▁rhonda	-9.96271
▁trevor	-9.96271
▁wolverton	-9.96271
▁desert	-9.96271
▁progress	-9.96271
▁miami	-9.96271
▁firing	-9.96271
▁alex	-9.96271
▁telephone	-9.96271
▁garvin	-9.96272
▁alert	-9.96273
▁dope	-9.96274
▁guide	-9.96274
▁vacation	-9.96274
▁brax	-9.96276
▁counselor	-9.96276
▁scum	-9.96276
▁myers	-9.96278
▁mitchell	-9.96279
▁winner	-9.9628
▁static	-9.96292
▁ivy	-9.96294
▁data	-9.96296
▁doorbell	-9.96297
▁basement	-9.96298
▁jury	-9.96302
▁sanders	-9.96303
▁dh	-9.96314
▁according	-9.96328
▁headed	-9.96331
▁suits	-9.9642
▁rare	-9.96423
▁hearts	-9.96449
▁butter	-9.96478
▁demons	-9.96598
▁loudly	-9.96634
▁cases	-9.96663
▁wilder	-9.96714
▁shitty	-9.96725
▁lo	-9.96829
ze	-9.96895
▁tied	-9.96908
▁screwed	-9.96913
ure	-9.97055
▁behave	-9.97062
▁breaks	-9.97135
▁burned	-9.97189
▁parking	-9.97287
▁growing	-9.97418
▁trained	-9.9743
▁pat	-9.97558
▁cooking	-9.9764
ti	-9.97643
▁carrie	-9.97685
do	-9.97691
▁flying	-9.97767
▁ab	-9.97825
ja	-9.9785
iest	-9.97863
▁up	-9.97867
▁au	-9.97976
▁comfort	-9.9799
▁lots	-9.98016
▁bull	-9.98093
▁knee	-9.98141
▁smells	-9.98268
▁matthews	-9.98339
ol	-9.9847
qu	-9.9847
▁ideas	-9.98534
▁hells	-9.98591
▁ears	-9.98887
▁soldiers	-9.98991
▁yell	-9.99035
▁walks	-9.99228
▁official	-9.9925
▁expert	-9.99254
▁routine	-9.99259
▁border	-9.99262
brew	-9.99316
by	-9.99332
▁result	-9.99371
ir	-9.99436
▁cookie	-9.99498
▁dollar	-9.99533
▁photos	-9.99826
▁rogers	-9.9984
▁answering	-9.99946
▁pie	-9.99997
▁off	-10.0018
▁chances	-10.0059
bo	-10.0067
▁rush	-10.007
▁ts	-10.007
▁bleed	-10.0071
▁march	-10.0078
▁screech	-10.0081
▁thousands	-10.0088
▁assault	-10.0094
▁confirm	-10.0096
▁caii	-10.0096
▁cream	-10.0114
▁seq	-10.0122
▁cab	-10.0124
▁weather	-10.0125
▁thou	-10.0127
▁danger	-10.0127
▁altar	-10.0127
▁babies	-10.0127
▁desperate	-10.0127
▁fought	-10.0127
▁granny	-10.0127
▁including	-10.0127
▁motive	-10.0127
▁mulwray	-10.0127
▁novel	-10.0127
▁policy	-10.0127
▁stomach	-10.0127
▁conference	-10.0127
▁explosiveskull	-10.0127
▁hidden	-10.0127
▁chicago	-10.0127
▁sarge	-10.0127
▁logue	-10.0127
▁cherry	-10.0127
▁transfer	-10.0127
▁existence	-10.0127
▁robert	-10.0127
▁garage	-10.0127
▁lucie	-10.0127
▁quote	-10.0127
▁expensive	-10.0128
▁failure	-10.0128
▁temple	-10.0128
▁violent	-10.0128
▁percy	-10.0128
▁mexico	-10.0128
▁laura	-10.0128
▁inhales	-10.0128
▁gross	-10.0128
▁cmon	-10.0129
▁reverend	-10.0129
▁merk	-10.0129
▁positive	-10.0129
▁chopper	-10.0129
▁stood	-10.013
▁bum	-10.0132
house	-10.0135
▁tiny	-10.0135
▁bass	-10.0137
▁weston	-10.0137
▁cape	-10.014
▁wailing	-10.014
▁rae	-10.0141
▁dale	-10.0149
▁warned	-10.0153
▁raped	-10.0153
▁diner	-10.0156
▁lines	-10.0161
ah	-10.0161
▁disappeared	-10.0167
▁bleeding	-10.0174
▁crashed	-10.0176
▁lower	-10.0185
▁fu	-10.0186
▁suffering	-10.0193
▁crashing	-10.02
▁deer	-10.0213
▁voices	-10.0223
▁ra	-10.0231
▁changes	-10.0233
▁loser	-10.0243
ug	-10.0249
▁joey	-10.0266
▁recording	-10.027
▁be	-10.0288
▁lover	-10.0292
▁punish	-10.0313
▁ap	-10.032
▁salt	-10.0321
as	-10.033
▁moon	-10.0333
▁ordered	-10.0347
ning	-10.0379
▁sirens	-10.0384
▁tickets	-10.0404
▁review	-10.0411
ad	-10.0415
▁barn	-10.0418
▁tears	-10.0427
▁cheer	-10.0428
▁schedule	-10.0429
▁commit	-10.0441
▁career	-10.0444
▁insist	-10.0446
▁queens	-10.0453
▁psycho	-10.0456
▁spring	-10.0456
▁drives	-10.0457
▁magazine	-10.0457
▁strike	-10.0457
▁stripper	-10.0458
▁toward	-10.047
▁goal	-10.0492
▁choices	-10.0505
▁adult	-10.0508
mo	-10.053
▁clients	-10.0552
be	-10.0563
▁whi	-10.0576
▁dealing	-10.0579
let	-10.0581
ack	-10.0585
ette	-10.0588
da	-10.0588
▁buzz	-10.059
▁email	-10.0619
▁husbands	-10.0622
ball	-10.0625
▁divorce	-10.0632
▁cards	-10.0632
▁steel	-10.0636
▁vagina	-10.0637
▁hug	-10.0638
▁electric	-10.0652
▁experiment	-10.0652
▁courage	-10.0652
▁perform	-10.0653
▁toilet	-10.0653
▁august	-10.0653
▁beiieve	-10.0653
▁burmese	-10.0653
▁choking	-10.0653
▁circumstances	-10.0653
▁flesh	-10.0653
▁hollywood	-10.0653
▁orchestra	-10.0653
▁outfit	-10.0653
▁portuguese	-10.0653
▁soccer	-10.0653
▁vehicle	-10.0653
▁whimpering	-10.0653
▁whiskey	-10.0653
▁pleasant	-10.0653
▁practical	-10.0653
▁yosille	-10.0653
▁isaac	-10.0653
▁example	-10.0653
▁sheiiy	-10.0653
▁karl	-10.0653
▁research	-10.0653
▁ticking	-10.0653
▁joanna	-10.0653
▁katia	-10.0653
▁japanese	-10.0653
▁permission	-10.0653
▁disease	-10.0654
▁downtown	-10.0654
▁wiii	-10.0654
▁piano	-10.0654
▁trunk	-10.0654
hala	-10.0654
▁urgent	-10.0654
▁pathetic	-10.0654
▁mobile	-10.0654
▁television	-10.0654
▁zone	-10.0655
▁dominic	-10.0655
▁valley	-10.0655
▁ease	-10.0656
▁penis	-10.0657
▁axel	-10.0657
▁coleman	-10.0658
▁prom	-10.0658
▁committed	-10.0659
▁bride	-10.066
▁christine	-10.066
▁duck	-10.0661
▁mail	-10.0662
▁cf	-10.0665
▁lapd	-10.0666
▁disappointed	-10.0666
▁scary	-10.0667
▁france	-10.0667
▁daniela	-10.0669
▁trailer	-10.067
▁coughing	-10.0673
▁received	-10.0674
▁served	-10.068
▁dust	-10.0681
▁jo	-10.0692
▁cameras	-10.0696
▁letting	-10.0702
▁hunting	-10.0708
▁seal	-10.0709
▁personally	-10.0716
▁pi	-10.0717
▁royal	-10.0718
▁sucks	-10.0728
▁grave	-10.073
▁freaking	-10.0742
▁attacked	-10.0746
▁bat	-10.0747
▁treated	-10.0752
▁documents	-10.076
▁no	-10.0765
▁armed	-10.0766
▁tests	-10.078
▁wounds	-10.0791
▁spending	-10.0807
sh	-10.0807
la	-10.0817
▁eli	-10.0828
▁mar	-10.0858
▁ko	-10.0864
▁wide	-10.0894
▁eggs	-10.0904
▁throwing	-10.0912
▁dani	-10.0913
bb	-10.0925
ong	-10.0948
▁hated	-10.095
▁rocks	-10.0958
▁axe	-10.098
▁click	-10.0981
▁issue	-10.0995
▁score	-10.0998
▁trick	-10.0999
▁maid	-10.1001
▁stake	-10.1003
▁article	-10.1005
▁tuesday	-10.1008
▁loan	-10.101
▁civil	-10.1011
▁sentence	-10.1012
▁snake	-10.1018
▁jean	-10.1019
▁bon	-10.1034
▁noises	-10.1072
▁si	-10.1072
▁reporter	-10.1078
▁likely	-10.1081
av	-10.1081
▁me	-10.1089
▁ne	-10.1099
wa	-10.1101
▁nail	-10.1105
▁speaker	-10.1116
▁ways	-10.1136
cy	-10.1144
▁sneak	-10.1157
▁pit	-10.1188
▁wipe	-10.119
▁smooth	-10.1194
▁dirt	-10.1194
▁stretch	-10.1196
▁hung	-10.1196
▁ove	-10.1202
▁waitress	-10.1203
▁kim	-10.1204
▁princess	-10.1206
▁cheese	-10.1209
▁austin	-10.1209
▁avenue	-10.1209
▁cherokee	-10.1209
▁cocaine	-10.1209
▁dripping	-10.1209
▁female	-10.1209
▁fifteen	-10.1209
▁jealous	-10.1209
▁maradona	-10.1209
▁offense	-10.1209
▁pancakes	-10.1209
▁paradise	-10.1209
▁patrol	-10.1209
▁presence	-10.1209
▁science	-10.1209
▁spray	-10.1209
▁underwear	-10.1209
▁violence	-10.1209
▁governor	-10.1209
▁sheldon	-10.1209
▁heip	-10.1209
▁katrine	-10.1209
▁yonas	-10.1209
▁available	-10.1209
▁capture	-10.1209
▁denny	-10.1209
▁unbelievable	-10.1209
▁jax	-10.121
▁poetry	-10.121
▁leigh	-10.121
▁attractive	-10.121
▁legend	-10.121
▁max	-10.121
▁motion	-10.1211
▁electricity	-10.1211
▁carlos	-10.1211
▁fourteen	-10.1211
▁moron	-10.1211
▁foolish	-10.1211
▁wise	-10.1212
▁strain	-10.1214
▁cap	-10.1215
▁puffy	-10.1215
▁edge	-10.1215
▁forth	-10.1216
▁lean	-10.1216
les	-10.1218
▁bored	-10.1219
▁classic	-10.122
▁billion	-10.1223
▁momma	-10.1224
▁ag	-10.1229
▁checking	-10.1229
▁fourth	-10.123
▁golf	-10.123
▁lifetime	-10.1233
▁sighing	-10.1235
▁chat	-10.1248
▁row	-10.1248
▁escaped	-10.1254
▁smaller	-10.1262
▁fate	-10.1272
cu	-10.1297
ps	-10.1309
▁thoughts	-10.131
▁neighbors	-10.1311
▁opera	-10.1321
▁aid	-10.1326
▁girlfriends	-10.1327
▁marking	-10.1337
▁nights	-10.134
▁kicked	-10.1341
▁backup	-10.1341
▁ro	-10.1343
▁fades	-10.1344
▁americans	-10.1349
ium	-10.1371
▁kissed	-10.1376
▁messing	-10.139
▁led	-10.1407
line	-10.1415
▁y	-10.1416
▁millions	-10.1425
▁cookies	-10.1428
▁artists	-10.1471
▁lookin	-10.1506
▁para	-10.155
ied	-10.1561
▁arrive	-10.1578
▁rabbit	-10.1591
▁winter	-10.1594
▁tire	-10.1595
▁appointment	-10.16
▁notes	-10.16
▁model	-10.1602
▁frankie	-10.1605
▁source	-10.1605
▁it	-10.1609
▁flame	-10.161
▁nightmare	-10.161
▁nun	-10.1611
▁sl	-10.1611
▁vision	-10.1614
▁beside	-10.1615
▁hood	-10.1618
▁guards	-10.1652
ance	-10.1654
▁driver	-10.1663
▁product	-10.1672
▁journal	-10.1692
▁slip	-10.1704
▁shock	-10.1719
▁sweat	-10.1735
▁kings	-10.1745
per	-10.1747
▁crush	-10.1758
ward	-10.1766
▁gather	-10.1766
▁fore	-10.1767
▁jew	-10.1768
▁separate	-10.1775
▁multipl	-10.1779
▁victor	-10.1781
▁rape	-10.1784
▁launch	-10.1784
▁sandwich	-10.1792
▁potato	-10.1792
▁prince	-10.1793
▁drama	-10.1797
▁bush	-10.1797
▁accent	-10.1797
▁argument	-10.1797
▁ashamed	-10.1797
▁bennett	-10.1797
▁broadcast	-10.1797
▁confused	-10.1797
▁garabedian	-10.1797
▁gittes	-10.1797
▁instrument	-10.1797
▁macleish	-10.1797
▁mexican	-10.1797
▁miracle	-10.1797
▁miserable	-10.1797
▁period	-10.1797
▁shaughnessy	-10.1797
▁testify	-10.1797
▁thompson	-10.1797
▁twitter	-10.1797
▁underneath	-10.1797
▁wrist	-10.1797
▁dispatch	-10.1797
▁helicopter	-10.1797
▁international	-10.1797
▁impact	-10.1797
▁quince	-10.1797
▁shakily	-10.1797
▁thudding	-10.1797
▁recall	-10.1797
▁reputation	-10.1797
▁hoghead	-10.1797
▁scent	-10.1797
▁grew	-10.1797
▁pride	-10.1798
▁paperwork	-10.1798
▁jewish	-10.1798
▁talent	-10.1798
▁section	-10.1798
▁status	-10.1799
▁pizza	-10.1799
▁kang	-10.1799
▁education	-10.1799
▁clever	-10.1799
▁rifle	-10.1799
▁tallis	-10.18
▁peg	-10.18
▁brent	-10.1801
▁ranch	-10.1804
▁gage	-10.1806
▁recently	-10.1806
▁spoken	-10.1809
▁liz	-10.1815
▁spell	-10.1824
▁x	-10.1827
▁kisses	-10.1827
▁punished	-10.1833
▁cheating	-10.1836
▁snap	-10.1847
▁deeper	-10.1852
▁grey	-10.1853
▁rot	-10.1853
▁loaded	-10.1854
ily	-10.1861
▁anne	-10.187
▁mayor	-10.1877
▁closet	-10.1886
▁banging	-10.1895
▁machines	-10.1901
▁warn	-10.1904
▁offered	-10.1906
end	-10.1911
▁lighter	-10.1916
▁carrying	-10.1926
red	-10.1932
▁pounds	-10.1953
▁process	-10.1963
▁breathes	-10.1972
ay	-10.198
▁tim	-10.1981
▁faces	-10.1984
▁lack	-10.2002
▁rolling	-10.2017
▁tend	-10.2019
ya	-10.2025
▁badge	-10.2031
▁all	-10.204
▁blowing	-10.2043
ba	-10.2055
▁strangers	-10.2096
▁bullets	-10.2103
▁fighter	-10.2139
▁moments	-10.2145
aw	-10.2155
▁pigs	-10.2171
ttle	-10.2174
▁fires	-10.2191
▁squeeze	-10.2196
▁detail	-10.2204
▁clyde	-10.2215
▁torture	-10.2216
▁zombie	-10.2221
▁belongs	-10.2222
▁pilot	-10.2225
we	-10.2237
lacking	-10.2253
▁dea	-10.2256
▁lab	-10.2275
hand	-10.2318
▁pr	-10.2322
ster	-10.2331
▁pet	-10.2332
ard	-10.2356
▁nation	-10.2371
▁po	-10.2371
▁confess	-10.2371
▁pour	-10.2374
▁express	-10.2386
▁leaves	-10.2395
▁command	-10.2396
▁brains	-10.2399
▁damage	-10.2399
▁vote	-10.24
▁ignore	-10.2409
▁numb	-10.241
▁pink	-10.2411
▁crimes	-10.2413
▁require	-10.2413
▁eric	-10.2415
▁proper	-10.2416
▁effect	-10.2421
▁blonde	-10.2422
▁butcher	-10.2422
▁easily	-10.2422
▁fbi	-10.2422
▁gemini	-10.2422
▁ieave	-10.2422
▁magua	-10.2422
▁saverio	-10.2422
▁sixsmith	-10.2422
▁slut	-10.2422
▁sunshine	-10.2422
▁thief	-10.2422
▁catholic	-10.2422
▁custody	-10.2422
▁jodie	-10.2422
▁natalie	-10.2422
▁technique	-10.2422
▁mysterious	-10.2422
▁neighborhood	-10.2422
▁pookie	-10.2422
▁declan	-10.2422
▁lobster	-10.2422
▁chinese	-10.2422
▁dillon	-10.2422
▁shelter	-10.2422
▁hyperion	-10.2422
▁signature	-10.2422
▁coach	-10.2423
▁june	-10.2423
▁spoon	-10.2423
▁falk	-10.2423
▁massage	-10.2423
▁fifty	-10.2423
▁ripper	-10.2423
▁fruit	-10.2423
▁political	-10.2423
▁randall	-10.2423
▁forgotten	-10.2423
▁toto	-10.2423
▁promotion	-10.2423
▁possession	-10.2423
▁favourite	-10.2424
▁editor	-10.2424
▁gear	-10.2424
▁cure	-10.2424
▁bible	-10.2424
▁defendant	-10.2424
▁brian	-10.2424
▁howard	-10.2424
▁mmmm	-10.2424
▁comment	-10.2424
▁russian	-10.2424
▁package	-10.2424
▁dishes	-10.2424
▁began	-10.2425
▁expression	-10.2425
▁duh	-10.2426
▁upb	-10.2427
▁plain	-10.2427
▁embarrassed	-10.2427
▁chew	-10.2427
▁wrapped	-10.2428
▁homework	-10.2429
▁greed	-10.2431
▁july	-10.2432
ville	-10.2432
▁rear	-10.2433
▁frightened	-10.2433
▁creepy	-10.2434
▁copies	-10.2434
▁assure	-10.2434
▁brandi	-10.2437
▁estimate	-10.2437
▁stairs	-10.2441
▁andie	-10.2441
▁clattering	-10.2442
▁germany	-10.2447
▁shine	-10.2449
▁wounded	-10.245
▁manny	-10.2455
▁cats	-10.2455
▁gathered	-10.2455
▁slit	-10.2456
▁agents	-10.2461
▁aa	-10.2463
▁fireworks	-10.2465
▁settled	-10.2469
ki	-10.2478
▁driven	-10.2482
▁studying	-10.2484
life	-10.2498
▁waves	-10.2514
▁considered	-10.2514
ii	-10.2558
▁messed	-10.2559
▁amys	-10.2561
▁jumped	-10.2562
ise	-10.2582
▁ahh	-10.2585
of	-10.2588
▁appears	-10.2588
▁slave	-10.259
hole	-10.259
▁prisoners	-10.2611
▁painful	-10.2614
▁guts	-10.2689
▁advance	-10.2705
▁hon	-10.2723
▁moves	-10.2729
ow	-10.2734
▁non	-10.2776
▁hip	-10.2778
que	-10.2789
▁sins	-10.2792
▁scar	-10.2799
▁com	-10.2809
▁monsters	-10.2812
▁shout	-10.2858
▁justin	-10.2861
▁touching	-10.2865
▁guests	-10.2887
▁chickens	-10.2888
▁operation	-10.2889
▁shadow	-10.2892
▁chick	-10.2897
▁mountain	-10.2901
▁degree	-10.2902
ac	-10.2917
▁wolf	-10.2924
▁joint	-10.2931
ig	-10.2938
ank	-10.296
▁heal	-10.2968
▁prisoner	-10.2973
▁cuts	-10.2983
▁u	-10.2991
▁india	-10.2996
▁smash	-10.3002
▁journalist	-10.3004
▁lightn	-10.3019
▁runs	-10.3029
▁films	-10.3045
▁collect	-10.3051
▁iook	-10.3056
▁pitch	-10.3059
board	-10.3062
▁dial	-10.3062
▁update	-10.3065
some	-10.3066
▁refuse	-10.3072
▁gain	-10.3075
▁produce	-10.3075
▁accounts	-10.308
top	-10.3084
▁inter	-10.3085
▁mimi	-10.3086
▁airplane	-10.3089
▁barclay	-10.3089
▁bertie	-10.3089
▁corridor	-10.3089
▁creek	-10.3089
▁dessert	-10.3089
▁dibiasky	-10.3089
▁exclaims	-10.3089
▁explanation	-10.3089
▁families	-10.3089
▁fridge	-10.3089
▁harvard	-10.3089
▁jerry	-10.3089
▁kendall	-10.3089
▁nonsense	-10.3089
▁northcott	-10.3089
▁patrizia	-10.3089
▁rezendes	-10.3089
▁simply	-10.3089
▁surgery	-10.3089
▁syndicate	-10.3089
▁thursday	-10.3089
▁unexpected	-10.3089
▁vetlesen	-10.3089
▁vocalizing	-10.3089
▁wednesday	-10.3089
▁jasper	-10.3089
▁kingdom	-10.3089
▁thrill	-10.3089
▁jeanbaptiste	-10.3089
▁knowledge	-10.3089
▁nuclear	-10.3089
▁central	-10.3089
▁revving	-10.3089
▁gallery	-10.3089
▁trudy	-10.3089
▁wives	-10.3089
▁haunt	-10.3089
▁planned	-10.3089
▁amount	-10.3089
▁eliza	-10.3089
▁unusual	-10.3089
▁squad	-10.3089
▁sarnt	-10.3089
▁luke	-10.3089
▁driss	-10.3089
▁medicine	-10.3089
▁authority	-10.3089
▁prosecution	-10.3089
▁oleg	-10.3089
▁rafto	-10.3089
▁rope	-10.3089
▁theme	-10.309
▁saint	-10.309
▁bread	-10.309
▁jimmy	-10.309
▁soap	-10.309
▁goddammit	-10.309
▁arrival	-10.309
▁approximately	-10.309
▁fuel	-10.3091
▁specific	-10.3091
▁medication	-10.3091
▁drain	-10.3091
▁response	-10.3091
▁construct	-10.3091
▁blast	-10.3091
▁yup	-10.3092
▁inches	-10.3092
▁commitment	-10.3093
▁judgment	-10.3093
▁peterson	-10.3093
▁china	-10.3094
▁math	-10.3094
▁dull	-10.3095
▁soup	-10.3095
▁iet	-10.3095
▁button	-10.3095
▁analyst	-10.3095
▁cage	-10.3098
▁cabin	-10.31
▁treatment	-10.3101
▁vend	-10.3105
▁prize	-10.3105
▁becker	-10.3106
aaahhh	-10.3108
▁eaten	-10.3115
▁parties	-10.312
▁title	-10.3121
▁growls	-10.3122
▁exercise	-10.3128
▁tools	-10.3135
▁survived	-10.3135
▁holes	-10.3135
▁louder	-10.3137
▁earned	-10.3137
▁introduced	-10.3138
▁warning	-10.3145
▁phones	-10.3146
▁stands	-10.3147
▁fingerprints	-10.3148
▁hum	-10.3155
▁ate	-10.3156
▁delivered	-10.3157
▁skills	-10.3163
▁fianc	-10.3163
▁destroyed	-10.3167
▁deserved	-10.317
▁bitches	-10.3181
ight	-10.3182
▁pe	-10.319
▁makeup	-10.32
▁stealing	-10.3207
▁towels	-10.3213
▁scan	-10.3223
▁chips	-10.3229
▁stripes	-10.3241
▁highly	-10.3271
▁epi	-10.3275
▁services	-10.3288
▁reported	-10.3291
▁hop	-10.3298
▁birt	-10.3319
▁pushing	-10.332
di	-10.3321
▁spare	-10.3322
▁peoples	-10.333
▁mu	-10.3332
▁messages	-10.3341
▁cleaned	-10.3361
ron	-10.3379
▁mer	-10.3385
▁yards	-10.3386
▁hates	-10.3395
▁flats	-10.3413
ably	-10.342
▁steps	-10.3422
▁remains	-10.3427
ill	-10.3431
▁the	-10.3444
ab	-10.3459
▁den	-10.3463
ang	-10.3491
ile	-10.3496
▁cleaning	-10.3502
▁bowl	-10.3509
▁lawyers	-10.3515
▁anti	-10.3525
▁bug	-10.3541
▁mob	-10.3544
▁gunshots	-10.3547
ha	-10.3549
▁contain	-10.3566
▁pound	-10.3576
ho	-10.358
▁appear	-10.3583
▁wound	-10.3587
▁on	-10.3588
▁songs	-10.3588
ov	-10.3593
▁device	-10.3596
▁passage	-10.3602
▁flag	-10.3603
▁owner	-10.3604
▁scare	-10.3604
▁bugger	-10.3607
▁reports	-10.3608
ell	-10.3609
▁monkey	-10.3609
▁andrew	-10.3611
▁session	-10.3612
▁generation	-10.3613
▁mat	-10.3617
▁meal	-10.3617
▁lesson	-10.3622
▁unlock	-10.3625
▁mi	-10.3632
▁tail	-10.3639
▁sa	-10.3649
▁critic	-10.3651
▁hits	-10.3656
what	-10.3713
▁flash	-10.3713
▁interrupt	-10.3715
▁rate	-10.3716
▁poison	-10.3719
ire	-10.3726
▁cheat	-10.3727
ker	-10.373
▁ld	-10.3736
▁falls	-10.3741
down	-10.3758
back	-10.3761
▁creat	-10.3761
▁award	-10.3772
▁remove	-10.3774
▁que	-10.3776
▁bend	-10.3777
▁panic	-10.3778
▁moral	-10.3783
▁breaths	-10.3788
▁madam	-10.3795
▁iron	-10.3802
▁chayim	-10.3803
▁shouid	-10.3803
▁abbey	-10.3803
▁behavior	-10.3803
▁bronson	-10.3803
▁coakley	-10.3803
▁conscience	-10.3803
▁dallas	-10.3803
▁duncan	-10.3803
▁happiness	-10.3803
▁homicide	-10.3803
▁jennifer	-10.3803
▁katherine	-10.3803
▁leila	-10.3803
▁museum	-10.3803
▁pamela	-10.3803
▁penalty	-10.3803
▁perimeter	-10.3803
▁procedure	-10.3803
▁quarantine	-10.3803
▁sahar	-10.3803
▁saviano	-10.3803
▁serving	-10.3803
▁struggle	-10.3803
▁tiffany	-10.3803
▁universe	-10.3803
▁volunteer	-10.3803
▁woogie	-10.3803
▁random	-10.3803
▁communicate	-10.3803
▁stewart	-10.3803
▁clinic	-10.3803
▁fifth	-10.3803
▁empire	-10.3803
▁freezing	-10.3803
▁cheque	-10.3803
▁mathias	-10.3803
▁hahaha	-10.3803
▁kmart	-10.3803
▁titties	-10.3803
▁turkey	-10.3803
▁agency	-10.3803
▁solid	-10.3803
▁whitney	-10.3803
▁ollie	-10.3803
▁cried	-10.3803
▁grandfather	-10.3803
▁heels	-10.3803
▁begging	-10.3803
▁curious	-10.3803
▁division	-10.3803
▁argue	-10.3804
▁eloise	-10.3804
▁allison	-10.3804
▁impressive	-10.3804
▁bingo	-10.3804
▁tiger	-10.3804
▁mouse	-10.3804
▁ordinary	-10.3804
▁lola	-10.3804
▁darian	-10.3804
▁loving	-10.3804
▁monet	-10.3804
▁childhood	-10.3804
▁abortion	-10.3804
▁popular	-10.3804
▁typing	-10.3804
▁measure	-10.3804
▁megan	-10.3805
▁spill	-10.3805
▁lionel	-10.3805
▁pattern	-10.3805
▁facility	-10.3805
▁santa	-10.3805
▁incident	-10.3805
▁skull	-10.3806
▁upper	-10.3806
▁effective	-10.3806
▁gunfire	-10.3806
▁after	-10.3806
▁iong	-10.3806
▁labor	-10.3807
▁under	-10.3809
▁potatoes	-10.381
▁minor	-10.3811
▁tanner	-10.3811
▁eden	-10.3811
▁tucker	-10.3811
▁tu	-10.3811
▁becom	-10.3811
▁you	-10.3811
▁coat	-10.3813
▁entry	-10.3813
▁factory	-10.3815
▁directly	-10.3815
▁adopted	-10.3816
▁rice	-10.3816
▁sword	-10.3818
▁witnesses	-10.382
▁healy	-10.382
ism	-10.3822
▁advised	-10.3822
▁stopping	-10.3822
▁officially	-10.3823
▁sharply	-10.3823
▁granted	-10.3825
like	-10.3826
▁roaring	-10.3826
▁mankind	-10.3828
▁separated	-10.383
▁when	-10.383
▁yale	-10.3832
▁healthy	-10.3832
▁designed	-10.3832
▁divorced	-10.3835
▁fireman	-10.3837
▁whoot	-10.3838
▁released	-10.3844
▁ruined	-10.3853
▁sale	-10.3856
▁ham	-10.3856
▁toes	-10.3857
▁persons	-10.3858
▁hooker	-10.3871
▁ge	-10.3885
▁realm	-10.3892
▁forest	-10.3895
▁filled	-10.3897
▁umm	-10.3906
▁mayo	-10.3911
▁waited	-10.3916
▁culture	-10.3931
mber	-10.3969
▁tan	-10.3971
▁prayers	-10.3987
▁image	-10.3992
▁shouts	-10.4009
▁counting	-10.4009
ens	-10.4018
▁rooms	-10.4032
▁ad	-10.4036
▁nightmares	-10.4037
▁tryin	-10.4056
▁sis	-10.4064
▁kicking	-10.4068
▁rep	-10.4092
▁chains	-10.4094
▁schools	-10.4095
▁wins	-10.4104
▁somebodys	-10.4107
▁secrets	-10.4107
▁trauma	-10.4113
▁pea	-10.4136
▁swans	-10.4166
▁cigarettes	-10.4181
▁oi	-10.4195
▁meaning	-10.4221
▁badly	-10.425
▁trusted	-10.4254
▁banks	-10.4264
ox	-10.4283
▁connect	-10.4289
ub	-10.4313
▁fee	-10.4316
▁sport	-10.4334
▁trans	-10.436
▁cocks	-10.436
ations	-10.4366
▁monk	-10.4367
▁z	-10.4367
ating	-10.437
▁compliment	-10.437
▁object	-10.4371
▁design	-10.4372
▁shove	-10.4374
▁brick	-10.4376
▁electronic	-10.4379
▁shark	-10.438
▁thud	-10.4391
▁reads	-10.4394
▁fade	-10.4398
▁trees	-10.4401
ious	-10.4429
▁prayer	-10.4433
▁facts	-10.4442
▁bl	-10.4447
ver	-10.4451
ative	-10.4457
while	-10.4459
ph	-10.4469
▁drawing	-10.448
▁aim	-10.4518
▁represent	-10.4521
▁slide	-10.4524
▁flip	-10.4525
▁leak	-10.4525
▁shush	-10.4525
▁discover	-10.4526
▁sink	-10.4531
▁weep	-10.4533
▁uhh	-10.4534
lic	-10.4536
▁deserves	-10.4537
▁twist	-10.4542
▁describe	-10.4549
▁direct	-10.4549
box	-10.4554
reader	-10.4554
▁invite	-10.4558
▁faint	-10.4559
▁puss	-10.456
▁unlike	-10.4561
▁worm	-10.4561
▁weigh	-10.4565
▁convention	-10.4566
▁exhibit	-10.457
▁worship	-10.4572
▁anacott	-10.4572
▁baylor	-10.4572
▁beloved	-10.4572
▁cincinnati	-10.4572
▁council	-10.4572
▁damien	-10.4572
▁delicious	-10.4572
▁fantasy	-10.4572
▁greece	-10.4572
▁grief	-10.4572
▁imprint	-10.4572
▁intelligence	-10.4572
▁monitor	-10.4572
▁oscar	-10.4572
▁purchase	-10.4572
▁racist	-10.4572
▁reckon	-10.4572
▁remote	-10.4572
▁selfdefense	-10.4572
▁senior	-10.4572
▁spoil	-10.4572
▁survival	-10.4572
▁temporary	-10.4572
▁treasure	-10.4572
▁university	-10.4572
ologist	-10.4572
▁afterwards	-10.4572
▁assaad	-10.4572
▁buddies	-10.4572
▁coincidence	-10.4572
▁drew	-10.4572
▁stabbed	-10.4572
▁surrender	-10.4572
▁alien	-10.4572
▁authorities	-10.4572
▁crystal	-10.4572
▁negative	-10.4572
▁unique	-10.4572
▁autopsy	-10.4572
▁bolt	-10.4572
▁database	-10.4572
▁allegations	-10.4572
▁gavin	-10.4572
▁retail	-10.4572
▁brakes	-10.4572
▁prescription	-10.4572
▁theory	-10.4572
▁britney	-10.4573
▁plague	-10.4573
▁tres	-10.4573
▁sobs	-10.4573
▁structure	-10.4573
▁pillow	-10.4573
▁assistance	-10.4573
▁concept	-10.4573
▁panties	-10.4573
▁babysitter	-10.4573
▁loyalty	-10.4573
▁tess	-10.4573
▁swimming	-10.4573
▁organization	-10.4573
▁jonas	-10.4573
▁rude	-10.4573
▁individual	-10.4573
▁lottery	-10.4573
▁chapter	-10.4573
▁assignment	-10.4573
▁lousy	-10.4573
▁lazy	-10.4573
▁whatre	-10.4574
▁duke	-10.4574
▁ripley	-10.4574
▁prosecutor	-10.4574
▁mitch	-10.4574
▁beef	-10.4574
▁igby	-10.4574
▁seattle	-10.4574
▁shotgun	-10.4574
▁blah	-10.4574
▁conley	-10.4574
▁ceremony	-10.4574
▁consult	-10.4575
▁bruno	-10.4575
▁fork	-10.4575
▁selfish	-10.4575
▁acid	-10.4575
▁connie	-10.4575
▁advantage	-10.4575
▁license	-10.4575
▁extraordinary	-10.4576
▁meg	-10.4576
▁dna	-10.4576
▁agh	-10.4576
▁paranoid	-10.4577
▁pub	-10.4577
▁ross	-10.4577
▁port	-10.4577
▁stream	-10.4578
▁suggestion	-10.4578
▁todd	-10.4578
▁solo	-10.4578
▁temper	-10.4579
▁carved	-10.4579
▁barry	-10.458
▁insects	-10.4581
▁cameron	-10.4581
▁witch	-10.4583
▁bam	-10.4583
▁pole	-10.4584
▁stigman	-10.4584
▁virgin	-10.4585
▁fallen	-10.4587
▁pile	-10.4587
▁emma	-10.4587
▁cutting	-10.4588
▁miller	-10.4588
▁ni	-10.4588
▁shattering	-10.459
▁impressed	-10.459
▁clank	-10.4592
▁convinced	-10.4593
▁highness	-10.46
▁dearest	-10.4602
▁naturally	-10.4604
▁sean	-10.4606
▁spy	-10.4612
▁sew	-10.4617
▁horny	-10.4617
pl	-10.4625
▁yorkin	-10.4626
▁assumed	-10.4628
▁meantime	-10.4631
▁dumped	-10.4634
▁stays	-10.4635
▁normally	-10.4638
my	-10.4639
▁emotions	-10.4643
▁manual	-10.4649
▁resumes	-10.4656
▁quicker	-10.4658
way	-10.466
▁patch	-10.4662
▁for	-10.4674
▁accepted	-10.4674
ble	-10.4679
▁burns	-10.468
▁ricky	-10.4688
▁carefully	-10.4689
▁wo	-10.469
▁heroin	-10.4695
▁prayed	-10.4697
▁shares	-10.4701
▁lads	-10.4716
ot	-10.4717
▁idiots	-10.4717
▁returned	-10.472
▁host	-10.473
vi	-10.4732
val	-10.4732
▁riding	-10.475
thing	-10.4762
▁sports	-10.4765
▁sha	-10.4783
▁degrees	-10.4795
▁fishing	-10.4799
▁br	-10.4811
▁signed	-10.4813
▁dreamed	-10.4822
▁barb	-10.4857
▁receive	-10.4858
its	-10.487
▁learning	-10.4885
▁mel	-10.4891
▁blocks	-10.4891
▁seats	-10.4893
▁chop	-10.4932
od	-10.4961
ping	-10.497
▁approach	-10.5002
▁psych	-10.501
▁anyways	-10.5017
ize	-10.5025
▁ghosts	-10.5045
▁ac	-10.5055
io	-10.5065
her	-10.5086
▁mas	-10.5094
▁parts	-10.51
▁arse	-10.5107
▁signor	-10.5123
▁rec	-10.5131
if	-10.5137
ical	-10.5138
▁season	-10.5149
aka	-10.515
▁min	-10.5154
▁sum	-10.5158
▁corn	-10.5158
ap	-10.5163
▁amo	-10.5192
▁spider	-10.5199
▁stammer	-10.5205
▁pipe	-10.521
▁uniform	-10.5211
▁photograph	-10.5215
▁standard	-10.5217
▁direction	-10.5218
▁pl	-10.5219
▁shoe	-10.523
▁nut	-10.5233
▁bond	-10.5245
▁contracts	-10.5255
▁cultur	-10.5263
▁bee	-10.5289
▁jon	-10.5291
▁plug	-10.5298
▁kiii	-10.5301
cal	-10.5305
▁wast	-10.5306
▁cu	-10.5314
▁ships	-10.5319
▁respond	-10.5322
▁drown	-10.5325
▁fart	-10.5339
▁brand	-10.5339
▁creep	-10.534
▁scratch	-10.5357
wood	-10.5359
▁echo	-10.5361
▁attempt	-10.537
▁resist	-10.537
book	-10.5376
▁convince	-10.5384
▁advise	-10.5384
▁bunk	-10.5385
▁inform	-10.5386
▁charm	-10.5387
▁pacific	-10.5389
▁eternal	-10.539
▁tob	-10.5391
▁physical	-10.5392
▁recent	-10.5393
▁actual	-10.5395
▁ton	-10.54
▁porn	-10.5402
▁psychopath	-10.5403
▁tech	-10.5403
▁yank	-10.5405
▁bachelor	-10.5406
▁tragedy	-10.5406
▁anniversary	-10.5406
▁arcamax	-10.5406
▁bollocks	-10.5406
▁brutal	-10.5406
▁caitlyn	-10.5406
▁colonel	-10.5406
▁darien	-10.5406
▁elephant	-10.5406
▁elliott	-10.5406
▁erika	-10.5406
▁fabulous	-10.5406
▁firephina	-10.5406
▁fizel	-10.5406
▁grimsby	-10.5406
▁infected	-10.5406
▁infection	-10.5406
▁library	-10.5406
▁litvenko	-10.5406
▁lynn	-10.5406
▁modern	-10.5406
▁protocol	-10.5406
▁quincy	-10.5406
▁scenario	-10.5406
▁scotch	-10.5406
▁teldar	-10.5406
▁terribly	-10.5406
▁unhappy	-10.5406
▁vietnam	-10.5406
▁violin	-10.5406
▁yvonne	-10.5406
▁distort	-10.5406
▁erwin	-10.5406
▁marchino	-10.5406
▁niece	-10.5406
▁strict	-10.5406
▁halsey	-10.5406
▁instance	-10.5406
▁equipment	-10.5406
▁modal	-10.5406
▁sylvia	-10.5406
▁donkey	-10.5406
▁joseph	-10.5406
▁hubba	-10.5406
▁keith	-10.5406
▁dignity	-10.5406
▁solara	-10.5406
▁financial	-10.5406
▁generous	-10.5406
▁invitation	-10.5406
▁conservative	-10.5406
▁svenning	-10.5406
▁cyrus	-10.5406
▁babbitt	-10.5406
▁rustling	-10.5406
▁ruddy	-10.5406
▁inaudible	-10.5406
▁charity	-10.5406
▁gook	-10.5407
▁digging	-10.5407
▁rotten	-10.5407
▁starving	-10.5407
▁audition	-10.5407
▁password	-10.5407
▁reaiiy	-10.5407
▁technology	-10.5407
▁rakel	-10.5407
▁studio	-10.5407
▁burst	-10.5407
▁greve	-10.5407
▁dunno	-10.5408
▁whooshes	-10.5408
▁disappointment	-10.5408
▁bail	-10.5408
▁breast	-10.5409
▁production	-10.5409
▁debbie	-10.5409
▁franco	-10.541
▁agreement	-10.541
▁pickett	-10.541
▁q	-10.5411
▁clearance	-10.5412
nic	-10.5412
▁weakness	-10.5413
▁century	-10.5413
▁goldman	-10.5415
▁ze	-10.5416
▁uhuh	-10.5417
▁robbed	-10.5418
▁setting	-10.5419
▁faintly	-10.542
▁clothing	-10.542
▁to	-10.5421
▁float	-10.5422
▁jen	-10.5422
▁abandoned	-10.5423
▁backyard	-10.5424
▁debt	-10.5424
▁applauding	-10.5424
▁matches	-10.5425
▁sato	-10.5427
▁robin	-10.5427
▁deny	-10.5427
▁breakup	-10.5428
▁thee	-10.5432
▁squeaking	-10.5432
▁range	-10.5439
▁cheated	-10.5443
▁surely	-10.5445
▁server	-10.5446
▁col	-10.5447
▁dolphins	-10.5447
▁gloves	-10.5447
▁coke	-10.5448
▁carson	-10.5449
▁jesse	-10.5451
▁ka	-10.5453
▁sealed	-10.5458
▁hills	-10.5464
▁wayne	-10.5464
▁clap	-10.5468
▁fae	-10.5468
▁leads	-10.5472
▁app	-10.5477
▁busted	-10.5486
▁ju	-10.5488
▁counts	-10.5492
▁blocking	-10.5492
▁packed	-10.5505
▁locks	-10.5506
oon	-10.5513
▁and	-10.5528
▁knocked	-10.5533
how	-10.5535
will	-10.554
▁booge	-10.5557
▁shooter	-10.5557
▁concentrate	-10.556
▁recorded	-10.557
ka	-10.5576
▁screwing	-10.5582
ey	-10.5582
▁fo	-10.5584
▁am	-10.5587
▁enjoyed	-10.5595
▁clips	-10.5598
▁shown	-10.5627
▁minds	-10.563
▁drum	-10.5635
▁teaching	-10.5636
▁od	-10.5644
▁leading	-10.5645
os	-10.5648
▁mountains	-10.5648
mon	-10.5654
nnies	-10.5669
▁flames	-10.5682
pa	-10.5683
▁enjoying	-10.5692
ud	-10.5703
▁stripe	-10.5705
▁adults	-10.5715
▁speakers	-10.5724
▁reminds	-10.5752
▁cur	-10.5773
sion	-10.5801
ny	-10.5817
▁affairs	-10.5819
▁ti	-10.5834
lapping	-10.5847
▁unh	-10.5855
▁orleans	-10.5888
▁gal	-10.5895
cks	-10.5909
▁chip	-10.5913
▁howl	-10.5979
▁fans	-10.599
▁tra	-10.5992
▁nasa	-10.6017
so	-10.6038
▁site	-10.605
j	-10.6056
▁begins	-10.606
▁types	-10.6063
▁damned	-10.6066
ju	-10.6073
over	-10.6073
ina	-10.6082
▁units	-10.6083
oh	-10.6098
ima	-10.6104
▁motorcycle	-10.6108
▁habit	-10.6108
▁cowboy	-10.6114
▁traitor	-10.6114
▁stink	-10.6116
▁snack	-10.6118
▁accountant	-10.612
▁material	-10.612
▁scientist	-10.6122
▁cow	-10.6123
▁newspaper	-10.6125
▁document	-10.6131
ddy	-10.6132
▁string	-10.6133
▁option	-10.6133
▁parent	-10.6135
▁term	-10.6143
▁flower	-10.6143
▁drawer	-10.6152
▁manner	-10.6155
▁dancer	-10.6184
▁teachers	-10.6215
▁ru	-10.6221
com	-10.6227
▁wig	-10.6233
▁ram	-10.6235
▁request	-10.6236
▁indian	-10.6249
▁commission	-10.626
rus	-10.6269
der	-10.627
▁li	-10.6272
onnie	-10.6275
cho	-10.6275
▁stress	-10.6276
▁cancel	-10.6282
▁invent	-10.6283
▁mix	-10.6285
▁trail	-10.6287
▁cooper	-10.629
▁determine	-10.6292
yearold	-10.6293
▁hack	-10.6294
called	-10.6294
pot	-10.6294
right	-10.6296
▁wing	-10.6297
▁chuck	-10.63
▁guilt	-10.63
▁del	-10.6301
▁successful	-10.6303
▁realise	-10.6305
▁unto	-10.6307
▁detect	-10.6313
▁occasion	-10.6313
▁cuff	-10.6314
▁abbess	-10.6315
▁academy	-10.6315
▁appropriate	-10.6315
▁april	-10.6315
▁average	-10.6315
▁baldini	-10.6315
▁campaign	-10.6315
▁cavendish	-10.6315
▁chemical	-10.6315
▁clamoring	-10.6315
▁cocktail	-10.6315
▁crimson	-10.6315
▁elbow	-10.6315
▁explode	-10.6315
▁ferguson	-10.6315
▁grateful	-10.6315
▁greek	-10.6315
▁happier	-10.6315
▁headquarters	-10.6315
▁inspire	-10.6315
▁irene	-10.6315
▁journey	-10.6315
▁karras	-10.6315
▁lynda	-10.6315
▁medevac	-10.6315
▁misunderstand	-10.6315
▁mystery	-10.6315
▁nathaniel	-10.6315
▁naughty	-10.6315
▁nigga	-10.6315
▁oracle	-10.6315
▁patience	-10.6315
▁platform	-10.6315
▁politician	-10.6315
▁proposal	-10.6315
▁sausage	-10.6315
▁select	-10.6315
▁smack	-10.6315
▁stereo	-10.6315
▁suspicious	-10.6315
▁thirteen	-10.6315
▁turtle	-10.6315
▁vengeance	-10.6315
▁warrior	-10.6315
▁whimpers	-10.6315
▁yogurt	-10.6315
▁addition	-10.6315
▁connor	-10.6315
▁dennis	-10.6315
▁cruces	-10.6315
▁morahan	-10.6315
▁neighbourhood	-10.6315
▁casper	-10.6315
▁pump	-10.6315
▁theater	-10.6315
▁underground	-10.6315
▁brodie	-10.6315
▁raid	-10.6315
▁residence	-10.6315
▁temperature	-10.6315
▁ultimate	-10.6315
▁parrish	-10.6315
▁aisle	-10.6315
▁someplace	-10.6315
cient	-10.6315
▁harris	-10.6315
▁thick	-10.6315
▁clements	-10.6315
▁lobby	-10.6315
▁cruel	-10.6315
▁infirmary	-10.6315
▁parole	-10.6315
▁someday	-10.6315
▁kungfu	-10.6315
▁clink	-10.6315
▁false	-10.6315
▁magda	-10.6315
▁anytime	-10.6315
▁carpet	-10.6315
▁avery	-10.6315
▁couch	-10.6315
▁engagement	-10.6315
▁duties	-10.6315
▁appearance	-10.6315
▁steak	-10.6315
▁exclusive	-10.6315
▁chasing	-10.6315
▁denial	-10.6315
▁noah	-10.6316
▁huron	-10.6316
boy	-10.6316
▁oak	-10.6316
▁fetch	-10.6316
▁kung	-10.6316
▁sensitive	-10.6316
▁tshirt	-10.6316
▁purse	-10.6316
▁typical	-10.6316
▁thread	-10.6316
▁eve	-10.6316
▁vulnerable	-10.6316
▁sync	-10.6316
▁massive	-10.6316
▁announcement	-10.6317
▁balance	-10.6317
▁slight	-10.6317
▁creative	-10.6317
▁task	-10.6317
▁freddy	-10.6317
▁down	-10.6317
▁taxes	-10.6317
▁punk	-10.6317
▁shelley	-10.6318
▁supply	-10.6318
▁sway	-10.6318
▁precise	-10.6318
▁clapping	-10.6318
▁redwood	-10.6318
▁bonus	-10.6318
▁thang	-10.6318
▁lucy	-10.6319
▁firefall	-10.6319
▁danielle	-10.632
▁stalker	-10.632
▁wealth	-10.632
▁owned	-10.632
▁sully	-10.6321
▁shave	-10.6321
▁deai	-10.6322
▁entertainer	-10.6322
▁secretary	-10.6323
▁discussion	-10.6323
▁sandwiches	-10.6323
▁lame	-10.6323
▁baked	-10.6325
▁kiddo	-10.6325
▁faithful	-10.6326
▁chairman	-10.6326
▁fist	-10.6327
▁whooping	-10.6327
▁humanity	-10.6328
▁biii	-10.6328
▁identified	-10.6329
▁threatening	-10.6331
▁growling	-10.6331
▁weed	-10.6332
▁barbie	-10.6332
▁fuckedup	-10.6333
▁plead	-10.6333
▁deck	-10.6334
em	-10.6336
▁properly	-10.6336
▁ci	-10.6337
pped	-10.6338
▁kiiier	-10.6339
▁hunter	-10.634
▁limb	-10.6341
▁reasonable	-10.6341
▁parish	-10.6342
▁resources	-10.6343
▁mixed	-10.6346
▁requested	-10.6346
▁useless	-10.6349
▁sixth	-10.6351
▁refused	-10.6353
▁announce	-10.6354
▁shithole	-10.6357
▁euros	-10.6361
▁delivery	-10.6362
▁judy	-10.6365
▁cursed	-10.6368
▁blown	-10.6368
▁shy	-10.6369
▁mistaken	-10.6372
▁bid	-10.6374
▁handcuffs	-10.6379
▁stat	-10.6379
▁bun	-10.638
▁tit	-10.6385
▁youyou	-10.6385
▁hint	-10.6385
▁dolly	-10.6387
▁rene	-10.6388
▁fairy	-10.6411
▁finest	-10.6416
▁lap	-10.6417
▁tub	-10.6419
▁cheaper	-10.6426
▁impression	-10.643
▁roars	-10.6435
▁ditch	-10.6439
▁tap	-10.6448
ux	-10.6449
▁covers	-10.6449
▁toys	-10.6452
▁shots	-10.6454
ak	-10.6461
▁limits	-10.6471
▁casual	-10.6476
▁killers	-10.6494
▁embrace	-10.6504
▁tag	-10.6516
grad	-10.6524
▁tin	-10.6526
▁protected	-10.653
▁dings	-10.6544
▁mass	-10.6544
▁diet	-10.6548
▁walkie	-10.6548
▁tapes	-10.6558
▁bra	-10.6561
▁wars	-10.6563
▁fashion	-10.6567
▁pets	-10.6599
ber	-10.6608
▁defen	-10.6608
▁shorts	-10.661
▁snaps	-10.661
▁sw	-10.6617
iv	-10.6624
▁tale	-10.6635
▁ima	-10.6649
ose	-10.6667
act	-10.6674
▁officials	-10.6676
▁sticks	-10.6686
▁mc	-10.6703
hi	-10.6704
▁rolls	-10.6745
▁friendly	-10.6749
▁pos	-10.6763
ade	-10.6766
ite	-10.6777
▁hor	-10.6796
mer	-10.6796
aldo	-10.6797
▁tw	-10.682
▁oni	-10.6826
▁easter	-10.6829
▁gl	-10.6831
▁cleared	-10.6836
well	-10.6836
▁keeper	-10.6847
▁powers	-10.6862
va	-10.6874
▁bla	-10.6888
▁hoped	-10.6907
▁tro	-10.6917
▁roses	-10.6924
ung	-10.6932
ments	-10.6942
▁adams	-10.6946
▁masters	-10.6958
▁partners	-10.6981
▁roads	-10.7011
▁childs	-10.7012
for	-10.7017
▁rocket	-10.7055
▁forces	-10.7061
▁sigh	-10.7064
▁demand	-10.7071
▁clip	-10.7085
ual	-10.7089
▁figures	-10.7104
▁servant	-10.7108
▁spartan	-10.7108
▁clone	-10.7115
▁nerve	-10.7118
▁employee	-10.7118
▁mommys	-10.712
▁chamber	-10.7123
▁cloud	-10.7124
▁caused	-10.7125
▁towel	-10.7129
▁neighbor	-10.7129
ado	-10.7136
▁cable	-10.7139
ery	-10.7147
▁skip	-10.7156
▁not	-10.7162
▁studie	-10.7175
▁harm	-10.7179
ide	-10.7181
▁prices	-10.7193
▁et	-10.7201
▁stare	-10.7208
att	-10.7217
bag	-10.7247
▁horses	-10.7252
▁insult	-10.7261
▁mill	-10.7264
▁flirt	-10.7266
▁bargain	-10.7267
▁noon	-10.7268
▁glow	-10.727
▁ambush	-10.7279
▁breach	-10.728
▁beck	-10.728
▁prevent	-10.7281
▁grant	-10.7284
▁wi	-10.7285
▁alter	-10.7289
▁include	-10.7289
▁replace	-10.729
▁tur	-10.7291
ability	-10.7294
▁sonmi	-10.7305
▁cave	-10.731
▁heii	-10.7311
▁gentle	-10.7313
▁couid	-10.7313
▁anonymous	-10.7315
▁apologies	-10.7315
▁attitude	-10.7315
▁awkward	-10.7315
▁beneath	-10.7315
▁centuries	-10.7315
▁chorus	-10.7315
▁chowdhury	-10.7315
▁clich	-10.7315
▁consulate	-10.7315
▁disagree	-10.7315
▁disaster	-10.7315
▁distress	-10.7315
▁district	-10.7315
▁essential	-10.7315
▁etienne	-10.7315
▁exploding	-10.7315
▁frobisher	-10.7315
▁georgia	-10.7315
▁guitar	-10.7315
▁industry	-10.7315
▁inspiration	-10.7315
▁length	-10.7315
▁lutz	-10.7315
▁metaphor	-10.7315
▁mohawk	-10.7315
▁motel	-10.7315
▁muscle	-10.7315
▁myrtle	-10.7315
▁ottersen	-10.7315
▁pathfinder	-10.7315
▁peopie	-10.7315
▁petrie	-10.7315
▁pierrot	-10.7315
▁podcast	-10.7315
▁politics	-10.7315
▁prophet	-10.7315
▁rahil	-10.7315
▁razor	-10.7315
▁sacha	-10.7315
▁scatter	-10.7315
▁shakespeare	-10.7315
▁sharla	-10.7315
▁slocumb	-10.7315
▁solution	-10.7315
▁stiii	-10.7315
▁superintendent	-10.7315
▁surgeon	-10.7315
▁testimony	-10.7315
▁throughout	-10.7315
▁ceii	-10.7315
▁cemetery	-10.7315
▁knives	-10.7315
▁munro	-10.7315
▁shaft	-10.7315
▁squash	-10.7315
▁tolerate	-10.7315
▁wilkes	-10.7315
▁elvis	-10.7315
▁eurostream	-10.7315
▁gerry	-10.7315
▁jefe	-10.7315
▁lorna	-10.7315
▁bennie	-10.7315
▁clucking	-10.7315
▁commercial	-10.7315
▁gym	-10.7315
▁congress	-10.7315
▁struck	-10.7315
▁faggot	-10.7315
▁franklin	-10.7315
▁harold	-10.7315
▁precious	-10.7315
▁anderson	-10.7315
▁headphones	-10.7315
▁polite	-10.7315
▁briefcase	-10.7315
▁arcana	-10.7315
▁earl	-10.7315
▁feast	-10.7315
▁brett	-10.7315
▁calder	-10.7315
▁rudy	-10.7315
▁overmeyer	-10.7315
▁apology	-10.7315
▁entrance	-10.7315
▁blink	-10.7315
▁giggling	-10.7315
▁crank	-10.7315
▁maximum	-10.7315
▁series	-10.7315
▁ambition	-10.7315
▁tanaka	-10.7315
▁landlord	-10.7315
▁identity	-10.7315
▁pony	-10.7315
▁aspro	-10.7315
▁blanket	-10.7315
▁network	-10.7315
▁groceries	-10.7315
▁basis	-10.7315
▁abide	-10.7315
▁sanford	-10.7316
▁bacon	-10.7316
▁blake	-10.7316
▁envelope	-10.7316
▁cliff	-10.7316
▁flashlight	-10.7316
▁reception	-10.7316
▁quint	-10.7316
relia	-10.7316
▁reaction	-10.7316
▁jeff	-10.7316
▁jessup	-10.7316
▁classified	-10.7316
▁burden	-10.7316
▁maniac	-10.7316
▁couidnt	-10.7316
▁rapist	-10.7316
▁chatting	-10.7316
▁committee	-10.7316
▁starina	-10.7317
▁poet	-10.7317
▁cities	-10.7317
▁begun	-10.7317
▁virginity	-10.7317
▁territory	-10.7317
▁lodge	-10.7317
▁daily	-10.7317
▁iove	-10.7318
▁bait	-10.7318
▁jaw	-10.7318
▁dropping	-10.7318
▁amat	-10.7319
▁raiden	-10.7319
▁copper	-10.7319
▁cries	-10.7319
▁toss	-10.7319
▁steam	-10.7319
▁castle	-10.7319
▁overdose	-10.7319
▁soil	-10.7319
▁courthouse	-10.732
▁diary	-10.732
▁allen	-10.732
▁filthy	-10.7321
▁pork	-10.7321
▁thirsty	-10.7321
▁wore	-10.7321
▁salary	-10.7321
▁condor	-10.7321
▁sandman	-10.7322
▁runner	-10.7322
▁loop	-10.7322
▁rug	-10.7323
▁technically	-10.7323
▁mason	-10.7323
▁function	-10.7323
▁depressed	-10.7323
▁developed	-10.7323
▁critical	-10.7323
▁breed	-10.7324
▁battery	-10.7324
▁condo	-10.7324
▁ek	-10.7324
▁chart	-10.7325
▁dismissed	-10.7326
▁embarrassing	-10.7327
▁tart	-10.7328
▁grid	-10.7328
▁johnna	-10.7328
▁wildman	-10.7328
▁personality	-10.7328
▁settlement	-10.7332
▁sniper	-10.7332
▁madame	-10.7335
▁chunk	-10.7336
▁christian	-10.7337
▁disturbed	-10.734
▁scraping	-10.7341
▁sore	-10.7342
▁cooperate	-10.7343
▁lane	-10.7343
▁showtime	-10.7345
▁consequences	-10.7346
▁instructions	-10.7346
▁pint	-10.7348
▁kiiied	-10.7353
▁dieter	-10.7353
▁boxes	-10.7358
▁connected	-10.7359
orah	-10.7359
gh	-10.7361
▁bargaining	-10.7362
▁jude	-10.7366
▁requesting	-10.7368
▁scotty	-10.7372
▁heavens	-10.7377
▁jane	-10.738
▁lao	-10.7384
icles	-10.7389
▁timing	-10.7396
▁fuckers	-10.7406
▁bann	-10.7406
▁suffered	-10.7407
▁crackles	-10.7408
tra	-10.741
▁posted	-10.7411
▁shortly	-10.7414
▁drops	-10.7417
amo	-10.742
ways	-10.7426
▁swat	-10.7431
▁kin	-10.7437
▁fed	-10.7444
▁sheets	-10.7447
▁mac	-10.746
▁sift	-10.7465
▁nap	-10.7466
▁slams	-10.7467
▁charged	-10.7481
▁she	-10.7489
▁foundation	-10.7493
▁wally	-10.7495
tro	-10.7495
▁laws	-10.7498
▁prop	-10.7505
▁rig	-10.751
▁cocking	-10.7513
▁lad	-10.7515
▁reaching	-10.7515
▁waters	-10.7516
▁sche	-10.7518
▁newspapers	-10.7529
▁wings	-10.753
▁sucker	-10.7538
▁shuts	-10.7543
▁directions	-10.755
▁wil	-10.7557
▁surprises	-10.7563
▁blessing	-10.7571
fall	-10.7577
fa	-10.7581
▁admire	-10.7584
▁tracking	-10.7592
che	-10.7604
▁offering	-10.7608
▁mini	-10.7611
▁mont	-10.7616
▁geez	-10.7618
▁cre	-10.7637
▁mon	-10.764
▁musical	-10.7643
▁dec	-10.7645
▁proven	-10.7648
▁mud	-10.7653
▁visions	-10.7653
▁nuns	-10.7653
▁testing	-10.7655
ix	-10.7666
▁drivers	-10.7669
room	-10.7688
ham	-10.7696
rent	-10.7697
▁gu	-10.7706
▁results	-10.7716
ito	-10.7723
▁engineer	-10.7724
▁sauce	-10.773
▁kicks	-10.7738
tal	-10.7742
▁imagin	-10.7758
▁meetings	-10.7768
oof	-10.7779
▁shoulders	-10.778
nes	-10.7782
row	-10.7786
▁bev	-10.7789
▁stag	-10.7789
▁odds	-10.7801
name	-10.7803
▁formal	-10.7806
▁sch	-10.7807
▁comp	-10.7816
ids	-10.782
▁dreaming	-10.7822
▁nurses	-10.7823
▁lovers	-10.783
▁acts	-10.7861
▁aj	-10.7864
▁deadly	-10.787
▁tri	-10.7871
▁hundreds	-10.788
▁concerns	-10.789
und	-10.7898
▁sounded	-10.7902
▁liquid	-10.7906
gging	-10.7921
▁suite	-10.7957
▁hollis	-10.7959
▁bags	-10.7983
▁despi	-10.7994
▁bombs	-10.8
tone	-10.8
▁cal	-10.8007
▁players	-10.802
low	-10.8026
▁vice	-10.8036
▁teams	-10.8044
▁pays	-10.8051
oul	-10.8055
▁depend	-10.8069
ner	-10.8074
ros	-10.8081
ara	-10.8087
▁pic	-10.8101
jo	-10.8107
▁flu	-10.813
▁handed	-10.8135
▁pas	-10.8153
▁comb	-10.8156
▁pleased	-10.8162
▁devils	-10.8167
▁builds	-10.8171
▁cart	-10.8173
▁pervert	-10.8183
▁psyche	-10.8197
▁limit	-10.8204
▁myth	-10.8221
▁reservation	-10.8221
▁grandpa	-10.8222
▁intention	-10.8223
med	-10.8223
▁diamond	-10.8225
▁instinct	-10.8225
▁bio	-10.8231
▁dozen	-10.8233
▁champion	-10.8236
▁folk	-10.8246
▁snort	-10.8249
▁ties	-10.8252
▁bu	-10.8258
▁pu	-10.8263
▁log	-10.8267
▁here	-10.8272
▁coin	-10.8277
▁tex	-10.828
▁clas	-10.8286
▁via	-10.8293
▁sup	-10.8294
ole	-10.8301
▁twin	-10.8308
▁marks	-10.8314
▁ph	-10.8318
▁complain	-10.832
▁weekends	-10.8322
▁scenes	-10.8322
▁corners	-10.8325
▁prep	-10.8359
▁wander	-10.8362
▁areas	-10.8367
▁organize	-10.8369
▁jess	-10.837
looking	-10.8377
▁grind	-10.8379
▁ew	-10.8385
▁trump	-10.8389
▁sheriffs	-10.8389
▁apply	-10.8393
▁franc	-10.8393
▁swallow	-10.8393
▁betray	-10.8394
range	-10.84
▁plea	-10.8402
▁junk	-10.8402
▁asses	-10.8402
place	-10.8402
school	-10.8404
▁cum	-10.8405
town	-10.8405
▁solve	-10.8406
plant	-10.8406
▁tuck	-10.8415
▁dy	-10.8418
▁pow	-10.8419
▁russel	-10.8421
▁fran	-10.8422
▁tradition	-10.8423
▁sittin	-10.8423
▁inject	-10.8423
▁affect	-10.8425
▁capital	-10.8425
▁convict	-10.8425
▁observe	-10.8425
▁orphan	-10.8425
▁ash	-10.8425
▁restrain	-10.8425
▁adjust	-10.8425
▁doug	-10.8426
▁caf	-10.8426
▁commentator	-10.8426
▁eleven	-10.8426
▁evolution	-10.8426
▁grape	-10.8426
▁absurd	-10.8426
▁adorable	-10.8426
▁adventure	-10.8426
▁alvarez	-10.8426
▁auction	-10.8426
▁broccoli	-10.8426
▁candidate	-10.8426
▁cellular	-10.8426
▁clarissa	-10.8426
▁colonial	-10.8426
▁companies	-10.8426
▁conspiracy	-10.8426
▁crooked	-10.8426
▁dermot	-10.8426
▁doughnuts	-10.8426
▁exclaiming	-10.8426
▁fairfax	-10.8426
▁gardner	-10.8426
▁hawaii	-10.8426
▁identify	-10.8426
▁katharine	-10.8426
▁loneliness	-10.8426
▁mamma	-10.8426
▁militia	-10.8426
▁minimum	-10.8426
▁negro	-10.8426
▁niobe	-10.8426
▁observation	-10.8426
▁opposite	-10.8426
▁platoon	-10.8426
▁pursue	-10.8426
▁relief	-10.8426
▁religion	-10.8426
▁religious	-10.8426
▁satellite	-10.8426
▁savior	-10.8426
▁schreber	-10.8426
▁scissors	-10.8426
▁species	-10.8426
▁squawking	-10.8426
▁stegman	-10.8426
▁sweeney	-10.8426
▁toothpicks	-10.8426
▁transmission	-10.8426
▁unfair	-10.8426
▁unknown	-10.8426
▁walenski	-10.8426
▁daffy	-10.8426
▁herald	-10.8426
▁itsits	-10.8426
▁nikas	-10.8426
▁sterling	-10.8426
▁welfare	-10.8426
▁confidence	-10.8426
▁marqui	-10.8426
▁blares	-10.8426
▁hottest	-10.8426
▁ryan	-10.8426
▁judging	-10.8426
▁concert	-10.8426
▁dummy	-10.8426
▁offsho	-10.8426
▁glory	-10.8426
▁medal	-10.8426
▁anyhow	-10.8426
▁forbidden	-10.8426
▁nigger	-10.8426
▁jessica	-10.8426
▁scrub	-10.8426
▁tennis	-10.8426
▁ceo	-10.8426
▁barrett	-10.8426
▁tofu	-10.8426
▁decade	-10.8426
▁fading	-10.8426
▁theories	-10.8426
▁broadway	-10.8426
▁psychological	-10.8426
▁cartoon	-10.8426
▁droning	-10.8426
▁evaluation	-10.8426
▁whys	-10.8426
▁iife	-10.8426
▁cocksucker	-10.8426
▁chaos	-10.8426
▁lisa	-10.8426
▁jazz	-10.8426
▁donut	-10.8426
▁crisis	-10.8426
▁forbid	-10.8426
▁woodshed	-10.8426
▁bergen	-10.8426
▁delay	-10.8426
▁steady	-10.8426
▁refrigerator	-10.8427
▁molly	-10.8427
▁foster	-10.8427
▁rubbish	-10.8427
▁liam	-10.8427
▁harassment	-10.8427
▁divine	-10.8427
▁fabi	-10.8427
▁penny	-10.8427
▁priority	-10.8427
▁josh	-10.8427
▁deputy	-10.8427
▁knight	-10.8427
▁unconscious	-10.8427
▁skinny	-10.8427
▁wiley	-10.8427
▁lime	-10.8427
▁danny	-10.8427
▁pimp	-10.8427
▁election	-10.8427
▁upside	-10.8427
▁geeta	-10.8427
▁eagle	-10.8427
▁necessarily	-10.8427
▁batteries	-10.8427
▁conduct	-10.8427
▁mmmmmm	-10.8427
▁possibility	-10.8427
▁shane	-10.8428
▁assuming	-10.8428
▁reflection	-10.8428
▁splash	-10.8428
▁rapid	-10.8428
▁profit	-10.8428
▁laundry	-10.8428
▁dragged	-10.8428
▁chloe	-10.8429
▁divers	-10.8429
▁michelle	-10.8429
▁roman	-10.8429
▁shack	-10.8429
▁shrieking	-10.8429
▁confirmation	-10.8429
▁floorboard	-10.8429
▁fluid	-10.8429
▁rodeo	-10.8429
▁aboard	-10.8429
▁skirt	-10.843
▁vital	-10.843
▁stray	-10.843
▁quality	-10.843
▁broad	-10.8431
▁halfway	-10.8431
▁driveway	-10.8431
▁ashes	-10.8431
ency	-10.8431
▁surrounded	-10.8432
▁seb	-10.8432
▁engaged	-10.8432
▁tries	-10.8432
▁preserve	-10.8433
▁portal	-10.8433
▁toro	-10.8434
▁swor	-10.8434
▁alley	-10.8434
▁pence	-10.8434
▁frontier	-10.8434
▁snoring	-10.8435
▁comon	-10.8435
▁jokes	-10.8435
▁hideous	-10.8435
▁recommendation	-10.8435
▁profile	-10.8436
▁zip	-10.8436
▁presentation	-10.8436
▁related	-10.8438
▁mil	-10.8439
▁threatened	-10.8439
▁classical	-10.844
▁adele	-10.844
▁dc	-10.844
▁motherfucking	-10.8441
▁forgetting	-10.8441
▁facing	-10.8441
▁parade	-10.8442
▁relieved	-10.8443
▁aida	-10.8443
▁gare	-10.8443
▁arranged	-10.8444
▁lex	-10.8446
▁sniffing	-10.8446
▁refer	-10.8447
▁frenchie	-10.845
▁fur	-10.845
▁slipped	-10.8451
▁bitter	-10.8454
▁possessed	-10.8454
▁pinky	-10.8455
▁baron	-10.8456
▁bunker	-10.846
▁tyres	-10.8461
▁coordinates	-10.8461
▁thistles	-10.8461
▁onions	-10.8461
▁accused	-10.8461
▁freakin	-10.8462
▁whining	-10.8462
▁ize	-10.8463
▁tracks	-10.8463
▁invented	-10.8465
▁assist	-10.8467
pensive	-10.8468
▁regarding	-10.8469
▁removed	-10.8469
▁hopeless	-10.8469
▁erase	-10.847
ised	-10.8471
▁pod	-10.8471
▁lure	-10.8478
▁passes	-10.8481
▁candles	-10.8483
▁sandy	-10.8483
▁confessed	-10.8484
▁sensei	-10.8484
▁classes	-10.8487
▁noble	-10.849
▁arch	-10.8493
ett	-10.85
▁revs	-10.85
▁usa	-10.8501
▁nervously	-10.8505
▁condoms	-10.8506
▁passengers	-10.8506
▁rustles	-10.8506
▁melt	-10.851
▁beard	-10.851
▁scaring	-10.851
pin	-10.8512
▁hol	-10.8513
tick	-10.8521
▁entered	-10.8522
▁mal	-10.8524
▁stupido	-10.8527
▁entirely	-10.8528
▁cr	-10.8528
▁slower	-10.8529
▁moans	-10.8529
▁shatters	-10.8529
▁socks	-10.853
▁straighten	-10.8534
▁her	-10.8542
▁sk	-10.8546
tor	-10.8549
▁lungs	-10.8552
▁colleagues	-10.8552
arve	-10.8558
▁assets	-10.8575
▁assassins	-10.8575
▁tops	-10.859
▁regards	-10.8598
year	-10.8604
▁visiting	-10.8617
▁farmer	-10.8617
▁ants	-10.8619
▁snorts	-10.8621
▁champions	-10.8621
▁broker	-10.8631
▁pretending	-10.8639
dy	-10.8645
▁clouds	-10.8645
▁presented	-10.8659
▁rey	-10.8661
amas	-10.8661
▁imagined	-10.8662
▁inch	-10.8663
▁cooked	-10.8666
▁cha	-10.867
▁urin	-10.8677
▁tested	-10.8679
▁ant	-10.8679
ella	-10.8681
▁til	-10.8683
▁stores	-10.8686
she	-10.8689
▁photographs	-10.869
▁joined	-10.8708
▁laughed	-10.8719
▁chu	-10.872
ible	-10.8725
▁stable	-10.8726
▁laying	-10.8732
▁debate	-10.8734
▁sessions	-10.8737
▁contains	-10.8739
▁lit	-10.8747
▁cd	-10.8752
▁tellin	-10.8754
▁lar	-10.8759
▁chicks	-10.8761
▁joints	-10.8766
▁sur	-10.8768
leg	-10.8771
tr	-10.8779
▁lecture	-10.8779
▁dada	-10.8792
▁chin	-10.8794
▁inna	-10.8801
▁hoods	-10.8807
▁arrives	-10.8811
▁crossed	-10.882
▁sakes	-10.8825
▁cl	-10.883
▁snakes	-10.8831
▁issues	-10.8833
ese	-10.8833
▁scores	-10.8834
▁mid	-10.8843
▁est	-10.8872
▁pope	-10.8878
▁spa	-10.8883
▁miz	-10.8884
ano	-10.889
▁cru	-10.8901
▁actions	-10.8902
aring	-10.8915
▁sas	-10.8918
▁sara	-10.8923
▁airlines	-10.8926
more	-10.8926
ppy	-10.8937
▁fatal	-10.8959
ili	-10.8976
▁workers	-10.8981
▁tee	-10.8983
▁gar	-10.8985
▁gates	-10.8998
eur	-10.9029
ral	-10.9038
ice	-10.9043
▁mighty	-10.909
▁regrets	-10.9094
▁fe	-10.9105
ink	-10.9149
▁buildings	-10.9158
▁troubles	-10.916
star	-10.9198
ski	-10.9214
kay	-10.9232
nc	-10.9238
ern	-10.9266
bra	-10.9281
▁becomes	-10.9289
lie	-10.9293
▁peaceful	-10.9304
▁rubb	-10.9304
▁shite	-10.9306
▁wh	-10.9324
▁mistakes	-10.933
je	-10.9333
▁writes	-10.9356
▁es	-10.9367
▁prob	-10.9368
▁sc	-10.9386
▁mortal	-10.9398
▁equi	-10.94
ast	-10.9409
▁har	-10.9415
▁permit	-10.9416
▁abs	-10.9418
fu	-10.9421
abi	-10.9431
▁regard	-10.944
▁tricks	-10.9442
▁uns	-10.9443
▁cough	-10.9445
dia	-10.9447
▁bark	-10.9447
▁dies	-10.9452
▁eva	-10.9452
▁trace	-10.9466
▁gasp	-10.9469
▁chord	-10.947
▁investment	-10.947
▁babys	-10.9479
▁lobo	-10.9479
▁resident	-10.9482
▁communication	-10.9483
▁rumor	-10.9484
▁tourist	-10.9488
▁slam	-10.9489
▁boot	-10.9489
▁visitor	-10.949
▁tube	-10.949
▁wave	-10.9501
▁toy	-10.9511
▁fin	-10.9526
gar	-10.9545
▁su	-10.956
air	-10.9562
ote	-10.9567
▁ren	-10.9572
birth	-10.9582
▁reader	-10.9585
▁recover	-10.959
▁disappoint	-10.959
▁clubs	-10.9592
▁disturb	-10.9596
▁flow	-10.9596
gs	-10.9609
▁rowin	-10.9617
▁troop	-10.9621
▁sweep	-10.9625
▁snarl	-10.9627
art	-10.9629
▁drill	-10.9635
▁shin	-10.9635
▁recommend	-10.9635
ille	-10.9637
▁attach	-10.9637
▁medic	-10.964
▁method	-10.964
▁possess	-10.9642
▁exhaust	-10.9643
kind	-10.9645
field	-10.9645
▁brief	-10.965
bound	-10.9651
▁propose	-10.9651
▁graduate	-10.9653
ush	-10.9655
▁jam	-10.9655
two	-10.9655
▁restore	-10.9655
hour	-10.9657
mark	-10.9657
▁bore	-10.9663
▁link	-10.9665
▁absolute	-10.9667
▁korea	-10.9669
▁africa	-10.9669
▁sca	-10.9673
▁fabric	-10.9675
▁deposit	-10.9675
▁oblig	-10.9675
▁explosive	-10.9676
▁intellect	-10.9676
▁flavor	-10.9676
responsibilities	-10.9676
▁anthony	-10.9676
▁apologise	-10.9676
▁baltimore	-10.9676
▁behalf	-10.9676
▁boulevard	-10.9676
▁camille	-10.9676
▁capacity	-10.9676
▁complex	-10.9676
▁cricket	-10.9676
▁cycle	-10.9676
▁deflect	-10.9676
▁destiny	-10.9676
▁discreet	-10.9676
▁disguise	-10.9676
▁eleonore	-10.9676
▁enormous	-10.9676
▁environment	-10.9676
▁erection	-10.9676
▁exchange	-10.9676
▁footprints	-10.9676
▁genuine	-10.9676
▁georgie	-10.9676
▁glanton	-10.9676
▁graham	-10.9676
▁griffin	-10.9676
▁hawthorne	-10.9676
▁helmet	-10.9676
▁honeymoon	-10.9676
▁intimate	-10.9676
▁isherwell	-10.9676
▁isolate	-10.9676
▁jordan	-10.9676
▁lincoln	-10.9676
▁lindsey	-10.9676
▁magnificent	-10.9676
▁marzzone	-10.9676
▁mccormick	-10.9676
▁merilee	-10.9676
▁pheasant	-10.9676
▁reboot	-10.9676
▁revolution	-10.9676
▁salvatore	-10.9676
▁schisa	-10.9676
▁schmuck	-10.9676
▁shampoo	-10.9676
▁shannon	-10.9676
▁shrimp	-10.9676
▁splendid	-10.9676
▁stiff	-10.9676
▁subzero	-10.9676
▁talbot	-10.9676
▁terrorist	-10.9676
▁tissue	-10.9676
▁tournament	-10.9676
▁valuable	-10.9676
▁violation	-10.9676
▁vodka	-10.9676
▁zdorovije	-10.9676
▁clemens	-10.9676
▁daryl	-10.9676
▁federal	-10.9676
▁harvey	-10.9676
▁lenny	-10.9676
▁midwife	-10.9676
▁philip	-10.9676
▁salander	-10.9676
▁demonstrate	-10.9676
▁hostages	-10.9676
▁personnel	-10.9676
▁terrified	-10.9676
▁visual	-10.9676
▁luisella	-10.9676
▁mockingbird	-10.9676
▁peasant	-10.9676
▁worries	-10.9676
▁albany	-10.9676
▁kennedy	-10.9676
▁ooooh	-10.9676
▁cawing	-10.9676
▁harlem	-10.9676
▁heights	-10.9676
▁piston	-10.9676
▁wheezing	-10.9676
▁yacht	-10.9676
▁oslo	-10.9676
▁scandal	-10.9676
▁activity	-10.9676
▁fellini	-10.9676
▁kilometers	-10.9676
▁scope	-10.9676
▁ethan	-10.9676
▁sunset	-10.9676
▁resent	-10.9676
▁colour	-10.9676
▁restrict	-10.9676
▁boobs	-10.9676
▁fragile	-10.9676
▁froze	-10.9676
▁latin	-10.9676
▁collar	-10.9676
▁sheep	-10.9676
▁peanut	-10.9676
▁egyptian	-10.9676
▁whatwhat	-10.9676
▁dibs	-10.9676
▁powder	-10.9676
▁shook	-10.9676
▁noelle	-10.9676
▁kofi	-10.9676
▁disorder	-10.9676
▁invisible	-10.9676
▁canada	-10.9676
▁ledford	-10.9676
▁description	-10.9676
▁compensation	-10.9676
▁burke	-10.9676
▁admiral	-10.9676
▁celebrating	-10.9676
▁bowden	-10.9676
▁puppet	-10.9676
▁whoohoo	-10.9676
▁furious	-10.9677
▁brace	-10.9677
▁passionate	-10.9677
▁gotcha	-10.9677
▁francoise	-10.9677
▁dojo	-10.9677
▁denied	-10.9677
▁depression	-10.9677
▁masterpiece	-10.9677
▁horseshit	-10.9677
▁preschool	-10.9677
▁thai	-10.9677
▁wallace	-10.9677
▁scheme	-10.9677
▁overnight	-10.9677
▁sharing	-10.9677
▁transmitters	-10.9677
▁hissing	-10.9677
▁irish	-10.9677
▁transferred	-10.9677
▁tele	-10.9677
▁iggy	-10.9677
▁alcohol	-10.9677
▁murphy	-10.9677
▁blur	-10.9677
▁spiritual	-10.9677
▁saddle	-10.9677
▁ripping	-10.9677
▁estate	-10.9677
▁virginia	-10.9677
▁drumming	-10.9677
▁regardless	-10.9677
▁population	-10.9677
▁underage	-10.9678
▁petty	-10.9678
▁feedback	-10.9678
▁dammit	-10.9678
▁nazi	-10.9678
▁corruption	-10.9678
▁romance	-10.9678
▁angle	-10.9678
▁thisll	-10.9678
▁cubano	-10.9678
reme	-10.9678
▁stanley	-10.9678
▁lockdown	-10.9679
▁mutual	-10.9679
▁popping	-10.9679
▁haji	-10.9679
▁puke	-10.9679
▁keyboard	-10.9679
▁crow	-10.9679
▁micro	-10.9679
▁elder	-10.9679
▁dash	-10.968
▁lemon	-10.968
▁spin	-10.968
▁aight	-10.968
▁mainland	-10.968
▁whatll	-10.968
▁clay	-10.968
▁inherit	-10.968
▁imagination	-10.968
▁headache	-10.968
▁fever	-10.968
▁humor	-10.968
▁wicked	-10.9681
▁smear	-10.9681
▁privilege	-10.9681
terior	-10.9681
▁pla	-10.9681
▁panel	-10.9682
▁obsessed	-10.9682
▁african	-10.9683
▁andrea	-10.9683
▁bruner	-10.9683
▁fold	-10.9683
▁heinous	-10.9683
▁alimony	-10.9684
▁rail	-10.9684
▁booth	-10.9684
▁dda	-10.9684
▁retainer	-10.9684
▁womens	-10.9685
▁leo	-10.9686
▁tighten	-10.9686
▁appetite	-10.9686
▁ripped	-10.9686
▁dried	-10.9687
▁tito	-10.9687
donna	-10.9687
▁steer	-10.9687
▁paw	-10.9689
▁daylight	-10.9689
▁maintain	-10.9689
▁sack	-10.969
▁native	-10.9691
▁dug	-10.9691
▁fina	-10.9693
▁bedtime	-10.9694
▁marie	-10.9694
unk	-10.9695
▁eighth	-10.9696
▁hotter	-10.9696
▁vern	-10.9696
▁beaten	-10.9696
▁winning	-10.9698
▁annoying	-10.9698
▁endure	-10.9699
▁cog	-10.9701
▁wakeup	-10.9702
▁sarcastic	-10.9702
▁producer	-10.9702
▁richie	-10.9703
▁deported	-10.9704
▁diego	-10.9704
▁discovery	-10.9704
fuck	-10.9704
▁ability	-10.9705
▁hallway	-10.9707
▁spike	-10.9707
▁dock	-10.9708
▁gel	-10.9709
▁balder	-10.9711
▁fla	-10.9711
▁tricky	-10.9714
▁supplies	-10.9715
▁confession	-10.9717
▁lens	-10.9717
fore	-10.9718
inister	-10.9719
wise	-10.9719
▁lac	-10.9721
▁iive	-10.9722
▁disturbing	-10.9724
▁spite	-10.9725
▁drowned	-10.9727
▁boney	-10.9727
▁required	-10.9729
▁sexually	-10.973
▁pluck	-10.9731
▁burnt	-10.9733
▁licky	-10.9734
▁pointing	-10.9734
▁resolve	-10.9736
▁caus	-10.9736
▁owl	-10.9737
onies	-10.9741
▁useful	-10.9741
▁giggles	-10.9741
▁relations	-10.9741
▁cents	-10.9741
▁wired	-10.9742
▁scored	-10.9745
▁thinkin	-10.9745
▁conversations	-10.9746
▁badass	-10.9748
▁payment	-10.9752
▁nailed	-10.9753
▁leaking	-10.9756
▁zo	-10.9758
▁forty	-10.9759
▁sinking	-10.9759
▁caiied	-10.9759
▁woo	-10.9765
▁comms	-10.9766
▁blocked	-10.9766
▁increases	-10.9767
ex	-10.978
▁shithead	-10.9781
ites	-10.9781
▁oneill	-10.9782
▁internal	-10.9788
▁jar	-10.9788
▁ki	-10.9789
▁factor	-10.9792
▁whit	-10.9792
▁fairly	-10.9794
▁smarter	-10.9795
▁hump	-10.9796
▁rushing	-10.9803
umb	-10.9803
▁christo	-10.9803
▁punched	-10.9807
▁proved	-10.9809
▁repeated	-10.9812
▁offers	-10.9815
▁armor	-10.9816
▁dot	-10.9818
▁golic	-10.9819
▁baker	-10.9821
▁wink	-10.9824
▁freaked	-10.9825
▁bare	-10.9828
▁focused	-10.9834
▁forger	-10.9839
▁helpless	-10.9842
▁citizens	-10.9846
▁searched	-10.9846
▁vows	-10.9846
▁clatters	-10.9847
▁squeals	-10.9847
▁der	-10.9859
▁posting	-10.9863
who	-10.9868
▁communications	-10.9872
▁tourists	-10.9873
▁misses	-10.9877
▁repeating	-10.9881
▁ut	-10.9895
▁helpful	-10.9896
ties	-10.9898
▁dozens	-10.9899
▁charts	-10.992
▁chambers	-10.993
▁soph	-10.9931
▁cooler	-10.9935
▁womans	-10.9947
▁hu	-10.9947
▁scientists	-10.9952
▁bothering	-10.9958
▁cracking	-10.996
▁sai	-10.9962
ows	-10.9964
▁safely	-10.9965
▁beds	-10.9966
▁pipes	-10.9979
▁marrying	-10.9986
▁bees	-10.9991
▁nana	-10.9996
▁sharks	-11.0005
▁electronics	-11.0005
▁dye	-11.0005
▁traveler	-11.0006
come	-11.0008
▁seated	-11.0008
▁andrews	-11.0032
▁peep	-11.0036
ford	-11.0046
▁pd	-11.0046
▁hangs	-11.0051
▁honored	-11.0052
are	-11.0055
▁bruise	-11.0071
▁tore	-11.0075
gon	-11.0084
▁taxi	-11.0087
▁wea	-11.0094
▁sources	-11.0113
▁planes	-11.0115
▁spine	-11.0125
▁ke	-11.0129
▁ending	-11.0131
ving	-11.0134
▁jeans	-11.014
▁protecting	-11.0141
▁magical	-11.0152
ister	-11.0162
ters	-11.017
▁bums	-11.0182
▁needles	-11.0186
▁jock	-11.0188
▁handy	-11.0191
▁my	-11.02
iness	-11.0205
rid	-11.0239
▁unions	-11.0249
▁grip	-11.027
▁rats	-11.0276
vin	-11.0287
▁characters	-11.0308
▁il	-11.0308
▁deals	-11.0308
▁pages	-11.0328
▁williams	-11.0332
form	-11.0336
that	-11.0357
▁remembered	-11.0374
▁answered	-11.0384
▁cousins	-11.0387
▁loo	-11.0398
▁bars	-11.0403
▁booked	-11.0418
▁fields	-11.0421
mone	-11.0438
▁beers	-11.0449
au	-11.0454
night	-11.0454
▁whip	-11.046
▁reg	-11.046
ras	-11.0468
▁bov	-11.049
▁bears	-11.0506
▁connections	-11.0527
▁exists	-11.0585
▁fri	-11.0595
▁waitin	-11.0599
▁sorts	-11.0609
pad	-11.0612
▁paintings	-11.0612
ement	-11.0616
▁nicely	-11.0623
post	-11.0651
▁listened	-11.0658
▁myr	-11.0659
za	-11.0661
istic	-11.0676
▁callin	-11.0676
oise	-11.0682
▁inc	-11.0698
▁spirits	-11.0698
lam	-11.0708
▁moo	-11.0734
table	-11.0757
▁ret	-11.0761
dog	-11.0776
▁sides	-11.0777
key	-11.0803
ada	-11.0814
stone	-11.0838
light	-11.086
▁squeal	-11.0863
atic	-11.0864
▁clatter	-11.0865
ava	-11.0867
▁roar	-11.087
▁decisions	-11.0872
een	-11.0874
fire	-11.0875
▁ste	-11.0877
ming	-11.0881
▁questioning	-11.0888
▁dom	-11.0891
▁dicks	-11.0895
▁belief	-11.0898
▁choke	-11.0898
▁relative	-11.0898
▁clown	-11.0898
▁reference	-11.0898
▁repair	-11.0899
▁sample	-11.09
▁henrys	-11.0901
▁investigator	-11.0904
▁costume	-11.0904
▁arrangement	-11.0905
▁creature	-11.0911
▁citizen	-11.0912
▁assassin	-11.0914
▁poem	-11.0914
▁oop	-11.0915
▁sheet	-11.0916
▁vow	-11.0918
▁vent	-11.0927
face	-11.0928
▁ven	-11.0928
▁chuckle	-11.0928
▁pill	-11.0933
▁what	-11.0962
▁asset	-11.0964
▁lu	-11.0981
▁anan	-11.0985
▁rhythm	-11.0986
tled	-11.0992
▁bri	-11.0999
work	-11.1002
▁slap	-11.1004
▁dine	-11.1004
▁worrying	-11.1016
▁islands	-11.1019
▁exam	-11.1021
▁intern	-11.1023
▁flush	-11.1035
term	-11.1044
▁boil	-11.1044
load	-11.1046
▁taik	-11.1048
▁flee	-11.1049
▁appeal	-11.1051
▁sip	-11.1051
▁squeak	-11.1058
▁grows	-11.1058
where	-11.106
▁bald	-11.1065
itating	-11.1065
▁reveal	-11.1069
▁addict	-11.1071
▁whack	-11.1071
▁stall	-11.1072
▁harass	-11.1073
▁abandon	-11.1073
▁entr	-11.1074
▁defeat	-11.1074
▁deport	-11.1074
power	-11.1076
▁puff	-11.1077
▁indicate	-11.108
mouth	-11.1081
phone	-11.1082
foot	-11.1083
type	-11.1083
▁divide	-11.1084
break	-11.1084
▁incredibl	-11.1091
▁hysterical	-11.1091
▁immediate	-11.1091
▁rang	-11.1093
▁teenage	-11.1096
▁romania	-11.1098
▁heath	-11.1099
wi	-11.11
▁stitch	-11.11
▁andre	-11.11
▁ital	-11.11
▁leavin	-11.1101
▁symbol	-11.1101
▁extract	-11.1102
▁corrupt	-11.1102
▁alleged	-11.1103
▁diagnos	-11.1103
▁protest	-11.1103
▁desi	-11.1103
▁dread	-11.1103
▁zoo	-11.1104
nect	-11.1104
▁architect	-11.1104
▁stamp	-11.1104
▁occur	-11.1104
▁fag	-11.1104
▁squ	-11.1104
▁acknowledg	-11.1104
▁amnesia	-11.1104
▁audio	-11.1104
▁barbecue	-11.1104
▁bathtub	-11.1104
▁believing	-11.1104
▁benzevich	-11.1104
▁britgaz	-11.1104
▁brooklyn	-11.1104
▁caldwell	-11.1104
▁capuano	-11.1104
▁caputo	-11.1104
▁casserole	-11.1104
▁chemistry	-11.1104
▁coconut	-11.1104
▁columbia	-11.1104
▁companion	-11.1104
▁composer	-11.1104
▁controversial	-11.1104
▁deliberate	-11.1104
▁drask	-11.1104
▁elegant	-11.1104
▁enemies	-11.1104
▁episode	-11.1104
▁famiiy	-11.1104
▁filip	-11.1104
▁foxtrot	-11.1104
▁geronimo	-11.1104
▁gossip	-11.1104
▁hanzo	-11.1104
▁harrigan	-11.1104
▁heraklion	-11.1104
▁hilarious	-11.1104
▁holocaust	-11.1104
▁ibrahim	-11.1104
▁injured	-11.1104
▁insanity	-11.1104
▁intelligent	-11.1104
▁irrelevant	-11.1104
▁itaiian	-11.1104
▁javier	-11.1104
▁juvenile	-11.1104
▁kazakhstan	-11.1104
▁kiefer	-11.1104
▁kirby	-11.1104
▁knutzhorn	-11.1104
▁kobritz	-11.1104
▁leash	-11.1104
▁lesbian	-11.1104
▁lewyn	-11.1104
▁liquor	-11.1104
▁mademoiselle	-11.1104
▁maintenance	-11.1104
▁masturbat	-11.1104
▁michigan	-11.1104
▁mikael	-11.1104
▁necronomicon	-11.1104
▁nepal	-11.1104
▁orbit	-11.1104
▁ouch	-11.1104
▁pencil	-11.1104
▁penguin	-11.1104
▁penthouse	-11.1104
▁principal	-11.1104
▁privacy	-11.1104
▁prostitution	-11.1104
▁pursuit	-11.1104
▁remorse	-11.1104
▁resnick	-11.1104
▁reunite	-11.1104
▁reverse	-11.1104
▁sagdiyev	-11.1104
▁samuel	-11.1104
▁seatbelt	-11.1104
▁seduce	-11.1104
▁sheperd	-11.1104
▁shepherd	-11.1104
▁shrink	-11.1104
▁similar	-11.1104
▁souschef	-11.1104
▁spartacus	-11.1104
▁sponsor	-11.1104
▁surprising	-11.1104
▁suspension	-11.1104
▁thrash	-11.1104
▁tinkling	-11.1104
▁tragic	-11.1104
▁vagine	-11.1104
▁variety	-11.1104
▁wawaweewa	-11.1104
▁whataburger	-11.1104
▁wiener	-11.1104
▁yucca	-11.1104
▁actress	-11.1104
▁bleep	-11.1104
▁cmb	-11.1104
▁coffin	-11.1104
▁confusing	-11.1104
▁crib	-11.1104
▁dentist	-11.1104
▁gracious	-11.1104
▁groove	-11.1104
▁heartbeat	-11.1104
▁index	-11.1104
▁initial	-11.1104
▁rainbow	-11.1104
▁retreat	-11.1104
▁sierra	-11.1104
▁sliding	-11.1104
▁squirrel	-11.1104
▁volume	-11.1104
▁juicy	-11.1104
▁promising	-11.1104
▁trilling	-11.1104
▁lunar	-11.1105
▁statue	-11.1105
▁ancest	-11.1105
▁thump	-11.1105
▁resort	-11.1105
▁consent	-11.1105
▁kennedi	-11.1105
▁sizzling	-11.1105
▁clerk	-11.1105
▁fraud	-11.1105
▁courtesy	-11.1105
▁pudding	-11.1105
▁rumour	-11.1105
▁morgue	-11.1105
▁baroness	-11.1105
▁lonesome	-11.1105
▁romina	-11.1105
▁tricia	-11.1105
▁jingle	-11.1105
▁chiming	-11.1105
▁glenna	-11.1105
▁absence	-11.1105
▁gagging	-11.1105
▁microphone	-11.1105
▁almighty	-11.1105
▁monica	-11.1105
▁pepper	-11.1105
▁norway	-11.1105
▁walsh	-11.1105
▁knot	-11.1105
fleur	-11.1105
▁fond	-11.1105
▁pulse	-11.1105
▁historical	-11.1105
▁recess	-11.1105
▁adapt	-11.1105
▁excessive	-11.1105
▁molten	-11.1105
▁scholarship	-11.1105
▁liberace	-11.1105
▁kettle	-11.1105
▁gamble	-11.1105
▁perrish	-11.1105
sheila	-11.1105
▁burial	-11.1105
▁salvation	-11.1105
▁sniffling	-11.1105
▁bloke	-11.1105
▁miiii	-11.1105
▁francisco	-11.1105
▁competition	-11.1105
▁album	-11.1105
▁chubby	-11.1105
▁hostile	-11.1105
▁japan	-11.1105
▁carlyn	-11.1105
▁mitsy	-11.1105
▁scumbag	-11.1105
▁shore	-11.1105
▁claw	-11.1105
▁magnus	-11.1105
▁prank	-11.1105
▁tiff	-11.1105
▁verde	-11.1105
▁temptation	-11.1105
▁ignorant	-11.1105
▁luton	-11.1105
▁foam	-11.1106
▁undone	-11.1106
▁performance	-11.1106
▁buckner	-11.1106
▁guzman	-11.1106
▁stepfather	-11.1106
▁gypsy	-11.1106
▁porch	-11.1106
▁fanny	-11.1106
▁syrian	-11.1106
▁ruling	-11.1106
▁forehead	-11.1106
▁iko	-11.1106
▁luisa	-11.1106
▁devoted	-11.1106
▁aggressive	-11.1106
▁furniture	-11.1106
▁patrick	-11.1106
▁slovakia	-11.1106
▁sophisticated	-11.1106
▁barrel	-11.1107
▁bitten	-11.1107
▁assigned	-11.1107
▁lamb	-11.1107
▁ciean	-11.1107
▁surface	-11.1107
▁riddle	-11.1107
▁eise	-11.1107
▁income	-11.1107
▁acceptance	-11.1107
▁malaysian	-11.1107
▁cabinet	-11.1107
▁beings	-11.1107
▁sieve	-11.1107
▁sasha	-11.1107
▁inconvenient	-11.1107
▁rising	-11.1107
▁constantly	-11.1108
▁youth	-11.1108
▁despise	-11.1108
▁courtroom	-11.1108
▁label	-11.1108
vious	-11.1108
▁liable	-11.1108
▁convenient	-11.1108
▁drool	-11.1108
▁hence	-11.1108
▁perv	-11.1108
▁extend	-11.1108
▁marvin	-11.1109
under	-11.1109
▁nearby	-11.111
▁colors	-11.111
▁benji	-11.111
▁expand	-11.111
▁torn	-11.111
▁stack	-11.111
▁psychopathic	-11.111
▁footage	-11.111
▁piace	-11.111
▁susanna	-11.111
▁takin	-11.111
▁gps	-11.1111
▁fireplace	-11.1111
▁fries	-11.1111
▁ironic	-11.1111
▁churchill	-11.1111
▁raw	-11.1111
▁tsk	-11.1112
▁supper	-11.1112
▁role	-11.1112
▁suspended	-11.1112
▁vanished	-11.1112
▁admitted	-11.1112
▁cooley	-11.1112
▁dumbass	-11.1112
▁korean	-11.1112
▁eff	-11.1112
▁management	-11.1112
▁chile	-11.1113
▁limp	-11.1113
▁amongst	-11.1113
▁rust	-11.1113
▁ver	-11.1113
▁approved	-11.1113
▁creation	-11.1114
▁nathan	-11.1115
▁examine	-11.1115
▁ridge	-11.1116
▁ahem	-11.1116
▁retarded	-11.1117
▁vet	-11.1118
▁dish	-11.112
▁kc	-11.112
rmal	-11.1121
▁premises	-11.1121
▁haul	-11.1122
▁offended	-11.1122
▁cee	-11.1122
▁hitler	-11.1123
▁retired	-11.1124
▁metro	-11.1125
▁shaking	-11.1125
▁bellow	-11.1126
▁infinite	-11.1126
ector	-11.1126
▁compromised	-11.1127
▁vol	-11.1129
▁cellar	-11.113
▁poe	-11.113
▁rod	-11.113
▁crunching	-11.1131
▁graduated	-11.1131
▁diplomatic	-11.1132
▁delighted	-11.1132
▁donna	-11.1132
▁active	-11.1132
▁complaint	-11.1132
bie	-11.1133
▁dip	-11.1133
▁hospitality	-11.1134
▁friendship	-11.1134
▁chow	-11.1136
▁harassed	-11.1137
▁reaches	-11.1138
▁hunger	-11.1138
▁nickel	-11.1139
cation	-11.114
▁fuckface	-11.114
▁buzzer	-11.114
▁followers	-11.1141
▁iim	-11.1141
▁handling	-11.1141
▁dim	-11.1142
▁attached	-11.1142
▁recovered	-11.1142
▁specialist	-11.1142
▁reel	-11.1144
▁betrayed	-11.1147
▁grove	-11.1147
▁organized	-11.1147
▁limited	-11.1147
▁fried	-11.1151
▁unable	-11.1152
▁squealing	-11.1154
▁outer	-11.1158
▁goodnight	-11.116
▁informed	-11.1162
▁flowing	-11.1162
▁dodg	-11.1167
▁wiped	-11.1167
▁radi	-11.1168
▁wandering	-11.1168
▁complaining	-11.1169
▁yyou	-11.1172
▁yah	-11.1172
▁cutter	-11.1175
▁bled	-11.1175
▁flirting	-11.1176
▁demanding	-11.1177
▁bench	-11.1177
▁kidnappe	-11.1183
▁core	-11.1185
▁noone	-11.1187
▁businessman	-11.1187
▁taco	-11.1188
lly	-11.1188
▁dyer	-11.1188
▁scratching	-11.1191
▁wy	-11.1192
▁lotte	-11.1192
▁salesman	-11.1193
▁slipp	-11.1195
▁traded	-11.1195
▁epic	-11.1198
▁arts	-11.1198
▁shushing	-11.1198
▁chant	-11.1207
▁lend	-11.1207
▁recognized	-11.1208
▁generally	-11.1214
case	-11.1216
▁seize	-11.1217
▁foul	-11.1218
▁recorder	-11.1221
▁rum	-11.1225
▁bur	-11.1226
▁ego	-11.1232
▁poop	-11.1238
▁shorter	-11.124
▁actor	-11.1241
▁blamed	-11.1245
▁suggested	-11.1245
▁tons	-11.1246
▁favorites	-11.1261
▁domin	-11.1261
▁secretly	-11.1266
▁comics	-11.1268
▁lifted	-11.1271
▁inmates	-11.1272
▁principles	-11.1272
▁ic	-11.1274
▁needle	-11.1275
▁rank	-11.128
▁belly	-11.1286
▁exams	-11.13
▁poems	-11.1303
▁creatures	-11.1303
▁anal	-11.1303
▁hamp	-11.1305
▁commence	-11.1309
eight	-11.1317
▁watches	-11.1318
▁texted	-11.1318
▁mode	-11.132
ius	-11.1323
▁shutter	-11.1333
▁residents	-11.1333
▁rumors	-11.1334
▁traces	-11.1337
hill	-11.134
atu	-11.1343
fi	-11.1344
▁worthy	-11.1347
▁bombing	-11.1355
▁locker	-11.1359
▁accidental	-11.1371
▁uncles	-11.1382
▁ny	-11.1391
▁feeding	-11.1395
▁studies	-11.1395
▁demands	-11.1397
▁walkin	-11.1399
▁cra	-11.1404
▁pose	-11.1406
▁sucked	-11.1416
▁qui	-11.1416
▁materials	-11.1426
▁drawers	-11.1435
▁wondered	-11.1437
poli	-11.1445
▁combat	-11.1453
▁lightly	-11.1454
▁standards	-11.1458
▁uniforms	-11.1458
▁importantly	-11.1462
▁lion	-11.1466
▁systems	-11.1475
▁poo	-11.1476
▁drawings	-11.1489
▁connects	-11.1492
▁balling	-11.1516
▁unlocks	-11.152
▁monkeys	-11.152
▁generations	-11.152
▁scares	-11.1531
▁manu	-11.1533
▁whin	-11.1534
but	-11.1538
ana	-11.1545
ain	-11.1547
ane	-11.1551
▁operations	-11.1552
▁treating	-11.1555
▁scars	-11.1557
▁slaves	-11.157
▁virgi	-11.1589
▁headin	-11.1598
▁your	-11.1608
long	-11.161
▁relaxed	-11.1646
▁sol	-11.1648
▁barri	-11.1662
▁bells	-11.1663
▁sting	-11.1665
▁robe	-11.167
don	-11.1675
▁reporters	-11.1678
▁primar	-11.169
▁beth	-11.1701
▁mul	-11.1709
itive	-11.1718
▁presidents	-11.1726
ars	-11.1742
▁ian	-11.1744
▁gro	-11.1748
▁vic	-11.1753
▁wage	-11.177
▁plants	-11.1776
▁claims	-11.1778
▁interests	-11.1781
ith	-11.1792
▁apples	-11.1797
▁vos	-11.1817
▁ann	-11.1819
▁babes	-11.1822
▁bin	-11.1831
▁reporting	-11.1832
ko	-11.1835
▁worker	-11.1838
▁enti	-11.184
▁signing	-11.1845
▁righteous	-11.1846
ora	-11.1852
ology	-11.1866
▁und	-11.1871
▁projects	-11.1873
ological	-11.1875
ities	-11.1901
▁events	-11.1905
▁values	-11.1905
ica	-11.1926
gue	-11.1932
berg	-11.1938
▁quo	-11.195
▁cells	-11.195
uck	-11.1954
hol	-11.1956
azz	-11.1969
▁masks	-11.197
▁alli	-11.1974
rate	-11.1993
ries	-11.1996
▁maps	-11.1999
▁par	-11.2022
chi	-11.2022
▁dam	-11.2066
▁gangs	-11.2068
▁shifts	-11.2071
era	-11.2088
use	-11.209
teen	-11.2092
▁blo	-11.2098
▁elevators	-11.2104
ore	-11.2108
▁clo	-11.2137
nce	-11.2141
▁feckin	-11.2158
▁mor	-11.2163
ence	-11.2166
bone	-11.2182
▁sati	-11.2184
all	-11.2185
ort	-11.2189
▁criminals	-11.2205
▁experiences	-11.2208
▁have	-11.2216
asha	-11.2228
▁damon	-11.2247
▁cor	-11.225
▁prim	-11.2255
▁ku	-11.2269
▁skill	-11.2279
pit	-11.23
▁heller	-11.2314
cen	-11.2337
▁summers	-11.2342
▁fre	-11.2354
mp	-11.2375
▁lighting	-11.2399
▁sophi	-11.24
ute	-11.2411
sky	-11.2417
▁franks	-11.245
cam	-11.2464
▁tastes	-11.2479
▁decorat	-11.2514
eating	-11.2518
▁frame	-11.2546
▁groan	-11.2546
▁waiter	-11.255
▁fools	-11.2554
▁forge	-11.2555
▁gig	-11.2556
mpressionist	-11.2556
▁riva	-11.2563
▁forensic	-11.2565
▁fugitive	-11.2565
▁depth	-11.2566
▁pipeline	-11.2566
▁arrow	-11.2566
▁ankle	-11.2567
▁institution	-11.2569
▁blossom	-11.2571
▁holiday	-11.2571
▁bubble	-11.2572
▁mae	-11.2574
▁accus	-11.2575
▁inmate	-11.2577
▁principle	-11.2577
ture	-11.258
▁colleague	-11.2581
▁costs	-11.2583
▁resume	-11.2584
▁chuckys	-11.2584
▁exhale	-11.2591
▁asks	-11.2591
▁lip	-11.2594
▁knocks	-11.2596
▁beau	-11.2606
▁lung	-11.2619
▁cups	-11.262
▁bills	-11.2627
▁hen	-11.2649
▁kinds	-11.2655
▁dol	-11.2657
ified	-11.2657
▁painter	-11.2662
▁cracker	-11.2667
lep	-11.2676
▁chap	-11.2684
ofy	-11.2687
▁homeless	-11.2704
▁ignor	-11.2704
▁batter	-11.2705
▁trespass	-11.2715
▁greet	-11.2718
▁profession	-11.2725
▁clang	-11.2727
▁adul	-11.2729
▁depart	-11.273
▁wail	-11.2733
▁invest	-11.2734
▁download	-11.2736
sque	-11.2737
▁intend	-11.2739
▁adopt	-11.274
uh	-11.274
▁delight	-11.2743
word	-11.2743
▁frighten	-11.2743
▁info	-11.2745
this	-11.2745
dollar	-11.2746
know	-11.2747
▁retire	-11.2747
ofthe	-11.2748
winning	-11.2748
▁pronounce	-11.2748
bird	-11.2749
party	-11.275
child	-11.275
guy	-11.275
▁compromise	-11.275
away	-11.2751
burn	-11.2751
sick	-11.2755
▁relieve	-11.2755
▁norm	-11.2756
yard	-11.2757
▁gaz	-11.2758
cord	-11.2759
strom	-11.2759
▁glori	-11.276
most	-11.276
made	-11.2761
rop	-11.2761
▁tables	-11.2761
pure	-11.2762
nva	-11.2763
▁instruct	-11.2764
▁leap	-11.2765
▁michel	-11.2767
▁julie	-11.2767
nut	-11.2767
▁mornin	-11.2768
▁darlin	-11.2768
partment	-11.2768
▁reflect	-11.2769
▁celebrati	-11.277
▁loyal	-11.277
▁sven	-11.2771
pistol	-11.2771
▁confident	-11.2771
▁smug	-11.2771
▁enchant	-11.2771
▁vouch	-11.2771
through	-11.2771
▁abuel	-11.2771
▁anxious	-11.2771
▁appropriation	-11.2771
▁arkansas	-11.2771
▁atlas	-11.2771
▁attagirl	-11.2771
▁autistic	-11.2771
▁balcony	-11.2771
▁bastien	-11.2771
▁battalion	-11.2771
▁bianchini	-11.2771
▁biscuit	-11.2771
▁bleach	-11.2771
▁bounty	-11.2771
▁bridesmaids	-11.2771
▁brisbane	-11.2771
▁buick	-11.2771
▁cdrom	-11.2771
▁cecelio	-11.2771
▁certificate	-11.2771
▁cinema	-11.2771
▁column	-11.2771
▁conflict	-11.2771
▁conspir	-11.2771
▁coyote	-11.2771
▁darryl	-11.2771
▁definition	-11.2771
▁draft	-11.2771
▁drakos	-11.2771
▁enforcement	-11.2771
▁enlighten	-11.2771
▁espresso	-11.2771
▁executed	-11.2771
▁exhusband	-11.2771
▁exorcism	-11.2771
▁expense	-11.2771
▁exwife	-11.2771
▁feminine	-11.2771
▁flank	-11.2771
▁fortunate	-11.2771
▁francais	-11.2771
▁garrett	-11.2771
▁gracias	-11.2771
▁grasp	-11.2771
▁graziella	-11.2771
▁guillem	-11.2771
▁humanitarian	-11.2771
▁hustle	-11.2771
▁iieutenant	-11.2771
▁illinois	-11.2771
▁incarcerated	-11.2771
▁indulge	-11.2771
▁infant	-11.2771
▁injuries	-11.2771
▁innocence	-11.2771
▁interstate	-11.2771
▁investigate	-11.2771
▁involving	-11.2771
▁jacci	-11.2771
▁jersey	-11.2771
▁jungle	-11.2771
▁jurisdiction	-11.2771
▁kersek	-11.2771
▁kjikerud	-11.2771
▁krueger	-11.2771
▁libby	-11.2771
▁loomis	-11.2771
▁luggage	-11.2771
▁lunatic	-11.2771
▁manhattan	-11.2771
▁manufacture	-11.2771
▁mccann	-11.2771
▁meiks	-11.2771
▁miyagi	-11.2771
▁moreno	-11.2771
▁murmuring	-11.2771
▁neighing	-11.2771
▁occupation	-11.2771
▁offensive	-11.2771
▁oklahoma	-11.2771
▁overwhelmed	-11.2771
▁pajamas	-11.2771
▁paradiso	-11.2771
▁peculiar	-11.2771
▁pennsylvania	-11.2771
▁peretti	-11.2771
▁philanthropist	-11.2771
▁phillip	-11.2771
▁piranha	-11.2771
▁poiice	-11.2771
▁poverty	-11.2771
▁practicing	-11.2771
▁precinct	-11.2771
▁prevail	-11.2771
▁racket	-11.2771
▁receipt	-11.2771
▁regiment	-11.2771
▁residency	-11.2771
▁retribution	-11.2771
▁sacred	-11.2771
▁sancholo	-11.2771
▁schooner	-11.2771
▁september	-11.2771
▁singapore	-11.2771
▁solemn	-11.2771
▁sonofabitch	-11.2771
▁southeast	-11.2771
▁spectacular	-11.2771
▁stosh	-11.2771
▁struggling	-11.2771
▁sunglasses	-11.2771
▁symmetry	-11.2771
▁syringe	-11.2771
▁tarzan	-11.2771
▁telegram	-11.2771
▁tigest	-11.2771
▁transaction	-11.2771
▁unlucky	-11.2771
▁valentine	-11.2771
▁vancouver	-11.2771
▁vegetarian	-11.2771
▁velez	-11.2771
▁xanax	-11.2771
▁zeffirelli	-11.2771
▁edwin	-11.2771
▁exotic	-11.2771
▁horror	-11.2771
▁hyah	-11.2771
▁mattress	-11.2771
▁oui	-11.2771
▁payroll	-11.2771
▁plastic	-11.2771
▁plymouth	-11.2771
▁serial	-11.2771
▁superior	-11.2771
▁syrup	-11.2771
▁travis	-11.2771
▁eev	-11.2771
▁forcing	-11.2771
▁gulp	-11.2771
▁hamptons	-11.2771
▁medium	-11.2771
▁pierce	-11.2771
▁shilling	-11.2771
▁ayrs	-11.2771
▁oreo	-11.2771
▁roommate	-11.2771
▁analysis	-11.2771
▁crescendo	-11.2771
▁lafours	-11.2771
▁marijuana	-11.2771
▁mohamm	-11.2771
▁ukrain	-11.2771
▁marvellous	-11.2771
▁titans	-11.2771
▁feature	-11.2771
▁reef	-11.2771
▁brazil	-11.2771
▁sailboat	-11.2771
▁pregnancy	-11.2771
▁trilogy	-11.2771
▁whatsoever	-11.2771
▁nanny	-11.2771
▁transferring	-11.2771
▁imitate	-11.2771
▁ransom	-11.2771
▁nord	-11.2771
▁psychiatrist	-11.2771
▁halloween	-11.2771
▁hazard	-11.2771
▁illusion	-11.2771
▁grabbing	-11.2771
▁accomplice	-11.2771
▁convertible	-11.2771
alogue	-11.2771
▁doughboy	-11.2771
▁fascinating	-11.2771
▁insert	-11.2771
▁avenge	-11.2771
▁peadar	-11.2771
▁genny	-11.2771
▁patterson	-11.2771
▁twitch	-11.2771
▁warehouse	-11.2771
▁montana	-11.2771
▁uncas	-11.2771
▁willam	-11.2771
▁mimicking	-11.2771
▁software	-11.2771
▁preparing	-11.2771
▁investigating	-11.2772
▁vicious	-11.2772
▁zachry	-11.2772
itch	-11.2772
▁chemo	-11.2772
▁albano	-11.2772
▁gray	-11.2772
▁bovver	-11.2772
▁alternative	-11.2772
▁profound	-11.2772
▁yknow	-11.2772
▁geppino	-11.2772
▁chook	-11.2772
▁liability	-11.2772
▁whisky	-11.2772
▁departure	-11.2772
▁occurred	-11.2772
▁babysitting	-11.2772
▁facial	-11.2772
▁borat	-11.2772
▁corps	-11.2772
▁burger	-11.2772
▁vincent	-11.2772
▁satisfaction	-11.2772
▁twentyfour	-11.2772
▁obsession	-11.2772
▁harsh	-11.2772
▁spinoff	-11.2772
▁uber	-11.2772
▁glance	-11.2772
▁tribe	-11.2772
▁hooting	-11.2772
▁missouri	-11.2772
▁biood	-11.2772
▁destruction	-11.2772
▁centre	-11.2772
▁judith	-11.2772
▁therapist	-11.2772
▁upright	-11.2772
▁nosy	-11.2772
▁burson	-11.2772
▁larkin	-11.2772
▁underline	-11.2772
▁soninlaw	-11.2772
▁lyin	-11.2772
▁oana	-11.2772
▁lizard	-11.2772
▁overall	-11.2772
▁distraction	-11.2772
▁nanana	-11.2772
▁ieft	-11.2772
▁piay	-11.2773
▁spark	-11.2773
▁cigar	-11.2773
▁mojo	-11.2773
▁fabricant	-11.2773
▁squat	-11.2773
▁cuffee	-11.2773
▁consciousness	-11.2773
▁dumpster	-11.2773
▁rehearsal	-11.2773
▁disappearance	-11.2773
▁tasty	-11.2773
▁superstar	-11.2773
▁northern	-11.2773
▁titty	-11.2773
▁yankee	-11.2773
▁binary	-11.2773
▁backwards	-11.2773
▁hardware	-11.2773
▁spank	-11.2773
▁edition	-11.2773
▁dislike	-11.2773
▁wagon	-11.2773
▁jonna	-11.2773
▁mummy	-11.2773
▁marley	-11.2773
▁budget	-11.2773
▁purge	-11.2774
▁beam	-11.2774
▁qualified	-11.2774
▁toxic	-11.2774
▁platter	-11.2774
▁quant	-11.2774
▁prescient	-11.2774
▁krista	-11.2774
▁satanic	-11.2774
▁berlin	-11.2774
▁remarkabl	-11.2774
▁tuna	-11.2774
▁awol	-11.2774
▁stuckey	-11.2774
▁sawyer	-11.2774
▁void	-11.2774
▁derick	-11.2774
▁wax	-11.2774
▁abducted	-11.2774
▁dedicated	-11.2774
▁programming	-11.2775
▁spicy	-11.2775
▁specifically	-11.2775
▁sympathy	-11.2775
▁operate	-11.2775
▁interfere	-11.2775
▁turk	-11.2775
▁collective	-11.2775
▁susanne	-11.2775
▁smit	-11.2775
▁soda	-11.2775
▁civilian	-11.2776
▁voil	-11.2776
▁vibe	-11.2776
▁connery	-11.2776
▁ministry	-11.2776
▁dumpling	-11.2776
▁hallow	-11.2776
▁auto	-11.2776
▁hijack	-11.2776
▁minus	-11.2776
▁error	-11.2776
▁aaah	-11.2776
▁scarf	-11.2776
▁crackhead	-11.2776
▁swell	-11.2777
▁deaf	-11.2777
iddle	-11.2777
▁exhibition	-11.2777
▁sammy	-11.2778
▁grain	-11.2778
▁virtue	-11.2778
han	-11.2778
▁horsemen	-11.2778
titude	-11.2779
▁ofyour	-11.2779
▁chello	-11.2779
▁wilson	-11.278
▁stepped	-11.278
▁pecker	-11.278
▁publisher	-11.278
▁conscious	-11.278
▁jammed	-11.278
▁unplug	-11.2781
▁wool	-11.2781
▁cruise	-11.2781
▁mentor	-11.2781
▁bucket	-11.2781
▁freeway	-11.2782
▁breakdown	-11.2782
▁digger	-11.2782
▁alec	-11.2783
▁argh	-11.2783
▁grandson	-11.2783
▁sour	-11.2784
▁controlled	-11.2784
▁nno	-11.2784
▁porno	-11.2784
▁ron	-11.2784
uous	-11.2785
▁reduced	-11.2786
▁distracted	-11.2786
ric	-11.2786
▁spain	-11.2787
▁maiden	-11.2787
▁hash	-11.2787
▁hysterically	-11.2788
▁bushes	-11.2788
▁growth	-11.2788
▁haha	-11.2789
▁merit	-11.2789
▁iot	-11.2789
▁mit	-11.279
▁murderous	-11.279
▁undo	-11.279
▁scooter	-11.2791
▁imprisoned	-11.2792
▁registered	-11.2792
▁wu	-11.2792
llen	-11.2793
▁banana	-11.2794
▁twat	-11.2795
▁cheerleader	-11.2796
▁headline	-11.2797
▁worthless	-11.2797
▁established	-11.2798
▁maur	-11.2798
▁divided	-11.2799
▁losses	-11.2799
▁firemen	-11.2799
aba	-11.28
▁bridget	-11.28
▁wallis	-11.28
▁coma	-11.28
▁dice	-11.2801
▁exposed	-11.2801
▁shipment	-11.2802
▁heroes	-11.2802
▁hog	-11.2803
▁madness	-11.2803
▁intended	-11.2804
▁framed	-11.2804
▁brandy	-11.2805
▁linger	-11.2808
▁mild	-11.2809
▁junkie	-11.2809
▁sweater	-11.2809
▁iate	-11.2809
▁addicted	-11.281
▁passion	-11.2812
▁merchan	-11.2812
▁feei	-11.2815
▁rode	-11.2815
▁tender	-11.2815
▁determined	-11.2815
▁exhausted	-11.2816
▁pur	-11.2816
▁solved	-11.2818
▁standup	-11.2819
▁departing	-11.282
▁clanging	-11.282
▁swallowed	-11.2822
▁identi	-11.2823
▁this	-11.2824
▁equally	-11.2825
▁gap	-11.2826
▁fleas	-11.2826
lk	-11.283
▁stain	-11.2831
▁starve	-11.2831
▁downer	-11.2831
▁grasse	-11.2832
▁comic	-11.2832
▁rivera	-11.2833
▁taiking	-11.2833
gun	-11.2834
▁hacked	-11.2834
▁jay	-11.2834
▁drilling	-11.2838
▁snarling	-11.2838
▁div	-11.284
▁yay	-11.2843
gulf	-11.2844
▁sipe	-11.2846
▁perfumer	-11.2847
▁procession	-11.2848
▁poisoned	-11.2852
▁napoli	-11.2853
▁goodlooking	-11.2853
▁issued	-11.2856
▁glowing	-11.2856
▁points	-11.2857
▁smashed	-11.2858
▁now	-11.2862
▁associates	-11.2865
▁lighton	-11.2866
▁shocked	-11.287
▁legally	-11.2871
▁responding	-11.2875
▁howling	-11.2875
▁authorize	-11.2877
▁peters	-11.2878
▁cle	-11.288
▁dink	-11.288
▁sane	-11.2881
▁rains	-11.2882
▁technical	-11.2886
ji	-11.2888
headed	-11.289
lan	-11.2892
▁reminded	-11.2896
oud	-11.2897
▁beads	-11.2899
▁rituals	-11.2899
▁defender	-11.29
▁teenagers	-11.29
▁payback	-11.2901
▁healing	-11.2903
wamp	-11.2906
▁slipper	-11.2906
▁correctly	-11.2908
▁dime	-11.291
▁wishes	-11.291
▁attacks	-11.2911
▁accuse	-11.2914
▁slaughter	-11.2914
▁digital	-11.2915
▁lawn	-11.2915
league	-11.292
▁shocking	-11.292
nna	-11.2921
▁lug	-11.2922
▁honks	-11.2928
▁sneaking	-11.2929
▁goose	-11.2932
▁fame	-11.2934
▁switched	-11.2937
▁oat	-11.294
▁proceeding	-11.2956
oca	-11.2961
▁shitting	-11.2963
▁honesty	-11.2963
▁safer	-11.2967
▁automatic	-11.2968
▁traveling	-11.2972
▁visited	-11.2973
▁howdy	-11.2973
▁hens	-11.2975
▁pale	-11.2978
▁nic	-11.2982
▁strongly	-11.2983
▁sadly	-11.2985
jour	-11.2986
▁painted	-11.2988
▁bent	-11.2992
gged	-11.2993
▁doorman	-11.2994
▁lotion	-11.2999
▁ranks	-11.3
ivey	-11.3006
▁tor	-11.3008
▁oops	-11.3009
▁switching	-11.3021
▁mag	-11.3025
▁concerning	-11.3026
▁suggesting	-11.3026
▁kla	-11.3038
▁jams	-11.3039
▁parked	-11.304
▁boner	-11.3041
▁punching	-11.3049
▁visitors	-11.3049
about	-11.305
▁skipp	-11.305
▁tearing	-11.3053
oc	-11.3056
▁delivering	-11.3058
▁handing	-11.3064
▁gent	-11.307
▁coz	-11.307
▁pickin	-11.3078
▁pressed	-11.3097
▁lookout	-11.3103
▁smoked	-11.3112
▁vers	-11.3113
▁nerves	-11.312
▁employees	-11.312
self	-11.3121
▁presents	-11.3132
▁handled	-11.3154
▁goat	-11.3155
ons	-11.3156
▁strings	-11.3158
▁snacks	-11.3158
▁manners	-11.3158
▁explore	-11.316
▁permitt	-11.316
▁dive	-11.3162
▁landed	-11.3164
▁respected	-11.3168
▁drums	-11.3177
▁qua	-11.3179
▁hairy	-11.3195
zo	-11.3195
▁bonds	-11.3195
▁hick	-11.3196
▁chops	-11.3204
▁senat	-11.3214
lock	-11.3217
▁mover	-11.323
▁objects	-11.3233
▁bricks	-11.3233
▁filming	-11.3234
shit	-11.3239
dre	-11.324
stead	-11.3257
▁differently	-11.3267
▁images	-11.327
▁meals	-11.3271
▁flags	-11.3271
mil	-11.328
▁caring	-11.3286
▁yous	-11.3304
▁shadows	-11.3309
▁returning	-11.3312
▁closely	-11.335
▁scrap	-11.3363
ool	-11.3364
▁marys	-11.3369
▁choppe	-11.3373
▁feared	-11.3374
▁appointments	-11.3386
▁specialize	-11.3393
▁chi	-11.3395
▁ana	-11.3401
hy	-11.3401
▁mari	-11.3416
▁nicer	-11.3419
our	-11.3424
▁sentences	-11.3424
▁urge	-11.3426
tiv	-11.3428
cies	-11.3429
▁approache	-11.3452
▁magazines	-11.3463
▁strippers	-11.3463
▁boyfriends	-11.3464
▁ga	-11.3464
▁strikes	-11.3465
▁ax	-11.3508
▁hoo	-11.3524
▁outsider	-11.3542
▁retrieve	-11.3558
▁tease	-11.3563
▁threats	-11.3581
▁catching	-11.3589
▁travels	-11.3594
tre	-11.3602
fyou	-11.3604
▁mere	-11.3607
▁missy	-11.3616
▁chan	-11.3621
olet	-11.3632
▁murderers	-11.3659
▁kn	-11.3661
▁sings	-11.3673
abh	-11.3693
▁quarters	-11.3699
▁grandmothers	-11.3699
▁germans	-11.37
dale	-11.3725
ari	-11.375
ograph	-11.3754
kar	-11.3783
▁inn	-11.3803
cer	-11.3824
▁tips	-11.3843
▁ref	-11.3848
iar	-11.3855
▁chefs	-11.3859
▁efforts	-11.3859
ail	-11.3882
▁floors	-11.3894
▁patients	-11.39
izing	-11.3908
▁rott	-11.3913
▁dinners	-11.3937
▁shhh	-11.394
▁workin	-11.3958
nky	-11.3958
▁gri	-11.3959
rated	-11.3963
▁manipulat	-11.3969
agged	-11.3994
▁hurr	-11.3997
▁curl	-11.4017
ios	-11.4019
ope	-11.4021
west	-11.4025
lier	-11.4027
▁explains	-11.4042
mmer	-11.4053
mine	-11.4054
▁circles	-11.4062
▁bangs	-11.4075
▁michaels	-11.4093
read	-11.4114
▁liars	-11.4147
den	-11.4153
pping	-11.4154
rous	-11.4158
▁packs	-11.4167
▁mechanic	-11.418
▁tax	-11.4194
▁eu	-11.4203
▁ext	-11.4214
ake	-11.4306
ont	-11.431
nder	-11.4313
▁pav	-11.4314
▁emotion	-11.4315
▁cath	-11.4325
▁demo	-11.4341
rade	-11.4364
▁char	-11.4368
▁resting	-11.4377
rk	-11.4377
ple	-11.4386
▁influence	-11.4397
▁videos	-11.44
▁casualt	-11.4407
▁shaw	-11.4408
▁cro	-11.4411
▁clearing	-11.4428
▁majors	-11.4443
▁cracks	-11.4462
▁obs	-11.4462
▁triple	-11.4488
port	-11.4498
▁mars	-11.4499
▁hart	-11.4499
pass	-11.4504
▁fockin	-11.4508
▁blues	-11.4508
▁bake	-11.4528
▁whisper	-11.4531
▁shatter	-11.4533
▁beep	-11.4536
▁gen	-11.4543
▁moan	-11.4548
coup	-11.4553
▁clarif	-11.4559
▁angels	-11.456
▁def	-11.4562
▁fears	-11.4563
▁opponent	-11.4565
▁murders	-11.4569
▁abe	-11.4569
▁rattle	-11.4573
▁geni	-11.4573
▁copa	-11.4577
bul	-11.4578
▁harvester	-11.4581
▁fingerprint	-11.4585
▁sock	-11.4585
▁oc	-11.4588
shed	-11.4589
▁hooks	-11.459
▁luca	-11.4591
▁gr	-11.4593
▁prior	-11.4593
▁crackle	-11.4598
▁tack	-11.4612
▁oxygen	-11.4616
▁awe	-11.4616
youre	-11.4619
ened	-11.4624
armed	-11.4628
yla	-11.463
ggy	-11.4641
▁yu	-11.4648
▁sil	-11.4648
▁refuge	-11.465
▁immortal	-11.466
▁digit	-11.4667
mun	-11.4669
▁gre	-11.4687
▁viv	-11.4694
kick	-11.4698
▁whores	-11.47
▁chast	-11.4703
faced	-11.4704
look	-11.4708
pelled	-11.4711
▁stalk	-11.4712
▁applaud	-11.4724
▁nob	-11.4724
▁rap	-11.4726
friend	-11.4728
▁consum	-11.4729
ena	-11.4729
▁impress	-11.4736
▁disconnect	-11.4737
▁establish	-11.4737
▁stash	-11.4737
otto	-11.4737
▁undress	-11.4738
▁achieve	-11.4741
▁grill	-11.4741
stock	-11.4743
yho	-11.4744
▁gag	-11.4744
piece	-11.4745
▁delete	-11.4746
pitched	-11.4747
▁activate	-11.4748
ulls	-11.4748
make	-11.4749
identified	-11.4749
related	-11.4749
guard	-11.4749
famous	-11.4749
security	-11.475
shaw	-11.475
second	-11.475
three	-11.475
▁complicate	-11.475
▁should	-11.4752
master	-11.4753
think	-11.4753
job	-11.4753
cake	-11.4755
▁thorough	-11.4756
▁custom	-11.4757
▁define	-11.4757
▁instant	-11.4757
could	-11.4758
▁definite	-11.4758
▁buddh	-11.4762
itude	-11.4762
ames	-11.4763
▁brillian	-11.4763
▁memo	-11.4763
spect	-11.4764
▁trench	-11.4764
▁phenomen	-11.4765
▁cockroach	-11.4765
▁russia	-11.4765
▁brig	-11.4766
▁translate	-11.4767
▁canvas	-11.4767
▁patriot	-11.4768
▁elect	-11.4768
ault	-11.4768
▁holla	-11.4768
▁audit	-11.4769
▁counsel	-11.4769
▁champ	-11.4769
bell	-11.4769
▁abort	-11.4769
ounce	-11.477
▁scholar	-11.4771
tom	-11.4771
stand	-11.4771
▁buff	-11.4771
▁beac	-11.4771
▁unpleasant	-11.4771
ahahahahahah	-11.4771
splenda	-11.4771
▁administration	-11.4771
▁alibi	-11.4771
▁alissa	-11.4771
▁allergic	-11.4771
▁ambassador	-11.4771
▁amygdala	-11.4771
▁anomaleum	-11.4771
▁anoos	-11.4771
▁antoine	-11.4771
▁armeteo	-11.4771
▁articulate	-11.4771
▁astronomer	-11.4771
▁audrey	-11.4771
▁authentic	-11.4771
▁autograph	-11.4771
▁autumn	-11.4771
▁awaits	-11.4771
▁ayres	-11.4771
▁bailiff	-11.4771
▁berlioz	-11.4771
▁bernard	-11.4771
▁bismuth	-11.4771
▁blondie	-11.4771
▁bourbon	-11.4771
▁brigitte	-11.4771
▁calendar	-11.4771
▁cambridge	-11.4771
▁camouflage	-11.4771
▁carnegie	-11.4771
▁caviar	-11.4771
▁checkabarame	-11.4771
▁cheek	-11.4771
▁chilcott	-11.4771
▁cieiia	-11.4771
▁clumsy	-11.4771
▁coalition	-11.4771
▁colmsonnylarry	-11.4771
▁compassion	-11.4771
▁concrete	-11.4771
▁constitution	-11.4771
▁crucifix	-11.4771
▁curfew	-11.4771
▁deceased	-11.4771
▁disrespect	-11.4771
▁doorstep	-11.4771
▁economy	-11.4771
▁eileen	-11.4771
▁encounter	-11.4771
▁enhance	-11.4771
▁evacuation	-11.4771
▁evidently	-11.4771
▁exboyfriend	-11.4771
▁excavator	-11.4771
▁flew	-11.4771
▁fontenot	-11.4771
▁ghetto	-11.4771
▁giovanni	-11.4771
▁glatzel	-11.4771
▁global	-11.4771
▁godfather	-11.4771
▁grenade	-11.4771
▁gwen	-11.4771
▁hafferty	-11.4771
▁hannah	-11.4771
▁happiest	-11.4771
▁hendri	-11.4771
▁himseif	-11.4771
▁housewife	-11.4771
▁illiterate	-11.4771
▁inappropriate	-11.4771
▁ingredients	-11.4771
▁inisherin	-11.4771
▁injury	-11.4771
▁inspiring	-11.4771
▁integrity	-11.4771
▁interrogation	-11.4771
▁intersection	-11.4771
▁jupiter	-11.4771
▁krakow	-11.4771
▁kujaku	-11.4771
▁larrabee	-11.4771
▁liberty	-11.4771
▁limousine	-11.4771
▁luigino	-11.4771
▁lukashenko	-11.4771
▁luxur	-11.4771
▁masculine	-11.4771
▁melissa	-11.4771
▁meticulous	-11.4771
▁mississippi	-11.4771
▁monastery	-11.4771
▁mortgage	-11.4771
▁mwah	-11.4771
▁myseif	-11.4771
▁nipples	-11.4771
▁notorious	-11.4771
▁november	-11.4771
▁obama	-11.4771
▁october	-11.4771
▁opportunities	-11.4771
▁overseas	-11.4771
▁oyster	-11.4771
▁pascow	-11.4771
▁pelissier	-11.4771
▁perception	-11.4771
▁pfeiffer	-11.4771
▁phangan	-11.4771
▁philadelphia	-11.4771
▁predator	-11.4771
▁premier	-11.4771
▁prophecy	-11.4771
▁purcell	-11.4771
▁radcliff	-11.4771
▁recipient	-11.4771
▁reliable	-11.4771
▁resign	-11.4771
▁rodriguez	-11.4771
▁roosevelt	-11.4771
▁sabotage	-11.4771
▁schieber	-11.4771
▁scientific	-11.4771
▁sentinels	-11.4771
▁separation	-11.4771
▁shanley	-11.4771
▁sidewalk	-11.4771
▁simpson	-11.4771
▁sociopath	-11.4771
▁souvenir	-11.4771
▁staffordshire	-11.4771
▁stephanie	-11.4771
▁stockholm	-11.4771
▁storage	-11.4771
▁strut	-11.4771
▁sunrise	-11.4771
▁surviving	-11.4771
▁swarm	-11.4771
▁sweatshirt	-11.4771
▁sweetbreads	-11.4771
▁swift	-11.4771
▁swollen	-11.4771
▁synthient	-11.4771
▁tequila	-11.4771
▁tonsillitis	-11.4771
▁tourniquet	-11.4771
▁tramadol	-11.4771
▁tremendous	-11.4771
▁tsunami	-11.4771
▁twilight	-11.4771
▁umbrella	-11.4771
▁unavailable	-11.4771
▁undercover	-11.4771
▁ungrateful	-11.4771
▁unleash	-11.4771
▁unnecessary	-11.4771
▁untouchable	-11.4771
▁vatican	-11.4771
▁verdict	-11.4771
▁wheelchair	-11.4771
▁whomever	-11.4771
▁womb	-11.4771
▁yeeah	-11.4771
▁yelburton	-11.4771
▁atmosphere	-11.4771
▁branch	-11.4771
▁breyer	-11.4771
▁buckingham	-11.4771
▁carolyn	-11.4771
▁coroner	-11.4771
▁counsellor	-11.4771
▁croissant	-11.4771
▁eager	-11.4771
▁empti	-11.4771
▁haeju	-11.4771
▁ireland	-11.4771
▁kamal	-11.4771
▁laddie	-11.4771
▁legacy	-11.4771
▁leroy	-11.4771
▁maestro	-11.4771
▁mercedes	-11.4771
▁nypd	-11.4771
▁predict	-11.4771
▁ryder	-11.4771
▁sweden	-11.4771
▁elements	-11.4771
▁lesek	-11.4771
▁marbles	-11.4771
▁perpetua	-11.4771
▁sprain	-11.4771
▁throne	-11.4771
▁unspeakab	-11.4771
▁whatcha	-11.4771
▁abyss	-11.4771
▁bbc	-11.4771
▁chores	-11.4771
▁contest	-11.4771
▁haircut	-11.4771
▁housekeeping	-11.4771
▁marcus	-11.4771
▁martinez	-11.4771
▁attic	-11.4771
▁nude	-11.4771
▁toothbrush	-11.4771
▁tweet	-11.4771
▁neighs	-11.4771
▁plancha	-11.4771
▁gunnar	-11.4771
▁ilych	-11.4771
▁referring	-11.4771
▁scoop	-11.4771
▁stefan	-11.4771
▁stove	-11.4771
▁dreary	-11.4771
▁atm	-11.4771
▁dragging	-11.4771
▁impair	-11.4771
▁strawberry	-11.4771
▁asap	-11.4771
▁backpack	-11.4771
▁brookfield	-11.4771
▁teie	-11.4771
▁cnn	-11.4771
▁complications	-11.4771
▁compound	-11.4771
▁proposition	-11.4771
▁invad	-11.4771
▁smuggle	-11.4771
▁yoshi	-11.4771
▁bureau	-11.4771
▁sinned	-11.4771
▁grabbed	-11.4771
▁malfunction	-11.4771
▁stuart	-11.4771
▁earring	-11.4771
▁terminal	-11.4771
▁ambi	-11.4771
▁inevitable	-11.4771
▁interference	-11.4771
▁unanimity	-11.4771
ynx	-11.4771
▁flood	-11.4771
▁hostess	-11.4771
▁shauna	-11.4771
▁twoshoes	-11.4771
▁determination	-11.4771
▁whitford	-11.4771
▁tobias	-11.4771
▁verata	-11.4771
▁oooh	-11.4771
▁phase	-11.4771
▁snapshot	-11.4771
▁dedication	-11.4771
▁claymore	-11.4771
▁shelton	-11.4771
▁miscarriage	-11.4772
▁humility	-11.4772
▁refresh	-11.4772
▁psychiatric	-11.4772
▁gentile	-11.4772
▁sutra	-11.4772
▁sustain	-11.4772
▁rooster	-11.4772
▁hwan	-11.4772
▁cheesecake	-11.4772
▁figuring	-11.4772
▁brainwash	-11.4772
▁contractions	-11.4772
▁drones	-11.4772
▁spook	-11.4772
▁blush	-11.4772
▁mafia	-11.4772
▁sloppy	-11.4772
▁bumstead	-11.4772
▁rogue	-11.4772
▁corporation	-11.4772
▁outrageous	-11.4772
▁reset	-11.4772
▁pirate	-11.4772
▁ladder	-11.4772
▁intrigu	-11.4772
▁begged	-11.4772
▁ugli	-11.4772
flex	-11.4772
▁funky	-11.4772
▁jewelry	-11.4772
▁accurate	-11.4772
▁executive	-11.4772
▁sookie	-11.4772
▁vita	-11.4772
▁donald	-11.4772
▁vault	-11.4772
▁straw	-11.4772
▁inspection	-11.4772
▁puii	-11.4772
▁roast	-11.4772
▁entertainment	-11.4772
▁eternity	-11.4772
▁springfield	-11.4772
▁rumbles	-11.4772
▁grail	-11.4772
▁teemo	-11.4772
▁confusion	-11.4772
▁jelly	-11.4772
▁negotiation	-11.4772
▁polish	-11.4772
▁persuade	-11.4772
▁pennies	-11.4772
▁claus	-11.4772
▁obligated	-11.4772
▁sebbo	-11.4772
▁dork	-11.4772
▁greco	-11.4772
▁civilization	-11.4772
▁improvement	-11.4772
▁strapped	-11.4772
▁shuttle	-11.4772
▁humble	-11.4772
▁formula	-11.4772
▁aircraft	-11.4772
▁kilo	-11.4772
▁ammo	-11.4772
▁customary	-11.4772
▁interpretation	-11.4772
▁buffet	-11.4772
▁providence	-11.4772
▁fence	-11.4772
▁mailbox	-11.4772
▁slang	-11.4772
▁republican	-11.4772
▁blank	-11.4772
▁delta	-11.4772
▁limo	-11.4773
▁stunt	-11.4773
▁trading	-11.4773
▁tuning	-11.4773
▁cooch	-11.4773
▁francis	-11.4773
▁playground	-11.4773
▁slay	-11.4773
▁jiu	-11.4773
▁react	-11.4773
▁eligib	-11.4773
oohooh	-11.4773
▁gateway	-11.4773
▁fiddle	-11.4773
▁slack	-11.4773
▁lurk	-11.4773
▁organic	-11.4773
▁adrenaline	-11.4773
▁hound	-11.4773
▁motor	-11.4773
▁countries	-11.4773
▁accompany	-11.4773
▁frito	-11.4773
▁robinson	-11.4773
▁torch	-11.4773
closure	-11.4773
▁satan	-11.4773
▁toid	-11.4773
▁sailor	-11.4774
▁jits	-11.4774
▁meatbag	-11.4774
▁naples	-11.4774
▁tango	-11.4774
▁rog	-11.4774
▁slash	-11.4774
▁nword	-11.4774
▁guv	-11.4774
▁libido	-11.4774
▁marvel	-11.4774
▁sober	-11.4774
▁bueno	-11.4774
▁dreadful	-11.4774
▁discretion	-11.4774
▁satisfied	-11.4774
▁frag	-11.4774
▁inlaw	-11.4774
▁fax	-11.4774
▁floss	-11.4774
▁donnie	-11.4774
▁robot	-11.4774
▁coddy	-11.4774
▁eighteen	-11.4774
▁finch	-11.4774
▁aione	-11.4774
▁curry	-11.4774
▁hhow	-11.4774
▁occasionally	-11.4774
▁dough	-11.4774
▁texan	-11.4774
▁harmless	-11.4774
▁weiss	-11.4774
▁modest	-11.4775
▁alexand	-11.4775
▁booze	-11.4775
▁pooh	-11.4775
▁curtain	-11.4775
metic	-11.4775
▁saloon	-11.4775
▁semen	-11.4775
▁viens	-11.4775
▁olivia	-11.4775
▁hush	-11.4776
▁liu	-11.4776
▁caroline	-11.4776
▁slavery	-11.4776
▁symbolic	-11.4776
▁chapel	-11.4776
▁moore	-11.4776
▁rover	-11.4776
▁groom	-11.4776
▁potter	-11.4776
▁appleton	-11.4776
▁bots	-11.4776
▁booties	-11.4777
▁felony	-11.4777
▁dining	-11.4777
▁vassary	-11.4777
▁rad	-11.4777
▁heck	-11.4778
▁headshot	-11.4778
▁intro	-11.4778
▁giri	-11.4778
▁traders	-11.4778
▁rach	-11.4778
▁achievement	-11.4778
▁attendant	-11.4778
▁gangster	-11.4778
▁payload	-11.4779
▁restart	-11.4779
▁objection	-11.4779
▁mmmmm	-11.4779
▁campfire	-11.4779
▁crate	-11.4779
▁stockings	-11.4779
▁significant	-11.4779
▁craft	-11.4779
▁aww	-11.4779
▁negotiate	-11.478
▁alike	-11.478
▁collection	-11.478
▁relic	-11.478
▁maat	-11.478
▁sneakers	-11.478
antom	-11.4781
▁rival	-11.4781
last	-11.4781
▁programmed	-11.4781
▁droid	-11.4782
▁grieving	-11.4782
▁weatherman	-11.4782
▁taikin	-11.4782
▁ninety	-11.4782
▁scale	-11.4782
▁quitting	-11.4782
▁flattered	-11.4782
▁doomed	-11.4783
▁goddam	-11.4783
▁brass	-11.4783
▁geek	-11.4783
▁heiio	-11.4783
▁vicar	-11.4783
▁upsetting	-11.4783
▁vain	-11.4783
▁workshop	-11.4784
▁edit	-11.4784
▁swish	-11.4784
▁with	-11.4784
▁jang	-11.4784
▁stroke	-11.4784
▁nina	-11.4785
▁andes	-11.4786
▁tapi	-11.4786
▁alb	-11.4786
▁skank	-11.4786
▁janet	-11.4786
ddle	-11.4787
inem	-11.4787
▁fuss	-11.4787
ility	-11.4787
▁haske	-11.4788
▁neat	-11.4788
▁blackmailing	-11.4788
▁evolved	-11.4788
▁viewers	-11.4789
▁facebook	-11.479
▁milo	-11.479
▁peach	-11.4791
▁smartass	-11.4791
▁waist	-11.4791
▁molester	-11.4792
▁allegedly	-11.4792
▁sul	-11.4792
▁deeds	-11.4792
▁esca	-11.4792
▁uk	-11.4792
▁bah	-11.4792
▁waitresses	-11.4793
▁freshman	-11.4794
▁callaway	-11.4795
▁activated	-11.4795
▁awakened	-11.4796
▁sprinklers	-11.4796
▁shrieks	-11.4796
▁itit	-11.4797
▁vous	-11.4798
▁oven	-11.4798
▁flipped	-11.4798
▁shiny	-11.4799
▁bluffing	-11.4799
▁terrifying	-11.4799
▁flicker	-11.4799
▁cafe	-11.48
▁vibrating	-11.48
▁controlling	-11.48
▁declared	-11.4801
▁encouraged	-11.4801
▁leech	-11.4801
▁chet	-11.4802
▁mart	-11.4804
▁esp	-11.4806
▁rental	-11.4806
▁mustard	-11.4806
▁quest	-11.4807
▁physically	-11.4807
born	-11.4808
▁bandit	-11.4808
▁sonya	-11.4811
▁amuse	-11.4811
▁hitting	-11.4812
▁seventh	-11.4812
▁jackass	-11.4813
▁adore	-11.4813
▁ira	-11.4813
▁cesare	-11.4813
▁sixty	-11.4813
▁cooing	-11.4814
easy	-11.4815
▁huntin	-11.4816
▁phd	-11.4816
▁stalled	-11.4819
▁region	-11.4819
▁cove	-11.482
▁pace	-11.482
fucking	-11.482
▁chev	-11.482
▁replaced	-11.4821
▁stalking	-11.4821
▁sickness	-11.4823
▁pastor	-11.4825
▁oughta	-11.4825
▁recommended	-11.4827
▁tomb	-11.4828
▁reminder	-11.4831
▁lem	-11.4832
▁trespassing	-11.4833
vern	-11.4836
▁described	-11.4837
ulia	-11.4837
▁hah	-11.4837
▁grownups	-11.484
▁vegetables	-11.484
▁democrats	-11.484
▁skim	-11.4841
▁don	-11.4842
▁needham	-11.4843
wski	-11.4844
▁sail	-11.4844
▁whoosh	-11.4848
▁canceled	-11.4849
talk	-11.4851
▁ruthless	-11.4853
▁damaged	-11.4853
▁topic	-11.4854
▁halt	-11.4855
▁meters	-11.4855
▁fixin	-11.4856
▁oid	-11.4857
▁tempt	-11.4858
▁reced	-11.4859
▁perfection	-11.4861
xie	-11.4863
▁twisted	-11.4864
▁panick	-11.4865
▁grinding	-11.4866
▁endless	-11.4867
▁saysoe	-11.4868
▁scheduled	-11.487
four	-11.4872
bou	-11.4875
▁appeared	-11.4876
▁iooked	-11.4879
bar	-11.488
▁fireballs	-11.4884
▁hesitates	-11.4885
▁shovel	-11.4886
pper	-11.4886
▁processed	-11.4891
▁mount	-11.4894
▁exceptional	-11.4897
▁creeping	-11.49
▁ideal	-11.49
▁morales	-11.4901
▁lily	-11.4901
▁drowning	-11.4902
▁tow	-11.4902
indication	-11.4904
▁representing	-11.4911
▁dru	-11.4913
▁vibrate	-11.4919
▁ky	-11.4925
▁nets	-11.4928
▁workout	-11.4929
▁beignets	-11.493
▁taping	-11.493
▁sniffs	-11.4931
▁avoided	-11.4931
▁finances	-11.4933
▁dialing	-11.4934
voc	-11.4935
▁fisher	-11.4941
▁cured	-11.4943
▁rhythmic	-11.4944
▁pouring	-11.4945
cult	-11.4948
▁sole	-11.4949
▁touches	-11.4954
▁sweating	-11.4957
▁experienced	-11.4957
minis	-11.496
▁lander	-11.4962
▁beaut	-11.4963
▁weirdo	-11.4964
▁loosen	-11.4964
▁submit	-11.4967
ometer	-11.4969
▁rainy	-11.4974
▁rattles	-11.4975
▁lucas	-11.4976
▁harvesters	-11.4977
▁ohio	-11.4978
▁sling	-11.4983
▁grin	-11.4983
▁juli	-11.499
nal	-11.4991
▁comforting	-11.4997
can	-11.5003
▁failing	-11.5014
▁robb	-11.5014
martial	-11.5017
ists	-11.5017
▁blossoms	-11.5021
▁holidays	-11.5021
▁institutions	-11.5021
▁targeted	-11.5022
▁bubbles	-11.5022
▁honk	-11.5025
▁discussed	-11.5029
tur	-11.5033
fusion	-11.5035
▁mines	-11.5039
▁wasted	-11.5046
▁fet	-11.5047
nogo	-11.5054
▁hawk	-11.5057
yo	-11.5061
▁rounds	-11.5063
▁remaining	-11.5064
▁costumes	-11.5067
▁investigators	-11.5067
▁arrangements	-11.5068
iflow	-11.5078
ucker	-11.5079
▁martini	-11.5081
▁shootin	-11.5084
▁sou	-11.5088
▁goats	-11.5091
▁seas	-11.5097
▁doubted	-11.5108
▁fooled	-11.5112
▁lobos	-11.5114
▁spreading	-11.5116
▁correction	-11.5119
▁checks	-11.5122
▁bearing	-11.5125
▁returns	-11.5131
▁treats	-11.5132
▁brun	-11.5134
▁chic	-11.5142
▁evan	-11.5146
kers	-11.5148
▁deco	-11.5152
▁twins	-11.5157
▁spots	-11.5158
▁poster	-11.5159
▁hid	-11.5159
▁assess	-11.516
▁diamonds	-11.516
▁instincts	-11.516
▁buckle	-11.516
iva	-11.5166
▁pine	-11.5169
▁rely	-11.5171
▁fasten	-11.5174
ison	-11.5183
▁py	-11.5185
lf	-11.5201
▁clones	-11.5207
▁irritate	-11.5215
rious	-11.5231
▁indians	-11.5248
▁silk	-11.5249
▁stinks	-11.5254
▁accountants	-11.5254
▁cowboys	-11.5254
▁traitors	-11.5254
▁cows	-11.526
tta	-11.526
▁washing	-11.5267
▁dancers	-11.5282
▁taped	-11.5288
▁soak	-11.5298
▁stammers	-11.5302
py	-11.5302
▁hooking	-11.5305
▁aha	-11.5314
vision	-11.5314
▁mist	-11.533
old	-11.5338
▁boxer	-11.5345
▁compliments	-11.5349
gummy	-11.5355
▁cone	-11.5367
▁facet	-11.5389
▁owners	-11.5397
▁buggers	-11.5398
▁lessons	-11.54
▁buys	-11.5401
▁lands	-11.5402
take	-11.5409
tious	-11.542
▁explained	-11.5425
▁wei	-11.5429
midst	-11.5432
rat	-11.5435
rish	-11.5444
▁pol	-11.5459
did	-11.5461
▁che	-11.5462
▁covering	-11.5473
enna	-11.5489
▁pilots	-11.5493
▁zombies	-11.5493
▁scr	-11.5502
▁shitter	-11.5511
ethe	-11.5516
your	-11.552
▁products	-11.5534
cia	-11.5537
▁models	-11.5542
▁troubled	-11.5543
immer	-11.5549
ias	-11.5555
▁flo	-11.5557
▁smi	-11.5573
▁obe	-11.5587
▁tuesdays	-11.5591
▁loans	-11.5591
▁io	-11.5611
▁bats	-11.5614
▁mids	-11.5622
▁af	-11.5623
rine	-11.5638
▁springs	-11.564
▁schedules	-11.5642
▁too	-11.5652
▁merci	-11.5668
▁lan	-11.5676
▁boats	-11.5677
▁whil	-11.5681
tics	-11.5685
▁borders	-11.5689
▁experts	-11.569
▁routines	-11.569
▁ado	-11.569
ean	-11.569
▁lined	-11.5701
card	-11.5702
▁pats	-11.571
raci	-11.5712
nox	-11.573
▁desires	-11.5739
▁writers	-11.5764
▁vel	-11.5767
▁gifts	-11.5773
▁explaining	-11.5774
amin	-11.5779
▁sext	-11.578
▁stones	-11.5789
▁clues	-11.5789
▁bog	-11.58
ache	-11.5806
▁winding	-11.5813
▁slav	-11.5816
▁naive	-11.5827
▁menac	-11.583
▁slum	-11.5839
▁interviews	-11.5839
▁subjects	-11.5839
▁tunes	-11.5843
▁managers	-11.5851
▁vest	-11.5853
▁snip	-11.5865
▁killin	-11.5874
▁arrange	-11.5878
▁restaurants	-11.589
▁saturdays	-11.589
▁plates	-11.589
▁investigations	-11.589
▁mucho	-11.589
ran	-11.5916
▁leaders	-11.592
▁humans	-11.5924
▁cau	-11.5939
▁wheels	-11.5941
▁butts	-11.5942
▁towers	-11.5943
▁ji	-11.5963
▁stre	-11.597
▁smiles	-11.5971
van	-11.5978
▁doo	-11.5982
got	-11.5995
▁goodman	-11.6002
uit	-11.6005
▁stu	-11.6012
lar	-11.6015
▁relaxing	-11.6033
▁cleanse	-11.6042
▁employ	-11.6044
▁flap	-11.607
▁belts	-11.6074
eau	-11.6084
▁coo	-11.6086
plies	-11.6089
▁triggers	-11.6095
una	-11.6098
ctic	-11.6098
▁ban	-11.6104
▁suggests	-11.6107
▁conclude	-11.6138
▁ska	-11.616
▁traumati	-11.6169
elu	-11.6183
▁questioned	-11.6189
lateral	-11.6212
▁shu	-11.6213
▁receiv	-11.6219
kin	-11.622
▁cin	-11.6221
ike	-11.6243
mez	-11.6273
▁conf	-11.6279
ashi	-11.6279
▁docs	-11.6281
gent	-11.6324
▁scrape	-11.6356
▁targets	-11.6363
ico	-11.6363
ines	-11.637
▁we	-11.6377
▁bir	-11.6411
lets	-11.6426
▁hee	-11.6431
▁levels	-11.6464
▁programs	-11.6464
▁bands	-11.6465
▁sie	-11.6476
lator	-11.6504
pace	-11.6517
▁hatch	-11.6525
mond	-11.6534
▁attorneys	-11.6572
consistent	-11.658
▁hitch	-11.66
▁feeds	-11.6636
▁groups	-11.6637
umm	-11.6646
▁ang	-11.6647
▁lil	-11.6649
▁fare	-11.667
▁supervis	-11.6672
tant	-11.6678
▁merc	-11.6712
dar	-11.6733
vy	-11.6744
rice	-11.6762
▁pupp	-11.6785
▁rivers	-11.679
▁implicat	-11.6792
mpa	-11.6807
bble	-11.6812
▁relationships	-11.6849
▁bites	-11.6854
dding	-11.6863
▁severe	-11.6886
▁uri	-11.6898
▁decides	-11.6911
▁bothers	-11.6916
ello	-11.6929
▁comm	-11.6935
▁nin	-11.6946
talkie	-11.695
por	-11.6956
ttie	-11.696
▁trials	-11.6962
▁automat	-11.697
delis	-11.6971
iving	-11.6972
▁commend	-11.699
▁consist	-11.6996
watch	-11.7001
▁sniff	-11.7022
▁pap	-11.7032
bud	-11.7047
miss	-11.7049
hh	-11.7053
ides	-11.7059
▁vessel	-11.7066
▁prostitute	-11.7066
▁beignet	-11.7071
▁thumb	-11.7072
▁ritual	-11.7075
▁bead	-11.7078
▁increase	-11.7079
▁passenger	-11.7081
▁hal	-11.7081
▁handcuff	-11.7083
▁rustle	-11.7084
bron	-11.7084
▁teenager	-11.7088
▁kee	-11.7089
▁condom	-11.7089
▁root	-11.7091
▁dem	-11.7093
▁finance	-11.7094
▁tool	-11.7095
▁firework	-11.7095
ppa	-11.7108
▁author	-11.7116
high	-11.7118
▁sim	-11.7126
▁unzipp	-11.7132
▁toe	-11.7135
q	-11.7142
ark	-11.7147
uddy	-11.7159
jah	-11.7162
exus	-11.7167
▁brit	-11.7171
▁ruth	-11.7174
▁valid	-11.7187
ahl	-11.7188
▁semi	-11.7189
▁origin	-11.719
▁mic	-11.7195
▁unw	-11.7198
aiiy	-11.7199
▁deli	-11.7209
▁arriv	-11.7217
▁cramp	-11.7222
▁crunch	-11.7223
▁annoy	-11.7223
▁introduc	-11.7226
▁chirp	-11.7226
▁cloth	-11.7232
▁flick	-11.7236
fied	-11.7237
▁tru	-11.7237
shot	-11.7238
shop	-11.7238
▁imprison	-11.7239
▁register	-11.7239
icky	-11.7239
month	-11.7239
▁scoot	-11.724
body	-11.724
▁dismiss	-11.7241
mother	-11.7241
▁offend	-11.7242
point	-11.7243
▁nuke	-11.7243
▁scor	-11.7243
▁excite	-11.7245
▁improve	-11.7246
▁evacuate	-11.7246
▁oppose	-11.7246
view	-11.7246
hunt	-11.7246
▁compare	-11.7246
level	-11.7247
▁locate	-11.7247
▁puzzle	-11.7248
▁shag	-11.7248
fried	-11.7248
function	-11.7248
▁reduce	-11.7248
sexual	-11.7249
century	-11.7249
▁hitchhike	-11.7249
seven	-11.7249
spring	-11.7249
smoking	-11.7249
class	-11.725
woman	-11.725
free	-11.725
dead	-11.725
check	-11.7251
bash	-11.7252
▁reward	-11.7252
home	-11.7253
▁encourage	-11.7253
with	-11.7254
▁declare	-11.7254
▁promote	-11.7255
order	-11.7255
boat	-11.7255
▁probabi	-11.7256
▁harvest	-11.7256
▁permanent	-11.7257
▁filth	-11.7257
▁expire	-11.7257
▁hamburg	-11.7258
mail	-11.7258
▁tartar	-11.7258
cept	-11.726
coat	-11.726
▁cruis	-11.726
shoe	-11.7261
▁wel	-11.7262
▁diploma	-11.7262
▁threaten	-11.7264
▁australia	-11.7264
▁mcki	-11.7264
▁memor	-11.7265
▁tropic	-11.7265
hood	-11.7266
▁inhal	-11.7266
▁pear	-11.7267
▁secre	-11.7267
eft	-11.7268
phrase	-11.7269
▁fright	-11.7269
▁frederi	-11.7269
▁neglect	-11.7269
▁puttin	-11.7269
▁kiddin	-11.7269
▁republic	-11.7269
▁interpret	-11.727
▁transport	-11.727
▁rag	-11.727
▁rom	-11.7271
▁olive	-11.7271
▁sarcas	-11.7271
▁norw	-11.7271
▁uncertain	-11.7271
▁orient	-11.7271
dolph	-11.7271
crucia	-11.7271
zhen	-11.7271
▁abnormal	-11.7271
▁homosexual	-11.7271
njunction	-11.7271
▁abyzou	-11.7271
▁accumulat	-11.7271
▁acquaintance	-11.7271
▁adjective	-11.7271
▁advil	-11.7271
▁affirmations	-11.7271
▁affirmative	-11.7271
▁aghadoe	-11.7271
▁alabama	-11.7271
▁algorithm	-11.7271
▁approvals	-11.7271
▁arabella	-11.7271
▁archdiocese	-11.7271
▁arguing	-11.7271
▁assaoui	-11.7271
▁astronaut	-11.7271
▁asylum	-11.7271
▁aurora	-11.7271
▁bakary	-11.7271
▁ballpark	-11.7271
▁bankrupt	-11.7271
▁barstow	-11.7271
▁beckwourth	-11.7271
▁behaviour	-11.7271
▁biciklom	-11.7271
▁bicycle	-11.7271
▁bikini	-11.7271
▁blindfold	-11.7271
▁blomkvist	-11.7271
▁boerhaave	-11.7271
▁bonsoir	-11.7271
▁bouncing	-11.7271
▁briegleb	-11.7271
▁bromley	-11.7271
▁bruce	-11.7271
▁bulletproof	-11.7271
▁cambodia	-11.7271
▁camilla	-11.7271
▁carpenter	-11.7271
▁catastroph	-11.7271
▁cetera	-11.7271
▁chittering	-11.7271
▁chivalry	-11.7271
▁choosing	-11.7271
▁circus	-11.7271
▁combination	-11.7271
▁communist	-11.7271
▁composing	-11.7271
▁condolences	-11.7271
▁confiscate	-11.7271
▁congrat	-11.7271
▁congratulate	-11.7271
▁contempt	-11.7271
▁convincing	-11.7271
▁corporal	-11.7271
▁corpus	-11.7271
▁credibility	-11.7271
▁cripple	-11.7271
▁cromwell	-11.7271
▁crucified	-11.7271
▁curiosity	-11.7271
▁cybebe	-11.7271
▁darwinism	-11.7271
▁december	-11.7271
▁dekalb	-11.7271
▁delriego	-11.7271
▁descend	-11.7271
▁desperation	-11.7271
▁devour	-11.7271
▁digicom	-11.7271
▁dinosaur	-11.7271
▁discipline	-11.7271
▁disgrace	-11.7271
▁doiiars	-11.7271
▁dorchester	-11.7271
▁dryclean	-11.7271
▁earthquake	-11.7271
▁earthrealm	-11.7271
▁elmhurst	-11.7271
▁emerging	-11.7271
▁empathy	-11.7271
▁empingao	-11.7271
▁evergreen	-11.7271
▁exaggerat	-11.7271
▁execution	-11.7271
▁experiencing	-11.7271
▁exploit	-11.7271
▁fauc	-11.7271
▁feather	-11.7271
▁feminist	-11.7271
▁festival	-11.7271
▁flunk	-11.7271
▁focale	-11.7271
▁foreplay	-11.7271
▁frequent	-11.7271
▁frustrated	-11.7271
▁frustration	-11.7271
▁gabrielle	-11.7271
▁gaillard	-11.7271
▁gambling	-11.7271
▁gennaro	-11.7271
▁gerick	-11.7271
▁germs	-11.7271
▁ghastly	-11.7271
▁ghhol	-11.7271
▁ghoul	-11.7271
▁google	-11.7271
▁granddaddy	-11.7271
▁granite	-11.7271
▁granmi	-11.7271
▁gratitude	-11.7271
▁groovy	-11.7271
▁hajj	-11.7271
▁hooray	-11.7271
▁idolater	-11.7271
▁incapable	-11.7271
▁incarceration	-11.7271
▁industries	-11.7271
▁inferior	-11.7271
▁inferno	-11.7271
▁inflict	-11.7271
▁input	-11.7271
▁insecure	-11.7271
▁interrogate	-11.7271
▁invasion	-11.7271
▁isabel	-11.7271
▁isoiation	-11.7271
▁jangshemash	-11.7271
▁janice	-11.7271
▁jocasta	-11.7271
▁jocelyn	-11.7271
▁juiie	-11.7271
▁karma	-11.7271
▁kentucky	-11.7271
▁kolpos	-11.7271
▁kombat	-11.7271
▁leisure	-11.7271
▁linklater	-11.7271
▁lmpala	-11.7271
▁lollipop	-11.7271
▁mammy	-11.7271
▁mandatory	-11.7271
▁manslaughter	-11.7271
▁manufacturing	-11.7271
▁marcelle	-11.7271
▁marjarie	-11.7271
▁marjorie	-11.7271
▁marshmallow	-11.7271
▁marybeth	-11.7271
▁massachusetts	-11.7271
▁massacre	-11.7271
▁mediocre	-11.7271
▁melania	-11.7271
▁mesquita	-11.7271
▁mikie	-11.7271
▁millwall	-11.7271
▁misunderstood	-11.7271
▁mohican	-11.7271
▁monopoly	-11.7271
▁monument	-11.7271
▁moustache	-11.7271
▁moyerson	-11.7271
▁mozart	-11.7271
▁narcotics	-11.7271
▁nazarbayev	-11.7271
▁nephew	-11.7271
▁nikolas	-11.7271
▁nominee	-11.7271
▁nonlethal	-11.7271
▁oblivio	-11.7271
▁obscene	-11.7271
▁opposing	-11.7271
▁oriordan	-11.7271
▁ornament	-11.7271
▁overwhelming	-11.7271
▁paragraph	-11.7271
▁parakeet	-11.7271
▁parliament	-11.7271
▁participate	-11.7271
▁penelope	-11.7271
▁penitentiary	-11.7271
▁pepperoni	-11.7271
▁perspective	-11.7271
▁pragmatic	-11.7271
▁presbyterian	-11.7271
▁prominent	-11.7271
▁prototypes	-11.7271
▁qantas	-11.7271
▁quadrant	-11.7271
▁recipe	-11.7271
▁recognise	-11.7271
▁reduction	-11.7271
▁registration	-11.7271
▁reiax	-11.7271
▁remix	-11.7271
▁reserve	-11.7271
▁resonance	-11.7271
▁roccaraso	-11.7271
▁ruckus	-11.7271
▁samantha	-11.7271
▁scorpion	-11.7271
▁sedition	-11.7271
▁shamblers	-11.7271
▁sizzles	-11.7271
▁smudge	-11.7271
▁snuck	-11.7271
▁solicit	-11.7271
▁solitary	-11.7271
▁specimen	-11.7271
▁spencer	-11.7271
▁squelching	-11.7271
▁stewardess	-11.7271
▁strode	-11.7271
▁stroehmann	-11.7271
▁subgate	-11.7271
▁substantial	-11.7271
▁sunscreen	-11.7271
▁surveillance	-11.7271
▁survivor	-11.7271
▁suspicion	-11.7271
▁syllabus	-11.7271
▁syphilis	-11.7271
▁tapdanc	-11.7271
▁tetraplegic	-11.7271
▁threshold	-11.7271
▁timothy	-11.7271
▁trembling	-11.7271
▁trillion	-11.7271
▁trivial	-11.7271
▁twanging	-11.7271
▁twentyfive	-11.7271
▁unbearable	-11.7271
▁unemployed	-11.7271
▁unfold	-11.7271
▁unprofessional	-11.7271
▁unsighted	-11.7271
▁vanderohe	-11.7271
▁verify	-11.7271
▁videotape	-11.7271
▁violated	-11.7271
▁vomit	-11.7271
▁wallbrook	-11.7271
▁website	-11.7271
▁wilshire	-11.7271
▁withdrawal	-11.7271
▁wrath	-11.7271
▁wretched	-11.7271
▁xrays	-11.7271
▁yakov	-11.7271
shield	-11.7271
voluntar	-11.7271
▁aqui	-11.7271
▁comfy	-11.7271
▁crucial	-11.7271
▁daisies	-11.7271
▁deranged	-11.7271
▁deuce	-11.7271
▁filpatrick	-11.7271
▁firearm	-11.7271
▁flawed	-11.7271
▁fryer	-11.7271
▁hobby	-11.7271
▁industrial	-11.7271
▁janie	-11.7271
▁keaty	-11.7271
▁keller	-11.7271
▁landlady	-11.7271
▁operative	-11.7271
▁paquin	-11.7271
▁phew	-11.7271
▁prenup	-11.7271
▁quarrel	-11.7271
▁saudi	-11.7271
▁shuffl	-11.7271
▁sindell	-11.7271
▁soothe	-11.7271
▁suffocat	-11.7271
▁summoned	-11.7271
▁sushi	-11.7271
▁tactical	-11.7271
▁tennessee	-11.7271
▁troubie	-11.7271
▁uterus	-11.7271
▁vigil	-11.7271
▁waffle	-11.7271
▁whyre	-11.7271
▁zheng	-11.7271
▁allez	-11.7271
▁booga	-11.7271
▁cohen	-11.7271
▁compiete	-11.7271
▁freelance	-11.7271
▁numero	-11.7271
▁pendant	-11.7271
▁redneck	-11.7271
▁segment	-11.7271
▁sponge	-11.7271
▁stacy	-11.7271
▁subtle	-11.7271
▁succeed	-11.7271
▁swerve	-11.7271
▁tampon	-11.7271
▁worldcure	-11.7271
▁maternal	-11.7271
▁canyon	-11.7271
▁headhunter	-11.7271
▁revolv	-11.7271
▁aroused	-11.7271
▁cuputovati	-11.7271
▁ecstasy	-11.7271
▁household	-11.7271
▁intel	-11.7271
▁reinforcements	-11.7271
▁sieep	-11.7271
ternity	-11.7271
▁balm	-11.7271
▁disposable	-11.7271
▁gtg	-11.7271
▁noticing	-11.7271
▁presume	-11.7271
▁simms	-11.7271
▁strawberries	-11.7271
▁unholy	-11.7271
▁authorization	-11.7271
▁cartels	-11.7271
▁ernest	-11.7271
▁expend	-11.7271
▁ifthe	-11.7271
▁shiver	-11.7271
▁stowaway	-11.7271
▁symptoms	-11.7271
▁collings	-11.7271
▁convey	-11.7271
▁ernie	-11.7271
▁munchin	-11.7271
▁staircase	-11.7271
egian	-11.7271
▁wasps	-11.7271
▁hasashi	-11.7271
▁serra	-11.7271
▁yoona	-11.7271
▁alligator	-11.7271
▁generator	-11.7271
▁cervix	-11.7271
▁literature	-11.7271
▁narrow	-11.7271
▁overhear	-11.7271
▁dribble	-11.7271
▁slicing	-11.7271
▁veil	-11.7271
ogenic	-11.7271
▁humiliating	-11.7271
▁indicating	-11.7271
▁wagner	-11.7271
▁ambitious	-11.7271
▁goddess	-11.7271
▁mercenar	-11.7271
▁pinned	-11.7271
▁hellenic	-11.7271
▁kidnapping	-11.7271
▁mutiny	-11.7271
▁volvo	-11.7271
▁greasy	-11.7271
▁minerals	-11.7271
▁freddie	-11.7271
▁napkins	-11.7271
▁tubbs	-11.7271
rseif	-11.7271
▁arraign	-11.7271
▁justif	-11.7271
▁tractor	-11.7271
▁naomi	-11.7271
▁morrisey	-11.7271
▁excise	-11.7271
core	-11.7271
▁disput	-11.7271
▁lerner	-11.7271
▁minivan	-11.7271
▁piggy	-11.7271
▁unemployment	-11.7271
▁bradlee	-11.7271
▁immune	-11.7271
▁farewell	-11.7271
▁jafar	-11.7271
▁hesitation	-11.7271
▁immigrants	-11.7271
▁domain	-11.7271
▁granddaughter	-11.7271
▁utica	-11.7271
▁agitated	-11.7271
▁basketball	-11.7271
▁chopstick	-11.7271
▁detonate	-11.7271
▁lawsuit	-11.7271
▁twobit	-11.7271
▁scramble	-11.7272
▁keister	-11.7272
▁prague	-11.7272
▁joburg	-11.7272
▁perks	-11.7272
▁bdr	-11.7272
▁breez	-11.7272
▁discharge	-11.7272
▁snide	-11.7272
▁wifi	-11.7272
▁scram	-11.7272
▁stockholder	-11.7272
ortho	-11.7272
▁catfish	-11.7272
▁downhill	-11.7272
▁leftovers	-11.7272
▁bandaid	-11.7272
▁pedro	-11.7272
▁fingernails	-11.7272
▁beneficiary	-11.7272
▁contrary	-11.7272
▁advertising	-11.7272
▁disneyland	-11.7272
omination	-11.7272
▁statistic	-11.7272
▁zebra	-11.7272
▁dontdont	-11.7272
▁sisterinlaw	-11.7272
▁shaving	-11.7272
▁cinder	-11.7272
▁helium	-11.7272
▁garlic	-11.7272
▁glamour	-11.7272
▁jonjo	-11.7272
▁vegan	-11.7272
cular	-11.7272
▁beeface	-11.7272
▁humidity	-11.7272
▁klu	-11.7272
▁centerpiece	-11.7272
▁cynical	-11.7272
▁selim	-11.7272
▁duct	-11.7272
▁singsong	-11.7272
▁mourn	-11.7272
▁jeep	-11.7272
▁embarrassment	-11.7272
▁inheritance	-11.7272
▁jolly	-11.7272
▁bloom	-11.7272
▁leverage	-11.7272
▁handwriting	-11.7272
▁motherfuckin	-11.7272
▁constantine	-11.7272
▁slink	-11.7272
▁bailey	-11.7272
▁drummer	-11.7272
▁raving	-11.7272
▁twig	-11.7272
▁worid	-11.7272
▁plot	-11.7272
▁henley	-11.7272
▁laptop	-11.7272
▁fiction	-11.7272
▁pomp	-11.7272
▁tatin	-11.7272
▁aggr	-11.7272
▁tilda	-11.7272
▁lumin	-11.7272
▁shelf	-11.7272
▁duane	-11.7272
▁doggy	-11.7272
▁elena	-11.7272
▁vein	-11.7272
▁chestnut	-11.7272
▁sherry	-11.7272
▁jangling	-11.7273
▁splice	-11.7273
▁birthmark	-11.7273
▁malone	-11.7273
▁absent	-11.7273
▁gunned	-11.7273
▁whatshis	-11.7273
▁chickenshit	-11.7273
▁tsung	-11.7273
▁championship	-11.7273
▁metres	-11.7273
▁rambo	-11.7273
▁simone	-11.7273
▁snapping	-11.7273
portrait	-11.7273
▁victorious	-11.7273
▁inquiries	-11.7273
▁inhuman	-11.7273
▁canned	-11.7273
▁glamo	-11.7273
▁pudg	-11.7273
▁tooth	-11.7273
▁repay	-11.7273
▁radar	-11.7273
▁catkin	-11.7273
obic	-11.7273
▁degenerate	-11.7273
▁waving	-11.7273
▁calculator	-11.7273
▁cube	-11.7273
▁vroom	-11.7273
▁isla	-11.7273
▁guz	-11.7273
▁motivation	-11.7273
▁noche	-11.7273
▁doodl	-11.7273
▁jj	-11.7273
▁neglectful	-11.7273
▁utter	-11.7273
▁pulp	-11.7273
▁banu	-11.7273
▁monde	-11.7273
▁riot	-11.7273
bbies	-11.7273
▁liking	-11.7273
▁expertise	-11.7273
▁ifs	-11.7273
▁cease	-11.7273
▁yule	-11.7274
▁continental	-11.7274
▁andand	-11.7274
▁extension	-11.7274
▁liberal	-11.7274
▁fantasies	-11.7274
▁thieves	-11.7274
▁thurman	-11.7274
▁cruelty	-11.7274
▁disability	-11.7274
▁buts	-11.7274
▁sperm	-11.7274
▁suitcase	-11.7274
▁adversary	-11.7274
▁assassination	-11.7274
▁viral	-11.7274
▁transmitt	-11.7274
▁oath	-11.7274
▁ciose	-11.7274
▁colombian	-11.7274
syllable	-11.7274
mino	-11.7274
▁incompetent	-11.7274
▁courtmartial	-11.7274
▁mongo	-11.7274
▁stride	-11.7274
▁suppress	-11.7274
oogum	-11.7275
▁codependent	-11.7275
▁sofa	-11.7275
▁replacement	-11.7275
▁biack	-11.7275
▁roam	-11.7275
▁fairfield	-11.7275
▁settling	-11.7275
▁exactiy	-11.7275
▁spinning	-11.7275
▁cleve	-11.7275
▁catatonic	-11.7275
▁corporate	-11.7275
▁tolerance	-11.7275
▁souk	-11.7275
▁bracelet	-11.7275
▁stabbing	-11.7275
▁yeii	-11.7275
▁prompt	-11.7275
▁tomatoes	-11.7275
▁mature	-11.7275
▁worn	-11.7275
▁rational	-11.7276
▁venable	-11.7276
▁subside	-11.7276
urance	-11.7276
▁heap	-11.7276
▁salmon	-11.7276
▁salud	-11.7276
▁rj	-11.7276
▁princeton	-11.7276
▁slate	-11.7276
▁excitement	-11.7276
▁extraction	-11.7276
▁mediation	-11.7276
▁qu	-11.7276
▁lyon	-11.7276
▁fled	-11.7276
▁pinero	-11.7276
▁sunny	-11.7277
▁query	-11.7277
▁folo	-11.7277
▁tripping	-11.7277
▁angrier	-11.7277
▁maxim	-11.7277
▁checkpoint	-11.7277
▁crust	-11.7277
▁evo	-11.7277
▁deposition	-11.7277
▁abruptly	-11.7277
▁moderately	-11.7277
▁jamie	-11.7277
▁greg	-11.7278
▁mindset	-11.7278
▁wolves	-11.7278
▁capri	-11.7278
▁conviction	-11.7278
▁affection	-11.7278
▁shade	-11.7278
▁heartache	-11.7278
▁frog	-11.7278
▁theatre	-11.7278
▁elke	-11.7278
huckle	-11.7278
▁lori	-11.7278
▁australian	-11.7278
▁ici	-11.7278
▁acre	-11.7278
▁strategy	-11.7278
▁hull	-11.7279
▁morality	-11.7279
▁herb	-11.7279
▁mopey	-11.7279
▁mediate	-11.7279
▁stepping	-11.7279
▁hans	-11.7279
▁hover	-11.7279
▁planner	-11.7279
▁trim	-11.7279
▁neuro	-11.7279
licate	-11.7279
▁harp	-11.7279
▁designation	-11.7279
▁gurgling	-11.7279
▁hoid	-11.7279
▁intensi	-11.728
▁damp	-11.728
berry	-11.728
▁vu	-11.728
ulus	-11.728
otine	-11.728
▁elite	-11.7281
▁bangee	-11.7281
▁betsy	-11.7281
▁nursery	-11.7281
▁belongings	-11.7281
▁handgun	-11.7281
▁wade	-11.7281
▁epa	-11.7281
▁ramen	-11.7281
▁denies	-11.7281
▁poetic	-11.7281
▁pillar	-11.7281
▁european	-11.7281
▁fling	-11.7281
▁spout	-11.7281
▁exile	-11.7282
▁arrogant	-11.7282
▁occupied	-11.7282
▁peak	-11.7282
▁stitches	-11.7282
▁bravery	-11.7282
▁toll	-11.7283
▁incen	-11.7283
kra	-11.7283
▁stockton	-11.7283
▁teasing	-11.7283
▁flake	-11.7283
▁celebrity	-11.7283
▁certainty	-11.7284
▁tension	-11.7284
zy	-11.7284
▁speechless	-11.7284
▁hinge	-11.7284
▁portion	-11.7284
▁packet	-11.7284
▁traditional	-11.7284
▁icu	-11.7284
▁ferry	-11.7285
▁slop	-11.7285
coming	-11.7285
▁confe	-11.7285
▁hose	-11.7286
▁daw	-11.7286
▁permanently	-11.7286
▁shear	-11.7286
▁quiz	-11.7286
▁transformed	-11.7286
▁accomplished	-11.7286
hearted	-11.7286
▁zapped	-11.7286
▁snoop	-11.7286
▁flown	-11.7286
▁thong	-11.7287
zzing	-11.7287
▁anticipated	-11.7287
▁waterfall	-11.7287
▁apb	-11.7288
▁guardian	-11.7288
▁playboy	-11.7288
▁greer	-11.7288
▁legit	-11.7288
▁humiliated	-11.7288
▁tamper	-11.7289
▁snowman	-11.7289
▁gem	-11.729
▁scenery	-11.729
▁instantly	-11.729
▁hous	-11.729
▁waive	-11.7291
▁gramma	-11.7291
▁hotline	-11.7291
▁dadada	-11.7292
▁zu	-11.7292
▁tapping	-11.7292
▁astro	-11.7292
▁allies	-11.7293
▁playback	-11.7293
▁hitchhiker	-11.7293
▁gently	-11.7293
▁overreacting	-11.7293
▁surrounding	-11.7294
▁stunning	-11.7294
▁publishing	-11.7294
▁freshen	-11.7294
▁enable	-11.7294
▁realistic	-11.7295
icial	-11.7295
▁brid	-11.7295
▁marion	-11.7295
▁improved	-11.7295
▁puzzled	-11.7295
▁recruited	-11.7296
▁attracted	-11.7296
▁zoom	-11.7296
▁molested	-11.7296
▁puffer	-11.7296
▁fiie	-11.7296
▁boiler	-11.7296
▁reside	-11.7296
▁commando	-11.7297
▁carving	-11.7297
▁acceptable	-11.7297
▁bina	-11.7298
▁juliet	-11.7298
▁tachi	-11.7298
▁township	-11.7298
▁crushes	-11.7298
ntact	-11.7299
▁located	-11.7299
▁seventy	-11.73
▁meow	-11.73
▁vp	-11.73
chever	-11.73
cautious	-11.73
▁dw	-11.7302
▁educated	-11.7303
etto	-11.7304
▁payoff	-11.7304
▁cult	-11.7304
▁disciples	-11.7304
▁colin	-11.7304
▁painkillers	-11.7305
▁rewarded	-11.7305
▁kabal	-11.7306
trial	-11.7307
▁suitable	-11.7307
▁rage	-11.7307
rich	-11.7308
▁comply	-11.7309
▁vested	-11.731
▁promoted	-11.731
▁vine	-11.7311
▁hopin	-11.7312
▁tide	-11.7313
▁bind	-11.7313
▁counties	-11.7314
▁expose	-11.7314
▁grilled	-11.7315
▁stashed	-11.7315
▁disconnected	-11.7315
▁alum	-11.7315
▁reconnect	-11.7315
run	-11.7315
▁sadness	-11.7316
▁thur	-11.7316
▁parttime	-11.7317
▁subway	-11.7317
▁latte	-11.7317
▁scanner	-11.7318
▁speeches	-11.7318
▁margot	-11.7319
▁hugh	-11.7319
▁mutter	-11.7323
▁restored	-11.7323
▁bleedin	-11.7325
▁frenchman	-11.7325
▁gau	-11.7326
▁consumer	-11.7326
hell	-11.7326
▁drawn	-11.7327
▁chen	-11.7328
▁policemen	-11.7328
▁lice	-11.7329
▁itch	-11.733
usz	-11.7331
▁chad	-11.7333
▁launcher	-11.7334
▁pam	-11.7334
itsy	-11.7334
code	-11.7337
▁turd	-11.7337
▁stretcher	-11.7337
▁defined	-11.7338
▁defeated	-11.7338
▁tyro	-11.7341
▁madman	-11.7342
▁illana	-11.7344
▁wisely	-11.7344
▁linked	-11.7344
▁briefed	-11.7344
▁rhyme	-11.7346
▁fisc	-11.7346
▁curt	-11.7347
▁goddamnit	-11.7348
ellow	-11.7349
▁ferri	-11.735
▁forgiven	-11.7351
▁battering	-11.7352
▁coal	-11.7352
▁setup	-11.7356
▁billie	-11.7357
▁traced	-11.7357
skin	-11.7358
▁yawns	-11.7361
▁prospects	-11.7362
dem	-11.7362
▁accusations	-11.7362
▁requirements	-11.7363
▁teaches	-11.7364
▁altered	-11.7364
▁prevented	-11.7364
▁illegally	-11.7365
▁boiling	-11.7367
▁dere	-11.7368
▁jap	-11.7368
▁bully	-11.7369
▁socially	-11.7369
▁sor	-11.737
▁disarm	-11.737
▁realised	-11.7371
▁some	-11.7372
▁putney	-11.7374
▁stressed	-11.7374
▁cane	-11.7374
▁fleet	-11.7374
▁exclud	-11.7374
anita	-11.7375
▁pane	-11.7378
iate	-11.7379
▁hath	-11.7381
▁sweeping	-11.7382
▁disappointing	-11.7382
genital	-11.7383
▁responded	-11.7384
▁voted	-11.7385
▁net	-11.7385
▁cargo	-11.7386
troph	-11.7387
▁fer	-11.7391
▁catal	-11.7393
▁mick	-11.7393
▁applying	-11.7396
cio	-11.7399
▁awarded	-11.7403
▁beaches	-11.7403
▁bosses	-11.7403
▁pest	-11.7404
▁interrupted	-11.7404
▁ridin	-11.7404
▁whoops	-11.7413
▁collected	-11.7413
▁flipp	-11.7413
▁posed	-11.7416
▁piane	-11.7416
▁pointers	-11.7419
▁meeks	-11.7421
▁neighbours	-11.7421
▁sputters	-11.7421
▁yelps	-11.7421
iiy	-11.7421
▁chased	-11.7422
▁expressed	-11.7423
▁prey	-11.7424
tches	-11.7425
▁detailed	-11.7426
▁spac	-11.7428
▁stupidest	-11.743
▁ignored	-11.7433
▁crushed	-11.7433
▁tighter	-11.7437
▁err	-11.7438
ory	-11.744
▁kiiiing	-11.7442
▁pitched	-11.7445
▁hmmm	-11.7451
▁sher	-11.7454
▁weeping	-11.7456
▁reviewed	-11.7456
▁mais	-11.7456
oface	-11.7457
▁whine	-11.7457
▁aiming	-11.7457
▁sporting	-11.7459
▁assaulted	-11.7462
▁poisoning	-11.7472
erson	-11.7472
▁layer	-11.7476
magnet	-11.748
▁roots	-11.7481
▁thumbs	-11.7481
▁prostitutes	-11.7481
▁vessels	-11.7481
▁joyrid	-11.7481
ellos	-11.7481
backs	-11.7483
▁hysteri	-11.7483
▁kindness	-11.7483
ancy	-11.7485
▁claimed	-11.7486
▁eta	-11.7489
▁any	-11.7491
▁publicly	-11.7496
▁pasta	-11.75
▁dominate	-11.7501
llor	-11.7507
▁pinch	-11.7507
▁carve	-11.7508
▁completed	-11.7513
▁scann	-11.7513
▁tab	-11.7514
▁lever	-11.7516
lift	-11.7526
▁opponents	-11.7541
▁yorker	-11.7545
▁queer	-11.755
▁punishing	-11.7554
▁marching	-11.7561
▁added	-11.7562
aii	-11.7563
▁hardon	-11.7569
centr	-11.7571
▁crawled	-11.7572
▁ches	-11.7574
▁healer	-11.7574
▁screening	-11.7576
▁chilling	-11.758
fires	-11.7585
▁ric	-11.7596
▁chaps	-11.76
▁ankles	-11.7602
▁arrows	-11.7602
▁depths	-11.7602
▁forensics	-11.7602
▁fugitives	-11.7602
▁pipelines	-11.7602
▁era	-11.7603
▁rivas	-11.7603
lessness	-11.7609
▁frames	-11.761
▁banged	-11.7611
▁newman	-11.762
▁rating	-11.7621
▁crackers	-11.763
▁painters	-11.763
lights	-11.7631
thats	-11.7634
▁dumping	-11.7639
▁por	-11.7642
tag	-11.7643
ood	-11.7653
roo	-11.7654
▁milli	-11.7656
▁mute	-11.7663
▁samples	-11.7664
▁beliefs	-11.7664
▁chokes	-11.7664
▁clowns	-11.7664
▁references	-11.7664
▁relatives	-11.7664
▁repairs	-11.7664
arius	-11.7666
▁eighty	-11.7673
▁characterize	-11.7674
▁peeing	-11.7682
flop	-11.7682
▁trac	-11.7682
▁judged	-11.7685
runk	-11.7685
▁scam	-11.7695
▁willi	-11.7695
▁cracked	-11.7705
mony	-11.7705
▁appreciated	-11.7713
atur	-11.7715
▁conditioning	-11.7715
▁chords	-11.7726
▁investments	-11.7727
mu	-11.7727
▁barks	-11.7728
decoration	-11.7729
▁marketing	-11.773
▁fiveo	-11.7731
▁abus	-11.7734
▁haze	-11.7737
▁mango	-11.7738
▁tubes	-11.7743
going	-11.7744
nsa	-11.7748
▁marked	-11.7749
▁scouting	-11.7754
▁capp	-11.7757
▁hus	-11.7758
▁ob	-11.7763
▁standin	-11.777
▁coins	-11.7788
▁intentions	-11.7788
▁reservations	-11.7788
▁grandpas	-11.7788
▁myths	-11.7788
▁rev	-11.7789
▁perverts	-11.779
six	-11.7796
laris	-11.7801
▁mort	-11.7809
▁maya	-11.7815
ccan	-11.7816
▁sen	-11.7818
vine	-11.7821
▁awaken	-11.7822
▁dealin	-11.7825
▁shitless	-11.7825
inal	-11.7827
wit	-11.7832
▁sighting	-11.7841
▁servants	-11.7851
▁spartans	-11.7851
▁cables	-11.7854
▁fielder	-11.7854
▁shov	-11.7855
▁dated	-11.7875
evin	-11.7883
▁designat	-11.7886
▁suites	-11.7902
▁clar	-11.7907
▁habits	-11.7914
▁motorcycles	-11.7914
▁playin	-11.7923
▁wherea	-11.7924
▁jur	-11.7926
aby	-11.7927
▁danis	-11.7941
date	-11.7947
ugged	-11.7947
▁spiders	-11.7978
▁wolfe	-11.7979
▁peek	-11.7979
▁seasons	-11.7982
▁malin	-11.7998
▁str	-11.8
▁sales	-11.8011
ckless	-11.8018
lover	-11.8024
yle	-11.8024
▁eliminate	-11.8033
▁monks	-11.8042
▁fees	-11.8061
sat	-11.8064
▁boost	-11.808
sey	-11.8085
▁jagge	-11.8104
▁tails	-11.8107
▁passages	-11.8107
▁devices	-11.8107
▁raining	-11.811
▁hatche	-11.811
▁chipp	-11.8112
▁contribut	-11.8125
▁sticker	-11.8126
▁smoker	-11.8136
▁fulfill	-11.8136
▁sleepy	-11.814
▁wal	-11.8142
cant	-11.8143
tly	-11.8147
nine	-11.8152
▁livein	-11.8155
▁journalists	-11.8162
▁gov	-11.8169
▁peru	-11.8185
rippin	-11.8206
▁marina	-11.821
own	-11.8219
▁tai	-11.8226
▁gall	-11.8228
▁tortur	-11.8231
▁clydes	-11.8238
▁nations	-11.8247
ouse	-11.8262
▁rabbits	-11.8304
▁winters	-11.8309
erou	-11.8317
▁caps	-11.8326
hund	-11.835
▁stakes	-11.8371
▁maids	-11.8374
▁articles	-11.8379
▁frankies	-11.838
▁nails	-11.8387
ague	-11.8397
rep	-11.84
▁manipulate	-11.8403
edge	-11.8419
▁committ	-11.8423
▁insists	-11.8438
ewing	-11.8442
▁reviews	-11.8442
▁rider	-11.8471
rais	-11.8475
▁cogn	-11.8481
▁chil	-11.8507
▁bast	-11.8519
▁crop	-11.8532
▁cad	-11.8536
vo	-11.8546
▁trickl	-11.8557
hank	-11.857
▁cooke	-11.8576
▁bratt	-11.8589
gger	-11.86
▁dui	-11.862
▁hiv	-11.8632
▁liquidat	-11.8649
▁purp	-11.8651
bor	-11.8653
urn	-11.8661
▁slot	-11.8669
▁inci	-11.8675
▁tum	-11.8677
▁untie	-11.8746
▁recite	-11.8746
▁implie	-11.875
▁rehearse	-11.8755
rob	-11.8796
wine	-11.8803
lute	-11.8804
▁delu	-11.8821
bil	-11.8826
nova	-11.8866
▁gru	-11.8866
ically	-11.8869
▁stayin	-11.8888
dad	-11.8893
mont	-11.8906
apple	-11.8911
ween	-11.8913
butt	-11.8926
lson	-11.8931
▁slo	-11.8954
pri	-11.8955
▁playful	-11.8973
▁tod	-11.8982
▁truetru	-11.9002
▁ther	-11.9031
city	-11.9055
▁shal	-11.9089
reach	-11.9109
▁wid	-11.9147
▁scu	-11.9148
ook	-11.9166
▁snappe	-11.9175
▁sar	-11.9185
▁sauc	-11.9186
▁abc	-11.9234
▁mai	-11.9243
iful	-11.9282
chen	-11.9302
ioid	-11.9334
▁spi	-11.9372
ckey	-11.938
tov	-11.9386
▁lob	-11.9397
ittie	-11.9423
▁ep	-11.9436
uccin	-11.9442
dam	-11.9451
inating	-11.9474
cap	-11.9479
anna	-11.9514
nton	-11.9514
lace	-11.954
▁acro	-11.9544
▁vc	-11.9545
ifted	-11.9556
▁conce	-11.9564
nquire	-11.9576
▁strangl	-11.9583
eezer	-11.961
lia	-11.9611
▁carol	-11.9632
fashionable	-11.9632
▁logic	-11.9661
▁initiat	-11.9664
ional	-11.9686
▁raisin	-11.9704
anet	-11.9709
nning	-11.9725
▁sten	-11.9735
zzy	-11.9744
rence	-11.9746
▁mop	-11.978
oes	-11.978
▁blan	-11.9794
▁fac	-11.9795
baba	-11.981
tric	-11.9826
stav	-11.9837
▁hisse	-11.9852
▁ani	-11.9858
▁lightnin	-11.9885
luca	-11.99
▁rout	-11.9904
▁devi	-11.9917
stage	-11.9931
▁greene	-12.0028
tling	-12.0045
▁terri	-12.0058
▁tackle	-12.0061
▁ingra	-12.007
sander	-12.0085
voy	-12.0085
▁immigra	-12.0104
hoo	-12.0105
tivity	-12.0113
▁behav	-12.0114
▁aspirin	-12.0132
lous	-12.0132
oster	-12.0133
▁hawke	-12.0133
good	-12.015
orte	-12.0169
ifer	-12.02
▁circl	-12.0207
▁toni	-12.0212
▁shak	-12.0233
▁exception	-12.0239
burg	-12.0253
▁luc	-12.0255
lash	-12.0261
tumble	-12.0262
ilation	-12.0268
▁organ	-12.028
▁iv	-12.0283
▁vibrat	-12.0297
▁fil	-12.0299
gel	-12.0301
▁bre	-12.0317
solved	-12.0321
▁wee	-12.0321
▁hub	-12.0335
okie	-12.0336
▁fra	-12.0371
rest	-12.0372
vah	-12.0378
▁creak	-12.0379
▁enterprise	-12.039
▁essence	-12.039
▁geo	-12.0391
▁item	-12.0391
▁passport	-12.0394
▁economic	-12.0396
▁marine	-12.0399
▁neighbour	-12.04
▁sputter	-12.04
▁meek	-12.04
▁yelp	-12.04
rig	-12.0405
▁hesitate	-12.0405
▁temp	-12.0406
manship	-12.0408
▁slice	-12.0408
▁cent	-12.0408
▁associate	-12.0409
itis	-12.0411
▁relation	-12.0413
▁candle	-12.0413
▁giggle	-12.0413
hiro	-12.0414
▁mug	-12.0414
▁glove	-12.0417
▁dolphin	-12.0417
▁euro	-12.0418
enia	-12.0419
meters	-12.0424
▁chime	-12.0424
▁smok	-12.0429
▁develop	-12.0429
▁pause	-12.0431
rington	-12.0432
xtr	-12.0433
▁stud	-12.0434
▁strippe	-12.0435
mar	-12.0438
▁bean	-12.0439
▁continu	-12.0443
▁fireball	-12.0445
ominated	-12.0455
fia	-12.0456
▁magn	-12.0465
▁ranger	-12.0473
▁expos	-12.048
▁swap	-12.0484
▁growl	-12.049
▁morale	-12.0492
sounding	-12.0494
shu	-12.0498
terra	-12.0499
▁organiz	-12.0503
▁ferr	-12.0505
▁clan	-12.0517
oshing	-12.052
▁embarrass	-12.0525
▁ange	-12.0527
▁cesar	-12.053
▁mutt	-12.0532
▁slag	-12.0532
▁molest	-12.0539
tural	-12.0547
▁entertain	-12.0548
▁infinit	-12.0549
ification	-12.055
▁fidget	-12.0551
▁stroll	-12.0551
▁expir	-12.0554
▁villa	-12.0554
▁bluff	-12.0555
▁terrify	-12.0555
▁accord	-12.0556
▁mock	-12.056
▁suppos	-12.0561
▁slurp	-12.0564
igious	-12.0565
▁attract	-12.0566
keep	-12.0566
found	-12.0567
▁distract	-12.0569
▁recruit	-12.0571
▁aaa	-12.0571
believe	-12.0572
stein	-12.0572
▁swingin	-12.0572
lagging	-12.0573
▁defin	-12.0574
spro	-12.0577
▁spear	-12.0577
conscious	-12.0578
▁gram	-12.0578
▁outrage	-12.0578
week	-12.0579
reak	-12.0579
▁fracture	-12.0579
tamper	-12.058
▁humiliate	-12.058
human	-12.0581
▁alleg	-12.0581
stroke	-12.0581
stream	-12.0581
lord	-12.0582
▁approve	-12.0582
keeper	-12.0582
wealth	-12.0582
hundreds	-12.0582
pipe	-12.0582
generation	-12.0582
when	-12.0582
world	-12.0582
blood	-12.0582
judgment	-12.0582
▁optimi	-12.0583
shock	-12.0583
regan	-12.0583
▁underestimate	-12.0583
floor	-12.0583
glass	-12.0583
nathan	-12.0583
children	-12.0583
stuff	-12.0583
course	-12.0583
▁involve	-12.0583
first	-12.0583
horse	-12.0583
▁paranoi	-12.0583
bugs	-12.0583
paint	-12.0583
culture	-12.0583
film	-12.0584
jacket	-12.0584
▁financ	-12.0584
pants	-12.0584
▁evolve	-12.0585
yeah	-12.0585
locked	-12.0585
▁heli	-12.0585
food	-12.0586
alimony	-12.0586
dick	-12.0587
▁snoo	-12.0587
▁intent	-12.0587
▁helen	-12.0587
value	-12.0587
dress	-12.0587
pilot	-12.0587
▁celebrit	-12.0588
sworth	-12.0588
argh	-12.0588
active	-12.0588
▁walt	-12.0589
around	-12.0589
water	-12.0589
▁virtu	-12.059
▁savage	-12.059
baby	-12.0591
▁swis	-12.0592
handler	-12.0594
▁boar	-12.0594
fast	-12.0595
▁educate	-12.0596
▁mono	-12.0597
▁cuban	-12.0597
▁trave	-12.0598
▁inconvenien	-12.0598
▁malaysia	-12.0598
worthy	-12.0598
▁margin	-12.0598
▁nois	-12.0598
▁wrinkl	-12.0598
▁ofyou	-12.0598
▁tomato	-12.0599
▁calculat	-12.0599
knob	-12.0599
▁sensation	-12.0599
▁marv	-12.0599
▁extraordinar	-12.0599
▁sketch	-12.06
▁investigati	-12.0601
▁spinnin	-12.0601
believable	-12.0601
▁drivin	-12.0601
▁bounce	-12.0601
▁resurrect	-12.0602
▁motivat	-12.0602
▁livin	-12.0602
▁runnin	-12.0602
dgin	-12.0603
nternal	-12.0603
still	-12.0603
▁compete	-12.0603
▁dept	-12.0603
▁makin	-12.0603
▁cott	-12.0603
▁narcissist	-12.0603
▁convers	-12.0603
▁grocer	-12.0603
▁triumph	-12.0603
ecutive	-12.0603
▁accura	-12.0603
▁givin	-12.0603
▁catalog	-12.0603
ndition	-12.0603
▁prosecut	-12.0604
▁musk	-12.0604
▁confidential	-12.0604
iddling	-12.0604
meyer	-12.0604
▁subtit	-12.0604
▁reput	-12.0604
▁sodom	-12.0604
elimina	-12.0604
▁reai	-12.0604
▁movin	-12.0604
cheeseburger	-12.0604
▁admin	-12.0604
ization	-12.0604
philosoph	-12.0604
▁microscop	-12.0604
▁septic	-12.0604
aesthetic	-12.0604
bourne	-12.0604
compatibility	-12.0604
incarnate	-12.0604
phobia	-12.0604
relevant	-12.0604
urban	-12.0604
▁abbott	-12.0604
▁abraham	-12.0604
▁academic	-12.0604
▁accelerat	-12.0604
▁acquainted	-12.0604
▁acquisition	-12.0604
▁activities	-12.0604
▁adjourn	-12.0604
▁affidavit	-12.0604
▁akila	-12.0604
▁allegiance	-12.0604
▁altogether	-12.0604
▁amazed	-12.0604
▁amsterdam	-12.0604
▁appetizer	-12.0604
▁appreciative	-12.0604
▁apprehended	-12.0604
▁aquarium	-12.0604
▁archangel	-12.0604
▁argentine	-12.0604
▁arlene	-12.0604
▁aspergers	-12.0604
▁association	-12.0604
▁astonish	-12.0604
▁athena	-12.0604
▁atlanta	-12.0604
▁baccarat	-12.0604
▁balham	-12.0604
▁banshees	-12.0604
▁barricade	-12.0604
▁beaver	-12.0604
▁behold	-12.0604
▁birmingham	-12.0604
▁bizarre	-12.0604
▁bloodhound	-12.0604
▁blueprint	-12.0604
▁bordeaux	-12.0604
▁boundaries	-12.0604
▁buffalo	-12.0604
▁bullseye	-12.0604
▁butler	-12.0604
▁cadillac	-12.0604
▁caliph	-12.0604
▁cannibal	-12.0604
▁casket	-12.0604
▁cassette	-12.0604
▁catechism	-12.0604
▁ceiling	-12.0604
▁celsius	-12.0604
▁cereal	-12.0604
▁cerveza	-12.0604
▁chauffeur	-12.0604
▁chingachgook	-12.0604
▁chirring	-12.0604
▁cholera	-12.0604
▁ciccio	-12.0604
▁circumcision	-12.0604
▁clinton	-12.0604
▁collaps	-12.0604
▁communicating	-12.0604
▁comprend	-12.0604
▁connecticut	-12.0604
▁conspirators	-12.0604
▁contemplat	-12.0604
▁continuously	-12.0604
▁converge	-12.0604
▁coolidge	-12.0604
▁cornstarch	-12.0604
▁correspond	-12.0604
▁courier	-12.0604
▁crayfish	-12.0604
▁creativity	-12.0604
▁crucify	-12.0604
▁crumpet	-12.0604
▁crusader	-12.0604
▁cuisine	-12.0604
▁damaging	-12.0604
▁deceived	-12.0604
▁derouche	-12.0604
▁deserving	-12.0604
▁detention	-12.0604
▁diapers	-12.0604
▁diastema	-12.0604
▁dictionary	-12.0604
▁disbarred	-12.0604
▁discrepanc	-12.0604
▁discriminat	-12.0604
▁display	-12.0604
▁distinct	-12.0604
▁doherty	-12.0604
▁domestic	-12.0604
▁dorothy	-12.0604
▁douche	-12.0604
▁drought	-12.0604
▁efficient	-12.0604
▁elaborate	-12.0604
▁embassy	-12.0604
▁encrypted	-12.0604
▁encryption	-12.0604
▁energies	-12.0604
▁enforcer	-12.0604
▁engrave	-12.0604
▁ethical	-12.0604
▁evisync	-12.0604
▁executin	-12.0604
▁exgirlfriend	-12.0604
▁expriest	-12.0604
▁external	-12.0604
▁fascinate	-12.0604
▁feinberg	-12.0604
▁fewer	-12.0604
▁firefight	-12.0604
▁flawless	-12.0604
▁flourish	-12.0604
▁forsaken	-12.0604
▁furnace	-12.0604
▁gallagher	-12.0604
▁gangbang	-12.0604
▁gauloises	-12.0604
▁geriatrics	-12.0604
▁giuseppe	-12.0604
▁gobshite	-12.0604
▁goodfornothing	-12.0604
▁gorilla	-12.0604
▁granpi	-12.0604
▁gravy	-12.0604
▁grumpy	-12.0604
▁guidance	-12.0604
▁gynecologist	-12.0604
▁hairdresser	-12.0604
▁happily	-12.0604
▁haystack	-12.0604
▁hierarchy	-12.0604
▁hiphop	-12.0604
▁hoggins	-12.0604
▁horrox	-12.0604
▁hospitai	-12.0604
▁husselbeck	-12.0604
▁hymn	-12.0604
▁ieaving	-12.0604
▁incorrect	-12.0604
▁indenture	-12.0604
▁indictment	-12.0604
▁infatuation	-12.0604
▁infrastructure	-12.0604
▁injustice	-12.0604
▁instagram	-12.0604
▁intervention	-12.0604
▁intimacy	-12.0604
▁invalid	-12.0604
▁isolation	-12.0604
▁jacque	-12.0604
▁kanavan	-12.0604
▁kangaroo	-12.0604
▁kfryc	-12.0604
▁kintry	-12.0604
▁klick	-12.0604
▁knickers	-12.0604
▁knuckle	-12.0604
▁kumbaya	-12.0604
▁laboratory	-12.0604
▁landscape	-12.0604
▁lastminute	-12.0604
▁lchaim	-12.0604
▁leblanc	-12.0604
▁lecler	-12.0604
▁leopards	-12.0604
▁lisdoonvarna	-12.0604
▁lynch	-12.0604
▁macbeth	-12.0604
▁magalie	-12.0604
▁mambo	-12.0604
▁manalowitz	-12.0604
▁mascot	-12.0604
▁matsumoto	-12.0604
▁mayonnaise	-12.0604
▁mcdonald	-12.0604
▁meditation	-12.0604
▁microchip	-12.0604
▁miguel	-12.0604
▁miraculous	-12.0604
▁misheard	-12.0604
▁mistress	-12.0604
▁mnemosyne	-12.0604
▁mongrel	-12.0604
▁monroe	-12.0604
▁morphine	-12.0604
▁motorbike	-12.0604
▁mumbling	-12.0604
▁murmurs	-12.0604
▁murray	-12.0604
▁narrative	-12.0604
▁narrator	-12.0604
▁nectar	-12.0604
▁nennella	-12.0604
▁neutral	-12.0604
▁nicolas	-12.0604
▁nightclub	-12.0604
▁nikto	-12.0604
▁nitwit	-12.0604
▁norris	-12.0604
▁notify	-12.0604
▁nowadays	-12.0604
▁nuggets	-12.0604
▁obscure	-12.0604
▁obstruct	-12.0604
▁obtuse	-12.0604
▁offiicers	-12.0604
▁olympic	-12.0604
▁olympus	-12.0604
▁ontario	-12.0604
▁orgasm	-12.0604
▁ottawa	-12.0604
▁outburst	-12.0604
▁outlaw	-12.0604
▁overthrow	-12.0604
▁oxycontin	-12.0604
▁parachute	-12.0604
▁paralyzed	-12.0604
▁paretti	-12.0604
▁parody	-12.0604
▁pedophile	-12.0604
▁pentagon	-12.0604
▁phoenix	-12.0604
▁pingpong	-12.0604
▁plaintiff	-12.0604
▁policies	-12.0604
▁popcorn	-12.0604
▁precaution	-12.0604
▁precision	-12.0604
▁premature	-12.0604
▁province	-12.0604
▁puberty	-12.0604
▁pumpernickel	-12.0604
▁python	-12.0604
▁qualify	-12.0604
▁railroad	-12.0604
▁reagan	-12.0604
▁reconcil	-12.0604
▁redridge	-12.0604
▁reelection	-12.0604
▁rehabilitat	-12.0604
▁relocat	-12.0604
▁reservoirs	-12.0604
▁revelation	-12.0604
▁revenue	-12.0604
▁rodrigo	-12.0604
▁salvage	-12.0604
▁satisfy	-12.0604
▁schematic	-12.0604
▁schizophreni	-12.0604
▁schnecken	-12.0604
▁scotland	-12.0604
▁scribbling	-12.0604
▁seizure	-12.0604
▁semester	-12.0604
▁sensible	-12.0604
▁sequel	-12.0604
▁sequence	-12.0604
▁shboom	-12.0604
▁sherrif	-12.0604
▁siblings	-12.0604
▁significance	-12.0604
▁siphon	-12.0604
▁skitter	-12.0604
▁sneeze	-12.0604
▁snicker	-12.0604
▁sniggers	-12.0604
▁soothing	-12.0604
▁soprano	-12.0604
▁sought	-12.0604
▁spectrum	-12.0604
▁speculat	-12.0604
▁sphynx	-12.0604
▁spinach	-12.0604
▁splutter	-12.0604
▁squirt	-12.0604
▁stagecoach	-12.0604
▁stavros	-12.0604
▁storax	-12.0604
▁stranded	-12.0604
▁streetwalker	-12.0604
▁sublime	-12.0604
▁subpoena	-12.0604
▁subsequent	-12.0604
▁substance	-12.0604
▁succinyichoiine	-12.0604
▁sugai	-12.0604
▁sullivan	-12.0604
▁supermodel	-12.0604
▁suzanne	-12.0604
▁sympatheco	-12.0604
▁tabansi	-12.0604
▁tailgate	-12.0604
▁telescope	-12.0604
▁thrift	-12.0604
▁ticktook	-12.0604
▁tokyo	-12.0604
▁toothpaste	-12.0604
▁totai	-12.0604
▁totem	-12.0604
▁trajector	-12.0604
▁tranquilizers	-12.0604
▁trawler	-12.0604
▁trickortreating	-12.0604
▁unacceptable	-12.0604
▁unearth	-12.0604
▁unfamiliar	-12.0604
▁unmanned	-12.0604
▁unprecedented	-12.0604
▁unpredictable	-12.0604
▁unravel	-12.0604
▁upbringing	-12.0604
▁uppercut	-12.0604
▁vaccine	-12.0604
▁vaughn	-12.0604
▁volkswagen	-12.0604
▁voluptuous	-12.0604
▁vultures	-12.0604
▁wardrobe	-12.0604
▁watermelon	-12.0604
▁whatnot	-12.0604
▁windthorne	-12.0604
▁wisconsin	-12.0604
▁wisdom	-12.0604
▁withdrawn	-12.0604
▁yibberin	-12.0604
ectomy	-12.0604
▁analyz	-12.0604
▁bleak	-12.0604
▁compress	-12.0604
▁confront	-12.0604
▁geisha	-12.0604
▁horizon	-12.0604
▁loaf	-12.0604
▁noodle	-12.0604
▁plummet	-12.0604
▁postpone	-12.0604
▁sleaz	-12.0604
▁surplus	-12.0604
distinguish	-12.0604
haired	-12.0604
▁afghanistan	-12.0604
▁agenda	-12.0604
▁bronx	-12.0604
▁bypass	-12.0604
▁cannon	-12.0604
▁carrots	-12.0604
▁cheverus	-12.0604
▁chram	-12.0604
▁content	-12.0604
▁cynth	-12.0604
▁dangling	-12.0604
▁debrief	-12.0604
▁distribut	-12.0604
▁duffy	-12.0604
▁falcon	-12.0604
▁fishbein	-12.0604
▁fortress	-12.0604
▁foureyes	-12.0604
▁georgette	-12.0604
▁glue	-12.0604
▁hudson	-12.0604
▁hypersleep	-12.0604
▁impulse	-12.0604
▁intervene	-12.0604
▁jeffrey	-12.0604
▁leaf	-12.0604
▁leather	-12.0604
▁louisiana	-12.0604
▁margie	-12.0604
▁midterms	-12.0604
▁minimal	-12.0604
▁northeast	-12.0604
▁peerreview	-12.0604
▁perverse	-12.0604
▁preacher	-12.0604
▁precipi	-12.0604
▁ramona	-12.0604
▁reign	-12.0604
▁revolt	-12.0604
▁scalp	-12.0604
▁scoffing	-12.0604
▁sermon	-12.0604
▁shoplifting	-12.0604
▁slick	-12.0604
▁toxin	-12.0604
▁trend	-12.0604
▁trophies	-12.0604
▁troupe	-12.0604
▁tuxedo	-12.0604
▁warbling	-12.0604
▁array	-12.0605
▁bulb	-12.0605
▁fierce	-12.0605
▁horrific	-12.0605
▁kansas	-12.0605
▁middie	-12.0605
▁quench	-12.0605
▁residue	-12.0605
▁turnips	-12.0605
▁automobile	-12.0605
▁conlon	-12.0605
▁daft	-12.0605
▁douglas	-12.0605
▁drifter	-12.0605
▁embezzl	-12.0605
▁endearing	-12.0605
▁hastings	-12.0605
▁ieast	-12.0605
▁impala	-12.0605
▁rinse	-12.0605
▁sydney	-12.0605
▁theythey	-12.0605
nelli	-12.0605
▁antiques	-12.0605
▁confined	-12.0605
▁imminent	-12.0605
▁relay	-12.0605
▁reproduc	-12.0605
▁twirl	-12.0605
▁carjacker	-12.0605
▁debauchery	-12.0605
▁immature	-12.0605
▁endanger	-12.0605
nklin	-12.0605
scrupu	-12.0605
▁benedict	-12.0605
▁qualities	-12.0605
▁stoie	-12.0605
▁subaru	-12.0605
▁superpowers	-12.0605
▁wrestl	-12.0605
stabilized	-12.0605
▁blowjobs	-12.0605
▁conleywhite	-12.0605
compatible	-12.0605
▁sedated	-12.0605
▁selves	-12.0605
▁fyi	-12.0605
▁hilton	-12.0605
▁iisten	-12.0605
▁invoice	-12.0605
▁twofive	-12.0605
▁fumes	-12.0605
▁handicapped	-12.0605
▁wonderfui	-12.0605
▁yoga	-12.0605
quisit	-12.0605
▁arteries	-12.0605
▁morris	-12.0605
flinch	-12.0605
▁iraq	-12.0605
▁jensen	-12.0605
▁opposition	-12.0605
abroad	-12.0605
▁meatballs	-12.0605
▁stalin	-12.0605
▁candlelight	-12.0605
▁signai	-12.0605
▁tiptoe	-12.0605
▁apoll	-12.0605
▁stifl	-12.0605
currency	-12.0605
▁loren	-12.0605
▁susie	-12.0605
▁yummy	-12.0605
▁dosage	-12.0605
▁aasen	-12.0605
▁cloves	-12.0605
▁disclose	-12.0605
▁haskins	-12.0605
▁ingenious	-12.0605
▁sincerely	-12.0605
▁whereabouts	-12.0605
▁antibiotic	-12.0605
▁assembl	-12.0605
▁nobility	-12.0605
▁insight	-12.0605
specs	-12.0605
▁besieg	-12.0605
▁carbon	-12.0605
▁ensure	-12.0605
▁luncheon	-12.0605
▁cyber	-12.0605
▁homie	-12.0605
▁maggot	-12.0605
▁orchard	-12.0605
▁promiscuous	-12.0605
▁mystica	-12.0605
▁snob	-12.0605
▁stenner	-12.0605
▁hagg	-12.0605
▁quatre	-12.0605
▁charities	-12.0605
▁solitude	-12.0605
▁gawk	-12.0605
▁vampire	-12.0605
▁basket	-12.0605
▁beware	-12.0605
▁billionaire	-12.0605
▁biue	-12.0605
▁chapstick	-12.0605
▁conclusion	-12.0605
▁ferocious	-12.0605
thematic	-12.0605
▁belize	-12.0605
▁aching	-12.0605
▁carolina	-12.0605
▁skimming	-12.0605
▁tombstone	-12.0605
▁sonnet	-12.0605
▁lndig	-12.0605
▁multitude	-12.0605
▁pavement	-12.0605
▁recycle	-12.0605
▁sorrow	-12.0605
▁underwater	-12.0605
▁cloudberry	-12.0605
▁dipshit	-12.0605
▁primitive	-12.0605
esteem	-12.0605
physic	-12.0605
▁apprais	-12.0605
▁enduring	-12.0605
▁pansies	-12.0605
▁silverware	-12.0605
▁surpass	-12.0605
▁thugs	-12.0605
▁yasser	-12.0605
nocchi	-12.0605
▁cheeseburgers	-12.0605
▁pumpkin	-12.0605
▁idunno	-12.0605
ombre	-12.0605
▁hernia	-12.0605
berserk	-12.0605
▁apeople	-12.0605
▁senile	-12.0605
▁yyeah	-12.0605
▁afresh	-12.0605
▁cradle	-12.0605
▁yourseif	-12.0605
▁claudia	-12.0605
▁institute	-12.0605
▁ipo	-12.0605
▁intercept	-12.0605
▁sodomized	-12.0605
▁demise	-12.0605
▁discount	-12.0605
▁escaping	-12.0605
mbour	-12.0605
▁statute	-12.0605
▁euph	-12.0605
▁clunk	-12.0605
▁monotonous	-12.0605
▁pedest	-12.0605
▁tramp	-12.0605
ophag	-12.0605
▁fornicat	-12.0605
communica	-12.0605
▁dadadada	-12.0605
▁enthusiasm	-12.0605
▁crazie	-12.0605
▁terminate	-12.0605
▁outworld	-12.0605
▁blogger	-12.0605
▁reassur	-12.0605
▁circulation	-12.0605
▁demir	-12.0605
▁slammed	-12.0605
▁revisit	-12.0605
▁blaming	-12.0605
▁iowa	-12.0605
ibbons	-12.0605
▁premium	-12.0605
bernat	-12.0605
▁analyse	-12.0605
▁grandparent	-12.0605
▁breathtaking	-12.0605
▁thirtynine	-12.0605
▁reproduction	-12.0605
▁colonies	-12.0605
▁labour	-12.0605
▁arrington	-12.0605
▁willow	-12.0605
▁peddle	-12.0605
▁tickle	-12.0605
woke	-12.0605
▁feud	-12.0605
▁lenox	-12.0605
▁meself	-12.0605
▁bragging	-12.0605
▁lizzy	-12.0605
▁zane	-12.0605
mika	-12.0606
▁magnum	-12.0606
▁orthop	-12.0606
▁filter	-12.0606
▁script	-12.0606
▁gauge	-12.0606
▁crotch	-12.0606
▁sensor	-12.0606
▁suffice	-12.0606
▁firecracker	-12.0606
▁frenchcanadian	-12.0606
▁plaque	-12.0606
▁appall	-12.0606
▁distill	-12.0606
▁artisanal	-12.0606
▁gender	-12.0606
▁introduction	-12.0606
▁grease	-12.0606
▁musket	-12.0606
▁limitations	-12.0606
▁nerd	-12.0606
▁triumphant	-12.0606
▁trot	-12.0606
▁intrica	-12.0606
▁inscription	-12.0606
▁envy	-12.0606
▁liif	-12.0606
▁fester	-12.0606
▁brotherinlaw	-12.0606
▁houston	-12.0606
have	-12.0606
▁bloodstain	-12.0606
▁swab	-12.0606
▁intrude	-12.0606
▁podium	-12.0606
umption	-12.0606
▁vocation	-12.0606
▁wimp	-12.0606
▁gallant	-12.0606
▁bidder	-12.0606
▁prettie	-12.0606
▁devastation	-12.0606
▁honcho	-12.0606
▁nympho	-12.0606
▁bozo	-12.0606
▁initiative	-12.0606
chester	-12.0606
▁marfa	-12.0606
▁allright	-12.0606
▁stallone	-12.0606
▁uptown	-12.0606
▁waltz	-12.0606
▁priestess	-12.0606
▁arsehole	-12.0606
▁denver	-12.0606
▁hq	-12.0606
▁mold	-12.0606
▁verge	-12.0606
▁leslie	-12.0606
herpes	-12.0606
▁encouragement	-12.0606
▁readership	-12.0606
▁criticism	-12.0606
▁warfare	-12.0606
▁dahl	-12.0606
▁blabb	-12.0607
▁confidentiality	-12.0607
sensual	-12.0607
▁interact	-12.0607
▁tarp	-12.0607
stellar	-12.0607
▁thirtytwo	-12.0607
▁dsi	-12.0607
▁earliest	-12.0607
▁yuri	-12.0607
▁seoul	-12.0607
▁upgrade	-12.0607
▁polar	-12.0607
▁lipstick	-12.0607
oxide	-12.0607
▁outcome	-12.0607
▁wellbeing	-12.0607
▁stench	-12.0607
▁belgi	-12.0607
▁swipe	-12.0607
▁transportation	-12.0607
▁recept	-12.0607
▁intuition	-12.0607
parts	-12.0607
▁yuck	-12.0607
▁millionaire	-12.0607
▁denise	-12.0607
▁preference	-12.0607
▁jules	-12.0607
▁amusement	-12.0607
▁socket	-12.0607
▁hamster	-12.0607
▁sebas	-12.0607
▁unbeiievabie	-12.0607
▁unmarried	-12.0607
▁envie	-12.0607
▁ellen	-12.0607
▁davy	-12.0607
▁delac	-12.0607
▁thatthat	-12.0607
▁bumble	-12.0607
▁bummer	-12.0607
▁casa	-12.0607
▁restraints	-12.0607
▁truce	-12.0607
▁aaaaah	-12.0607
▁searing	-12.0607
▁wills	-12.0607
diaries	-12.0607
▁tbone	-12.0607
▁retirement	-12.0607
▁rebellio	-12.0607
▁slas	-12.0608
▁brook	-12.0608
▁rake	-12.0608
▁extinguisher	-12.0608
ficit	-12.0608
▁georgetown	-12.0608
▁defile	-12.0608
▁perpetrator	-12.0608
▁crois	-12.0608
▁tempie	-12.0608
▁toad	-12.0608
▁pinot	-12.0608
▁checkmate	-12.0608
▁unofficially	-12.0608
▁protestant	-12.0608
▁sentimental	-12.0608
▁wons	-12.0608
▁litter	-12.0608
▁cotton	-12.0608
▁esco	-12.0608
▁iying	-12.0608
▁tangle	-12.0608
▁ofthing	-12.0608
▁apoiogize	-12.0608
▁kesslee	-12.0608
▁mazel	-12.0608
▁rubens	-12.0608
wield	-12.0608
▁harout	-12.0608
▁salute	-12.0608
▁supervisor	-12.0608
▁docket	-12.0608
▁anomaly	-12.0608
▁excellency	-12.0608
▁gravity	-12.0608
▁odyssey	-12.0608
brake	-12.0608
▁lilies	-12.0609
▁rash	-12.0609
▁testified	-12.0609
▁apiece	-12.0609
▁ajob	-12.0609
▁derri	-12.0609
▁pension	-12.0609
▁iost	-12.0609
▁unrest	-12.0609
▁observers	-12.0609
▁poppy	-12.0609
▁bold	-12.0609
▁diagnosis	-12.0609
▁vince	-12.0609
▁purity	-12.0609
▁finna	-12.0609
▁fiight	-12.0609
▁rooftop	-12.0609
▁mime	-12.0609
▁slov	-12.0609
drift	-12.0609
▁fisherman	-12.0609
demic	-12.0609
▁buren	-12.0609
▁decima	-12.0609
▁dunki	-12.0609
▁alias	-12.061
▁fiend	-12.061
▁dund	-12.061
▁textbook	-12.061
▁iphone	-12.061
▁faii	-12.061
▁convert	-12.061
▁undead	-12.061
▁petland	-12.061
▁prescribed	-12.061
▁provoked	-12.061
▁flavour	-12.061
▁ipad	-12.061
▁sensational	-12.061
▁absorb	-12.061
▁attaboy	-12.061
▁climate	-12.061
▁covid	-12.061
▁january	-12.061
▁normai	-12.061
▁daisy	-12.061
▁shelves	-12.061
ential	-12.061
▁centi	-12.061
▁sufficient	-12.061
▁parkway	-12.0611
▁wrinkles	-12.0611
▁parlo	-12.0611
▁dwell	-12.0611
▁flare	-12.0611
▁tempo	-12.0611
▁sinner	-12.0611
▁biff	-12.0611
▁patriotic	-12.0611
▁chatty	-12.0611
▁chaz	-12.0611
▁mutilation	-12.0611
▁rebuild	-12.0611
▁development	-12.0611
derate	-12.0611
▁radius	-12.0611
▁yuma	-12.0611
▁undies	-12.0611
▁shipping	-12.0611
▁shunt	-12.0611
▁booby	-12.0611
▁cooperation	-12.0611
▁satanist	-12.0611
▁bagged	-12.0611
▁surf	-12.0611
▁kha	-12.0611
vette	-12.0611
gular	-12.0611
▁waah	-12.0611
▁hiring	-12.0611
▁moose	-12.0611
▁galleri	-12.0612
▁igniti	-12.0612
▁babysit	-12.0612
▁egghead	-12.0612
▁titz	-12.0612
opulation	-12.0612
▁pollo	-12.0612
▁disney	-12.0612
▁barlow	-12.0612
▁retard	-12.0612
▁bouncer	-12.0612
▁seventeen	-12.0612
▁oftime	-12.0612
▁genetic	-12.0612
▁personalities	-12.0612
▁containment	-12.0612
▁kara	-12.0612
▁mario	-12.0612
pul	-12.0612
▁norma	-12.0612
▁milliondollar	-12.0612
▁trafficking	-12.0612
carriage	-12.0612
▁bewildered	-12.0612
▁tropical	-12.0612
▁guesthouse	-12.0613
endous	-12.0613
▁lamp	-12.0613
▁wits	-12.0613
▁courageous	-12.0613
▁resurrection	-12.0613
▁sixmonth	-12.0613
▁skies	-12.0613
▁polo	-12.0613
▁zulu	-12.0614
▁waking	-12.0614
▁pitty	-12.0614
▁poker	-12.0614
▁backstabbing	-12.0614
▁injection	-12.0614
▁psst	-12.0614
▁rhee	-12.0614
▁ohhh	-12.0614
▁travelling	-12.0614
▁verb	-12.0614
greatgrandmother	-12.0614
rinth	-12.0615
izz	-12.0615
▁alcoholic	-12.0615
▁villain	-12.0615
▁dickade	-12.0615
▁plight	-12.0615
▁phony	-12.0615
▁cockroaches	-12.0615
▁intentionally	-12.0615
▁chiid	-12.0615
▁nevin	-12.0615
▁shady	-12.0616
▁zeus	-12.0616
▁meaningless	-12.0616
▁experimentation	-12.0616
▁fel	-12.0616
▁bias	-12.0616
▁cris	-12.0616
▁technologi	-12.0616
derman	-12.0616
▁condescending	-12.0616
▁improvising	-12.0616
▁intensifying	-12.0616
▁tard	-12.0616
▁robber	-12.0616
▁mack	-12.0617
▁canoe	-12.0617
▁expe	-12.0617
▁imply	-12.0617
▁furthe	-12.0617
▁overhead	-12.0617
▁moth	-12.0617
▁roma	-12.0617
▁divest	-12.0618
▁thru	-12.0618
▁quoi	-12.0618
▁once	-12.0618
▁prawn	-12.0618
▁axelle	-12.0618
▁grr	-12.0619
▁wireless	-12.0619
▁livestock	-12.0619
▁meds	-12.0619
▁clueless	-12.0619
▁legitimate	-12.0619
▁mimic	-12.0619
▁zion	-12.0619
▁lightyear	-12.0619
stered	-12.0619
▁benj	-12.0619
▁vul	-12.0619
cence	-12.0619
▁macho	-12.062
▁macker	-12.062
▁panty	-12.062
▁savagely	-12.062
new	-12.062
▁ejaculat	-12.062
▁yield	-12.062
▁inquiry	-12.062
▁brag	-12.062
▁marim	-12.062
▁wilderness	-12.062
owned	-12.0621
cifi	-12.0621
▁leapt	-12.0621
join	-12.0622
▁subscriber	-12.0622
▁anhe	-12.0622
▁dose	-12.0622
▁mustache	-12.0622
▁blog	-12.0622
▁were	-12.0622
▁chica	-12.0622
▁stem	-12.0622
▁juror	-12.0623
▁regal	-12.0623
▁attachment	-12.0624
uaiiy	-12.0624
▁helio	-12.0624
▁hamburger	-12.0624
▁titter	-12.0624
▁hypnotize	-12.0625
▁bel	-12.0625
▁casing	-12.0625
▁caval	-12.0625
▁unsp	-12.0625
▁employer	-12.0626
appointed	-12.0626
▁uploaded	-12.0626
▁snatched	-12.0626
▁installed	-12.0626
▁published	-12.0626
hanno	-12.0626
asis	-12.0626
▁strangler	-12.0626
rizzle	-12.0627
▁severely	-12.0627
▁subj	-12.0627
▁newborn	-12.0628
roz	-12.0628
▁spru	-12.0628
▁noc	-12.0628
▁vera	-12.0628
▁haif	-12.0628
pirin	-12.0628
▁romanian	-12.0628
▁herr	-12.0629
▁lilly	-12.0629
▁jose	-12.0629
osa	-12.0629
▁auste	-12.0629
▁extensi	-12.063
▁fractured	-12.063
▁outraged	-12.063
▁stresses	-12.063
▁visc	-12.063
▁doable	-12.0631
▁projector	-12.0631
▁elsewhere	-12.0631
▁fatty	-12.0631
▁depress	-12.0632
▁thoroughly	-12.0632
▁poll	-12.0632
▁douse	-12.0632
▁bootleg	-12.0632
▁spotli	-12.0632
▁spice	-12.0632
▁grudge	-12.0632
▁mole	-12.0633
▁vena	-12.0633
▁shortage	-12.0633
▁villar	-12.0633
article	-12.0633
▁lax	-12.0634
mium	-12.0634
▁supporters	-12.0634
▁howre	-12.0635
▁rut	-12.0635
▁oversee	-12.0635
▁sanity	-12.0636
▁hookup	-12.0636
▁troll	-12.0636
▁indigen	-12.0637
▁babbling	-12.0637
▁stuttering	-12.0637
▁flattering	-12.0637
▁russ	-12.0638
▁dyin	-12.0638
▁beget	-12.0638
▁gaze	-12.0638
▁underestimated	-12.0638
▁lighthouse	-12.0639
ography	-12.0639
▁sitdown	-12.064
▁sig	-12.064
▁infla	-12.064
▁evacuated	-12.064
▁opposed	-12.064
▁compared	-12.064
▁pickles	-12.064
oach	-12.064
▁weaken	-12.064
▁icky	-12.064
▁loner	-12.0641
▁entertained	-12.0641
▁hideout	-12.0641
▁enjoyment	-12.0641
cop	-12.0642
▁piper	-12.0642
▁warmup	-12.0642
encies	-12.0642
▁warts	-12.0643
pending	-12.0643
▁prof	-12.0643
▁cruei	-12.0643
▁como	-12.0644
▁heathen	-12.0644
▁davidson	-12.0645
xter	-12.0645
▁hola	-12.0645
▁lockup	-12.0645
aila	-12.0645
▁specialty	-12.0645
▁selfie	-12.0646
▁irs	-12.0646
▁princesses	-12.0647
▁sunup	-12.0647
▁anthat	-12.0648
▁gravel	-12.0648
▁dire	-12.0649
▁bung	-12.065
▁deleted	-12.065
▁italy	-12.065
meal	-12.065
▁archer	-12.0651
skinned	-12.0651
▁litera	-12.0652
▁margaritas	-12.0653
▁shudders	-12.0653
▁pinched	-12.0653
▁logo	-12.0653
uk	-12.0653
ease	-12.0655
▁undercook	-12.0655
▁youse	-12.0655
▁shat	-12.0656
▁dome	-12.0657
▁grit	-12.0657
▁waik	-12.0657
▁achieved	-12.0658
▁bono	-12.0658
▁mocking	-12.0658
▁pastry	-12.0658
▁fidgeting	-12.0658
▁strolling	-12.0658
▁slurping	-12.0658
▁fulltime	-12.0659
▁developing	-12.0659
▁refus	-12.0659
▁nodd	-12.066
▁pronounced	-12.066
thought	-12.0661
▁alto	-12.0661
▁willy	-12.0661
▁showdown	-12.0662
▁childish	-12.0662
▁dove	-12.0662
▁taser	-12.0663
▁brushes	-12.0664
▁berg	-12.0664
▁mia	-12.0664
▁romeo	-12.0666
▁itin	-12.0666
recht	-12.0666
▁steph	-12.0667
▁woken	-12.0668
▁translated	-12.0668
▁undressed	-12.0668
▁booty	-12.0669
▁ration	-12.067
▁indicated	-12.067
▁gam	-12.067
▁armies	-12.0671
▁switches	-12.0671
▁dined	-12.0672
▁lineage	-12.0673
ortion	-12.0674
▁eternally	-12.0674
▁rib	-12.0674
▁fury	-12.0675
▁expired	-12.0676
▁deadline	-12.0676
▁troublemaker	-12.0677
▁playtime	-12.0677
▁macy	-12.0678
kicking	-12.0679
▁blackout	-12.0679
▁successfully	-12.0679
▁cramping	-12.068
▁proposed	-12.068
▁unlikely	-12.068
makers	-12.068
▁organise	-12.0681
▁gunmen	-12.0682
▁downloaded	-12.0683
▁invested	-12.0683
▁barge	-12.0686
▁bein	-12.0686
▁skilled	-12.0686
▁toby	-12.0688
▁corny	-12.0688
▁chillin	-12.0688
▁gman	-12.069
▁absolve	-12.0692
▁nono	-12.0694
▁dat	-12.0694
▁revealed	-12.0697
twood	-12.0697
▁flushed	-12.0698
▁mothership	-12.0698
pment	-12.0701
▁sel	-12.0701
vation	-12.0701
▁included	-12.0702
told	-12.0702
▁sailing	-12.0703
pher	-12.0704
▁mangle	-12.0705
illion	-12.0706
▁forb	-12.0707
uates	-12.071
▁pisses	-12.071
▁smoothly	-12.0711
▁creamer	-12.0712
▁mea	-12.0713
▁whacked	-12.0713
▁hesitating	-12.0713
▁sang	-12.0715
▁fal	-12.0716
▁whereve	-12.0717
▁handler	-12.0719
▁bulletin	-12.0719
▁picket	-12.0719
▁gaine	-12.072
▁semina	-12.0721
abolis	-12.0721
▁multiply	-12.0721
working	-12.0721
▁greeting	-12.0723
▁midw	-12.0723
▁steele	-12.0723
▁vaginae	-12.0724
▁trumped	-12.0726
▁ox	-12.0726
▁fang	-12.0726
▁wandered	-12.0726
▁insta	-12.0726
▁complained	-12.0726
semblance	-12.0727
▁swapp	-12.0728
▁perverted	-12.0728
▁cowardly	-12.0729
▁poly	-12.0729
▁cigz	-12.0732
▁muffie	-12.0732
▁makeover	-12.0732
▁sanctuar	-12.0735
▁drapes	-12.0736
▁oxys	-12.0737
▁reloads	-12.0737
▁chrissakes	-12.0737
▁gestures	-12.0737
▁probiems	-12.0737
▁hassles	-12.0737
icia	-12.0737
▁brat	-12.0738
▁chastise	-12.0738
▁validate	-12.0738
▁instructors	-12.0738
▁ambushed	-12.074
▁breached	-12.074
▁dehydrat	-12.0741
▁bigtime	-12.0743
▁appealing	-12.0744
▁flushing	-12.0745
▁musician	-12.0745
▁stinger	-12.0746
▁sav	-12.0746
▁simpler	-12.0749
▁nest	-12.0749
▁consideration	-12.075
gator	-12.0752
▁genes	-12.0754
▁rapp	-12.0754
sional	-12.0755
▁perp	-12.0755
airy	-12.0756
▁funnie	-12.0758
iger	-12.0758
▁updated	-12.0759
▁stopper	-12.0763
best	-12.0765
▁recovering	-12.0767
▁antid	-12.0767
▁trooper	-12.0768
▁attempted	-12.0769
▁resisted	-12.0769
▁conditioner	-12.0769
▁gand	-12.0771
▁ave	-12.0774
▁refil	-12.0774
▁rubber	-12.0776
▁lang	-12.0782
▁reconsider	-12.0788
▁pss	-12.0788
▁jackie	-12.0788
▁lone	-12.079
▁melting	-12.079
▁repress	-12.0791
▁sper	-12.0794
▁flashed	-12.0799
▁pled	-12.0799
▁nause	-12.0799
▁neon	-12.0802
▁engineering	-12.0802
▁insulting	-12.081
onald	-12.0813
▁senor	-12.0815
▁warmin	-12.0821
▁musicians	-12.0823
▁pauses	-12.0823
▁hein	-12.0823
▁slices	-12.0824
▁economics	-12.0824
▁enterprises	-12.0824
▁essences	-12.0824
▁items	-12.0824
▁mugs	-12.0825
▁refugee	-12.0825
▁marines	-12.0825
▁martyrs	-12.0826
▁organs	-12.0826
▁passports	-12.0826
▁approached	-12.0828
▁exceptions	-12.0829
▁cher	-12.0831
▁commissioner	-12.0833
soun	-12.0834
▁cremat	-12.0834
▁rangers	-12.0835
▁tuned	-12.0838
▁retain	-12.084
before	-12.0842
▁secured	-12.0844
▁dees	-12.0844
▁venu	-12.0847
tains	-12.0847
nquer	-12.0847
▁contractor	-12.0848
▁demonstration	-12.0849
▁celebrated	-12.085
▁poke	-12.0851
▁nond	-12.0852
▁freaky	-12.0852
▁slider	-12.0854
▁manif	-12.0857
always	-12.0857
▁seasoning	-12.0858
▁unite	-12.086
▁handlers	-12.0862
entures	-12.087
▁emailed	-12.087
▁missus	-12.0875
▁holdup	-12.0879
▁connecting	-12.0882
▁flyin	-12.0884
▁dod	-12.0884
▁nee	-12.089
▁interrupting	-12.0899
▁fogg	-12.0899
▁flasher	-12.0899
▁surre	-12.0901
▁pounding	-12.0903
▁excitedly	-12.0903
▁container	-12.0903
▁lifers	-12.0905
▁pike	-12.0905
giving	-12.0918
▁lud	-12.0921
▁comedy	-12.0925
▁smashing	-12.0927
▁defended	-12.093
▁hardman	-12.0935
▁laughin	-12.0935
▁hooky	-12.0939
▁borrowed	-12.0944
▁burner	-12.0947
pen	-12.0948
▁mugg	-12.095
addy	-12.0953
▁cryin	-12.0955
▁wilde	-12.0957
whwhat	-12.0963
▁seeds	-12.0968
adio	-12.0968
ace	-12.0977
ports	-12.0984
▁jewel	-12.0985
▁tricking	-12.0992
gri	-12.0993
yayay	-12.0997
ripped	-12.0998
▁unsee	-12.1007
vory	-12.1007
▁richer	-12.1007
▁kissin	-12.101
▁eiectr	-12.101
kins	-12.1025
▁dreamin	-12.103
▁continued	-12.1035
▁cord	-12.1036
▁roller	-12.104
▁singer	-12.1041
▁fallin	-12.1052
▁announced	-12.1062
▁followin	-12.1063
storm	-12.1068
beii	-12.1069
▁owen	-12.1085
▁farn	-12.1088
▁fock	-12.1094
▁fou	-12.1111
umbles	-12.1112
▁noted	-12.1126
immigrant	-12.113
historic	-12.1137
ggie	-12.1141
▁wai	-12.1151
siege	-12.1152
generate	-12.116
nsils	-12.1167
▁martyr	-12.1168
▁foreigner	-12.1176
rifies	-12.1183
▁cig	-12.1203
▁detaine	-12.1211
▁callback	-12.1219
itty	-12.1219
▁aba	-12.1225
▁mccl	-12.1231
▁friggin	-12.1233
ota	-12.1244
▁ciear	-12.1287
unctio	-12.1293
dental	-12.1303
▁influenc	-12.1312
▁wrapp	-12.1324
▁groupie	-12.1329
▁gale	-12.1329
▁shawn	-12.1344
▁carp	-12.1355
▁zipper	-12.1355
▁haz	-12.1358
▁sleepin	-12.136
dependent	-12.1368
▁breakin	-12.1372
▁happenin	-12.1398
▁allo	-12.1408
▁ramp	-12.1422
▁toaster	-12.1429
▁selfrighteous	-12.1445
▁isl	-12.1459
equity	-12.147
rax	-12.1491
▁phi	-12.1495
▁cheet	-12.1524
hro	-12.1532
imp	-12.1557
ndal	-12.1557
find	-12.158
▁rais	-12.1593
▁bugg	-12.1594
▁bac	-12.1596
cinna	-12.1608
cuba	-12.1614
▁marker	-12.1638
▁initiate	-12.164
▁brownie	-12.1656
▁cornel	-12.1665
mortality	-12.1704
▁strangle	-12.1716
▁prepp	-12.1726
▁realiz	-12.1728
▁inquir	-12.1736
nose	-12.1744
osse	-12.1785
▁concei	-12.1793
puppies	-12.181
▁excla	-12.1818
▁pil	-12.1864
▁nola	-12.1876
uv	-12.1884
▁anyou	-12.19
▁whoop	-12.1933
▁stra	-12.1962
▁wooo	-12.2017
vated	-12.2043
oid	-12.2051
eels	-12.2058
▁sill	-12.2061
▁brin	-12.2076
▁civiliz	-12.209
▁inconsisten	-12.2093
simo	-12.2102
zers	-12.2105
▁squeez	-12.211
▁wor	-12.2112
onym	-12.213
▁muff	-12.2145
▁hur	-12.2146
ride	-12.215
▁summ	-12.215
monition	-12.2152
▁disab	-12.2163
▁desp	-12.2204
▁deprive	-12.2205
▁evaluate	-12.2215
▁ket	-12.2254
▁deriv	-12.2259
ucking	-12.2284
▁intimidate	-12.2305
wincy	-12.2316
amor	-12.2323
▁grieve	-12.2328
bilities	-12.2332
▁pun	-12.2394
amic	-12.2403
▁bullie	-12.2408
▁ledge	-12.2429
▁obi	-12.243
ketch	-12.2433
▁dum	-12.2451
▁prec	-12.2451
▁perm	-12.2458
▁just	-12.2464
▁simul	-12.257
▁pul	-12.2623
▁whale	-12.2637
graphic	-12.2677
▁stoo	-12.2684
jack	-12.2744
nyl	-12.2746
isse	-12.2771
logy	-12.281
▁nyu	-12.2813
hhhh	-12.2842
▁arrang	-12.2856
▁rehears	-12.287
▁chur	-12.2881
▁recit	-12.2893
ilities	-12.2918
▁fol	-12.2944
▁unti	-12.2961
▁anim	-12.2964
▁comfortabl	-12.3014
imaginable	-12.302
▁impose	-12.3022
▁sni	-12.3038
▁garb	-12.3054
▁benevolen	-12.3059
aid	-12.3064
oza	-12.3124
▁coincid	-12.3141
ggs	-12.3158
pster	-12.3252
far	-12.3289
ami	-12.3295
▁platin	-12.3332
muffin	-12.3339
gnac	-12.3356
▁derive	-12.3381
▁cou	-12.3383
gerald	-12.3409
zzo	-12.3422
▁wag	-12.3427
copter	-12.3428
aaa	-12.3429
▁admoni	-12.3496
ofthem	-12.3517
▁urg	-12.3563
rance	-12.3568
▁capt	-12.3591
chu	-12.3604
▁harl	-12.3615
▁contribute	-12.3621
lio	-12.3634
acial	-12.3644
ublin	-12.3653
▁muc	-12.3685
ulas	-12.3688
▁virg	-12.3689
dozer	-12.3689
havin	-12.3706
zzz	-12.3727
▁fav	-12.3753
▁spar	-12.38
rez	-12.3802
pier	-12.3835
incest	-12.3859
arb	-12.3865
fulfilled	-12.3875
▁bruis	-12.3881
hhh	-12.3901
▁ava	-12.3925
anda	-12.3934
voir	-12.405
tained	-12.4058
▁cla	-12.4143
tycoo	-12.4146
utton	-12.4147
▁stea	-12.4149
rname	-12.418
sucker	-12.4213
soaked	-12.4217
antucke	-12.4254
round	-12.4276
inner	-12.4384
operating	-12.4397
hall	-12.4399
▁embrac	-12.4407
cro	-12.444
▁recurr	-12.4444
▁rosa	-12.4453
logical	-12.4462
▁baste	-12.4471
▁concentrat	-12.4525
quality	-12.4567
aul	-12.4575
▁pieas	-12.4584
▁impos	-12.4626
maker	-12.4626
apis	-12.4639
ature	-12.4662
mation	-12.4668
▁mcc	-12.4674
itting	-12.4675
mme	-12.4707
flower	-12.474
▁kat	-12.4741
olic	-12.4775
anned	-12.4776
▁disc	-12.4782
▁histori	-12.4791
▁robbin	-12.4814
hard	-12.4859
jang	-12.4898
orno	-12.491
alities	-12.4949
cative	-12.4983
▁schei	-12.4986
escent	-12.4995
nique	-12.4999
arium	-12.503
aire	-12.5041
uity	-12.5073
▁cram	-12.5084
▁gene	-12.5094
tterd	-12.512
rehouse	-12.5151
▁technic	-12.5162
cuz	-12.5165
factory	-12.5189
▁genera	-12.5189
zac	-12.5201
dda	-12.5217
cluded	-12.5227
▁laur	-12.5257
rah	-12.5259
▁kidnap	-12.5282
rome	-12.5298
cardin	-12.5344
▁hoho	-12.535
▁proc	-12.5355
▁probiem	-12.5392
▁gesture	-12.5392
▁chrissake	-12.5392
▁hassle	-12.5392
▁shel	-12.5392
therapy	-12.5394
▁machin	-12.5397
cessor	-12.5402
▁messag	-12.5402
▁instructor	-12.5402
exist	-12.5404
▁prospect	-12.5405
zzling	-12.5406
▁vegetable	-12.5407
▁reload	-12.5408
▁accusation	-12.5408
▁flea	-12.5411
▁democrat	-12.5415
▁debat	-12.5416
▁coordinate	-12.5416
▁thistle	-12.5416
▁requirement	-12.5416
oop	-12.5418
▁consequence	-12.5418
▁resource	-12.5418
▁requir	-12.542
▁oxy	-12.5423
▁subtitle	-12.5427
▁instruction	-12.5428
fth	-12.5429
▁stair	-12.5432
▁grownup	-12.5434
▁drape	-12.5436
▁rhym	-12.5436
▁yawn	-12.5447
estimated	-12.5456
talkin	-12.5464
▁onion	-12.5469
izza	-12.5477
▁sarc	-12.5485
▁tran	-12.5486
▁publish	-12.5487
▁tyre	-12.5488
▁snor	-12.5489
cooked	-12.55
▁ahhh	-12.5501
▁diplomat	-12.5511
▁invit	-12.5517
▁cheerlead	-12.5517
▁coupl	-12.5518
▁surround	-12.5523
▁zap	-12.5524
▁supplie	-12.5524
▁amu	-12.5525
▁plumb	-12.5527
bler	-12.5528
figured	-12.5529
▁educat	-12.5537
▁flatter	-12.5537
trained	-12.5538
▁skee	-12.5538
▁twink	-12.554
▁thundercl	-12.5542
tards	-12.5544
▁remov	-12.5547
▁releas	-12.5548
▁promot	-12.5551
▁stutter	-12.5552
▁troubl	-12.5553
hurst	-12.5553
▁issu	-12.5553
▁overreact	-12.5554
▁stunn	-12.5555
▁appetit	-12.5555
heart	-12.5555
holder	-12.5555
▁encourag	-12.5556
▁declar	-12.5557
▁phon	-12.5558
▁profil	-12.5561
▁commute	-12.5562
earned	-12.5563
count	-12.5563
▁install	-12.5563
▁blackmail	-12.5566
base	-12.5567
▁snatch	-12.5569
▁chocolat	-12.557
ezvous	-12.5571
▁obsess	-12.5571
▁transform	-12.5571
▁accomplish	-12.5571
▁upload	-12.5572
▁suspend	-12.5573
founder	-12.5573
nag	-12.5573
▁specifi	-12.5574
▁subscribe	-12.5576
▁acquire	-12.5577
▁web	-12.5577
▁aaaah	-12.5578
craft	-12.5578
▁dunn	-12.5578
charge	-12.5579
mount	-12.5579
depress	-12.5579
whacked	-12.5579
ejaculat	-12.5579
yield	-12.5579
married	-12.5579
▁nurs	-12.5579
spice	-12.558
▁peck	-12.558
replac	-12.558
wipe	-12.558
nails	-12.558
wind	-12.558
flake	-12.558
occupied	-12.558
author	-12.558
cloth	-12.558
amids	-12.5581
▁arrogan	-12.5581
significant	-12.5581
egitimate	-12.5581
scrap	-12.5581
buckle	-12.5581
fashion	-12.5581
grain	-12.5582
chambers	-12.5582
alcohol	-12.5582
privilege	-12.5582
honored	-12.5582
inherit	-12.5582
regard	-12.5582
▁expan	-12.5582
text	-12.5582
organize	-12.5582
pound	-12.5582
thirsty	-12.5582
skirt	-12.5582
trapped	-12.5582
▁hostin	-12.5582
precise	-12.5582
digger	-12.5582
skull	-12.5582
carl	-12.5582
advantage	-12.5582
cutting	-12.5582
safe	-12.5583
deserved	-12.5583
after	-12.5583
heroin	-12.5583
guts	-12.5583
drum	-12.5583
brush	-12.5583
paper	-12.5583
grown	-12.5583
▁wicke	-12.5583
johnson	-12.5583
statement	-12.5583
dealer	-12.5583
bury	-12.5583
involved	-12.5583
silver	-12.5583
decision	-12.5583
pressure	-12.5583
bedroom	-12.5583
breath	-12.5583
elizabeth	-12.5583
perhaps	-12.5583
shift	-12.5583
finished	-12.5583
third	-12.5583
definitely	-12.5583
bond	-12.5583
distance	-12.5583
grab	-12.5583
american	-12.5583
speed	-12.5583
important	-12.5583
▁preten	-12.5583
held	-12.5583
number	-12.5583
suspect	-12.5583
death	-12.5583
wide	-12.5583
sweet	-12.5583
holding	-12.5584
credit	-12.5584
picture	-12.5584
breast	-12.5584
slave	-12.5584
scale	-12.5584
prick	-12.5584
theres	-12.5585
due	-12.5585
constructi	-12.5585
intens	-12.5585
sorry	-12.5585
smear	-12.5585
finance	-12.5585
piace	-12.5585
▁engage	-12.5586
▁strik	-12.5587
▁motherfuck	-12.5587
sixth	-12.5587
ultation	-12.5587
▁negotiat	-12.5587
▁therap	-12.5587
▁anticipate	-12.5587
droid	-12.5587
▁rabbi	-12.5587
▁jerem	-12.5587
license	-12.5587
▁strateg	-12.5588
cold	-12.5588
aneous	-12.5588
▁penetrat	-12.5589
▁constant	-12.5589
final	-12.5589
▁thirst	-12.5589
▁ceremon	-12.5589
▁theatr	-12.5589
▁ministr	-12.5589
▁societ	-12.559
▁territor	-12.559
▁interfer	-12.559
▁abrupt	-12.559
▁securit	-12.559
apia	-12.559
tax	-12.5591
▁vassar	-12.5591
record	-12.5591
▁positiv	-12.5591
▁felon	-12.5592
andson	-12.5592
▁slur	-12.5593
▁moderate	-12.5593
aware	-12.5593
flight	-12.5593
girl	-12.5593
whatever	-12.5593
▁doom	-12.5593
[...]
