<unk>	0
<s>	0
</s>	0
s	-3.34699
▁im	-4.4986
▁dont	-4.60025
▁know	-4.61981
▁get	-4.79642
▁go	-4.87578
▁right	-4.91402
▁like	-4.95514
▁oh	-4.97753
▁come	-4.99532
▁yeah	-5.01848
▁youre	-5.0259
▁got	-5.03204
ing	-5.11519
ed	-5.18853
▁well	-5.19238
▁thats	-5.21897
▁na	-5.22047
▁one	-5.25446
▁okay	-5.29603
▁good	-5.38535
▁want	-5.41276
▁think	-5.41727
▁see	-5.46885
▁hey	-5.48938
▁gon	-5.50825
d	-5.54654
▁man	-5.60925
▁look	-5.62173
▁back	-5.64882
▁	-5.68707
▁l	-5.72288
▁time	-5.72458
▁take	-5.73149
▁yes	-5.73509
▁us	-5.748
▁going	-5.75657
▁ill	-5.76906
▁hes	-5.78065
▁cant	-5.82331
y	-5.86049
▁tell	-5.87362
▁say	-5.8761
▁would	-5.92214
▁need	-5.93362
er	-5.95213
▁really	-5.96818
▁something	-6.00316
▁could	-6.04115
p	-6.05384
▁little	-6.0551
▁way	-6.06107
▁didnt	-6.08144
▁whats	-6.08283
▁make	-6.08844
▁never	-6.09291
▁let	-6.09927
▁love	-6.10098
▁sorry	-6.10649
▁lets	-6.11057
▁mean	-6.12188
▁please	-6.13081
▁thank	-6.1445
e	-6.17607
t	-6.22919
▁give	-6.23213
▁god	-6.25944
▁theres	-6.25947
▁ive	-6.29648
ly	-6.32009
in	-6.32921
▁shit	-6.3516
▁help	-6.35448
▁two	-6.35505
▁thing	-6.36204
▁said	-6.36567
▁people	-6.3675
▁fuck	-6.37811
n	-6.38539
▁wait	-6.40403
▁mr	-6.43443
▁sure	-6.44834
▁day	-6.45358
▁stop	-6.45716
▁shes	-6.46107
▁much	-6.47117
▁fucking	-6.50415
a	-6.50628
▁home	-6.50875
▁call	-6.51015
▁even	-6.51897
▁great	-6.52115
▁uh	-6.52723
▁find	-6.53685
r	-6.54542
▁life	-6.55176
▁put	-6.56046
▁maybe	-6.56224
▁night	-6.56627
▁still	-6.58537
▁theyre	-6.5881
▁work	-6.5903
▁ta	-6.59379
▁first	-6.60297
▁guys	-6.60421
o	-6.61543
i	-6.62882
▁keep	-6.63747
▁anything	-6.64359
▁nothing	-6.64657
▁hi	-6.64772
▁sir	-6.66447
▁better	-6.66888
▁new	-6.67691
▁talk	-6.67991
▁thought	-6.68604
▁away	-6.71083
▁guy	-6.71419
▁ever	-6.7154
▁hell	-6.72248
▁last	-6.75415
l	-6.7585
▁car	-6.77683
▁wan	-6.77925
▁must	-6.78964
▁baby	-6.79498
▁name	-6.79744
▁around	-6.80865
▁feel	-6.8105
▁always	-6.81153
▁nice	-6.81679
▁everything	-6.81725
▁stay	-6.8291
▁long	-6.83368
▁leave	-6.83724
al	-6.84967
▁things	-6.8547
▁id	-6.86588
es	-6.8673
▁old	-6.8694
▁big	-6.86981
m	-6.87354
▁youve	-6.87771
▁hello	-6.88053
▁believe	-6.88132
▁told	-6.88395
▁every	-6.89584
▁years	-6.90632
▁hear	-6.91887
▁kind	-6.92272
▁wont	-6.92376
▁boy	-6.92452
▁place	-6.92571
g	-6.93165
or	-6.93785
▁coming	-6.94466
▁house	-6.95075
▁made	-6.95123
▁girl	-6.9531
▁listen	-6.95678
en	-6.96744
▁remember	-6.96863
▁three	-6.96869
b	-6.97167
▁kill	-6.97294
▁lot	-6.97667
▁youll	-6.97948
▁dad	-6.98448
▁bad	-6.99434
▁doesnt	-6.99599
k	-7.0168
▁fine	-7.01952
▁money	-7.0199
▁hold	-7.02006
▁done	-7.0264
▁world	-7.02992
▁real	-7.03038
le	-7.03378
▁move	-7.04116
▁mom	-7.04631
▁huh	-7.04924
▁wrong	-7.0575
▁woman	-7.05759
c	-7.06692
▁dead	-7.07612
▁music	-7.08292
▁miss	-7.08716
▁thanks	-7.09365
▁left	-7.09441
▁course	-7.09823
▁son	-7.10449
▁talking	-7.11348
▁understand	-7.11364
▁someone	-7.11442
▁isnt	-7.11834
▁show	-7.11993
▁enough	-7.12306
▁best	-7.12409
▁happened	-7.12733
▁door	-7.13247
▁may	-7.13594
▁play	-7.14953
▁mother	-7.15354
▁try	-7.15539
▁might	-7.16286
▁next	-7.18395
▁care	-7.18717
▁getting	-7.18832
▁ok	-7.19097
▁ask	-7.20398
▁mind	-7.20978
▁else	-7.2112
▁de	-7.218
▁head	-7.21925
▁another	-7.22671
▁friend	-7.24279
▁wanted	-7.24924
▁open	-7.26918
▁aint	-7.2723
h	-7.28005
▁um	-7.28156
▁trying	-7.28549
ic	-7.28676
▁die	-7.28824
▁came	-7.28914
▁ready	-7.28979
ch	-7.29131
▁today	-7.29263
▁run	-7.30235
▁found	-7.3106
v	-7.31313
▁guess	-7.31623
▁looking	-7.31881
▁room	-7.31935
▁hope	-7.32198
▁father	-7.32371
▁end	-7.3272
▁watch	-7.33398
▁wasnt	-7.3365
▁job	-7.33874
u	-7.3436
▁morning	-7.34828
ri	-7.3513
▁cause	-7.35621
▁family	-7.35918
▁live	-7.36202
▁ah	-7.36279
▁phone	-7.3642
▁idea	-7.37461
▁hard	-7.37466
▁whoa	-7.37735
▁bring	-7.37744
▁playing	-7.37759
▁lm	-7.38059
f	-7.38324
▁tonight	-7.38546
▁kid	-7.38638
▁meet	-7.38679
▁start	-7.38888
ar	-7.40032
▁actually	-7.40102
▁whole	-7.40306
▁saw	-7.40425
▁everybody	-7.4051
ion	-7.4059
▁pretty	-7.40615
▁turn	-7.40949
an	-7.4102
▁wouldnt	-7.42109
▁knew	-7.42196
▁school	-7.42313
▁excuse	-7.42728
▁face	-7.42969
▁together	-7.43592
▁hand	-7.43683
▁seen	-7.44229
▁many	-7.44384
▁shut	-7.44567
▁happy	-7.44891
▁damn	-7.4523
w	-7.45243
▁heard	-7.46108
man	-7.46501
▁men	-7.4662
▁whos	-7.47046
▁friends	-7.48397
▁weve	-7.48672
▁use	-7.49295
▁kids	-7.49633
▁alone	-7.49702
us	-7.50271
▁sit	-7.50792
▁tomorrow	-7.51891
re	-7.52547
▁bit	-7.52753
▁saying	-7.53185
▁already	-7.53543
ie	-7.54385
▁fire	-7.54389
▁honey	-7.54867
▁fight	-7.55102
▁part	-7.55287
el	-7.55339
▁used	-7.55444
▁called	-7.55928
▁went	-7.55973
▁took	-7.56322
▁lost	-7.56341
▁ha	-7.56351
▁matter	-7.56479
ers	-7.56841
▁second	-7.57079
▁heart	-7.57183
▁hit	-7.57254
▁yet	-7.57565
▁ass	-7.57801
▁re	-7.58181
▁point	-7.58182
▁beautiful	-7.58795
▁five	-7.5886
z	-7.5916
▁eat	-7.59264
▁minute	-7.59535
▁s	-7.59652
▁without	-7.61206
▁un	-7.61326
ation	-7.61841
▁true	-7.61852
▁problem	-7.62097
ra	-7.62132
▁havent	-7.62239
ve	-7.6224
▁business	-7.62369
▁crazy	-7.6276
▁days	-7.62794
on	-7.63638
▁somebody	-7.64073
▁gone	-7.64176
▁wife	-7.64205
▁worry	-7.64337
▁everyone	-7.64506
▁check	-7.64531
▁stuff	-7.64745
▁ago	-7.64774
ur	-7.66042
▁chuckles	-7.66367
▁killed	-7.66493
▁dog	-7.66558
▁laughing	-7.66826
st	-7.67231
▁pay	-7.67338
▁inside	-7.67578
▁couldnt	-7.67578
▁four	-7.67701
est	-7.67732
▁hurt	-7.68049
▁water	-7.68457
▁youd	-7.68539
▁easy	-7.68671
▁anyone	-7.68949
▁year	-7.69147
▁supposed	-7.69219
▁close	-7.69242
▁late	-7.69312
▁mine	-7.69358
▁dr	-7.69456
▁far	-7.69479
it	-7.69582
▁sighs	-7.69585
▁sleep	-7.70034
▁fun	-7.70044
▁drink	-7.7046
▁probably	-7.71621
▁minutes	-7.71646
▁young	-7.71655
▁em	-7.71822
la	-7.72278
▁read	-7.72631
▁break	-7.73073
▁forget	-7.73322
▁red	-7.73623
▁anyway	-7.73928
▁cut	-7.73981
▁later	-7.74265
▁grunts	-7.74282
▁wheres	-7.74597
▁deal	-7.7486
▁in	-7.74907
▁eyes	-7.75068
▁since	-7.75109
▁john	-7.7536
▁whatever	-7.75398
▁brother	-7.75412
▁wow	-7.75719
▁jack	-7.75902
▁stand	-7.75904
▁jesus	-7.7674
▁story	-7.77043
▁walk	-7.77434
▁game	-7.77605
▁set	-7.77641
▁says	-7.77878
▁black	-7.78097
▁looks	-7.78138
▁met	-7.78322
▁rest	-7.79044
▁gun	-7.79588
▁hands	-7.79631
▁la	-7.79693
▁change	-7.79711
▁bitch	-7.80704
▁welcome	-7.81031
▁light	-7.81642
▁wish	-7.81718
▁cool	-7.81827
▁hot	-7.8214
▁mrs	-7.82251
▁side	-7.82419
te	-7.82854
▁happen	-7.83265
▁nbs	-7.84053
▁exactly	-7.84072
▁death	-7.84375
▁town	-7.84738
▁soon	-7.84961
▁chance	-7.85033
▁high	-7.85045
▁thinking	-7.85531
▁person	-7.85738
▁dear	-7.86039
ul	-7.86052
▁afraid	-7.86338
ter	-7.86678
▁police	-7.86835
▁a	-7.87058
▁king	-7.87174
▁nobody	-7.87493
▁mo	-7.88153
▁laughs	-7.88169
▁children	-7.88853
▁working	-7.89139
▁hang	-7.89295
▁captain	-7.89867
▁dude	-7.89891
▁taking	-7.89916
▁blood	-7.89938
▁though	-7.90006
▁hate	-7.90114
th	-7.90139
▁word	-7.90231
is	-7.90365
▁shot	-7.90494
▁week	-7.90573
▁gasps	-7.90953
▁k	-7.91262
▁six	-7.91619
▁th	-7.91652
▁safe	-7.91777
ment	-7.91999
il	-7.92405
▁war	-7.92506
▁air	-7.92529
▁white	-7.92861
▁gave	-7.93011
▁number	-7.93159
▁e	-7.93543
▁dream	-7.93822
▁drive	-7.93974
▁win	-7.94033
▁half	-7.94159
▁power	-7.9449
▁trust	-7.94768
▁bed	-7.94959
▁making	-7.95012
▁book	-7.95729
▁trouble	-7.9586
▁moment	-7.95981
▁question	-7.96086
▁anybody	-7.96407
ro	-7.96715
▁hmm	-7.96793
▁free	-7.96962
▁girls	-7.97191
ies	-7.97237
▁screaming	-7.97291
na	-7.98195
▁pick	-7.98237
▁f	-7.98374
▁line	-7.98532
▁anymore	-7.99561
▁husband	-7.99561
▁daddy	-7.99611
▁bye	-7.99942
▁ho	-7.9998
able	-7.99983
▁speak	-7.99997
et	-8.00023
▁different	-8.00128
▁party	-8.00199
▁promise	-8.00315
▁almost	-8.00698
▁child	-8.0088
▁daughter	-8.00889
ta	-8.01346
▁yo	-8.01356
▁boys	-8.01597
ne	-8.01728
▁lady	-8.01743
ent	-8.0186
▁lord	-8.0301
▁plan	-8.0326
▁reason	-8.03404
▁shoot	-8.03871
ive	-8.04058
▁sweet	-8.04334
▁st	-8.04439
▁funny	-8.04603
▁ya	-8.04699
▁clear	-8.04832
▁outside	-8.05186
▁continues	-8.052
▁alive	-8.05623
▁doctor	-8.05624
ate	-8.05817
▁g	-8.05909
ia	-8.06159
▁wants	-8.06498
▁touch	-8.06641
▁sister	-8.06649
um	-8.06805
▁arent	-8.07009
▁save	-8.07038
▁couple	-8.07401
▁hours	-8.07404
▁shall	-8.07819
▁also	-8.08019
▁body	-8.08024
▁bet	-8.08875
▁quite	-8.09145
▁sometimes	-8.09264
▁follow	-8.09358
▁died	-8.09401
ton	-8.09568
▁stupid	-8.09669
▁goes	-8.10169
▁city	-8.10329
▁full	-8.10434
▁makes	-8.10818
▁behind	-8.11139
▁goddamn	-8.11351
▁least	-8.11564
up	-8.1159
▁answer	-8.11692
▁c	-8.12025
to	-8.12212
▁dance	-8.12381
▁asked	-8.13586
▁bar	-8.13603
▁rock	-8.13627
de	-8.13782
▁lts	-8.13846
▁al	-8.14092
▁sick	-8.14576
▁perfect	-8.14851
▁voice	-8.14948
▁order	-8.15042
id	-8.15094
▁important	-8.15244
▁team	-8.15295
▁song	-8.15535
ist	-8.156
li	-8.15922
▁sound	-8.15926
▁send	-8.16009
ck	-8.1603
less	-8.16077
▁fast	-8.16125
▁i	-8.16342
▁married	-8.16352
▁telling	-8.16369
▁buy	-8.16484
ry	-8.16601
▁times	-8.17204
▁sounds	-8.1735
ant	-8.17438
ce	-8.17937
▁alice	-8.17939
▁radio	-8.1817
se	-8.18268
▁case	-8.18352
▁special	-8.18381
▁ooh	-8.18596
▁ahead	-8.18624
▁truth	-8.19064
▁front	-8.19081
▁lose	-8.19358
▁started	-8.1938
▁clean	-8.19391
▁mark	-8.19424
▁control	-8.19523
at	-8.19596
▁step	-8.19971
▁food	-8.19985
▁en	-8.20064
▁speaking	-8.20475
ian	-8.20641
▁eye	-8.20772
ful	-8.20904
▁beat	-8.20988
sh	-8.21067
▁grunting	-8.21204
▁months	-8.21233
▁hurry	-8.21382
ty	-8.21392
▁heres	-8.21585
▁hair	-8.21717
ma	-8.22033
▁catch	-8.22169
▁waiting	-8.22178
▁b	-8.22208
▁scared	-8.22418
ll	-8.2254
nt	-8.22624
am	-8.22726
▁pull	-8.22855
ity	-8.22953
▁tried	-8.22957
▁living	-8.23041
▁running	-8.23059
▁feeling	-8.23187
x	-8.23251
▁small	-8.23258
ling	-8.23545
ge	-8.23753
▁peter	-8.24217
▁sign	-8.24422
▁dinner	-8.24477
▁hows	-8.24481
▁means	-8.24649
▁women	-8.24722
▁groans	-8.24734
▁either	-8.24962
▁ten	-8.25097
▁bill	-8.25374
▁p	-8.25767
▁hour	-8.25999
▁human	-8.26195
▁top	-8.2625
▁ow	-8.26642
▁train	-8.27277
▁ride	-8.27446
▁drop	-8.28687
ke	-8.28733
▁cold	-8.28841
▁con	-8.28851
co	-8.28934
▁wake	-8.28941
▁mad	-8.29554
▁ship	-8.2956
▁itll	-8.29696
▁till	-8.29916
▁mama	-8.30108
▁road	-8.3021
▁finally	-8.30546
ous	-8.30675
un	-8.30705
▁serious	-8.31311
▁street	-8.31475
▁sex	-8.31507
oo	-8.31842
▁christ	-8.31868
▁jay	-8.31884
▁co	-8.3225
▁leaving	-8.32273
▁luck	-8.32359
▁ex	-8.32594
▁theyll	-8.32794
▁van	-8.33058
▁kidding	-8.33349
▁paul	-8.33354
▁throw	-8.33365
▁fall	-8.33737
▁along	-8.33858
▁sh	-8.34503
▁seems	-8.34869
▁o	-8.35342
▁million	-8.35466
▁fear	-8.35482
▁weird	-8.35728
▁parents	-8.35878
▁mmm	-8.36069
ting	-8.36292
▁lucky	-8.36294
▁news	-8.3653
▁seven	-8.36552
▁mike	-8.36815
▁dark	-8.37343
▁ladies	-8.37377
▁lives	-8.37494
▁fact	-8.37559
▁land	-8.37567
▁straight	-8.3764
▁brought	-8.37641
▁mouth	-8.37682
lo	-8.37753
▁v	-8.37908
▁buddy	-8.38198
▁fuckin	-8.383
▁become	-8.38472
son	-8.38477
▁glad	-8.38844
▁ball	-8.38876
▁act	-8.39261
▁an	-8.3948
▁cat	-8.39542
▁learn	-8.3957
▁je	-8.39672
▁happening	-8.39782
▁blue	-8.39857
▁fly	-8.39985
▁kiss	-8.40047
▁secret	-8.4015
ness	-8.40424
▁shouldnt	-8.40438
▁lie	-8.40494
▁careful	-8.40633
▁protect	-8.4066
▁perhaps	-8.40722
▁maam	-8.4074
▁past	-8.41013
▁able	-8.41018
▁frank	-8.41071
▁do	-8.41461
▁sense	-8.4158
▁goodbye	-8.4158
▁gentlemen	-8.41583
ine	-8.41594
▁office	-8.41991
as	-8.42024
▁country	-8.42181
▁calm	-8.42187
no	-8.4271
▁write	-8.42803
▁sam	-8.43062
ish	-8.43243
▁max	-8.43334
▁fair	-8.43338
▁earth	-8.43916
▁piece	-8.44069
▁strong	-8.4453
▁meeting	-8.44721
ct	-8.45287
▁seem	-8.45401
▁star	-8.45768
▁report	-8.45784
be	-8.45831
▁sort	-8.46282
▁cell	-8.46309
▁crowd	-8.4637
▁loved	-8.46402
▁smell	-8.46492
▁lll	-8.46699
▁happens	-8.46822
▁stick	-8.46921
▁seat	-8.47155
▁j	-8.47504
▁ca	-8.47662
ass	-8.47662
em	-8.47796
▁taken	-8.47888
▁sent	-8.47903
▁da	-8.47913
▁jimmy	-8.48102
▁boat	-8.48179
▁du	-8.48233
▁moving	-8.48407
▁feet	-8.48751
▁wonderful	-8.49048
▁ba	-8.49215
per	-8.49237
age	-8.49271
ah	-8.49304
▁worth	-8.49365
▁felt	-8.49365
▁fault	-8.49643
▁z	-8.49748
▁figure	-8.49882
▁wed	-8.4989
▁pain	-8.4991
▁sing	-8.49927
▁shell	-8.49973
ance	-8.49974
ci	-8.50096
▁u	-8.50262
▁bullshit	-8.5027
▁tv	-8.50332
▁record	-8.50362
▁d	-8.50598
▁birthday	-8.50897
▁wear	-8.51005
ti	-8.51093
▁finish	-8.51293
▁asking	-8.51504
▁wind	-8.51933
▁needs	-8.52045
▁return	-8.52573
▁t	-8.52744
▁choice	-8.52805
▁count	-8.5287
▁date	-8.53095
▁words	-8.53105
▁york	-8.53125
▁smart	-8.53189
▁vi	-8.53345
▁quiet	-8.53599
▁calling	-8.53703
▁breathe	-8.53745
▁amazing	-8.54095
ha	-8.54318
▁pa	-8.54367
▁island	-8.54422
▁slow	-8.54593
▁somewhere	-8.54748
by	-8.54892
▁picture	-8.54932
▁born	-8.54965
▁m	-8.55024
da	-8.55059
▁james	-8.55112
▁blow	-8.55206
▁cover	-8.55229
▁di	-8.55306
▁honor	-8.55441
om	-8.55467
▁mistake	-8.55735
▁holy	-8.55795
▁poor	-8.55824
pe	-8.55832
▁respect	-8.56066
ig	-8.56258
▁ben	-8.56519
go	-8.56546
▁short	-8.56552
▁screams	-8.56662
▁none	-8.56769
ot	-8.57036
out	-8.57055
▁daniel	-8.57064
▁daisy	-8.57066
▁dave	-8.57121
▁hed	-8.57249
▁bag	-8.57381
▁relax	-8.57403
▁space	-8.57409
os	-8.57671
ee	-8.57685
ho	-8.57731
▁werent	-8.57738
▁wonder	-8.5792
▁middle	-8.58079
▁super	-8.58145
ni	-8.58157
ph	-8.58239
▁table	-8.58263
▁george	-8.58339
▁pe	-8.58346
▁company	-8.58415
ir	-8.5847
▁age	-8.58621
▁coffee	-8.58755
▁broke	-8.58757
▁forever	-8.5876
▁n	-8.59087
one	-8.59308
▁present	-8.5944
▁floor	-8.59472
▁bro	-8.59596
▁indistinct	-8.59601
▁quick	-8.59611
▁whoo	-8.59628
▁test	-8.59695
▁class	-8.59995
▁explain	-8.60127
▁absolutely	-8.60145
▁band	-8.60434
▁el	-8.60514
▁crying	-8.60545
im	-8.60763
▁panting	-8.60833
▁movie	-8.60877
▁fix	-8.60921
▁meant	-8.61017
▁lead	-8.61029
▁weeks	-8.6112
▁others	-8.6117
▁fat	-8.61896
▁uncle	-8.61897
▁known	-8.6206
▁possible	-8.62222
▁alright	-8.62229
▁dick	-8.6238
▁fool	-8.6256
▁eddie	-8.62575
▁except	-8.6258
▁pack	-8.62593
▁sun	-8.62731
▁american	-8.62977
▁state	-8.6309
▁murder	-8.63365
rs	-8.63512
▁suit	-8.63574
▁french	-8.63643
▁message	-8.63663
▁hospital	-8.64001
▁deep	-8.64012
▁grab	-8.64053
▁ik	-8.6414
ol	-8.64356
▁english	-8.64361
▁mess	-8.64385
▁future	-8.64722
▁coach	-8.64734
bo	-8.6474
▁soul	-8.64758
▁darling	-8.65088
▁se	-8.65198
▁tr	-8.65261
▁asshole	-8.65326
▁lt	-8.65386
▁strange	-8.6545
▁ground	-8.65469
▁mmhmm	-8.6548
▁nine	-8.65604
▁roll	-8.65606
ba	-8.65873
▁longer	-8.65933
▁sal	-8.66143
▁w	-8.66199
▁wall	-8.66541
▁burn	-8.66587
▁breathing	-8.66628
▁terrible	-8.66916
▁round	-8.66916
▁lock	-8.673
▁r	-8.67458
▁ice	-8.67592
▁general	-8.67658
▁watching	-8.67687
▁eight	-8.67707
dy	-8.67884
▁dis	-8.68056
▁ge	-8.68194
▁trip	-8.68395
▁henry	-8.68409
me	-8.6841
▁attack	-8.6861
▁david	-8.69159
▁theyve	-8.69159
ut	-8.69228
▁mar	-8.69438
mo	-8.69528
▁so	-8.69705
▁across	-8.69918
▁favorite	-8.69923
▁rather	-8.69929
▁no	-8.69954
ff	-8.7003
▁cop	-8.70074
▁laugh	-8.70261
▁imagine	-8.703
▁christmas	-8.70301
▁charlie	-8.70308
▁boss	-8.7042
▁cheering	-8.7049
▁joke	-8.70514
▁less	-8.70629
▁stu	-8.70838
▁looked	-8.70859
▁over	-8.70864
ow	-8.70896
▁law	-8.71021
che	-8.71137
▁single	-8.71225
▁kick	-8.713
▁president	-8.71453
▁swear	-8.71453
▁sea	-8.71525
j	-8.71558
do	-8.71686
▁per	-8.71867
▁ring	-8.72174
▁anywhere	-8.7223
▁charge	-8.7223
▁bird	-8.72254
ad	-8.72272
▁window	-8.72357
ary	-8.726
▁singing	-8.726
▁pass	-8.72626
▁master	-8.72635
▁north	-8.72692
▁shh	-8.72708
▁handle	-8.72766
▁bo	-8.72927
▁dress	-8.73147
ca	-8.73296
▁america	-8.73384
▁worse	-8.73407
land	-8.73555
▁worked	-8.73697
▁pre	-8.73966
▁key	-8.74002
der	-8.74058
▁art	-8.74073
▁hero	-8.74176
▁needed	-8.7438
▁seriously	-8.74475
▁box	-8.74576
▁motherfucker	-8.74597
▁ran	-8.74613
▁aah	-8.74644
▁bank	-8.74716
▁ma	-8.74992
▁club	-8.75001
▁jake	-8.75015
▁spend	-8.75218
▁officer	-8.75398
▁engine	-8.75399
ard	-8.75491
▁bastard	-8.75802
▁history	-8.75802
▁arm	-8.75809
▁missed	-8.75891
▁groaning	-8.7628
▁unless	-8.76297
wa	-8.76575
▁private	-8.76613
▁suppose	-8.76636
▁tired	-8.76686
▁surprise	-8.77046
▁turned	-8.77103
▁entire	-8.7725
▁building	-8.77302
▁near	-8.77312
▁green	-8.77432
▁push	-8.77536
ated	-8.77638
▁month	-8.77711
▁horse	-8.77741
▁warm	-8.77764
▁joe	-8.77779
▁ro	-8.7794
▁sell	-8.78165
▁rich	-8.78183
ted	-8.78237
▁mommy	-8.78292
▁stone	-8.78424
▁me	-8.78502
▁evening	-8.78544
▁moon	-8.78661
▁gift	-8.78671
▁knock	-8.78776
▁si	-8.78905
▁mm	-8.78992
▁church	-8.79088
▁harry	-8.79519
▁johnny	-8.7954
▁sp	-8.79621
▁sad	-8.79852
▁accident	-8.79916
▁block	-8.7993
hi	-8.80087
▁questions	-8.80253
▁fish	-8.80257
ey	-8.80267
▁offer	-8.80346
▁wild	-8.805
▁owe	-8.80549
▁visit	-8.8068
▁giving	-8.80772
▁marry	-8.80804
▁pop	-8.81051
▁missing	-8.81111
ill	-8.81131
▁definitely	-8.81197
▁smoke	-8.81239
▁early	-8.81334
▁attention	-8.81625
▁upon	-8.8167
ac	-8.81876
▁bell	-8.81988
▁po	-8.82022
▁expect	-8.82199
▁wh	-8.82266
▁ver	-8.82357
▁pleasure	-8.82485
▁guard	-8.82498
▁queen	-8.82511
▁busy	-8.82756
▁hat	-8.82828
▁kept	-8.82918
▁russian	-8.82965
▁station	-8.83043
▁ar	-8.8305
▁tree	-8.83091
▁seeing	-8.83149
tic	-8.83463
▁changed	-8.83563
▁forgot	-8.83779
▁worried	-8.83789
▁tight	-8.83794
▁leg	-8.83877
▁sc	-8.83881
▁simple	-8.84229
ver	-8.84302
▁totally	-8.84307
res	-8.8433
▁hotel	-8.84375
▁sally	-8.84486
▁hide	-8.84505
▁killing	-8.84538
▁mary	-8.84606
▁forgive	-8.84646
▁yall	-8.84728
▁system	-8.8479
ag	-8.84902
▁ra	-8.8497
▁security	-8.85129
▁drunk	-8.85129
▁enjoy	-8.85295
▁professor	-8.85555
▁cute	-8.85605
▁loud	-8.85923
▁hungry	-8.86013
▁chicken	-8.86053
▁billy	-8.86076
▁to	-8.86236
▁given	-8.86442
▁college	-8.8645
▁caught	-8.86452
▁tough	-8.86455
▁paid	-8.86491
▁track	-8.86493
▁zo	-8.86736
▁tom	-8.8675
and	-8.86787
▁saved	-8.86852
▁machine	-8.86871
▁standing	-8.869
▁color	-8.86954
▁lay	-8.87052
tter	-8.87126
ating	-8.87278
▁proud	-8.87362
▁lovely	-8.87491
▁dying	-8.87813
▁spot	-8.87827
op	-8.87902
▁taste	-8.88
▁teach	-8.8806
▁pro	-8.88108
▁low	-8.88304
▁plane	-8.88395
▁ringing	-8.88511
▁join	-8.88552
▁language	-8.88723
▁nick	-8.88749
ley	-8.88859
▁rain	-8.88907
▁quit	-8.88975
▁honest	-8.89029
pa	-8.89031
▁bus	-8.89072
▁annie	-8.89193
▁stopped	-8.89336
▁shouting	-8.89342
▁fucked	-8.89417
▁cross	-8.8956
▁glass	-8.8959
▁idiot	-8.89648
way	-8.89666
▁cops	-8.89666
▁bear	-8.89897
men	-8.89963
end	-8.89964
ster	-8.9
▁london	-8.90112
▁sake	-8.90131
▁yep	-8.90184
▁begin	-8.90228
▁fit	-8.90353
▁favor	-8.90572
▁eh	-8.90833
▁gasping	-8.90846
▁driving	-8.91049
▁ed	-8.91076
ler	-8.91309
▁paper	-8.91424
ure	-8.91492
▁service	-8.9152
▁thousand	-8.91521
▁richard	-8.91539
▁doc	-8.91657
▁throat	-8.91994
▁foot	-8.92035
▁sky	-8.92087
▁mu	-8.92367
▁outta	-8.925
▁sonny	-8.92546
▁truck	-8.92959
▁clothes	-8.9297
ang	-8.93279
io	-8.93354
▁ne	-8.93364
▁dreams	-8.93446
▁ni	-8.9347
▁grand	-8.93519
▁field	-8.93548
▁up	-8.93551
time	-8.93615
▁appreciate	-8.93913
▁position	-8.9395
▁cash	-8.93964
▁ones	-8.94105
▁ray	-8.94229
▁seconds	-8.94302
▁breath	-8.9433
▁impossible	-8.94398
▁girlfriend	-8.94413
▁sitting	-8.94508
▁buck	-8.94686
▁ch	-8.94724
▁south	-8.94886
▁wedding	-8.94904
head	-8.95016
▁bull	-8.95063
▁bob	-8.95163
▁magic	-8.95212
▁hole	-8.95781
▁bomb	-8.95869
▁choose	-8.95872
▁grow	-8.95949
▁cry	-8.96064
▁list	-8.96175
lng	-8.96199
▁peace	-8.96336
▁spirit	-8.96363
▁summer	-8.96366
▁del	-8.96417
▁brain	-8.96451
▁deserve	-8.96475
▁ii	-8.96482
▁pi	-8.96535
▁doin	-8.96554
▁pal	-8.96628
▁jump	-8.96708
he	-8.9684
▁denny	-8.96868
lin	-8.97004
ev	-8.97052
▁works	-8.97203
min	-8.97227
▁crack	-8.9729
▁san	-8.97303
▁killer	-8.97323
▁smile	-8.97365
▁camp	-8.97426
▁jo	-8.97692
▁court	-8.97864
▁dumb	-8.97865
▁shed	-8.97874
▁papa	-8.97899
▁fan	-8.98144
▁gold	-8.98174
▁angel	-8.98259
▁miles	-8.98281
▁chatter	-8.98302
▁major	-8.98369
▁tommy	-8.98379
tra	-8.98402
▁stuck	-8.98425
▁lu	-8.98472
▁park	-8.98483
ka	-8.98782
led	-8.98795
ger	-8.988
▁h	-8.98863
▁yesterday	-8.98877
line	-8.99008
▁completely	-8.99011
▁aw	-8.99044
▁horn	-8.9912
ell	-8.99176
▁bella	-8.9925
▁planet	-8.99269
▁fell	-8.99314
▁reach	-8.99382
▁battle	-8.99387
▁partner	-8.99431
▁fl	-8.99489
que	-8.99583
▁tape	-8.99661
▁freak	-8.99819
cy	-8.99841
▁feed	-8.99892
▁third	-8.999
▁bother	-8.99911
▁agent	-8.99953
▁final	-9.00237
▁destroy	-9.0038
▁situation	-9.00415
▁information	-9.00435
▁moved	-9.00555
▁shoes	-9.00606
▁ad	-9.00828
▁ab	-9.0084
▁river	-9.00948
▁suck	-9.00979
▁ri	-9.00994
▁personal	-9.01061
▁be	-9.01158
ts	-9.01446
▁dangerous	-9.01472
▁lying	-9.0153
▁share	-9.01624
▁wearing	-9.01915
▁search	-9.01978
▁film	-9.01978
▁remind	-9.01979
▁lunch	-9.01981
▁sweetheart	-9.01983
tion	-9.0214
▁ga	-9.02186
▁interesting	-9.02374
▁ghost	-9.025
▁agree	-9.02613
▁te	-9.02699
▁rules	-9.02782
▁board	-9.02791
▁normal	-9.02851
▁mission	-9.02931
▁goin	-9.02943
▁forward	-9.03036
▁spent	-9.03074
▁code	-9.03402
ring	-9.03457
▁fi	-9.03497
▁travel	-9.03501
▁grace	-9.03587
▁wouldve	-9.03602
▁realize	-9.0378
▁rose	-9.03802
ped	-9.03885
▁talked	-9.03969
▁uhhuh	-9.041
▁worst	-9.041
▁rid	-9.04118
▁certain	-9.04457
ny	-9.045
▁walking	-9.04592
▁strike	-9.04638
▁form	-9.04724
▁action	-9.04765
▁out	-9.04944
▁feels	-9.04996
▁fighting	-9.05124
▁keys	-9.05133
▁force	-9.05182
av	-9.05235
▁decided	-9.05449
▁driver	-9.05566
▁finished	-9.0558
▁dan	-9.05683
▁video	-9.05722
▁instead	-9.05725
▁level	-9.05764
di	-9.05766
▁certainly	-9.05904
▁names	-9.05964
mi	-9.05996
ga	-9.06042
▁soft	-9.06089
▁am	-9.06125
▁witch	-9.06188
▁bobby	-9.0629
▁store	-9.06291
ator	-9.06392
▁corner	-9.0646
▁gas	-9.06775
▁enzo	-9.06818
▁howd	-9.06821
▁nose	-9.06924
ng	-9.071
▁afternoon	-9.0737
▁william	-9.0737
ber	-9.0741
▁va	-9.07528
▁hundred	-9.07838
▁sl	-9.07907
▁wrote	-9.07925
king	-9.07949
▁weekend	-9.0797
▁chattering	-9.08023
▁west	-9.081
▁doubt	-9.08482
▁bought	-9.08484
ence	-9.08539
▁chris	-9.0868
▁command	-9.08751
▁een	-9.08779
▁interested	-9.08877
bu	-9.08943
▁difference	-9.09046
▁evil	-9.09046
▁hu	-9.09052
▁phil	-9.09092
▁letter	-9.09157
▁balls	-9.09158
▁press	-9.09207
▁tea	-9.09233
▁broken	-9.09324
▁army	-9.09445
▁extra	-9.09464
▁pants	-9.09632
▁bra	-9.09695
▁victor	-9.09899
▁boyfriend	-9.10179
▁beach	-9.10217
▁continue	-9.10261
▁cook	-9.10303
▁yelling	-9.1042
▁named	-9.10599
▁double	-9.1075
▁match	-9.10809
gg	-9.11139
▁exhales	-9.11325
▁chuckling	-9.11335
▁heaven	-9.11342
▁flight	-9.11348
▁belong	-9.11354
▁tu	-9.11416
▁arms	-9.11549
▁player	-9.11905
▁speed	-9.11906
▁price	-9.11909
▁alex	-9.11932
▁princess	-9.11991
▁escape	-9.12097
▁cha	-9.12343
▁hall	-9.12446
▁congratulations	-9.12485
▁hasnt	-9.12489
▁chain	-9.12656
ak	-9.12681
▁cr	-9.13037
▁learned	-9.13043
▁excellent	-9.13069
▁kitchen	-9.13069
▁birds	-9.13137
▁matt	-9.13314
▁ja	-9.13391
▁lived	-9.13549
ap	-9.13592
▁contact	-9.13658
▁treat	-9.1366
▁memory	-9.13665
▁awful	-9.1369
ook	-9.13693
▁accept	-9.13698
▁sla	-9.13824
▁prove	-9.14109
▁suggest	-9.14187
▁decision	-9.14249
▁race	-9.14294
▁bi	-9.14609
▁prison	-9.14642
▁card	-9.14646
▁listening	-9.1475
▁thunder	-9.14845
▁babe	-9.14887
▁post	-9.14944
we	-9.15001
▁scar	-9.15109
▁mc	-9.15153
▁mi	-9.15275
▁group	-9.15443
▁monkey	-9.15443
▁butt	-9.15664
▁account	-9.16017
▁er	-9.1607
▁beer	-9.161
tro	-9.16447
▁brothers	-9.1661
▁dom	-9.16615
▁experience	-9.16652
▁whatd	-9.16653
▁dogs	-9.16658
▁lisa	-9.1666
▁reading	-9.16722
ise	-9.16745
▁quickly	-9.16971
▁legs	-9.17178
▁admit	-9.17262
ex	-9.17822
▁cheers	-9.17849
▁computer	-9.17875
▁government	-9.17875
▁alarm	-9.17875
▁angry	-9.17875
▁lawyer	-9.17878
▁bathroom	-9.17878
of	-9.17889
▁type	-9.179
▁crash	-9.17915
▁aye	-9.17928
▁li	-9.18108
▁carry	-9.18214
ron	-9.18284
ier	-9.18323
▁interview	-9.18493
▁growls	-9.18497
▁danny	-9.18506
▁apartment	-9.1852
▁whose	-9.18771
tu	-9.19032
▁cup	-9.19068
▁elephant	-9.19113
▁upstairs	-9.19113
▁cousin	-9.19114
▁heavily	-9.19133
▁jones	-9.19174
▁rule	-9.19319
▁teacher	-9.19323
▁lights	-9.19476
▁sa	-9.19625
▁bunch	-9.19773
▁lf	-9.19836
ze	-9.19937
▁port	-9.19943
ship	-9.19952
▁locked	-9.20042
▁lve	-9.20074
▁dare	-9.20141
▁starting	-9.20246
▁dig	-9.20295
▁fresh	-9.20368
▁snow	-9.20383
▁ti	-9.20434
▁allow	-9.20461
▁weapon	-9.20726
▁folks	-9.20878
▁everywhere	-9.21
▁mountain	-9.21
▁within	-9.21
▁dirty	-9.21136
▁main	-9.21151
ru	-9.21393
▁pu	-9.21428
▁ka	-9.21523
▁plays	-9.21633
▁miyagi	-9.21637
▁cap	-9.21784
▁pen	-9.22114
ious	-9.22221
▁promised	-9.22293
▁marley	-9.22302
▁rat	-9.22516
ov	-9.22538
ki	-9.22618
▁gay	-9.22637
▁trick	-9.22822
▁beyond	-9.22923
▁difficult	-9.22923
▁teeth	-9.22927
▁conversation	-9.22928
▁roger	-9.22943
▁jail	-9.22966
▁steal	-9.22975
▁fill	-9.23128
▁dollars	-9.23215
▁note	-9.23257
▁shop	-9.23313
▁devil	-9.23354
ally	-9.23377
ham	-9.23441
▁chi	-9.23482
▁comp	-9.23551
▁awesome	-9.23573
▁focus	-9.23576
▁area	-9.23587
▁writing	-9.23657
wi	-9.23866
ial	-9.23882
▁putting	-9.23925
▁pet	-9.23994
▁punch	-9.24227
fi	-9.24253
▁wash	-9.24262
▁neck	-9.24264
▁lo	-9.24271
▁books	-9.24375
▁consider	-9.24393
▁camera	-9.24406
▁correct	-9.24884
▁neither	-9.24884
▁twice	-9.24884
▁blame	-9.24908
▁shame	-9.2491
▁problems	-9.24948
▁gu	-9.25098
nder	-9.25262
▁eating	-9.254
▁especially	-9.25547
▁jim	-9.25588
▁cons	-9.25858
▁wa	-9.25868
▁ac	-9.25872
ai	-9.25907
ten	-9.25969
▁cost	-9.26016
▁gra	-9.26206
▁heavy	-9.26213
▁cheese	-9.26214
▁anna	-9.26299
com	-9.2653
eg	-9.26634
▁julia	-9.26661
▁jacob	-9.26884
▁scene	-9.26886
▁file	-9.26888
ner	-9.27136
▁map	-9.27213
▁wondering	-9.27395
our	-9.2748
▁pete	-9.275
▁beg	-9.27519
▁colonel	-9.2756
▁michael	-9.2756
▁target	-9.2756
▁chief	-9.2756
▁detective	-9.27569
▁bright	-9.27576
▁east	-9.27584
▁exist	-9.27625
▁bigger	-9.27707
gen	-9.27716
▁mum	-9.27763
▁cl	-9.27925
aw	-9.27952
for	-9.28014
▁complete	-9.28062
▁discuss	-9.28179
▁marriage	-9.2824
▁shouldve	-9.2824
▁arrest	-9.28371
▁holding	-9.28458
▁brave	-9.2846
▁sight	-9.2848
▁pray	-9.28609
qui	-9.28641
▁sub	-9.28665
▁nervous	-9.28743
▁staying	-9.28945
▁usually	-9.29018
uc	-9.29188
board	-9.29262
▁paris	-9.29277
▁waste	-9.29297
▁copy	-9.2944
▁bottle	-9.29615
▁babies	-9.29615
▁bullet	-9.29663
kin	-9.29762
▁figured	-9.29777
▁tony	-9.2979
▁br	-9.30046
▁bite	-9.30096
▁closed	-9.30138
▁fe	-9.30254
ina	-9.30303
▁scarlett	-9.30309
▁charles	-9.30324
▁immediately	-9.30339
▁brian	-9.30363
▁under	-9.30427
▁notice	-9.30627
▁yells	-9.30632
▁pan	-9.30675
▁robert	-9.30803
▁couldve	-9.30895
▁relationship	-9.31009
▁ridiculous	-9.31009
▁silver	-9.31009
▁enemy	-9.31009
▁unit	-9.3101
▁sn	-9.31019
▁egg	-9.31024
▁judge	-9.31032
▁sweetie	-9.31196
▁joy	-9.31433
▁pin	-9.31439
▁bloody	-9.31474
▁sta	-9.31515
ble	-9.31684
▁edward	-9.3172
▁football	-9.31726
▁risk	-9.31831
▁screw	-9.31869
▁bat	-9.3191
oc	-9.31932
▁losing	-9.31971
▁hoping	-9.32011
ock	-9.32142
▁repeat	-9.32424
▁famous	-9.32451
▁op	-9.32557
▁monster	-9.3256
▁raise	-9.32766
▁eli	-9.32918
▁picked	-9.33098
▁launch	-9.33136
▁support	-9.33138
▁taught	-9.33138
▁beginning	-9.33148
▁chair	-9.33163
▁obviously	-9.33226
▁cock	-9.33242
ized	-9.33347
▁wine	-9.33377
▁scream	-9.33415
▁blu	-9.3345
gu	-9.33592
▁ju	-9.33624
▁harold	-9.3386
▁dat	-9.33899
▁danger	-9.33919
ize	-9.33919
▁sleeping	-9.34017
ball	-9.34057
▁softly	-9.34094
▁fa	-9.34104
▁mij	-9.34144
▁following	-9.34472
the	-9.34487
▁mitch	-9.34568
▁circle	-9.3458
▁incredible	-9.3458
▁malcolm	-9.3458
▁lucas	-9.34581
▁ugh	-9.34598
▁janet	-9.34771
▁gl	-9.34962
▁plenty	-9.3531
▁nature	-9.35319
▁cream	-9.35325
▁score	-9.35333
▁excited	-9.3534
▁lift	-9.35356
ea	-9.35413
ible	-9.35459
▁besides	-9.35536
▁soldier	-9.3555
▁nuts	-9.3561
▁emergency	-9.36046
▁pocket	-9.36046
▁spanish	-9.36046
▁shirt	-9.36046
▁biggest	-9.36046
▁bridge	-9.36056
ay	-9.36133
▁beth	-9.36601
▁ought	-9.36638
zz	-9.36731
▁speaks	-9.36738
▁whether	-9.36786
▁address	-9.36787
▁operation	-9.3679
▁robot	-9.36806
▁beast	-9.36825
▁katie	-9.3685
▁village	-9.36856
▁alien	-9.36862
▁sand	-9.36876
▁hunt	-9.3692
▁liked	-9.3695
▁honestly	-9.37078
▁x	-9.37092
▁starts	-9.37274
▁boo	-9.37449
con	-9.37513
og	-9.37518
▁military	-9.37533
▁practice	-9.37537
▁odd	-9.37537
▁text	-9.37566
▁greatest	-9.376
ach	-9.37901
▁serve	-9.37911
bi	-9.37993
▁or	-9.38273
▁bottom	-9.38284
▁breakfast	-9.38284
▁nowhere	-9.38285
▁dramatic	-9.38289
▁crime	-9.38294
ding	-9.38322
▁using	-9.38349
▁tie	-9.38505
▁ber	-9.38598
▁skin	-9.38674
▁pr	-9.38778
▁seemed	-9.38958
▁built	-9.39042
ified	-9.39045
▁wave	-9.39103
▁older	-9.39181
▁sean	-9.39253
▁ear	-9.39276
▁plant	-9.39297
▁hy	-9.39438
▁crew	-9.39486
▁inter	-9.39654
▁stole	-9.3966
▁tail	-9.39677
▁stories	-9.39806
▁twenty	-9.39806
▁sugar	-9.39809
▁cur	-9.39936
▁hiding	-9.39977
vin	-9.40101
▁app	-9.40106
▁tires	-9.4016
▁decide	-9.40189
▁guest	-9.40263
▁gr	-9.40287
▁het	-9.40389
▁eve	-9.40404
▁public	-9.40547
▁lieutenant	-9.40575
▁request	-9.40575
▁teddy	-9.40587
▁heat	-9.40689
ose	-9.40701
▁whered	-9.40712
▁screeching	-9.40721
▁drinking	-9.40725
▁stage	-9.40757
ud	-9.40825
▁passed	-9.40891
▁student	-9.41008
▁survive	-9.41116
▁val	-9.4114
▁surprised	-9.41304
ug	-9.41327
▁weak	-9.41335
▁department	-9.4135
▁upset	-9.41352
▁often	-9.41355
▁wet	-9.41368
▁common	-9.41379
▁professional	-9.41404
▁plus	-9.41407
▁mate	-9.41444
▁cub	-9.41517
▁draw	-9.41628
▁wil	-9.41698
▁rent	-9.4172
▁takes	-9.4189
bra	-9.41912
▁steve	-9.41965
▁apparently	-9.42131
▁program	-9.42137
▁talent	-9.42145
▁loose	-9.42149
▁pig	-9.42431
▁bond	-9.42523
▁deeply	-9.42526
▁interest	-9.4261
▁base	-9.4262
▁switch	-9.42918
▁thatll	-9.42918
▁farm	-9.4294
▁large	-9.42961
▁tri	-9.42966
ab	-9.42975
gh	-9.42976
ther	-9.43027
▁faster	-9.43053
▁size	-9.43198
▁orders	-9.43279
▁played	-9.43486
▁dump	-9.43715
▁noise	-9.43735
▁held	-9.43859
▁pictures	-9.44061
ify	-9.44095
▁les	-9.44116
gie	-9.44166
▁calls	-9.44187
▁lan	-9.44206
▁pot	-9.44236
▁dean	-9.44294
ung	-9.44342
▁evidence	-9.44512
▁pregnant	-9.44512
▁caesar	-9.44512
▁swing	-9.44515
▁roof	-9.44531
▁amen	-9.44603
▁mention	-9.44852
▁stars	-9.44928
▁pl	-9.45123
▁remain	-9.45179
▁prince	-9.45196
▁mothers	-9.45257
▁chick	-9.4526
▁apart	-9.453
▁condition	-9.45319
▁social	-9.45319
▁lonely	-9.4532
▁su	-9.45331
▁helen	-9.45354
▁assume	-9.45386
▁tour	-9.45424
▁growing	-9.45483
▁mayor	-9.45489
▁cab	-9.45502
ism	-9.45632
▁bless	-9.45635
▁piss	-9.45785
▁leader	-9.45891
off	-9.45898
▁showed	-9.46055
▁cu	-9.46096
▁somehow	-9.46132
▁client	-9.46132
▁regret	-9.46132
▁bernie	-9.46137
▁sold	-9.46169
ker	-9.46179
▁keeping	-9.46189
▁self	-9.46212
▁can	-9.46322
▁shower	-9.46334
▁mon	-9.46476
▁spit	-9.46646
▁hook	-9.46793
▁drugs	-9.46885
▁stephen	-9.46952
▁rough	-9.46958
▁kevin	-9.46959
▁pressure	-9.46973
▁rome	-9.46985
▁storm	-9.46997
▁duke	-9.4702
▁sin	-9.47442
▁louis	-9.47586
rd	-9.47674
▁ln	-9.47734
▁all	-9.47745
▁asleep	-9.47778
▁genius	-9.47778
▁italian	-9.47778
▁saturday	-9.47778
▁science	-9.47778
▁suspect	-9.47778
▁empty	-9.47778
▁theyd	-9.47779
▁milk	-9.47832
▁breaking	-9.47858
▁woods	-9.48034
▁beeping	-9.48099
▁movies	-9.48476
▁allowed	-9.48505
▁aunt	-9.48546
▁jungle	-9.48611
▁ugly	-9.48612
▁sword	-9.48619
▁grandma	-9.48661
▁wing	-9.48722
▁richie	-9.48769
▁madame	-9.48833
▁gi	-9.48926
▁nu	-9.49022
▁nah	-9.49068
▁crap	-9.49071
▁due	-9.4934
▁faith	-9.49424
▁purpose	-9.49451
▁strength	-9.49451
▁split	-9.49452
▁indeed	-9.49452
▁nurse	-9.49452
▁model	-9.49453
▁wherever	-9.49457
▁gotten	-9.49461
▁bucks	-9.49474
▁lad	-9.49555
over	-9.49574
▁bon	-9.49582
▁acting	-9.49585
▁jacket	-9.49645
▁ruin	-9.49718
side	-9.49888
▁gosh	-9.49989
▁bee	-9.50219
▁blind	-9.503
▁saving	-9.503
▁jerk	-9.50301
▁sharp	-9.50302
▁pardon	-9.50303
▁thou	-9.50329
▁meat	-9.50356
▁rep	-9.50439
▁for	-9.5045
▁huge	-9.50475
▁lots	-9.50732
▁freedom	-9.51154
▁wheel	-9.51154
▁niet	-9.51218
▁inc	-9.51233
▁button	-9.51275
▁jane	-9.51516
▁walked	-9.5169
just	-9.51816
▁clears	-9.51894
▁insane	-9.52016
▁pizza	-9.52016
▁local	-9.52017
▁penny	-9.52032
▁willing	-9.52036
▁maid	-9.52084
▁freeze	-9.52108
▁closer	-9.52109
▁path	-9.52264
▁pretend	-9.52284
▁build	-9.52289
▁fur	-9.52308
▁states	-9.52383
za	-9.52634
ii	-9.52649
▁spoke	-9.52722
▁witness	-9.52788
▁rings	-9.52846
▁apologize	-9.52885
▁foreign	-9.52885
▁innocent	-9.52885
▁sobbing	-9.52885
▁spread	-9.52885
▁mask	-9.52894
▁view	-9.52933
▁dry	-9.53013
▁belt	-9.53188
▁training	-9.53219
▁signal	-9.5327
ou	-9.53387
▁goodness	-9.53425
ren	-9.53475
▁deliver	-9.53476
▁turns	-9.5358
▁che	-9.53656
ko	-9.53705
▁became	-9.53762
▁mirror	-9.53762
▁nigga	-9.53762
▁spell	-9.53789
pro	-9.53814
▁drug	-9.5399
▁plans	-9.54026
▁gate	-9.54045
▁pee	-9.54069
▁hon	-9.54151
ile	-9.54224
▁on	-9.5437
▁german	-9.54375
▁guns	-9.54459
▁page	-9.54613
▁bow	-9.54614
▁sheriff	-9.54647
▁sydney	-9.54647
▁pussy	-9.54648
▁molly	-9.54649
▁flying	-9.54751
▁cake	-9.54788
▁pool	-9.54813
jo	-9.54885
den	-9.54983
▁drag	-9.54989
▁knocking	-9.55026
▁plate	-9.55088
▁sat	-9.55126
▁march	-9.55141
down	-9.55372
▁lab	-9.55474
▁hm	-9.55509
▁character	-9.5554
▁elizabeth	-9.5554
▁possibly	-9.5554
▁project	-9.5554
▁jerry	-9.55541
▁ryan	-9.55542
▁nope	-9.55586
▁announcer	-9.55589
▁hill	-9.55609
▁weight	-9.55659
▁powerful	-9.55677
▁den	-9.55783
▁lied	-9.55792
▁heads	-9.55811
▁games	-9.55812
▁meaning	-9.55859
▁hanging	-9.55978
her	-9.56259
▁stan	-9.56284
▁helping	-9.56399
▁produce	-9.56441
▁pilot	-9.56441
▁scoffs	-9.56442
▁silly	-9.56443
▁romantic	-9.5645
▁todd	-9.56451
▁jason	-9.5648
▁adam	-9.56498
▁harm	-9.56545
itt	-9.56547
▁kinda	-9.56676
▁snap	-9.56685
▁lesson	-9.56697
ek	-9.56814
if	-9.56856
▁grown	-9.56939
uck	-9.56944
▁cor	-9.5696
nn	-9.56974
▁tip	-9.57033
ium	-9.57086
▁bike	-9.57205
▁carl	-9.57345
▁majesty	-9.5735
▁sarge	-9.5735
▁tongue	-9.57355
▁nigger	-9.57358
▁fo	-9.57358
▁yellow	-9.57362
▁fake	-9.57395
▁guilty	-9.57446
▁indian	-9.57473
▁suddenly	-9.57475
▁animal	-9.57563
▁down	-9.57725
▁weapons	-9.57747
▁cal	-9.57837
▁feelings	-9.57945
▁united	-9.58069
▁bringing	-9.58095
▁her	-9.58153
▁qua	-9.58245
▁literally	-9.58268
▁rescue	-9.58268
▁contract	-9.58268
▁distance	-9.58268
▁dancing	-9.58269
▁earlier	-9.58271
▁prefer	-9.58279
▁clock	-9.5829
▁liar	-9.58365
▁lake	-9.58535
▁horses	-9.58572
▁warning	-9.58662
▁gary	-9.58666
▁lies	-9.58765
▁rel	-9.58892
▁ends	-9.59058
▁ali	-9.59129
▁courage	-9.59194
▁wound	-9.59194
▁tower	-9.59194
▁par	-9.59219
ons	-9.59232
▁gentleman	-9.59242
▁hunter	-9.59258
▁coughing	-9.593
▁lion	-9.59487
▁cra	-9.59736
▁prepare	-9.59742
▁ke	-9.5985
▁candy	-9.60092
▁familiar	-9.60128
▁horrible	-9.60128
▁russell	-9.60128
▁whoever	-9.60129
▁larry	-9.60129
▁gunshot	-9.60131
▁stink	-9.60132
▁france	-9.60142
▁rick	-9.60178
▁fired	-9.60322
▁disappear	-9.60517
▁settle	-9.60686
▁non	-9.60709
ford	-9.60718
▁ms	-9.60754
▁animals	-9.60851
▁natural	-9.6089
▁col	-9.61065
▁rob	-9.61067
▁weather	-9.61072
▁rachel	-9.61072
▁brenda	-9.61073
ition	-9.61081
▁comfortable	-9.61093
▁iron	-9.61191
▁royal	-9.61199
ite	-9.61367
ice	-9.61372
▁enter	-9.61595
▁wi	-9.6164
▁records	-9.61734
▁fella	-9.61739
▁rap	-9.61785
vis	-9.61809
▁artist	-9.61822
red	-9.61916
ical	-9.62014
rr	-9.62016
▁truly	-9.62025
▁nightmare	-9.62027
back	-9.62037
▁damage	-9.62046
▁ram	-9.62102
▁pitch	-9.62105
▁letters	-9.62178
▁pie	-9.62194
▁metal	-9.62204
▁prisoner	-9.6235
▁paying	-9.6235
▁ph	-9.62363
▁dressed	-9.62408
▁coat	-9.62455
▁kate	-9.62544
▁rip	-9.62589
▁jet	-9.62621
▁har	-9.62721
▁sisters	-9.62758
▁realized	-9.62837
▁scare	-9.62862
▁fate	-9.62898
▁rec	-9.62915
▁ate	-9.6295
▁susan	-9.62955
▁citizen	-9.62985
▁however	-9.62985
▁climb	-9.62986
▁hadnt	-9.62986
▁cigarette	-9.62987
▁borrow	-9.62989
▁beauty	-9.62997
▁medical	-9.63042
▁everythings	-9.63094
▁involved	-9.63111
▁rod	-9.63122
▁june	-9.63127
▁pink	-9.63149
▁shake	-9.63226
▁yard	-9.63244
▁arrived	-9.63328
▁sim	-9.63361
▁mac	-9.63592
▁bath	-9.63595
▁tall	-9.63668
▁health	-9.63694
ade	-9.63728
▁gar	-9.63903
▁wood	-9.63918
▁stranger	-9.63956
▁downstairs	-9.63956
▁opportunity	-9.63956
▁caleb	-9.63957
▁awake	-9.63959
▁among	-9.63966
▁rush	-9.63983
▁castle	-9.64024
▁pair	-9.64027
▁numbers	-9.64091
▁flat	-9.64139
day	-9.6414
▁center	-9.64205
▁boot	-9.64277
▁wire	-9.64324
▁paint	-9.64328
q	-9.64419
▁he	-9.64447
▁bl	-9.64447
▁commander	-9.6448
▁turning	-9.64551
▁doors	-9.64556
▁hardly	-9.64717
ney	-9.64739
▁nation	-9.64874
▁elevator	-9.64937
▁shoulder	-9.64937
▁martin	-9.6494
▁linda	-9.64951
▁written	-9.64961
▁finn	-9.64962
▁fellow	-9.64971
▁shine	-9.65091
▁whispering	-9.65129
▁toy	-9.65132
▁ce	-9.65193
▁alan	-9.65247
▁opening	-9.65375
ities	-9.65419
▁ears	-9.65451
▁finger	-9.65473
▁introduce	-9.65537
▁painting	-9.65619
▁chest	-9.65779
▁brilliant	-9.65927
▁california	-9.65927
▁easier	-9.65927
▁mmmhmm	-9.65927
▁opinion	-9.65927
▁whore	-9.65958
▁trade	-9.6596
▁tune	-9.66045
▁market	-9.66076
ide	-9.66177
lar	-9.6629
▁harder	-9.66463
▁murdered	-9.66469
▁ticket	-9.66509
▁total	-9.66747
▁advice	-9.66927
▁lebron	-9.66927
▁sergeant	-9.66927
▁fortune	-9.66927
▁byebye	-9.66927
▁midnight	-9.66929
▁sunday	-9.66946
▁secure	-9.66948
▁airport	-9.66957
▁season	-9.66995
▁lou	-9.67071
fl	-9.67082
▁tess	-9.67175
▁original	-9.67287
▁jr	-9.67407
▁scary	-9.67441
▁flo	-9.676
▁sacrifice	-9.67651
▁cos	-9.6776
▁madam	-9.67789
▁career	-9.67894
▁otherwise	-9.67937
▁particular	-9.67937
▁recognize	-9.67937
▁credit	-9.67938
▁ashley	-9.67944
▁percent	-9.67948
▁quarter	-9.67967
▁growling	-9.67994
▁mail	-9.68026
▁barely	-9.68053
▁whispers	-9.68074
▁bust	-9.6844
gn	-9.68487
wood	-9.68557
gue	-9.68615
▁eggs	-9.68717
▁ob	-9.68777
▁flowers	-9.68801
▁nothin	-9.6886
▁junior	-9.68957
▁knife	-9.68957
▁subject	-9.68957
▁grew	-9.68958
▁clue	-9.68966
▁defend	-9.68972
▁lucy	-9.68983
▁stock	-9.69007
▁dropped	-9.69012
▁demon	-9.69032
▁cj	-9.69041
▁safety	-9.6912
▁ty	-9.69263
▁sec	-9.69409
▁study	-9.69438
▁noticed	-9.69525
▁male	-9.6955
▁bang	-9.69694
▁although	-9.69988
▁exciting	-9.69988
▁society	-9.69988
▁thomas	-9.69988
▁jealous	-9.69988
▁maisie	-9.69988
▁threw	-9.69988
▁cruel	-9.69989
▁simply	-9.69989
▁cancer	-9.69989
▁whyd	-9.69991
mon	-9.70021
▁boom	-9.70182
▁lap	-9.70183
▁af	-9.70196
▁falling	-9.70231
▁clay	-9.7024
▁students	-9.70446
▁blast	-9.70639
▁ki	-9.70748
light	-9.70815
▁cave	-9.70866
ning	-9.70962
▁gasp	-9.7098
▁effect	-9.70997
▁def	-9.71011
▁restaurant	-9.7103
▁whenever	-9.7103
▁kingdom	-9.71031
▁spider	-9.71031
▁neighborhood	-9.71031
▁afford	-9.71037
▁fancy	-9.71056
old	-9.71063
▁winner	-9.7109
▁director	-9.71121
▁heh	-9.71159
ette	-9.71201
▁ron	-9.71216
▁fathers	-9.71266
▁ld	-9.71302
▁mis	-9.71333
▁fingers	-9.71521
▁gut	-9.71756
▁kim	-9.7184
▁ski	-9.71874
all	-9.71976
▁not	-9.72019
▁wat	-9.72042
▁fantasy	-9.72083
▁female	-9.72083
▁criminal	-9.72083
▁friday	-9.72089
▁vincent	-9.7209
▁garden	-9.72092
▁toast	-9.72096
▁bones	-9.72212
▁josh	-9.72218
▁zero	-9.72307
▁cheat	-9.72444
let	-9.72471
▁talkin	-9.72534
▁wha	-9.72652
▁watched	-9.72719
▁chip	-9.72734
▁brown	-9.72769
▁agreed	-9.72858
▁row	-9.72921
tan	-9.72945
▁jam	-9.7302
▁kat	-9.73037
▁birth	-9.7314
▁research	-9.73146
▁bodies	-9.73147
▁mostly	-9.73147
▁coward	-9.73177
▁virgin	-9.73199
▁loser	-9.73221
fa	-9.73275
▁es	-9.73347
▁shape	-9.73386
▁invited	-9.73393
▁thee	-9.73399
▁buzzing	-9.7342
▁lee	-9.7351
▁sch	-9.73569
▁release	-9.73832
▁patient	-9.74006
istic	-9.74161
▁chicago	-9.74222
▁regular	-9.74222
▁suicide	-9.74222
▁texas	-9.74222
▁vehicle	-9.74222
▁bilbo	-9.74222
▁eagle	-9.74222
▁cindy	-9.74222
▁danielsan	-9.74229
▁spring	-9.74255
▁fra	-9.74259
▁handsome	-9.74261
▁destroyed	-9.74295
▁chill	-9.74337
▁winter	-9.74458
▁expecting	-9.74633
▁ko	-9.74702
▁add	-9.74848
▁hol	-9.74905
▁fellas	-9.74949
▁tick	-9.74974
▁load	-9.751
ub	-9.75129
▁issue	-9.7513
▁guards	-9.75233
▁audience	-9.75309
▁square	-9.75309
▁toilet	-9.75309
▁universe	-9.75309
▁wizard	-9.75309
▁source	-9.75309
▁prick	-9.75309
▁device	-9.75314
▁pirate	-9.75321
▁greg	-9.75324
▁property	-9.75332
▁riley	-9.75338
▁according	-9.75391
▁duty	-9.75407
▁joan	-9.75452
act	-9.7557
▁pulled	-9.75648
▁dust	-9.75931
▁vote	-9.76265
▁gentle	-9.76336
▁vacation	-9.76408
▁wicked	-9.76408
▁twist	-9.76408
▁zach	-9.76454
▁apple	-9.76533
▁rope	-9.76552
▁bla	-9.76561
▁approaching	-9.76783
unk	-9.76991
▁corn	-9.76993
▁banging	-9.77049
▁rise	-9.77062
▁cars	-9.77073
▁bud	-9.77084
▁sweat	-9.77097
▁direct	-9.77178
▁sha	-9.77195
ire	-9.77321
▁mal	-9.77417
▁curse	-9.77445
val	-9.77506
▁inhales	-9.77519
▁terrific	-9.77519
▁kelly	-9.7752
▁europe	-9.77522
▁hail	-9.77528
▁aware	-9.77538
▁howard	-9.77542
▁grave	-9.77605
▁closet	-9.77717
▁stayed	-9.77756
▁lines	-9.77806
row	-9.77851
▁actor	-9.77934
lie	-9.77978
▁prepared	-9.77981
▁concerned	-9.7802
▁failed	-9.78039
▁image	-9.78115
▁rolling	-9.78226
▁it	-9.78246
▁dam	-9.78314
▁cla	-9.78537
▁collect	-9.78582
▁ze	-9.78584
▁magazine	-9.78642
▁piano	-9.78643
▁limit	-9.7865
▁wailing	-9.78651
▁esther	-9.78654
▁wide	-9.78655
▁baseball	-9.78655
▁claim	-9.78659
▁trans	-9.7873
▁loves	-9.78741
▁hearing	-9.78801
▁opens	-9.78839
▁tiny	-9.78885
▁rey	-9.78971
▁tur	-9.79007
cut	-9.79094
▁nearly	-9.79141
▁burned	-9.79201
▁thy	-9.79339
▁trees	-9.79387
▁dia	-9.7939
▁fort	-9.79477
can	-9.7957
▁letting	-9.7961
▁mmhm	-9.79678
ddle	-9.79701
▁opened	-9.7972
▁appear	-9.79733
▁monsieur	-9.79779
▁rumbling	-9.79779
▁shield	-9.79779
▁physical	-9.79779
▁trash	-9.79779
▁gather	-9.79796
▁value	-9.798
▁champion	-9.79804
▁bedroom	-9.79809
▁yeh	-9.79823
▁nina	-9.79892
▁tense	-9.79942
▁ban	-9.79949
▁salt	-9.80021
▁expected	-9.80098
ipping	-9.80162
▁qui	-9.80172
▁grade	-9.80176
au	-9.80394
ken	-9.80549
▁india	-9.80775
▁anthony	-9.80928
▁florida	-9.80928
▁fought	-9.80928
▁sandwich	-9.80928
▁understood	-9.80928
▁access	-9.80928
▁krab	-9.80928
▁med	-9.80931
▁scratch	-9.80931
▁skipper	-9.80945
▁tiger	-9.80952
▁gang	-9.81017
▁tear	-9.81046
ita	-9.8105
▁brains	-9.81073
▁hum	-9.81115
▁slo	-9.81431
▁wo	-9.81532
tz	-9.81573
oon	-9.81604
▁create	-9.8173
▁reporter	-9.81733
▁fri	-9.81764
chi	-9.8198
▁somethin	-9.81995
▁fantastic	-9.82091
▁license	-9.82091
▁process	-9.82091
▁responsible	-9.82091
▁whirring	-9.82091
▁dawn	-9.82091
▁sexual	-9.82093
▁desire	-9.82094
▁hung	-9.8211
▁simba	-9.82112
▁shooting	-9.82113
▁onto	-9.82133
▁direction	-9.82155
atch	-9.82235
▁believed	-9.82258
▁china	-9.8226
ja	-9.8226
▁mister	-9.82265
▁loss	-9.8233
▁wit	-9.8236
pen	-9.82434
▁lily	-9.82452
▁bru	-9.82481
▁photograph	-9.82599
▁simon	-9.82654
▁anne	-9.82976
▁knees	-9.8306
load	-9.83127
▁ru	-9.83245
▁chinese	-9.83267
▁mercy	-9.83267
▁buried	-9.83269
▁route	-9.83273
▁insist	-9.83276
▁sexy	-9.83385
▁standard	-9.83394
▁laid	-9.83498
▁national	-9.83546
pin	-9.83578
gi	-9.8359
▁spare	-9.83591
▁nail	-9.83631
▁bu	-9.83696
▁itd	-9.83698
▁showing	-9.83807
▁bone	-9.83813
▁wise	-9.83871
▁fail	-9.83949
▁followed	-9.84028
ville	-9.84268
▁cheer	-9.84341
▁cow	-9.84354
▁sail	-9.84439
▁butler	-9.84458
▁elliot	-9.84458
▁speech	-9.84458
▁stomach	-9.84458
▁ocean	-9.84458
▁intend	-9.84458
▁vision	-9.84466
ong	-9.84482
▁yearold	-9.84511
▁naked	-9.84517
▁jeff	-9.84528
▁energy	-9.84531
▁reached	-9.84553
▁laughter	-9.84578
▁manager	-9.84595
▁ruth	-9.84608
▁holly	-9.84657
▁beeps	-9.84761
▁papers	-9.8477
▁ted	-9.84829
▁neil	-9.84844
▁min	-9.8494
▁raised	-9.85108
▁design	-9.85109
you	-9.85177
port	-9.85265
▁covered	-9.85273
rate	-9.85297
▁doo	-9.85374
▁woo	-9.85404
▁closes	-9.85561
▁we	-9.85602
hu	-9.85615
▁desperate	-9.85663
▁traffic	-9.85663
▁wolf	-9.85663
▁snake	-9.85663
▁adrian	-9.85663
▁swim	-9.85663
▁downtown	-9.85668
▁jenny	-9.85669
▁clever	-9.8567
▁staff	-9.85689
▁sarah	-9.85716
▁places	-9.85752
▁tara	-9.85763
uff	-9.85784
▁disgusting	-9.8579
▁friendship	-9.85801
▁dragon	-9.85815
▁jackson	-9.85865
▁allen	-9.85883
ative	-9.86011
▁smells	-9.86028
▁boring	-9.861
▁gods	-9.86146
▁doug	-9.8619
▁poison	-9.86324
▁keeps	-9.864
▁soldiers	-9.865
house	-9.8656
▁jon	-9.86857
▁gandalf	-9.86882
▁guarantee	-9.86882
▁permission	-9.86882
▁disturb	-9.86882
▁clark	-9.86883
▁screen	-9.86936
▁lover	-9.8699
▁panic	-9.87006
top	-9.87092
▁mid	-9.8716
▁flower	-9.87353
▁reg	-9.87434
pped	-9.87535
▁concern	-9.87563
▁helped	-9.87596
▁gru	-9.87611
▁burning	-9.87641
▁pat	-9.87665
▁lower	-9.87726
▁insurance	-9.88117
ology	-9.8812
▁gal	-9.88133
▁option	-9.88138
▁confused	-9.88162
tti	-9.88168
bit	-9.88194
ue	-9.88201
▁log	-9.88243
▁christian	-9.88246
▁oil	-9.88295
nce	-9.88303
rin	-9.8838
▁meal	-9.8844
▁ir	-9.88441
▁matters	-9.88452
▁term	-9.88527
▁legal	-9.88663
▁cast	-9.8869
nie	-9.88698
▁pur	-9.88895
▁rot	-9.88955
▁require	-9.88978
ack	-9.89026
▁cookie	-9.89109
▁clearly	-9.89242
▁writer	-9.89296
▁threat	-9.89366
▁recommend	-9.89367
▁fruit	-9.89367
▁washington	-9.89367
▁shift	-9.89367
▁mag	-9.89375
▁monday	-9.89377
▁diane	-9.89405
▁heb	-9.89481
▁began	-9.89482
▁gene	-9.89507
▁bound	-9.89554
▁mood	-9.89964
boy	-9.90021
▁leon	-9.90375
▁gee	-9.90411
▁marie	-9.90412
▁scott	-9.90545
▁chamber	-9.90632
▁complicated	-9.90632
▁expensive	-9.90632
▁oclock	-9.90632
▁responsibility	-9.90632
▁clown	-9.90633
▁location	-9.90633
▁nancy	-9.90635
▁basically	-9.90638
▁smoking	-9.90639
▁joking	-9.90663
▁coast	-9.90664
att	-9.90682
▁chocolate	-9.90697
▁bug	-9.90733
▁coop	-9.90744
▁uhoh	-9.90776
▁checked	-9.90782
▁jew	-9.90798
▁ahh	-9.90841
▁signed	-9.90972
▁ap	-9.91012
▁shows	-9.91167
▁rocket	-9.91389
▁shock	-9.914
ax	-9.91409
▁sending	-9.91495
beat	-9.91691
▁inform	-9.91865
▁ohh	-9.91899
▁gllllan	-9.91915
▁ashamed	-9.91915
▁england	-9.91915
▁arthur	-9.91915
▁cowboy	-9.9192
▁ren	-9.9194
▁proper	-9.91945
▁desk	-9.9196
▁cady	-9.91987
▁der	-9.91996
▁voor	-9.92007
▁forest	-9.92028
▁slap	-9.92038
▁om	-9.92065
▁bail	-9.92111
▁stolen	-9.92189
▁headed	-9.92219
▁bags	-9.92292
▁off	-9.92343
▁creature	-9.92349
▁armed	-9.92366
▁bur	-9.9238
▁yee	-9.92523
▁cia	-9.92564
▁ended	-9.92681
▁coughs	-9.9278
▁spy	-9.92793
▁para	-9.92839
▁heading	-9.92891
▁ton	-9.92948
ties	-9.93089
▁defense	-9.93213
▁memories	-9.93213
▁necessary	-9.93213
▁whimpering	-9.93213
▁stood	-9.93214
▁crawl	-9.93217
▁alert	-9.93218
▁cheap	-9.93232
▁connie	-9.93241
▁legend	-9.93256
▁doll	-9.93287
▁pit	-9.93305
▁edge	-9.93309
▁wade	-9.93312
▁bun	-9.93354
▁flag	-9.9337
▁zone	-9.93402
▁organ	-9.9342
▁ships	-9.93535
▁wipe	-9.93551
▁jan	-9.93711
▁hei	-9.93728
tr	-9.93878
▁sooner	-9.93965
▁cares	-9.94172
▁ci	-9.94344
▁sudden	-9.94348
▁success	-9.94501
▁flash	-9.94523
▁delicious	-9.94529
▁disease	-9.94529
▁footsteps	-9.94529
▁greville	-9.94529
▁interrupt	-9.94529
▁precious	-9.94529
▁lawrence	-9.94529
▁complain	-9.94529
▁hug	-9.94596
▁nasty	-9.94652
▁woke	-9.94713
▁style	-9.94713
▁rare	-9.94734
▁hurts	-9.94832
▁ol	-9.94915
▁ant	-9.95225
▁dirt	-9.9558
room	-9.95591
hand	-9.95593
▁perfectly	-9.95624
▁usual	-9.95686
▁anti	-9.95773
▁prime	-9.95829
▁attempt	-9.95862
▁squad	-9.95862
▁period	-9.95863
▁sneak	-9.95863
▁whistle	-9.95863
▁assistant	-9.95874
▁slide	-9.95878
▁mouse	-9.959
▁loving	-9.95906
▁giant	-9.95909
▁bump	-9.95965
▁smith	-9.95972
▁chanting	-9.96044
▁julie	-9.96059
▁trained	-9.96139
oh	-9.96157
▁lately	-9.96265
▁ox	-9.96295
lan	-9.96299
▁personally	-9.96412
▁milo	-9.96473
▁attacked	-9.9649
▁moms	-9.96507
▁lips	-9.96531
▁pieces	-9.96622
▁bugs	-9.96764
▁chop	-9.97016
▁comm	-9.97124
▁flow	-9.9713
▁worlds	-9.97197
▁ancient	-9.97214
▁attend	-9.97214
▁governor	-9.97214
▁grandfather	-9.97214
▁someday	-9.97214
▁selina	-9.97214
▁federal	-9.97214
▁claire	-9.9722
▁border	-9.97228
▁punk	-9.97246
▁owner	-9.97269
▁pipe	-9.97295
▁rem	-9.97388
▁santa	-9.97502
▁role	-9.97529
▁hatch	-9.97532
▁lars	-9.97783
▁tickets	-9.97825
▁surely	-9.97851
▁ref	-9.97991
▁vo	-9.98008
▁crush	-9.98025
▁powers	-9.98052
▁ding	-9.98122
▁au	-9.98128
▁sport	-9.98188
▁returned	-9.98194
▁receive	-9.98196
▁rev	-9.9825
▁younger	-9.98301
bie	-9.98354
ast	-9.98357
▁filled	-9.98378
book	-9.98445
▁mix	-9.98561
▁celebrate	-9.98584
▁eventually	-9.98584
▁helicopter	-9.98584
▁justice	-9.98584
▁respond	-9.98584
▁rhett	-9.98584
▁telephone	-9.98584
▁dozen	-9.98584
▁strain	-9.98584
▁desert	-9.98585
▁marcus	-9.98626
▁oak	-9.98644
▁unfortunately	-9.98652
▁potter	-9.98691
mar	-9.99023
▁host	-9.99071
▁cre	-9.99193
ably	-9.99298
▁manner	-9.99465
▁chase	-9.99628
▁maria	-9.99723
▁comin	-9.99939
▁gettin	-9.99945
▁affair	-9.99972
▁council	-9.99972
▁dorothy	-9.99972
▁revenge	-9.99972
▁grateful	-9.99973
▁silence	-9.99973
▁hazel	-9.99973
▁gerry	-9.99973
▁funeral	-9.99975
▁conrad	-9.99976
▁priest	-9.99979
▁trunk	-9.99994
▁fbi	-10.0004
▁recently	-10.0004
▁strip	-10.0009
▁yell	-10.0014
▁cage	-10.0023
▁gus	-10.0024
▁walls	-10.0035
▁created	-10.0045
▁gig	-10.0049
▁slowly	-10.0075
▁member	-10.0083
▁sale	-10.0084
▁fucker	-10.0088
field	-10.0103
lle	-10.0112
use	-10.0119
▁official	-10.012
▁sink	-10.012
▁exact	-10.0123
▁perform	-10.0136
▁holiday	-10.0138
▁incident	-10.0138
▁patrick	-10.0138
▁treasure	-10.0138
▁monitor	-10.0138
▁divine	-10.0138
▁expert	-10.0138
▁cohen	-10.0138
▁firm	-10.0138
▁harris	-10.0139
▁pride	-10.0139
▁latin	-10.0139
work	-10.014
▁rude	-10.0143
▁foul	-10.0144
▁basement	-10.0145
▁missile	-10.0153
fer	-10.016
▁golden	-10.0165
▁gri	-10.0165
▁bowl	-10.0176
▁siren	-10.0194
▁hut	-10.0195
▁entirely	-10.0201
▁checking	-10.0202
▁pure	-10.0212
▁cleaning	-10.022
▁fixed	-10.0221
▁dial	-10.0222
▁arrive	-10.023
▁schedule	-10.0242
▁sucks	-10.0248
▁stronger	-10.0262
▁obvious	-10.0263
▁belongs	-10.0274
▁represent	-10.0281
▁attitude	-10.0281
▁available	-10.0281
▁equipment	-10.0281
▁ignore	-10.0281
▁journey	-10.0281
▁unusual	-10.0281
▁whimpers	-10.0281
▁stairs	-10.0281
▁appointment	-10.0282
▁trapped	-10.0282
▁curious	-10.0283
away	-10.0287
▁hij	-10.0294
▁fade	-10.03
▁setting	-10.0304
▁deck	-10.0327
▁tor	-10.0328
▁skip	-10.0328
▁cri	-10.0335
▁aid	-10.034
▁bum	-10.0341
▁vol	-10.0345
▁fart	-10.0355
▁toe	-10.0361
▁bay	-10.0389
town	-10.0391
▁grant	-10.0405
▁trap	-10.0407
▁hop	-10.0424
▁yi	-10.0425
▁audrey	-10.0426
▁happiness	-10.0426
▁thirty	-10.0426
▁unknown	-10.0426
▁zijn	-10.0426
▁donnie	-10.0426
▁example	-10.0426
▁pathetic	-10.0426
▁result	-10.0426
▁greek	-10.0426
▁merry	-10.0426
▁gym	-10.0426
▁unbelievable	-10.0427
▁bride	-10.043
▁arch	-10.043
▁fred	-10.0431
▁nobodys	-10.0432
▁fence	-10.0436
▁rusty	-10.0441
▁iii	-10.0463
▁bleeding	-10.0467
▁towards	-10.0471
▁sports	-10.0476
▁voices	-10.0477
▁gain	-10.0495
ude	-10.0496
▁rub	-10.0498
▁cho	-10.0502
▁amy	-10.0504
▁beating	-10.0512
▁crow	-10.0515
▁mel	-10.0527
▁hip	-10.0535
▁doctors	-10.0544
▁russia	-10.0557
▁comfort	-10.057
▁object	-10.057
▁tunnel	-10.0573
▁challenge	-10.0573
▁effort	-10.0573
▁rabbit	-10.0573
▁couch	-10.0573
▁flesh	-10.0573
▁taxi	-10.0574
▁trace	-10.0574
▁comment	-10.0577
▁everyones	-10.0577
▁connection	-10.0577
▁planning	-10.0579
▁lightning	-10.058
▁barking	-10.0581
▁slight	-10.0582
▁heal	-10.0585
ppy	-10.0588
▁aim	-10.0594
▁cent	-10.0597
▁title	-10.0597
▁sew	-10.0598
▁creaking	-10.0604
▁fighter	-10.0605
▁dev	-10.0605
▁tap	-10.0614
▁healthy	-10.0617
▁knocked	-10.0621
▁bored	-10.0621
je	-10.0624
▁sandy	-10.0636
▁tin	-10.064
▁photo	-10.064
▁butter	-10.0654
▁officers	-10.0658
▁disappeared	-10.066
▁diamond	-10.0674
▁touched	-10.0678
▁screwed	-10.0689
▁pound	-10.069
▁sur	-10.0696
▁mile	-10.071
▁chirping	-10.0722
▁community	-10.0722
▁jessica	-10.0722
▁league	-10.0722
▁margaret	-10.0722
▁mowgli	-10.0722
▁spongebob	-10.0722
▁solve	-10.0722
▁blew	-10.0722
▁dennis	-10.0722
▁gross	-10.0722
▁whatre	-10.0723
▁roars	-10.0723
▁lenny	-10.0723
▁impressive	-10.0724
▁regard	-10.0724
▁marvin	-10.0726
▁lei	-10.0732
▁auntie	-10.0737
▁belle	-10.074
▁len	-10.0747
my	-10.0754
▁cameras	-10.076
▁fourth	-10.0763
rat	-10.0773
▁pity	-10.0781
▁kicked	-10.0786
▁deny	-10.0791
▁mighty	-10.0792
▁lack	-10.0793
bar	-10.08
▁shoe	-10.0818
right	-10.0822
▁bea	-10.0826
tre	-10.0832
▁scrap	-10.0833
▁blowing	-10.0843
▁hunting	-10.0844
dog	-10.086
▁confess	-10.0867
▁fed	-10.0872
▁jonathan	-10.0874
▁mcqueen	-10.0874
▁museum	-10.0874
▁twelve	-10.0874
▁document	-10.0874
▁contain	-10.0874
▁warrior	-10.0874
▁thatd	-10.0874
▁trail	-10.0874
▁lampley	-10.0874
▁proof	-10.0877
▁winning	-10.088
▁shy	-10.0881
▁decent	-10.0881
▁streets	-10.0882
▁guardian	-10.0883
▁mil	-10.0914
▁bush	-10.0916
▁archer	-10.0929
apping	-10.0933
▁shots	-10.0942
▁data	-10.0945
▁spending	-10.0948
▁joint	-10.0954
▁higher	-10.0961
ada	-10.097
▁drown	-10.0972
▁hath	-10.0975
▁bean	-10.0979
▁beep	-10.0983
▁waited	-10.1001
▁chew	-10.1027
▁destiny	-10.1028
▁fashion	-10.1028
▁giggling	-10.1028
▁including	-10.1028
▁miracle	-10.1028
▁slept	-10.1028
▁guitar	-10.1028
▁punish	-10.1028
▁article	-10.1028
▁candle	-10.1028
▁banana	-10.1028
▁material	-10.1028
▁karate	-10.1029
▁ellie	-10.103
▁guide	-10.103
▁sara	-10.1034
iva	-10.1036
▁string	-10.1038
▁tuck	-10.1039
▁fleet	-10.104
▁blade	-10.1041
▁classic	-10.1048
▁poe	-10.1049
ward	-10.1051
▁passion	-10.1052
▁spoken	-10.1057
▁suffer	-10.1068
▁families	-10.1075
▁hired	-10.1082
▁tied	-10.1086
yard	-10.1088
ctor	-10.1096
▁warn	-10.1102
▁nor	-10.1103
▁laws	-10.1115
▁que	-10.112
▁singer	-10.1127
▁cancel	-10.1128
▁mat	-10.1131
▁wel	-10.1134
▁spin	-10.1138
▁joey	-10.1141
▁county	-10.1166
▁ham	-10.1171
▁secrets	-10.1182
▁resist	-10.1183
▁adventure	-10.1184
▁avoid	-10.1184
▁garbage	-10.1184
▁mexico	-10.1184
▁michelle	-10.1184
▁progress	-10.1184
▁subtitles	-10.1184
▁television	-10.1184
▁practical	-10.1184
▁twin	-10.1184
▁pepper	-10.1184
▁troy	-10.1184
▁burger	-10.1186
▁forgotten	-10.1187
▁tears	-10.119
▁secretary	-10.1193
▁duck	-10.1202
▁riding	-10.1203
▁glen	-10.1205
cept	-10.1205
▁pour	-10.1206
ji	-10.1207
gar	-10.1218
▁miller	-10.1218
▁glasses	-10.1222
▁tit	-10.1233
▁emotional	-10.1252
▁unh	-10.1261
ox	-10.1267
▁prayer	-10.1278
don	-10.128
▁pleased	-10.1294
▁bitches	-10.1299
▁spa	-10.1304
ole	-10.1305
▁creep	-10.1314
▁victim	-10.1315
▁lookin	-10.132
cent	-10.1322
▁chuck	-10.1325
tru	-10.1327
▁advantage	-10.1343
▁applause	-10.1343
▁experiment	-10.1343
▁several	-10.1343
▁mallory	-10.1343
▁crystal	-10.1343
▁mgan	-10.1343
▁thrill	-10.1343
▁hassan	-10.1343
▁plain	-10.1343
▁modern	-10.1343
▁illegal	-10.1343
▁demand	-10.1343
▁granny	-10.1343
▁eep	-10.1343
▁closing	-10.1344
▁knight	-10.1345
▁juice	-10.1347
▁dealing	-10.1347
▁lance	-10.1362
▁surf	-10.1365
cha	-10.1371
gger	-10.1372
▁murderer	-10.138
uit	-10.1383
▁anton	-10.1383
▁useless	-10.1384
▁clicks	-10.1388
▁blows	-10.1395
▁assholes	-10.1401
▁flip	-10.1403
▁answers	-10.1406
▁pm	-10.1411
▁pulling	-10.1422
▁sirens	-10.1424
▁pol	-10.1432
▁creatures	-10.145
berg	-10.1451
▁divorce	-10.1465
cle	-10.1476
mmy	-10.149
▁pump	-10.1503
▁gorgeous	-10.1504
▁lincoln	-10.1504
▁nonsense	-10.1504
▁orchestra	-10.1504
▁skull	-10.1504
▁stretch	-10.1504
▁tradition	-10.1504
▁vampire	-10.1504
▁shadow	-10.1504
▁gemma	-10.1504
▁proceed	-10.1504
▁moaning	-10.1504
▁brooks	-10.1504
▁transport	-10.1505
▁kitty	-10.1506
▁honking	-10.1506
▁tool	-10.151
▁award	-10.1513
▁loan	-10.1519
▁roman	-10.1521
▁slave	-10.1523
▁booth	-10.1523
▁picking	-10.1533
face	-10.1537
▁bury	-10.1544
▁billion	-10.1545
▁pinch	-10.1548
▁diamonds	-10.1557
▁charming	-10.1559
▁rum	-10.1561
▁surviv	-10.157
▁gray	-10.1573
▁leo	-10.1581
▁bare	-10.1607
▁goat	-10.1608
ama	-10.1612
▁pissed	-10.1615
▁hem	-10.1635
▁barr	-10.1648
▁electric	-10.1665
▁muffled	-10.1668
▁surrender	-10.1668
▁suspense	-10.1668
▁trumpet	-10.1668
▁enemies	-10.1668
▁kappa	-10.1668
▁mookie	-10.1668
▁sweep	-10.1668
▁cotton	-10.1668
▁cardinal	-10.1668
▁thief	-10.1668
▁nerve	-10.1668
▁terry	-10.1668
▁stress	-10.1668
▁recover	-10.1669
▁bunny	-10.1669
▁advise	-10.167
▁ease	-10.167
▁lin	-10.1672
▁cooking	-10.1675
▁cards	-10.1677
▁chef	-10.1679
▁ending	-10.1679
▁float	-10.1684
▁highly	-10.1685
▁badge	-10.169
▁embarrassing	-10.1699
▁protection	-10.1704
shit	-10.1712
▁pounds	-10.1712
▁discovered	-10.1719
▁carol	-10.1721
well	-10.1729
▁mass	-10.1729
part	-10.174
▁hor	-10.1744
▁sue	-10.1763
▁of	-10.1774
car	-10.1779
▁forced	-10.1786
▁lane	-10.179
▁barn	-10.1791
▁invite	-10.1796
what	-10.1798
▁sometime	-10.1825
▁staring	-10.1831
▁remembered	-10.1833
▁feather	-10.1834
▁halloween	-10.1834
▁violence	-10.1834
▁british	-10.1834
▁torture	-10.1834
▁constant	-10.1834
▁beverly	-10.1834
▁bread	-10.1834
▁silent	-10.1834
▁hindi	-10.1834
▁drove	-10.1835
▁bravo	-10.1835
▁thorin	-10.1835
▁flame	-10.1836
▁propose	-10.1836
▁appears	-10.1838
▁bruce	-10.1839
▁brush	-10.1839
▁cunt	-10.184
▁root	-10.1842
▁nut	-10.1845
▁jamie	-10.1851
▁dash	-10.1859
▁casey	-10.1878
han	-10.188
▁tend	-10.1883
▁offered	-10.1885
▁event	-10.1888
▁crewe	-10.192
▁photos	-10.1927
gging	-10.1931
▁ruined	-10.1945
▁refuse	-10.1965
▁details	-10.1972
▁prob	-10.1981
▁vera	-10.199
▁counter	-10.1996
▁express	-10.1998
▁ye	-10.1999
▁spec	-10.2004
ologist	-10.2004
▁amount	-10.2004
▁intense	-10.2004
▁oxygen	-10.2004
▁tuesday	-10.2004
▁underpants	-10.2004
▁gloria	-10.2004
▁mistress	-10.2004
▁changing	-10.2004
▁laura	-10.2004
▁saint	-10.2004
▁print	-10.2005
▁koning	-10.2005
▁civilian	-10.2006
▁therell	-10.2006
▁fanny	-10.2008
▁olive	-10.2009
▁wilson	-10.2009
▁thud	-10.2011
▁treatment	-10.2015
▁ag	-10.2017
▁shaw	-10.2019
izing	-10.2026
▁issues	-10.2032
▁gear	-10.2032
lon	-10.2033
ever	-10.2041
bble	-10.2048
▁toss	-10.205
▁teaching	-10.2057
▁assure	-10.2057
▁deco	-10.2065
▁lit	-10.2066
fuck	-10.2068
▁designed	-10.2083
▁bass	-10.2085
▁guests	-10.2085
▁pills	-10.2095
▁fore	-10.2105
▁bron	-10.2106
stro	-10.2113
▁confirm	-10.2121
▁shout	-10.2129
ight	-10.2134
born	-10.2143
▁monsters	-10.2146
▁counting	-10.215
▁bor	-10.2162
▁possess	-10.217
▁employ	-10.2174
▁casablanca	-10.2176
▁compliment	-10.2176
▁conference	-10.2176
▁negative	-10.2176
▁wreck	-10.2176
▁becoming	-10.2176
▁plankton	-10.2176
▁disaster	-10.2176
▁hank	-10.2177
▁ellen	-10.2177
▁register	-10.2177
▁denise	-10.2178
▁theory	-10.2179
▁uhuh	-10.218
▁firing	-10.2181
▁unlike	-10.2181
▁darkness	-10.2191
▁statement	-10.2194
▁convinced	-10.2203
▁orc	-10.2204
▁gall	-10.2206
▁hitting	-10.2211
▁patients	-10.2211
▁walter	-10.2216
▁visitor	-10.2216
▁ranger	-10.2219
▁throwing	-10.222
bre	-10.2223
ability	-10.2246
▁drum	-10.225
▁jackie	-10.2257
▁ordered	-10.2261
cus	-10.2261
▁indistinctly	-10.2268
▁messed	-10.2269
mate	-10.2278
▁charm	-10.2292
▁approach	-10.2292
▁escaped	-10.2293
▁the	-10.2295
cat	-10.2314
▁survived	-10.2322
▁tale	-10.2325
▁prom	-10.2332
pot	-10.2334
▁liz	-10.2337
▁stab	-10.2338
hole	-10.234
▁thin	-10.2347
▁describe	-10.2352
▁explosion	-10.2352
▁grandmother	-10.2352
▁investigation	-10.2352
▁satellite	-10.2352
▁squeeze	-10.2352
▁uniform	-10.2352
▁yelps	-10.2352
▁century	-10.2352
▁smash	-10.2352
▁warrant	-10.2352
▁solid	-10.2352
▁nathan	-10.2352
▁stanley	-10.2355
▁lean	-10.2355
▁moral	-10.2356
▁exchange	-10.2356
▁meg	-10.2359
▁aside	-10.236
▁anger	-10.236
▁christine	-10.2367
▁sandie	-10.2369
▁penis	-10.2372
▁impressed	-10.2379
▁sock	-10.238
▁parking	-10.2385
▁crown	-10.2386
▁tank	-10.2387
▁gim	-10.239
▁forces	-10.2408
▁hilly	-10.2409
▁hood	-10.2413
ado	-10.2414
▁gag	-10.2418
▁selling	-10.243
▁pushing	-10.2431
wee	-10.2441
▁medal	-10.2451
▁bri	-10.2455
atic	-10.246
▁seek	-10.2464
some	-10.2466
▁weed	-10.247
▁discover	-10.2477
▁windows	-10.2482
▁mob	-10.2493
▁brand	-10.2502
▁slip	-10.2524
ically	-10.2528
▁mini	-10.2528
▁ambulance	-10.253
▁escort	-10.253
▁exercise	-10.253
▁offense	-10.253
▁potential	-10.253
▁valentine	-10.253
▁symbol	-10.253
▁brief	-10.253
▁central	-10.253
▁swimming	-10.253
▁wilkes	-10.2531
▁swan	-10.2531
▁trigger	-10.2531
▁lamb	-10.2531
▁sobs	-10.2532
▁shopping	-10.2532
▁watson	-10.2535
sky	-10.2536
▁wrap	-10.2536
▁spill	-10.2537
▁scottie	-10.2543
▁coke	-10.2549
▁engaged	-10.2549
▁homework	-10.2549
▁dee	-10.2552
▁naturally	-10.2565
▁lick	-10.2569
▁dit	-10.2572
▁hills	-10.2582
▁cure	-10.2613
▁victory	-10.2622
▁passing	-10.2625
more	-10.2632
▁prop	-10.2637
▁chap	-10.2641
▁backup	-10.2651
▁core	-10.2657
▁systems	-10.2662
▁fel	-10.2669
jack	-10.2673
▁arrested	-10.2677
gram	-10.2686
▁range	-10.2698
▁stealing	-10.2698
▁customers	-10.2702
▁bid	-10.2707
▁fairy	-10.2708
▁specific	-10.2711
▁replace	-10.2712
▁explode	-10.2712
▁response	-10.2712
▁vatican	-10.2712
▁dublin	-10.2712
▁permanent	-10.2712
▁popular	-10.2712
▁grief	-10.2712
▁phillip	-10.2712
▁theater	-10.2712
▁jeez	-10.2712
▁hidden	-10.2712
▁sample	-10.2712
▁faint	-10.2713
▁mickey	-10.2713
▁blanket	-10.2714
▁spoon	-10.2715
▁brick	-10.2715
▁valley	-10.2716
▁sauce	-10.2716
▁sammy	-10.2716
▁satine	-10.2717
▁leena	-10.2718
▁wax	-10.2722
▁kissing	-10.273
▁lena	-10.2732
▁cloud	-10.2734
▁cutting	-10.2743
▁johnson	-10.2744
▁yu	-10.2753
▁received	-10.2764
▁eggsy	-10.2767
▁chasing	-10.277
▁radi	-10.277
▁confirmed	-10.2771
▁fully	-10.2779
▁members	-10.279
▁comb	-10.2796
▁served	-10.2807
like	-10.2812
▁buying	-10.2833
▁pile	-10.2856
▁separate	-10.2858
▁boyd	-10.2866
▁considered	-10.2867
▁hoo	-10.2886
▁vic	-10.2894
▁catholic	-10.2897
▁heighho	-10.2897
▁matthew	-10.2897
▁occasion	-10.2897
▁positive	-10.2897
▁sunshine	-10.2897
▁therapy	-10.2897
▁whistling	-10.2897
▁column	-10.2897
▁outfit	-10.2897
▁glory	-10.2897
▁balance	-10.2898
▁smack	-10.2898
▁medicine	-10.2898
▁contest	-10.2899
▁blaring	-10.29
▁commitment	-10.29
▁milton	-10.2901
▁macho	-10.2901
▁golf	-10.2903
▁slice	-10.2904
▁carlos	-10.2905
▁mental	-10.2905
▁moron	-10.2909
▁extremely	-10.2913
▁painful	-10.2914
▁yup	-10.2921
▁betty	-10.2923
▁stevens	-10.2924
▁hundreds	-10.2927
▁dreaming	-10.2954
▁nest	-10.296
▁giggles	-10.2975
▁yay	-10.298
▁union	-10.2987
▁studying	-10.3006
▁los	-10.3009
▁depends	-10.3023
▁knee	-10.3033
hold	-10.3046
looking	-10.3052
▁dealer	-10.3056
▁mars	-10.3061
▁beard	-10.3061
▁gates	-10.3069
▁cam	-10.3073
▁chose	-10.3078
▁invest	-10.3082
▁transfer	-10.3086
▁attorney	-10.3086
▁behavior	-10.3086
▁clattering	-10.3086
▁environment	-10.3086
▁newspaper	-10.3086
▁sensitive	-10.3086
▁therefore	-10.3086
▁admire	-10.3086
▁merlin	-10.3086
▁policy	-10.3086
▁dalton	-10.3086
▁distant	-10.3086
▁basketball	-10.3087
▁junk	-10.309
▁patty	-10.309
▁abby	-10.3093
▁jewel	-10.3095
ana	-10.3098
▁dope	-10.3099
▁maar	-10.3113
▁tryin	-10.3114
▁freaking	-10.3116
▁exit	-10.3119
▁purse	-10.3119
▁alter	-10.312
▁detail	-10.3122
▁circumstances	-10.3124
▁ruby	-10.3126
▁andy	-10.3128
▁jean	-10.3131
erie	-10.3132
stone	-10.3134
▁fallen	-10.3153
▁ward	-10.3164
▁scr	-10.3168
▁and	-10.3175
▁hai	-10.3187
even	-10.3199
▁mentioned	-10.3218
▁betray	-10.3223
▁shitty	-10.3232
▁provide	-10.3239
▁whip	-10.3241
▁manage	-10.3246
▁seal	-10.3248
▁speakers	-10.3257
▁current	-10.326
▁sum	-10.3266
▁anniversary	-10.3278
▁champagne	-10.3278
▁channel	-10.3278
▁coincidence	-10.3278
▁convict	-10.3278
▁fifty	-10.3278
▁malorie	-10.3278
▁surgery	-10.3278
▁maintain	-10.3278
▁pattern	-10.3278
▁waldo	-10.3278
▁aaron	-10.3278
ization	-10.3278
▁method	-10.3279
▁estate	-10.3279
▁adult	-10.3279
▁defeat	-10.3279
▁plastic	-10.3279
▁review	-10.328
▁minister	-10.3281
▁steel	-10.3281
▁prins	-10.3281
▁garage	-10.3282
▁noble	-10.3283
▁grandpa	-10.3285
▁reward	-10.3285
wind	-10.3285
▁worm	-10.329
▁mush	-10.3291
▁vanish	-10.3295
▁chow	-10.3296
▁wallet	-10.3296
▁heel	-10.3297
▁ken	-10.3297
▁ava	-10.3297
▁bout	-10.3303
▁ku	-10.3312
▁tricks	-10.3315
▁sighing	-10.3331
▁woody	-10.3338
▁magical	-10.336
▁former	-10.3371
▁kay	-10.3377
▁roy	-10.3381
tric	-10.3386
▁based	-10.3386
▁poll	-10.3401
▁sm	-10.3415
▁theo	-10.3448
▁chat	-10.345
▁aibileen	-10.3474
▁benefit	-10.3474
▁education	-10.3474
▁explosiveskull	-10.3474
▁intelligence	-10.3474
▁library	-10.3474
▁privilege	-10.3474
▁worries	-10.3474
▁generation	-10.3474
▁agency	-10.3474
▁steady	-10.3474
▁wrist	-10.3474
▁activate	-10.3474
▁martha	-10.3474
▁summon	-10.3475
▁carried	-10.3476
▁section	-10.3477
lor	-10.3478
▁vader	-10.3481
▁series	-10.3481
▁broad	-10.3484
▁stake	-10.3485
▁task	-10.3487
▁gil	-10.3488
▁chosen	-10.3492
▁labor	-10.3496
▁tits	-10.3497
▁berlin	-10.35
▁fry	-10.3506
▁timing	-10.3518
▁angeles	-10.3519
▁exclaims	-10.3521
▁pam	-10.3525
iest	-10.3526
▁dancer	-10.3538
▁worker	-10.354
▁plat	-10.3543
▁rats	-10.3552
▁flu	-10.3576
▁site	-10.3595
▁cong	-10.3621
▁inn	-10.3627
▁degrees	-10.3629
▁scan	-10.3638
▁journal	-10.3646
▁fund	-10.3667
▁remove	-10.3667
vol	-10.3672
▁bishop	-10.3674
▁dracula	-10.3674
▁easily	-10.3674
▁egypt	-10.3674
▁reputation	-10.3674
▁university	-10.3674
▁combination	-10.3674
▁fifth	-10.3674
▁langdon	-10.3674
▁mechanic	-10.3674
▁morris	-10.3674
▁barbara	-10.3674
▁melanie	-10.3674
▁graduate	-10.3674
▁holmes	-10.3675
▁underground	-10.3675
▁wasting	-10.3675
▁planned	-10.3675
▁quinn	-10.3676
▁recall	-10.3676
▁choking	-10.3676
▁bailey	-10.3677
▁heck	-10.368
▁technically	-10.3682
▁sentence	-10.3682
▁warren	-10.3683
▁sadness	-10.3685
▁beck	-10.3685
▁poem	-10.3697
▁unc	-10.3706
▁embarrassed	-10.371
▁doom	-10.3711
blo	-10.3711
▁media	-10.3717
▁grass	-10.3721
▁sting	-10.3724
▁here	-10.3729
▁product	-10.3729
▁tent	-10.3739
▁enjoying	-10.3744
▁rate	-10.3746
▁ohio	-10.377
ough	-10.3781
▁hated	-10.3808
ann	-10.3815
▁rag	-10.3844
power	-10.3846
▁tan	-10.3846
▁there	-10.3847
play	-10.3852
▁clouds	-10.3855
▁carrying	-10.3873
▁bounce	-10.3878
▁campaign	-10.3878
▁dessert	-10.3878
▁mystery	-10.3878
▁nuclear	-10.3878
▁servant	-10.3878
▁terrance	-10.3878
▁pistol	-10.3878
▁raymond	-10.3878
▁valuable	-10.3878
▁senator	-10.3879
▁spoil	-10.3879
▁tricia	-10.3879
▁youth	-10.3879
▁knowledge	-10.3879
▁presence	-10.3879
▁fetch	-10.3879
▁leak	-10.3879
lijk	-10.3879
▁begging	-10.388
▁snack	-10.388
▁terrorist	-10.3881
▁paddle	-10.3882
▁deadpool	-10.3882
▁successful	-10.3883
▁instrumental	-10.3883
▁andrew	-10.3884
▁selfish	-10.3884
▁habit	-10.3887
▁bible	-10.3889
▁collar	-10.3892
▁filthy	-10.3898
▁my	-10.3905
▁patch	-10.3905
bert	-10.3909
▁haha	-10.3912
▁ross	-10.3937
▁bel	-10.3944
▁tickle	-10.3946
▁depend	-10.3947
▁dive	-10.3948
▁suffering	-10.3958
▁ira	-10.396
▁latest	-10.396
▁sup	-10.3965
while	-10.3971
▁carson	-10.3979
▁loaded	-10.3984
ister	-10.4001
ility	-10.4001
▁hire	-10.4016
▁hooked	-10.4019
▁leading	-10.4024
dig	-10.4056
▁wee	-10.4057
▁extreme	-10.4069
▁alcohol	-10.4087
▁measure	-10.4087
▁pleasant	-10.4087
▁revolution	-10.4087
▁instant	-10.4087
▁ralph	-10.4087
▁worship	-10.4087
▁towel	-10.4087
▁muscle	-10.4087
▁dasong	-10.4087
▁motel	-10.4087
▁deaf	-10.4087
▁thick	-10.4087
▁shouts	-10.4087
▁collins	-10.4087
▁debt	-10.4087
▁hollywood	-10.4088
inlaw	-10.4088
▁arrangement	-10.4088
▁intention	-10.4089
▁leonard	-10.409
▁waitress	-10.409
▁marble	-10.4092
▁counselor	-10.4093
▁motion	-10.4102
▁rack	-10.4103
▁soup	-10.4103
▁batman	-10.4104
▁dot	-10.411
▁drill	-10.411
▁traveling	-10.4112
▁trial	-10.412
▁mill	-10.4123
▁victims	-10.4123
▁remains	-10.4123
mmer	-10.4128
▁abandoned	-10.4132
▁viv	-10.4133
▁kyle	-10.4135
stein	-10.4136
five	-10.4137
▁sucker	-10.4138
▁diet	-10.4149
▁oz	-10.4149
mine	-10.4149
▁ash	-10.4153
▁q	-10.4157
▁wig	-10.4159
▁neighbor	-10.4164
▁reality	-10.4167
▁prize	-10.4167
▁hart	-10.4172
▁movement	-10.4193
▁events	-10.4206
▁carefully	-10.4222
▁earn	-10.4225
▁mud	-10.4229
▁connect	-10.4238
▁hong	-10.4238
▁terms	-10.424
▁testing	-10.4241
▁bleed	-10.4241
▁finest	-10.4244
craft	-10.4265
bird	-10.4268
▁custom	-10.4268
▁praying	-10.4274
▁clan	-10.4281
▁asses	-10.4282
▁whoohoo	-10.429
ature	-10.4291
▁brakes	-10.4298
▁beneath	-10.43
▁minionese	-10.43
▁procedure	-10.43
▁seymour	-10.43
▁thistlewaite	-10.43
▁thursday	-10.43
▁wednesday	-10.43
▁passenger	-10.43
▁senior	-10.43
▁sophie	-10.43
▁suzu	-10.43
▁crooked	-10.43
▁remote	-10.43
▁colony	-10.43
▁supply	-10.43
▁random	-10.43
▁false	-10.43
▁evelyn	-10.43
▁indicat	-10.43
▁ouch	-10.43
▁roaring	-10.43
▁virus	-10.43
▁sidney	-10.43
▁miami	-10.43
▁pearl	-10.43
▁bald	-10.4301
▁mack	-10.4301
▁internet	-10.4302
▁online	-10.4303
ware	-10.4304
▁dropping	-10.4304
▁friendly	-10.4304
▁species	-10.4304
▁porn	-10.4305
▁hammer	-10.4305
▁bold	-10.4306
▁weaver	-10.4306
▁kong	-10.4309
▁salad	-10.431
▁rumor	-10.4313
▁candyman	-10.4313
▁foolish	-10.4313
▁highway	-10.4318
▁juan	-10.4319
▁lori	-10.4322
▁bong	-10.4329
▁whod	-10.4341
▁lili	-10.4354
▁where	-10.4357
▁needle	-10.4357
zy	-10.4359
▁hurting	-10.436
▁rank	-10.4368
ridge	-10.4381
bber	-10.4384
▁shave	-10.4429
▁bog	-10.4431
▁frankly	-10.4437
▁skills	-10.4452
▁invent	-10.4455
▁eaten	-10.4461
▁pod	-10.4479
▁sigh	-10.4486
▁benjamin	-10.4517
▁custody	-10.4517
▁equal	-10.4517
▁kennedy	-10.4517
▁shrieks	-10.4517
▁someplace	-10.4517
▁anderson	-10.4517
▁eloise	-10.4517
▁stammering	-10.4517
▁miserable	-10.4517
▁peggy	-10.4517
▁anytime	-10.4517
▁retreat	-10.4517
▁cherry	-10.4517
▁tooth	-10.4517
▁superior	-10.4517
▁reveal	-10.4517
▁connor	-10.4517
▁orange	-10.4518
▁relative	-10.4518
▁puppy	-10.4518
▁andre	-10.4519
▁offend	-10.452
▁chart	-10.452
▁navy	-10.4521
▁pope	-10.4522
▁torment	-10.4523
▁bacon	-10.4523
▁adler	-10.4523
ological	-10.4524
▁chili	-10.4526
▁acid	-10.4527
▁evan	-10.4533
▁minor	-10.4535
▁label	-10.4538
▁trent	-10.454
▁gloves	-10.4544
▁eric	-10.4551
▁directly	-10.4553
▁echoing	-10.456
▁provided	-10.4561
▁joined	-10.4562
▁enjoyed	-10.4571
list	-10.4575
▁heroes	-10.458
▁forty	-10.458
▁alta	-10.4584
▁normally	-10.4593
▁settled	-10.4608
▁gotcha	-10.4617
▁parent	-10.4623
▁poo	-10.4636
▁tina	-10.4649
▁badly	-10.465
▁gin	-10.4663
▁smo	-10.4663
eth	-10.4672
▁speaker	-10.4683
▁ruf	-10.4694
▁tag	-10.4707
walk	-10.4708
▁considering	-10.4718
ame	-10.4719
▁fu	-10.4734
▁orphan	-10.4737
▁application	-10.4739
▁awkward	-10.4739
▁brooklyn	-10.4739
▁concentrate	-10.4739
▁distorted	-10.4739
▁division	-10.4739
▁judgment	-10.4739
▁privacy	-10.4739
▁skeeter	-10.4739
▁squirrel	-10.4739
▁swallow	-10.4739
▁terribly	-10.4739
▁volunteer	-10.4739
▁smooth	-10.4739
▁doorbell	-10.4739
▁palace	-10.4739
▁gollum	-10.4739
▁blink	-10.474
▁network	-10.474
▁phase	-10.474
▁committed	-10.4741
▁kenny	-10.4741
▁minny	-10.4742
▁abort	-10.4742
▁rowley	-10.4742
▁severe	-10.4744
▁rapid	-10.4746
▁swell	-10.4747
▁randy	-10.475
▁vada	-10.4751
▁toto	-10.4754
▁sack	-10.4761
▁jumped	-10.4764
▁maniac	-10.4766
▁melly	-10.4767
▁cries	-10.4771
how	-10.4791
▁connected	-10.4798
ella	-10.4807
▁dish	-10.4813
▁penguins	-10.4826
▁fishing	-10.4832
air	-10.4835
▁chin	-10.4848
▁auto	-10.4859
▁ana	-10.4864
▁tempt	-10.4866
▁pill	-10.4872
▁moo	-10.4878
▁neighbors	-10.4883
▁hump	-10.4901
▁baron	-10.4907
▁heights	-10.4915
mouth	-10.4932
▁stare	-10.4933
▁treated	-10.4952
▁distract	-10.496
▁execution	-10.4966
▁invisible	-10.4966
▁patience	-10.4966
▁thompson	-10.4966
▁violent	-10.4966
▁routine	-10.4966
▁select	-10.4966
▁approve	-10.4966
▁insult	-10.4967
▁dentist	-10.4967
▁assassin	-10.4967
▁starving	-10.4967
▁kidnapped	-10.4967
▁repair	-10.4967
▁zooey	-10.4968
▁supper	-10.4969
▁honour	-10.4969
▁digging	-10.4969
▁cliff	-10.497
▁mitchell	-10.4971
▁erase	-10.4972
▁zip	-10.4973
▁laughlng	-10.4974
▁aboard	-10.4979
▁background	-10.498
▁hydra	-10.4981
▁narrat	-10.4982
▁sailor	-10.4985
▁humor	-10.4986
▁forth	-10.499
▁torn	-10.4993
▁officially	-10.4996
▁kane	-10.4999
▁sniffs	-10.5007
▁crossed	-10.501
▁managed	-10.5015
▁hack	-10.5022
▁tender	-10.5023
▁chas	-10.5028
▁psycho	-10.5035
▁turner	-10.5065
▁mak	-10.508
▁tire	-10.5082
▁buzz	-10.5098
▁emotion	-10.5098
▁bully	-10.5102
▁disc	-10.5103
▁yankees	-10.5121
▁hooker	-10.5128
▁develop	-10.514
▁beau	-10.5157
▁lip	-10.5158
uw	-10.5159
bound	-10.5164
▁noon	-10.518
▁actual	-10.5181
▁mole	-10.5183
▁accepted	-10.5185
▁dating	-10.519
▁bend	-10.5191
▁entertain	-10.5195
box	-10.5196
▁amsterdam	-10.5199
▁average	-10.5199
▁christopher	-10.5199
▁circus	-10.5199
▁colleague	-10.5199
▁fabulous	-10.5199
▁hagrid	-10.5199
▁include	-10.5199
▁politics	-10.5199
▁principal	-10.5199
▁succeed	-10.5199
▁bianca	-10.5199
▁breast	-10.5199
▁declare	-10.5199
▁dispatch	-10.5199
▁jersey	-10.5199
▁empire	-10.5199
▁patrol	-10.5199
▁headquarters	-10.5199
▁personnel	-10.5199
▁entry	-10.5199
▁atta	-10.5199
▁italy	-10.5199
▁donna	-10.52
▁stroke	-10.52
▁surface	-10.52
▁costume	-10.52
▁pillow	-10.5201
▁cheek	-10.5201
▁mammy	-10.5201
▁eleven	-10.5201
▁countess	-10.5202
▁racing	-10.5202
▁frozen	-10.5203
▁flush	-10.5204
▁hostages	-10.5205
▁nazi	-10.5206
▁exclaiming	-10.5209
▁plug	-10.521
▁trusted	-10.521
▁rico	-10.521
▁melt	-10.5211
▁noah	-10.5212
▁limb	-10.5214
▁survival	-10.5214
▁pont	-10.5215
▁crackers	-10.5229
▁wayne	-10.5253
▁apply	-10.5255
▁net	-10.5288
▁bb	-10.5298
▁busted	-10.5338
▁louder	-10.534
▁dollar	-10.5341
▁clip	-10.5344
▁kit	-10.5378
▁jab	-10.5378
night	-10.538
aries	-10.5413
▁detect	-10.5435
▁cannon	-10.5436
▁capsule	-10.5437
▁cocaine	-10.5437
▁establish	-10.5437
▁fortunate	-10.5437
▁frightened	-10.5437
▁gabriel	-10.5437
▁galaxy	-10.5437
▁incredibly	-10.5437
▁individual	-10.5437
▁invitation	-10.5437
▁jeremy	-10.5437
▁themistokles	-10.5437
▁unhappy	-10.5437
▁vegas	-10.5437
▁dallas	-10.5437
▁dobby	-10.5437
▁ominous	-10.5437
▁paradise	-10.5437
▁vodka	-10.5437
▁superstar	-10.5437
▁album	-10.5437
▁identity	-10.5437
▁rafo	-10.5437
▁pledge	-10.5437
▁stuart	-10.5437
▁ethan	-10.5437
▁appeal	-10.5437
▁hopefully	-10.5437
mark	-10.5437
▁headache	-10.5437
▁freezing	-10.5438
▁willie	-10.5439
▁helsing	-10.5439
▁sharon	-10.5439
▁mummy	-10.5441
▁irish	-10.5441
▁status	-10.5442
▁amber	-10.5442
▁davis	-10.5443
▁scientists	-10.5444
▁react	-10.5445
▁hel	-10.5445
▁scout	-10.5448
▁ditch	-10.5448
▁examine	-10.545
▁package	-10.5451
▁arranged	-10.5456
▁howling	-10.5457
▁mall	-10.546
▁mansion	-10.5467
ata	-10.5482
▁kan	-10.5498
izer	-10.5511
▁zoo	-10.5514
▁grunt	-10.5525
▁sounded	-10.5549
▁quietly	-10.5573
▁dock	-10.5578
▁alle	-10.561
▁belly	-10.5621
▁hal	-10.5624
here	-10.5624
▁bent	-10.5631
rum	-10.5642
▁dip	-10.5643
▁farmer	-10.5675
▁terror	-10.5678
▁accomplish	-10.5681
▁commission	-10.5681
▁conduct	-10.5681
▁cruise	-10.5681
▁explanation	-10.5681
▁julius	-10.5681
▁larusso	-10.5681
▁samantha	-10.5681
▁sequence	-10.5681
▁slaughter	-10.5681
▁technology	-10.5681
▁uncomfortable	-10.5681
▁predict	-10.5681
▁quality	-10.5681
▁observe	-10.5681
▁vanessa	-10.5681
▁pamela	-10.5681
▁formula	-10.5681
▁smiling	-10.5681
▁spark	-10.5681
▁temperature	-10.5681
▁sniffles	-10.5681
▁drake	-10.5681
▁brutal	-10.5682
▁drain	-10.5682
▁authorities	-10.5682
▁magnet	-10.5682
▁robbed	-10.5682
▁bingo	-10.5682
▁rosie	-10.5682
▁haunt	-10.5682
▁minnie	-10.5682
▁susie	-10.5682
▁canada	-10.5682
▁accent	-10.5683
▁bonnie	-10.5683
▁authority	-10.5684
▁chaney	-10.5684
▁signature	-10.5684
▁gunfire	-10.5684
▁impression	-10.5685
▁bruise	-10.5685
▁rebel	-10.5685
▁fold	-10.569
▁shown	-10.5692
▁stopping	-10.5692
▁luke	-10.5693
▁capable	-10.5694
▁barber	-10.5694
▁memo	-10.57
▁smaller	-10.57
▁blah	-10.5701
▁tone	-10.5702
▁stew	-10.5708
▁learning	-10.571
▁mourning	-10.571
▁satan	-10.5717
▁link	-10.5723
▁teen	-10.5727
▁bert	-10.5735
▁lifetime	-10.5755
▁tub	-10.5759
▁delivery	-10.5762
cap	-10.5771
▁warned	-10.5771
▁granted	-10.5777
▁kai	-10.578
▁opera	-10.5784
hem	-10.581
▁wasted	-10.5821
▁cheating	-10.5825
▁penguin	-10.5834
lick	-10.584
▁messing	-10.5843
▁pale	-10.5845
▁parker	-10.5863
▁ape	-10.5871
▁deserved	-10.5875
itation	-10.5881
▁walt	-10.5889
▁safer	-10.5891
▁convince	-10.5892
▁weigh	-10.59
bag	-10.59
style	-10.59
▁crab	-10.5918
▁crashing	-10.5923
▁marshal	-10.5927
▁civil	-10.5928
▁clamoring	-10.5931
▁cocksucker	-10.5931
▁entrance	-10.5931
▁fifteen	-10.5931
▁glorious	-10.5931
▁laszlo	-10.5931
▁mckenna	-10.5931
▁pumbaa	-10.5931
▁suspicious	-10.5931
▁troops	-10.5931
▁ultimate	-10.5931
▁behave	-10.5931
▁campbell	-10.5931
▁complex	-10.5931
▁generous	-10.5931
▁stewart	-10.5931
▁widow	-10.5931
▁shrink	-10.5931
▁resume	-10.5931
▁wagon	-10.5931
▁studio	-10.5931
▁dinosaur	-10.5931
▁prevent	-10.5931
▁retard	-10.5931
▁flew	-10.5931
▁western	-10.5931
▁improve	-10.5931
▁boston	-10.5932
▁basic	-10.5932
▁francisco	-10.5932
▁humming	-10.5932
▁bubble	-10.5933
▁hawk	-10.5933
▁cloth	-10.5933
▁babs	-10.5934
▁employee	-10.5934
▁motherfucking	-10.5935
▁performance	-10.5935
▁foster	-10.5935
▁myth	-10.5936
▁scale	-10.5936
▁craig	-10.5936
▁inmate	-10.5938
▁rufus	-10.5938
▁soap	-10.5938
espite	-10.5939
▁whack	-10.5941
▁logan	-10.5944
▁wack	-10.5946
▁robbery	-10.5947
▁delight	-10.5948
▁coco	-10.5956
▁disappointed	-10.5957
▁boil	-10.5959
▁retired	-10.596
▁beef	-10.5961
▁dna	-10.5962
▁coll	-10.5965
▁tomb	-10.597
▁jumping	-10.5982
▁alley	-10.5982
▁sniffing	-10.5983
▁clicking	-10.5987
▁asset	-10.6002
▁barry	-10.6011
▁boyle	-10.6014
▁laughed	-10.6042
▁yale	-10.6042
▁tube	-10.6079
▁eva	-10.6103
▁manny	-10.6111
▁shove	-10.6129
▁abandon	-10.6132
rated	-10.6148
year	-10.6154
▁jen	-10.6177
▁basket	-10.6187
▁applaud	-10.6187
▁bachelor	-10.6187
▁charlotte	-10.6187
▁communication	-10.6187
▁depressed	-10.6187
▁election	-10.6187
▁evacuate	-10.6187
▁grenade	-10.6187
▁instruction	-10.6187
▁laundry	-10.6187
▁mahira	-10.6187
▁mexican	-10.6187
▁mysterious	-10.6187
▁territory	-10.6187
▁belief	-10.6187
▁international	-10.6187
▁lesbian	-10.6187
▁splash	-10.6187
▁adorable	-10.6187
▁relieve	-10.6187
▁klara	-10.6187
▁bureau	-10.6187
▁merci	-10.6187
▁permit	-10.6188
▁decade	-10.6188
▁einar	-10.6188
▁email	-10.6188
▁gunnar	-10.6188
▁daily	-10.6188
▁douglas	-10.6188
▁actress	-10.6188
▁kitai	-10.6189
▁heather	-10.619
▁korea	-10.619
▁tyler	-10.6191
▁mort	-10.6192
▁locate	-10.6192
▁elsa	-10.6193
▁timon	-10.6195
▁omara	-10.6196
▁jody	-10.6197
▁daley	-10.62
▁brace	-10.62
▁rita	-10.6208
▁rug	-10.6209
▁verne	-10.621
cro	-10.6214
▁suggestion	-10.6215
▁campus	-10.6218
▁quote	-10.6219
▁piper	-10.6232
kov	-10.6256
▁kw	-10.6261
▁passes	-10.6263
▁roberta	-10.6266
eye	-10.6269
▁sealed	-10.6273
▁julian	-10.6274
▁pushed	-10.6277
▁zeke	-10.6285
▁combat	-10.6336
▁wondered	-10.6353
▁shoo	-10.6355
▁carter	-10.6367
▁toward	-10.6371
aaa	-10.6372
▁beside	-10.6373
▁drawing	-10.6388
hot	-10.6393
rand	-10.6423
▁loyal	-10.6448
▁reject	-10.6451
▁anspeak	-10.6451
▁associate	-10.6451
▁barbecue	-10.6451
▁commercial	-10.6451
▁competition	-10.6451
▁conscious	-10.6451
▁facility	-10.6451
▁marguerite	-10.6451
▁satisfied	-10.6451
▁temporary	-10.6451
▁tournament	-10.6451
▁insect	-10.6451
▁dillon	-10.6451
▁milady	-10.6451
▁unique	-10.6451
▁walsh	-10.6451
▁dudley	-10.6451
▁purple	-10.6451
▁butch	-10.6451
▁baloo	-10.6451
▁spray	-10.6451
▁lainey	-10.6451
▁snoring	-10.6451
▁pimp	-10.6451
▁crank	-10.6451
▁grabbed	-10.6451
▁apology	-10.6452
▁orphanage	-10.6453
▁engagement	-10.6453
▁hahaha	-10.6453
▁shaking	-10.6454
▁announcement	-10.6454
▁housekeeper	-10.6455
▁math	-10.6456
▁glow	-10.6457
▁ripped	-10.6457
▁fuel	-10.6459
▁fever	-10.6462
▁wore	-10.6463
▁collection	-10.6465
▁makeup	-10.647
▁stunt	-10.6471
▁classical	-10.6474
▁tech	-10.6486
▁hans	-10.6488
▁properly	-10.6488
▁strap	-10.6493
▁dull	-10.6494
▁goodnight	-10.6503
▁mock	-10.6504
▁cabin	-10.6507
▁stable	-10.6514
▁developed	-10.6514
▁tries	-10.6515
▁payment	-10.6523
▁highest	-10.6529
▁germany	-10.6537
▁grad	-10.6557
▁cable	-10.656
▁restore	-10.6582
▁click	-10.6588
▁rosa	-10.6588
▁pole	-10.6607
▁psych	-10.6607
▁entering	-10.662
▁zoon	-10.664
▁wishes	-10.6644
▁squeal	-10.6661
free	-10.6687
▁cole	-10.6692
stick	-10.6692
▁guilt	-10.6692
▁announce	-10.6702
berry	-10.6713
two	-10.6716
▁favour	-10.672
▁arizona	-10.6721
▁astronaut	-10.6721
▁australia	-10.6721
▁deputy	-10.6721
▁dwarf	-10.6721
▁helmet	-10.6721
▁liberty	-10.6721
▁olympic	-10.6721
▁patriot	-10.6721
▁protocol	-10.6721
▁resource	-10.6721
▁soviet	-10.6721
▁surgeon	-10.6721
▁surveillance	-10.6721
▁amelia	-10.6721
▁debbie	-10.6721
▁peanut	-10.6721
▁reverend	-10.6721
▁amanda	-10.6721
▁hiphop	-10.6721
▁thumb	-10.6721
▁steak	-10.6721
▁leaf	-10.6721
▁dutch	-10.6721
▁motor	-10.6722
▁pork	-10.6722
▁shining	-10.6722
▁kitten	-10.6722
▁wives	-10.6722
▁infection	-10.6723
▁backwards	-10.6723
▁display	-10.6723
▁theme	-10.6724
▁failure	-10.6724
▁audition	-10.6724
▁riddle	-10.6725
▁lousy	-10.6725
▁meade	-10.6725
▁henrik	-10.6727
▁dining	-10.6728
▁plot	-10.6728
▁roommate	-10.6732
▁geez	-10.6732
▁mikey	-10.6734
▁fox	-10.6735
▁grail	-10.6736
▁crackling	-10.6736
▁machinery	-10.6739
▁fuss	-10.6739
▁slim	-10.6747
▁beam	-10.6753
meter	-10.6776
▁breed	-10.6786
▁author	-10.6794
▁parties	-10.6808
▁automatic	-10.6818
▁clo	-10.6819
four	-10.6823
▁heir	-10.6827
▁outer	-10.6853
▁mustnt	-10.6859
jun	-10.6862
▁fianc	-10.6903
▁pretending	-10.6912
mming	-10.6914
test	-10.6947
▁sau	-10.6963
worth	-10.6964
plant	-10.6966
foot	-10.6978
crea	-10.698
▁champ	-10.6993
▁til	-10.6996
▁element	-10.6997
▁asteroid	-10.6999
▁beaufort	-10.6999
▁centuries	-10.6999
▁confidence	-10.6999
▁israel	-10.6999
▁necessities	-10.6999
▁squawking	-10.6999
▁struggle	-10.6999
▁traitor	-10.6999
▁transform	-10.6999
▁explor	-10.6999
▁political	-10.6999
▁powder	-10.6999
▁savage	-10.6999
▁knox	-10.6999
▁rattling	-10.6999
▁turkey	-10.6999
▁allison	-10.6999
▁praise	-10.6999
▁rooster	-10.6999
▁increase	-10.6999
▁function	-10.6999
▁reckon	-10.6999
▁shrek	-10.6999
▁taylor	-10.6999
▁niece	-10.6999
▁vault	-10.6999
▁straw	-10.6999
▁extend	-10.6999
▁conquer	-10.6999
▁throne	-10.6999
▁sync	-10.6999
▁angle	-10.6999
▁crisis	-10.6999
▁tragic	-10.6999
▁hustle	-10.6999
▁influence	-10.6999
▁tennis	-10.7
▁iraq	-10.7
▁sunset	-10.7
▁culture	-10.7
▁protest	-10.7
▁maggie	-10.7001
▁jewish	-10.7004
▁drama	-10.7005
▁owns	-10.7005
▁reaction	-10.7006
▁imran	-10.7007
▁leila	-10.7007
▁plum	-10.701
▁nearby	-10.7012
▁dishes	-10.7013
▁soda	-10.7014
▁jax	-10.7016
▁cody	-10.7018
self	-10.702
▁fame	-10.7023
▁tim	-10.7024
▁commit	-10.7024
▁stir	-10.7027
▁captured	-10.7028
▁rust	-10.7032
▁attracted	-10.7042
▁weep	-10.7054
▁orb	-10.707
▁tele	-10.7075
▁betrayed	-10.708
▁fond	-10.7085
▁gum	-10.7087
▁classes	-10.7092
▁released	-10.7101
▁maze	-10.7101
▁kisses	-10.7112
▁unto	-10.7115
▁waar	-10.7131
▁rear	-10.7148
▁gale	-10.7163
▁hast	-10.7164
hill	-10.7164
▁sniff	-10.7174
▁chu	-10.7175
oooo	-10.7177
▁coin	-10.7185
zero	-10.7192
▁herr	-10.7193
▁blessing	-10.7208
▁shared	-10.7212
cou	-10.7218
▁smarter	-10.7227
▁creak	-10.7227
hood	-10.7246
grade	-10.7251
▁worthy	-10.7263
▁virginia	-10.727
▁wart	-10.7271
▁ay	-10.7274
▁affect	-10.7278
▁achieve	-10.7284
▁alexandra	-10.7284
▁appropriate	-10.7284
▁assault	-10.7284
▁assignment	-10.7284
▁ceremony	-10.7284
▁comrade	-10.7284
▁corporation	-10.7284
▁fountain	-10.7284
▁genuine	-10.7284
▁hallelujah	-10.7284
▁harvard	-10.7284
▁instinct	-10.7284
▁magnificent	-10.7284
▁moscow	-10.7284
▁rhythm	-10.7284
▁scientific	-10.7284
▁sparrow	-10.7284
▁zidler	-10.7284
▁similar	-10.7284
▁trauma	-10.7284
▁collapse	-10.7284
▁thisll	-10.7284
▁stammers	-10.7284
▁alexander	-10.7284
▁sheep	-10.7284
▁capital	-10.7284
▁profit	-10.7284
▁shark	-10.7284
▁pigeon	-10.7284
▁jessie	-10.7284
▁gerda	-10.7285
▁convert	-10.7285
▁southern	-10.7285
▁cpo	-10.7285
▁comic	-10.7285
▁greet	-10.7285
▁addict	-10.7285
▁creative	-10.7285
▁polite	-10.7286
▁cease	-10.7286
▁corso	-10.7286
▁interfere	-10.7286
▁reverse	-10.7286
▁bunker	-10.7286
▁whens	-10.7287
▁rotten	-10.7287
▁karen	-10.7288
▁hawaiian	-10.7288
▁claudio	-10.7289
▁argue	-10.7289
▁skinny	-10.7289
▁existence	-10.7289
▁chapter	-10.7291
▁precisely	-10.7292
▁parade	-10.7293
▁villain	-10.7294
▁slut	-10.7294
▁lame	-10.7294
▁possession	-10.7295
▁begun	-10.7295
▁blackwood	-10.7296
▁thirsty	-10.7298
▁critical	-10.7301
▁ronan	-10.7302
▁halfway	-10.7307
▁halt	-10.7308
▁mobile	-10.731
▁annoying	-10.731
▁factory	-10.731
▁marine	-10.7313
▁bub	-10.7315
▁surrounded	-10.7318
▁runner	-10.7318
▁grip	-10.7321
▁corpse	-10.7332
▁frankie	-10.7339
▁ability	-10.7344
▁useful	-10.7356
▁sid	-10.7357
▁invented	-10.7359
▁polly	-10.7361
▁carver	-10.7362
opping	-10.7381
▁bitter	-10.7387
▁canceled	-10.7388
▁flea	-10.7392
▁marc	-10.7422
nine	-10.7427
▁formal	-10.7445
▁allie	-10.746
eft	-10.7465
▁proved	-10.7476
▁adopt	-10.7523
▁jaw	-10.7527
▁involve	-10.754
▁wie	-10.7546
maker	-10.7547
▁chuckle	-10.7565
▁gran	-10.7567
▁argument	-10.7578
▁broadcast	-10.7578
▁envelope	-10.7578
▁extraordinary	-10.7578
▁independent	-10.7578
▁jennifer	-10.7578
▁jordan	-10.7578
▁lecture	-10.7578
▁mercedes	-10.7578
▁nephew	-10.7578
▁piragua	-10.7578
▁rapunzel	-10.7578
▁republic	-10.7578
▁reservation	-10.7578
▁spectacular	-10.7578
▁underneath	-10.7578
▁wrestling	-10.7578
▁zamunda	-10.7578
▁bartender	-10.7578
▁lobby	-10.7578
▁lydia	-10.7578
▁ritual	-10.7578
▁shelter	-10.7578
▁crunch	-10.7579
▁arguing	-10.7579
▁dedicate	-10.7579
▁stalker	-10.7579
▁reflect	-10.7579
▁monica	-10.7579
▁saddam	-10.7579
▁kansas	-10.7579
▁callahan	-10.7579
▁threatened	-10.7579
▁devastat	-10.7579
▁misery	-10.7579
▁transmit	-10.7579
▁flood	-10.7579
▁oops	-10.7579
▁password	-10.7579
▁whooping	-10.758
▁blond	-10.758
▁version	-10.758
▁lemon	-10.758
▁organism	-10.758
▁micro	-10.7581
▁bolt	-10.7581
▁stamp	-10.7581
▁medication	-10.7582
▁choir	-10.7583
▁mug	-10.7583
▁rudy	-10.7583
▁investment	-10.7584
▁spock	-10.7585
▁classified	-10.7586
▁quill	-10.7586
▁dorm	-10.7586
▁pony	-10.7586
▁weakness	-10.7587
▁palm	-10.7587
▁cmon	-10.7588
▁mortal	-10.7591
▁murmuring	-10.7592
▁ashes	-10.7595
▁spice	-10.7595
▁abuse	-10.7599
▁rape	-10.76
▁web	-10.7601
▁rail	-10.7604
▁stall	-10.7617
▁daylight	-10.7624
▁menu	-10.7633
▁squealing	-10.7645
ige	-10.7649
▁damon	-10.7661
▁eden	-10.7662
▁haul	-10.7676
▁suffered	-10.7686
▁drowned	-10.7691
odi	-10.7694
▁mater	-10.7711
▁vet	-10.7721
▁edie	-10.7726
▁grug	-10.7728
eight	-10.775
▁ai	-10.7755
place	-10.777
▁whisper	-10.7781
authorized	-10.7796
▁arab	-10.7798
▁ew	-10.7804
▁mae	-10.7814
▁squeak	-10.7821
▁echo	-10.7822
▁obsess	-10.7826
war	-10.7859
▁kyl	-10.7873
ification	-10.7877
▁vietnam	-10.7881
▁benedict	-10.7882
▁canadian	-10.7882
▁concert	-10.7882
▁consequence	-10.7882
▁expense	-10.7882
▁explosive	-10.7882
▁figaro	-10.7882
▁mufasa	-10.7882
▁naughty	-10.7882
▁possibility	-10.7882
▁proposal	-10.7882
▁solution	-10.7882
▁tattoo	-10.7882
▁underwear	-10.7882
▁willoughby	-10.7882
▁sacred	-10.7882
▁recipe	-10.7882
▁jefferson	-10.7882
▁pulse	-10.7882
▁chemical	-10.7882
▁tomato	-10.7882
▁daiton	-10.7882
▁duffy	-10.7882
▁tracy	-10.7882
▁steam	-10.7882
▁radar	-10.7882
▁brew	-10.7882
▁reich	-10.7882
▁darn	-10.7882
▁branch	-10.7882
▁carpet	-10.7882
▁impact	-10.7882
▁pumpkin	-10.7883
▁burden	-10.7883
▁slams	-10.7884
▁urgent	-10.7884
▁loyalty	-10.7885
▁nacho	-10.7885
▁childhood	-10.7885
▁jazz	-10.7886
▁chopper	-10.7886
▁appearance	-10.7887
▁delay	-10.7888
▁affection	-10.7888
▁bluster	-10.7888
▁tasty	-10.7889
▁orbit	-10.7889
▁effective	-10.7891
▁yuri	-10.7892
▁brandon	-10.7892
▁touchdown	-10.7892
▁expression	-10.7893
▁bio	-10.7893
▁flatter	-10.7894
▁accused	-10.7894
▁african	-10.7897
▁jj	-10.79
▁rash	-10.7904
▁castor	-10.7906
▁hugh	-10.791
▁mansur	-10.7911
▁prep	-10.7913
▁vow	-10.7916
▁laser	-10.7918
▁fran	-10.7925
▁kom	-10.7925
▁cove	-10.7928
▁recon	-10.7928
▁itch	-10.7934
▁witches	-10.7946
tleman	-10.7953
▁glove	-10.7954
▁frigg	-10.7959
▁earned	-10.7963
▁nervously	-10.7964
boat	-10.7974
▁required	-10.7977
▁sher	-10.7987
▁cobb	-10.799
▁kindness	-10.799
▁claus	-10.7993
▁introduced	-10.8003
▁signor	-10.8045
▁shortly	-10.8051
fire	-10.8053
▁filth	-10.8062
▁hint	-10.8067
▁thrown	-10.8073
▁painted	-10.8077
▁embarrass	-10.8078
▁pose	-10.8079
▁pub	-10.8089
▁cord	-10.8089
tory	-10.8098
owned	-10.8111
▁continu	-10.8121
▁screech	-10.8123
▁bev	-10.8125
▁quo	-10.8156
school	-10.8159
know	-10.816
burg	-10.8176
▁potato	-10.8183
▁counsel	-10.8184
job	-10.8193
▁aggressive	-10.8194
▁atlantic	-10.8194
▁burglar	-10.8194
▁disgrace	-10.8194
▁dolores	-10.8194
▁draft	-10.8194
▁exhibit	-10.8194
▁happily	-10.8194
▁katherine	-10.8194
▁kindergarten	-10.8194
▁stormtrooper	-10.8194
▁therapist	-10.8194
▁umbrella	-10.8194
▁amateur	-10.8194
▁committee	-10.8194
▁mumbling	-10.8194
▁wrestle	-10.8194
▁dammit	-10.8194
▁liquid	-10.8194
▁penalty	-10.8194
▁teresa	-10.8194
▁bargain	-10.8194
▁charity	-10.8194
▁razor	-10.8194
▁adaline	-10.8194
▁snoop	-10.8194
▁mutant	-10.8194
▁flank	-10.8194
▁motta	-10.8194
▁content	-10.8194
▁incoming	-10.8194
▁consult	-10.8194
▁drew	-10.8194
▁opposite	-10.8194
▁attic	-10.8195
▁shore	-10.8195
▁leap	-10.8195
▁cannonball	-10.8195
▁doubtfire	-10.8195
▁vicious	-10.8196
▁humble	-10.8197
▁sparta	-10.8198
▁roast	-10.8198
▁sharing	-10.8198
▁adjust	-10.8199
▁development	-10.8199
▁obey	-10.8199
▁multi	-10.82
▁temple	-10.8201
▁production	-10.8204
▁vice	-10.8205
▁susanna	-10.8205
▁chaos	-10.8207
▁joyce	-10.8207
▁diana	-10.8207
▁meow	-10.8208
▁cuff	-10.8208
▁shack	-10.8209
▁stepped	-10.8213
▁consume	-10.8213
▁intern	-10.8214
▁agreement	-10.8216
▁tide	-10.8217
▁priory	-10.8217
▁solo	-10.8219
▁steven	-10.8222
▁discussion	-10.8223
▁exhausted	-10.8225
▁cameron	-10.8229
▁morty	-10.8229
▁scent	-10.823
▁hitler	-10.8231
▁removed	-10.8255
▁squeaking	-10.8257
▁divorced	-10.8271
▁goldie	-10.8285
▁dresses	-10.8286
▁thus	-10.8299
▁nee	-10.8302
▁disco	-10.8305
▁hoot	-10.8317
▁crushed	-10.8324
▁shocked	-10.8333
▁poisoned	-10.834
▁yea	-10.8342
▁fog	-10.8345
▁wen	-10.8355
▁uit	-10.8392
▁mig	-10.8429
your	-10.8435
▁groan	-10.8438
▁mutt	-10.8444
▁advance	-10.8478
three	-10.8482
▁peek	-10.8488
▁africa	-10.85
▁alastair	-10.8517
▁atlanta	-10.8517
▁blindfold	-10.8517
▁descend	-10.8517
▁escobar	-10.8517
▁murphy	-10.8517
▁myrtle	-10.8517
▁octopus	-10.8517
▁punjabi	-10.8517
▁sheila	-10.8517
▁visual	-10.8517
▁beloved	-10.8517
▁bernard	-10.8517
▁candice	-10.8517
▁casual	-10.8517
▁district	-10.8517
▁inject	-10.8517
▁isabel	-10.8517
▁reserve	-10.8517
▁vagina	-10.8517
▁farewell	-10.8517
▁twinkle	-10.8517
▁curtain	-10.8517
▁groot	-10.8517
▁sheba	-10.8517
▁stuttering	-10.8517
▁mamma	-10.8517
▁kidnapping	-10.8517
▁dragged	-10.8517
▁translate	-10.8517
▁alpha	-10.8517
▁novel	-10.8517
▁stabbed	-10.8517
▁claws	-10.8517
▁kirk	-10.8518
▁ellis	-10.8518
▁excitement	-10.8518
▁greed	-10.8519
▁quarterback	-10.8519
▁disappointment	-10.8519
▁augustus	-10.8521
▁wholl	-10.8522
▁fridge	-10.8522
▁massive	-10.8523
▁replacement	-10.8523
▁balloon	-10.8524
▁khan	-10.8524
▁judy	-10.8524
▁kilo	-10.8525
▁inches	-10.8529
▁manual	-10.8531
▁peel	-10.8533
▁exam	-10.8534
▁iike	-10.8534
▁minus	-10.8534
▁through	-10.8538
▁gail	-10.8539
▁digit	-10.8543
▁iv	-10.8544
▁aii	-10.8545
▁fries	-10.8549
▁fork	-10.8551
▁dice	-10.8552
▁advanced	-10.8556
▁witnesses	-10.856
▁internal	-10.8563
▁chess	-10.8565
▁brandy	-10.8569
▁obsessed	-10.8576
▁palmer	-10.8579
▁crain	-10.8579
▁separated	-10.8585
iac	-10.8589
▁refused	-10.8592
▁stat	-10.8599
▁factor	-10.8606
▁suite	-10.8614
▁geen	-10.8642
▁lawn	-10.8657
▁blown	-10.868
▁earl	-10.8743
olo	-10.8751
▁tablet	-10.8767
▁aan	-10.8794
▁retire	-10.8807
heart	-10.8813
found	-10.8814
rock	-10.8815
girl	-10.8817
piece	-10.8818
▁drawer	-10.8833
▁stoke	-10.8835
▁scientist	-10.8841
▁lovin	-10.8845
▁hostage	-10.8846
▁peach	-10.8847
▁abdullah	-10.885
▁airplane	-10.885
▁approximately	-10.885
▁candidate	-10.885
▁circuit	-10.885
▁corrupt	-10.885
▁deliberate	-10.885
▁destruction	-10.885
▁fantasies	-10.885
▁fascinating	-10.885
▁grogan	-10.885
▁intelligent	-10.885
▁japanese	-10.885
▁principle	-10.885
▁stereo	-10.885
▁terrified	-10.885
▁unexpected	-10.885
▁vessel	-10.885
▁zazu	-10.885
▁hockey	-10.885
▁inspiration	-10.885
▁suitcase	-10.885
▁historic	-10.885
▁pencil	-10.885
▁sienna	-10.885
▁teenager	-10.885
▁buddies	-10.885
▁jij	-10.885
▁anchor	-10.885
▁merely	-10.885
▁gently	-10.885
▁nicole	-10.885
▁threatening	-10.885
▁bonsai	-10.885
▁jolly	-10.885
▁flirt	-10.885
▁jelly	-10.885
▁imagination	-10.8851
▁shiny	-10.8851
▁heeft	-10.8851
▁mount	-10.8851
▁carolina	-10.8852
▁melvin	-10.8852
▁assistance	-10.8852
▁webber	-10.8852
▁behold	-10.8852
▁primary	-10.8852
▁skate	-10.8852
▁ghostface	-10.8852
▁serum	-10.8853
▁attractive	-10.8853
▁calvin	-10.8853
mont	-10.8853
▁olmo	-10.8854
▁caroline	-10.8855
▁upside	-10.8856
▁lazy	-10.8857
▁soak	-10.8861
▁potatoes	-10.8862
▁beings	-10.8864
▁nuke	-10.8864
▁determined	-10.8867
▁frame	-10.8869
▁stream	-10.8873
▁flies	-10.8874
▁rice	-10.8875
▁growth	-10.8875
▁broom	-10.8876
▁ballet	-10.8891
▁journalist	-10.8898
▁craft	-10.8906
▁berry	-10.8907
▁adopted	-10.8914
▁assist	-10.8928
hhh	-10.8935
▁fist	-10.894
▁boxes	-10.8947
▁ole	-10.8949
cular	-10.8955
▁yul	-10.9007
▁marsh	-10.9039
▁photographer	-10.9044
▁mist	-10.9055
who	-10.9063
▁origin	-10.907
▁nola	-10.9105
▁now	-10.9123
point	-10.916
▁fee	-10.9178
▁religio	-10.918
▁blank	-10.9192
▁apologies	-10.9195
▁arrival	-10.9195
▁continent	-10.9195
▁dillinger	-10.9195
▁discipline	-10.9195
▁dolphin	-10.9195
▁embassy	-10.9195
▁eternal	-10.9195
▁global	-10.9195
▁injured	-10.9195
▁inspire	-10.9195
▁isaac	-10.9195
▁pennywise	-10.9195
▁promotion	-10.9195
▁structure	-10.9195
▁weasel	-10.9195
▁wolves	-10.9195
▁zombie	-10.9195
▁chirps	-10.9195
▁coconut	-10.9195
▁encounter	-10.9195
▁joseph	-10.9195
▁roarke	-10.9195
▁scotch	-10.9195
▁sprinkle	-10.9195
▁unfair	-10.9195
▁zahra	-10.9195
▁bourne	-10.9195
▁lunatic	-10.9195
▁relief	-10.9195
▁dignity	-10.9195
▁jennings	-10.9195
▁turtle	-10.9195
▁volume	-10.9195
▁communicate	-10.9195
▁hudson	-10.9195
▁electronic	-10.9195
▁session	-10.9195
▁mancub	-10.9195
▁drank	-10.9195
▁frost	-10.9195
▁knot	-10.9195
▁violate	-10.9195
▁persian	-10.9196
▁asian	-10.9197
▁snatch	-10.9197
▁boogie	-10.9199
▁willingham	-10.9199
▁sector	-10.9199
▁moans	-10.9199
▁karl	-10.9199
▁passport	-10.92
▁ethel	-10.92
▁stripper	-10.92
▁recent	-10.9201
▁duties	-10.9201
▁salmon	-10.9201
▁romance	-10.9201
▁management	-10.9202
▁grey	-10.9202
▁objective	-10.9203
▁hallway	-10.9203
itude	-10.9204
▁distraction	-10.9204
▁faithful	-10.9206
▁buff	-10.9208
▁riot	-10.9208
▁confession	-10.9209
▁frog	-10.921
▁upper	-10.9211
▁marshall	-10.9212
▁dodg	-10.9213
▁brake	-10.9213
▁lordship	-10.9213
▁dime	-10.9219
▁bedtime	-10.9221
▁neat	-10.9224
urban	-10.9228
▁worthless	-10.9228
horn	-10.9228
▁temper	-10.9228
▁soil	-10.923
▁published	-10.9247
▁raw	-10.9248
▁dang	-10.9256
▁creepy	-10.9258
▁balin	-10.926
▁july	-10.9275
▁moet	-10.9276
▁arc	-10.9279
▁scheduled	-10.9291
▁nun	-10.9293
▁rig	-10.9298
▁stark	-10.9298
▁dc	-10.9301
▁grid	-10.9302
▁tugg	-10.9306
▁buckle	-10.9324
aux	-10.9326
▁mia	-10.9329
▁inch	-10.9376
▁hen	-10.9385
▁chased	-10.9397
▁mild	-10.945
▁seri	-10.946
▁impress	-10.9487
▁attract	-10.9493
▁rage	-10.9502
course	-10.9519
▁saun	-10.9522
made	-10.953
fight	-10.9532
▁unfortunate	-10.9534
▁absolute	-10.9534
▁avenue	-10.9552
▁bagheera	-10.9552
▁colombia	-10.9552
▁conflict	-10.9552
▁conscience	-10.9552
▁cottage	-10.9552
▁cricket	-10.9552
▁deploy	-10.9552
▁destination	-10.9552
▁diploma	-10.9552
▁ferrari	-10.9552
▁immortal	-10.9552
▁inspector	-10.9552
▁luggage	-10.9552
▁marvelous	-10.9552
▁mississippi	-10.9552
▁patricia	-10.9552
▁recruit	-10.9552
▁refugee	-10.9552
▁script	-10.9552
▁serving	-10.9552
▁suspended	-10.9552
▁tissue	-10.9552
▁viktor	-10.9552
▁vittoria	-10.9552
▁wisdom	-10.9552
▁babysitter	-10.9552
▁cackling	-10.9552
▁sleeve	-10.9552
▁wealth	-10.9552
▁wyatt	-10.9552
▁carlisle	-10.9552
▁companion	-10.9552
▁forbid	-10.9552
▁initial	-10.9552
▁marianne	-10.9552
▁multiple	-10.9552
▁mandarin	-10.9552
▁sixpack	-10.9552
▁celia	-10.9552
▁freddie	-10.9552
▁cult	-10.9552
▁whew	-10.9552
▁ipad	-10.9552
▁taxes	-10.9552
▁scoop	-10.9552
▁spank	-10.9552
▁drift	-10.9553
▁carries	-10.9553
▁dye	-10.9553
▁hostile	-10.9554
▁urge	-10.9554
▁priority	-10.9554
▁hannah	-10.9556
▁rubber	-10.9557
▁bruno	-10.9559
▁diaper	-10.956
▁ladder	-10.956
▁elvis	-10.956
▁loop	-10.9561
actic	-10.9563
▁screeches	-10.9565
▁hence	-10.9565
▁accountant	-10.9569
▁personality	-10.9571
▁peaceful	-10.9572
▁compared	-10.9574
▁fax	-10.9575
▁flour	-10.9576
▁gilly	-10.9586
▁currently	-10.9586
▁warden	-10.9587
▁wooden	-10.959
▁sickness	-10.959
▁bash	-10.9595
▁buzzer	-10.9601
▁kris	-10.9604
▁delete	-10.9605
▁kiddo	-10.9612
▁forgetting	-10.9614
▁choke	-10.9614
▁deadline	-10.9616
▁yum	-10.962
▁takin	-10.9621
▁colt	-10.963
▁unable	-10.9648
▁cutter	-10.9655
▁gab	-10.9658
▁triple	-10.9667
▁brownie	-10.9682
▁sweater	-10.9691
▁visa	-10.9731
▁operate	-10.9769
▁levi	-10.9772
▁dickie	-10.9785
▁gaze	-10.9795
▁temp	-10.98
▁negotiate	-10.9813
▁publish	-10.9866
▁engage	-10.988
▁bala	-10.9883
▁capture	-10.9883
▁abuela	-10.9922
▁analysis	-10.9922
▁arrogant	-10.9922
▁asgard	-10.9922
▁cadillac	-10.9922
▁celebrating	-10.9922
▁contribut	-10.9922
▁dungeon	-10.9922
▁enormous	-10.9922
▁exposed	-10.9922
▁financial	-10.9922
▁furniture	-10.9922
▁gilcrest	-10.9922
▁gratitude	-10.9922
▁hermione	-10.9922
▁hilarious	-10.9922
▁kowalski	-10.9922
▁krupp	-10.9922
▁mademoiselle	-10.9922
▁phoenix	-10.9922
▁poopypants	-10.9922
▁ribbon	-10.9922
▁shanghai	-10.9922
▁technique	-10.9922
▁transmission	-10.9922
▁yelping	-10.9922
▁harriet	-10.9922
▁profile	-10.9922
▁handcuff	-10.9922
▁lewis	-10.9922
▁lomax	-10.9922
▁leroy	-10.9922
▁outlaw	-10.9922
▁preacher	-10.9922
▁luigi	-10.9922
▁guinea	-10.9922
▁elaine	-10.9922
▁shotgun	-10.9922
▁eliminate	-10.9922
▁rattle	-10.9922
▁battery	-10.9922
▁await	-10.9922
▁slippers	-10.9922
▁spear	-10.9922
▁shatters	-10.9922
▁dork	-10.9923
▁narrow	-10.9923
▁restrict	-10.9923
▁backpack	-10.9923
▁ofthe	-10.9925
▁medium	-10.9925
▁slipped	-10.9925
▁remarkable	-10.9925
▁parole	-10.9926
▁retirement	-10.9926
▁lanning	-10.9927
▁freddy	-10.9927
▁dummy	-10.9927
▁albert	-10.9928
▁lauren	-10.9928
▁concept	-10.9928
▁electricity	-10.9929
▁arvin	-10.993
▁arabic	-10.9931
▁primero	-10.9932
▁sober	-10.9934
▁diner	-10.9935
▁gla	-10.9935
▁sunny	-10.9935
▁jury	-10.9936
▁rj	-10.994
▁religion	-10.994
▁alike	-10.994
▁cycle	-10.9941
▁clive	-10.9941
▁passage	-10.9942
▁bucket	-10.9949
▁infected	-10.9949
▁puke	-10.9951
▁makin	-10.9951
▁dismissed	-10.9953
▁paw	-10.9984
▁vest	-10.9991
▁oughta	-10.9998
▁customer	-11
▁rex	-11.0013
▁ace	-11.0031
talk	-11.0091
▁vc	-11.0114
▁illuminati	-11.0131
▁whit	-11.0152
▁mim	-11.0195
▁wai	-11.0224
▁coma	-11.0234
▁hee	-11.0267
▁prior	-11.0275
six	-11.028
think	-11.0301
▁afterwards	-11.0307
▁arriving	-11.0307
▁athens	-11.0307
▁athlete	-11.0307
▁atmosphere	-11.0307
▁benedick	-11.0307
▁colqhoun	-11.0307
▁conclusion	-11.0307
▁essential	-11.0307
▁eugene	-11.0307
▁exclusive	-11.0307
▁ferdinand	-11.0307
▁hakuna	-11.0307
▁homicide	-11.0307
▁horizon	-11.0307
▁inaudible	-11.0307
▁inevitable	-11.0307
▁lucinda	-11.0307
▁macbeth	-11.0307
▁maintenance	-11.0307
▁michigan	-11.0307
▁misunderstand	-11.0307
▁morbius	-11.0307
▁physics	-11.0307
▁september	-11.0307
▁vegetable	-11.0307
▁absurd	-11.0307
▁akeem	-11.0307
▁alfred	-11.0307
▁carnival	-11.0307
▁cocktail	-11.0307
▁einstein	-11.0307
▁jerome	-11.0307
▁memorial	-11.0307
▁perimeter	-11.0307
▁rhode	-11.0307
▁unleash	-11.0307
▁bikini	-11.0307
▁miguel	-11.0307
▁nickname	-11.0307
▁referee	-11.0307
▁sensation	-11.0307
▁disorder	-11.0307
▁dreyman	-11.0307
▁hazard	-11.0307
▁struck	-11.0307
▁delusion	-11.0307
▁houston	-11.0307
▁phrase	-11.0307
▁amigo	-11.0307
▁marisa	-11.0307
▁truce	-11.0307
▁gwen	-11.0307
▁motive	-11.0307
▁kurt	-11.0307
▁envy	-11.0307
▁cartoon	-11.0307
▁rifle	-11.0307
▁hamburg	-11.0307
▁meteor	-11.0307
▁illusion	-11.0308
qualified	-11.0308
▁doggy	-11.0308
▁breeze	-11.0308
▁erik	-11.0308
▁denied	-11.0308
▁update	-11.0308
▁donald	-11.0309
▁jesse	-11.0309
▁specifically	-11.0309
▁beware	-11.0309
hrer	-11.0309
▁georgia	-11.031
▁construction	-11.031
▁antique	-11.0311
▁resent	-11.0311
▁minho	-11.0313
▁waking	-11.0314
▁hatred	-11.0314
▁genetic	-11.0315
▁robby	-11.0315
▁whys	-11.0316
▁dojo	-11.0316
▁viking	-11.0321
▁creation	-11.0321
▁voil	-11.0323
▁aidan	-11.0324
▁who	-11.0327
▁quitting	-11.0328
▁mice	-11.0334
▁elise	-11.0339
▁spain	-11.0354
▁torch	-11.0363
▁abra	-11.0365
▁sore	-11.0397
▁poet	-11.0486
poli	-11.0523
▁poop	-11.0526
bj	-11.0536
▁boost	-11.0545
▁crate	-11.0578
▁flap	-11.0602
burn	-11.0676
▁clap	-11.0682
▁august	-11.0701
▁triumph	-11.0704
▁alabanza	-11.0707
▁atlantis	-11.0707
▁believing	-11.0707
▁bodyguard	-11.0707
▁celebration	-11.0707
▁disrespect	-11.0707
▁dumbledore	-11.0707
▁dwight	-11.0707
▁executed	-11.0707
▁faggot	-11.0707
▁ferrars	-11.0707
▁gracias	-11.0707
▁inappropriate	-11.0707
▁olenska	-11.0707
▁philosophy	-11.0707
▁selfdestruct	-11.0707
▁sentimental	-11.0707
▁strategy	-11.0707
▁swore	-11.0707
▁tequila	-11.0707
▁tragedy	-11.0707
▁tremendous	-11.0707
▁weasley	-11.0707
▁convention	-11.0707
▁greece	-11.0707
▁liquor	-11.0707
▁carpenter	-11.0707
▁okinawa	-11.0707
▁pancakes	-11.0707
▁robinson	-11.0707
▁avner	-11.0707
▁rookie	-11.0707
▁sniper	-11.0707
▁honeymoon	-11.0707
▁ireland	-11.0707
▁whatll	-11.0707
▁ugga	-11.0707
▁natalie	-11.0707
▁operator	-11.0707
▁horror	-11.0707
▁manifest	-11.0707
▁ankle	-11.0707
▁paddy	-11.0707
▁howre	-11.0707
▁oath	-11.0707
▁chorus	-11.0707
▁pacific	-11.0707
▁silk	-11.0707
▁signior	-11.0707
▁sheet	-11.0707
▁vocalizing	-11.0707
▁muttering	-11.0707
▁pursue	-11.0707
▁agnes	-11.0707
▁oven	-11.0707
▁facing	-11.0707
▁chimes	-11.0707
▁fireworks	-11.0707
▁shuttle	-11.0708
▁matata	-11.0708
fall	-11.0708
▁dashwood	-11.0708
▁kidnapper	-11.0709
▁robbie	-11.0709
▁wendy	-11.0709
▁addition	-11.0709
▁institution	-11.071
▁vince	-11.0711
▁ernie	-11.0711
▁remark	-11.0712
▁saddle	-11.0713
▁polish	-11.0713
▁jared	-11.0713
▁troll	-11.0713
▁fluid	-11.0713
▁edition	-11.0714
▁coordinates	-11.0714
▁flaw	-11.0715
▁burke	-11.0715
▁mmmmmm	-11.0716
▁blake	-11.0716
▁borat	-11.0718
▁sympathy	-11.0719
▁spotted	-11.0723
▁mick	-11.0724
▁footage	-11.0725
▁buzzes	-11.0727
▁region	-11.0728
▁forgiveness	-11.0728
▁define	-11.0728
wall	-11.0731
▁waist	-11.0731
▁hallet	-11.0732
▁richter	-11.0746
▁copies	-11.0747
▁skies	-11.0751
▁psychic	-11.0752
▁humanity	-11.0753
▁cue	-11.0769
▁shovel	-11.0804
▁sole	-11.0819
▁bah	-11.0831
▁arse	-11.0858
astic	-11.0965
▁organize	-11.1054
mobile	-11.1088
▁restrain	-11.1099
▁immediate	-11.1105
▁henri	-11.1123
▁occur	-11.1123
▁extinct	-11.1124
▁academy	-11.1124
▁accurate	-11.1124
▁ambition	-11.1124
▁ancestor	-11.1124
▁anonymous	-11.1124
▁approval	-11.1124
▁authentic	-11.1124
▁blizzard	-11.1124
▁brandnew	-11.1124
▁condemn	-11.1124
▁disagree	-11.1124
▁disguise	-11.1124
▁donkey	-11.1124
▁encourage	-11.1124
▁eternity	-11.1124
▁festival	-11.1124
▁gambling	-11.1124
▁guldan	-11.1124
▁humiliate	-11.1124
▁injury	-11.1124
▁invasion	-11.1124
▁isolation	-11.1124
▁miranda	-11.1124
▁nefarious	-11.1124
▁outstanding	-11.1124
▁paranoid	-11.1124
▁prostitute	-11.1124
▁resolve	-11.1124
▁squidward	-11.1124
▁sworn	-11.1124
▁symptoms	-11.1124
▁syndrome	-11.1124
▁maureen	-11.1124
▁messenger	-11.1124
▁plague	-11.1124
▁previous	-11.1124
▁snarling	-11.1124
▁batteries	-11.1124
▁detroit	-11.1124
▁lorena	-11.1124
▁elbow	-11.1124
▁hermia	-11.1124
▁instance	-11.1124
▁rouge	-11.1124
▁buckingham	-11.1124
▁prank	-11.1124
▁unlock	-11.1124
▁expand	-11.1124
▁lalala	-11.1124
▁grease	-11.1124
▁madison	-11.1124
▁drummer	-11.1124
▁aaah	-11.1124
▁joffer	-11.1124
▁revving	-11.1124
▁bloom	-11.1124
▁stomp	-11.1124
▁pervert	-11.1124
▁clanging	-11.1124
▁aisha	-11.1124
▁irene	-11.1124
▁violet	-11.1124
▁yawn	-11.1124
▁depth	-11.1124
▁lipstick	-11.1124
▁goddess	-11.1124
▁lease	-11.1125
▁whiskey	-11.1125
▁kayden	-11.1125
▁flashlight	-11.1126
▁scanner	-11.1126
▁psychotic	-11.1126
▁poetry	-11.1127
▁wrapped	-11.1127
▁paperwork	-11.1128
▁jewelry	-11.113
▁promote	-11.1131
▁poker	-11.1131
▁hillard	-11.1131
▁strictly	-11.1133
▁native	-11.1133
▁slick	-11.1134
▁germ	-11.1136
▁omar	-11.1137
▁thunk	-11.1137
▁peaches	-11.1138
▁harsh	-11.1139
▁benny	-11.1139
▁rising	-11.1141
▁marina	-11.1143
▁adore	-11.1145
▁burst	-11.1145
▁pawn	-11.1146
▁stokely	-11.1147
▁elder	-11.1147
▁coverage	-11.115
▁diary	-11.1155
▁centre	-11.1155
life	-11.1165
terior	-11.1199
▁folk	-11.1206
erstr	-11.1241
▁argh	-11.1246
▁compos	-11.1248
▁negotiat	-11.1249
▁fag	-11.1267
▁toll	-11.1285
▁piston	-11.134
▁paci	-11.1387
track	-11.1436
▁corps	-11.1489
level	-11.1524
flow	-11.1533
▁mimi	-11.1537
▁chant	-11.155
▁confident	-11.1557
▁whisk	-11.1558
▁activity	-11.1558
▁aspirin	-11.1558
▁bangkok	-11.1558
▁cafeteria	-11.1558
▁capacity	-11.1558
▁cassidy	-11.1558
▁concrete	-11.1558
▁corporal	-11.1558
▁dialogue	-11.1558
▁ferrigno	-11.1558
▁fingerprint	-11.1558
▁investigator	-11.1558
▁kobayashi	-11.1558
▁koslow	-11.1558
▁manhattan	-11.1558
▁october	-11.1558
▁possibilities	-11.1558
▁pronounce	-11.1558
▁rehearsal	-11.1558
▁serrano	-11.1558
▁specimen	-11.1558
▁struggling	-11.1558
▁sunglasses	-11.1558
▁athena	-11.1558
▁bounty	-11.1558
▁cheeseburger	-11.1558
▁tranquil	-11.1558
▁venture	-11.1558
▁violation	-11.1558
▁ferris	-11.1558
▁identify	-11.1558
▁leather	-11.1558
▁reception	-11.1558
▁douche	-11.1558
▁dylan	-11.1558
▁selena	-11.1558
▁editor	-11.1558
▁parrot	-11.1558
▁deceive	-11.1558
▁thrust	-11.1558
▁gossip	-11.1558
▁brogan	-11.1558
▁carriage	-11.1558
▁neighbourhood	-11.1558
▁sixteen	-11.1558
▁tread	-11.1558
▁usnavi	-11.1558
▁droid	-11.1558
▁nova	-11.1558
▁kathy	-11.1558
▁skirt	-11.1558
▁senate	-11.1559
▁tweet	-11.1559
▁ferry	-11.1559
▁eastern	-11.1559
▁presume	-11.1559
▁ogre	-11.1559
▁marquis	-11.1559
▁dink	-11.1559
▁typical	-11.1559
▁modest	-11.1559
▁goblin	-11.1559
▁statue	-11.1559
▁mankind	-11.1559
▁ensure	-11.1559
▁proposition	-11.156
▁nanny	-11.156
▁leah	-11.156
▁woodward	-11.156
▁boobs	-11.156
▁debate	-11.1561
▁creek	-11.1561
▁stepping	-11.1561
▁weii	-11.1561
▁grantham	-11.1561
▁forehead	-11.1562
▁medic	-11.1563
▁dwell	-11.1564
▁entertainment	-11.1565
▁compete	-11.1566
▁smee	-11.1566
▁subway	-11.1567
▁spud	-11.1568
▁booze	-11.1569
▁mature	-11.1569
▁radiation	-11.1571
▁glue	-11.1571
▁limo	-11.1572
▁hammy	-11.1574
▁barrel	-11.1574
▁publicity	-11.1574
▁dart	-11.1574
▁inherit	-11.1574
▁cities	-11.1575
▁prima	-11.1575
hurst	-11.1581
▁thug	-11.1582
▁restraint	-11.1584
▁shade	-11.1585
▁axe	-11.1586
▁raid	-11.1589
▁dj	-11.1591
▁onion	-11.1591
▁pace	-11.1599
▁gina	-11.1635
▁georg	-11.1644
▁height	-11.1662
▁degree	-11.1665
▁hiya	-11.1766
▁kneel	-11.1766
▁wiggin	-11.1837
tempo	-11.1852
▁writ	-11.1874
brook	-11.1904
american	-11.1978
blood	-11.1978
smith	-11.1979
▁critic	-11.1992
▁robber	-11.1993
▁energ	-11.1994
▁instrument	-11.2002
▁mmmmm	-11.2005
▁hawaii	-11.2007
▁kidnap	-11.201
cake	-11.201
▁almighty	-11.2013
▁ambush	-11.2013
▁autograph	-11.2013
▁camerlengo	-11.2013
▁compartment	-11.2013
▁december	-11.2013
▁depression	-11.2013
▁destined	-11.2013
▁dimitri	-11.2013
▁disrupt	-11.2013
▁evacuation	-11.2013
▁evolve	-11.2013
▁executive	-11.2013
▁fraternity	-11.2013
▁kenneth	-11.2013
▁kuwait	-11.2013
▁macleod	-11.2013
▁mcbride	-11.2013
▁mckenzie	-11.2013
▁mulligan	-11.2013
▁olivia	-11.2013
▁ordinary	-11.2013
▁ossory	-11.2013
▁persuade	-11.2013
▁pyramid	-11.2013
▁pyramus	-11.2013
▁refrigerator	-11.2013
▁retrieve	-11.2013
▁thanksgiving	-11.2013
▁toulouse	-11.2013
▁virtue	-11.2013
▁volcano	-11.2013
▁distress	-11.2013
▁install	-11.2013
▁matrix	-11.2013
▁munich	-11.2013
▁necklace	-11.2013
▁nypd	-11.2013
▁thorough	-11.2013
▁gardner	-11.2013
▁headmaster	-11.2013
▁rainbow	-11.2013
▁spencer	-11.2013
▁fiction	-11.2013
▁hysterical	-11.2013
▁nelson	-11.2013
▁lounge	-11.2013
▁medusa	-11.2013
▁beatrice	-11.2013
▁dexter	-11.2013
▁attached	-11.2013
▁studied	-11.2013
▁clacking	-11.2013
▁mutual	-11.2013
▁atari	-11.2013
▁briggs	-11.2013
▁granddad	-11.2013
▁porch	-11.2013
▁raising	-11.2013
▁condom	-11.2013
▁gulp	-11.2013
▁civilization	-11.2013
▁assuming	-11.2014
▁tropic	-11.2014
▁relations	-11.2014
▁jennie	-11.2014
▁favourite	-11.2014
▁imitate	-11.2014
▁biological	-11.2015
▁ramses	-11.2015
▁arjun	-11.2016
▁overnight	-11.2016
▁feast	-11.2017
▁operating	-11.2018
▁untie	-11.2018
▁repay	-11.2018
▁carrier	-11.2019
▁token	-11.2019
▁resistance	-11.2019
▁massage	-11.2019
▁arrow	-11.2019
▁suburb	-11.2019
▁classroom	-11.2019
▁cyp	-11.2021
▁renee	-11.2021
▁hansel	-11.2022
▁quest	-11.2023
▁scrub	-11.2024
▁groom	-11.2024
▁ridley	-11.2025
▁pause	-11.2025
▁freya	-11.2026
▁tray	-11.2026
▁invention	-11.2026
▁malena	-11.2029
▁quant	-11.2029
▁popped	-11.2033
▁puff	-11.2035
▁fitting	-11.2038
▁hush	-11.2038
▁vibe	-11.2045
▁marty	-11.2047
▁jill	-11.205
▁grim	-11.2051
pool	-11.2079
wyn	-11.2083
▁fuse	-11.2125
▁extract	-11.2157
▁grind	-11.2212
front	-11.2303
position	-11.2359
▁bree	-11.242
▁surround	-11.2433
▁arrange	-11.2448
world	-11.2454
class	-11.2457
▁numb	-11.2458
▁correspond	-11.2489
▁abilities	-11.2489
▁academic	-11.2489
▁acknowledge	-11.2489
▁alternative	-11.2489
▁amazon	-11.2489
▁anxious	-11.2489
▁balkan	-11.2489
▁biscuit	-11.2489
▁celebrity	-11.2489
▁cemetery	-11.2489
▁cheerleader	-11.2489
▁cleopatra	-11.2489
▁compromise	-11.2489
▁confusing	-11.2489
▁convenient	-11.2489
▁corporate	-11.2489
▁curiosity	-11.2489
▁dalgleish	-11.2489
▁distinct	-11.2489
▁dwarves	-11.2489
▁enterprise	-11.2489
▁entitled	-11.2489
▁extension	-11.2489
▁fugitive	-11.2489
▁happier	-11.2489
▁heffley	-11.2489
▁infinite	-11.2489
▁integrity	-11.2489
▁interlinked	-11.2489
▁interpret	-11.2489
▁kinky	-11.2489
▁lorraine	-11.2489
▁medivh	-11.2489
▁mukhtar	-11.2489
▁ninetysix	-11.2489
▁oldfashioned	-11.2489
▁pollux	-11.2489
▁residence	-11.2489
▁scissors	-11.2489
▁semester	-11.2489
▁soccer	-11.2489
▁splendid	-11.2489
▁supplies	-11.2489
▁surprising	-11.2489
▁terrifying	-11.2489
▁toffler	-11.2489
▁trophy	-11.2489
▁tshirt	-11.2489
▁typewriter	-11.2489
▁unconscious	-11.2489
▁wheezing	-11.2489
▁wilcox	-11.2489
▁aerobic	-11.2489
▁aqua	-11.2489
▁baggins	-11.2489
▁graduation	-11.2489
▁metaphor	-11.2489
▁nikki	-11.2489
▁prospect	-11.2489
▁streak	-11.2489
▁delicate	-11.2489
▁gillian	-11.2489
▁orlov	-11.2489
▁population	-11.2489
▁solemn	-11.2489
▁woohoo	-11.2489
▁croak	-11.2489
▁gamble	-11.2489
▁globe	-11.2489
▁superhero	-11.2489
▁breach	-11.2489
▁divide	-11.2489
▁april	-11.2489
▁bofur	-11.2489
▁pursuit	-11.2489
▁spike	-11.2489
▁cynic	-11.2489
▁emperor	-11.2489
▁infant	-11.2489
▁lenora	-11.2489
▁donut	-11.2489
▁rehab	-11.2489
▁vomit	-11.2489
▁scandal	-11.2489
▁piggy	-11.2489
▁mumbles	-11.2489
▁jammed	-11.2489
▁worn	-11.2489
▁padre	-11.2489
▁epic	-11.249
▁stutters	-11.249
▁tolerate	-11.249
▁domestic	-11.249
▁tornado	-11.249
▁scholarship	-11.249
▁occurred	-11.249
▁lamp	-11.249
▁kumar	-11.249
▁dreadful	-11.2491
▁carrot	-11.2491
▁feature	-11.2491
atomic	-11.2491
▁wildfire	-11.2492
▁intercept	-11.2492
▁confront	-11.2492
▁ginny	-11.2492
▁franco	-11.2493
▁andand	-11.2493
▁kofi	-11.2494
▁rustling	-11.2494
▁loki	-11.2497
▁ohara	-11.2498
▁bribe	-11.2499
▁blend	-11.2501
▁zeta	-11.2504
▁harmless	-11.2505
▁stash	-11.251
▁jedi	-11.2514
▁static	-11.2519
▁lester	-11.252
▁chewie	-11.2521
▁vase	-11.2522
▁logical	-11.2528
with	-11.2559
▁skill	-11.2651
▁mourn	-11.2929
woman	-11.2949
stream	-11.2955
onald	-11.2962
▁technical	-11.2971
▁flee	-11.2976
▁audit	-11.2986
▁homosexual	-11.2989
knuckle	-11.2989
▁allergic	-11.2989
▁anticipate	-11.2989
▁appetite	-11.2989
▁arendelle	-11.2989
▁artemisia	-11.2989
▁biosyn	-11.2989
▁celeste	-11.2989
▁clumsy	-11.2989
▁cogburn	-11.2989
▁commodore	-11.2989
▁empress	-11.2989
▁february	-11.2989
▁fitzgerald	-11.2989
▁hamilton	-11.2989
▁houssam	-11.2989
▁jocasta	-11.2989
▁kendricks	-11.2989
▁kershaw	-11.2989
▁luxury	-11.2989
▁mahjong	-11.2989
▁malfunction	-11.2989
▁manipulat	-11.2989
▁nipple	-11.2989
▁oswald	-11.2989
▁perfume	-11.2989
▁picnic	-11.2989
▁popcorn	-11.2989
▁psychiatrist	-11.2989
▁rebecca	-11.2989
▁resign	-11.2989
▁scarecrow	-11.2989
▁sebastian	-11.2989
▁smuggle	-11.2989
▁supermarket	-11.2989
▁thieves	-11.2989
▁underestimate	-11.2989
▁vulnerable	-11.2989
▁welfare	-11.2989
▁clutch	-11.2989
▁myrna	-11.2989
▁shakily	-11.2989
▁shannon	-11.2989
▁stubborn	-11.2989
▁auction	-11.2989
▁reflex	-11.2989
▁caution	-11.2989
▁grethe	-11.2989
▁puzzle	-11.2989
▁stevie	-11.2989
▁website	-11.2989
▁brett	-11.2989
▁hobby	-11.2989
▁darius	-11.2989
▁mccoy	-11.2989
▁legacy	-11.2989
▁coffin	-11.2989
▁keeler	-11.2989
▁krell	-11.2989
▁resort	-11.2989
▁wallace	-11.2989
▁harbor	-11.2989
▁ceiling	-11.2989
▁fourteen	-11.2989
▁hunch	-11.2989
▁raven	-11.2989
▁countries	-11.2989
▁studies	-11.2989
▁shanty	-11.2989
▁nevins	-11.2989
▁stiff	-11.2989
▁rational	-11.299
▁stray	-11.299
▁jasper	-11.299
▁everdene	-11.299
▁salesman	-11.299
▁senor	-11.299
▁emily	-11.299
▁clangs	-11.299
▁vital	-11.2991
▁pension	-11.2991
▁parlor	-11.2991
▁lambert	-11.2991
▁cloak	-11.2991
▁steer	-11.2992
▁hollow	-11.2992
▁elementary	-11.2992
▁thudding	-11.2992
▁rodney	-11.2993
▁broadway	-11.2993
▁panties	-11.2993
▁delightful	-11.2995
▁cozy	-11.2995
▁crypt	-11.2995
▁sherman	-11.2999
▁liking	-11.3
▁georgie	-11.3001
▁haircut	-11.3001
▁accidentally	-11.3001
▁snore	-11.3002
▁meek	-11.3008
▁aero	-11.3008
▁teasing	-11.3008
▁zac	-11.3012
▁amuse	-11.3017
▁dodo	-11.302
▁lime	-11.305
▁mimic	-11.3065
▁cough	-11.3109
▁seize	-11.3144
▁yankee	-11.3161
▁tol	-11.3259
▁pond	-11.3309
▁disappoint	-11.3456
▁transit	-11.3471
through	-11.348
▁heave	-11.3499
▁livin	-11.3514
responsibilities	-11.3515
▁activities	-11.3515
▁advertis	-11.3515
▁algorithm	-11.3515
▁andromeda	-11.3515
▁archimedes	-11.3515
▁ascend	-11.3515
▁behalf	-11.3515
▁bicycle	-11.3515
▁boycott	-11.3515
▁bulgarian	-11.3515
▁cleveland	-11.3515
▁confusion	-11.3515
▁conspiracy	-11.3515
▁democrat	-11.3515
▁eclipse	-11.3515
▁economic	-11.3515
▁equipped	-11.3515
▁evolution	-11.3515
▁frightening	-11.3515
▁fulfill	-11.3515
▁ghetto	-11.3515
▁groceries	-11.3515
▁hurricane	-11.3515
▁intimate	-11.3515
▁lndistinct	-11.3515
▁mcquarry	-11.3515
▁militia	-11.3515
▁musketeer	-11.3515
▁napoleon	-11.3515
▁necessarily	-11.3515
▁neutral	-11.3515
▁oklahoma	-11.3515
▁penkovsky	-11.3515
▁platform	-11.3515
▁prescott	-11.3515
▁renault	-11.3515
▁schultz	-11.3515
▁seizure	-11.3515
▁serpent	-11.3515
▁shrieking	-11.3515
▁shrimp	-11.3515
▁trembling	-11.3515
▁felicia	-11.3515
▁lobster	-11.3515
▁maximum	-11.3515
▁occupation	-11.3515
▁reference	-11.3515
▁rubbish	-11.3515
▁undercover	-11.3515
▁bathtub	-11.3515
▁despise	-11.3515
▁ozzie	-11.3515
▁youyou	-11.3515
▁buffalo	-11.3515
▁crumb	-11.3515
▁cullen	-11.3515
▁josef	-11.3515
▁ounce	-11.3515
▁austin	-11.3515
▁blackmail	-11.3515
▁clucking	-11.3515
▁kehoe	-11.3515
▁morgue	-11.3515
▁clarity	-11.3515
▁lantern	-11.3515
▁storage	-11.3515
▁sunrise	-11.3515
▁exotic	-11.3515
▁swiss	-11.3515
▁klaus	-11.3515
▁preparing	-11.3515
▁wilderness	-11.3515
▁olaf	-11.3515
▁aether	-11.3515
▁whatsoever	-11.3515
▁fierce	-11.3515
▁shaft	-11.3515
▁snitch	-11.3515
▁plead	-11.3515
▁russo	-11.3516
▁canyon	-11.3516
▁yahoo	-11.3516
▁imperial	-11.3516
▁vicky	-11.3516
▁dewey	-11.3516
▁oome	-11.3516
▁panicked	-11.3516
▁fortress	-11.3516
▁mystic	-11.3516
▁philip	-11.3516
▁absence	-11.3516
▁clerk	-11.3516
▁gordon	-11.3516
▁ocp	-11.3516
▁confidential	-11.3517
bacca	-11.3518
▁transferred	-11.3518
▁profound	-11.3518
▁errand	-11.3518
▁basis	-11.3518
▁triumphant	-11.3519
▁pratt	-11.3519
▁notebook	-11.3519
▁fraud	-11.352
▁jib	-11.3521
▁cabinet	-11.3522
▁maxwell	-11.3523
▁gangster	-11.3523
▁holler	-11.3523
▁hissing	-11.3523
▁harper	-11.3527
▁vermin	-11.3531
▁faye	-11.3534
▁lugo	-11.3536
▁blaze	-11.3536
▁gert	-11.3542
▁crop	-11.3547
▁charl	-11.3561
ilthiest	-11.3692
▁blog	-11.3731
good	-11.3792
azoo	-11.3855
▁grove	-11.3877
▁villa	-11.4001
▁oppos	-11.4006
▁disgust	-11.4011
▁exhaust	-11.4015
▁profession	-11.4031
yeah	-11.4038
rogat	-11.4047
bbed	-11.405
▁heavi	-11.4053
▁appoint	-11.4068
▁scholar	-11.407
▁satisfy	-11.4071
▁apologise	-11.4071
▁archibald	-11.4071
▁artifact	-11.4071
▁chechnya	-11.4071
▁cleaves	-11.4071
▁covington	-11.4071
▁deceased	-11.4071
▁dwalin	-11.4071
▁elected	-11.4071
▁equation	-11.4071
▁exegol	-11.4071
▁exhusband	-11.4071
▁fundamental	-11.4071
▁granddaughter	-11.4071
▁increasing	-11.4071
▁industry	-11.4071
▁inhabit	-11.4071
▁instructor	-11.4071
▁intellect	-11.4071
▁megasaki	-11.4071
▁montgomery	-11.4071
▁noodle	-11.4071
▁november	-11.4071
▁orleans	-11.4071
▁pajamas	-11.4071
▁philadelphia	-11.4071
▁raccoon	-11.4071
▁raspberry	-11.4071
▁rendezvous	-11.4071
▁rhyme	-11.4071
▁sanctuary	-11.4071
▁scenario	-11.4071
▁scumbag	-11.4071
▁seagull	-11.4071
▁shakespeare	-11.4071
▁skeleton	-11.4071
▁splutters	-11.4071
▁squawks	-11.4071
▁supreme	-11.4071
▁swift	-11.4071
▁tenenbaum	-11.4071
▁testimony	-11.4071
▁trespass	-11.4071
▁uncertain	-11.4071
▁unpredictable	-11.4071
▁wesiey	-11.4071
▁cellphone	-11.4071
▁contrary	-11.4071
▁elsewhere	-11.4071
▁embrace	-11.4071
▁estimate	-11.4071
▁generator	-11.4071
▁lavelle	-11.4071
▁minimum	-11.4071
▁munchkin	-11.4071
▁patterson	-11.4071
▁preparation	-11.4071
▁refresh	-11.4071
▁squish	-11.4071
▁stephanie	-11.4071
▁tatiana	-11.4071
▁venice	-11.4071
▁alaska	-11.4071
▁esteem	-11.4071
▁gravity	-11.4071
▁janitor	-11.4071
▁jarvis	-11.4071
▁kirby	-11.4071
▁purchase	-11.4071
▁translation	-11.4071
▁cereal	-11.4071
▁obtain	-11.4071
▁isolate	-11.4071
▁racist	-11.4071
▁budget	-11.4071
▁investigate	-11.4071
▁elrond	-11.4071
▁shelf	-11.4071
▁scatter	-11.4071
▁houten	-11.4071
▁stunning	-11.4071
▁violin	-11.4071
▁womb	-11.4071
▁yield	-11.4071
▁eminence	-11.4071
▁wheat	-11.4071
▁scrambl	-11.4071
▁parasite	-11.4071
▁edith	-11.4071
▁renew	-11.4071
▁sausage	-11.4071
▁ultra	-11.4071
▁error	-11.4071
▁slghs	-11.4071
▁gallery	-11.4071
▁seduce	-11.4071
▁hound	-11.4071
▁smedt	-11.4071
▁courtesy	-11.4071
▁sincerely	-11.4071
▁chalk	-11.4071
▁oui	-11.4071
ummel	-11.4072
▁tralala	-11.4072
▁pinned	-11.4072
▁emerge	-11.4072
▁whitney	-11.4072
▁lottery	-11.4072
▁solomon	-11.4072
▁insert	-11.4072
▁cigar	-11.4072
▁raglan	-11.4072
▁kamal	-11.4073
▁expectations	-11.4073
▁pelt	-11.4074
▁spinning	-11.4074
▁purvis	-11.4074
▁crisp	-11.4074
▁racecar	-11.4075
pipe	-11.4075
▁barrier	-11.4076
▁thermo	-11.4076
▁tension	-11.4076
▁barrio	-11.4076
▁colour	-11.4077
▁tapping	-11.4079
▁ripping	-11.4081
hoohoo	-11.4136
gree	-11.4164
▁buggin	-11.4441
ground	-11.4588
minute	-11.4624
horse	-11.4625
worm	-11.4628
thats	-11.463
▁thirst	-11.463
▁neuro	-11.4643
▁mornin	-11.4648
▁hanna	-11.4653
glass	-11.4657
▁vocal	-11.4659
▁annual	-11.4659
▁apprehend	-11.4659
▁architect	-11.4659
▁barcelona	-11.4659
▁bizarre	-11.4659
▁bollocks	-11.4659
▁bonjour	-11.4659
▁bouncing	-11.4659
▁cavalry	-11.4659
▁chadwick	-11.4659
▁communist	-11.4659
▁concentration	-11.4659
▁deactivate	-11.4659
▁demetrius	-11.4659
▁description	-11.4659
▁despereaux	-11.4659
▁dunnage	-11.4659
▁emmett	-11.4659
▁enforcement	-11.4659
▁expired	-11.4659
▁gadget	-11.4659
▁grimlock	-11.4659
▁ignorant	-11.4659
▁imbecile	-11.4659
▁impulse	-11.4659
▁investigating	-11.4659
▁merchandise	-11.4659
▁monterey	-11.4659
▁motorcycle	-11.4659
▁neglect	-11.4659
▁nemerov	-11.4659
▁occupied	-11.4659
▁offensive	-11.4659
▁opponent	-11.4659
▁orgasm	-11.4659
▁peculiar	-11.4659
▁petroglyphs	-11.4659
▁phoebe	-11.4659
▁precaution	-11.4659
▁puppet	-11.4659
▁shampoo	-11.4659
▁shepard	-11.4659
▁silhouette	-11.4659
▁sketch	-11.4659
▁slytherin	-11.4659
▁snarls	-11.4659
▁sneeze	-11.4659
▁strangle	-11.4659
▁bleats	-11.4659
▁calendar	-11.4659
▁elegant	-11.4659
▁garrison	-11.4659
▁gracious	-11.4659
▁heydrich	-11.4659
▁overreact	-11.4659
▁sidekick	-11.4659
▁substance	-11.4659
▁swarm	-11.4659
▁tennessee	-11.4659
▁uplink	-11.4659
▁withdraw	-11.4659
▁anyhow	-11.4659
▁assemble	-11.4659
▁caretaker	-11.4659
▁grazie	-11.4659
▁hobbit	-11.4659
▁pettyman	-11.4659
▁plaza	-11.4659
▁prague	-11.4659
▁camilla	-11.4659
▁fuego	-11.4659
▁locust	-11.4659
▁mumbai	-11.4659
▁northeast	-11.4659
▁falcon	-11.4659
▁gesture	-11.4659
▁lancelot	-11.4659
▁mathew	-11.4659
▁preserve	-11.4659
▁shattered	-11.4659
▁venom	-11.4659
▁voyage	-11.4659
▁cupcakes	-11.4659
▁erotic	-11.4659
▁honeycutt	-11.4659
▁negro	-11.4659
▁sorrow	-11.4659
▁tractor	-11.4659
▁warehouse	-11.4659
▁butterfly	-11.4659
▁replica	-11.4659
▁langley	-11.4659
▁promising	-11.4659
▁stroll	-11.4659
▁unveil	-11.4659
▁vanilla	-11.4659
▁hydro	-11.4659
▁harvey	-11.4659
▁kijk	-11.4659
▁dawg	-11.4659
▁eriksson	-11.4659
▁gulf	-11.4659
▁slurp	-11.4659
▁millionaire	-11.4659
▁rawlings	-11.4659
▁shrine	-11.4659
▁terug	-11.4659
▁pecker	-11.4659
▁wray	-11.4659
▁bueno	-11.4659
▁navigat	-11.466
paramedic	-11.466
▁programmed	-11.466
▁sperm	-11.466
▁coroner	-11.466
▁defect	-11.466
▁aisle	-11.466
▁yyou	-11.466
▁imitating	-11.466
▁bandera	-11.466
▁napkin	-11.466
▁whining	-11.4661
▁limp	-11.4661
hohoho	-11.4661
▁calib	-11.4662
▁patties	-11.4662
▁irrita	-11.4663
▁disks	-11.4664
▁salute	-11.4665
▁tsk	-11.4665
▁heap	-11.4666
▁flunk	-11.4666
▁google	-11.4667
▁certifi	-11.4668
▁flare	-11.4669
▁regina	-11.4674
range	-11.4682
▁reduce	-11.4689
stead	-11.4692
▁regime	-11.4708
lift	-11.5009
▁molecul	-11.5041
keeper	-11.5224
view	-11.5244
▁compare	-11.5245
word	-11.5247
together	-11.5249
storm	-11.525
▁coordinat	-11.5273
▁sittin	-11.5277
▁runnin	-11.5277
utterly	-11.5278
▁convers	-11.5282
▁euro	-11.5284
▁antidote	-11.5284
▁anxiety	-11.5284
▁boitano	-11.5284
▁butterflies	-11.5284
▁cavendish	-11.5284
▁corridor	-11.5284
▁database	-11.5284
▁decency	-11.5284
▁depressing	-11.5284
▁durotan	-11.5284
▁emerald	-11.5284
▁expelled	-11.5284
▁exploit	-11.5284
▁extinguish	-11.5284
▁exwife	-11.5284
▁fabric	-11.5284
▁garrett	-11.5284
▁gertrude	-11.5284
▁gorilla	-11.5284
▁industrial	-11.5284
▁inviting	-11.5284
▁judging	-11.5284
▁legitimate	-11.5284
▁lyrics	-11.5284
▁malekith	-11.5284
▁merrick	-11.5284
▁microphone	-11.5284
▁mulgarath	-11.5284
▁nowadays	-11.5284
▁obliged	-11.5284
▁ornithologist	-11.5284
▁ramirez	-11.5284
▁rebuild	-11.5284
▁receipt	-11.5284
▁robocop	-11.5284
▁safranek	-11.5284
▁salameh	-11.5284
▁shepherd	-11.5284
▁snails	-11.5284
▁sophisticated	-11.5284
▁strasser	-11.5284
▁submarine	-11.5284
▁swedish	-11.5284
▁swept	-11.5284
▁switzerland	-11.5284
▁unicorn	-11.5284
▁universal	-11.5284
▁vacuum	-11.5284
▁xerxes	-11.5284
▁catherine	-11.5284
▁certificate	-11.5284
▁exaggerat	-11.5284
▁hypnoti	-11.5284
▁lloyd	-11.5284
▁mikael	-11.5284
▁oppress	-11.5284
▁somewhat	-11.5284
▁sponsor	-11.5284
▁squat	-11.5284
▁warfare	-11.5284
▁xandar	-11.5284
▁blackbeard	-11.5284
▁gretel	-11.5284
▁initiate	-11.5284
▁kilometers	-11.5284
▁length	-11.5284
▁peasant	-11.5284
▁penthouse	-11.5284
▁slippery	-11.5284
▁snorts	-11.5284
▁trevor	-11.5284
▁wynne	-11.5284
▁zeggen	-11.5284
▁autobot	-11.5284
▁comanche	-11.5284
▁nixon	-11.5284
▁eyelash	-11.5284
▁unicron	-11.5284
▁canvas	-11.5284
▁cunning	-11.5284
▁dizzy	-11.5284
▁lazlo	-11.5284
▁megget	-11.5284
▁devoted	-11.5284
▁ifyou	-11.5284
▁ooooh	-11.5284
▁survey	-11.5284
▁krall	-11.5284
▁channing	-11.5284
▁ilsa	-11.5284
▁unstable	-11.5284
▁whooshes	-11.5284
▁conceal	-11.5284
▁leash	-11.5284
▁maggot	-11.5284
▁renato	-11.5284
▁sermon	-11.5284
▁aloha	-11.5284
▁vickie	-11.5284
▁windigo	-11.5284
▁applied	-11.5284
▁bulb	-11.5284
▁cassie	-11.5284
▁adapt	-11.5284
▁tumor	-11.5284
▁brutus	-11.5284
▁ponch	-11.5284
▁educate	-11.5285
▁eager	-11.5285
▁reign	-11.5285
▁fbl	-11.5285
▁elena	-11.5285
▁lamia	-11.5285
▁penetrat	-11.5285
▁insight	-11.5285
encia	-11.5285
▁arsehole	-11.5285
▁madrid	-11.5285
▁willis	-11.5285
▁carbon	-11.5285
▁psychologist	-11.5285
▁norris	-11.5285
▁spiritual	-11.5285
▁playtone	-11.5286
▁titties	-11.5286
▁lethal	-11.5287
▁iets	-11.5288
▁hesitate	-11.5289
▁tackle	-11.529
▁disarm	-11.529
▁swag	-11.5295
▁frickin	-11.5316
▁imagina	-11.533
allelu	-11.5332
circula	-11.5346
▁litera	-11.5379
▁practi	-11.5456
▁sancti	-11.5457
▁deposit	-11.546
plifting	-11.5624
▁annoy	-11.5891
▁dismiss	-11.5895
pound	-11.5915
safe	-11.5916
▁motherfuckin	-11.5941
stitution	-11.5946
▁francis	-11.5948
aught	-11.5949
▁acquired	-11.5951
▁administer	-11.5951
▁alonzo	-11.5951
▁ambassador	-11.5951
▁apologizing	-11.5951
▁babbling	-11.5951
▁bouquet	-11.5951
▁clitoris	-11.5951
▁cockroach	-11.5951
▁conclude	-11.5951
▁condolences	-11.5951
▁congratulate	-11.5951
▁cripple	-11.5951
▁decepticons	-11.5951
▁demonstration	-11.5951
▁despair	-11.5951
▁donovan	-11.5951
▁eskimo	-11.5951
▁faculty	-11.5951
▁fracture	-11.5951
▁grandparents	-11.5951
▁injuries	-11.5951
▁jericho	-11.5951
▁lindsey	-11.5951
▁literature	-11.5951
▁lucille	-11.5951
▁lysander	-11.5951
▁maharajah	-11.5951
▁marissa	-11.5951
▁morocco	-11.5951
▁murray	-11.5951
▁observation	-11.5951
▁obstacle	-11.5951
▁premises	-11.5951
▁rehearse	-11.5951
▁snickering	-11.5951
▁syrup	-11.5951
▁technician	-11.5951
▁wheelchair	-11.5951
▁whoaohoh	-11.5951
▁autopsy	-11.5951
▁dictator	-11.5951
▁dinoco	-11.5951
▁grissom	-11.5951
▁identification	-11.5951
▁january	-11.5951
▁knives	-11.5951
▁laboratory	-11.5951
▁penniless	-11.5951
▁pretzel	-11.5951
▁qualities	-11.5951
▁quarrel	-11.5951
▁telfer	-11.5951
▁vicomte	-11.5951
▁brazil	-11.5951
▁chunky	-11.5951
▁flava	-11.5951
▁referring	-11.5951
▁vibrate	-11.5951
▁airborne	-11.5951
▁clinking	-11.5951
▁gasoline	-11.5951
▁generaal	-11.5951
▁identical	-11.5951
▁immune	-11.5951
▁toxic	-11.5951
▁montana	-11.5951
▁scroll	-11.5951
▁thread	-11.5951
▁aibee	-11.5951
▁harvest	-11.5951
▁redneck	-11.5951
▁happies	-11.5951
▁keith	-11.5951
▁ravage	-11.5951
▁vietnamese	-11.5951
▁vouch	-11.5951
▁aladar	-11.5951
▁booboo	-11.5951
▁federation	-11.5951
▁garlic	-11.5951
▁hebben	-11.5951
▁nevertheless	-11.5951
▁choosing	-11.5951
▁dispose	-11.5951
▁unpack	-11.5951
▁invade	-11.5951
▁prophet	-11.5951
▁southwest	-11.5951
▁margot	-11.5951
▁vilna	-11.5951
▁importance	-11.5951
▁damien	-11.5951
▁finland	-11.5951
▁subtle	-11.5951
▁gregory	-11.5951
▁mannix	-11.5951
▁sulu	-11.5951
▁essay	-11.5951
▁mosely	-11.5951
▁wesley	-11.5951
▁retain	-11.5951
▁moulin	-11.5951
▁kgb	-11.5951
▁ponies	-11.5951
▁emerson	-11.5951
▁domino	-11.5951
▁undone	-11.5951
▁merit	-11.5951
▁dvd	-11.5951
▁yacht	-11.5951
▁cramp	-11.5952
▁steep	-11.5952
▁lothar	-11.5952
▁weiss	-11.5952
▁wellesley	-11.5952
▁wacht	-11.5952
▁wails	-11.5953
▁wills	-11.5956
▁clint	-11.5982
▁mutat	-11.6098
ncarna	-11.6117
▁illuminat	-11.6269
▁lava	-11.6343
▁howl	-11.6607
kylo	-11.6639
▁frey	-11.6645
▁precise	-11.6647
▁intent	-11.666
▁phenomenon	-11.6665
▁prefect	-11.6665
▁treason	-11.6665
▁acquaintance	-11.6665
▁ammunition	-11.6665
▁apocalypse	-11.6665
▁association	-11.6665
▁athenian	-11.6665
▁baltimore	-11.6665
▁blomkvist	-11.6665
▁bourbon	-11.6665
▁category	-11.6665
▁celebrities	-11.6665
▁contagious	-11.6665
▁convincing	-11.6665
▁crucial	-11.6665
▁cynthia	-11.6665
▁defensive	-11.6665
▁dejesus	-11.6665
▁diagnosis	-11.6665
▁discharge	-11.6665
▁disconnect	-11.6665
▁dolittle	-11.6665
▁economy	-11.6665
▁enchanted	-11.6665
▁fingernails	-11.6665
▁forensic	-11.6665
▁frequency	-11.6665
▁grandchildren	-11.6665
▁greasy	-11.6665
▁grocery	-11.6665
▁highpitch	-11.6665
▁housekeeping	-11.6665
▁independence	-11.6665
▁intruder	-11.6665
▁ipkiss	-11.6665
▁jabberwocky	-11.6665
▁jarrett	-11.6665
▁juggernaut	-11.6665
▁jukebox	-11.6665
▁jurisdiction	-11.6665
▁kaspbrak	-11.6665
▁kekambas	-11.6665
▁kemosa	-11.6665
▁kirsten	-11.6665
▁loneliness	-11.6665
▁massacre	-11.6665
▁mckinley	-11.6665
▁mercury	-11.6665
▁minnesota	-11.6665
▁murmansk	-11.6665
▁obligation	-11.6665
▁offlimits	-11.6665
▁pennsylvania	-11.6665
▁perrkins	-11.6665
▁philatelist	-11.6665
▁piranha	-11.6665
▁politicians	-11.6665
▁prevail	-11.6665
▁prophecy	-11.6665
▁prosecutor	-11.6665
▁rachael	-11.6665
▁railroad	-11.6665
▁receiving	-11.6665
▁registration	-11.6665
▁renesmee	-11.6665
▁satisfaction	-11.6665
▁savannah	-11.6665
▁sculpture	-11.6665
▁significant	-11.6665
▁sobvechik	-11.6665
▁socalled	-11.6665
▁spontaneous	-11.6665
▁squarepants	-11.6665
▁ugarte	-11.6665
▁unprecedented	-11.6665
▁ventura	-11.6665
▁vulgar	-11.6665
▁wardrobe	-11.6665
▁compound	-11.6665
▁delilah	-11.6665
▁godfather	-11.6665
▁inhaler	-11.6665
▁invalid	-11.6665
▁quincy	-11.6665
▁supervisor	-11.6665
▁thailand	-11.6665
▁torpedo	-11.6665
▁vitamin	-11.6665
▁cerebr	-11.6665
▁guapo	-11.6665
▁moretti	-11.6665
▁czech	-11.6665
▁striking	-11.6665
▁rykov	-11.6665
▁croque	-11.6665
▁demonstrate	-11.6665
▁enhance	-11.6665
▁fellcla	-11.6665
▁practicing	-11.6665
▁thanos	-11.6665
▁premier	-11.6665
▁akator	-11.6665
▁hooray	-11.6665
▁courtesan	-11.6665
▁filter	-11.6665
▁harmony	-11.6665
▁predator	-11.6665
▁decree	-11.6665
▁ursa	-11.6665
▁noisy	-11.6665
▁endanger	-11.6665
▁rabies	-11.6665
▁donation	-11.6665
▁dyke	-11.6665
discretion	-11.6666
▁grote	-11.6666
▁info	-11.6666
▁whooshing	-11.6666
▁seattle	-11.6666
▁foyt	-11.6666
▁eighteen	-11.6666
▁withers	-11.6666
▁yikes	-11.6666
▁dental	-11.6666
▁swimmer	-11.6666
▁francs	-11.6666
▁begged	-11.6666
▁mustache	-11.6666
▁chiming	-11.6666
▁metallic	-11.6666
▁laisse	-11.6666
▁piace	-11.6666
▁omelet	-11.6667
▁speer	-11.6667
▁thane	-11.6667
▁hauser	-11.6667
▁stumbl	-11.667
▁intel	-11.6671
▁bulg	-11.6676
zelf	-11.6689
proving	-11.6818
▁biograph	-11.6854
▁infect	-11.7372
▁accord	-11.7375
▁determine	-11.7395
screen	-11.7399
text	-11.74
▁weave	-11.7412
▁construct	-11.7428
▁abducted	-11.7434
▁administration	-11.7434
▁affirmative	-11.7434
▁aggression	-11.7434
▁amerika	-11.7434
▁artificial	-11.7434
▁assembly	-11.7434
▁barbarian	-11.7434
▁behaviour	-11.7434
▁blossom	-11.7434
▁competitive	-11.7434
▁cornwallis	-11.7434
▁cuddly	-11.7434
▁czechoslovakia	-11.7434
▁disciples	-11.7434
▁disposal	-11.7434
▁doughnut	-11.7434
▁dungatar	-11.7434
▁episode	-11.7434
▁excellence	-11.7434
▁forfeit	-11.7434
▁fregley	-11.7434
▁galadriel	-11.7434
▁gryffindor	-11.7434
▁hartigan	-11.7434
▁heavyweight	-11.7434
▁inconvenience	-11.7434
▁initiative	-11.7434
▁jeopardize	-11.7434
▁leonidas	-11.7434
▁limousine	-11.7434
▁lindsay	-11.7434
▁malfoy	-11.7434
▁mardukas	-11.7434
▁marigold	-11.7434
▁megatron	-11.7434
▁merchant	-11.7434
▁palpatine	-11.7434
▁participate	-11.7434
▁penitentiary	-11.7434
▁psychiatric	-11.7434
▁qualification	-11.7434
▁radagast	-11.7434
▁resurrect	-11.7434
▁roxanne	-11.7434
▁scavenger	-11.7434
▁solitary	-11.7434
▁squirt	-11.7434
▁subconscious	-11.7434
▁sufficient	-11.7434
▁unacceptable	-11.7434
▁ungrateful	-11.7434
▁unnatural	-11.7434
▁velkan	-11.7434
▁vengeance	-11.7434
▁veronica	-11.7434
▁vibrating	-11.7434
▁vogelmann	-11.7434
▁vulture	-11.7434
▁wretch	-11.7434
▁asthma	-11.7434
▁chenkov	-11.7434
▁chubby	-11.7434
▁dimension	-11.7434
▁diversion	-11.7434
▁divinity	-11.7434
▁fuzzy	-11.7434
▁nebula	-11.7434
▁parachute	-11.7434
▁revoir	-11.7434
▁schmuck	-11.7434
▁suffocat	-11.7434
▁sweden	-11.7434
▁becca	-11.7434
▁climate	-11.7434
▁devotion	-11.7434
▁escaping	-11.7434
▁exhaling	-11.7434
▁freight	-11.7434
▁imagining	-11.7434
▁metropoli	-11.7434
▁piedmont	-11.7434
▁rhoda	-11.7434
▁simulation	-11.7434
▁theatre	-11.7434
▁billionaire	-11.7434
▁carnaval	-11.7434
▁companies	-11.7434
▁jewellery	-11.7434
▁operative	-11.7434
▁thisby	-11.7434
▁veteran	-11.7434
▁athos	-11.7434
▁charade	-11.7434
▁fudge	-11.7434
▁traynor	-11.7434
▁cecil	-11.7434
▁geneva	-11.7434
▁morrow	-11.7434
▁shattering	-11.7434
▁stranded	-11.7434
▁magnus	-11.7434
▁sprout	-11.7434
▁theories	-11.7434
▁bleep	-11.7434
▁bloke	-11.7434
▁outrun	-11.7434
▁profion	-11.7434
▁wyler	-11.7434
▁squire	-11.7434
▁tivo	-11.7434
▁blouse	-11.7434
▁facial	-11.7434
▁karma	-11.7434
▁scorch	-11.7434
▁seventeen	-11.7434
▁dunno	-11.7434
▁terminal	-11.7434
▁twinkie	-11.7435
▁submit	-11.7435
▁flaming	-11.7435
▁gravy	-11.7435
▁ninth	-11.7435
▁carveth	-11.7435
▁waverly	-11.7435
▁unreal	-11.7435
▁trilling	-11.7435
▁oscar	-11.7435
▁robbing	-11.7435
▁gospel	-11.7435
franchise	-11.7435
▁frown	-11.7435
▁tutor	-11.7435
▁cathy	-11.7435
▁chronic	-11.7435
▁sponge	-11.7436
▁precede	-11.7436
▁jaunt	-11.7437
▁endorse	-11.7438
▁clinic	-11.7438
▁racin	-11.7439
▁verbal	-11.7441
communica	-11.7442
berries	-11.745
▁decorati	-11.7479
galactic	-11.7619
rrington	-11.7639
▁giggle	-11.7915
ography	-11.8051
▁cycl	-11.8224
security	-11.8233
perfect	-11.8233
famous	-11.8233
▁strict	-11.8249
▁claudi	-11.8256
▁leavin	-11.8258
▁darlin	-11.8258
▁dread	-11.8265
▁ceremoni	-11.8268
▁accusation	-11.8268
▁accustomed	-11.8268
▁admiral	-11.8268
▁afghanistan	-11.8268
▁allergies	-11.8268
▁athletic	-11.8268
▁aztec	-11.8268
▁balcony	-11.8268
▁baloney	-11.8268
▁barbossa	-11.8268
▁bedankt	-11.8268
▁bollix	-11.8268
▁bypass	-11.8268
▁cannibal	-11.8268
▁charging	-11.8268
▁chemistry	-11.8268
▁chrissake	-11.8268
▁cinderella	-11.8268
▁columbia	-11.8268
▁contempt	-11.8268
▁convenience	-11.8268
▁curfew	-11.8268
▁dissolve	-11.8268
▁distinguished	-11.8268
▁eject	-11.8268
▁electromagnet	-11.8268
▁encouraging	-11.8268
▁eugenia	-11.8268
▁fascist	-11.8268
▁fugazy	-11.8268
▁gurgling	-11.8268
▁hobbies	-11.8268
▁hogwarts	-11.8268
▁hybrid	-11.8268
▁ignacio	-11.8268
▁ingredient	-11.8268
▁interrogation	-11.8268
▁kachicka	-11.8268
▁kamiyah	-11.8268
▁kennelly	-11.8268
▁kentucky	-11.8268
▁landscape	-11.8268
▁lemarc	-11.8268
▁lockhart	-11.8268
▁manufactur	-11.8268
▁marathon	-11.8268
▁margarita	-11.8268
▁martelli	-11.8268
▁medieval	-11.8268
▁melancholy	-11.8268
▁millennium	-11.8268
▁mingott	-11.8268
▁mozart	-11.8268
▁oblivion	-11.8268
▁ottavio	-11.8268
▁outnumber	-11.8268
▁paddling	-11.8268
▁pagoda	-11.8268
▁pentagon	-11.8268
▁phenomena	-11.8268
▁quarantine	-11.8268
▁sabrina	-11.8268
▁savior	-11.8268
▁scordia	-11.8268
▁selfesteem	-11.8268
▁sensible	-11.8268
▁socrates	-11.8268
▁soprano	-11.8268
▁souvenir	-11.8268
▁stepfather	-11.8268
▁steroids	-11.8268
▁superweapon	-11.8268
▁suspicion	-11.8268
▁sustained	-11.8268
▁sylvester	-11.8268
▁terrence	-11.8268
▁theoretical	-11.8268
▁tuscany	-11.8268
▁twilight	-11.8268
▁twitter	-11.8268
▁unofficial	-11.8268
▁valiente	-11.8268
▁vocabulary	-11.8268
▁voldemort	-11.8268
▁voodoo	-11.8268
▁vortex	-11.8268
▁vrouw	-11.8268
▁whereabouts	-11.8268
▁wrinkle	-11.8268
▁yondu	-11.8268
▁brantley	-11.8268
▁brundon	-11.8268
▁cheetah	-11.8268
▁dingdong	-11.8268
▁frankenstein	-11.8268
▁judith	-11.8268
▁kennard	-11.8268
▁koushik	-11.8268
▁meserve	-11.8268
▁porsche	-11.8268
▁prissy	-11.8268
▁reclaim	-11.8268
▁reinforce	-11.8268
▁scotland	-11.8268
▁stepmother	-11.8268
▁videotape	-11.8268
▁entrust	-11.8268
▁examination	-11.8268
▁macduff	-11.8268
▁natasha	-11.8268
▁rodrick	-11.8268
▁felix	-11.8268
▁oracle	-11.8268
▁rourke	-11.8268
▁snorting	-11.8268
▁suellen	-11.8268
▁wayfinder	-11.8268
▁bahamas	-11.8268
▁denzel	-11.8268
▁discount	-11.8268
▁kachow	-11.8268
▁postcard	-11.8268
▁stadium	-11.8268
▁tucson	-11.8268
▁jorgen	-11.8268
▁tyrant	-11.8268
▁cabbage	-11.8268
▁fertil	-11.8268
▁override	-11.8268
▁payroll	-11.8268
▁refund	-11.8268
▁baggage	-11.8268
▁possum	-11.8268
▁various	-11.8268
▁nightingale	-11.8268
▁reckless	-11.8268
▁xander	-11.8268
▁yukie	-11.8268
▁bonzo	-11.8268
▁lmelda	-11.8268
▁luiz	-11.8268
▁swimsuit	-11.8268
▁bleak	-11.8268
▁inclined	-11.8268
▁nonono	-11.8268
▁rabid	-11.8268
▁samuel	-11.8268
▁jassie	-11.8268
▁bleating	-11.8268
▁daffy	-11.8268
▁jeffrey	-11.8268
▁jinx	-11.8268
▁protein	-11.8268
▁mabel	-11.8268
▁oogie	-11.8268
▁plumbing	-11.8268
▁xray	-11.8268
▁catalog	-11.8268
▁hippie	-11.8268
▁hulk	-11.8268
▁intensifie	-11.8268
▁sascha	-11.8268
▁pagan	-11.8268
▁deacon	-11.8268
▁bozo	-11.8268
▁rigged	-11.8268
▁electrocute	-11.8268
▁sierra	-11.8268
▁liddy	-11.8268
▁daycare	-11.8268
▁moira	-11.8268
▁oink	-11.8268
▁cadet	-11.8268
▁heartache	-11.8268
▁twig	-11.8268
▁intensi	-11.8269
▁nobel	-11.827
▁smyth	-11.827
▁trivia	-11.8271
▁whiz	-11.8276
▁inflat	-11.8285
▁obero	-11.83
▁swu	-11.8505
asket	-11.8571
▁automat	-11.8849
▁excite	-11.9135
▁accuse	-11.914
quarter	-11.9142
▁sympath	-11.9148
▁neighbour	-11.9177
▁calculate	-11.9177
▁vaccin	-11.9177
▁accompany	-11.9177
▁acquainted	-11.9177
▁affliction	-11.9177
▁anarchy	-11.9177
▁aragog	-11.9177
▁assumption	-11.9177
▁azamat	-11.9177
▁bakersfield	-11.9177
▁bastaard	-11.9177
▁beseech	-11.9177
▁bologna	-11.9177
▁calculations	-11.9177
▁comprehend	-11.9177
▁conceived	-11.9177
▁contaminate	-11.9177
▁convoy	-11.9177
▁currency	-11.9177
▁dahye	-11.9177
▁damodar	-11.9177
▁dartagnan	-11.9177
▁degenerate	-11.9177
▁diabolical	-11.9177
▁diligence	-11.9177
▁dundund	-11.9177
▁earthquake	-11.9177
▁enthusiasm	-11.9177
▁erection	-11.9177
▁espresso	-11.9177
▁evidently	-11.9177
▁exploding	-11.9177
▁extensive	-11.9177
▁feminine	-11.9177
▁forecast	-11.9177
▁frustration	-11.9177
▁gerardo	-11.9177
▁giorgio	-11.9177
▁giovanni	-11.9177
▁goddammit	-11.9177
▁grumpy	-11.9177
▁henderson	-11.9177
▁hussein	-11.9177
▁implosion	-11.9177
▁infinity	-11.9177
▁infirmary	-11.9177
▁inflict	-11.9177
▁initiating	-11.9177
▁insectopia	-11.9177
▁invincible	-11.9177
▁irrelevant	-11.9177
▁kijung	-11.9177
▁klaven	-11.9177
▁koninklijk	-11.9177
