<unk>	0
<s>	0
</s>	0
s	-4.27705
▁im	-4.37354
▁dont	-4.43667
▁know	-4.47983
▁get	-4.67679
▁right	-4.76866
▁go	-4.77348
▁like	-4.80126
▁yeah	-4.8362
▁youre	-4.86651
▁got	-4.87564
▁come	-4.9298
▁na	-5.00067
▁okay	-5.04383
▁thats	-5.07976
▁oh	-5.08221
▁one	-5.15168
▁well	-5.15648
▁gon	-5.24912
▁want	-5.27858
▁good	-5.29986
▁think	-5.33784
▁see	-5.34383
▁hey	-5.35714
▁man	-5.48584
▁back	-5.53235
▁look	-5.57367
ing	-5.58997
▁take	-5.61004
▁time	-5.64252
▁us	-5.65292
▁hes	-5.65684
▁l	-5.68562
▁yes	-5.6871
▁going	-5.69613
▁fuck	-5.70952
▁tell	-5.73019
▁cant	-5.74009
▁need	-5.76155
▁ill	-5.77987
▁say	-5.79561
▁fucking	-5.81045
▁really	-5.86594
▁didnt	-5.88161
▁shit	-5.88891
▁something	-5.8915
▁would	-5.91572
ed	-5.92033
▁whats	-5.93973
▁sorry	-5.94743
▁lets	-5.95612
▁could	-5.9727
▁mean	-5.97758
▁make	-5.99202
▁way	-5.99478
▁never	-5.9967
▁please	-6.00939
▁little	-6.01788
▁let	-6.01926
▁love	-6.035
▁give	-6.07839
▁god	-6.12283
▁people	-6.12351
▁	-6.14707
▁theres	-6.16219
▁said	-6.16548
▁ive	-6.18958
▁thank	-6.20893
▁help	-6.21518
▁two	-6.25589
▁shes	-6.2828
▁sure	-6.31261
▁even	-6.31995
▁thing	-6.33149
▁much	-6.35766
▁stop	-6.39253
d	-6.39605
▁day	-6.41091
▁put	-6.41513
▁anything	-6.42554
▁still	-6.46583
▁theyre	-6.46736
▁uh	-6.46858
▁call	-6.47146
▁maybe	-6.47503
▁guys	-6.4851
▁work	-6.48546
▁night	-6.49317
▁home	-6.49988
▁nothing	-6.5031
▁talk	-6.50332
▁hell	-6.51768
▁wait	-6.52026
▁keep	-6.53006
▁find	-6.53052
y	-6.53154
▁life	-6.53923
▁wan	-6.53946
▁great	-6.54168
▁first	-6.55499
▁last	-6.5719
▁away	-6.58717
▁better	-6.59061
▁guy	-6.60535
▁baby	-6.60639
▁around	-6.608
▁mr	-6.62154
▁thought	-6.62745
▁stay	-6.62878
▁everything	-6.6289
▁money	-6.64194
▁ta	-6.64568
▁feel	-6.67116
▁name	-6.67942
▁told	-6.68463
▁ever	-6.68698
▁leave	-6.70464
▁always	-6.71151
▁things	-6.72305
▁new	-6.72597
▁nice	-6.73769
▁kill	-6.7387
▁youve	-6.74116
▁years	-6.74251
▁listen	-6.75097
▁every	-6.7588
▁long	-6.77726
▁made	-6.77818
▁big	-6.79468
▁old	-6.79545
▁dead	-6.7998
▁doesnt	-6.80323
▁fine	-6.81228
▁three	-6.82018
▁remember	-6.8265
▁done	-6.838
▁lot	-6.8413
▁boy	-6.8425
▁hi	-6.84382
▁coming	-6.84697
▁mom	-6.84719
▁hear	-6.84773
▁door	-6.85157
▁place	-6.85185
▁car	-6.85333
▁house	-6.85894
▁sir	-6.86475
▁aint	-6.87398
▁hello	-6.87452
▁kind	-6.87471
▁girl	-6.87691
▁real	-6.8772
▁believe	-6.87774
▁someone	-6.88405
▁wont	-6.8855
e	-6.88854
▁bad	-6.89336
▁mother	-6.89441
▁happened	-6.89837
▁id	-6.89914
▁youll	-6.91609
▁dad	-6.91699
▁wrong	-6.92307
▁woman	-6.92569
▁huh	-6.93053
▁head	-6.93098
▁move	-6.93792
▁son	-6.94751
▁enough	-6.94764
▁isnt	-6.98278
▁must	-6.99819
ly	-6.99983
▁music	-7.00026
▁next	-7.00082
▁talking	-7.00164
▁thanks	-7.00905
▁wasnt	-7.02984
▁hold	-7.03373
▁wanted	-7.04242
▁care	-7.04771
▁friend	-7.05658
▁course	-7.05699
▁understand	-7.06831
▁show	-7.06935
▁getting	-7.07138
▁left	-7.07236
▁might	-7.07485
▁ask	-7.09104
▁trying	-7.09376
▁play	-7.09544
▁another	-7.09626
▁father	-7.10136
▁world	-7.10335
▁came	-7.1078
▁else	-7.10945
▁family	-7.1182
▁open	-7.14473
▁today	-7.14614
▁damn	-7.14634
▁looking	-7.1517
▁um	-7.15557
▁saw	-7.15824
▁killed	-7.16222
▁best	-7.16451
▁mind	-7.1701
▁room	-7.1859
er	-7.20701
▁lm	-7.20828
▁may	-7.21423
▁try	-7.22677
▁guess	-7.22693
▁cause	-7.23236
▁kid	-7.23396
▁shut	-7.23682
▁hope	-7.24556
▁went	-7.24738
▁men	-7.2476
▁many	-7.24906
▁phone	-7.24911
▁job	-7.2577
▁die	-7.26444
▁playing	-7.27188
▁ready	-7.27532
▁tonight	-7.27773
▁whole	-7.28116
▁watch	-7.28175
▁used	-7.28573
▁wife	-7.29155
▁wouldnt	-7.29187
▁pretty	-7.29502
▁jesus	-7.31266
▁already	-7.31619
▁meet	-7.31918
▁business	-7.31954
▁fight	-7.31959
▁story	-7.32336
▁turn	-7.3242
▁bring	-7.32422
▁took	-7.32695
▁found	-7.32739
▁school	-7.3284
▁heard	-7.32965
▁blood	-7.33055
▁face	-7.33575
▁live	-7.33646
▁actually	-7.3415
▁hard	-7.34281
▁ass	-7.34612
▁miss	-7.35208
▁knew	-7.35249
▁together	-7.35993
▁everybody	-7.36171
▁kids	-7.3637
▁whos	-7.37412
▁sit	-7.37557
▁hand	-7.37872
▁days	-7.37914
▁gun	-7.38127
▁start	-7.38168
▁seen	-7.38539
▁friends	-7.38553
▁alone	-7.38633
▁use	-7.39582
▁morning	-7.39789
▁end	-7.40187
▁tomorrow	-7.40563
▁called	-7.41239
▁says	-7.41574
▁saying	-7.41612
▁idea	-7.42083
▁probably	-7.4333
▁happy	-7.43331
▁bitch	-7.44911
▁crazy	-7.45765
▁five	-7.45776
▁john	-7.46724
▁gone	-7.46762
▁cut	-7.46971
▁problem	-7.48631
▁couldnt	-7.49143
▁hands	-7.4934
▁ago	-7.49956
▁hit	-7.50128
▁true	-7.50387
▁matter	-7.5054
▁bit	-7.50621
▁anyone	-7.51251
▁havent	-7.51251
▁whatever	-7.51251
▁police	-7.51664
▁mine	-7.52631
▁run	-7.52966
▁beautiful	-7.53002
▁looks	-7.54261
▁yet	-7.54338
▁second	-7.54356
▁supposed	-7.54738
▁hurt	-7.54845
▁fire	-7.55104
▁weve	-7.55235
▁deal	-7.55248
▁youd	-7.55692
▁somebody	-7.55729
▁anyway	-7.55734
▁later	-7.55736
▁lost	-7.56154
▁brother	-7.58055
▁wants	-7.58363
a	-7.58515
▁four	-7.58918
▁person	-7.5895
▁everyone	-7.59013
▁ah	-7.59073
▁since	-7.59383
▁young	-7.59781
▁inside	-7.59854
▁drink	-7.59998
▁wheres	-7.60121
▁whoa	-7.60805
▁stuff	-7.61764
▁exactly	-7.61774
▁gave	-7.61778
▁close	-7.6185
▁read	-7.61916
▁excuse	-7.6206
▁pay	-7.62951
▁easy	-7.6322
▁game	-7.63871
▁point	-7.64216
▁town	-7.64223
▁year	-7.64323
▁thinking	-7.64887
▁body	-7.65197
▁shoot	-7.65218
▁lts	-7.65392
▁girls	-7.65558
▁without	-7.65695
▁ok	-7.6571
▁cool	-7.65866
▁mark	-7.65996
▁happen	-7.66289
▁fuckin	-7.6647
▁sighs	-7.66754
▁sleep	-7.67094
▁minutes	-7.67353
▁boys	-7.68196
▁though	-7.68706
▁shot	-7.69429
▁forget	-7.69762
▁worry	-7.69877
▁soon	-7.70768
▁taking	-7.70853
▁eyes	-7.71082
▁eat	-7.71098
▁stand	-7.71267
al	-7.71495
▁bed	-7.71569
▁week	-7.72074
▁daddy	-7.7219
▁water	-7.72724
▁goddamn	-7.72968
▁died	-7.73291
▁check	-7.73669
▁paul	-7.73814
▁death	-7.73816
▁mike	-7.74212
▁jimmy	-7.74367
▁daughter	-7.74373
▁lord	-7.74384
▁black	-7.7456
▁anybody	-7.74601
▁walk	-7.74719
▁stupid	-7.75151
▁laughing	-7.75299
▁makes	-7.75576
▁late	-7.75584
▁honey	-7.75704
▁rest	-7.75729
▁word	-7.76052
▁times	-7.76496
▁met	-7.76553
▁speak	-7.7692
▁red	-7.76921
▁part	-7.76989
in	-7.77207
▁trust	-7.77779
▁making	-7.7795
▁working	-7.78142
▁em	-7.78185
▁nobody	-7.78327
▁jack	-7.78479
▁six	-7.78575
▁sometimes	-7.78623
es	-7.78738
r	-7.79102
▁dr	-7.79481
▁anymore	-7.79658
▁continues	-7.79951
▁minute	-7.80078
▁max	-7.80243
▁promise	-7.80468
▁chance	-7.80658
▁welcome	-7.80825
▁party	-7.81554
▁break	-7.82
▁chuckles	-7.82666
▁light	-7.82977
▁different	-7.83075
▁half	-7.83174
▁book	-7.8361
▁couple	-7.83643
▁eddie	-7.83777
▁hours	-7.84243
▁husband	-7.84261
▁far	-7.84538
l	-7.84655
st	-7.84945
▁hang	-7.85391
o	-7.85604
▁bill	-7.85736
▁change	-7.85941
t	-7.87155
▁question	-7.88587
▁side	-7.8865
▁set	-7.88703
▁white	-7.88708
▁billy	-7.88849
▁knows	-7.89495
ve	-7.89734
▁comes	-7.89773
▁voice	-7.89921
▁almost	-7.89971
▁hate	-7.9049
▁bye	-7.9126
▁christ	-7.91814
▁also	-7.91906
▁war	-7.92118
▁goes	-7.92285
n	-7.93228
▁mrs	-7.93466
▁hows	-7.93852
▁heart	-7.9399
▁bullshit	-7.94543
▁send	-7.9455
▁alive	-7.94552
▁months	-7.9468
▁started	-7.95011
▁hmm	-7.95194
▁least	-7.95222
▁sister	-7.95241
▁case	-7.95777
▁sweet	-7.95781
▁afraid	-7.95893
▁free	-7.95928
▁rock	-7.96122
▁children	-7.96576
▁un	-7.97004
▁full	-7.97041
▁wish	-7.97217
▁women	-7.97259
▁buy	-7.97438
▁trouble	-7.97781
▁sick	-7.97837
▁write	-7.97908
▁win	-7.98469
▁asked	-7.98589
▁arent	-7.98643
▁city	-7.98657
▁fun	-7.98679
▁doctor	-7.99417
▁scared	-8.0082
▁child	-8.01469
▁wow	-8.01477
▁tried	-8.01491
▁piece	-8.01588
▁telling	-8.02185
▁clear	-8.02571
▁sounds	-8.02657
▁line	-8.02735
▁drive	-8.02789
▁small	-8.0283
▁hot	-8.02853
est	-8.03337
▁outside	-8.03349
▁important	-8.03547
▁laughs	-8.03626
▁screaming	-8.04463
▁save	-8.04959
▁ha	-8.05016
▁behind	-8.0512
▁grunts	-8.05185
▁hour	-8.05302
▁touch	-8.05794
▁pick	-8.05942
▁plan	-8.06228
▁beat	-8.06254
▁high	-8.06294
▁th	-8.06468
▁number	-8.06809
▁safe	-8.07269
▁drop	-8.07365
▁dude	-8.07637
▁either	-8.08139
▁moment	-8.08351
▁dog	-8.08449
▁quite	-8.08967
▁cold	-8.09604
▁front	-8.09677
▁dave	-8.0969
▁needs	-8.09816
▁bet	-8.10636
▁charlie	-8.11252
▁leaving	-8.11252
▁speaking	-8.1177
▁indistinct	-8.11953
▁lll	-8.12143
▁sound	-8.12727
▁funny	-8.12851
▁living	-8.13672
▁waiting	-8.13875
▁feeling	-8.1389
▁reason	-8.14181
▁pull	-8.14622
▁lose	-8.14699
▁hair	-8.15384
▁state	-8.15707
▁dance	-8.15879
▁b	-8.16043
▁order	-8.16078
▁office	-8.16896
▁straight	-8.16928
▁fault	-8.16945
▁gets	-8.17406
▁worth	-8.17619
▁married	-8.17787
▁annie	-8.17793
ie	-8.1834
▁radio	-8.18634
▁murder	-8.18645
▁motherfucker	-8.19017
▁clean	-8.19402
▁itll	-8.19487
▁along	-8.1949
▁lady	-8.19503
▁grunting	-8.19508
▁peter	-8.19533
▁team	-8.19833
▁street	-8.19876
▁sex	-8.20076
▁answer	-8.2009
▁fast	-8.20159
▁james	-8.20234
▁means	-8.2024
▁control	-8.2033
▁ahead	-8.20354
▁johnny	-8.20726
▁bag	-8.21136
▁theyll	-8.21219
▁brought	-8.21219
▁dinner	-8.21219
▁stick	-8.21536
▁throw	-8.21621
▁shouldnt	-8.221
▁groans	-8.22137
▁lucky	-8.22239
▁country	-8.22529
▁top	-8.22799
▁till	-8.22841
▁werent	-8.22981
▁s	-8.23084
▁la	-8.23138
▁happens	-8.23406
▁perfect	-8.2378
▁mmm	-8.23863
▁heres	-8.23967
▁ten	-8.24031
▁eye	-8.24274
▁power	-8.24309
▁serious	-8.24684
▁mommy	-8.24781
▁become	-8.25246
▁lives	-8.2534
▁mouth	-8.26167
▁ya	-8.26357
▁luck	-8.26486
▁hurry	-8.26602
▁able	-8.26757
▁cop	-8.27386
▁truth	-8.27524
▁c	-8.27908
▁news	-8.28119
▁born	-8.28368
▁alright	-8.28462
▁calm	-8.28464
▁running	-8.28465
▁buddy	-8.28467
▁seems	-8.28683
▁crying	-8.28699
▁taken	-8.29004
▁ones	-8.29156
▁dream	-8.2928
▁asking	-8.29675
m	-8.29773
▁happening	-8.30095
▁blow	-8.30522
▁coach	-8.30826
▁wake	-8.3092
▁choice	-8.30957
▁weeks	-8.31775
▁french	-8.3229
▁kiss	-8.32648
▁sign	-8.32666
▁de	-8.33089
▁quick	-8.331
▁birthday	-8.33271
▁ride	-8.33319
▁lt	-8.33493
▁air	-8.33494
▁mama	-8.33855
▁road	-8.33916
▁sense	-8.34013
on	-8.34331
▁follow	-8.34614
▁calling	-8.34643
▁catch	-8.34828
▁shall	-8.35261
▁mad	-8.35474
▁act	-8.35561
▁grab	-8.35885
▁million	-8.35943
▁song	-8.36002
▁yo	-8.36148
▁coffee	-8.3627
▁mmhmm	-8.36281
▁changed	-8.36548
▁human	-8.36801
▁glad	-8.37202
▁careful	-8.37259
▁drunk	-8.37277
▁company	-8.37292
▁feet	-8.37296
▁hed	-8.37429
i	-8.37722
▁fucked	-8.37965
▁weird	-8.38179
▁felt	-8.38324
ies	-8.39222
▁train	-8.39264
▁sam	-8.39336
▁breathing	-8.39593
▁meeting	-8.40071
▁matt	-8.40198
▁shell	-8.40702
▁step	-8.40777
▁less	-8.40803
▁quiet	-8.41384
▁kept	-8.4148
▁lie	-8.41564
▁eight	-8.41741
▁finish	-8.41801
▁explain	-8.41831
▁seat	-8.42015
▁crowd	-8.42262
▁fair	-8.42531
▁captain	-8.42555
▁food	-8.42563
▁yall	-8.42565
ion	-8.42572
▁tired	-8.42573
▁boat	-8.42579
▁gasps	-8.42663
▁cover	-8.42679
▁dark	-8.43633
▁somewhere	-8.43642
▁teddy	-8.43643
▁killer	-8.43793
▁cops	-8.44106
▁asshole	-8.44503
▁bastard	-8.44509
▁month	-8.44524
▁dear	-8.44716
▁special	-8.44885
▁parents	-8.45001
▁band	-8.45261
▁north	-8.45851
▁poor	-8.45856
▁none	-8.45878
▁holy	-8.4588
▁g	-8.46357
▁seem	-8.46644
▁strong	-8.46863
man	-8.46885
▁worse	-8.4692
▁jr	-8.47011
▁yeh	-8.47017
▁finally	-8.47033
▁smell	-8.47037
▁figure	-8.47666
▁round	-8.47916
▁todd	-8.48111
▁maam	-8.48113
▁kidding	-8.48128
▁looked	-8.48333
▁bar	-8.48352
▁fact	-8.48963
▁past	-8.49056
▁window	-8.49069
▁rich	-8.49098
▁slow	-8.49172
▁prison	-8.49173
▁seven	-8.49261
▁ooh	-8.49261
▁others	-8.49261
▁goodbye	-8.49262
▁moving	-8.49268
▁ice	-8.49534
▁swear	-8.50008
▁groaning	-8.50439
▁seeing	-8.50808
▁loved	-8.51258
▁art	-8.51303
▁harry	-8.51416
▁wed	-8.51448
▁names	-8.51544
▁across	-8.51601
▁henry	-8.51605
▁richie	-8.5169
▁du	-8.51943
▁fat	-8.51985
▁words	-8.52046
▁dick	-8.52726
▁anywhere	-8.52791
▁breathe	-8.53082
▁works	-8.53174
▁wonderful	-8.53889
▁shed	-8.54083
▁needed	-8.54581
▁known	-8.54956
▁broke	-8.55128
▁glass	-8.55176
▁amazing	-8.55215
▁rather	-8.55216
▁watching	-8.55295
▁single	-8.55309
▁goin	-8.55754
▁pain	-8.56202
▁phil	-8.56299
▁secret	-8.56344
or	-8.56409
▁russell	-8.5645
▁middle	-8.56451
▁boss	-8.56507
▁longer	-8.56885
▁meant	-8.56975
▁nine	-8.57011
▁ben	-8.57269
▁bell	-8.5758
▁uncle	-8.57706
▁busy	-8.57813
▁respect	-8.58542
▁spend	-8.58596
▁relax	-8.58629
▁re	-8.5867
▁hospital	-8.5886
▁grand	-8.58866
▁honest	-8.58882
▁lisa	-8.58967
▁sent	-8.58973
▁alan	-8.58974
▁terrible	-8.58976
▁cell	-8.59152
▁sell	-8.5974
▁fall	-8.59769
▁smart	-8.60123
▁soul	-8.60192
▁picture	-8.60222
▁early	-8.60312
▁age	-8.60448
▁sort	-8.61079
▁fix	-8.61283
▁york	-8.61462
▁pete	-8.61489
▁nigga	-8.61515
▁missing	-8.61539
▁table	-8.61547
▁theyve	-8.61547
▁gentlemen	-8.61548
▁alice	-8.61554
▁mum	-8.61643
▁record	-8.62033
▁box	-8.62042
▁killing	-8.62461
▁f	-8.62486
▁class	-8.62653
▁ring	-8.62691
▁janet	-8.62735
▁earth	-8.62811
▁possible	-8.62862
▁private	-8.62862
▁forever	-8.62863
▁officer	-8.62918
▁owe	-8.63062
▁j	-8.63106
less	-8.63401
▁mess	-8.63455
▁enjoy	-8.63534
▁expect	-8.63543
▁quit	-8.64095
▁seconds	-8.64125
▁caught	-8.64196
▁katie	-8.64275
▁learn	-8.64839
▁laugh	-8.64943
▁worked	-8.65129
able	-8.65389
▁gold	-8.65437
▁security	-8.65558
▁questions	-8.65677
▁takes	-8.66367
▁turned	-8.66557
▁king	-8.66642
k	-8.66864
▁worried	-8.66917
▁cohen	-8.66921
▁shouting	-8.67028
▁moved	-8.67868
▁offer	-8.67916
▁arms	-8.68067
▁america	-8.6817
▁darling	-8.68306
▁tommy	-8.68307
▁allen	-8.68309
▁type	-8.68318
▁writing	-8.68324
▁chain	-8.68349
▁smoke	-8.68801
▁missed	-8.69312
▁frank	-8.69588
▁treat	-8.69705
▁mm	-8.69706
▁pleasure	-8.69714
▁giving	-8.69724
▁wade	-8.69732
▁ground	-8.69741
▁accident	-8.69807
▁sad	-8.70258
▁pass	-8.70423
▁roll	-8.70611
▁talked	-8.70665
▁walking	-8.70673
▁warm	-8.70764
▁chatter	-8.70779
▁floor	-8.7114
▁choose	-8.71143
▁ladies	-8.71146
▁kevin	-8.71151
▁absolutely	-8.71159
▁hundred	-8.71244
▁report	-8.71957
▁test	-8.71969
▁cry	-8.72224
▁w	-8.72242
▁stu	-8.72397
▁forgot	-8.72591
▁paid	-8.7261
▁pants	-8.72629
▁personal	-8.7263
▁completely	-8.72639
▁wall	-8.72719
▁lily	-8.72722
▁letter	-8.72799
▁ball	-8.73105
ful	-8.73336
▁park	-8.73608
▁suppose	-8.73896
▁simple	-8.74016
▁church	-8.74061
▁cash	-8.74062
▁stopped	-8.74092
▁seriously	-8.74212
h	-8.74979
▁return	-8.75015
▁keys	-8.75173
▁near	-8.75427
▁strange	-8.75463
▁stan	-8.7548
▁alex	-8.75548
▁future	-8.75555
▁hungry	-8.75557
▁outta	-8.75558
▁rose	-8.75558
▁handle	-8.75789
▁in	-8.76165
▁fear	-8.7691
▁share	-8.76952
▁julia	-8.77038
▁attention	-8.7707
▁ryan	-8.7707
▁upon	-8.77079
▁sitting	-8.77099
▁fighting	-8.77108
▁short	-8.77142
▁mission	-8.77204
▁present	-8.77252
▁building	-8.77362
▁american	-8.77431
▁drugs	-8.78031
ers	-8.78221
▁eh	-8.78626
▁situation	-8.78693
▁nigger	-8.78794
▁judge	-8.78878
▁dollars	-8.78912
▁appreciate	-8.79972
▁deep	-8.80002
▁howd	-8.80019
▁fell	-8.80117
▁detective	-8.80171
▁definitely	-8.80173
▁unless	-8.80212
▁van	-8.80284
▁army	-8.80315
▁list	-8.80366
▁movie	-8.8042
▁following	-8.80753
▁tape	-8.80802
ic	-8.8088
▁protect	-8.81051
▁mothers	-8.81161
▁wonder	-8.81209
▁william	-8.8134
an	-8.81414
▁honor	-8.81488
▁brothers	-8.81505
▁arm	-8.81596
▁entire	-8.81665
▁london	-8.81758
▁babies	-8.81759
▁spent	-8.8176
▁sweetie	-8.81821
▁lay	-8.81856
▁paper	-8.82022
▁wouldve	-8.8244
▁bus	-8.82619
▁burn	-8.82829
▁bank	-8.82931
▁wear	-8.83058
▁n	-8.83297
▁feels	-8.83319
▁forgive	-8.83322
▁especially	-8.83371
▁forward	-8.83377
▁casey	-8.83721
▁south	-8.83822
▁shoes	-8.83824
▁blue	-8.83894
▁legs	-8.84389
▁land	-8.84593
▁listening	-8.847
▁arrest	-8.84743
▁taste	-8.84824
▁bought	-8.85011
▁evidence	-8.85011
▁english	-8.85011
▁tv	-8.85022
▁lying	-8.8503
▁club	-8.85137
▁sake	-8.85236
▁p	-8.85244
▁mistake	-8.85257
▁breath	-8.86163
▁fool	-8.86259
▁evening	-8.86313
▁perhaps	-8.86677
▁babe	-8.86681
▁dangerous	-8.86681
▁upstairs	-8.8669
▁doin	-8.86701
▁beth	-8.86717
▁cheering	-8.86748
▁store	-8.86808
▁sun	-8.86883
▁language	-8.8689
▁moon	-8.87022
▁given	-8.87287
▁couldve	-8.87354
▁screams	-8.87374
▁fly	-8.87703
ass	-8.88227
▁dumb	-8.88358
▁major	-8.88372
▁yesterday	-8.88372
▁wrote	-8.88372
▁sweetheart	-8.88373
▁panting	-8.88383
▁president	-8.88641
▁boyfriend	-8.88673
▁system	-8.88715
▁adam	-8.88747
▁sea	-8.89807
▁cute	-8.89921
▁joe	-8.90003
▁tough	-8.90011
▁scene	-8.90094
▁afternoon	-8.90096
▁twice	-8.90096
▁information	-8.90098
▁double	-8.90099
▁proud	-8.90099
▁hide	-8.9019
▁neck	-8.90364
▁nancy	-8.90368
▁hotel	-8.904
▁ringing	-8.90582
▁d	-8.90885
el	-8.91071
▁pack	-8.91193
▁map	-8.91251
▁teach	-8.91342
▁interview	-8.91511
▁balls	-8.91683
▁i	-8.91683
▁super	-8.91818
▁peace	-8.91831
▁lead	-8.91846
▁dying	-8.91852
▁apartment	-8.91859
▁congratulations	-8.91887
▁bigger	-8.91892
▁interesting	-8.92048
▁contact	-8.92215
▁agent	-8.9224
▁corner	-8.92241
▁strike	-8.92251
▁service	-8.92277
▁key	-8.92347
us	-8.92493
▁holding	-8.92505
▁dreams	-8.9256
▁wind	-8.926
▁calls	-8.92661
▁st	-8.92723
▁final	-8.93556
▁favorite	-8.93638
▁yep	-8.93639
▁neil	-8.93639
▁throat	-8.93639
▁lock	-8.93732
▁realize	-8.93856
▁copy	-8.93915
▁island	-8.94046
▁camera	-8.94092
▁message	-8.94104
▁sing	-8.94113
▁trip	-8.94891
▁standing	-8.94899
▁drinking	-8.95045
▁ed	-8.95125
▁visit	-8.95134
▁knock	-8.95161
▁bro	-8.95172
▁favor	-8.95453
▁lampley	-8.95455
▁instead	-8.95455
▁station	-8.95466
▁lars	-8.95471
▁molly	-8.95481
▁united	-8.95589
▁interested	-8.95601
▁general	-8.95757
▁books	-8.95831
▁chicken	-8.95892
▁girlfriend	-8.959
▁finished	-8.95919
▁fit	-8.96183
en	-8.96339
▁prove	-8.96821
re	-8.96866
▁count	-8.96918
▁t	-8.9696
▁ray	-8.97168
▁clothes	-8.97201
▁should	-8.97208
▁starting	-8.97243
▁paris	-8.97304
▁video	-8.97306
▁neither	-8.97307
▁college	-8.97307
▁difference	-8.97307
▁christmas	-8.97309
▁dirty	-8.97335
▁eggsy	-8.97344
▁camp	-8.97394
▁lf	-8.97501
▁gas	-8.97557
▁deserve	-8.97629
▁saved	-8.97732
▁law	-8.97783
▁star	-8.97788
▁bullet	-8.97841
▁states	-8.98442
▁aw	-8.98463
le	-8.98596
g	-8.98984
▁west	-8.99098
▁summer	-8.99193
▁stuck	-8.99199
▁records	-8.99211
▁certainly	-8.99255
▁ran	-8.99752
▁spirit	-8.99755
▁dress	-8.99985
▁pray	-9.00363
▁shooting	-9.00607
▁named	-9.00909
▁imagine	-9.00941
▁lovely	-9.00952
▁nervous	-9.01017
▁except	-9.01093
▁knife	-9.01116
▁dasong	-9.01117
▁bunch	-9.01118
▁grace	-9.01118
▁chief	-9.01119
▁river	-9.0112
▁driving	-9.0112
▁jerry	-9.0112
▁heavily	-9.01121
▁scottie	-9.01136
▁green	-9.01139
▁problems	-9.01348
▁cheers	-9.01414
▁surprise	-9.01479
▁charge	-9.01531
c	-9.016
▁david	-9.01678
▁weapon	-9.01729
ity	-9.02068
▁lve	-9.0216
▁carry	-9.02771
▁loves	-9.02824
▁beyond	-9.03079
▁fake	-9.03088
um	-9.03247
▁locked	-9.03368
▁stone	-9.03596
▁heaven	-9.03667
▁government	-9.03678
▁a	-9.03747
▁brain	-9.03758
▁bear	-9.03908
▁court	-9.03991
▁low	-9.04052
▁e	-9.0464
▁rain	-9.04712
▁kick	-9.04954
▁bother	-9.04986
▁leena	-9.05079
▁edward	-9.0508
▁decided	-9.05227
▁joey	-9.05247
▁nuts	-9.05364
▁block	-9.05475
▁push	-9.05588
▁whose	-9.05631
▁lawyer	-9.0576
▁master	-9.05778
▁rules	-9.05826
▁using	-9.05869
▁join	-9.06388
▁cross	-9.06457
▁color	-9.06527
te	-9.06537
▁liked	-9.06764
▁reach	-9.06897
▁smile	-9.06923
▁assume	-9.06942
▁jones	-9.06964
▁loud	-9.07019
▁soft	-9.07019
▁wild	-9.07037
▁whoo	-9.07047
▁kitchen	-9.07118
▁lieutenant	-9.07121
▁lenny	-9.07122
▁wedding	-9.07126
▁harris	-9.07138
▁sally	-9.07155
▁putting	-9.07189
▁usually	-9.07193
▁staying	-9.07206
▁grandma	-9.07378
▁rolling	-9.0765
▁pool	-9.07727
▁ghost	-9.07801
▁cousin	-9.07802
▁drug	-9.07852
▁student	-9.07858
▁george	-9.07885
▁painting	-9.08022
▁rid	-9.08086
▁lived	-9.08096
▁pen	-9.08318
▁tree	-9.08338
▁games	-9.08535
▁agree	-9.08584
▁everywhere	-9.09201
▁insane	-9.09201
▁nowhere	-9.09201
▁somehow	-9.09201
▁whirring	-9.09202
▁memory	-9.09202
▁foot	-9.09223
▁madame	-9.09246
▁nose	-9.09495
▁miles	-9.09575
▁lights	-9.09661
▁escape	-9.09702
▁promised	-9.09813
▁admit	-9.0988
▁crime	-9.09906
▁whore	-9.09925
▁field	-9.09996
▁horse	-9.10002
▁mo	-9.10183
▁bite	-9.10338
▁leg	-9.10654
▁ow	-9.10811
▁raise	-9.11158
▁beverly	-9.11329
▁marriage	-9.11329
▁sheriff	-9.11329
▁whether	-9.11329
▁whoever	-9.11329
▁waldo	-9.11329
▁jail	-9.11331
▁martin	-9.11335
▁vincent	-9.11338
▁candyman	-9.11344
▁brooks	-9.11345
▁engine	-9.1166
▁be	-9.11718
▁passed	-9.1173
▁k	-9.11834
▁joke	-9.12088
▁picked	-9.12093
▁chair	-9.12094
▁press	-9.13186
▁price	-9.13304
▁tight	-9.13396
▁nothin	-9.13487
▁pussy	-9.13503
▁tricia	-9.13503
▁denny	-9.13503
▁uhhuh	-9.13506
▁chow	-9.13514
▁bob	-9.13702
▁grow	-9.13766
▁knocking	-9.13946
▁seemed	-9.14025
▁nick	-9.14036
▁decision	-9.14236
▁awful	-9.14266
▁closed	-9.14273
▁idiot	-9.14333
▁machine	-9.14368
▁guns	-9.14445
▁suit	-9.14498
▁nah	-9.14536
▁walked	-9.14568
▁doc	-9.14636
▁reading	-9.15195
▁m	-9.15668
▁history	-9.15725
▁worst	-9.15725
▁within	-9.15728
▁taught	-9.1573
▁lunch	-9.15731
▁position	-9.15748
▁folks	-9.15771
▁broken	-9.15794
▁per	-9.159
▁surprised	-9.1592
▁pal	-9.16065
▁singing	-9.16189
▁gives	-9.16409
▁driver	-9.16766
▁simon	-9.16912
▁normal	-9.17916
▁angry	-9.17998
▁governor	-9.17998
▁chicago	-9.17999
▁teeth	-9.18002
▁deadpool	-9.18004
▁wet	-9.18019
▁weight	-9.18027
▁lili	-9.18095
▁bigge	-9.18106
▁sean	-9.182
▁truck	-9.18211
▁quickly	-9.18211
▁group	-9.18305
▁harder	-9.18458
▁doubt	-9.18581
▁feed	-9.18608
▁operation	-9.18894
▁prick	-9.18923
▁target	-9.18952
▁thousand	-9.18972
▁action	-9.19007
▁weapons	-9.1958
▁mention	-9.2006
▁waste	-9.20196
▁address	-9.20267
▁cream	-9.20324
▁bathroom	-9.20324
▁pregnant	-9.20325
▁gunnar	-9.20327
▁liar	-9.2033
▁dramatic	-9.20351
▁obviously	-9.20378
▁board	-9.20391
▁r	-9.20416
▁guard	-9.20607
▁screw	-9.20611
▁figured	-9.20681
▁where	-9.20718
▁space	-9.20983
▁cunt	-9.21219
▁roger	-9.21274
▁risk	-9.21309
▁cost	-9.21328
▁reporter	-9.21431
▁thinks	-9.21569
▁jump	-9.21775
▁cook	-9.21912
▁eating	-9.21987
▁mate	-9.22127
▁played	-9.22523
▁showed	-9.22582
▁shame	-9.22686
▁heavy	-9.22704
▁anthony	-9.22705
▁became	-9.22705
▁einar	-9.22705
▁esther	-9.22705
▁ridiculous	-9.22705
▁vada	-9.22707
▁enemy	-9.22708
▁pressure	-9.2271
▁aye	-9.22723
▁softly	-9.22811
ation	-9.23018
▁everythings	-9.23243
▁chattering	-9.23327
▁stage	-9.23539
▁hole	-9.23613
▁gift	-9.2365
▁professional	-9.23669
▁starts	-9.23803
▁bucks	-9.23815
▁form	-9.23849
▁piss	-9.2442
ness	-9.24498
▁movies	-9.24757
▁match	-9.24772
▁ii	-9.24929
▁spoke	-9.25122
▁shh	-9.25128
▁roof	-9.25143
▁downstairs	-9.25144
▁emergency	-9.25144
▁whyd	-9.25154
▁over	-9.25174
▁amen	-9.25179
▁gary	-9.25196
▁hiding	-9.25268
▁honestly	-9.25321
▁hoping	-9.25326
▁h	-9.25497
▁keeping	-9.25778
▁decide	-9.26023
▁suck	-9.26036
▁bridge	-9.26106
▁pop	-9.26175
▁monkey	-9.26264
▁what	-9.26351
▁spot	-9.26496
▁plane	-9.26545
▁file	-9.26672
▁turns	-9.26771
▁date	-9.26813
▁fed	-9.26864
▁rent	-9.27172
▁alarm	-9.27218
▁accept	-9.2734
▁percent	-9.27637
▁michael	-9.27643
▁opportunity	-9.27644
▁rosie	-9.27644
▁papa	-9.27645
▁innocent	-9.27649
▁sold	-9.27651
▁famous	-9.27652
▁barely	-9.27653
▁excited	-9.27659
▁skin	-9.27769
▁wine	-9.28028
▁learned	-9.28146
▁lied	-9.28209
▁wearing	-9.28222
▁hook	-9.28415
▁warren	-9.28714
▁flat	-9.28851
▁ship	-9.28919
▁witness	-9.29424
▁sleeping	-9.29498
▁search	-9.29534
▁cat	-9.29562
▁practice	-9.30017
▁public	-9.30195
▁tour	-9.30204
▁impossible	-9.30208
▁apologize	-9.30208
▁extra	-9.30208
▁midnight	-9.30208
▁henrik	-9.30208
▁hasnt	-9.30209
▁third	-9.30211
▁written	-9.30211
▁sugar	-9.30214
▁held	-9.30217
▁involved	-9.30235
▁shop	-9.30242
▁guilty	-9.30259
▁totally	-9.30266
▁mary	-9.30269
▁gasping	-9.30282
▁nurse	-9.30333
ous	-9.30384
▁losing	-9.30428
▁helped	-9.30793
ment	-9.31068
▁theo	-9.31105
▁fired	-9.31185
▁tie	-9.31224
▁experience	-9.3125
▁daughters	-9.31299
▁continue	-9.31333
▁account	-9.31433
▁relationship	-9.31436
▁gunshot	-9.31488
▁note	-9.31499
▁marry	-9.32409
▁hat	-9.3281
▁otherwise	-9.32839
▁saturday	-9.32839
▁department	-9.32839
▁gerda	-9.32839
▁professor	-9.3284
▁mmmhmm	-9.3284
▁apparently	-9.32841
▁distance	-9.32841
▁screeching	-9.32845
▁troy	-9.3285
▁tom	-9.32856
▁miller	-9.32856
▁louis	-9.32887
▁gotten	-9.32891
▁realized	-9.33132
▁besides	-9.33255
▁opening	-9.33439
▁followed	-9.33552
▁attack	-9.33866
p	-9.33886
▁bottle	-9.34138
▁begin	-9.34173
▁beer	-9.34244
▁fella	-9.34288
▁hill	-9.34317
▁career	-9.34694
▁dogs	-9.34774
▁plans	-9.34905
▁post	-9.34977
▁cars	-9.35013
▁introduce	-9.35378
▁sisters	-9.35453
▁fresh	-9.35515
ant	-9.35517
▁thou	-9.3554
▁split	-9.3554
▁elizabeth	-9.35542
▁sergeant	-9.35542
▁mickey	-9.35543
▁michelle	-9.35544
▁anna	-9.35546
▁aah	-9.35551
▁cheese	-9.35551
▁according	-9.35578
▁yelling	-9.35578
▁dean	-9.35604
▁buzzing	-9.35608
▁coughing	-9.35609
▁bringing	-9.3561
▁faster	-9.35778
ne	-9.35834
up	-9.36108
▁wondering	-9.36179
▁command	-9.36317
▁pills	-9.36343
▁acting	-9.36549
▁dis	-9.36692
▁survive	-9.36709
▁ear	-9.36754
▁force	-9.36782
▁ld	-9.36844
▁hall	-9.36863
▁clown	-9.36904
▁cake	-9.36921
▁devil	-9.36925
▁fucker	-9.36952
▁di	-9.37117
▁lies	-9.37152
▁wood	-9.37164
▁someones	-9.37266
▁faith	-9.37523
▁tea	-9.37586
▁paying	-9.37636
▁artist	-9.37666
▁kat	-9.38063
▁certain	-9.38221
▁steve	-9.38304
▁blind	-9.38319
▁afford	-9.3832
▁dancing	-9.3832
▁ought	-9.3832
▁chinese	-9.3832
▁lucas	-9.38321
▁meat	-9.38324
th	-9.38331
▁pinch	-9.38355
▁apart	-9.38371
▁brave	-9.38379
▁pictures	-9.3841
▁social	-9.38433
▁ate	-9.385
▁ohio	-9.38509
ll	-9.38774
▁burned	-9.38783
▁buck	-9.3901
lng	-9.39017
▁knees	-9.39028
nt	-9.39046
▁mikey	-9.39076
▁belong	-9.39095
▁pulled	-9.3924
▁dare	-9.39468
▁complete	-9.39575
▁storm	-9.39631
to	-9.3966
▁fellas	-9.39732
▁egg	-9.39813
▁partner	-9.39814
▁pocket	-9.39814
▁cup	-9.39875
▁orders	-9.40022
▁horses	-9.40106
▁hearing	-9.40167
u	-9.40263
▁numbers	-9.40471
▁fill	-9.40525
▁so	-9.40908
▁build	-9.40965
▁magic	-9.41067
▁v	-9.41094
▁ava	-9.41169
▁conrad	-9.41177
▁exhales	-9.41177
▁hadnt	-9.41177
▁often	-9.41177
▁omara	-9.41177
▁bishop	-9.41177
▁texas	-9.41178
▁barbara	-9.4118
▁daisy	-9.41187
▁jim	-9.41192
▁gay	-9.41223
▁awake	-9.41251
▁out	-9.41535
▁fathers	-9.41733
▁pretend	-9.41865
▁east	-9.42143
▁opens	-9.4221
▁support	-9.42233
▁due	-9.42253
▁pre	-9.42274
▁bomb	-9.42346
▁wire	-9.42555
▁craig	-9.4266
▁area	-9.42701
out	-9.42839
b	-9.42892
z	-9.42949
▁roy	-9.43345
▁places	-9.43511
▁fish	-9.43539
▁lots	-9.43688
▁steal	-9.43739
▁travel	-9.43781
▁milk	-9.43814
▁hurts	-9.4391
▁notice	-9.43956
▁health	-9.43972
▁do	-9.4398
▁base	-9.43995
▁usual	-9.44077
▁stole	-9.44084
▁candy	-9.44098
▁asleep	-9.44118
▁campaign	-9.44118
▁empty	-9.44118
▁malcolm	-9.44118
▁beginning	-9.44118
▁village	-9.44118
▁flight	-9.44118
▁nature	-9.4412
▁bodies	-9.4412
▁incident	-9.44122
▁property	-9.44123
▁theyd	-9.44126
▁yearold	-9.44129
▁smoking	-9.44136
▁jay	-9.44139
▁disgusting	-9.44146
▁ugh	-9.44158
▁turning	-9.44193
▁coat	-9.44201
▁letting	-9.44279
▁helping	-9.44383
▁writer	-9.44426
▁san	-9.44491
▁self	-9.44839
▁crack	-9.44904
▁freak	-9.44946
▁murdered	-9.45054
ist	-9.45149
▁vote	-9.45605
▁magazine	-9.45731
▁students	-9.46055
ia	-9.4668
▁correct	-9.46731
▁draw	-9.46768
▁suspect	-9.46873
▁keeps	-9.46878
▁ruin	-9.46885
▁pa	-9.471
▁among	-9.47111
▁amelia	-9.47148
▁excellent	-9.47148
▁monsieur	-9.47148
▁lonely	-9.47149
▁woke	-9.47149
▁foreign	-9.47149
▁advice	-9.47149
▁jenny	-9.47149
▁susanna	-9.4715
▁thatll	-9.4715
▁toilet	-9.4715
▁stories	-9.4715
▁jax	-9.47151
▁airport	-9.47151
▁easier	-9.47152
▁noah	-9.47152
▁zeke	-9.47153
▁pont	-9.47154
▁brian	-9.47159
▁intense	-9.47163
▁wailing	-9.47177
▁suddenly	-9.47212
▁sky	-9.47215
▁kate	-9.47273
▁u	-9.47386
▁agreed	-9.47398
▁al	-9.47472
▁lake	-9.47592
▁hardly	-9.4792
▁ward	-9.48271
▁main	-9.48608
▁con	-9.48713
▁prefer	-9.4872
▁weekend	-9.48831
▁condition	-9.48856
▁issue	-9.48914
▁soldier	-9.48935
▁gate	-9.48963
▁fan	-9.49069
▁breaking	-9.49093
▁legal	-9.49279
▁hail	-9.49524
▁watched	-9.49552
▁moms	-9.49701
▁study	-9.4995
▁allow	-9.50011
▁blame	-9.50092
▁recognize	-9.50095
▁mans	-9.50136
ally	-9.50171
ar	-9.50236
▁ruf	-9.50257
▁although	-9.50273
▁fortune	-9.50273
▁genius	-9.50273
▁plenty	-9.50273
▁request	-9.50273
▁alexandra	-9.50274
▁ugly	-9.50275
▁crain	-9.50275
▁beauty	-9.50276
▁earlier	-9.50276
▁evil	-9.50277
▁fancy	-9.50279
▁latin	-9.5028
▁size	-9.50285
▁confused	-9.50292
▁trade	-9.503
▁market	-9.50374
▁matters	-9.50506
▁banging	-9.50641
▁dressed	-9.50727
▁praying	-9.50886
▁covered	-9.51056
▁expecting	-9.51159
▁bone	-9.51219
x	-9.51242
▁bang	-9.51413
▁scream	-9.51452
▁ends	-9.515
▁soldiers	-9.51638
▁plays	-9.51766
▁woods	-9.5181
▁exist	-9.51816
▁shots	-9.51828
▁wound	-9.51841
▁suicide	-9.51925
▁lane	-9.52037
▁daniel	-9.52043
▁richard	-9.52057
▁conversation	-9.5211
▁shirt	-9.52114
▁client	-9.52139
▁bird	-9.52189
▁teacher	-9.52272
▁feelings	-9.52409
ce	-9.52892
ive	-9.52933
▁pieces	-9.53004
▁jobs	-9.5317
▁speed	-9.53384
▁bright	-9.53396
▁rough	-9.53402
ry	-9.53457
▁gene	-9.5346
▁colonel	-9.53499
▁jungle	-9.53499
▁motta	-9.53499
▁whimpering	-9.53499
▁daiton	-9.53499
▁thunder	-9.53499
▁firing	-9.535
▁olmo	-9.535
▁pennywise	-9.535
▁upset	-9.535
▁view	-9.535
▁corso	-9.53502
▁plus	-9.53505
▁horrible	-9.53505
▁understood	-9.53511
▁belt	-9.53517
▁duty	-9.53529
▁powerful	-9.53563
▁tied	-9.53746
▁slowly	-9.5376
▁interest	-9.54623
▁older	-9.54642
▁training	-9.54665
▁bags	-9.55206
▁everybodys	-9.55224
▁alastair	-9.55258
▁example	-9.55258
▁winner	-9.55262
▁connection	-9.55339
▁noise	-9.55398
▁level	-9.55431
▁model	-9.55468
ch	-9.5548
▁ended	-9.55766
▁tells	-9.55812
▁snow	-9.56274
▁heat	-9.56451
▁process	-9.56479
▁text	-9.56568
▁zero	-9.56605
▁success	-9.56633
▁release	-9.56657
▁boom	-9.56774
▁large	-9.56786
▁chest	-9.56802
▁escobar	-9.56832
▁responsibility	-9.56832
▁sienna	-9.56832
▁suspense	-9.56833
▁slept	-9.56833
▁greg	-9.56833
▁cancer	-9.56833
▁nope	-9.56836
▁bobby	-9.56841
▁duke	-9.56842
▁stephen	-9.56842
▁minister	-9.56842
▁lena	-9.56843
▁exchange	-9.56846
▁loose	-9.56848
▁juan	-9.56868
▁sheba	-9.56881
▁manager	-9.56881
▁carter	-9.56903
▁noticed	-9.57031
▁twenty	-9.57055
▁bleeding	-9.5706
▁gettin	-9.57074
▁local	-9.5709
▁allowed	-9.57119
▁goldie	-9.57182
▁studying	-9.57231
▁hero	-9.57243
▁code	-9.57298
▁nights	-9.57389
ty	-9.58216
▁gates	-9.58291
▁ma	-9.58347
▁cares	-9.58366
men	-9.58669
▁fruit	-9.58706
▁horn	-9.58716
▁dig	-9.58746
▁computer	-9.58849
▁alien	-9.58905
▁minnie	-9.58906
▁signal	-9.58937
▁ticket	-9.58937
▁siren	-9.59122
▁jan	-9.59331
▁tick	-9.59609
▁consider	-9.59632
▁weak	-9.59925
▁wash	-9.59938
▁somebodys	-9.59953
▁difficult	-9.60121
▁willing	-9.60174
▁garden	-9.60206
▁o	-9.60227
▁scoffs	-9.60281
▁sobbing	-9.60281
▁thompson	-9.60281
▁university	-9.60281
▁complicated	-9.60281
▁jeff	-9.60281
▁grew	-9.60282
▁bianca	-9.60282
▁gym	-9.60283
▁iike	-9.60286
▁princess	-9.60292
▁possibly	-9.60293
▁randy	-9.60296
▁crooked	-9.60304
▁stuttering	-9.60315
▁style	-9.6034
▁valentine	-9.60354
▁bitches	-9.60678
▁tilly	-9.60899
et	-9.60966
▁cos	-9.61105
▁suggest	-9.61602
▁serve	-9.61892
▁ears	-9.61976
▁checked	-9.62015
▁male	-9.62308
▁regret	-9.62352
▁german	-9.62353
▁border	-9.62354
▁period	-9.62371
▁sight	-9.62397
▁doll	-9.624
▁se	-9.62452
▁comment	-9.62467
▁patient	-9.62478
▁animal	-9.625
▁leader	-9.62576
▁nation	-9.62578
▁rule	-9.635
▁switch	-9.635
▁invite	-9.63684
▁brilliant	-9.63734
▁unit	-9.63765
▁mmhm	-9.6383
▁aware	-9.6385
▁callahan	-9.63852
▁footsteps	-9.63852
▁leila	-9.63852
▁arvin	-9.63852
▁viktor	-9.63852
▁chuckling	-9.63853
▁stomach	-9.63853
▁basically	-9.63854
▁warrant	-9.63855
▁breakfast	-9.63857
▁clock	-9.63859
▁mail	-9.63863
▁stanley	-9.63865
▁incredible	-9.63878
▁beeping	-9.63901
▁timing	-9.63921
▁huge	-9.6393
▁silver	-9.63959
age	-9.64104
▁en	-9.64167
▁hits	-9.64173
▁details	-9.64624
▁burning	-9.64689
▁ln	-9.64811
▁row	-9.64893
▁selling	-9.64908
▁ideas	-9.6504
▁nobodys	-9.65048
▁metal	-9.65077
▁shower	-9.65308
▁stayed	-9.65616
▁worlds	-9.6579
▁pro	-9.65924
▁medica	-9.65962
▁iii	-9.65989
▁vision	-9.66055
▁sec	-9.66084
▁clue	-9.66094
▁source	-9.6615
▁demon	-9.66188
▁victim	-9.66203
▁finger	-9.66206
▁contract	-9.66281
ard	-9.66292
▁brains	-9.66292
▁checking	-9.66362
▁prisoner	-9.6643
▁ruth	-9.66498
▁destroy	-9.66802
▁card	-9.6691
▁mountain	-9.6692
▁ex	-9.67109
▁meaning	-9.6716
▁player	-9.67172
▁punch	-9.67254
led	-9.67319
f	-9.67346
▁chris	-9.67497
▁program	-9.67532
▁kayden	-9.67556
▁silly	-9.67556
▁strength	-9.67556
▁thursday	-9.67556
▁violence	-9.67556
▁kelly	-9.67556
▁illegal	-9.67556
▁spanish	-9.67556
▁chanting	-9.67556
▁dillinger	-9.67556
▁wilson	-9.67557
▁permission	-9.67558
▁buried	-9.67558
▁elevator	-9.67558
▁military	-9.67559
▁wherever	-9.67559
▁sunday	-9.67561
▁courage	-9.67562
▁crap	-9.67565
▁pair	-9.67569
▁danger	-9.67577
▁preacher	-9.67577
▁immediately	-9.67585
▁title	-9.6763
▁scary	-9.67661
▁yells	-9.67737
▁naked	-9.67742
▁closes	-9.67843
▁hans	-9.67891
▁hm	-9.67984
ern	-9.68039
▁armed	-9.68213
▁expected	-9.68315
▁bastards	-9.6835
▁kinda	-9.684
ian	-9.6856
▁signed	-9.68585
▁carl	-9.68644
▁falling	-9.68652
▁fingers	-9.68925
▁victor	-9.69039
▁birds	-9.69146
▁dads	-9.69164
▁track	-9.69365
▁deliver	-9.69662
▁friday	-9.699
▁freedom	-9.69902
▁sidney	-9.6994
▁purpose	-9.69965
▁character	-9.7
▁swing	-9.7
▁guest	-9.70035
▁russian	-9.70041
▁lookin	-9.70047
▁official	-9.70085
▁traffic	-9.70125
▁cock	-9.70127
▁page	-9.7017
ier	-9.70495
▁doors	-9.70522
▁paint	-9.70616
▁trick	-9.70692
▁load	-9.70708
▁football	-9.70795
▁heads	-9.70799
▁americans	-9.70903
▁opened	-9.70967
▁subject	-9.71089
▁letters	-9.71113
▁obvious	-9.71312
▁birth	-9.71402
▁byebye	-9.71402
▁maureen	-9.71402
▁fought	-9.71402
▁maggie	-9.71402
▁quinn	-9.71402
▁beach	-9.71403
▁claire	-9.71405
▁washington	-9.71405
▁bible	-9.71406
▁willingham	-9.71407
▁gang	-9.71407
▁jessica	-9.71407
▁nathan	-9.71407
▁literally	-9.71408
▁fbi	-9.71409
▁began	-9.71412
▁handsome	-9.7142
▁penny	-9.71421
▁recently	-9.71429
▁aii	-9.71429
▁jerk	-9.7143
▁unfortunately	-9.71442
▁thee	-9.71442
▁rings	-9.71444
▁protection	-9.71455
ng	-9.71458
▁receive	-9.71462
▁officers	-9.71463
ate	-9.71511
▁square	-9.71545
▁disappeared	-9.71568
▁coughs	-9.71751
▁dry	-9.71844
▁clicks	-9.71913
▁kicked	-9.71922
▁thy	-9.72165
▁pounds	-9.7229
▁bull	-9.72317
▁sons	-9.72496
▁cigarettes	-9.72502
▁wen	-9.7251
▁tickets	-9.72936
ary	-9.73233
▁includ	-9.73246
▁bat	-9.73568
▁pm	-9.73745
w	-9.73746
▁gods	-9.73759
▁opinion	-9.73825
▁bike	-9.73838
▁scare	-9.73889
▁angel	-9.7389
▁pig	-9.73893
▁league	-9.73914
▁bottom	-9.73964
▁meal	-9.73994
▁battle	-9.73996
▁planet	-9.74001
▁access	-9.74001
▁criminal	-9.7403
▁value	-9.74032
▁shows	-9.74094
▁lesson	-9.74101
▁spread	-9.74458
time	-9.74623
▁crash	-9.74774
▁fighter	-9.74842
▁total	-9.74964
▁stops	-9.75107
▁direct	-9.7518
▁exact	-9.75313
▁built	-9.75402
▁research	-9.75402
▁revenge	-9.75402
▁trigger	-9.75402
▁neighborhood	-9.75402
▁davis	-9.75403
▁monica	-9.75403
▁common	-9.75403
▁june	-9.75403
▁morris	-9.75403
▁investigation	-9.75403
▁duffy	-9.75405
▁jab	-9.75406
▁comfortable	-9.75414
▁heh	-9.75414
▁jessie	-9.75416
▁defense	-9.75416
▁comin	-9.75421
▁proof	-9.75427
▁grown	-9.75443
▁bah	-9.75448
▁winter	-9.7545
▁stolen	-9.75454
▁tap	-9.75465
▁markum	-9.75501
▁arrived	-9.75519
▁auntie	-9.75522
▁claim	-9.75623
▁nearly	-9.75652
▁da	-9.75729
▁pie	-9.7578
▁headed	-9.75855
▁sooner	-9.75975
▁younger	-9.76041
▁ls	-9.7607
▁sexy	-9.761
▁spit	-9.76134
▁bust	-9.76221
▁talkin	-9.76457
▁el	-9.76801
▁julie	-9.76865
ka	-9.77527
▁pee	-9.77757
▁remind	-9.7781
▁score	-9.77969
▁create	-9.77975
▁umbrella	-9.77991
▁brings	-9.78077
▁plate	-9.78164
▁vehicle	-9.7817
as	-9.78368
▁desire	-9.78575
▁drinks	-9.78657
▁dealer	-9.78836
▁papers	-9.78867
▁enter	-9.78929
▁suffer	-9.78931
▁climb	-9.79158
▁defend	-9.79162
▁flag	-9.79338
▁natural	-9.7949
▁no	-9.79513
▁freeze	-9.79537
▁virgin	-9.79549
▁weather	-9.79549
▁behavior	-9.79569
▁brooklyn	-9.79569
▁clever	-9.79569
▁lincoln	-9.79569
▁macbeth	-9.79569
▁mulligan	-9.79569
▁sunshine	-9.79569
▁heydrich	-9.79569
▁insurance	-9.79569
▁mckenzie	-9.79569
▁ferris	-9.7957
▁medicine	-9.7957
▁linda	-9.7957
▁staff	-9.7957
▁society	-9.79572
▁malena	-9.79574
▁baseball	-9.79574
hrer	-9.79575
▁mummy	-9.79576
▁familiar	-9.79576
▁gear	-9.79576
▁simply	-9.79578
▁dope	-9.7958
▁punk	-9.7958
▁paddy	-9.79581
▁jamal	-9.7959
▁tessa	-9.79605
▁safety	-9.79607
▁golden	-9.7961
▁polly	-9.79612
▁gina	-9.79621
▁national	-9.79627
▁tits	-9.79638
by	-9.79725
▁swim	-9.79735
▁squeeze	-9.79735
erstr	-9.79743
▁invited	-9.7977
▁ad	-9.79788
▁failed	-9.79792
▁stronger	-9.79848
▁sexual	-9.79909
▁suffering	-9.79945
▁screwed	-9.80052
▁clearly	-9.80109
▁trace	-9.80159
▁backup	-9.80196
▁donna	-9.80365
▁husbands	-9.80407
▁ne	-9.80672
and	-9.80726
▁victims	-9.81117
▁trees	-9.81338
▁dan	-9.81382
ance	-9.81537
▁heading	-9.81814
▁hanging	-9.82195
▁science	-9.82339
▁masters	-9.82415
▁project	-9.82431
▁helicopter	-9.82453
one	-9.82482
▁race	-9.82494
▁article	-9.82517
▁film	-9.82536
▁warning	-9.82549
▁fucks	-9.82979
▁clears	-9.83176
▁lee	-9.83183
▁pet	-9.83332
lo	-9.83342
ah	-9.8336
▁avoid	-9.835
▁los	-9.83542
▁focus	-9.83644
▁cia	-9.83792
▁original	-9.83823
▁sudden	-9.83825
▁proper	-9.83834
▁helen	-9.83859
▁harriet	-9.83916
▁however	-9.83916
▁necessary	-9.83916
▁ocp	-9.83916
▁theater	-9.83916
▁whenever	-9.83916
▁kofi	-9.83917
▁mostly	-9.83917
▁audience	-9.83917
▁toast	-9.83917
▁grateful	-9.83917
▁joking	-9.83917
▁boring	-9.83918
▁route	-9.83918
▁truly	-9.83919
▁piano	-9.8392
▁danny	-9.8392
▁lucy	-9.83925
▁yuri	-9.83925
▁sarah	-9.83927
▁chill	-9.83933
▁hammer	-9.83935
▁basement	-9.83935
▁kim	-9.83935
▁secretary	-9.83938
▁vera	-9.83945
▁gil	-9.83957
▁hitting	-9.8397
▁bev	-9.83978
▁dayday	-9.83985
▁convinced	-9.83996
▁sword	-9.84006
▁niggas	-9.84022
▁approaching	-9.84042
▁mood	-9.84061
▁dust	-9.84182
▁lower	-9.84196
▁based	-9.842
▁troops	-9.84253
▁boyle	-9.84265
▁voices	-9.84268
▁whod	-9.84291
▁mis	-9.84295
▁closer	-9.84295
il	-9.84469
▁appears	-9.84499
▁rounds	-9.84681
▁smells	-9.84722
▁ca	-9.84743
▁remains	-9.84926
▁trained	-9.85088
▁finding	-9.85164
▁secure	-9.85217
eral	-9.85277
ta	-9.85361
▁showing	-9.85383
▁under	-9.8547
▁animals	-9.85597
▁germans	-9.85599
▁kills	-9.85776
bo	-9.85912
▁answers	-9.86354
▁cab	-9.86421
▁thousands	-9.86521
▁pump	-9.86577
▁ending	-9.86615
▁up	-9.86673
▁shout	-9.8671
de	-9.86768
▁bath	-9.86884
▁attorney	-9.86884
▁saving	-9.86887
▁path	-9.86959
▁tongue	-9.86964
▁legend	-9.86964
▁cable	-9.86989
▁dozen	-9.86998
▁champion	-9.87013
▁jacket	-9.8702
▁director	-9.87061
▁nightmare	-9.87089
▁pill	-9.87119
▁stars	-9.87135
▁tear	-9.872
▁ms	-9.8722
▁murderer	-9.87427
ey	-9.87623
▁clay	-9.87681
▁lines	-9.87818
▁tail	-9.87855
▁add	-9.87855
▁bless	-9.87893
cy	-9.87896
▁surrender	-9.88148
▁bowl	-9.88157
▁liz	-9.88185
▁talent	-9.88185
▁an	-9.88222
▁shape	-9.88242
ton	-9.88325
▁sharp	-9.88368
▁tugg	-9.88377
▁ways	-9.8838
▁emotional	-9.88432
▁maid	-9.88454
▁vietnam	-9.88461
▁ashamed	-9.88462
▁avner	-9.88462
▁blaring	-9.88462
▁california	-9.88462
▁center	-9.88462
▁guitar	-9.88462
▁koslow	-9.88462
▁leaf	-9.88462
▁particular	-9.88462
▁responsible	-9.88462
▁robinson	-9.88462
▁senior	-9.88462
▁someday	-9.88462
▁dreyman	-9.88462
▁josh	-9.88462
▁closing	-9.88463
▁desk	-9.88463
▁justice	-9.88463
▁romantic	-9.88464
▁flesh	-9.88468
▁carlos	-9.8847
▁begging	-9.88476
▁taxi	-9.8848
▁kingsman	-9.88481
▁jackson	-9.88507
▁cain	-9.88508
▁angeles	-9.88514
▁china	-9.88525
▁wave	-9.8856
▁lo	-9.88599
▁members	-9.8861
▁concerned	-9.88633
▁lean	-9.88636
▁commander	-9.88677
▁useless	-9.88683
▁whispers	-9.88686
▁healthy	-9.88692
▁bored	-9.8873
▁stairs	-9.88749
rs	-9.88783
▁shitty	-9.88835
▁personally	-9.88838
▁mimi	-9.88841
▁carefully	-9.88926
▁pissed	-9.88973
land	-9.89112
▁flowers	-9.89144
▁lately	-9.8924
▁growing	-9.89257
▁carrying	-9.89346
▁ra	-9.89356
▁staring	-9.89387
▁flying	-9.89493
▁edge	-9.89564
▁jon	-9.89572
im	-9.89769
▁bum	-9.89774
▁touched	-9.90162
▁cards	-9.90219
▁cleaning	-9.90511
▁daddys	-9.90689
son	-9.91003
▁plant	-9.91063
▁motherfuckers	-9.91116
▁machines	-9.91323
▁guarantee	-9.9158
▁pitch	-9.91654
▁olympic	-9.91759
▁regular	-9.9176
▁circle	-9.91782
▁direction	-9.91791
▁election	-9.91803
▁monster	-9.91803
▁friendship	-9.91813
ship	-9.9182
▁odd	-9.91844
▁ignore	-9.91865
▁cigarette	-9.91872
▁believed	-9.91967
▁shoulder	-9.92038
▁pleased	-9.92091
▁adams	-9.92167
▁loser	-9.92198
▁everyones	-9.92321
▁photos	-9.92347
▁pi	-9.92361
▁discuss	-9.92519
▁doctors	-9.92707
ley	-9.92727
▁rush	-9.92757
▁dies	-9.9279
▁repeat	-9.92818
▁bound	-9.92829
▁reports	-9.9285
▁hundreds	-9.92887
ware	-9.92902
▁prepare	-9.93052
▁drake	-9.93077
▁mi	-9.9309
▁drag	-9.93133
id	-9.93165
▁speech	-9.93176
▁europe	-9.93198
▁champ	-9.93202
▁rip	-9.9322
▁bangkok	-9.93224
▁blew	-9.93224
▁bravo	-9.93224
▁equipment	-9.93224
▁female	-9.93224
▁grief	-9.93224
▁jealous	-9.93224
▁lawrence	-9.93224
▁miguel	-9.93224
▁offense	-9.93224
▁reverend	-9.93224
▁subtitles	-9.93224
▁therapy	-9.93224
▁trunk	-9.93224
▁tuesday	-9.93224
▁unbelievable	-9.93224
▁unusual	-9.93224
▁wilcox	-9.93224
▁terrific	-9.93224
▁schultz	-9.93224
▁vegas	-9.93224
▁eventually	-9.93224
▁rawlings	-9.93224
▁josef	-9.93224
▁bingo	-9.93225
▁password	-9.93225
▁expensive	-9.93225
▁boston	-9.93225
▁weii	-9.93226
▁motel	-9.93226
▁lorena	-9.93228
▁execution	-9.93228
▁pathetic	-9.93231
▁onto	-9.93233
▁jury	-9.93235
▁bedroom	-9.93239
▁amount	-9.93241
▁negative	-9.93241
▁rude	-9.93242
▁hugh	-9.93244
▁stokely	-9.93244
▁march	-9.93254
▁data	-9.93258
▁dropped	-9.93262
▁host	-9.93277
▁yale	-9.93294
▁spoken	-9.93306
▁fourth	-9.93313
▁abandoned	-9.93336
▁corpse	-9.93351
▁ho	-9.93363
▁carmen	-9.93376
▁lack	-9.93383
▁provided	-9.93404
▁victory	-9.93411
▁ticky	-9.93431
▁cha	-9.93458
▁destroyed	-9.93575
▁journalist	-9.9366
▁attacked	-9.93711
▁hug	-9.93741
▁thoughts	-9.9379
▁towards	-9.93793
▁tryin	-9.93833
▁lips	-9.93989
▁arrested	-9.94022
▁changes	-9.9406
▁hunting	-9.94235
ang	-9.94812
▁songs	-9.9483
is	-9.94841
▁pe	-9.95705
▁faces	-9.96196
▁sin	-9.96411
▁points	-9.9655
▁sweat	-9.96559
▁hop	-9.96581
▁stones	-9.96591
▁brown	-9.96654
▁stink	-9.9667
▁funeral	-9.96684
▁ai	-9.96708
▁telephone	-9.96719
▁priest	-9.96725
▁assistant	-9.96788
▁weed	-9.96812
▁mirror	-9.96814
▁tip	-9.9682
ca	-9.96829
▁shoe	-9.96841
▁diamond	-9.96844
▁connor	-9.96848
▁cameras	-9.96912
ted	-9.97035
▁hunt	-9.97101
ting	-9.97239
▁dump	-9.97547
head	-9.9757
▁presents	-9.97597
▁co	-9.97623
▁sp	-9.9778
▁witch	-9.97793
▁phones	-9.97854
▁clang	-9.97884
▁lift	-9.97954
▁fail	-9.97958
▁rocks	-9.97994
▁desperate	-9.9813
▁runs	-9.98149
▁adrian	-9.98169
▁gentle	-9.98196
▁somethin	-9.98211
▁slip	-9.98218
ster	-9.98221
▁yellow	-9.98223
▁blizzard	-9.98224
▁caleb	-9.98224
▁dolores	-9.98224
▁explosiveskull	-9.98224
▁heather	-9.98224
▁junior	-9.98224
▁mannix	-9.98224
▁retreat	-9.98224
▁sophie	-9.98224
▁vodka	-9.98224
▁whitney	-9.98224
▁nefarious	-9.98224
▁british	-9.98224
▁italian	-9.98224
▁candice	-9.98225
▁england	-9.98225
▁reputation	-9.98225
▁spell	-9.98226
▁jewish	-9.98226
▁threw	-9.98227
▁loyalty	-9.98228
▁amber	-9.98228
▁stacy	-9.98229
▁shopping	-9.98229
▁potter	-9.98231
▁fence	-9.98231
▁arthur	-9.98231
▁tall	-9.98232
▁jake	-9.98232
▁nina	-9.98233
▁rumbling	-9.98236
▁community	-9.98242
▁mister	-9.98244
▁yul	-9.98244
▁gentleman	-9.98245
▁itd	-9.98254
▁conor	-9.98255
▁dom	-9.9826
▁circumstances	-9.98263
▁impressive	-9.98266
▁tony	-9.98267
▁thatd	-9.98273
▁stretch	-9.98279
▁cage	-9.98284
▁coke	-9.98287
▁hearts	-9.98317
▁frankie	-9.98322
▁pot	-9.98353
▁julian	-9.98358
▁former	-9.98379
▁pink	-9.98408
▁created	-9.98434
▁counter	-9.98435
▁letham	-9.98444
▁falls	-9.98446
▁considered	-9.98621
▁depends	-9.98682
▁considering	-9.98776
▁indistinctly	-9.98821
▁mayor	-9.98879
fer	-9.98991
▁herr	-9.99183
▁teaching	-9.99321
▁hon	-9.99416
▁sports	-9.99451
▁sucks	-9.99944
▁parts	-10.001
▁blowing	-10.0024
▁sirens	-10.0025
▁ohh	-10.0046
▁ch	-10.0054
▁severa	-10.0112
▁murders	-10.0117
ii	-10.0177
▁wha	-10.0178
▁credit	-10.0191
▁slide	-10.0194
▁monday	-10.0198
▁coward	-10.0203
▁shift	-10.0205
▁moments	-10.0207
▁motherfuck	-10.0208
▁sport	-10.0213
▁knee	-10.0215
▁product	-10.0216
▁shine	-10.023
▁buyer	-10.0256
▁scar	-10.0262
▁tapes	-10.0273
▁shock	-10.0274
▁dia	-10.0285
▁dial	-10.0285
ter	-10.0294
▁disturb	-10.031
▁peel	-10.0324
▁settle	-10.0331
▁wast	-10.0335
▁sat	-10.0338
▁butt	-10.0339
▁non	-10.0343
▁contest	-10.0343
▁smith	-10.0347
▁popular	-10.0348
▁specific	-10.0348
▁ambulance	-10.0349
▁briggs	-10.0349
▁charles	-10.0349
▁detroit	-10.0349
▁enemies	-10.0349
▁families	-10.0349
▁jefferson	-10.0349
▁ocean	-10.0349
▁twelve	-10.0349
▁wednesday	-10.0349
▁modern	-10.0349
▁macleod	-10.0349
▁munich	-10.0349
▁stood	-10.0349
▁burke	-10.0349
▁peggy	-10.0349
▁miami	-10.0349
▁studio	-10.0349
▁material	-10.0349
▁albert	-10.0349
▁glory	-10.0349
▁swimming	-10.0349
▁keeler	-10.0349
▁winning	-10.0349
▁dawn	-10.0349
▁energy	-10.0349
▁jib	-10.0349
▁terry	-10.0349
▁firm	-10.0349
▁planned	-10.0349
▁psycho	-10.035
▁announcement	-10.035
▁response	-10.035
▁theory	-10.035
▁tina	-10.035
▁disaster	-10.035
▁thirty	-10.0351
▁buzzer	-10.0351
▁laid	-10.0352
▁fifty	-10.0352
▁aim	-10.0353
▁setting	-10.0353
▁wallet	-10.0354
▁rare	-10.0354
▁marie	-10.0356
▁whispering	-10.0356
▁heroin	-10.0356
▁wide	-10.0359
▁leah	-10.0359
▁oneill	-10.0362
▁hood	-10.0362
▁prepared	-10.0368
▁glasses	-10.0369
▁beeps	-10.0375
▁reality	-10.0378
▁deeply	-10.0381
▁shake	-10.0382
▁latest	-10.0389
▁gross	-10.0391
▁raised	-10.0394
▁closet	-10.041
▁belly	-10.0415
▁stealing	-10.0417
▁reached	-10.042
▁shota	-10.0428
▁knocked	-10.0428
▁val	-10.0431
▁rat	-10.0433
dy	-10.0442
▁bars	-10.0442
▁lover	-10.0466
▁passing	-10.0492
▁losers	-10.0508
▁harm	-10.051
▁spending	-10.051
▁killers	-10.0517
▁signs	-10.0544
line	-10.0544
ated	-10.0551
▁kissing	-10.0558
os	-10.0561
▁kings	-10.0569
▁issues	-10.0584
▁pulling	-10.0599
▁as	-10.0604
▁artists	-10.0613
▁gunshots	-10.063
▁notes	-10.0633
▁buying	-10.0647
▁fights	-10.0709
▁waited	-10.071
▁tires	-10.0712
▁surely	-10.0738
▁bullets	-10.0744
▁shrink	-10.0754
▁appointment	-10.0754
▁owner	-10.0755
▁expert	-10.076
▁elliott	-10.076
▁statement	-10.0762
▁newspaper	-10.0764
▁rope	-10.0765
ure	-10.0771
▁parent	-10.0772
▁actor	-10.0776
▁boot	-10.0784
▁sand	-10.0797
▁cast	-10.0803
▁tent	-10.0807
▁cheat	-10.0839
▁damned	-10.0843
town	-10.0856
▁walls	-10.0858
▁off	-10.0865
▁bleed	-10.0866
▁borrow	-10.0876
▁va	-10.0877
▁shuts	-10.0883
▁aunt	-10.0888
▁provide	-10.0889
▁hung	-10.089
▁physical	-10.0895
▁farm	-10.0897
▁andre	-10.0898
▁require	-10.0899
▁chose	-10.09
▁doug	-10.0902
▁prince	-10.0903
▁athena	-10.0904
▁license	-10.0904
▁marcus	-10.0904
▁mikael	-10.0904
▁paradise	-10.0904
▁razor	-10.0904
▁renato	-10.0904
▁restaurant	-10.0904
▁ritual	-10.0904
▁safranek	-10.0904
▁september	-10.0904
▁swallow	-10.0904
▁desert	-10.0904
▁knowledge	-10.0904
▁myrtle	-10.0904
▁parole	-10.0904
▁progress	-10.0904
▁miracle	-10.0904
▁changing	-10.0904
▁vacation	-10.0904
▁location	-10.0904
▁martha	-10.0904
▁vickie	-10.0904
▁dennis	-10.0904
▁pettyman	-10.0904
▁forgotten	-10.0904
▁dentist	-10.0904
▁mask	-10.0905
▁downtown	-10.0905
▁cherry	-10.0905
▁lenora	-10.0905
▁policy	-10.0905
▁chopper	-10.0905
▁larry	-10.0905
▁aiden	-10.0906
▁trash	-10.0906
▁skinny	-10.0906
▁available	-10.0906
▁zone	-10.0907
▁politics	-10.0909
▁brady	-10.0914
▁pity	-10.0916
▁bald	-10.0918
▁dating	-10.0926
▁growls	-10.0932
▁forced	-10.094
▁event	-10.094
▁secrets	-10.0951
▁ruined	-10.0955
off	-10.0955
▁hire	-10.0957
▁gosh	-10.0968
▁lads	-10.0972
▁fa	-10.0972
▁hostages	-10.0995
▁returned	-10.1008
▁riding	-10.1008
▁pushing	-10.1011
▁counting	-10.102
▁neighbors	-10.1027
▁remembered	-10.1033
▁fate	-10.1037
▁williams	-10.1055
▁chances	-10.1064
▁ali	-10.1071
ham	-10.1076
▁chin	-10.1076
▁millions	-10.1091
▁tense	-10.1092
ding	-10.1101
ur	-10.1107
▁hated	-10.1122
ish	-10.1129
▁clients	-10.1146
▁fans	-10.1154
la	-10.1169
▁log	-10.1171
▁belongs	-10.118
▁powers	-10.1186
▁lawyers	-10.129
▁all	-10.1301
ent	-10.1311
▁remain	-10.1317
▁pound	-10.1325
▁counts	-10.1326
▁eagle	-10.1333
▁rise	-10.1336
▁debt	-10.1337
▁rate	-10.1339
▁wheel	-10.1345
▁uniform	-10.1353
▁inmate	-10.1354
▁term	-10.1357
▁moral	-10.1366
ma	-10.1375
▁dealing	-10.139
▁rap	-10.1413
▁wa	-10.1414
▁poison	-10.1417
▁comfort	-10.1448
▁bail	-10.1465
▁concentrate	-10.1473
▁explode	-10.1475
▁knowing	-10.1475
▁member	-10.1476
▁tess	-10.1489
urban	-10.1491
▁gig	-10.1491
▁arguing	-10.1492
▁casablanca	-10.1492
▁channel	-10.1492
▁easily	-10.1492
▁education	-10.1492
▁exciting	-10.1492
▁genuine	-10.1492
▁kendricks	-10.1492
▁mystery	-10.1492
▁oclock	-10.1492
▁ornithologist	-10.1492
▁philatelist	-10.1492
▁violent	-10.1492
▁fitzgerald	-10.1493
▁houston	-10.1493
▁jordan	-10.1493
▁purvis	-10.1493
▁tiger	-10.1493
▁surgery	-10.1493
▁coconut	-10.1493
▁dunnage	-10.1493
▁garbage	-10.1493
▁lazlo	-10.1493
▁sniffles	-10.1493
▁tooth	-10.1493
▁elvis	-10.1493
▁carolina	-10.1493
▁planning	-10.1493
▁central	-10.1493
▁surgeon	-10.1493
▁joan	-10.1493
▁blanket	-10.1493
▁adler	-10.1493
▁stewart	-10.1493
▁ease	-10.1493
▁chasing	-10.1493
▁indeed	-10.1493
▁aside	-10.1493
▁possession	-10.1494
▁alley	-10.1494
▁buzzes	-10.1494
▁santa	-10.1494
▁tragic	-10.1494
▁walter	-10.1494
▁squeak	-10.1495
▁brief	-10.1495
▁sauce	-10.1495
▁murphy	-10.1495
▁carried	-10.1495
▁morty	-10.1495
▁sid	-10.1496
▁mercy	-10.1497
▁bury	-10.1497
▁hank	-10.1498
▁gunner	-10.1498
▁jesse	-10.1499
▁cutting	-10.15
▁bush	-10.15
▁gray	-10.1502
▁ruby	-10.1502
▁mustang	-10.1503
▁witnesses	-10.1503
▁johnson	-10.1504
▁executed	-10.1505
▁designed	-10.1507
▁sighing	-10.151
▁bay	-10.1511
▁hangman	-10.1514
▁managed	-10.1514
▁hired	-10.1517
▁beg	-10.1524
▁blessed	-10.1528
▁del	-10.1529
▁influence	-10.153
▁loaded	-10.1535
▁lion	-10.1535
▁manage	-10.1536
▁clanging	-10.1537
▁pure	-10.1538
ee	-10.1549
▁wayne	-10.1552
▁filled	-10.1554
▁eve	-10.1558
▁when	-10.1562
▁likely	-10.1576
▁yard	-10.1585
▁badge	-10.1611
▁fixed	-10.1619
tic	-10.1622
▁ted	-10.1631
▁terms	-10.1631
▁offering	-10.1657
▁steps	-10.1658
▁boo	-10.1678
ine	-10.1719
▁prisoners	-10.1724
▁dreaming	-10.1736
▁pockets	-10.1783
▁partners	-10.1784
co	-10.1811
▁sayin	-10.1818
▁pops	-10.1826
▁lou	-10.186
ball	-10.1862
▁suits	-10.1868
▁op	-10.1874
▁marks	-10.1876
▁les	-10.1878
▁bl	-10.1915
▁regard	-10.1916
▁laws	-10.1938
▁disappear	-10.1939
▁flow	-10.1943
▁detail	-10.1953
▁nuke	-10.196
▁thane	-10.196
▁trial	-10.1963
▁creature	-10.1967
▁string	-10.1967
▁corporation	-10.1968
▁exit	-10.1972
▁rebel	-10.1978
▁hooker	-10.1978
▁robert	-10.1979
▁neighbor	-10.1981
▁fi	-10.1982
▁steven	-10.1984
▁singer	-10.1986
▁nazi	-10.1999
ism	-10.2013
▁nail	-10.2042
lin	-10.2048
▁teii	-10.207
▁confirm	-10.2089
▁anti	-10.2094
▁celebrate	-10.2098
▁fort	-10.2101
▁mental	-10.2112
▁thick	-10.2112
▁iraq	-10.2113
▁brenda	-10.2114
▁russia	-10.2114
▁virus	-10.2114
▁author	-10.2115
▁despi	-10.2116
▁threat	-10.2116
▁awesome	-10.2117
▁dallas	-10.2117
▁damien	-10.2117
▁eleven	-10.2117
▁explosion	-10.2117
▁gorgeous	-10.2117
▁matthew	-10.2117
▁militia	-10.2117
▁murmansk	-10.2117
▁petroglyphs	-10.2117
▁salameh	-10.2117
▁telfer	-10.2117
▁wesiey	-10.2117
▁bureau	-10.2118
▁jarrett	-10.2118
▁pizza	-10.2118
▁rescue	-10.2118
▁waverly	-10.2118
▁couch	-10.2118
▁harford	-10.2118
▁rotten	-10.2118
▁transfer	-10.2118
▁mccoy	-10.2118
▁online	-10.2118
▁muffled	-10.2118
▁franco	-10.2118
▁vicky	-10.2118
▁mouse	-10.2118
▁wholl	-10.2118
▁urgent	-10.2118
▁foster	-10.2118
▁typewriter	-10.2118
▁gail	-10.2118
▁paranoid	-10.2118
▁confession	-10.2118
▁margaret	-10.2118
▁waist	-10.2118
▁barney	-10.2118
▁headache	-10.2119
▁gertrude	-10.2119
▁sack	-10.2119
▁yup	-10.2119
▁chirping	-10.2119
▁brush	-10.2119
▁spring	-10.212
▁century	-10.212
▁angie	-10.212
▁purse	-10.212
▁squad	-10.212
▁advantage	-10.2121
▁brendan	-10.2121
▁hart	-10.2121
▁destiny	-10.2122
▁rod	-10.2122
▁campus	-10.2122
▁silhouettes	-10.2122
▁kai	-10.2123
▁kiddo	-10.2123
▁iraqi	-10.2123
▁factory	-10.2124
▁fallen	-10.2124
▁forest	-10.2125
▁media	-10.2125
▁homework	-10.2127
▁kenny	-10.213
▁betrayed	-10.2131
▁pile	-10.2132
▁eaten	-10.2134
▁clark	-10.2134
▁copies	-10.2134
▁mia	-10.2134
▁nasty	-10.2137
▁tax	-10.2138
▁joint	-10.2141
▁earned	-10.2142
▁charming	-10.2143
▁led	-10.2144
▁confirmed	-10.2146
▁bal	-10.2146
▁refugee	-10.2147
▁hip	-10.2149
▁served	-10.2153
▁math	-10.2155
▁cheating	-10.216
▁juice	-10.2164
▁survived	-10.2171
▁higher	-10.2182
▁perfectly	-10.2185
▁zee	-10.2189
▁clouds	-10.2193
▁freaking	-10.2199
▁crossed	-10.2203
▁skills	-10.2211
▁cuts	-10.2223
▁din	-10.2229
▁laughed	-10.2247
▁assholes	-10.2259
▁beating	-10.2295
▁ob	-10.2305
▁tears	-10.2311
▁loss	-10.2315
▁ordered	-10.233
▁cocks	-10.2347
na	-10.237
▁me	-10.2374
ized	-10.2374
▁badly	-10.2377
▁bri	-10.2383
▁players	-10.2393
▁minor	-10.2405
▁forces	-10.2438
▁po	-10.2444
▁touching	-10.2447
▁mei	-10.2469
▁leaves	-10.2472
▁streets	-10.2481
▁range	-10.2505
ad	-10.2532
ho	-10.2554
house	-10.258
▁joy	-10.2603
▁he	-10.2617
▁grandpa	-10.2634
▁affair	-10.2637
▁ram	-10.2639
▁queen	-10.264
▁indian	-10.264
▁classic	-10.2642
▁label	-10.2643
▁effect	-10.2646
▁button	-10.2647
▁union	-10.2649
▁sometime	-10.2651
▁tool	-10.2656
▁dollar	-10.2656
▁grade	-10.2659
▁mile	-10.2669
▁ant	-10.2677
▁sail	-10.271
▁citizen	-10.2725
it	-10.2753
▁advance	-10.2766
▁torture	-10.2766
▁separate	-10.2767
▁solve	-10.2768
▁sew	-10.2769
▁suspicious	-10.2774
▁current	-10.2775
▁cheap	-10.2777
▁africa	-10.278
▁kev	-10.2781
▁glen	-10.2781
▁isabel	-10.2783
▁object	-10.2783
▁sara	-10.2783
▁alleluia	-10.2784
▁district	-10.2784
▁dublin	-10.2784
▁lauren	-10.2784
▁lorraine	-10.2784
▁luigi	-10.2784
▁pencil	-10.2784
▁robocop	-10.2784
▁sarge	-10.2784
▁segar	-10.2784
▁someplace	-10.2784
▁tissue	-10.2784
▁vicomte	-10.2784
▁florida	-10.2784
▁patricia	-10.2784
▁silent	-10.2784
▁dammit	-10.2784
▁ooooh	-10.2784
▁snake	-10.2784
▁precious	-10.2784
▁facility	-10.2784
▁merlin	-10.2784
▁referee	-10.2784
▁robbed	-10.2784
▁charity	-10.2784
▁freezing	-10.2784
▁fever	-10.2784
▁kinky	-10.2784
▁slut	-10.2784
▁curious	-10.2784
▁acid	-10.2784
▁judgment	-10.2784
▁bernie	-10.2784
▁therell	-10.2785
▁rabbitte	-10.2785
▁orange	-10.2785
▁wray	-10.2785
▁hence	-10.2785
▁chess	-10.2785
▁email	-10.2785
▁selfish	-10.2785
▁brianna	-10.2785
▁drill	-10.2785
▁racist	-10.2785
▁arabic	-10.2785
▁virginia	-10.2785
▁vanger	-10.2786
▁role	-10.2786
▁bread	-10.2786
▁clive	-10.2786
▁te	-10.2786
▁collection	-10.2786
▁unlike	-10.2786
▁soup	-10.2786
▁quarter	-10.2786
▁foul	-10.2787
▁fore	-10.2787
▁socialist	-10.2787
▁stillwater	-10.2788
▁crush	-10.2788
▁hurst	-10.2788
▁archer	-10.2789
▁robbery	-10.2789
▁tries	-10.2789
▁laughter	-10.279
▁darkness	-10.279
▁homicide	-10.2791
▁coast	-10.2792
▁retarded	-10.2793
▁bout	-10.2794
▁stable	-10.2795
▁threatened	-10.2797
▁hath	-10.2797
▁embarrassed	-10.2798
▁naturally	-10.2799
▁shy	-10.28
▁connected	-10.28
▁passion	-10.2801
▁embarrassing	-10.2804
▁passes	-10.2806
▁prize	-10.2807
▁brakes	-10.2808
▁sobs	-10.2808
▁bully	-10.2811
rich	-10.2813
▁gotcha	-10.2814
▁souls	-10.2815
▁shocked	-10.2819
▁spy	-10.282
▁smarter	-10.2824
▁entirely	-10.2824
▁jt	-10.2825
▁successful	-10.2826
▁down	-10.2828
▁guide	-10.2829
▁quote	-10.2836
▁hates	-10.2845
▁nash	-10.2846
ge	-10.2848
▁makeup	-10.2849
▁sales	-10.2849
▁dings	-10.2851
▁mentioned	-10.2865
▁wasted	-10.287
▁gloves	-10.2874
▁joined	-10.2876
▁putman	-10.2888
ay	-10.2889
▁rot	-10.2897
▁goodness	-10.2931
▁leading	-10.2932
▁y	-10.2939
▁tend	-10.2939
▁refuse	-10.2942
▁landing	-10.2944
▁gin	-10.2953
▁moves	-10.2958
ily	-10.2966
▁kissed	-10.2977
▁messing	-10.2981
▁bra	-10.2986
▁gr	-10.302
▁eliminate	-10.302
▁si	-10.3046
▁admire	-10.3051
▁sub	-10.3075
▁bones	-10.3083
▁teachers	-10.3085
yeh	-10.3093
▁trusted	-10.3119
▁stands	-10.3138
▁bake	-10.315
▁lin	-10.3165
res	-10.318
▁hoped	-10.3187
▁guards	-10.3188
▁sa	-10.3191
▁georg	-10.3206
▁drivers	-10.3211
▁fart	-10.3219
▁houses	-10.3236
▁dudes	-10.3252
▁charges	-10.3276
▁creep	-10.328
▁spirits	-10.3283
ts	-10.3307
▁flip	-10.3314
▁measure	-10.332
▁services	-10.3324
▁concern	-10.333
▁medi	-10.3334
▁bride	-10.3343
▁lab	-10.3345
▁viking	-10.3348
▁blade	-10.3349
▁sh	-10.3349
▁album	-10.3352
▁wrist	-10.3352
▁arrangement	-10.3352
▁grenade	-10.3356
▁saddam	-10.3359
▁hurting	-10.3376
▁banks	-10.3378
▁stranger	-10.3382
over	-10.3387
▁prayer	-10.3388
▁collect	-10.3415
▁stock	-10.3422
▁tai	-10.3429
▁cheer	-10.3431
▁flash	-10.3432
▁wins	-10.3433
down	-10.3437
▁commission	-10.3438
▁fires	-10.3442
▁appeal	-10.345
▁proceed	-10.3455
▁le	-10.3456
▁speaker	-10.3457
▁earn	-10.3462
▁succeed	-10.3468
▁intend	-10.3469
field	-10.347
▁cases	-10.3477
king	-10.348
▁brand	-10.3481
▁remove	-10.3482
▁sneak	-10.3482
▁guilt	-10.3484
▁rick	-10.3488
▁curse	-10.349
boy	-10.3492
ittie	-10.3493
▁environment	-10.3494
▁sandwich	-10.3494
▁shove	-10.3495
▁israel	-10.3495
▁ba	-10.3498
▁plug	-10.3498
▁background	-10.3498
▁balkan	-10.3498
▁celeste	-10.3498
▁champagne	-10.3498
▁domergue	-10.3498
▁eskimo	-10.3498
▁hartigan	-10.3498
▁jamshidi	-10.3498
▁klaus	-10.3498
▁perrkins	-10.3498
▁ramirez	-10.3498
▁routine	-10.3498
▁rykov	-10.3498
▁tattoo	-10.3498
▁vogelmann	-10.3498
▁coincidence	-10.3498
▁jeez	-10.3498
▁remote	-10.3498
▁celebrating	-10.3499
▁jenni	-10.3499
▁kidnapped	-10.3499
▁domino	-10.3499
▁natalie	-10.3499
▁identity	-10.3499
▁display	-10.3499
▁gallery	-10.3499
▁ritter	-10.3499
▁museum	-10.3499
▁waitress	-10.3499
▁doorbell	-10.3499
▁peder	-10.3499
▁fridge	-10.3499
▁starving	-10.3499
▁performance	-10.3499
▁chocolate	-10.3499
▁delicious	-10.3499
▁giant	-10.3499
▁garage	-10.3499
▁library	-10.3499
▁yis	-10.3499
▁beast	-10.3499
▁network	-10.3499
▁crackling	-10.3499
▁nonsense	-10.3499
▁nephew	-10.3499
▁argh	-10.35
▁decent	-10.35
▁headmaster	-10.35
▁psychiatrist	-10.35
▁capable	-10.35
▁arse	-10.35
▁technically	-10.35
▁brick	-10.35
▁pub	-10.3501
▁panic	-10.3501
▁solo	-10.3501
▁booth	-10.3502
▁tiny	-10.3502
▁bleedin	-10.3503
▁clattering	-10.3503
▁pancakes	-10.3504
▁moss	-10.3504
▁pin	-10.3506
▁hopefully	-10.3507
▁ballistic	-10.3508
▁arranged	-10.3509
▁not	-10.3512
▁bash	-10.3513
▁rice	-10.3514
▁discovered	-10.3517
▁pullman	-10.3518
▁cells	-10.3523
▁warned	-10.3524
▁delivery	-10.3527
▁challenge	-10.3533
▁chips	-10.3535
▁reds	-10.3535
▁herod	-10.3536
▁meantime	-10.3546
▁raped	-10.3547
▁bells	-10.3553
▁shatters	-10.3555
▁ro	-10.3557
▁spare	-10.3558
▁fe	-10.3559
▁escaped	-10.3559
▁wounded	-10.3561
▁deserved	-10.3568
▁rob	-10.3578
▁recorder	-10.3587
▁yous	-10.3588
▁shown	-10.3601
▁steel	-10.3605
▁chicks	-10.3607
▁slaves	-10.3607
▁kenn	-10.3612
▁port	-10.3614
▁windows	-10.3624
▁reported	-10.3638
ious	-10.3659
lousy	-10.3665
▁seats	-10.3689
▁multipl	-10.369
▁ida	-10.3698
▁workin	-10.3698
▁recording	-10.3713
▁pat	-10.3713
▁deed	-10.3717
▁nightmares	-10.3721
▁criminals	-10.3752
▁angels	-10.3753
▁walks	-10.3809
▁familys	-10.381
▁deadly	-10.3828
▁eggs	-10.3842
▁bombs	-10.3848
▁prim	-10.3849
▁hu	-10.3853
pe	-10.3864
▁picking	-10.3881
▁cla	-10.3892
▁app	-10.3899
▁sue	-10.3905
▁pointed	-10.3912
ha	-10.3928
▁actions	-10.3943
▁iron	-10.3949
▁aid	-10.3953
▁merci	-10.3953
▁sc	-10.3956
▁mar	-10.3965
▁finds	-10.397
▁homer	-10.3973
▁su	-10.3974
▁strip	-10.3996
▁unh	-10.402
▁col	-10.4037
▁messages	-10.4069
way	-10.407
you	-10.4074
▁kr	-10.4079
▁sentence	-10.4092
▁leak	-10.4094
▁z	-10.41
ped	-10.4106
▁sacrifice	-10.4108
▁charlotte	-10.411
▁andrew	-10.4111
▁broad	-10.4114
▁lap	-10.4115
▁steak	-10.4117
▁cheek	-10.4117
▁kidnapper	-10.4117
▁stake	-10.4119
▁manning	-10.4119
▁bo	-10.412
▁pattern	-10.4122
▁candle	-10.4125
▁warn	-10.4126
▁medal	-10.4128
▁customer	-10.413
▁season	-10.4132
▁toy	-10.4135
▁sandy	-10.4143
▁slap	-10.4162
▁attempt	-10.419
▁cabin	-10.419
▁ye	-10.4192
end	-10.4205
▁pour	-10.4207
▁respond	-10.422
▁supply	-10.422
▁float	-10.4224
▁spin	-10.4224
▁cr	-10.4229
▁karl	-10.4239
▁insist	-10.4239
▁vic	-10.4243
▁divorce	-10.425
▁tune	-10.4251
▁marquis	-10.4254
▁random	-10.4256
▁absolute	-10.4259
▁trail	-10.4265
▁alcohol	-10.4266
▁chop	-10.4267
▁painful	-10.4268
▁agency	-10.4268
▁assault	-10.4268
▁attitude	-10.4268
▁benjamin	-10.4268
▁blomkvist	-10.4268
▁cocaine	-10.4268
▁cornwallis	-10.4268
▁custody	-10.4268
▁delilah	-10.4268
▁elena	-10.4268
▁envelope	-10.4268
▁escort	-10.4268
▁gabriel	-10.4268
▁impact	-10.4268
▁katherine	-10.4268
▁kekambas	-10.4268
▁nightingale	-10.4268
▁oscar	-10.4268
▁palancio	-10.4268
▁patience	-10.4268
▁privacy	-10.4268
▁renate	-10.4268
▁valuable	-10.4268
▁vomit	-10.4268
▁willard	-10.4268
▁awkward	-10.4268
▁crisis	-10.4268
▁neighbourhood	-10.4268
▁bulgarian	-10.4268
▁cabrini	-10.4268
▁collapse	-10.4268
▁international	-10.4268
▁thomas	-10.4268
▁kyle	-10.4268
▁pilot	-10.4268
▁colleague	-10.4268
▁solid	-10.4268
▁uncomfortable	-10.4268
▁spud	-10.4268
▁giovanni	-10.4268
▁lipstick	-10.4268
▁solomon	-10.4268
▁alfredo	-10.4268
▁octopus	-10.4268
▁owns	-10.4268
▁jason	-10.4268
▁skull	-10.4268
▁jaysis	-10.4268
▁misery	-10.4268
▁abra	-10.4268
▁roark	-10.4268
▁loyal	-10.4268
▁trumpet	-10.4268
▁pride	-10.4268
▁padre	-10.4268
▁filthy	-10.4268
▁laundry	-10.4268
▁cort	-10.4268
▁notebook	-10.4268
▁pickett	-10.4269
▁infection	-10.4269
▁profile	-10.4269
▁practical	-10.4269
▁loving	-10.4269
▁sammy	-10.4269
▁fellow	-10.4269
▁gladys	-10.4269
▁priority	-10.427
▁inches	-10.427
▁silence	-10.427
▁critical	-10.427
▁ew	-10.427
▁selena	-10.427
▁piace	-10.4271
▁grass	-10.4271
▁package	-10.4271
▁labor	-10.4271
▁whatre	-10.4272
▁steady	-10.4272
▁heil	-10.4272
▁african	-10.4272
▁speedman	-10.4273
▁senator	-10.4274
▁construction	-10.4275
▁exhausted	-10.4275
▁quality	-10.4276
▁treatment	-10.4276
▁committed	-10.4276
▁connie	-10.4277
▁stream	-10.4278
▁currently	-10.4279
▁andy	-10.4279
▁growling	-10.428
▁noble	-10.428
▁pam	-10.4283
▁moaning	-10.4284
▁properly	-10.4285
▁afterwards	-10.4285
▁bollocks	-10.4285
▁joker	-10.4285
▁cl	-10.4288
▁wicked	-10.4288
▁safer	-10.4316
▁lungs	-10.433
▁county	-10.4332
▁site	-10.4335
▁freaked	-10.434
▁farmer	-10.4345
▁results	-10.4351
▁uhh	-10.4355
▁messy	-10.4358
at	-10.4362
▁mc	-10.4363
▁highly	-10.4368
▁asses	-10.4369
▁traveling	-10.437
▁fishing	-10.437
▁pretending	-10.4372
▁lit	-10.4382
▁playin	-10.4384
four	-10.4389
▁meds	-10.4393
▁cooking	-10.4395
▁bills	-10.4406
▁arab	-10.4414
▁grad	-10.4417
▁strangers	-10.4422
▁slice	-10.4426
se	-10.4426
▁effects	-10.443
▁messed	-10.4433
▁untie	-10.4436
▁rebels	-10.4441
▁packing	-10.4442
▁imma	-10.4443
▁extract	-10.4447
▁oil	-10.4463
▁announce	-10.4472
▁parking	-10.4475
erial	-10.4477
▁shoulders	-10.4505
▁projects	-10.452
▁cleaned	-10.4525
▁com	-10.4533
▁mix	-10.4533
▁friendly	-10.4544
mo	-10.455
ra	-10.4552
▁guests	-10.4554
ler	-10.4564
ling	-10.4564
▁nations	-10.4577
▁bend	-10.4577
▁minnies	-10.4588
▁blows	-10.4593
▁somethings	-10.4606
▁bangs	-10.4613
▁q	-10.4619
▁answering	-10.4624
go	-10.4629
sible	-10.4641
▁shooter	-10.466
ors	-10.467
▁lan	-10.4671
▁accounts	-10.4691
well	-10.4698
▁fo	-10.4738
▁fin	-10.4744
▁targets	-10.4748
▁jokes	-10.4784
▁mass	-10.4803
▁cap	-10.4809
▁primar	-10.483
▁ban	-10.4862
▁attend	-10.4871
▁x	-10.4879
ize	-10.4909
▁usa	-10.4909
▁represent	-10.4914
▁wrap	-10.4914
▁award	-10.4915
▁occasion	-10.4929
▁bond	-10.4929
▁weigh	-10.4937
▁towel	-10.4943
▁cottage	-10.4943
▁holiday	-10.4943
▁belief	-10.4943
▁commit	-10.4944
▁li	-10.4947
▁garrett	-10.495
▁sl	-10.4952
▁vampire	-10.4955
cking	-10.4956
▁commercial	-10.4957
▁pipe	-10.4959
▁thinkin	-10.496
▁bunker	-10.4962
▁evan	-10.4962
▁degree	-10.4963
▁hostage	-10.4966
▁andrea	-10.4966
▁beside	-10.4968
▁manner	-10.4973
▁yards	-10.4984
▁dancer	-10.4989
▁tone	-10.4996
▁lip	-10.5004
▁rifle	-10.5012
▁skip	-10.5017
▁resist	-10.5028
▁hopes	-10.5028
▁ron	-10.5033
▁applaud	-10.5059
▁inform	-10.5064
▁lick	-10.5064
▁rack	-10.5067
▁monitor	-10.5072
▁stress	-10.5072
mouth	-10.5078
io	-10.508
stal	-10.5082
▁crawl	-10.5083
▁describe	-10.5083
▁salt	-10.5089
▁kuwait	-10.5091
▁interrupt	-10.5093
▁dispatch	-10.5096
▁earl	-10.5099
▁stew	-10.51
▁thin	-10.5101
▁hawk	-10.5101
▁anniversary	-10.5101
▁becoming	-10.5101
▁behave	-10.5101
▁bollix	-10.5101
▁cameroon	-10.5101
▁cawdor	-10.5101
▁cocksucker	-10.5101
▁conflict	-10.5101
▁constant	-10.5101
▁industry	-10.5101
▁kijung	-10.5101
▁liquid	-10.5101
▁marybeth	-10.5101
▁mexican	-10.5101
▁morgue	-10.5101
▁mysterious	-10.5101
▁opposite	-10.5101
▁pardon	-10.5101
▁pulse	-10.5101
▁raccoon	-10.5101
▁relieved	-10.5101
▁retirement	-10.5101
▁suspended	-10.5101
▁sydney	-10.5101
▁therapist	-10.5101
▁vasquez	-10.5101
▁veronika	-10.5101
▁wegener	-10.5101
▁wiesler	-10.5101
▁confidence	-10.5101
▁denzel	-10.5101
▁uhuh	-10.5101
▁drove	-10.5101
▁harvard	-10.5101
▁memories	-10.5101
▁purple	-10.5101
▁hauser	-10.5101
▁hanlon	-10.5101
▁pounce	-10.5101
▁pratt	-10.5101
▁plastic	-10.5101
▁circus	-10.5101
▁presence	-10.5101
▁stabbed	-10.5101
▁journey	-10.5101
▁juggernaut	-10.5101
▁begbie	-10.5101
▁norway	-10.5101
▁cocktail	-10.5101
▁saint	-10.5101
▁morocco	-10.5101
▁poem	-10.5101
▁estate	-10.5101
▁similar	-10.5101
▁anger	-10.5101
▁screeches	-10.5101
▁shotgun	-10.5101
▁inspector	-10.5101
▁salad	-10.5101
▁outfit	-10.5101
▁kidnapping	-10.5101
▁mossad	-10.5101
▁sandra	-10.5101
▁crew	-10.5101
▁poppa	-10.5102
▁passport	-10.5102
▁capital	-10.5102
▁tenderness	-10.5102
▁embassy	-10.5102
▁series	-10.5102
▁wagon	-10.5102
▁happiness	-10.5102
▁france	-10.5102
▁gratitude	-10.5102
▁powder	-10.5102
▁retired	-10.5102
▁authority	-10.5103
▁sensitive	-10.5103
▁yelping	-10.5103
▁fox	-10.5103
▁activated	-10.5103
▁derry	-10.5104
▁trap	-10.5104
▁mentor	-10.5105
▁takin	-10.5105
▁management	-10.5106
▁gim	-10.5106
▁political	-10.5106
▁barber	-10.5106
▁peterson	-10.5107
▁marty	-10.5107
▁cue	-10.5107
▁quid	-10.5107
▁hitler	-10.5108
▁roaring	-10.5109
▁personality	-10.511
▁angelo	-10.5111
▁registered	-10.5112
▁convicted	-10.5112
▁whack	-10.5112
▁disappointed	-10.5114
▁wipe	-10.5117
▁damaged	-10.5117
▁thus	-10.5117
▁whistle	-10.5118
▁steam	-10.5123
▁burnt	-10.5124
▁booze	-10.5125
▁removed	-10.5125
right	-10.5127
▁granted	-10.5128
▁settled	-10.5129
▁drowned	-10.513
▁whys	-10.5131
▁stutters	-10.5132
▁express	-10.5132
▁louder	-10.5133
▁can	-10.5138
▁poet	-10.5138
▁poisoned	-10.5141
▁pouring	-10.5143
▁aerobics	-10.5145
▁ages	-10.5145
▁fink	-10.5146
▁cruel	-10.5149
▁swor	-10.5151
▁fu	-10.5152
▁focused	-10.5156
▁religio	-10.5158
▁reminded	-10.5159
▁grant	-10.516
▁busted	-10.5162
▁pelts	-10.5168
▁emotions	-10.5168
▁meters	-10.5169
▁rape	-10.5178
▁relatives	-10.518
▁wings	-10.5192
▁med	-10.5199
▁jews	-10.5205
▁civilians	-10.5205
▁equal	-10.5226
▁pole	-10.5229
▁searching	-10.523
▁guts	-10.5232
v	-10.5241
▁tale	-10.5242
▁til	-10.5248
tter	-10.5254
▁photo	-10.5259
▁bothering	-10.5266
▁mere	-10.5278
▁sting	-10.5278
sh	-10.528
▁enjoyed	-10.5281
▁mob	-10.5305
▁fashion	-10.5313
▁unc	-10.5316
op	-10.5321
▁diamonds	-10.534
▁odds	-10.5352
ons	-10.5366
▁films	-10.5377
▁grave	-10.5387
▁journal	-10.5392
hand	-10.5397
sa	-10.541
▁jane	-10.5421
▁tri	-10.5422
▁demons	-10.5426
▁patients	-10.5439
▁tan	-10.545
▁throwing	-10.5485
▁hei	-10.5491
▁becomes	-10.5528
ms	-10.5537
fucking	-10.5544
▁sticks	-10.5576
▁caused	-10.558
ette	-10.5591
▁za	-10.5612
▁pio	-10.5615
▁gut	-10.5648
▁funk	-10.5652
▁associate	-10.5657
do	-10.5676
havin	-10.5697
▁blocks	-10.5703
▁gar	-10.5716
▁or	-10.5732
▁hoo	-10.5733
▁pays	-10.5738
ator	-10.5755
▁hai	-10.5763
▁fits	-10.5765
▁scout	-10.5777
▁br	-10.5777
▁pointing	-10.5789
▁print	-10.579
▁leads	-10.5791
▁cow	-10.5802
▁reckon	-10.5803
▁reward	-10.5826
stic	-10.5831
▁nov	-10.584
▁clubs	-10.5844
▁donovan	-10.5852
▁fee	-10.5852
▁tank	-10.5858
▁wears	-10.5859
▁principle	-10.5859
tive	-10.5862
▁israeli	-10.5862
▁exercise	-10.5863
▁maniac	-10.5863
▁standard	-10.5864
▁chick	-10.5868
▁charm	-10.5868
▁demand	-10.5868
▁skill	-10.5875
▁bean	-10.5876
▁chuckle	-10.5878
▁root	-10.5879
▁flower	-10.5894
▁slave	-10.5901
▁platt	-10.5926
▁myth	-10.5931
▁bow	-10.5936
▁drown	-10.5943
▁gather	-10.5944
just	-10.5945
▁pale	-10.5946
▁scratch	-10.5963
▁drift	-10.5969
▁deny	-10.598
▁review	-10.598
board	-10.5982
▁prep	-10.5985
▁replace	-10.599
▁schedule	-10.5993
▁capture	-10.5993
▁convince	-10.5993
▁cro	-10.5998
▁drama	-10.5999
▁instant	-10.5999
▁permanent	-10.6
▁slight	-10.6001
▁unfortunate	-10.6001
▁cure	-10.6003
▁actual	-10.6004
▁gain	-10.6008
▁lovin	-10.6009
▁electric	-10.6009
▁transport	-10.6009
▁stab	-10.6009
▁fifth	-10.601
▁trauma	-10.601
▁tradition	-10.601
▁avenue	-10.601
▁barbecue	-10.601
▁beulah	-10.601
▁clamoring	-10.601
▁combination	-10.601
▁contribution	-10.601
▁debbie	-10.601
▁delegates	-10.601
▁effort	-10.601
▁entry	-10.601
▁fantastic	-10.601
▁flew	-10.601
▁iliad	-10.601
▁inhabit	-10.601
▁instrument	-10.601
▁jassie	-10.601
▁kaspbrak	-10.601
▁klimek	-10.601
▁lancelot	-10.601
▁pistol	-10.601
▁principal	-10.601
▁rainbow	-10.601
▁rocknroll	-10.601
▁scordia	-10.601
▁somewhat	-10.601
▁superior	-10.601
▁television	-10.601
▁underground	-10.601
▁unhappy	-10.601
▁vanessa	-10.601
▁warrior	-10.601
▁widow	-10.601
▁wilkes	-10.601
▁zadie	-10.601
▁melvin	-10.601
▁stazek	-10.601
▁sausage	-10.601
▁speer	-10.601
▁wrestling	-10.601
▁accent	-10.601
▁convoy	-10.601
▁drain	-10.601
▁combat	-10.601
▁session	-10.601
▁alert	-10.601
▁humming	-10.601
▁complex	-10.601
▁elysium	-10.601
▁puppy	-10.601
▁individual	-10.601
▁shrine	-10.601
▁darius	-10.601
▁rubber	-10.601
▁crab	-10.601
vious	-10.601
▁shelter	-10.601
▁collar	-10.601
▁ouch	-10.601
▁susan	-10.601
▁heavyweight	-10.601
▁bobbi	-10.601
▁authorities	-10.601
▁freddy	-10.601
▁chapter	-10.601
▁roach	-10.601
▁lyle	-10.601
▁activity	-10.6011
▁begun	-10.6011
▁existence	-10.6011
▁leonard	-10.6011
▁scotch	-10.6011
▁bount	-10.6011
▁horseshit	-10.6011
▁barlow	-10.6011
▁blast	-10.6011
▁grabbed	-10.6011
▁punishment	-10.6011
▁section	-10.6011
▁failure	-10.6011
▁development	-10.6011
▁buddies	-10.6011
▁georgia	-10.6011
▁karen	-10.6011
▁madison	-10.6011
▁objective	-10.6011
▁iove	-10.6011
▁aight	-10.6011
▁electricity	-10.6011
▁content	-10.6011
▁olivia	-10.6011
▁stroke	-10.6011
▁xforce	-10.6011
▁brace	-10.6011
▁alpha	-10.6011
▁burst	-10.6012
▁fiction	-10.6012
▁ridgeman	-10.6012
▁generous	-10.6012
▁motion	-10.6012
▁lindo	-10.6012
▁jaw	-10.6012
▁sharing	-10.6012
▁blonde	-10.6012
▁beings	-10.6012
▁russo	-10.6013
▁housekeeper	-10.6013
▁forth	-10.6013
▁jayne	-10.6013
▁danceny	-10.6013
▁massage	-10.6014
▁gazza	-10.6014
▁scale	-10.6014
▁jazz	-10.6014
▁cooperate	-10.6014
▁celebrity	-10.6014
▁denied	-10.6014
▁agreement	-10.6014
ble	-10.6014
▁fax	-10.6015
▁diggy	-10.6015
▁temple	-10.6015
▁plain	-10.6016
▁surrounded	-10.6017
▁warden	-10.6017
▁taxes	-10.6017
▁task	-10.6017
▁scientists	-10.6018
▁yelps	-10.6018
▁halt	-10.6018
▁brad	-10.6018
▁chosen	-10.6018
rumme	-10.602
▁wise	-10.6021
▁pecker	-10.6022
▁gage	-10.6023
▁barking	-10.6025
▁ability	-10.6026
▁obsessed	-10.6027
▁choking	-10.6028
▁recommended	-10.603
▁clatters	-10.6031
▁tossed	-10.6031
me	-10.6032
▁culture	-10.6034
▁carries	-10.6034
ex	-10.6035
▁invented	-10.6035
▁roman	-10.6035
▁scott	-10.6036
▁needle	-10.604
▁cursed	-10.6042
▁carson	-10.6043
▁insects	-10.6044
▁mixed	-10.6046
▁clicking	-10.6046
▁tables	-10.6047
▁goodnight	-10.6048
▁normally	-10.6049
▁germany	-10.605
▁pr	-10.6053
▁cheated	-10.6057
▁employees	-10.6057
▁bucky	-10.6061
▁driven	-10.6062
▁drawer	-10.6068
▁wishes	-10.6074
▁ri	-10.6077
▁eatin	-10.6085
▁deer	-10.6087
▁bowling	-10.6089
▁citizens	-10.6092
▁vi	-10.6093
▁suspected	-10.6096
▁entering	-10.6096
▁painter	-10.6098
▁mat	-10.61
▁belonged	-10.6102
▁chi	-10.6111
▁suggesting	-10.6113
▁washing	-10.6114
▁shared	-10.6121
▁lighter	-10.6133
▁options	-10.6137
▁blocked	-10.614
▁matty	-10.6148
▁degrees	-10.6164
▁rub	-10.6165
▁feeding	-10.6169
▁landed	-10.617
▁mountains	-10.6173
que	-10.6178
▁las	-10.6183
▁net	-10.6188
ul	-10.6193
▁prayers	-10.62
▁gum	-10.62
▁dressing	-10.6201
▁nut	-10.6208
▁visiting	-10.621
▁bands	-10.622
▁inmates	-10.6232
▁pend	-10.6237
▁waitin	-10.6262
▁stinks	-10.6273
▁sins	-10.6275
▁dreamed	-10.6289
wrapped	-10.6291
▁boxing	-10.6292
▁trains	-10.6292
▁shouts	-10.6301
▁shellie	-10.6301
▁tire	-10.6324
▁worker	-10.6335
▁values	-10.6341
▁cal	-10.6349
▁russians	-10.6354
▁cub	-10.6394
▁aliens	-10.6395
▁wounds	-10.6424
▁elses	-10.6424
▁needles	-10.6431
▁am	-10.6432
▁ab	-10.645
▁rang	-10.6462
▁propose	-10.6465
cile	-10.6481
▁hills	-10.6502
ow	-10.6504
▁hats	-10.6527
▁wanting	-10.6536
▁files	-10.6544
ight	-10.6545
▁monkeys	-10.6547
side	-10.6555
▁professionals	-10.6561
no	-10.6562
▁schools	-10.66
▁questioning	-10.66
ular	-10.6623
▁mud	-10.668
▁pu	-10.6681
▁worrying	-10.6728
▁fuckers	-10.6737
iest	-10.675
▁fortunate	-10.6754
owned	-10.6762
▁whip	-10.6778
▁just	-10.6787
▁she	-10.6792
▁mem	-10.6793
▁appear	-10.6795
ky	-10.6796
ory	-10.6811
▁olive	-10.6812
▁fools	-10.6818
ver	-10.6822
▁deco	-10.6831
▁observe	-10.6836
▁click	-10.6838
▁link	-10.6844
▁burns	-10.6847
▁damage	-10.685
▁feather	-10.6852
▁gangster	-10.6853
▁arrive	-10.6856
▁photograph	-10.6856
▁compliment	-10.6858
▁procedure	-10.6859
▁bogart	-10.6859
▁nerve	-10.6859
▁benefit	-10.6863
▁adult	-10.6866
▁cowboy	-10.6866
▁sunset	-10.6866
▁comrade	-10.6868
▁spider	-10.6868
▁grandmother	-10.6868
▁option	-10.6871
▁fade	-10.6885
ny	-10.6889
work	-10.6896
▁chat	-10.6903
▁bee	-10.6909
▁dat	-10.6916
▁conduct	-10.6928
▁perform	-10.694
▁spray	-10.694
▁accidental	-10.6941
▁jam	-10.6942
aiiing	-10.6949
▁glove	-10.6949
▁complain	-10.6964
▁bargain	-10.6966
▁maintain	-10.6966
book	-10.6973
▁nun	-10.6979
▁smack	-10.6979
▁invent	-10.698
▁cancel	-10.6981
ke	-10.6983
▁wreck	-10.6986
▁wick	-10.6987
▁improve	-10.6991
▁drawing	-10.6994
▁dirt	-10.6996
▁eternal	-10.6999
▁numb	-10.7002
▁soc	-10.7003
▁restrain	-10.7005
un	-10.7005
▁iris	-10.701
▁torch	-10.701
mmerung	-10.701
▁approximately	-10.701
▁burbank	-10.701
▁cafeteria	-10.701
▁cemetery	-10.701
▁centuries	-10.701
▁cheeseburger	-10.701
▁coffin	-10.701
▁concrete	-10.701
▁condolences	-10.701
▁connolly	-10.701
▁dahye	-10.701
▁device	-10.701
▁eejit	-10.701
▁ellen	-10.701
▁explanation	-10.701
▁fumitsu	-10.701
▁furniture	-10.701
▁galahad	-10.701
▁gerardo	-10.701
▁giorgio	-10.701
▁howayeh	-10.701
▁independence	-10.701
▁jorgen	-10.701
▁karbala	-10.701
▁kehoe	-10.701
▁kiwoo	-10.701
▁landscape	-10.701
▁lmelda	-10.701
▁macduff	-10.701
▁marigold	-10.701
▁messenger	-10.701
▁miserable	-10.701
▁ottavio	-10.701
▁peenalop	-10.701
▁relief	-10.701
▁rhythm	-10.701
▁shakespeare	-10.701
▁sieland	-10.701
▁symbol	-10.701
▁universe	-10.701
▁verdict	-10.701
▁whimpers	-10.701
▁worship	-10.701
▁electronic	-10.701
▁establish	-10.701
▁freddie	-10.701
▁hollywood	-10.701
▁willie	-10.701
▁audrey	-10.701
▁stasi	-10.701
▁wolf	-10.701
▁philanthropist	-10.701
▁unique	-10.701
through	-10.701
▁absence	-10.701
▁convertible	-10.701
▁gown	-10.701
▁potential	-10.701
▁cardiff	-10.701
▁lobby	-10.701
▁underwear	-10.701
▁hammond	-10.701
▁cease	-10.701
▁fascinating	-10.701
▁refrigerator	-10.701
▁cavalry	-10.701
▁leisureland	-10.701
▁nelson	-10.701
▁pervert	-10.701
▁grip	-10.701
▁hidden	-10.701
▁beeze	-10.701
▁unknown	-10.701
▁average	-10.701
▁vietnamese	-10.701
▁choir	-10.701
▁tivo	-10.701
▁austin	-10.701
▁ricca	-10.701
▁wore	-10.701
▁marino	-10.701
▁entertainment	-10.701
▁earring	-10.701
▁protest	-10.701
▁haircut	-10.7011
▁backwards	-10.7011
▁marshal	-10.7011
▁alpa	-10.7011
▁condom	-10.7011
▁upside	-10.7011
▁estonian	-10.7011
▁appropriate	-10.7011
▁blink	-10.7011
▁slipped	-10.7011
▁honking	-10.7011
▁bruce	-10.7011
▁version	-10.7011
▁hector	-10.7011
▁strategy	-10.7011
▁sympathy	-10.7011
▁slippery	-10.7011
▁knight	-10.7011
▁championship	-10.7011
cient	-10.7011
▁harper	-10.7011
▁roommate	-10.7011
▁nest	-10.7011
▁effective	-10.7011
▁knives	-10.7012
▁volume	-10.7012
▁shave	-10.7012
▁paperwork	-10.7012
▁wingman	-10.7012
▁bold	-10.7012
▁counselor	-10.7012
▁restroom	-10.7012
▁jammed	-10.7012
▁renew	-10.7012
▁deck	-10.7012
▁pension	-10.7013
▁peasant	-10.7013
ice	-10.7013
▁hump	-10.7013
▁abuse	-10.7013
▁depressed	-10.7013
▁turay	-10.7013
▁torn	-10.7013
▁bud	-10.7013
▁goddam	-10.7014
▁fries	-10.7014
▁whatll	-10.7014
▁temporar	-10.7014
▁tragedy	-10.7014
▁dickhead	-10.7014
▁european	-10.7016
▁halfway	-10.7016
▁blank	-10.7016
▁grandson	-10.7016
▁debo	-10.7016
▁assignment	-10.7016
▁cycle	-10.7016
▁facebook	-10.7017
▁shipment	-10.7017
▁inhales	-10.7018
▁accused	-10.7018
▁dumbass	-10.7019
▁ellis	-10.702
▁annoying	-10.702
▁programme	-10.702
▁dragon	-10.7021
▁stripper	-10.7021
goc	-10.7022
▁stopping	-10.7022
ina	-10.7024
▁shithole	-10.7024
▁yum	-10.7025
▁backpack	-10.7026
▁vice	-10.7026
▁stepped	-10.7029
▁bridger	-10.7029
▁scheduled	-10.703
▁captured	-10.703
▁renton	-10.703
▁bobo	-10.703
▁assist	-10.7032
▁expectations	-10.7033
gh	-10.7033
▁christian	-10.7035
▁mistaken	-10.7035
▁reasonable	-10.7035
▁forty	-10.7037
ville	-10.7038
▁booty	-10.704
▁georgie	-10.704
▁sore	-10.7042
▁mid	-10.7045
▁goodlooking	-10.7046
▁classes	-10.7047
▁boxes	-10.7047
▁payment	-10.7049
lered	-10.7049
▁gathering	-10.7053
▁highest	-10.7059
▁catches	-10.7059
▁kisses	-10.706
▁relations	-10.7062
▁parker	-10.7065
▁released	-10.7065
▁flames	-10.7065
▁stocking	-10.7065
▁petes	-10.7067
spy	-10.7074
▁mcc	-10.7074
▁muscles	-10.7077
▁skipp	-10.7078
▁frankly	-10.7081
▁tis	-10.7084
▁disturbing	-10.7085
▁experienced	-10.7086
▁hack	-10.7088
what	-10.7094
ities	-10.7097
▁christa	-10.7097
▁cuffs	-10.7098
▁assumed	-10.71
▁imagined	-10.7106
▁my	-10.7115
▁bun	-10.7119
▁smaller	-10.7121
▁terrorists	-10.7122
ck	-10.7122
▁hooked	-10.7124
▁accepted	-10.7126
▁ar	-10.714
▁kit	-10.715
▁handled	-10.7153
▁ace	-10.7158
▁bees	-10.7175
▁engineer	-10.7176
▁evans	-10.7181
▁bunkers	-10.7181
▁arabs	-10.7189
▁iran	-10.7193
▁seasons	-10.7196
▁worthy	-10.7205
the	-10.7209
▁saddams	-10.7212
▁raining	-10.7213
▁tease	-10.7218
▁grades	-10.7232
▁nails	-10.7246
▁feelin	-10.725
▁image	-10.725
▁rats	-10.7264
for	-10.7265
▁protecting	-10.7267
▁ropes	-10.7272
▁actors	-10.7275
▁workers	-10.7281
▁intention	-10.7284
▁breaks	-10.7284
▁toni	-10.7301
▁slo	-10.7305
▁bulls	-10.7381
▁tag	-10.7382
▁mamas	-10.7406
▁fighters	-10.7428
▁mol	-10.7432
am	-10.7444
▁codes	-10.7452
▁models	-10.7454
▁kar	-10.7465
▁shirts	-10.7469
▁conversations	-10.7469
▁jimmys	-10.7471
cer	-10.7487
▁checks	-10.7487
▁dip	-10.7501
ft	-10.7503
ro	-10.7518
▁nu	-10.7555
▁begins	-10.7561
▁scrap	-10.7561
ically	-10.7581
day	-10.7604
▁gra	-10.7614
▁holes	-10.7626
▁diet	-10.7636
▁ax	-10.7642
tch	-10.7658
lines	-10.7659
▁hells	-10.7662
ration	-10.7673
▁pals	-10.7673
▁pan	-10.7717
cal	-10.7718
▁paintings	-10.7732
▁easter	-10.7733
▁timer	-10.7745
▁eli	-10.7751
▁bi	-10.7765
▁yu	-10.7765
zo	-10.7766
▁blues	-10.7771
ied	-10.7793
serving	-10.7795
▁bounce	-10.7806
▁stare	-10.7807
hi	-10.7833
▁trans	-10.7857
▁design	-10.7878
hin	-10.788
▁refus	-10.7885
▁systems	-10.7889
▁persons	-10.7906
▁rox	-10.7914
▁mistakes	-10.7921
berg	-10.7935
▁sal	-10.7936
▁thrill	-10.7945
▁dome	-10.7946
ative	-10.7957
▁savage	-10.7962
▁amigo	-10.7963
▁angle	-10.7963
▁reservation	-10.7963
itt	-10.7963
▁habit	-10.7964
▁liquor	-10.7965
▁apple	-10.7965
▁balloon	-10.7971
▁jew	-10.7977
▁flea	-10.7977
▁sock	-10.7977
▁marine	-10.7979
all	-10.7982
▁generation	-10.7983
▁loan	-10.7983
▁civilian	-10.7984
▁niggers	-10.7984
▁cloud	-10.7984
▁toward	-10.7986
▁exception	-10.7988
▁ge	-10.7993
▁fears	-10.8002
▁pinky	-10.8005
▁movement	-10.8008
ake	-10.8013
▁contain	-10.8019
▁ve	-10.8028
▁publish	-10.8038
▁connect	-10.8039
▁to	-10.8041
▁spott	-10.8042
▁authentic	-10.8046
▁snap	-10.8048
▁sch	-10.805
▁jet	-10.8054
▁yen	-10.8072
▁polish	-10.8073
▁blackmail	-10.8073
▁discover	-10.8079
ward	-10.8092
▁twist	-10.8093
▁abandon	-10.8094
▁chains	-10.8095
▁rum	-10.8099
▁madam	-10.81
tin	-10.8101
loved	-10.8104
▁arrange	-10.8104
born	-10.8104
▁frame	-10.8106
▁advise	-10.8111
▁extreme	-10.8112
▁immediate	-10.8112
▁offend	-10.8112
ron	-10.8113
▁assure	-10.8116
▁potato	-10.8116
▁inter	-10.8117
▁abort	-10.8118
like	-10.8118
▁republic	-10.8119
▁civil	-10.812
▁addict	-10.812
▁assign	-10.812
▁peaceful	-10.8121
▁silk	-10.8121
▁circuit	-10.8121
▁contempt	-10.8121
▁experiment	-10.8121
▁absurd	-10.8121
▁amsterdam	-10.8121
▁anita	-10.8121
▁applause	-10.8121
▁bachelor	-10.8121
▁bartender	-10.8121
▁bologna	-10.8121
▁carpenter	-10.8121
▁cheeco	-10.8121
▁claiborne	-10.8121
▁colossus	-10.8121
▁concept	-10.8121
▁council	-10.8121
▁curtain	-10.8121
▁december	-10.8121
▁dessert	-10.8121
▁disagree	-10.8121
▁dungatar	-10.8121
▁entitled	-10.8121
▁hudson	-10.8121
▁humvee	-10.8121
▁keith	-10.8121
▁krueger	-10.8121
▁lucille	-10.8121
▁lurasetti	-10.8121
▁magnificent	-10.8121
▁majesty	-10.8121
▁michigan	-10.8121
▁moscow	-10.8121
▁nowadays	-10.8121
▁nypd	-10.8121
▁october	-10.8121
▁penalty	-10.8121
▁pretzel	-10.8121
▁promiscuous	-10.8121
▁semester	-10.8121
▁slams	-10.8121
▁sleeve	-10.8121
▁snarling	-10.8121
▁sniper	-10.8121
▁struggle	-10.8121
▁struggling	-10.8121
▁swedish	-10.8121
▁testimony	-10.8121
▁therefore	-10.8121
▁treasure	-10.8121
▁twat	-10.8121
▁warnekros	-10.8121
▁winyerp	-10.8121
▁wisdom	-10.8121
▁worries	-10.8121
▁activities	-10.8121
▁drank	-10.8121
▁entity	-10.8121
▁increase	-10.8121
▁jerska	-10.8121
▁pleasant	-10.8121
▁butterflies	-10.8121
▁libby	-10.8121
▁sperm	-10.8121
▁baroness	-10.8121
▁fargas	-10.8121
▁levy	-10.8121
▁couid	-10.8121
▁japanese	-10.8121
▁lesbian	-10.8121
▁scumbag	-10.8121
▁bloke	-10.8121
▁humiliating	-10.8121
▁sloppy	-10.8121
▁kaap	-10.8121
▁theme	-10.8121
▁curda	-10.8121
▁anytime	-10.8121
▁canada	-10.8121
▁francisco	-10.8121
▁spinning	-10.8121
▁fischer	-10.8121
▁clinic	-10.8121
▁committee	-10.8121
▁scholarship	-10.8121
▁cobb	-10.8121
▁berger	-10.8121
▁leap	-10.8121
▁edvard	-10.8121
▁samuel	-10.8121
▁connover	-10.8121
▁frozen	-10.8121
▁gilbert	-10.8121
▁lennon	-10.8121
▁oswaldo	-10.8121
▁classified	-10.8121
▁sentimental	-10.8121
▁trent	-10.8121
▁aspirin	-10.8121
▁unstable	-10.8121
▁boris	-10.8122
▁oven	-10.8122
▁kingdom	-10.8122
▁valerie	-10.8122
▁excitement	-10.8122
▁hiya	-10.8122
▁sauna	-10.8122
▁hostile	-10.8122
▁woof	-10.8122
▁status	-10.8122
▁intelligence	-10.8122
▁attractive	-10.8122
▁smiling	-10.8122
▁machete	-10.8122
▁panties	-10.8122
▁valium	-10.8122
▁clint	-10.8122
▁ripped	-10.8122
▁inevitable	-10.8122
▁species	-10.8122
▁engagement	-10.8122
▁surface	-10.8122
▁creek	-10.8122
▁resistance	-10.8122
▁youth	-10.8122
▁creative	-10.8122
▁kirk	-10.8122
▁neat	-10.8122
▁overnight	-10.8122
▁signature	-10.8122
▁gaze	-10.8122
▁marina	-10.8123
▁editor	-10.8123
▁chica	-10.8123
▁kitty	-10.8123
▁assuming	-10.8123
▁honour	-10.8123
▁reaction	-10.8124
▁lunatic	-10.8124
▁mumbling	-10.8124
▁doub	-10.8124
▁foolish	-10.8124
▁daily	-10.8124
▁guardian	-10.8124
▁exposed	-10.8124
▁detected	-10.8124
▁penis	-10.8124
▁continental	-10.8125
▁dante	-10.8125
▁smithers	-10.8125
▁survival	-10.8125
▁inner	-10.8125
▁abilities	-10.8126
▁lazy	-10.8126
▁ladder	-10.8126
▁quitting	-10.8126
▁nearby	-10.8126
bj	-10.8126
▁shush	-10.8126
▁hallway	-10.8128
▁ponch	-10.8128
▁wheezing	-10.8128
▁wander	-10.8128
▁structure	-10.8129
▁wealthy	-10.8129
▁limbo	-10.8129
▁specialist	-10.813
▁giggles	-10.8131
▁veins	-10.8131
▁castle	-10.8131
▁extremely	-10.8131
▁coma	-10.8131
▁sole	-10.8131
▁graduated	-10.8133
▁monk	-10.8133
▁vow	-10.8133
▁frey	-10.8134
▁rumor	-10.8134
▁coal	-10.8134
▁rustl	-10.8134
▁vicious	-10.8135
▁unto	-10.8136
▁richter	-10.8136
▁heroes	-10.8137
▁tension	-10.8138
▁dragged	-10.8138
▁marv	-10.8138
▁crank	-10.8139
▁suggestion	-10.814
▁react	-10.814
▁rode	-10.8142
▁hobie	-10.8143
▁sum	-10.8143
▁gomes	-10.8144
▁leda	-10.8146
▁healed	-10.8146
▁highway	-10.8146
▁developing	-10.8146
▁worthless	-10.8148
▁nearest	-10.8148
▁directly	-10.8149
▁thrilled	-10.8149
▁echoing	-10.8151
▁sacrificed	-10.8151
▁swan	-10.8152
▁rig	-10.8153
▁restore	-10.816
▁erase	-10.8161
▁fry	-10.8162
▁instructions	-10.8163
▁dicks	-10.8164
▁guaranteed	-10.8164
▁bind	-10.8165
▁ash	-10.8167
▁puke	-10.8167
▁tricky	-10.8167
▁wu	-10.8169
▁consequences	-10.818
▁passengers	-10.818
▁commitments	-10.818
▁internal	-10.8182
▁lifted	-10.8185
▁dumped	-10.8185
▁barn	-10.8193
ph	-10.8194
▁polls	-10.8196
▁reeves	-10.8196
▁pounding	-10.8198
▁suffered	-10.8199
▁impression	-10.8202
▁dish	-10.8205
▁satan	-10.8206
▁introduced	-10.8209
▁painted	-10.8211
▁walkin	-10.8212
▁lad	-10.8213
▁caii	-10.8218
▁pose	-10.822
▁and	-10.822
▁patch	-10.8222
▁dee	-10.8225
▁lance	-10.823
▁sniffs	-10.823
▁nap	-10.824
▁una	-10.8243
▁visitors	-10.8249
▁singles	-10.8254
▁homeless	-10.8263
▁ni	-10.8283
ja	-10.8292
▁shite	-10.8301
▁seek	-10.8314
hill	-10.8316
▁wondered	-10.8328
▁anne	-10.8328
▁facts	-10.8338
▁coz	-10.8345
▁joining	-10.8345
▁trainer	-10.8349
▁prom	-10.836
▁indians	-10.8365
▁buttons	-10.8365
▁camping	-10.8366
▁nazis	-10.8382
▁speakers	-10.8384
▁nicer	-10.8387
▁reed	-10.8387
▁couples	-10.8387
ical	-10.8395
▁uniforms	-10.8399
▁sis	-10.8407
▁buckle	-10.8407
▁newspapers	-10.8416
▁naive	-10.8416
▁lu	-10.8422
▁reporting	-10.8438
▁connors	-10.845
▁events	-10.845
drew	-10.8459
▁royal	-10.846
▁enjoying	-10.8467
▁tub	-10.847
▁wool	-10.8498
▁articles	-10.8501
▁answered	-10.8504
▁chap	-10.8515
ot	-10.8517
▁vehicles	-10.8518
▁scores	-10.8519
▁reminds	-10.8519
▁choke	-10.852
▁humans	-10.8524
▁lessons	-10.8539
ba	-10.8541
▁pages	-10.8552
▁tracks	-10.8555
red	-10.8579
▁smoked	-10.8598
▁lords	-10.8607
▁wakes	-10.8616
▁flu	-10.863
▁gl	-10.8632
▁drums	-10.8654
di	-10.8668
▁lifes	-10.8671
▁por	-10.8689
gro	-10.8719
cular	-10.8721
▁devils	-10.8725
▁dye	-10.8769
▁ships	-10.8775
fia	-10.8778
omin	-10.8779
▁feds	-10.8783
ogue	-10.8795
▁hob	-10.8826
▁reporters	-10.8844
▁uv	-10.8859
▁talks	-10.8877
ris	-10.8878
ude	-10.8882
▁idiots	-10.8883
▁nicks	-10.8884
ala	-10.8903
istic	-10.891
▁reasons	-10.8923
fully	-10.893
▁colors	-10.8946
▁mu	-10.8953
erry	-10.896
▁mag	-10.8975
▁handed	-10.902
▁deserves	-10.9026
▁hid	-10.9026
▁rays	-10.9028
▁motherfuckin	-10.9034
he	-10.9035
ged	-10.9046
uck	-10.9046
heck	-10.906
nn	-10.9061
▁locks	-10.9063
ai	-10.9065
▁strikes	-10.9077
▁pl	-10.9078
▁mus	-10.9079
▁stays	-10.9081
▁ahah	-10.9083
▁gren	-10.9084
▁zoo	-10.9103
om	-10.9132
nine	-10.9146
▁praise	-10.9174
▁shadow	-10.9176
▁disorder	-10.9186
▁sigh	-10.919
omber	-10.9192
▁basic	-10.9196
▁banquo	-10.9196
▁daylight	-10.9196
▁permit	-10.9198
▁adventure	-10.9198
▁how	-10.9204
ni	-10.9207
ile	-10.921
▁privilege	-10.9213
▁granny	-10.9213
▁independent	-10.9213
▁tu	-10.9214
▁soda	-10.9218
▁exam	-10.9221
▁smooth	-10.9221
▁skirt	-10.9222
▁tshirt	-10.9222
▁method	-10.9223
▁tower	-10.9224
▁investment	-10.9225
▁grandfather	-10.9225
▁survivor	-10.9226
▁candidate	-10.9227
▁costume	-10.923
▁cracker	-10.9231
▁result	-10.9233
▁terrorist	-10.9234
▁palm	-10.924
▁cookie	-10.9242
▁noon	-10.9243
▁mal	-10.9245
▁visitor	-10.9245
▁asset	-10.9251
▁here	-10.9252
tis	-10.9258
▁you	-10.9258
▁toss	-10.9259
beat	-10.9263
▁returns	-10.9264
▁ski	-10.9269
seif	-10.9278
▁declare	-10.9281
▁iet	-10.9285
rez	-10.9295
night	-10.9296
▁approach	-10.93
▁tests	-10.93
▁rank	-10.9305
▁embarrass	-10.9306
▁rolls	-10.9317
▁sucker	-10.9318
▁heal	-10.932
▁sync	-10.9335
▁grease	-10.9337
▁pimp	-10.9339
boat	-10.934
▁corrupt	-10.9341
▁betray	-10.9342
▁recommend	-10.9343
▁apply	-10.9344
▁surviv	-10.9344
hour	-10.9346
reason	-10.9348
▁of	-10.9349
▁gasp	-10.9351
▁balance	-10.9354
▁burglar	-10.9357
▁polite	-10.936
▁claus	-10.936
▁thorough	-10.936
▁terribl	-10.9361
▁recent	-10.9363
▁corn	-10.9366
▁examine	-10.9367
li	-10.9367
▁motor	-10.9367
▁reflect	-10.9369
▁corporat	-10.9369
▁asia	-10.937
rawn	-10.937
▁arrogan	-10.937
▁tur	-10.9371
▁chemical	-10.9371
▁deuce	-10.9371
▁acknowledge	-10.9371
▁afghanistan	-10.9371
▁almighty	-10.9371
▁ancestor	-10.9371
▁argument	-10.9371
▁cadei	-10.9371
▁christamaria	-10.9371
▁confusing	-10.9371
▁confusion	-10.9371
▁convincing	-10.9371
▁cusimano	-10.9371
▁depression	-10.9371
▁division	-10.9371
▁dmitri	-10.9371
▁dopinder	-10.9371
▁dwight	-10.9371
▁ethan	-10.9371
▁fabulous	-10.9371
▁floyd	-10.9371
▁foxcatcher	-10.9371
▁haberdashery	-10.9371
▁hempf	-10.9371
▁hilarious	-10.9371
▁inclined	-10.9371
▁inglewood	-10.9371
▁kaysen	-10.9371
▁kindergarten	-10.9371
▁knockemstiff	-10.9371
▁kraven	-10.9371
▁literature	-10.9371
▁lnspector	-10.9371
▁meanwhile	-10.9371
▁mexico	-10.9371
▁nuclear	-10.9371
▁occupation	-10.9371
▁offlimits	-10.9371
▁phrase	-10.9371
▁pierpont	-10.9371
▁portnoy	-10.9371
▁possibility	-10.9371
▁purchase	-10.9371
▁rattling	-10.9371
▁rehab	-10.9371
▁rewrite	-10.9371
▁satisfaction	-10.9371
▁sierra	-10.9371
▁slewitt	-10.9371
▁sunrise	-10.9371
▁technology	-10.9371
▁territory	-10.9371
▁theodore	-10.9371
▁thread	-10.9371
▁unemployed	-10.9371
▁unexpected	-10.9371
▁vejle	-10.9371
▁volanges	-10.9371
▁wallpaper	-10.9371
▁jeffrey	-10.9371
▁jersey	-10.9371
▁lexus	-10.9371
▁prevent	-10.9371
▁senor	-10.9371
▁snitch	-10.9371
▁uncertain	-10.9371
▁violate	-10.9371
▁adopt	-10.9371
▁clerk	-10.9371
▁gomez	-10.9371
▁gordon	-10.9371
▁imitate	-10.9371
▁wheelchair	-10.9371
▁wilkins	-10.9371
▁analysis	-10.9371
▁antonio	-10.9371
▁furlong	-10.9371
▁joseph	-10.9371
▁psychologist	-10.9371
▁czech	-10.9371
▁generator	-10.9371
▁greek	-10.9371
▁hiphop	-10.9371
▁draft	-10.9371
▁hunch	-10.9371
▁invasion	-10.9371
▁turtle	-10.9371
▁prague	-10.9371
▁roast	-10.9371
▁denver	-10.9371
▁babysitter	-10.9371
▁cents	-10.9371
▁chamber	-10.9371
▁oath	-10.9371
▁mailbox	-10.9371
▁eternity	-10.9371
▁mick	-10.9371
▁salvatore	-10.9371
▁specta	-10.9371
▁stroll	-10.9372
▁cotton	-10.9372
▁donald	-10.9372
▁atheist	-10.9372
▁inhaler	-10.9372
▁bunny	-10.9372
▁documentary	-10.9372
▁operating	-10.9372
▁stomp	-10.9372
▁auto	-10.9372
▁thailand	-10.9372
▁vague	-10.9372
▁rival	-10.9372
▁inviting	-10.9372
▁studied	-10.9372
▁gbaby	-10.9372
▁olson	-10.9372
▁transferred	-10.9372
▁pony	-10.9372
▁trevor	-10.9372
▁mutters	-10.9372
▁assistance	-10.9372
▁empire	-10.9372
▁sweden	-10.9372
▁debate	-10.9372
▁epic	-10.9372
▁convenient	-10.9372
easel	-10.9372
▁jules	-10.9372
▁torchia	-10.9372
▁vase	-10.9372
▁xmen	-10.9372
▁deploy	-10.9372
▁psychotic	-10.9372
▁unfair	-10.9372
▁valley	-10.9373
▁howre	-10.9373
▁keen	-10.9373
▁delete	-10.9373
▁happier	-10.9373
▁joyce	-10.9373
▁gloria	-10.9373
▁dummy	-10.9373
▁essential	-10.9373
▁fascist	-10.9373
▁ladonna	-10.9373
▁script	-10.9373
▁trophy	-10.9373
▁concert	-10.9373
▁bethany	-10.9373
▁bitten	-10.9373
▁occurred	-10.9373
▁whatsoever	-10.9373
▁rebec	-10.9374
▁teasing	-10.9374
▁leon	-10.9374
▁lockdown	-10.9374
▁chopped	-10.9374
▁soil	-10.9374
▁defendant	-10.9374
▁liberty	-10.9374
▁popped	-10.9374
▁dripping	-10.9374
▁blah	-10.9374
▁deputy	-10.9374
▁fond	-10.9374
▁alf	-10.9375
▁xman	-10.9375
▁recipe	-10.9375
▁gunfire	-10.9375
▁tonic	-10.9375
▁abortion	-10.9375
▁replacement	-10.9375
▁nineball	-10.9375
▁spank	-10.9376
▁precisely	-10.9376
▁harmless	-10.9376
▁betrayal	-10.9376
▁struck	-10.9376
▁wives	-10.9376
▁haha	-10.9376
▁dishes	-10.9377
▁demonic	-10.9377
▁gaby	-10.9377
▁religion	-10.9377
▁mode	-10.9377
▁qualified	-10.9377
▁lila	-10.9377
▁discussion	-10.9378
▁formation	-10.9378
▁ronnie	-10.9378
▁pow	-10.9378
▁teenager	-10.9379
▁dragan	-10.9379
▁coroner	-10.9379
▁knockout	-10.9379
▁slick	-10.9379
▁temper	-10.9379
▁financial	-10.9379
▁ridge	-10.9379
▁determined	-10.938
▁reina	-10.938
▁cellar	-10.938
▁motive	-10.938
▁cameron	-10.9381
▁stained	-10.9381
▁haunted	-10.9381
▁carol	-10.9381
▁dime	-10.9381
▁dc	-10.9382
▁indiana	-10.9382
▁dropping	-10.9382
▁referring	-10.9383
▁certifi	-10.9383
▁fuckedup	-10.9384
▁authorized	-10.9384
▁upper	-10.9384
▁infected	-10.9384
▁slightly	-10.9385
▁formal	-10.9385
▁madness	-10.9385
▁cody	-10.9385
▁stocker	-10.9385
▁chased	-10.9386
▁tailor	-10.9386
▁heir	-10.9386
▁adore	-10.9387
▁tender	-10.9388
▁brat	-10.9388
▁slaughtered	-10.9388
▁your	-10.9388
▁doom	-10.9388
▁engaged	-10.9389
▁angela	-10.9389
▁pudding	-10.9389
▁amongst	-10.9389
▁endure	-10.939
▁setup	-10.9391
▁sweater	-10.9391
▁crown	-10.9392
▁vl	-10.9392
▁filling	-10.9392
▁attracted	-10.9392
▁developed	-10.9392
▁smashed	-10.9392
▁spilled	-10.9392
▁ata	-10.9393
▁sealed	-10.9393
▁matches	-10.9397
▁sung	-10.9397
▁strangle	-10.9399
▁described	-10.9399
▁emma	-10.9399
▁originally	-10.94
▁twisted	-10.9403
▁forgiven	-10.9404
▁dresses	-10.9404
ial	-10.9405
▁tortured	-10.9406
▁fled	-10.9406
▁mmmm	-10.9407
▁chester	-10.9407
▁centre	-10.9409
▁playlng	-10.941
▁gathered	-10.9411
▁skiing	-10.9412
▁mari	-10.9414
▁crawled	-10.9414
▁insisted	-10.9418
▁required	-10.9419
▁engravings	-10.9419
▁resources	-10.9419
▁blown	-10.9426
▁funds	-10.943
▁rocket	-10.9431
▁ke	-10.9432
▁hor	-10.9433
▁republicans	-10.9438
▁policeman	-10.944
▁twins	-10.944
▁recognized	-10.9446
ably	-10.9451
six	-10.9452
▁ying	-10.9454
▁businessman	-10.9455
▁wars	-10.9455
▁documents	-10.9457
▁dogg	-10.9466
▁thuds	-10.9472
▁pits	-10.9473
▁breasts	-10.9476
▁catholics	-10.9476
▁stammers	-10.9476
▁abu	-10.9485
▁existed	-10.9487
▁vagina	-10.9487
▁stoned	-10.9491
▁quietly	-10.9492
▁cd	-10.9495
▁dealt	-10.9495
▁sucked	-10.9522
▁jumped	-10.9528
▁mace	-10.9532
▁conn	-10.9533
▁ay	-10.9533
stan	-10.9534
▁generations	-10.9534
▁safely	-10.9541
▁pressed	-10.9543
▁sides	-10.9544
iii	-10.9549
▁nuns	-10.9551
▁sk	-10.9555
▁bothered	-10.9557
▁we	-10.9559
▁diane	-10.9561
decker	-10.9562
▁beans	-10.957
▁cows	-10.9575
▁visited	-10.9576
▁interviewed	-10.9584
▁harrys	-10.9585
ural	-10.9587
▁barb	-10.9589
lapping	-10.9591
▁hein	-10.9602
▁manners	-10.9602
▁honored	-10.9607
dian	-10.961
▁customers	-10.9612
more	-10.9615
▁heii	-10.9618
▁racin	-10.9625
▁pins	-10.9628
▁tools	-10.9629
▁concerns	-10.9631
▁closely	-10.9639
▁wing	-10.964
▁hay	-10.9653
▁fooling	-10.9685
▁wheels	-10.9689
▁smelled	-10.9705
▁boots	-10.9708
▁fetch	-10.9719
▁shin	-10.9722
▁mirrors	-10.9747
▁tips	-10.9747
▁callin	-10.9749
oc	-10.9764
▁stev	-10.9769
▁gal	-10.9813
▁billie	-10.9817
▁desires	-10.9825
▁listened	-10.9847
ubl	-10.9853
▁covering	-10.9859
▁characters	-10.9864
▁rec	-10.9866
▁deposit	-10.987
▁understanding	-10.9873
▁sources	-10.9884
▁comments	-10.9898
▁believes	-10.9935
tal	-10.9935
den	-10.9938
▁ei	-10.9946
▁exists	-10.9965
ology	-10.9966
▁deaths	-10.9978
▁ci	-10.9988
▁ding	-10.9999
▁asks	-11.0009
▁waters	-11.0014
▁wires	-11.002
▁medic	-11.0033
ade	-11.0041
▁fl	-11.0045
ko	-11.0058
▁her	-11.0061
▁slim	-11.0078
▁bottles	-11.0083
▁attacks	-11.0085
▁beers	-11.0095
▁relationships	-11.0103
▁cats	-11.0117
▁understands	-11.0117
ties	-11.0131
▁tube	-11.0167
▁mortal	-11.0167
▁revolution	-11.0173
ther	-11.0183
▁costs	-11.0185
▁pricks	-11.0204
ana	-11.0206
▁groups	-11.0209
▁dre	-11.0211
dell	-11.0218
stro	-11.0241
▁engines	-11.0269
▁fre	-11.027
▁ac	-11.027
▁mac	-11.0276
▁shoots	-11.028
▁fields	-11.0284
▁whores	-11.0285
▁cooler	-11.0293
▁cousins	-11.0305
▁ghosts	-11.0305
▁mon	-11.0313
▁bears	-11.0339
▁governments	-11.0346
▁gag	-11.0356
▁distan	-11.0359
▁davids	-11.0366
pot	-11.0367
if	-11.0368
▁batt	-11.0408
▁spark	-11.0419
▁gu	-11.0426
▁bug	-11.0431
▁eds	-11.0437
▁rag	-11.0454
my	-11.0461
▁winds	-11.047
▁gall	-11.048
rk	-11.0488
nder	-11.0531
cat	-11.054
▁dim	-11.0564
shed	-11.0573
ked	-11.0587
▁depend	-11.059
ista	-11.0604
▁limit	-11.0618
▁sniff	-11.0618
five	-11.0618
tz	-11.0622
▁cared	-11.0622
▁length	-11.0625
▁satellite	-11.0625
▁tunnel	-11.0625
▁bot	-11.0625
▁communist	-11.0626
▁cough	-11.0628
▁grunt	-11.0632
ups	-11.0635
▁stall	-11.0635
▁photographer	-11.0636
lay	-11.0638
▁anyways	-11.064
▁cliff	-11.0642
▁junkie	-11.0644
▁mutant	-11.0649
▁sheet	-11.0652
▁thug	-11.0653
▁snack	-11.0653
ri	-11.0653
ol	-11.0655
▁moron	-11.0656
▁jean	-11.0657
▁burger	-11.0659
▁deals	-11.0662
▁relative	-11.0663
▁mg	-11.0667
▁toe	-11.0671
▁hunter	-11.0672
▁sale	-11.0677
back	-11.068
ability	-11.0681
▁weirdo	-11.0685
▁disgrace	-11.0688
▁belle	-11.0689
two	-11.0693
▁lust	-11.0707
▁ol	-11.0712
ze	-11.0721
▁troubles	-11.0723
▁chew	-11.0735
looking	-11.0735
▁threaten	-11.0736
form	-11.0746
▁buzz	-11.0751
▁scot	-11.0751
tech	-11.0757
▁recover	-11.0757
▁expand	-11.0761
▁porn	-11.0761
▁echo	-11.0761
style	-11.0762
▁manifest	-11.0768
▁defeat	-11.0769
▁obsess	-11.077
▁accomplish	-11.077
▁dock	-11.077
lor	-11.077
▁whistl	-11.0771
ite	-11.0773
load	-11.0774
coat	-11.0778
▁google	-11.0778
▁disguise	-11.0781
▁locate	-11.0781
▁achieve	-11.0784
▁engage	-11.0784
▁americas	-11.0785
playing	-11.0786
▁glob	-11.0788
▁execute	-11.0789
▁ultimate	-11.0789
▁incredibl	-11.0789
▁strict	-11.079
called	-11.0792
esley	-11.0793
▁vincen	-11.0793
▁australia	-11.0795
▁flam	-11.0795
▁peach	-11.0796
▁plum	-11.0796
▁invi	-11.0798
▁conscious	-11.0799
▁marsh	-11.0799
▁terror	-11.0799
▁basket	-11.08
▁zip	-11.08
▁ammunition	-11.08
▁anonymous	-11.08
▁anxious	-11.08
▁approval	-11.08
▁autopsy	-11.08
▁bastide	-11.08
▁behaviour	-11.08
▁believing	-11.08
▁cabbage	-11.08
▁cadillac	-11.08
▁calendar	-11.08
▁capacity	-11.08
▁corporal	-11.08
▁defensive	-11.08
▁diabolical	-11.08
▁dyke	-11.08
▁eager	-11.08
▁edinburgh	-11.08
▁equation	-11.08
▁error	-11.08
▁exhusband	-11.08
▁external	-11.08
▁fergus	-11.08
▁ghetto	-11.08
▁giggling	-11.08
▁goldenbeard	-11.08
▁harridene	-11.08
▁helium	-11.08
▁horror	-11.08
▁inappropriate	-11.08
▁kruger	-11.08
▁lindsay	-11.08
▁lisbeth	-11.08
▁memorial	-11.08
▁november	-11.08
▁offensive	-11.08
▁oklahoma	-11.08
▁pitiful	-11.08
▁radar	-11.08
▁reich	-11.08
▁resolve	-11.08
▁rubbish	-11.08
▁salvy	-11.08
▁scenario	-11.08
▁shampoo	-11.08
▁surveillance	-11.08
▁terrified	-11.08
▁thief	-11.08
▁tournament	-11.08
▁vault	-11.08
▁veronica	-11.08
▁wheat	-11.08
▁wouid	-11.08
▁zwaiter	-11.08
▁architect	-11.08
▁auction	-11.08
▁chrissake	-11.08
▁entrance	-11.08
▁evacuate	-11.08
▁faggot	-11.08
▁gossip	-11.08
▁limitations	-11.08
▁preparing	-11.08
▁prophet	-11.08
▁sixteen	-11.08
▁theft	-11.08
▁underestimate	-11.08
▁diminish	-11.08
▁italy	-11.08
▁reveal	-11.08
▁sherman	-11.08
▁emerson	-11.08
▁phase	-11.08
▁duncan	-11.08
▁nipple	-11.08
▁berman	-11.08
▁venture	-11.08
▁cloak	-11.08
▁derek	-11.08
▁hollow	-11.08
▁redcoats	-11.08
▁solution	-11.08
▁ascendant	-11.08
▁mutual	-11.08
▁appetite	-11.08
▁behalf	-11.08
▁gdr	-11.08
▁probation	-11.08
▁temperature	-11.08
▁venice	-11.08
▁academic	-11.08
▁integrity	-11.08
▁millennium	-11.08
▁whiskey	-11.08
▁elroy	-11.08
▁lethal	-11.08
▁ethn	-11.08
▁fingernails	-11.08
▁housing	-11.08
▁injuries	-11.08
▁regina	-11.08
▁rouge	-11.08
▁cellphone	-11.08
▁gps	-11.08
▁memoir	-11.08
▁palace	-11.08
▁thinner	-11.08
▁thisll	-11.08
▁annabeth	-11.08
▁contrary	-11.08
▁sinners	-11.08
▁arnold	-11.08
▁confidential	-11.08
▁duffel	-11.08
▁hoax	-11.08
▁harbor	-11.08
▁patrick	-11.08
▁sorrow	-11.08
▁mount	-11.08
▁imagination	-11.08
▁holitzer	-11.08
▁dalc	-11.08
▁consent	-11.08
▁magnum	-11.08
▁practicing	-11.08
▁breeze	-11.08
▁sniffling	-11.08
▁creation	-11.08
▁lightning	-11.08
▁economic	-11.08
▁apologies	-11.08
▁nolan	-11.08
▁bubble	-11.08
▁meade	-11.08
▁ammo	-11.08
▁dang	-11.08
▁banana	-11.08
▁georgina	-11.08
▁vocal	-11.08
▁karma	-11.08
▁helmet	-11.08
▁microphone	-11.08
▁sandborn	-11.08
▁waltz	-11.08
▁syrup	-11.08
▁mickah	-11.08
▁mugger	-11.08
▁northeast	-11.08
▁jody	-11.0801
▁bribe	-11.0801
▁resurrect	-11.0801
▁excess	-11.0801
▁intel	-11.0801
▁internet	-11.0801
▁nero	-11.0801
▁tourvel	-11.0801
▁excellence	-11.0801
▁roii	-11.0801
▁finland	-11.0801
▁supreme	-11.0801
▁beef	-11.0801
▁branches	-11.0801
▁miho	-11.0801
▁carlyle	-11.0801
▁peanut	-11.0801
▁silo	-11.0801
▁instructor	-11.0801
▁snatchers	-11.0801
▁detector	-11.0801
▁nini	-11.0801
▁proposal	-11.0801
▁patty	-11.0801
▁slate	-11.0801
▁stakeout	-11.0801
▁forbid	-11.0802
▁blackpool	-11.0802
▁fame	-11.0802
▁genetic	-11.0802
▁merry	-11.0802
▁identified	-11.0802
▁necessarily	-11.0802
▁satisfied	-11.0802
▁personnel	-11.0802
▁aboard	-11.0802
▁supernatural	-11.0802
▁krill	-11.0802
▁riot	-11.0802
▁population	-11.0802
▁specifically	-11.0802
▁hound	-11.0802
▁dental	-11.0802
▁trapped	-11.0802
▁snoop	-11.0802
▁alike	-11.0803
▁bowers	-11.0803
▁boop	-11.0803
▁iook	-11.0803
▁shinin	-11.0803
▁zoom	-11.0803
▁runner	-11.0803
▁stove	-11.0803
▁moose	-11.0803
▁soap	-11.0803
▁spaceship	-11.0803
▁crude	-11.0803
▁fork	-11.0803
▁bruno	-11.0803
▁jamie	-11.0804
▁despise	-11.0804
▁virginity	-11.0804
▁devoted	-11.0804
▁vandy	-11.0804
▁bua	-11.0805
▁fleet	-11.0805
▁indulge	-11.0806
▁craft	-11.0806
▁becky	-11.0806
▁robbing	-11.0806
▁kidney	-11.0806
▁applied	-11.0806
▁asian	-11.0806
▁july	-11.0806
▁production	-11.0806
▁distorted	-11.0806
▁puff	-11.0806
▁mice	-11.0807
▁scatter	-11.0807
▁physics	-11.0807
▁tb	-11.0807
▁cries	-11.0807
▁worldwide	-11.0807
▁diary	-11.0808
▁thirsty	-11.0808
▁greedy	-11.0808
▁peak	-11.0808
▁skies	-11.0808
▁ap	-11.0808
▁cried	-11.0809
▁gambler	-11.0809
▁mistress	-11.0809
▁tasty	-11.0809
▁facing	-11.0809
▁strictly	-11.0809
▁judy	-11.081
▁environmental	-11.081
▁sandwiches	-11.081
▁loop	-11.081
▁beam	-11.081
▁mankind	-11.081
▁narrow	-11.0811
▁golf	-11.0812
▁hysterical	-11.0812
▁marshmallows	-11.0812
▁wolves	-11.0812
▁communicate	-11.0813
▁bucket	-11.0813
raising	-11.0814
▁plead	-11.0814
▁leone	-11.0815
▁stirring	-11.0815
▁counseling	-11.0815
▁coin	-11.0815
▁forgetting	-11.0815
▁recovery	-11.0815
▁whale	-11.0817
▁diner	-11.0817
▁jen	-11.0817
▁sang	-11.0818
▁fried	-11.0818
▁achieved	-11.0818
▁cozy	-11.0819
▁destined	-11.0819
▁drunken	-11.082
▁barry	-11.0821
▁impress	-11.0821
▁hardware	-11.0822
▁mentally	-11.0823
tro	-11.0823
▁confessed	-11.0824
▁radl	-11.0824
▁fuckface	-11.0825
▁chino	-11.0825
▁advised	-11.0826
▁compared	-11.0826
▁beaten	-11.0828
▁impressed	-11.0828
▁salty	-11.0828
▁desperately	-11.0829
▁pisses	-11.083
▁sharply	-11.0832
▁brandy	-11.0832
▁lawn	-11.0832
▁creepy	-11.0833
▁smashing	-11.0833
▁chronic	-11.0833
▁gardener	-11.0834
▁sentenced	-11.0835
▁lapd	-11.0835
▁singin	-11.0836
▁published	-11.0837
▁fred	-11.0839
▁rage	-11.084
▁hacked	-11.0841
▁unable	-11.0842
▁speedo	-11.0844
▁costa	-11.0844
▁cryin	-11.0845
▁exploded	-11.0845
▁separated	-11.0847
headed	-11.0848
atlantic	-11.085
▁mae	-11.0852
▁commissioner	-11.0853
▁poured	-11.0855
▁handcuffs	-11.0855
▁informed	-11.0856
▁performing	-11.0858
▁fatal	-11.0861
▁bitter	-11.0862
▁nod	-11.0867
▁pronounce	-11.0869
▁handful	-11.087
▁loudly	-11.0872
▁deeper	-11.0876
▁manny	-11.0876
▁organs	-11.0878
made	-11.088
any	-11.088
▁workout	-11.0885
▁discussed	-11.089
▁voted	-11.0891
▁sorts	-11.0892
▁wired	-11.0894
▁added	-11.0894
▁il	-11.0895
▁samples	-11.09
▁badass	-11.0901
▁juri	-11.0901
table	-11.0911
▁scaring	-11.0912
▁sells	-11.0912
▁spine	-11.0915
inned	-11.092
ong	-11.0922
▁ribs	-11.0922
▁tons	-11.0924
ell	-11.0927
▁hospitals	-11.0929
▁pine	-11.0929
▁charged	-11.0942
nia	-11.0942
▁inflat	-11.0944
▁iv	-11.0945
▁burgers	-11.0945
▁runt	-11.0949
▁webb	-11.0952
▁busting	-11.0953
arian	-11.0955
▁tracking	-11.0958
nie	-11.0963
▁costumes	-11.0967
▁snaps	-11.0979
rry	-11.0981
▁cooked	-11.0983
▁pacific	-11.0988
▁jets	-11.0989
▁loans	-11.099
▁intentions	-11.0999
▁cracking	-11.1001
▁minds	-11.1005
▁ag	-11.1007
▁duck	-11.1011
▁comrades	-11.1012
▁spiders	-11.1012
▁damages	-11.1012
▁grandmothers	-11.1014
▁arrives	-11.1015
▁cu	-11.1022
▁helpful	-11.1025
▁tricks	-11.1028
▁demands	-11.1034
stop	-11.1034
▁footballer	-11.1044
▁tickle	-11.1044
▁sucking	-11.1046
▁packed	-11.1049
▁helpless	-11.1052
▁screwing	-11.1058
▁andreas	-11.1058
ence	-11.1064
▁candles	-11.1079
▁whiz	-11.1079
▁sacrifices	-11.108
bs	-11.1081
▁mars	-11.109
▁crossing	-11.1098
▁grenades	-11.1102
▁rolled	-11.1106
▁recorded	-11.1134
▁supposedly	-11.1137
ows	-11.1142
▁respected	-11.1146
▁mel	-11.1157
fl	-11.1172
▁peas	-11.1185
nal	-11.1189
▁reduce	-11.1194
▁returning	-11.1209
▁scars	-11.1211
▁testing	-11.1223
▁kn	-11.123
▁pun	-11.1232
▁learning	-11.1254
▁monsters	-11.1261
fit	-11.1269
▁vest	-11.1304
▁cruis	-11.1305
▁syria	-11.1306
▁inherit	-11.132
▁creates	-11.1331
per	-11.1334
▁spits	-11.1351
▁om	-11.1361
▁acts	-11.1368
▁scares	-11.1368
▁pledge	-11.1375
▁dealers	-11.1391
▁signing	-11.1429
▁cuff	-11.1435
▁leaders	-11.144
▁handy	-11.1447
▁prettie	-11.1459
▁sever	-11.1471
ating	-11.149
▁pauls	-11.1505
ets	-11.1514
▁conditions	-11.1518
▁magazines	-11.1539
▁areas	-11.1562
▁blai	-11.1571
▁rug	-11.1574
gu	-11.1593
cu	-11.1596
▁cakes	-11.1609
▁clowns	-11.1609
▁sta	-11.1612
vel	-11.1633
▁stud	-11.1636
▁experiences	-11.1659
▁tran	-11.1662
nce	-11.1667
▁flats	-11.1679
gs	-11.1684
▁misunderstand	-11.1691
▁dates	-11.1706
ise	-11.1708
▁cooper	-11.1719
da	-11.1726
shop	-11.1749
▁screws	-11.1757
▁cod	-11.1776
▁goal	-11.1778
▁doubts	-11.1778
▁kam	-11.1784
liance	-11.1799
▁planes	-11.1808
ping	-11.182
▁johns	-11.1823
▁chairs	-11.1846
yard	-11.1884
pin	-11.1889
▁cruise	-11.1901
ker	-11.1906
pa	-11.1921
▁bothers	-11.1926
▁fur	-11.1931
▁che	-11.1933
▁heavens	-11.1942
hu	-11.1989
ifies	-11.1996
▁ga	-11.2014
▁camps	-11.2015
izing	-11.2022
ery	-11.2039
▁girlfriends	-11.204
bar	-11.2062
▁islands	-11.2063
▁cur	-11.2065
▁sings	-11.2073
▁robot	-11.2077
▁bets	-11.2077
▁corners	-11.2087
▁agents	-11.2089
▁automat	-11.2092
of	-11.211
ga	-11.2141
▁region	-11.2151
▁tramp	-11.2158
▁appoint	-11.2178
udding	-11.2181
ata	-11.2181
leton	-11.2199
▁peg	-11.221
▁ton	-11.2211
self	-11.2213
net	-11.223
▁remark	-11.224
▁chase	-11.2241
stone	-11.2256
▁demo	-11.2262
eath	-11.2265
lon	-11.2265
dog	-11.2276
▁dil	-11.2277
test	-11.228
▁exclaim	-11.2282
▁web	-11.2289
▁height	-11.229
▁rookie	-11.2292
▁disappointment	-11.2293
▁fianc	-11.2293
▁reject	-11.2293
▁comic	-11.2296
▁shade	-11.2296
▁troop	-11.2297
▁graduate	-11.2298
der	-11.23
▁emotion	-11.23
▁shatter	-11.2301
▁elbow	-11.2308
▁protocol	-11.2308
▁puzzle	-11.2308
▁disease	-11.2308
▁quarterback	-11.2309
▁promotion	-11.2309
▁classroom	-11.231
▁conviction	-11.231
▁custom	-11.2313
▁kilo	-11.2315
▁cannon	-11.2316
▁invitation	-11.232
▁antique	-11.232
▁patriot	-11.2322
▁communication	-11.2323
▁catholic	-11.2325
▁stammer	-11.2325
▁rib	-11.2327
▁athlete	-11.2328
▁breast	-11.2328
▁pelt	-11.2329
▁that	-11.2343
▁dive	-11.2347
▁ric	-11.2348
▁launch	-11.2349
▁implant	-11.2353
▁lung	-11.2363
▁flap	-11.2369
▁billion	-11.2375
kie	-11.2376
▁bore	-11.2378
etched	-11.2378
▁ver	-11.2387
▁disappoint	-11.2394
▁confess	-11.2394
▁spill	-11.2398
▁develop	-11.2398
▁smash	-11.2399
▁fold	-11.2401
ways	-11.2402
▁invest	-11.2414
▁fuckhead	-11.2415
class	-11.2422
color	-11.243
▁possess	-11.2431
▁grounds	-11.2432
wide	-11.2435
▁attract	-11.2435
▁grin	-11.2435
burn	-11.2436
▁soak	-11.2436
▁boil	-11.2437
oose	-11.2437
▁flush	-11.2437
piece	-11.244
▁et	-11.2441
emma	-11.2443
stream	-11.2443
▁sink	-11.2443
shit	-11.2444
green	-11.2445
▁dissolve	-11.2445
door	-11.2445
foot	-11.2445
▁severe	-11.2448
▁electrocute	-11.2448
▁peck	-11.2449
▁felon	-11.2453
▁rome	-11.2454
▁gamble	-11.2455
▁tex	-11.2456
▁micro	-11.2458
▁rapid	-11.2458
▁types	-11.2458
aries	-11.2459
▁don	-11.246
▁arc	-11.246
▁regis	-11.246
▁prop	-11.2461
▁smuggle	-11.2462
▁korea	-11.2462
▁opera	-11.2464
▁hawaii	-11.2465
▁compass	-11.2465
▁violati	-11.2466
▁makin	-11.2466
▁orphan	-11.2466
▁hustle	-11.2466
iy	-11.2466
▁mornin	-11.2466
▁favour	-11.2466
▁confident	-11.2466
▁douche	-11.2466
▁fifteen	-11.2466
▁ham	-11.2466
▁devastat	-11.2466
▁occupy	-11.2466
rnsen	-11.2466
▁accusing	-11.2466
▁airspace	-11.2466
▁almanac	-11.2466
▁argue	-11.2466
▁asshoie	-11.2466
▁atmosphere	-11.2466
▁bathtub	-11.2466
▁batteries	-11.2466
▁beirut	-11.2466
▁bizarre	-11.2466
▁brunckhorst	-11.2466
▁bulwark	-11.2466
▁caesar	-11.2466
▁cassette	-11.2466
▁categor	-11.2466
▁celebration	-11.2466
▁chemistry	-11.2466
▁cherokee	-11.2466
▁cleveland	-11.2466
▁clutch	-11.2466
▁compartment	-11.2466
▁competitive	-11.2466
▁conclusion	-11.2466
▁conference	-11.2466
▁currency	-11.2466
▁debby	-11.2466
▁deceased	-11.2466
▁decency	-11.2466
▁disconnected	-11.2466
▁downsizing	-11.2466
▁dubstep	-11.2466
▁dwana	-11.2466
▁elsbeth	-11.2466
▁enterprise	-11.2466
▁eyebrow	-11.2466
▁faculty	-11.2466
▁false	-11.2466
▁fantasy	-11.2466
▁february	-11.2466
▁fentanyl	-11.2466
▁fierce	-11.2466
▁fleming	-11.2466
▁gasoline	-11.2466
▁hodgson	-11.2466
▁homosexual	-11.2466
▁infinite	-11.2466
▁infiniti	-11.2466
▁inhuman	-11.2466
▁instagram	-11.2466
▁ireland	-11.2466
▁irma	-11.2466
▁isaac	-11.2466
▁jarius	-11.2466
▁jellybeans	-11.2466
▁katrina	-11.2466
▁kgb	-11.2466
▁lazarus	-11.2466
▁leviticus	-11.2466
▁luxury	-11.2466
▁mahjong	-11.2466
▁mancini	-11.2466
▁massacre	-11.2466
▁maximum	-11.2466
▁mcgills	-11.2466
▁milich	-11.2466
▁ninth	-11.2466
▁oregon	-11.2466
▁outspan	-11.2466
▁oxford	-11.2466
▁perfume	-11.2466
▁popcorn	-11.2466
▁pussies	-11.2466
▁ralph	-11.2466
▁repair	-11.2466
▁resort	-11.2466
▁revolver	-11.2466
▁rveur	-11.2466
▁shrimp	-11.2466
▁snoring	-11.2466
▁sociopath	-11.2466
▁solemn	-11.2466
▁southpaw	-11.2466
▁squawking	-11.2466
▁thieves	-11.2466
▁triumph	-11.2466
▁unacceptable	-11.2466
▁underneath	-11.2466
▁vienna	-11.2466
▁visual	-11.2466
▁welfare	-11.2466
▁whew	-11.2466
▁willis	-11.2466
▁yield	-11.2466
▁zeppelin	-11.2466
▁zodiac	-11.2466
▁colony	-11.2466
▁imbecile	-11.2466
▁kitsey	-11.2466
▁limp	-11.2466
▁parsons	-11.2466
▁ramdon	-11.2466
▁stunning	-11.2466
▁angus	-11.2466
▁camino	-11.2466
▁fontella	-11.2466
▁imelda	-11.2466
▁intercourse	-11.2466
▁mandarin	-11.2466
▁transaction	-11.2466
▁anyhow	-11.2466
▁civilization	-11.2466
▁doyle	-11.2466
▁prescription	-11.2466
▁sustained	-11.2466
▁youssef	-11.2466
▁camilla	-11.2466
▁casino	-11.2466
▁flirt	-11.2466
▁instance	-11.2466
▁investigator	-11.2466
▁shalt	-11.2466
▁wallace	-11.2466
▁amanda	-11.2466
▁certificate	-11.2466
▁justified	-11.2466
▁pigeon	-11.2466
▁cinderella	-11.2467
▁courtesy	-11.2467
▁reggie	-11.2467
▁denmark	-11.2467
▁honks	-11.2467
▁nakia	-11.2467
▁wardrobe	-11.2467
▁actress	-11.2467
▁pippa	-11.2467
▁solitary	-11.2467
▁correspondence	-11.2467
▁francesco	-11.2467
▁mackey	-11.2467
▁pepper	-11.2467
▁clarence	-11.2467
▁alvin	-11.2467
▁amazon	-11.2467
▁scorche	-11.2467
▁creating	-11.2467
▁alderman	-11.2467
▁bankrupt	-11.2467
▁gracious	-11.2467
▁turkey	-11.2467
▁mechanic	-11.2467
▁burden	-11.2467
▁apology	-11.2467
▁laboratory	-11.2467
▁blindfold	-11.2467
▁coxman	-11.2467
▁humble	-11.2467
▁jewelry	-11.2467
▁unsolv	-11.2467
▁aggressive	-11.2467
▁illusion	-11.2467
▁jeannine	-11.2467
▁conquer	-11.2467
▁gordy	-11.2467
▁quarrel	-11.2467
▁unhook	-11.2467
▁ponchai	-11.2467
▁element	-11.2467
▁felson	-11.2467
▁viral	-11.2467
▁recall	-11.2467
▁klick	-11.2467
▁forgery	-11.2467
▁rigged	-11.2467
▁pumpkin	-11.2467
▁observation	-11.2467
▁womb	-11.2467
▁errand	-11.2467
▁spook	-11.2467
▁lamb	-11.2467
▁elegant	-11.2467
▁waik	-11.2467
▁neglect	-11.2467
▁rampage	-11.2467
▁classmate	-11.2467
▁fife	-11.2467
▁dietrich	-11.2467
▁burial	-11.2467
▁supervisor	-11.2467
▁slope	-11.2467
▁behold	-11.2467
▁yummy	-11.2467
▁devine	-11.2467
▁executive	-11.2467
▁trop	-11.2467
▁repay	-11.2467
▁walleye	-11.2467
▁humor	-11.2467
▁worn	-11.2467
▁countries	-11.2467
▁mmmmm	-11.2467
▁consultation	-11.2467
▁panda	-11.2467
▁stiff	-11.2467
▁rational	-11.2467
▁liking	-11.2467
▁cuz	-11.2467
▁parade	-11.2467
▁abby	-11.2468
▁congratulate	-11.2468
▁climate	-11.2468
▁ensure	-11.2468
▁rising	-11.2468
▁grey	-11.2468
▁oui	-11.2468
▁consciousness	-11.2468
▁tranquilizer	-11.2468
▁flock	-11.2468
▁salary	-11.2468
illa	-11.2468
▁nino	-11.2468
▁novel	-11.2468
▁servant	-11.2468
▁terminal	-11.2468
▁divine	-11.2468
▁shakily	-11.2468
▁grid	-11.2468
▁raw	-11.2468
▁tux	-11.2468
▁flaw	-11.2468
▁grocery	-11.2468
▁childhood	-11.2468
▁poetry	-11.2468
▁groom	-11.2468
▁sieg	-11.2468
▁firearm	-11.2468
▁jill	-11.2468
▁supper	-11.2468
▁lime	-11.2468
▁opposed	-11.2468
▁acquired	-11.2468
▁dizzy	-11.2468
▁distraction	-11.2468
▁obliged	-11.2468
▁poland	-11.2468
▁medication	-11.2468
▁chaos	-11.2468
▁ditch	-11.2468
▁peeking	-11.2469
▁kiii	-11.2469
▁racing	-11.2469
▁rolex	-11.2469
▁popper	-11.2469
▁borderline	-11.2469
▁aj	-11.2469
▁socialism	-11.2469
▁bastian	-11.2469
▁uhoh	-11.2469
▁reform	-11.2469
▁dinar	-11.2469
▁whim	-11.2469
▁mazel	-11.2469
▁heap	-11.2469
▁slid	-11.2469
▁embrace	-11.247
▁brew	-11.247
▁sacred	-11.247
▁countdown	-11.247
▁partnership	-11.247
▁saddle	-11.247
▁bolo	-11.247
▁sax	-11.247
▁jingle	-11.247
▁isabelle	-11.247
▁beatles	-11.247
▁reese	-11.247
▁bullshittin	-11.247
▁invention	-11.247
▁gurgling	-11.2471
▁korean	-11.2471
▁curve	-11.2471
▁dunne	-11.2471
▁sour	-11.2471
▁prosecutor	-11.2471
▁static	-11.2471
▁headphones	-11.2471
▁iot	-11.2471
▁farrat	-11.2471
▁urge	-11.2472
▁tsing	-11.2472
▁thai	-11.2472
▁fuel	-11.2472
▁bait	-11.2473
▁salon	-11.2473
▁gert	-11.2473
▁reply	-11.2473
▁substitute	-11.2474
▁swerve	-11.2474
▁packet	-11.2474
▁organic	-11.2474
▁attached	-11.2474
▁initiated	-11.2474
▁marion	-11.2475
▁wrestle	-11.2475
▁publicity	-11.2476
▁sector	-11.2476
▁comply	-11.2476
▁biography	-11.2476
▁presidential	-11.2477
▁shovel	-11.2477
▁descend	-11.2478
▁forgiveness	-11.2478
▁betting	-11.2479
▁haul	-11.2479
hearted	-11.2479
▁transformed	-11.248
▁stashed	-11.248
▁valve	-11.248
▁grouch	-11.248
▁lester	-11.2481
av	-11.2481
▁shanks	-11.2481
▁kilometers	-11.2481
nish	-11.2481
▁educated	-11.2482
▁hobo	-11.2483
▁toll	-11.2483
▁handling	-11.2484
▁shaking	-11.2484
▁speeches	-11.2484
▁flattered	-11.2485
▁jared	-11.2485
▁extend	-11.2485
▁lifestyle	-11.2485
▁bullion	-11.2485
▁shore	-11.2485
▁bog	-11.2485
▁kis	-11.2486
▁porter	-11.2486
▁kuwaiti	-11.2486
▁wept	-11.2487
▁sewer	-11.2487
▁kor	-11.2487
▁ignoring	-11.2488
▁sixty	-11.249
▁apprehended	-11.249
▁melted	-11.2491
▁puttin	-11.2491
▁collector	-11.2491
ench	-11.2491
▁leo	-11.2491
▁neve	-11.2492
ssan	-11.2492
▁eer	-11.2492
▁drawn	-11.2493
▁punished	-11.2493
▁hut	-11.2493
▁butter	-11.2493
▁taller	-11.2494
▁shattered	-11.2495
▁pint	-11.2497
▁steer	-11.2498
▁physically	-11.2498
▁wanker	-11.2498
▁screening	-11.2499
▁arriving	-11.2499
▁geezer	-11.25
▁recovered	-11.25
ador	-11.2502
▁kil	-11.2504
▁bein	-11.2505
▁iive	-11.2505
▁baddy	-11.2505
▁approached	-11.2506
ikes	-11.2506
▁thumbs	-11.2507
▁exclaiming	-11.2507
▁min	-11.2508
▁yah	-11.2509
▁boomer	-11.2509
▁mining	-11.2509
▁missile	-11.251
▁divorced	-11.2511
was	-11.2512
▁limited	-11.2512
▁cour	-11.2512
▁moan	-11.2513
▁threatening	-11.2514
▁advanced	-11.2515
▁pace	-11.2516
▁teaches	-11.2516
▁linked	-11.2517
▁ofthe	-11.2518
lessly	-11.252
▁comp	-11.2521
▁roughly	-11.2521
▁monitored	-11.2526
▁stressed	-11.2526
▁thor	-11.2528
▁oid	-11.253
▁leaked	-11.2532
▁sharks	-11.2533
▁ahh	-11.2533
▁pod	-11.2533
▁instincts	-11.2533
▁lycans	-11.2533
▁insults	-11.2533
▁withers	-11.2534
▁complaining	-11.2536
▁waiter	-11.254
▁fastest	-11.2541
▁pickup	-11.2542
▁ul	-11.2543
▁rooms	-11.2543
▁clips	-11.2544
▁drowning	-11.2544
▁posters	-11.2545
▁bir	-11.2547
▁parties	-11.2549
▁ape	-11.255
▁representing	-11.2551
▁kindness	-11.2553
▁nance	-11.2555
▁borrowed	-11.2558
▁tele	-11.2559
▁butchers	-11.256
▁fishy	-11.2563
▁ruled	-11.2567
▁trib	-11.2568
▁sor	-11.2571
▁brun	-11.2572
▁friggin	-11.2573
▁bump	-11.2578
▁talented	-11.2579
▁shitting	-11.2579
▁stokes	-11.2586
▁bitcoins	-11.2586
▁bodyguards	-11.2586
▁ak	-11.2586
▁rattles	-11.2587
▁remaining	-11.2588
▁colt	-11.2596
▁bits	-11.2597
▁hardon	-11.2598
▁sod	-11.2601
▁tracked	-11.2602
▁tate	-11.2603
▁factor	-11.2604
▁punched	-11.2605
rous	-11.2608
▁communications	-11.2613
▁customs	-11.2613
▁exclaims	-11.2614
▁continued	-11.2614
▁athletes	-11.2614
▁via	-11.2614
▁pawn	-11.2616
▁discussing	-11.2616
▁thud	-11.2621
▁texted	-11.2622
▁mandy	-11.2622
▁positi	-11.2622
▁blessing	-11.2624
▁wal	-11.2625
▁lifetime	-11.2628
▁screamed	-11.2629
▁drinkin	-11.2634
etes	-11.2638
▁hardest	-11.2638
▁defending	-11.2638
▁respects	-11.2639
▁cracked	-11.2639
▁jeans	-11.264
▁gladly	-11.2642
▁bugs	-11.2645
▁crashing	-11.2646
▁toes	-11.2647
▁colder	-11.2652
▁fasten	-11.2654
iana	-11.2655
▁cds	-11.2661
▁ness	-11.2663
▁radi	-11.2664
▁ranks	-11.2664
▁candidates	-11.2666
▁methods	-11.2667
ig	-11.2674
▁processing	-11.2682
▁fra	-11.2684
▁uses	-11.2684
▁borne	-11.2685
▁cookies	-11.2686
▁eta	-11.2691
works	-11.2693
▁fleas	-11.2693
▁marines	-11.2693
▁nicked	-11.2703
eah	-11.2706
▁tr	-11.2709
▁importantly	-11.2713
▁takeout	-11.2713
▁bombing	-11.2717
▁ty	-11.2719
▁photographs	-11.272
▁fades	-11.272
▁adults	-11.272
▁cowboys	-11.272
▁sunsets	-11.272
▁images	-11.2722
rious	-11.2724
▁stitche	-11.2725
▁es	-11.2736
onic	-11.2737
▁eater	-11.2739
▁roots	-11.2747
bag	-11.2756
ological	-11.2761
zy	-11.2766
▁sets	-11.2772
▁jumping	-11.2773
▁oldest	-11.2774
▁commercials	-11.2774
▁pipes	-11.2777
lyn	-11.2779
▁fooled	-11.278
em	-11.2784
▁yay	-11.2789
▁reserve	-11.2791
▁regional	-11.2796
▁toys	-11.2801
▁aids	-11.2801
▁medals	-11.2801
ger	-11.2802
▁kin	-11.2803
▁musical	-11.2806
oly	-11.2806
▁guessing	-11.2814
▁warner	-11.2821
ole	-11.2835
▁cher	-11.2841
▁pit	-11.2842
tle	-11.2848
▁tim	-11.2849
▁automatic	-11.2855
▁queens	-11.2856
▁labels	-11.2856
▁classics	-11.2856
▁layer	-11.2865
▁dj	-11.2866
▁hast	-11.2866
▁marita	-11.2874
▁bon	-11.2874
utz	-11.2878
▁relaxed	-11.2882
▁roberts	-11.2883
▁stevens	-11.2883
ugh	-11.2888
▁assassin	-11.2896
itty	-11.2909
▁wad	-11.2915
▁dragg	-11.2935
▁experts	-11.2938
▁elliotts	-11.2938
ions	-11.2939
▁res	-11.2945
▁intern	-11.2955
▁wherea	-11.2959
▁shifts	-11.2965
▁attendan	-11.2968
ison	-11.2977
cold	-11.2989
nd	-11.2991
▁assistants	-11.2993
▁preserve	-11.2994
▁para	-11.2996
▁qua	-11.3009
eur	-11.3018
▁elections	-11.302
▁bio	-11.3024
▁shells	-11.303
▁peop	-11.3041
your	-11.3051
ide	-11.3061
▁sto	-11.3062
▁shoo	-11.3068
▁races	-11.3076
▁ole	-11.3081
▁lovers	-11.3085
▁traffick	-11.3086
▁murderers	-11.3087
ney	-11.3092
▁plates	-11.3107
▁roads	-11.3116
▁den	-11.3125
▁das	-11.3127
▁meals	-11.3131
▁bottoms	-11.3131
ral	-11.3139
old	-11.3142
eddle	-11.3145
▁whin	-11.3148
▁officials	-11.3156
▁purposes	-11.3159
▁bou	-11.317
cha	-11.317
▁raymon	-11.3174
▁goat	-11.3175
▁ironic	-11.3187
▁unf	-11.32
▁catching	-11.3216
with	-11.3216
▁lecture	-11.3217
ack	-11.3218
▁serves	-11.3224
▁valid	-11.3229
ule	-11.3232
▁len	-11.3236
▁computers	-11.3244
▁horns	-11.3244
▁har	-11.3249
▁stepp	-11.3268
▁coping	-11.3271
▁levels	-11.3271
▁noises	-11.3271
▁kindly	-11.3272
mine	-11.3274
▁include	-11.3308
▁cuba	-11.3315
▁questioned	-11.3318
che	-11.3325
ik	-11.3326
▁hanged	-11.335
▁votes	-11.3357
▁carly	-11.3367
ev	-11.3373
▁rem	-11.3384
ung	-11.3406
▁mouths	-11.3409
tors	-11.3418
▁chok	-11.3451
get	-11.35
▁courts	-11.3509
▁au	-11.3519
▁signor	-11.3522
les	-11.3522
▁there	-11.3523
▁deli	-11.353
▁phoned	-11.3532
▁goose	-11.3535
bc	-11.3538
▁seiz	-11.3542
▁mighty	-11.3542
▁marked	-11.3545
person	-11.356
oma	-11.3566
▁johnnys	-11.3572
▁spots	-11.3575
▁woo	-11.3579
▁stages	-11.3587
vie	-11.3589
▁tar	-11.3598
▁rogers	-11.3614
▁operations	-11.3642
▁comme	-11.3645
▁bu	-11.3651
▁ru	-11.3653
▁admir	-11.3654
▁vet	-11.3658
ians	-11.3681
ull	-11.3685
ere	-11.3685
▁clic	-11.3694
▁liber	-11.3703
ened	-11.3712
▁fuckup	-11.3716
ub	-11.3719
ans	-11.3722
▁mattered	-11.3736
▁spitt	-11.3752
▁crimes	-11.3759
ap	-11.3763
▁ja	-11.3767
▁loses	-11.3799
nous	-11.3801
ran	-11.3822
▁ki	-11.3832
tor	-11.3832
lus	-11.3848
▁juli	-11.3858
▁ann	-11.3863
eh	-11.3864
▁az	-11.387
▁broo	-11.387
▁surprises	-11.388
oir	-11.388
ti	-11.3889
oy	-11.3896
mond	-11.3898
▁announc	-11.3926
▁wr	-11.394
▁mach	-11.3955
▁chickens	-11.3957
▁palo	-11.3981
lf	-11.3996
▁founded	-11.4004
▁oi	-11.4004
ito	-11.4009
▁ka	-11.4019
▁contacts	-11.4024
▁psych	-11.4025
▁interviews	-11.4033
▁syr	-11.4034
ear	-11.4046
ogging	-11.4064
▁boyfriends	-11.4086
▁expel	-11.4103
▁cons	-11.4106
▁breaths	-11.4132
erie	-11.4137
ual	-11.4144
▁prior	-11.4144
bble	-11.4145
ek	-11.4179
ters	-11.4184
tte	-11.4223
bility	-11.4233
▁pier	-11.4254
▁summon	-11.4267
▁ste	-11.4276
▁bam	-11.4291
▁biscuit	-11.4292
▁temptation	-11.4292
▁guerrilla	-11.4292
▁nickname	-11.4293
▁document	-11.4293
con	-11.4294
▁informant	-11.4294
▁ankle	-11.4308
▁substance	-11.4308
▁vessel	-11.4309
▁pirate	-11.4309
▁institution	-11.4309
▁profit	-11.431
tum	-11.4312
▁delusion	-11.4314
▁poll	-11.4314
▁receipt	-11.4316
▁diaper	-11.4318
▁hike	-11.4318
▁bitcoin	-11.4322
▁rattle	-11.4322
▁fag	-11.4325
▁bodyguard	-11.4326
▁reeve	-11.4326
▁sample	-11.4327
▁muscle	-11.4327
▁pad	-11.4329
▁canvas	-11.433
▁stair	-11.4331
▁melt	-11.4331
▁resident	-11.4335
▁who	-11.4335
▁stoke	-11.434
▁metaphor	-11.434
▁musician	-11.4346
▁rear	-11.4355
win	-11.4358
▁rollin	-11.4359
▁swap	-11.437
▁sane	-11.439
▁writes	-11.4391
▁splash	-11.4391
▁punish	-11.4395
▁era	-11.4397
level	-11.4403
▁silve	-11.4407
face	-11.4409
▁peer	-11.4413
hole	-11.4415
▁mourn	-11.4424
how	-11.4424
▁destin	-11.4424
▁frighten	-11.4426
▁encounter	-11.4432
▁snatch	-11.4433
au	-11.4434
▁frost	-11.4435
▁ambush	-11.4435
▁screen	-11.4435
▁vanish	-11.4436
after	-11.4436
▁convict	-11.4437
▁serb	-11.4437
▁apprehend	-11.4438
point	-11.4439
▁slaughter	-11.4439
▁retard	-11.4439
mar	-11.4439
▁sim	-11.444
wise	-11.4443
myth	-11.4444
▁gav	-11.4447
▁approve	-11.4448
▁frau	-11.4449
term	-11.4449
▁accuse	-11.4449
▁assassinate	-11.4451
▁wealth	-11.4451
▁arriv	-11.4452
▁robber	-11.4452
come	-11.4452
ash	-11.4453
ifying	-11.4453
▁intens	-11.4454
oftheart	-11.4454
▁intimate	-11.4455
▁profound	-11.4455
▁shack	-11.4455
▁ronni	-11.4456
▁chalk	-11.4459
mann	-11.4459
▁august	-11.446
isten	-11.446
shot	-11.4461
▁suga	-11.4461
▁convention	-11.4462
atomic	-11.4463
▁resent	-11.4464
▁exhibit	-11.4464
minded	-11.4464
▁hijack	-11.4465
▁michel	-11.4465
▁runnin	-11.4465
ncent	-11.4465
▁exploit	-11.4465
ssociati	-11.4465
arth	-11.4465
▁rabbit	-11.4465
▁terri	-11.4466
▁intelligen	-11.4466
▁reception	-11.4466
▁slug	-11.4466
iegel	-11.4466
▁murmur	-11.4466
▁satisfy	-11.4466
responsibilities	-11.4466
▁academy	-11.4466
▁alternative	-11.4466
▁amityville	-11.4466
▁anmei	-11.4466
▁apologizing	-11.4466
▁argentina	-11.4466
▁arizona	-11.4466
▁asthma	-11.4466
▁atlanta	-11.4466
▁behaving	-11.4466
▁blossom	-11.4466
▁bohemia	-11.4466
▁cackling	-11.4466
▁cartridge	-11.4466
▁catalog	-11.4466
▁ceremony	-11.4466
▁chevalier	-11.4466
▁cicero	-11.4466
▁cockroach	-11.4466
▁colonies	-11.4466
▁conscience	-11.4466
▁consensual	-11.4466
▁cushion	-11.4466
▁czechoslovakia	-11.4466
▁despair	-11.4466
▁distress	-11.4466
▁eclipse	-11.4466
▁economy	-11.4466
▁eileen	-11.4466
▁elvira	-11.4466
▁emergencies	-11.4466
▁envy	-11.4466
▁ephraim	-11.4466
▁equipped	-11.4466
▁erskine	-11.4466
▁ethics	-11.4466
▁eugene	-11.4466
▁exploding	-11.4466
▁extinguish	-11.4466
▁fedayeen	-11.4466
▁festival	-11.4466
▁flashlight	-11.4466
▁forcing	-11.4466
▁fountain	-11.4466
▁gambling	-11.4466
▁gardner	-11.4466
▁garlic	-11.4466
▁gluten	-11.4466
▁goddammit	-11.4466
▁gracias	-11.4466
▁guzman	-11.4466
▁hallelujah	-11.4466
▁hamshari	-11.4466
▁handkerchief	-11.4466
▁happily	-11.4466
▁harvest	-11.4466
▁henderson	-11.4466
▁hgw	-11.4466
▁horizon	-11.4466
▁hotchkiss	-11.4466
▁impulse	-11.4466
▁indict	-11.4466
▁insatiable	-11.4466
▁inspire	-11.4466
▁intimacy	-11.4466
▁intuiti	-11.4466
▁invincible	-11.4466
▁irina	-11.4466
▁irrelevant	-11.4466
▁janiro	-11.4466
▁jerrica	-11.4466
▁jumbo	-11.4466
▁konrad	-11.4466
▁lndlstlnct	-11.4466
▁lovable	-11.4466
▁mademoiselle	-11.4466
▁madonna	-11.4466
▁mammoth	-11.4466
▁mcswiney	-11.4466
▁misfortune	-11.4466
▁moonlight	-11.4466
▁moselle	-11.4466
▁mozart	-11.4466
▁namgoong	-11.4466
▁navidad	-11.4466
▁neutral	-11.4466
▁nineteen	-11.4466
▁occupied	-11.4466
▁odyssey	-11.4466
▁osiris	-11.4466
▁outrageous	-11.4466
▁outstanding	-11.4466
▁overseas	-11.4466
▁palmgren	-11.4466
▁parcel	-11.4466
▁penelope	-11.4466
▁penitentiary	-11.4466
▁pennsylvania	-11.4466
▁perimeter	-11.4466
▁petrek	-11.4466
▁peyton	-11.4466
▁philosophy	-11.4466
▁picasso	-11.4466
▁pieceofshit	-11.4466
▁possum	-11.4466
▁precision	-11.4466
▁presume	-11.4466
▁psychopath	-11.4466
▁puppet	-11.4466
▁quaaludes	-11.4466
▁quinton	-11.4466
▁quirke	-11.4466
▁rachel	-11.4466
▁reinhard	-11.4466
▁renegade	-11.4466
▁resolution	-11.4466
▁rethink	-11.4466
▁scientific	-11.4466
▁seldom	-11.4466
▁selfesteem	-11.4466
▁senile	-11.4466
▁shanghai	-11.4466
▁shboom	-11.4466
▁shield	-11.4466
▁shokopiwah	-11.4466
▁shouid	-11.4466
▁significant	-11.4466
▁snarls	-11.4466
▁stagecoach	-11.4466
▁statue	-11.4466
▁stereo	-11.4466
▁strand	-11.4466
▁submarine	-11.4466
▁superhero	-11.4466
▁supplies	-11.4466
▁suspicion	-11.4466
▁swollen	-11.4466
▁technique	-11.4466
▁tennessee	-11.4466
▁tiighman	-11.4466
▁tremendous	-11.4466
▁ufg	-11.4466
▁undefeated	-11.4466
▁ungrateful	-11.4466
▁unicorn	-11.4466
▁universal	-11.4466
▁unpredictable	-11.4466
▁valmont	-11.4466
▁vaseliev	-11.4466
▁whichever	-11.4466
▁youtube	-11.4466
▁zombie	-11.4466
▁choosing	-11.4466
▁farewell	-11.4466
▁filter	-11.4466
▁fourteen	-11.4466
▁gospel	-11.4466
▁harvey	-11.4466
▁libel	-11.4466
▁mercedes	-11.4466
▁rosina	-11.4466
▁sasha	-11.4466
▁tactics	-11.4466
▁vocabulary	-11.4466
▁barrel	-11.4466
▁charly	-11.4466
▁endanger	-11.4466
▁herald	-11.4466
▁jingling	-11.4466
▁kentucky	-11.4466
▁naughty	-11.4466
▁sascha	-11.4466
▁strawberr	-11.4466
▁werewolves	-11.4466
▁dedicat	-11.4466
▁eighteen	-11.4466
▁imagining	-11.4466
▁jelly	-11.4466
▁lcf	-11.4466
▁vegetable	-11.4466
▁artifact	-11.4466
▁balabushka	-11.4466
▁florek	-11.4466
▁frode	-11.4466
▁hebrew	-11.4466
▁calvin	-11.4467
▁forfeit	-11.4467
▁neurotic	-11.4467
▁snuff	-11.4467
▁vilena	-11.4467
▁database	-11.4467
▁kauai	-11.4467
▁leslie	-11.4467
▁issy	-11.4467
▁nelly	-11.4467
▁recognition	-11.4467
▁revving	-11.4467
▁thirtythree	-11.4467
▁upfront	-11.4467
▁zealand	-11.4467
▁immun	-11.4467
▁lottery	-11.4467
▁ounce	-11.4467
▁parlor	-11.4467
▁skateboard	-11.4467
▁staircase	-11.4467
▁truce	-11.4467
▁investigating	-11.4467
▁phoenix	-11.4467
▁titties	-11.4467
▁impose	-11.4467
▁spiral	-11.4467
▁stockholm	-11.4467
▁dinosaur	-11.4467
▁bonfire	-11.4467
▁interfere	-11.4467
▁nogood	-11.4467
▁tumor	-11.4467
▁hawkins	-11.4467
▁melanch	-11.4467
▁perspective	-11.4467
▁trifle	-11.4467
▁blares	-11.4467
▁curran	-11.4467
▁leonida	-11.4467
▁striking	-11.4467
▁harold	-11.4467
▁plague	-11.4467
einstein	-11.4467
▁anthropoid	-11.4467
▁scud	-11.4467
▁illinois	-11.4467
▁inaudible	-11.4467
▁nitrous	-11.4467
▁seoul	-11.4467
▁favourite	-11.4467
▁knickers	-11.4467
▁plunge	-11.4467
▁spoil	-11.4467
▁yodel	-11.4467
▁denise	-11.4467
▁exwife	-11.4467
▁tutor	-11.4467
▁wills	-11.4467
▁granddaddy	-11.4467
▁compensation	-11.4467
▁mobray	-11.4467
▁selfpity	-11.4467
▁translation	-11.4467
▁fleance	-11.4467
▁vittu	-11.4467
▁infant	-11.4467
▁sequence	-11.4467
▁abide	-11.4467
▁sofa	-11.4467
▁faint	-11.4467
▁slack	-11.4467
▁reaiiy	-11.4467
▁undone	-11.4467
▁declaration	-11.4467
▁harsh	-11.4467
▁conceal	-11.4467
▁usher	-11.4467
▁underwater	-11.4467
▁coven	-11.4467
▁hobbies	-11.4467
▁importance	-11.4467
▁knots	-11.4467
▁administration	-11.4467
▁carpet	-11.4467
▁dawg	-11.4467
▁tilden	-11.4467
▁brotherinlaw	-11.4467
▁adwan	-11.4467
▁testified	-11.4467
▁tvirus	-11.4467
▁necklace	-11.4467
▁supermarket	-11.4467
▁cassio	-11.4467
▁diagnosis	-11.4467
▁volcano	-11.4467
▁extension	-11.4467
▁yeats	-11.4467
▁enforcement	-11.4467
▁extinction	-11.4467
▁liability	-11.4467
▁sensation	-11.4467
▁basketball	-11.4467
▁proposition	-11.4467
▁reunion	-11.4467
▁maxandra	-11.4467
▁wexler	-11.4467
▁addison	-11.4467
▁chupa	-11.4467
▁lenka	-11.4467
▁bulletproof	-11.4467
▁quiz	-11.4467
▁evaluation	-11.4467
▁nanny	-11.4467
▁postcard	-11.4467
▁oak	-11.4467
▁ripping	-11.4467
▁receptionist	-11.4467
▁orphanage	-11.4467
▁riddle	-11.4467
▁intensive	-11.4467
▁visa	-11.4467
▁mutation	-11.4467
▁hush	-11.4467
▁subway	-11.4467
▁endorsement	-11.4467
▁lowkey	-11.4467
▁spun	-11.4468
▁hobby	-11.4468
▁bugged	-11.4468
▁vivi	-11.4468
▁feast	-11.4468
▁courtroom	-11.4468
▁highlander	-11.4468
▁turf	-11.4468
▁lndian	-11.4468
▁snot	-11.4468
▁bacon	-11.4468
▁evac	-11.4468
▁radiation	-11.4468
▁appearance	-11.4468
▁communion	-11.4468
▁interaction	-11.4468
▁lasagne	-11.4468
▁trina	-11.4468
▁lyin	-11.4468
▁shipping	-11.4468
▁obedient	-11.4468
lmes	-11.4468
▁waking	-11.4468
▁ambition	-11.4468
▁ignorant	-11.4468
▁donation	-11.4468
▁tanis	-11.4468
▁disposal	-11.4468
▁tov	-11.4468
▁foil	-11.4468
▁arrow	-11.4468
▁income	-11.4468
▁immortal	-11.4468
▁airplane	-11.4468
▁rambo	-11.4468
▁malay	-11.4468
▁torment	-11.4468
▁faxx	-11.4468
▁queer	-11.4468
▁scent	-11.4468
▁dignity	-11.4468
▁bonus	-11.4468
▁hawaiian	-11.4468
▁dragna	-11.4468
▁spain	-11.4469
▁chinatown	-11.4469
▁howard	-11.4469
▁chuck	-11.4469
▁uptown	-11.4469
▁squid	-11.4469
▁ratted	-11.4469
▁massive	-11.4469
▁cec	-11.4469
▁register	-11.4469
▁seattle	-11.4469
▁tomatoes	-11.4469
▁heip	-11.4469
▁squat	-11.4469
▁drugged	-11.4469
▁boof	-11.4469
▁unlock	-11.447
▁april	-11.447
▁parallel	-11.447
▁purr	-11.447
▁seventeen	-11.447
▁cmon	-11.447
▁employment	-11.447
▁gulf	-11.447
▁leadership	-11.447
▁yoga	-11.447
▁determination	-11.447
▁plot	-11.447
▁duties	-11.447
▁studies	-11.447
▁employed	-11.447
▁selected	-11.447
▁irish	-11.447
▁dose	-11.447
▁sunny	-11.447
▁industries	-11.447
▁twentyone	-11.447
▁consult	-11.447
▁deaf	-11.447
▁mock	-11.447
▁legit	-11.447
▁ego	-11.4471
▁fundraiser	-11.4471
▁lucian	-11.4471
▁laura	-11.4471
▁drummer	-11.4471
▁dita	-11.4471
▁maryland	-11.4471
▁overreacting	-11.4472
▁melanie	-11.4472
▁diana	-11.4472
▁intellectual	-11.4472
▁endorse	-11.4472
▁inquiry	-11.4472
▁monastery	-11.4472
▁craving	-11.4472
▁unload	-11.4472
▁barbour	-11.4472
▁entre	-11.4472
▁injured	-11.4472
▁matchmaker	-11.4472
▁dna	-11.4472
▁anticipated	-11.4473
▁percentage	-11.4473
▁chime	-11.4473
▁layin	-11.4473
▁elected	-11.4473
▁heartbeat	-11.4473
▁porno	-11.4473
▁weakness	-11.4473
▁brent	-11.4473
▁anus	-11.4474
▁peaches	-11.4474
▁damon	-11.4474
▁ahem	-11.4474
▁halfhour	-11.4474
▁brutally	-11.4474
ently	-11.4474
▁fitting	-11.4474
▁musl	-11.4475
▁smuggler	-11.4475
▁clan	-11.4475
▁revolutionary	-11.4475
▁lame	-11.4475
▁ross	-11.4476
▁negotiate	-11.4476
▁welty	-11.4476
▁ashes	-11.4476
▁spoon	-11.4476
▁trainee	-11.4476
▁potatoes	-11.4476
▁diab	-11.4476
▁ranch	-11.4476
▁hittin	-11.4476
▁condemned	-11.4476
▁muchassi	-11.4476
▁arti	-11.4477
▁mill	-11.4477
▁sworn	-11.4477
▁rufus	-11.4477
▁update	-11.4477
▁tore	-11.4477
▁freeway	-11.4477
▁reg	-11.4477
▁fulfill	-11.4478
▁passage	-11.4478
▁gaines	-11.4478
top	-11.4478
▁menac	-11.4478
▁johnnie	-11.4478
▁brag	-11.4478
▁canal	-11.4479
▁justify	-11.448
▁breakdown	-11.448
▁fatty	-11.448
▁dull	-11.4481
▁worm	-11.4481
▁colour	-11.4481
▁cave	-11.4481
▁armand	-11.4481
▁dread	-11.4481
▁freetown	-11.4482
▁whooping	-11.4482
▁flies	-11.4483
▁evolved	-11.4483
▁onion	-11.4483
uveni	-11.4483
▁thumping	-11.4483
▁inch	-11.4483
▁sketch	-11.4484
▁slime	-11.4484
▁narcotics	-11.4485
▁approved	-11.4485
▁dew	-11.4486
▁wider	-11.4486
▁lnhale	-11.4486
▁straightened	-11.4486
▁priceless	-11.4486
▁active	-11.4487
▁fulltime	-11.4487
▁breed	-11.4487
▁deadbeat	-11.4487
▁rosa	-11.4488
▁statistics	-11.4488
▁brawl	-11.449
▁permanently	-11.449
▁adriana	-11.449
▁poach	-11.4491
▁parttime	-11.4492
▁ado	-11.4492
▁utter	-11.4493
▁disguised	-11.4493
▁located	-11.4493
▁macey	-11.4494
▁smartass	-11.4494
▁lawman	-11.4494
▁dice	-11.4495
▁superman	-11.4496
▁starve	-11.4496
▁vanished	-11.4496
▁organized	-11.4497
▁discovery	-11.4497
uke	-11.4497
▁dug	-11.4497
▁turd	-11.4497
▁larger	-11.4498
▁entertaining	-11.4498
▁fussing	-11.4498
fuck	-11.4499
amorous	-11.45
▁plumber	-11.4501
▁democratic	-11.4501
▁foo	-11.4502
▁fogg	-11.4503
▁stunt	-11.4505
▁possessed	-11.4505
▁frightening	-11.4507
▁mourning	-11.4507
▁splashing	-11.4507
▁stingy	-11.4507
▁lugg	-11.4507
▁merc	-11.4509
▁trooper	-11.4509
▁rental	-11.4509
▁gap	-11.4509
▁bonnie	-11.4511
▁minim	-11.4512
▁disco	-11.4513
▁gabe	-11.4513
▁replaced	-11.4514
▁basis	-11.4514
▁sneaky	-11.4514
▁tying	-11.4515
▁emotionally	-11.4515
voj	-11.4516
▁whoops	-11.4516
▁fingerprints	-11.4517
▁forensics	-11.4517
▁yankees	-11.4517
▁complaints	-11.4517
ggies	-11.4519
▁grind	-11.4519
lary	-11.452
▁anchor	-11.4521
▁ecsta	-11.4522
▁allie	-11.4522
▁sniffing	-11.4526
▁oni	-11.4527
bey	-11.4527
▁canceled	-11.4528
▁solved	-11.453
▁shining	-11.453
▁strangest	-11.4531
▁moll	-11.4534
▁simpler	-11.4537
▁mainly	-11.4537
upo	-11.4538
▁lemon	-11.4538
▁connecting	-11.4544
▁cured	-11.4546
▁getaway	-11.4547
▁attempted	-11.4548
dess	-11.4549
▁learns	-11.4549
▁charades	-11.4549
▁expenses	-11.4549
▁heels	-11.4549
▁roars	-11.455
▁expressions	-11.455
▁owen	-11.455
▁spraying	-11.4553
▁intended	-11.4558
▁professionally	-11.4558
▁sewed	-11.456
quin	-11.4561
▁bowie	-11.4561
▁denying	-11.4561
▁finishes	-11.4568
▁difficulty	-11.4568
▁detailed	-11.4568
▁interrupting	-11.457
▁horny	-11.457
▁annis	-11.4571
▁wildly	-11.4574
▁maman	-11.4574
▁je	-11.4576
▁boobs	-11.4576
▁ambi	-11.4576
▁maker	-11.4577
▁nervously	-11.4581
▁tokens	-11.4582
▁explosives	-11.4582
▁items	-11.4582
▁palestinians	-11.4582
▁tourists	-11.4583
▁comeback	-11.4584
▁shotsy	-11.4588
▁woody	-11.4595
▁hopeless	-11.4598
▁sailing	-11.4598
▁blamed	-11.46
▁founder	-11.4603
eyed	-11.4603
▁seal	-11.4606
▁slum	-11.461
▁psychiatri	-11.4613
▁tosser	-11.4613
▁delusions	-11.4616
▁fags	-11.4616
▁jumpy	-11.4617
▁entered	-11.462
▁historical	-11.462
wept	-11.4623
▁allies	-11.4625
▁peers	-11.4625
▁yoon	-11.4626
▁crashed	-11.4626
▁jer	-11.4627
▁rake	-11.4628
▁dumping	-11.4644
▁pea	-11.4647
ini	-11.4648
▁patriots	-11.4649
▁antiques	-11.4649
▁invitations	-11.4649
ray	-11.465
▁repeating	-11.4653
▁decorate	-11.4656
▁rely	-11.4657
▁whil	-11.4658
▁raid	-11.466
▁tailing	-11.4662
▁holed	-11.4664
▁shootin	-11.4665
▁wester	-11.4668
cuse	-11.468
▁beard	-11.468
▁morons	-11.4682
▁thugs	-11.4682
▁snacks	-11.4682
▁bong	-11.4684
▁fiance	-11.4684
▁hurtin	-11.4687
▁weary	-11.4688
▁pretended	-11.4689
▁swa	-11.4691
▁smoker	-11.4697
▁chatt	-11.4701
▁robe	-11.4704
bone	-11.4713
▁grandfathers	-11.4716
▁investments	-11.4716
iss	-11.4716
▁survivors	-11.4716
▁annu	-11.4717
▁palms	-11.4718
▁searched	-11.4719
▁dole	-11.472
▁assets	-11.4725
▁lure	-11.4727
▁orderly	-11.4736
▁pans	-11.4738
▁fightin	-11.4745
▁socks	-11.4749
▁savages	-11.4749
▁exceptions	-11.4751
fe	-11.4751
▁thrills	-11.4752
ghs	-11.476
▁logical	-11.4764
▁misses	-11.4766
ada	-11.4767
slapped	-11.4767
▁jameson	-11.4776
▁illness	-11.4782
▁benefits	-11.4783
▁drawings	-11.4783
hat	-11.4786
▁pushed	-11.4789
▁liberia	-11.4792
▁wig	-11.4804
▁prayed	-11.4806
▁buster	-11.4806
ak	-11.4811
▁hal	-11.4812
▁exercises	-11.4817
▁maniacs	-11.4817
▁prints	-11.4819
▁sleeper	-11.4821
▁counted	-11.4821
▁borde	-11.4821
▁associates	-11.4826
▁ramon	-11.4827
▁renting	-11.4828
▁fees	-11.4834
▁gagg	-11.4839
shire	-11.4839
lan	-11.4842
pensive	-11.4848
▁deadline	-11.485
▁gala	-11.4851
▁vampires	-11.4851
tec	-11.4852
▁represents	-11.4852
lings	-11.4853
ci	-11.4854
ip	-11.487
▁inn	-11.4873
▁telly	-11.4877
▁protected	-11.488
roxy	-11.4884
▁patterns	-11.4884
▁sandys	-11.4884
▁luna	-11.4888
ister	-11.489
uff	-11.4899
▁relate	-11.4904
▁carve	-11.4904
▁fats	-11.4914
▁albums	-11.4918
▁wrists	-11.4918
▁arrangements	-11.4919
▁kicking	-11.4919
▁occasional	-11.492
▁flak	-11.492
▁tolerate	-11.4944
▁luci	-11.4944
▁participate	-11.4948
▁affairs	-11.4953
▁danced	-11.4975
▁exits	-11.4987
▁beatings	-11.4988
▁sus	-11.4997
eight	-11.4999
▁homes	-11.4999
urs	-11.5001
▁dea	-11.5006
▁cli	-11.501
ut	-11.501
cess	-11.5011
▁qu	-11.5021
▁promote	-11.5032
▁by	-11.5038
▁sparkl	-11.5048
▁finance	-11.5057
▁lions	-11.507
▁compar	-11.5088
▁cowards	-11.509
sters	-11.5094
ambie	-11.5106
fire	-11.5114
▁covers	-11.5126
▁nor	-11.5128
ora	-11.5131
▁faithful	-11.5131
▁prov	-11.5133
▁explains	-11.5149
ele	-11.5157
▁circles	-11.5159
▁regulars	-11.5159
▁olympics	-11.5159
▁directions	-11.516
▁guarantees	-11.5161
▁toi	-11.5166
▁ger	-11.517
nam	-11.5172
▁sorting	-11.5177
▁promises	-11.518
▁dozens	-11.5194
▁champions	-11.5195
▁gee	-11.5205
ese	-11.5225
▁helicopters	-11.5229
▁cleaner	-11.5249
uire	-11.5257
▁dismantle	-11.5258
nts	-11.526
▁accessor	-11.5263
row	-11.5263
merciful	-11.5267
▁pigs	-11.5299
tray	-11.5308
▁arch	-11.5313
ibb	-11.5319
▁swings	-11.5331
▁explaining	-11.5334
▁sidneys	-11.5334
ston	-11.5337
▁choices	-11.5337
▁it	-11.5347
▁seeming	-11.5354
com	-11.5355
▁excused	-11.5356
▁contracts	-11.5367
sty	-11.5369
▁clues	-11.537
▁cleared	-11.5391
rd	-11.5391
bert	-11.5403
▁dolls	-11.5405
▁mes	-11.5409
anxiety	-11.5414
▁est	-11.5418
gging	-11.5425
▁seduce	-11.5439
▁digs	-11.5447
▁qui	-11.5451
olo	-11.5454
▁ut	-11.5459
jo	-11.5462
▁axe	-11.5462
▁ze	-11.5478
qu	-11.5489
misunderstanding	-11.5502
▁mikes	-11.5503
amo	-11.5505
▁ph	-11.5506
gi	-11.5508
▁daniels	-11.5512
▁richards	-11.5512
▁mart	-11.5531
▁tia	-11.5535
▁curl	-11.5541
▁weekends	-11.5548
ament	-11.5549
▁mains	-11.5561
mission	-11.5571
▁hock	-11.5585
▁cracks	-11.5587
▁mini	-11.5589
ments	-11.56
liam	-11.5612
▁craigs	-11.562
▁freaks	-11.5626
▁ferr	-11.5636
▁sounding	-11.5643
▁now	-11.5658
gre	-11.569
▁receiv	-11.5696
ockey	-11.5696
▁ther	-11.5698
▁fr	-11.5701
▁survives	-11.5703
▁rep	-11.5709
▁jud	-11.5728
ica	-11.5761
▁amp	-11.5772
card	-11.5772
▁trucks	-11.5777
blo	-11.578
▁eats	-11.5787
▁han	-11.5795
▁hooks	-11.5799
ification	-11.581
▁demonstrate	-11.5831
▁drum	-11.5835
▁decides	-11.5844
be	-11.5852
▁forms	-11.5861
tches	-11.5884
▁ko	-11.5884
▁ties	-11.5887
▁teams	-11.5902
▁mates	-11.5912
▁ce	-11.5922
▁bare	-11.5925
▁hen	-11.5937
▁feeds	-11.5953
▁dun	-11.599
▁seize	-11.5998
▁tha	-11.6002
room	-11.6003
▁hol	-11.6015
▁wh	-11.6048
▁casual	-11.6054
▁scramble	-11.6083
▁admits	-11.6094
▁hairs	-11.6096
▁escapes	-11.6101
sky	-11.6107
name	-11.6119
▁interns	-11.6119
eg	-11.6121
sis	-11.6125
▁budd	-11.614
aging	-11.6141
kay	-11.615
▁trusting	-11.6178
▁mug	-11.6191
imon	-11.62
▁quot	-11.6262
▁pudd	-11.6307
oral	-11.6319
▁ideal	-11.632
och	-11.6321
▁pol	-11.6324
ane	-11.6324
▁kan	-11.6342
▁tin	-11.6357
▁generals	-11.6363
▁knocks	-11.6372
▁fri	-11.6376
▁imp	-11.6386
▁then	-11.6396
▁realizes	-11.6405
tel	-11.6434
▁alt	-11.6441
making	-11.6445
oo	-11.6475
▁sho	-11.6476
plied	-11.6481
els	-11.6485
▁compete	-11.6494
mon	-11.6495
▁abs	-11.6505
▁presidents	-11.6515
itz	-11.6516
▁marl	-11.6516
▁evolution	-11.6519
itation	-11.6526
cher	-11.6529
▁cult	-11.6531
▁cape	-11.6535
▁stitch	-11.6546
chin	-11.6572
▁norma	-11.6589
▁sakes	-11.6595
▁mor	-11.6612
▁scat	-11.662
▁chchch	-11.6642
▁shorts	-11.6648
raz	-11.6649
rit	-11.6664
▁sip	-11.6666
ella	-11.6674
▁sixth	-11.6677
ome	-11.6691
ition	-11.6692
shaw	-11.6701
rie	-11.6704
▁stir	-11.6704
ecker	-11.6706
lair	-11.6708
port	-11.6709
▁chip	-11.6714
▁edg	-11.6724
lock	-11.6737
▁grosse	-11.6738
▁pawns	-11.6739
iving	-11.6744
▁conv	-11.6749
zi	-11.6753
▁shel	-11.6757
▁graves	-11.676
position	-11.6767
▁groov	-11.6769
▁historic	-11.6773
▁mau	-11.6783
▁whi	-11.6785
▁buildings	-11.6789
▁buff	-11.6792
▁ceiling	-11.6792
▁prostitute	-11.6792
▁application	-11.6792
▁mitchell	-11.6792
▁suffocat	-11.6793
▁arsehole	-11.6793
▁bruise	-11.6793
▁whisper	-11.6793
▁tuck	-11.6793
▁scoop	-11.6793
▁employer	-11.6794
▁groan	-11.6796
▁portrait	-11.6797
▁villain	-11.6797
▁yell	-11.6798
▁checkpoint	-11.6799
▁shuttle	-11.6803
▁organ	-11.6803
pen	-11.6803
▁beep	-11.6808
▁douglas	-11.6809
▁weaver	-11.6809
▁critic	-11.6812
▁elephant	-11.6816
▁sprinkle	-11.6816
▁politician	-11.6816
▁explosive	-11.682
▁palestinian	-11.682
▁item	-11.682
▁keg	-11.682
▁edition	-11.6821
▁token	-11.6824
▁passenger	-11.6826
▁consequence	-11.6827
▁twin	-11.6827
▁sha	-11.6827
▁relation	-11.6828
▁butcher	-11.6828
▁aerobic	-11.6828
▁tourist	-11.6829
▁republican	-11.683
▁commitment	-11.683
▁dam	-11.6832
▁employee	-11.6832
▁nurs	-11.6834
▁designer	-11.6836
▁lol	-11.684
▁suite	-11.6841
ddy	-11.6841
▁soci	-11.6845
▁flame	-11.6849
▁growl	-11.6849
▁fist	-11.6855
▁delight	-11.6855
▁sow	-11.6865
▁juliet	-11.6872
▁basin	-11.6873
▁bur	-11.6875
▁liv	-11.6876
▁continu	-11.688
▁bushwhack	-11.688
ature	-11.6886
▁cloth	-11.6889
usi	-11.6891
▁exp	-11.6892
loo	-11.6893
▁corps	-11.6893
▁writ	-11.6896
pack	-11.6896
▁vali	-11.69
▁flatter	-11.6901
ff	-11.6902
▁lilys	-11.6904
case	-11.6904
▁slash	-11.691
▁pond	-11.6912
bber	-11.6913
▁io	-11.6913
water	-11.6915
bri	-11.6916
▁affect	-11.6916
▁clap	-11.6919
▁jar	-11.6919
▁sweep	-11.6923
▁identify	-11.6923
nched	-11.6924
▁phon	-11.6924
ame	-11.6925
▁execut	-11.6925
▁entertain	-11.6925
key	-11.6926
▁coordinat	-11.6928
▁dwell	-11.6929
school	-11.6929
▁accord	-11.6929
▁jess	-11.693
ummy	-11.6931
burg	-11.6932
▁grill	-11.6933
▁distribut	-11.6933
▁fuss	-11.6933
bu	-11.6935
▁reload	-11.6936
pse	-11.6936
▁volunteer	-11.6937
▁infect	-11.6939
guard	-11.6939
▁involv	-11.694
audi	-11.694
organ	-11.694
▁regist	-11.6941
father	-11.6942
▁indige	-11.6943
cover	-11.6943
litter	-11.6943
construction	-11.6943
pound	-11.6943
horse	-11.6943
sync	-11.6943
minute	-11.6944
girl	-11.6944
▁discipline	-11.6945
▁fracture	-11.6945
▁investigate	-11.6945
wow	-11.6946
fall	-11.6946
flower	-11.6947
▁chunk	-11.6948
po	-11.6948
▁excite	-11.6949
▁determine	-11.6949
▁pursue	-11.6949
▁confuse	-11.695
▁pip	-11.695
▁teenage	-11.6951
▁greed	-11.6951
▁stead	-11.6952
▁qualit	-11.6953
ac	-11.6954
▁brutal	-11.6955
▁consistent	-11.6955
▁accurate	-11.6955
▁surprising	-11.6956
▁sauc	-11.6957
▁precise	-11.6957
▁explor	-11.6957
▁tow	-11.6958
▁drea	-11.6958
▁yea	-11.6958
▁caf	-11.696
met	-11.696
hre	-11.6961
▁audit	-11.6961
▁compare	-11.6961
▁reflex	-11.6961
▁innocen	-11.6962
▁profession	-11.6962
▁industri	-11.6962
cia	-11.6962
▁addition	-11.6962
▁continent	-11.6962
▁biograph	-11.6962
▁posse	-11.6963
▁toke	-11.6963
▁india	-11.6963
▁villa	-11.6963
▁destructi	-11.6964
▁info	-11.6964
▁supervise	-11.6964
▁maze	-11.6964
▁mild	-11.6965
terior	-11.6965
▁administ	-11.6965
▁leavin	-11.6965
▁smilin	-11.6965
▁egypt	-11.6965
▁strap	-11.6965
▁giddy	-11.6966
mark	-11.6966
xandra	-11.6966
year	-11.6966
▁jacobs	-11.6966
▁kidnap	-11.6966
▁jock	-11.6966
▁flour	-11.6966
▁restrict	-11.6966
▁toxic	-11.6966
▁cecil	-11.6966
▁margin	-11.6966
cussion	-11.6966
▁contemplat	-11.6966
▁straw	-11.6966
girdle	-11.6966
uckingbelievable	-11.6966
▁abroad	-11.6966
▁adequate	-11.6966
▁aleppo	-11.6966
▁antarctica	-11.6966
▁athens	-11.6966
▁attaboy	-11.6966
▁awhile	-11.6966
▁azuka	-11.6966
▁bahamas	-11.6966
▁bassett	-11.6966
▁beaucoup	-11.6966
▁beethoven	-11.6966
▁berlinghieri	-11.6966
▁biometric	-11.6966
▁blackjack	-11.6966
▁blatant	-11.6966
▁bourbon	-11.6966
▁brandnew	-11.6966
▁brazil	-11.6966
▁burrito	-11.6966
▁cambridge	-11.6966
▁caviar	-11.6966
▁charcoal	-11.6966
▁charging	-11.6966
▁clarify	-11.6966
▁clumsy	-11.6966
▁collateral	-11.6966
▁concentrating	-11.6966
▁conclude	-11.6966
▁conservative	-11.6966
▁conspiracy	-11.6966
▁crawford	-11.6966
▁creaking	-11.6966
▁crucify	-11.6966
▁crunching	-11.6966
▁cucamonga	-11.6966
▁curfew	-11.6966
▁darryl	-11.6966
▁deception	-11.6966
▁degenerate	-11.6966
▁delacourt	-11.6966
▁desoto	-11.6966
▁dirch	-11.6966
▁disregard	-11.6966
▁doorknob	-11.6966
▁dunnybum	-11.6966
▁dunsinane	-11.6966
▁evacuation	-11.6966
▁evidently	-11.6966
▁examination	-11.6966
▁exotic	-11.6966
▁extortion	-11.6966
▁eyewitness	-11.6966
▁flood	-11.6966
▁frankfurt	-11.6966
▁fugitive	-11.6966
▁giulio	-11.6966
▁gracie	-11.6966
▁graduation	-11.6966
▁gurdy	-11.6966
▁haggis	-11.6966
▁hamilton	-11.6966
▁heterosexual	-11.6966
▁homie	-11.6966
▁hvap	-11.6966
▁hybrid	-11.6966
▁hyena	-11.6966
▁ieave	-11.6966
▁immigrant	-11.6966
▁increasing	-11.6966
▁institute	-11.6966
▁intercept	-11.6966
▁interstate	-11.6966
▁intoxicat	-11.6966
▁jacoby	-11.6966
▁jeremy	-11.6966
▁jerusalem	-11.6966
▁jukebox	-11.6966
▁kersh	-11.6966
▁kurgan	-11.6966
▁kyoko	-11.6966
▁laferty	-11.6966
▁lazenby	-11.6966
▁leith	-11.6966
▁limousine	-11.6966
▁lloyd	-11.6966
▁lntercom	-11.6966
▁malfunction	-11.6966
▁marauders	-11.6966
▁marbro	-11.6966
▁memphis	-11.6966
▁mercenaries	-11.6966
▁microwave	-11.6966
▁minneapolis	-11.6966
▁modified	-11.6966
▁monahan	-11.6966
▁montgomery	-11.6966
▁mortgage	-11.6966
▁mosquito	-11.6966
▁mwah	-11.6966
▁nascimento	-11.6966
▁nemesis	-11.6966
▁neurological	-11.6966
▁nutrition	-11.6966
▁omaha	-11.6966
▁optimistic	-11.6966
▁orgasm	-11.6966
▁ornament	-11.6966
▁oshea	-11.6966
▁overwhelmed	-11.6966
▁patrol	-11.6966
▁perceptive	-11.6966
▁persuasive	-11.6966
▁philadelphia	-11.6966
▁playground	-11.6966
▁portsmith	-11.6966
▁portuguese	-11.6966
▁possibilities	-11.6966
▁preliminary	-11.6966
▁premiere	-11.6966
▁premium	-11.6966
▁probiem	-11.6966
▁provoke	-11.6966
▁psychiatry	-11.6966
▁qualification	-11.6966
▁quarantine	-11.6966
▁rasmussen	-11.6966
▁rattigan	-11.6966
▁reboot	-11.6966
▁reestablish	-11.6966
▁refresh	-11.6966
▁regift	-11.6966
▁reinforce	-11.6966
▁releasing	-11.6966
▁rematch	-11.6966
▁reprogram	-11.6966
▁reschedule	-11.6966
▁rewrote	-11.6966
▁ribbon	-11.6966
▁robitaille	-11.6966
▁roosevelt	-11.6966
▁rosalinda	-11.6966
▁sandusky	-11.6966
▁sauerkraut	-11.6966
▁schweiber	-11.6966
▁shlubb	-11.6966
▁significance	-11.6966
▁smear	-11.6966
▁stearns	-11.6966
▁submit	-11.6966
▁subscribe	-11.6966
▁suicidal	-11.6966
▁sunlight	-11.6966
▁suspension	-11.6966
▁tavington	-11.6966
▁tobacco	-11.6966
▁tutu	-11.6966
▁twig	-11.6966
▁unnecessary	-11.6966
▁unpleasant	-11.6966
▁uptight	-11.6966
▁vargas	-11.6966
▁variations	-11.6966
▁vulnerable	-11.6966
▁website	-11.6966
▁yukio	-11.6966
▁zimmer	-11.6966
▁airborne	-11.6966
▁bayonet	-11.6966
▁discrepanc	-11.6966
▁fideli	-11.6966
▁hesitate	-11.6966
▁isolate	-11.6966
▁jolly	-11.6966
▁mendoza	-11.6966
▁morphine	-11.6966
▁prune	-11.6966
▁seasick	-11.6966
▁snort	-11.6966
▁snug	-11.6966
▁stabbing	-11.6966
▁storsch	-11.6966
▁toledo	-11.6966
▁vouch	-11.6966
▁wilderness	-11.6966
▁xanax	-11.6966
▁bedlam	-11.6966
▁depressing	-11.6966
▁dishonor	-11.6966
▁fortress	-11.6966
▁itchy	-11.6966
▁moravec	-11.6966
▁revolt	-11.6966
▁sacrament	-11.6966
▁tingling	-11.6966
▁forrest	-11.6966
▁ladislav	-11.6966
▁laila	-11.6966
▁opportunities	-11.6966
▁plaza	-11.6966
▁rebuil	-11.6966
▁winstead	-11.6966
▁assessment	-11.6966
▁electra	-11.6966
▁janelle	-11.6966
▁leather	-11.6966
▁lipps	-11.6966
▁scones	-11.6966
▁twothirds	-11.6966
▁africanamerican	-11.6967
▁frequen	-11.6967
▁hydrogen	-11.6967
▁tweak	-11.6967
▁wizard	-11.6967
▁barbarians	-11.6967
▁cunning	-11.6967
▁headquarters	-11.6967
▁involvement	-11.6967
▁astonish	-11.6967
▁attila	-11.6967
▁departure	-11.6967
▁incarcerated	-11.6967
▁kameron	-11.6967
▁melbourne	-11.6967
▁residence	-11.6967
▁trudy	-11.6967
▁aryan	-11.6967
▁greer	-11.6967
▁grubitz	-11.6967
▁sabra	-11.6967
▁uppercut	-11.6967
▁authorization	-11.6967
▁methane	-11.6967
▁mischief	-11.6967
▁patter	-11.6967
▁shaving	-11.6967
▁tempted	-11.6967
▁disrespect	-11.6967
▁intrude	-11.6967
▁resign	-11.6967
▁aisle	-11.6967
▁chariot	-11.6967
▁cruci	-11.6967
▁esperate	-11.6967
▁jaded	-11.6967
▁murray	-11.6967
▁campbell	-11.6967
▁baloney	-11.6967
▁competition	-11.6967
▁autograph	-11.6967
▁sandahl	-11.6967
▁swift	-11.6967
▁violinist	-11.6967
▁chords	-11.6967
▁coletti	-11.6967
▁cuppy	-11.6967
▁hamburg	-11.6967
▁seventyfive	-11.6967
▁twentythree	-11.6967
▁welsh	-11.6967
▁analyz	-11.6967
▁kennedy	-11.6967
▁salander	-11.6967
▁capsule	-11.6967
▁descendants	-11.6967
▁motivation	-11.6967
▁penthouse	-11.6967
▁sieep	-11.6967
▁opponent	-11.6967
▁orvis	-11.6967
▁parrot	-11.6967
▁ashford	-11.6967
▁claws	-11.6967
▁creator	-11.6967
▁wooters	-11.6967
▁democrats	-11.6967
▁sculpture	-11.6967
▁witchcraft	-11.6967
umption	-11.6967
▁emerging	-11.6967
▁leroy	-11.6967
▁piotr	-11.6967
▁operator	-11.6967
▁settling	-11.6967
▁tyrant	-11.6967
▁milton	-11.6967
▁auden	-11.6967
▁wrench	-11.6967
▁brewery	-11.6967
▁colace	-11.6967
▁intercom	-11.6967
▁pedophile	-11.6967
▁randone	-11.6967
▁depth	-11.6967
▁inbound	-11.6967
▁psychological	-11.6967
▁rubbed	-11.6967
rkovic	-11.6967
▁testicles	-11.6967
▁burwell	-11.6967
▁meditation	-11.6967
▁battery	-11.6967
▁margie	-11.6967
▁chateau	-11.6967
▁compound	-11.6967
▁predictable	-11.6967
▁refill	-11.6967
▁resemble	-11.6967
adows	-11.6967
▁chung	-11.6967
▁forgiving	-11.6967
▁overdose	-11.6967
▁vibe	-11.6967
▁imperial	-11.6967
▁jennings	-11.6967
▁obligation	-11.6967
▁radical	-11.6967
▁circulation	-11.6967
▁pause	-11.6967
▁taiwan	-11.6967
▁whlstl	-11.6967
▁crucifix	-11.6967
▁thornton	-11.6967
▁briegel	-11.6967
▁bronson	-11.6967
▁humanitarian	-11.6967
▁cheesecake	-11.6967
▁intersection	-11.6967
▁acquaintance	-11.6967
▁hoppy	-11.6967
▁casualties	-11.6967
▁laptop	-11.6967
▁trading	-11.6967
▁donuts	-11.6967
▁iose	-11.6967
▁alaska	-11.6967
▁diplomacy	-11.6967
▁hydra	-11.6967
loaf	-11.6967
▁grub	-11.6967
▁install	-11.6967
▁mijo	-11.6967
▁shady	-11.6967
▁monroe	-11.6967
▁snore	-11.6967
▁snowstorm	-11.6967
▁tyler	-11.6967
▁refund	-11.6967
▁byline	-11.6967
▁constitution	-11.6967
▁dusk	-11.6967
▁geneva	-11.6967
▁urine	-11.6967
▁intolerance	-11.6967
▁gretta	-11.6967
▁uncool	-11.6967
▁persist	-11.6967
▁doodoo	-11.6967
▁inject	-11.6967
▁redneck	-11.6967
▁wiping	-11.6967
▁manipulative	-11.6967
▁buii	-11.6967
▁kono	-11.6967
▁strapped	-11.6967
▁molester	-11.6967
▁downhill	-11.6967
▁fanatic	-11.6967
▁fword	-11.6967
▁differ	-11.6967
▁horsepower	-11.6967
mita	-11.6967
▁blake	-11.6967
▁facial	-11.6967
▁tuna	-11.6967
▁tango	-11.6967
▁japan	-11.6968
▁superpower	-11.6968
▁bulldog	-11.6968
▁cockburn	-11.6968
▁exploration	-11.6968
▁malice	-11.6968
▁obli	-11.6968
▁nasser	-11.6968
▁chef	-11.6968
▁bogey	-11.6968
▁suitcase	-11.6968
▁broadway	-11.6968
▁flick	-11.6968
▁pluck	-11.6968
▁properties	-11.6968
▁ulla	-11.6968
▁fluid	-11.6968
▁oof	-11.6968
iquett	-11.6968
▁advisor	-11.6968
▁prediction	-11.6968
▁detonator	-11.6968
▁ratio	-11.6968
▁bundy	-11.6968
▁disney	-11.6968
▁milan	-11.6968
▁void	-11.6968
▁brothel	-11.6968
▁curb	-11.6968
▁diagnos	-11.6968
▁retail	-11.6968
shakin	-11.6968
▁middleweight	-11.6968
▁marco	-11.6968
▁springfield	-11.6968
▁toby	-11.6968
▁keycard	-11.6968
▁headliner	-11.6968
▁interior	-11.6968
▁intensity	-11.6968
▁sponge	-11.6968
▁preference	-11.6968
▁scribble	-11.6968
▁pillow	-11.6968
▁stashies	-11.6968
▁masculine	-11.6968
▁faking	-11.6968
▁identities	-11.6968
▁stanford	-11.6968
▁anderson	-11.6968
▁uris	-11.6968
▁amos	-11.6968
▁masterpiece	-11.6969
litzer	-11.6969
▁fagan	-11.6969
▁nutty	-11.6969
▁evie	-11.6969
▁cereal	-11.6969
▁skee	-11.6969
▁grenning	-11.6969
▁scandal	-11.6969
▁distribution	-11.6969
▁affection	-11.6969
▁posing	-11.6969
▁cruelty	-11.6969
▁romance	-11.6969
▁volle	-11.6969
▁voila	-11.6969
▁pornography	-11.6969
▁musket	-11.6969
▁swam	-11.6969
▁racket	-11.6969
▁consist	-11.6969
▁prodigy	-11.6969
▁anatomy	-11.6969
▁harass	-11.6969
▁hatred	-11.6969
▁nilla	-11.6969
▁destruction	-11.6969
▁improvement	-11.6969
▁minus	-11.6969
▁probe	-11.6969
▁dumpster	-11.6969
yeah	-11.697
▁cement	-11.697
▁nominated	-11.697
▁kingsley	-11.697
theless	-11.697
▁lieut	-11.697
▁greenville	-11.697
▁shirl	-11.697
▁livin	-11.697
▁rash	-11.697
▁obey	-11.697
▁aki	-11.697
▁iong	-11.697
▁vicar	-11.697
▁fanny	-11.697
▁tasting	-11.697
▁fudge	-11.697
▁pox	-11.697
▁dealership	-11.697
▁tripping	-11.697
▁sosa	-11.697
▁resentment	-11.6971
▁yyou	-11.6971
▁lewis	-11.6971
▁soviet	-11.6971
▁dignified	-11.6971
▁initial	-11.6971
▁shriek	-11.6971
▁wyoming	-11.6971
▁dagger	-11.6971
▁viet	-11.6971
▁tolerance	-11.6971
▁mmmmmm	-11.6971
▁ceo	-11.6971
▁rail	-11.6971
▁muzzle	-11.6971
▁hoid	-11.6971
▁valet	-11.6971
▁keyboard	-11.6971
▁crop	-11.6971
▁mustache	-11.6971
▁emmet	-11.6971
▁dismissed	-11.6971
▁sophisticated	-11.6971
▁budget	-11.6971
undant	-11.6971
▁vibrates	-11.6971
▁reflexes	-11.6971
▁der	-11.6972
▁enlist	-11.6972
▁narrat	-11.6972
▁slashes	-11.6972
▁splitting	-11.6972
▁taunt	-11.6972
▁perv	-11.6972
▁runaway	-11.6973
▁moran	-11.6973
▁meine	-11.6973
hereabouts	-11.6973
▁legitimate	-11.6973
▁beansie	-11.6973
▁irr	-11.6973
▁kurt	-11.6973
▁undressed	-11.6973
uary	-11.6973
▁parkway	-11.6973
▁hazard	-11.6973
▁popping	-11.6973
▁negotiat	-11.6973
▁romeo	-11.6973
▁kir	-11.6973
▁semen	-11.6973
▁bach	-11.6974
▁maul	-11.6974
store	-11.6974
▁winston	-11.6974
▁sober	-11.6974
▁overtime	-11.6974
▁glow	-11.6974
▁software	-11.6974
skell	-11.6974
mpire	-11.6974
▁erich	-11.6974
▁flank	-11.6974
▁cremat	-11.6974
▁martinis	-11.6975
▁slasher	-11.6975
▁sandro	-11.6975
▁begged	-11.6975
▁bravery	-11.6975
▁farther	-11.6975
▁consideration	-11.6975
▁sexuality	-11.6975
▁tide	-11.6976
▁ku	-11.6976
▁valour	-11.6976
▁infer	-11.6976
▁willy	-11.6976
▁griev	-11.6977
▁household	-11.6977
▁surprisingly	-11.6977
▁payback	-11.6977
▁core	-11.6977
▁overhear	-11.6977
▁crowe	-11.6977
▁vanisher	-11.6977
▁eric	-11.6977
▁approaches	-11.6977
▁respectfully	-11.6977
▁holly	-11.6977
▁baum	-11.6977
▁stack	-11.6978
ida	-11.6978
ague	-11.6978
stage	-11.6978
▁adjust	-11.6978
▁dried	-11.6978
▁navy	-11.6979
▁puncture	-11.6979
▁verse	-11.6979
▁cafe	-11.6979
▁prepped	-11.6979
▁panel	-11.6979
▁divided	-11.6979
▁gigi	-11.6979
▁weaponry	-11.6979
▁grossman	-11.6979
▁perp	-11.6979
quet	-11.6979
▁armored	-11.6979
▁tammy	-11.698
▁gentrifi	-11.698
▁calculat	-11.698
▁louie	-11.698
▁crazed	-11.698
▁cathy	-11.698
▁hash	-11.698
▁bedside	-11.6981
▁wee	-11.6981
▁urinate	-11.6981
erik	-11.6981
▁roid	-11.6981
▁vig	-11.6981
▁oz	-11.6981
star	-11.6981
▁coup	-11.6982
▁sittin	-11.6982
▁rapidly	-11.6983
▁severely	-11.6983
▁midst	-11.6983
▁dispatches	-11.6983
▁hatch	-11.6983
▁recite	-11.6983
max	-11.6984
▁pyr	-11.6984
▁playback	-11.6984
▁meaningless	-11.6984
zier	-11.6985
▁swelling	-11.6985
▁recruiting	-11.6985
▁yank	-11.6985
▁cinder	-11.6985
▁indicated	-11.6985
▁carriage	-11.6985
▁booby	-11.6985
▁seventy	-11.6985
▁delicate	-11.6985
▁ordinary	-11.6985
▁tighten	-11.6985
▁secondhand	-11.6985
▁alh	-11.6986
kin	-11.6986
▁render	-11.6986
▁agony	-11.6986
▁snowman	-11.6987
▁primal	-11.6987
▁sleepwalking	-11.6987
atic	-11.6987
▁johnno	-11.6987
▁mont	-11.6987
asm	-11.6987
▁protective	-11.6987
▁apo	-11.6987
▁mall	-11.6987
▁produce	-11.6988
▁delayed	-11.6988
▁confronted	-11.6988
▁disgusted	-11.6988
▁plat	-11.6988
▁globe	-11.6988
▁acceptable	-11.6989
▁disorderly	-11.6989
▁losses	-11.6989
▁hotter	-11.6989
▁funni	-11.6989
▁conductor	-11.6989
▁stamp	-11.6989
▁vain	-11.6989
▁jackoff	-11.699
▁immigration	-11.699
▁pursued	-11.699
▁supervised	-11.699
▁poop	-11.699
▁hoodlums	-11.6991
▁silkworms	-11.6991
▁slippers	-11.6991
▁clanks	-11.6991
▁negotiations	-11.6991
▁starved	-11.6991
▁fraud	-11.6991
▁postman	-11.6991
▁raisins	-11.6992
▁digit	-11.6993
▁hana	-11.6994
▁straining	-11.6994
▁ciao	-11.6994
▁swipe	-11.6994
▁dire	-11.6994
away	-11.6995
▁volunteered	-11.6996
▁redheaded	-11.6997
▁instantly	-11.6997
▁nickel	-11.6997
▁fury	-11.6997
▁grownup	-11.6997
▁vine	-11.6997
▁vibrat	-11.6998
lka	-11.6999
▁preach	-11.6999
▁investor	-11.6999
▁produced	-11.6999
▁hardball	-11.7
▁manpower	-11.7
▁cheaper	-11.7
▁assassinated	-11.7001
embers	-11.7001
▁everyday	-11.7001
▁corny	-11.7001
▁freezer	-11.7002
▁bedtime	-11.7002
▁helena	-11.7003
▁tee	-11.7004
▁humanity	-11.7004
▁fearless	-11.7004
▁punches	-11.7005
▁casing	-11.7005
▁wheeler	-11.7006
▁mansion	-11.7006
▁cull	-11.7007
▁hunger	-11.7008
▁ford	-11.7008
▁highness	-11.7008
▁blurr	-11.7008
▁howling	-11.7009
▁heighten	-11.7009
▁whir	-11.7011
▁ratsy	-11.7011
▁cargo	-11.7012
▁freakin	-11.7013
▁quinc	-11.7015
▁daryl	-11.7015
▁magical	-11.7016
atory	-11.7016
▁documented	-11.7017
▁shagg	-11.7017
▁hiking	-11.7017
▁scan	-11.7018
▁abused	-11.7019
▁tugger	-11.702
▁punishing	-11.702
▁for	-11.7021
▁summoning	-11.7021
▁polling	-11.7021
▁accomplished	-11.7022
▁tash	-11.7022
▁reminder	-11.7022
▁momma	-11.7024
real	-11.7024
▁wil	-11.7025
▁oppressi	-11.7025
▁stitched	-11.7027
▁controll	-11.7028
▁mur	-11.7029
iko	-11.703
▁manual	-11.703
▁lace	-11.703
▁confessing	-11.7032
▁poly	-11.7032
▁pearls	-11.7033
▁amateurs	-11.7033
▁croquettes	-11.7033
▁precautions	-11.7033
▁mothership	-11.7033
▁weaker	-11.7034
▁restraints	-11.7034
▁proven	-11.7034
sided	-11.7034
▁sinking	-11.7034
stopp	-11.7035
▁oer	-11.7036
▁bid	-11.7038
▁shitti	-11.7039
▁baron	-11.704
▁severed	-11.704
▁offers	-11.7041
▁backyard	-11.7044
▁gant	-11.7045
▁bia	-11.7046
▁alter	-11.7047
▁wrecked	-11.7048
▁conducted	-11.7048
▁unan	-11.7048
▁dinging	-11.705
▁willingly	-11.705
▁sprayed	-11.7052
▁foundation	-11.7053
▁healing	-11.7056
▁redeem	-11.7056
▁walt	-11.7056
▁kal	-11.7059
▁carrier	-11.706
▁dense	-11.7061
▁fuckall	-11.7061
▁dearest	-11.7062
▁correctly	-11.7062
▁drakey	-11.7063
▁meth	-11.7065
▁fling	-11.7065
▁resisted	-11.7065
▁philo	-11.7067
▁jin	-11.7067
fi	-11.7068
▁cooker	-11.7069
▁damnation	-11.707
▁lil	-11.7072
▁tally	-11.7074
▁organizations	-11.7076
▁shillings	-11.7076
▁lyrics	-11.7076
▁sensors	-11.7076
▁wrestlers	-11.7077
▁howl	-11.708
▁dames	-11.7081
ours	-11.7082
▁succeeded	-11.7082
▁collected	-11.7083
▁stocked	-11.7083
▁prey	-11.7083
▁coy	-11.7084
▁karla	-11.7085
▁sanders	-11.7085
▁poke	-11.7089
▁muck	-11.7092
▁dash	-11.7093
jil	-11.7096
▁locker	-11.7097
▁bent	-11.7097
▁scratching	-11.7097
▁taik	-11.7097
▁bakers	-11.7097
▁transmitt	-11.7098
wing	-11.71
▁pope	-11.7102
changes	-11.7102
ook	-11.7103
uther	-11.7103
▁applauding	-11.7104
▁lig	-11.7105
▁bailed	-11.7108
▁estimates	-11.711
▁import	-11.7113
▁hopeful	-11.7114
▁traced	-11.7115
▁merciless	-11.7119
▁critics	-11.7119
▁elephants	-11.7119
▁sprinkles	-11.7119
▁politicians	-11.712
▁kegs	-11.712
▁fists	-11.7121
▁designers	-11.7124
▁tor	-11.7125
▁generally	-11.7126
▁earning	-11.7128
▁collecting	-11.7128
▁metaphorical	-11.713
▁eggy	-11.7131
sook	-11.7136
▁pai	-11.7136
▁boxer	-11.7146
▁curs	-11.7148
uffalo	-11.7148
iness	-11.7151
▁chewie	-11.7155
▁farting	-11.7156
▁seals	-11.7157
▁shortly	-11.7159
▁receipts	-11.7163
▁melts	-11.7164
▁groove	-11.7168
▁sadly	-11.7173
▁assassins	-11.7175
▁takeoff	-11.7179
ming	-11.7181
▁weaken	-11.7182
▁dent	-11.7189
▁pur	-11.7193
▁djs	-11.7193
▁vers	-11.72
▁switched	-11.7204
rian	-11.7205
▁quicker	-11.7207
moral	-11.7207
▁bons	-11.7207
▁suggested	-11.7207
▁cannons	-11.7207
▁implants	-11.7207
▁graduates	-11.7208
▁heights	-11.7208
▁pitching	-11.7216
▁hiss	-11.7222
▁mins	-11.7223
track	-11.7226
▁tearing	-11.7227
▁banged	-11.7234
▁introduc	-11.7235
▁payin	-11.7236
▁avoiding	-11.7237
▁clip	-11.7239
▁epip	-11.7242
▁yearn	-11.7243
▁cube	-11.7247
▁climbing	-11.7249
wan	-11.7249
▁mutants	-11.7252
▁sheets	-11.7252
▁limits	-11.7252
▁rags	-11.7259
▁meter	-11.726
▁hunters	-11.7262
ami	-11.7263
▁spreading	-11.7263
▁touches	-11.7263
▁fer	-11.7265
▁hitter	-11.7277
▁commanded	-11.7278
▁tubes	-11.728
▁goals	-11.7285
ino	-11.7288
bie	-11.7292
ven	-11.7292
▁clearer	-11.7293
▁noted	-11.7294
▁tshirts	-11.7296
▁skirts	-11.7296
▁exams	-11.7296
▁shadows	-11.7298
▁towers	-11.7298
▁witnessed	-11.7301
▁tasted	-11.7303
▁smokey	-11.7304
▁skis	-11.7305
chchchch	-11.7306
▁kub	-11.7308
▁boa	-11.7309
▁boob	-11.7311
▁digg	-11.7316
▁classy	-11.7326
▁oldies	-11.7329
apo	-11.7332
▁guarded	-11.7332
ollock	-11.7333
▁turnin	-11.7333
▁cope	-11.7336
▁balloons	-11.7341
▁pinkys	-11.7341
bl	-11.7345
▁cultur	-11.7351
▁doorway	-11.7355
mic	-11.7366
▁gogo	-11.7374
rate	-11.7375
chi	-11.7385
▁nerves	-11.7385
▁bogarts	-11.7385
▁procedures	-11.7385
▁compliments	-11.7385
▁wage	-11.7387
▁lookout	-11.7389
▁walker	-11.74
▁needy	-11.7405
▁freely	-11.7405
▁pains	-11.741
cap	-11.7413
▁pitcher	-11.7415
▁thankful	-11.7415
twothree	-11.7417
▁notch	-11.7423
▁charms	-11.7427
▁principles	-11.743
▁rewards	-11.7432
▁askin	-11.7432
▁israelis	-11.7433
▁scouts	-11.7434
some	-11.744
▁hating	-11.7442
▁cree	-11.7443
▁bos	-11.7453
▁pissing	-11.7459
▁darn	-11.746
▁committ	-11.7463
nuck	-11.7464
ford	-11.7465
▁differently	-11.7467
▁degrad	-11.7472
▁exhaust	-11.7472
ddle	-11.7474
▁garretts	-11.7476
▁cooperat	-11.7477
low	-11.748
rick	-11.7481
ington	-11.7488
tion	-11.7499
▁leaks	-11.7519
▁mannings	-11.7521
▁steaks	-11.7521
▁kidnappers	-11.7521
▁cheeks	-11.7525
▁carb	-11.7533
vol	-11.7533
▁rica	-11.7537
▁feared	-11.7537
cro	-11.7545
▁disc	-11.7553
▁playa	-11.7554
▁selen	-11.7559
ner	-11.7563
nut	-11.7565
▁hairy	-11.7566
▁vikings	-11.7566
▁blades	-11.7568
▁schu	-11.7571
ez	-11.7576
zer	-11.758
▁tens	-11.7585
tas	-11.7592
▁believer	-11.7597
ec	-11.7606
oid	-11.7608
▁grandpas	-11.7612
pez	-11.7614
cant	-11.7617
ov	-11.7624
▁estimate	-11.7625
▁turner	-11.7635
▁interviewing	-11.7656
▁ic	-11.7657
▁strings	-11.7658
▁creatures	-11.7658
▁corporations	-11.7658
▁jo	-11.7658
▁flows	-11.766
▁disappears	-11.766
za	-11.7661
▁congress	-11.7682
▁whippe	-11.7686
▁figures	-11.7696
gie	-11.7702
▁bounc	-11.7711
▁serv	-11.7722
rat	-11.7748
▁shrinks	-11.775
▁appointments	-11.775
▁owners	-11.7751
vis	-11.7754
▁statements	-11.7754
▁ignor	-11.7754
▁manipulat	-11.7767
▁bark	-11.7775
uc	-11.778
▁crowded	-11.7784
▁gagi	-11.7795
▁mondays	-11.7797
▁lively	-11.7799
▁seated	-11.78
▁whas	-11.782
▁doms	-11.7826
delta	-11.7827
▁chipp	-11.7832
▁dodge	-11.7833
▁retrieve	-11.7838
▁fli	-11.7839
▁priests	-11.7843
▁telephones	-11.7843
let	-11.7845
rable	-11.7852
▁hugs	-11.7858
▁buyers	-11.7877
▁fabric	-11.7878
▁confine	-11.7887
▁friendships	-11.789
ium	-11.7891
▁bums	-11.7911
plane	-11.7916
▁hos	-11.7927
▁donn	-11.793
▁rou	-11.7934
▁encourag	-11.7935
▁dista	-11.7936
▁tongues	-11.7937
▁legends	-11.7937
▁directors	-11.7939
▁jackets	-11.7946
▁pros	-11.7954
▁viva	-11.798
nne	-11.7993
▁pac	-11.8001
▁cru	-11.802
▁meetings	-11.8027
▁masse	-11.8032
▁swearing	-11.8034
▁smelling	-11.8065
▁leagues	-11.8079
vern	-11.808
▁planets	-11.8091
▁bats	-11.8095
acht	-11.8104
▁masturbat	-11.8104
ugger	-11.8119
▁anal	-11.8124
▁receives	-11.8125
▁freedoms	-11.8126
▁fridays	-11.8127
▁grabs	-11.8135
▁vin	-11.8141
▁plo	-11.8142
gression	-11.8143
▁linger	-11.8149
▁cath	-11.8153
put	-11.817
▁visions	-11.8174
▁vo	-11.8188
▁hav	-11.8203
▁outsider	-11.8205
ado	-11.8214
▁periods	-11.8216
▁sights	-11.8218
evi	-11.8222
▁regrets	-11.8222
▁borders	-11.8224
ye	-11.8229
▁suggests	-11.8232
▁fund	-11.8241
▁latch	-11.8247
▁demonstrat	-11.8256
▁allergi	-11.8268
▁signals	-11.8271
▁sits	-11.8282
▁banker	-11.8295
▁tra	-11.8303
▁rev	-11.831
▁connections	-11.832
▁scrape	-11.8338
▁rides	-11.8351
▁crow	-11.8369
ching	-11.8375
▁sw	-11.8395
oned	-11.8428
udge	-11.8428
▁eu	-11.8441
ugging	-11.8518
▁nicely	-11.8536
▁uglie	-11.8542
▁countrys	-11.8543
hiba	-11.8557
▁cuffe	-11.8559
filled	-11.857
▁dares	-11.8578
▁anni	-11.859
▁cas	-11.8598
▁frag	-11.8611
▁lice	-11.8616
▁complet	-11.8632
gy	-11.8632
▁baker	-11.8639
ficial	-11.864
▁sheep	-11.864
ix	-11.8646
our	-11.866
lene	-11.8662
ants	-11.8673
▁fla	-11.8677
ote	-11.8686
▁dau	-11.8689
▁fie	-11.8719
ninety	-11.8722
▁on	-11.8727
dick	-11.8733
▁victoria	-11.8737
▁diploma	-11.8747
ury	-11.8752
▁warrens	-11.8765
handed	-11.8767
gone	-11.8781
▁stripp	-11.8782
▁mcg	-11.8797
▁hem	-11.8804
vion	-11.881
▁bridges	-11.8816
ill	-11.8839
▁spi	-11.884
grade	-11.8854
hold	-11.8862
▁gifts	-11.8865
▁rocking	-11.887
▁myr	-11.8872
▁benz	-11.8873
▁clo	-11.8884
▁masturbate	-11.8904
xe	-11.8905
▁risks	-11.8907
imming	-11.8915
▁pane	-11.8916
▁cunts	-11.8917
ag	-11.8917
▁reader	-11.8919
▁spaces	-11.8919
cam	-11.8926
▁theori	-11.8927
wait	-11.8934
ple	-11.8936
orado	-11.8937
mat	-11.8938
car	-11.8951
fly	-11.8953
▁def	-11.8965
▁mats	-11.8973
▁abe	-11.8978
ike	-11.9006
dam	-11.901
od	-11.9023
ries	-11.9051
ible	-11.9058
▁bonn	-11.906
▁decisions	-11.907
▁grows	-11.9086
▁encourage	-11.909
▁doe	-11.9106
▁coo	-11.9112
nda	-11.9118
bit	-11.9119
armed	-11.9184
nar	-11.9186
enin	-11.9194
ber	-11.9207
▁moist	-11.922
▁pools	-11.9223
ach	-11.9225
rine	-11.9241
hm	-11.9257
ring	-11.9277
nc	-11.9285
▁kicks	-11.9286
duced	-11.9302
▁blaze	-11.9351
fetched	-11.9353
umb	-11.9355
kel	-11.9368
ire	-11.9383
okie	-11.9383
▁ou	-11.9404
▁shak	-11.942
▁lia	-11.9425
mor	-11.9436
not	-11.946
▁callie	-11.9518
ast	-11.9525
▁judg	-11.9551
▁visits	-11.9552
rden	-11.9558
rys	-11.9559
amy	-11.9575
▁bites	-11.9606
vac	-11.9607
promoted	-11.9608
ving	-11.9617
ano	-11.9621
▁thi	-11.9637
bi	-11.9649
▁was	-11.9661
mmy	-11.9665
▁poo	-11.9671
wind	-11.9672
▁nancys	-11.9703
▁necks	-11.9704
▁hotels	-11.9708
ud	-11.972
halo	-11.9723
ality	-11.9728
gen	-11.9729
ival	-11.9734
▁specializ	-11.9742
rus	-11.9758
trained	-11.9759
▁suns	-11.9773
tag	-11.9808
▁languages	-11.9812
ld	-11.9821
▁bulge	-11.9822
▁carp	-11.9829
▁wag	-11.9833
▁pri	-11.9845
ppy	-11.9847
▁ven	-11.9856
▁fel	-11.9901
spect	-11.9905
va	-11.9908
fication	-11.9909
▁abusi	-11.9934
▁infl	-11.9939
▁forg	-11.9944
tripped	-11.9949
▁cole	-11.9959
arch	-11.9966
▁cord	-11.9976
teful	-11.9982
tto	-11.9982
▁lam	-11.9984
ym	-11.9985
▁sag	-11.9993
▁babysit	-12.0007
▁wrapp	-12.0016
▁ign	-12.0016
ept	-12.0017
tra	-12.002
▁vans	-12.0022
▁wonders	-12.0024
▁ps	-12.0035
▁promot	-12.0037
▁twentyf	-12.004
gious	-12.0041
nosed	-12.0058
▁clar	-12.0061
ement	-12.0078
▁situations	-12.0088
▁raci	-12.0094
oud	-12.0098
▁decor	-12.01
▁haunt	-12.0101
▁transmit	-12.0108
nounced	-12.0109
▁reel	-12.011
dial	-12.0111
▁epi	-12.0111
▁wank	-12.0112
ax	-12.0115
anges	-12.0116
▁roar	-12.0119
ssel	-12.0119
zie	-12.0119
▁refuge	-12.0121
▁gab	-12.0123
▁scholar	-12.0126
▁cigar	-12.0126
▁syllable	-12.0126
▁definition	-12.0126
▁sidewalk	-12.0126
▁retain	-12.0126
▁sermon	-12.0126
▁stool	-12.0127
▁logic	-12.0128
press	-12.0128
▁wrinkle	-12.0129
▁recommendation	-12.013
▁isley	-12.013
▁copper	-12.0133
▁audi	-12.0133
▁stutter	-12.0133
eka	-12.0135
that	-12.0135
▁pupil	-12.0135
ologist	-12.0136
▁lease	-12.0138
there	-12.0139
ect	-12.0139
▁insult	-12.0139
▁noodle	-12.0142
▁decade	-12.0142
▁gran	-12.0142
▁painkiller	-12.0144
▁virtue	-12.0145
▁lyric	-12.0149
▁shilling	-12.0149
▁floorboard	-12.015
nell	-12.0151
▁sensor	-12.0152
▁expense	-12.0153
▁charade	-12.0154
▁instinct	-12.0156
▁lycan	-12.0156
▁organization	-12.0157
▁handcuff	-12.0158
▁engraving	-12.0159
▁resource	-12.0159
▁wrestler	-12.016
▁shares	-12.0161
▁insect	-12.0162
▁instruction	-12.0162
nows	-12.0162
▁expression	-12.0165
▁wither	-12.0165
▁brake	-12.0166
aken	-12.017
▁dame	-12.0172
tial	-12.0174
▁cong	-12.0175
▁cutter	-12.0178
▁heel	-12.0181
▁why	-12.0186
arriers	-12.0189
▁outrun	-12.019
▁organiz	-12.019
▁shark	-12.0196
perative	-12.0197
bad	-12.0204
▁gunfight	-12.0204
hens	-12.0205
▁refer	-12.0206
▁sob	-12.021
▁sander	-12.0212
▁consum	-12.0216
▁provid	-12.0217
▁mort	-12.0218
power	-12.0218
city	-12.0228
▁squa	-12.0229
▁geez	-12.0229
ckle	-12.0231
pick	-12.0231
▁gib	-12.0232
▁disgust	-12.0233
culate	-12.0234
wood	-12.024
▁geek	-12.0242
▁sens	-12.0243
place	-12.0246
most	-12.0247
▁gulp	-12.0252
worth	-12.0253
▁weep	-12.0254
▁plumb	-12.0254
▁counsel	-12.0254
▁reopen	-12.0256
▁nob	-12.0257
▁decid	-12.0258
▁nav	-12.0258
west	-12.0259
▁annoy	-12.0262
uze	-12.0262
love	-12.0263
etta	-12.0264
▁plea	-12.0264
▁adapt	-12.0265
▁stash	-12.0267
giving	-12.0267
▁homicid	-12.0267
▁wail	-12.0269
▁holler	-12.0269
▁download	-12.027
body	-12.027
▁confront	-12.027
spoke	-12.027
▁transform	-12.0271
foo	-12.0272
ridge	-12.0272
mother	-12.0272
▁surround	-12.0272
fight	-12.0273
print	-12.0274
▁crook	-12.0274
carriage	-12.0274
ordinary	-12.0274
▁shag	-12.0274
delicate	-12.0274
agra	-12.0274
worm	-12.0274
faithful	-12.0275
vous	-12.0275
clap	-12.0275
weight	-12.0275
limited	-12.0275
proof	-12.0275
cycle	-12.0275
mistress	-12.0275
authorized	-12.0276
blank	-12.0276
retching	-12.0276
storm	-12.0276
advantage	-12.0276
▁cran	-12.0277
reach	-12.0277
rug	-12.0277
dollar	-12.0277
free	-12.0277
complete	-12.0277
finished	-12.0277
fifty	-12.0277
johnny	-12.0277
temper	-12.0277
together	-12.0277
hurst	-12.0278
wire	-12.0278
week	-12.0278
whoo	-12.0278
seven	-12.0278
telling	-12.0278
▁humiliate	-12.0278
▁sig	-12.0278
▁rende	-12.0279
seat	-12.0279
went	-12.028
text	-12.028
wall	-12.028
▁delay	-12.028
today	-12.0281
trace	-12.0281
▁craze	-12.0281
▁heavi	-12.0281
▁educate	-12.0282
dead	-12.0282
▁exile	-12.0282
▁mute	-12.0282
based	-12.0283
turned	-12.0283
▁stam	-12.0283
box	-12.0283
▁stain	-12.0284
ispu	-12.0284
▁thirst	-12.0284
▁celebrit	-12.0285
hood	-12.0285
▁traged	-12.0285
player	-12.0285
▁syn	-12.0285
▁murph	-12.0285
▁upp	-12.0285
leak	-12.0287
▁welt	-12.0287
▁poster	-12.0287
▁advi	-12.0287
tail	-12.0288
plain	-12.0288
band	-12.0288
▁coul	-12.0288
▁vigorous	-12.0289
kill	-12.0289
page	-12.0289
▁exten	-12.0289
▁recip	-12.029
▁prosecut	-12.029
▁intellect	-12.029
▁technical	-12.0291
moving	-12.0291
▁impro	-12.0291
gut	-12.0292
▁rehears	-12.0292
▁simp	-12.0292
▁russ	-12.0293
keeper	-12.0294
obedi	-12.0294
▁function	-12.0294
▁savi	-12.0294
▁straighten	-12.0295
▁tomato	-12.0295
▁withdraw	-12.0295
cry	-12.0295
▁happie	-12.0295
▁nigeria	-12.0295
▁crip	-12.0296
▁spec	-12.0296
uit	-12.0296
▁orde	-12.0296
▁easie	-12.0297
▁slag	-12.0297
stitution	-12.0297
▁intent	-12.0297
▁interact	-12.0297
▁construct	-12.0298
talking	-12.0298
▁mutt	-12.0298
▁everythin	-12.0298
▁anythin	-12.0298
▁bench	-12.0299
▁regime	-12.0299
▁enforce	-12.0299
emer	-12.0299
▁bren	-12.0299
▁leisure	-12.0299
wich	-12.0299
▁recogni	-12.0299
flavor	-12.0299
▁insur	-12.0299
▁francis	-12.03
▁beggin	-12.03
▁nichol	-12.03
▁erra	-12.03
licious	-12.03
▁symp	-12.03
▁beck	-12.03
▁dyna	-12.03
▁neighbour	-12.03
▁devere	-12.03
▁dyin	-12.03
▁racquet	-12.03
▁gymnast	-12.03
▁blasphem	-12.03
▁evaporat	-12.03
▁trespass	-12.03
amphetamine	-12.03
inflammatory	-12.03
mptu	-12.03
ohenschoenhausen	-12.03
pathy	-12.03
relevant	-12.03
▁abducted	-12.03
▁abdul	-12.03
▁accelerant	-12.03
▁acclimate	-12.03
▁accomplice	-12.03
▁acknowledgment	-12.03
▁aerosmith	-12.03
▁affleck	-12.03
▁albino	-12.03
▁alchir	-12.03
▁allegiance	-12.03
▁alternator	-12.03
▁ambivalence	-12.03
▁amoroso	-12.03
▁anesthesi	-12.03
▁annehelene	-12.03
▁archeology	-12.03
▁armadyne	-12.03
▁babyboom	-12.03
▁baklava	-12.03
▁barmaid	-12.03
▁barricade	-12.03
▁beaumont	-12.03
▁beaver	-12.03
▁beige	-12.03
▁beijing	-12.03
▁bernardino	-12.03
▁bieber	-12.03
▁billionaire	-12.03
▁blackhawk	-12.03
▁boomboom	-12.03
▁broadcast	-12.03
▁bypass	-12.03
▁cardiovascular	-12.03
▁centinela	-12.03
▁centipede	-12.03
▁chaiyo	-12.03
▁chardonnay	-12.03
▁charred	-12.03
▁cilantro	-12.03
▁clamp	-12.03
▁cluster	-12.03
▁coetzee	-12.03
▁colonial	-12.03
▁columbus	-12.03
▁commie	-12.03
▁companies	-12.03
▁comprende	-12.03
▁conquest	-12.03
▁consolation	-12.03
▁contender	-12.03
▁corpus	-12.03
▁courtmartialed	-12.03
▁cumberland	-12.03
▁curvy	-12.03
▁cyborg	-12.03
▁daywalker	-12.03
▁deadlights	-12.03
▁decapitated	-12.03
▁deceit	-12.03
▁defrost	-12.03
▁delinquent	-12.03
▁deprived	-12.03
▁desalvo	-12.03
▁discharge	-12.03
▁disintegrate	-12.03
▁dissident	-12.03
▁dolphin	-12.03
▁eavesdrop	-12.03
▁efficient	-12.03
▁eiizabeth	-12.03
▁embezzle	-12.03
▁embroider	-12.03
▁episode	-12.03
▁essence	-12.03
▁exboyfriend	-12.03
▁exfil	-12.03
▁exhaling	-12.03
▁exposure	-12.03
▁facetoface	-12.03
▁falcon	-12.03
▁fascinated	-12.03
▁femini	-12.03
▁fencing	-12.03
▁fetish	-12.03
▁filipino	-12.03
▁folklore	-12.03
▁fonnesbechs	-12.03
▁fulani	-12.03
▁fundamental	-12.03
▁gazelle	-12.03
▁gilcrest	-12.03
▁gobshite	-12.03
▁granddaughter	-12.03
▁gravediggers	-12.03
▁grizzly	-12.03
▁guinea	-12.03
▁guinness	-12.03
▁hanalei	-12.03
▁hessenstein	-12.03
▁historian	-12.03
▁hutchinson	-12.03
▁hyehwa	-12.03
▁impeccable	-12.03
▁impostor	-12.03
▁incapable	-12.03
▁inconvenien	-12.03
▁infallible	-12.03
▁insert	-12.03
▁inspiration	-12.03
▁intact	-12.03
▁intrigue	-12.03
▁irresponsible	-12.03
▁isolation	-12.03
▁jindra	-12.03
▁jovial	-12.03
▁jurisdiction	-12.03
▁kangaroo	-12.03
▁kastagir	-12.03
▁kintus	-12.03
▁kirsten	-12.03
▁klump	-12.03
▁kodug	-12.03
▁koolaid	-12.03
▁leotard	-12.03
▁limbaugh	-12.03
▁litalia	-12.03
▁lndistinct	-12.03
▁malignant	-12.03
▁manhattan	-12.03
▁massachusetts	-12.03
▁matilda	-12.03
▁mcbride	-12.03
▁mcmurdo	-12.03
▁mcroberts	-12.03
▁mcwilley	-12.03
▁mercenary	-12.03
▁merchandise	-12.03
▁metaphysical	-12.03
▁miyagi	-12.03
▁mooresville	-12.03
▁neanderthal	-12.03
▁necessity	-12.03
▁neighs	-12.03
▁nifty	-12.03
▁nomak	-12.03
▁norwegian	-12.03
▁numerals	-12.03
▁numerous	-12.03
▁obstacle	-12.03
▁obtain	-12.03
▁olivier	-12.03
▁ongoing	-12.03
▁optimal	-12.03
▁optimum	-12.03
▁orchard	-12.03
▁outbursts	-12.03
▁overwhelming	-12.03
▁parachutists	-12.03
▁peacock	-12.03
▁peculiar	-12.03
▁pelevin	-12.03
▁peppermint	-12.03
▁philippe	-12.03
▁picnic	-12.03
▁pineapple	-12.03
▁plastique	-12.03
▁platinum	-12.03
▁porcelain	-12.03
▁powaqa	-12.03
▁prank	-12.03
▁precinct	-12.03
▁profane	-12.03
▁proportion	-12.03
▁provincial	-12.03
▁psychotherapy	-12.03
▁quixote	-12.03
▁railroad	-12.03
▁reassure	-12.03
▁reckless	-12.03
▁reclinin	-12.03
▁recollection	-12.03
▁redemption	-12.03
▁regency	-12.03
▁regrettably	-12.03
▁revelation	-12.03
▁revenue	-12.03
▁ricochet	-12.03
▁rosemary	-12.03
▁rpg	-12.03
▁rumpelstiltskin	-12.03
▁sabbath	-12.03
▁sabrina	-12.03
▁saliva	-12.03
▁sapphire	-12.03
▁schnuff	-12.03
▁seamstress	-12.03
▁seatbelts	-12.03
▁selfconscious	-12.03
▁shredded	-12.03
▁siobhan	-12.03
▁smuggling	-12.03
▁splinter	-12.03
▁squelching	-12.03
▁stadium	-12.03
▁stalker	-12.03
▁steriliz	-12.03
▁stubborn	-12.03
▁stucco	-12.03
▁suavemente	-12.03
▁subconscious	-12.03
▁subpoena	-12.03
▁suburbs	-12.03
▁sufficient	-12.03
▁sugarbear	-12.03
▁suriorule	-12.03
▁symmetr	-12.03
▁teresa	-12.03
▁threshold	-12.03
▁tminus	-12.03
▁torpedo	-12.03
▁trembling	-12.03
▁trinity	-12.03
▁trivial	-12.03
▁trophies	-12.03
▁troubie	-12.03
▁trousers	-12.03
▁tucson	-12.03
▁tweezers	-12.03
▁twitter	-12.03
▁tyanyu	-12.03
▁unanswered	-12.03
▁uninvited	-12.03
▁unlucky	-12.03
▁unprecedented	-12.03
▁unsafe	-12.03
▁untouch	-12.03
▁upstate	-12.03
▁valhalla	-12.03
▁vapor	-12.03
▁varna	-12.03
▁velvet	-12.03
▁verify	-12.03
▁vermin	-12.03
▁vulgar	-12.03
▁vulture	-12.03
▁warfare	-12.03
▁wisconsin	-12.03
▁witkin	-12.03
▁worthwhile	-12.03
▁wrevock	-12.03
▁yekke	-12.03
▁yogurt	-12.03
▁zdrowie	-12.03
▁absorb	-12.03
▁analyst	-12.03
▁cambodia	-12.03
▁cheepcheepcheep	-12.03
▁colombia	-12.03
▁compromis	-12.03
▁detach	-12.03
▁handicap	-12.03
▁hypothetical	-12.03
▁miraculous	-12.03
▁scrub	-12.03
▁unofficial	-12.03
aphrodi	-12.03
▁accumulat	-12.03
▁adhere	-12.03
▁briefcases	-12.03
▁bunnies	-12.03
▁cadet	-12.03
▁calais	-12.03
▁clinking	-12.03
▁dragoons	-12.03
▁dvd	-12.03
▁dylan	-12.03
▁eccentric	-12.03
▁emilie	-12.03
▁figurative	-12.03
▁generosity	-12.03
▁gesture	-12.03
▁gottfried	-12.03
▁incoming	-12.03
▁legacy	-12.03
▁mamma	-12.03
▁mayhem	-12.03
▁millionaire	-12.03
▁niece	-12.03
▁noisy	-12.03
▁promising	-12.03
▁sheldon	-12.03
▁shortcuts	-12.03
▁sledge	-12.03
▁sonofa	-12.03
▁swimsuit	-12.03
▁testify	-12.03
▁vaccin	-12.03
▁auditorium	-12.03
▁basque	-12.03
▁cardinal	-12.03
▁cheesy	-12.03
▁dwy	-12.03
▁figuring	-12.03
▁floss	-12.03
▁highlight	-12.03
▁kansas	-12.03
▁reassuring	-12.03
▁santee	-12.03
▁upwards	-12.03
arggh	-12.03
▁caution	-12.03
▁cheyenne	-12.03
▁commod	-12.03
▁discretion	-12.03
▁harald	-12.03
▁intervention	-12.03
▁jabbing	-12.03
▁minivan	-12.03
▁salvage	-12.03
▁sanctuary	-12.03
▁stubbs	-12.03
▁tibbs	-12.03
▁turbulen	-12.03
▁uncommon	-12.03
▁domingre	-12.03
▁hurl	-12.03
▁ponies	-12.03
▁prompt	-12.03
▁regulation	-12.03
▁sophomore	-12.03
ervil	-12.03
sustain	-12.03
▁interpol	-12.03
▁margaritaville	-12.03
▁onscreen	-12.03
▁pleasance	-12.03
▁prosthetic	-12.03
▁kettle	-12.03
▁anselme	-12.03
▁ransom	-12.03
▁resume	-12.03
▁xander	-12.03
▁anselmo	-12.03
▁sensible	-12.03
▁simmons	-12.03
▁verified	-12.03
▁aquifer	-12.03
▁carrot	-12.03
▁downshift	-12.03
▁dynamic	-12.03
▁extensive	-12.03
▁gorilla	-12.03
▁immense	-12.03
▁imprisoned	-12.03
▁pursuit	-12.03
▁hardworking	-12.03
▁shitfaced	-12.03
▁verona	-12.03
▁camden	-12.03
▁derail	-12.03
▁piggyback	-12.03
▁premed	-12.03
▁welder	-12.03
▁variet	-12.03
▁splendid	-12.03
▁workstation	-12.03
▁blunder	-12.03
▁gilligan	-12.03
▁smores	-12.03
▁unravel	-12.03
▁ciean	-12.03
▁devout	-12.03
▁memorize	-12.03
▁swimmer	-12.03
▁throne	-12.03
▁adorable	-12.03
▁nanette	-12.03
▁sheesh	-12.03
▁tusca	-12.03
▁freud	-12.03
▁peepee	-12.03
▁skeptic	-12.03
▁variable	-12.03
acious	-12.03
commerce	-12.03
▁maintenance	-12.03
▁meditating	-12.03
▁nicholai	-12.03
▁versace	-12.03
▁seductive	-12.03
▁fragile	-12.03
▁ponytail	-12.03
▁sayaka	-12.03
▁awakening	-12.03
▁hillsboro	-12.03
▁arraignment	-12.03
▁contribute	-12.03
▁sought	-12.03
▁crisp	-12.03
▁scoot	-12.03
▁twinkie	-12.03
▁imposing	-12.03
▁calculations	-12.03
▁pivot	-12.03
▁speculation	-12.03
▁bicycle	-12.03
▁covet	-12.03
▁hermit	-12.03
▁desolat	-12.03
▁cuddle	-12.03
▁kuzak	-12.03
▁heyhey	-12.03
▁interference	-12.03
▁divinity	-12.03
▁douchebag	-12.03
▁wifi	-12.03
▁videotape	-12.03
▁aaaaa	-12.03
▁crept	-12.03
▁quickening	-12.03
▁akron	-12.03
▁bloom	-12.03
▁psychology	-12.03
▁scorn	-12.03
▁convert	-12.03
▁bracelet	-12.03
▁imprisonment	-12.03
▁mallory	-12.03
▁sleaz	-12.03
▁nixon	-12.03
▁olav	-12.03
▁panera	-12.03
phili	-12.03
▁brava	-12.03
▁commend	-12.03
▁custommade	-12.03
▁elsie	-12.03
▁fisherman	-12.03
cherished	-12.03
▁luger	-12.03
▁spades	-12.03
▁sunglasses	-12.03
▁admonition	-12.03
▁ferv	-12.03
▁ceasefire	-12.03
▁discrimination	-12.03
joha	-12.03
▁loath	-12.03
▁looney	-12.03
▁colada	-12.03
▁salmon	-12.03
▁grandparent	-12.03
▁tinder	-12.03
▁remarried	-12.03
▁dialect	-12.03
▁polexia	-12.03
▁vassar	-12.03
▁napoleon	-12.03
▁spokesman	-12.03
▁dipshit	-12.03
▁opium	-12.03
▁stoning	-12.03
▁detonation	-12.03
▁hostess	-12.03
▁mumps	-12.03
▁reduction	-12.03
▁chungking	-12.03
▁irrev	-12.03
▁pedal	-12.03
▁realistically	-12.03
▁salut	-12.03
▁disruptive	-12.03
▁labour	-12.03
dispute	-12.03
▁dismember	-12.03
▁elaine	-12.03
▁amusement	-12.03
▁bieed	-12.03
▁lebanon	-12.03
▁transatlantic	-12.03
▁attachment	-12.03
▁marvelous	-12.03
▁dickens	-12.03
▁corro	-12.03
▁morrow	-12.03
▁flourish	-12.03
▁interpretation	-12.03
hrub	-12.03
▁hippo	-12.03
▁orni	-12.03
▁leftovers	-12.0301
▁shona	-12.0301
roche	-12.0301
▁dillard	-12.0301
▁fluff	-12.0301
▁boozing	-12.0301
▁cocksucking	-12.0301
▁overlook	-12.0301
▁gender	-12.0301
▁edmington	-12.0301
▁holster	-12.0301
▁rumba	-12.0301
▁scarza	-12.0301
cter	-12.0301
▁console	-12.0301
▁audaci	-12.0301
chacha	-12.0301
▁granddad	-12.0301
▁jacobsson	-12.0301
▁trend	-12.0301
▁afar	-12.0301
▁define	-12.0301
▁canker	-12.0301
▁canteen	-12.0301
phones	-12.0301
▁midday	-12.0301
▁sidekick	-12.0301
▁celine	-12.0301
▁stump	-12.0301
▁incompetent	-12.0301
▁erasing	-12.0301
▁regeneration	-12.0301
▁snapped	-12.0301
▁preparation	-12.0301
▁elbe	-12.0301
▁rabble	-12.0301
▁berlin	-12.0301
▁expertise	-12.0301
▁doughnut	-12.0301
▁crazier	-12.0301
▁brogues	-12.0301
▁cruz	-12.0301
▁pippin	-12.0301
▁offence	-12.0301
▁offload	-12.0301
▁vital	-12.0301
▁cecilia	-12.0301
beas	-12.0301
▁stuart	-12.0301
heine	-12.0301
▁dictator	-12.0301
▁novice	-12.0301
▁slipping	-12.0301
▁snotty	-12.0301
▁operative	-12.0301
▁giddyup	-12.0301
▁mumbles	-12.0301
▁muttering	-12.0301
▁penetrat	-12.0301
▁ronny	-12.0301
▁presley	-12.0301
▁remand	-12.0301
▁swamp	-12.0301
▁civilized	-12.0301
▁polio	-12.0301
▁collaboration	-12.0301
▁cutthroat	-12.0301
▁inspection	-12.0301
▁interrogation	-12.0301
▁roam	-12.0301
▁bruh	-12.0301
▁diversion	-12.0301
▁swine	-12.0301
▁marble	-12.0301
▁attic	-12.0301
▁chili	-12.0301
▁upload	-12.0301
▁thyself	-12.0301
shore	-12.0301
▁handgun	-12.0301
▁smokin	-12.0301
▁blueprint	-12.0302
▁papi	-12.0302
▁poof	-12.0302
▁simul	-12.0302
▁consultant	-12.0302
▁elder	-12.0302
kins	-12.0302
▁druggie	-12.0302
▁hikers	-12.0302
▁inuit	-12.0302
▁whwhat	-12.0302
▁superficial	-12.0302
▁rapping	-12.0302
imistic	-12.0302
▁kimmy	-12.0302
ulous	-12.0302
▁simmer	-12.0302
▁scarred	-12.0302
▁jonesport	-12.0302
▁reput	-12.0302
▁trippin	-12.0302
▁nadine	-12.0302
▁fastforward	-12.0302
▁apostle	-12.0302
intestin	-12.0302
▁exploitation	-12.0302
▁hopelessness	-12.0302
▁overcome	-12.0302
▁rooftop	-12.0302
▁outof	-12.0302
▁swagger	-12.0302
▁blitz	-12.0302
▁purity	-12.0302
▁samir	-12.0302
▁crackles	-12.0302
▁buren	-12.0302
▁buddhist	-12.0302
▁predator	-12.0302
▁traitor	-12.0302
irene	-12.0302
▁hmph	-12.0302
▁swag	-12.0302
▁denial	-12.0302
▁spectr	-12.0302
▁severance	-12.0302
▁powell	-12.0302
▁hungover	-12.0302
▁compensate	-12.0302
▁deceive	-12.0302
▁hemorrhage	-12.0302
▁freelance	-12.0302
▁unbearable	-12.0303
▁hydro	-12.0303
▁cassie	-12.0303
▁futon	-12.0303
▁wits	-12.0303
▁arf	-12.0303
▁fangs	-12.0303
▁exclusive	-12.0303
actical	-12.0303
▁initiative	-12.0303
▁pervers	-12.0303
▁organism	-12.0303
▁bodin	-12.0303
▁churchill	-12.0303
▁dominate	-12.0303
▁textbook	-12.0303
▁earthologist	-12.0303
▁tapped	-12.0303
▁blackbird	-12.0303
▁outward	-12.0303
▁congressman	-12.0303
▁addictive	-12.0303
▁retches	-12.0303
▁oldfashioned	-12.0303
▁glue	-12.0303
▁crock	-12.0303
▁combine	-12.0303
▁elway	-12.0303
▁override	-12.0303
▁shackle	-12.0303
▁snowboard	-12.0303
▁beheaded	-12.0303
▁nonetheless	-12.0303
▁hijackers	-12.0303
mones	-12.0303
▁boycott	-12.0303
▁cheerleader	-12.0303
▁profitable	-12.0304
▁sikorsky	-12.0304
▁battlefield	-12.0304
▁tusk	-12.0304
▁roddy	-12.0304
▁hillbilly	-12.0304
▁okeydokey	-12.0304
▁kung	-12.0304
▁wannabe	-12.0304
▁anders	-12.0304
▁disappearance	-12.0304
▁ownership	-12.0304
▁plow	-12.0304
▁cupboard	-12.0304
▁xx	-12.0304
▁hamlet	-12.0304
▁diving	-12.0304
▁suv	-12.0304
▁bennet	-12.0304
▁nigerian	-12.0304
▁enslaved	-12.0304
▁emerged	-12.0304
▁aroused	-12.0304
▁reek	-12.0304
umpy	-12.0304
▁exhibition	-12.0304
▁dingus	-12.0304
▁dodo	-12.0304
▁levit	-12.0304
▁bugging	-12.0304
▁gently	-12.0304
▁transportation	-12.0305
▁overdo	-12.0305
tute	-12.0305
▁schoolmate	-12.0305
▁eise	-12.0305
▁empower	-12.0305
▁mixup	-12.0305
▁singular	-12.0305
▁cranes	-12.0305
▁dodgy	-12.0305
▁wong	-12.0305
▁acquaint	-12.0305
▁scam	-12.0305
▁attraction	-12.0305
▁limitless	-12.0305
zard	-12.0306
▁molecul	-12.0306
▁artery	-12.0306
▁franchise	-12.0306
▁headlights	-12.0306
▁nip	-12.0306
▁reference	-12.0306
▁fireplace	-12.0306
▁meatball	-12.0306
▁everett	-12.0306
▁rusty	-12.0306
▁bowen	-12.0306
▁fsb	-12.0306
▁typing	-12.0306
▁bookstore	-12.0306
▁deliberately	-12.0306
▁discreetly	-12.0306
▁probable	-12.0306
▁pact	-12.0306
▁scum	-12.0306
▁underage	-12.0307
▁dunst	-12.0307
▁elite	-12.0307
▁ohoh	-12.0307
▁dots	-12.0307
▁holland	-12.0307
▁outnumbered	-12.0307
▁confirmation	-12.0307
▁jonah	-12.0307
▁trig	-12.0307
▁fisk	-12.0307
▁hisses	-12.0307
▁cooch	-12.0307
▁hackers	-12.0307
▁syl	-12.0307
▁reflection	-12.0307
▁chaz	-12.0307
▁disposition	-12.0307
▁righteous	-12.0307
▁mainland	-12.0307
▁mason	-12.0307
▁assurance	-12.0307
▁shant	-12.0308
▁kiddin	-12.0308
▁poker	-12.0308
▁settlement	-12.0308
▁arson	-12.0308
▁salem	-12.0308
▁redhead	-12.0308
▁allowance	-12.0308
▁dys	-12.0308
▁enco	-12.0308
▁incision	-12.0308
fraction	-12.0308
▁copyboy	-12.0308
▁toil	-12.0308
▁tipped	-12.0308
fair	-12.0308
▁whines	-12.0309
▁alcoholic	-12.0309
▁litera	-12.0309
▁squeal	-12.0309
▁reai	-12.0309
iamo	-12.0309
▁algo	-12.0309
▁lonesome	-12.0309
imous	-12.0309
wash	-12.0309
▁dulles	-12.0309
▁quest	-12.0309
▁directive	-12.0309
▁plantation	-12.0309
▁raymont	-12.0309
▁rejoicing	-12.0309
▁departing	-12.0309
▁shoplifting	-12.031
▁ringside	-12.031
pone	-12.031
▁edna	-12.031
▁clanking	-12.031
▁whisky	-12.031
▁benny	-12.031
▁gutter	-12.0311
▁bloodpack	-12.0311
▁goofy	-12.0311
▁tapping	-12.0311
▁alas	-12.0311
▁certainty	-12.0311
▁hardestworkin	-12.0311
▁whalen	-12.0311
▁expired	-12.0311
▁slay	-12.0311
▁flushes	-12.0311
▁kent	-12.0311
▁embar	-12.0311
▁peddle	-12.0312
▁explorer	-12.0312
▁dani	-12.0312
▁persuaded	-12.0312
▁sprawl	-12.0312
▁forum	-12.0312
▁transmitter	-12.0312
fish	-12.0312
▁grandkid	-12.0312
▁coco	-12.0312
▁remarkable	-12.0313
▁franklin	-12.0313
▁downsize	-12.0313
▁omit	-12.0313
▁thorn	-12.0313
▁spri	-12.0313
stand	-12.0313
▁chestnut	-12.0313
istine	-12.0313
▁muri	-12.0313
▁portion	-12.0313
▁recon	-12.0313
▁mule	-12.0313
▁maur	-12.0314
▁napkin	-12.0314
▁dart	-12.0314
▁hardtop	-12.0314
▁paddle	-12.0314
▁stow	-12.0314
▁bullied	-12.0315
▁examiner	-12.0315
▁grove	-12.0315
▁mildly	-12.0315
▁stern	-12.0315
gamma	-12.0315
▁dough	-12.0315
▁nora	-12.0315
▁bile	-12.0315
▁batch	-12.0315
▁handbag	-12.0316
▁tagged	-12.0316
chner	-12.0316
▁gloom	-12.0316
▁machinery	-12.0316
▁mines	-12.0316
▁sizzl	-12.0316
▁rubbing	-12.0316
▁matchup	-12.0316
▁drumm	-12.0316
▁domini	-12.0317
▁screwup	-12.0317
▁liable	-12.0317
▁mobile	-12.0317
▁assembled	-12.0317
▁alar	-12.0317
▁logan	-12.0318
▁bryan	-12.0318
▁unwa	-12.0318
▁reign	-12.0318
▁sanity	-12.0318
▁awareness	-12.0318
▁biggie	-12.0318
▁hustler	-12.0318
▁marksman	-12.0319
▁maiden	-12.0319
▁distracted	-12.0319
▁declined	-12.0319
▁hiring	-12.0319
▁jeopardized	-12.0319
▁operated	-12.0319
▁metro	-12.0319
▁unwell	-12.0319
▁cashier	-12.0319
▁exiled	-12.032
▁stry	-12.032
▁touchdown	-12.032
oxid	-12.032
▁scenery	-12.032
▁barton	-12.0321
▁superb	-12.0321
▁shouse	-12.0321
▁shackled	-12.0321
▁perry	-12.0322
▁mina	-12.0323
▁crest	-12.0323
ntaneous	-12.0323
▁weatherman	-12.0323
bolt	-12.0323
▁layout	-12.0323
▁cors	-12.0323
▁fitz	-12.0324
duct	-12.0324
▁bangers	-12.0324
auer	-12.0325
▁glenn	-12.0325
▁hose	-12.0325
▁cios	-12.0325
rap	-12.0325
▁chunky	-12.0326
▁darren	-12.0326
▁heist	-12.0326
▁greeting	-12.0326
▁intimidating	-12.0326
▁cleansing	-12.0326
▁vend	-12.0326
▁partial	-12.0327
▁hidin	-12.0327
▁ultimately	-12.0327
▁selfless	-12.0328
▁workroom	-12.0328
▁deliveries	-12.0328
▁specialty	-12.0328
▁flashes	-12.0329
▁casa	-12.0329
▁duce	-12.0329
orn	-12.033
▁meow	-12.033
▁spur	-12.033
▁downloaded	-12.0331
rena	-12.0331
▁consumed	-12.0331
lord	-12.0331
▁hollered	-12.0331
▁lawson	-12.0331
▁thoroughly	-12.0332
▁feature	-12.0332
▁doubtful	-12.0332
▁haley	-12.0333
▁chatty	-12.0333
▁reaper	-12.0333
▁sparr	-12.0333
▁morales	-12.0334
▁brighton	-12.0335
▁rehearsals	-12.0335
▁maggots	-12.0335
▁muppets	-12.0335
▁goodcop	-12.0335
ngrier	-12.0335
▁astrologers	-12.0336
▁piper	-12.0336
▁flexi	-12.0336
▁johnboy	-12.0336
▁translates	-12.0336
▁frontier	-12.0336
▁nono	-12.0337
▁firstclass	-12.0337
▁rene	-12.0337
▁muse	-12.0338
moon	-12.0339
▁informer	-12.0339
▁chalkies	-12.034
▁eternally	-12.034
▁followup	-12.034
▁yang	-12.0341
▁trustee	-12.0342
berge	-12.0342
▁tada	-12.0342
▁litter	-12.0342
▁with	-12.0342
▁trailer	-12.0342
▁indicate	-12.0343
▁reopening	-12.0343
▁distributed	-12.0343
▁diego	-12.0344
▁weeping	-12.0345
▁drone	-12.0346
▁loo	-12.0346
▁fantasiz	-12.0346
▁nabbed	-12.0347
▁sway	-12.0348
▁equally	-12.0348
▁parr	-12.0348
mature	-12.0349
▁standby	-12.0349
▁sonny	-12.035
▁electrocuted	-12.035
▁lesion	-12.0352
▁kite	-12.0352
bed	-12.0352
▁paddl	-12.0353
iou	-12.0354
▁accountant	-12.0354
▁showdown	-12.0354
▁consumer	-12.0356
▁reunite	-12.0356
▁ambushed	-12.0356
▁snatched	-12.0356
▁doggy	-12.0356
▁exhausting	-12.0357
▁screamin	-12.0358
▁bangin	-12.0358
dlin	-12.0358
▁vial	-12.0358
▁aa	-12.0358
▁balanced	-12.0359
▁format	-12.0359
▁washes	-12.0359
▁switches	-12.0361
▁coordinating	-12.0361
▁slashing	-12.0361
▁identifying	-12.0361
▁preying	-12.0361
▁sweeping	-12.0361
▁continuing	-12.0361
▁clothing	-12.0361
ngto	-12.0361
eye	-12.0361
▁suspiciously	-12.0362
▁frown	-12.0362
▁painfully	-12.0363
▁polar	-12.0363
uttering	-12.0365
▁dwelling	-12.0367
▁framed	-12.0367
▁assured	-12.0367
▁flattering	-12.0367
rres	-12.0368
▁bundl	-12.0368
▁soaked	-12.0368
▁boiled	-12.0368
▁armies	-12.0369
▁flushed	-12.0369
▁blackout	-12.0369
▁launched	-12.0369
▁shutting	-12.0369
▁invested	-12.0369
▁bumme	-12.0371
▁cysti	-12.0372
▁chicky	-12.0372
utmost	-12.0374
▁bowler	-12.0375
▁aggr	-12.0377
▁ponder	-12.0379
▁immortality	-12.038
▁delu	-12.038
▁defeated	-12.0381
▁manifested	-12.0381
▁spike	-12.0382
▁verbal	-12.0383
mal	-12.0384
▁tsu	-12.0385
▁senseless	-12.0385
sive	-12.0385
▁foy	-12.0385
▁wring	-12.0386
etz	-12.0387
▁irony	-12.0387
▁mayate	-12.0388
▁bass	-12.0389
▁funky	-12.0389
▁ridin	-12.0391
▁shiit	-12.0391
▁imitating	-12.0392
▁satur	-12.0392
▁ricky	-12.0393
▁pushin	-12.0393
▁powerless	-12.0394
▁pry	-12.0395
▁identi	-12.0395
▁ramp	-12.0396
▁disappointing	-12.0396
▁caus	-12.0396
▁spilling	-12.0396
▁sass	-12.0396
▁blowjobs	-12.0396
▁airheads	-12.0396
▁daughterinlaws	-12.0396
▁laxatives	-12.0396
▁transsexuals	-12.0396
▁snobs	-12.0397
▁thighs	-12.0397
▁rapists	-12.0397
▁lani	-12.0397
▁frogs	-12.0398
▁projector	-12.0398
▁showtime	-12.0398
▁yak	-12.0398
thats	-12.0398
▁tuned	-12.0399
▁repri	-12.0399
▁fumbl	-12.0401
▁lighten	-12.0401
stricken	-12.0402
▁judgement	-12.0403
ucking	-12.0403
▁gunfighter	-12.0404
▁brighter	-12.0404
▁stirr	-12.0406
▁carton	-12.0407
▁sarcastic	-12.0411
▁teen	-12.0411
▁flyin	-12.0412
▁expanding	-12.0413
▁veter	-12.0414
▁measured	-12.0415
▁chafe	-12.0417
▁jackass	-12.0418
▁smacked	-12.0418
▁smartest	-12.0419
▁performed	-12.042
▁appeared	-12.042
▁folder	-12.0421
▁celebrated	-12.0423
▁evasi	-12.0423
▁organize	-12.0423
▁docking	-12.0425
due	-12.0426
▁scann	-12.0426
▁questionable	-12.043
▁applying	-12.043
▁testin	-12.0431
▁ave	-12.0431
▁concentrated	-12.0431
▁reviewed	-12.0431
▁drifted	-12.0431
awl	-12.0431
▁passin	-12.0433
▁gia	-12.0434
note	-12.0436
▁stinky	-12.0436
▁grovel	-12.0436
▁rein	-12.0436
stands	-12.0436
▁shadowing	-12.0438
▁bron	-12.0439
▁tubing	-12.0441
▁dogies	-12.0443
▁seducer	-12.0443
▁golfer	-12.0443
▁rightwing	-12.0445
▁bonded	-12.0445
▁cantina	-12.0445
▁awarded	-12.0445
▁bouncer	-12.0446
▁antid	-12.0447
missions	-12.0447
▁sellin	-12.0448
ologists	-12.0448
▁posh	-12.0453
▁scraping	-12.0454
▁memo	-12.0454
▁replicat	-12.0455
▁ciay	-12.0456
escent	-12.0458
▁delightful	-12.0458
▁geeks	-12.0458
▁floorboards	-12.046
▁decades	-12.046
▁painkillers	-12.046
▁noodles	-12.046
rati	-12.046
used	-12.046
▁virtues	-12.0461
▁maine	-12.0461
▁cords	-12.0462
▁landline	-12.0463
▁skipping	-12.0463
▁bargaining	-12.0465
▁maintaining	-12.0465
▁spil	-12.0468
▁sui	-12.0469
▁hmmm	-12.0469
▁hootie	-12.0469
▁smokes	-12.047
▁wav	-12.0473
▁cordel	-12.0473
fed	-12.0473
▁suffocate	-12.0475
nyu	-12.048
▁cling	-12.0483
lets	-12.0485
▁dresser	-12.0485
▁printing	-12.0486
▁tol	-12.0486
▁publisher	-12.0487
▁scored	-12.0489
▁spic	-12.0492
▁statistical	-12.0495
▁cosy	-12.0495
▁nause	-12.0495
▁nailed	-12.0497
▁dreamt	-12.0497
▁tougher	-12.0498
▁resisting	-12.0501
▁cooi	-12.0502
▁lur	-12.0502
▁barks	-12.0503
▁pasta	-12.0508
▁cest	-12.0509
▁burner	-12.0512
posit	-12.0513
▁imposition	-12.0516
pool	-12.0518
▁floating	-12.0518
cards	-12.0518
▁coaches	-12.0519
hypno	-12.0522
▁sling	-12.0523
▁editions	-12.0524
▁douglass	-12.0524
▁weavers	-12.0524
▁stirs	-12.0528
▁blackie	-12.0528
usse	-12.0532
▁tro	-12.0532
▁kno	-12.0532
rum	-12.0535
quoi	-12.0536
▁proceeding	-12.0536
▁flashing	-12.0537
▁malt	-12.0538
▁dialed	-12.0539
nova	-12.0539
▁takeover	-12.054
▁balm	-12.0541
ists	-12.0548
▁shithead	-12.0551
egged	-12.0556
ottie	-12.0561
its	-12.0563
▁yorker	-12.0564
▁drivein	-12.0565
▁uno	-12.0568
▁surrendered	-12.057
▁rud	-12.0571
▁pumped	-12.0573
▁flowing	-12.0574
▁regarding	-12.0575
▁hoot	-12.0577
▁buyin	-12.0578
▁bookies	-12.058
▁rockin	-12.0581
sitting	-12.0584
▁pil	-12.0584
▁diapers	-12.0588
list	-12.0588
▁profits	-12.0588
▁ankles	-12.0588
▁substances	-12.0588
▁vessels	-12.0588
▁institutions	-12.0588
▁pirates	-12.0589
▁summons	-12.0589
▁comforting	-12.0589
▁hustl	-12.0592
▁liver	-12.0592
▁disgraceful	-12.0592
▁hy	-12.0592
ammed	-12.0596
appella	-12.0598
▁gla	-12.0598
alo	-12.0601
▁receiver	-12.0606
▁hamp	-12.0607
▁casting	-12.0609
▁practiced	-12.0609
▁coed	-12.0613
▁ignit	-12.0613
▁hangin	-12.0615
ambi	-12.0618
ndr	-12.0618
▁subjected	-12.0621
▁staged	-12.0631
▁jap	-12.0631
▁breakin	-12.0631
▁jonesy	-12.0636
▁wi	-12.0647
▁philly	-12.0648
▁container	-12.0653
▁puzzles	-12.0653
▁classrooms	-12.0653
▁diseases	-12.0653
▁elbows	-12.0653
▁protocols	-12.0653
▁quarterbacks	-12.0653
▁promotions	-12.0653
▁convictions	-12.0653
▁kilos	-12.0654
graph	-12.0656
▁included	-12.0657
▁bunga	-12.066
▁billions	-12.0664
▁standin	-12.0665
vies	-12.0667
▁tak	-12.0673
▁sy	-12.0673
▁graft	-12.0675
rdog	-12.0678
▁happenin	-12.0681
▁smiled	-12.0691
▁trac	-12.0692
play	-12.0696
unde	-12.0696
aff	-12.0705
gunned	-12.0709
hoos	-12.071
▁corrected	-12.0712
uns	-12.0716
▁cliffs	-12.0718
▁janets	-12.0719
▁junkies	-12.072
▁windy	-12.072
ocus	-12.0721
▁noone	-12.0724
▁milked	-12.0725
▁strain	-12.0727
▁supported	-12.073
ials	-12.0731
▁cabine	-12.0733
▁howdy	-12.0745
▁reme	-12.0761
pie	-12.0764
▁paste	-12.0765
▁gov	-12.0767
stick	-12.0779
▁iets	-12.0782
▁independents	-12.0784
▁grannys	-12.0784
▁privileges	-12.0784
▁fillings	-12.0785
▁sodas	-12.0786
▁genov	-12.0798
▁touche	-12.0801
▁goop	-12.0803
▁lah	-12.0807
▁suckers	-12.0808
▁dill	-12.0812
▁sweeter	-12.0815
▁appreciated	-12.082
▁pierc	-12.0821
▁securit	-12.0822
▁matched	-12.0823
▁spreader	-12.083
▁pres	-12.0835
▁bringin	-12.0839
▁humane	-12.084
▁chokes	-12.0841
gate	-12.0842
▁meetin	-12.0843
▁liquors	-12.0844
▁angles	-12.085
▁amigos	-12.085
▁reservations	-12.085
▁habits	-12.085
▁doubted	-12.0851
▁apples	-12.0851
▁rotate	-12.0851
▁killings	-12.0853
nomination	-12.0857
▁jona	-12.0858
▁referr	-12.0863
▁hailing	-12.0864
▁movements	-12.0871
scott	-12.0872
nza	-12.0873
▁shi	-12.0895
▁flagg	-12.0911
his	-12.0915
▁feathers	-12.0917
▁gangsters	-12.0918
▁swi	-12.0923
▁smelly	-12.0923
▁belonging	-12.0925
rrera	-12.093
▁cubs	-12.0934
yman	-12.0934
▁nighttime	-12.0939
▁links	-12.0939
dle	-12.0944
▁observ	-12.0955
aching	-12.0967
▁marrying	-12.0971
fat	-12.0973
▁hive	-12.0973
▁twok	-12.0974
▁stares	-12.0979
▁donovans	-12.0984
▁standards	-12.0984
▁tanks	-12.0984
▁reckons	-12.0987
▁shelly	-12.0987
▁witnessing	-12.0992
▁stripe	-12.0998
▁marker	-12.0999
etter	-12.1002
eaming	-12.1004
hip	-12.1006
▁trample	-12.1007
▁decod	-12.1008
▁alarming	-12.1009
times	-12.1011
▁caps	-12.1026
▁designate	-12.1029
assi	-12.1043
▁rifles	-12.1048
▁beliefs	-12.1051
▁cottages	-12.1051
▁holidays	-12.1051
▁towels	-12.1051
▁bonds	-12.1052
▁weighs	-12.1052
▁awards	-12.1053
▁guarding	-12.1056
▁scour	-12.1066
▁unwin	-12.1068
ickening	-12.1071
rome	-12.1081
sp	-12.1081
titude	-12.1083
▁dancers	-12.1087
▁oliver	-12.1087
din	-12.1095
▁slices	-12.1099
▁salo	-12.1102
▁broads	-12.1103
▁stakes	-12.1116
yl	-12.1116
▁andrews	-12.1119
▁charlottes	-12.1119
▁sentences	-12.1121
▁congregat	-12.1123
▁weekly	-12.1127
rehouse	-12.1136
▁bandit	-12.1144
▁tid	-12.1147
▁undermin	-12.115
▁stor	-12.1154
rule	-12.1155
▁laps	-12.1156
▁agreeing	-12.116
rance	-12.116
wa	-12.1161
▁sensed	-12.1165
▁stat	-12.1172
▁creeps	-12.1184
uous	-12.1188
ners	-12.1189
▁tested	-12.1189
▁labs	-12.1191
▁brides	-12.1191
▁measures	-12.1198
▁ser	-12.1199
▁dar	-12.1202
aux	-12.1222
figure	-12.1226
set	-12.1229
oga	-12.1234
drop	-12.1238
▁quotes	-12.1246
zed	-12.1257
▁unions	-12.1267
sions	-12.1274
tr	-12.1277
▁digest	-12.1279
▁iit	-12.1283
sler	-12.1285
▁killin	-12.1286
▁boxed	-12.129
▁pruden	-12.1294
▁glori	-12.1295
▁tumblin	-12.131
▁perpetu	-12.1316
▁nook	-12.1317
j	-12.1324
▁nukes	-12.1325
▁trials	-12.1325
▁thanes	-12.1326
▁regards	-12.133
them	-12.1334
▁dada	-12.1334
kets	-12.1341
undan	-12.1348
▁hookers	-12.1358
▁ahhh	-12.1364
▁singers	-12.1371
▁morals	-12.1388
▁rises	-12.1394
▁eagles	-12.1395
▁debts	-12.1395
▁advertis	-12.1398
▁groupie	-12.1401
▁notif	-12.1403
▁alban	-12.1406
siders	-12.1413
▁bathe	-12.1421
▁gutt	-12.143
▁sweats	-12.1433
ouse	-12.144
▁bacteria	-12.145
▁communit	-12.1457
▁reviv	-12.1482
ten	-12.1494
▁refin	-12.1495
▁compel	-12.1502
ara	-12.1506
▁flipp	-12.1519
▁fas	-12.152
▁products	-12.1521
▁troubled	-12.1533
▁credits	-12.1536
▁slides	-12.1548
tv	-12.1563
▁cooperati	-12.158
▁warming	-12.1587
▁transit	-12.1597
▁browns	-12.1601
▁weeds	-12.1603
▁funerals	-12.1607
▁nos	-12.162
▁buddh	-12.1621
will	-12.1631
▁sur	-12.1656
▁scrambl	-12.1675
aro	-12.1686
▁spa	-12.1689
▁crib	-12.1712
ail	-12.1719
ign	-12.1725
oder	-12.1729
▁sites	-12.1729
▁tails	-12.1731
▁pumps	-12.1744
▁savings	-12.1749
▁attorneys	-12.175
nds	-12.175
▁cables	-12.175
▁sleepy	-12.1754
chang	-12.1761
nk	-12.1772
▁battles	-12.1773
▁gi	-12.1784
hoo	-12.1798
▁sancti	-12.18
yah	-12.18
▁relocate	-12.1812
▁sciences	-12.1822
▁warnings	-12.1822
▁endings	-12.1828
▁ups	-12.183
▁glanc	-12.1835
rant	-12.1841
▁sem	-12.1843
▁semi	-12.1861
att	-12.1883
▁umbrellas	-12.1895
▁stri	-12.1908
▁sten	-12.1912
▁flor	-12.1947
▁mapp	-12.1947
▁commence	-12.1964
▁opinions	-12.1968
▁bikes	-12.1978
hall	-12.198
rdan	-12.1982
▁conjure	-12.1983
▁traumatize	-12.1986
▁outs	-12.1988
▁chimi	-12.1992
▁disable	-12.2001
▁helpin	-12.2017
ega	-12.2031
▁delivers	-12.2045
▁finishing	-12.2055
▁bru	-12.2064
iffle	-12.2076
▁compos	-12.208
epa	-12.2096
▁revolutionar	-12.21
athome	-12.2116
amine	-12.2117
▁undergo	-12.2179
amon	-12.2181
toot	-12.2206
▁males	-12.2221
▁kur	-12.2248
sco	-12.2257
▁fruits	-12.2265
▁coli	-12.2268
lla	-12.2279
▁coaching	-12.2282
▁sheeps	-12.2286
alltime	-12.2338
▁examples	-12.2341
▁alastairs	-12.2341
▁winners	-12.2345
▁unti	-12.2346
last	-12.2358
▁interests	-12.2363
▁pas	-12.2384
▁missy	-12.2396
zon	-12.2397
▁simone	-12.2399
▁suicides	-12.2418
ulate	-12.2421
▁contri	-12.2424
ick	-12.2425
thee	-12.2431
▁ugli	-12.2438
▁par	-12.2452
▁lanes	-12.2454
▁mah	-12.2464
rb	-12.2526
iles	-12.2541
▁saf	-12.2541
aption	-12.255
▁devo	-12.2558
▁mer	-12.2561
▁sued	-12.2581
▁brit	-12.2585
bb	-12.2595
▁caller	-12.2642
▁supports	-12.2655
wley	-12.2656
▁propos	-12.2662
▁pretends	-12.2666
ethe	-12.2668
bre	-12.2682
▁cups	-12.2706
▁storms	-12.2723
ari	-12.2736
▁caress	-12.2738
▁cri	-12.2764
▁benze	-12.2793
▁dodd	-12.2794
▁seduc	-12.2798
east	-12.2799
▁halls	-12.2801
bill	-12.2807
▁minorit	-12.281
▁commands	-12.282
▁arr	-12.2827
▁posts	-12.2849
auntle	-12.2858
▁ny	-12.2861
ingham	-12.287
ova	-12.2896
▁journalis	-12.2903
▁hyperventilat	-12.2903
▁cre	-12.2905
can	-12.2919
▁pretti	-12.292
cation	-12.2925
fle	-12.2934
▁compose	-12.2953
▁lovelie	-12.3
▁lectur	-12.3005
▁submissi	-12.3027
▁sco	-12.3029
▁slic	-12.303
▁scorpio	-12.3046
ink	-12.3063
pur	-12.3068
xia	-12.3086
ski	-12.3109
▁bel	-12.3122
orientation	-12.3146
▁cinc	-12.3148
▁lana	-12.315
tan	-12.3158
lt	-12.3179
▁mixe	-12.3186
▁devot	-12.3199
▁tellin	-12.3216
▁ti	-12.3227
▁careers	-12.3249
▁dai	-12.325
eek	-12.325
aster	-12.3261
▁roo	-12.3297
▁twe	-12.3315
sia	-12.3326
cor	-12.3331
▁eliminat	-12.3335
eno	-12.3358
oon	-12.3358
ches	-12.3375
▁bullie	-12.3382
fulness	-12.3412
▁correspond	-12.343
rated	-12.3448
▁meg	-12.3527
▁glo	-12.3528
rock	-12.3534
inari	-12.3543
var	-12.3575
▁grav	-12.3593
▁ji	-12.3611
lib	-12.3618
▁scarie	-12.3636
▁wo	-12.3642
rage	-12.3652
▁southside	-12.3675
▁manipulate	-12.3683
gul	-12.3692
ath	-12.3698
▁albania	-12.3717
des	-12.3719
traction	-12.3729
▁nno	-12.3755
lp	-12.376
▁multi	-12.3771
▁selfre	-12.3815
offi	-12.3817
▁advertise	-12.3827
▁stru	-12.3829
▁perpetua	-12.3831
ren	-12.3836
inch	-12.3861
lette	-12.3862
dan	-12.3865
▁lingeri	-12.3871
ttered	-12.3879
▁herring	-12.3885
▁relat	-12.3904
vald	-12.3923
▁rul	-12.3947
▁commun	-12.3957
lier	-12.3958
quality	-12.3963
▁clari	-12.3976
ares	-12.3991
▁fau	-12.3996
ete	-12.3997
melon	-12.4004
▁mcgu	-12.4006
lynn	-12.4042
▁congrega	-12.4083
▁exhausti	-12.4101
itude	-12.4113
▁agitate	-12.4126
▁heroic	-12.4126
aze	-12.4143
▁baffl	-12.4152
personal	-12.4163
lutz	-12.4184
unda	-12.4192
astic	-12.4209
arin	-12.4236
ranian	-12.4252
▁ama	-12.4267
▁ripe	-12.4286
▁galle	-12.4291
▁liberti	-12.4303
▁limb	-12.4307
ante	-12.4319
look	-12.4341
ats	-12.4366
dia	-12.4371
inning	-12.4374
▁cellul	-12.4376
rider	-12.4397
uv	-12.4401
chu	-12.4411
▁imagina	-12.4415
▁ju	-12.4422
▁gen	-12.4433
we	-12.4433
now	-12.4436
▁dab	-12.4439
▁did	-12.4451
formed	-12.4462
owe	-12.4465
▁utili	-12.4468
▁graf	-12.4498
▁agita	-12.4504
master	-12.4513
flow	-12.4517
▁stee	-12.4537
skins	-12.454
itch	-12.4554
▁bung	-12.4575
shing	-12.4582
rew	-12.4583
art	-12.4583
pelled	-12.4588
▁hum	-12.4589
▁herm	-12.4595
harmed	-12.4604
▁penn	-12.4613
▁termin	-12.4624
▁intro	-12.4646
subordinat	-12.4666
aged	-12.4672
anz	-12.4673
▁desir	-12.4684
locating	-12.469
▁moles	-12.4695
▁beneficia	-12.47
link	-12.4707
ssh	-12.472
mes	-12.4724
ivity	-12.4731
arm	-12.4737
scene	-12.4737
roll	-12.4737
agram	-12.4764
ually	-12.4765
▁mimic	-12.4789
arily	-12.4794
tagoni	-12.4801
assail	-12.4808
▁hustlin	-12.4813
nja	-12.4817
▁uni	-12.4818
▁pent	-12.4822
▁prima	-12.4824
tick	-12.4828
▁clare	-12.4828
rity	-12.4831
zero	-12.4839
acted	-12.4843
▁orienta	-12.4851
roller	-12.4852
wear	-12.4859
pping	-12.4865
▁draggin	-12.4874
▁playful	-12.4876
▁produc	-12.4878
▁reli	-12.4883
tically	-12.4893
dre	-12.4895
▁blo	-12.4895
date	-12.4895
etti	-12.4895
▁refu	-12.4896
ection	-12.4897
ipper	-12.4923
dini	-12.4924
barro	-12.4937
busters	-12.4937
▁quo	-12.495
▁damp	-12.495
hhh	-12.4951
weed	-12.4956
mford	-12.4961
type	-12.4978
rely	-12.4979
▁steppin	-12.4985
eep	-12.4987
▁bin	-12.4991
▁any	-12.4992
ough	-12.4993
▁ec	-12.4995
bird	-12.5009
▁magn	-12.5014
mbles	-12.5014
ject	-12.5019
▁af	-12.5022
▁divers	-12.5022
roid	-12.5026
ody	-12.5029
lagged	-12.5034
dom	-12.5038
security	-12.5039
▁evolv	-12.5045
▁frog	-12.5048
▁dura	-12.5055
aria	-12.5058
luck	-12.5061
▁dribbl	-12.5076
aws	-12.5077
▁fac	-12.5078
▁gener	-12.508
▁jul	-12.5085
▁spo	-12.5091
law	-12.5098
▁slav	-12.5108
maker	-12.511
▁eva	-12.5118
▁sarcas	-12.5121
▁chart	-12.5123
▁sham	-12.5125
▁clatter	-12.5128
▁vitamin	-12.5128
▁chippendale	-12.5128
▁dwarf	-12.5128
▁omelet	-12.5128
▁scissor	-12.5128
▁specimen	-12.5128
▁tourniquet	-12.5128
▁ziegler	-12.5128
▁cramp	-12.5128
▁staple	-12.5129
▁indication	-12.5129
▁pacifi	-12.5129
▁export	-12.513
▁circula	-12.513
▁adjustment	-12.5131
▁requir	-12.5133
tex	-12.5133
deemed	-12.5133
bla	-12.5134
▁inci	-12.5136
▁snob	-12.5139
member	-12.5139
▁droid	-12.5142
▁ancho	-12.5143
▁daughterinlaw	-12.5144
▁laxative	-12.5144
▁transsexual	-12.5144
▁thigh	-12.5144
▁blowjob	-12.5147
quer	-12.5148
▁carrie	-12.5148
▁barbie	-12.5149
▁precaution	-12.5151
▁croquette	-12.5151
▁amateur	-12.5151
itating	-12.5151
▁pearl	-12.5152
plant	-12.5153
▁rapist	-12.5155
▁forensic	-12.5155
▁yankee	-12.5156
▁fingerprint	-12.5156
▁whoop	-12.5156
▁tack	-12.5161
▁afterward	-12.5164
▁thumb	-12.5165
▁valentin	-12.5165
▁congratulation	-12.5169
▁bollock	-12.5172
cles	-12.5172
▁folk	-12.5178
placed	-12.5181
▁disclos	-12.5182
▁airhead	-12.5182
▁restraint	-12.5182
▁smok	-12.5183
ride	-12.5184
▁pant	-12.5184
▁warhead	-12.5186
▁complaint	-12.5186
wax	-12.5187
egg	-12.5189
erina	-12.519
iction	-12.5191
gged	-12.5192
amaic	-12.5195
cage	-12.5195
▁perc	-12.5198
▁democra	-12.5199
▁cra	-12.52
ampu	-12.5204
▁geno	-12.5208
aps	-12.5211
mish	-12.5218
▁blush	-12.5219
val	-12.522
nner	-12.5222
▁expectation	-12.5222
▁coll	-12.5227
▁trave	-12.5228
▁whee	-12.5228
▁pel	-12.5228
ucky	-12.5231
▁flee	-12.5231
▁jeopard	-12.5235
▁dal	-12.5239
▁flog	-12.5239
eeking	-12.524
randa	-12.5243
▁bree	-12.5245
▁chic	-12.5245
▁jewel	-12.5247
▁exaggerat	-12.5253
▁frustrat	-12.5253
▁loren	-12.5255
▁swell	-12.5255
▁occur	-12.5256
▁intimidat	-12.5257
▁greet	-12.5257
▁mil	-12.5257
▁origin	-12.5257
anny	-12.5258
▁experienc	-12.5258
fa	-12.5258
▁recruit	-12.5259
▁sleepwalk	-12.5259
break	-12.5261
▁separat	-12.5261
▁thump	-12.5262
▁remov	-12.5263
▁distract	-12.5263
wild	-12.5264
▁unsettl	-12.5266
▁enroll	-12.5267
aughter	-12.5267
▁esteem	-12.5267
hell	-12.5267
makers	-12.5268
dressed	-12.5268
taneous	-12.5269
freak	-12.527
pitched	-12.527
tempo	-12.527
brecht	-12.527
equivalent	-12.527
▁attach	-12.5271
word	-12.5271
▁condemn	-12.5271
hunt	-12.5272
▁cind	-12.5272
believe	-12.5272
▁distort	-12.5272
walking	-12.5272
▁breach	-12.5272
bitch	-12.5273
mobile	-12.5273
rubbing	-12.5274
documented	-12.5274
pipe	-12.5274
screen	-12.5275
biograph	-12.5275
imagin	-12.5275
spoon	-12.5275
virus	-12.5275
beep	-12.5275
educated	-12.5275
nickel	-12.5275
forward	-12.5276
craft	-12.5276
indulge	-12.5276
robbing	-12.5276
qualified	-12.5276
struck	-12.5276
frame	-12.5276
structure	-12.5276
mmhmm	-12.5276
abilities	-12.5276
castle	-12.5276
wives	-12.5276
programme	-12.5276
ladder	-12.5276
job	-12.5276
management	-12.5276
jazz	-12.5276
conduct	-12.5277
piace	-12.5277
treatment	-12.5277
when	-12.5277
brand	-12.5277
found	-12.5277
quarter	-12.5277
brief	-12.5277
century	-12.5277
available	-12.5277
connor	-12.5277
thirty	-12.5277
circle	-12.5277
wife	-12.5277
negative	-12.5277
plate	-12.5277
spring	-12.5277
gazza	-12.5277
period	-12.5277
defense	-12.5277
grown	-12.5277
jerk	-12.5277
possibly	-12.5277
johnson	-12.5277
study	-12.5277
hammer	-12.5277
understood	-12.5277
court	-12.5277
shooter	-12.5277
observe	-12.5277
[...]
