<unk>	0
<s>	0
</s>	0
s	-4.13443
▁oh	-4.7582
▁im	-4.76546
▁dont	-4.7856
▁well	-4.79114
▁know	-4.80776
▁like	-4.92659
▁get	-4.92795
▁go	-5.00433
▁right	-5.01041
▁come	-5.03856
▁thats	-5.14755
▁one	-5.15128
▁got	-5.18779
ing	-5.24984
▁youre	-5.26274
▁see	-5.27454
▁good	-5.32363
▁think	-5.41185
▁yeah	-5.43344
▁time	-5.47119
▁us	-5.51953
▁back	-5.5561
ed	-5.6016
▁want	-5.61372
▁yes	-5.61959
▁	-5.62072
▁going	-5.6431
▁look	-5.65194
▁hes	-5.673
▁na	-5.69629
▁would	-5.71958
▁ill	-5.74103
▁hey	-5.75277
▁take	-5.76858
▁little	-5.77448
▁could	-5.77697
▁way	-5.80631
▁say	-5.82794
▁really	-5.83622
▁cant	-5.85841
▁gon	-5.90722
▁tell	-5.91386
▁never	-5.97522
▁man	-5.99305
▁something	-6.05658
▁mean	-6.05746
▁need	-6.06807
▁make	-6.08617
▁okay	-6.1091
▁people	-6.1159
▁lets	-6.11666
▁whats	-6.13886
▁love	-6.14539
▁uh	-6.1479
▁didnt	-6.15965
d	-6.18048
▁sure	-6.18632
▁ive	-6.18841
ly	-6.1949
▁theres	-6.21375
▁thank	-6.2219
▁day	-6.24549
▁said	-6.25373
▁two	-6.26452
▁find	-6.26878
▁first	-6.27683
y	-6.27993
▁let	-6.28024
▁help	-6.28749
▁music	-6.31789
▁give	-6.32822
▁much	-6.3375
▁mr	-6.34692
▁theyre	-6.38074
▁thing	-6.40181
▁boy	-6.40548
▁must	-6.40693
▁great	-6.43537
▁wait	-6.45646
▁home	-6.46081
▁please	-6.47073
▁even	-6.48638
▁work	-6.49528
▁life	-6.50875
▁better	-6.51957
▁new	-6.52764
▁family	-6.54699
▁still	-6.55179
▁ever	-6.56449
▁big	-6.57203
▁name	-6.58723
▁guys	-6.58774
▁thought	-6.59068
▁away	-6.60103
▁keep	-6.60455
▁years	-6.60543
▁long	-6.61069
▁place	-6.61412
▁anything	-6.61909
▁believe	-6.61957
▁things	-6.6221
▁always	-6.63415
▁sorry	-6.64562
▁old	-6.64605
▁l	-6.6524
▁youll	-6.66109
▁put	-6.66111
▁around	-6.66891
▁maybe	-6.66971
e	-6.67014
▁sir	-6.673
▁kind	-6.67716
▁stop	-6.70331
▁wont	-6.72138
▁night	-6.72407
▁remember	-6.7566
▁nothing	-6.76809
▁everything	-6.7813
▁lot	-6.78922
▁whoa	-6.78968
▁father	-6.7921
▁world	-6.79232
▁made	-6.80437
▁youve	-6.81233
▁best	-6.8129
▁id	-6.82504
▁huh	-6.83102
▁every	-6.83695
▁hi	-6.86406
▁hello	-6.86415
▁listen	-6.86932
▁stay	-6.86991
▁shes	-6.87005
▁last	-6.87345
▁feel	-6.88141
▁three	-6.8877
▁might	-6.88997
▁coming	-6.89383
▁another	-6.9174
▁weve	-6.92254
▁course	-6.93292
▁money	-6.93776
▁may	-6.93788
▁told	-6.93806
▁call	-6.93946
er	-6.94902
▁ha	-6.95314
▁left	-6.95854
▁care	-6.9595
▁playing	-6.96218
▁hear	-6.96547
▁today	-6.96921
▁ta	-6.97347
▁nice	-6.97685
▁frank	-6.98018
▁together	-6.98515
▁isnt	-6.99597
▁talk	-7.00437
▁god	-7.00919
▁school	-7.01274
▁done	-7.01335
▁try	-7.0145
▁black	-7.0208
▁miss	-7.02095
▁enough	-7.0236
▁thanks	-7.03292
▁looking	-7.03449
▁hard	-7.04634
▁getting	-7.04797
▁play	-7.04848
▁seen	-7.05406
▁idea	-7.06789
▁show	-7.07283
▁run	-7.07489
▁came	-7.08315
▁ah	-7.09617
▁morning	-7.09747
▁mind	-7.09831
▁fine	-7.0994
▁bad	-7.09992
▁doesnt	-7.10527
▁ok	-7.11117
▁real	-7.11817
▁many	-7.12357
▁live	-7.12556
▁ready	-7.14386
a	-7.14531
▁wrong	-7.15511
▁hoo	-7.15812
▁water	-7.16611
▁leave	-7.16955
▁lost	-7.18141
▁wanted	-7.1877
▁laughing	-7.19503
▁found	-7.19635
▁tomorrow	-7.19674
▁dog	-7.19674
▁kids	-7.19967
▁city	-7.20129
▁hope	-7.20222
▁dad	-7.20336
▁high	-7.20454
▁house	-7.22584
▁whole	-7.22809
▁daisy	-7.22823
▁friend	-7.23769
▁heard	-7.23837
▁sea	-7.2534
▁pretty	-7.25589
▁tonight	-7.25589
▁next	-7.25598
▁start	-7.25788
▁days	-7.25943
▁friends	-7.26109
▁else	-7.2631
▁hold	-7.26978
▁clear	-7.27059
al	-7.2711
▁someone	-7.27731
▁understand	-7.28049
es	-7.2855
▁saw	-7.29237
▁wouldnt	-7.29321
▁guess	-7.2964
▁bring	-7.30608
▁tigger	-7.30657
▁also	-7.3066
▁men	-7.31065
▁narrator	-7.31407
▁mom	-7.31653
▁word	-7.31803
▁room	-7.32084
▁without	-7.32159
▁eat	-7.32374
▁talking	-7.34239
▁dear	-7.34359
▁hell	-7.34431
▁bit	-7.34655
▁minute	-7.34857
▁girl	-7.35646
▁happy	-7.36013
▁job	-7.36441
▁matter	-7.36474
▁went	-7.37612
▁melinda	-7.38386
▁yet	-7.38486
▁guy	-7.38825
▁knew	-7.39192
▁sighs	-7.40056
▁mother	-7.40492
t	-7.40997
▁everybody	-7.41324
▁mrs	-7.41595
▁heidi	-7.41651
▁meet	-7.41887
▁trying	-7.42238
▁church	-7.42349
▁part	-7.42881
▁doctor	-7.43008
▁far	-7.43303
▁children	-7.43328
▁ya	-7.44094
▁looks	-7.44248
▁easy	-7.44256
▁everyone	-7.44259
▁bear	-7.44555
▁open	-7.44737
▁cause	-7.44807
▁ask	-7.44824
▁whos	-7.44935
▁true	-7.46016
▁catch	-7.46403
▁fish	-7.46478
▁says	-7.4673
▁actually	-7.46766
▁mary	-7.46843
▁used	-7.47142
▁th	-7.47751
▁called	-7.48118
▁young	-7.48425
▁watch	-7.48729
▁year	-7.48789
▁um	-7.49018
▁late	-7.49191
▁em	-7.49376
▁aint	-7.49446
▁wan	-7.49584
▁grandpa	-7.49662
▁happened	-7.50463
▁took	-7.5123
▁alone	-7.51237
▁shall	-7.51242
▁turn	-7.52096
▁fun	-7.52776
▁havent	-7.53067
▁couldnt	-7.53231
▁youd	-7.53461
▁door	-7.53825
▁end	-7.54625
▁country	-7.54907
▁son	-7.55553
r	-7.55653
▁beautiful	-7.55721
▁afraid	-7.55898
en	-7.56094
▁move	-7.56457
n	-7.56673
▁use	-7.57088
▁wants	-7.57197
▁worry	-7.57418
▁goodbye	-7.57752
▁problem	-7.58615
o	-7.58905
▁head	-7.6004
▁read	-7.60229
▁already	-7.608
▁ago	-7.60912
▁later	-7.60936
▁heart	-7.61446
▁sit	-7.61537
▁soon	-7.6175
▁order	-7.62273
▁hand	-7.62311
▁important	-7.62666
▁uncle	-7.62858
▁wow	-7.62867
▁team	-7.64811
▁wasnt	-7.64922
▁chance	-7.65858
▁different	-7.65878
▁stuff	-7.65956
▁five	-7.66033
▁making	-7.66037
▁close	-7.66108
▁crowd	-7.66755
▁benny	-7.67022
▁daddy	-7.67054
▁jason	-7.68096
▁story	-7.68125
▁un	-7.68291
est	-7.68883
▁john	-7.69476
▁times	-7.69915
▁king	-7.70021
▁wish	-7.70372
▁change	-7.71074
▁win	-7.71344
▁anyway	-7.7139
▁anyone	-7.7139
▁brought	-7.71391
▁along	-7.71398
▁since	-7.71521
▁set	-7.71575
▁saying	-7.7178
▁wonderful	-7.72521
▁quite	-7.72615
▁ship	-7.73148
▁mine	-7.73822
▁free	-7.73849
▁makes	-7.73927
▁dr	-7.74377
▁bible	-7.74795
▁almost	-7.7482
▁exactly	-7.74824
▁case	-7.74863
▁car	-7.75916
▁least	-7.75971
▁baby	-7.76356
▁stand	-7.76696
▁nobody	-7.7716
▁gone	-7.77477
▁joy	-7.78535
▁m	-7.79273
▁goes	-7.79356
▁honey	-7.79537
▁annabel	-7.79573
▁lord	-7.79662
▁four	-7.79807
▁asked	-7.79922
▁wonder	-7.80279
▁hurt	-7.80383
▁check	-7.80608
▁welcome	-7.80811
▁animals	-7.81299
▁deal	-7.81333
▁forget	-7.81885
▁tischendorf	-7.81988
▁ooh	-7.8203
▁excuse	-7.82125
▁top	-7.82444
▁dream	-7.82522
▁sleep	-7.82741
▁tiggers	-7.82822
st	-7.82834
▁rest	-7.82851
▁hit	-7.83181
▁fight	-7.83184
▁hurry	-7.83239
▁grandfather	-7.83242
▁arent	-7.83297
▁s	-7.83979
▁pick	-7.84217
▁inside	-7.84505
▁probably	-7.84506
▁horse	-7.84637
▁face	-7.85765
▁plan	-7.86255
▁laughs	-7.86263
▁side	-7.86264
▁eyes	-7.86392
▁break	-7.86725
▁means	-7.8683
▁dusty	-7.87136
▁comes	-7.87356
▁kill	-7.87537
▁luck	-7.88056
▁dinner	-7.88403
▁taking	-7.88533
▁brother	-7.88592
▁a	-7.8866
▁child	-7.8866
▁send	-7.88678
▁perfect	-7.896
▁trouble	-7.89629
▁rome	-7.89648
▁second	-7.89889
▁wheres	-7.90019
▁hmm	-7.90224
▁bet	-7.90455
▁possible	-7.91094
▁amazing	-7.91099
▁christmas	-7.9111
▁white	-7.91206
▁book	-7.91495
▁re	-7.91575
▁thinking	-7.91738
▁learn	-7.91776
▁light	-7.92391
▁dead	-7.92562
▁air	-7.92614
▁sort	-7.93376
▁p	-7.93664
▁boss	-7.93857
▁chuckles	-7.94024
▁point	-7.94204
▁marc	-7.94523
▁cool	-7.95019
▁full	-7.95035
▁whatever	-7.95252
▁robert	-7.95485
▁kid	-7.9553
▁party	-7.95708
▁cat	-7.96576
▁b	-7.9666
▁perhaps	-7.96679
▁theyll	-7.9668
▁history	-7.96683
▁woman	-7.96687
▁bye	-7.96748
▁able	-7.96873
▁evil	-7.96905
▁power	-7.96932
▁town	-7.97107
▁h	-7.97144
▁words	-7.97493
▁t	-7.97572
▁pull	-7.97894
▁either	-7.98138
▁ivy	-7.98145
▁feet	-7.98153
▁gasps	-7.98182
▁special	-7.98287
▁hands	-7.98312
▁moment	-7.98436
▁fast	-7.99063
▁glad	-7.99428
▁professor	-7.996
▁gave	-7.99611
▁gamble	-7.99672
▁early	-7.99749
in	-7.99909
▁sounds	-8.00608
▁boys	-8.00865
▁rock	-8.01096
▁funny	-8.01099
▁tony	-8.01121
▁lady	-8.0114
▁half	-8.01282
▁working	-8.01449
▁walk	-8.02218
▁sweet	-8.02554
▁truth	-8.026
▁behind	-8.02605
▁peter	-8.02851
▁gold	-8.03448
l	-8.03858
able	-8.04001
▁business	-8.04031
▁george	-8.04172
▁needs	-8.04547
▁game	-8.04555
▁news	-8.04688
▁red	-8.04803
▁human	-8.0546
▁lead	-8.0562
▁molly	-8.05721
▁america	-8.05822
▁ones	-8.05976
▁voice	-8.06102
▁andy	-8.06228
▁started	-8.0633
▁question	-8.06865
▁c	-8.06928
▁supposed	-8.07285
▁alice	-8.07306
▁mama	-8.0731
▁hang	-8.07482
▁number	-8.07714
▁stranger	-8.07784
▁race	-8.0793
▁minutes	-8.08125
▁g	-8.08593
▁alright	-8.08914
▁drive	-8.08923
▁balto	-8.0893
▁person	-8.08985
▁hound	-8.0899
▁hours	-8.09435
▁fact	-8.09586
▁de	-8.10299
▁save	-8.10364
▁tentrees	-8.10546
▁simonides	-8.10546
▁david	-8.10546
▁wake	-8.10624
▁finally	-8.10624
▁lose	-8.10639
▁promise	-8.10727
▁land	-8.1095
▁christian	-8.10979
▁rat	-8.11351
▁follow	-8.11486
▁birds	-8.11533
▁seems	-8.11771
▁be	-8.12037
▁fly	-8.12105
▁drink	-8.12207
▁somewhere	-8.12213
▁babar	-8.12216
▁ahead	-8.1222
▁sound	-8.12543
▁reason	-8.12685
▁american	-8.12732
▁seem	-8.1346
▁happen	-8.13695
▁deep	-8.13776
▁crazy	-8.13908
▁joshua	-8.13937
▁running	-8.13949
▁sun	-8.13995
ies	-8.141
▁fire	-8.14322
▁waiting	-8.14395
▁somebody	-8.1442
▁catholic	-8.14464
▁letter	-8.1454
▁star	-8.14912
▁knows	-8.15309
▁lives	-8.15442
▁office	-8.15502
▁pay	-8.15507
▁poor	-8.15663
▁james	-8.15674
▁though	-8.15927
ve	-8.16092
▁known	-8.16109
▁sense	-8.1616
▁sister	-8.16191
▁tree	-8.16263
▁song	-8.16284
▁el	-8.16839
▁speak	-8.17
▁anymore	-8.17385
▁lunch	-8.17386
▁cheering	-8.17509
▁control	-8.17969
▁act	-8.18097
▁meeting	-8.18782
▁trust	-8.18924
▁safe	-8.18928
▁war	-8.19047
▁swim	-8.19177
▁president	-8.19181
▁near	-8.19217
▁beat	-8.19267
c	-8.19768
▁met	-8.19779
▁ocean	-8.1978
▁become	-8.19806
▁d	-8.20376
▁die	-8.20441
▁line	-8.2049
▁small	-8.20894
▁gods	-8.21269
▁secret	-8.21452
▁anybody	-8.21607
▁earth	-8.21639
▁donald	-8.21809
▁field	-8.21884
▁brazil	-8.22832
▁couple	-8.22839
▁lodge	-8.22841
▁gentlemen	-8.22842
▁outside	-8.22842
▁sometimes	-8.23121
▁simple	-8.23225
▁cut	-8.23544
▁bed	-8.23657
▁class	-8.24069
▁wed	-8.24372
▁quick	-8.24474
▁sam	-8.24693
▁cornelius	-8.24727
▁theyve	-8.24729
▁killed	-8.25158
▁ball	-8.25375
▁greek	-8.2543
▁week	-8.25439
▁ahh	-8.25541
ion	-8.25574
▁master	-8.25738
▁round	-8.26086
▁post	-8.26099
▁yesterday	-8.2665
▁major	-8.26669
▁tried	-8.26696
▁trip	-8.27242
▁manuscript	-8.27407
▁mountain	-8.27414
▁hot	-8.27802
▁taught	-8.28618
▁aah	-8.28687
▁cold	-8.28756
▁past	-8.28778
▁ride	-8.28824
▁parents	-8.28857
▁system	-8.28865
▁feeling	-8.29035
▁aunt	-8.29666
▁bird	-8.29825
▁mountains	-8.29827
▁taken	-8.30328
▁bill	-8.30374
▁quiet	-8.3045
▁aussie	-8.3061
▁damn	-8.30649
▁pre	-8.30738
▁spelling	-8.30883
▁cubs	-8.30889
▁west	-8.30902
on	-8.31248
▁pope	-8.31673
▁fault	-8.32649
▁london	-8.3265
▁boris	-8.32651
▁takes	-8.32742
▁mmm	-8.32757
▁eight	-8.32868
▁lucky	-8.32972
▁jack	-8.33344
▁stick	-8.33372
▁ow	-8.33381
▁million	-8.33521
▁denny	-8.33537
▁pete	-8.33782
▁bee	-8.33978
ers	-8.34636
▁husband	-8.34733
▁prefontaine	-8.34734
▁rather	-8.34741
▁leaving	-8.34752
▁alive	-8.34763
▁hide	-8.3501
▁six	-8.35163
ous	-8.35692
▁girls	-8.35809
▁weeks	-8.36053
▁mark	-8.3657
▁front	-8.3669
▁napoleon	-8.36861
▁clifford	-8.36862
▁alfred	-8.36862
▁community	-8.36862
▁middle	-8.36862
▁shh	-8.36873
▁wrote	-8.36897
▁century	-8.369
▁expect	-8.36932
▁north	-8.37101
▁york	-8.37749
▁food	-8.37934
us	-8.38117
▁dude	-8.38375
h	-8.38572
▁wind	-8.38803
▁wild	-8.38853
▁present	-8.38866
▁shouldnt	-8.3904
▁papi	-8.39101
▁steele	-8.39234
▁return	-8.39292
▁heres	-8.39315
▁learned	-8.39483
▁speaking	-8.3961
ry	-8.39924
▁begin	-8.40048
▁ground	-8.40088
▁w	-8.40546
▁smell	-8.40615
▁loves	-8.41013
▁future	-8.41256
▁callahan	-8.41257
▁married	-8.41257
▁living	-8.41297
▁wide	-8.41347
▁answer	-8.41996
▁reach	-8.42114
▁blue	-8.42401
▁shell	-8.4245
▁visit	-8.42812
▁named	-8.42835
▁happens	-8.42884
▁throw	-8.42894
▁hat	-8.43214
▁strange	-8.43234
▁faith	-8.43521
▁kyle	-8.43528
▁itll	-8.43529
▁codex	-8.43529
▁england	-8.43529
▁worried	-8.43529
▁walter	-8.43531
▁especially	-8.43533
▁ellen	-8.43543
▁monty	-8.43547
▁absolutely	-8.4355
▁none	-8.43615
▁bottom	-8.43618
▁co	-8.43759
▁ought	-8.43986
▁longer	-8.44067
▁evening	-8.44337
▁lauren	-8.44588
▁college	-8.446
▁drop	-8.44637
▁less	-8.44724
▁ten	-8.44979
▁sunk	-8.45124
▁join	-8.45211
▁suppose	-8.45613
▁phone	-8.45678
▁fear	-8.45681
▁step	-8.45807
▁grumpy	-8.45858
▁across	-8.45871
▁bout	-8.45946
▁moving	-8.45953
▁certainly	-8.45966
▁pain	-8.45969
▁scared	-8.4598
▁write	-8.46008
▁joe	-8.46145
▁teacher	-8.46151
▁teach	-8.46362
▁wife	-8.46422
▁imagine	-8.46529
▁explain	-8.46681
▁warren	-8.46765
▁daughter	-8.46968
▁shark	-8.47035
▁band	-8.47615
▁gets	-8.47684
▁f	-8.47837
ity	-8.4795
▁lie	-8.47981
▁careful	-8.48107
▁china	-8.48222
▁pass	-8.48233
▁proud	-8.48235
▁women	-8.48238
▁definitely	-8.48238
▁forever	-8.48244
▁seven	-8.48271
▁clothes	-8.48278
▁others	-8.4829
▁shouting	-8.48337
▁brave	-8.48445
▁train	-8.48596
▁goodman	-8.48624
▁ice	-8.48968
▁orchestra	-8.49364
▁sign	-8.49383
▁eye	-8.49413
▁dance	-8.49866
▁humans	-8.5008
▁fix	-8.50408
▁sing	-8.5053
▁forgive	-8.50591
▁caesar	-8.50673
▁captain	-8.50674
▁cape	-8.5082
m	-8.50996
▁smile	-8.51058
▁law	-8.51096
▁miles	-8.51406
▁tim	-8.51843
▁chip	-8.51973
▁ba	-8.52038
▁plane	-8.52389
▁meow	-8.52472
▁worked	-8.52751
i	-8.52908
ic	-8.53047
▁straight	-8.53112
▁fell	-8.53137
▁dark	-8.53168
▁forgot	-8.53172
▁ladies	-8.53178
ll	-8.53184
▁maam	-8.5319
▁latin	-8.53212
▁laughter	-8.53225
▁giving	-8.53347
▁doubt	-8.53399
▁tail	-8.5359
▁ho	-8.53961
▁lm	-8.54037
▁shut	-8.54064
▁super	-8.54126
▁bounce	-8.54163
▁surprise	-8.5422
▁goats	-8.54314
▁date	-8.54342
▁ancient	-8.54455
▁buy	-8.54856
▁hate	-8.55026
▁camp	-8.55216
▁study	-8.55333
▁large	-8.55562
▁trick	-8.5566
▁chief	-8.55695
▁grow	-8.5573
▁jesus	-8.55738
▁darling	-8.55743
▁english	-8.55744
▁theyd	-8.5576
▁busy	-8.55869
▁sick	-8.55998
▁months	-8.56347
▁ohh	-8.5647
▁continues	-8.56565
▁lee	-8.56709
▁lots	-8.56797
▁crystal	-8.57083
▁gun	-8.57168
▁e	-8.57626
▁nathan	-8.57851
▁carry	-8.58084
▁looked	-8.58124
▁company	-8.5839
▁born	-8.58473
▁hair	-8.58485
▁uhoh	-8.5855
▁sell	-8.58561
▁telling	-8.58609
▁charge	-8.58716
▁al	-8.58851
▁hows	-8.58937
▁lifetime	-8.59209
▁till	-8.59324
▁street	-8.59846
▁animal	-8.59862
digger	-8.59879
▁crew	-8.59881
came	-8.59949
▁states	-8.60232
▁mad	-8.6029
▁strong	-8.60974
▁charlotte	-8.61071
▁indeed	-8.61075
▁quint	-8.61089
▁death	-8.6109
▁spend	-8.61168
▁singing	-8.61502
▁steve	-8.61584
▁flying	-8.61817
▁wear	-8.62136
▁monsters	-8.62257
▁spell	-8.6231
▁choice	-8.62602
▁republican	-8.62639
▁monster	-8.62645
▁martin	-8.62672
ts	-8.62728
▁lovely	-8.62866
▁building	-8.63008
▁questions	-8.63138
▁aw	-8.63152
▁calling	-8.63198
▁enjoy	-8.6341
▁serious	-8.63697
▁except	-8.63727
▁dakota	-8.6384
▁anywhere	-8.63849
▁terrible	-8.63849
▁fifi	-8.63855
▁unless	-8.63867
▁danger	-8.63876
▁princess	-8.63878
▁barking	-8.63942
▁plethora	-8.63952
▁pups	-8.64121
▁billy	-8.64138
▁turned	-8.64706
▁in	-8.65006
▁ben	-8.65028
▁missed	-8.65245
ness	-8.65393
▁state	-8.65545
▁steal	-8.65617
▁foot	-8.65634
▁climb	-8.65977
le	-8.66111
▁build	-8.66147
▁finish	-8.66301
▁brothers	-8.66394
▁chris	-8.66432
▁piccolo	-8.66698
▁pinto	-8.66699
▁kept	-8.66701
▁hungry	-8.66703
▁larry	-8.66714
▁uhhuh	-8.66735
▁tired	-8.66795
▁general	-8.66819
▁count	-8.66823
▁interesting	-8.66854
▁body	-8.66984
or	-8.67407
▁given	-8.68129
▁pat	-8.68314
▁sad	-8.68351
▁protestant	-8.68384
▁window	-8.6842
▁trail	-8.68427
▁shot	-8.68601
▁piece	-8.6864
▁grand	-8.68931
▁buzz	-8.69078
▁box	-8.69516
▁smart	-8.69574
▁teeth	-8.69641
▁built	-8.69641
▁beginning	-8.69645
▁regan	-8.69656
▁groaning	-8.69661
▁harry	-8.69683
▁tv	-8.69712
▁completely	-8.69779
▁faster	-8.69822
▁proof	-8.69929
▁rid	-8.70386
an	-8.70488
▁tad	-8.70585
▁warm	-8.71118
▁belong	-8.71163
ive	-8.7118
ation	-8.71609
▁roman	-8.71964
▁film	-8.71985
▁experience	-8.71991
▁kiss	-8.72248
▁seconds	-8.72309
▁huge	-8.72659
▁weird	-8.72669
▁speech	-8.72669
▁sinaiticus	-8.7267
▁south	-8.72671
▁jenna	-8.72678
▁tummy	-8.7268
▁ollie	-8.7269
▁single	-8.72706
▁russ	-8.72716
▁woody	-8.72791
▁decided	-8.72832
▁using	-8.72835
▁christ	-8.72937
▁quickly	-8.72981
▁board	-8.73055
▁national	-8.73102
▁saved	-8.73131
ting	-8.73486
▁guns	-8.74026
▁figure	-8.74312
▁slow	-8.74506
▁fool	-8.74578
▁picture	-8.74584
ment	-8.74587
▁protect	-8.74699
▁leader	-8.74736
▁green	-8.74974
▁extreme	-8.75007
▁papa	-8.75333
▁seeing	-8.75388
▁horses	-8.756
▁magic	-8.7569
▁breeze	-8.75794
▁sheriff	-8.75794
▁difference	-8.75795
▁caught	-8.75802
▁brandon	-8.75805
▁mason	-8.75818
▁dangerous	-8.75824
▁milk	-8.75842
▁wolf	-8.75853
▁incredible	-8.7592
▁position	-8.75939
▁mei	-8.76439
▁record	-8.76731
▁lived	-8.77084
id	-8.77169
g	-8.77248
▁fall	-8.77506
▁smoke	-8.77633
▁wall	-8.78449
▁short	-8.78489
▁fair	-8.7862
▁complete	-8.78685
▁meant	-8.78743
▁sh	-8.78847
▁certain	-8.78915
▁allow	-8.78926
▁rich	-8.79005
▁example	-8.7902
▁buddy	-8.79024
▁teddy	-8.79025
▁third	-8.79025
▁royal	-8.79027
▁stuck	-8.79029
▁movement	-8.79073
▁silly	-8.79097
▁andrews	-8.79126
▁grunting	-8.79137
▁grace	-8.79165
▁folks	-8.79187
▁hooting	-8.79201
▁besides	-8.79245
▁sounder	-8.79328
▁greatest	-8.79411
▁expected	-8.79505
▁brown	-8.79762
▁changed	-8.79764
▁needed	-8.79851
▁fighting	-8.80034
▁radio	-8.80239
▁k	-8.80358
▁blow	-8.80581
▁realize	-8.80634
▁played	-8.80637
▁court	-8.80638
▁awful	-8.80753
▁ran	-8.80777
▁so	-8.80872
▁road	-8.81076
▁dogs	-8.81397
ey	-8.8145
▁ape	-8.8156
▁shoot	-8.8193
▁prove	-8.8209
▁difficult	-8.82111
▁support	-8.82146
▁tru	-8.822
▁blood	-8.82211
▁among	-8.82291
ance	-8.82296
▁champ	-8.82328
▁muriel	-8.82353
▁wednesday	-8.82353
▁within	-8.82354
▁surface	-8.82354
▁knowledge	-8.82366
▁began	-8.82371
▁driving	-8.82386
▁scary	-8.82408
▁forward	-8.82419
▁government	-8.8242
▁upon	-8.82449
▁hoping	-8.82587
▁shoes	-8.82757
▁sent	-8.82784
▁bob	-8.83978
▁laugh	-8.8406
▁talked	-8.84126
▁starting	-8.84305
▁space	-8.84504
▁mistake	-8.8453
▁spirit	-8.84571
▁claire	-8.84654
▁fella	-8.84783
▁la	-8.84847
▁mess	-8.85047
▁attack	-8.85077
▁destroy	-8.85095
▁square	-8.85382
▁final	-8.85503
▁he	-8.85524
▁ja	-8.85545
▁i	-8.85552
▁vatican	-8.8576
▁jeanpaul	-8.85801
▁warwick	-8.85801
▁winslow	-8.85804
▁grover	-8.85814
▁rosa	-8.85824
▁marry	-8.85849
▁speed	-8.85851
▁ships	-8.85858
▁chattering	-8.85895
▁interested	-8.85922
▁monkeys	-8.86342
▁yay	-8.86666
▁teaching	-8.8667
▁command	-8.87248
▁offer	-8.87328
▁bright	-8.87416
▁asking	-8.87458
▁taste	-8.87688
▁common	-8.87948
▁hour	-8.88318
▁rats	-8.88443
▁clean	-8.88562
▁toy	-8.88588
▁honor	-8.89137
▁chase	-8.89211
ce	-8.89243
▁mouth	-8.89364
▁pool	-8.89369
▁coffee	-8.89373
▁instead	-8.89373
▁morgan	-8.89373
▁somehow	-8.89373
▁cuzco	-8.89373
▁grandma	-8.89375
▁giggling	-8.89376
▁laney	-8.89398
▁madrat	-8.89401
▁bower	-8.8941
▁journey	-8.89413
▁yall	-8.89532
▁americana	-8.8969
man	-8.89779
▁musketeers	-8.8989
▁rover	-8.89911
▁track	-8.90024
et	-8.90269
▁mm	-8.90376
▁bears	-8.90686
▁tight	-8.90697
▁cash	-8.90858
▁st	-8.90999
▁bomb	-8.91372
▁ko	-8.91465
▁river	-8.91565
▁ring	-8.91595
▁johnson	-8.91712
▁age	-8.91714
▁language	-8.91817
▁flavor	-8.91822
▁ghost	-8.91858
▁respect	-8.91866
▁starts	-8.91897
▁letters	-8.91941
▁soul	-8.92055
th	-8.92104
▁bother	-8.9235
less	-8.92696
▁per	-8.92764
▁accept	-8.92777
▁notice	-8.92851
▁mum	-8.92891
▁tough	-8.93071
▁education	-8.93077
▁klara	-8.93077
▁ronnie	-8.93077
▁breakfast	-8.93079
▁whether	-8.93079
▁murmuring	-8.93086
▁racist	-8.93089
▁clara	-8.93092
▁everywhere	-8.93096
▁panting	-8.93098
▁united	-8.931
▁worst	-8.93117
▁gasping	-8.93126
▁nature	-8.93129
▁circus	-8.93139
▁pardon	-8.93145
▁copy	-8.93192
▁energy	-8.93202
▁dumb	-8.93243
▁finn	-8.9325
▁lotso	-8.93329
▁finished	-8.93447
um	-8.93586
▁tuck	-8.93642
▁personal	-8.93737
▁low	-8.93751
▁bar	-8.93775
▁seemed	-8.93779
▁view	-8.94007
▁keys	-8.94111
▁died	-8.94158
▁sail	-8.9454
▁agree	-8.94715
▁glow	-8.95223
▁continue	-8.95496
▁fellow	-8.9562
▁wagon	-8.95648
▁over	-8.96006
ie	-8.9628
▁glass	-8.96521
▁fred	-8.96705
▁honest	-8.96848
▁humphrey	-8.96923
▁cleveland	-8.96923
▁giggles	-8.96923
▁puppies	-8.96924
▁weather	-8.96924
▁police	-8.96925
▁roger	-8.96929
▁information	-8.9693
▁danny	-8.96931
▁mister	-8.96938
▁winter	-8.96982
▁loose	-8.96987
▁goat	-8.96988
▁mickey	-8.96996
▁felt	-8.97007
▁butter	-8.97042
▁coughing	-8.97104
up	-8.9721
▁nearly	-8.97237
▁plays	-8.97359
▁store	-8.97397
▁goodness	-8.97438
▁flowers	-8.97491
▁friendly	-8.97873
▁calls	-8.98008
▁hall	-8.98125
▁opens	-8.98346
▁quit	-8.98827
▁there	-8.98848
▁ii	-8.99052
▁vote	-8.99409
▁mir	-8.99426
▁favorite	-8.99521
▁believed	-8.99639
▁di	-8.99814
▁indian	-9.00204
el	-9.00291
▁eh	-9.00447
▁pack	-9.00472
▁j	-9.00625
▁pot	-9.00633
▁dreams	-9.00698
▁maj	-9.00755
▁nervous	-9.00757
▁loud	-9.00763
▁worth	-9.00774
▁carnival	-9.00923
▁excellent	-9.00923
▁arthur	-9.00923
▁cherie	-9.00925
▁r	-9.00932
▁choose	-9.00934
▁smoking	-9.0094
▁spent	-9.00945
▁dress	-9.00972
▁betsy	-9.00976
▁highness	-9.01
▁goofy	-9.01044
▁screaming	-9.01118
▁sky	-9.01157
▁nose	-9.01176
▁gale	-9.01202
▁planet	-9.01292
▁promised	-9.01557
▁names	-9.01589
▁feed	-9.01633
▁rare	-9.0196
▁mars	-9.01978
▁o	-9.02209
▁mile	-9.02496
▁scholars	-9.02555
▁whoo	-9.02711
▁si	-9.03095
▁ted	-9.03783
nt	-9.03799
▁message	-9.03821
▁clue	-9.03852
▁heaven	-9.03926
▁area	-9.03953
▁truck	-9.04028
▁hero	-9.04037
▁paper	-9.04057
▁repeat	-9.04281
▁east	-9.04717
▁madam	-9.04735
▁plans	-9.04834
▁forest	-9.04867
▁handle	-9.04917
▁entire	-9.0493
▁roll	-9.04958
▁europe	-9.05061
▁announce	-9.05075
▁abigail	-9.05089
▁geranium	-9.05089
▁isabella	-9.05089
▁missouri	-9.05089
▁fantastic	-9.0509
▁opportunity	-9.0509
▁neither	-9.05091
▁reef	-9.05092
▁werent	-9.05093
▁liquor	-9.05093
▁percy	-9.05103
▁willing	-9.0511
▁science	-9.05148
▁dirty	-9.05155
▁famous	-9.05159
▁push	-9.05178
▁size	-9.05197
▁usually	-9.05224
▁realized	-9.05429
▁comin	-9.05437
▁loved	-9.05732
▁ringing	-9.05755
▁dan	-9.05895
▁problems	-9.05931
▁bell	-9.06081
ton	-9.06418
is	-9.06524
▁ma	-9.06552
▁runt	-9.06583
▁appreciate	-9.06636
▁rings	-9.06637
▁ugh	-9.06805
▁whose	-9.06914
over	-9.07023
▁bus	-9.07048
▁works	-9.07121
▁sharks	-9.0725
▁pet	-9.07405
▁tao	-9.07806
▁text	-9.07814
▁park	-9.07935
▁pip	-9.08007
▁v	-9.08016
▁gift	-9.0803
▁trees	-9.08065
▁practice	-9.08179
▁spring	-9.08235
▁cook	-9.08274
▁dis	-9.08337
▁games	-9.08337
▁owe	-9.08398
▁touch	-9.08526
▁key	-9.08533
▁grab	-9.0867
▁table	-9.08784
▁soft	-9.09017
▁search	-9.09032
▁false	-9.0924
▁share	-9.09247
▁roo	-9.09249
▁cover	-9.09278
▁broke	-9.09333
▁paul	-9.0936
▁drummin	-9.09387
▁cardinal	-9.09437
▁charlene	-9.09437
▁indistinct	-9.09437
▁cricket	-9.09437
▁oscar	-9.09437
▁chinese	-9.09437
▁yummies	-9.09437
▁previous	-9.09438
▁attention	-9.09439
▁steady	-9.09439
▁reformation	-9.09439
▁hasnt	-9.09453
▁worse	-9.09499
▁written	-9.09504
▁cute	-9.09504
▁roof	-9.09508
▁claude	-9.09511
▁camera	-9.09532
▁howd	-9.09567
▁lois	-9.09595
▁tiny	-9.09601
▁upset	-9.09624
re	-9.10059
▁tia	-9.10164
▁bones	-9.1017
te	-9.10433
▁pa	-9.11107
▁pictures	-9.11158
ism	-9.11403
▁favor	-9.1169
▁worlds	-9.1187
▁bigge	-9.12139
▁manuscripts	-9.12192
▁remain	-9.12436
▁miracle	-9.12678
▁swing	-9.12759
▁village	-9.12762
▁jesuit	-9.12769
▁mission	-9.1284
▁lay	-9.12897
▁officer	-9.12931
ally	-9.13175
as	-9.13537
▁stupid	-9.13802
▁peace	-9.13982
▁color	-9.13983
▁audience	-9.13983
▁awesome	-9.13983
▁beyond	-9.13983
▁dorothy	-9.13983
▁experiment	-9.13983
▁stannis	-9.13983
▁edgar	-9.13983
▁kitchen	-9.13983
▁grandmother	-9.13984
▁washington	-9.13984
▁summer	-9.14
▁simply	-9.14007
▁shame	-9.14007
▁yep	-9.14055
▁growling	-9.1406
▁obviously	-9.14067
▁pooh	-9.14096
ever	-9.14106
▁bigger	-9.14217
w	-9.14303
▁fingers	-9.1436
▁normal	-9.14377
▁tall	-9.14589
▁growing	-9.14711
▁holy	-9.14729
ful	-9.14745
▁main	-9.15188
▁happening	-9.15193
▁jesuits	-9.15212
ily	-9.15398
▁list	-9.1546
▁likes	-9.16018
▁parts	-9.16128
ch	-9.16632
go	-9.16652
▁je	-9.16843
▁tells	-9.17109
▁talent	-9.17137
▁heat	-9.1724
▁boat	-9.17261
▁priest	-9.17419
▁spot	-9.1743
▁decision	-9.17463
▁chiru	-9.17477
▁chicken	-9.17477
▁partner	-9.17519
▁service	-9.17521
▁wine	-9.17522
▁hundred	-9.17601
▁civil	-9.17782
▁yo	-9.1797
▁books	-9.18019
▁cost	-9.18104
▁ways	-9.18198
age	-9.18299
▁da	-9.18396
▁rain	-9.185
▁escape	-9.18536
▁lion	-9.18563
ty	-9.18569
▁ideas	-9.1857
▁survive	-9.18639
▁public	-9.18731
▁plenty	-9.18745
▁rottenmeier	-9.18745
▁hollywood	-9.18745
▁unique	-9.18745
▁charlon	-9.18745
▁wolves	-9.18745
▁contest	-9.18749
▁viren	-9.18753
▁michelle	-9.18757
▁address	-9.18764
▁guilty	-9.18779
▁flight	-9.18781
▁mmhmm	-9.18783
▁deserve	-9.18784
▁kate	-9.18785
▁brian	-9.188
▁bought	-9.18801
▁kidding	-9.18809
▁army	-9.18826
▁sitting	-9.18848
▁heck	-9.18901
▁arrived	-9.18921
▁bridge	-9.19062
▁how	-9.19067
▁ken	-9.19088
▁crying	-9.19133
▁battle	-9.1917
▁allowed	-9.19185
▁wings	-9.19241
▁closer	-9.19293
▁filming	-9.19389
▁lily	-9.19427
ine	-9.19844
▁pal	-9.20127
ar	-9.20293
▁pata	-9.20572
▁helping	-9.20963
k	-9.21563
▁lies	-9.21608
▁moon	-9.21621
▁knock	-9.21642
warren	-9.21772
▁out	-9.21865
▁dete	-9.21888
ta	-9.22184
▁force	-9.22255
▁fur	-9.22289
▁gang	-9.22293
▁price	-9.22396
▁brazilian	-9.22449
▁project	-9.22498
▁petal	-9.225
▁scripture	-9.22522
▁generation	-9.22566
▁month	-9.22571
▁storm	-9.226
▁level	-9.22625
▁gate	-9.22815
p	-9.22826
▁ear	-9.22865
▁hill	-9.23156
▁approach	-9.23304
ant	-9.23374
▁crash	-9.23396
▁correct	-9.23543
▁screech	-9.23603
▁fresh	-9.23654
▁create	-9.23724
▁elizabeth	-9.23745
▁sesemann	-9.23745
▁pedro	-9.23745
▁purpose	-9.23745
▁empty	-9.23745
▁stinky	-9.23745
▁claudette	-9.23746
▁savage	-9.23748
▁sweetheart	-9.23748
▁angry	-9.2375
▁university	-9.23753
▁excited	-9.23762
▁aldo	-9.23764
▁jail	-9.23771
▁tom	-9.23781
▁throat	-9.23801
▁shape	-9.2381
▁hypnotized	-9.23824
▁totally	-9.23829
▁cry	-9.2384
▁places	-9.23909
▁cream	-9.23935
▁breath	-9.2395
▁quito	-9.23964
▁winning	-9.23967
▁tour	-9.23971
▁statue	-9.2412
▁boom	-9.24169
▁figured	-9.24178
▁henr	-9.24193
▁deeply	-9.24204
▁perfectly	-9.24345
▁passed	-9.24378
▁higher	-9.24425
▁fan	-9.24615
▁rise	-9.24655
▁pro	-9.2467
lloween	-9.24957
▁walking	-9.25086
▁sniff	-9.25155
▁papers	-9.25235
▁fore	-9.25317
▁toys	-9.25358
▁wondering	-9.25451
▁where	-9.25463
▁fellas	-9.25561
▁cheer	-9.25791
da	-9.26347
▁mis	-9.26511
▁en	-9.26546
▁tea	-9.26553
▁coach	-9.26782
ent	-9.26889
▁bo	-9.26905
▁goin	-9.27156
▁con	-9.27259
▁sisters	-9.273
▁suggest	-9.27379
▁cor	-9.27383
▁wood	-9.27483
▁missing	-9.27483
▁treat	-9.27525
▁bernier	-9.27735
ate	-9.27757
▁machine	-9.27776
▁movie	-9.27793
▁nine	-9.27964
▁station	-9.27996
▁test	-9.28021
▁pray	-9.28092
▁jump	-9.28366
os	-9.28508
▁decide	-9.28736
▁discuss	-9.28749
▁kings	-9.28849
▁rescue	-9.28986
▁explore	-9.29005
▁lincoln	-9.29008
▁peanut	-9.29008
▁heavy	-9.29008
▁lulu	-9.29008
▁modern	-9.29008
▁competition	-9.29009
▁chicago	-9.29009
▁happiness	-9.29009
▁someday	-9.29009
▁clemons	-9.29009
▁denise	-9.29009
▁racism	-9.2901
▁edward	-9.2901
▁authority	-9.29017
▁swimming	-9.29017
▁yellow	-9.29017
▁violet	-9.29019
▁outta	-9.29019
▁theory	-9.2902
▁bravo	-9.29021
▁russell	-9.29035
▁trumpeting	-9.29044
▁impossible	-9.2905
▁hotel	-9.29066
▁lola	-9.29078
▁chirp	-9.29089
▁risk	-9.29145
▁season	-9.29145
▁blast	-9.29164
▁mo	-9.29217
▁broken	-9.29253
▁gotten	-9.2928
▁held	-9.2929
time	-9.29307
▁seriously	-9.29311
rs	-9.29435
▁bro	-9.29461
▁chicks	-9.29471
▁paws	-9.29488
▁cave	-9.29551
▁creatures	-9.2958
▁meters	-9.29687
▁democrats	-9.29721
▁toward	-9.29748
▁screams	-9.29795
f	-9.29982
▁consider	-9.29987
▁farm	-9.30072
ial	-9.30093
▁pandas	-9.30102
▁se	-9.30126
▁older	-9.30252
▁hills	-9.30388
▁grade	-9.304
▁closed	-9.30416
▁admit	-9.30522
▁do	-9.30575
▁deed	-9.30585
▁blows	-9.30999
▁ends	-9.31226
▁watching	-9.31474
▁fat	-9.32378
▁hole	-9.32695
▁discover	-9.32978
▁cro	-9.33036
▁loyal	-9.33095
▁character	-9.33102
▁border	-9.3312
▁theme	-9.33141
▁locker	-9.3319
▁double	-9.33273
▁rocks	-9.33313
▁religion	-9.33313
▁whistle	-9.33342
▁depend	-9.33465
▁leg	-9.33506
▁ri	-9.33568
▁jim	-9.33577
▁snow	-9.33595
▁bag	-9.33988
▁n	-9.33999
out	-9.34138
▁mi	-9.34174
ian	-9.3419
▁cop	-9.3424
▁sharp	-9.34319
▁successful	-9.34394
▁judge	-9.34433
ist	-9.34441
▁scientific	-9.34563
▁squadron	-9.34563
▁telephone	-9.34563
▁mystery	-9.34563
▁obama	-9.34564
▁often	-9.34564
▁permission	-9.34564
▁fleece	-9.34564
▁hudson	-9.34564
▁staff	-9.34564
▁cheese	-9.34565
▁queen	-9.34565
▁charley	-9.34566
▁wherever	-9.34571
▁nonsense	-9.34578
▁grew	-9.34581
▁powerful	-9.34591
▁margo	-9.34594
▁rosy	-9.34597
▁stopped	-9.34608
▁saucer	-9.34623
▁emily	-9.34626
▁helped	-9.34643
▁fortune	-9.34653
▁according	-9.34659
▁mention	-9.34666
▁alba	-9.34667
▁rule	-9.34694
▁healthy	-9.34707
▁operation	-9.34729
▁carder	-9.34754
▁origin	-9.34766
▁furlings	-9.34817
▁amount	-9.34823
▁created	-9.3489
▁discovered	-9.34928
▁calvin	-9.34979
▁jake	-9.3511
▁dare	-9.35113
▁tickle	-9.35389
▁wearing	-9.35439
▁churches	-9.35445
▁thousands	-9.35662
▁behave	-9.35824
▁tape	-9.35834
▁hundreds	-9.36014
▁li	-9.36073
▁turns	-9.36135
▁learning	-9.36258
▁match	-9.36455
▁feels	-9.36557
▁killing	-9.36658
▁par	-9.36907
▁provide	-9.37532
▁smells	-9.37588
▁mate	-9.37596
▁eating	-9.37715
▁fathers	-9.37889
▁meat	-9.37892
▁scholar	-9.38071
though	-9.38458
▁idiot	-9.39087
▁exist	-9.39095
▁sunday	-9.3911
▁noise	-9.39165
▁seat	-9.39224
▁panda	-9.39238
▁elsa	-9.3926
▁scotty	-9.3926
il	-9.39278
▁group	-9.39291
▁horn	-9.39406
▁type	-9.39425
▁corner	-9.39458
▁tw	-9.39662
▁sand	-9.39929
▁stole	-9.40336
▁celeste	-9.40445
▁oclock	-9.40446
▁bacteria	-9.40446
▁applause	-9.40446
▁doorbell	-9.40453
▁situation	-9.40453
▁samba	-9.40454
▁jones	-9.40463
▁jimmie	-9.40467
▁jenny	-9.40473
▁safety	-9.40477
▁fleet	-9.40483
▁universe	-9.40487
▁winner	-9.4049
▁calm	-9.40499
▁gena	-9.405
▁involved	-9.405
▁immediately	-9.40508
▁toss	-9.40519
▁honour	-9.40536
▁afternoon	-9.40539
▁flat	-9.40563
▁necessary	-9.40605
▁sardines	-9.4064
▁grateful	-9.40655
▁softly	-9.40661
▁discovery	-9.40662
▁howling	-9.40681
▁yelling	-9.40686
▁trunk	-9.40687
▁signal	-9.40703
▁putting	-9.40717
▁terms	-9.40853
▁elephants	-9.40864
▁claimed	-9.40878
▁changes	-9.40883
▁lake	-9.40932
▁returned	-9.41223
ne	-9.41477
▁legs	-9.41677
▁doors	-9.41795
▁wins	-9.41897
▁hanging	-9.42041
▁gee	-9.42124
▁lock	-9.42154
▁who	-9.42154
▁com	-9.42203
▁gosh	-9.42243
▁shit	-9.42279
▁bang	-9.42288
▁x	-9.42354
▁receive	-9.42432
▁pe	-9.42561
▁inter	-9.42573
▁spirits	-9.42602
▁form	-9.42881
▁can	-9.42933
▁mud	-9.42944
▁hunt	-9.43038
▁republicans	-9.43105
▁fit	-9.43151
▁reading	-9.43184
▁z	-9.43552
▁amen	-9.4438
▁bam	-9.44421
▁report	-9.44495
u	-9.44709
▁extra	-9.44754
▁governor	-9.4524
▁environment	-9.45327
▁bank	-9.45417
▁meaning	-9.45463
▁thousand	-9.4547
▁guest	-9.45551
▁writing	-9.45572
ors	-9.456
▁lap	-9.45759
▁brain	-9.45836
▁member	-9.45859
▁jar	-9.45911
▁sight	-9.46107
▁desire	-9.46374
▁waste	-9.46467
▁marvelous	-9.46498
▁ruin	-9.46498
▁doc	-9.46554
▁ronald	-9.46561
▁victor	-9.46565
▁ch	-9.46662
▁genuine	-9.46679
▁gregory	-9.46696
▁mexico	-9.46696
▁pocahontas	-9.46696
▁research	-9.46696
▁shackelford	-9.46696
▁advice	-9.46696
▁chloe	-9.46696
▁congratulations	-9.46696
▁joseph	-9.46696
▁jealous	-9.46696
▁relax	-9.46696
▁afford	-9.46696
▁rosita	-9.46696
▁chuckling	-9.46696
▁hadnt	-9.46696
▁valerie	-9.46697
▁cowboy	-9.46698
▁easier	-9.46698
▁rudi	-9.46698
▁club	-9.467
▁asleep	-9.467
▁romantic	-9.46703
▁possibly	-9.46703
▁turkey	-9.46704
▁zeus	-9.46707
▁bouncy	-9.46716
▁mommy	-9.46719
▁cleo	-9.46723
▁tj	-9.46741
▁blame	-9.46745
▁onto	-9.46745
▁pride	-9.46757
▁christianity	-9.46757
▁blacks	-9.4676
▁pastor	-9.46764
▁responsible	-9.46855
▁fastest	-9.46861
▁butt	-9.46864
▁gary	-9.46871
▁chef	-9.46914
▁ex	-9.46929
▁artist	-9.47001
▁spellers	-9.47039
▁hiding	-9.47045
▁gather	-9.47177
▁noticed	-9.47221
▁pic	-9.47254
▁rumbling	-9.47256
▁students	-9.473
▁prisoners	-9.47324
▁dancing	-9.47413
▁lying	-9.47431
▁fuck	-9.47533
▁coughs	-9.47703
▁sayers	-9.47756
▁rent	-9.4782
▁exists	-9.47968
▁bath	-9.48217
red	-9.48219
▁she	-9.48358
▁dry	-9.48406
▁moved	-9.4844
▁up	-9.48555
▁indians	-9.48643
▁opened	-9.48816
▁opera	-9.48957
▁mothers	-9.49419
▁bust	-9.49607
▁ye	-9.49906
by	-9.50196
▁begins	-9.50287
▁holding	-9.50311
▁ab	-9.50554
ble	-9.50912
▁tradition	-9.51024
ra	-9.51139
▁ca	-9.51422
▁squawk	-9.5148
▁challenge	-9.51781
▁trial	-9.51821
▁cu	-9.51839
▁liked	-9.51857
▁hospital	-9.5186
▁monday	-9.5189
▁press	-9.51897
▁german	-9.51909
▁russian	-9.51923
▁traitor	-9.51995
▁trap	-9.52022
▁statement	-9.52099
▁insist	-9.52107
▁sake	-9.5232
▁sub	-9.52611
▁draw	-9.5266
ary	-9.52717
▁cow	-9.52802
▁oooh	-9.52834
▁focus	-9.52865
▁shake	-9.53022
▁capture	-9.53174
▁spoke	-9.53228
▁exact	-9.53303
▁bouncin	-9.5332
▁paris	-9.53322
▁trump	-9.53335
▁settle	-9.53338
▁accident	-9.53344
▁apart	-9.53354
▁cliff	-9.53362
▁boatwright	-9.53362
▁chocolate	-9.53362
▁clamoring	-9.53362
▁kirby	-9.53362
▁miserable	-9.53362
▁opinion	-9.53362
▁progress	-9.53362
▁rebecca	-9.53362
▁salvatore	-9.53362
▁sebastian	-9.53362
▁tunnel	-9.53362
▁whimpering	-9.53362
▁desmond	-9.53362
▁remote	-9.53362
▁society	-9.53362
▁evidence	-9.53363
▁french	-9.53363
▁gorgeous	-9.53363
▁thunder	-9.53363
▁virginia	-9.53363
▁sidewalks	-9.53363
▁norwood	-9.53364
▁duncan	-9.53364
▁religious	-9.53364
▁spread	-9.53366
▁kitty	-9.53368
▁slavery	-9.53369
▁jojo	-9.53372
▁forgotten	-9.53374
▁france	-9.53375
▁democratic	-9.53376
▁brilliant	-9.53376
▁planned	-9.53383
▁style	-9.53388
▁thumper	-9.53389
▁suggestion	-9.53389
▁nope	-9.53391
▁chasing	-9.53393
▁becoming	-9.53397
▁thatll	-9.53403
▁sweetie	-9.53423
▁dawn	-9.53432
▁direction	-9.53434
▁fox	-9.53463
▁biblical	-9.53465
▁button	-9.53471
▁birthday	-9.53478
▁dust	-9.53482
▁oops	-9.53485
▁fourth	-9.53485
▁center	-9.53489
▁europa	-9.5349
▁carbonated	-9.53493
▁valley	-9.53504
▁concert	-9.53518
▁sword	-9.53559
▁stronger	-9.53588
▁settled	-9.53612
▁bleat	-9.53651
▁pair	-9.53653
▁larger	-9.5367
▁crow	-9.53772
▁plain	-9.53828
▁mar	-9.53852
▁row	-9.53874
▁chabots	-9.53924
▁weapons	-9.53925
▁destroyed	-9.53926
▁arms	-9.54032
▁surprised	-9.54046
▁commander	-9.5412
▁distance	-9.54161
▁signed	-9.54203
▁deny	-9.54249
▁legal	-9.54296
▁talks	-9.54399
▁orders	-9.54408
▁trade	-9.54615
▁heads	-9.54736
▁wet	-9.54766
▁note	-9.548
▁le	-9.549
▁cup	-9.5498
▁couldve	-9.55285
tail	-9.55295
▁souls	-9.55365
z	-9.55375
b	-9.55432
▁ghosts	-9.55628
▁suit	-9.55854
▁standing	-9.56196
▁snap	-9.56379
▁blim	-9.56414
lden	-9.56616
▁neat	-9.56734
▁defend	-9.57076
▁answers	-9.5709
▁ears	-9.57167
li	-9.57318
▁due	-9.5736
▁skin	-9.57551
▁secrets	-9.57961
▁catholics	-9.58396
▁strength	-9.58783
▁hop	-9.58942
▁pressure	-9.58945
▁crime	-9.59026
▁original	-9.59037
▁pleased	-9.59101
▁snake	-9.59137
▁luther	-9.59138
▁rabbit	-9.59182
▁floor	-9.59224
▁staying	-9.59241
▁duck	-9.59258
▁account	-9.59266
ign	-9.59287
▁chair	-9.59417
▁blind	-9.59454
▁beg	-9.59691
▁bone	-9.60046
▁shows	-9.60061
▁burn	-9.60109
▁wealth	-9.60122
▁particular	-9.60343
▁wh	-9.60371
▁prison	-9.60392
agne	-9.60412
▁add	-9.60418
▁object	-9.60422
▁cap	-9.60446
▁crack	-9.60482
▁brief	-9.60505
▁cigarette	-9.60505
▁library	-9.60505
▁thomas	-9.60505
▁vineyard	-9.60505
▁wharf	-9.60505
▁communities	-9.60505
▁saturday	-9.60505
▁sugar	-9.60505
▁oregon	-9.60506
▁medicine	-9.60507
▁commence	-9.60507
▁rufus	-9.60507
▁influence	-9.60507
▁bleep	-9.60507
▁usual	-9.60507
▁conversation	-9.60508
▁divine	-9.6051
▁quince	-9.60512
▁accent	-9.60512
▁louis	-9.60513
▁regret	-9.60514
▁humming	-9.60514
▁football	-9.60514
▁omar	-9.60516
▁attic	-9.60519
▁barbie	-9.60523
▁lonely	-9.60527
▁howard	-9.60528
▁brent	-9.60552
▁mule	-9.60573
▁iron	-9.60576
▁constantine	-9.60609
forbidden	-9.6061
▁curly	-9.60619
▁cr	-9.60639
▁scoffs	-9.60649
▁details	-9.60651
▁invited	-9.60653
▁honking	-9.60655
▁disappointed	-9.60691
▁lope	-9.60701
▁parties	-9.60732
▁shoulder	-9.60766
▁market	-9.60794
▁pine	-9.60804
▁cooke	-9.60818
▁stage	-9.60827
▁courage	-9.60876
▁locked	-9.60948
▁dramatic	-9.60994
▁recorder	-9.61096
▁pounds	-9.61104
▁warn	-9.61146
▁talkin	-9.61158
▁filmed	-9.61195
▁fo	-9.61254
▁swell	-9.61386
▁pure	-9.61561
▁counting	-9.61573
▁gas	-9.61845
▁whistles	-9.62111
▁ash	-9.62145
▁cake	-9.62261
ted	-9.62449
▁counter	-9.62452
▁parks	-9.62521
▁thinks	-9.62624
well	-9.62634
▁rough	-9.6269
▁aha	-9.62752
▁uhh	-9.63019
▁under	-9.63163
▁indi	-9.63317
▁belongs	-9.63492
▁woods	-9.63561
▁hatch	-9.63627
▁shed	-9.63642
▁mail	-9.6371
inkling	-9.63961
▁showed	-9.64076
rectly	-9.64462
▁hunting	-9.64585
▁cross	-9.64598
▁bringing	-9.64772
▁dennys	-9.64856
▁fame	-9.65345
la	-9.65406
▁wa	-9.6565
▁bees	-9.65843
hypnoti	-9.66154
▁numbers	-9.66157
▁andys	-9.66214
▁leaves	-9.66364
▁stars	-9.66527
▁dig	-9.66587
▁scare	-9.66621
▁engine	-9.66723
▁african	-9.66778
▁european	-9.66778
▁expert	-9.6678
▁destiny	-9.66849
▁newspaper	-9.66932
▁particle	-9.6696
▁monkey	-9.66983
▁crane	-9.66986
▁devil	-9.66996
▁garden	-9.67033
▁feather	-9.67071
▁rose	-9.67308
▁path	-9.67343
▁enter	-9.67547
▁meal	-9.67614
▁bless	-9.6765
▁arch	-9.67663
▁deliver	-9.67839
▁adopt	-9.67902
▁mash	-9.6797
▁necessar	-9.67988
▁page	-9.68013
▁nothin	-9.68147
▁mmmmmmmm	-9.68193
▁bdawg	-9.68197
▁cathedral	-9.68197
▁dubovsky	-9.68197
▁hercules	-9.68197
▁inquisition	-9.68197
▁munroe	-9.68197
▁comrade	-9.68198
▁goonches	-9.68198
▁auburn	-9.68198
▁buddies	-9.68198
▁horrible	-9.68198
▁sermon	-9.68198
▁charlie	-9.68198
▁lhc	-9.68198
▁mostly	-9.68199
▁welfare	-9.68199
▁silver	-9.68199
▁tardone	-9.682
▁katie	-9.68201
▁stunned	-9.68201
▁target	-9.68201
▁maggie	-9.68201
▁pleasure	-9.68203
▁trash	-9.68204
▁mmmhmm	-9.68205
▁performance	-9.68205
▁location	-9.68206
▁giant	-9.68207
▁carlos	-9.6821
▁foolish	-9.6821
▁precious	-9.68211
▁thanksgiving	-9.68211
▁basically	-9.68211
▁puppy	-9.68213
▁alexander	-9.68216
▁pearl	-9.68216
▁twice	-9.68218
▁earlier	-9.68221
▁exciting	-9.68223
▁neck	-9.68231
▁itd	-9.68233
▁nigger	-9.68235
▁suddenly	-9.68242
▁fought	-9.68242
▁worship	-9.6826
▁forth	-9.68266
▁including	-9.68268
▁apply	-9.68276
▁dope	-9.68287
▁friendship	-9.68294
▁flow	-9.68305
▁period	-9.68312
▁molecul	-9.68312
▁underground	-9.68316
▁former	-9.68317
▁politics	-9.68318
▁duty	-9.68321
▁disappear	-9.68321
▁dying	-9.68326
do	-9.68329
▁scene	-9.68334
▁harm	-9.68341
▁mike	-9.68346
▁version	-9.68349
▁groans	-9.68382
▁squeaking	-9.68383
▁largest	-9.68392
▁raised	-9.68422
▁hup	-9.68424
▁loving	-9.68426
he	-9.68492
▁deck	-9.6851
▁mount	-9.68519
▁goodnight	-9.68521
▁doin	-9.68526
▁setting	-9.68532
▁anti	-9.68547
▁paid	-9.68563
▁kent	-9.68596
▁dollart	-9.68601
▁justice	-9.68633
inkle	-9.68704
▁filled	-9.68724
▁agreed	-9.68735
▁chased	-9.68751
▁gr	-9.68779
▁dressed	-9.68832
▁grown	-9.68866
▁breathe	-9.68896
▁rights	-9.68994
▁glowing	-9.69025
▁guards	-9.69164
▁shooting	-9.69179
ah	-9.69194
▁wise	-9.69266
▁plants	-9.69505
ley	-9.69514
▁fake	-9.69537
▁members	-9.69577
▁cops	-9.69631
▁plant	-9.69672
▁guests	-9.69687
▁expecting	-9.69725
ay	-9.69841
▁cheers	-9.69993
room	-9.701
▁scriptures	-9.70136
fore	-9.70144
▁shine	-9.70194
ish	-9.70427
ons	-9.70508
▁guide	-9.70584
▁walls	-9.70741
▁breaking	-9.70758
▁ages	-9.70932
▁lookin	-9.71053
▁tire	-9.71141
▁ad	-9.71193
▁base	-9.71243
▁doctors	-9.7125
▁everybodys	-9.71449
it	-9.71672
▁wave	-9.71858
dy	-9.72224
▁shells	-9.7245
ling	-9.72547
line	-9.73031
▁masters	-9.73204
▁feelings	-9.73383
se	-9.73404
▁po	-9.73533
▁historic	-9.73535
▁woo	-9.73599
▁direct	-9.73838
▁moms	-9.73914
▁pop	-9.74152
▁tie	-9.74336
▁no	-9.74381
▁interest	-9.74481
▁birth	-9.74482
▁paint	-9.74622
▁remind	-9.74718
▁dollar	-9.74785
▁scream	-9.74895
▁lo	-9.74922
▁cough	-9.74947
▁points	-9.75115
▁crab	-9.7516
ical	-9.75193
▁structure	-9.75253
▁musketeer	-9.75306
▁waited	-9.75362
▁action	-9.75386
▁adventure	-9.75392
at	-9.75411
▁belief	-9.75417
▁flower	-9.75539
▁introduce	-9.75615
▁fill	-9.75747
▁knee	-9.75855
▁cub	-9.75873
▁prepare	-9.76279
▁val	-9.76287
▁elliot	-9.76288
▁tooth	-9.76298
▁regular	-9.76363
▁private	-9.76368
▁obvious	-9.76374
▁africa	-9.76381
▁shout	-9.76386
▁somethin	-9.76471
▁natural	-9.76492
▁process	-9.76493
▁compete	-9.76495
▁absurd	-9.76531
▁centuries	-9.76531
▁conflict	-9.76531
▁cortez	-9.76531
▁erasmus	-9.76531
▁gammoudi	-9.76531
▁gertrude	-9.76531
▁innocent	-9.76531
▁mysterious	-9.76531
▁portuguese	-9.76531
▁praise	-9.76531
▁syracuse	-9.76531
▁zelda	-9.76531
▁museum	-9.76531
▁nonenglish	-9.76531
▁pelias	-9.76531
▁seaweed	-9.76531
▁wheedle	-9.76531
▁stewart	-9.76531
▁thief	-9.76531
▁valuable	-9.76531
▁succeed	-9.76532
▁rubber	-9.76532
▁stroke	-9.76532
▁easily	-9.76532
▁buried	-9.76533
▁lightyear	-9.76534
▁delicious	-9.76535
▁nowhere	-9.76535
▁byebye	-9.76537
▁memory	-9.76537
▁yuck	-9.76538
▁senor	-9.76538
▁security	-9.76539
▁official	-9.76541
▁emergency	-9.76541
▁babies	-9.76542
▁threw	-9.76544
▁beach	-9.76549
▁harrison	-9.76549
▁however	-9.76552
▁punch	-9.76563
▁curry	-9.76568
▁johnny	-9.76578
▁western	-9.7658
▁eagle	-9.7658
▁clever	-9.76586
▁handsome	-9.7659
▁practically	-9.76594
▁aside	-9.76602
▁bowerman	-9.76604
▁vaticanus	-9.76632
▁laurat	-9.76638
▁natty	-9.76641
▁signature	-9.76651
▁twixel	-9.76654
▁saving	-9.76656
▁whispering	-9.76663
▁awaken	-9.76669
▁gentle	-9.76682
▁assure	-9.76701
▁shorter	-9.76761
▁va	-9.76762
▁clicks	-9.76779
▁toothy	-9.76794
▁germany	-9.76798
▁published	-9.76809
▁rush	-9.76891
▁letha	-9.76894
▁liar	-9.769
way	-9.76909
▁goya	-9.7692
▁files	-9.76927
▁santa	-9.76951
▁sold	-9.76973
▁jespah	-9.76998
▁recognize	-9.77039
score	-9.7706
▁era	-9.77067
▁ability	-9.77129
▁shin	-9.7714
▁monks	-9.7717
pata	-9.77215
▁offered	-9.77224
▁documents	-9.77237
▁claims	-9.77266
▁searching	-9.7733
▁kel	-9.77395
▁conditions	-9.77397
▁bot	-9.77421
▁eggs	-9.7744
▁praying	-9.77494
les	-9.77584
▁ridge	-9.77607
▁beth	-9.77609
▁blowing	-9.77627
cy	-9.7769
▁credit	-9.77786
▁particles	-9.77896
▁nest	-9.77985
▁hut	-9.78079
▁fired	-9.78083
▁lately	-9.78093
▁crush	-9.78127
▁walked	-9.78134
rom	-9.78245
▁owl	-9.78267
▁travel	-9.78355
▁depends	-9.78382
▁witness	-9.78388
▁following	-9.78681
▁art	-9.7881
ize	-9.79138
to	-9.79218
▁headed	-9.79404
▁title	-9.79943
▁ac	-9.79964
▁historical	-9.80125
work	-9.80205
▁knowing	-9.80273
▁bi	-9.80556
▁thin	-9.80629
▁laws	-9.80751
▁bands	-9.809
ther	-9.80941
tom	-9.81081
▁brings	-9.8134
oh	-9.81446
▁whe	-9.81505
▁eats	-9.81753
▁finding	-9.82126
▁interview	-9.82717
▁speaks	-9.82802
▁facts	-9.82898
▁mid	-9.83026
▁led	-9.83381
▁fa	-9.83544
▁goal	-9.83584
▁hearing	-9.83682
ur	-9.83747
▁inform	-9.83755
▁champion	-9.83926
▁kick	-9.83927
▁barn	-9.84026
▁treasure	-9.84124
▁arrive	-9.8415
▁pineapple	-9.84235
▁freedom	-9.84251
▁off	-9.84252
back	-9.84273
▁subject	-9.84287
▁lawyer	-9.84337
▁democrat	-9.84374
▁amigo	-9.84374
▁pilot	-9.84375
▁sewer	-9.84383
▁chuckle	-9.84411
▁professional	-9.84463
▁lesson	-9.84541
▁hu	-9.84733
▁score	-9.84743
▁nation	-9.8479
▁steel	-9.84793
▁rope	-9.84825
im	-9.84888
▁delight	-9.84945
▁wash	-9.84966
▁india	-9.84967
▁mush	-9.84994
never	-9.85027
▁attempt	-9.85295
▁zoo	-9.85349
▁health	-9.85428
▁wheel	-9.85434
▁proper	-9.85461
▁total	-9.85477
▁sin	-9.85481
▁chose	-9.85507
▁pretend	-9.85546
▁council	-9.85569
▁alcohol	-9.85603
▁success	-9.85609
▁acastus	-9.85622
▁admiralty	-9.85622
▁brookhaven	-9.85622
▁chemical	-9.85622
▁footsteps	-9.85622
▁fraulein	-9.85622
▁glurp	-9.85622
▁guitar	-9.85622
▁inaudible	-9.85622
▁intelligence	-9.85622
▁intelligent	-9.85622
▁monastery	-9.85622
▁telegraph	-9.85622
▁meadow	-9.85622
▁appalled	-9.85622
▁delicate	-9.85622
▁memories	-9.85622
▁lemonade	-9.85622
▁garcia	-9.85622
▁sandwich	-9.85622
▁stratton	-9.85622
▁gospel	-9.85622
▁sunnyside	-9.85622
▁hylas	-9.85623
▁spanish	-9.85623
▁costume	-9.85623
▁criticism	-9.85623
▁knife	-9.85623
▁committee	-9.85623
▁testament	-9.85624
▁expensive	-9.85624
▁anytime	-9.85624
▁cavalry	-9.85624
▁ridiculous	-9.85624
▁contact	-9.85625
▁doggy	-9.85626
▁adorable	-9.85626
▁loopdelooper	-9.85627
▁piglet	-9.85627
▁debate	-9.85628
▁treason	-9.85629
▁rotten	-9.8563
▁property	-9.85631
▁remark	-9.85631
▁roast	-9.85634
▁beauty	-9.85638
▁comfortable	-9.85639
▁clock	-9.85648
▁gently	-9.8565
▁territory	-9.85652
▁admitted	-9.85654
▁simon	-9.85663
▁cares	-9.85664
▁forgery	-9.85667
▁guts	-9.85671
▁muk	-9.85672
▁darkness	-9.85673
▁colchis	-9.85694
▁bull	-9.85703
▁frightened	-9.85718
▁enemy	-9.85724
▁sickle	-9.85725
▁boring	-9.85743
▁chosen	-9.85754
▁oui	-9.85757
ns	-9.85757
▁halloween	-9.85764
▁grunt	-9.85797
▁exclaim	-9.85799
▁bunch	-9.85803
▁refused	-9.85823
▁magical	-9.85834
▁impressed	-9.85857
▁dave	-9.85874
▁log	-9.85915
▁entirely	-9.8598
▁tricks	-9.86007
▁honestly	-9.86008
▁prepared	-9.86031
▁captured	-9.86046
▁media	-9.86052
▁local	-9.86086
▁treated	-9.86121
▁gutter	-9.86154
▁colored	-9.86159
▁luk	-9.86183
▁cage	-9.86204
▁cell	-9.86283
▁aaah	-9.86321
▁latest	-9.86326
▁carefully	-9.86357
▁sled	-9.8636
▁hook	-9.86369
▁boots	-9.86394
▁breathing	-9.86397
▁runners	-9.86538
▁shore	-9.86557
▁barks	-9.8656
▁nuts	-9.86571
▁rolfe	-9.866
▁wipe	-9.86639
▁panic	-9.86677
▁cooking	-9.86692
▁odds	-9.86769
▁fixed	-9.86789
▁partal	-9.86791
▁gay	-9.86836
▁kissing	-9.86889
fully	-9.86961
▁ne	-9.86967
▁closes	-9.87013
que	-9.87026
▁mutt	-9.87035
▁traditional	-9.87064
▁carrying	-9.87097
▁bait	-9.87249
▁followed	-9.87271
▁brains	-9.87317
▁rules	-9.87571
▁sins	-9.87748
▁movies	-9.87815
▁hated	-9.87869
▁spare	-9.87873
▁bells	-9.88051
▁forces	-9.88088
▁leading	-9.88092
▁drinking	-9.88116
▁villages	-9.88187
▁heavens	-9.88412
▁magneti	-9.88651
▁sons	-9.88705
▁hay	-9.88766
▁disturb	-9.88784
▁apes	-9.88791
▁bombs	-9.88857
ng	-9.89085
▁cast	-9.89152
▁falls	-9.89178
▁ay	-9.89526
▁social	-9.89585
▁remove	-9.89621
ated	-9.89907
▁jobs	-9.89946
▁earl	-9.90108
▁career	-9.90135
om	-9.90542
▁presents	-9.90707
▁dive	-9.90848
▁clears	-9.90966
▁yards	-9.90986
land	-9.91094
water	-9.91189
ge	-9.9123
▁marks	-9.91253
x	-9.92081
▁ignore	-9.92386
▁magnet	-9.92398
lham	-9.92521
▁march	-9.92639
led	-9.92826
▁bat	-9.93023
▁voices	-9.93077
ard	-9.93112
▁pig	-9.93194
▁vi	-9.93589
▁pr	-9.9364
▁produce	-9.93649
▁yell	-9.93761
▁listening	-9.93797
▁serve	-9.93803
▁scout	-9.939
▁jo	-9.93979
▁kingdom	-9.94133
▁culture	-9.94254
▁phil	-9.94279
ma	-9.94301
▁guard	-9.94329
▁dawg	-9.9438
▁cloud	-9.94385
▁doctrine	-9.94396
eath	-9.94402
▁impression	-9.9442
▁odd	-9.9448
sh	-9.94501
▁award	-9.94751
▁block	-9.9484
▁chain	-9.94958
▁shoe	-9.94967
▁freak	-9.94989
▁maid	-9.95228
▁map	-9.95239
▁peters	-9.95241
▁request	-9.95299
▁herr	-9.95313
▁intend	-9.95335
▁male	-9.95354
▁design	-9.95412
▁bowl	-9.95434
▁separate	-9.95446
ancy	-9.95463
▁heave	-9.95541
▁electric	-9.95543
▁contract	-9.95588
▁hiya	-9.95607
▁basic	-9.95615
▁confession	-9.95616
▁distract	-9.95619
▁bannister	-9.95622
▁budderball	-9.95622
▁burrito	-9.95622
▁california	-9.95622
▁definition	-9.95622
▁heavily	-9.95622
▁jupiter	-9.95622
▁marriage	-9.95622
▁michael	-9.95622
▁monsieur	-9.95622
▁quinceanera	-9.95622
▁upstairs	-9.95622
▁clarinet	-9.95622
▁otherwise	-9.95622
▁whimpers	-9.95622
▁empire	-9.95622
▁disagree	-9.95622
▁essential	-9.95622
▁vault	-9.95622
▁autograph	-9.95622
▁material	-9.95622
▁genius	-9.95622
▁screwnose	-9.95622
▁kevin	-9.95622
▁central	-9.95622
▁exploration	-9.95623
▁victim	-9.95623
▁reverend	-9.95623
▁parenthood	-9.95623
▁hidden	-9.95623
▁plateau	-9.95623
▁celebration	-9.95623
▁oxygen	-9.95624
▁vacation	-9.95624
▁terrific	-9.95624
▁friday	-9.95625
▁hecate	-9.95625
▁fetch	-9.95625
▁booga	-9.95626
▁disaster	-9.95627
▁aliooper	-9.95627
▁unhappy	-9.95628
▁tbone	-9.95628
▁percent	-9.95629
▁underwater	-9.95629
▁plague	-9.9563
▁assistant	-9.95631
▁centre	-9.95632
▁kiki	-9.95632
▁africanamerican	-9.95632
▁population	-9.95633
▁sammy	-9.95634
▁enemies	-9.95636
▁amazon	-9.95638
▁trigger	-9.95638
▁technology	-9.95638
▁extraordinary	-9.95639
▁fascinating	-9.95641
▁eddie	-9.95646
▁gentleman	-9.95653
▁silky	-9.95655
▁planning	-9.95659
▁cern	-9.9566
▁doggone	-9.9566
▁catholicism	-9.95661
▁inspector	-9.95662
▁collection	-9.95662
▁detector	-9.95668
▁nasty	-9.95669
▁clark	-9.95686
▁model	-9.95694
▁funding	-9.95704
▁rude	-9.95705
▁passion	-9.95715
▁determined	-9.95716
▁aloe	-9.95726
▁physical	-9.9573
▁convinced	-9.95735
▁dang	-9.9575
▁candy	-9.95757
▁data	-9.95768
▁transform	-9.9577
▁beeping	-9.95771
▁psst	-9.95772
▁bored	-9.95782
▁minus	-9.95783
▁popular	-9.95787
▁hort	-9.95809
▁standard	-9.95814
▁concerned	-9.95818
▁josh	-9.95821
▁ass	-9.95867
▁haha	-9.95877
▁task	-9.95898
▁ultimate	-9.95903
▁alike	-9.95908
▁rented	-9.95926
▁charming	-9.95929
▁arranged	-9.95937
▁pronounce	-9.95938
▁swan	-9.9595
▁apple	-9.9596
▁argue	-9.95965
▁served	-9.96002
▁designed	-9.96033
▁role	-9.9605
▁dove	-9.96058
▁bleating	-9.96062
▁mood	-9.96092
▁pink	-9.961
▁slaves	-9.96107
ray	-9.96119
▁burning	-9.96152
▁sample	-9.96158
▁weight	-9.96193
▁darn	-9.96199
▁disappoint	-9.96206
▁thrown	-9.96248
▁accepted	-9.96425
▁coast	-9.96494
▁sooner	-9.96548
▁madame	-9.96562
▁rah	-9.96627
▁mustnt	-9.9667
▁gala	-9.9669
▁bow	-9.96772
▁quarters	-9.96887
▁taxi	-9.96896
▁prize	-9.96902
▁males	-9.97011
▁amigos	-9.9702
▁hydro	-9.97025
▁reached	-9.97111
▁pages	-9.97124
▁tax	-9.97333
▁notes	-9.97385
▁eternal	-9.9752
▁herd	-9.97552
▁subt	-9.97591
▁cats	-9.97623
▁dial	-9.97653
▁closet	-9.97656
▁hera	-9.97707
▁hung	-9.97707
▁heal	-9.97817
▁san	-9.98112
▁landing	-9.98125
▁moves	-9.98158
▁fierce	-9.98354
rry	-9.98384
▁ordered	-9.98572
▁photo	-9.98581
▁col	-9.98676
▁bay	-9.98761
ably	-9.98878
▁for	-9.98921
▁til	-9.98938
▁tear	-9.99013
▁gal	-9.99136
ans	-9.99376
▁y	-9.99499
ee	-9.99534
▁fl	-9.99642
▁cate	-9.99658
mal	-9.99724
ny	-9.99779
▁heading	-9.99928
▁asks	-10.0004
▁crews	-10.0053
▁matters	-10.0053
▁dump	-10.0057
ring	-10.0064
the	-10.0068
▁opening	-10.0069
▁me	-10.0074
▁smith	-10.0085
▁wo	-10.0089
▁hates	-10.009
rat	-10.0094
▁adjust	-10.0143
▁dudes	-10.0153
▁twenty	-10.0154
▁hel	-10.0158
▁aim	-10.0165
▁owners	-10.0167
▁understanding	-10.0172
day	-10.0194
▁sta	-10.0212
▁practis	-10.0214
weak	-10.0227
▁stretch	-10.0228
sis	-10.024
▁becomes	-10.0282
com	-10.0287
▁capital	-10.0302
▁preserve	-10.0309
ier	-10.0334
▁tro	-10.034
light	-10.0346
na	-10.0358
▁americans	-10.0379
▁du	-10.0382
looking	-10.0384
▁drum	-10.0392
ha	-10.0401
ball	-10.0416
▁hip	-10.044
▁fail	-10.0455
▁roberts	-10.048
▁mu	-10.0485
▁distiller	-10.0496
▁confirm	-10.0499
▁joke	-10.0514
▁limit	-10.0517
▁stingray	-10.0522
▁lachman	-10.0522
itles	-10.0531
▁wound	-10.0532
▁error	-10.0534
▁girlfriend	-10.0535
▁shade	-10.0541
▁effort	-10.0546
▁customer	-10.0547
▁olympic	-10.0548
▁creature	-10.055
▁egg	-10.0553
▁ticket	-10.0554
▁manner	-10.0556
▁arm	-10.0556
▁issue	-10.0562
▁beast	-10.0565
▁pit	-10.0566
▁slam	-10.0571
▁quarter	-10.0571
▁faces	-10.0584
▁wing	-10.0606
▁nut	-10.0611
▁condition	-10.0612
▁hearts	-10.0614
ell	-10.0614
▁that	-10.0617
▁academic	-10.0619
▁launch	-10.0624
▁killer	-10.0625
▁clair	-10.0626
▁perform	-10.063
▁silence	-10.0641
▁accomplish	-10.0642
▁arrange	-10.0648
▁constant	-10.0648
▁sneak	-10.065
▁propose	-10.0651
▁reward	-10.0651
▁patient	-10.0654
▁peaceful	-10.0655
▁hm	-10.0656
▁scott	-10.0656
▁potato	-10.0657
▁express	-10.0658
▁raise	-10.066
▁confess	-10.0665
▁thick	-10.0665
▁threat	-10.0666
▁mai	-10.0668
▁basket	-10.0672
▁antitoxin	-10.0673
▁available	-10.0673
▁catherine	-10.0673
▁cetera	-10.0673
▁deputy	-10.0673
▁divorce	-10.0673
▁genevieve	-10.0673
▁grief	-10.0673
▁institute	-10.0673
▁joffrey	-10.0673
▁munich	-10.0673
▁shrimp	-10.0673
▁sphinx	-10.0673
▁stomach	-10.0673
▁tanino	-10.0673
▁terribly	-10.0673
▁tregelles	-10.0673
▁vehicle	-10.0673
▁vulgate	-10.0673
▁wrenn	-10.0673
▁domestic	-10.0673
▁cherries	-10.0673
▁conclusion	-10.0673
▁attitude	-10.0673
▁dudley	-10.0673
▁montana	-10.0673
▁pluto	-10.0673
▁program	-10.0673
▁relationship	-10.0673
▁studied	-10.0673
▁lawrence	-10.0673
▁geko	-10.0673
▁worries	-10.0674
▁wreck	-10.0674
▁tongue	-10.0674
▁andand	-10.0674
▁countries	-10.0674
▁distant	-10.0674
▁yoyo	-10.0674
▁charles	-10.0674
▁families	-10.0674
▁forgeries	-10.0674
▁recess	-10.0674
▁island	-10.0674
▁carbonation	-10.0674
▁warlock	-10.0674
▁spiritual	-10.0674
▁department	-10.0674
▁sentence	-10.0674
▁turtle	-10.0674
▁muffled	-10.0674
▁kibble	-10.0675
▁majesty	-10.0675
▁gallery	-10.0675
▁mercy	-10.0675
▁whoopdedooper	-10.0675
▁whining	-10.0675
▁desk	-10.0675
▁protest	-10.0675
▁stories	-10.0675
▁halas	-10.0675
▁hyah	-10.0675
▁speedball	-10.0675
▁collar	-10.0675
▁dropped	-10.0675
▁verat	-10.0676
▁squeeze	-10.0676
▁grandmama	-10.0676
▁product	-10.0677
▁dish	-10.0677
▁engaged	-10.0677
▁spunky	-10.0677
▁cabin	-10.0678
▁cities	-10.0678
▁drove	-10.0678
▁plus	-10.0678
▁connection	-10.0679
▁happier	-10.0679
▁glory	-10.0679
▁yup	-10.068
▁ge	-10.0681
▁firm	-10.0682
▁reformers	-10.0683
▁wiggle	-10.0683
▁unfortunately	-10.0684
▁dozen	-10.0684
▁labor	-10.0684
▁halfway	-10.0684
▁gravity	-10.0685
▁slide	-10.0685
▁witch	-10.0685
▁drowning	-10.0686
▁understood	-10.0686
▁rye	-10.0687
▁gain	-10.0688
▁pills	-10.069
▁edge	-10.069
▁ouch	-10.0691
▁declared	-10.0692
▁sucker	-10.0693
▁petition	-10.0693
▁political	-10.0693
▁whatd	-10.0695
▁forged	-10.0695
▁suffered	-10.0695
▁union	-10.0696
▁stolen	-10.0699
▁particularly	-10.0699
▁embrace	-10.0699
▁sighing	-10.07
▁scoop	-10.0701
▁presence	-10.0702
▁brad	-10.0707
▁yawns	-10.0707
▁billion	-10.0708
▁fallen	-10.0709
▁lt	-10.0709
▁aware	-10.071
▁grant	-10.0713
▁burned	-10.0716
▁blessed	-10.0716
▁based	-10.0724
mph	-10.0736
▁escaped	-10.0738
▁goose	-10.0741
▁skullners	-10.0741
▁losing	-10.0747
▁coins	-10.0749
▁musicians	-10.0749
ter	-10.0755
▁para	-10.0756
▁grass	-10.0757
▁jr	-10.0765
▁continued	-10.0768
▁soldiers	-10.0771
▁hopeless	-10.0774
▁rio	-10.078
crowned	-10.0793
▁sola	-10.0796
▁limits	-10.0801
▁covered	-10.0803
▁den	-10.0809
▁should	-10.081
▁mall	-10.0813
▁clouds	-10.0814
▁doctrines	-10.0816
▁all	-10.0817
▁falling	-10.0821
▁screen	-10.0825
▁sink	-10.0835
▁buzzing	-10.0838
▁selling	-10.0839
▁beliefs	-10.0843
rough	-10.085
▁operate	-10.0851
▁shy	-10.0851
▁joined	-10.0852
▁cranes	-10.0859
▁interests	-10.0861
▁struggle	-10.0861
▁studying	-10.0863
▁communicate	-10.0871
▁training	-10.0885
ack	-10.0887
▁pulled	-10.0895
▁groups	-10.0919
uel	-10.093
▁dreamed	-10.0946
eth	-10.0947
ence	-10.0952
▁ra	-10.0961
co	-10.0964
▁rains	-10.0966
▁shown	-10.0967
▁source	-10.0974
▁badly	-10.0977
▁scar	-10.0992
▁root	-10.0994
▁switch	-10.0994
▁sp	-10.1009
▁trucks	-10.1011
▁los	-10.1026
▁weak	-10.1029
▁player	-10.1031
▁votes	-10.1038
▁justi	-10.1049
▁greater	-10.1051
▁to	-10.1053
▁tracks	-10.1062
▁sean	-10.1085
▁dreaming	-10.1085
▁fe	-10.1088
▁severa	-10.1091
▁matt	-10.1091
▁pets	-10.1103
▁ski	-10.1142
▁fully	-10.1145
ler	-10.1148
▁pieces	-10.1173
one	-10.1206
▁streets	-10.1216
▁tap	-10.124
▁mighty	-10.1245
dom	-10.1251
▁mumble	-10.1252
▁sa	-10.1258
▁await	-10.126
▁self	-10.1267
▁signs	-10.128
▁gra	-10.1291
hales	-10.1301
▁steps	-10.1313
ten	-10.1324
▁drug	-10.1359
▁bite	-10.1366
▁abe	-10.1369
▁millions	-10.138
▁stayed	-10.1383
▁dies	-10.1421
▁swi	-10.1426
fa	-10.1435
▁rand	-10.1478
▁oceans	-10.1483
▁the	-10.1487
▁chop	-10.1519
▁reasons	-10.1542
▁fare	-10.155
▁mass	-10.1559
▁expose	-10.1569
▁advanc	-10.1585
▁placed	-10.1585
▁dec	-10.1589
▁tr	-10.1629
▁manage	-10.1631
▁dime	-10.165
em	-10.1654
uh	-10.1667
ure	-10.1669
▁tip	-10.1684
▁down	-10.1686
▁moo	-10.1702
▁lights	-10.1708
▁powers	-10.171
▁mental	-10.171
fire	-10.1719
▁craft	-10.1738
▁desert	-10.1743
▁pup	-10.1761
master	-10.1767
field	-10.1772
▁bishop	-10.1773
▁chap	-10.1777
▁slurp	-10.1779
▁commission	-10.1783
▁austin	-10.1785
▁rolf	-10.1788
▁weekend	-10.1789
▁minister	-10.1789
▁institution	-10.1791
▁turk	-10.1792
▁temperature	-10.1792
▁circle	-10.1793
▁expedition	-10.1795
▁pi	-10.1799
▁wire	-10.1799
▁strike	-10.18
▁sometime	-10.18
▁student	-10.18
▁sacrifice	-10.1801
▁benefit	-10.1802
▁tent	-10.1806
▁bark	-10.1812
▁holiday	-10.1812
▁saint	-10.1814
▁prisoner	-10.1816
▁paw	-10.1816
no	-10.1821
▁vent	-10.1824
▁runs	-10.1839
▁junk	-10.1844
▁demand	-10.1881
▁require	-10.1889
▁inch	-10.1889
ite	-10.1893
▁arrest	-10.1893
▁sat	-10.1895
▁tub	-10.1898
▁carbonate	-10.1899
▁charm	-10.1899
▁release	-10.1901
▁cam	-10.1902
▁invite	-10.1913
▁attract	-10.1913
▁mmhm	-10.1918
▁twist	-10.1919
▁dirt	-10.192
▁specific	-10.1922
▁aircraft	-10.1923
▁bargain	-10.1923
▁caballeros	-10.1923
▁chihuahua	-10.1923
▁coincidence	-10.1923
▁confidence	-10.1923
▁downstairs	-10.1923
▁explanation	-10.1923
▁fabulous	-10.1923
▁gauchito	-10.1923
▁identify	-10.1923
▁japanese	-10.1923
▁kallinikos	-10.1923
▁langham	-10.1923
▁magrue	-10.1923
▁ratcliffe	-10.1923
▁register	-10.1923
▁rubbish	-10.1923
▁tremendous	-10.1923
▁virgil	-10.1923
▁hammond	-10.1923
▁jeanmarc	-10.1923
▁opposite	-10.1923
▁schmauss	-10.1923
▁banquet	-10.1923
▁voyage	-10.1923
▁congress	-10.1923
▁scramble	-10.1923
▁bubbly	-10.1923
▁bonnie	-10.1923
▁clarence	-10.1923
▁diablo	-10.1923
▁superhero	-10.1923
▁depth	-10.1923
▁harmony	-10.1923
▁equipment	-10.1923
▁proposition	-10.1923
▁nephew	-10.1923
▁yield	-10.1923
▁struck	-10.1924
▁unknown	-10.1924
▁glide	-10.1924
▁eohippus	-10.1924
▁snub	-10.1924
▁higgins	-10.1924
▁sobbing	-10.1924
▁ladida	-10.1924
▁conservation	-10.1924
▁medea	-10.1924
▁complain	-10.1924
▁literally	-10.1924
▁preston	-10.1924
▁reliable	-10.1924
▁touchdown	-10.1924
▁socalled	-10.1924
▁failure	-10.1924
▁legend	-10.1924
▁current	-10.1924
▁client	-10.1924
▁overnight	-10.1924
▁apparently	-10.1925
▁begun	-10.1925
▁corral	-10.1925
▁acquired	-10.1925
▁shelter	-10.1925
▁pour	-10.1925
▁blair	-10.1925
▁marshal	-10.1925
▁split	-10.1926
▁wildlife	-10.1926
▁communication	-10.1926
▁alcoholic	-10.1926
▁eventually	-10.1926
▁cattle	-10.1926
▁background	-10.1926
▁massive	-10.1926
▁noblerat	-10.1926
▁exercise	-10.1926
▁jerk	-10.1927
▁stress	-10.1927
▁wicked	-10.1927
▁trickortreating	-10.1927
▁supply	-10.1927
▁pony	-10.1927
▁alert	-10.1927
▁moore	-10.1928
▁series	-10.1928
▁pasture	-10.1928
▁sarge	-10.1928
▁straw	-10.1929
▁drier	-10.1929
▁convention	-10.1929
▁sweat	-10.193
▁freddie	-10.193
▁stride	-10.193
▁neil	-10.193
▁haber	-10.1931
▁foul	-10.1932
▁salt	-10.1932
▁arrangements	-10.1934
▁secretary	-10.1935
▁daycare	-10.1936
▁creepy	-10.1936
▁mystic	-10.1936
▁donation	-10.1936
▁regardless	-10.1937
▁castle	-10.1937
▁tango	-10.1937
▁parish	-10.1938
▁halfman	-10.1939
▁beings	-10.1939
▁confident	-10.1941
▁drumming	-10.1942
▁brand	-10.1942
▁manual	-10.1943
▁cases	-10.1943
▁dolly	-10.1943
▁dishes	-10.1944
▁bond	-10.1945
▁minority	-10.1945
▁grave	-10.1945
▁privately	-10.1948
▁naturally	-10.1948
▁threaten	-10.1949
▁spoken	-10.195
▁skies	-10.1951
▁gained	-10.1951
▁granted	-10.1951
▁deserted	-10.1952
▁foundation	-10.1953
▁shop	-10.1956
▁shift	-10.1957
▁franks	-10.1957
▁shoo	-10.1958
▁splash	-10.1958
▁agent	-10.196
▁gettin	-10.1963
▁napa	-10.1965
▁healing	-10.1965
▁washed	-10.1968
▁tower	-10.1969
▁quest	-10.1975
▁pretending	-10.198
▁orange	-10.198
▁grain	-10.198
▁slowly	-10.1983
▁coon	-10.1984
▁whispers	-10.1986
▁existed	-10.1986
▁eric	-10.1986
▁changing	-10.1987
▁mixed	-10.1991
▁armed	-10.1991
▁pity	-10.1992
▁considered	-10.1993
▁personally	-10.1993
▁parade	-10.1994
▁solved	-10.1994
▁jumped	-10.1996
yes	-10.1996
▁steer	-10.1997
▁hire	-10.1999
▁woke	-10.2001
▁adults	-10.2001
▁bugs	-10.2005
▁congratulate	-10.2007
▁believers	-10.2008
▁higg	-10.201
▁meantime	-10.2022
▁jesse	-10.2024
▁cannon	-10.2032
▁females	-10.2035
▁hackamaws	-10.2035
▁emotional	-10.2037
▁vents	-10.2041
▁companion	-10.2042
▁safely	-10.2042
▁warning	-10.2042
▁lift	-10.2047
▁recorded	-10.2049
▁touching	-10.2049
▁sock	-10.2055
ically	-10.2057
▁rolling	-10.2058
▁jacky	-10.2061
▁beasts	-10.2062
▁tickets	-10.2067
▁olympics	-10.2068
▁offering	-10.2079
gest	-10.2082
▁stone	-10.2084
▁destroying	-10.2085
▁explained	-10.2086
hed	-10.2087
iest	-10.2088
▁yearold	-10.2091
▁cleaning	-10.2092
son	-10.2092
▁schedule	-10.2094
▁sewers	-10.2102
▁measure	-10.211
▁feathers	-10.2129
▁spa	-10.213
ke	-10.2133
▁meowing	-10.2145
▁sets	-10.2148
▁sees	-10.2149
▁amor	-10.216
▁beam	-10.2162
▁ni	-10.2179
▁minds	-10.2191
▁sites	-10.2193
▁elsas	-10.2197
▁ray	-10.2209
▁whale	-10.2228
▁active	-10.2231
▁patch	-10.2235
ual	-10.2238
▁checked	-10.2239
▁machines	-10.224
▁rot	-10.2241
▁pale	-10.2248
▁generations	-10.225
▁equal	-10.2258
▁fu	-10.2281
side	-10.2283
▁remains	-10.2287
▁areas	-10.2296
▁hopeful	-10.2308
▁boot	-10.2313
▁theo	-10.2319
v	-10.2344
▁caused	-10.2361
▁watched	-10.2362
▁inc	-10.2363
▁avo	-10.2386
▁noble	-10.242
▁cha	-10.2437
▁snor	-10.2451
▁records	-10.2467
▁lower	-10.2501
▁u	-10.2539
ap	-10.2542
▁habit	-10.2551
▁yard	-10.2557
▁slight	-10.2571
▁counts	-10.2573
▁catching	-10.2574
od	-10.2583
▁corn	-10.2584
▁chips	-10.259
▁divide	-10.2597
reign	-10.2608
▁stock	-10.261
▁needles	-10.2629
▁melod	-10.2654
▁event	-10.2659
▁cur	-10.2666
ational	-10.2668
▁winds	-10.2678
▁apologize	-10.2738
▁sings	-10.2739
▁shirt	-10.2745
▁popes	-10.2748
you	-10.2756
▁bound	-10.2758
▁steep	-10.2764
ghi	-10.2775
ath	-10.2792
▁link	-10.2803
▁remembered	-10.2829
▁rip	-10.2831
rie	-10.2833
▁fishta	-10.2843
palo	-10.2858
▁smack	-10.2892
▁sl	-10.2894
▁pocket	-10.2895
ver	-10.2913
▁addition	-10.2931
tion	-10.2952
▁pump	-10.2953
▁flip	-10.2965
ip	-10.2969
▁fi	-10.2976
▁strangers	-10.298
ying	-10.2984
ca	-10.2997
bed	-10.2999
house	-10.3013
▁access	-10.3025
▁replace	-10.3037
▁trac	-10.3038
▁shower	-10.3043
oohoo	-10.3048
oof	-10.3067
▁wrap	-10.308
▁dick	-10.3097
▁hug	-10.31
▁collect	-10.3111
▁sw	-10.3112
ink	-10.3115
hood	-10.3122
ked	-10.3138
▁thoughts	-10.3139
▁skip	-10.3151
screen	-10.3157
▁whi	-10.3172
hew	-10.3186
▁pound	-10.3196
▁document	-10.3198
▁appearance	-10.3201
▁appear	-10.3201
▁sneeze	-10.3203
▁claim	-10.3209
▁tune	-10.321
▁moonshine	-10.3212
▁degree	-10.3213
▁flame	-10.3217
▁bloom	-10.3218
▁detective	-10.3219
▁william	-10.3221
▁individual	-10.3224
▁scientist	-10.3224
▁hackamaw	-10.3225
▁female	-10.3225
▁defense	-10.3225
▁soldier	-10.3226
▁weapon	-10.3228
▁chabot	-10.3228
▁runner	-10.3233
ir	-10.3234
▁cousin	-10.3245
▁crown	-10.3251
▁profit	-10.3255
▁annoy	-10.3255
▁sweep	-10.3259
▁stan	-10.3263
▁suffer	-10.3276
▁neuros	-10.3278
▁concern	-10.3283
▁ser	-10.329
▁schools	-10.3291
▁stake	-10.3294
▁net	-10.3298
▁annabels	-10.3301
▁alarm	-10.3301
▁bug	-10.3302
▁entertain	-10.3303
cious	-10.3308
▁chatter	-10.3313
▁alls	-10.3314
▁incredibl	-10.3316
▁smash	-10.3318
▁suspect	-10.3319
▁au	-10.3321
▁abandon	-10.3322
▁mix	-10.3324
▁guarantee	-10.3326
▁chew	-10.3327
▁assume	-10.3334
▁laura	-10.3335
▁immediate	-10.3336
▁print	-10.3342
me	-10.3346
▁pentecostal	-10.3351
▁april	-10.3352
▁baratheon	-10.3352
▁behavior	-10.3352
▁british	-10.3352
▁bullseye	-10.3352
▁colombo	-10.3352
▁daphne	-10.3352
▁desperate	-10.3352
▁dolphin	-10.3352
▁fernfield	-10.3352
▁francisco	-10.3352
▁gwangi	-10.3352
▁horizon	-10.3352
▁immigration	-10.3352
▁increase	-10.3352
▁jellybelly	-10.3352
▁mcgirk	-10.3352
▁nyima	-10.3352
▁pablo	-10.3352
▁plumpingham	-10.3352
▁porcupine	-10.3352
▁poverty	-10.3352
▁rainforest	-10.3352
▁ralph	-10.3352
▁satisfied	-10.3352
▁schoepp	-10.3352
▁similar	-10.3352
▁sunshine	-10.3352
▁surrender	-10.3352
▁television	-10.3352
▁whistling	-10.3352
▁yippee	-10.3352
▁jungle	-10.3352
▁license	-10.3352
▁lonesome	-10.3352
▁rhythm	-10.3352
▁anglican	-10.3352
▁eeyore	-10.3352
▁lucille	-10.3352
▁reputation	-10.3352
▁whiskey	-10.3352
▁atlas	-10.3352
▁driver	-10.3352
▁proceed	-10.3352
▁affair	-10.3352
▁radar	-10.3352
▁rehab	-10.3352
▁spectacular	-10.3352
▁herbs	-10.3352
▁salvation	-10.3352
▁pollack	-10.3352
▁texas	-10.3352
▁sacred	-10.3352
▁paradise	-10.3352
▁illegal	-10.3352
▁lecture	-10.3352
▁mixture	-10.3352
▁bribe	-10.3352
▁italy	-10.3352
▁relief	-10.3352
▁draft	-10.3352
▁genya	-10.3352
▁puzzle	-10.3352
▁radiation	-10.3352
▁scotch	-10.3352
▁destruction	-10.3352
▁salsa	-10.3352
▁prevent	-10.3352
▁electronic	-10.3352
▁donkey	-10.3352
▁haircut	-10.3352
▁zach	-10.3352
▁macdonald	-10.3352
▁perkins	-10.3352
▁gannon	-10.3352
▁generous	-10.3352
▁magnificent	-10.3352
▁susie	-10.3352
▁baseball	-10.3352
▁orphanage	-10.3352
▁jazz	-10.3353
▁borrow	-10.3353
▁airport	-10.3353
▁kennedy	-10.3353
▁crabtree	-10.3353
▁outrageous	-10.3353
▁ugly	-10.3353
▁shawn	-10.3353
▁rowdy	-10.3353
▁nuru	-10.3353
▁championship	-10.3353
▁option	-10.3353
▁thessaly	-10.3354
▁strawberry	-10.3354
▁development	-10.3354
▁stands	-10.3354
▁starving	-10.3354
▁doomed	-10.3354
▁phillip	-10.3354
▁nevertheless	-10.3354
▁headache	-10.3354
▁sundown	-10.3354
▁slipped	-10.3354
▁voting	-10.3354
▁priestess	-10.3354
▁phenomenal	-10.3354
▁deception	-10.3354
▁choir	-10.3354
def	-10.3355
▁endanger	-10.3355
▁impressive	-10.3355
▁insane	-10.3355
▁noah	-10.3355
▁swear	-10.3355
▁boyfriend	-10.3356
▁classroom	-10.3357
▁swam	-10.3357
▁ladder	-10.3357
▁caution	-10.3357
▁iove	-10.3358
▁rachel	-10.3358
▁primate	-10.3358
▁apartment	-10.3358
▁meter	-10.3358
▁oath	-10.3359
▁exhausted	-10.3359
▁aboard	-10.3359
▁attraction	-10.336
▁leap	-10.336
▁publication	-10.3362
▁dickie	-10.3363
▁branches	-10.3363
▁defeated	-10.3363
▁rhinos	-10.3363
▁roaring	-10.3363
▁gibbons	-10.3364
▁joan	-10.3364
▁happily	-10.3364
▁stopping	-10.3364
▁income	-10.3364
▁closing	-10.3365
▁bread	-10.3365
▁angeles	-10.3365
▁carson	-10.3365
▁trapped	-10.3366
▁supplies	-10.3368
▁expression	-10.3368
▁species	-10.3368
▁medal	-10.3368
▁masterson	-10.3368
▁effective	-10.3368
▁revealed	-10.3368
▁rejected	-10.3372
▁racing	-10.3373
leton	-10.3374
▁zip	-10.3374
▁echoing	-10.3374
▁throne	-10.3374
▁murdered	-10.3374
▁we	-10.3374
▁bitter	-10.3375
▁mick	-10.3375
ola	-10.3375
▁juice	-10.3376
▁golf	-10.3378
▁guaranteed	-10.3378
▁anna	-10.3378
▁wildest	-10.338
▁amongst	-10.3381
▁abandoned	-10.3382
▁aau	-10.3382
▁bouncing	-10.3383
▁hitting	-10.3385
ius	-10.3385
▁contain	-10.3386
▁sealed	-10.3388
▁originally	-10.3391
ists	-10.3392
▁jc	-10.3393
▁pace	-10.3393
▁jessie	-10.3394
▁puff	-10.3395
▁intended	-10.3395
▁heroes	-10.3396
▁switched	-10.3397
▁attend	-10.3398
▁kicked	-10.3398
▁critics	-10.3399
▁uhuh	-10.3401
▁candles	-10.3402
▁employment	-10.3402
▁principles	-10.3402
▁instruments	-10.3403
mber	-10.3405
solati	-10.3409
▁adopted	-10.3409
▁relay	-10.341
▁entered	-10.3411
▁sports	-10.3411
▁exception	-10.3418
▁chat	-10.3423
▁tiger	-10.3424
▁reported	-10.3424
tic	-10.3424
▁cove	-10.3426
▁crossing	-10.3429
▁native	-10.3429
▁beak	-10.3435
▁vo	-10.3435
▁honk	-10.344
▁batter	-10.3442
▁refuse	-10.3444
▁bloody	-10.345
▁goof	-10.3453
▁ike	-10.3456
▁creak	-10.3461
▁heh	-10.3468
ious	-10.347
▁moral	-10.3473
▁suggesting	-10.3473
▁quietly	-10.3476
▁knocking	-10.348
▁scientists	-10.3481
▁individuals	-10.3482
arely	-10.3485
▁musher	-10.3486
▁ol	-10.349
▁saints	-10.3492
▁qua	-10.3493
▁drill	-10.3498
▁expeditions	-10.3501
▁cards	-10.3506
▁coat	-10.3507
▁article	-10.3508
▁toes	-10.3513
▁tears	-10.3514
▁efforts	-10.3521
▁cages	-10.3521
▁trained	-10.3535
▁wishes	-10.3537
▁dawgs	-10.3538
▁scouts	-10.3541
▁wheels	-10.3546
▁visited	-10.3548
▁promote	-10.3559
▁ske	-10.3566
voya	-10.3571
▁travels	-10.3573
▁height	-10.3575
▁climbing	-10.3576
▁bah	-10.3579
▁satan	-10.3583
▁impress	-10.3584
▁dollars	-10.3591
▁souffle	-10.3592
▁nations	-10.3598
▁newspapers	-10.3601
▁trusted	-10.3604
▁harder	-10.361
▁publish	-10.3611
mooch	-10.3614
▁joining	-10.3619
▁reserve	-10.362
▁ease	-10.3629
▁throwing	-10.364
▁bags	-10.364
▁openly	-10.3641
▁lad	-10.3648
▁traditions	-10.3656
▁horns	-10.3659
▁flash	-10.3672
▁fort	-10.3683
▁hank	-10.3687
▁spit	-10.3695
▁religions	-10.3697
▁raid	-10.3698
oo	-10.3706
▁wander	-10.3711
▁treats	-10.3716
▁levels	-10.3726
▁noon	-10.3728
▁lions	-10.3737
▁vet	-10.3743
▁flora	-10.3749
▁hoot	-10.3762
▁gil	-10.3763
▁dancer	-10.3787
▁indig	-10.3793
▁sex	-10.3793
▁rate	-10.3794
▁clues	-10.3818
ki	-10.3829
▁ended	-10.3835
▁angel	-10.384
▁fir	-10.3849
ified	-10.3858
▁glori	-10.3871
▁dealing	-10.3873
▁sleeping	-10.3874
▁organize	-10.3892
▁tick	-10.3906
▁fin	-10.3913
▁site	-10.3915
▁despi	-10.3918
▁bur	-10.3924
ster	-10.3927
▁allie	-10.3938
▁aye	-10.3958
▁graduate	-10.3967
▁resist	-10.3967
lightly	-10.3968
▁br	-10.3995
▁figures	-10.3996
shirts	-10.3999
▁windows	-10.4016
remi	-10.4023
▁fishing	-10.4059
▁nights	-10.4067
▁hoped	-10.4067
▁mac	-10.4075
▁turning	-10.4075
▁mon	-10.4079
▁bl	-10.4102
▁senator	-10.4105
like	-10.4105
let	-10.4114
▁stops	-10.4117
▁accus	-10.4118
▁bon	-10.4122
▁brag	-10.4124
▁hike	-10.4133
▁hail	-10.4145
▁grows	-10.4153
▁jos	-10.4174
ice	-10.418
▁supremac	-10.4187
irring	-10.4192
and	-10.4201
▁kn	-10.4208
▁mae	-10.4216
▁grounds	-10.4217
▁tend	-10.4235
▁fed	-10.4245
▁returns	-10.4251
ding	-10.4259
▁howl	-10.4276
ka	-10.4279
▁jacks	-10.4292
▁tone	-10.4316
ile	-10.4316
ia	-10.4322
▁prefer	-10.4327
▁systems	-10.4335
ung	-10.4341
▁chor	-10.4372
eur	-10.4391
ped	-10.4405
▁fields	-10.4405
▁finds	-10.441
ship	-10.4415
shaw	-10.4416
bo	-10.4416
▁pee	-10.4423
▁crap	-10.4446
▁pin	-10.4471
▁peak	-10.4474
etting	-10.4476
▁lines	-10.449
▁explode	-10.4497
ney	-10.45
▁spin	-10.4507
atali	-10.4509
▁freeze	-10.4534
▁christians	-10.4544
▁port	-10.4568
vast	-10.4571
▁races	-10.4578
▁persons	-10.4581
▁por	-10.4585
▁leads	-10.4625
▁cas	-10.4636
ome	-10.4643
▁et	-10.4648
▁towns	-10.4656
▁ton	-10.4661
▁you	-10.467
▁ther	-10.4698
ridge	-10.4703
minent	-10.4731
▁youth	-10.474
down	-10.4752
cha	-10.4774
▁mat	-10.478
made	-10.4786
▁card	-10.4787
off	-10.4794
board	-10.4797
john	-10.4798
fare	-10.4801
yearold	-10.4813
▁freez	-10.4817
distance	-10.4818
record	-10.4822
just	-10.4825
ward	-10.4844
▁steph	-10.4849
cal	-10.4851
▁effect	-10.4859
▁mexican	-10.4866
▁abortion	-10.4867
▁emotion	-10.4867
▁ding	-10.4872
▁laser	-10.4878
ison	-10.488
▁squeak	-10.4882
▁restaurant	-10.4884
▁term	-10.4885
▁bottle	-10.4885
▁compliment	-10.4886
rian	-10.4886
▁coward	-10.4886
▁hydra	-10.489
▁monk	-10.4892
▁elephant	-10.4894
▁cab	-10.4898
▁chick	-10.49
▁whee	-10.4902
▁value	-10.4903
▁beside	-10.4904
▁respond	-10.4905
▁fate	-10.4918
▁prayer	-10.4919
glanc	-10.4919
▁include	-10.4921
▁finger	-10.4922
▁nerve	-10.4924
▁represent	-10.493
ow	-10.494
ole	-10.4943
▁hurts	-10.4943
▁lords	-10.4945
▁lab	-10.4949
▁pants	-10.4949
▁approve	-10.495
ming	-10.495
▁hum	-10.4953
▁fold	-10.4961
▁transport	-10.4969
▁sides	-10.4975
▁pole	-10.4975
▁entranc	-10.4977
▁possess	-10.4981
bridge	-10.4983
▁interrupt	-10.4984
▁brush	-10.4986
▁display	-10.4987
▁acknowledge	-10.4989
▁poison	-10.499
▁symbol	-10.4996
▁hypnotize	-10.4998
▁positive	-10.5
▁precise	-10.5002
▁unfortunate	-10.5002
furt	-10.5004
▁curse	-10.5005
▁branch	-10.5006
▁absolute	-10.5013
▁region	-10.5014
▁sixteen	-10.5016
sinki	-10.5017
▁symp	-10.5018
▁amateur	-10.5019
▁amsterdam	-10.5019
▁anthony	-10.5019
▁argonauts	-10.5019
▁average	-10.5019
▁barricade	-10.5019
▁cabotinage	-10.5019
▁challenging	-10.5019
▁chimney	-10.5019
▁condemned	-10.5019
▁dictionary	-10.5019
▁dillyaye	-10.5019
▁enormous	-10.5019
▁financial	-10.5019
▁garbage	-10.5019
▁gaucho	-10.5019
▁gramophone	-10.5019
▁griffin	-10.5019
▁harriet	-10.5019
▁lullabee	-10.5019
▁manhattan	-10.5019
▁mozart	-10.5019
▁oxford	-10.5019
▁peculiar	-10.5019
▁pheasant	-10.5019
▁phineas	-10.5019
▁piranha	-10.5019
▁pizza	-10.5019
▁rottenmeir	-10.5019
▁suspicious	-10.5019
▁tuesday	-10.5019
▁verdict	-10.5019
▁volvo	-10.5019
▁wescott	-10.5019
▁zagorsky	-10.5019
▁collision	-10.5019
▁darjeel	-10.5019
▁narrative	-10.5019
▁warrior	-10.5019
▁britain	-10.5019
▁caramba	-10.5019
▁negro	-10.5019
▁tobin	-10.5019
▁broadcast	-10.5019
▁douglas	-10.5019
▁opportunities	-10.5019
▁adios	-10.5019
▁salmon	-10.5019
▁goblin	-10.5019
▁saloon	-10.5019
▁ambition	-10.5019
▁migration	-10.5019
▁picnic	-10.5019
▁policy	-10.5019
▁jethro	-10.5019
▁centaur	-10.5019
▁froze	-10.5019
▁liberty	-10.5019
▁rodney	-10.5019
▁addict	-10.5019
▁didier	-10.5019
▁ritual	-10.5019
▁unfair	-10.5019
▁hermes	-10.5019
▁piano	-10.5019
▁bogey	-10.5019
▁chittering	-10.5019
▁giddap	-10.5019
▁complex	-10.5019
▁flesh	-10.5019
▁possibilities	-10.5019
▁stanford	-10.5019
▁splendid	-10.5019
▁parrot	-10.5019
▁crisis	-10.5019
▁drift	-10.5019
▁conrad	-10.5019
▁urgent	-10.5019
▁reincarnation	-10.5019
▁cheap	-10.5019
▁inspiration	-10.5019
▁orgyen	-10.5019
▁item	-10.5019
▁willow	-10.5019
▁colonial	-10.5019
▁morton	-10.5019
▁brakes	-10.5019
▁grasp	-10.5019
▁versus	-10.5019
▁existence	-10.502
▁julie	-10.502
▁imagination	-10.502
▁chapter	-10.502
▁content	-10.502
▁spoil	-10.502
▁aqua	-10.502
▁estate	-10.502
▁intense	-10.502
▁review	-10.502
▁instant	-10.502
▁celebrating	-10.502
▁cadet	-10.502
▁upside	-10.502
▁mendez	-10.502
▁doris	-10.502
▁spook	-10.502
▁actual	-10.502
▁flood	-10.502
▁chopper	-10.502
▁shopping	-10.502
▁sansa	-10.5021
▁blew	-10.5021
▁pregnant	-10.5021
▁wiley	-10.5021
▁laboratory	-10.5021
▁toast	-10.5021
▁specifically	-10.5021
▁jolly	-10.5021
▁skate	-10.5021
▁potential	-10.5021
▁occurred	-10.5021
▁duke	-10.5022
▁palden	-10.5022
▁dirk	-10.5022
▁contribution	-10.5022
▁election	-10.5023
▁opposed	-10.5023
▁carpet	-10.5023
▁leadership	-10.5023
▁notion	-10.5023
▁vision	-10.5023
▁sunlight	-10.5023
▁dummy	-10.5024
▁hermas	-10.5024
▁footage	-10.5024
▁lightning	-10.5024
▁chamber	-10.5024
▁protestantism	-10.5025
▁committed	-10.5025
▁passage	-10.5025
▁phew	-10.5025
▁stagecoach	-10.5025
▁stood	-10.5025
▁tasty	-10.5026
▁carroll	-10.5027
▁heroic	-10.5027
▁punish	-10.5028
▁applaud	-10.5028
▁iq	-10.5028
▁keg	-10.5029
▁daily	-10.503
▁computer	-10.5031
▁july	-10.5031
▁budget	-10.5032
▁obey	-10.5032
▁rhodes	-10.5032
▁slinky	-10.5033
▁luckily	-10.5033
▁discipline	-10.5033
▁exhales	-10.5034
▁corrupted	-10.5035
▁factory	-10.5035
▁quality	-10.5036
▁cried	-10.5036
▁microbes	-10.5036
▁useful	-10.5037
▁archers	-10.5038
▁established	-10.5038
▁shocked	-10.5039
▁govern	-10.5039
▁carter	-10.5039
▁exit	-10.5039
▁ahem	-10.5041
▁habitats	-10.5042
▁funds	-10.5042
▁nick	-10.5042
▁wast	-10.5042
▁violence	-10.5043
▁poop	-10.5043
▁strangle	-10.5044
▁flock	-10.5044
▁translated	-10.5045
▁quote	-10.5045
▁developed	-10.5046
ordinary	-10.5046
▁repair	-10.5048
▁poisoned	-10.5049
▁properly	-10.505
▁facing	-10.505
▁reasonable	-10.5051
▁sniffer	-10.5051
▁replaced	-10.5052
▁inspired	-10.5053
▁argos	-10.5053
▁documented	-10.5054
▁scale	-10.5055
▁liberal	-10.5055
▁assumed	-10.5058
▁vip	-10.506
▁earned	-10.506
▁lips	-10.5062
inner	-10.5062
▁breck	-10.5062
▁managed	-10.5063
▁oy	-10.5065
▁sonar	-10.5065
easy	-10.5066
▁bully	-10.5067
▁nome	-10.5068
▁separated	-10.5068
▁playtime	-10.507
▁reality	-10.507
▁coo	-10.507
▁romance	-10.5076
▁tank	-10.5076
▁instructions	-10.5078
king	-10.5078
▁bla	-10.5079
▁elements	-10.5079
▁neighbors	-10.5079
▁ancestors	-10.5079
▁glasses	-10.5083
▁metal	-10.5085
▁crossed	-10.5086
▁burg	-10.5091
▁cancel	-10.5091
▁rang	-10.5091
▁maxim	-10.5091
ut	-10.5092
▁nervously	-10.5093
▁bel	-10.5093
▁recognized	-10.5094
▁whens	-10.5098
▁slip	-10.5098
▁cents	-10.5101
▁ingredients	-10.5103
▁corny	-10.5103
▁coin	-10.5103
▁sales	-10.5105
▁howdy	-10.5109
▁stray	-10.5109
▁june	-10.5111
▁smaller	-10.5112
▁cracking	-10.5114
▁plate	-10.5118
▁twi	-10.5119
▁winni	-10.5124
▁embarrass	-10.5125
▁knocked	-10.5125
▁circuits	-10.5126
▁survived	-10.5128
▁taco	-10.513
▁swa	-10.5132
▁graci	-10.5135
▁rocket	-10.5138
▁respons	-10.5144
▁bein	-10.5148
▁values	-10.5149
▁hugg	-10.515
▁twa	-10.5151
▁rag	-10.5157
▁sailed	-10.5159
▁drawing	-10.5163
▁sem	-10.5166
▁cousins	-10.517
▁cult	-10.5171
▁brutal	-10.519
▁pan	-10.5192
▁chances	-10.5194
▁fri	-10.5195
▁strikes	-10.5196
▁image	-10.5196
▁ti	-10.5196
▁fuel	-10.5197
▁holidays	-10.5197
▁turks	-10.52
▁recover	-10.5203
▁slams	-10.5207
▁sticky	-10.5208
am	-10.5211
▁feelin	-10.5216
▁younger	-10.5217
▁pigs	-10.5217
▁agreeing	-10.5225
▁toots	-10.5228
▁ares	-10.523
▁magnets	-10.5231
▁yah	-10.524
▁raci	-10.5243
ri	-10.5247
▁yells	-10.5252
▁knees	-10.5253
▁bike	-10.5263
▁lawyers	-10.5268
rney	-10.5274
▁lessons	-10.5274
▁nurse	-10.5278
▁arrives	-10.5286
▁rates	-10.5287
cephal	-10.5296
▁mustve	-10.5297
▁jewel	-10.53
▁tied	-10.5307
ible	-10.5307
▁devils	-10.5312
▁buck	-10.5312
▁formal	-10.5326
▁jam	-10.5341
▁fianc	-10.5342
▁buying	-10.5345
▁toe	-10.5349
▁murder	-10.5351
▁reaching	-10.5354
olar	-10.5357
▁proclaim	-10.536
▁flag	-10.5364
▁prov	-10.5367
▁concentrate	-10.5368
▁passing	-10.537
▁sel	-10.5373
▁non	-10.5378
▁del	-10.5385
▁string	-10.5405
▁events	-10.5406
▁ward	-10.5407
▁forms	-10.5407
▁visitor	-10.541
▁holes	-10.5417
▁faced	-10.5423
▁singer	-10.5434
ide	-10.5439
▁costs	-10.5445
▁beating	-10.5447
▁trials	-10.5454
▁seal	-10.5455
▁berniers	-10.5458
▁gates	-10.5459
▁storms	-10.5467
▁mode	-10.5473
▁max	-10.5478
▁rep	-10.5497
▁seats	-10.55
▁chirus	-10.5506
▁speaker	-10.5513
▁rack	-10.5519
▁timing	-10.5522
▁staring	-10.5531
▁cooling	-10.5543
▁practices	-10.5551
▁citizen	-10.5555
▁repetit	-10.5566
▁just	-10.5586
▁lou	-10.5604
away	-10.5608
▁loser	-10.5612
▁angle	-10.5615
▁trace	-10.562
▁preach	-10.5637
▁grumbl	-10.5645
▁languages	-10.5647
men	-10.5647
national	-10.5656
limpses	-10.5658
▁funnies	-10.5664
nthrop	-10.5674
usion	-10.5687
lin	-10.5688
▁scrub	-10.5689
ery	-10.5702
▁claires	-10.5715
obby	-10.5725
pher	-10.5735
▁guessed	-10.5753
zing	-10.5786
▁easter	-10.5787
my	-10.5794
▁tale	-10.5795
▁cl	-10.5796
▁shots	-10.58
▁ob	-10.5802
▁core	-10.5802
▁leaders	-10.5804
▁margar	-10.581
▁protestants	-10.5818
▁worrying	-10.5824
▁boo	-10.584
▁and	-10.5849
▁owner	-10.5857
▁litera	-10.5864
▁minor	-10.5869
▁lu	-10.5876
▁skipp	-10.5879
▁bars	-10.5899
ating	-10.5904
ul	-10.591
▁hats	-10.5912
▁leo	-10.5936
oses	-10.5948
▁pu	-10.5948
▁surprises	-10.5955
top	-10.5978
▁cater	-10.5993
▁ink	-10.5995
dancing	-10.5997
▁compare	-10.6001
ill	-10.6014
hold	-10.6034
ological	-10.6035
▁dir	-10.6053
▁foods	-10.6069
▁toot	-10.607
▁ga	-10.6086
nose	-10.6089
de	-10.6095
ini	-10.614
▁pile	-10.6185
ept	-10.6198
ping	-10.6217
▁patrol	-10.6227
▁damage	-10.6231
▁greeks	-10.6236
ens	-10.6243
ux	-10.6245
▁tomorrows	-10.6251
ol	-10.6264
ern	-10.627
▁ver	-10.6273
rely	-10.6275
▁earths	-10.6276
▁chill	-10.6285
▁mol	-10.6289
aid	-10.6298
▁nik	-10.6299
▁esp	-10.6304
▁moan	-10.6322
op	-10.6325
▁blu	-10.6326
▁stir	-10.6336
▁pil	-10.6361
think	-10.6367
▁somebodys	-10.6377
nd	-10.6387
▁citizens	-10.6401
cer	-10.6415
tre	-10.6431
town	-10.6432
▁tang	-10.6442
lgia	-10.6442
▁acts	-10.6446
▁promises	-10.6484
▁sec	-10.6521
ose	-10.6522
▁gre	-10.6532
▁believes	-10.6536
▁spray	-10.6545
▁dedicate	-10.6555
nfold	-10.6579
▁soar	-10.6596
▁lack	-10.6604
▁moments	-10.6616
▁min	-10.6617
ned	-10.6626
hes	-10.6691
▁develop	-10.6691
▁homes	-10.6697
thing	-10.67
un	-10.6711
▁jig	-10.6715
life	-10.6715
▁ann	-10.6718
kind	-10.6722
ress	-10.6753
wood	-10.6775
▁saddle	-10.6778
nce	-10.6785
▁suck	-10.6787
▁tin	-10.6798
bound	-10.6801
rd	-10.6809
powder	-10.6809
proof	-10.6812
wise	-10.6812
▁wi	-10.682
pe	-10.6827
more	-10.6828
▁seek	-10.683
▁strap	-10.6841
▁comfort	-10.6847
▁cul	-10.6847
face	-10.6847
▁creep	-10.6851
▁regard	-10.6853
▁likely	-10.6857
eral	-10.6861
▁manichean	-10.6865
▁landscape	-10.6865
▁penguin	-10.6865
▁argument	-10.6866
▁gunshot	-10.6866
▁ankle	-10.6867
▁column	-10.6869
▁marine	-10.6872
▁prince	-10.6872
▁doll	-10.6873
▁drama	-10.6876
▁curtain	-10.6878
▁dragon	-10.6886
▁bullet	-10.6886
▁oven	-10.6888
▁circuit	-10.689
▁skullner	-10.6892
▁director	-10.6892
▁drain	-10.6897
▁stream	-10.6899
▁scribe	-10.69
▁custom	-10.691
lon	-10.691
▁surgeon	-10.691
▁tool	-10.6919
▁adult	-10.6919
▁deals	-10.6927
ility	-10.6935
▁cleaner	-10.6941
▁musician	-10.6942
cannon	-10.6944
berry	-10.6946
▁weigh	-10.6966
▁thi	-10.6968
▁fond	-10.6971
eight	-10.6971
▁whoooa	-10.6971
dog	-10.6973
▁parent	-10.6976
▁surf	-10.6978
▁relative	-10.6982
▁scratch	-10.6983
▁insult	-10.6986
▁reject	-10.6987
▁temper	-10.6989
▁advise	-10.6992
▁admire	-10.6994
▁seize	-10.6994
▁convince	-10.6995
▁blessing	-10.6997
▁gravit	-10.6997
gged	-10.7001
▁practical	-10.7003
▁inspect	-10.7008
▁constitution	-10.7012
▁gran	-10.7012
▁describe	-10.7013
▁rache	-10.7015
▁thump	-10.7015
▁intention	-10.7017
▁virgin	-10.7018
incident	-10.7018
▁sinai	-10.7019
▁advantage	-10.7019
▁atlanta	-10.7019
▁buddha	-10.7019
▁circumstances	-10.7019
▁clergy	-10.7019
▁conclude	-10.7019
▁condemnation	-10.7019
▁convincing	-10.7019
▁criminal	-10.7019
▁district	-10.7019
▁ecosystem	-10.7019
▁florida	-10.7019
▁gablegobble	-10.7019
▁griesbach	-10.7019
▁hallelujah	-10.7019
▁hebrew	-10.7019
▁henderson	-10.7019
▁homicide	-10.7019
▁immigrants	-10.7019
▁increasing	-10.7019
▁legislation	-10.7019
▁manahateen	-10.7019
▁mcguirk	-10.7019
▁mezzofanti	-10.7019
▁monopoly	-10.7019
▁montague	-10.7019
▁orleans	-10.7019
▁persuade	-10.7019
▁platform	-10.7019
▁policies	-10.7019
▁reboux	-10.7019
▁riccardo	-10.7019
▁sabotage	-10.7019
▁scripps	-10.7019
▁scriptura	-10.7019
▁serengeti	-10.7019
▁surgery	-10.7019
▁toilet	-10.7019
▁triumph	-10.7019
▁unpleasant	-10.7019
▁vulture	-10.7019
▁wainwhisle	-10.7019
▁watherstone	-10.7019
▁aspect	-10.7019
▁blossom	-10.7019
▁escort	-10.7019
▁mirror	-10.7019
▁purchase	-10.7019
▁reckon	-10.7019
▁revenge	-10.7019
▁shivering	-10.7019
▁withdraw	-10.7019
▁wolfsbottom	-10.7019
▁emperor	-10.7019
▁jenkins	-10.7019
▁monitor	-10.7019
▁mosquito	-10.7019
▁uniform	-10.7019
▁collapse	-10.7019
▁freckles	-10.7019
▁nelson	-10.7019
▁paisley	-10.7019
▁ashamed	-10.7019
▁corolla	-10.7019
▁anyhow	-10.7019
▁kanga	-10.7019
▁idaho	-10.7019
▁submarine	-10.7019
▁testimon	-10.7019
▁jackpot	-10.7019
▁latimer	-10.7019
▁flippers	-10.7019
▁excitement	-10.7019
▁favourite	-10.7019
▁inheritance	-10.7019
▁preparing	-10.7019
▁spurgeon	-10.7019
▁colorado	-10.7019
▁dixie	-10.7019
▁hellebore	-10.7019
▁greetings	-10.7019
▁pattern	-10.7019
▁solution	-10.7019
▁someplace	-10.7019
▁smooth	-10.7019
▁anato	-10.7019
▁gratitude	-10.7019
▁mammal	-10.7019
▁makedde	-10.7019
▁complicated	-10.7019
▁federal	-10.7019
▁impact	-10.7019
▁microphone	-10.7019
▁expelled	-10.7019
▁sushi	-10.7019
▁investigation	-10.7019
▁boston	-10.7019
▁shortcut	-10.7019
▁universities	-10.7019
▁allez	-10.7019
▁denham	-10.7019
▁swimmies	-10.7019
▁giddyap	-10.7019
▁ufo	-10.7019
▁skills	-10.7019
▁holland	-10.7019
▁route	-10.7019
▁razor	-10.7019
▁ooooh	-10.7019
▁lamb	-10.7019
▁secure	-10.7019
▁initial	-10.7019
▁temple	-10.7019
▁revision	-10.702
▁unafraid	-10.702
▁cruel	-10.702
▁cropping	-10.702
▁playground	-10.702
▁humiliation	-10.702
▁altogether	-10.702
▁jeez	-10.702
▁mortal	-10.702
▁inquiry	-10.702
▁northwest	-10.702
▁flew	-10.702
▁palomar	-10.702
▁clancy	-10.702
▁leather	-10.702
▁investigating	-10.702
▁basketball	-10.702
▁shaff	-10.702
▁paintball	-10.702
▁freight	-10.702
▁doggie	-10.702
▁statehood	-10.7021
▁moonlight	-10.7021
▁eliminate	-10.7021
▁hahaha	-10.7021
▁entertainment	-10.7021
▁attached	-10.7021
▁fruit	-10.7021
▁portion	-10.7021
▁kit	-10.7021
▁curious	-10.7021
▁depression	-10.7021
▁firewood	-10.7021
▁minnie	-10.7021
▁sinned	-10.7021
▁possession	-10.7021
▁conviction	-10.7021
▁courtship	-10.7021
▁spaceship	-10.7021
▁martian	-10.7021
▁papacy	-10.7022
▁bucket	-10.7022
▁sunset	-10.7022
▁thieves	-10.7022
▁vetry	-10.7022
▁dorm	-10.7022
▁suppress	-10.7022
▁abv	-10.7022
▁finland	-10.7022
▁merit	-10.7022
▁manaus	-10.7022
▁surrounded	-10.7022
▁recall	-10.7023
▁pancake	-10.7023
▁childhood	-10.7023
▁unhand	-10.7023
▁mirage	-10.7023
▁dropping	-10.7023
▁exploring	-10.7023
▁label	-10.7024
▁pierce	-10.7024
▁grilled	-10.7024
▁appetite	-10.7024
▁revolting	-10.7024
▁bluffing	-10.7024
▁stammering	-10.7024
▁scrap	-10.7025
▁fluid	-10.7025
▁bolder	-10.7025
▁responsibilit	-10.7025
▁whyd	-10.7025
▁buff	-10.7025
▁constitutional	-10.7026
▁faithful	-10.7026
▁agnes	-10.7026
▁spoon	-10.7026
▁independent	-10.7026
lessness	-10.7027
▁talos	-10.7027
▁loaded	-10.7027
▁cameraman	-10.7027
▁thud	-10.7028
▁bulk	-10.7028
▁mouse	-10.7028
▁photography	-10.7028
▁chili	-10.7029
▁blazer	-10.7029
▁cathy	-10.7029
▁drunk	-10.7029
▁typing	-10.7029
▁gambling	-10.703
▁yahoo	-10.703
▁carried	-10.703
▁merger	-10.703
▁wedding	-10.703
▁appointment	-10.7031
▁household	-10.7031
▁ranch	-10.7031
▁sincerely	-10.7031
▁caption	-10.7031
▁feast	-10.7031
▁slope	-10.7033
▁stork	-10.7033
▁patience	-10.7033
▁braces	-10.7034
▁jackie	-10.7034
▁devoted	-10.7034
egie	-10.7034
▁explosive	-10.7035
▁email	-10.7035
▁arrows	-10.7035
▁peasants	-10.7036
▁biscuits	-10.7036
▁bodyguards	-10.7036
▁straightened	-10.7036
▁lisa	-10.7036
▁elected	-10.7036
▁schoolhouse	-10.7037
▁sensitiv	-10.7037
▁whew	-10.7037
▁rising	-10.7038
▁precisely	-10.7039
onnais	-10.7039
▁mumbling	-10.7039
▁celebrated	-10.7039
▁achieved	-10.7039
▁privileged	-10.704
▁cheek	-10.704
▁prime	-10.7041
▁inject	-10.7041
▁importance	-10.7042
▁fried	-10.7043
▁fuss	-10.7043
▁resulted	-10.7043
▁reminder	-10.7043
▁objective	-10.7043
▁flush	-10.7044
▁aww	-10.7044
▁cries	-10.7045
▁advised	-10.7045
▁magician	-10.7046
▁prophet	-10.7047
▁theological	-10.7047
▁highball	-10.7047
▁cookies	-10.7048
▁motion	-10.7048
▁useless	-10.7048
▁bodies	-10.7048
▁significant	-10.7049
▁beck	-10.7049
▁lori	-10.7049
▁spotted	-10.705
▁regarded	-10.705
▁evolution	-10.7051
▁riot	-10.7052
▁buster	-10.7052
▁pep	-10.7053
▁neigh	-10.7053
▁whooshing	-10.7053
▁physically	-10.7054
▁author	-10.7055
▁represented	-10.7056
▁liqu	-10.7056
▁conquer	-10.7056
ja	-10.7057
▁followers	-10.7058
▁daylight	-10.7059
▁flown	-10.706
▁filed	-10.706
▁agh	-10.706
▁appeared	-10.7061
▁stairs	-10.7063
▁muscles	-10.7064
▁inning	-10.7064
▁critters	-10.7064
▁heretics	-10.7064
▁bastards	-10.7064
▁released	-10.7067
▁comm	-10.7069
▁oil	-10.7072
▁tougher	-10.7072
▁athletes	-10.7074
▁industri	-10.7074
▁mask	-10.7076
▁sweetest	-10.7077
▁mal	-10.7078
▁dating	-10.7079
▁screw	-10.7081
▁pounding	-10.7081
▁helpful	-10.7082
▁ripped	-10.7083
▁venting	-10.7085
▁unusual	-10.7087
▁eyesight	-10.7089
▁smarter	-10.7089
▁angela	-10.709
etcher	-10.7091
▁victory	-10.7093
▁fifteen	-10.7095
▁removed	-10.7096
▁ahhh	-10.7097
▁lair	-10.7101
▁challenged	-10.7107
▁proven	-10.7111
▁demanding	-10.7114
▁disturbing	-10.7115
▁ruined	-10.7116
▁results	-10.7124
▁privileges	-10.7125
▁nails	-10.7125
▁tools	-10.713
▁freaking	-10.7132
▁quicker	-10.7133
▁rescued	-10.7135
▁forced	-10.7138
▁painting	-10.7141
scope	-10.7145
▁rattle	-10.7146
▁nun	-10.7151
▁boxes	-10.7152
▁technical	-10.7152
▁directors	-10.7154
res	-10.7155
▁regards	-10.7156
▁mig	-10.7157
▁talented	-10.7158
▁dull	-10.7162
▁pushed	-10.7163
▁touched	-10.717
▁packed	-10.7177
▁belly	-10.7179
▁repeated	-10.7179
▁cable	-10.7184
▁strangely	-10.7184
▁delightful	-10.7186
▁cheat	-10.7186
▁safer	-10.7187
▁discovering	-10.7188
▁testing	-10.7189
▁breach	-10.7191
▁considering	-10.7192
▁prayers	-10.7192
▁rail	-10.7194
▁bake	-10.7194
▁honored	-10.7197
moise	-10.7198
▁crashing	-10.7202
▁appears	-10.7202
▁images	-10.7204
▁attacked	-10.7211
▁sharpen	-10.7211
▁williams	-10.7211
▁supported	-10.7215
▁tame	-10.7215
▁heresy	-10.7217
▁bend	-10.7217
▁completed	-10.7222
▁hunter	-10.7226
ros	-10.7229
▁tips	-10.7231
▁benefits	-10.7234
iced	-10.7236
▁circles	-10.724
▁belonged	-10.724
▁temperatures	-10.7241
▁sacrifices	-10.7244
▁teams	-10.7247
▁roots	-10.7254
▁bonjour	-10.7254
vacu	-10.7254
▁sailor	-10.7265
▁counted	-10.7268
▁manners	-10.7268
cent	-10.7268
▁benj	-10.7271
▁eligib	-10.7271
▁customers	-10.7272
▁issues	-10.7273
▁couch	-10.7274
ps	-10.7277
▁blocks	-10.7279
▁edition	-10.7281
▁golly	-10.7284
▁squared	-10.729
▁attacking	-10.7294
▁impressions	-10.73
▁str	-10.73
was	-10.7303
▁manor	-10.7304
▁finale	-10.7305
▁hens	-10.7306
▁flak	-10.7308
▁philo	-10.7314
uction	-10.7315
▁boost	-10.7321
▁meals	-10.7321
▁hon	-10.7322
▁seeking	-10.7327
dess	-10.7332
iggle	-10.7332
▁pos	-10.7338
▁git	-10.7347
▁carn	-10.7348
▁lovers	-10.7355
▁primar	-10.7355
▁sha	-10.7357
loo	-10.7357
▁structures	-10.7359
▁grin	-10.737
▁cows	-10.737
▁importantly	-10.7383
▁waitin	-10.7394
▁babe	-10.74
beat	-10.74
▁landed	-10.7406
▁scour	-10.7407
▁adams	-10.7409
▁ducks	-10.7413
▁code	-10.7413
▁tide	-10.7413
▁accounts	-10.7414
▁floors	-10.7414
▁settles	-10.7423
▁snaps	-10.7428
▁acre	-10.7428
▁germans	-10.7431
▁jars	-10.7437
▁hous	-10.7444
▁statements	-10.7447
▁traps	-10.7447
ancing	-10.7449
▁challenges	-10.7451
▁laps	-10.7455
▁accord	-10.7456
▁returning	-10.7462
anger	-10.7468
▁corners	-10.7472
▁suits	-10.7476
▁beep	-10.7487
onies	-10.7488
▁buyer	-10.749
▁mayer	-10.7491
▁weed	-10.7493
▁noises	-10.7503
▁scottys	-10.7506
val	-10.7511
▁tests	-10.7536
bc	-10.7566
▁fans	-10.7567
ians	-10.7572
▁examine	-10.7573
▁moons	-10.7576
▁rube	-10.7579
▁strain	-10.7579
▁paying	-10.7583
ideo	-10.7587
▁projects	-10.7593
ache	-10.76
▁pitch	-10.7602
▁pl	-10.7608
▁hind	-10.7613
▁sounding	-10.7614
▁partners	-10.7617
ophy	-10.7618
▁vow	-10.762
▁chickens	-10.7623
▁decisions	-10.7623
▁lively	-10.7626
▁fran	-10.7636
manship	-10.7646
io	-10.7654
▁referr	-10.7657
▁texts	-10.7667
▁baptis	-10.7669
▁springs	-10.7674
▁shi	-10.7693
▁convert	-10.7694
▁cane	-10.77
minated	-10.7707
ions	-10.7707
▁char	-10.7712
▁messages	-10.7712
▁nicely	-10.7712
▁picking	-10.7759
▁sails	-10.7773
▁luc	-10.7779
atto	-10.779
▁hid	-10.779
▁minorit	-10.7794
▁maga	-10.7841
ez	-10.7843
flow	-10.7853
end	-10.7857
▁distribut	-10.7861
▁minim	-10.7884
▁stall	-10.7888
ford	-10.789
ador	-10.7891
▁lasse	-10.7895
▁marking	-10.7898
opter	-10.7903
▁ze	-10.7907
▁riches	-10.791
▁olive	-10.7911
▁fatal	-10.7914
▁ram	-10.7935
what	-10.7946
▁yowl	-10.7951
▁pol	-10.7977
▁scheme	-10.7979
▁trails	-10.7979
▁helps	-10.7983
ue	-10.7985
▁ru	-10.7988
▁wholl	-10.7994
▁van	-10.8009
sion	-10.801
ability	-10.8046
▁yearn	-10.8049
▁promot	-10.8062
▁lied	-10.8071
believable	-10.8087
▁adjuste	-10.8103
ms	-10.811
ning	-10.8112
mmering	-10.8114
ss	-10.8131
▁iii	-10.8135
ise	-10.8155
▁wester	-10.8162
urban	-10.8166
handed	-10.817
▁am	-10.8172
▁wears	-10.8173
▁dates	-10.8182
istic	-10.8186
▁lover	-10.819
▁perk	-10.8198
▁penetrate	-10.8201
▁cutie	-10.8223
▁limb	-10.8237
▁wrapp	-10.8237
▁react	-10.8239
▁gear	-10.8239
ings	-10.825
ya	-10.8274
ember	-10.8287
▁accuse	-10.8296
standing	-10.8296
▁negat	-10.8297
▁pod	-10.8309
▁stack	-10.832
per	-10.832
ins	-10.8341
nstruction	-10.8373
gh	-10.8373
▁gin	-10.8382
ak	-10.8404
▁diva	-10.841
▁sever	-10.8432
ft	-10.8437
rus	-10.845
▁cans	-10.8452
ope	-10.8453
▁gar	-10.8456
ppy	-10.8463
ot	-10.8469
▁te	-10.8492
ric	-10.8504
▁ashe	-10.8511
lic	-10.8536
dys	-10.8546
▁ending	-10.8553
ld	-10.8559
▁snapp	-10.8563
thats	-10.8567
alo	-10.8625
rest	-10.8625
▁controls	-10.8631
▁imp	-10.8631
ncy	-10.8632
▁bene	-10.8658
ied	-10.8659
lay	-10.8691
▁kan	-10.8702
ory	-10.874
even	-10.8752
▁remov	-10.8756
▁photos	-10.8761
▁digg	-10.8762
ummy	-10.8772
where	-10.8784
stop	-10.8784
ves	-10.8796
outs	-10.8797
hines	-10.8797
of	-10.8806
▁when	-10.8817
▁happie	-10.884
▁reci	-10.8856
aking	-10.8873
ocks	-10.8876
▁balls	-10.8894
▁blar	-10.8898
▁creat	-10.8905
▁primo	-10.893
▁ro	-10.8941
itched	-10.8953
▁bu	-10.8977
lle	-10.8991
ives	-10.9015
▁norw	-10.9016
▁pursue	-10.9029
▁thy	-10.9039
▁americas	-10.905
▁mmmmmmmmmm	-10.9055
▁indicat	-10.9069
ades	-10.9074
▁nah	-10.9096
all	-10.9099
ging	-10.9118
▁souffl	-10.912
▁fli	-10.9126
▁beer	-10.9127
wh	-10.914
place	-10.9152
▁su	-10.9162
▁lava	-10.9178
▁cock	-10.9183
▁sigh	-10.9187
tal	-10.9196
▁bets	-10.9198
hand	-10.9206
den	-10.9206
▁sire	-10.921
gs	-10.922
▁mob	-10.922
▁alien	-10.9226
▁toro	-10.9226
▁rub	-10.9227
▁div	-10.9239
▁blip	-10.9249
▁bigg	-10.9249
▁slap	-10.9256
ame	-10.9264
▁ado	-10.9266
▁stirr	-10.9267
▁nasa	-10.9274
▁kip	-10.9278
white	-10.9281
▁jess	-10.9282
▁hee	-10.9285
▁prep	-10.9288
▁reveal	-10.9296
▁wars	-10.9296
half	-10.9299
▁classic	-10.93
piece	-10.9302
jake	-10.9311
di	-10.9314
sponsor	-10.9316
▁ir	-10.932
▁argu	-10.9322
▁believ	-10.9343
bud	-10.9343
ac	-10.9344
▁whisper	-10.9344
ought	-10.9353
▁result	-10.9354
▁privilege	-10.9356
▁aid	-10.936
▁prediction	-10.9364
▁accelerator	-10.9365
▁translation	-10.9366
▁cocktail	-10.9367
▁barrel	-10.9367
ira	-10.9369
▁pho	-10.9376
▁factor	-10.9376
▁samantha	-10.9377
▁preparation	-10.9377
▁gorilla	-10.9377
▁candidate	-10.9378
▁scroll	-10.9378
▁historian	-10.9379
▁balloon	-10.938
▁submersible	-10.9383
▁method	-10.9383
▁grownup	-10.9387
▁slave	-10.9388
▁ingredient	-10.9388
▁tribe	-10.9391
▁youngster	-10.9392
▁economic	-10.9398
▁furling	-10.9405
illa	-10.9408
▁tu	-10.9416
▁comp	-10.9417
▁continu	-10.9419
christ	-10.9427
▁fee	-10.943
▁file	-10.9434
▁sport	-10.9439
▁sob	-10.9446
▁lala	-10.946
▁athlet	-10.9461
▁uncon	-10.9464
▁yum	-10.9468
skull	-10.9477
▁echo	-10.948
▁encounter	-10.9483
▁awake	-10.9483
▁whoosh	-10.9483
▁establish	-10.9484
▁shock	-10.9484
mania	-10.9485
▁hen	-10.9487
▁deceive	-10.9488
▁select	-10.9488
▁speller	-10.9488
▁worm	-10.9489
▁frighten	-10.949
▁achieve	-10.9491
▁investigate	-10.9492
▁celebrate	-10.9492
▁glue	-10.9493
▁determine	-10.9493
▁involve	-10.9493
▁corrupt	-10.9494
▁constantin	-10.9495
▁robber	-10.9498
▁arriv	-10.95
▁budge	-10.9501
▁distinct	-10.9502
▁sudden	-10.9503
lo	-10.9507
▁august	-10.9508
▁guilt	-10.951
▁numb	-10.951
▁convent	-10.9513
von	-10.9515
▁tibet	-10.9515
▁carbon	-10.9518
▁depart	-10.9518
▁acquainted	-10.9519
▁activities	-10.9519
▁anthem	-10.9519
▁apologies	-10.9519
▁appalachian	-10.9519
▁appalling	-10.9519
▁appaloosa	-10.9519
▁archbishop	-10.9519
▁asbestos	-10.9519
▁assault	-10.9519
▁autumn	-10.9519
▁bartleby	-10.9519
▁bathtub	-10.9519
▁behaviour	-10.9519
▁bleakman	-10.9519
▁blowtorch	-10.9519
▁botanical	-10.9519
▁bronze	-10.9519
▁commitment	-10.9519
▁competitive	-10.9519
▁consequence	-10.9519
▁constantinople	-10.9519
▁dessert	-10.9519
▁ecclesiastical	-10.9519
▁estimate	-10.9519
▁extrasensory	-10.9519
▁eyebright	-10.9519
▁footprint	-10.9519
▁fruitcake	-10.9519
▁habeas	-10.9519
▁heritage	-10.9519
▁inhabited	-10.9519
▁janeiro	-10.9519
▁javelin	-10.9519
▁junkyard	-10.9519
▁kardong	-10.9519
▁lansdowne	-10.9519
▁laundry	-10.9519
▁logorrhea	-10.9519
▁mechanic	-10.9519
▁minnesota	-10.9519
▁murdoch	-10.9519
▁navarro	-10.9519
▁norpoth	-10.9519
▁nupur	-10.9519
▁olympus	-10.9519
▁pandemonium	-10.9519
▁pencil	-10.9519
▁persecuted	-10.9519
▁plutonium	-10.9519
▁prejudice	-10.9519
▁procedure	-10.9519
▁propagand	-10.9519
▁qualify	-10.9519
▁routine	-10.9519
▁satisfy	-10.9519
▁senior	-10.9519
▁societies	-10.9519
▁spacecraft	-10.9519
▁stadium	-10.9519
▁stubbins	-10.9519
▁stubborn	-10.9519
▁stupendous	-10.9519
▁stuyvesant	-10.9519
▁supreme	-10.9519
▁swabbing	-10.9519
▁teenager	-10.9519
▁telepath	-10.9519
▁terrene	-10.9519
▁traffic	-10.9519
▁unreasonable	-10.9519
▁wheelbarrow	-10.9519
▁administration	-10.9519
▁affirmative	-10.9519
▁bosworth	-10.9519
▁cautious	-10.9519
▁diamond	-10.9519
▁galaxy	-10.9519
▁heleoplankton	-10.9519
▁invented	-10.9519
▁kurek	-10.9519
▁quetza	-10.9519
▁volunteer	-10.9519
▁wardrobe	-10.9519
▁brooklyn	-10.9519
▁noisy	-10.9519
▁purgatory	-10.9519
▁squirrel	-10.9519
▁terror	-10.9519
▁stereo	-10.9519
▁maintenance	-10.9519
▁marvellous	-10.9519
▁mousse	-10.9519
▁scarecrow	-10.9519
▁twelve	-10.9519
▁commissar	-10.9519
▁eisen	-10.9519
▁fundamental	-10.9519
▁relieved	-10.9519
▁snicker	-10.9519
▁exterior	-10.9519
▁geneva	-10.9519
▁yourseif	-10.9519
▁gradually	-10.9519
▁opposition	-10.9519
▁underwear	-10.9519
▁urgency	-10.9519
▁banana	-10.9519
▁cemeter	-10.9519
▁comparison	-10.9519
▁dummies	-10.9519
▁overthrow	-10.9519
▁sentimental	-10.9519
▁applied	-10.9519
▁chieri	-10.9519
▁dreadful	-10.9519
▁temporar	-10.9519
▁murph	-10.9519
▁symbio	-10.9519
▁athos	-10.9519
▁superior	-10.9519
▁willard	-10.9519
▁barrier	-10.9519
▁lurking	-10.9519
▁aristo	-10.9519
▁apology	-10.9519
▁babysitter	-10.9519
▁canalligator	-10.9519
▁cellphone	-10.9519
▁expulsion	-10.9519
▁algeria	-10.9519
▁fraud	-10.9519
▁snuck	-10.9519
▁predator	-10.9519
▁cackling	-10.9519
▁rapid	-10.9519
▁inerran	-10.9519
▁morris	-10.9519
▁backyard	-10.9519
▁hockey	-10.9519
▁infection	-10.9519
▁identity	-10.9519
▁resume	-10.9519
▁accurate	-10.9519
▁aframe	-10.9519
▁fiesta	-10.9519
▁creek	-10.9519
▁kooka	-10.9519
▁armada	-10.9519
▁optimistic	-10.9519
▁variety	-10.9519
▁forcing	-10.9519
▁gangsters	-10.9519
▁prior	-10.9519
▁fluff	-10.9519
▁overdose	-10.9519
▁proposal	-10.9519
▁pledge	-10.9519
▁explosion	-10.9519
▁chateau	-10.9519
▁aroused	-10.9519
▁salary	-10.9519
▁determination	-10.9519
▁properties	-10.9519
▁beverage	-10.9519
▁dollhouse	-10.9519
▁authorities	-10.9519
▁salad	-10.9519
▁dragged	-10.9519
▁military	-10.9519
▁blond	-10.9519
▁breathtaking	-10.9519
▁slipping	-10.9519
▁assertion	-10.9519
▁declare	-10.9519
▁cherone	-10.9519
▁portrait	-10.9519
▁device	-10.9519
▁amusing	-10.9519
▁exploit	-10.9519
▁perception	-10.9519
▁restoration	-10.9519
▁vandete	-10.952
▁refresh	-10.952
▁thriving	-10.952
▁marina	-10.952
▁outof	-10.952
▁blackberries	-10.952
▁garage	-10.952
▁industry	-10.952
▁scoot	-10.952
▁instance	-10.952
▁psychic	-10.952
▁pentecostalism	-10.952
▁savoy	-10.952
▁harbor	-10.952
▁concentration	-10.952
▁ashley	-10.952
▁achievement	-10.952
▁alternative	-10.952
▁drummer	-10.952
▁susan	-10.952
▁priority	-10.952
▁contrast	-10.952
▁consent	-10.952
▁greece	-10.952
▁rodrigo	-10.952
▁confusion	-10.952
▁laptop	-10.952
▁tackle	-10.952
▁homesick	-10.9521
▁solid	-10.9521
▁palace	-10.9521
▁condenser	-10.9521
▁southern	-10.9521
▁pleasant	-10.9521
▁session	-10.9521
▁shelf	-10.9521
▁online	-10.9521
▁silent	-10.9521
▁vicious	-10.9521
▁granny	-10.9521
▁ignorant	-10.9521
▁expectations	-10.9521
▁clown	-10.9521
▁cherry	-10.9521
▁pagan	-10.9521
▁misery	-10.9521
▁citywide	-10.9521
▁pursuit	-10.9521
▁jackass	-10.9521
▁whwhat	-10.9521
▁rejection	-10.9521
▁spinning	-10.9521
▁inspection	-10.9521
▁gloomy	-10.9521
cade	-10.9522
▁charity	-10.9522
▁judgment	-10.9522
▁gross	-10.9522
▁decoy	-10.9522
▁hustler	-10.9522
▁ferret	-10.9522
▁raspberry	-10.9522
▁butterfly	-10.9522
▁jingle	-10.9522
▁furious	-10.9523
▁itit	-10.9523
▁bandits	-10.9523
▁fusion	-10.9523
rappers	-10.9523
▁sharpton	-10.9523
▁stripedy	-10.9523
▁graham	-10.9523
▁tuna	-10.9523
▁knight	-10.9523
▁beza	-10.9523
▁planetary	-10.9524
▁brink	-10.9524
▁tension	-10.9524
▁paperwork	-10.9524
▁begging	-10.9524
▁noticing	-10.9524
▁pupil	-10.9524
▁radioactive	-10.9525
▁nooo	-10.9525
▁chaos	-10.9525
▁presume	-10.9525
▁undermine	-10.9525
▁chairman	-10.9526
▁clucking	-10.9526
▁demo	-10.9526
▁ranks	-10.9526
▁accidentally	-10.9526
▁armory	-10.9526
▁swallow	-10.9526
▁strict	-10.9527
▁brew	-10.9527
▁struggling	-10.9527
▁tsk	-10.9527
▁joking	-10.9527
▁whoooo	-10.9527
▁paddy	-10.9527
▁gulp	-10.9527
▁donny	-10.9528
▁brainwash	-10.9528
▁loyalty	-10.9528
▁merci	-10.9528
▁analyze	-10.9528
▁luxury	-10.9529
▁announcement	-10.9529
▁behold	-10.9529
▁hush	-10.9529
▁giddy	-10.9529
▁trappers	-10.9529
▁moose	-10.953
▁augustine	-10.953
▁regional	-10.953
▁clav	-10.953
▁ahoy	-10.953
▁recently	-10.9531
▁fifty	-10.9532
▁guardian	-10.9532
▁organization	-10.9532
▁continuous	-10.9532
▁patti	-10.9532
▁unlike	-10.9532
▁maintained	-10.9532
▁package	-10.9533
▁foam	-10.9534
▁rape	-10.9534
▁dork	-10.9534
▁patron	-10.9534
▁amu	-10.9534
▁bellies	-10.9534
▁sale	-10.9536
ck	-10.9536
▁treatment	-10.9537
▁stems	-10.9537
▁shaved	-10.9537
▁sunup	-10.9538
▁electrical	-10.9538
▁weep	-10.9538
▁roam	-10.9538
▁protection	-10.9539
▁jackson	-10.954
▁bedtime	-10.954
▁spikes	-10.954
▁bolt	-10.954
▁kittens	-10.954
▁offended	-10.9541
▁parchments	-10.9541
▁betrayed	-10.9541
▁nodd	-10.9541
▁shillings	-10.9541
▁nom	-10.9541
▁trustees	-10.9541
▁peep	-10.9542
▁pastime	-10.9542
▁operator	-10.9542
▁blaze	-10.9543
▁hideous	-10.9543
▁fork	-10.9543
▁tailor	-10.9543
▁section	-10.9544
▁clattering	-10.9544
▁youse	-10.9546
▁tropic	-10.9546
▁waterski	-10.9546
▁bas	-10.9546
▁restless	-10.9547
▁identified	-10.9547
dorf	-10.9548
▁production	-10.9548
racking	-10.9548
▁juan	-10.9548
▁forging	-10.9549
▁plow	-10.9549
▁producing	-10.955
▁sanger	-10.955
▁civilian	-10.955
▁quacking	-10.9551
▁hiccuping	-10.9551
▁bibles	-10.9551
▁spectac	-10.9552
▁length	-10.9553
▁recovered	-10.9553
▁flap	-10.9554
▁nuclear	-10.9555
▁anchor	-10.9555
▁after	-10.9556
▁altitude	-10.9558
▁gig	-10.956
▁jacket	-10.9561
▁hallway	-10.9563
▁recovering	-10.9563
▁litter	-10.9563
▁waking	-10.9564
▁educated	-10.9565
▁rex	-10.9565
▁recogniz	-10.9565
▁revealing	-10.9565
▁reaction	-10.9567
▁perfection	-10.9567
▁formation	-10.9568
▁betty	-10.9569
▁exten	-10.9569
▁import	-10.957
▁elder	-10.957
▁cultur	-10.957
▁define	-10.9571
▁pesos	-10.9571
▁payment	-10.9572
▁stripe	-10.9573
▁surfing	-10.9577
▁orbit	-10.9577
▁mussels	-10.9578
▁described	-10.9578
▁required	-10.9578
▁martyrs	-10.9578
▁disguises	-10.9578
▁apostles	-10.9579
▁medica	-10.958
▁roller	-10.958
▁corrections	-10.9581
▁growth	-10.9581
▁abort	-10.9581
▁thread	-10.9582
▁collected	-10.9582
▁squeals	-10.9583
▁abbot	-10.9583
▁stroll	-10.9584
▁bold	-10.9585
▁proposed	-10.9585
▁arrested	-10.9585
▁louder	-10.9586
▁hiking	-10.9589
▁critic	-10.959
▁merce	-10.959
▁vanish	-10.959
▁pickup	-10.9592
▁utter	-10.9593
▁unlock	-10.9593
▁photographs	-10.9594
▁accomplished	-10.9595
▁confirmed	-10.9595
▁screeches	-10.9597
▁performed	-10.9597
▁frankie	-10.9598
▁burnt	-10.9598
▁dealer	-10.9599
▁creaks	-10.96
▁concerning	-10.9601
▁duh	-10.9602
▁headline	-10.9602
▁advocate	-10.9603
▁forty	-10.9603
▁vary	-10.9605
▁cancer	-10.9605
▁mainly	-10.9607
▁related	-10.9607
▁successfully	-10.9607
▁flyin	-10.9608
▁mona	-10.9608
▁embraced	-10.9609
▁beaten	-10.9611
▁zero	-10.9613
▁resign	-10.9614
▁coke	-10.9615
▁tube	-10.9615
▁gator	-10.9616
▁contractors	-10.9616
▁civilizations	-10.9617
▁correctly	-10.9617
▁walkin	-10.9619
▁argued	-10.9625
▁reminded	-10.9625
▁kindness	-10.9625
▁clang	-10.9625
▁earn	-10.9626
▁shhh	-10.9627
▁fever	-10.9628
▁confus	-10.9628
▁soup	-10.963
▁suitable	-10.9631
▁offense	-10.9631
▁herring	-10.9631
▁beans	-10.9631
▁cease	-10.9635
▁homeless	-10.9635
▁flowed	-10.9637
▁float	-10.9638
▁warned	-10.964
▁whoops	-10.9642
▁canal	-10.965
▁rushed	-10.9652
▁blown	-10.9653
▁tribes	-10.9653
▁har	-10.9654
▁growls	-10.9654
aro	-10.9655
▁prowl	-10.9655
▁methods	-10.9656
▁submersibles	-10.9656
▁grownups	-10.9656
tazz	-10.9657
▁marker	-10.9657
▁typical	-10.9659
▁traveling	-10.9662
▁plot	-10.9664
▁defy	-10.9665
▁ohhh	-10.9669
▁umm	-10.9669
▁range	-10.9671
▁birthing	-10.9672
▁lookout	-10.9672
▁founders	-10.9672
old	-10.9674
▁poke	-10.9674
▁expense	-10.9677
▁drake	-10.9679
▁claus	-10.968
▁harming	-10.9681
▁owns	-10.9684
▁drains	-10.9689
▁att	-10.9692
▁dragons	-10.9694
iment	-10.9695
ely	-10.9696
▁aaaah	-10.9697
▁nail	-10.9698
▁worker	-10.9699
▁equals	-10.9702
▁bucks	-10.9702
▁messy	-10.9702
ber	-10.9708
▁nerves	-10.971
▁remained	-10.971
▁pom	-10.9712
▁traces	-10.9715
▁cleaners	-10.9715
▁passes	-10.9717
ountain	-10.9718
▁sponsor	-10.9725
▁voted	-10.9725
▁compliments	-10.9731
▁forming	-10.9731
▁restaurants	-10.9733
▁simpler	-10.9735
▁mont	-10.9735
▁extinct	-10.9736
▁limited	-10.9738
▁effects	-10.9742
▁studio	-10.9744
▁claw	-10.9746
▁glimpse	-10.9751
▁bean	-10.9753
▁discussing	-10.9755
▁jumping	-10.9755
▁ops	-10.9756
▁cleaned	-10.9761
erry	-10.9761
▁tasted	-10.9762
▁approaching	-10.9762
▁worthy	-10.9766
▁combine	-10.9768
▁overlook	-10.9771
▁spark	-10.9772
▁detectives	-10.9772
▁angels	-10.9773
▁worn	-10.9774
▁shae	-10.9775
▁raining	-10.9777
▁messed	-10.9777
upper	-10.9779
▁judged	-10.9782
▁backup	-10.9785
▁secretly	-10.9786
nk	-10.9791
▁covering	-10.9795
▁powder	-10.9798
▁slink	-10.9801
rise	-10.9803
▁needle	-10.9806
▁sill	-10.981
▁ministers	-10.981
▁mold	-10.982
▁climbed	-10.9826
▁cooked	-10.9833
▁pen	-10.9834
▁wounds	-10.9836
▁flaw	-10.9836
▁receiver	-10.9838
▁formed	-10.9841
▁bounced	-10.9844
▁of	-10.9848
▁gladly	-10.985
▁bothering	-10.9851
▁danced	-10.9858
▁howls	-10.986
▁feared	-10.9863
date	-10.9869
▁tracking	-10.9872
▁virtu	-10.9872
loved	-10.9878
▁newman	-10.989
▁gu	-10.9894
▁mega	-10.9909
▁caus	-10.9913
▁depress	-10.9917
▁quin	-10.9921
▁subjects	-10.9927
▁tray	-10.9943
▁lease	-10.9965
▁sensation	-10.9967
▁crabs	-10.997
▁enjoying	-10.9974
▁carrie	-10.9981
▁coal	-10.9988
▁baths	-10.9989
▁lemon	-10.9994
▁onion	-10.9994
▁orderly	-10.9996
▁gardens	-11.0002
▁stays	-11.0014
▁corporat	-11.0014
▁hopes	-11.0022
mmmmmmmmmmm	-11.0043
▁gap	-11.0043
▁rabbits	-11.0043
▁chairs	-11.0047
▁santo	-11.0052
mo	-11.0054
▁bail	-11.0055
▁gim	-11.0057
star	-11.0061
ounciest	-11.0062
▁vern	-11.0076
▁questioned	-11.0081
▁nap	-11.0097
▁pres	-11.0106
urt	-11.012
▁grabb	-11.0127
▁permit	-11.0132
▁banks	-11.0135
▁thrill	-11.014
▁troubled	-11.014
eerie	-11.0144
▁kno	-11.015
▁syr	-11.0151
nn	-11.0151
ev	-11.0152
▁trans	-11.0153
▁nin	-11.0153
▁fift	-11.0159
▁cars	-11.017
▁advance	-11.0176
▁tapes	-11.0178
▁pies	-11.02
comin	-11.0207
▁lent	-11.0208
▁greener	-11.022
▁mor	-11.0221
viet	-11.0223
▁certifi	-11.0224
uper	-11.0227
▁growl	-11.0228
▁handy	-11.0241
▁suggests	-11.0244
▁mere	-11.025
▁sue	-11.0278
▁brazilians	-11.028
▁tag	-11.0281
▁waldens	-11.0302
▁services	-11.0315
▁talents	-11.0321
▁priests	-11.0326
tial	-11.0336
▁conce	-11.0346
▁crowded	-11.0351
▁miracles	-11.0354
▁tables	-11.0371
▁tempt	-11.0372
▁cod	-11.0386
▁num	-11.0389
▁verse	-11.0393
▁disco	-11.0393
▁extract	-11.042
ud	-11.0424
▁flu	-11.0426
▁reverse	-11.0438
aaah	-11.0453
ition	-11.0457
▁crate	-11.0474
▁spy	-11.0476
▁wagons	-11.05
▁bou	-11.0501
▁mans	-11.0516
▁bump	-11.0532
▁flavors	-11.0534
▁decorat	-11.054
▁brat	-11.055
▁yelp	-11.0557
▁ar	-11.056
tically	-11.0563
▁hurting	-11.0564
huh	-11.0564
▁descend	-11.0566
▁forgett	-11.057
itation	-11.0575
▁whine	-11.0575
ization	-11.058
curb	-11.0589
▁dar	-11.059
aving	-11.059
▁hy	-11.0592
▁vamo	-11.0594
ess	-11.0605
lar	-11.0606
▁commands	-11.062
sandal	-11.0623
▁mistakes	-11.0625
▁backs	-11.0628
noun	-11.0634
▁sway	-11.0645
rious	-11.0647
synthesis	-11.0649
coming	-11.0655
boo	-11.0658
▁resting	-11.066
▁revive	-11.0684
▁lin	-11.0692
▁hint	-11.0702
▁fools	-11.0705
▁classical	-11.0706
▁greed	-11.0709
▁er	-11.0733
▁experiences	-11.0767
core	-11.0788
▁severe	-11.0828
ensure	-11.0843
▁outs	-11.0848
▁drugs	-11.085
ral	-11.0871
▁lick	-11.0884
wa	-11.0892
aaaah	-11.0895
▁buildings	-11.0905
▁recreat	-11.0912
eign	-11.0918
skier	-11.0923
sting	-11.0924
▁spells	-11.0944
▁pla	-11.0949
ttering	-11.096
tripped	-11.0961
▁spill	-11.0966
iate	-11.0966
iving	-11.0966
ament	-11.0969
allel	-11.0977
▁lend	-11.0981
sa	-11.0996
▁cart	-11.1005
our	-11.1026
▁miler	-11.1033
▁dat	-11.105
▁ore	-11.1057
ken	-11.1065
▁ka	-11.1079
▁rotat	-11.1096
▁strategi	-11.1102
▁thr	-11.1104
▁shak	-11.1105
▁sara	-11.1107
▁wanting	-11.1112
▁feature	-11.1118
▁lean	-11.113
▁poach	-11.1137
▁conn	-11.1139
▁explains	-11.1143
bra	-11.1157
▁chow	-11.117
▁ln	-11.1182
▁drops	-11.1184
▁colleges	-11.1185
▁wil	-11.1206
uv	-11.1207
▁skinn	-11.1215
pier	-11.1218
▁stamp	-11.1227
idal	-11.1232
▁bra	-11.124
havin	-11.1272
rizzl	-11.129
▁myth	-11.1294
▁rider	-11.1316
owed	-11.1326
▁sn	-11.1327
berg	-11.1331
▁probe	-11.1349
ooze	-11.1349
▁mids	-11.135
▁slo	-11.1353
olic	-11.1362
isle	-11.1364
▁sticks	-11.1371
▁whoop	-11.1408
▁combin	-11.1425
irs	-11.1425
ob	-11.1427
▁chi	-11.1431
ria	-11.1432
mont	-11.1434
▁dared	-11.1443
j	-11.145
mble	-11.1467
ree	-11.1509
hoo	-11.1513
ana	-11.1519
▁rais	-11.1523
▁beds	-11.1523
ught	-11.1533
arl	-11.1547
▁planes	-11.1555
pa	-11.1569
▁observe	-11.1587
▁qu	-11.1593
und	-11.16
▁painful	-11.1604
▁frustrat	-11.1611
ities	-11.1621
▁ame	-11.1626
▁disposa	-11.1631
▁cathar	-11.166
ks	-11.1661
▁brom	-11.1682
▁appreciat	-11.1683
illy	-11.1683
ized	-11.1684
▁clink	-11.1695
ines	-11.1705
▁blank	-11.1713
enou	-11.1718
▁angl	-11.172
hole	-11.1721
parable	-11.1721
▁spr	-11.1741
▁bare	-11.1744
coat	-11.176
rick	-11.1768
dine	-11.1777
▁numer	-11.1794
tri	-11.1797
acting	-11.18
▁rear	-11.18
loween	-11.1805
▁mag	-11.1806
inous	-11.186
take	-11.1867
hr	-11.188
min	-11.1885
▁hangs	-11.1902
fish	-11.1919
▁occasion	-11.1919
pt	-11.1921
hh	-11.1925
hip	-11.1931
▁doo	-11.1937
ducing	-11.1956
▁renovat	-11.1979
so	-11.1986
▁inf	-11.1989
mm	-11.1997
▁ap	-11.2007
▁disc	-11.2014
pped	-11.2015
▁abs	-11.2022
can	-11.2024
lk	-11.2026
▁reds	-11.2038
throp	-11.2072
▁web	-11.2088
▁pry	-11.2088
ids	-11.2093
▁sto	-11.21
▁execut	-11.2128
night	-11.2148
▁flags	-11.215
head	-11.215
▁vile	-11.2155
▁notif	-11.2164
▁brass	-11.2166
ram	-11.2178
▁gi	-11.2183
▁ju	-11.2185
▁cla	-11.2194
card	-11.2198
▁academ	-11.2206
inary	-11.2208
fi	-11.2221
people	-11.2222
▁fires	-11.2223
▁oppo	-11.2229
ark	-11.2229
ba	-11.2231
▁multi	-11.2242
nel	-11.2254
titled	-11.2261
▁smilin	-11.2261
▁translat	-11.2292
bal	-11.2298
▁plum	-11.2303
med	-11.2331
type	-11.2336
lu	-11.2336
ular	-11.2344
▁groom	-11.2376
▁ke	-11.2383
▁ham	-11.2386
wn	-11.2402
ad	-11.2405
cension	-11.2421
▁qui	-11.2439
name	-11.2447
ourne	-11.2467
course	-11.2467
logy	-11.2471
ters	-11.248
addle	-11.2488
morning	-11.2491
frank	-11.2494
▁subs	-11.25
▁companions	-11.2508
▁but	-11.2512
▁cho	-11.2512
▁cri	-11.2516
rring	-11.2526
osed	-11.2538
ica	-11.2543
▁forge	-11.2544
formed	-11.2545
cover	-11.2549
▁conduct	-11.2552
▁tearin	-11.2553
nder	-11.2555
girl	-11.2556
thic	-11.2562
▁kar	-11.2562
ringing	-11.2567
tempo	-11.257
late	-11.2571
▁sells	-11.2572
▁undo	-11.2581
▁crop	-11.2585
▁breaks	-11.2587
▁shack	-11.2587
zig	-11.2592
▁troop	-11.2596
▁reduce	-11.2598
feeding	-11.2602
lord	-11.2603
sometimes	-11.2605
▁ea	-11.2617
▁om	-11.2626
tric	-11.2635
class	-11.2635
jan	-11.2636
normal	-11.2638
cycle	-11.2639
▁embrac	-11.2641
jespah	-11.2642
justice	-11.2647
guard	-11.2647
nix	-11.2648
heat	-11.265
track	-11.2651
▁decorate	-11.2654
band	-11.2657
limited	-11.2657
free	-11.2658
pronounce	-11.2663
▁whir	-11.2669
▁gasp	-11.2669
solved	-11.267
missions	-11.2678
ronic	-11.2687
rate	-11.269
▁ribbon	-11.2697
▁furnace	-11.2697
▁italian	-11.2697
▁lannister	-11.2698
▁examin	-11.2698
▁conservative	-11.2699
▁equation	-11.27
jos	-11.2703
▁discus	-11.2706
▁elevator	-11.2712
▁instrument	-11.2713
headed	-11.2713
▁din	-11.2715
▁civilization	-11.2718
▁tweet	-11.2719
▁neighbor	-11.2721
▁marble	-11.2723
▁ancestor	-11.2723
▁principle	-11.2724
▁sardine	-11.2726
▁element	-11.2726
▁andrew	-11.2727
rien	-11.2727
▁candle	-11.2728
▁sheet	-11.2731
▁instruction	-11.2733
saw	-11.2733
▁sinkin	-11.2733
▁profession	-11.2734
▁snack	-11.2736
west	-11.2741
▁bart	-11.2742
▁tort	-11.2744
▁judg	-11.2745
▁ven	-11.2745
tin	-11.2748
ata	-11.2751
amount	-11.2753
si	-11.2758
chef	-11.2766
claim	-11.2767
▁demon	-11.2775
▁resid	-11.2782
▁describ	-11.2782
mighty	-11.2786
▁pronounc	-11.2786
gone	-11.2786
▁click	-11.2788
▁captur	-11.2789
▁workout	-11.2791
▁contribut	-11.2792
▁condo	-11.2792
▁declar	-11.2796
▁ali	-11.2797
▁amaz	-11.2803
▁refu	-11.2803
she	-11.2803
▁hiccup	-11.2807
▁infinit	-11.2811
▁quack	-11.2812
▁brut	-11.2813
▁drown	-11.2818
▁defeat	-11.2823
▁offend	-11.2825
mitt	-11.2826
▁devote	-11.2826
▁untie	-11.2828
▁squeal	-11.2828
self	-11.283
▁sauce	-11.2831
▁significan	-11.2832
▁solve	-11.2834
▁permanent	-11.2834
ont	-11.2834
▁betray	-11.2834
▁brrr	-11.2835
▁relate	-11.2837
▁analy	-11.2839
▁egypt	-11.2842
▁donate	-11.2842
▁ahhhhhh	-11.2843
▁alexand	-11.2843
▁michel	-11.2844
arrison	-11.2845
▁darlin	-11.2847
▁recent	-11.2848
▁logic	-11.2848
▁profess	-11.2849
▁republic	-11.2849
hower	-11.285
▁mornin	-11.285
▁outrage	-11.285
▁orphan	-11.285
▁hull	-11.285
rupt	-11.2851
▁runnin	-11.2851
▁robot	-11.2851
tu	-11.2851
▁chemist	-11.2852
nsylvania	-11.2852
▁abolish	-11.2852
▁abracadabra	-11.2852
▁accommodations	-11.2852
▁acquaintance	-11.2852
▁acrophobia	-11.2852
▁aggressive	-11.2852
▁albigenses	-11.2852
▁allegiance	-11.2852
▁allergic	-11.2852
▁allergy	-11.2852
▁antelope	-11.2852
▁astronaut	-11.2852
▁atlantic	-11.2852
▁avenge	-11.2852
▁babbling	-11.2852
▁bismarck	-11.2852
▁bizarre	-11.2852
▁briseis	-11.2852
▁cafeteria	-11.2852
▁cappuccino	-11.2852
▁clarabelle	-11.2852
▁clavecin	-11.2852
▁clumsy	-11.2852
▁compensation	-11.2852
▁condolences	-11.2852
▁controversy	-11.2852
▁crocodil	-11.2852
▁culprit	-11.2852
▁curiosity	-11.2852
▁dapplewood	-11.2852
▁decretals	-11.2852
▁detroit	-11.2852
▁diploma	-11.2852
▁disadvantage	-11.2852
▁elaborate	-11.2852
▁euphemus	-11.2852
▁exaggerated	-11.2852
▁exquisite	-11.2852
▁formidable	-11.2852
▁frankendude	-11.2852
▁fraulien	-11.2852
▁glasgow	-11.2852
▁groovy	-11.2852
▁guiseppe	-11.2852
▁hampton	-11.2852
▁handkerchief	-11.2852
▁harvard	-11.2852
▁heirloom	-11.2852
▁hitandrun	-11.2852
▁hufford	-11.2852
▁hybrid	-11.2852
▁infallible	-11.2852
▁insects	-11.2852
▁juvenile	-11.2852
▁legwarmers	-11.2852
▁lieutenant	-11.2852
▁limousine	-11.2852
▁liverpool	-11.2852
▁lungwort	-11.2852
▁mariachis	-11.2852
▁megawatts	-11.2852
▁millicent	-11.2852
▁miraculous	-11.2852
▁monstrous	-11.2852
▁moorepark	-11.2852
▁mortgage	-11.2852
▁moscow	-11.2852
▁moustache	-11.2852
▁munchausen	-11.2852
▁mysteries	-11.2852
▁neglected	-11.2852
▁nenana	-11.2852
▁nowadays	-11.2852
▁nugget	-11.2852
▁odyssey	-11.2852
▁persecution	-11.2852
▁persuasion	-11.2852
▁petticoat	-11.2852
▁physics	-11.2852
▁picasso	-11.2852
▁pomerania	-11.2852
▁popcorn	-11.2852
▁postponed	-11.2852
▁predecessor	-11.2852
▁privacy	-11.2852
▁propagate	-11.2852
▁pufferfish	-11.2852
▁quadropole	-11.2852
▁rakerat	-11.2852
▁redeemer	-11.2852
▁rhubarb	-11.2852
▁roscoe	-11.2852
▁sacraments	-11.2852
▁sagalevitch	-11.2852
▁sanctuar	-11.2852
▁savior	-11.2852
▁scalpel	-11.2852
▁selfprotection	-11.2852
▁shangrilarge	-11.2852
▁slowpoke	-11.2852
▁southampton	-11.2852
▁stamina	-11.2852
▁subsequent	-11.2852
▁suspicion	-11.2852
▁talbot	-11.2852
▁thingamabob	-11.2852
▁thursday	-11.2852
▁tuxedo	-11.2852
▁tyndale	-11.2852
▁volcano	-11.2852
▁whiskers	-11.2852
▁winifred	-11.2852
▁withstand	-11.2852
▁wizard	-11.2852
▁wyckoff	-11.2852
▁yokomoto	-11.2852
▁discourag	-11.2852
▁encycl	-11.2852
▁prevail	-11.2852
▁vintage	-11.2852
▁aeetes	-11.2852
▁bypass	-11.2852
▁carousel	-11.2852
▁carpenter	-11.2852
▁conceited	-11.2852
▁dddear	-11.2852
▁deposit	-11.2852
▁dizzy	-11.2852
▁doodledoo	-11.2852
▁ethnic	-11.2852
▁evilfinder	-11.2852
▁fantasy	-11.2852
▁hippie	-11.2852
▁intellect	-11.2852
▁invention	-11.2852
▁inventor	-11.2852
▁kkk	-11.2852
▁legacy	-11.2852
▁murray	-11.2852
▁penthouse	-11.2852
▁telegram	-11.2852
▁volcanic	-11.2852
▁bunker	-11.2852
▁channel	-11.2852
▁dinosaur	-11.2852
▁entwine	-11.2852
▁medusa	-11.2852
▁nigga	-11.2852
▁sizzling	-11.2852
▁tarnation	-11.2852
▁vertical	-11.2852
▁counsel	-11.2852
▁endeavo	-11.2852
▁exterminate	-11.2852
▁iceskat	-11.2852
▁insurance	-11.2852
▁liberties	-11.2852
▁naacp	-11.2852
▁prophecy	-11.2852
▁replied	-11.2852
▁vessel	-11.2852
▁vitamin	-11.2852
▁ghoul	-11.2852
▁haunted	-11.2852
▁netherworld	-11.2852
▁arnie	-11.2852
▁arrowhead	-11.2852
▁clientele	-11.2852
▁distilling	-11.2852
▁notorious	-11.2852
▁pulpit	-11.2852
▁radical	-11.2852
▁rascal	-11.2852
▁ceiling	-11.2852
▁mobiliz	-11.2852
▁sandrine	-11.2852
▁assumption	-11.2852
▁destructive	-11.2852
▁magnificence	-11.2852
▁riftia	-11.2852
▁gesture	-11.2852
▁possum	-11.2852
▁amelia	-11.2852
▁ascot	-11.2852
▁detach	-11.2852
▁plunge	-11.2852
▁interpret	-11.2852
▁politicians	-11.2852
▁ideology	-11.2852
▁kathy	-11.2852
▁toucan	-11.2852
▁vocali	-11.2852
▁homestead	-11.2852
▁commodore	-11.2852
▁transition	-11.2852
▁improvise	-11.2852
▁wacko	-11.2852
▁aaron	-11.2852
▁conference	-11.2852
▁trimmings	-11.2852
▁camille	-11.2852
▁paranoid	-11.2852
▁intimate	-11.2852
▁festivities	-11.2852
▁boulder	-11.2852
▁vanilla	-11.2852
▁waltz	-11.2852
▁kidnapped	-11.2852
▁representative	-11.2852
▁mcca	-11.2852
▁fraction	-11.2852
▁orient	-11.2852
▁visual	-11.2852
▁anyplace	-11.2852
▁hurray	-11.2852
▁thirty	-11.2852
▁sinister	-11.2852
▁neurotic	-11.2852
▁merchan	-11.2852
▁harvest	-11.2852
▁terrified	-11.2852
▁linebacker	-11.2852
▁abroad	-11.2852
▁toxic	-11.2852
▁luncheon	-11.2852
▁berries	-11.2852
▁compulsion	-11.2852
▁nightmare	-11.2852
▁precision	-11.2852
▁granddaughter	-11.2852
▁ultimatum	-11.2852
misunderstanding	-11.2852
▁terrace	-11.2852
▁association	-11.2852
▁jockey	-11.2852
▁agile	-11.2852
▁exposure	-11.2852
▁hippo	-11.2852
▁ltaly	-11.2852
▁posada	-11.2852
▁rationalism	-11.2852
▁eww	-11.2852
▁plastic	-11.2852
▁reflect	-11.2852
▁hym	-11.2853
cumen	-11.2853
▁gripper	-11.2853
▁stinks	-11.2853
▁colony	-11.2853
▁competitor	-11.2853
▁internet	-11.2853
▁authorship	-11.2853
▁stumble	-11.2853
▁grinning	-11.2853
▁fireballs	-11.2853
▁description	-11.2853
▁negotiator	-11.2853
▁balance	-11.2853
▁xvi	-11.2853
▁reunion	-11.2853
▁axle	-11.2853
▁vague	-11.2853
▁distractible	-11.2853
▁darwin	-11.2853
▁receptus	-11.2853
▁subversive	-11.2853
▁craig	-11.2853
▁employee	-11.2853
▁stylish	-11.2853
▁dioxid	-11.2853
▁seasick	-11.2853
▁engagement	-11.2853
▁kidnapping	-11.2853
▁preservation	-11.2853
▁jammed	-11.2853
▁congregation	-11.2853
▁fisherman	-11.2853
▁cavern	-11.2853
▁terrain	-11.2853
▁dumpster	-11.2853
▁philip	-11.2853
inlaw	-11.2853
▁infernal	-11.2853
▁chanting	-11.2853
▁navigat	-11.2853
▁contrary	-11.2853
▁pepper	-11.2853
▁arrgh	-11.2853
▁revolution	-11.2853
▁banns	-11.2853
▁altar	-11.2853
▁patrick	-11.2854
▁theater	-11.2854
▁gramps	-11.2854
▁handwriting	-11.2854
▁hagar	-11.2854
▁midnight	-11.2854
▁forehead	-11.2854
▁semi	-11.2854
▁bunny	-11.2854
▁offence	-11.2854
▁motto	-11.2854
▁verily	-11.2854
▁senate	-11.2854
▁blackmail	-11.2854
▁torment	-11.2854
▁ethic	-11.2854
▁priesthood	-11.2854
▁vegeta	-11.2854
▁legendary	-11.2854
▁onward	-11.2854
▁onboard	-11.2854
▁physicist	-11.2854
▁frown	-11.2855
▁dazzler	-11.2855
▁madison	-11.2855
▁mavis	-11.2855
▁helmet	-11.2855
▁ashore	-11.2855
▁lorath	-11.2855
▁youjohn	-11.2855
▁dilk	-11.2855
▁ethereal	-11.2855
▁pooch	-11.2855
▁demonstration	-11.2855
▁lowlife	-11.2855
▁unfold	-11.2855
▁bingo	-11.2855
▁memo	-11.2855
▁practicing	-11.2855
▁brutality	-11.2855
▁sworn	-11.2856
▁occup	-11.2856
ernie	-11.2856
▁perish	-11.2856
▁swab	-11.2856
▁goldmine	-11.2856
▁ilyn	-11.2856
▁tubby	-11.2856
▁argh	-11.2856
▁mmmwh	-11.2856
▁thoroughly	-11.2856
▁clip	-11.2856
▁roland	-11.2856
▁denial	-11.2856
▁arose	-11.2856
▁elegant	-11.2856
▁garth	-11.2856
▁kemble	-11.2856
▁obligation	-11.2856
▁folk	-11.2856
▁klan	-11.2857
▁barbara	-11.2857
▁nightfall	-11.2857
▁despise	-11.2857
▁interruption	-11.2857
▁courthouse	-11.2857
▁spicy	-11.2857
▁conspiracy	-11.2857
▁paleography	-11.2857
adour	-11.2857
▁ginger	-11.2857
▁angst	-11.2857
▁rudy	-11.2857
▁exchange	-11.2857
▁ordained	-11.2857
▁theatre	-11.2858
▁smear	-11.2858
▁shave	-11.2858
▁jelly	-11.2858
▁crust	-11.2858
▁lumber	-11.2858
▁profile	-11.2858
▁qualified	-11.2858
▁arab	-11.2858
▁celebrity	-11.2858
▁establishment	-11.2858
▁deadbeat	-11.2858
▁creation	-11.2858
▁eyelash	-11.2858
▁wetland	-11.2859
▁defendant	-11.2859
zama	-11.2859
▁survival	-11.2859
▁filter	-11.286
▁gleam	-11.286
▁teasing	-11.286
▁humor	-11.286
▁pomp	-11.286
▁geese	-11.286
xious	-11.286
▁anxious	-11.2861
▁uncomfortable	-11.2861
▁lucia	-11.2861
▁doug	-11.2861
▁implication	-11.2861
▁attractive	-11.2861
▁shaman	-11.2861
▁rodent	-11.2861
▁elect	-11.2861
▁clop	-11.2861
▁backbone	-11.2862
▁statesmen	-11.2862
lem	-11.2862
▁energizing	-11.2862
▁hysterical	-11.2862
▁padre	-11.2862
▁clatter	-11.2862
▁assign	-11.2862
▁melted	-11.2862
opher	-11.2862
▁illustr	-11.2862
▁astounding	-11.2862
▁overwhelming	-11.2862
▁hospitality	-11.2862
▁canary	-11.2863
▁fortunately	-11.2863
▁thirsty	-11.2863
▁faint	-11.2863
▁uttama	-11.2864
▁rehearsal	-11.2864
▁consideration	-11.2864
▁purged	-11.2864
▁plumbing	-11.2864
▁dependent	-11.2864
▁whatre	-11.2864
▁whatll	-11.2864
▁enchanted	-11.2865
▁cuz	-11.2865
▁tumor	-11.2865
▁stew	-11.2865
▁colour	-11.2865
vous	-11.2866
▁restored	-11.2866
▁acceptance	-11.2866
▁peemai	-11.2866
▁publicity	-11.2866
▁tweed	-11.2866
▁stash	-11.2866
▁ceremony	-11.2866
▁chapm	-11.2866
▁shocker	-11.2867
▁stepped	-11.2867
▁elsewhere	-11.2867
▁troubling	-11.2867
▁mmmmmm	-11.2868
▁broad	-11.2868
▁robbed	-11.2868
▁renew	-11.2868
▁drew	-11.2868
▁outlaw	-11.2869
▁strive	-11.2869
fathers	-11.2869
▁painters	-11.2869
▁shattered	-11.2869
▁massage	-11.287
▁discussion	-11.287
▁discredit	-11.287
▁permanently	-11.287
▁nock	-11.287
▁whooper	-11.2871
▁lobo	-11.2871
▁settling	-11.2871
▁oak	-11.2871
▁doodley	-11.2872
▁lenny	-11.2872
▁alley	-11.2872
▁reporters	-11.2872
▁improve	-11.2872
▁escaping	-11.2872
▁sober	-11.2873
▁councilman	-11.2874
▁wiseman	-11.2874
▁connected	-11.2874
▁puttin	-11.2874
▁expanding	-11.2875
▁marshes	-11.2875
▁supper	-11.2875
▁digest	-11.2875
▁fence	-11.2875
▁hija	-11.2875
▁deploy	-11.2875
▁stags	-11.2875
▁frog	-11.2876
ghhh	-11.2876
▁robin	-11.2876
▁sappy	-11.2877
▁frieda	-11.2877
▁spears	-11.2877
▁polite	-11.2877
▁diaper	-11.2878
▁espn	-11.2878
▁supplier	-11.2878
▁detected	-11.2879
▁shaky	-11.2879
▁shattering	-11.2879
▁wives	-11.2879
▁sweater	-11.2879
▁batch	-11.288
▁recruiting	-11.288
▁untied	-11.2881
▁jamaica	-11.2881
▁comedian	-11.2881
▁griev	-11.2881
▁welcoming	-11.2881
▁confessional	-11.2882
▁subtle	-11.2882
▁townsend	-11.2882
▁carol	-11.2882
▁madman	-11.2882
▁torn	-11.2882
▁hopping	-11.2882
▁protector	-11.2883
▁motives	-11.2883
▁leopards	-11.2884
▁coordinates	-11.2884
▁dungeons	-11.2884
▁restrictions	-11.2884
▁churchmen	-11.2885
▁vocation	-11.2885
▁bumpy	-11.2885
▁robbery	-11.2885
▁evolved	-11.2886
▁resources	-11.2886
▁donated	-11.2886
▁wheat	-11.2886
guidance	-11.2887
▁stove	-11.2887
▁prosper	-11.2887
▁appeal	-11.2888
▁yawn	-11.2888
▁performer	-11.2888
▁hiyah	-11.2889
▁bouncers	-11.2889
▁hometown	-11.2889
▁hypso	-11.2889
▁manipulated	-11.289
▁sacked	-11.289
▁brim	-11.289
▁powerless	-11.289
▁barons	-11.289
▁plantation	-11.2891
▁stabilize	-11.2891
▁supervised	-11.2891
▁suv	-11.2891
nary	-11.2891
▁positively	-11.2891
▁clothing	-11.2893
▁infinite	-11.2893
▁decoration	-11.2893
▁investigated	-11.2894
▁cutting	-11.2894
▁manager	-11.2894
▁cellar	-11.2895
▁soda	-11.2895
▁seventh	-11.2895
▁clicking	-11.2895
▁frontrunner	-11.2896
▁selected	-11.2897
▁fuse	-11.2897
▁viv	-11.2897
▁jews	-11.2898
▁lama	-11.2898
▁humanity	-11.2898
▁petit	-11.2899
▁licking	-11.29
▁secretar	-11.2901
▁formally	-11.2902
▁bliss	-11.2902
▁pawn	-11.2902
▁renowned	-11.2904
▁whwh	-11.2905
▁vain	-11.2905
▁familiar	-11.2905
▁fashion	-11.2907
▁sowell	-11.2908
▁meek	-11.2908
egar	-11.2909
▁badge	-11.2909
▁ruff	-11.291
▁sputter	-11.291
▁whim	-11.291
▁insulted	-11.291
amin	-11.2911
▁skirt	-11.2911
ick	-11.2912
▁georgie	-11.2913
▁drool	-11.2913
maker	-11.2913
▁flit	-11.2913
▁providing	-11.2914
shield	-11.2914
▁cursed	-11.2914
▁constantly	-11.2914
▁blanket	-11.2914
▁sharing	-11.2915
▁acknowledged	-11.2916
▁principal	-11.2916
▁strongest	-11.2916
▁penny	-11.2916
▁gene	-11.2916
▁asset	-11.2918
▁soc	-11.2918
▁thumb	-11.2919
▁resent	-11.292
▁straighten	-11.292
▁vii	-11.2921
▁brandy	-11.2921
▁triple	-11.2922
▁fulfill	-11.2922
nent	-11.2922
▁crossexamin	-11.2923
▁sept	-11.2923
▁displayed	-11.2923
▁fend	-11.2924
▁interrupted	-11.2924
real	-11.2924
▁brushed	-11.2926
▁goofed	-11.2927
▁venture	-11.2929
▁affect	-11.293
▁confine	-11.2931
▁bleed	-11.2931
▁robes	-11.2932
▁villains	-11.2932
▁questionable	-11.2933
▁whys	-11.2933
▁regularly	-11.2934
▁distillery	-11.2935
▁bul	-11.2935
▁cramp	-11.2935
▁suspected	-11.2936
▁nailed	-11.2936
▁hits	-11.2936
▁condor	-11.2937
▁bubbles	-11.2937
▁comforting	-11.2937
▁rifles	-11.2938
▁freaky	-11.2938
▁pirates	-11.2938
▁decades	-11.2939
▁obstacles	-11.2939
▁combinations	-11.2939
▁archives	-11.294
▁entrance	-11.2942
▁heater	-11.2945
▁coca	-11.2947
▁twisted	-11.2947
▁zeal	-11.2948
omin	-11.295
▁ph	-11.2953
▁deb	-11.2954
▁wounded	-11.2954
▁on	-11.2955
▁tur	-11.2956
▁pouring	-11.2957
▁sixth	-11.2959
monia	-11.2959
▁apoc	-11.2961
▁hack	-11.2961
▁trooper	-11.2961
▁ranger	-11.2966
▁jet	-11.2967
▁ideals	-11.2968
▁linda	-11.2971
▁fishies	-11.2971
▁pistols	-11.2972
▁tares	-11.2973
▁descent	-11.2973
▁suffering	-11.2974
▁entertaining	-11.2975
▁ripping	-11.2975
▁requested	-11.2975
▁writers	-11.2975
▁righthanded	-11.2976
▁phrase	-11.2978
▁quill	-11.298
▁rally	-11.298
▁diving	-11.2981
etic	-11.2982
▁approaches	-11.2982
▁imply	-11.2982
▁backfield	-11.2983
▁snacks	-11.2985
concept	-11.2985
▁buds	-11.2987
▁lanes	-11.2987
▁tweets	-11.2988
▁hoof	-11.2988
▁nerd	-11.2988
▁attempted	-11.2989
▁mmmm	-11.299
▁drinkin	-11.299
▁keeper	-11.2992
▁marbles	-11.2993
▁interviewed	-11.2994
▁elevators	-11.2995
▁pronounced	-11.2996
▁civilis	-11.2996
▁uti	-11.2998
▁roar	-11.3
▁dice	-11.3002
opy	-11.3002
retta	-11.3003
her	-11.3004
lt	-11.3004
▁troops	-11.3005
▁raz	-11.3007
▁stupidly	-11.3007
▁jen	-11.3011
▁halt	-11.3011
▁tightly	-11.3011
▁zoom	-11.3013
▁permits	-11.3014
▁eugene	-11.3015
▁unity	-11.3015
▁bugg	-11.3015
▁rustl	-11.3021
▁hostil	-11.3022
▁sang	-11.3025
▁denounc	-11.3025
▁textus	-11.3027
▁sobs	-11.3032
▁scouting	-11.3032
▁kicking	-11.3041
▁booing	-11.3044
▁kisses	-11.3045
onder	-11.3045
mann	-11.3049
ween	-11.305
▁historians	-11.305
▁scrolls	-11.3051
▁candidates	-11.3052
▁gorillas	-11.3052
▁textu	-11.3052
▁preparations	-11.3052
▁samanthas	-11.3052
▁balloons	-11.3052
▁buzzes	-11.3053
▁youngsters	-11.3054
▁gigantical	-11.3056
▁suite	-11.3061
▁claiming	-11.3061
▁reveals	-11.3061
▁relatives	-11.3062
atin	-11.3062
▁wasted	-11.3062
▁tut	-11.3062
▁eve	-11.3064
▁stable	-11.3065
▁dawdl	-11.3067
▁tata	-11.3068
▁warmly	-11.3068
▁slack	-11.3073
▁globe	-11.3074
bearing	-11.3076
▁winch	-11.3077
▁entering	-11.3077
▁bil	-11.308
▁tested	-11.3085
▁blend	-11.3087
▁rebuild	-11.3088
▁accelerate	-11.309
▁festiv	-11.3091
▁wonders	-11.3091
▁mentor	-11.3092
▁junkie	-11.3093
▁somb	-11.3094
▁busting	-11.3095
▁specialist	-11.3101
▁washing	-11.3103
▁deeper	-11.3104
▁statu	-11.3104
brain	-11.3105
function	-11.3107
▁reco	-11.3107
▁bullets	-11.3107
▁surgeons	-11.3107
▁curtains	-11.3108
uz	-11.3109
▁christen	-11.311
tender	-11.311
▁here	-11.311
▁loung	-11.3112
▁skull	-11.3112
▁blessings	-11.3114
▁turnin	-11.3118
▁schm	-11.3118
▁jean	-11.3122
▁extend	-11.3131
ester	-11.3133
▁difficulty	-11.3139
▁burst	-11.3141
▁includes	-11.3144
▁fairy	-11.3145
zel	-11.3146
▁os	-11.3146
▁dolls	-11.3148
▁dealers	-11.3148
▁reporting	-11.3149
▁squir	-11.3156
▁hud	-11.3156
▁bottles	-11.3159
slippery	-11.3161
▁profits	-11.3164
ys	-11.3165
meter	-11.3166
▁handled	-11.3168
▁wal	-11.3168
▁cowards	-11.3175
dooper	-11.3177
found	-11.3177
▁classes	-11.3177
▁squeaks	-11.3178
▁cones	-11.3186
▁bothered	-11.3189
▁pistol	-11.3192
bbering	-11.3194
▁peel	-11.3201
▁publisher	-11.3204
▁unit	-11.3207
▁chaps	-11.3208
▁enny	-11.321
pilla	-11.3214
▁defenses	-11.3215
▁flames	-11.3215
▁coons	-11.3218
▁introduc	-11.3219
▁degrees	-11.322
▁approv	-11.3222
▁tryin	-11.3225
▁math	-11.3227
▁flips	-11.323
▁chest	-11.3238
idge	-11.3239
art	-11.325
▁filling	-11.3252
▁evolve	-11.3255
▁institutions	-11.3256
pal	-11.3258
▁hiss	-11.3259
eep	-11.3263
dies	-11.3266
examined	-11.3273
▁austins	-11.3274
▁drivers	-11.3274
eresa	-11.3284
▁weekends	-11.3285
▁struggles	-11.3286
▁packing	-11.3286
ivation	-11.329
▁lire	-11.3293
▁maps	-11.3293
▁parking	-11.3293
▁scra	-11.33
▁supposedly	-11.3305
▁locat	-11.3308
▁portho	-11.3309
bby	-11.331
▁gill	-11.3316
awk	-11.3319
▁longest	-11.3332
▁errors	-11.3335
ibald	-11.3335
▁pipe	-11.3337
pit	-11.3338
tch	-11.334
▁fails	-11.3341
▁confirms	-11.3343
▁makers	-11.3343
▁sailing	-11.3344
▁girlfriends	-11.3347
▁bombing	-11.3349
rogatory	-11.3359
▁ascend	-11.336
▁mot	-11.3374
▁drums	-11.3375
▁ropes	-11.3379
tag	-11.338
▁translate	-11.3384
▁sid	-11.3384
▁sli	-11.3387
▁compar	-11.3388
canned	-11.3392
▁axe	-11.3394
▁mast	-11.3405
ittle	-11.3407
▁err	-11.3407
umpy	-11.3409
▁sor	-11.3412
verted	-11.3425
▁kicks	-11.3433
▁wax	-11.3439
▁pilots	-11.3448
▁freedoms	-11.3448
▁pineapples	-11.3449
▁uncover	-11.3449
▁protecting	-11.345
▁heir	-11.3451
▁compli	-11.3453
there	-11.3457
rbon	-11.3466
rings	-11.3469
▁hog	-11.3472
owned	-11.3474
▁paths	-11.3475
▁plume	-11.3477
▁pessimistic	-11.3477
▁jud	-11.3477
try	-11.3479
▁answered	-11.3479
ada	-11.3481
▁adventures	-11.3483
▁marked	-11.3497
▁multipl	-11.3502
▁vale	-11.3508
▁heap	-11.3517
its	-11.3517
▁reminds	-11.352
ipper	-11.352
▁jimm	-11.3528
za	-11.3534
▁roses	-11.3539
abolic	-11.3558
icy	-11.3562
▁lamp	-11.3562
▁hom	-11.3564
▁weee	-11.3565
▁whipp	-11.3566
bore	-11.3579
▁bigot	-11.3584
ph	-11.3586
stream	-11.3586
▁il	-11.3597
▁encourage	-11.3597
lf	-11.3603
▁beautifully	-11.3606
▁actions	-11.3607
▁prey	-11.3608
▁rum	-11.3613
▁insists	-11.3614
▁luthers	-11.3616
▁snakes	-11.3617
▁liking	-11.3619
protective	-11.3625
▁neo	-11.363
▁originals	-11.3632
▁pressures	-11.3634
cas	-11.3636
▁complet	-11.3651
▁torch	-11.3652
works	-11.3653
▁connect	-11.3656
▁op	-11.3658
rock	-11.3661
tto	-11.3661
▁boil	-11.3667
▁carg	-11.3669
rr	-11.3669
▁supervis	-11.367
▁pursu	-11.3671
▁dealt	-11.3673
▁traitors	-11.3675
▁rebelli	-11.3677
▁harp	-11.3683
▁locate	-11.3686
▁sakes	-11.3687
ege	-11.3687
▁heel	-11.3697
▁carp	-11.3706
lai	-11.3714
roque	-11.3718
▁webs	-11.372
▁writings	-11.3726
soph	-11.373
▁bore	-11.3731
ou	-11.3732
▁environments	-11.3733
▁promin	-11.3733
ho	-11.3737
▁scares	-11.374
▁helpin	-11.374
iters	-11.3747
▁nor	-11.3751
▁organ	-11.3751
▁hah	-11.3752
▁reports	-11.376
right	-11.3768
habo	-11.3777
▁accessor	-11.3784
▁idiots	-11.3785
▁sundays	-11.3792
oa	-11.3797
▁dearly	-11.3798
nny	-11.3799
▁phenomeno	-11.3804
▁if	-11.3807
▁flatter	-11.3809
▁hiphop	-11.3823
▁curt	-11.3826
▁types	-11.383
ner	-11.3845
au	-11.3848
ro	-11.3859
ron	-11.3863
ture	-11.3866
rack	-11.3867
▁recording	-11.387
noid	-11.3873
eeya	-11.3882
▁wrestle	-11.3891
▁stations	-11.3896
▁tra	-11.3909
lity	-11.3911
▁sew	-11.3917
pping	-11.392
tte	-11.3923
▁organi	-11.3931
▁sniffs	-11.3936
ain	-11.3938
▁prospect	-11.3939
▁loneli	-11.3944
▁tow	-11.395
▁petals	-11.3951
lashing	-11.3954
▁prices	-11.3956
▁pow	-11.3964
integrate	-11.3968
▁sack	-11.397
▁equat	-11.3996
▁knocks	-11.3999
▁heroin	-11.4004
▁squawkin	-11.4004
▁spots	-11.4011
▁sal	-11.4014
▁fourteen	-11.4017
gger	-11.4028
rents	-11.4031
▁pops	-11.4039
stance	-11.4044
▁wished	-11.4045
▁league	-11.4045
▁endure	-11.4046
heated	-11.4051
raham	-11.4051
▁fra	-11.4054
▁lightly	-11.4068
▁rupe	-11.4085
▁nicer	-11.4089
▁tellin	-11.4091
▁pals	-11.4097
lco	-11.4101
ew	-11.4106
▁mates	-11.4111
arza	-11.4115
▁ideal	-11.4117
▁tons	-11.4119
▁additional	-11.4126
for	-11.4126
bia	-11.4134
con	-11.4136
▁ounce	-11.415
▁sle	-11.4158
▁pap	-11.4178
ax	-11.4179
▁dominate	-11.4179
▁torture	-11.4181
robbing	-11.4189
▁assemble	-11.4193
▁jeopardize	-11.42
▁dock	-11.4201
xes	-11.4204
burr	-11.421
quet	-11.4215
▁medic	-11.4215
▁toll	-11.4218
erous	-11.4221
angled	-11.4233
als	-11.4236
oral	-11.4247
▁an	-11.425
sed	-11.4254
▁dynami	-11.4258
ett	-11.4268
ugh	-11.4278
▁heats	-11.4279
eros	-11.4285
ag	-11.4295
▁las	-11.4297
▁fellows	-11.43
iel	-11.4301
▁halls	-11.4305
▁ci	-11.4316
heads	-11.4317
▁negotiate	-11.4318
shes	-11.4319
▁ste	-11.4324
▁authentic	-11.4327
quid	-11.4329
▁doze	-11.4335
fe	-11.4352
gging	-11.4353
▁liver	-11.4354
▁boats	-11.4359
▁camper	-11.4364
▁daw	-11.4371
▁pur	-11.4378
ven	-11.4401
sses	-11.441
▁commons	-11.4415
ses	-11.4422
▁kab	-11.4423
activity	-11.4427
▁span	-11.4439
▁bush	-11.4444
ds	-11.4452
qu	-11.4454
ye	-11.4456
alter	-11.4457
ove	-11.4458
▁jas	-11.4461
▁cloth	-11.4471
ight	-11.4484
▁rooms	-11.4494
▁prot	-11.4499
▁mill	-11.4509
▁offers	-11.451
▁ups	-11.4513
▁extremes	-11.4526
▁vari	-11.455
▁humiliat	-11.4563
▁specialize	-11.4593
▁scor	-11.4595
ug	-11.4595
▁doodle	-11.4597
▁cleared	-11.4609
▁genu	-11.4615
▁dispos	-11.4623
ough	-11.464
▁strip	-11.4646
▁flop	-11.4659
atl	-11.4671
▁wor	-11.4691
rita	-11.4691
▁detect	-11.47
ication	-11.47
▁colum	-11.4709
ham	-11.471
ls	-11.4722
▁farr	-11.4726
▁exc	-11.4727
know	-11.4751
▁respir	-11.4766
▁mirs	-11.4779
ured	-11.4781
▁pros	-11.479
ties	-11.4792
▁sniffl	-11.4799
ady	-11.48
▁founded	-11.4819
log	-11.4821
lusive	-11.4823
nch	-11.4838
▁assist	-11.4845
nta	-11.4849
▁holds	-11.4856
▁choices	-11.4864
bble	-11.4881
looper	-11.4892
▁bros	-11.4897
hen	-11.4913
neu	-11.4919
▁ku	-11.4921
▁essen	-11.4921
ening	-11.4927
inty	-11.4936
ife	-11.494
tive	-11.4963
ching	-11.4967
▁construct	-11.4969
▁thith	-11.4971
▁carl	-11.4973
▁crystals	-11.4976
nds	-11.4992
bat	-11.5
▁pel	-11.5
▁provid	-11.5003
▁waters	-11.5004
uties	-11.5012
▁yee	-11.5019
agin	-11.5026
▁ancients	-11.5032
▁indicate	-11.5032
hey	-11.5039
▁serv	-11.5072
▁mari	-11.5073
ast	-11.5077
port	-11.5091
▁capal	-11.5093
oc	-11.5101
▁organis	-11.5103
tie	-11.5104
cking	-11.5111
nfl	-11.5116
▁reviv	-11.5126
▁bounces	-11.5134
gling	-11.5136
▁greatly	-11.5146
spective	-11.5152
▁exhaust	-11.5157
▁mea	-11.5157
▁daughters	-11.5199
▁divid	-11.5207
omination	-11.5211
ox	-11.5218
ran	-11.5222
rank	-11.5225
ore	-11.5235
rice	-11.5238
▁sociolog	-11.524
▁outrun	-11.5242
hibition	-11.5248
▁laurens	-11.5255
▁unbeliev	-11.5256
sible	-11.5276
sistance	-11.5289
▁incom	-11.529
gent	-11.5317
iana	-11.5319
▁biting	-11.5326
xi	-11.5327
okie	-11.533
▁by	-11.5337
clusive	-11.5337
olds	-11.5341
▁ador	-11.5365
▁leak	-11.5366
retin	-11.5394
▁cob	-11.5405
osity	-11.5415
▁medi	-11.5421
ire	-11.5423
▁devastat	-11.5426
get	-11.5437
▁smo	-11.5438
nows	-11.544
▁pt	-11.5442
▁pains	-11.545
▁baboo	-11.5454
ork	-11.5458
▁is	-11.5484
car	-11.5486
▁not	-11.5494
▁barbe	-11.5496
lly	-11.5515
lice	-11.555
ded	-11.5556
llo	-11.5559
rad	-11.5569
iled	-11.5575
cial	-11.558
rting	-11.5585
▁zo	-11.5607
ali	-11.5615
▁earlie	-11.5617
amos	-11.5617
▁mayor	-11.5626
▁buen	-11.5627
▁needing	-11.5632
udder	-11.5658
store	-11.5662
▁vin	-11.5676
spheres	-11.5677
mer	-11.5683
not	-11.5693
▁fry	-11.5693
▁rounds	-11.5695
▁vic	-11.5712
tzer	-11.572
cker	-11.5725
tched	-11.5734
▁liberat	-11.5734
urg	-11.5746
▁hots	-11.5748
▁cooperat	-11.5748
des	-11.5751
▁ve	-11.5753
serving	-11.5774
ocatholic	-11.5775
zar	-11.5786
ronto	-11.5788
snt	-11.5792
ego	-11.5806
▁scru	-11.5807
▁nb	-11.5812
▁loan	-11.5815
▁wiggl	-11.5817
olp	-11.5823
▁fel	-11.5839
apo	-11.5841
▁bb	-11.5856
parents	-11.5858
lve	-11.5868
▁und	-11.5876
▁anybodys	-11.5883
antic	-11.5883
dest	-11.5895
rumbling	-11.5902
▁this	-11.5905
▁fr	-11.5934
▁suns	-11.5939
eya	-11.5941
▁reli	-11.5962
▁cal	-11.5983
▁lur	-11.5986
xed	-11.5993
lit	-11.5998
▁seam	-11.5998
ved	-11.6006
▁via	-11.6007
▁interact	-11.6015
▁goo	-11.6017
hmm	-11.6044
▁receiv	-11.6058
▁meetings	-11.6064
▁graduat	-11.6079
▁songs	-11.6086
lines	-11.6093
noring	-11.6095
aimed	-11.6095
▁switche	-11.6112
▁rides	-11.6112
ub	-11.6119
▁latte	-11.615
tors	-11.6157
bert	-11.616
▁dash	-11.6164
▁senses	-11.6165
arian	-11.6174
▁cons	-11.6189
▁raisin	-11.621
good	-11.6229
▁drinks	-11.6239
▁lau	-11.6241
▁cure	-11.6246
▁mic	-11.6249
paid	-11.6253
ffer	-11.6256
mmm	-11.6257
▁mini	-11.6268
arling	-11.629
▁fif	-11.6316
whil	-11.6319
onai	-11.6327
rico	-11.6347
alk	-11.6353
mentally	-11.6354
▁guid	-11.6367
wing	-11.6381
▁whip	-11.6383
▁ew	-11.6385
bit	-11.6429
▁liter	-11.6436
ement	-11.6471
▁ami	-11.6492
got	-11.6519
boom	-11.6522
▁cand	-11.6527
▁loop	-11.6528
uff	-11.653
ock	-11.654
▁flattere	-11.6555
sy	-11.6566
▁thankful	-11.6576
ats	-11.6585
iff	-11.6587
▁dwi	-11.6595
▁breather	-11.66
owling	-11.6611
▁dea	-11.6623
ttle	-11.663
epha	-11.6641
igger	-11.6642
naval	-11.6643
▁pots	-11.6655
ga	-11.6658
ration	-11.6681
ology	-11.6692
▁beats	-11.6704
▁mano	-11.6707
ations	-11.6709
▁birdie	-11.6712
covered	-11.674
▁encourag	-11.6741
wi	-11.6742
ith	-11.6748
nite	-11.6752
▁sixt	-11.6753
going	-11.6755
cakes	-11.6761
▁bum	-11.6767
bility	-11.6781
itting	-11.6794
▁comb	-11.68
▁visi	-11.68
▁adam	-11.6803
▁cud	-11.6812
lia	-11.6825
▁correspond	-11.6827
▁invest	-11.6827
iss	-11.6853
ving	-11.6867
▁mes	-11.6868
changing	-11.6869
come	-11.6871
▁damag	-11.6881
▁che	-11.6894
boy	-11.6902
uro	-11.6906
▁pessimist	-11.6907
▁hun	-11.6924
▁horr	-11.6927
gado	-11.6936
▁cuts	-11.6962
wed	-11.6969
▁bearing	-11.6978
ji	-11.6986
pelled	-11.7
ertia	-11.7007
meters	-11.701
▁irrita	-11.7011
▁pie	-11.7019
su	-11.7022
▁diver	-11.7029
new	-11.7031
bases	-11.7036
tty	-11.7057
▁nag	-11.7059
▁ordinat	-11.7066
yah	-11.7073
evious	-11.7085
▁psych	-11.7091
sterly	-11.7094
hu	-11.7099
▁shun	-11.7123
▁goner	-11.7135
eating	-11.7146
put	-11.7148
ctor	-11.715
zed	-11.7162
▁sens	-11.7166
two	-11.7167
▁loo	-11.717
act	-11.7175
▁troubles	-11.7177
▁eu	-11.7191
▁margin	-11.7194
▁sus	-11.7194
fying	-11.721
▁joys	-11.7213
care	-11.7215
ass	-11.7218
oon	-11.7228
ium	-11.7229
eologist	-11.723
chief	-11.7246
▁erase	-11.725
▁glo	-11.7251
▁observat	-11.7255
oosh	-11.7255
aaa	-11.7256
maybe	-11.7267
issing	-11.7275
lets	-11.7282
rug	-11.7286
gency	-11.7287
der	-11.729
american	-11.7291
ital	-11.7315
▁sting	-11.732
roo	-11.7322
ative	-11.7324
▁advers	-11.7325
▁poo	-11.7335
stick	-11.7345
hale	-11.7352
ction	-11.7362
▁stun	-11.7363
play	-11.7369
▁wag	-11.7374
▁occur	-11.7381
ington	-11.7391
smith	-11.7392
ong	-11.7401
point	-11.7403
▁hood	-11.7406
giving	-11.7419
appelle	-11.7429
▁photograph	-11.7429
▁consorti	-11.743
▁chau	-11.7438
own	-11.7441
▁chape	-11.7442
long	-11.7446
daisy	-11.7447
inson	-11.7448
▁stud	-11.7449
▁gord	-11.745
minute	-11.7453
order	-11.7457
matter	-11.7467
▁listens	-11.7474
rival	-11.7475
friends	-11.748
heard	-11.7483
otic	-11.7485
mount	-11.7493
told	-11.7496
test	-11.7499
break	-11.75
▁halle	-11.75
▁des	-11.7503
brook	-11.7505
▁bea	-11.7507
true	-11.7513
▁psycho	-11.7513
lement	-11.7517
folk	-11.7522
tton	-11.7525
rk	-11.7528
▁magnifi	-11.753
brother	-11.7536
four	-11.7539
dise	-11.7539
horse	-11.7543
holy	-11.7544
making	-11.7544
perfect	-11.7551
wis	-11.7557
ggly	-11.7557
ones	-11.7559
orean	-11.7563
▁vie	-11.7573
business	-11.7576
peter	-11.7576
mile	-11.7577
five	-11.7577
jah	-11.758
bottom	-11.7581
▁boon	-11.7583
▁wee	-11.7587
ikes	-11.7588
▁appro	-11.7588
hound	-11.7589
iev	-11.7592
mates	-11.7592
media	-11.7593
▁surviv	-11.7595
front	-11.7596
grade	-11.7596
lled	-11.7598
plethora	-11.76
▁refus	-11.7601
food	-11.7601
paper	-11.7602
kiss	-11.7604
finish	-11.7605
▁sampl	-11.7607
taking	-11.7607
writer	-11.7612
mark	-11.7613
charge	-11.7613
cia	-11.7614
orthodo	-11.7614
flying	-11.7615
historical	-11.7616
vinist	-11.7616
lts	-11.7616
▁craw	-11.7623
born	-11.7623
▁tribu	-11.7624
winning	-11.7627
guns	-11.7627
sky	-11.7628
foot	-11.7632
judged	-11.7633
grateful	-11.7633
▁fla	-11.7633
plane	-11.7633
ostal	-11.7636
step	-11.7638
▁rehears	-11.7639
suitable	-11.764
▁waah	-11.7641
speaking	-11.7642
grown	-11.7643
employment	-11.7643
chair	-11.7646
boats	-11.7646
needles	-11.7646
ruff	-11.7646
cup	-11.7647
▁raf	-11.7647
▁tootin	-11.7648
▁sou	-11.7648
phrase	-11.765
filled	-11.7651
▁cher	-11.7652
energy	-11.7653
zero	-11.7653
worthy	-11.7656
view	-11.7659
poles	-11.766
▁groan	-11.7664
if	-11.7664
▁forbid	-11.7666
unk	-11.7671
tiggers	-11.7673
lift	-11.7673
squeak	-11.7674
▁includ	-11.7674
cast	-11.7675
conscious	-11.7677
aware	-11.7678
graceful	-11.7678
▁intrud	-11.7685
ditionally	-11.7688
shift	-11.7694
responsible	-11.7695
presence	-11.7697
stakes	-11.7697
▁earthquake	-11.7698
▁neighbour	-11.7698
▁shadow	-11.7699
award	-11.7699
physical	-11.7699
▁barbarian	-11.7699
▁forger	-11.77
▁reservation	-11.77
related	-11.7703
phon	-11.7704
abbot	-11.7709
aching	-11.771
▁sur	-11.771
▁obstacle	-11.7711
▁pirate	-11.7713
▁eter	-11.7713
▁tactic	-11.7714
▁chum	-11.7714
▁combination	-11.7714
▁bubble	-11.7715
▁handicap	-11.7716
▁disguise	-11.7717
▁martyr	-11.7717
oodles	-11.7718
ab	-11.7718
▁mussel	-11.7719
▁devo	-11.772
▁apostle	-11.772
▁decade	-11.7721
▁critter	-11.7721
▁heretic	-11.7721
stage	-11.7722
▁bastard	-11.7722
▁muscle	-11.7722
hile	-11.7723
▁grape	-11.7725
▁preacher	-11.7727
▁scoff	-11.7729
halt	-11.773
▁contractor	-11.7734
▁tink	-11.7735
▁sch	-11.7737
orbit	-11.7738
▁mil	-11.774
▁replica	-11.774
posts	-11.7741
▁archive	-11.7741
bean	-11.7741
▁crafts	-11.7741
nik	-11.7743
▁detail	-11.7744
▁superstitio	-11.7747
▁peso	-11.7747
▁simpl	-11.7747
▁correction	-11.7749
▁circu	-11.7749
▁disa	-11.7751
ect	-11.7751
▁argo	-11.7753
▁stair	-11.7756
▁rifle	-11.7757
oid	-11.7758
bite	-11.7762
▁grumble	-11.7764
▁arti	-11.7766
ren	-11.7766
icated	-11.7768
scene	-11.7771
▁hol	-11.7774
▁manipulat	-11.7774
▁inspir	-11.7775
▁ohho	-11.7777
▁rob	-11.7781
erflow	-11.7783
▁microb	-11.7785
▁fade	-11.7787
coal	-11.7787
liberate	-11.7793
retched	-11.7796
pression	-11.7797
fell	-11.7798
▁sacrific	-11.78
bilities	-11.7801
▁issu	-11.7802
cit	-11.7804
▁recruit	-11.7805
nishing	-11.7806
▁ques	-11.7807
▁lane	-11.7807
▁creed	-11.7807
▁compute	-11.7809
▁cau	-11.7809
gree	-11.781
▁slob	-11.781
▁assum	-11.7813
joined	-11.7813
▁improv	-11.7819
▁athlete	-11.7821
▁maintain	-11.7822
▁expand	-11.7822
▁garde	-11.7823
form	-11.7824
▁promis	-11.7826
▁educate	-11.7826
▁advisor	-11.7827
▁gidd	-11.7828
▁ceremon	-11.7828
▁figur	-11.7829
▁fizz	-11.783
▁absolut	-11.7831
▁territor	-11.7831
▁spunk	-11.7832
▁trumpet	-11.7833
▁fortunate	-11.7834
▁prompt	-11.7836
▁silk	-11.7837
▁reform	-11.7837
▁luxur	-11.7839
but	-11.7839
fu	-11.784
gate	-11.784
nice	-11.7841
▁univers	-11.7842
▁whoopdedoop	-11.7843
▁potentia	-11.7843
▁destin	-11.7843
▁thirst	-11.7844
hysteric	-11.7844
▁russia	-11.7844
▁anxi	-11.7845
hing	-11.7845
▁buddhis	-11.7845
atical	-11.7846
▁enemi	-11.7846
hances	-11.7846
▁purge	-11.7846
▁celebratin	-11.7847
▁electri	-11.7847
▁troub	-11.7847
▁procla	-11.7848
▁olympi	-11.7849
▁suspende	-11.785
▁bernard	-11.785
▁constitut	-11.785
▁recommend	-11.785
opolitan	-11.785
▁tranquil	-11.785
▁pff	-11.7851
▁ridicul	-11.7851
▁motor	-11.7851
▁kidnap	-11.7851
▁favour	-11.7851
▁exec	-11.7851
▁marvel	-11.7851
harmon	-11.7852
▁chuck	-11.7852
rophe	-11.7852
subordinat	-11.7852
▁hallucinat	-11.7852
▁doofus	-11.7852
▁reluctan	-11.7852
▁subjugat	-11.7852
▁vigilan	-11.7852
australia	-11.7852
etereter	-11.7852
evaluate	-11.7852
relevant	-11.7852
surrection	-11.7852
▁aggression	-11.7852
▁alejandro	-11.7852
▁ambush	-11.7852
▁apprehend	-11.7852
▁arenivar	-11.7852
▁atmosphere	-11.7852
▁attribute	-11.7852
▁autobiography	-11.7852
▁automobile	-11.7852
▁autonom	-11.7852
▁bachelor	-11.7852
▁balcony	-11.7852
▁balderdash	-11.7852
▁bbbbut	-11.7852
▁binoculars	-11.7852
▁blanchard	-11.7852
▁blasphemy	-11.7852
▁blizzard	-11.7852
▁blueberries	-11.7852
▁bouillabaisse	-11.7852
▁butkus	-11.7852
▁capiche	-11.7852
▁catalina	-11.7852
▁chemosynthesis	-11.7852
▁chipmunk	-11.7852
▁colombia	-11.7852
▁complications	-11.7852
▁comprehend	-11.7852
▁comprende	-11.7852
▁confederacy	-11.7852
▁continents	-11.7852
▁contradict	-11.7852
▁controversial	-11.7852
▁cylinder	-11.7852
▁debacle	-11.7852
▁diminish	-11.7852
▁diphtheria	-11.7852
▁disassemble	-11.7852
▁discriminat	-11.7852
▁disneynature	-11.7852
▁doughnut	-11.7852
▁dwarf	-11.7852
▁ecstasy	-11.7852
▁ecstatic	-11.7852
▁edwina	-11.7852
▁efficient	-11.7852
▁enthusiastic	-11.7852
▁epicenter	-11.7852
▁epitaph	-11.7852
▁epithet	-11.7852
▁epitome	-11.7852
▁excusezmoi	-11.7852
▁facsimile	-11.7852
▁fermentation	-11.7852
▁firecrackers	-11.7852
▁flearidden	-11.7852
▁frenzy	-11.7852
▁frequency	-11.7852
▁ganymede	-11.7852
▁graveyard	-11.7852
▁gypsies	-11.7852
▁gypsy	-11.7852
▁halfbreed	-11.7852
▁halfdozen	-11.7852
▁handerpants	-11.7852
▁heuristic	-11.7852
▁holloway	-11.7852
▁homophobi	-11.7852
▁hydrophyte	-11.7852
▁idiosyncrasy	-11.7852
▁indomitable	-11.7852
▁ingenious	-11.7852
▁inhabitants	-11.7852
▁innocence	-11.7852
▁integrity	-11.7852
▁isidore	-11.7852
▁jahhuahua	-11.7852
▁january	-11.7852
▁jeopardy	-11.7852
▁jerusalem	-11.7852
▁khorosho	-11.7852
▁kirtle	-11.7852
▁kiteflyer	-11.7852
▁kulkan	-11.7852
▁librarian	-11.7852
▁lucifer	-11.7852
▁luggage	-11.7852
▁mahwah	-11.7852
▁malachi	-11.7852
▁mandemus	-11.7852
▁mcarthur	-11.7852
▁mechanism	-11.7852
▁methadone	-11.7852
▁millennium	-11.7852
▁mitzvah	-11.7852
▁monchius	-11.7852
▁nehru	-11.7852
▁neptune	-11.7852
▁nicotine	-11.7852
▁nightclubs	-11.7852
▁oblivio	-11.7852
▁obsolete	-11.7852
▁offlimits	-11.7852
▁oligarchy	-11.7852
▁opsimath	-11.7852
▁opsomath	-11.7852
▁oratory	-11.7852
▁parachutes	-11.7852
▁pedicure	-11.7852
▁peppermint	-11.7852
▁perpetu	-11.7852
▁peyrere	-11.7852
▁philomela	-11.7852
▁plessitora	-11.7852
▁plinkityplink	-11.7852
▁polydeuces	-11.7852
▁prestochango	-11.7852
▁prosecution	-11.7852
▁protocol	-11.7852
▁puttemans	-11.7852
▁recollect	-11.7852
▁reelected	-11.7852
▁reinforcement	-11.7852
▁relentless	-11.7852
▁rensselaer	-11.7852
▁reprocess	-11.7852
▁reproduc	-11.7852
▁repulsive	-11.7852
▁revelation	-11.7852
▁rheumatism	-11.7852
▁risotto	-11.7852
▁rolypoly	-11.7852
▁rsvp	-11.7852
▁sacrosanct	-11.7852
▁safari	-11.7852
▁saxony	-11.7852
▁scissors	-11.7852
▁scoundrel	-11.7852
▁scroung	-11.7852
▁selfdestruction	-11.7852
▁sentencing	-11.7852
▁sequence	-11.7852
▁shintoism	-11.7852
▁smuggle	-11.7852
▁snuggle	-11.7852
▁specimen	-11.7852
▁splinter	-11.7852
▁stalactites	-11.7852
▁strenuous	-11.7852
▁substitute	-11.7852
▁sufficient	-11.7852
▁suffrage	-11.7852
▁suicide	-11.7852
▁suitcases	-11.7852
▁superintendent	-11.7852
▁syndrome	-11.7852
▁technique	-11.7852
▁teilhard	-11.7852
▁thompson	-11.7852
▁timothy	-11.7852
▁tldoublegeher	-11.7852
▁treachery	-11.7852
▁trembling	-11.7852
▁trixie	-11.7852
▁turbinado	-11.7852
▁ultraviolet	-11.7852
▁umbrella	-11.7852
▁unbuckle	-11.7852
▁underestimate	-11.7852
▁understatement	-11.7852
▁unkstadder	-11.7852
▁villarosa	-11.7852
▁vocabulary	-11.7852
▁wiretap	-11.7852
▁zombies	-11.7852
resolution	-11.7852
▁airborne	-11.7852
▁argentin	-11.7852
▁cerebr	-11.7852
▁chererat	-11.7852
▁decelerat	-11.7852
▁disconnect	-11.7852
▁douay	-11.7852
▁entrepreneur	-11.7852
▁envelope	-11.7852
▁fossil	-11.7852
▁guinea	-11.7852
▁guinness	-11.7852
▁hidalgo	-11.7852
▁identification	-11.7852
▁intrigu	-11.7852
▁johann	-11.7852
▁laudation	-11.7852
▁leisure	-11.7852
▁memorial	-11.7852
▁parlour	-11.7852
▁patriot	-11.7852
▁peddler	-11.7852
▁purgatori	-11.7852
▁quarrel	-11.7852
▁rhyme	-11.7852
▁ruckus	-11.7852
▁satisfaction	-11.7852
▁sculpt	-11.7852
▁serpent	-11.7852
▁sibling	-11.7852
▁testify	-11.7852
▁toddler	-11.7852
▁trinket	-11.7852
▁unravel	-11.7852
▁utilize	-11.7852
▁voluntar	-11.7852
▁weaknesses	-11.7852
▁woodchuck	-11.7852
▁yecch	-11.7852
rrrrrrr	-11.7852
▁alleged	-11.7852
▁diagnos	-11.7852
▁latooah	-11.7852
▁lordsadler	-11.7852
▁miami	-11.7852
▁nassau	-11.7852
▁orisha	-11.7852
▁overdraft	-11.7852
▁shiloh	-11.7852
▁squabbl	-11.7852
▁tallyho	-11.7852
▁unlawful	-11.7852
▁appointed	-11.7852
▁compassion	-11.7852
▁fragile	-11.7852
▁ialalala	-11.7852
▁indignant	-11.7852
▁ornery	-11.7852
▁sardion	-11.7852
▁savvy	-11.7852
▁slaslow	-11.7852
▁antlers	-11.7852
▁clinic	-11.7852
▁disapprov	-11.7852
▁goalonger	-11.7852
▁gumball	-11.7852
▁interfere	-11.7852
▁kendall	-11.7852
▁mortimer	-11.7852
▁outfit	-11.7852
▁skeptic	-11.7852
ohohoh	-11.7852
▁companies	-11.7852
▁disgust	-11.7852
▁furthermore	-11.7852
▁buckingham	-11.7852
▁intuiti	-11.7852
▁saturated	-11.7852
▁sharecrop	-11.7852
▁sycamore	-11.7852
▁banjo	-11.7852
▁brunel	-11.7852
▁hymeneal	-11.7852
▁invoke	-11.7852
▁monument	-11.7852
▁seltzer	-11.7852
▁caribou	-11.7852
▁haveta	-11.7852
▁cucumber	-11.7852
▁noggin	-11.7852
▁tinette	-11.7852
▁butbut	-11.7852
▁participa	-11.7852
▁automatic	-11.7852
▁carsonville	-11.7852
▁categori	-11.7852
▁emptiness	-11.7852
▁exports	-11.7852
▁aimlessly	-11.7852
▁throttle	-11.7852
▁vapor	-11.7852
▁boasts	-11.7852
▁crikey	-11.7852
▁hilarious	-11.7852
▁merlot	-11.7852
sanitar	-11.7852
▁saturation	-11.7852
▁alibi	-11.7852
▁citrus	-11.7852
▁toxins	-11.7852
▁ancest	-11.7852
▁relating	-11.7852
▁shriek	-11.7852
▁astray	-11.7852
▁arrrg	-11.7852
▁senorita	-11.7852
▁shotgun	-11.7852
▁slumber	-11.7852
▁ydna	-11.7852
▁adventurous	-11.7852
▁imperial	-11.7852
▁newborns	-11.7852
▁situated	-11.7852
▁outreach	-11.7852
▁statistical	-11.7852
▁gnaw	-11.7852
▁negotiations	-11.7852
▁outnumber	-11.7852
▁counterweight	-11.7852
▁anonym	-11.7852
▁scaredycat	-11.7852
▁spinach	-11.7852
▁configuration	-11.7852
▁metallurgist	-11.7852
▁shovel	-11.7852
▁margarita	-11.7852
▁ruffians	-11.7852
▁briefcase	-11.7852
▁hollis	-11.7852
prises	-11.7852
▁context	-11.7852
▁corben	-11.7852
adequa	-11.7852
▁ordinance	-11.7852
▁celesteville	-11.7852
▁feminine	-11.7852
▁friction	-11.7852
▁quibble	-11.7852
▁percussion	-11.7852
▁emphasis	-11.7852
▁hornero	-11.7852
▁pinata	-11.7852
▁offroad	-11.7852
▁piggyback	-11.7852
▁remedy	-11.7852
▁inequ	-11.7852
▁somewhat	-11.7852
▁neighborhood	-11.7852
▁condescending	-11.7852
▁infuse	-11.7852
▁suspension	-11.7852
▁vulgar	-11.7852
▁adaptation	-11.7852
▁pathetic	-11.7852
▁allseeing	-11.7852
▁enlist	-11.7853
▁yellowstone	-11.7853
▁immune	-11.7853
▁evangeli	-11.7853
▁veloci	-11.7853
▁bejesus	-11.7853
▁carbonating	-11.7853
▁imposing	-11.7853
▁interference	-11.7853
▁novel	-11.7853
▁sarcastically	-11.7853
▁wilkins	-11.7853
▁dirksen	-11.7853
▁subconscious	-11.7853
▁tomato	-11.7853
▁whinnies	-11.7853
▁croquet	-11.7853
affir	-11.7853
▁genesis	-11.7853
▁dansons	-11.7853
▁iconic	-11.7853
▁stump	-11.7853
illsbury	-11.7853
▁titanic	-11.7853
▁yeeha	-11.7853
▁transferred	-11.7853
▁unleash	-11.7853
▁messenger	-11.7853
▁symphon	-11.7853
▁characteristic	-11.7853
▁cloak	-11.7853
▁sulf	-11.7853
▁sprinklers	-11.7853
▁immense	-11.7853
▁woild	-11.7853
▁immortal	-11.7853
▁inauguration	-11.7853
▁swift	-11.7853
▁burrow	-11.7853
▁sylv	-11.7853
▁unlucky	-11.7853
▁dominion	-11.7853
▁coincidental	-11.7853
▁rumpus	-11.7853
▁legitimate	-11.7853
▁retirement	-11.7853
▁summon	-11.7853
ritis	-11.7853
▁audac	-11.7853
▁pigeon	-11.7853
▁concoct	-11.7853
▁sulfur	-11.7853
▁arrogan	-11.7853
▁missionaries	-11.7853
▁sequel	-11.7853
▁blister	-11.7853
▁serape	-11.7853
▁compound	-11.7853
▁contemporaries	-11.7853
▁boundaries	-11.7853
▁cedar	-11.7853
▁alliance	-11.7853
▁summit	-11.7853
▁pyra	-11.7853
▁plaza	-11.7853
▁childs	-11.7853
▁schack	-11.7853
▁snapshot	-11.7853
▁underworld	-11.7853
▁rookie	-11.7853
▁invincible	-11.7853
▁overpower	-11.7853
▁hereto	-11.7853
▁tranquilizer	-11.7853
taneous	-11.7853
▁banco	-11.7853
▁neopolitan	-11.7853
▁investment	-11.7853
▁destination	-11.7853
▁flaming	-11.7853
▁caroline	-11.7853
▁gym	-11.7854
▁whatcha	-11.7854
▁jerome	-11.7854
▁motivation	-11.7854
▁recommendation	-11.7854
▁corset	-11.7854
rtalo	-11.7854
▁division	-11.7854
▁draper	-11.7854
▁grandchildren	-11.7854
▁alpha	-11.7854
▁confront	-11.7854
▁pacific	-11.7854
▁catnap	-11.7854
▁indulge	-11.7854
ficial	-11.7854
▁heleo	-11.7854
▁bernardis	-11.7854
▁inclusive	-11.7854
▁nolan	-11.7854
▁vibra	-11.7854
▁transcribe	-11.7854
▁envoy	-11.7854
▁suspenders	-11.7854
▁extenuat	-11.7854
▁stunning	-11.7854
▁stanley	-11.7854
▁polish	-11.7854
▁bonehead	-11.7854
▁croft	-11.7854
▁ballistic	-11.7854
▁slither	-11.7854
▁steward	-11.7854
▁hearteater	-11.7854
▁dogmas	-11.7854
▁hostility	-11.7855
▁teeny	-11.7855
▁dictatus	-11.7855
▁stagg	-11.7855
▁flurry	-11.7855
▁zipper	-11.7855
▁brownlee	-11.7855
▁ragtime	-11.7855
▁chords	-11.7855
▁diversion	-11.7855
▁whatthe	-11.7855
▁pranks	-11.7855
▁templeton	-11.7855
▁vegetable	-11.7855
▁compelled	-11.7855
▁dispute	-11.7855
▁mathematical	-11.7855
hodon	-11.7855
▁unimportant	-11.7855
▁errand	-11.7855
▁northeast	-11.7855
▁leavin	-11.7855
uished	-11.7855
▁immerse	-11.7855
▁soloist	-11.7855
▁affre	-11.7855
▁documentary	-11.7856
▁harpies	-11.7856
▁fishbone	-11.7856
▁poachers	-11.7856
▁auto	-11.7856
▁lowdown	-11.7856
▁mosey	-11.7856
▁unarmed	-11.7856
▁disease	-11.7856
▁reflection	-11.7856
▁lulling	-11.7856
onym	-11.7856
▁bigotry	-11.7856
▁lenses	-11.7856
quirt	-11.7856
▁unaware	-11.7856
▁volum	-11.7856
▁offside	-11.7856
▁mastermind	-11.7856
▁psychology	-11.7856
▁hostage	-11.7856
▁hamster	-11.7856
▁studies	-11.7856
▁mushroom	-11.7857
▁corpus	-11.7857
▁reopen	-11.7857
▁galile	-11.7857
▁tutor	-11.7857
▁revenue	-11.7857
▁shatter	-11.7857
▁coarse	-11.7857
▁rigging	-11.7857
▁flank	-11.7857
▁epic	-11.7857
▁bimi	-11.7857
▁livestock	-11.7857
▁theologian	-11.7857
▁perishers	-11.7858
▁delta	-11.7858
▁ramble	-11.7858
▁mongr	-11.7858
▁intentionally	-11.7858
▁roommate	-11.7858
▁distress	-11.7858
▁apologist	-11.7858
▁athen	-11.7858
▁drugged	-11.7858
▁violation	-11.7858
▁thiev	-11.7858
▁alex	-11.7858
▁pounce	-11.7858
▁righteous	-11.7858
▁buddhism	-11.7858
▁flatten	-11.7859
▁helloooo	-11.7859
rmint	-11.7859
▁frequently	-11.7859
▁lsraeli	-11.7859
▁instinctive	-11.7859
▁movin	-11.7859
▁punctu	-11.7859
▁gaze	-11.7859
▁harsh	-11.786
▁robotic	-11.786
▁soothe	-11.786
▁premise	-11.786
▁collider	-11.786
▁crosswork	-11.786
▁layout	-11.786
▁pedest	-11.786
▁rodin	-11.786
▁realistic	-11.786
▁aisle	-11.786
▁shortstop	-11.786
▁casks	-11.786
▁eruption	-11.786
▁kiddin	-11.786
▁scarier	-11.786
▁livin	-11.786
▁redhanded	-11.786
▁variation	-11.786
▁incompetent	-11.7861
▁abundant	-11.7861
▁humph	-11.7861
▁symbolism	-11.7861
▁collated	-11.7861
▁console	-11.7861
▁tibetan	-11.7861
▁riddle	-11.7861
▁jiffy	-11.7861
lebore	-11.7861
▁scowl	-11.7861
rteen	-11.7861
▁psychiatry	-11.7862
with	-11.7862
▁flour	-11.7862
▁fuzz	-11.7862
▁soaked	-11.7862
▁inevitabl	-11.7862
▁confirmation	-11.7862
▁coupon	-11.7862
▁narrow	-11.7862
▁frame	-11.7862
▁purse	-11.7862
▁grassland	-11.7862
▁bambi	-11.7862
▁pissed	-11.7862
▁cubby	-11.7863
▁icky	-11.7863
▁trophy	-11.7863
▁patrolling	-11.7863
▁campfire	-11.7863
▁motorway	-11.7863
▁finnish	-11.7863
▁convers	-11.7863
▁jeep	-11.7863
▁wrinkled	-11.7863
▁sixteenth	-11.7863
▁interval	-11.7863
▁toodles	-11.7863
▁morn	-11.7863
▁nursery	-11.7863
▁activated	-11.7863
▁manufactured	-11.7864
▁memorized	-11.7864
▁knuckle	-11.7864
▁electricity	-11.7864
▁copper	-11.7864
▁dualist	-11.7864
▁barbel	-11.7864
▁fitted	-11.7864
▁catfish	-11.7864
▁sittin	-11.7864
▁deaf	-11.7864
▁mural	-11.7864
▁travelled	-11.7864
ank	-11.7864
▁wailing	-11.7864
▁aghhh	-11.7865
▁extensive	-11.7865
▁edna	-11.7865
▁batman	-11.7865
▁panel	-11.7865
▁dismissed	-11.7865
▁trippy	-11.7865
▁courtroom	-11.7865
guay	-11.7865
▁clothesline	-11.7865
▁congratulating	-11.7866
▁sympath	-11.7866
▁wildfire	-11.7866
▁pinched	-11.7866
▁cheerio	-11.7866
▁darnel	-11.7866
▁employed	-11.7866
▁harlot	-11.7866
▁rainbow	-11.7866
venue	-11.7866
▁temptation	-11.7867
▁malice	-11.7867
▁instrumental	-11.7867
▁cameron	-11.7867
▁puddle	-11.7867
▁mimic	-11.7867
▁drag	-11.7867
▁nogood	-11.7867
▁brotherhood	-11.7867
▁clutche	-11.7867
▁narc	-11.7867
▁breakdown	-11.7868
▁hypnotist	-11.7868
▁talkative	-11.7868
▁manipulate	-11.7868
▁promptly	-11.7868
▁mouthful	-11.7868
▁crucifi	-11.7868
▁microscop	-11.7868
▁dunk	-11.7868
▁egyptian	-11.7868
▁maester	-11.7869
▁valentine	-11.7869
▁griping	-11.7869
▁swank	-11.7869
▁bonus	-11.7869
▁genuineness	-11.7869
▁pfft	-11.787
xili	-11.787
▁notebook	-11.7871
▁mineral	-11.7871
▁expressive	-11.7871
▁trespassing	-11.7871
▁overcome	-11.7871
▁truthful	-11.7871
▁cherish	-11.7871
▁inspire	-11.7871
▁priceless	-11.7871
▁damp	-11.7871
▁mmmmm	-11.7871
▁surrounding	-11.7871
▁trait	-11.7871
▁folly	-11.7871
▁judgement	-11.7872
scurry	-11.7872
▁whwhwhat	-11.7872
▁punk	-11.7872
▁afro	-11.7872
▁betcha	-11.7872
▁hypnoti	-11.7873
▁inviting	-11.7873
▁gallon	-11.7873
▁chico	-11.7873
▁partnership	-11.7874
▁freshness	-11.7874
▁pedi	-11.7874
hili	-11.7875
▁timber	-11.7875
▁highhanded	-11.7875
▁deliveries	-11.7876
▁germ	-11.7876
riety	-11.7876
ilian	-11.7876
▁thickest	-11.7876
▁cruis	-11.7876
▁supposing	-11.7877
▁whoooah	-11.7877
▁advisory	-11.7877
▁hideout	-11.7877
va	-11.7878
▁esca	-11.7878
▁disintegrated	-11.7878
▁fizzy	-11.7878
▁explorer	-11.7878
▁surprising	-11.7878
▁dip	-11.7879
▁enabl	-11.7879
▁thrive	-11.7879
dale	-11.788
▁daca	-11.788
▁rumble	-11.788
▁nicenice	-11.7881
▁playoff	-11.7882
▁sunny	-11.7882
▁ramp	-11.7882
gregation	-11.7883
▁chores	-11.7883
▁install	-11.7883
▁strategy	-11.7883
▁lyin	-11.7884
▁andre	-11.7884
collins	-11.7884
▁blotch	-11.7884
▁requirement	-11.7885
▁burps	-11.7885
actic	-11.7885
▁devour	-11.7886
▁basis	-11.7886
▁fritter	-11.7887
▁perp	-11.7887
▁asto	-11.7887
▁unpack	-11.7887
▁sizzle	-11.7887
▁suede	-11.7887
▁script	-11.7888
fisher	-11.7888
▁pshaw	-11.7888
▁elite	-11.7888
▁surpass	-11.7889
▁scatter	-11.7889
awbreaker	-11.7889
▁elderly	-11.789
▁crock	-11.789
▁strum	-11.789
▁homeschool	-11.7891
▁snout	-11.7892
▁controlling	-11.7892
▁loft	-11.7893
▁superconduct	-11.7893
▁crawling	-11.7893
▁affected	-11.7893
anc	-11.7894
▁machinery	-11.7894
▁steeper	-11.7895
▁distinction	-11.7895
▁lineup	-11.7896
▁vamps	-11.7896
▁unlikely	-11.7896
abbage	-11.7896
▁charts	-11.7896
▁relic	-11.7896
▁dislike	-11.7897
▁communicating	-11.7897
▁festival	-11.7897
▁exile	-11.7897
mental	-11.7897
▁engineering	-11.7898
▁depressed	-11.7898
▁vicar	-11.7899
lette	-11.7899
▁ticker	-11.79
▁truthfully	-11.7901
▁hotter	-11.7901
▁huntin	-11.7901
▁asp	-11.7901
▁feeders	-11.7902
▁rash	-11.7902
▁accountant	-11.7903
▁apost	-11.7903
▁oration	-11.7903
▁grooming	-11.7903
▁poems	-11.7903
▁specialty	-11.7904
▁jaws	-11.7904
▁lester	-11.7904
▁dilla	-11.7905
▁whoooaaa	-11.7905
▁contaminat	-11.7905
▁analogs	-11.7906
▁blokes	-11.7907
▁rode	-11.7907
▁eloquent	-11.7907
▁noor	-11.7908
▁thorn	-11.7908
▁chinaman	-11.7908
▁fluent	-11.7908
matic	-11.7909
▁lizards	-11.7909
▁outdoors	-11.791
▁reptiles	-11.791
▁souvenirs	-11.791
▁fragments	-11.791
▁hydraulics	-11.791
▁astrobiologists	-11.791
▁organisms	-11.791
▁badger	-11.791
▁shrine	-11.791
▁hodgki	-11.791
▁knighted	-11.791
▁editor	-11.7911
▁squish	-11.7911
▁potion	-11.7912
▁admission	-11.7912
▁fullback	-11.7912
▁agreeable	-11.7912
▁bough	-11.7913
▁processions	-11.7913
▁mod	-11.7913
▁exceed	-11.7913
▁thicker	-11.7914
precede	-11.7915
▁favorable	-11.7915
▁conditioner	-11.7915
▁defens	-11.7915
▁seismo	-11.7915
▁takin	-11.7916
▁arapa	-11.7917
▁disk	-11.7917
▁sketch	-11.7918
▁brig	-11.7918
▁consist	-11.7918
▁sexy	-11.7919
ometers	-11.7919
▁arth	-11.7921
▁bookworm	-11.7921
minded	-11.7923
▁architects	-11.7923
▁handling	-11.7924
boys	-11.7924
▁assert	-11.7924
igma	-11.7925
▁truce	-11.7926
▁allo	-11.7927
▁crusher	-11.7927
▁cheated	-11.7927
icity	-11.7927
▁peers	-11.7929
▁ridic	-11.7929
post	-11.7929
▁glued	-11.793
▁deceived	-11.793
▁hrr	-11.793
tograph	-11.793
▁toughest	-11.7931
▁perf	-11.7931
▁tuba	-11.7932
▁encountered	-11.7934
again	-11.7935
llaba	-11.7936
▁bastion	-11.7937
ti	-11.7937
▁euro	-11.7937
▁architectur	-11.7937
▁contributing	-11.7938
adron	-11.794
▁villain	-11.794
▁junction	-11.7942
▁potatoes	-11.7942
▁cookin	-11.7942
▁glint	-11.7943
▁elm	-11.7944
cipher	-11.7945
▁lodo	-11.7946
reliant	-11.7946
▁introducing	-11.7947
▁diamet	-11.7948
▁freshman	-11.7948
▁plumber	-11.7949
▁density	-11.795
▁holly	-11.7951
▁plush	-11.7951
▁mandon	-11.7952
▁utilit	-11.7953
▁heartache	-11.7954
ience	-11.7954
▁kil	-11.7954
tige	-11.7955
▁whawhat	-11.7956
▁hazard	-11.7956
▁startling	-11.7956
▁mosque	-11.7957
▁zigg	-11.7958
▁scratched	-11.7958
▁patiently	-11.7958
▁superstition	-11.7958
▁seized	-11.7959
ulge	-11.7959
eeeh	-11.7959
▁valle	-11.7959
▁hacked	-11.7959
▁admired	-11.796
ingama	-11.7961
▁whooping	-11.7961
▁logical	-11.7961
▁hurl	-11.7964
▁backwards	-11.7965
▁biz	-11.7965
▁makin	-11.7966
▁homeland	-11.7966
▁props	-11.7967
▁ceas	-11.7968
▁weaken	-11.7968
▁appo	-11.7969
▁whore	-11.7969
▁cosm	-11.7971
odore	-11.7971
▁yipe	-11.7972
▁peacefully	-11.7972
▁campus	-11.7973
▁buns	-11.7974
▁oww	-11.7976
▁commandment	-11.7978
▁possessed	-11.7978
▁seren	-11.798
▁wate	-11.7981
▁riff	-11.7982
▁stephan	-11.7983
entice	-11.7983
▁sim	-11.7984
▁collective	-11.7985
▁load	-11.7986
▁beatle	-11.7986
▁lug	-11.7986
▁classmate	-11.7986
▁ronaldo	-11.7987
▁wearin	-11.7988
▁jenn	-11.7989
▁regress	-11.7989
tor	-11.799
▁sneaky	-11.7991
▁tempera	-11.7991
▁handicapp	-11.7992
▁fades	-11.7992
▁gopher	-11.7992
hoohoohoo	-11.7992
▁grapes	-11.7993
woods	-11.7993
▁creeds	-11.7994
▁committ	-11.7996
▁mound	-11.7997
eo	-11.7997
▁lifted	-11.7998
mation	-11.7998
▁smashed	-11.7998
▁chewed	-11.7999
zzi	-11.8
stack	-11.8001
▁coral	-11.8001
▁frost	-11.8002
▁tactics	-11.8003
▁atro	-11.8003
▁swinger	-11.8005
▁ticked	-11.8005
aries	-11.8006
▁reservations	-11.8006
voy	-11.8007
▁measured	-11.8007
▁shadows	-11.8008
▁dominat	-11.8008
▁neighbours	-11.8008
▁barbarians	-11.8008
▁earthquakes	-11.8008
▁morale	-11.8009
▁defined	-11.801
▁ohhhh	-11.8011
▁ails	-11.8011
▁loco	-11.8011
that	-11.8011
▁everyday	-11.8012
mpy	-11.8013
▁dora	-11.8013
▁preachers	-11.8014
▁sprint	-11.8017
▁bums	-11.8017
▁hardship	-11.8018
huckle	-11.8019
▁jimo	-11.8019
ency	-11.8019
yself	-11.802
▁brine	-11.802
▁intruder	-11.8021
▁developing	-11.8022
▁pear	-11.8022
▁glamor	-11.8022
▁drawn	-11.8024
▁repitch	-11.8027
▁barge	-11.8027
▁grumbles	-11.8028
▁dece	-11.8028
▁forbids	-11.803
▁silenced	-11.803
▁ruth	-11.803
▁fray	-11.803
▁dips	-11.8032
▁ruler	-11.8032
▁explorers	-11.8032
▁transporting	-11.8033
▁elliott	-11.8034
umbs	-11.8035
▁initiat	-11.8035
ingly	-11.8038
dispens	-11.8039
polo	-11.804
▁idol	-11.8041
▁onehanded	-11.8041
▁hugest	-11.8042
▁leone	-11.8042
▁howllo	-11.8043
▁toad	-11.8044
▁paulo	-11.8044
▁sucking	-11.8045
▁cabo	-11.8046
▁rewarded	-11.8046
▁demons	-11.8046
▁twin	-11.8047
▁tele	-11.8047
▁steam	-11.8047
▁barrow	-11.805
▁rehearse	-11.805
▁strengthen	-11.805
▁forgers	-11.8053
▁marvelously	-11.8054
seeing	-11.8054
perw	-11.8054
▁bonding	-11.8056
▁commoner	-11.8056
▁sinner	-11.8056
▁braid	-11.8057
▁conscious	-11.8058
▁failed	-11.8058
▁crawl	-11.8061
▁mich	-11.8061
shot	-11.8061
▁putty	-11.8062
▁sprain	-11.8064
▁torts	-11.8064
upi	-11.8064
▁bumps	-11.8065
oxid	-11.8065
▁aand	-11.8066
▁evilest	-11.8066
▁env	-11.8069
▁alarming	-11.8072
ietta	-11.8072
ig	-11.8072
▁publishing	-11.8074
▁sirens	-11.8076
▁gown	-11.8077
▁sinew	-11.8079
severance	-11.8079
oofy	-11.8085
ttoo	-11.8088
▁photographer	-11.8088
cats	-11.8089
▁competed	-11.809
▁kite	-11.809
▁steak	-11.8093
▁reap	-11.8094
▁sheets	-11.8094
▁orthodo	-11.8095
▁advanced	-11.8095
▁pret	-11.8098
▁tramp	-11.81
▁yelled	-11.8102
▁furnish	-11.8102
▁pertain	-11.8107
▁marsh	-11.8108
representation	-11.8108
▁lannisters	-11.8109
▁writ	-11.8109
▁scann	-11.8109
▁conservatives	-11.8109
▁equations	-11.8109
▁furnaces	-11.811
▁italians	-11.811
▁ribbons	-11.811
▁tamp	-11.8111
▁bach	-11.8112
▁decima	-11.8112
upon	-11.8113
▁obed	-11.8113
▁menu	-11.8114
▁coals	-11.8114
▁traveled	-11.8115
▁nike	-11.8115
▁plots	-11.8116
▁reserved	-11.812
▁hooked	-11.8123
▁hangin	-11.8125
uddy	-11.8125
▁exp	-11.8125
▁delivered	-11.8128
▁forgiven	-11.8128
▁builder	-11.8129
▁launching	-11.813
your	-11.8133
▁collecting	-11.8139
istress	-11.8139
▁painte	-11.8142
▁tags	-11.8143
▁falsely	-11.8143
rina	-11.8145
▁failing	-11.8147
▁wheez	-11.8147
ulous	-11.8147
unci	-11.815
▁workouts	-11.8157
▁loudly	-11.8158
▁blinded	-11.8158
▁curl	-11.8159
▁jabber	-11.8166
▁countrys	-11.817
titude	-11.8171
▁worms	-11.8174
▁pressured	-11.8177
▁mashed	-11.8179
▁neuro	-11.818
▁dome	-11.818
▁desired	-11.818
▁pickin	-11.8184
▁guarding	-11.8187
▁bridget	-11.8189
▁jets	-11.819
▁dresses	-11.8191
▁alienate	-11.8194
bel	-11.8198
▁insure	-11.8199
ctus	-11.8201
ographer	-11.8203
▁fidal	-11.8203
ined	-11.8205
nnab	-11.8207
▁barrels	-11.8207
▁mischie	-11.8208
▁messes	-11.8209
▁aliens	-11.8209
▁cocktails	-11.821
▁economics	-11.821
▁predictions	-11.8212
▁amm	-11.8212
▁accelerators	-11.8212
▁chime	-11.8212
▁translations	-11.8213
▁cycle	-11.8213
▁suited	-11.8215
▁arse	-11.8219
ipping	-11.822
▁contra	-11.8221
▁slee	-11.8222
▁helpless	-11.8223
▁caban	-11.8223
▁handfu	-11.8224
▁picket	-11.8224
mmit	-11.8228
vi	-11.8229
▁reel	-11.8231
▁dignit	-11.8234
set	-11.8234
▁fairly	-11.8236
▁esta	-11.8236
▁prom	-11.8236
essive	-11.8239
rv	-11.8246
▁mite	-11.8247
▁highp	-11.8248
ugging	-11.825
nu	-11.8253
▁touchy	-11.8253
▁sweeping	-11.8254
▁softy	-11.8255
▁ddo	-11.8256
▁dist	-11.8257
▁sighting	-11.8259
ignat	-11.8264
▁factors	-11.8265
ware	-11.8271
▁icon	-11.8271
▁gable	-11.8272
▁hired	-11.8277
mpered	-11.8279
▁terrif	-11.8281
▁roy	-11.8285
netenth	-11.8287
▁greene	-11.8294
▁scribes	-11.8296
trapping	-11.8297
rill	-11.8298
▁phon	-11.83
▁glassy	-11.8301
▁ovens	-11.8303
▁why	-11.8304
▁orde	-11.8306
▁creeps	-11.8307
▁folds	-11.8307
illar	-11.8308
▁rearrang	-11.8308
▁streams	-11.8309
▁customs	-11.8311
yca	-11.8311
▁columns	-11.8312
entities	-11.8312
ado	-11.8312
pm	-11.8313
▁penguins	-11.8313
▁gunshots	-11.8314
▁landscapes	-11.8314
▁manicheans	-11.8314
▁arguments	-11.8314
▁regime	-11.8315
▁ankles	-11.8315
▁rod	-11.8319
▁marines	-11.832
▁contains	-11.8322
six	-11.8324
▁obs	-11.8326
don	-11.8327
izzle	-11.8327
▁bio	-11.8328
▁prayed	-11.8328
▁wilder	-11.8331
▁preten	-11.8331
▁forestall	-11.8331
▁focusing	-11.8331
ger	-11.8332
▁shackle	-11.8333
chola	-11.8333
▁amp	-11.8333
lux	-11.8333
iffle	-11.8334
▁bever	-11.8334
▁askin	-11.8336
collector	-11.8342
▁responds	-11.8345
▁chiefly	-11.8348
▁eyel	-11.835
sto	-11.8353
terdam	-11.8356
▁bravely	-11.8357
▁hearse	-11.836
▁revis	-11.8363
▁verac	-11.8364
ateau	-11.8365
▁spatter	-11.8366
▁kik	-11.8367
▁poon	-11.8367
▁glob	-11.8368
advert	-11.837
▁consort	-11.8373
ook	-11.8373
▁cou	-11.8373
▁wits	-11.8375
▁bud	-11.8375
▁sucks	-11.8377
▁shush	-11.8378
▁eatin	-11.838
▁annoys	-11.8383
▁bends	-11.8384
eemed	-11.8387
▁writer	-11.8391
ndle	-11.8391
shell	-11.8392
▁printer	-11.8405
▁presently	-11.8408
▁syno	-11.8409
ergen	-11.841
▁playin	-11.8411
orted	-11.8411
▁hick	-11.8412
▁mexicans	-11.8414
▁lasers	-11.8414
▁kal	-11.8416
be	-11.8416
▁abortions	-11.8417
rt	-11.8418
▁symbolis	-11.8419
isto	-11.8432
edup	-11.8432
▁shared	-11.8434
nore	-11.8435
▁leon	-11.8441
▁blooms	-11.8445
mic	-11.8449
▁sued	-11.845
▁jah	-11.8453
▁sum	-11.8454
▁ji	-11.8462
▁fondle	-11.8463
▁moonshiner	-11.8463
▁cringe	-11.8466
▁mee	-11.8469
▁oozin	-11.8472
▁corp	-11.848
▁rolled	-11.849
▁tunes	-11.8498
mulate	-11.8502
toro	-11.8505
met	-11.8506
phi	-11.8508
tle	-11.8511
itching	-11.8512
racu	-11.8517
▁compress	-11.8517
▁appearances	-11.8517
ucks	-11.8518
▁collat	-11.8518
pri	-11.8519
▁pala	-11.852
dly	-11.8523
▁sneezes	-11.8523
pipe	-11.8527
▁commanded	-11.8533
▁neutral	-11.8534
lusion	-11.8538
▁gl	-11.8541
▁meta	-11.8545
▁chains	-11.8548
jee	-11.855
luckiest	-11.8552
▁marginali	-11.8559
arity	-11.856
▁rega	-11.856
▁aval	-11.8565
▁businesses	-11.8566
scribed	-11.8567
▁offens	-11.8567
▁aims	-11.8568
ggie	-11.857
▁goodbyes	-11.8573
▁developer	-11.8573
▁sinks	-11.8574
uffs	-11.8585
agic	-11.859
▁moren	-11.859
sm	-11.8591
▁clap	-11.8592
▁kenne	-11.8598
uru	-11.8599
▁slurps	-11.8602
▁mack	-11.8602
ancho	-11.8611
▁bishops	-11.8615
▁celebrit	-11.8616
fed	-11.8622
▁deserts	-11.8622
▁romeo	-11.8623
dinari	-11.8625
elus	-11.8626
bies	-11.8634
▁mightve	-11.8638
▁trounc	-11.8639
ex	-11.8645
▁chica	-11.8647
▁micro	-11.865
▁wires	-11.865
▁repeating	-11.8654
▁callin	-11.8657
▁fates	-11.8659
vis	-11.8663
final	-11.8664
float	-11.8665
▁skit	-11.8666
▁beeh	-11.8667
▁rays	-11.8668
iece	-11.8673
▁poles	-11.8674
ava	-11.8677
▁moron	-11.8679
▁prickl	-11.8683
▁ki	-11.8684
▁operates	-11.8685
bringing	-11.8687
▁mutin	-11.8688
▁gopa	-11.869
rous	-11.8695
navy	-11.87
ix	-11.8702
▁academics	-11.8704
eebie	-11.8706
▁bog	-11.8713
▁pasta	-11.872
▁lachmans	-11.8723
▁stingrays	-11.8724
zi	-11.8724
▁shades	-11.8725
▁commissioner	-11.8725
rotte	-11.8726
▁mc	-11.8734
▁bowls	-11.8734
▁distillers	-11.8737
bbed	-11.8738
eh	-11.8748
▁plead	-11.875
▁stakes	-11.8751
▁stunt	-11.8752
▁ration	-11.8762
▁dia	-11.8763
nip	-11.8763
▁awards	-11.8763
uce	-11.8763
▁seminar	-11.8773
▁ahm	-11.8775
▁lit	-11.8776
ards	-11.878
ahahh	-11.8782
▁crud	-11.8783
▁hhe	-11.8783
▁pluck	-11.879
wire	-11.8795
▁linger	-11.8795
▁cent	-11.8795
monad	-11.88
air	-11.8801
terior	-11.8807
▁garc	-11.8811
descent	-11.8814
▁phoned	-11.8819
▁chin	-11.8821
▁joker	-11.8825
▁kingdoms	-11.8825
▁hehe	-11.8826
▁hypocrit	-11.8829
kins	-11.8833
atch	-11.8838
▁courting	-11.8841
▁decay	-11.8842
▁flea	-11.8843
▁pul	-11.8845
sions	-11.8848
▁cultures	-11.8866
▁pained	-11.8867
ampa	-11.8874
▁quarte	-11.8877
aboo	-11.8878
▁vel	-11.8878
▁brook	-11.8879
▁did	-11.8882
▁professionals	-11.889
cant	-11.8892
▁vat	-11.8901
arnett	-11.8905
▁irritat	-11.8907
▁maine	-11.8913
lling	-11.8921
▁res	-11.8923
▁treasures	-11.8929
▁dissen	-11.8929
nowi	-11.894
▁slapp	-11.8946
▁dom	-11.8954
▁brick	-11.8959
rows	-11.8964
▁siren	-11.8974
▁serves	-11.8979
▁sights	-11.8984
▁killers	-11.8992
▁oop	-11.9003
tions	-11.9005
ety	-11.9007
▁intensi	-11.9008
▁imagin	-11.901
ky	-11.9017
▁flopp	-11.9018
eracy	-11.9019
invested	-11.902
▁braves	-11.9039
nda	-11.904
▁misuse	-11.9051
▁av	-11.9055
▁disorganiz	-11.9055
usher	-11.9064
▁rocky	-11.9064
itors	-11.9068
▁sorta	-11.9071
lated	-11.9071
▁sane	-11.9073
ature	-11.9077
▁engineer	-11.9078
▁firstest	-11.9079
ered	-11.9079
▁experts	-11.908
sie	-11.9084
▁basti	-11.9089
▁closely	-11.9096
▁births	-11.9106
▁civiliz	-11.9107
▁ttf	-11.9117
adian	-11.9119
holder	-11.9126
▁trimm	-11.9134
▁destinys	-11.9134
▁exer	-11.9138
▁snows	-11.9145
▁generate	-11.9146
▁europeans	-11.9146
▁roost	-11.9148
ngers	-11.9157
▁www	-11.9158
▁feat	-11.9169
▁hips	-11.917
▁dated	-11.9173
ume	-11.9178
arming	-11.918
▁africans	-11.9193
ni	-11.9197
▁melt	-11.9205
▁imaginat	-11.9207
▁holder	-11.9213
ere	-11.9223
pp	-11.9233
▁bounder	-11.9236
parent	-11.9238
iastic	-11.9241
sco	-11.9242
▁fre	-11.9245
▁dicki	-11.9247
▁crimes	-11.9247
nted	-11.9248
▁liest	-11.9253
▁chu	-11.9256
▁strengths	-11.926
▁theolog	-11.9261
▁humbl	-11.9271
load	-11.9273
capped	-11.9276
▁simm	-11.9284
stone	-11.9299
licious	-11.9313
mmy	-11.9324
hi	-11.933
▁munch	-11.933
▁russians	-11.9344
pose	-11.9345
▁dedicat	-11.9346
▁mondays	-11.9347
▁tard	-11.9349
unned	-11.9354
▁hospitals	-11.9355
▁uno	-11.9358
▁weave	-11.9363
▁jon	-11.9368
▁newm	-11.9379
▁ric	-11.9393
▁moonli	-11.9396
▁solo	-11.9397
▁hover	-11.94
fer	-11.9401
▁wayne	-11.9407
tics	-11.9412
▁sling	-11.9414
▁romanis	-11.9417
nson	-11.9423
ighters	-11.9423
▁vis	-11.9428
▁truffle	-11.9432
affy	-11.9438
turn	-11.9442
▁governors	-11.9446
ipped	-11.9451
erfe	-11.9471
orn	-11.9472
iety	-11.9472
▁partly	-11.9484
wich	-11.9508
▁aren	-11.951
▁vega	-11.9515
▁eag	-11.9516
▁reek	-11.9519
▁ala	-11.9519
▁eee	-11.9525
dor	-11.9531
ollow	-11.954
ntended	-11.9546
porated	-11.9547
▁naive	-11.9559
▁admir	-11.956
hopper	-11.9564
reaking	-11.9571
word	-11.9571
ris	-11.9578
give	-11.9579
ade	-11.958
▁occasional	-11.9585
▁sorted	-11.9594
▁concur	-11.9597
ich	-11.96
▁doubles	-11.9614
▁endur	-11.9621
escent	-11.9625
ments	-11.9645
▁atti	-11.9649
burn	-11.965
▁themes	-11.9657
▁borders	-11.9662
▁characters	-11.9662
▁stared	-11.9663
▁ter	-11.9666
▁swe	-11.968
inch	-11.9693
▁lockers	-11.9695
▁systematic	-11.9696
▁spi	-11.9697
mans	-11.9697
▁pips	-11.9698
▁rein	-11.9701
▁pant	-11.9709
▁mayo	-11.9712
▁locks	-11.9718
▁diet	-11.972
▁ref	-11.9747
▁listener	-11.975
mine	-11.976
ials	-11.9763
▁pas	-11.9775
tant	-11.9779
▁disrespect	-11.9785
vival	-11.979
kerous	-11.9793
▁ic	-11.9796
▁snob	-11.9797
▁loy	-11.9803
alleys	-11.9806
rant	-11.9807
▁dent	-11.9812
due	-11.9817
▁deer	-11.9817
ripping	-11.9817
lipp	-11.9817
oise	-11.9829
rive	-11.9846
▁fits	-11.9851
uri	-11.9862
sha	-11.9865
▁fishy	-11.9877
attan	-11.9879
ijan	-11.9881
▁incor	-11.9894
raw	-11.9896
ru	-11.991
▁camel	-11.9923
▁keen	-11.9928
▁pha	-11.9938
elves	-11.994
tro	-11.995
▁tes	-11.9954
table	-11.9954
▁broo	-11.9955
▁sayin	-11.996
▁muddl	-11.9966
airy	-11.9991
mitten	-12.0005
▁jac	-12.0012
▁tum	-12.0013
▁reduc	-12.0016
▁hav	-12.0028
▁pockets	-12.0029
▁swings	-12.005
calorie	-12.0064
▁explod	-12.0085
pies	-12.0098
▁host	-12.01
▁questioning	-12.0111
▁rents	-12.0115
rivi	-12.0123
▁tri	-12.0132
rel	-12.0134
▁gifts	-12.0147
▁tar	-12.0166
mat	-12.0167
▁capitaliz	-12.0178
▁laur	-12.0178
▁upp	-12.0185
▁dens	-12.0188
mon	-12.0188
▁officers	-12.0193
lan	-12.0205
romance	-12.0216
arley	-12.0218
taker	-12.0226
▁fasten	-12.0233
▁expos	-12.0233
▁oer	-12.0274
▁formula	-12.031
▁will	-12.0318
▁ahhhhhhhhhh	-12.0327
mond	-12.0355
ttles	-12.0365
▁eng	-12.0366
▁favorites	-12.0372
▁fascinate	-12.0373
▁mint	-12.0374
lee	-12.0385
▁hath	-12.0389
rdon	-12.0394
▁ohoh	-12.0398
▁voi	-12.0404
axe	-12.041
▁desp	-12.0412
▁injure	-12.0422
▁barr	-12.0427
some	-12.0433
▁vit	-12.0437
iga	-12.0447
cky	-12.0453
conceive	-12.0457
chu	-12.046
references	-12.0472
ctive	-12.0491
ndled	-12.0496
▁oo	-12.0503
erbil	-12.0508
tz	-12.0512
▁ag	-12.0545
▁humb	-12.0548
using	-12.0549
▁momo	-12.0565
▁violen	-12.0566
▁glows	-12.0568
▁missions	-12.0575
▁johnsons	-12.0582
▁courts	-12.0589
urity	-12.059
▁elevat	-12.059
press	-12.0619
▁archie	-12.0619
▁operat	-12.0628
ght	-12.0629
▁scuff	-12.0632
heart	-12.0638
▁hydr	-12.0642
aris	-12.0642
▁agrees	-12.0664
rung	-12.0664
▁twit	-12.0674
▁cos	-12.0707
▁rece	-12.0709
▁appl	-12.0711
dial	-12.0719
▁unpa	-12.0723
▁padd	-12.074
▁eccle	-12.0748
▁humane	-12.0754
ndment	-12.0759
gled	-12.0783
person	-12.079
zag	-12.0801
▁sc	-12.0804
ua	-12.0804
▁rec	-12.0808
▁pasa	-12.0813
▁tastes	-12.0814
pla	-12.0818
▁gent	-12.0823
▁alb	-12.0828
ntly	-12.0843
▁roads	-12.0848
maiden	-12.0868
▁happi	-12.0877
wee	-12.0886
rlock	-12.0889
▁hypo	-12.0889
itated	-12.0893
▁godd	-12.0894
▁substan	-12.0897
love	-12.0909
▁arro	-12.0912
etty	-12.092
zer	-12.092
▁apologiz	-12.0927
▁edit	-12.0931
mmed	-12.094
▁opportun	-12.0946
▁baker	-12.0958
▁stretche	-12.0963
▁nether	-12.0964
▁bid	-12.0975
▁stare	-12.0982
use	-12.0987
▁martini	-12.0988
▁tre	-12.0992
▁pill	-12.0996
omber	-12.0998
▁wastin	-12.1009
▁goods	-12.1028
▁eva	-12.1033
code	-12.104
▁biologist	-12.1044
▁teache	-12.1048
▁mytholog	-12.105
▁nomina	-12.1062
eback	-12.1063
▁gib	-12.1074
run	-12.1078
acket	-12.1079
▁respectful	-12.1088
erely	-12.1094
eft	-12.1106
▁thinkin	-12.1112
▁bamb	-12.112
▁sphere	-12.1125
yyou	-12.1128
▁sol	-12.1129
▁floren	-12.1129
▁steals	-12.1136
▁calculate	-12.1138
▁tiggerifi	-12.114
▁observ	-12.1144
comb	-12.1147
ater	-12.1153
▁dun	-12.116
▁avi	-12.1178
▁tol	-12.1179
iness	-12.1179
▁preserv	-12.1215
▁decree	-12.1215
▁nico	-12.125
▁interna	-12.1251
▁practise	-12.1253
▁realizes	-12.1256
▁neutralize	-12.126
rite	-12.1271
▁goals	-12.1273
ural	-12.1285
▁popp	-12.1295
▁rival	-12.1318
ates	-12.1332
▁pause	-12.1334
rmed	-12.1337
▁exhibit	-12.1344
▁hyp	-12.1344
▁tracker	-12.1355
elf	-12.1366
psided	-12.1382
endez	-12.139
tha	-12.1395
sters	-12.1401
och	-12.1406
arack	-12.1408
▁sti	-12.1413
ovey	-12.1415
rapped	-12.142
▁houses	-12.1422
armed	-12.1425
kin	-12.1433
▁anticipate	-12.1442
▁nic	-12.1452
rish	-12.1458
▁beard	-12.1459
ulate	-12.1462
bell	-12.1471
▁retire	-12.1476
▁auntie	-12.1479
acked	-12.148
pressurize	-12.1499
dge	-12.1505
urance	-12.1509
▁supremacis	-12.1511
▁hype	-12.1543
urr	-12.1546
▁dictate	-12.1546
agn	-12.1555
nity	-12.156
vian	-12.1562
deli	-12.1594
erv	-12.1602
ories	-12.1602
fl	-12.1621
▁kerr	-12.1623
▁quits	-12.1641
ttata	-12.1643
ccent	-12.1665
▁missy	-12.1673
▁unha	-12.1674
▁clar	-12.168
aki	-12.168
quel	-12.169
ering	-12.1699
▁smoker	-12.17
▁featur	-12.1701
▁penetrat	-12.1703
ito	-12.1711
▁juggle	-12.1716
▁butl	-12.1776
▁juggl	-12.1778
actions	-12.1782
din	-12.1793
erated	-12.1798
citing	-12.18
elli	-12.1805
▁spar	-12.1817
▁handing	-12.183
urgeon	-12.1835
▁heath	-12.1838
▁chil	-12.1839
▁cre	-12.1842
▁pressur	-12.1845
how	-12.1847
cell	-12.1851
▁inha	-12.1854
▁poet	-12.1863
▁dictat	-12.1882
▁sync	-12.1892
sas	-12.1916
agan	-12.1922
▁fours	-12.1936
▁stu	-12.1955
cken	-12.1978
▁conv	-12.1984
damaged	-12.1986
enators	-12.1992
▁anticipat	-12.1995
lock	-12.2007
▁plac	-12.201
ep	-12.2015
▁hammer	-12.2024
▁orchestras	-12.2039
▁burp	-12.2046
▁blacked	-12.2055
urre	-12.2066
▁creativ	-12.2071
▁barbar	-12.2072
▁ignor	-12.2079
ality	-12.2099
vide	-12.2099
nish	-12.211
alla	-12.2126
▁harl	-12.2128
eque	-12.2133
soir	-12.2134
▁puss	-12.2134
bet	-12.2149
▁energ	-12.2167
▁lett	-12.2169
▁conve	-12.2183
lie	-12.2196
ilation	-12.2198
flops	-12.2219
▁rese	-12.2221
ok	-12.223
▁med	-12.2249
▁overs	-12.2264
ost	-12.2265
bogg	-12.2282
ising	-12.2293
▁aa	-12.23
▁smiths	-12.2303
bum	-12.2313
▁stat	-12.2317
lim	-12.2319
rang	-12.2351
utie	-12.2366
▁fac	-12.2394
▁elde	-12.2398
▁cad	-12.2398
▁decre	-12.2404
elimina	-12.2439
▁trains	-12.2443
ssies	-12.245
▁stra	-12.2465
▁hallow	-12.2472
tes	-12.2473
pl	-12.2479
matt	-12.2499
tains	-12.2503
stocked	-12.2504
▁wy	-12.2512
▁scri	-12.2534
▁atta	-12.2554
▁grub	-12.2556
▁stri	-12.256
▁blues	-12.2569
▁yorker	-12.2584
▁schem	-12.2595
uring	-12.2598
▁clothe	-12.2615
▁waaaaa	-12.2621
▁sociali	-12.2623
corporate	-12.2625
▁finisher	-12.2627
▁layer	-12.2631
nization	-12.2634
▁calculat	-12.265
▁retir	-12.265
▁glor	-12.2656
blime	-12.2656
po	-12.2656
▁chur	-12.2661
los	-12.2668
▁lands	-12.2678
tting	-12.269
ench	-12.2715
▁som	-12.2733
▁seth	-12.2747
shed	-12.2755
▁pudd	-12.2762
▁insta	-12.2771
▁backed	-12.2781
▁eccl	-12.2782
▁neutraliz	-12.2789
▁conse	-12.2796
bron	-12.2814
▁listened	-12.2822
linch	-12.2835
▁spic	-12.2837
▁clo	-12.2852
doodles	-12.2852
ingle	-12.2864
wards	-12.2872
▁equip	-12.2874
bur	-12.2881
▁verm	-12.2887
▁tab	-12.2892
nken	-12.2903
hard	-12.2943
▁purit	-12.2962
▁pontif	-12.2975
home	-12.2985
▁canc	-12.2989
fort	-12.2998
disturbed	-12.3003
tas	-12.3016
rig	-12.3026
▁bre	-12.3034
▁tilt	-12.3043
gen	-12.3049
ars	-12.3052
ignifi	-12.3066
▁lump	-12.3092
▁conc	-12.3099
▁mer	-12.3105
enna	-12.3119
bag	-12.3127
▁humiliate	-12.3155
nam	-12.3164
▁carve	-12.3166
▁him	-12.3169
position	-12.3172
sted	-12.3173
▁reference	-12.3177
▁separat	-12.3187
▁expects	-12.319
metri	-12.3201
▁stalk	-12.3211
eological	-12.3213
hee	-12.3229
stic	-12.3232
▁authenticat	-12.3246
▁inva	-12.3254
▁aff	-12.3256
▁negotiat	-12.3263
▁quo	-12.3267
hhh	-12.3281
ears	-12.3293
practic	-12.3317
utter	-12.3325
vine	-12.333
ville	-12.3332
gg	-12.3341
▁stepp	-12.3344
mate	-12.3346
▁funnie	-12.3346
▁timeout	-12.3364
see	-12.3375
▁seed	-12.3376
dont	-12.3384
war	-12.3396
▁dynam	-12.341
▁regulat	-12.3416
hhhhhhhhhh	-12.3421
versity	-12.3448
▁pond	-12.3452
▁pon	-12.3461
yl	-12.3479
ii	-12.35
▁dev	-12.35
▁psychologi	-12.3523
▁jeopardiz	-12.3551
auss	-12.3563
mit	-12.3564
▁assembl	-12.3569
ends	-12.3581
understood	-12.3586
▁zu	-12.3602
udg	-12.3622
teenth	-12.3623
▁mel	-12.3624
lead	-12.3627
sen	-12.3635
▁gree	-12.3646
sure	-12.365
▁robb	-12.3653
▁publishe	-12.3659
lighten	-12.3662
▁tortur	-12.3679
▁tickl	-12.3712
▁now	-12.3713
zzle	-12.3721
che	-12.3725
ios	-12.3729
utters	-12.373
theart	-12.373
ilia	-12.3739
umb	-12.3762
anal	-12.3776
▁psyche	-12.3794
▁dam	-12.3802
rfeit	-12.3807
▁ou	-12.3812
ach	-12.3822
erie	-12.3835
cho	-12.3842
azz	-12.3847
nine	-12.3849
fred	-12.3851
rot	-12.3858
bri	-12.3876
▁locke	-12.3878
▁revers	-12.3917
ced	-12.3918
appy	-12.3921
▁compel	-12.3921
ethe	-12.3923
▁wha	-12.3951
leagues	-12.3954
▁influ	-12.3972
aps	-12.3993
▁bru	-12.4014
▁domin	-12.4027
▁archi	-12.4032
▁bapti	-12.4053
vamos	-12.4058
▁rug	-12.4058
youre	-12.4073
cated	-12.408
eeding	-12.409
▁hil	-12.4114
iding	-12.4117
▁hypot	-12.4119
impleton	-12.4119
times	-12.4125
▁are	-12.4132
▁statesman	-12.4133
▁integrat	-12.414
▁injur	-12.4149
▁bun	-12.4168
ldenses	-12.4172
ator	-12.4227
noc	-12.4243
▁bauble	-12.4246
aul	-12.4255
ynch	-12.4274
ilman	-12.4294
ashed	-12.4311
ail	-12.4326
▁conceiv	-12.4335
sity	-12.4337
sso	-12.4344
▁wrestl	-12.4356
uddling	-12.4358
mitted	-12.4381
▁wigg	-12.4383
▁flo	-12.4393
are	-12.4408
used	-12.4409
▁inqui	-12.4414
wease	-12.4416
gra	-12.4417
▁downs	-12.4445
iggy	-12.4451
ff	-12.4452
▁lous	-12.4454
llian	-12.4465
oked	-12.4465
▁seas	-12.4472
▁kee	-12.4474
▁certif	-12.4478
gre	-12.4489
now	-12.4503
inland	-12.4507
zz	-12.4521
udge	-12.4525
▁phenomen	-12.4543
rked	-12.4547
▁skippe	-12.4563
▁adore	-12.457
▁disintegrat	-12.4599
▁ion	-12.4606
oy	-12.4608
kaboo	-12.4609
tackin	-12.4613
crat	-12.4615
itty	-12.4634
▁specializ	-12.4644
▁slur	-12.4654
lted	-12.4671
yeah	-12.4672
rbit	-12.4682
▁wifes	-12.4706
▁ahah	-12.4708
atically	-12.4733
▁corr	-12.4736
ulations	-12.4747
tock	-12.4759
del	-12.4769
claimed	-12.4778
▁ban	-12.4779
▁stem	-12.478
lasses	-12.4783
▁jew	-12.4794
gr	-12.4809
ries	-12.4821
▁fam	-12.4825
iller	-12.4843
▁habitat	-12.4854
▁distribute	-12.4871
mage	-12.4872
av	-12.489
ddle	-12.4899
▁vac	-12.4899
andy	-12.4899
fest	-12.4902
mor	-12.4913
ouse	-12.4925
bout	-12.4935
▁bec	-12.4952
wel	-12.4971
ales	-12.4972
eti	-12.4979
umped	-12.4981
lash	-12.4982
last	-12.4992
▁rely	-12.4998
▁nee	-12.4999
atro	-12.5009
azin	-12.5011
▁colo	-12.5012
apping	-12.5018
chard	-12.5027
icate	-12.5028
ret	-12.5077
lame	-12.5079
bone	-12.5087
▁rebel	-12.5088
rative	-12.515
▁ragt	-12.5157
nual	-12.5164
akers	-12.5212
▁wit	-12.522
▁grat	-12.525
▁admira	-12.5251
▁experienc	-12.5255
▁johns	-12.5267
▁justif	-12.5276
▁evils	-12.5279
mi	-12.5285
ugged	-12.5286
ovi	-12.5292
gos	-12.5297
▁braver	-12.5299
moving	-12.5304
heque	-12.5308
▁canni	-12.5325
▁technolog	-12.5331
nes	-12.5336
▁varian	-12.5347
tfn	-12.535
▁communicat	-12.5352
▁renova	-12.5352
scent	-12.5354
seman	-12.5356
▁organiz	-12.5357
ouldve	-12.5363
unky	-12.5367
▁ron	-12.5381
▁fighter	-12.5385
akes	-12.5388
▁bois	-12.539
ette	-12.5393
ouncy	-12.54
roughly	-12.5403
eph	-12.5406
az	-12.5412
▁ohhmmmm	-12.5424
sided	-12.5426
yn	-12.5437
▁kin	-12.5438
sex	-12.5438
▁ick	-12.5447
▁diab	-12.5459
ently	-12.5465
ldest	-12.5481
ang	-12.5489
hear	-12.5489
dia	-12.5501
▁grad	-12.5514
▁yappin	-12.5526
▁bricks	-12.5527
▁emba	-12.5528
▁rata	-12.5529
▁porta	-12.5549
mid	-12.556
▁paste	-12.5573
▁perc	-12.5582
▁lea	-12.5582
▁don	-12.5586
▁ty	-12.5594
▁brav	-12.5597
▁jing	-12.56
▁poll	-12.5602
rath	-12.5606
bu	-12.5606
cu	-12.5612
▁amo	-12.5616
erson	-12.5617
▁hears	-12.5653
astern	-12.5659
▁measur	-12.566
ched	-12.5661
▁klu	-12.5664
▁tops	-12.5677
ometer	-12.5685
▁ceph	-12.5692
version	-12.5696
▁hypocri	-12.5697
▁excit	-12.5704
▁remiss	-12.5706
▁ul	-12.5728
▁nurs	-12.5729
▁extrem	-12.5733
▁quart	-12.5735
▁affi	-12.5742
▁devi	-12.5744
▁rem	-12.5758
mos	-12.5758
▁mocke	-12.5782
pip	-12.579
▁emp	-12.5795
kid	-12.5805
gonz	-12.5819
▁kl	-12.582
▁coop	-12.5838
tiny	-12.5842
bloo	-12.5861
▁thermo	-12.5863
visor	-12.5868
▁etern	-12.5874
ims	-12.5874
▁centa	-12.5876
han	-12.5877
hit	-12.588
▁ravin	-12.5894
▁plea	-12.5901
vet	-12.5903
acts	-12.5906
arach	-12.5921
lurry	-12.5929
▁spl	-12.5934
▁schedul	-12.5934
tec	-12.5943
ruffled	-12.5963
▁interrogat	-12.5963
llowing	-12.5967
tible	-12.5969
who	-12.5987
tain	-12.6001
vy	-12.6013
rvo	-12.6014
nest	-12.6028
▁sincere	-12.6034
▁his	-12.604
far	-12.604
cher	-12.605
whi	-12.6058
ceived	-12.6065
keepers	-12.6072
era	-12.6087
bear	-12.6107
recognizabl	-12.6117
liest	-12.6117
eu	-12.6127
reserved	-12.615
▁connecti	-12.6158
▁excuses	-12.6162
▁clam	-12.6164
actor	-12.6169
ttock	-12.6186
tore	-12.6187
▁viva	-12.6188
▁evolv	-12.6197
tivation	-12.6211
▁det	-12.6229
gers	-12.6249
▁barba	-12.625
power	-12.6255
▁clas	-12.626
dress	-12.6262
▁shel	-12.6268
pse	-12.6268
▁ava	-12.6271
ification	-12.6274
▁ves	-12.6282
gn	-12.6292
▁was	-12.6292
▁yu	-12.6296
pper	-12.63
umbling	-12.6314
hills	-12.6333
we	-12.6339
▁fadin	-12.6341
llow	-12.6345
▁sexi	-12.6349
▁checks	-12.6374
▁pinn	-12.6378
ouches	-12.6387
▁pisto	-12.6388
rolled	-12.6389
▁manag	-12.6394
▁connectin	-12.6396
anked	-12.6402
▁magne	-12.6411
▁clan	-12.6421
hot	-12.6466
virtual	-12.6489
tated	-12.6489
▁renta	-12.6519
jury	-12.6526
ased	-12.6528
worldly	-12.6531
doubted	-12.6539
▁what	-12.6557
▁wai	-12.6563
▁magnif	-12.6597
▁prof	-12.6601
gue	-12.6603
ailing	-12.6603
big	-12.6621
▁chic	-12.6624
rapa	-12.6628
idi	-12.6633
▁replac	-12.6637
icians	-12.6637
▁pasi	-12.6641
ffe	-12.6645
▁slipper	-12.6657
▁charg	-12.667
bows	-12.6676
▁symboli	-12.6691
workers	-12.6694
ights	-12.6694
▁titl	-12.6694
▁lingeri	-12.6701
▁generat	-12.6701
genda	-12.6707
remember	-12.6708
mented	-12.6717
▁dim	-12.6724
▁mul	-12.673
ato	-12.6731
▁tens	-12.6736
nothing	-12.6741
▁relie	-12.6744
▁stif	-12.6755
▁curv	-12.6757
▁sla	-12.6761
ophi	-12.6761
▁int	-12.6771
▁fights	-12.6777
▁probab	-12.6788
ushing	-12.6788
picks	-12.6802
fine	-12.6806
▁vest	-12.6816
arned	-12.6822
tching	-12.6825
▁terri	-12.6828
▁battl	-12.6831
whoa	-12.6835
school	-12.684
▁gua	-12.6841
▁fittin	-12.6842
listen	-12.6844
heh	-12.6848
▁ridin	-12.6853
east	-12.6867
mong	-12.6867
stay	-12.6868
hello	-12.6881
mies	-12.6881
ooh	-12.6881
lobber	-12.6901
cap	-12.6905
▁scarie	-12.691
▁sca	-12.6918
zone	-12.6918
▁impo	-12.6919
linking	-12.6929
▁embarrassin	-12.6931
uit	-12.6931
other	-12.6931
▁enc	-12.6937
tained	-12.6939
today	-12.6946
ppa	-12.6948
▁waaa	-12.6953
sit	-12.6955
▁accelerat	-12.6962
▁ang	-12.6963
nah	-12.6974
ena	-12.6982
▁infl	-12.6987
▁benef	-12.6995
aire	-12.7003
▁cred	-12.7006
mp	-12.7009
▁preca	-12.7011
low	-12.7011
owl	-12.7021
tigger	-12.7021
▁dawdlin	-12.7023
placement	-12.7029
▁sorr	-12.7031
▁irre	-12.7034
bring	-12.7044
▁criti	-12.7052
tomorrow	-12.7053
race	-12.7054
rageous	-12.7061
▁geolog	-12.7072
ators	-12.708
▁oohoohoo	-12.7086
▁rescu	-12.7087
ndered	-12.7092
joy	-12.7102
opping	-12.7104
preciation	-12.7107
ean	-12.7108
wens	-12.7109
cture	-12.7118
key	-12.7129
vas	-12.713
ailed	-12.713
hem	-12.7136
book	-12.7137
jack	-12.7138
▁fest	-12.7141
▁gigantic	-12.7154
next	-12.7154
▁iv	-12.7158
tter	-12.717
▁ord	-12.7175
▁cuba	-12.7189
▁orang	-12.7189
▁contr	-12.7198
▁eugen	-12.7199
thought	-12.7199
ply	-12.7201
qua	-12.7204
posi	-12.7205
trap	-12.7205
wanted	-12.721
ntities	-12.7236
ohhohhohh	-12.7245
dder	-12.7245
goodbye	-12.7246
▁stealin	-12.7251
lubber	-12.7252
efully	-12.7253
▁juic	-12.7257
jector	-12.726
lying	-12.7264
nversion	-12.7264
different	-12.7268
guy	-12.7271
ddled	-12.7271
▁fea	-12.7274
minary	-12.7274
hall	-12.7275
▁dri	-12.728
rta	-12.7284
uncle	-12.7289
▁hal	-12.7297
▁relativ	-12.73
cream	-12.7301
xis	-12.7306
wasnt	-12.731
daddy	-12.7311
pointing	-12.7312
andom	-12.7314
▁impatien	-12.7318
gu	-12.7319
nobody	-12.7331
may	-12.7333
▁minib	-12.7335
izing	-12.7341
almost	-12.7344
▁politic	-12.7344
mbo	-12.7346
arm	-12.7346
▁neutr	-12.7347
yo	-12.7348
zers	-12.7351
christmas	-12.7357
▁startle	-12.7357
▁enforc	-12.7362
trouble	-12.7363
▁cran	-12.7365
▁gener	-12.7369
generate	-12.7372
▁rig	-12.7373
▁advocat	-12.7373
whos	-12.7379
▁compet	-12.7384
▁tiggeris	-12.7387
▁blackberr	-12.739
lous	-12.7397
rett	-12.7397
tract	-12.7398
▁consum	-12.7398
logist	-12.7406
fast	-12.741
empt	-12.7411
killer	-12.7411
▁attendan	-12.7413
worms	-12.7426
phone	-12.7427
pic	-12.7434
joshua	-12.7434
quarter	-12.7435
▁glamo	-12.7435
hanging	-12.7437
uffin	-12.7439
▁rejoi	-12.744
bber	-12.7443
james	-12.7445
▁pave	-12.7448
lala	-12.7454
nacle	-12.7455
trip	-12.7456
finger	-12.7457
▁architect	-12.7462
secret	-12.7464
ologically	-12.7466
▁custo	-12.7477
century	-12.7478
sche	-12.7482
bird	-12.7486
▁transc	-12.7488
letter	-12.7489
▁oblig	-12.749
jo	-12.7493
ection	-12.7494
▁socio	-12.7497
teacher	-12.7497
drop	-12.7499
balto	-12.7499
▁lackin	-12.7501
olated	-12.7502
damn	-12.7503
▁irr	-12.7503
road	-12.7504
▁cavi	-12.7504
▁villa	-12.7504
blue	-12.7505
build	-12.7507
wrote	-12.7507
▁adj	-12.7509
▁pleas	-12.7517
forget	-12.7519
general	-12.752
nished	-12.7522
laughter	-12.7524
trust	-12.7524
oke	-12.7525
wife	-12.7525
jock	-12.7527
wide	-12.7528
runners	-12.7529
bounce	-12.7532
waaa	-12.7532
nathan	-12.7533
ption	-12.7534
onia	-12.7537
choice	-12.7537
prospect	-12.7541
ibble	-12.7543
gram	-12.7543
quickly	-12.7543
frost	-12.7544
forward	-12.7548
called	-12.7549
▁preachin	-12.755
els	-12.7551
▁as	-12.7552
plankton	-12.7552
government	-12.7553
shilling	-12.7554
wolf	-12.7554
▁chang	-12.7556
itch	-12.7557
level	-12.7557
▁bunche	-12.7559
sinaitic	-12.756
expected	-12.7561
▁parad	-12.7562
cut	-12.7566
bomb	-12.7568
action	-12.7568
pardon	-12.7568
ui	-12.7569
pendable	-12.7569
speak	-12.757
scribe	-12.7573
▁ahoohoo	-12.7575
carry	-12.7575
▁plumb	-12.7575
past	-12.7578
▁escap	-12.7579
felt	-12.7579
claude	-12.7579
▁descendin	-12.7579
typical	-12.758
▁supplie	-12.7581
complete	-12.7582
goofy	-12.7582
dear	-12.7583
blood	-12.7583
writing	-12.7585
hundred	-12.7585
abe	-12.7585
indian	-12.7585
footing	-12.7588
officer	-12.759
washing	-12.759
shore	-12.759
space	-12.7591
hazard	-12.7591
feeling	-12.7593
incredible	-12.7593
dales	-12.7595
fall	-12.7595
fortune	-12.7597
chicks	-12.7598
smoker	-12.7598
famous	-12.7598
catch	-12.7599
broken	-12.7599
loyal	-12.7599
afternoon	-12.76
disappear	-12.7601
worth	-12.7601
▁eli	-12.7601
▁ammo	-12.7602
certain	-12.7604
birthday	-12.7605
▁postm	-12.7606
discovered	-12.7608
tray	-12.7608
▁itchin	-12.7608
noticed	-12.7609
coughs	-12.7609
strong	-12.761
valley	-12.761
evolution	-12.761
biblical	-12.761
density	-12.7611
underground	-12.7611
mickey	-12.7611
experience	-12.7611
bonjour	-12.7612
account	-12.7614
happening	-12.7614
▁provi	-12.7615
garden	-12.7615
exist	-12.7616
market	-12.7616
historic	-12.7617
honour	-12.7618
consider	-12.7619
wheel	-12.7619
period	-12.7619
natural	-12.762
belief	-12.7621
pressure	-12.7621
legal	-12.7621
twixel	-12.7622
base	-12.7623
duty	-12.7623
author	-12.7623
double	-12.7624
pilot	-12.7624
block	-12.7624
villain	-12.7625
junction	-12.7625
biz	-12.7626
popular	-12.7627
rule	-12.7627
friendly	-12.7627
fashion	-12.7627
science	-12.7628
▁calc	-12.7629
forces	-12.7629
▁emerge	-12.763
warning	-12.763
prepared	-12.763
ara	-12.763
holiday	-12.7631
signature	-12.7631
violence	-12.7633
panic	-12.7633
quito	-12.7633
cleaning	-12.7633
juice	-12.7634
glow	-12.7635
cousin	-12.7635
renowned	-12.7638
plants	-12.7639
▁typ	-12.7639
boxes	-12.764
wearing	-12.764
repair	-12.764
refu	-12.7641
confident	-12.7641
pooh	-12.7642
lemon	-12.7642
fallen	-12.7642
buying	-12.7644
govern	-12.7644
familiar	-12.7645
given	-12.7646
after	-12.7646
rocket	-12.7647
destiny	-12.7647
nuclear	-12.7647
bodies	-12.7647
anchor	-12.7648
crews	-12.7649
oli	-12.7649
adult	-12.7649
tition	-12.765
contractors	-12.765
driver	-12.7653
▁yea	-12.7653
educated	-12.7654
passing	-12.7654
conquer	-12.7655
length	-12.7655
lessly	-12.7659
altitude	-12.7659
growth	-12.7659
blaze	-12.7659
▁abso	-12.766
tried	-12.766
▁ev	-12.766
associat	-12.7661
weight	-12.7661
▁specta	-12.7661
▁alm	-12.7661
shade	-12.7662
aiting	-12.7662
economic	-12.7663
▁sowe	-12.7663
drinking	-12.7663
taken	-12.7663
service	-12.7663
throne	-12.7664
closed	-12.7665
answered	-12.7665
zip	-12.7665
sixth	-12.7665
grain	-12.7666
▁relation	-12.7666
makin	-12.7667
appro	-12.7667
fulfill	-12.7668
company	-12.7668
▁mixi	-12.7668
igi	-12.7668
souffl	-12.767
leaders	-12.7671
machine	-12.7672
spotted	-12.7673
spin	-12.7674
mail	-12.7676
enemy	-12.7678
hiding	-12.7678
partner	-12.7678
steep	-12.7678
▁waldo	-12.7678
blind	-12.7679
flower	-12.7679
kick	-12.768
▁expo	-12.7682
species	-12.7682
coins	-12.7682
penny	-12.7683
pants	-12.7683
▁abet	-12.7684
▁tha	-12.7685
inspired	-12.7685
issue	-12.7685
tube	-12.7685
▁hoho	-12.7686
demanding	-12.7686
identified	-12.7686
published	-12.7686
hunt	-12.7686
▁overwr	-12.7686
lois	-12.7687
horn	-12.7687
importance	-12.7689
▁stor	-12.769
stabilize	-12.7691
▁upto	-12.7691
▁orga	-12.7692
regardless	-12.7698
howlin	-12.77
tropic	-12.7701
dreaming	-12.7701
player	-12.7704
ways	-12.7705
▁hydraulic	-12.7706
▁souvenir	-12.7706
▁reptile	-12.7706
roots	-12.7706
▁astrobiologist	-12.7707
▁fragment	-12.7707
▁lizard	-12.7707
designed	-12.7707
▁outdoor	-12.7708
moon	-12.7709
▁reed	-12.771
check	-12.771
significant	-12.7712
lace	-12.7712
▁eloquen	-12.7712
nts	-12.7716
sensitiv	-12.7717
freaking	-12.7717
hour	-12.7718
▁dungeon	-12.7718
▁coordinate	-12.7718
▁resource	-12.7718
▁leopard	-12.7718
discipline	-12.772
▁bloke	-12.7721
slide	-12.7721
lves	-12.7722
ime	-12.7722
▁parchment	-12.7723
vocation	-12.7723
cel	-12.7724
elling	-12.7724
bouncing	-12.7725
▁biscuit	-12.7725
when	-12.7726
▁analog	-12.7726
▁restriction	-12.7726
▁peasant	-12.7726
▁rhode	-12.7727
pile	-12.7727
minority	-12.7728
shape	-12.7728
▁gibbon	-12.7728
shrine	-12.7729
▁rhino	-12.773
▁vali	-12.7731
text	-12.7732
▁explosives	-12.7734
ici	-12.7736
▁bodyguard	-12.7736
oose	-12.7736
▁kitten	-12.7736
▁colchi	-12.7736
moral	-12.7737
▁organism	-12.7737
cuba	-12.7737
toot	-12.7738
▁rattl	-12.7738
editor	-12.774
▁ahhhhhhhhh	-12.774
beth	-12.7741
activate	-12.7745
▁gigant	-12.7746
magneti	-12.7746
ologist	-12.7747
▁acro	-12.7747
scale	-12.7747
▁fulfil	-12.7748
▁arrow	-12.7749
chain	-12.7751
▁motive	-12.7751
rifle	-12.7753
wall	-12.7756
▁deplo	-12.7756
bar	-12.7756
▁arrangement	-12.7758
fill	-12.7759
frog	-12.7759
▁vamp	-12.776
▁lonelie	-12.7761
▁flavo	-12.7763
collecting	-12.7765
▁reformer	-12.7765
▁artis	-12.7766
▁trim	-12.7766
wild	-12.7766
happily	-12.7767
ervice	-12.7767
assert	-12.7768
▁procession	-12.7769
exit	-12.7769
segregat	-12.777
▁exhale	-12.7771
▁engag	-12.7772
tips	-12.7772
▁enchant	-12.7774
written	-12.7774
communicate	-12.7775
storm	-12.7775
chi	-12.7775
▁colleg	-12.7779
▁spike	-12.7779
▁surround	-12.7779
jou	-12.778
obey	-12.7783
brand	-12.7784
stock	-12.7784
▁poem	-12.7785
▁furni	-12.7786
ires	-12.7786
▁jamai	-12.7786
juan	-12.7786
mush	-12.7789
plus	-12.779
versal	-12.7791
▁styl	-12.7791
▁voic	-12.7791
▁independen	-12.7793
▁acceler	-12.7793
▁ttig	-12.7794
oming	-12.7795
smell	-12.7795
psst	-12.7795
▁structur	-12.7797
▁doctrin	-12.7798
▁arrang	-12.7799
osphere	-12.78
▁trickortreat	-12.7803
▁trespass	-12.7804
▁releas	-12.7805
▁robe	-12.7806
will	-12.7806
▁exhal	-12.7807
penetra	-12.7808
▁chambe	-12.7808
throat	-12.7808
▁overwhelm	-12.7808
atter	-12.7808
▁astound	-12.7809
▁valentin	-12.7809
▁employ	-12.781
▁metaph	-12.7811
▁nonsens	-12.7811
▁revolt	-12.7812
▁murmur	-12.7812
value	-12.7814
▁exercis	-12.7814
igible	-12.7814
▁bluff	-12.7815
▁stammer	-12.7815
▁squeez	-12.7815
quarters	-12.7815
▁lam	-12.7816
▁pierc	-12.7816
ruffle	-12.7818
tly	-12.7818
▁hustl	-12.782
▁recogni	-12.7821
sta	-12.7822
▁undermin	-12.7822
▁manufacture	-12.7822
▁memorize	-12.7822
▁elev	-12.7823
manding	-12.7824
▁wrinkle	-12.7825
▁eddi	-12.7825
group	-12.7825
▁qualifie	-12.7826
nevitably	-12.7826
▁cookie	-12.7827
▁acquire	-12.7827
▁choos	-12.7827
▁psychiatr	-12.7827
▁dismiss	-12.7828
▁grump	-12.7828
▁personalit	-12.7828
▁democra	-12.7829
▁sneez	-12.7829
▁incompeten	-12.783
▁theatr	-12.783
▁religio	-12.783
▁paleograph	-12.783
▁hysteri	-12.783
epressuriz	-12.7831
megat	-12.7831
▁decepti	-12.7831
▁raspberr	-12.7831
▁extraordinar	-12.7832
wound	-12.7832
▁conspirac	-12.7832
▁thessal	-12.7832
▁pregnan	-12.7833
▁convict	-12.7833
▁instinct	-12.7833
▁strawberr	-12.7833
▁presum	-12.7833
ituation	-12.7833
▁frequent	-12.7834
sraeli	-12.7834
unts	-12.7834
▁pronoun	-12.7835
▁laborator	-12.7835
▁thorough	-12.7836
temp	-12.7836
▁ferr	-12.7836
mpathy	-12.7836
▁abundan	-12.7837
▁jiff	-12.7838
lution	-12.7838
▁definite	-12.7838
▁apparent	-12.7838
▁demonstrat	-12.7838
▁appetit	-12.7839
▁securit	-12.7839
shoe	-12.7839
▁instruct	-12.7839
▁condense	-12.784
▁rumbl	-12.784
▁schoo	-12.784
▁paloma	-12.784
▁cluck	-12.7841
▁physici	-12.7842
▁rodrig	-12.7842
▁weddin	-12.7842
▁cocktai	-12.7843
▁troph	-12.7843
▁electro	-12.7843
▁alternat	-12.7843
▁loopdeloop	-12.7843
▁capita	-12.7843
▁alioop	-12.7844
fuckin	-12.7844
▁mathematic	-12.7844
▁ordain	-12.7844
▁peac	-12.7845
izers	-12.7845
▁universit	-12.7845
mona	-12.7846
refreshin	-12.7846
rippin	-12.7846
▁dazzle	-12.7847
▁orgy	-12.7847
▁attach	-12.7847
▁conservati	-12.7847
▁merge	-12.7847
▁pacifi	-12.7847
▁percepti	-12.7847
unch	-12.7847
▁refle	-12.7847
▁economi	-12.7848
▁flee	-12.7848
▁eohipp	-12.7848
▁familia	-12.7848
arefre	-12.7848
▁invincib	-12.7848
▁elegan	-12.7849
upply	-12.7849
mpressive	-12.7849
xygen	-12.7849
conspira	-12.7849
▁contemporar	-12.7849
▁impossib	-12.7849
▁legitima	-12.7849
▁candida	-12.7849
▁nucle	-12.7849
ndulge	-12.7849
volved	-12.7849
▁inaugurat	-12.7849
▁reuni	-12.7849
pulsion	-12.785
▁congregat	-12.785
▁sarcastic	-12.785
▁succ	-12.785
▁optimist	-12.785
▁communi	-12.785
▁especial	-12.785
▁splend	-12.785
neckl	-12.785
▁harris	-12.785
▁astrobiolog	-12.785
▁brothe	-12.785
▁suspens	-12.7851
▁accompli	-12.7851
alligator	-12.7851
▁metallurg	-12.7851
▁transfer	-12.7851
ccolo	-12.7851
▁microph	-12.7851
igglin	-12.7851
▁discipl	-12.7851
anddaughter	-12.7851
destructi	-12.7851
graphy	-12.7852
▁secre	-12.7852
excellen	-12.7852
▁galler	-12.7852
▁adapt	-12.7852
jumpin	-12.7852
satisfact	-12.7852
nononononono	-12.7852
eidieidi	-12.7852
ewewew	-12.7852
ttttttt	-12.7852
▁administ	-12.7852
▁insigni	-12.7852
pucci	-12.7852
predict	-12.7852
▁cigar	-12.7852
ezmoi	-12.7852
▁descr	-12.7852
▁recept	-12.7852
▁possibilit	-12.7852
ficient	-12.7852
onauts	-12.7852
▁fascinatin	-12.7852
▁narro	-12.7852
▁wilki	-12.7853
▁brace	-12.7853
▁hummin	-12.7853
▁sprinkle	-12.7853
ibula	-12.7853
▁japan	-12.7853
▁inherit	-12.7853
▁euph	-12.7853
▁predic	-12.7853
▁infern	-12.7853
▁femini	-12.7853
occasi	-12.7853
▁arrg	-12.7853
escription	-12.7854
▁contemp	-12.7854
▁terra	-12.7854
▁nephe	-12.7854
osaur	-12.7854
liente	-12.7854
escend	-12.7854
▁augu	-12.7854
greatgreat	-12.7854
ddlin	-12.7854
nsibilities	-12.7854
▁portug	-12.7855
mpler	-12.7855
folks	-12.7855
▁gloom	-12.7855
books	-12.7855
izin	-12.7856
▁trickortreatin	-12.7856
nsored	-12.7856
▁differ	-12.7856
erminate	-12.7857
▁overpr	-12.7857
roach	-12.7857
biotic	-12.7857
▁appe	-12.7857
▁napol	-12.7857
wer	-12.7857
▁whoaohh	-12.7858
ultu	-12.7858
aviour	-12.7858
litary	-12.7858
▁rasp	-12.7858
ndition	-12.7858
yjam	-12.7859
▁salva	-12.7859
dragg	-12.7859
▁pinch	-12.786
▁ambi	-12.786
lutely	-12.786
canism	-12.786
hangin	-12.786
▁armor	-12.786
▁authorit	-12.786
▁smokin	-12.7861
ovens	-12.7861
cussion	-12.7861
odoodoo	-12.7861
russel	-12.7862
▁chasin	-12.7862
racle	-12.7863
▁erupt	-12.7863
▁oppose	-12.7864
▁piggy	-12.7864
theless	-12.7864
▁carib	-12.7864
acular	-12.7865
▁attenti	-12.7866
abbit	-12.7866
▁toda	-12.7866
killers	-12.7867
ller	-12.7867
▁affirm	-12.7868
bbly	-12.7868
▁pleth	-12.7868
▁preci	-12.7868
▁milita	-12.7869
▁trumpetin	-12.7869
gnated	-12.7869
▁sacri	-12.7869
▁restricti	-12.7869
▁electron	-12.7869
▁grip	-12.787
▁eventual	-12.787
▁condescen	-12.787
▁syca	-12.7871
▁signif	-12.7872
▁rift	-12.7872
incarnation	-12.7872
liffe	-12.7873
phine	-12.7873
hoohoohoohoo	-12.7873
▁rov	-12.7873
▁ahhhhh	-12.7873
▁machi	-12.7873
▁stylis	-12.7874
▁microbe	-12.7875
dad	-12.7875
tistical	-12.7875
▁enchante	-12.7876
▁noth	-12.7876
plore	-12.7876
undant	-12.7876
udent	-12.7876
▁spear	-12.7877
▁brillian	-12.7877
▁incred	-12.7877
hippus	-12.7877
▁collide	-12.7878
▁engage	-12.7878
god	-12.7878
ruce	-12.7878
lula	-12.7879
▁excel	-12.7879
▁depr	-12.788
olph	-12.788
▁hamst	-12.7881
zoo	-12.7881
▁ferre	-12.7881
robi	-12.7881
▁intim	-12.7882
▁eviden	-12.7882
▁hustle	-12.7882
ercul	-12.7883
rolling	-12.7884
indig	-12.7884
males	-12.7885
▁apar	-12.7885
tastic	-12.7885
▁squad	-12.7886
phasi	-12.7886
▁itch	-12.7886
sounding	-12.7887
▁conven	-12.7887
▁conta	-12.7887
rbie	-12.7887
seif	-12.7887
▁rump	-12.7888
pliers	-12.7888
▁empha	-12.7888
plicated	-12.789
apter	-12.789
ocus	-12.789
worker	-12.7891
heyhey	-12.7891
▁savin	-12.7891
positions	-12.7891
hohoho	-12.7892
▁stuc	-12.7892
▁hymen	-12.7893
onides	-12.7893
sites	-12.7894
▁scot	-12.7894
twix	-12.7894
▁jak	-12.7894
▁babysit	-12.7894
▁appeti	-12.7894
▁craz	-12.7895
nsist	-12.7895
▁qualit	-12.7895
▁overco	-12.7896
▁caval	-12.7896
▁phenomena	-12.7897
▁unimp	-12.7898
eptic	-12.7898
valent	-12.7898
▁nev	-12.7899
▁soak	-12.79
black	-12.7902
ozi	-12.7904
andso	-12.7904
▁ruf	-12.7905
▁quadr	-12.7906
▁overdra	-12.7906
lished	-12.7908
▁grove	-12.7909
cdonald	-12.791
urious	-12.791
▁opsi	-12.791
harves	-12.7911
▁greetin	-12.7913
▁titan	-12.7913
▁ratio	-12.7915
egian	-12.7915
▁intro	-12.7915
wald	-12.7916
▁writin	-12.7916
atively	-12.7918
control	-12.792
yrac	-12.7924
ished	-12.7924
▁perma	-12.7924
itory	-12.7924
cision	-12.7925
▁revere	-12.7925
▁cornel	-12.7925
posed	-12.7925
termination	-12.7925
nuts	-12.7927
livered	-12.7927
▁legit	-12.7927
▁further	-12.7927
wheres	-12.7928
▁activate	-12.793
▁cabot	-12.793
▁brrrr	-12.7931
▁thingama	-12.7931
urement	-12.7931
leash	-12.7931
bee	-12.7931
exic	-12.7932
uire	-12.7932
▁brill	-12.7932
endous	-12.7932
joyed	-12.7934
alists	-12.7936
▁baba	-12.7938
col	-12.7938
ached	-12.794
endent	-12.7941
osite	-12.7942
▁potent	-12.7942
▁jug	-12.7942
▁restore	-12.7944
chens	-12.7945
ecid	-12.7949
▁congr	-12.7949
▁consol	-12.795
oodoo	-12.795
▁muti	-12.7951
cou	-12.7951
term	-12.7951
▁accur	-12.7951
▁epi	-12.7952
ouchy	-12.7952
▁appr	-12.7953
▁excu	-12.7953
▁doubl	-12.7954
treat	-12.7955
▁dub	-12.7957
▁cathol	-12.7957
erator	-12.7957
▁disp	-12.7959
▁givin	-12.7959
oom	-12.796
▁grill	-12.7961
endorf	-12.7962
ernet	-12.7962
▁divisi	-12.7963
▁caball	-12.7965
▁bearb	-12.7966
▁trustee	-12.7966
image	-12.7966
▁infect	-12.7966
uism	-12.7968
▁repu	-12.7971
▁acros	-12.7971
▁sm	-12.7971
bama	-12.7972
ohooh	-12.7972
▁sauc	-12.7973
▁presid	-12.7974
ani	-12.7974
zzie	-12.7975
guide	-12.7976
▁ahhhh	-12.7976
▁fixin	-12.7977
isian	-12.7978
▁cram	-12.7979
▁laughte	-12.7982
placed	-12.7982
tarian	-12.7984
ggin	-12.7984
oop	-12.7986
▁archer	-12.7986
▁stab	-12.7987
▁diz	-12.7987
▁mus	-12.7988
▁brow	-12.7988
▁nogo	-12.7989
▁rational	-12.799
ooaaa	-12.7992
ilities	-12.7993
axi	-12.7994
▁pretendin	-12.7994
▁inher	-12.7994
strap	-12.7994
fo	-12.7995
▁radiat	-12.7996
▁urge	-12.7999
▁fillin	-12.8
blos	-12.8001
stayed	-12.8001
▁quot	-12.8003
▁disast	-12.8003
▁coughin	-12.8003
ntist	-12.8006
nesty	-12.8007
▁whoooaa	-12.8007
▁smil	-12.8007
▁hamm	-12.8008
lican	-12.8009
▁figu	-12.8009
weat	-12.8009
eez	-12.8011
▁supp	-12.8011
▁frag	-12.8012
▁prett	-12.8014
▁valu	-12.8018
▁dread	-12.8019
▁cucu	-12.802
iastical	-12.8021
▁acco	-12.8023
jacks	-12.8024
fingers	-12.8025
ndable	-12.8027
tractors	-12.8028
rmat	-12.8031
working	-12.8032
ucky	-12.8034
inder	-12.8035
lyn	-12.8037
azon	-12.8038
▁pullin	-12.804
▁croc	-12.804
▁shilling	-12.804
▁defi	-12.8041
▁jaw	-12.8042
rightful	-12.8042
▁associat	-12.8044
▁decisi	-12.8044
nmast	-12.8046
most	-12.8048
▁premi	-12.8048
▁relations	-12.8048
▁gab	-12.8049
oria	-12.8049
ference	-12.8052
▁dem	-12.8053
▁dix	-12.8054
honest	-12.8054
andits	-12.8056
▁butterfl	-12.8056
▁emergenc	-12.8059
onics	-12.806
hide	-12.8061
▁bottl	-12.8063
▁neopo	-12.8063
▁boun	-12.8065
kward	-12.8067
▁comma	-12.8067
andem	-12.8067
canu	-12.8068
▁indu	-12.8068
lague	-12.807
catholics	-12.8072
prising	-12.8072
▁supervise	-12.8073
▁prote	-12.8073
illion	-12.8074
rose	-12.8074
▁greet	-12.8075
equi	-12.8078
▁piss	-12.8078
cool	-12.808
▁inde	-12.8081
cio	-12.8081
raliz	-12.8082
parti	-12.8082
▁losin	-12.8082
nounce	-12.8082
▁quad	-12.8084
▁pools	-12.8086
▁minne	-12.8091
adida	-12.8094
cued	-12.8095
uros	-12.8097
▁alf	-12.8101
nzi	-12.8101
gious	-12.8104
azy	-12.8105
▁tij	-12.8108
bted	-12.8108
crown	-12.8108
▁riche	-12.8112
kes	-12.8112
liation	-12.8115
vely	-12.8116
▁prayin	-12.8117
▁exam	-12.812
weari	-12.812
rama	-12.8122
chmen	-12.8122
vot	-12.8123
gam	-12.8125
▁testin	-12.8125
riously	-12.8127
▁hypnotiz	-12.813
▁shab	-12.8131
▁forb	-12.8133
tense	-12.8133
▁absol	-12.8135
ero	-12.8138
▁flounc	-12.8138
plicate	-12.8139
oya	-12.814
oux	-12.8142
▁arne	-12.8143
▁termina	-12.8143
▁merg	-12.8144
▁minut	-12.8146
▁quil	-12.8146
iveness	-12.8146
rable	-12.8147
wellwell	-12.8148
▁blot	-12.8151
▁sinaitic	-12.8152
cian	-12.8154
ayonna	-12.8156
ht	-12.8157
ycat	-12.816
lumn	-12.8162
rou	-12.8166
▁collid	-12.8167
▁wick	-12.8167
▁fil	-12.8167
▁rung	-12.8167
meat	-12.8169
rand	-12.8172
quaint	-12.8172
▁cour	-12.8174
script	-12.8178
uah	-12.818
▁whinn	-12.8183
▁overdo	-12.8189
▁glu	-12.8189
▁citi	-12.8191
▁nono	-12.8192
cones	-12.8195
undo	-12.8197
▁sig	-12.8197
▁baron	-12.8198
▁gorge	-12.82
oplankton	-12.8203
orthy	-12.8203
▁buc	-12.8204
▁reg	-12.8206
▁bran	-12.8206
▁obligat	-12.8207
▁za	-12.8209
▁energiz	-12.821
mbass	-12.8212
moth	-12.8213
nsters	-12.8213
▁technic	-12.8214
▁bathin	-12.8214
ively	-12.8217
▁howlin	-12.8217
▁striped	-12.8218
▁furl	-12.8221
▁immu	-12.8222
▁them	-12.8224
▁tox	-12.8225
▁sput	-12.8227
▁doom	-12.8227
tably	-12.8228
mption	-12.8229
▁brin	-12.8229
bees	-12.8229
▁proc	-12.823
rsion	-12.8232
dance	-12.8233
▁dum	-12.8234
ybe	-12.8235
resident	-12.8238
[...]
