<unk>	0
<s>	0
</s>	0
s	-3.40347
▁im	-4.50285
▁know	-4.60001
▁dont	-4.62635
▁get	-4.77118
▁go	-4.89197
▁like	-4.93071
▁right	-4.95409
▁youre	-5.02931
▁come	-5.06137
▁got	-5.07208
ing	-5.07279
▁yeah	-5.09495
ed	-5.15006
▁one	-5.16799
▁thats	-5.19815
▁oh	-5.19925
▁well	-5.20709
▁okay	-5.32041
▁na	-5.32105
▁want	-5.39371
▁	-5.39988
▁good	-5.41137
▁see	-5.42289
▁think	-5.42927
▁hey	-5.49934
d	-5.57717
▁back	-5.58657
▁man	-5.59063
▁gon	-5.59209
▁going	-5.61161
▁us	-5.67615
▁yes	-5.68139
▁take	-5.72855
▁time	-5.73175
▁look	-5.74668
▁need	-5.75734
▁hes	-5.75835
▁cant	-5.76118
▁l	-5.79907
▁say	-5.88079
▁ill	-5.88559
▁would	-5.8912
▁tell	-5.90114
▁really	-5.91815
▁could	-5.98383
▁way	-6.00976
er	-6.02147
▁didnt	-6.02416
▁let	-6.02715
▁lets	-6.02946
▁make	-6.03224
e	-6.05124
▁sir	-6.05564
▁something	-6.06456
▁whats	-6.06937
▁never	-6.07324
y	-6.0814
▁love	-6.08616
▁thank	-6.11887
▁sorry	-6.12369
▁little	-6.14816
▁mean	-6.17866
▁please	-6.19027
▁two	-6.26034
▁people	-6.27487
▁give	-6.29015
▁theres	-6.30237
▁said	-6.31585
a	-6.3179
▁god	-6.32047
▁ive	-6.32481
sp	-6.35276
▁help	-6.36265
▁stop	-6.38352
ly	-6.38591
r	-6.39135
▁thing	-6.39442
▁even	-6.40773
▁life	-6.41076
▁wait	-6.42465
▁mr	-6.45495
▁nb	-6.45931
▁call	-6.46062
▁day	-6.46471
▁guys	-6.46489
▁find	-6.46779
▁much	-6.48558
▁uh	-6.48879
in	-6.50895
▁sure	-6.52787
▁anything	-6.55567
▁home	-6.5592
▁first	-6.55922
▁theyre	-6.56102
▁work	-6.56928
▁keep	-6.57457
▁great	-6.57676
t	-6.58726
▁put	-6.60265
▁still	-6.61218
▁maybe	-6.61408
▁shes	-6.6628
▁ever	-6.67431
▁thought	-6.69657
▁must	-6.70004
▁new	-6.70313
▁hell	-6.70752
▁better	-6.71061
▁stay	-6.71512
▁talk	-6.72153
▁last	-6.73614
▁nothing	-6.74212
▁leave	-6.74421
▁hi	-6.74951
▁night	-6.75502
▁feel	-6.75833
▁always	-6.7593
▁everything	-6.77682
▁away	-6.78804
▁guy	-6.80081
▁place	-6.80922
▁around	-6.81282
▁long	-6.81282
▁music	-6.81631
▁name	-6.81719
▁mom	-6.83569
▁youve	-6.85255
▁car	-6.8536
al	-6.85402
▁listen	-6.85484
▁left	-6.85493
▁big	-6.85742
▁world	-6.86218
▁ready	-6.86794
o	-6.87044
▁dad	-6.87403
▁done	-6.87428
▁move	-6.88071
▁every	-6.88912
▁kind	-6.88939
▁coming	-6.88963
g	-6.89001
▁told	-6.90141
▁made	-6.90193
▁wan	-6.90253
▁nice	-6.90898
▁believe	-6.91528
▁girl	-6.91986
▁doesnt	-6.92162
▁old	-6.92213
▁shit	-6.92678
es	-6.92941
▁id	-6.93096
▁ta	-6.93422
▁boy	-6.9363
▁money	-6.93708
▁kill	-6.95261
▁son	-6.95534
▁years	-6.9555
n	-6.96267
▁lot	-6.96773
p	-6.96997
▁things	-6.97001
▁hear	-6.97105
▁show	-6.98177
▁three	-6.99583
▁hold	-7.00091
▁thanks	-7.00469
▁hello	-7.03371
▁miss	-7.03383
m	-7.03548
▁fine	-7.04349
▁someone	-7.04662
i	-7.04971
▁family	-7.05242
l	-7.05381
▁wont	-7.06122
▁playing	-7.0641
▁door	-7.06507
▁real	-7.06539
▁enough	-7.06709
▁course	-7.07301
▁might	-7.07667
▁dead	-7.07898
▁youll	-7.08498
▁remember	-7.091
▁wrong	-7.09403
▁huh	-7.10323
▁care	-7.10377
▁bad	-7.10506
▁mother	-7.10614
▁wanted	-7.10732
▁house	-7.11259
▁play	-7.11888
▁came	-7.14104
▁talking	-7.14372
▁another	-7.16639
▁woman	-7.16651
▁mind	-7.1667
▁today	-7.17294
▁phone	-7.17323
▁guess	-7.17623
▁else	-7.18285
▁run	-7.18644
▁best	-7.19993
▁um	-7.21099
f	-7.21466
▁found	-7.21659
▁tonight	-7.23039
b	-7.23166
▁friend	-7.24016
▁next	-7.24088
▁trying	-7.24318
▁kid	-7.24367
▁looking	-7.24407
▁isnt	-7.24793
▁school	-7.24797
▁may	-7.24809
▁understand	-7.25148
▁ah	-7.25424
▁room	-7.25884
▁father	-7.26644
▁job	-7.27195
▁getting	-7.27338
▁damn	-7.27809
▁die	-7.27824
▁meet	-7.28509
▁hard	-7.29022
on	-7.3025
▁bring	-7.30378
c	-7.31064
▁head	-7.31335
▁try	-7.31386
▁wasnt	-7.32136
▁live	-7.32444
▁knew	-7.32517
▁cause	-7.32523
▁ask	-7.32854
▁baby	-7.32902
▁fire	-7.32931
▁many	-7.33041
▁open	-7.331
▁sighs	-7.33384
▁happened	-7.33652
▁whole	-7.34063
▁aint	-7.34839
▁watch	-7.35204
▁morning	-7.35233
▁already	-7.35624
▁saw	-7.37224
▁pretty	-7.3802
▁brother	-7.38416
▁hand	-7.38549
▁heart	-7.38627
▁weve	-7.38834
▁men	-7.38943
▁turn	-7.38957
h	-7.39651
▁everyone	-7.40084
▁start	-7.40701
▁chuckles	-7.41289
▁idea	-7.41405
▁where	-7.41736
▁second	-7.42735
▁fight	-7.43358
▁without	-7.43415
▁went	-7.43852
▁everybody	-7.44274
ic	-7.44563
▁seen	-7.44993
▁actually	-7.45143
▁wouldnt	-7.45698
▁hope	-7.46312
▁excuse	-7.46886
▁mine	-7.47032
▁game	-7.47206
or	-7.47484
▁hit	-7.4804
▁un	-7.486
▁ok	-7.48671
▁together	-7.49124
▁anyone	-7.49571
▁took	-7.49573
▁city	-7.49591
▁five	-7.49592
▁check	-7.4972
▁heard	-7.49754
▁water	-7.50029
▁s	-7.51166
▁gone	-7.51373
▁yet	-7.51873
▁face	-7.519
▁gun	-7.52392
▁hurt	-7.52436
ion	-7.52622
▁em	-7.5316
▁hands	-7.53846
▁lost	-7.54228
▁de	-7.54262
▁true	-7.54695
▁problem	-7.54822
it	-7.54952
▁grunts	-7.55599
▁alright	-7.55649
▁crazy	-7.55651
▁killed	-7.55734
▁saying	-7.56062
▁bit	-7.56415
ar	-7.56437
en	-7.56631
▁end	-7.56865
▁use	-7.57649
▁called	-7.57877
▁team	-7.58378
▁easy	-7.59079
▁stuff	-7.59082
▁part	-7.59092
▁friends	-7.5918
le	-7.60006
▁pay	-7.60514
▁whoa	-7.60602
▁party	-7.60817
▁dance	-7.60907
▁tomorrow	-7.61095
▁nobody	-7.61095
▁four	-7.61577
▁speak	-7.61956
re	-7.6245
▁used	-7.63439
▁days	-7.63635
▁captain	-7.63672
ie	-7.63989
▁since	-7.64202
▁deal	-7.64813
▁high	-7.65912
▁year	-7.66861
▁re	-7.67318
▁alone	-7.67401
▁rest	-7.67424
▁matter	-7.67429
▁whos	-7.6745
▁couldnt	-7.6754
▁ago	-7.68492
▁kids	-7.68598
▁change	-7.68743
▁girls	-7.68866
▁whatever	-7.69036
▁eyes	-7.69078
▁shot	-7.69125
▁read	-7.69846
z	-7.70103
▁beautiful	-7.70143
▁havent	-7.70143
▁lm	-7.70179
▁wife	-7.70702
▁wish	-7.70709
▁business	-7.71829
▁probably	-7.71829
▁jake	-7.7183
▁gave	-7.71834
▁ass	-7.71894
▁close	-7.72427
▁minute	-7.72581
▁shut	-7.72936
▁forget	-7.72977
▁case	-7.72984
▁youd	-7.72997
▁joe	-7.73288
▁happy	-7.73543
▁worry	-7.73545
▁cool	-7.73552
▁clear	-7.73629
▁drive	-7.7441
us	-7.746
▁spanish	-7.74702
▁welcome	-7.74702
▁death	-7.74712
▁b	-7.74721
▁supposed	-7.74809
▁says	-7.74866
▁win	-7.74972
▁far	-7.74974
▁point	-7.75038
▁police	-7.75244
▁somebody	-7.75287
▁blood	-7.75645
▁eat	-7.75852
▁master	-7.75879
▁aye	-7.75915
▁inside	-7.76472
▁line	-7.76509
▁week	-7.76784
▁soon	-7.76856
▁set	-7.77213
▁cut	-7.77786
▁happen	-7.78046
▁hot	-7.78595
▁minutes	-7.78686
▁walk	-7.79153
▁young	-7.79238
ers	-7.79309
▁c	-7.79381
▁sit	-7.79382
▁chance	-7.79481
▁later	-7.79649
▁fun	-7.79717
u	-7.79719
man	-7.80299
▁working	-7.8037
▁full	-7.80421
▁taking	-7.80739
▁break	-7.80741
▁p	-7.80818
▁drink	-7.81208
▁word	-7.81898
▁looks	-7.83274
▁ho	-7.8337
est	-7.83839
able	-7.84105
▁least	-7.84496
▁ahead	-7.84504
▁side	-7.84566
an	-7.84875
▁town	-7.85194
▁speaking	-7.8528
▁safe	-7.85417
▁exactly	-7.8581
ies	-7.85845
▁continues	-7.86191
▁black	-7.86444
▁trust	-7.86526
▁stand	-7.86537
▁making	-7.87113
▁lady	-7.8714
▁engine	-7.87537
▁late	-7.87582
el	-7.87706
v	-7.87732
▁met	-7.87853
▁power	-7.88606
▁in	-7.89067
▁red	-7.89734
▁funny	-7.898
▁hate	-7.90361
▁hmm	-7.90484
▁sleep	-7.90514
w	-7.91061
▁six	-7.91123
▁order	-7.91341
la	-7.91498
▁laughs	-7.91786
▁wow	-7.91846
▁send	-7.91954
▁afraid	-7.92527
ation	-7.92983
▁thinking	-7.93067
▁means	-7.93414
▁sally	-7.93992
▁pick	-7.94119
▁jo	-7.94267
▁mar	-7.94324
▁enola	-7.9464
▁story	-7.9464
▁a	-7.94646
▁grunting	-7.94762
▁dr	-7.94923
k	-7.95247
▁truth	-7.95354
▁shoot	-7.95445
th	-7.95533
▁makes	-7.95551
▁light	-7.95678
▁war	-7.95863
▁half	-7.96064
▁also	-7.96075
▁wants	-7.96245
▁answer	-7.96449
▁moment	-7.96522
▁behind	-7.96798
▁white	-7.96805
▁free	-7.97317
▁save	-7.97365
▁anymore	-7.97528
▁number	-7.97965
▁book	-7.98511
▁waiting	-7.99005
▁laughing	-7.9942
▁catch	-7.99653
▁person	-7.99654
▁almost	-7.99751
▁follow	-8.00039
▁question	-8.0026
ch	-8.00999
▁ten	-8.01045
▁st	-8.01046
▁boys	-8.01615
▁k	-8.02476
▁alive	-8.02805
▁ha	-8.03804
▁anyway	-8.04349
▁different	-8.04349
▁ladies	-8.04349
▁air	-8.04446
▁bill	-8.0483
▁stupid	-8.05136
▁tried	-8.05181
▁though	-8.05782
▁trouble	-8.0593
▁hang	-8.06108
▁street	-8.06687
▁hurry	-8.0673
▁honey	-8.06737
▁panting	-8.06738
▁james	-8.06752
▁land	-8.07066
▁arent	-8.07537
▁body	-8.07557
▁dog	-8.0801
▁important	-8.0835
▁asked	-8.08759
▁died	-8.0942
st	-8.09502
▁promise	-8.09617
▁jimmy	-8.09999
▁reason	-8.10134
▁ball	-8.10189
ting	-8.10437
▁lose	-8.10684
▁theyll	-8.10834
▁country	-8.10838
▁goes	-8.10973
▁buy	-8.11026
▁perfect	-8.11498
▁sun	-8.11571
▁outside	-8.11671
▁e	-8.11922
▁times	-8.12028
▁be	-8.12318
▁f	-8.12387
▁protect	-8.12503
▁jesus	-8.12517
▁running	-8.12532
▁started	-8.12849
▁carl	-8.13152
▁charlie	-8.13371
▁couple	-8.13376
▁la	-8.13909
▁bet	-8.13959
is	-8.14046
▁sent	-8.14334
▁ooh	-8.14387
▁plan	-8.14617
▁telling	-8.14878
▁dream	-8.15524
▁luck	-8.15805
▁harlan	-8.16039
▁sound	-8.16268
▁living	-8.16871
▁quite	-8.16997
▁pass	-8.17316
▁lts	-8.17655
▁rock	-8.17737
▁anybody	-8.17758
▁control	-8.17762
▁front	-8.17768
▁sign	-8.17914
▁fall	-8.17995
▁doctor	-8.18092
▁voice	-8.18094
▁pull	-8.1834
▁sounds	-8.18376
▁king	-8.18639
▁dear	-8.18717
▁top	-8.18775
▁hours	-8.18941
▁th	-8.19074
▁office	-8.19376
▁screaming	-8.19719
▁throw	-8.19763
ng	-8.19864
▁train	-8.19899
ment	-8.19908
▁brought	-8.20486
up	-8.20937
▁mrs	-8.21398
▁daddy	-8.21456
▁cheering	-8.21746
▁return	-8.21757
▁lives	-8.21865
▁child	-8.22342
▁million	-8.22355
il	-8.22359
▁till	-8.22393
▁ship	-8.22587
▁bed	-8.22758
▁food	-8.2329
▁gentlemen	-8.23291
ity	-8.23548
▁fact	-8.24101
▁parents	-8.24517
▁scared	-8.24562
▁ride	-8.24995
▁choice	-8.25203
▁married	-8.25203
▁sense	-8.25221
▁marta	-8.2523
▁camp	-8.2564
▁fast	-8.25971
▁step	-8.26845
▁slow	-8.26986
▁contact	-8.27155
▁president	-8.27155
▁shouldnt	-8.27155
▁itll	-8.27155
nt	-8.27248
▁needs	-8.27349
▁taken	-8.27377
▁ya	-8.27633
▁officer	-8.28029
ce	-8.28069
ve	-8.28479
▁clean	-8.28553
▁beat	-8.28658
▁sometimes	-8.28826
▁past	-8.28963
▁jack	-8.29028
▁cell	-8.29214
as	-8.29349
▁chatter	-8.29526
▁r	-8.29691
▁lead	-8.29898
ro	-8.30066
▁lie	-8.30373
ant	-8.30482
▁picture	-8.30978
▁months	-8.31114
▁detective	-8.31178
et	-8.31414
to	-8.31749
▁feeling	-8.31803
▁strong	-8.3196
▁shall	-8.32208
▁hair	-8.3223
▁feet	-8.32237
ty	-8.32734
id	-8.32899
▁america	-8.32977
▁fault	-8.33248
▁straight	-8.33248
▁lord	-8.33251
▁fuck	-8.3326
▁tv	-8.33278
▁class	-8.33353
less	-8.3339
▁american	-8.33546
▁attack	-8.33714
▁cover	-8.33722
▁bye	-8.34302
▁leaving	-8.34304
▁news	-8.34954
▁serious	-8.35194
▁unit	-8.35279
▁careful	-8.35281
▁sister	-8.353
▁special	-8.3532
▁enjoy	-8.35364
▁future	-8.35364
ur	-8.35701
▁gasps	-8.3578
▁finish	-8.35857
▁touch	-8.36281
ness	-8.36409
▁along	-8.36437
▁husband	-8.3644
▁children	-8.3644
▁seven	-8.36459
▁john	-8.37497
▁radio	-8.37527
▁york	-8.37527
▁paul	-8.37536
na	-8.3772
▁lucky	-8.37811
x	-8.37879
▁ben	-8.37982
▁eye	-8.38541
▁hero	-8.38548
▁fool	-8.38613
▁da	-8.38619
▁henry	-8.38625
▁women	-8.38629
▁dude	-8.38633
▁maam	-8.38638
▁drop	-8.38732
▁meant	-8.38777
age	-8.38893
▁act	-8.38943
▁heres	-8.38986
rs	-8.38998
▁laugh	-8.39171
▁g	-8.3933
▁sam	-8.39525
▁human	-8.39721
▁moving	-8.39742
▁agent	-8.39755
▁able	-8.4056
▁victor	-8.4059
ate	-8.40752
▁kidding	-8.40881
▁miller	-8.40903
▁movie	-8.40971
▁bitch	-8.41979
▁relax	-8.41996
▁uncle	-8.41997
▁peter	-8.42141
▁copy	-8.42141
▁seat	-8.42247
▁wonder	-8.42312
▁bat	-8.42427
▁happens	-8.42433
▁asking	-8.42714
▁figure	-8.42766
▁write	-8.42852
▁short	-8.42969
▁either	-8.43146
▁crew	-8.4315
▁murder	-8.43192
ive	-8.43415
▁wed	-8.43789
▁j	-8.43965
▁seems	-8.44003
▁honor	-8.44309
▁road	-8.44309
▁truck	-8.44329
▁sick	-8.44338
▁count	-8.44341
▁breathing	-8.44634
▁m	-8.44682
ent	-8.45213
▁goddamn	-8.45485
▁forever	-8.45487
▁window	-8.45493
▁eight	-8.45496
▁mad	-8.45512
▁happening	-8.45521
▁table	-8.45564
▁horse	-8.458
▁piece	-8.4584
▁song	-8.45957
▁wear	-8.46098
▁miles	-8.4636
▁indistinct	-8.46504
▁normal	-8.46517
▁perhaps	-8.46676
▁birthday	-8.46676
▁bobby	-8.46677
▁ground	-8.46678
ll	-8.46679
▁become	-8.47024
▁learn	-8.47873
▁goodbye	-8.47881
▁bridge	-8.47883
▁early	-8.48015
▁sweet	-8.48229
▁seem	-8.4827
▁loved	-8.48348
▁co	-8.48419
ian	-8.4842
▁pain	-8.48579
ry	-8.48611
▁report	-8.48996
te	-8.49012
▁dinner	-8.49102
▁rich	-8.49105
▁mess	-8.49117
▁fear	-8.49125
▁kiss	-8.49127
▁bell	-8.49141
▁secret	-8.49494
▁state	-8.49919
▁quick	-8.50168
▁dark	-8.50312
▁reach	-8.50335
▁floor	-8.50342
▁building	-8.50628
ine	-8.51173
▁w	-8.51261
▁small	-8.51335
▁quiet	-8.51417
▁worth	-8.51568
▁south	-8.51585
▁others	-8.51585
▁sort	-8.5159
▁richard	-8.51596
▁aj	-8.51607
▁rain	-8.51687
ter	-8.51774
lo	-8.51998
▁jump	-8.52231
▁test	-8.52258
ny	-8.52556
▁fly	-8.52647
▁company	-8.5285
▁definitely	-8.5285
▁ethan	-8.5285
▁somewhere	-8.52851
▁dangerous	-8.52858
▁hall	-8.52862
▁yo	-8.5342
sh	-8.53523
▁mark	-8.53774
▁dom	-8.53818
▁fair	-8.53913
▁hows	-8.54044
▁gold	-8.541
▁worse	-8.54135
▁buddy	-8.54143
▁mister	-8.54178
▁finally	-8.54242
▁questions	-8.54548
▁bus	-8.54589
▁low	-8.54601
▁an	-8.54658
▁weeks	-8.54721
▁suck	-8.54797
▁smart	-8.55179
▁court	-8.55428
▁boss	-8.55495
▁law	-8.55557
▁bag	-8.55763
▁v	-8.55904
▁mm	-8.55995
ta	-8.56035
▁bang	-8.56156
▁kick	-8.56172
▁saved	-8.56213
at	-8.56397
ke	-8.5642
am	-8.56557
▁respect	-8.56713
▁weird	-8.56747
▁wall	-8.5677
▁crowd	-8.568
▁expect	-8.56848
▁hide	-8.56855
mo	-8.57539
▁gllllan	-8.5808
▁driving	-8.5808
▁glad	-8.58081
▁grab	-8.58084
▁date	-8.58485
▁turned	-8.58626
▁killer	-8.58792
ne	-8.58929
▁h	-8.58971
▁bar	-8.59035
▁possible	-8.59432
▁security	-8.59432
▁swear	-8.59432
▁island	-8.59432
▁caught	-8.59432
▁bank	-8.59442
▁stick	-8.59445
▁johnny	-8.59456
▁blow	-8.59498
▁totally	-8.59528
▁band	-8.59648
▁join	-8.59688
▁con	-8.60132
▁handle	-8.6043
ling	-8.60662
▁nick	-8.60772
▁english	-8.60802
▁rather	-8.6081
▁breathe	-8.60834
▁longer	-8.60873
▁shouting	-8.60958
▁bud	-8.60974
▁t	-8.60975
ol	-8.61047
▁groans	-8.61108
▁port	-8.61162
ous	-8.61304
▁fish	-8.61368
▁d	-8.61829
um	-8.62073
▁peace	-8.62166
▁sweetwater	-8.6219
▁theyve	-8.622
▁shh	-8.6223
▁worked	-8.62454
▁words	-8.62455
▁target	-8.6312
▁message	-8.63174
▁hour	-8.63259
▁deep	-8.63503
▁al	-8.63573
▁north	-8.63599
▁hasnt	-8.636
▁crime	-8.63602
▁heavily	-8.63605
▁clothes	-8.63609
▁calm	-8.63619
▁paid	-8.63623
▁mouth	-8.63641
▁poor	-8.63667
▁race	-8.63688
▁needed	-8.63789
▁watching	-8.64438
ful	-8.64479
▁explain	-8.65027
▁coach	-8.65028
▁gym	-8.65028
▁wake	-8.65039
▁max	-8.65053
▁missed	-8.6506
▁position	-8.65064
▁stone	-8.6513
▁pa	-8.6525
ary	-8.65578
▁changed	-8.66017
ia	-8.66094
▁present	-8.66439
▁major	-8.66477
▁green	-8.66487
▁cold	-8.66492
▁unless	-8.66555
▁map	-8.66574
ot	-8.66626
▁none	-8.66791
▁cap	-8.6695
no	-8.67485
▁surprise	-8.67565
▁boat	-8.67631
▁history	-8.67947
▁tires	-8.6795
▁sing	-8.67951
▁abby	-8.67954
▁mama	-8.67963
▁lisa	-8.6817
▁dis	-8.684
im	-8.6867
▁force	-8.68789
▁gift	-8.68847
ist	-8.68902
▁board	-8.68909
▁ghost	-8.69148
▁boyfriend	-8.6944
▁forgive	-8.6944
▁hundred	-8.6944
▁tough	-8.69481
▁batman	-8.69493
▁gary	-8.69546
ck	-8.69774
▁ringing	-8.69847
▁park	-8.69892
li	-8.69894
ma	-8.70013
▁burn	-8.70151
ut	-8.70153
▁wing	-8.70291
▁travel	-8.70312
▁blue	-8.70728
▁amazing	-8.70955
▁girlfriend	-8.70955
▁harvey	-8.70955
▁igor	-8.70955
▁general	-8.70955
▁absolutely	-8.70977
▁brothers	-8.70982
▁looked	-8.71259
▁po	-8.71627
▁star	-8.71738
▁daughter	-8.72308
▁soul	-8.72308
▁entire	-8.72321
▁soft	-8.72323
▁hat	-8.72463
▁aunt	-8.72493
▁shell	-8.72502
▁tony	-8.72552
▁spend	-8.7258
▁bearing	-8.72915
co	-8.7339
▁fix	-8.73451
▁range	-8.73586
▁mistake	-8.73904
▁accident	-8.74042
▁gordon	-8.74056
▁film	-8.74056
▁beach	-8.74056
▁round	-8.74064
▁born	-8.74125
▁male	-8.7422
▁box	-8.74298
lng	-8.74343
▁age	-8.74845
▁arm	-8.74866
▁ma	-8.74968
▁en	-8.753
▁near	-8.75497
▁hospital	-8.75615
▁across	-8.75643
▁anywhere	-8.75643
▁coffee	-8.75643
▁yep	-8.75656
▁store	-8.75666
▁personal	-8.75669
▁evening	-8.75769
▁wonderful	-8.75925
▁comes	-8.7598
▁plane	-8.76323
▁folks	-8.76433
▁lam	-8.76483
▁quit	-8.77128
ac	-8.77243
▁club	-8.77256
▁college	-8.77256
▁felt	-8.77256
▁aaron	-8.77257
▁blind	-8.7726
▁favorite	-8.77264
▁space	-8.77278
▁share	-8.77306
▁shoes	-8.77408
▁cost	-8.77699
▁singing	-8.77967
▁sea	-8.78005
▁given	-8.78394
▁cops	-8.78502
▁bats	-8.78638
▁calling	-8.78654
▁screams	-8.78679
▁wind	-8.78683
▁rick	-8.78734
▁sheila	-8.78895
▁wedding	-8.78899
▁jet	-8.78964
▁foot	-8.78975
▁sitting	-8.78989
▁key	-8.79034
▁grow	-8.79149
out	-8.79296
po	-8.79297
▁cat	-8.80305
▁maya	-8.804
▁broke	-8.80482
▁awesome	-8.80562
▁london	-8.80562
▁machine	-8.80562
▁earth	-8.80579
▁spirit	-8.80629
▁broken	-8.80659
▁month	-8.80681
▁mandi	-8.80855
▁busy	-8.80865
▁fit	-8.80868
▁wayne	-8.80885
▁knock	-8.81027
▁suit	-8.81106
▁hed	-8.81579
▁marry	-8.81655
▁over	-8.82146
▁tight	-8.82212
▁instead	-8.82257
▁private	-8.82257
▁rudder	-8.82257
▁snake	-8.82257
▁giving	-8.82257
▁attention	-8.82259
▁sharon	-8.82261
▁cash	-8.82266
▁spot	-8.82306
▁hotel	-8.82364
▁seriously	-8.82529
▁owe	-8.82653
▁offer	-8.8284
▁i	-8.82878
ton	-8.83414
▁known	-8.83523
▁cheer	-8.83617
un	-8.83635
▁form	-8.83672
▁walt	-8.83686
▁charge	-8.83746
▁pro	-8.83826
ir	-8.83957
▁chief	-8.83981
▁tessa	-8.83981
▁idiot	-8.83982
▁remind	-8.83984
▁kept	-8.83988
▁per	-8.84124
▁dare	-8.84129
▁bike	-8.84175
▁bird	-8.84187
▁weapon	-8.84189
▁station	-8.84232
ish	-8.84327
▁killing	-8.84615
▁freak	-8.85101
▁tea	-8.85164
▁player	-8.8554
▁fired	-8.85707
▁heaven	-8.85736
▁situation	-8.85736
▁tewkesbury	-8.85736
▁worried	-8.85736
▁group	-8.8574
▁dancing	-8.8574
▁asshole	-8.85748
▁o	-8.86146
▁takes	-8.86207
▁roll	-8.86218
▁less	-8.86516
▁sell	-8.86939
▁church	-8.87507
▁double	-8.87521
▁simple	-8.87521
▁tired	-8.87522
▁exhales	-8.87526
▁partner	-8.87551
▁ji	-8.87554
▁amy	-8.87619
▁field	-8.87633
▁fell	-8.87823
▁rat	-8.88071
▁ran	-8.88587
time	-8.88724
▁meeting	-8.88795
line	-8.88919
▁joke	-8.88985
▁played	-8.89056
▁except	-8.89242
▁david	-8.89329
▁desert	-8.89339
▁darling	-8.8934
▁pleasure	-8.8934
▁scoffs	-8.8934
▁werent	-8.8934
▁color	-8.8934
one	-8.89483
▁lee	-8.89593
▁missing	-8.89693
▁service	-8.8972
▁ow	-8.89758
▁crying	-8.89785
ass	-8.90108
▁chattering	-8.90488
do	-8.90802
▁seeing	-8.90839
▁cute	-8.90843
▁cop	-8.90861
▁pop	-8.90964
▁ra	-8.9106
▁appreciate	-8.91191
▁yesterday	-8.91191
▁alex	-8.91191
▁derek	-8.91191
▁middle	-8.91191
▁linnet	-8.91192
▁forward	-8.91192
▁loose	-8.91192
▁proud	-8.91201
▁yall	-8.91236
▁groaning	-8.9127
▁sad	-8.91284
▁smell	-8.91626
▁lll	-8.91678
▁teach	-8.91868
ha	-8.91897
▁tai	-8.9193
ba	-8.92058
ul	-8.92102
▁rules	-8.92202
▁se	-8.92572
▁abe	-8.92744
▁lt	-8.92866
▁cheers	-8.92879
▁extra	-8.93012
▁ii	-8.9305
▁afternoon	-8.93078
▁bastard	-8.93078
▁language	-8.93078
▁fbi	-8.93078
▁bullshit	-8.93079
▁operation	-8.9308
▁match	-8.93085
▁wild	-8.93171
▁to	-8.93175
▁no	-8.9362
and	-8.93726
▁pre	-8.93743
▁leader	-8.93839
▁fighting	-8.93973
ah	-8.9404
ill	-8.94041
▁starting	-8.94075
▁record	-8.94344
os	-8.94664
▁sheriff	-8.95001
▁stuck	-8.95012
▁tour	-8.95041
▁bigger	-8.95049
▁horn	-8.95064
▁west	-8.95071
▁mo	-8.95189
▁ace	-8.95235
▁besides	-8.95498
j	-8.95515
▁lay	-8.95669
▁post	-8.95681
▁cross	-8.95723
▁push	-8.95723
▁prove	-8.95991
▁works	-8.961
▁gas	-8.96304
▁allow	-8.96372
▁do	-8.96622
▁dogs	-8.9695
▁choose	-8.96962
▁evidence	-8.96962
▁female	-8.96962
▁area	-8.96962
▁price	-8.96963
▁roger	-8.96968
▁drunk	-8.96973
▁crown	-8.96982
▁vi	-8.96988
▁mmhmm	-8.96989
▁ex	-8.97296
▁final	-8.97463
▁holy	-8.97487
▁beer	-8.97983
▁letter	-8.98037
▁dress	-8.98279
▁steal	-8.98326
▁complete	-8.98398
▁pe	-8.98457
▁carry	-8.98488
▁frank	-8.98563
▁fa	-8.98713
▁card	-8.9877
▁forgot	-8.98954
▁difference	-8.98962
▁genius	-8.98962
▁michael	-8.98962
▁scene	-8.98962
▁swim	-8.98962
▁local	-8.98965
▁risk	-8.98966
▁dramatic	-8.98967
▁starboard	-8.98967
▁loud	-8.9897
▁jerry	-8.98973
▁information	-8.98983
▁third	-8.99014
▁fat	-8.99017
▁code	-8.99064
▁dent	-8.99481
ance	-8.9958
▁paper	-8.99749
▁continue	-8.99799
▁ro	-8.9996
▁seconds	-9.00216
▁mi	-9.0052
▁notice	-9.0062
▁escape	-9.0062
▁suppose	-9.00626
▁base	-9.00649
ure	-9.0083
▁carly	-9.0095
▁francis	-9.00985
▁speed	-9.00993
▁decision	-9.01003
▁support	-9.01003
▁throat	-9.01003
▁gotham	-9.01004
▁public	-9.01005
▁super	-9.01008
▁irish	-9.01011
▁queen	-9.01024
▁type	-9.01046
▁el	-9.01068
▁so	-9.01117
▁path	-9.01221
▁reading	-9.01264
▁interested	-9.01324
ally	-9.01481
▁mission	-9.01536
▁holding	-9.01545
▁feed	-9.0161
▁gr	-9.01697
▁system	-9.01839
cy	-9.02105
▁art	-9.02163
▁closes	-9.02252
▁accept	-9.02452
▁pen	-9.02479
▁imagine	-9.02709
▁whoo	-9.02881
om	-9.02956
▁glass	-9.02981
▁lived	-9.03058
▁chaplin	-9.03086
▁regret	-9.03086
▁sanchez	-9.03086
▁whirring	-9.03086
▁basketball	-9.03087
▁noise	-9.03095
▁vote	-9.03095
▁luke	-9.03096
▁breaking	-9.03111
▁walking	-9.03143
▁pool	-9.03196
▁mmm	-9.03235
▁completely	-9.03265
▁losing	-9.03281
▁sex	-9.033
tt	-9.03541
▁pack	-9.03978
▁belong	-9.04013
▁soldier	-9.04038
per	-9.04105
▁rule	-9.04325
▁lock	-9.04348
▁states	-9.04464
▁visit	-9.04509
men	-9.04667
▁joes	-9.04688
▁curse	-9.04825
▁realize	-9.04888
▁command	-9.04969
▁sleeping	-9.05038
▁honest	-9.05043
▁jets	-9.0517
▁self	-9.05199
▁smile	-9.05214
▁remain	-9.05214
▁siveth	-9.05214
▁video	-9.05214
▁bathroom	-9.05215
▁social	-9.05215
▁trick	-9.05226
▁season	-9.05226
▁standard	-9.05249
▁single	-9.05292
▁dumb	-9.05347
▁nine	-9.05577
▁deserve	-9.05824
▁whose	-9.06152
▁di	-9.06171
▁computer	-9.06223
▁member	-9.06231
▁trip	-9.06247
▁prison	-9.0646
▁feels	-9.06509
▁reports	-9.0661
▁search	-9.06752
tic	-9.06808
ship	-9.06828
▁bo	-9.06913
ther	-9.06935
▁raise	-9.07008
▁switch	-9.07024
▁sh	-9.07135
io	-9.07291
▁account	-9.07363
▁pal	-9.07371
▁empire	-9.07388
▁professor	-9.07388
▁dodgeball	-9.07389
de	-9.07392
▁east	-9.07417
▁garden	-9.07432
▁stage	-9.07452
▁cake	-9.07505
ak	-9.07505
▁sight	-9.07523
▁out	-9.07644
▁he	-9.07645
▁mayor	-9.07764
ted	-9.07914
▁locked	-9.07988
ho	-9.08001
▁shed	-9.08037
▁du	-9.08319
▁block	-9.08545
▁begin	-9.08608
▁lo	-9.08861
▁breath	-9.08935
▁talked	-9.09058
▁san	-9.09413
▁crack	-9.09589
▁built	-9.0961
▁impossible	-9.0961
▁inspector	-9.0961
▁practice	-9.0961
▁purpose	-9.0961
▁request	-9.0961
▁smoke	-9.0961
▁jaden	-9.0961
▁cousin	-9.0961
▁battle	-9.09613
▁british	-9.09613
▁department	-9.09615
▁roman	-9.09615
▁dying	-9.09615
▁butt	-9.09639
▁cher	-9.09671
▁dirty	-9.09752
▁fan	-9.09767
▁decided	-9.09871
▁christ	-9.10005
▁faster	-9.1018
qu	-9.10276
▁bite	-9.10721
▁chi	-9.10729
wa	-9.10827
▁suspect	-9.10836
▁screw	-9.11299
mp	-9.11806
▁threat	-9.11829
▁keys	-9.11838
▁favor	-9.11872
▁heavy	-9.11883
▁knife	-9.11883
▁lieutenant	-9.11883
▁official	-9.11883
▁suggest	-9.11883
▁christmas	-9.11883
▁silly	-9.11883
▁bought	-9.11893
▁chicken	-9.11913
▁obviously	-9.1194
▁alan	-9.11966
▁screeching	-9.12137
tor	-9.12244
ph	-9.12367
dy	-9.1251
▁warm	-9.12553
▁track	-9.12631
▁keeping	-9.12943
▁wearing	-9.13103
bo	-9.13307
op	-9.13371
▁dreams	-9.13459
ge	-9.13639
ard	-9.13734
em	-9.13746
▁strange	-9.13803
▁survive	-9.13818
▁leg	-9.14054
▁punch	-9.141
▁books	-9.14102
▁up	-9.14206
▁bunch	-9.14208
▁especially	-9.14208
▁greyhound	-9.14208
▁strength	-9.14208
▁study	-9.14208
▁adele	-9.14209
▁linda	-9.14212
▁beginning	-9.14215
▁riff	-9.14223
▁worst	-9.14223
▁summer	-9.14245
▁hm	-9.14268
▁luce	-9.14272
▁brain	-9.143
▁sweetie	-9.14301
▁certainly	-9.14367
▁doin	-9.14386
▁eli	-9.1439
▁page	-9.1444
▁ken	-9.14499
▁ring	-9.14514
▁woo	-9.14655
▁ba	-9.15094
▁legs	-9.15096
ast	-9.1513
▁dollars	-9.15214
▁cha	-9.15289
▁scout	-9.15651
▁paint	-9.1568
▁treat	-9.15958
▁focus	-9.15991
▁plans	-9.16023
▁judge	-9.16192
▁total	-9.1642
▁average	-9.16589
▁eagle	-9.16589
▁rachel	-9.16589
▁lunch	-9.1659
▁babe	-9.166
▁alarm	-9.16601
▁ve	-9.16603
▁joni	-9.16613
▁flight	-9.16617
▁gang	-9.1662
▁mars	-9.1665
▁usually	-9.16678
▁arms	-9.16745
▁honestly	-9.16781
▁falcone	-9.16849
▁beth	-9.16862
▁grand	-9.17061
noit	-9.17063
▁games	-9.17266
ca	-9.174
▁opens	-9.17425
▁reporter	-9.1767
▁tris	-9.1784
ey	-9.1786
▁farm	-9.17979
▁shadow	-9.18143
▁champion	-9.18164
▁heading	-9.18166
ap	-9.18352
ig	-9.18377
king	-9.18403
▁birds	-9.18733
▁shaw	-9.18778
▁wa	-9.18844
▁experience	-9.18862
▁hole	-9.18994
▁apart	-9.19006
▁bourne	-9.19028
▁charles	-9.19028
▁dallas	-9.19028
▁permission	-9.19028
▁sobbing	-9.19028
▁zooey	-9.19028
▁grandpa	-9.19028
▁jones	-9.19032
▁corner	-9.19033
▁value	-9.19033
▁stopped	-9.19037
▁loop	-9.1904
▁pants	-9.19042
▁toast	-9.19043
▁iron	-9.19082
▁whatd	-9.1916
▁press	-9.1918
▁pig	-9.19346
ite	-9.19357
tra	-9.19361
▁planet	-9.19371
▁interesting	-9.19445
me	-9.19678
▁closer	-9.1976
▁bear	-9.19801
ated	-9.19917
▁goin	-9.19943
ow	-9.20241
▁lovely	-9.20352
our	-9.20435
ium	-9.20448
▁closed	-9.20676
▁training	-9.20734
▁ted	-9.20947
▁german	-9.21296
▁eve	-9.21352
▁certain	-9.21358
▁stole	-9.21434
▁beyond	-9.21528
▁borrow	-9.21528
▁excellent	-9.21528
▁pilot	-9.21528
▁clark	-9.21528
▁wailing	-9.21528
▁rescue	-9.21528
▁phil	-9.2153
▁chuckling	-9.21531
▁christian	-9.21552
▁defense	-9.21556
▁upon	-9.21603
land	-9.21768
▁ice	-9.21789
▁beeping	-9.2179
▁hill	-9.21809
▁putting	-9.21965
ip	-9.2214
▁wouldve	-9.22256
▁tom	-9.22351
over	-9.22751
▁ne	-9.22778
▁moved	-9.22894
▁driver	-9.22917
▁named	-9.23173
▁cry	-9.23554
▁grant	-9.23593
▁ms	-9.23755
▁weapons	-9.23783
▁aw	-9.23813
ore	-9.23876
▁meg	-9.23947
▁standing	-9.23971
▁witch	-9.23995
ii	-9.24083
▁admit	-9.24092
▁neither	-9.24092
▁poirot	-9.24092
▁sergeant	-9.24092
▁sherlock	-9.24092
▁twice	-9.24092
▁vehicle	-9.24092
▁repeat	-9.24092
▁tongue	-9.24092
▁truly	-9.24092
▁storm	-9.24093
▁ransom	-9.24093
▁spell	-9.24093
▁nurse	-9.24093
▁terrible	-9.24093
▁spent	-9.24094
▁address	-9.24098
▁stories	-9.241
▁jail	-9.24101
▁hiding	-9.24121
▁bull	-9.24125
▁mommy	-9.24146
▁involved	-9.24157
▁lane	-9.24161
▁stolen	-9.2419
▁mate	-9.24232
▁fe	-9.24254
▁hook	-9.24263
av	-9.24281
▁fi	-9.24288
▁dean	-9.24306
▁showed	-9.24407
▁army	-9.24468
▁figured	-9.24952
off	-9.2498
▁bro	-9.25117
▁using	-9.25179
▁note	-9.25195
▁gu	-9.25446
▁finished	-9.25537
di	-9.25572
▁ti	-9.25643
▁ga	-9.25869
▁starts	-9.26054
▁build	-9.26096
▁fill	-9.26194
▁scar	-9.26204
▁bernardo	-9.26724
▁doubt	-9.26724
▁faith	-9.26724
▁famous	-9.26724
▁jealous	-9.26724
▁mycroft	-9.26724
▁project	-9.26724
▁treasure	-9.26724
▁doyle	-9.26724
▁royal	-9.26725
▁provide	-9.26729
▁josie	-9.26734
▁bother	-9.26738
▁hungry	-9.26738
▁anita	-9.26739
▁shane	-9.26743
▁cooper	-9.26748
▁director	-9.26757
▁howd	-9.26775
▁lying	-9.26821
▁pete	-9.27009
ism	-9.27087
▁blues	-9.27125
ever	-9.2729
▁allowed	-9.27515
▁clan	-9.27542
▁all	-9.27544
be	-9.27655
oo	-9.27657
▁hardin	-9.27698
▁tall	-9.28108
▁consider	-9.28163
ping	-9.28175
▁prefer	-9.28222
▁shouts	-9.28336
▁draw	-9.28548
▁camera	-9.28818
▁arrest	-9.2884
▁bomb	-9.28887
▁picked	-9.28934
ade	-9.29008
led	-9.29082
▁shooting	-9.29083
▁cars	-9.29319
▁gettin	-9.29345
▁neck	-9.29388
▁affair	-9.29427
▁constable	-9.29427
▁george	-9.29427
▁shirt	-9.29427
▁text	-9.29427
▁daniel	-9.29427
▁french	-9.29429
▁distance	-9.29435
▁secure	-9.29436
▁harry	-9.29445
▁sky	-9.2946
▁secretary	-9.29466
▁market	-9.29481
▁taste	-9.29482
▁ballet	-9.29508
▁safety	-9.29531
way	-9.29624
▁gasping	-9.29644
ring	-9.29699
ud	-9.30208
▁teacher	-9.30299
▁mary	-9.30389
ier	-9.30425
▁magic	-9.30465
▁huge	-9.30681
▁promised	-9.30693
▁sha	-9.31137
▁hunt	-9.31161
all	-9.31245
▁conversation	-9.31668
▁guard	-9.31686
▁thousand	-9.31695
▁gods	-9.31823
▁mike	-9.32003
▁access	-9.32204
▁became	-9.32204
▁bouc	-9.32204
▁difficult	-9.32204
▁jakob	-9.32204
▁loretta	-9.32204
▁relationship	-9.32204
▁split	-9.32204
▁suicide	-9.32204
▁wrote	-9.32204
▁within	-9.32205
▁spider	-9.32205
▁nope	-9.32205
▁sweetheart	-9.32206
▁globo	-9.32207
▁jerem	-9.32208
▁justice	-9.32209
▁counselor	-9.3221
▁football	-9.32211
▁heat	-9.32213
▁bruce	-9.32214
▁mitch	-9.32214
▁electricity	-9.32215
▁brave	-9.32227
▁package	-9.32235
▁spy	-9.32267
▁chino	-9.32276
▁powerful	-9.32279
▁moon	-9.32294
▁van	-9.32306
▁amen	-9.32355
▁add	-9.32415
▁center	-9.32435
▁main	-9.3247
▁carol	-9.32498
▁signal	-9.32543
▁deeply	-9.32545
▁greatest	-9.32831
▁list	-9.32879
▁messages	-9.33107
▁sand	-9.33188
ee	-9.3347
▁ed	-9.33556
vo	-9.33597
▁flying	-9.33614
▁listening	-9.33964
head	-9.34446
▁fail	-9.34502
▁tree	-9.3467
▁guns	-9.34802
▁sharp	-9.34889
▁fu	-9.34946
▁chicago	-9.35061
▁duncan	-9.35061
▁explosive	-9.35061
▁speech	-9.35061
▁league	-9.35062
▁molly	-9.35062
▁muffle	-9.35062
▁congratulations	-9.35063
▁blame	-9.35064
▁rumbling	-9.35065
▁grace	-9.35066
▁inhales	-9.35073
▁cuba	-9.35075
▁responsible	-9.35082
▁taught	-9.35082
▁curly	-9.35085
▁danger	-9.35106
▁exist	-9.35123
▁contract	-9.35126
▁players	-9.35127
▁josh	-9.35148
▁cabin	-9.35148
▁fallen	-9.35226
▁softly	-9.35382
▁harm	-9.35383
▁rent	-9.35508
ci	-9.35562
▁flat	-9.35673
▁han	-9.35748
▁screwed	-9.35803
he	-9.36069
tion	-9.36176
of	-9.363
▁murdered	-9.36529
▁rid	-9.36672
▁ends	-9.36873
▁me	-9.36922
cu	-9.37109
lic	-9.37164
▁problems	-9.37244
ern	-9.37281
▁bullet	-9.37675
▁pirate	-9.37686
▁yards	-9.37712
▁waste	-9.37714
▁challenge	-9.37739
▁tu	-9.37944
▁ab	-9.37958
▁martin	-9.37999
▁adult	-9.38003
▁circus	-9.38003
▁instrument	-9.38003
▁kitchen	-9.38003
▁steady	-9.38003
▁texas	-9.38003
▁clyde	-9.38003
▁vegas	-9.38003
▁alice	-9.38003
▁upset	-9.38004
▁program	-9.38005
▁everywhere	-9.38014
▁evil	-9.38017
▁grew	-9.38018
▁elliott	-9.38038
▁winner	-9.38045
▁mail	-9.38054
▁simon	-9.38069
▁level	-9.38093
kin	-9.38106
▁squad	-9.38153
▁chain	-9.38193
▁wood	-9.38321
▁palm	-9.38453
▁n	-9.38521
▁wings	-9.38576
▁salt	-9.38659
▁joker	-9.38666
▁plus	-9.38757
iv	-9.38977
▁fl	-9.39035
▁mu	-9.39186
▁bu	-9.39432
▁bow	-9.3944
▁clicks	-9.39491
▁headed	-9.39583
▁va	-9.39738
ize	-9.39882
▁chris	-9.40192
▁crash	-9.40387
▁destroy	-9.40446
▁agree	-9.40619
▁balls	-9.40737
▁finger	-9.40816
▁russian	-9.40835
▁sara	-9.4101
▁apparently	-9.41033
▁defend	-9.41033
▁monsieur	-9.41033
▁shouldve	-9.41033
▁upstairs	-9.41033
▁cassie	-9.41033
▁climb	-9.41033
▁enemy	-9.41033
▁excited	-9.41033
▁competition	-9.41034
▁foul	-9.4104
▁investigation	-9.4104
▁popular	-9.41041
▁paris	-9.41044
▁diana	-9.41048
▁apartment	-9.41068
▁action	-9.41249
▁fingers	-9.41257
▁sub	-9.4141
▁indistinctly	-9.41474
▁whispers	-9.41511
ious	-9.42401
if	-9.42794
end	-9.4291
ki	-9.43022
▁harder	-9.43076
▁bringing	-9.43126
ick	-9.43212
▁cook	-9.43544
▁com	-9.43583
▁fran	-9.44003
▁ticket	-9.44012
▁ju	-9.44031
▁somethin	-9.44057
ley	-9.4406
▁alpha	-9.44158
▁atreides	-9.44158
▁character	-9.44158
▁elizabeth	-9.44158
▁government	-9.44158
▁insane	-9.44158
▁ventura	-9.44158
▁threw	-9.44158
▁brian	-9.44158
▁jazz	-9.44159
▁somehow	-9.44159
▁funeral	-9.44159
▁device	-9.4416
▁mask	-9.4416
▁recognize	-9.44162
▁riva	-9.44165
▁firing	-9.44171
▁nico	-9.44174
▁medicine	-9.44177
▁planning	-9.4418
▁howard	-9.44186
▁duty	-9.44193
▁crush	-9.44206
ts	-9.44209
▁fake	-9.44213
▁trap	-9.44245
▁skin	-9.44255
▁suddenly	-9.4427
▁protection	-9.4436
▁yelling	-9.44418
▁heads	-9.44454
▁invited	-9.4448
▁buzzing	-9.44512
▁warning	-9.44608
▁scare	-9.44723
▁gotten	-9.44777
▁failed	-9.44803
▁career	-9.44977
▁bloody	-9.45407
▁mon	-9.45486
▁har	-9.45657
gu	-9.45766
▁turning	-9.45853
▁wondering	-9.45914
▁wine	-9.45949
ical	-9.46081
▁cl	-9.46085
▁gosh	-9.46163
▁passed	-9.4625
▁names	-9.46279
▁soo	-9.46498
▁witness	-9.46661
▁talent	-9.46791
▁drug	-9.46809
▁following	-9.46854
▁serve	-9.46992
▁decide	-9.47004
fi	-9.4703
▁helped	-9.47157
ions	-9.472
▁dragon	-9.47344
▁innocent	-9.47384
▁kennedy	-9.47384
▁nervous	-9.47384
▁peregrine	-9.47384
▁ridiculous	-9.47384
▁traitor	-9.47384
▁crap	-9.47384
▁japanese	-9.47384
▁angry	-9.47384
▁simply	-9.47384
▁river	-9.47384
▁maddie	-9.47384
▁nowhere	-9.47385
▁whoever	-9.47389
▁fellow	-9.47402
▁chair	-9.47404
▁shame	-9.47404
▁smith	-9.47422
▁fever	-9.47423
▁convoy	-9.47437
▁understood	-9.47452
▁commissioner	-9.47454
▁jill	-9.47461
▁tr	-9.47498
▁robin	-9.475
▁china	-9.47527
▁kyle	-9.47591
▁bond	-9.47604
▁original	-9.4762
▁eating	-9.47626
▁mob	-9.47636
▁hoping	-9.47667
▁hired	-9.4767
▁log	-9.47678
▁pirates	-9.47737
▁sim	-9.47739
ner	-9.47823
▁metal	-9.47957
ise	-9.47999
▁plays	-9.48035
▁te	-9.48112
▁sal	-9.48512
ten	-9.48792
nce	-9.48794
▁hardly	-9.48913
▁frances	-9.49022
▁beeps	-9.49144
que	-9.49247
▁acting	-9.49266
▁gl	-9.49297
ight	-9.49435
▁orders	-9.49749
ster	-9.4991
light	-9.49963
▁ear	-9.50111
▁flowers	-9.50296
go	-9.50422
the	-9.5052
▁shoe	-9.50572
▁collect	-9.50604
▁twenty	-9.50715
▁border	-9.50717
▁emergency	-9.50717
▁england	-9.50717
▁research	-9.50717
▁thunder	-9.50717
▁uniform	-9.50717
▁often	-9.50717
▁pretend	-9.50717
▁screen	-9.50717
▁aware	-9.50717
▁shock	-9.50721
▁willing	-9.50725
▁earlier	-9.50726
▁require	-9.50727
▁memory	-9.50728
▁brilliant	-9.50729
▁adam	-9.5073
▁pressure	-9.50736
▁fortune	-9.50741
▁square	-9.50743
▁replace	-9.50747
▁weekend	-9.50765
▁anton	-9.5077
▁mountain	-9.50771
▁medic	-9.50777
▁pair	-9.50784
▁sword	-9.50802
▁trade	-9.50827
▁brush	-9.50831
▁national	-9.5084
▁grade	-9.5085
▁chuckle	-9.50861
▁march	-9.50917
▁cup	-9.50962
▁eh	-9.50968
▁saving	-9.51015
▁commander	-9.51103
▁pan	-9.51116
▁ko	-9.51135
▁ni	-9.51175
▁quickly	-9.51186
▁rose	-9.5121
▁surprised	-9.51596
▁couldve	-9.5161
▁deck	-9.51642
▁growing	-9.52014
▁tear	-9.52184
▁angel	-9.52242
▁ships	-9.5237
▁fighter	-9.5271
▁tigers	-9.53001
▁hanging	-9.53433
▁due	-9.53438
tri	-9.53782
▁sa	-9.53806
▁animals	-9.5383
▁whi	-9.53881
▁ann	-9.53974
▁walked	-9.54003
▁matters	-9.54019
▁inform	-9.54146
▁weak	-9.54152
▁attempt	-9.54165
▁breakfast	-9.54165
▁eudoria	-9.54165
▁explosion	-9.54165
▁kahndaq	-9.54165
▁literally	-9.54165
▁mtumbie	-9.54165
▁necklace	-9.54165
▁plenty	-9.54165
▁salute	-9.54165
▁shoulder	-9.54165
▁subject	-9.54165
▁bottle	-9.54165
▁claim	-9.54165
▁closing	-9.54165
▁daisy	-9.54166
▁empty	-9.54166
▁thomas	-9.54166
▁hadnt	-9.54166
▁midnight	-9.54166
▁susu	-9.54167
▁foreign	-9.54169
▁fremen	-9.54172
▁mitchell	-9.54174
cient	-9.54193
▁wire	-9.54197
▁solo	-9.542
▁cmon	-9.54203
▁ox	-9.54203
▁sold	-9.54217
▁shop	-9.54218
▁clamoring	-9.54222
▁winning	-9.54243
▁direction	-9.54245
▁riddler	-9.54246
▁aah	-9.54252
▁sighing	-9.54339
▁streets	-9.54353
▁devil	-9.54442
mmy	-9.54499
▁outta	-9.5476
▁how	-9.54866
▁plant	-9.54927
▁writer	-9.55119
▁lve	-9.55276
▁ay	-9.55416
ff	-9.5563
▁schedule	-9.55663
▁higher	-9.55777
▁answers	-9.55869
▁points	-9.55874
▁lights	-9.56012
▁ward	-9.56248
▁cu	-9.56314
▁students	-9.56531
▁wo	-9.56624
▁on	-9.56668
▁passing	-9.56677
▁mention	-9.57227
▁conn	-9.57235
▁bless	-9.57253
▁ruin	-9.5728
▁wash	-9.5729
▁prepare	-9.57353
▁sending	-9.57414
▁fresh	-9.57482
▁grunt	-9.57482
▁dirt	-9.57519
▁older	-9.57555
▁rip	-9.57725
▁afford	-9.57737
▁avoid	-9.57737
▁choir	-9.57737
▁fantastic	-9.57737
▁junior	-9.57737
▁pocket	-9.57737
▁saiwing	-9.57737
▁trigger	-9.57737
▁wagner	-9.57737
▁slide	-9.57737
▁theater	-9.57737
▁ugly	-9.57737
▁wolf	-9.57737
▁spark	-9.57737
▁wherever	-9.57738
▁opportunity	-9.57738
▁automat	-9.57739
▁dropped	-9.57739
▁buried	-9.5774
▁honk	-9.57746
▁thatll	-9.5775
▁ellen	-9.5776
▁launch	-9.57764
▁duke	-9.57769
▁handsome	-9.57779
▁liz	-9.57781
▁immediately	-9.57784
▁data	-9.57803
▁writing	-9.57806
▁professional	-9.57807
▁hallet	-9.57808
▁beg	-9.57846
▁herb	-9.57863
▁dicky	-9.57927
▁condition	-9.57971
▁skull	-9.57999
back	-9.58013
▁lawyer	-9.58056
▁criminal	-9.58058
▁created	-9.58069
▁quarter	-9.58072
▁animal	-9.58086
▁nose	-9.58096
▁shawn	-9.5812
▁sink	-9.58162
▁drugs	-9.58251
▁yard	-9.58264
▁mum	-9.58326
▁stranger	-9.58365
▁hu	-9.58439
ang	-9.58457
▁leads	-9.58548
▁feelings	-9.58707
▁file	-9.59109
▁rings	-9.59307
▁parts	-9.59407
▁li	-9.59415
ator	-9.59633
▁nu	-9.59671
▁pi	-9.59673
▁pr	-9.59876
fully	-9.60021
arm	-9.60132
▁interest	-9.60334
ell	-9.60372
▁temp	-9.60515
▁ru	-9.60583
▁turns	-9.60583
cha	-9.60736
▁shots	-9.609
what	-9.60971
▁invite	-9.61059
▁correct	-9.6117
▁bi	-9.61213
▁scream	-9.61312
itch	-9.61314
ec	-9.61316
▁earl	-9.61316
▁spoke	-9.61344
▁calls	-9.61405
▁armstrong	-9.6144
▁california	-9.6144
▁johanna	-9.6144
▁mexico	-9.6144
▁ramsey	-9.6144
▁science	-9.6144
▁taehun	-9.6144
▁written	-9.6144
▁silver	-9.61441
▁village	-9.61441
▁chinese	-9.61441
▁roaring	-9.61441
▁demand	-9.61442
▁lift	-9.61444
▁route	-9.61446
▁rough	-9.61447
▁common	-9.61448
rt	-9.61451
▁assistant	-9.61451
▁ratchett	-9.61454
▁sake	-9.61462
▁military	-9.61467
mer	-9.61471
▁hugh	-9.61492
▁staying	-9.61502
▁they	-9.61546
▁jay	-9.61565
▁brooke	-9.6158
▁rex	-9.61601
▁arrived	-9.61612
▁marian	-9.61616
▁non	-9.6174
▁jin	-9.61787
▁squealing	-9.6179
▁coat	-9.61828
▁trees	-9.61982
▁flower	-9.6205
▁can	-9.62129
▁perfectly	-9.62212
▁bone	-9.62224
▁degrees	-9.62286
ign	-9.62331
▁letty	-9.6234
▁helping	-9.62491
▁mile	-9.62556
▁clearly	-9.62562
▁mis	-9.62681
▁tra	-9.62688
▁hearing	-9.62733
▁nuts	-9.62747
▁sooner	-9.63006
▁murderer	-9.6318
▁para	-9.63242
▁lines	-9.63297
son	-9.63402
istic	-9.63456
▁places	-9.63958
▁fate	-9.6402
▁lies	-9.642
ita	-9.64281
▁bra	-9.64463
▁design	-9.6468
▁cab	-9.64692
▁finding	-9.64727
▁files	-9.64885
ax	-9.64886
▁settle	-9.64919
▁hearts	-9.64961
▁discuss	-9.65154
▁russia	-9.65199
▁champ	-9.65242
▁jam	-9.65252
▁mix	-9.65264
▁chick	-9.65265
▁entrance	-9.65287
▁necessary	-9.65287
▁penguin	-9.65287
▁sanitation	-9.65287
▁uhhuh	-9.65287
▁experiment	-9.65287
▁fleur	-9.65287
▁footsteps	-9.65287
▁gunshot	-9.65287
▁percent	-9.65287
▁exciting	-9.65287
▁opinion	-9.65287
▁view	-9.65287
▁biggest	-9.65287
▁goanna	-9.65288
▁nature	-9.65288
▁cream	-9.65295
▁under	-9.65296
▁lucas	-9.65298
▁lester	-9.65299
▁jeanine	-9.653
▁assume	-9.65303
▁owner	-9.65304
▁hung	-9.65309
▁onto	-9.65315
▁bright	-9.65319
▁juan	-9.65333
▁laughter	-9.65358
▁lonely	-9.65367
▁lake	-9.65389
▁castle	-9.65429
ile	-9.6543
▁madame	-9.65431
▁tie	-9.65463
▁sin	-9.65581
▁heh	-9.65641
▁meaning	-9.65679
▁sexy	-9.65717
▁ford	-9.65729
▁passes	-9.65765
▁seal	-9.65887
▁ahh	-9.65912
▁escaped	-9.66019
▁destroyed	-9.6604
▁county	-9.66064
▁rob	-9.66174
eful	-9.66284
▁ir	-9.66457
che	-9.6698
▁sw	-9.67002
▁wh	-9.67109
▁score	-9.67352
▁bowl	-9.67376
ka	-9.67469
▁we	-9.67596
vin	-9.67818
▁letters	-9.67884
▁falling	-9.68073
▁doors	-9.68112
ven	-9.68225
mine	-9.68238
▁fr	-9.68255
▁success	-9.68551
▁charges	-9.68858
▁damage	-9.68887
▁remove	-9.68889
ating	-9.68946
▁ca	-9.68961
mon	-9.69031
▁devils	-9.69043
br	-9.69175
▁tip	-9.69214
▁permit	-9.69273
▁abandon	-9.69287
▁although	-9.69287
▁apologize	-9.69287
▁beauty	-9.69287
▁burchard	-9.69287
▁celebrate	-9.69287
▁complicated	-9.69287
▁energy	-9.69287
▁grandfather	-9.69287
▁holmes	-9.69287
▁location	-9.69287
▁oswald	-9.69287
▁tunnel	-9.69287
▁emperor	-9.69287
▁stock	-9.69287
▁dragonfly	-9.69287
▁reveal	-9.69287
▁style	-9.69287
▁responsibility	-9.69292
▁mmmhmm	-9.69293
▁blade	-9.69295
▁desk	-9.69297
▁combat	-9.69299
▁xian	-9.693
▁happiness	-9.69302
▁noah	-9.69316
▁grandma	-9.69323
▁tense	-9.69328
▁coast	-9.6933
▁loan	-9.69359
▁spare	-9.6936
▁fuel	-9.69362
▁aim	-9.69383
▁size	-9.69384
▁patient	-9.69391
▁gilly	-9.69393
▁manager	-9.69399
▁chirping	-9.69456
▁bleeding	-9.69482
▁cor	-9.69532
▁received	-9.69577
▁prepared	-9.69719
▁bump	-9.69841
▁stars	-9.69855
▁hood	-9.69877
▁noticed	-9.7005
▁ended	-9.70071
▁pictures	-9.70077
▁wheel	-9.70138
▁lion	-9.70241
▁lap	-9.7029
▁towards	-9.70344
▁oil	-9.70388
xu	-9.70395
▁thin	-9.70764
▁shower	-9.70813
▁burned	-9.70873
▁loser	-9.71026
ab	-9.71031
▁eggs	-9.71052
▁yells	-9.71063
ler	-9.71156
▁blocks	-9.71278
air	-9.7149
▁lied	-9.71726
af	-9.71829
oh	-9.71837
▁records	-9.72207
▁kinda	-9.72325
▁su	-9.72413
we	-9.72633
▁fathers	-9.72705
ized	-9.72735
▁bl	-9.7285
old	-9.72864
▁concern	-9.72865
▁del	-9.72948
ari	-9.7297
▁create	-9.73081
▁cheap	-9.73207
▁leo	-9.73362
▁mount	-9.73453
▁audience	-9.73453
▁circle	-9.73453
▁curtis	-9.73453
▁gertrude	-9.73453
▁grandmother	-9.73453
▁insurance	-9.73453
▁library	-9.73453
▁malcolm	-9.73453
▁marriage	-9.73453
▁mirror	-9.73453
▁pattern	-9.73453
▁satellite	-9.73453
▁credit	-9.73453
▁pardon	-9.73453
▁droid	-9.73454
▁grave	-9.73454
▁nightmare	-9.73454
▁tank	-9.73454
▁susan	-9.73455
▁jung	-9.73455
▁shake	-9.73456
▁steer	-9.73458
▁cruise	-9.73458
▁clue	-9.7346
▁terrorist	-9.73462
▁impressive	-9.73465
▁alien	-9.73467
▁teeth	-9.73468
▁lu	-9.73468
▁legend	-9.73469
▁forgotten	-9.7347
▁diane	-9.73471
▁roof	-9.73472
▁tommy	-9.73475
▁property	-9.73476
▁aboard	-9.73479
▁grid	-9.73505
▁sock	-9.73522
▁mack	-9.73535
▁dash	-9.73536
▁capable	-9.7357
▁chest	-9.73574
▁whispering	-9.7358
▁dust	-9.73613
▁cast	-9.73626
▁cheat	-9.73631
▁cow	-9.73631
▁jackie	-9.73866
▁nba	-9.74008
▁sharks	-9.74262
▁lower	-9.74263
▁demon	-9.7459
▁checked	-9.74654
▁knocking	-9.75062
▁checking	-9.75117
▁thu	-9.75145
▁bee	-9.7547
by	-9.75477
▁moments	-9.75525
▁learned	-9.75528
▁spit	-9.75712
ack	-9.7578
ni	-9.76335
▁siren	-9.76481
▁moves	-9.76592
ay	-9.76598
▁pieces	-9.76749
▁pet	-9.76757
work	-9.77125
▁spread	-9.77142
ress	-9.77296
▁pray	-9.77316
▁heal	-9.77334
▁release	-9.77411
▁load	-9.77434
▁sweat	-9.77544
▁qui	-9.7755
bre	-9.77579
▁dick	-9.77579
bra	-9.77597
▁effect	-9.77777
▁flash	-9.77793
▁agency	-9.77801
▁amount	-9.77801
▁citizen	-9.77801
▁downstairs	-9.77801
▁hidden	-9.77801
▁intelligence	-9.77801
▁negro	-9.77801
▁nuclear	-9.77801
▁ocean	-9.77801
▁routine	-9.77801
▁strike	-9.77801
▁suspens	-9.77801
▁tamra	-9.77801
▁violence	-9.77801
▁weather	-9.77801
▁whistling	-9.77801
▁blaze	-9.77801
▁kimsey	-9.77801
▁traffic	-9.77801
▁woolf	-9.77801
▁kidnapped	-9.77801
▁lukas	-9.77801
▁freedom	-9.77802
▁finn	-9.77802
▁someday	-9.77803
▁clara	-9.77806
▁process	-9.77807
▁bravo	-9.77811
▁itd	-9.77818
▁tej	-9.77819
▁airport	-9.77821
▁dump	-9.77823
▁romantic	-9.77826
▁confused	-9.77827
▁revving	-9.77833
▁edge	-9.77838
▁crackling	-9.77839
▁unfortunately	-9.77851
▁enter	-9.7787
▁dig	-9.77879
▁announcer	-9.77923
▁gate	-9.77932
▁asset	-9.77998
▁indeed	-9.78024
▁weight	-9.78071
▁navy	-9.78146
jo	-9.78151
▁tower	-9.78199
▁mia	-9.78327
▁barking	-9.7836
▁erase	-9.78363
ney	-9.7837
▁seek	-9.78378
▁concerned	-9.7842
▁op	-9.78464
▁anti	-9.78691
▁timeout	-9.78695
▁victim	-9.78923
▁option	-9.78961
▁whistle	-9.78969
▁tail	-9.79131
hold	-9.79185
▁pigs	-9.79346
▁pipe	-9.79445
▁fred	-9.79506
▁ge	-9.79527
▁traveling	-9.79673
▁spice	-9.79906
▁seemed	-9.80005
▁clears	-9.80193
▁soldiers	-9.80288
▁papers	-9.80597
▁fund	-9.8062
▁trainer	-9.8063
ire	-9.8074
▁si	-9.80772
▁cards	-9.80941
▁horses	-9.81174
▁followed	-9.8132
ned	-9.81705
ction	-9.81719
▁y	-9.81723
▁limit	-9.81749
ically	-9.81762
▁wound	-9.81766
you	-9.8185
▁quarters	-9.8192
▁direct	-9.82009
ral	-9.82074
▁suits	-9.82108
▁proper	-9.82176
▁usual	-9.82179
▁ears	-9.82248
▁fort	-9.82248
▁guide	-9.82301
lan	-9.82303
▁sail	-9.82324
▁slip	-9.82335
▁perform	-9.82343
▁jeff	-9.82347
▁sneak	-9.82347
▁alabama	-9.82347
▁asleep	-9.82347
▁divergent	-9.82347
▁equipment	-9.82347
▁friday	-9.82347
▁griswald	-9.82347
▁nonsense	-9.82347
▁otherwise	-9.82347
▁plastic	-9.82347
▁sacred	-9.82347
▁society	-9.82347
▁stewart	-9.82347
▁vacation	-9.82347
▁laurie	-9.82347
▁spring	-9.82348
▁rumble	-9.8235
▁central	-9.82352
▁resistance	-9.82353
▁lean	-9.82353
▁communist	-9.82358
▁poison	-9.82358
▁online	-9.82366
▁cave	-9.82377
▁according	-9.82392
▁guilty	-9.82406
▁drinking	-9.82409
▁shape	-9.82415
▁bride	-9.82427
▁fellas	-9.82431
▁sarah	-9.82442
▁hips	-9.8245
▁barely	-9.82456
▁debt	-9.82464
▁apple	-9.82521
▁ought	-9.82523
▁dive	-9.82523
▁maid	-9.82544
ru	-9.82551
▁sc	-9.82566
▁rise	-9.82603
▁syd	-9.82627
▁nearly	-9.8285
▁net	-9.82915
▁souls	-9.82935
▁lab	-9.82965
▁earn	-9.83023
▁hire	-9.8303
ook	-9.83073
▁guards	-9.83191
▁mid	-9.83296
▁forced	-9.83543
let	-9.83588
▁las	-9.83709
▁guest	-9.83777
▁showing	-9.83792
▁detail	-9.83794
▁stealing	-9.83829
ron	-9.83859
ning	-9.83902
ial	-9.83948
▁ignore	-9.84049
▁armed	-9.84075
▁q	-9.84176
▁warn	-9.84194
▁goodness	-9.84334
ger	-9.84375
▁print	-9.84388
▁expected	-9.84424
▁rate	-9.8462
▁loss	-9.84653
▁counting	-9.849
▁belongs	-9.84957
▁pow	-9.84975
▁pulled	-9.85411
▁tape	-9.8546
▁que	-9.85497
▁am	-9.86208
down	-9.86228
▁trusted	-9.86581
▁falcon	-9.86584
▁brown	-9.86634
mark	-9.86648
▁introduce	-9.86708
▁piss	-9.86733
▁gar	-9.86786
▁cri	-9.86932
▁sudden	-9.86937
▁pee	-9.86987
▁nothin	-9.87008
▁surely	-9.87097
▁dodge	-9.87106
▁advice	-9.87109
▁applause	-9.87109
▁arrakis	-9.87109
▁bottom	-9.87109
▁cheerleader	-9.87109
▁clifton	-9.87109
▁clown	-9.87109
▁darrin	-9.87109
▁effort	-9.87109
▁frankenstein	-9.87109
▁harrison	-9.87109
▁helicopter	-9.87109
▁interview	-9.87109
▁lestrade	-9.87109
▁oclock	-9.87109
▁particular	-9.87109
▁separate	-9.87109
▁taylor	-9.87109
▁toretto	-9.87109
▁zero	-9.87109
▁byebye	-9.87109
▁honeymoon	-9.87109
▁period	-9.87109
▁ramey	-9.87109
▁suzy	-9.87109
▁cheese	-9.87109
▁intend	-9.87109
▁proceed	-9.87109
▁adog	-9.87109
▁strip	-9.87109
▁swimming	-9.8711
▁patrick	-9.8711
▁shining	-9.87111
▁novel	-9.87111
▁downtown	-9.87112
▁insist	-9.87113
▁whenever	-9.87114
▁elwood	-9.87116
▁source	-9.87117
▁vision	-9.87119
▁clever	-9.87122
▁snow	-9.87126
▁passport	-9.87128
▁patty	-9.87129
▁barron	-9.87129
▁easier	-9.87129
▁fancy	-9.87136
▁familiar	-9.87155
▁pink	-9.87158
▁gross	-9.87159
▁twin	-9.87162
▁beast	-9.87173
▁chargers	-9.87191
▁drill	-9.87201
▁pure	-9.87221
▁extremely	-9.87222
▁badge	-9.87298
▁boom	-9.87334
▁ban	-9.8734
▁subtitle	-9.87374
▁sadie	-9.87385
▁dia	-9.87424
▁jerk	-9.87475
▁bail	-9.87478
▁trace	-9.87486
▁germany	-9.87558
▁speakers	-9.876
▁entirely	-9.87654
▁val	-9.87657
▁woods	-9.87669
▁joint	-9.87705
▁ke	-9.87792
▁mentioned	-9.87905
side	-9.87975
▁thousands	-9.87997
▁comp	-9.88001
▁ghosts	-9.88062
▁based	-9.88066
▁inter	-9.88073
▁goal	-9.88088
iff	-9.8809
▁nah	-9.88152
ran	-9.88277
▁paying	-9.8835
cat	-9.88372
▁flu	-9.88486
rate	-9.88579
▁steps	-9.88709
▁sport	-9.88748
▁student	-9.88749
▁tiger	-9.88761
▁dry	-9.88793
▁selling	-9.88856
▁pot	-9.88865
▁skills	-9.88888
ue	-9.89058
▁rd	-9.8906
gie	-9.89079
▁younger	-9.89086
tu	-9.89101
▁joined	-9.89236
▁believed	-9.89577
▁learning	-9.89696
▁rider	-9.89763
▁hel	-9.90047
▁led	-9.90077
▁ad	-9.90092
▁voices	-9.90209
▁opening	-9.90261
▁whistles	-9.90778
py	-9.90785
▁spa	-9.91107
▁deliver	-9.91286
▁photograph	-9.91413
illa	-9.91472
▁disappear	-9.91508
phone	-9.91687
beat	-9.91688
▁and	-9.91692
▁divorce	-9.91708
▁stands	-9.9176
▁nos	-9.91786
▁cent	-9.91857
▁min	-9.91889
▁spirits	-9.91904
▁inc	-9.91958
hen	-9.91978
▁attract	-9.92085
▁basic	-9.921
▁accent	-9.92109
▁channel	-9.92109
▁custody	-9.92109
▁echelon	-9.92109
▁federal	-9.92109
▁fountain	-9.92109
▁gillian	-9.92109
▁gorgeous	-9.92109
▁holiday	-9.92109
▁hollywood	-9.92109
▁humming	-9.92109
▁italian	-9.92109
▁jessica	-9.92109
▁miracle	-9.92109
▁orange	-9.92109
▁progress	-9.92109
▁puerto	-9.92109
▁regular	-9.92109
▁smooth	-9.92109
▁university	-9.92109
▁whether	-9.92109
▁century	-9.92109
▁thirty	-9.92109
▁dennis	-9.92109
▁locksley	-9.92109
▁material	-9.92109
▁powder	-9.92109
▁maroni	-9.9211
▁ugh	-9.92113
▁jason	-9.92114
▁goose	-9.92115
▁mellie	-9.92119
▁prize	-9.9212
▁motive	-9.92122
▁fought	-9.92123
▁blast	-9.92123
▁bedroom	-9.9213
▁woke	-9.92137
▁meat	-9.92141
▁erin	-9.92144
▁planned	-9.92145
▁elton	-9.92146
▁aside	-9.92148
▁tiny	-9.92148
▁connection	-9.9216
▁accountant	-9.92166
▁liar	-9.92184
▁worm	-9.92193
▁kevin	-9.92198
▁active	-9.92212
▁statement	-9.92226
▁mercy	-9.92235
▁button	-9.92267
▁glen	-9.92273
▁den	-9.92285
▁panic	-9.92286
▁cia	-9.92294
▁healthy	-9.92306
▁rare	-9.92321
▁wise	-9.92322
▁coughing	-9.92329
▁marina	-9.92347
▁angela	-9.92401
▁sharply	-9.92415
▁scary	-9.92574
▁lifetime	-9.92584
▁down	-9.92585
▁bitches	-9.92603
▁delivered	-9.92701
▁mustve	-9.92774
▁faction	-9.92858
▁union	-9.92873
ative	-9.9306
▁slams	-9.93258
▁os	-9.93347
▁not	-9.93355
▁ap	-9.93415
▁lately	-9.93455
▁sec	-9.9353
▁searching	-9.93615
▁dressed	-9.93623
▁sometime	-9.93764
▁wave	-9.94001
▁u	-9.94019
▁boxing	-9.94196
▁staring	-9.94247
▁prisoner	-9.94313
▁tracks	-9.94331
▁kicked	-9.94417
▁engineer	-9.94501
▁gi	-9.94977
▁virgin	-9.95365
spite	-9.95423
▁wor	-9.955
▁signed	-9.95522
▁secrets	-9.95578
▁lots	-9.95593
▁demons	-9.96156
▁sirens	-9.9618
▁services	-9.96258
▁confirm	-9.96738
▁stations	-9.96809
ette	-9.96845
▁bark	-9.96892
place	-9.96898
ied	-9.96953
▁refuse	-9.96977
▁assure	-9.97097
▁cock	-9.97205
▁indian	-9.97245
▁steve	-9.97273
▁africa	-9.97275
▁tears	-9.97288
▁europe	-9.9733
▁object	-9.97347
▁civil	-9.97364
▁milk	-9.97371
▁algaib	-9.97372
▁darius	-9.97372
▁defeat	-9.97372
▁desperate	-9.97372
▁escort	-9.97372
▁grabelski	-9.97372
▁incident	-9.97372
▁israel	-9.97372
▁judgment	-9.97372
▁kathy	-9.97372
▁knicks	-9.97372
▁lorelei	-9.97372
▁measure	-9.97372
▁muscle	-9.97372
▁physical	-9.97372
▁selina	-9.97372
▁smoking	-9.97372
▁surrender	-9.97372
▁telephone	-9.97372
▁thrombey	-9.97372
▁volunteer	-9.97372
▁blanc	-9.97372
▁miami	-9.97372
▁moose	-9.97372
▁shift	-9.97372
▁janusz	-9.97372
▁mostly	-9.97372
▁tooth	-9.97372
▁candor	-9.97372
▁changing	-9.97372
▁expert	-9.97372
▁ilse	-9.97372
▁piano	-9.97372
▁troy	-9.97372
▁costume	-9.97373
▁clatter	-9.97373
▁warren	-9.97373
▁authorities	-9.97373
▁desire	-9.97374
▁incredible	-9.97375
▁pride	-9.97378
▁yellow	-9.97379
▁foster	-9.97379
▁community	-9.9738
▁terms	-9.97381
▁locate	-9.97382
▁comfortable	-9.97386
▁shopping	-9.97387
▁hostage	-9.97387
▁rebound	-9.97391
▁fox	-9.97393
▁sunday	-9.97393
▁gather	-9.97395
▁clock	-9.97397
▁zed	-9.97397
▁freeze	-9.97399
▁kit	-9.974
▁boring	-9.97401
▁trash	-9.97402
▁peak	-9.97403
▁title	-9.97426
▁shine	-9.97426
▁forest	-9.97437
▁jungle	-9.97437
▁labor	-9.97441
▁technically	-9.97451
▁exit	-9.97515
▁anger	-9.97521
▁dating	-9.97558
▁emma	-9.97568
▁tickets	-9.97627
ound	-9.97636
▁cutting	-9.97664
▁boo	-9.97697
rona	-9.97738
▁hitting	-9.97768
▁momma	-9.97812
▁mikey	-9.97821
uff	-9.97821
▁gay	-9.97864
ties	-9.97911
right	-9.97945
etch	-9.97968
▁billion	-9.98015
▁agreed	-9.98053
▁bella	-9.98201
▁nation	-9.98287
▁carefully	-9.98375
▁bur	-9.98633
▁stronger	-9.98664
▁fra	-9.98799
▁bust	-9.98831
▁ri	-9.98842
▁tracking	-9.98865
▁shout	-9.98981
▁fades	-9.99342
▁liked	-9.99359
▁snap	-9.99491
▁awful	-9.99592
ular	-9.99622
▁pounds	-9.99746
▁rey	-9.99758
▁prom	-9.99761
hand	-9.99788
▁fans	-9.99837
▁artist	-9.99938
hi	-9.99939
▁yu	-10.0008
▁opened	-10.0017
▁her	-10.0024
▁attacked	-10.0043
▁cares	-10.0082
▁trained	-10.009
▁beating	-10.0092
ga	-10.0093
▁sweets	-10.0107
▁dads	-10.0129
▁rec	-10.0158
▁hurts	-10.0165
▁mighty	-10.0167
▁flip	-10.019
▁likely	-10.0212
▁engines	-10.0225
▁bones	-10.0228
▁screech	-10.023
▁buzz	-10.023
▁picking	-10.0235
▁the	-10.0239
▁criminals	-10.0242
▁ev	-10.0261
▁rub	-10.0271
▁hated	-10.0272
▁natural	-10.0275
▁current	-10.0275
▁exact	-10.0276
▁chose	-10.0283
▁express	-10.0287
▁assault	-10.0293
▁avenue	-10.0293
▁creaking	-10.0293
▁enemies	-10.0293
▁exclaim	-10.0293
▁fugitive	-10.0293
▁gregory	-10.0293
▁hollow	-10.0293
▁intercept	-10.0293
▁interrupt	-10.0293
▁jesse	-10.0293
▁moscow	-10.0293
▁mystery	-10.0293
▁possibly	-10.0293
▁pregnant	-10.0293
▁revenge	-10.0293
▁sacrifice	-10.0293
▁silence	-10.0293
▁sparrow	-10.0293
▁sweep	-10.0293
▁unbelievable	-10.0293
▁violent	-10.0293
▁eleven	-10.0293
▁relative	-10.0293
▁staff	-10.0293
▁vault	-10.0293
▁oath	-10.0293
▁result	-10.0293
▁plate	-10.0293
▁eject	-10.0293
▁stacy	-10.0293
▁knots	-10.0293
▁vital	-10.0293
▁international	-10.0293
▁papa	-10.0293
▁lemon	-10.0293
▁statue	-10.0293
▁gummer	-10.0293
▁dishes	-10.0294
▁chop	-10.0294
▁status	-10.0294
▁couch	-10.0295
▁vince	-10.0295
▁gunfire	-10.0295
▁garage	-10.0295
▁section	-10.0295
▁leto	-10.0296
▁reward	-10.0297
▁chaos	-10.0297
▁peterson	-10.0298
▁agreement	-10.0298
ung	-10.0298
▁murmuring	-10.0298
▁louise	-10.0299
▁duck	-10.0299
▁maria	-10.0299
▁mental	-10.0299
▁logan	-10.03
▁motion	-10.03
▁zone	-10.0305
▁beam	-10.0305
▁yup	-10.0307
▁spoken	-10.0307
▁image	-10.0308
▁rocket	-10.0309
▁seventh	-10.0312
▁meal	-10.0313
▁armor	-10.0315
▁mmmm	-10.0317
▁kenta	-10.0322
▁managed	-10.0323
▁wet	-10.0326
▁sat	-10.0326
▁grown	-10.0326
▁approaching	-10.0331
▁stopping	-10.0332
▁bath	-10.0333
▁flag	-10.0334
thorn	-10.0336
▁mistakes	-10.0349
uch	-10.0356
▁off	-10.0364
▁daughters	-10.0368
▁tube	-10.0391
▁slowly	-10.0394
for	-10.0408
▁realized	-10.0408
▁gen	-10.0412
iy	-10.0417
▁drawing	-10.0428
gh	-10.0443
▁my	-10.0446
▁accepted	-10.0455
▁tied	-10.0478
obbie	-10.0482
ber	-10.0486
▁spin	-10.0489
▁knocked	-10.0494
▁freaking	-10.0502
▁fixed	-10.051
▁boxer	-10.0514
▁hug	-10.0537
▁nail	-10.0538
▁hoo	-10.0548
▁revs	-10.0554
uck	-10.0561
▁depends	-10.0561
▁blowing	-10.0563
▁kissed	-10.0571
▁ate	-10.0571
sis	-10.0579
▁prior	-10.0583
▁bon	-10.0584
▁that	-10.0597
▁members	-10.0597
▁bb	-10.0616
▁badly	-10.062
▁cared	-10.0647
▁leading	-10.0657
▁app	-10.0671
▁finals	-10.0679
aw	-10.0683
▁fo	-10.0692
ville	-10.0696
▁throwing	-10.0699
▁tit	-10.0704
wing	-10.0706
▁inn	-10.0739
▁pin	-10.0752
▁lin	-10.0756
▁dealer	-10.0786
▁powers	-10.0787
▁sen	-10.0802
▁bug	-10.0803
▁reasons	-10.0812
▁suffer	-10.0816
ble	-10.0817
▁describe	-10.0823
▁lawyers	-10.0828
board	-10.0831
hood	-10.0832
▁engage	-10.084
▁include	-10.0841
book	-10.0844
▁angels	-10.0861
▁health	-10.0863
▁doug	-10.0874
▁gentle	-10.0876
▁assassin	-10.0877
▁jean	-10.0879
▁cloud	-10.088
▁birth	-10.0881
▁advance	-10.0881
▁advantage	-10.0881
▁attend	-10.0881
▁centuries	-10.0881
▁disgusting	-10.0881
▁easily	-10.0881
▁families	-10.0881
▁harkonnen	-10.0881
▁journey	-10.0881
▁madagin	-10.0881
▁ordinary	-10.0881
▁phase	-10.0881
▁pizza	-10.0881
▁scientist	-10.0881
▁scratch	-10.0881
▁soviet	-10.0881
▁tradition	-10.0881
▁universe	-10.0881
▁whimpering	-10.0881
▁crystal	-10.0881
▁guitar	-10.0881
▁lifeboat	-10.0881
▁maintain	-10.0881
▁wreck	-10.0881
▁chitty	-10.0881
▁decent	-10.0881
▁draft	-10.0881
▁flew	-10.0881
▁habit	-10.0881
▁dominic	-10.0881
▁capital	-10.0881
▁chanting	-10.0881
▁sugar	-10.0881
▁distort	-10.0881
▁whyd	-10.0881
▁racing	-10.0881
▁available	-10.0881
▁sandwich	-10.0881
▁roars	-10.0881
▁roost	-10.0882
▁clap	-10.0882
▁suspicious	-10.0882
▁stink	-10.0882
▁chamber	-10.0882
▁glory	-10.0882
▁bronx	-10.0882
▁olive	-10.0882
▁rattle	-10.0883
▁tomb	-10.0883
▁estate	-10.0883
▁observ	-10.0883
▁wide	-10.0883
▁youth	-10.0883
▁aria	-10.0884
▁giant	-10.0884
▁championship	-10.0884
▁rush	-10.0884
▁abba	-10.0885
▁amon	-10.0885
▁gentleman	-10.0885
▁bret	-10.0886
▁tool	-10.0887
▁among	-10.0888
▁trial	-10.0888
▁temple	-10.0889
▁chosen	-10.0891
▁poke	-10.0892
▁embarrassing	-10.0899
▁cruel	-10.0899
▁legal	-10.0901
▁for	-10.0906
▁bound	-10.0908
▁cage	-10.0909
▁din	-10.0911
▁disappointed	-10.0912
▁actor	-10.0913
▁setting	-10.0914
▁payment	-10.0915
▁jim	-10.092
▁shatter	-10.0921
▁document	-10.0924
▁cure	-10.0926
▁manning	-10.0936
▁customer	-10.0949
▁at	-10.0958
▁normally	-10.097
da	-10.098
▁swing	-10.0985
▁blessing	-10.0989
▁locker	-10.0995
▁drinks	-10.0995
held	-10.0998
▁psych	-10.1002
▁arrested	-10.1013
▁deposit	-10.1021
ky	-10.1028
▁painting	-10.1061
▁carrying	-10.1076
▁pushing	-10.1081
▁offered	-10.1091
cer	-10.1099
▁event	-10.1102
izing	-10.1103
▁rene	-10.1104
▁brakes	-10.1104
▁exp	-10.1115
▁steph	-10.1158
▁beep	-10.1159
▁issue	-10.1162
▁suspects	-10.1163
▁photo	-10.1167
▁teams	-10.1167
hole	-10.1173
▁expecting	-10.1177
▁missile	-10.1179
▁who	-10.1185
▁pope	-10.1185
car	-10.1188
▁sucks	-10.119
▁touching	-10.1246
▁returned	-10.1271
▁begg	-10.1284
cc	-10.1284
ide	-10.1285
ily	-10.1302
▁details	-10.1311
ien	-10.1314
▁pulling	-10.1319
unk	-10.1319
erie	-10.133
▁pat	-10.1336
▁cal	-10.137
▁changes	-10.1408
▁lookin	-10.1433
▁bikes	-10.1441
▁classic	-10.1443
▁movies	-10.1443
▁spoil	-10.1446
▁che	-10.1449
mber	-10.145
skull	-10.146
town	-10.146
power	-10.146
▁drops	-10.1472
▁crawl	-10.1481
▁brook	-10.1482
▁memo	-10.1482
▁large	-10.1484
▁weigh	-10.1491
▁madam	-10.1493
▁carrie	-10.1495
▁distract	-10.1498
▁gall	-10.1499
▁jew	-10.1502
▁peculiar	-10.1503
▁happi	-10.1504
▁drama	-10.1505
▁abnegation	-10.1506
▁alfred	-10.1506
▁ambulance	-10.1506
▁carriage	-10.1506
▁circumstances	-10.1506
▁concert	-10.1506
▁curious	-10.1506
▁dauntless	-10.1506
▁depress	-10.1506
▁elephant	-10.1506
▁felix	-10.1506
▁grateful	-10.1506
▁guarantee	-10.1506
▁horrible	-10.1506
▁jeong	-10.1506
▁license	-10.1506
▁mcqueen	-10.1506
▁positive	-10.1506
▁publish	-10.1506
▁purple	-10.1506
▁rebecca	-10.1506
▁saikwong	-10.1506
▁saturday	-10.1506
▁stammers	-10.1506
▁stilgar	-10.1506
▁sunshine	-10.1506
▁surround	-10.1506
▁tammie	-10.1506
▁blake	-10.1506
▁cannon	-10.1506
▁generous	-10.1506
▁insult	-10.1506
▁julian	-10.1506
▁quinn	-10.1506
▁senior	-10.1506
▁wealth	-10.1506
▁enoch	-10.1506
▁several	-10.1506
▁theory	-10.1506
▁washington	-10.1506
▁horde	-10.1506
▁charm	-10.1506
▁email	-10.1506
▁radar	-10.1506
▁stairs	-10.1506
▁surface	-10.1506
▁brand	-10.1506
▁admir	-10.1506
▁executive	-10.1506
▁reverse	-10.1506
▁install	-10.1506
▁overnight	-10.1507
▁liberty	-10.1507
▁garbage	-10.1507
▁adopt	-10.1507
▁jewel	-10.1507
▁gray	-10.1507
▁employee	-10.1507
▁baseball	-10.1507
▁blanket	-10.1507
▁committed	-10.1507
▁noble	-10.1507
▁basically	-10.1508
▁performance	-10.1508
gen	-10.1509
▁inmate	-10.1509
▁chart	-10.1509
▁whatre	-10.151
▁grass	-10.1511
▁kenny	-10.1512
▁award	-10.1512
▁senor	-10.1512
▁rude	-10.1514
▁chill	-10.1516
▁corey	-10.1517
▁chin	-10.1517
▁booty	-10.1518
▁darkness	-10.1519
▁humanity	-10.1522
▁jacket	-10.1522
▁chu	-10.1523
▁kate	-10.1525
▁laid	-10.1526
▁yea	-10.1531
▁caused	-10.1533
▁rap	-10.1539
com	-10.1542
▁some	-10.1544
▁toss	-10.1544
▁model	-10.155
▁sisters	-10.155
▁discovered	-10.155
▁impressed	-10.1554
gged	-10.1556
▁passion	-10.1557
▁x	-10.1563
▁deny	-10.1563
▁challenger	-10.1563
▁drag	-10.1565
▁stretch	-10.1568
▁bullets	-10.1583
▁mor	-10.1584
▁buster	-10.1584
▁coin	-10.1588
▁useful	-10.1588
▁mud	-10.1592
ik	-10.1599
▁tub	-10.1604
▁fre	-10.1636
▁mel	-10.1644
▁bombs	-10.165
▁passengers	-10.1653
▁boats	-10.1659
▁hunting	-10.1662
top	-10.1675
▁pad	-10.1678
ility	-10.1688
tz	-10.169
▁rum	-10.1699
▁scan	-10.1701
▁crossed	-10.1703
ado	-10.1705
▁holes	-10.1737
▁rolling	-10.1741
ken	-10.1748
▁numbers	-10.1776
▁blows	-10.178
▁parking	-10.1783
▁troops	-10.1813
▁joining	-10.1814
berg	-10.1827
▁scor	-10.183
▁rope	-10.1831
▁click	-10.1839
▁folk	-10.1839
dad	-10.1842
▁thi	-10.1844
▁france	-10.1846
▁kissing	-10.1848
room	-10.1851
▁deer	-10.1857
▁psycho	-10.1857
come	-10.1864
▁dancers	-10.1868
ez	-10.1868
▁gil	-10.1876
▁sy	-10.1893
▁systems	-10.1898
▁doctors	-10.192
▁sew	-10.1929
vy	-10.193
ison	-10.1944
▁equ	-10.195
eek	-10.1962
▁guests	-10.1974
▁unh	-10.198
▁poe	-10.199
▁options	-10.1998
▁becomes	-10.2
▁stayed	-10.2029
▁dancer	-10.2061
▁rats	-10.2078
▁squeal	-10.2109
▁kyl	-10.2125
life	-10.2127
▁mood	-10.2149
▁complain	-10.215
ball	-10.2151
▁wast	-10.2151
▁obvious	-10.2156
pri	-10.2158
▁mountains	-10.2162
▁cats	-10.2165
▁orphan	-10.217
▁strict	-10.2173
▁academy	-10.2173
▁adventure	-10.2173
▁agatha	-10.2173
▁annika	-10.2173
▁arashikage	-10.2173
▁arriving	-10.2173
▁bread	-10.2173
▁celebrating	-10.2173
▁cortez	-10.2173
▁emmett	-10.2173
▁eventually	-10.2173
▁existence	-10.2173
▁explanation	-10.2173
▁holtzmann	-10.2173
▁hourglass	-10.2173
▁intelligent	-10.2173
▁keltus	-10.2173
▁kopernick	-10.2173
▁kynes	-10.2173
▁lincoln	-10.2173
▁mousetrap	-10.2173
▁owimoweh	-10.2173
▁political	-10.2173
▁represent	-10.2173
▁republic	-10.2173
▁reputation	-10.2173
▁shelter	-10.2173
▁stomach	-10.2173
▁survival	-10.2173
▁symbol	-10.2173
▁telegram	-10.2173
▁therefore	-10.2173
▁tournament	-10.2173
▁underwear	-10.2173
▁vampire	-10.2173
▁wachati	-10.2173
▁wizard	-10.2173
▁bogey	-10.2173
▁education	-10.2173
▁explore	-10.2173
▁ghostbusters	-10.2173
▁mennick	-10.2173
▁rattling	-10.2173
▁sheep	-10.2173
▁cotton	-10.2173
▁teenage	-10.2173
▁wagon	-10.2173
▁whimpers	-10.2173
▁cycl	-10.2173
▁disaster	-10.2173
▁knowledge	-10.2173
▁stood	-10.2173
▁kingdom	-10.2173
▁sentence	-10.2173
▁instinct	-10.2173
▁saint	-10.2173
▁somali	-10.2173
▁smash	-10.2173
▁krest	-10.2173
▁sniffles	-10.2173
▁spook	-10.2173
▁cancel	-10.2173
▁belt	-10.2173
▁series	-10.2173
▁alert	-10.2173
▁auto	-10.2173
▁valka	-10.2174
▁palace	-10.2174
▁owns	-10.2174
▁juice	-10.2174
▁lockdown	-10.2174
▁entertainment	-10.2175
▁height	-10.2175
▁commit	-10.2176
▁task	-10.2176
▁cobra	-10.2176
▁lips	-10.2176
▁naked	-10.2176
▁nephew	-10.2178
▁heck	-10.2178
▁johnson	-10.2179
▁compare	-10.2179
▁comment	-10.2179
▁began	-10.218
▁rome	-10.2181
▁gear	-10.2181
▁boil	-10.2182
▁princess	-10.2182
▁raid	-10.2182
▁warden	-10.2183
▁african	-10.2185
▁threaten	-10.2189
nic	-10.2189
▁carrier	-10.2191
▁bored	-10.2191
▁vice	-10.2193
▁fishman	-10.2194
boy	-10.2195
▁cargo	-10.2196
▁winter	-10.2197
▁directly	-10.2199
▁golden	-10.2201
▁delivery	-10.2204
ably	-10.2206
▁dip	-10.2209
▁mal	-10.2225
▁teth	-10.2241
▁mall	-10.2245
▁thrown	-10.2246
▁confirmed	-10.2249
▁bay	-10.225
▁pie	-10.2251
▁movement	-10.2253
▁cam	-10.2255
▁emotional	-10.2256
▁toy	-10.2259
▁personally	-10.226
ara	-10.2264
▁warned	-10.2265
▁fee	-10.2276
▁hunter	-10.2277
▁sealed	-10.2282
▁raised	-10.2295
bar	-10.2298
▁asses	-10.2308
▁victory	-10.2317
▁dealing	-10.2318
▁forces	-10.232
▁riding	-10.2325
▁cameras	-10.2328
ities	-10.2341
▁parker	-10.2365
▁pushed	-10.2384
ward	-10.2389
▁officers	-10.2401
▁crossing	-10.2401
▁gloves	-10.2403
▁targets	-10.2409
▁bears	-10.2409
tial	-10.2422
▁shadows	-10.2424
▁edit	-10.2425
▁champions	-10.2426
coming	-10.2434
▁scouts	-10.2448
lyn	-10.2465
▁burning	-10.2468
▁growls	-10.2472
▁warriors	-10.2477
▁williams	-10.2501
▁troop	-10.251
▁employ	-10.2522
▁jumping	-10.2527
▁bags	-10.2533
▁messing	-10.2539
▁newspaper	-10.2543
▁odd	-10.2543
▁william	-10.2546
▁monster	-10.2547
▁missiles	-10.2551
just	-10.2561
▁damned	-10.26
iest	-10.2601
▁sale	-10.2607
▁depend	-10.2626
▁soc	-10.2633
▁orchestra	-10.2635
▁sav	-10.2638
▁sports	-10.265
my	-10.2654
▁arab	-10.2666
▁what	-10.2672
ule	-10.2677
▁ver	-10.2688
▁suite	-10.2698
▁gum	-10.2701
▁goodman	-10.2702
▁smells	-10.2717
▁sis	-10.2721
erry	-10.2727
▁poet	-10.2746
▁ur	-10.2761
▁clip	-10.2787
▁lau	-10.2801
▁tap	-10.2806
▁electric	-10.2823
▁recover	-10.2828
dra	-10.2829
port	-10.2829
field	-10.2838
▁hack	-10.284
foot	-10.2841
break	-10.2843
▁solve	-10.2848
▁ln	-10.2856
▁extreme	-10.287
▁ski	-10.2877
▁mmhm	-10.2878
inlaw	-10.2881
▁pump	-10.2886
▁dwarf	-10.2887
▁fashion	-10.2887
▁recruit	-10.2887
▁respond	-10.2887
▁arguing	-10.2887
▁argument	-10.2887
▁atlantic	-10.2887
▁barnaby	-10.2887
▁constant	-10.2887
▁dimitri	-10.2887
▁disguise	-10.2887
▁dispatch	-10.2887
▁exchange	-10.2887
▁global	-10.2887
▁gurney	-10.2887
▁inaudible	-10.2887
▁luggage	-10.2887
▁mademoiselle	-10.2887
▁messenger	-10.2887
▁mexican	-10.2887
▁misunderstand	-10.2887
▁operative	-10.2887
▁orient	-10.2887
▁prescott	-10.2887
▁robbery	-10.2887
▁spectator	-10.2887
▁stevie	-10.2887
▁struggle	-10.2887
▁terrific	-10.2887
▁tragedy	-10.2887
▁trotters	-10.2887
▁visual	-10.2887
▁davis	-10.2887
▁fifty	-10.2887
▁illegal	-10.2887
▁monkey	-10.2887
▁unique	-10.2887
▁creek	-10.2887
▁hyah	-10.2887
▁merely	-10.2887
▁smack	-10.2887
▁wendy	-10.2887
▁bacon	-10.2887
▁banana	-10.2887
▁bodies	-10.2887
▁thief	-10.2887
▁plain	-10.2887
▁scott	-10.2887
▁virus	-10.2887
▁steel	-10.2887
▁abort	-10.2887
▁civilization	-10.2887
▁ensure	-10.2887
▁attitude	-10.2887
▁anderson	-10.2887
▁awake	-10.2887
▁firm	-10.2888
▁orc	-10.2888
▁vlad	-10.2888
▁manual	-10.2888
▁element	-10.2888
▁wipe	-10.2888
▁danny	-10.2889
▁native	-10.2889
▁helmet	-10.2889
▁blah	-10.2889
▁junk	-10.289
▁daily	-10.289
▁est	-10.289
▁western	-10.289
▁hmph	-10.289
▁proof	-10.2891
▁coward	-10.2891
▁skinny	-10.2892
ible	-10.2892
▁amber	-10.2892
▁ridge	-10.2892
▁conductor	-10.2892
▁chimes	-10.2892
▁dawn	-10.2893
▁vow	-10.2893
▁root	-10.2894
▁bold	-10.2895
▁motor	-10.2896
▁shore	-10.2896
▁recently	-10.2897
▁severe	-10.2898
▁supper	-10.2898
▁slept	-10.2899
▁chess	-10.29
▁bowers	-10.29
▁condo	-10.2901
▁scam	-10.2902
▁pj	-10.2903
▁sack	-10.2903
▁row	-10.2904
▁beck	-10.2905
▁obsessed	-10.2907
▁por	-10.2907
▁rev	-10.2909
▁currently	-10.291
▁homework	-10.2912
▁script	-10.2913
▁bout	-10.2913
▁aid	-10.2914
▁jane	-10.2916
▁kiddo	-10.2917
▁vera	-10.2918
▁bitter	-10.2918
▁rode	-10.2922
▁kent	-10.2924
▁endless	-10.2925
▁latest	-10.2927
▁accused	-10.2929
▁taxi	-10.2929
▁bass	-10.2942
▁pity	-10.2943
▁electrical	-10.2949
▁ref	-10.2949
▁howdy	-10.2955
▁tapes	-10.296
▁squa	-10.2965
▁tribe	-10.2976
▁gre	-10.2989
▁quietly	-10.299
▁pm	-10.2996
▁penn	-10.3012
▁bare	-10.3017
▁deserved	-10.302
▁cursed	-10.3022
spect	-10.3024
▁frankly	-10.3043
▁crashing	-10.3044
▁sniffs	-10.3056
▁boots	-10.3065
▁bucks	-10.3083
ada	-10.3085
▁safer	-10.3086
▁manage	-10.309
▁knees	-10.311
▁highly	-10.3132
▁appears	-10.3135
▁recording	-10.3136
isser	-10.3144
▁dove	-10.3148
gging	-10.315
▁offering	-10.3168
▁gifted	-10.3184
▁lame	-10.3213
▁clients	-10.3215
▁lessons	-10.3215
▁listened	-10.3216
face	-10.3221
▁ned	-10.3226
ito	-10.3237
▁monsters	-10.3241
▁exc	-10.325
▁messed	-10.3251
▁begins	-10.3254
▁pound	-10.3255
▁yell	-10.3256
▁watched	-10.326
▁ropes	-10.3268
▁fore	-10.3286
▁marks	-10.3288
▁computers	-10.329
▁photos	-10.3291
▁deserves	-10.3294
▁creature	-10.3313
▁client	-10.3314
▁warrior	-10.3315
▁egg	-10.3319
▁cleaned	-10.3334
▁dollar	-10.3343
▁lesson	-10.3345
▁bend	-10.3349
looking	-10.3426
▁shav	-10.3444
▁tw	-10.348
▁tent	-10.3493
day	-10.353
▁zi	-10.3534
ace	-10.3566
tle	-10.3577
▁contain	-10.3582
▁impress	-10.3589
well	-10.3594
▁disturb	-10.3596
▁los	-10.3603
house	-10.3608
wood	-10.3609
point	-10.361
piece	-10.3611
▁chase	-10.3619
▁growl	-10.3629
that	-10.3634
▁prince	-10.3645
▁bru	-10.3645
▁flow	-10.3651
▁individual	-10.3653
▁wrap	-10.3655
▁instruct	-10.3655
rink	-10.3655
▁neighbor	-10.3656
▁hawk	-10.3656
▁brief	-10.3656
▁transfer	-10.3656
▁practical	-10.3656
▁appropriate	-10.3656
▁arrival	-10.3656
▁attorney	-10.3656
▁breeze	-10.3656
▁cabrera	-10.3656
▁cataleya	-10.3656
▁cipher	-10.3656
▁complex	-10.3656
▁cricket	-10.3656
▁daughtry	-10.3656
▁dedicated	-10.3656
▁delicious	-10.3656
▁egypt	-10.3656
▁essence	-10.3656
▁example	-10.3656
▁fabulous	-10.3656
▁financial	-10.3656
▁florida	-10.3656
▁henri	-10.3656
▁immortal	-10.3656
▁improve	-10.3656
▁ishmael	-10.3656
▁journal	-10.3656
▁kalloor	-10.3656
▁kullimon	-10.3656
▁leather	-10.3656
▁lucille	-10.3656
▁mulgrut	-10.3656
▁negative	-10.3656
▁offense	-10.3656
▁protocol	-10.3656
▁sardaukar	-10.3656
▁semester	-10.3656
▁september	-10.3656
▁servant	-10.3656
▁similar	-10.3656
▁smiling	-10.3656
▁solution	-10.3656
▁succeed	-10.3656
▁technology	-10.3656
▁territory	-10.3656
▁unknown	-10.3656
▁campaign	-10.3656
▁courage	-10.3656
▁disease	-10.3656
▁lopez	-10.3656
▁mechanic	-10.3656
▁policy	-10.3656
develop	-10.3656
▁anytime	-10.3656
▁corrupt	-10.3656
▁pathetic	-10.3656
▁slgh	-10.3656
▁caleb	-10.3656
▁generation	-10.3656
▁modern	-10.3656
▁random	-10.3656
▁translate	-10.3656
▁tyler	-10.3656
▁blaring	-10.3656
▁muse	-10.3656
▁carpet	-10.3656
▁slipped	-10.3656
▁supervis	-10.3656
▁flesh	-10.3656
▁studio	-10.3656
▁dope	-10.3656
▁facing	-10.3656
▁slave	-10.3657
▁creative	-10.3657
▁latin	-10.3657
▁gordy	-10.3657
▁suitcase	-10.3657
▁opposite	-10.3657
▁lilly	-10.3657
▁faint	-10.3657
▁monday	-10.3657
▁denied	-10.3657
▁bonnie	-10.3657
▁crisis	-10.3657
▁trunk	-10.3657
▁instructions	-10.3657
▁malkin	-10.3657
▁speck	-10.3657
▁allison	-10.3657
▁elevator	-10.3657
▁evelyn	-10.3657
▁authority	-10.3657
▁appointment	-10.3657
▁bald	-10.3658
▁cloudland	-10.3658
▁delay	-10.3658
▁basket	-10.3658
▁aircraft	-10.3658
▁ease	-10.3658
▁nsa	-10.3658
▁crust	-10.3659
▁tramp	-10.3659
▁newscast	-10.3659
donna	-10.366
▁drove	-10.366
▁carryall	-10.366
▁gina	-10.366
▁fork	-10.3661
▁impression	-10.3662
▁stake	-10.3662
▁doll	-10.3662
▁punk	-10.3663
▁tuck	-10.3663
▁christine	-10.3664
▁charity	-10.3665
▁medication	-10.3665
▁romance	-10.3666
▁communication	-10.3666
▁exam	-10.3667
▁dragons	-10.3674
▁goodnight	-10.3677
▁thud	-10.3678
▁specific	-10.3679
▁gig	-10.3683
▁marty	-10.3685
▁hank	-10.3687
▁comin	-10.3688
ttering	-10.3693
▁trooper	-10.3696
▁useless	-10.3698
▁shutting	-10.3702
strom	-10.3704
▁when	-10.3705
▁drowning	-10.3705
form	-10.3706
▁engaged	-10.3708
▁boxes	-10.3712
▁disturbed	-10.3716
▁meters	-10.3721
▁released	-10.3727
▁hacker	-10.3728
▁russians	-10.3729
▁coal	-10.3729
▁fighters	-10.3731
▁settled	-10.3736
▁heroes	-10.3737
▁finest	-10.3757
▁earned	-10.376
▁manner	-10.3766
▁healing	-10.3774
logical	-10.3778
▁justin	-10.3779
▁math	-10.3781
▁survived	-10.379
▁ohh	-10.379
▁conversations	-10.3813
▁trans	-10.3815
▁cooking	-10.382
ition	-10.382
▁dial	-10.3822
uld	-10.3833
▁host	-10.3834
▁bid	-10.3842
▁blo	-10.3855
▁focused	-10.3857
▁cable	-10.3868
ove	-10.3898
▁billy	-10.3898
▁visiting	-10.3901
▁gut	-10.3907
▁singer	-10.3908
▁equal	-10.3932
▁teaching	-10.3935
▁shields	-10.3954
▁wil	-10.3972
▁arrives	-10.3984
get	-10.3985
▁tons	-10.3989
▁backup	-10.3999
▁guts	-10.4002
▁sauce	-10.4003
▁creatures	-10.4011
▁noon	-10.4012
▁til	-10.402
▁fishing	-10.4035
▁musical	-10.4049
▁sales	-10.4067
▁mort	-10.4071
▁rhythmic	-10.408
▁tao	-10.4086
▁arrive	-10.4108
▁covered	-10.4119
▁stab	-10.4127
▁prime	-10.414
▁events	-10.4178
▁waves	-10.4186
▁rear	-10.4207
ko	-10.4223
▁spic	-10.4224
cal	-10.4232
▁cori	-10.4265
▁victims	-10.4274
▁ja	-10.4278
▁ton	-10.4293
not	-10.4298
gage	-10.432
▁wheels	-10.4333
▁gasp	-10.4336
▁losers	-10.4363
▁mc	-10.4382
▁era	-10.4391
term	-10.4414
▁tow	-10.4422
▁doc	-10.4428
▁establish	-10.4429
▁discover	-10.443
▁twist	-10.443
load	-10.4442
▁opera	-10.4443
▁mill	-10.4471
▁norm	-10.4475
lud	-10.4476
▁unlike	-10.4476
▁roses	-10.4481
▁dee	-10.4482
▁thumb	-10.4483
▁conduct	-10.4485
serving	-10.4487
▁entertain	-10.4487
▁punish	-10.4487
▁terror	-10.4488
▁organ	-10.4489
▁anonymous	-10.4489
▁urgent	-10.4489
▁arielle	-10.4489
▁assignment	-10.4489
▁atlanta	-10.4489
▁audrey	-10.4489
▁august	-10.4489
▁bedouin	-10.4489
▁benefit	-10.4489
▁breach	-10.4489
▁buttercup	-10.4489
▁champagne	-10.4489
▁chocolate	-10.4489
▁colonel	-10.4489
▁commodore	-10.4489
▁compartment	-10.4489
▁courier	-10.4489
▁cradle	-10.4489
▁extraordinary	-10.4489
▁frighten	-10.4489
▁immune	-10.4489
▁intergang	-10.4489
▁juvenile	-10.4489
▁krupke	-10.4489
▁lawrence	-10.4489
▁otterbourne	-10.4489
▁precious	-10.4489
▁principal	-10.4489
▁quote	-10.4489
▁restaurant	-10.4489
▁scotland	-10.4489
▁shakusky	-10.4489
▁shikaka	-10.4489
▁spray	-10.4489
▁squeeze	-10.4489
▁supplies	-10.4489
▁surveillance	-10.4489
▁technique	-10.4489
▁twelve	-10.4489
▁valuable	-10.4489
▁wachootoo	-10.4489
▁willow	-10.4489
▁marquess	-10.4489
▁monitor	-10.4489
▁outlaw	-10.4489
▁paradise	-10.4489
▁rifle	-10.4489
▁helena	-10.4489
▁kenzie	-10.4489
▁outfit	-10.4489
▁rican	-10.4489
▁silent	-10.4489
▁balance	-10.449
▁strain	-10.449
▁creaks	-10.449
▁superior	-10.449
▁anchor	-10.449
▁echo	-10.449
▁method	-10.449
▁elders	-10.449
▁hiram	-10.449
▁willie	-10.449
▁mourn	-10.449
▁trapped	-10.449
▁solar	-10.449
▁propose	-10.449
▁rusty	-10.449
▁plot	-10.449
▁transform	-10.449
▁hammer	-10.449
▁scrap	-10.449
▁adjust	-10.449
▁cowboy	-10.449
▁tragic	-10.449
▁predict	-10.449
▁martinez	-10.4491
▁backwards	-10.4491
▁hesitate	-10.4491
▁bucket	-10.4491
▁lungs	-10.4491
▁defin	-10.4492
▁subway	-10.4492
▁zoom	-10.4493
▁shove	-10.4493
▁confession	-10.4493
▁failure	-10.4493
▁rice	-10.4493
▁actress	-10.4494
▁vanish	-10.4494
▁castro	-10.4494
▁monte	-10.4496
▁hallway	-10.4496
▁tuna	-10.4496
▁destiny	-10.4497
▁lightning	-10.4497
▁static	-10.4497
▁thick	-10.4499
▁keen	-10.45
▁sailor	-10.4501
▁halfway	-10.4501
▁tomas	-10.4501
▁stalker	-10.4502
▁basement	-10.4502
▁farley	-10.4502
▁pitch	-10.4502
▁joking	-10.4503
ept	-10.4505
▁web	-10.4505
▁distan	-10.4507
▁slight	-10.4508
▁alas	-10.4512
▁russ	-10.4513
▁assist	-10.4513
▁visitor	-10.4514
▁lone	-10.4515
▁pour	-10.4519
je	-10.4519
▁moody	-10.4519
▁crawler	-10.4523
▁witches	-10.4527
idge	-10.4527
▁gain	-10.4539
▁vest	-10.454
▁piper	-10.4543
▁fourth	-10.4552
▁blown	-10.4552
▁qua	-10.4556
some	-10.4562
▁lack	-10.4573
▁inch	-10.4575
stone	-10.4581
▁suffering	-10.4583
▁disappeared	-10.4592
cast	-10.4594
▁combin	-10.4596
▁forth	-10.4601
▁cel	-10.4605
▁jer	-10.461
▁walter	-10.4615
▁lance	-10.4634
▁you	-10.4635
ench	-10.4663
▁smaller	-10.4664
▁io	-10.4675
eau	-10.4683
▁charged	-10.4686
▁coughs	-10.4691
pace	-10.4704
bid	-10.4709
▁triple	-10.4717
▁drums	-10.4721
▁nd	-10.4724
▁safely	-10.4727
▁packed	-10.4737
put	-10.4742
▁lime	-10.4751
▁torture	-10.4754
▁ranger	-10.4761
▁wha	-10.477
▁joy	-10.4781
▁tone	-10.4803
▁mot	-10.4816
mate	-10.4824
▁hop	-10.4855
▁prim	-10.4858
▁cart	-10.4862
▁rep	-10.4867
▁newspapers	-10.4909
▁odds	-10.4909
▁bene	-10.4911
▁banging	-10.4926
▁vers	-10.4941
burg	-10.4964
▁issues	-10.4972
▁touched	-10.4981
net	-10.4985
▁camper	-10.5007
▁fist	-10.5023
pre	-10.5032
▁snaps	-10.5036
▁needle	-10.5039
▁magical	-10.5047
▁shield	-10.5055
▁skill	-10.5063
▁brake	-10.5063
lock	-10.507
▁flo	-10.5087
▁resist	-10.5114
▁chap	-10.5127
▁jac	-10.5137
▁fade	-10.5149
ggle	-10.5154
▁tempt	-10.5157
▁mul	-10.5162
▁ange	-10.5182
▁buying	-10.5183
▁mist	-10.5193
▁dan	-10.5205
▁booked	-10.5212
▁formal	-10.5213
dale	-10.5228
hard	-10.5258
▁spi	-10.5258
▁bake	-10.526
▁custom	-10.5292
▁squeak	-10.5334
▁approach	-10.5334
▁link	-10.5344
▁crow	-10.5351
seven	-10.5355
cake	-10.5361
▁stare	-10.5363
▁merc	-10.5368
▁continu	-10.5374
▁trail	-10.538
shes	-10.5387
▁surge	-10.539
▁kev	-10.5392
▁affect	-10.5393
▁recommend	-10.5395
▁transport	-10.5395
▁detect	-10.5397
▁broad	-10.5398
▁pub	-10.5398
ology	-10.5398
▁terri	-10.5398
▁identify	-10.5399
▁albino	-10.5399
▁ambition	-10.5399
▁ashamed	-10.5399
▁audition	-10.5399
▁behavior	-10.5399
▁beloved	-10.5399
▁bragdon	-10.5399
▁brantley	-10.5399
▁casino	-10.5399
▁chariot	-10.5399
▁coincidence	-10.5399
▁compliment	-10.5399
▁fattuh	-10.5399
▁finnegan	-10.5399
▁gracias	-10.5399
▁griffin	-10.5399
▁hubbard	-10.5399
▁iansam	-10.5399
▁inspired	-10.5399
▁invade	-10.5399
▁invisible	-10.5399
▁jakku	-10.5399
▁jurisdiction	-10.5399
▁liquid	-10.5399
▁lloyd	-10.5399
▁lucifer	-10.5399
▁magnet	-10.5399
▁motorcycle	-10.5399
▁nemyt	-10.5399
▁orbit	-10.5399
▁parsons	-10.5399
▁phillips	-10.5399
▁privacy	-10.5399
▁pulse	-10.5399
▁pyramid	-10.5399
▁quality	-10.5399
▁register	-10.5399
▁scholarship	-10.5399
▁stream	-10.5399
▁tecopa	-10.5399
▁television	-10.5399
▁thirsty	-10.5399
▁throughout	-10.5399
▁travis	-10.5399
▁typical	-10.5399
▁uboat	-10.5399
▁ultimate	-10.5399
▁underground	-10.5399
▁underneath	-10.5399
▁unexpected	-10.5399
▁unusual	-10.5399
▁vengeance	-10.5399
▁vulnerable	-10.5399
▁fifth	-10.5399
▁pistol	-10.5399
▁rufus	-10.5399
▁taihoi	-10.5399
▁committee	-10.5399
▁cruising	-10.5399
▁giggles	-10.5399
▁testify	-10.5399
▁abbie	-10.5399
▁profit	-10.5399
▁spoon	-10.5399
▁jersey	-10.5399
▁fulton	-10.5399
▁squawk	-10.5399
▁tactic	-10.5399
▁jeep	-10.5399
▁blew	-10.5399
▁michel	-10.5399
▁riker	-10.5399
▁warrant	-10.5399
▁otto	-10.5399
▁stunt	-10.5399
▁false	-10.5399
▁kelly	-10.5399
corporate	-10.5399
▁salad	-10.5399
▁temperature	-10.5399
▁haunt	-10.5399
▁potential	-10.5399
▁leap	-10.5399
▁cigarette	-10.5399
▁drain	-10.5399
▁resume	-10.5399
▁brutal	-10.5399
▁favourite	-10.5399
iscount	-10.5399
▁fridge	-10.5399
▁gringo	-10.5399
▁priest	-10.54
▁destination	-10.54
▁operator	-10.54
▁andrew	-10.54
▁todd	-10.54
▁valley	-10.54
▁digging	-10.54
▁knight	-10.54
▁investment	-10.5401
▁chapter	-10.5401
▁upside	-10.5401
▁reaction	-10.5401
▁owens	-10.5401
▁salvat	-10.5401
▁candy	-10.5402
▁punishment	-10.5402
▁barber	-10.5402
▁antonio	-10.5402
▁brick	-10.5402
▁creation	-10.5402
▁recommendation	-10.5402
▁redford	-10.5403
with	-10.5403
▁emerge	-10.5403
▁priority	-10.5403
▁whooping	-10.5403
▁upper	-10.5404
▁geez	-10.5404
▁guano	-10.5404
▁june	-10.5404
▁checkmate	-10.5405
▁randy	-10.5405
▁spotted	-10.5406
▁amity	-10.5406
▁jamis	-10.5407
▁delete	-10.5407
▁zo	-10.5408
▁shallow	-10.5408
▁distraction	-10.541
▁toll	-10.5411
▁string	-10.5412
▁footage	-10.5412
▁wax	-10.5413
ford	-10.5413
▁barry	-10.5414
▁bind	-10.5414
▁producer	-10.5414
▁dart	-10.5415
▁nasty	-10.5415
▁worthless	-10.5418
▁sexual	-10.5419
▁mode	-10.5423
▁waltz	-10.5424
▁embarrassed	-10.5425
▁yearold	-10.5426
▁brass	-10.5426
▁ticking	-10.5427
▁tickle	-10.5428
▁ability	-10.5432
▁emir	-10.5432
▁pole	-10.5432
▁mansion	-10.5435
▁extract	-10.5437
▁pickup	-10.5437
▁dana	-10.5439
▁bury	-10.5446
▁solved	-10.5449
mper	-10.5451
▁squeaking	-10.5464
nnie	-10.5465
▁lala	-10.5466
ju	-10.5471
▁sang	-10.5472
▁recovered	-10.5477
how	-10.5477
▁fry	-10.5481
▁container	-10.5488
▁spoiled	-10.5488
▁dayton	-10.5489
▁rank	-10.5495
ria	-10.5497
▁shy	-10.5502
▁prayer	-10.5505
▁deb	-10.5505
▁served	-10.5513
▁ancestors	-10.5517
▁wounded	-10.5522
▁limited	-10.5522
▁rolly	-10.5526
▁homeless	-10.5534
▁washed	-10.5558
▁ruined	-10.5558
▁successful	-10.5572
▁talented	-10.5576
▁fairy	-10.5576
▁lei	-10.5577
▁completed	-10.5586
▁intentions	-10.5589
▁tale	-10.5594
▁wasted	-10.561
▁filled	-10.5615
▁sch	-10.5616
▁granted	-10.5624
▁considering	-10.563
▁cre	-10.5636
▁ren	-10.565
▁thy	-10.5651
▁nut	-10.5667
▁recorded	-10.5698
▁pine	-10.5708
▁ol	-10.5714
▁wig	-10.5715
▁wei	-10.5719
▁marrying	-10.5769
▁site	-10.5776
▁tag	-10.5778
▁thuds	-10.581
▁boarding	-10.5821
▁hee	-10.5873
▁testing	-10.5896
▁ding	-10.5927
prints	-10.5946
▁walker	-10.5966
▁bum	-10.5993
▁becom	-10.603
▁appear	-10.6055
▁prep	-10.6055
▁glove	-10.606
▁dreamed	-10.6061
rous	-10.6062
arch	-10.6064
▁gee	-10.6074
▁pit	-10.6082
inch	-10.6123
▁ant	-10.6138
cou	-10.6152
▁bumb	-10.6155
▁lamb	-10.6169
▁critic	-10.618
bell	-10.6183
▁gran	-10.619
▁plug	-10.6207
star	-10.6305
▁betray	-10.6338
▁aii	-10.635
born	-10.6353
▁retire	-10.6359
home	-10.6362
lady	-10.6371
▁alik	-10.6377
▁produce	-10.6381
▁actual	-10.6382
▁india	-10.6384
▁elect	-10.6389
▁pursu	-10.6393
▁patch	-10.6394
▁makin	-10.6394
band	-10.6395
▁achieve	-10.6396
▁revolution	-10.6397
▁cigar	-10.6398
▁accomplice	-10.6399
▁akiko	-10.6399
▁alibi	-10.6399
▁background	-10.6399
▁buffalo	-10.6399
▁chastity	-10.6399
▁chloe	-10.6399
▁choking	-10.6399
▁conclusion	-10.6399
▁concrete	-10.6399
▁consequences	-10.6399
▁convict	-10.6399
▁council	-10.6399
▁divide	-10.6399
▁druze	-10.6399
▁eleanor	-10.6399
▁embassy	-10.6399
▁essential	-10.6399
▁extension	-10.6399
▁fairfax	-10.6399
▁feihung	-10.6399
▁forfeit	-10.6399
▁governor	-10.6399
▁graduate	-10.6399
▁handkerchief	-10.6399
▁hasnat	-10.6399
▁including	-10.6399
▁invented	-10.6399
▁kalaman	-10.6399
▁katherine	-10.6399
▁leslie	-10.6399
▁liquor	-10.6399
▁maneuver	-10.6399
▁mcguire	-10.6399
▁medallion	-10.6399
▁nagurski	-10.6399
▁nickname	-10.6399
▁nottingham	-10.6399
▁occasion	-10.6399
▁offensive	-10.6399
▁presence	-10.6399
▁preserve	-10.6399
▁prosecution	-10.6399
▁qualify	-10.6399
▁reservation	-10.6399
▁residence	-10.6399
▁resources	-10.6399
▁rosalie	-10.6399
▁stereo	-10.6399
▁strategy	-10.6399
▁studied	-10.6399
▁survivor	-10.6399
▁therapy	-10.6399
▁tuesday	-10.6399
▁vandeweghe	-10.6399
▁blackmail	-10.6399
▁choke	-10.6399
▁distress	-10.6399
▁flank	-10.6399
▁marilyn	-10.6399
▁mervyn	-10.6399
▁polish	-10.6399
▁reckless	-10.6399
▁review	-10.6399
▁sketch	-10.6399
▁ahkton	-10.6399
▁babies	-10.6399
▁bishop	-10.6399
▁bribe	-10.6399
▁dionne	-10.6399
▁pearl	-10.6399
▁potato	-10.6399
▁recipe	-10.6399
▁thumping	-10.6399
▁wrist	-10.6399
▁harvest	-10.6399
▁reckon	-10.6399
▁snack	-10.6399
▁dewey	-10.6399
▁keller	-10.6399
▁slut	-10.6399
▁steak	-10.6399
▁content	-10.6399
▁protest	-10.6399
▁toilet	-10.6399
▁depth	-10.6399
▁mustache	-10.6399
▁stabbed	-10.6399
▁stash	-10.6399
▁albert	-10.6399
▁crank	-10.6399
▁saddle	-10.6399
▁concept	-10.6399
▁intel	-10.6399
▁sully	-10.6399
▁angle	-10.6399
▁robbed	-10.6399
▁slap	-10.6399
▁ambush	-10.6399
▁holler	-10.6399
▁starving	-10.6399
▁organization	-10.6399
▁terrell	-10.6399
▁spiritual	-10.6399
▁scraw	-10.6399
▁internal	-10.6399
▁jingle	-10.6399
▁eddie	-10.6399
▁gossip	-10.6399
▁tusk	-10.6399
▁marcus	-10.6399
▁zoran	-10.6399
▁bronze	-10.6399
▁internet	-10.6399
▁dragged	-10.6399
▁garfield	-10.6399
▁darn	-10.6399
▁hostile	-10.6399
▁upgrade	-10.6399
▁select	-10.64
▁pills	-10.64
▁inheritance	-10.64
▁instant	-10.64
▁sobs	-10.64
▁deploy	-10.64
▁vivi	-10.64
▁reset	-10.64
▁specifically	-10.64
▁classified	-10.6401
▁golf	-10.6401
▁multipl	-10.6401
▁cattle	-10.6401
▁mobile	-10.6401
▁loyalty	-10.6401
▁surgery	-10.6401
▁oxley	-10.6401
▁perez	-10.6401
▁spill	-10.6402
▁gps	-10.6402
▁meow	-10.6402
▁chewie	-10.6403
▁geist	-10.6403
▁rapid	-10.6403
▁scent	-10.6403
▁swat	-10.6404
▁fluid	-10.6404
▁mason	-10.6405
▁amongst	-10.6405
▁rehearse	-10.6405
▁precisely	-10.6405
▁stiff	-10.6405
▁soak	-10.6405
▁rowan	-10.6406
▁selfish	-10.6406
▁bunk	-10.6406
▁pleasant	-10.6406
▁luis	-10.6407
▁editor	-10.6407
▁dentist	-10.6408
▁jackson	-10.6409
▁tide	-10.6409
▁plantation	-10.641
▁patches	-10.641
▁taxes	-10.641
▁swell	-10.641
▁chasing	-10.6412
▁tox	-10.6412
▁bible	-10.6413
▁helm	-10.6413
▁coco	-10.6414
▁painful	-10.6415
▁aqu	-10.6416
▁hospitality	-10.6417
▁personality	-10.6417
▁eliminated	-10.6417
▁highway	-10.6418
▁coup	-10.6419
▁dna	-10.6419
▁brit	-10.642
▁formation	-10.6422
▁coll	-10.6422
▁khan	-10.6422
▁tim	-10.6424
▁fond	-10.6424
▁starve	-10.6425
▁structure	-10.6426
▁summoned	-10.6427
▁memori	-10.643
▁apply	-10.643
▁tax	-10.643
▁angeles	-10.6433
▁discussion	-10.6434
▁legally	-10.6435
▁shuddering	-10.6437
▁retired	-10.6438
▁properly	-10.6439
▁ew	-10.6446
iii	-10.6448
▁mini	-10.6452
▁baron	-10.6456
▁forty	-10.6457
▁dresses	-10.6457
frequen	-10.6458
▁chased	-10.646
▁hut	-10.646
▁timing	-10.6466
▁whod	-10.6466
▁drown	-10.647
▁established	-10.6472
▁sage	-10.6473
▁refused	-10.6476
▁hom	-10.6481
▁christie	-10.6483
▁parties	-10.6489
▁trumpets	-10.6493
▁fleet	-10.6493
minent	-10.6499
▁lita	-10.6501
rdan	-10.6505
▁lend	-10.6509
▁ave	-10.6517
▁switcher	-10.652
▁pissed	-10.653
but	-10.6541
▁loaded	-10.6543
▁pork	-10.6544
▁authoriz	-10.6545
▁catches	-10.6557
▁bob	-10.6566
▁sole	-10.6567
▁diamonds	-10.6568
▁ymbrynes	-10.6568
▁fart	-10.6575
take	-10.6575
▁ami	-10.6577
▁tune	-10.6577
ption	-10.6587
uv	-10.6593
nda	-10.6602
yard	-10.6603
▁smarter	-10.6604
▁lookout	-10.6614
lves	-10.662
▁imagined	-10.6621
▁counter	-10.6627
▁here	-10.6635
▁flipp	-10.6644
▁paste	-10.6652
▁lightly	-10.666
▁treated	-10.6666
▁closet	-10.6667
▁melt	-10.6668
▁gag	-10.6681
mir	-10.67
▁packing	-10.6727
▁aa	-10.6741
▁shown	-10.6785
▁exceptional	-10.6789
▁oi	-10.683
▁tryin	-10.6831
otic	-10.6849
▁tab	-10.6925
▁tri	-10.6964
ories	-10.6969
ovi	-10.7001
omin	-10.7031
▁goat	-10.7034
duct	-10.7049
▁scarf	-10.7074
gram	-10.7079
▁knee	-10.7105
▁convers	-10.7106
▁luc	-10.7116
▁announce	-10.716
▁parent	-10.7177
hop	-10.7203
ologist	-10.7204
▁gro	-10.7214
▁exercise	-10.7229
▁tee	-10.7247
▁mac	-10.7334
▁function	-10.7402
wan	-10.7414
ellie	-10.7425
▁disappoint	-10.745
▁connect	-10.7457
drop	-10.7466
▁approve	-10.7469
▁relieve	-10.747
▁cru	-10.748
like	-10.7483
▁riddle	-10.7483
▁creep	-10.7486
bri	-10.749
▁technical	-10.7492
▁absolute	-10.7493
▁elliot	-10.7496
▁inde	-10.7501
▁possess	-10.7502
▁lauren	-10.7507
▁loyal	-10.7507
titude	-10.7508
▁recogni	-10.7508
▁apprentice	-10.751
▁intimidat	-10.751
▁accurate	-10.751
▁airplane	-10.751
▁algebra	-10.751
▁anticruise	-10.751
▁architectur	-10.751
▁associate	-10.751
▁autumn	-10.751
▁bachelor	-10.751
▁bellefort	-10.751
▁blanton	-10.751
▁brautigan	-10.751
▁cease	-10.751
▁cheerleading	-10.751
▁circuit	-10.751
▁column	-10.751
▁condemn	-10.751
▁confidence	-10.751
▁debenham	-10.751
▁description	-10.751
▁destruction	-10.751
▁disagree	-10.751
▁disrespect	-10.751
▁division	-10.751
▁enforcement	-10.751
▁enterprise	-10.751
▁erudite	-10.751
▁execute	-10.751
▁expensive	-10.751
▁facility	-10.751
▁felipe	-10.751
▁fifteen	-10.751
▁giggling	-10.751
▁halloween	-10.751
▁hhhey	-10.751
▁hockey	-10.751
▁illinois	-10.751
▁immunity	-10.751
▁indicate	-10.751
▁intense	-10.751
▁knives	-10.751
▁lawsuit	-10.751
▁length	-10.751
▁lesbian	-10.751
▁magazine	-10.751
▁manslaughter	-10.751
▁mickey	-10.751
▁narrow	-10.751
▁natalie	-10.751
▁olympian	-10.751
▁paranormal	-10.751
▁plaza	-10.751
▁puppy	-10.751
▁recycle	-10.751
▁resolve	-10.751
▁rhib	-10.751
▁rubbish	-10.751
▁samurai	-10.751
▁scenario	-10.751
▁shriek	-10.751
▁spectacular	-10.751
▁straussman	-10.751
▁superhero	-10.751
▁teresa	-10.751
▁torpedo	-10.751
▁trevor	-10.751
▁vacuum	-10.751
▁widow	-10.751
▁barbara	-10.751
▁bargain	-10.751
▁cadena	-10.751
▁colson	-10.751
▁comrade	-10.751
▁determine	-10.751
▁dozen	-10.751
▁endurance	-10.751
▁fruit	-10.751
▁jeez	-10.751
▁pencil	-10.751
▁renewal	-10.751
▁rookie	-10.751
▁temporary	-10.751
▁watson	-10.751
▁wretch	-10.751
▁ankle	-10.751
▁april	-10.751
▁development	-10.751
▁gerber	-10.751
▁hardware	-10.751
▁initial	-10.751
▁northeast	-10.751
▁terribly	-10.751
▁extend	-10.751
▁identity	-10.751
▁miserable	-10.751
▁patriot	-10.751
▁scorpion	-10.751
▁oink	-10.751
▁prevent	-10.751
▁tolerate	-10.751
▁await	-10.751
▁yelp	-10.751
▁after	-10.751
▁solid	-10.751
▁assigned	-10.751
▁heather	-10.751
▁irena	-10.751
▁ivan	-10.751
▁medium	-10.751
▁preach	-10.751
▁stoppard	-10.751
▁knit	-10.751
▁personnel	-10.751
▁throne	-10.751
▁volu	-10.751
▁crop	-10.751
▁gently	-10.751
▁marmee	-10.751
▁delighted	-10.751
▁flame	-10.751
▁spank	-10.751
logue	-10.751
▁robert	-10.751
▁mild	-10.751
▁calcul	-10.751
▁casper	-10.751
▁assuming	-10.751
▁purse	-10.751
▁clink	-10.751
estimate	-10.751
▁halt	-10.751
▁sheik	-10.751
▁bracelet	-10.751
▁leak	-10.751
▁compete	-10.751
▁reese	-10.751
▁jedi	-10.751
▁mankind	-10.751
▁mabel	-10.751
▁neighborhood	-10.751
▁grocer	-10.751
▁religious	-10.7511
▁asun	-10.7511
▁troll	-10.7511
▁skirt	-10.7511
▁tuition	-10.7511
▁jeweller	-10.7511
▁bugger	-10.7511
▁civilized	-10.7511
▁bingo	-10.7511
▁network	-10.7511
▁venture	-10.7511
▁fried	-10.7511
▁tapping	-10.7511
▁grayson	-10.7511
▁religion	-10.7511
▁flaw	-10.7511
▁eternity	-10.7512
▁shatz	-10.7512
▁fraud	-10.7512
probable	-10.7512
▁tasha	-10.7512
▁scheme	-10.7512
milton	-10.7512
▁veins	-10.7512
▁upright	-10.7512
▁theme	-10.7512
▁arrangement	-10.7512
▁debate	-10.7513
▁nerd	-10.7513
▁nascar	-10.7513
▁compass	-10.7513
▁iook	-10.7514
▁hanover	-10.7514
▁rockwell	-10.7514
▁nearby	-10.7514
▁scum	-10.7515
▁yuck	-10.7515
▁bounce	-10.7515
▁towel	-10.7515
▁engagement	-10.7515
▁groom	-10.7515
▁delta	-10.7516
▁pursuit	-10.7516
wich	-10.7516
▁frame	-10.7516
▁soap	-10.7516
▁prick	-10.7517
▁scale	-10.7517
▁reform	-10.7517
▁rejection	-10.7517
▁cities	-10.7517
▁negotiate	-10.7517
▁receive	-10.7517
▁aldr	-10.7518
▁weakness	-10.7518
▁guardian	-10.7519
▁supply	-10.7519
▁influence	-10.752
▁cabinet	-10.752
▁ego	-10.7521
▁merci	-10.7522
▁alley	-10.7522
▁memories	-10.7522
▁fries	-10.7522
▁whore	-10.7523
▁freshman	-10.7524
▁exposed	-10.7526
▁soup	-10.7526
▁poll	-10.7527
▁hitler	-10.7529
▁coke	-10.7529
▁battery	-10.7531
▁moral	-10.7531
▁steven	-10.7531
▁haul	-10.7532
▁neat	-10.7532
▁ranch	-10.7532
▁creepy	-10.7534
▁exhausted	-10.7535
▁kim	-10.7536
▁bait	-10.7538
▁role	-10.754
▁zoe	-10.754
▁glow	-10.7541
▁trailer	-10.7541
▁passage	-10.7542
▁larger	-10.7542
▁alike	-10.7543
▁captured	-10.7545
▁tries	-10.7545
▁shipment	-10.7546
▁naturally	-10.7546
▁collection	-10.7549
▁refer	-10.7549
▁bubble	-10.755
▁tore	-10.7551
▁uk	-10.7553
▁indiana	-10.7554
▁vari	-10.7555
▁label	-10.7556
▁penny	-10.7559
▁clothing	-10.756
lia	-10.7564
▁dearest	-10.7564
▁operate	-10.7565
▁punches	-10.7566
long	-10.7567
acco	-10.7567
▁connected	-10.7571
▁brat	-10.7573
▁ross	-10.7574
▁divin	-10.7576
▁betrayed	-10.7578
▁bron	-10.7579
▁cheaper	-10.758
nual	-10.7584
zz	-10.7587
▁sonia	-10.759
▁hangar	-10.7591
▁sur	-10.7595
▁assured	-10.7597
▁mass	-10.7604
▁sean	-10.7607
▁oppos	-10.7608
▁daw	-10.7613
▁glo	-10.7615
cess	-10.7619
▁drawer	-10.762
▁abuse	-10.762
▁restore	-10.7623
wright	-10.7624
▁removed	-10.7625
▁dock	-10.763
▁rollie	-10.763
ike	-10.7634
▁nailed	-10.7638
▁rata	-10.7647
▁busted	-10.7654
▁fn	-10.7654
▁ye	-10.7656
▁lining	-10.7659
▁ham	-10.7666
▁poop	-10.7681
▁spreading	-10.7686
▁shortly	-10.7692
▁designed	-10.7694
oya	-10.77
list	-10.7704
▁judged	-10.7706
▁skipp	-10.7727
▁witnessed	-10.7731
fire	-10.7759
bean	-10.7763
▁considered	-10.7777
▁seeds	-10.7792
▁minim	-10.7796
▁ledge	-10.7797
hai	-10.7809
▁miner	-10.781
▁ib	-10.7824
▁workers	-10.7862
▁rebel	-10.7873
▁arc	-10.788
▁there	-10.7885
butt	-10.7966
two	-10.8005
▁tran	-10.8032
fir	-10.8179
▁stepp	-10.8202
ified	-10.8204
wick	-10.8211
dict	-10.822
erson	-10.8234
▁barn	-10.8243
ought	-10.825
▁tempo	-10.8256
▁pip	-10.8263
rick	-10.8266
▁dome	-10.8302
ella	-10.8302
uj	-10.8307
▁sigh	-10.8318
rien	-10.8333
▁prov	-10.8347
ability	-10.8385
meter	-10.8418
▁buck	-10.8427
▁toward	-10.8427
▁beside	-10.8434
▁drum	-10.8451
▁mat	-10.8495
▁she	-10.8507
▁rig	-10.8512
▁declare	-10.852
▁skip	-10.8537
▁pest	-10.8559
ggie	-10.8588
▁emotion	-10.8602
ibb	-10.8631
▁flee	-10.8647
insu	-10.8648
▁plu	-10.867
▁sig	-10.868
▁throb	-10.8683
▁bleed	-10.8698
script	-10.8713
grade	-10.8714
weight	-10.8716
▁arrange	-10.8716
▁ana	-10.8718
▁capture	-10.872
ification	-10.8721
bound	-10.8727
pool	-10.873
▁blond	-10.8735
tail	-10.8737
▁immediate	-10.8743
▁recent	-10.8747
▁branch	-10.8748
▁splash	-10.8748
▁plea	-10.8751
▁reject	-10.8751
wise	-10.8754
▁confess	-10.8754
mhmm	-10.8755
▁invest	-10.8757
▁blank	-10.8757
▁joseph	-10.8757
▁inherit	-10.8758
lapping	-10.8759
▁japan	-10.876
ographic	-10.876
▁abroad	-10.876
▁advise	-10.876
▁albini	-10.876
▁almighty	-10.876
▁apologies	-10.876
▁appetite	-10.876
▁astrid	-10.876
▁auction	-10.876
▁autograph	-10.876
▁awkward	-10.876
▁bartender	-10.876
▁basilwether	-10.876
▁behalf	-10.876
▁belief	-10.876
▁bicycle	-10.876
▁bluegrass	-10.876
▁bounty	-10.876
▁bourget	-10.876
▁cadogan	-10.876
▁celebration	-10.876
▁ceremony	-10.876
▁chakobsa	-10.876
▁conference	-10.876
▁conspiracy	-10.876
▁convention	-10.876
▁covenant	-10.876
▁curfew	-10.876
▁curtain	-10.876
▁delegation	-10.876
▁democra	-10.876
▁dessert	-10.876
▁dismiss	-10.876
▁encounter	-10.876
▁environment	-10.876
▁explode	-10.876
▁faranoosh	-10.876
▁gesserit	-10.876
▁governess	-10.876
▁hercule	-10.876
▁hydra	-10.876
▁injured	-10.876
▁insects	-10.876
▁institution	-10.876
▁invitation	-10.876
▁isthmus	-10.876
▁lapchick	-10.876
▁lecture	-10.876
▁majesty	-10.876
▁manhattan	-10.876
▁manipulat	-10.876
▁maximum	-10.876
▁mccabe	-10.876
▁melancholy	-10.876
▁morphine	-10.876
▁murray	-10.876
▁mysterious	-10.876
▁nunca	-10.876
▁oxygen	-10.876
▁pacific	-10.876
▁politics	-10.876
▁population	-10.876
▁possibilities	-10.876
▁procedure	-10.876
▁promotion	-10.876
▁qzone	-10.876
▁rendezvous	-10.876
▁retreat	-10.876
▁reverend	-10.876
▁sanctuary	-10.876
▁scatter	-10.876
▁sennett	-10.876
▁sensitive	-10.876
▁signature	-10.876
▁snort	-10.876
▁strangled	-10.876
▁superstud	-10.876
▁suspicion	-10.876
▁thanksgiving	-10.876
▁vigilante	-10.876
▁washburn	-10.876
▁yield	-10.876
▁yuetmui	-10.876
▁advertise	-10.876
▁azul	-10.876
▁bunny	-10.876
▁collapse	-10.876
▁defect	-10.876
▁descend	-10.876
▁dixon	-10.876
▁handcuff	-10.876
▁huddle	-10.876
▁optim	-10.876
▁polite	-10.876
▁remarkable	-10.876
▁stephanie	-10.876
▁tattoo	-10.876
▁vouch	-10.876
▁akator	-10.876
▁alexander	-10.876
▁argue	-10.876
▁attached	-10.876
▁barrier	-10.876
▁grief	-10.876
▁hyell	-10.876
▁outrun	-10.876
▁remote	-10.876
▁shakily	-10.876
▁sixteen	-10.876
▁terrified	-10.876
▁warehouse	-10.876
▁decline	-10.876
▁disrupt	-10.876
▁guido	-10.876
▁importance	-10.876
▁legacy	-10.876
▁monroe	-10.876
▁whew	-10.876
▁edwin	-10.876
▁honour	-10.876
▁humor	-10.876
▁tristan	-10.876
▁coffin	-10.876
▁jonny	-10.876
▁reference	-10.876
▁vicky	-10.876
▁website	-10.876
▁appeal	-10.876
▁harbor	-10.876
▁mocking	-10.876
▁session	-10.876
▁wrapped	-10.876
▁kansas	-10.876
▁nerve	-10.876
▁wesley	-10.876
▁bilal	-10.876
▁parole	-10.876
▁stray	-10.876
▁virtu	-10.876
▁balloon	-10.876
▁accuse	-10.876
▁dvd	-10.876
▁loving	-10.876
fantasy	-10.876
▁crane	-10.876
▁euro	-10.876
▁eighteen	-10.876
▁shush	-10.876
▁satisfied	-10.876
▁slice	-10.876
▁kilo	-10.876
▁louisville	-10.876
▁naomi	-10.876
▁oops	-10.876
▁scramble	-10.876
▁yknow	-10.876
▁slim	-10.876
▁chimney	-10.876
▁consume	-10.876
▁paulina	-10.876
▁torn	-10.876
▁trophy	-10.876
▁nausea	-10.876
▁eternium	-10.876
▁wives	-10.8761
▁aries	-10.8761
▁twentytwo	-10.8761
▁disconnect	-10.8761
▁batter	-10.8761
▁skate	-10.8761
▁ahoy	-10.8761
▁depart	-10.8761
▁amigo	-10.8761
▁rosie	-10.8761
▁dawson	-10.8761
▁meditation	-10.8761
profile	-10.8761
▁gerald	-10.8761
▁sietch	-10.8761
▁epic	-10.8761
▁upload	-10.8761
▁sniffling	-10.8761
▁chittering	-10.8762
▁assistance	-10.8762
▁species	-10.8762
▁notebook	-10.8762
reliable	-10.8762
▁samuel	-10.8762
▁garlic	-10.8762
▁recall	-10.8762
▁update	-10.8762
▁greek	-10.8762
▁minister	-10.8762
▁blend	-10.8762
▁psst	-10.8762
▁whys	-10.8762
▁sheet	-10.8762
▁attic	-10.8763
▁laurence	-10.8763
▁caii	-10.8763
▁flick	-10.8763
▁magnificent	-10.8763
▁achievement	-10.8763
▁rehearsal	-10.8763
▁poppy	-10.8764
haki	-10.8764
▁substan	-10.8764
▁hissing	-10.8764
▁riot	-10.8764
▁parade	-10.8765
▁laundry	-10.8765
▁rising	-10.8765
▁operating	-10.8765
▁linny	-10.8765
▁grandson	-10.8765
▁commitment	-10.8765
▁chapel	-10.8766
▁arse	-10.8766
▁baii	-10.8766
▁ferry	-10.8766
▁speedway	-10.8766
▁norman	-10.8766
▁regional	-10.8766
▁roast	-10.8767
▁korea	-10.8768
▁damon	-10.8768
▁confirmation	-10.8769
▁surgeon	-10.877
▁rabbit	-10.877
▁satan	-10.877
▁fold	-10.877
▁stack	-10.8771
▁francisco	-10.8771
▁kong	-10.8772
▁ohhh	-10.8772
▁dropping	-10.8772
▁tina	-10.8772
▁della	-10.8775
▁dang	-10.8776
▁attractive	-10.8776
▁iike	-10.8776
▁rack	-10.8777
▁inches	-10.8778
▁mortal	-10.8778
▁jaco	-10.8778
▁moron	-10.8778
▁foolish	-10.8778
▁soil	-10.8778
▁contra	-10.8778
▁related	-10.8778
▁alter	-10.8779
▁jab	-10.878
▁peacefully	-10.878
▁skies	-10.878
▁slot	-10.8781
▁swore	-10.8782
▁limo	-10.8783
▁blonde	-10.8785
▁dreadful	-10.8786
▁wallet	-10.8786
zzy	-10.8786
▁unlikely	-10.8787
▁reply	-10.8787
uhuh	-10.8788
▁corp	-10.8789
▁growth	-10.879
▁snarling	-10.8791
▁correction	-10.8791
▁marco	-10.8792
▁pile	-10.8793
▁pause	-10.8793
▁spu	-10.8794
▁activated	-10.8794
▁convinced	-10.8795
▁presentation	-10.8795
▁hatch	-10.8795
▁heel	-10.8796
▁nickel	-10.8798
▁vent	-10.8798
drew	-10.8799
ential	-10.8799
▁whip	-10.88
▁rage	-10.8801
▁victoria	-10.8801
▁respectable	-10.8802
mez	-10.8804
▁witnesses	-10.8806
▁drugg	-10.8807
▁wah	-10.881
away	-10.8811
▁mothership	-10.8813
▁cocky	-10.8819
bby	-10.8823
▁slo	-10.8823
▁photography	-10.8827
▁beaten	-10.8831
▁chew	-10.8837
▁linked	-10.8846
▁jb	-10.8848
▁included	-10.8848
▁laser	-10.8849
slav	-10.8851
▁forge	-10.8851
▁twisted	-10.8854
▁marie	-10.8855
▁policeman	-10.8859
▁divorced	-10.8864
▁introduced	-10.887
▁carne	-10.8874
▁pounding	-10.8875
▁reality	-10.8889
▁damaged	-10.8891
▁kindness	-10.8895
▁stalin	-10.8902
▁boost	-10.8906
▁lang	-10.892
ersk	-10.8935
▁ray	-10.8935
▁closest	-10.8942
▁ador	-10.8945
▁roller	-10.8952
▁ricky	-10.8957
▁peek	-10.8959
▁weed	-10.8961
▁dreamt	-10.8982
▁beard	-10.8993
▁nasa	-10.9007
alem	-10.9068
▁jr	-10.9071
berry	-10.9077
▁abu	-10.9119
ku	-10.9145
▁arabia	-10.917
ckle	-10.9188
ught	-10.9192
bble	-10.9236
▁virginia	-10.9272
▁sho	-10.9276
▁concentrat	-10.9288
▁menu	-10.933
uel	-10.9358
▁metro	-10.9363
▁gim	-10.9412
oohoo	-10.946
ome	-10.9502
▁vip	-10.954
▁concentrate	-10.9611
alada	-10.9614
promis	-10.9637
▁ignor	-10.9646
udding	-10.9664
wis	-10.9746
▁stan	-10.9763
▁mutt	-10.9773
▁fur	-10.9775
▁cough	-10.9782
▁menac	-10.9795
▁groan	-10.9796
▁sniff	-10.9844
▁passenger	-10.9847
▁degree	-10.987
▁slam	-10.9917
▁marx	-10.9949
▁trib	-11.0019
part	-11.003
oma	-11.0036
horn	-11.0037
▁kan	-11.0041
▁ob	-11.0064
▁receiv	-11.007
▁dime	-11.0116
▁caus	-11.012
▁chirp	-11.0125
▁cloth	-11.0138
▁consul	-11.0139
level	-11.0142
mouth	-11.0142
school	-11.0143
free	-11.0143
think	-11.0144
keep	-11.0146
play	-11.0146
▁convince	-11.0148
▁involve	-11.015
step	-11.0151
▁commission	-11.0155
▁contr	-11.0155
▁activate	-11.016
year	-11.0164
▁kidnap	-11.0164
▁poo	-11.0171
▁unfortunate	-11.0171
▁inject	-11.0174
▁coop	-11.0175
▁atta	-11.0175
▁communi	-11.0182
▁conquer	-11.0182
▁comfort	-11.0184
craft	-11.0185
▁chuck	-11.0186
▁regard	-11.0186
▁multi	-11.0186
▁congratulat	-11.0187
▁casual	-11.0188
▁thou	-11.0188
▁tread	-11.0188
through	-11.0188
▁hydro	-11.0188
educated	-11.0188
egitimate	-11.0188
enormous	-11.0188
turkish	-11.0188
▁absence	-11.0188
▁admission	-11.0188
▁alcohol	-11.0188
▁amateur	-11.0188
▁anticipat	-11.0188
▁applicant	-11.0188
▁application	-11.0188
▁arbuthnot	-11.0188
▁arkham	-11.0188
▁bainbridge	-11.0188
▁barbital	-11.0188
▁barbossa	-11.0188
▁bootstrap	-11.0188
▁bylaw	-11.0188
▁cafeteria	-11.0188
▁cassetti	-11.0188
▁cleveland	-11.0188
▁commercial	-11.0188
▁corporation	-11.0188
▁crazi	-11.0188
▁dammit	-11.0188
▁decalogue	-11.0188
▁delightful	-11.0188
▁disorder	-11.0188
▁douchebag	-11.0188
▁ecstasy	-11.0188
▁excitement	-11.0188
▁feature	-11.0188
▁florence	-11.0188
▁furniture	-11.0188
▁galaxy	-11.0188
▁godfather	-11.0188
▁graziella	-11.0188
▁harvard	-11.0188
▁indulg	-11.0188
▁jacqueline	-11.0188
▁kamila	-11.0188
▁kazik	-11.0188
▁knickerbocker	-11.0188
▁lebanon	-11.0188
▁louisiana	-11.0188
▁matthew	-11.0188
▁medieva	-11.0188
▁metaphor	-11.0188
▁neigh	-11.0188
▁nigga	-11.0188
▁obliged	-11.0188
▁october	-11.0188
▁orellana	-11.0188
▁platform	-11.0188
▁popcorn	-11.0188
▁portfolio	-11.0188
▁practicing	-11.0188
▁precaution	-11.0188
▁precinct	-11.0188
▁preparation	-11.0188
▁principle	-11.0188
▁purchase	-11.0188
▁puzzle	-11.0188
▁rachette	-11.0188
▁razvan	-11.0188
▁refrigerator	-11.0188
▁response	-11.0188
▁roxanne	-11.0188
▁rustling	-11.0188
▁sandworm	-11.0188
▁schooi	-11.0188
▁seokhyeon	-11.0188
▁sequence	-11.0188
▁shakespeare	-11.0188
▁shelby	-11.0188
▁slaughter	-11.0188
▁struggling	-11.0188
▁stutters	-11.0188
▁supreme	-11.0188
▁surviving	-11.0188
▁sylvi	-11.0188
▁tamtam	-11.0188
▁terrence	-11.0188
▁theatre	-11.0188
▁thieves	-11.0188
▁thursday	-11.0188
▁tokyo	-11.0188
▁turkey	-11.0188
▁veatch	-11.0188
▁vitamin	-11.0188
▁vodka	-11.0188
▁weevil	-11.0188
▁whiskey	-11.0188
▁accompany	-11.0188
▁clutch	-11.0188
▁facial	-11.0188
▁geiier	-11.0188
▁hermano	-11.0188
▁hufan	-11.0188
▁industrial	-11.0188
▁occup	-11.0188
▁peasant	-11.0188
▁pilgrim	-11.0188
▁roadblock	-11.0188
▁twentyfive	-11.0188
▁underdog	-11.0188
▁villain	-11.0188
migration	-11.0188
▁album	-11.0188
▁article	-11.0188
▁baptis	-11.0188
▁crunch	-11.0188
▁fwah	-11.0188
▁godmother	-11.0188
▁houston	-11.0188
▁hurut	-11.0188
▁karno	-11.0188
▁pledge	-11.0188
▁snicker	-11.0188
▁submit	-11.0188
▁unfair	-11.0188
▁colour	-11.0188
▁generator	-11.0188
▁oooh	-11.0188
▁regain	-11.0188
▁shelf	-11.0188
▁amaze	-11.0188
▁hyper	-11.0188
▁mellon	-11.0188
▁noose	-11.0188
▁oui	-11.0188
▁patrol	-11.0188
▁puke	-11.0188
▁rogue	-11.0188
▁southeast	-11.0188
▁regime	-11.0188
▁scalp	-11.0188
▁slack	-11.0188
▁tepes	-11.0188
▁yueh	-11.0188
abilities	-11.0188
undle	-11.0188
▁hetty	-11.0188
▁interfer	-11.0188
▁paddle	-11.0188
▁skiffs	-11.0188
▁yuri	-11.0188
▁donation	-11.0188
▁friar	-11.0188
▁mitat	-11.0188
▁voca	-11.0188
▁diora	-11.0188
▁duane	-11.0188
▁imperium	-11.0188
▁stoke	-11.0188
▁domestic	-11.0188
▁hodge	-11.0188
▁oana	-11.0188
▁panicked	-11.0188
▁candle	-11.0188
▁jelly	-11.0188
▁plato	-11.0188
▁shitzu	-11.0188
▁ancestr	-11.0188
▁previous	-11.0188
▁naughty	-11.0188
▁polar	-11.0188
▁gallery	-11.0188
▁scoot	-11.0188
▁entry	-11.0188
▁lazy	-11.0188
▁christina	-11.0188
▁flirt	-11.0188
▁transferred	-11.0188
▁slain	-11.0188
▁relay	-11.0189
▁lottery	-11.0189
▁isolat	-11.0189
▁omar	-11.0189
▁reflect	-11.0189
▁info	-11.0189
▁boston	-11.0189
▁slay	-11.0189
▁commandeer	-11.0189
▁tango	-11.0189
▁tennis	-11.0189
▁hunchback	-11.0189
▁raging	-11.0189
▁presum	-11.0189
▁insight	-11.0189
▁freezing	-11.0189
▁resign	-11.0189
▁julie	-11.0189
▁drift	-11.0189
▁friggin	-11.0189
▁maniac	-11.0189
▁culture	-11.0189
sistent	-11.0189
▁shred	-11.0189
▁bureau	-11.0189
▁gamb	-11.0189
▁imperial	-11.0189
▁gabby	-11.0189
▁iq	-11.0189
▁numero	-11.019
▁wales	-11.019
▁referee	-11.019
▁dimeah	-11.019
▁comms	-11.019
▁departure	-11.019
▁sunset	-11.019
▁youse	-11.019
quire	-11.019
▁sissy	-11.019
▁rashid	-11.019
▁addition	-11.019
▁bugging	-11.019
▁cancer	-11.019
▁donnie	-11.019
▁carved	-11.019
▁scanner	-11.019
▁devot	-11.0191
▁josephine	-11.0191
▁inviting	-11.0191
▁flashlight	-11.0191
▁therell	-11.0191
▁vials	-11.0191
▁fiction	-11.0192
▁downey	-11.0192
▁leiter	-11.0192
▁overcome	-11.0192
▁aerial	-11.0192
▁sober	-11.0192
▁museum	-11.0192
▁announcement	-11.0192
▁moonlight	-11.0193
▁joyce	-11.0193
▁urine	-11.0193
▁fence	-11.0193
▁liking	-11.0193
▁marshal	-11.0193
▁rudy	-11.0193
▁permitted	-11.0193
▁colombian	-11.0194
▁orphanage	-11.0194
▁swimmer	-11.0194
▁uncomfortable	-11.0194
▁chor	-11.0194
▁appli	-11.0194
scope	-11.0194
▁coordinates	-11.0194
▁woah	-11.0194
▁transportation	-11.0195
▁therere	-11.0195
▁begun	-11.0195
▁glue	-11.0195
▁motel	-11.0195
▁buckle	-11.0196
▁childhood	-11.0196
▁possession	-11.0196
▁baking	-11.0196
▁factionless	-11.0196
▁vibe	-11.0196
▁ditch	-11.0197
▁membership	-11.0197
▁nuke	-11.0197
▁hush	-11.0197
mamma	-11.0198
▁soho	-11.0198
▁matt	-11.0198
▁overhea	-11.0198
▁brace	-11.0199
▁harsh	-11.0199
▁grill	-11.0199
▁acquire	-11.02
▁chores	-11.02
▁infection	-11.02
▁myth	-11.02
▁grap	-11.02
▁lakers	-11.0201
▁meaningless	-11.0201
▁puff	-11.0201
▁felony	-11.0201
▁splashes	-11.0201
▁roommate	-11.0202
▁keel	-11.0202
▁rumor	-11.0203
▁plum	-11.0203
▁santa	-11.0203
▁product	-11.0204
▁boll	-11.0204
▁punt	-11.0204
klu	-11.0205
lnglng	-11.0205
▁dickie	-11.0206
▁burst	-11.0206
▁stern	-11.0207
▁dough	-11.0207
▁minor	-11.0207
▁phrase	-11.0207
▁stroke	-11.0207
▁treatment	-11.0207
▁reign	-11.0208
▁maze	-11.021
▁flies	-11.021
▁rail	-11.021
▁bowman	-11.0211
▁deaf	-11.0211
▁franz	-11.0212
▁lads	-11.0213
▁bore	-11.0213
▁hopefully	-11.0214
▁acceptable	-11.0219
▁elle	-11.0221
▁diego	-11.0224
▁annoying	-11.0225
▁weeping	-11.0225
▁specialty	-11.0226
▁tenure	-11.0227
▁beings	-11.0228
▁peru	-11.023
▁leon	-11.0231
▁cron	-11.0231
▁infected	-11.0231
▁takin	-11.0232
▁nest	-11.0233
▁flooding	-11.0235
▁arranged	-11.0235
ewell	-11.0236
▁consult	-11.0236
▁complaint	-11.0239
▁accomplished	-11.0241
▁approved	-11.0241
▁relieved	-11.0241
▁fame	-11.0243
▁shithead	-11.0244
▁whinn	-11.0247
▁media	-11.0248
▁bench	-11.0248
▁grey	-11.0248
▁uhoh	-11.025
▁waitress	-11.025
▁sour	-11.0251
▁sue	-11.0251
antlng	-11.0251
mmed	-11.0254
iously	-11.0258
▁yee	-11.026
▁jen	-11.026
▁restless	-11.0262
▁correctly	-11.0262
▁sow	-11.0265
▁endure	-11.0266
▁switches	-11.0269
▁realise	-11.027
▁glasses	-11.0272
▁sixth	-11.0272
▁dc	-11.0273
▁mog	-11.0273
▁ink	-11.0276
▁sweater	-11.0278
erial	-11.0279
▁shawna	-11.0285
mature	-11.0286
▁buyers	-11.0288
lement	-11.0296
ussie	-11.0296
ough	-11.0308
▁photographer	-11.0325
▁nazi	-11.0338
▁stat	-11.0347
▁pier	-11.035
force	-11.0368
▁carter	-11.037
ipped	-11.0392
ggy	-11.0403
▁shem	-11.0408
▁diploma	-11.0479
ggin	-11.0484
▁tippe	-11.0497
▁bush	-11.0508
▁retrieve	-11.0687
▁whoohoo	-11.0715
lum	-11.0761
shipping	-11.0896
ulate	-11.0979
▁sauc	-11.1112
uous	-11.112
▁core	-11.1275
▁intention	-11.1289
▁exception	-11.1307
inder	-11.1363
▁chim	-11.1372
radi	-11.1432
▁boot	-11.1468
nsan	-11.149
▁shark	-11.1516
▁diplomat	-11.1522
▁justi	-11.1594
uk	-11.1595
▁author	-11.1605
▁dispos	-11.1655
▁origin	-11.1725
ization	-11.1726
▁shudder	-11.1789
▁accomplish	-11.1793
word	-11.1799
position	-11.18
▁scr	-11.1806
walk	-11.1806
tempo	-11.1807
structure	-11.1807
wheel	-11.1808
patient	-11.1809
third	-11.1809
american	-11.1809
woman	-11.181
yeah	-11.181
night	-11.1811
demon	-11.1815
▁swor	-11.1819
hank	-11.1827
▁guilt	-11.1832
▁stalk	-11.1832
coat	-11.1833
▁familia	-11.1838
maid	-11.1842
who	-11.1845
▁prohibi	-11.1847
▁livin	-11.1848
scribe	-11.185
▁etern	-11.1851
▁appoint	-11.1853
▁favour	-11.1854
▁prophet	-11.1855
▁infra	-11.1855
▁genuine	-11.1855
▁convenient	-11.1855
▁independent	-11.1855
▁marvelous	-11.1855
▁neighbour	-11.1855
▁profound	-11.1855
▁undetect	-11.1855
conscious	-11.1855
entangle	-11.1855
▁acknowledge	-11.1855
▁alistair	-11.1855
▁alligator	-11.1855
▁ambassador	-11.1855
▁approval	-11.1855
▁approximately	-11.1855
▁arizona	-11.1855
▁association	-11.1855
▁audio	-11.1855
▁billionaire	-11.1855
▁bleach	-11.1855
▁boggart	-11.1855
▁butcher	-11.1855
▁cappuccino	-11.1855
▁chateau	-11.1855
▁cockernorris	-11.1855
▁colleague	-11.1855
▁colosseum	-11.1855
▁columbia	-11.1855
▁comescort	-11.1855
▁conclude	-11.1855
▁confusing	-11.1855
▁copilot	-11.1855
▁dassault	-11.1855
▁deceased	-11.1855
▁defence	-11.1855
▁envelope	-11.1855
▁eyewitness	-11.1855
▁fascinating	-11.1855
▁february	-11.1855
▁fertilizer	-11.1855
▁forgiving	-11.1855
▁franchise	-11.1855
▁fulfill	-11.1855
▁godbrother	-11.1855
▁grandparents	-11.1855
▁headquarter	-11.1855
▁horizon	-11.1855
▁humble	-11.1855
▁hurricane	-11.1855
▁huskers	-11.1855
▁impeccable	-11.1855
▁increase	-11.1855
▁incredibly	-11.1855
▁ingredient	-11.1855
▁intellectual	-11.1855
▁interference	-11.1855
▁intimate	-11.1855
▁invasion	-11.1855
▁istanbul	-11.1855
▁jumpsuit	-11.1855
▁ketchup	-11.1855
▁landscape	-11.1855
▁leash	-11.1855
▁mandatory	-11.1855
▁maribel	-11.1855
▁marshmallow	-11.1855
▁meanwhile	-11.1855
▁melody	-11.1855
▁merchant	-11.1855
▁meshell	-11.1855
▁millennium	-11.1855
▁mischief	-11.1855
▁mohiam	-11.1855
▁montana	-11.1855
▁neutralize	-11.1855
▁obligation	-11.1855
▁oldfashioned	-11.1855
▁pakhan	-11.1855
▁patience	-11.1855
▁playground	-11.1855
▁prairie	-11.1855
▁prestig	-11.1855
▁pronounce	-11.1855
▁psychiatr	-11.1855
▁pyong	-11.1855
▁quarantine	-11.1855
▁receipt	-11.1855
▁replica	-11.1855
▁retaliat	-11.1855
▁rodriguez	-11.1855
▁sabbac	-11.1855
▁saperstein	-11.1855
▁schmuck	-11.1855
▁scientific	-11.1855
▁sentimental	-11.1855
▁shepherd	-11.1855
▁siempre	-11.1855
▁significant	-11.1855
▁skywalker	-11.1855
▁slinky	-11.1855
▁spencer	-11.1855
▁stammering	-11.1855
▁stunning	-11.1855
▁submarine	-11.1855
▁therapist	-11.1855
▁thompson	-11.1855
▁thorough	-11.1855
▁tobias	-11.1855
▁transmission	-11.1855
▁triangle	-11.1855
▁triumph	-11.1855
▁tyrell	-11.1855
▁unmask	-11.1855
▁unnecessary	-11.1855
▁venganza	-11.1855
▁welcoming	-11.1855
▁whitfield	-11.1855
▁wuertz	-11.1855
▁xray	-11.1855
stitute	-11.1855
▁alliance	-11.1855
▁beware	-11.1855
▁bianca	-11.1855
▁bradley	-11.1855
▁cadby	-11.1855
▁canaries	-11.1855
▁categor	-11.1855
▁clamouring	-11.1855
▁compromised	-11.1855
▁corporal	-11.1855
▁delusion	-11.1855
▁dignity	-11.1855
▁expedition	-11.1855
▁garcia	-11.1855
▁hector	-11.1855
▁lucius	-11.1855
▁manufactur	-11.1855
▁morgan	-11.1855
▁omaha	-11.1855
▁permanent	-11.1855
▁praise	-11.1855
▁seoul	-11.1855
▁sherwood	-11.1855
▁strapp	-11.1855
▁upstate	-11.1855
▁wouid	-11.1855
▁wrench	-11.1855
▁amanda	-11.1855
▁blink	-11.1855
▁donated	-11.1855
▁frolic	-11.1855
▁greece	-11.1855
▁gretel	-11.1855
▁ladder	-11.1855
▁overdue	-11.1855
▁rotten	-11.1855
▁suspend	-11.1855
▁whitehall	-11.1855
▁worries	-11.1855
▁andrea	-11.1855
▁angelov	-11.1855
▁bleating	-11.1855
▁consort	-11.1855
▁hijack	-11.1855
▁northwest	-11.1855
▁notify	-11.1855
▁parley	-11.1855
▁berko	-11.1855
▁curve	-11.1855
▁fourteen	-11.1855
▁uncover	-11.1855
▁cindy	-11.1855
▁crusade	-11.1855
▁gracious	-11.1855
▁pancakes	-11.1855
▁ringtone	-11.1855
▁retard	-11.1855
▁thrill	-11.1855
▁qualifie	-11.1855
▁tweet	-11.1855
▁fierce	-11.1855
▁peach	-11.1855
▁savoy	-11.1855
▁shotgun	-11.1855
▁stork	-11.1855
rique	-11.1855
▁trilling	-11.1855
▁redeem	-11.1855
▁detain	-11.1855
▁pigeon	-11.1855
▁steam	-11.1855
▁typing	-11.1855
compliance	-11.1855
▁ducats	-11.1855
▁forcing	-11.1855
▁barrel	-11.1855
siberia	-11.1855
▁venus	-11.1855
▁terra	-11.1855
▁arden	-11.1855
▁mildred	-11.1855
▁hustle	-11.1855
▁dorm	-11.1855
▁regina	-11.1855
▁semin	-11.1855
▁otis	-11.1855
▁merv	-11.1855
▁hauser	-11.1855
▁factory	-11.1855
▁alfa	-11.1855
▁debris	-11.1855
▁slit	-11.1855
▁fiona	-11.1855
▁reaper	-11.1855
▁programmed	-11.1855
▁adaa	-11.1855
▁stanford	-11.1855
▁prophetess	-11.1855
▁espn	-11.1855
▁electronic	-11.1855
▁nancy	-11.1855
▁econ	-11.1855
▁exceed	-11.1855
▁instance	-11.1855
▁superstitio	-11.1855
▁item	-11.1855
▁paranoi	-11.1856
▁baroness	-11.1856
▁flare	-11.1856
▁griev	-11.1856
▁restraints	-11.1856
▁altogether	-11.1856
▁castroville	-11.1856
▁drummer	-11.1856
▁housing	-11.1856
▁psychological	-11.1856
▁chemistry	-11.1856
▁lousy	-11.1856
▁awoke	-11.1856
▁download	-11.1856
ccane	-11.1856
▁salome	-11.1856
▁kidnapping	-11.1856
▁wolves	-11.1856
▁repair	-11.1856
▁organized	-11.1856
▁hatred	-11.1856
▁archaeologist	-11.1856
▁distinct	-11.1856
▁proposition	-11.1856
▁scram	-11.1857
▁canada	-11.1857
▁compound	-11.1857
▁investigating	-11.1857
▁globe	-11.1857
▁hasid	-11.1857
▁genetic	-11.1857
▁alternat	-11.1857
▁activity	-11.1857
▁display	-11.1857
▁appearance	-11.1857
▁gambling	-11.1857
▁fortress	-11.1857
▁imagination	-11.1857
▁inevitable	-11.1858
▁burger	-11.1858
▁summerfield	-11.1858
muffin	-11.1858
▁consulate	-11.1858
▁allez	-11.1858
▁altitude	-11.1858
▁password	-11.1858
▁adaptation	-11.1858
▁edward	-11.1858
▁clay	-11.1859
▁massage	-11.1859
▁hysteri	-11.1859
▁chopper	-11.1859
▁avenge	-11.1859
▁sidewalk	-11.1859
▁handwriting	-11.1859
▁flapping	-11.186
▁racket	-11.186
▁electro	-11.186
▁ripping	-11.186
▁terry	-11.186
▁elves	-11.1861
▁raven	-11.1861
▁jewelry	-11.1861
▁mummy	-11.1862
▁trey	-11.1862
▁production	-11.1862
▁cpr	-11.1862
▁peaceful	-11.1862
▁greet	-11.1862
▁conqueror	-11.1862
▁mosquitoes	-11.1862
▁honda	-11.1862
▁adol	-11.1862
▁ocha	-11.1863
▁clinic	-11.1863
▁violation	-11.1863
▁slum	-11.1864
▁porch	-11.1864
▁goddaughter	-11.1864
▁jogging	-11.1864
▁touchdown	-11.1864
▁grip	-11.1865
▁collar	-11.1865
▁allah	-11.1865
▁election	-11.1865
▁salary	-11.1866
ittle	-11.1866
▁affection	-11.1866
▁largest	-11.1866
▁holtzy	-11.1866
▁shuttle	-11.1867
▁unlock	-11.1867
▁jury	-11.1867
▁countryside	-11.1868
▁cherish	-11.1868
▁oak	-11.1868
▁waist	-11.1868
▁european	-11.1869
▁churchill	-11.1869
ucci	-11.187
▁accidentally	-11.1871
▁bonus	-11.1871
▁branches	-11.1871
▁brotherinlaw	-11.1871
▁cooperate	-11.1872
▁guan	-11.1872
▁injection	-11.1872
▁seams	-11.1873
▁expression	-11.1873
▁belongings	-11.1874
▁ache	-11.1874
▁cuff	-11.1875
▁attain	-11.1875
▁stationary	-11.1875
▁gator	-11.1876
▁version	-11.1876
▁verb	-11.1877
hour	-11.1877
▁controlled	-11.1878
▁pun	-11.1878
ctate	-11.1878
▁furious	-11.1878
▁flown	-11.1878
▁freeway	-11.188
▁spies	-11.188
▁everyday	-11.1881
▁dong	-11.1883
▁shaman	-11.1884
▁maz	-11.1885
▁specialist	-11.1886
▁ahhh	-11.1886
▁schoolwork	-11.1887
▁indy	-11.189
▁tov	-11.1894
▁renown	-11.1894
▁meds	-11.1896
cze	-11.1896
▁clearance	-11.1897
▁shaken	-11.1901
asket	-11.1902
▁runner	-11.1905
▁protective	-11.1906
▁tighten	-11.1914
▁behav	-11.1916
ophy	-11.1919
good	-11.192
▁hotter	-11.192
▁ahem	-11.192
▁hail	-11.1926
▁fuss	-11.1931
▁mole	-11.1932
shit	-11.1938
▁kneel	-11.1952
▁sip	-11.1953
▁penis	-11.196
gorge	-11.1969
fianc	-11.2001
▁float	-11.2006
▁arr	-11.2016
nova	-11.2024
▁brownie	-11.2033
▁fisherm	-11.2076
ripped	-11.2084
▁transit	-11.2091
▁harp	-11.2122
rubber	-11.2152
▁baker	-11.2192
▁historical	-11.22
▁shack	-11.2237
▁criticiz	-11.225
bomb	-11.2361
case	-11.2374
amos	-11.2435
base	-11.2457
▁mute	-11.2538
rified	-11.2543
▁resu	-11.2564
▁garb	-11.2568
hem	-11.2574
▁accelerate	-11.259
lizing	-11.282
person	-11.2992
owned	-11.3001
anni	-11.3005
▁comb	-11.3135
▁tortur	-11.3211
▁turin	-11.331
poster	-11.3326
decker	-11.3345
▁scrub	-11.3391
ague	-11.3434
▁historic	-11.345
▁whisper	-11.3455
▁ymbryne	-11.3508
▁diamond	-11.3508
high	-11.3533
▁bei	-11.3561
▁embarrass	-11.373
▁accus	-11.3731
▁tick	-11.3749
▁infect	-11.3776
▁flood	-11.3788
▁obsess	-11.3795
▁summon	-11.38
q	-11.3802
▁supp	-11.3803
sexual	-11.3807
dollar	-11.3808
world	-11.3809
understood	-11.3809
minute	-11.3809
bearing	-11.3809
type	-11.3809
body	-11.381
interest	-11.3812
▁brid	-11.3813
▁eliminate	-11.3815
six	-11.3816
know	-11.3817
▁garde	-11.3817
▁profession	-11.3818
track	-11.3826
▁louis	-11.3831
▁charit	-11.3841
▁region	-11.3844
▁commi	-11.3845
▁sittin	-11.3846
▁violat	-11.3846
▁evacuat	-11.3849
▁adapt	-11.3851
urpin	-11.3851
▁movin	-11.3853
tinct	-11.3853
▁archaeolog	-11.3853
▁gibber	-11.3853
▁hunch	-11.3854
erature	-11.3855
▁grazie	-11.3855
▁gurgl	-11.3855
▁oppress	-11.3855
▁smug	-11.3855
▁advertising	-11.3855
▁aggressive	-11.3855
▁algorithm	-11.3855
▁amazon	-11.3855
▁anniversary	-11.3855
▁applaud	-11.3855
▁appreciation	-11.3855
▁arnold	-11.3855
▁assemble	-11.3855
▁athlete	-11.3855
▁athletic	-11.3855
▁attenborough	-11.3855
▁baptized	-11.3855
▁barbarian	-11.3855
▁barnhill	-11.3855
▁benevolen	-11.3855
▁berlin	-11.3855
▁beulah	-11.3855
▁blackjack	-11.3855
▁blazing	-11.3855
▁blizzard	-11.3855
▁bollocks	-11.3855
▁bouquet	-11.3855
▁bouvier	-11.3855
▁bronwyn	-11.3855
▁cactus	-11.3855
▁caliber	-11.3855
▁canadian	-11.3855
▁caribbean	-11.3855
▁cauliflower	-11.3855
▁certified	-11.3855
▁charging	-11.3855
▁chemical	-11.3855
▁chrysanthemum	-11.3855
▁circula	-11.3855
▁cleopatra	-11.3855
▁conscience	-11.3855
▁conspirators	-11.3855
▁decency	-11.3855
▁devastated	-11.3855
▁discharge	-11.3855
▁disgrace	-11.3855
▁distribution	-11.3855
▁district	-11.3855
▁donkey	-11.3855
▁dripping	-11.3855
▁dunkirk	-11.3855
▁earthquake	-11.3855
▁einstein	-11.3855
▁elimination	-11.3855
▁encouraging	-11.3855
▁encrypted	-11.3855
▁exclusive	-11.3855
▁exwife	-11.3855
▁feathers	-11.3855
▁ferndell	-11.3855
▁festival	-11.3855
▁fingernails	-11.3855
▁forensic	-11.3855
▁fortyfive	-11.3855
▁froegers	-11.3855
▁frozen	-11.3855
▁frustrating	-11.3855
▁georgia	-11.3855
▁globetrotters	-11.3855
▁google	-11.3855
▁gravity	-11.3855
▁grinding	-11.3855
▁guillotine	-11.3855
▁halyburton	-11.3855
▁headmistress	-11.3855
▁hepburn	-11.3855
▁hilarious	-11.3855
▁hormones	-11.3855
▁identified	-11.3855
▁increasing	-11.3855
▁indefinite	-11.3855
▁infamous	-11.3855
▁infiltrat	-11.3855
▁injuries	-11.3855
▁innocence	-11.3855
▁inspiration	-11.3855
▁invincible	-11.3855
▁iraq	-11.3855
▁jennifer	-11.3855
▁jeopardy	-11.3855
▁judith	-11.3855
▁kentucky	-11.3855
▁lipstick	-11.3855
▁mailbox	-11.3855
▁mascot	-11.3855
▁massacre	-11.3855
▁mcallister	-11.3855
▁mccarthy	-11.3855
▁melrose	-11.3855
▁microwave	-11.3855
▁ministry	-11.3855
▁motorcade	-11.3855
▁muslim	-11.3855
▁necessarily	-11.3855
▁nowadays	-11.3855
▁obnoxious	-11.3855
▁obstructi	-11.3855
▁occurred	-11.3855
▁odonnell	-11.3855
▁ohoulihan	-11.3855
▁opponent	-11.3855
▁oscillator	-11.3855
▁overwhelming	-11.3855
▁pakistan	-11.3855
▁parachute	-11.3855
▁parliament	-11.3855
▁parlor	-11.3855
▁pavilion	-11.3855
▁pemrose	-11.3855
▁perimeter	-11.3855
▁perspective	-11.3855
▁pervert	-11.3855
▁physician	-11.3855
▁physics	-11.3855
▁pinafore	-11.3855
▁plainview	-11.3855
▁possibility	-11.3855
▁priestesses	-11.3855
▁prometheus	-11.3855
▁prophec	-11.3855
▁prosecutor	-11.3855
▁puddle	-11.3855
▁railroad	-11.3855
▁ramirez	-11.3855
▁reaiiy	-11.3855
▁rebuild	-11.3855
▁reconsider	-11.3855
▁registration	-11.3855
▁renounce	-11.3855
▁rewrite	-11.3855
▁ritual	-11.3855
▁rochester	-11.3855
▁schuyler	-11.3855
▁scissors	-11.3855
▁scotch	-11.3855
▁seashells	-11.3855
▁seatbelt	-11.3855
▁seyeong	-11.3855
▁shannon	-11.3855
▁sheridan	-11.3855
▁simulation	-11.3855
▁skotak	-11.3855
▁sleeve	-11.3855
▁sophia	-11.3855
▁souffle	-11.3855
▁sponge	-11.3855
▁spontaneous	-11.3855
▁staples	-11.3855
▁stepbrother	-11.3855
▁stiletto	-11.3855
▁stoeger	-11.3855
▁striking	-11.3855
▁stubborn	-11.3855
▁stumble	-11.3855
▁sustain	-11.3855
▁sympathy	-11.3855
▁tequila	-11.3855
▁terracotta	-11.3855
▁thailand	-11.3855
▁thermal	-11.3855
▁thruster	-11.3855
▁tinkl	-11.3855
▁tomatoes	-11.3855
▁transaction	-11.3855
▁transcend	-11.3855
▁tshirt	-11.3855
▁undercover	-11.3855
▁unpredictable	-11.3855
▁vaccinate	-11.3855
▁valentina	-11.3855
▁verifying	-11.3855
▁vinegar	-11.3855
▁vovnik	-11.3855
▁wardrobe	-11.3855
▁windlesham	-11.3855
▁withdrawal	-11.3855
▁yoruba	-11.3855
▁accommodat	-11.3855
▁actuary	-11.3855
▁admiralty	-11.3855
▁authentic	-11.3855
▁blush	-11.3855
▁canvas	-11.3855
▁capacity	-11.3855
▁capitol	-11.3855
▁clarity	-11.3855
▁colony	-11.3855
▁companion	-11.3855
▁congress	-11.3855
▁distinguish	-11.3855
▁dwight	-11.3855
▁expense	-11.3855
▁fabio	-11.3855
▁fritz	-11.3855
▁gisele	-11.3855
▁greenwall	-11.3855
▁hahaha	-11.3855
▁hippie	-11.3855
▁kilometers	-11.3855
▁lifeguard	-11.3855
▁lobster	-11.3855
▁lounge	-11.3855
▁marjorie	-11.3855
▁marquez	-11.3855
▁nelson	-11.3855
▁peanut	-11.3855
▁penthouse	-11.3855
▁pepper	-11.3855
▁pillow	-11.3855
▁plaster	-11.3855
▁rebellion	-11.3855
▁reserve	-11.3855
▁roxie	-11.3855
▁terminal	-11.3855
▁tractor	-11.3855
▁translation	-11.3855
▁trousers	-11.3855
▁unsettl	-11.3855
▁varsity	-11.3855
▁verdell	-11.3855
▁veteran	-11.3855
▁yujin	-11.3855
▁blindfold	-11.3855
▁claire	-11.3855
▁cockpit	-11.3855
▁embrace	-11.3855
▁error	-11.3855
▁haywood	-11.3855
▁horace	-11.3855
▁investigate	-11.3855
▁payroll	-11.3855
▁petula	-11.3855
▁relocat	-11.3855
▁revolve	-11.3855
▁seventeen	-11.3855
▁snoke	-11.3855
▁spear	-11.3855
▁squish	-11.3855
▁stitches	-11.3855
▁syrup	-11.3855
▁tbone	-11.3855
▁turbo	-11.3855
▁variety	-11.3855
▁vinyl	-11.3855
▁caesar	-11.3855
▁daisies	-11.3855
▁fiancee	-11.3855
▁guinea	-11.3855
▁maryann	-11.3855
▁reopen	-11.3855
▁unpack	-11.3855
▁kwang	-11.3855
▁becca	-11.3855
▁blares	-11.3855
▁camellia	-11.3855
▁couid	-11.3855
▁discre	-11.3855
▁harlem	-11.3855
▁imprison	-11.3855
▁jonson	-11.3855
▁slash	-11.3855
▁sophie	-11.3855
▁theft	-11.3855
▁aisle	-11.3855
▁cyber	-11.3855
▁douche	-11.3855
▁drank	-11.3855
▁conceal	-11.3855
▁lazar	-11.3855
▁niece	-11.3855
▁shawnzy	-11.3855
▁almay	-11.3855
▁aspir	-11.3855
▁ganz	-11.3855
▁nightfall	-11.3855
▁porsche	-11.3855
▁prodig	-11.3855
gradation	-11.3855
▁astern	-11.3855
▁headache	-11.3855
▁slick	-11.3855
▁burden	-11.3855
▁flattered	-11.3855
▁monica	-11.3855
▁mookie	-11.3855
▁partially	-11.3855
▁brig	-11.3855
▁cutlery	-11.3855
▁juicy	-11.3855
▁martian	-11.3855
▁poach	-11.3855
▁stamp	-11.3855
▁turf	-11.3855
▁bhaer	-11.3855
▁cinna	-11.3855
▁dozer	-11.3855
▁opportunities	-11.3855
economic	-11.3855
grudge	-11.3855
▁curb	-11.3855
▁whooshing	-11.3855
▁harmony	-11.3855
▁lewis	-11.3855
▁ernie	-11.3855
▁backpack	-11.3855
▁cardinal	-11.3855
▁mimic	-11.3855
▁mouse	-11.3855
▁earrings	-11.3855
▁moaning	-11.3855
▁slug	-11.3855
▁confidential	-11.3855
▁evict	-11.3855
▁ferri	-11.3855
▁serum	-11.3855
▁milkshake	-11.3855
▁fumes	-11.3855
▁cheek	-11.3855
▁programming	-11.3855
▁stifle	-11.3855
▁communism	-11.3855
▁treadstone	-11.3855
▁goddess	-11.3855
▁martha	-11.3855
ihu	-11.3855
▁australia	-11.3855
▁leaf	-11.3856
▁torch	-11.3856
▁gorilla	-11.3856
▁popped	-11.3856
▁underworld	-11.3856
▁tommysan	-11.3856
▁casualties	-11.3856
▁decorat	-11.3856
▁commenc	-11.3856
▁jammed	-11.3856
▁toad	-11.3856
escent	-11.3856
▁excavat	-11.3856
▁definition	-11.3856
parallel	-11.3856
▁dickens	-11.3856
▁mooing	-11.3856
▁mercado	-11.3856
▁preferred	-11.3856
▁prosper	-11.3856
▁rotate	-11.3856
▁consol	-11.3856
▁trading	-11.3856
▁sharkey	-11.3856
▁mistress	-11.3856
▁creating	-11.3857
▁medal	-11.3857
▁repay	-11.3857
▁dazzle	-11.3857
▁lethal	-11.3857
▁obey	-11.3857
▁soggy	-11.3857
▁narrat	-11.3857
▁lupe	-11.3857
▁renner	-11.3857
▁dizzy	-11.3857
▁vague	-11.3857
▁boogie	-11.3857
▁blackheart	-11.3857
▁blacksmith	-11.3857
▁broadway	-11.3857
▁bluff	-11.3858
▁isla	-11.3858
▁organism	-11.3858
▁phd	-11.3858
▁windsor	-11.3858
▁claw	-11.3858
▁dandy	-11.3858
▁ginger	-11.3858
▁crescen	-11.3858
▁detonator	-11.3858
▁battlefield	-11.3859
▁org	-11.3859
▁regardless	-11.3859
▁cheque	-11.3859
▁cere	-11.3859
▁revolutionary	-11.3859
▁addict	-11.3859
▁birdhouse	-11.3859
▁possessive	-11.3859
▁massive	-11.386
▁contribution	-11.386
▁prospect	-11.386
▁timber	-11.386
▁atom	-11.386
▁duties	-11.386
▁slipping	-11.386
▁maxwell	-11.386
▁sector	-11.386
▁campfire	-11.386
knob	-11.386
▁morality	-11.386
▁evacuation	-11.3861
▁courthouse	-11.3861
▁overboard	-11.3861
▁soda	-11.3861
▁goatee	-11.3861
▁basis	-11.3861
▁campbell	-11.3861
▁wallace	-11.3861
▁nitro	-11.3861
▁contrary	-11.3862
▁robinson	-11.3862
▁drought	-11.3862
▁rico	-11.3862
▁adorable	-11.3862
▁activi	-11.3863
▁individuality	-11.3863
▁whack	-11.3863
▁corpse	-11.3864
▁nude	-11.3864
▁demonstration	-11.3864
▁gangster	-11.3864
▁helsing	-11.3864
▁objective	-11.3865
▁peculiarity	-11.3865
▁potter	-11.3865
sync	-11.3865
▁waking	-11.3865
▁feast	-11.3865
▁pierce	-11.3865
▁cartel	-11.3866
ocon	-11.3866
▁tripping	-11.3866
▁traveller	-11.3866
adequa	-11.3867
▁effective	-11.3867
▁alongside	-11.3867
▁davidson	-11.3867
▁poise	-11.3867
▁howling	-11.3868
▁ramp	-11.3869
▁huff	-11.3869
▁assassination	-11.387
▁deput	-11.387
▁leadership	-11.387
▁whale	-11.387
▁allowance	-11.387
▁hedge	-11.3871
▁kylie	-11.3872
▁interst	-11.3873
xious	-11.3873
▁exile	-11.3874
▁jaw	-11.3875
▁clum	-11.3875
▁steril	-11.3876
▁proton	-11.3876
▁frantic	-11.3876
▁psychic	-11.3878
▁rash	-11.3879
▁shade	-11.3879
tapped	-11.3879
▁booth	-11.3879
winkle	-11.3883
▁mcu	-11.3885
inister	-11.3891
pawn	-11.3891
imbel	-11.3892
▁ether	-11.3893
terior	-11.3894
ossier	-11.3917
called	-11.3982
▁liber	-11.3985
gnify	-11.4038
construction	-11.404
▁levi	-11.4048
▁describ	-11.4078
▁derri	-11.4146
ogr	-11.4187
▁forni	-11.4234
rivi	-11.4236
▁seize	-11.4241
▁rabi	-11.4254
ulls	-11.436
erald	-11.4459
generat	-11.4513
▁rosa	-11.4568
orchestrated	-11.4649
▁robbin	-11.4742
bbling	-11.4826
▁rhythm	-11.4981
employment	-11.5033
umbling	-11.5034
aug	-11.5467
limey	-11.5559
▁shaq	-11.5633
ancho	-11.5661
▁spec	-11.5815
having	-11.5846
▁ancestor	-11.6009
▁clove	-11.6048
hui	-11.6128
liberate	-11.6192
tribute	-11.6237
spotter	-11.6254
▁weep	-11.6288
▁annoy	-11.6288
▁snarl	-11.6289
▁exhaust	-11.6294
where	-11.6297
▁summ	-11.6299
▁dread	-11.63
writing	-11.6302
connect	-11.6305
▁imagin	-11.6306
cloth	-11.6306
flow	-11.6308
yearold	-11.6309
writer	-11.6309
convoy	-11.6309
legal	-11.6309
slept	-11.6309
control	-11.6309
watch	-11.6309
second	-11.6309
death	-11.631
glen	-11.631
trust	-11.631
mind	-11.6311
national	-11.6313
▁relate	-11.6315
▁expose	-11.6315
▁defens	-11.6324
▁destin	-11.6328
▁cult	-11.6328
shake	-11.633
▁felon	-11.6331
throw	-11.6332
▁omni	-11.6333
▁rabbi	-11.6333
▁acqui	-11.6334
▁curl	-11.6334
▁precise	-11.6337
▁mosquito	-11.6343
▁coordinat	-11.6343
▁demonstrat	-11.6344
▁leavin	-11.6345
▁colombia	-11.6345
▁mornin	-11.6345
▁bubbl	-11.6345
▁investigati	-11.6346
▁inhal	-11.6346
▁counsel	-11.6349
▁contribut	-11.635
media	-11.6351
▁chasin	-11.6351
▁yank	-11.6351
▁react	-11.6352
▁restrain	-11.6354
▁interroga	-11.6354
▁exhibit	-11.6355
▁magnifi	-11.6355
▁resembl	-11.6355
▁sporadic	-11.6355
▁reincarnat	-11.6355
anthrop	-11.6355
centric	-11.6355
destructive	-11.6355
inflict	-11.6355
▁abomination	-11.6355
▁acquaintance	-11.6355
▁adrianna	-11.6355
▁alkhoei	-11.6355
▁allergic	-11.6355
▁ambitious	-11.6355
▁amorosa	-11.6355
▁analyze	-11.6355
▁andrenyi	-11.6355
▁anthony	-11.6355
▁aristocrat	-11.6355
▁arrogant	-11.6355
▁austin	-11.6355
▁automobile	-11.6355
▁avocet	-11.6355
▁awhile	-11.6355
▁azeem	-11.6355
▁backflip	-11.6355
▁balkan	-11.6355
▁bangkok	-11.6355
▁beatrice	-11.6355
▁believing	-11.6355
▁bellyache	-11.6355
▁biometric	-11.6355
▁biscuit	-11.6355
▁bodyguard	-11.6355
▁bourbon	-11.6355
▁bracket	-11.6355
▁brochure	-11.6355
▁brunette	-11.6355
▁bypass	-11.6355
▁candidate	-11.6355
▁cataclysm	-11.6355
▁ceiling	-11.6355
▁cemetery	-11.6355
▁centimeter	-11.6355
▁challenging	-11.6355
▁charlotte	-11.6355
▁chelsea	-11.6355
▁christopher	-11.6355
▁circum	-11.6355
▁columbus	-11.6355
▁commerce	-11.6355
▁commuter	-11.6355
▁concession	-11.6355
▁constitution	-11.6355
▁contaminate	-11.6355
▁convenience	-11.6355
▁corridor	-11.6355
▁covenent	-11.6355
▁craig	-11.6355
▁crawdad	-11.6355
▁curiosity	-11.6355
▁daeseo	-11.6355
▁daydream	-11.6355
▁decipher	-11.6355
▁derail	-11.6355
▁discipline	-11.6355
▁doughnut	-11.6355
▁embroider	-11.6355
▁emptiness	-11.6355
▁encyclopedia	-11.6355
▁endangerment	-11.6355
▁engaging	-11.6355
▁enthusiasm	-11.6355
▁episode	-11.6355
▁errand	-11.6355
▁excellenc	-11.6355
▁exorcise	-11.6355
▁expansion	-11.6355
▁exploding	-11.6355
▁firecracker	-11.6355
▁flailing	-11.6355
▁flourish	-11.6355
▁forbidden	-11.6355
▁fortunate	-11.6355
▁fragile	-11.6355
▁furnace	-11.6355
▁gahjii	-11.6355
▁gandhi	-11.6355
▁gcpd	-11.6355
▁gilbert	-11.6355
▁gingerbread	-11.6355
▁greaves	-11.6355
▁haderach	-11.6355
▁hallucinati	-11.6355
▁harassment	-11.6355
▁hhhhhey	-11.6355
▁holloman	-11.6355
▁homicide	-11.6355
▁identification	-11.6355
▁improvise	-11.6355
▁inappropriate	-11.6355
▁incognito	-11.6355
▁indianapolis	-11.6355
▁industry	-11.6355
▁infidel	-11.6355
▁infirmary	-11.6355
▁inhabit	-11.6355
▁initiated	-11.6355
▁intermittent	-11.6355
▁introducing	-11.6355
▁inventor	-11.6355
▁investigator	-11.6355
▁itinerary	-11.6355
▁jefe	-11.6355
▁jukebox	-11.6355
▁kilimanjaro	-11.6355
▁launder	-11.6355
▁leonberger	-11.6355
▁lucinda	-11.6355
▁luxury	-11.6355
▁lyndon	-11.6355
▁malfunction	-11.6355
▁manhunt	-11.6355
▁mcpherson	-11.6355
▁meadow	-11.6355
▁milligrams	-11.6355
▁mindmeld	-11.6355
▁molasses	-11.6355
▁mongolia	-11.6355
▁morrison	-11.6355
▁mulgrave	-11.6355
▁mysteries	-11.6355
▁narcissism	-11.6355
▁nebraska	-11.6355
▁nobility	-11.6355
▁nuisance	-11.6355
▁obituary	-11.6355
▁overseas	-11.6355
▁overwhelmed	-11.6355
▁pagoda	-11.6355
▁patterson	-11.6355
▁peligro	-11.6355
▁penelope	-11.6355
▁pentagon	-11.6355
▁piracy	-11.6355
▁plunder	-11.6355
▁podoloff	-11.6355
▁politician	-11.6355
▁practise	-11.6355
▁precision	-11.6355
▁pregnanc	-11.6355
▁premises	-11.6355
▁primitive	-11.6355
▁probability	-11.6355
▁producing	-11.6355
▁proposal	-11.6355
▁puppet	-11.6355
▁purcell	-11.6355
▁rebuilt	-11.6355
▁recipient	-11.6355
▁reciprocal	-11.6355
▁refuge	-11.6355
▁reinforcement	-11.6355
▁relevant	-11.6355
▁relief	-11.6355
▁rewind	-11.6355
▁rhino	-11.6355
▁rhyme	-11.6355
▁rihanna	-11.6355
▁scavenger	-11.6355
▁scumbag	-11.6355
▁sizzling	-11.6355
▁sloppy	-11.6355
▁smuggler	-11.6355
▁snatch	-11.6355
▁spilner	-11.6355
▁stranded	-11.6355
▁stuart	-11.6355
▁suffocat	-11.6355
▁surrillo	-11.6355
▁symptoms	-11.6355
▁tegrisco	-11.6355
▁topsecret	-11.6355
▁treacher	-11.6355
▁treason	-11.6355
▁trumanlodge	-11.6355
▁ugliness	-11.6355
▁unaware	-11.6355
▁undead	-11.6355
▁underwater	-11.6355
▁unidentified	-11.6355
▁unleash	-11.6355
▁unnatural	-11.6355
▁untrained	-11.6355
▁vendetta	-11.6355
▁virgil	-11.6355
▁vortex	-11.6355
▁warfare	-11.6355
▁wavekrest	-11.6355
▁wheatley	-11.6355
▁whodunit	-11.6355
▁worthwhile	-11.6355
▁wyker	-11.6355
▁zigzag	-11.6355
▁alonso	-11.6355
▁analyst	-11.6355
▁arriane	-11.6355
▁ascend	-11.6355
▁billingsley	-11.6355
▁cadillac	-11.6355
▁cartoons	-11.6355
▁companies	-11.6355
▁dictator	-11.6355
▁dynam	-11.6355
▁gabbe	-11.6355
▁graphic	-11.6355
▁impact	-11.6355
▁integr	-11.6355
▁loneliness	-11.6355
▁midwest	-11.6355
▁nitrate	-11.6355
▁obtain	-11.6355
▁outpost	-11.6355
▁overreact	-11.6355
▁picnic	-11.6355
▁policies	-11.6355
▁receptionist	-11.6355
▁revelation	-11.6355
▁sausage	-11.6355
▁stillsuit	-11.6355
▁studies	-11.6355
▁suffice	-11.6355
▁swift	-11.6355
▁titanium	-11.6355
▁turtle	-11.6355
convincing	-11.6355
▁airborne	-11.6355
▁civic	-11.6355
▁consciousness	-11.6355
▁doubleteam	-11.6355
▁flavor	-11.6355
▁fragment	-11.6355
▁kenoak	-11.6355
▁lizzie	-11.6355
▁motivate	-11.6355
▁vertical	-11.6355
▁wreak	-11.6355
▁butler	-11.6355
▁chamberlain	-11.6355
▁germs	-11.6355
▁giddy	-11.6355
▁ouda	-11.6355
▁pioneer	-11.6355
▁polack	-11.6355
▁rainbow	-11.6355
▁sensors	-11.6355
▁vandalis	-11.6355
▁chantlng	-11.6355
▁filter	-11.6355
▁frenz	-11.6355
▁ongoing	-11.6355
▁radius	-11.6355
▁reunion	-11.6355
▁snuff	-11.6355
▁abiga	-11.6355
▁compensat	-11.6355
▁donut	-11.6355
▁firewall	-11.6355
▁nevertheless	-11.6355
▁probation	-11.6355
▁radical	-11.6355
▁booze	-11.6355
▁captive	-11.6355
▁chancellor	-11.6355
▁chanel	-11.6355
▁promoted	-11.6355
▁rooney	-11.6355
▁scoop	-11.6355
▁sensible	-11.6355
▁darcy	-11.6355
▁plett	-11.6355
▁plow	-11.6355
▁teapot	-11.6355
▁testicle	-11.6355
▁acquisition	-11.6355
▁debbie	-11.6355
▁lynch	-11.6355
▁dario	-11.6355
▁demco	-11.6355
▁gootoh	-11.6355
▁mirage	-11.6355
▁perpet	-11.6355
▁plumbing	-11.6355
▁preparing	-11.6355
▁ralph	-11.6355
▁tanner	-11.6355
▁twitter	-11.6355
▁unstable	-11.6355
▁wilderness	-11.6355
▁stump	-11.6355
▁chunk	-11.6355
▁karen	-11.6355
▁sixtyf	-11.6355
▁stomp	-11.6355
prehend	-11.6355
▁bruises	-11.6355
▁buddha	-11.6355
▁cavern	-11.6355
▁doomed	-11.6355
▁tranquil	-11.6355
▁volt	-11.6355
▁canyon	-11.6355
▁drumming	-11.6355
▁sample	-11.6355
▁settling	-11.6355
▁sushi	-11.6355
▁mtv	-11.6355
▁argh	-11.6355
▁chron	-11.6355
▁manifest	-11.6355
▁sherman	-11.6355
▁crab	-11.6355
▁intro	-11.6355
▁infrared	-11.6355
▁trifle	-11.6355
▁utter	-11.6355
▁willis	-11.6355
▁radu	-11.6355
▁wiring	-11.6355
▁cram	-11.6355
▁laura	-11.6355
▁thermo	-11.6355
▁stalling	-11.6355
▁daft	-11.6355
▁precede	-11.6355
▁belay	-11.6355
▁examiner	-11.6355
ptuous	-11.6355
▁overdose	-11.6355
▁apocalypse	-11.6355
▁snare	-11.6355
▁idaho	-11.6355
▁leeches	-11.6355
▁negotiation	-11.6355
▁contradict	-11.6355
▁quiver	-11.6355
pulsion	-11.6355
▁briefcase	-11.6355
▁negotiator	-11.6355
▁larry	-11.6355
▁olsen	-11.6355
▁lacee	-11.6356
▁maroon	-11.6356
▁teammates	-11.6356
▁terrifying	-11.6356
▁corset	-11.6356
▁yawn	-11.6356
▁spaceships	-11.6356
▁imitating	-11.6356
▁italy	-11.6356
▁quantit	-11.6356
▁domino	-11.6356
▁render	-11.6356
▁interrogation	-11.6356
▁munie	-11.6356
▁junkyard	-11.6356
▁complement	-11.6356
▁cocktail	-11.6356
▁beret	-11.6356
▁nanny	-11.6356
▁plugged	-11.6356
eopard	-11.6356
▁fringe	-11.6356
▁carrot	-11.6356
▁cdc	-11.6356
▁whipped	-11.6356
▁stain	-11.6356
▁gambler	-11.6356
▁zen	-11.6356
▁hamlet	-11.6356
▁confront	-11.6356
▁heiss	-11.6356
▁pug	-11.6356
▁buggy	-11.6357
▁flatulen	-11.6357
▁chugging	-11.6357
▁apology	-11.6357
▁furtherm	-11.6357
▁arrow	-11.6357
assurance	-11.6357
truck	-11.6357
▁railway	-11.6357
▁hawkins	-11.6357
lightspeed	-11.6357
▁moans	-11.6357
▁gibberish	-11.6357
▁midget	-11.6357
▁bulk	-11.6357
▁wills	-11.6357
▁refresh	-11.6357
▁crackles	-11.6357
▁jocks	-11.6357
▁beetle	-11.6357
▁munch	-11.6358
▁spinning	-11.6358
▁centerpiece	-11.6359
▁forehead	-11.6359
▁pumpkin	-11.6359
▁yankee	-11.6359
▁banned	-11.6359
▁wrapping	-11.6359
▁tryouts	-11.6359
azzle	-11.636
▁cache	-11.636
▁grease	-11.636
▁eligib	-11.636
▁piay	-11.636
▁croc	-11.636
▁pompo	-11.6361
▁syria	-11.6361
▁seduc	-11.6361
▁dunn	-11.6362
mperial	-11.6362
ruffle	-11.6362
▁offende	-11.6362
▁prohibida	-11.6368
▁intensi	-11.6368
▁evasi	-11.637
▁usher	-11.6372
ocho	-11.6372
endix	-11.6372
▁envi	-11.6373
mnh	-11.6373
elegan	-11.638
▁muti	-11.6385
affe	-11.6385
▁cobb	-11.6386
eebie	-11.6388
nanci	-11.6396
▁insta	-11.6398
turn	-11.64
▁ecologi	-11.6408
flops	-11.6432
▁funnie	-11.6433
▁asta	-11.6456
pending	-11.6495
▁modif	-11.6522
▁shagg	-11.6542
▁stew	-11.6543
risco	-11.6547
▁experienc	-11.6548
▁hisse	-11.6562
functional	-11.6648
haste	-11.6694
▁limb	-11.6702
nows	-11.6863
▁declar	-11.6886
unda	-11.6941
rubbing	-11.7015
▁exercis	-11.7068
▁announc	-11.7159
devil	-11.7236
▁hobb	-11.7425
curs	-11.7827
▁schedul	-11.8139
barge	-11.8621
▁trauma	-11.8646
angelo	-11.8655
ragged	-11.8665
exist	-11.8937
▁devi	-11.9085
retches	-11.9321
▁trumpet	-11.9342
conditioning	-11.9437
daughter	-11.9623
▁clamor	-11.9625
heart	-11.9637
smith	-11.9638
degree	-11.9639
phrase	-11.964
stroke	-11.964
product	-11.964
bush	-11.964
together	-11.9641
front	-11.9641
buster	-11.9642
hunting	-11.9642
bug	-11.9642
winning	-11.9642
finished	-11.9642
driver	-11.9642
horse	-11.9643
okay	-11.9643
true	-11.9643
kidding	-11.9651
▁rehears	-11.9653
▁influen	-11.9655
▁numb	-11.966
▁holtz	-11.9664
▁bibl	-11.9664
shape	-11.9668
▁brillian	-11.9674
▁ratchet	-11.9674
▁writin	-11.9678
▁dancin	-11.9678
rific	-11.968
▁exhal	-11.9681
▁intent	-11.9682
▁elevat	-11.9682
▁detonat	-11.9684
▁executi	-11.9686
▁chemist	-11.9686
stract	-11.9687
▁austr	-11.9687
rrifying	-11.9687
▁confident	-11.9688
▁satisf	-11.9688
▁janu	-11.9688
▁congregati	-11.9688
▁explicit	-11.9688
▁meticulous	-11.9688
▁spidder	-11.9688
▁unacceptab	-11.9688
chiroptera	-11.9688
contamination	-11.9688
currenc	-11.9688
galactic	-11.9688
greatgrandfather	-11.9688
ianwifefindercom	-11.9688
nsylvania	-11.9688
prejudice	-11.9688
residency	-11.9688
skeleton	-11.9688
voodoo	-11.9688
▁academi	-11.9688
▁adjourn	-11.9688
▁administrat	-11.9688
▁advisor	-11.9688
▁aerobic	-11.9688
▁aggravat	-11.9688
▁aggression	-11.9688
▁airstrip	-11.9688
▁amalgamated	-11.9688
▁analysis	-11.9688
▁anxiety	-11.9688
▁apollyon	-11.9688
▁apologizing	-11.9688
▁archery	-11.9688
▁artificial	-11.9688
▁assembly	-11.9688
▁assouan	-11.9688
▁atmosphere	-11.9688
▁auxiliary	-11.9688
▁babysitter	-11.9688
▁bahama	-11.9688
▁barbecue	-11.9688
▁barricade	-11.9688
▁bassoons	-11.9688
▁battalion	-11.9688
▁believable	-11.9688
▁benefactor	-11.9688
▁bexhill	-11.9688
▁binoculars	-11.9688
▁blitzkrieg	-11.9688
▁bogart	-11.9688
▁bythebook	-11.9688
▁calcutta	-11.9688
▁calligraphy	-11.9688
▁carnival	-11.9688
▁caucasian	-11.9688
▁caviar	-11.9688
▁chandelier	-11.9688
▁chauffeur	-11.9688
▁chickaboom	-11.9688
▁chlorate	-11.9688
▁chrys	-11.9688
▁chucheong	-11.9688
▁clarify	-11.9688
▁clarinet	-11.9688
▁closure	-11.9688
▁clutter	-11.9688
▁cocacola	-11.9688
▁cockroach	-11.9688
▁coiiege	-11.9688
▁collarbone	-11.9688
▁colonize	-11.9688
▁communal	-11.9688
▁compressor	-11.9688
▁condolences	-11.9688
▁confiscated	-11.9688
▁conquistador	-11.9688
▁crayon	-11.9688
▁cripple	-11.9688
▁cynthia	-11.9688
▁damsel	-11.9688
▁deluca	-11.9688
▁desperation	-11.9688
▁discourage	-11.9688
▁dracula	-11.9688
▁dragonflies	-11.9688
▁enclosed	-11.9688
▁encryption	-11.9688
▁endangered	-11.9688
▁enthusiastic	-11.9688
▁epidemic	-11.9688
▁erickson	-11.9688
▁escaping	-11.9688
▁esteemed	-11.9688
▁evaluation	-11.9688
▁exboyfriend	-11.9688
▁expansive	-11.9688
▁exquisite	-11.9688
▁extravagan	-11.9688
▁ezekiel	-11.9688
▁fairbanks	-11.9688
▁fairchild	-11.9688
▁famiiy	-11.9688
▁feminist	-11.9688
▁figuring	-11.9688
▁flexibility	-11.9688
▁fodder	-11.9688
▁fontanez	-11.9688
▁fracture	-11.9688
▁frisbee	-11.9688
▁fromage	-11.9688
▁frustration	-11.9688
▁fundamental	-11.9688
▁galveston	-11.9688
▁garaad	-11.9688
▁geography	-11.9688
▁gertie	-11.9688
▁ghuri	-11.9688
▁giancana	-11.9688
▁gisborne	-11.9688
▁gleema	-11.9688
▁glggllng	-11.9688
▁greatgreat	-11.9688
▁grobowski	-11.9688
▁grumpy	-11.9688
▁gumshoe	-11.9688
▁gunfighter	-11.9688
▁gunpowder	-11.9688
▁gymnasium	-11.9688
▁hallucinogen	-11.9688
▁hennessy	-11.9688
▁hillbilly	-11.9688
▁humbly	-11.9688
▁hypnotize	-11.9688
▁hypothe	-11.9688
▁impossibility	-11.9688
▁impropriety	-11.9688
▁improving	-11.9688
▁incapable	-11.9688
▁incarcerat	-11.9688
▁indestructible	-11.9688
▁injury	-11.9688
▁inquiring	-11.9688
▁inspiring	-11.9688
▁intensifies	-11.9688
▁intestine	-11.9688
▁intriguing	-11.9688
▁intruder	-11.9688
▁intrusi	-11.9688
▁intuition	-11.9688
▁involving	-11.9688
▁irrelevant	-11.9688
▁jacuzzi	-11.9688
▁jurassic	-11.9688
▁karachi	-11.9688
▁khabarov	-11.9688
▁khrushchev	-11.9688
▁kremlin	-11.9688
▁lacrosse	-11.9688
▁lavallee	-11.9688
▁lavender	-11.9688
▁lifesavers	-11.9688
▁lndistinct	-11.9688
▁lodging	-11.9688
▁lsabella	-11.9688
▁lunatic	-11.9688
▁magistrate	-11.9688
▁mainstream	-11.9688
▁majestic	-11.9688
▁massachusetts	-11.9688
▁mediocr	-11.9688
▁metaphysical	-11.9688
▁metropolita	-11.9688
▁misjudged	-11.9688
▁mogadorian	-11.9688
▁mushrooms	-11.9688
▁narcotics	-11.9688
▁natmenneske	-11.9688
▁naysayer	-11.9688
▁neglect	-11.9688
▁nichola	-11.9688
▁ninja	-11.9688
▁obliterat	-11.9688
▁orleans	-11.9688
▁outstanding	-11.9688
▁paparazzi	-11.9688
▁paralyzed	-11.9688
▁paramedics	-11.9688
▁parchment	-11.9688
▁pastorai	-11.9688
▁penetrate	-11.9688
▁perceptive	-11.9688
▁percussion	-11.9688
▁persecuted	-11.9688
▁perseverance	-11.9688
▁pharaohs	-11.9688
▁philadelphia	-11.9688
▁piazza	-11.9688
▁plasma	-11.9688
▁platter	-11.9688
▁propeller	-11.9688
▁psychopath	-11.9688
▁puppies	-11.9688
▁purchasing	-11.9688
▁qingqing	-11.9688
