<unk>	0
<s>	0
</s>	0
s	-2.96806
t	-3.9244
e	-4.03494
ing	-4.06444
d	-4.29307
y	-4.34163
ed	-4.35622
n	-4.50573
a	-4.50585
er	-4.63247
▁	-4.67952
r	-4.68393
i	-4.69319
o	-4.71859
u	-4.74826
m	-4.91544
g	-4.94152
p	-5.00175
▁im	-5.0446
▁s	-5.0566
in	-5.07179
▁know	-5.10064
▁dont	-5.10716
b	-5.11016
▁f	-5.15383
h	-5.17771
al	-5.20148
▁go	-5.21807
le	-5.29317
▁get	-5.30814
c	-5.31628
or	-5.33607
▁well	-5.36991
v	-5.38866
▁come	-5.42075
▁p	-5.42095
ly	-5.43041
▁w	-5.44443
ar	-5.45557
k	-5.48052
▁right	-5.48844
an	-5.49671
▁like	-5.50283
▁oh	-5.50397
l	-5.53883
▁a	-5.54216
on	-5.55706
it	-5.57352
▁one	-5.61552
▁got	-5.63868
▁c	-5.64648
▁youre	-5.65011
▁see	-5.6546
▁t	-5.66195
f	-5.66543
w	-5.66626
re	-5.70047
▁re	-5.7053
at	-5.70571
▁na	-5.70699
▁thats	-5.70891
▁yeah	-5.75477
▁good	-5.76221
th	-5.79878
▁l	-5.80183
▁look	-5.80194
▁us	-5.80862
▁want	-5.81394
▁think	-5.81611
▁g	-5.82267
ch	-5.83686
en	-5.84427
ri	-5.86276
▁de	-5.86772
il	-5.8891
▁st	-5.89555
es	-5.94342
ter	-5.98289
▁yes	-6.00733
ur	-6.01323
▁okay	-6.01651
▁man	-6.02166
ck	-6.02788
▁b	-6.02863
▁gon	-6.03519
am	-6.03745
▁ill	-6.04056
▁back	-6.04947
▁time	-6.04961
ent	-6.06128
▁be	-6.08429
ra	-6.0877
▁j	-6.09032
▁take	-6.10482
▁m	-6.11397
▁say	-6.1228
el	-6.12423
▁going	-6.1513
▁bo	-6.15158
▁hey	-6.17051
ro	-6.1768
▁would	-6.22327
▁cant	-6.23787
ce	-6.24506
▁hes	-6.26531
ow	-6.26788
▁in	-6.27568
▁mr	-6.27698
te	-6.28222
▁tell	-6.28566
▁ch	-6.28705
▁thank	-6.28923
▁ma	-6.29212
ve	-6.30282
ic	-6.3086
la	-6.32315
▁e	-6.32321
▁co	-6.32409
▁r	-6.34266
ll	-6.355
▁way	-6.35994
▁could	-6.37533
▁mean	-6.381
ne	-6.38713
▁ha	-6.39549
▁make	-6.40102
▁k	-6.40787
▁need	-6.41839
un	-6.4184
▁pa	-6.42375
oo	-6.4364
▁love	-6.43725
▁little	-6.44385
z	-6.44404
x	-6.45715
ke	-6.45716
▁let	-6.46458
ell	-6.46628
ie	-6.47637
▁never	-6.48387
ct	-6.49513
▁something	-6.49582
▁po	-6.49674
▁bu	-6.49808
ate	-6.49884
▁th	-6.51207
▁really	-6.52177
▁o	-6.52908
et	-6.53762
▁tr	-6.53792
▁ho	-6.54605
as	-6.5532
▁whats	-6.55388
▁lets	-6.56064
▁give	-6.57142
▁didnt	-6.57431
lo	-6.57925
▁music	-6.59411
▁sp	-6.59507
ation	-6.5997
▁sc	-6.61039
▁di	-6.61168
▁sh	-6.61575
▁call	-6.62871
▁please	-6.6349
▁hi	-6.63548
li	-6.6445
▁day	-6.64696
▁sir	-6.6483
de	-6.64891
▁wait	-6.65727
pp	-6.65932
▁y	-6.66284
▁con	-6.66636
se	-6.66979
▁ta	-6.67149
▁work	-6.67389
id	-6.67471
est	-6.67493
▁mi	-6.68967
▁ive	-6.69374
▁two	-6.69457
▁boy	-6.70175
▁ba	-6.70246
▁help	-6.70438
ul	-6.70716
ion	-6.70789
▁so	-6.71239
▁un	-6.71878
▁theres	-6.7257
▁even	-6.72832
us	-6.7321
▁sorry	-6.73845
ry	-6.7428
ast	-6.74409
ive	-6.74681
▁said	-6.7471
▁cr	-6.75534
▁br	-6.75821
▁lo	-6.76041
▁people	-6.76968
ers	-6.77127
▁ra	-6.77202
▁sure	-6.77453
▁se	-6.77752
me	-6.77822
▁car	-6.78752
end	-6.7941
ist	-6.80049
▁su	-6.80935
ol	-6.81565
▁v	-6.81956
is	-6.81984
▁he	-6.82674
▁thing	-6.82954
ard	-6.82986
um	-6.83299
ge	-6.83467
▁uh	-6.8388
ff	-6.85148
▁much	-6.8568
▁no	-6.85681
im	-6.8611
▁play	-6.86119
ad	-6.86228
▁mo	-6.86708
ick	-6.87057
age	-6.87096
▁new	-6.88062
co	-6.90139
pe	-6.9106
▁mar	-6.91479
ill	-6.92384
ment	-6.93034
▁life	-6.93333
om	-6.93527
▁must	-6.95827
▁home	-6.9633
▁feel	-6.96355
▁great	-6.97091
▁god	-6.97497
ant	-6.97958
ies	-6.98381
▁keep	-6.98606
▁girl	-6.9877
▁nothing	-6.99437
▁jo	-6.99616
▁first	-7.00096
▁better	-7.01285
▁stop	-7.01417
▁maybe	-7.01617
▁night	-7.01778
▁al	-7.02499
▁long	-7.0265
ig	-7.02853
▁h	-7.02857
▁i	-7.03026
▁kid	-7.03063
▁win	-7.03244
ci	-7.03364
▁to	-7.03591
▁pro	-7.03914
ity	-7.05027
▁talk	-7.051
▁cl	-7.06203
and	-7.06437
▁dr	-7.0657
▁for	-7.08149
▁shes	-7.09781
▁find	-7.09963
▁ex	-7.10163
▁hand	-7.11146
▁ever	-7.11583
▁ri	-7.12026
▁theyre	-7.12135
▁ru	-7.12156
▁friend	-7.12893
▁away	-7.1327
▁old	-7.13418
▁anything	-7.13843
▁thought	-7.14563
ma	-7.15156
▁still	-7.15167
ure	-7.15429
▁an	-7.15429
▁put	-7.15487
op	-7.15638
▁name	-7.17572
mp	-7.17687
▁always	-7.17746
▁believe	-7.17945
▁big	-7.18446
▁dad	-7.18877
▁la	-7.19164
ous	-7.19289
ho	-7.19541
▁father	-7.19554
▁everything	-7.19963
▁du	-7.20562
▁id	-7.21027
▁guys	-7.21438
▁da	-7.21526
▁ask	-7.21734
he	-7.21793
▁around	-7.21808
able	-7.23171
▁dis	-7.23231
▁youve	-7.24538
▁world	-7.24539
▁ar	-7.2476
if	-7.2484
▁stay	-7.2546
ian	-7.25996
▁fine	-7.26219
▁made	-7.26465
ap	-7.26596
▁may	-7.26867
▁sa	-7.27024
j	-7.27286
▁do	-7.27408
▁money	-7.2801
▁start	-7.28313
▁hear	-7.28698
tion	-7.29174
▁part	-7.29229
▁wont	-7.29833
▁hell	-7.29866
▁youll	-7.3001
ber	-7.30097
man	-7.30099
▁last	-7.30198
▁kill	-7.3116
▁miss	-7.31206
ance	-7.31499
▁live	-7.31702
▁ah	-7.3192
▁told	-7.32064
▁nice	-7.32287
▁bl	-7.32375
▁son	-7.32522
ia	-7.32533
ish	-7.32795
▁pe	-7.33139
▁ca	-7.3393
ling	-7.34288
▁show	-7.34314
▁listen	-7.34616
ine	-7.35666
▁em	-7.35775
▁mom	-7.36218
ough	-7.36254
▁hello	-7.36957
▁vi	-7.37172
▁hold	-7.37561
▁li	-7.37874
ting	-7.38029
▁place	-7.38704
ta	-7.38872
▁ad	-7.39193
▁kind	-7.39216
▁minute	-7.39936
▁remember	-7.40184
▁sw	-7.40257
▁lot	-7.4074
▁me	-7.41044
▁years	-7.41122
less	-7.41125
▁gra	-7.41136
▁things	-7.41331
▁care	-7.41828
▁course	-7.42708
que	-7.42711
ak	-7.43084
▁head	-7.43694
▁doesnt	-7.43734
▁coming	-7.44748
▁isnt	-7.45035
out	-7.45044
▁turn	-7.45049
▁came	-7.4553
air	-7.4563
▁three	-7.45841
▁leave	-7.46086
mon	-7.46305
ach	-7.4657
▁ne	-7.46843
ust	-7.47346
▁enough	-7.47473
▁comp	-7.47558
▁try	-7.47999
port	-7.48082
▁might	-7.48224
▁every	-7.49542
▁morning	-7.49579
▁done	-7.49823
▁bad	-7.50137
▁mother	-7.50687
ence	-7.51393
up	-7.51759
for	-7.5224
tic	-7.52351
igh	-7.52499
▁huh	-7.52532
▁mind	-7.52986
▁move	-7.53805
▁war	-7.54099
▁hope	-7.55303
▁dan	-7.55353
ise	-7.55781
▁baby	-7.55806
▁wan	-7.55953
▁sit	-7.56232
und	-7.56316
▁getting	-7.56471
▁wrong	-7.56664
mo	-7.56882
▁le	-7.57094
▁best	-7.57148
ble	-7.57894
▁far	-7.58197
▁com	-7.58245
▁bit	-7.58333
▁pre	-7.58455
over	-7.5875
▁left	-7.59052
▁gu	-7.59171
▁door	-7.59404
▁matter	-7.60887
▁plan	-7.60951
▁understand	-7.61169
▁men	-7.61299
▁another	-7.61477
▁jack	-7.61489
▁run	-7.62085
▁sha	-7.62385
▁horse	-7.62417
ug	-7.62499
ful	-7.62527
▁ear	-7.6293
▁whi	-7.63527
▁weve	-7.63687
▁qu	-7.6517
▁um	-7.65576
▁real	-7.66135
▁en	-7.66192
▁else	-7.66223
▁house	-7.66225
ever	-7.66909
▁today	-7.67184
▁meet	-7.67797
ha	-7.68414
▁hard	-7.68451
▁speak	-7.68833
ca	-7.6892
ress	-7.70162
▁next	-7.70504
▁ready	-7.70866
▁wanted	-7.71197
▁laugh	-7.71848
▁pay	-7.7229
▁idea	-7.72451
▁hu	-7.73187
▁happen	-7.7401
▁watch	-7.74642
▁trying	-7.75245
▁bring	-7.75581
▁end	-7.75616
ness	-7.75665
old	-7.75718
▁dog	-7.76222
▁eye	-7.76364
▁open	-7.76782
▁close	-7.76816
▁together	-7.77484
▁whos	-7.77539
▁without	-7.77846
▁change	-7.77856
▁cha	-7.78515
▁cal	-7.78964
▁excuse	-7.79309
▁found	-7.79316
▁happened	-7.79596
▁talking	-7.80348
▁everybody	-7.80793
▁break	-7.80798
▁bar	-7.8086
▁ab	-7.81161
▁havent	-7.81173
ction	-7.81582
ition	-7.8199
▁high	-7.82062
▁eat	-7.82283
▁four	-7.82333
▁free	-7.82405
ical	-7.8297
▁someone	-7.83062
▁walk	-7.83088
▁week	-7.83446
▁word	-7.83516
▁young	-7.84216
▁whole	-7.8422
▁wish	-7.84568
nny	-7.84578
▁wasnt	-7.84604
▁family	-7.85775
ward	-7.86314
▁went	-7.86471
▁guy	-7.87064
▁wouldnt	-7.8707
▁many	-7.87268
▁happy	-7.87367
▁dead	-7.87462
▁stand	-7.87637
▁heart	-7.87655
▁fire	-7.88629
▁aint	-7.88692
▁guess	-7.88994
▁saw	-7.89316
▁seen	-7.89673
▁fight	-7.90222
▁water	-7.90289
▁tonight	-7.90605
▁suppose	-7.90605
▁problem	-7.90606
▁cause	-7.91473
▁beautiful	-7.9185
▁school	-7.92269
▁woman	-7.92281
▁job	-7.92985
▁knew	-7.93113
▁dream	-7.9312
▁town	-7.9314
▁read	-7.93368
ize	-7.93703
time	-7.94004
▁forget	-7.94395
▁ok	-7.94499
▁per	-7.9463
▁ass	-7.9472
▁arm	-7.9538
▁yet	-7.9554
▁z	-7.95568
▁late	-7.9612
▁char	-7.96618
▁year	-7.96691
q	-7.96951
▁luck	-7.97009
▁exp	-7.97263
▁tomorrow	-7.97431
▁whoa	-7.97444
▁where	-7.97497
▁true	-7.97552
▁rest	-7.97837
▁second	-7.97873
▁brother	-7.97873
▁since	-7.97899
▁ya	-7.98248
▁light	-7.98399
▁laughing	-7.98779
▁book	-7.99241
ious	-7.99441
▁ow	-7.99561
▁lost	-7.99568
▁soon	-8.00266
▁sound	-8.00781
▁cut	-8.00941
▁ball	-8.01302
▁pretty	-8.01486
▁alone	-8.01512
▁train	-8.01994
▁somebody	-8.02409
▁heard	-8.02813
▁ago	-8.0308
▁bill	-8.0351
▁save	-8.03682
▁president	-8.03811
▁met	-8.04227
▁follow	-8.04283
▁person	-8.04314
▁easy	-8.04772
▁room	-8.04775
▁san	-8.04881
qui	-8.05192
▁already	-8.05233
▁mine	-8.05569
lic	-8.05626
▁youd	-8.05712
▁worry	-8.0572
▁ka	-8.06191
▁actually	-8.06192
▁moment	-8.06551
▁damn	-8.06695
▁up	-8.06858
▁team	-8.07218
▁lady	-8.0722
▁couldnt	-8.07276
▁gun	-8.07631
▁check	-8.08165
▁pass	-8.08302
▁shall	-8.08438
▁dear	-8.0855
▁rob	-8.0888
▁sleep	-8.09128
▁wife	-8.09645
▁point	-8.09697
▁number	-8.10124
▁hour	-8.10821
▁business	-8.11131
▁face	-8.11179
▁hurt	-8.11686
▁everyone	-8.12168
▁drink	-8.13185
▁christ	-8.13186
▁star	-8.13488
▁gre	-8.1501
▁chance	-8.1518
▁group	-8.15268
▁took	-8.15287
▁sur	-8.15327
▁side	-8.15364
▁nobody	-8.15795
▁pick	-8.15822
▁america	-8.16327
field	-8.16366
▁law	-8.16767
▁sign	-8.16886
▁nick	-8.17438
▁exactly	-8.18484
▁later	-8.18899
▁honey	-8.19043
▁clear	-8.1908
▁line	-8.1913
▁air	-8.19452
▁fun	-8.19478
land	-8.20319
▁crazy	-8.20688
▁important	-8.21248
▁white	-8.21683
▁promise	-8.22944
▁game	-8.2305
▁country	-8.23052
▁leg	-8.24059
▁office	-8.24088
▁doctor	-8.24667
▁grand	-8.24719
▁stuff	-8.25257
▁taking	-8.25883
▁ten	-8.2641
▁anyway	-8.2642
▁daddy	-8.26472
▁least	-8.267
▁anyone	-8.27607
▁captain	-8.27607
▁arent	-8.27759
▁five	-8.2789
▁cap	-8.28197
▁perfect	-8.28206
▁hate	-8.28799
▁certain	-8.28808
▁phone	-8.28812
▁whatever	-8.30024
▁order	-8.30029
▁trouble	-8.30637
▁prince	-8.30638
▁finish	-8.30647
▁sighs	-8.30714
▁blood	-8.31261
▁nu	-8.31647
▁probably	-8.31876
▁six	-8.31915
▁also	-8.32088
▁full	-8.32096
▁bye	-8.32097
▁sweet	-8.32509
▁along	-8.33141
▁teach	-8.33149
▁half	-8.3378
▁shoot	-8.33793
▁grow	-8.33794
▁champ	-8.33938
▁anybody	-8.344
▁continue	-8.344
▁children	-8.34406
▁quite	-8.35061
▁hmm	-8.35707
▁fact	-8.35729
▁alright	-8.35745
▁john	-8.35751
▁gentlemen	-8.36335
▁hang	-8.36404
▁pull	-8.36405
▁lead	-8.36659
▁learn	-8.37002
▁mess	-8.3724
▁land	-8.37361
▁child	-8.3767
▁power	-8.37731
▁fall	-8.37909
▁dave	-8.3896
▁afraid	-8.38975
▁welcome	-8.38975
▁drive	-8.39429
▁case	-8.39887
▁count	-8.40254
▁wonder	-8.40274
▁hurry	-8.40326
▁shot	-8.40469
▁question	-8.41004
▁ladies	-8.41009
▁different	-8.41687
▁interest	-8.41691
▁gave	-8.41716
▁gold	-8.41744
▁story	-8.41782
▁german	-8.42387
▁quick	-8.42612
▁dinner	-8.43073
▁france	-8.43089
▁worth	-8.43102
▁human	-8.43226
▁lose	-8.43342
▁brought	-8.43778
▁step	-8.43799
▁mama	-8.43892
▁though	-8.44404
▁expect	-8.4448
▁whoo	-8.44557
▁ahead	-8.45193
▁street	-8.45907
▁married	-8.45917
▁wear	-8.46045
▁safe	-8.46046
▁indi	-8.46196
▁cool	-8.46939
▁black	-8.47356
▁andrew	-8.48073
▁secret	-8.48073
▁touch	-8.48085
▁serious	-8.48087
▁rock	-8.48115
▁wonderful	-8.48126
▁write	-8.48407
▁drop	-8.4862
▁anymore	-8.48808
▁voice	-8.48808
▁begin	-8.48859
▁ooh	-8.48886
▁george	-8.49549
▁figure	-8.49553
▁super	-8.49636
▁chuckles	-8.50295
▁glad	-8.50341
▁careful	-8.50448
▁giant	-8.51082
▁making	-8.51125
▁funny	-8.51835
▁sister	-8.51876
▁either	-8.52568
▁jew	-8.52635
▁shut	-8.52686
▁behind	-8.53337
▁bird	-8.53338
▁camp	-8.53663
▁record	-8.54113
▁reason	-8.54907
▁butt	-8.55615
▁dark	-8.55697
▁truth	-8.55702
▁death	-8.55759
▁catch	-8.56514
▁roll	-8.56519
▁running	-8.56524
ship	-8.57187
▁applause	-8.57274
▁slow	-8.57319
▁heres	-8.57407
▁almost	-8.58081
▁itll	-8.58131
▁class	-8.58952
▁theyll	-8.59714
▁stupid	-8.59715
light	-8.59785
▁breath	-8.60542
▁become	-8.60542
▁wake	-8.60611
▁deep	-8.60719
▁answer	-8.61375
▁complete	-8.61378
▁club	-8.63941
▁fool	-8.63981
▁mountain	-8.65648
▁shouldnt	-8.65648
▁special	-8.65648
▁knock	-8.65648
▁front	-8.65651
▁sarah	-8.65654
▁professor	-8.66525
▁french	-8.66525
▁engine	-8.66526
▁police	-8.66532
▁lord	-8.66726
▁quiet	-8.6743
▁sense	-8.67466
▁blue	-8.67476
▁wall	-8.67856
▁sort	-8.67953
▁return	-8.68304
▁small	-8.68309
▁picture	-8.69203
▁sergeant	-8.69203
▁inside	-8.69206
▁build	-8.69238
▁cook	-8.6928
▁food	-8.69284
▁road	-8.70139
▁hair	-8.70532
▁perhaps	-8.7103
▁decide	-8.71053
▁realize	-8.71139
▁husband	-8.71956
▁lucy	-8.71957
▁throw	-8.7198
▁dress	-8.72087
▁short	-8.72107
▁straight	-8.7289
▁strong	-8.72891
▁uncle	-8.7291
▁aah	-8.73033
▁leaving	-8.73834
▁agree	-8.7385
▁living	-8.73866
▁present	-8.73876
▁foot	-8.74002
▁outside	-8.74786
▁goodbye	-8.74789
▁shoe	-8.75377
▁women	-8.76728
▁fix	-8.76771
▁clean	-8.76806
▁master	-8.77902
▁hows	-8.77927
▁papa	-8.7794
▁fault	-8.7869
▁glass	-8.787
▁tree	-8.78803
▁tried	-8.78907
▁body	-8.78933
▁entire	-8.7969
▁forgot	-8.7969
▁parents	-8.79692
▁couple	-8.79693
▁seven	-8.7972
▁grunting	-8.80699
▁summer	-8.807
▁million	-8.80703
▁strange	-8.8172
▁animal	-8.82754
▁piece	-8.82761
▁surprise	-8.83792
▁david	-8.83796
▁proud	-8.83865
dramatic	-8.84847
right	-8.85825
▁henry	-8.85922
▁kiss	-8.86004
▁daughter	-8.86984
▁control	-8.86985
▁forgive	-8.86989
▁daniel	-8.87011
▁bank	-8.87056
▁pray	-8.8708
▁choice	-8.88072
▁allow	-8.88089
▁moving	-8.88134
▁martin	-8.88182
▁burn	-8.88237
▁indistinct	-8.8917
▁frank	-8.89171
▁yelling	-8.89199
▁broke	-8.89203
▁others	-8.90287
▁lunch	-8.90292
▁english	-8.91404
▁murder	-8.91405
▁annie	-8.91423
▁cross	-8.91442
▁absolutely	-8.92541
▁maddy	-8.92544
▁jump	-8.92566
▁mistake	-8.9369
▁rather	-8.9372
▁protect	-8.93782
▁trip	-8.95274
what	-8.95779
▁belong	-8.9603
▁village	-8.96031
▁darling	-8.96034
▁enjoy	-8.9722
▁service	-8.9722
▁attack	-8.9722
▁radio	-8.97221
▁crowd	-8.97245
▁future	-8.98425
▁thousand	-8.98426
▁worse	-8.99682
▁samurai	-9.00879
▁ernest	-9.0088
▁ground	-9.00882
▁chief	-9.00888
▁lonely	-9.00889
▁opera	-9.01031
▁destroy	-9.02129
▁explain	-9.02133
▁hallie	-9.02133
▁wedding	-9.0214
▁magic	-9.02362
▁theyve	-9.03395
▁charlie	-9.03405
▁york	-9.03419
▁language	-9.04677
▁pleasure	-9.04677
▁somewhere	-9.04677
▁machine	-9.04682
izz	-9.05671
▁invincible	-9.05976
▁brazil	-9.05976
▁omi	-9.05992
▁commun	-9.07297
▁movie	-9.0733
▁afternoon	-9.08625
▁possible	-9.08625
▁amazing	-9.08625
▁respect	-9.08625
▁imagine	-9.08625
▁consider	-9.08626
▁heaven	-9.09976
▁except	-9.09977
▁evil	-9.09999
▁pepper	-9.1
▁eight	-9.10039
▁general	-9.11346
▁snake	-9.11349
▁search	-9.1136
▁round	-9.11364
▁honest	-9.11372
▁simple	-9.12735
▁coffee	-9.12735
▁shouting	-9.12747
▁accept	-9.14143
▁discuss	-9.14143
▁buddy	-9.14147
▁peace	-9.14159
▁birthday	-9.15572
▁grunts	-9.15572
▁quixote	-9.15572
▁terrible	-9.15572
▁judge	-9.15572
▁groans	-9.15573
▁thunder	-9.1558
▁arriv	-9.15776
▁instrument	-9.17021
▁clouseau	-9.18492
▁majesty	-9.18492
▁murray	-9.18492
▁student	-9.18492
▁smart	-9.18501
▁attention	-9.19984
▁direct	-9.20495
▁announce	-9.21499
▁flowers	-9.21499
▁doubt	-9.215
▁giving	-9.21501
▁bridge	-9.21503
▁yesterday	-9.23038
▁dollar	-9.23043
▁hungry	-9.246
▁groaning	-9.24601
▁travel	-9.24604
▁double	-9.24604
▁prepare	-9.24609
▁difference	-9.26188
▁across	-9.26188
▁jamaica	-9.26188
▁history	-9.26188
▁normal	-9.26188
▁sudden	-9.26188
graph	-9.26228
▁elephant	-9.278
▁government	-9.278
▁marshal	-9.27803
▁saturday	-9.2944
▁sweetheart	-9.2944
▁tommy	-9.29441
▁spirit	-9.29441
▁kevin	-9.29441
▁idiot	-9.29442
▁caught	-9.31106
