<unk>	0
<s>	0
</s>	0
s	-4.23217
▁oh	-4.68803
▁dont	-4.70426
▁im	-4.72607
▁well	-4.73876
▁go	-4.9071
▁know	-4.92351
▁get	-4.92786
▁come	-4.93715
▁right	-4.9986
▁like	-5.04667
▁one	-5.19226
▁got	-5.20754
▁thats	-5.23471
▁see	-5.25319
▁yes	-5.25694
▁youre	-5.2765
▁	-5.28858
ing	-5.32247
▁good	-5.42882
▁us	-5.44789
▁ill	-5.49061
▁think	-5.52969
▁back	-5.54626
▁look	-5.59642
ed	-5.60742
▁time	-5.61706
▁going	-5.66335
▁cant	-5.67836
▁want	-5.68145
▁na	-5.7091
▁yeah	-5.72939
▁never	-5.7324
▁take	-5.73482
▁way	-5.76741
▁hes	-5.77907
▁hey	-5.79955
▁man	-5.83237
▁say	-5.83715
▁sir	-5.83994
▁little	-5.862
▁would	-5.87324
▁tell	-5.89757
▁let	-5.90259
▁could	-5.92104
▁gon	-5.97245
▁love	-5.97374
▁make	-5.99221
▁ive	-5.99342
▁whats	-5.99924
▁theres	-6.1289
d	-6.13015
▁must	-6.13334
▁l	-6.13456
▁lets	-6.13999
▁thank	-6.15628
▁help	-6.19246
▁give	-6.22748
▁wait	-6.23831
▁please	-6.24158
▁mr	-6.24445
▁mean	-6.24536
▁said	-6.2594
▁away	-6.2623
▁didnt	-6.2747
▁really	-6.27764
▁theyre	-6.28508
▁day	-6.28582
▁boy	-6.30344
▁two	-6.30705
▁find	-6.30724
▁stop	-6.31028
▁need	-6.31593
▁something	-6.3207
▁much	-6.34421
y	-6.36286
▁sure	-6.36298
▁keep	-6.3832
▁home	-6.39161
▁better	-6.41289
▁sorry	-6.4188
▁old	-6.44011
▁chance	-6.44572
▁okay	-6.44604
▁long	-6.44958
▁people	-6.48544
▁first	-6.49308
▁place	-6.49716
▁youll	-6.49955
▁uh	-6.50065
ly	-6.51776
▁great	-6.51874
▁even	-6.52267
e	-6.52463
▁anything	-6.52572
▁around	-6.52911
▁wont	-6.53911
▁shes	-6.54347
▁night	-6.56704
▁thing	-6.58274
▁nothing	-6.5944
▁life	-6.59784
▁still	-6.60868
er	-6.62079
▁ever	-6.62588
▁put	-6.63437
▁aint	-6.63838
▁lot	-6.64004
▁name	-6.66286
▁ah	-6.67907
▁hear	-6.69378
▁miss	-6.69401
▁everything	-6.71247
▁stay	-6.72221
▁course	-6.72731
▁men	-6.73067
▁every	-6.73279
▁id	-6.74109
▁world	-6.74552
▁work	-6.74844
▁maybe	-6.75591
▁big	-6.7627
▁leave	-6.77068
▁new	-6.77132
▁things	-6.77268
▁always	-6.78122
▁girl	-6.78705
▁youve	-6.79421
▁talk	-6.80536
▁may	-6.8117
▁last	-6.82285
▁huh	-6.8285
▁made	-6.83512
▁isnt	-6.8522
▁run	-6.86524
▁enough	-6.86609
▁mother	-6.87313
▁show	-6.88046
▁coming	-6.88126
▁believe	-6.88466
▁thought	-6.88581
▁call	-6.92037
▁three	-6.92387
▁ta	-6.92412
▁nice	-6.93609
▁left	-6.9464
▁em	-6.95043
▁hold	-6.96401
▁dear	-6.99429
▁bad	-6.99526
▁another	-6.9953
▁weve	-7.00085
▁mind	-7.00912
▁done	-7.02329
▁fine	-7.02751
▁kind	-7.0276
▁father	-7.02821
▁god	-7.03218
▁care	-7.04515
▁ha	-7.04791
▁music	-7.04924
▁told	-7.05026
▁friend	-7.05463
▁doesnt	-7.06107
▁might	-7.0613
▁young	-7.07659
▁today	-7.08412
▁many	-7.08484
▁remember	-7.08586
▁seen	-7.09276
▁heard	-7.09373
▁king	-7.09513
▁without	-7.09566
▁water	-7.09795
▁best	-7.11603
▁guys	-7.1185
▁try	-7.12818
▁bang	-7.12843
▁pretty	-7.1316
▁understand	-7.13472
▁years	-7.13643
▁hurry	-7.13769
▁came	-7.13957
▁live	-7.14219
▁hello	-7.14469
▁house	-7.145
▁matter	-7.15166
▁prince	-7.15264
▁shadow	-7.15286
▁feel	-7.15339
▁hope	-7.16037
▁gone	-7.17577
▁turn	-7.17634
▁play	-7.18754
▁days	-7.19511
▁morning	-7.20073
▁ready	-7.20851
▁true	-7.21407
▁heart	-7.21804
▁found	-7.21963
▁chitty	-7.22042
▁john	-7.22164
▁minute	-7.23637
▁open	-7.23732
▁wanted	-7.23978
▁hell	-7.24733
▁wrong	-7.25259
▁town	-7.25452
▁son	-7.25638
▁move	-7.26156
es	-7.26343
▁ask	-7.26853
▁soon	-7.26858
▁dead	-7.26956
▁friends	-7.27481
▁george	-7.27512
▁whole	-7.27519
▁happened	-7.27661
▁wouldnt	-7.28331
▁next	-7.28918
▁bring	-7.28967
▁listen	-7.28985
▁everybody	-7.29654
▁boys	-7.29716
t	-7.30346
▁whoa	-7.30374
▁watch	-7.30418
▁mine	-7.30846
▁along	-7.31807
▁worry	-7.32062
▁uncle	-7.32233
▁de	-7.32492
▁shall	-7.32527
▁yet	-7.33373
▁thanks	-7.33819
▁far	-7.34566
▁land	-7.34744
▁stand	-7.34928
▁head	-7.35543
▁everyone	-7.35603
▁word	-7.36034
▁knew	-7.363
▁cat	-7.36395
▁else	-7.36839
▁sea	-7.37552
▁dog	-7.376
▁whos	-7.37787
▁children	-7.37846
▁sun	-7.38369
▁someone	-7.38628
▁sassy	-7.38635
▁pig	-7.39082
▁eat	-7.39893
▁captain	-7.40208
▁jamie	-7.40225
▁ya	-7.41654
▁havent	-7.41814
▁fire	-7.42086
▁trouble	-7.42608
▁nobody	-7.4263
▁goodbye	-7.42649
a	-7.43184
▁room	-7.43321
▁beautiful	-7.43353
▁car	-7.43489
▁hand	-7.43538
▁idea	-7.4393
▁guess	-7.44004
n	-7.44263
▁laughing	-7.44394
▁waiting	-7.44705
▁face	-7.4508
▁start	-7.45153
▁family	-7.45946
▁professor	-7.45947
▁use	-7.46197
▁wish	-7.46529
▁river	-7.46573
▁money	-7.46794
▁general	-7.47652
▁lord	-7.47699
▁lost	-7.47749
▁wheres	-7.47803
▁job	-7.48304
▁earth	-7.48531
▁war	-7.49202
▁tomorrow	-7.4938
▁forget	-7.49473
▁animals	-7.49826
▁real	-7.5003
▁city	-7.51195
▁part	-7.5141
al	-7.51694
▁wasnt	-7.52034
▁youd	-7.52088
▁gold	-7.52153
▁looks	-7.52734
▁door	-7.5283
▁hard	-7.52877
▁end	-7.5376
▁bit	-7.54176
▁alone	-7.54774
▁set	-7.54853
▁getting	-7.54993
▁kill	-7.55047
▁took	-7.55712
▁eyes	-7.5618
▁wan	-7.56313
▁horse	-7.56586
▁afraid	-7.56621
▁together	-7.56625
▁went	-7.56656
▁lady	-7.56678
st	-7.56785
▁knows	-7.56927
▁trying	-7.57195
▁couldnt	-7.57723
▁cause	-7.5824
▁kid	-7.58257
▁light	-7.58335
▁papa	-7.58519
▁side	-7.58588
▁mrs	-7.58669
▁pick	-7.58738
▁brer	-7.59515
▁used	-7.60198
▁la	-7.6043
▁already	-7.6045
▁happy	-7.60451
▁die	-7.61022
▁says	-7.61828
▁looking	-7.62362
▁ahead	-7.62432
▁poor	-7.62433
▁aye	-7.62503
▁saw	-7.62526
r	-7.63078
▁meet	-7.64008
▁magic	-7.64149
▁somebody	-7.6443
▁woman	-7.64457
▁late	-7.65053
▁fun	-7.65346
▁mama	-7.65408
▁glad	-7.65459
▁dance	-7.65486
▁excuse	-7.66137
▁talking	-7.66381
▁feet	-7.66544
▁rest	-7.67055
▁sit	-7.67095
▁airport	-7.67474
▁hot	-7.67487
▁full	-7.6756
▁hi	-7.6756
▁since	-7.68407
▁till	-7.6876
▁dream	-7.69079
▁s	-7.6926
est	-7.69389
▁food	-7.69657
▁ago	-7.69724
▁song	-7.6975
▁four	-7.70124
▁tonight	-7.70716
▁easy	-7.70769
▁change	-7.7151
▁high	-7.71899
▁wonderful	-7.72909
▁ice	-7.73173
▁doctor	-7.74013
▁theyll	-7.74034
▁nemo	-7.74049
▁welcome	-7.74063
▁fly	-7.74327
▁follow	-7.74384
▁makes	-7.74548
▁close	-7.74682
▁brought	-7.75135
▁chatters	-7.75214
▁air	-7.75317
▁free	-7.76035
▁sarah	-7.7634
▁daddy	-7.76352
▁quite	-7.76375
▁send	-7.7668
▁un	-7.77055
▁t	-7.77232
▁business	-7.77421
g	-7.7755
▁plan	-7.78292
▁catch	-7.78654
▁joe	-7.78737
▁party	-7.78856
▁means	-7.78903
▁madam	-7.79377
m	-7.81009
▁master	-7.81109
▁hmm	-7.81169
▁hands	-7.81312
▁promise	-7.81967
in	-7.82113
▁luther	-7.82156
▁gave	-7.82168
▁sort	-7.82292
▁hit	-7.82302
o	-7.82424
▁happen	-7.82709
▁arent	-7.8341
▁ow	-7.83511
▁dad	-7.83737
▁ok	-7.8392
▁girls	-7.84017
▁dat	-7.84081
▁sara	-7.84544
▁goes	-7.84601
▁future	-7.84608
▁inside	-7.8461
▁comes	-7.84676
▁anyone	-7.84762
▁called	-7.85371
▁sing	-7.85621
▁c	-7.8573
▁anyway	-7.85858
▁baby	-7.85864
▁moment	-7.85894
▁clear	-7.86383
▁walk	-7.86426
▁goin	-7.86457
▁speak	-7.86484
▁seems	-7.86657
▁fast	-7.86937
▁mom	-7.87208
▁sheriff	-7.87297
▁daughter	-7.87417
▁kiss	-7.87504
▁gentlemen	-7.88407
▁probably	-7.88408
▁voice	-7.88598
▁guy	-7.8862
▁sleep	-7.89219
▁pull	-7.89361
▁though	-7.89411
▁cut	-7.89454
▁a	-7.8954
▁important	-7.89728
▁wind	-7.8998
▁sweet	-7.90051
▁fight	-7.90611
▁peter	-7.90867
▁ooh	-7.91028
▁least	-7.91039
or	-7.91197
▁safe	-7.91674
▁ho	-7.91958
▁break	-7.92006
▁hurt	-7.92117
▁year	-7.92458
▁taking	-7.92472
▁pip	-7.93019
▁sound	-7.93322
▁wed	-7.93389
▁times	-7.93597
▁ladies	-7.93712
▁alive	-7.93717
▁bye	-7.9391
▁attack	-7.94822
▁heres	-7.95546
▁sent	-7.95611
▁wants	-7.95632
▁hang	-7.95788
▁six	-7.96479
▁kids	-7.96712
▁five	-7.96742
▁cinderella	-7.96752
▁fair	-7.96923
▁stupid	-7.97714
▁behind	-7.97872
▁castle	-7.97874
▁grunts	-7.97938
▁wow	-7.98009
▁ride	-7.98018
▁horses	-7.98105
▁colonel	-7.9818
▁hate	-7.98256
▁lovely	-7.9868
h	-7.99075
▁luck	-7.99123
▁exactly	-7.99306
▁actually	-7.99309
▁forward	-7.99345
▁screaming	-7.99372
▁lose	-7.99461
▁b	-7.99634
▁country	-7.99664
▁wonder	-8.00096
able	-8.00332
▁fish	-8.00428
▁almost	-8.00748
▁perhaps	-8.00748
▁death	-8.00755
▁crazy	-8.0078
▁trust	-8.00827
▁later	-8.00943
▁second	-8.01135
▁laughs	-8.01365
▁thou	-8.01383
▁read	-8.01785
▁anywhere	-8.02219
▁special	-8.02229
▁child	-8.02336
▁rock	-8.02453
▁learn	-8.02598
▁quiet	-8.03596
▁smell	-8.03715
▁wife	-8.03756
▁line	-8.04469
▁drink	-8.0478
▁wilbur	-8.05225
▁delilah	-8.05226
▁save	-8.05314
▁saying	-8.05502
▁hair	-8.05693
▁short	-8.05858
▁ones	-8.06131
▁win	-8.06252
▁princess	-8.06579
▁number	-8.06756
▁lewis	-8.06763
▁rosie	-8.06768
▁human	-8.0712
▁minutes	-8.07729
i	-8.07887
▁bed	-8.07901
▁working	-8.08222
▁itll	-8.08334
▁asked	-8.08981
▁buy	-8.09479
▁stuff	-8.09641
▁fall	-8.09703
▁fool	-8.09789
▁moving	-8.09943
▁folks	-8.09947
▁gasps	-8.10005
▁lucky	-8.10158
▁p	-8.1073
▁dreams	-8.11076
▁thinking	-8.11506
▁funny	-8.11541
▁army	-8.11604
l	-8.1161
▁met	-8.11702
▁singing	-8.1199
▁reason	-8.12035
▁mark	-8.12041
▁chisum	-8.12042
▁rabbit	-8.1205
▁question	-8.12055
ies	-8.12112
us	-8.12385
▁playing	-8.12471
▁re	-8.12882
▁georgie	-8.13199
▁story	-8.13202
▁power	-8.13276
▁answer	-8.13415
▁killed	-8.13676
▁flying	-8.13749
▁red	-8.13853
▁foot	-8.13944
▁ball	-8.14075
▁white	-8.14091
▁lives	-8.1438
▁grow	-8.14649
▁top	-8.14676
▁perfect	-8.14699
▁kingdom	-8.14833
▁billy	-8.14866
▁steady	-8.14877
▁sky	-8.14908
▁lead	-8.1519
▁truth	-8.15385
▁week	-8.15402
▁fact	-8.15444
▁yo	-8.1552
▁black	-8.15671
▁sign	-8.15945
▁da	-8.16261
▁suppose	-8.16269
▁remus	-8.16527
▁rainbow	-8.16527
▁leaving	-8.16559
▁charles	-8.1658
▁sometimes	-8.16676
▁supposed	-8.1679
▁bear	-8.17146
▁blue	-8.17206
▁st	-8.17842
▁expect	-8.18024
▁feeling	-8.18159
▁also	-8.1825
▁fault	-8.18254
▁quickly	-8.18354
▁wake	-8.18624
▁game	-8.18923
▁shine	-8.19019
▁ten	-8.1986
▁half	-8.19935
▁sergeant	-8.20005
▁theyve	-8.20007
▁either	-8.20023
▁north	-8.20025
▁truly	-8.20028
▁mary	-8.20197
▁message	-8.20664
▁dogs	-8.2067
▁step	-8.20676
▁th	-8.20765
▁rather	-8.21802
▁chanticleer	-8.21827
▁upon	-8.2183
▁scared	-8.21918
▁shut	-8.21964
▁boat	-8.22103
▁point	-8.22224
▁secret	-8.22471
▁rat	-8.2263
ers	-8.23063
▁small	-8.23464
▁jacob	-8.23607
▁davy	-8.23612
▁seem	-8.23716
▁barking	-8.23721
▁thee	-8.23776
▁d	-8.24104
▁bird	-8.24303
▁words	-8.24363
▁shot	-8.2451
▁straight	-8.24821
▁quick	-8.25177
▁different	-8.25349
▁damn	-8.25384
▁henry	-8.2546
▁terrible	-8.25463
▁strange	-8.25464
▁exclaims	-8.25543
▁pay	-8.2568
▁miles	-8.25737
▁shell	-8.25847
▁return	-8.25915
▁control	-8.26034
▁problem	-8.26225
▁f	-8.26496
▁van	-8.26706
▁hill	-8.2681
▁shh	-8.27223
▁needs	-8.27226
▁anybody	-8.27347
▁christmas	-8.27347
▁majesty	-8.27348
▁radio	-8.27358
▁none	-8.27502
▁making	-8.27512
▁train	-8.27943
▁rose	-8.28273
▁star	-8.28968
▁fell	-8.29206
▁be	-8.29258
▁calm	-8.29285
▁running	-8.29343
▁anna	-8.29414
on	-8.29472
▁school	-8.2963
▁thy	-8.29721
▁clean	-8.30002
▁pardon	-8.30042
▁fellow	-8.30129
▁heaven	-8.30147
▁humans	-8.30822
▁lots	-8.30891
▁fix	-8.3093
▁koki	-8.31228
▁royal	-8.31231
▁married	-8.31236
▁w	-8.31342
▁ship	-8.31469
▁present	-8.32126
▁cats	-8.32127
▁write	-8.3254
▁couple	-8.33229
▁indeed	-8.33232
▁company	-8.33233
▁honey	-8.33233
▁dinner	-8.3328
▁wild	-8.33296
▁certainly	-8.33301
▁evening	-8.33416
▁throw	-8.33588
▁drive	-8.3359
▁garden	-8.34123
en	-8.34413
▁jump	-8.34581
▁caught	-8.35272
▁women	-8.35275
▁speaking	-8.35879
ve	-8.35982
▁machine	-8.36181
▁join	-8.36286
▁gets	-8.36305
▁moon	-8.36326
▁sad	-8.37033
▁count	-8.3716
▁in	-8.37171
▁se	-8.37284
▁shouldnt	-8.37358
▁across	-8.37358
▁journey	-8.37395
▁others	-8.37424
▁telling	-8.37436
▁order	-8.37549
▁m	-8.3771
▁dr	-8.37722
▁law	-8.37738
▁deal	-8.38186
ion	-8.38737
▁hat	-8.39097
▁eye	-8.39302
▁thomas	-8.3948
▁rooster	-8.39482
▁sanada	-8.39482
▁romeo	-8.39486
▁silly	-8.39494
▁cover	-8.39535
▁finally	-8.39536
▁front	-8.39543
▁mission	-8.39784
▁near	-8.39823
▁started	-8.40187
▁hours	-8.40522
▁hide	-8.40578
▁animal	-8.40587
▁destroy	-8.40662
▁band	-8.40861
▁careful	-8.4158
▁kitty	-8.41698
▁become	-8.41772
▁cold	-8.41828
▁low	-8.42013
▁check	-8.42376
▁longer	-8.42505
▁touch	-8.42977
▁sho	-8.43225
▁push	-8.43248
▁g	-8.43653
ness	-8.43716
▁brave	-8.43722
▁dark	-8.43787
ic	-8.43846
▁edmond	-8.43876
▁anymore	-8.43876
▁whatever	-8.43878
▁gaia	-8.4388
▁maam	-8.43887
▁clothes	-8.43901
▁road	-8.43915
▁tried	-8.43919
▁carry	-8.44106
▁field	-8.44441
▁sick	-8.44616
▁mistake	-8.44823
▁husband	-8.45016
▁trumpet	-8.4502
▁battle	-8.45033
▁orders	-8.45073
▁spirit	-8.45179
▁um	-8.45298
▁book	-8.45389
▁born	-8.45734
▁tight	-8.46043
▁caleb	-8.46148
▁grunting	-8.46186
▁drop	-8.46262
▁camp	-8.46278
▁farm	-8.46321
▁bet	-8.46956
▁months	-8.47035
▁brother	-8.47364
▁bike	-8.47393
▁hour	-8.47523
▁tree	-8.47788
▁slow	-8.47881
▁mad	-8.48113
▁cool	-8.48425
▁worth	-8.48447
▁beauty	-8.48474
▁matthew	-8.48474
▁somewhere	-8.48475
▁tom	-8.48488
▁sighs	-8.48621
▁tea	-8.48661
▁smart	-8.48673
▁ought	-8.48687
▁able	-8.49113
▁known	-8.49164
▁turned	-8.49506
▁gun	-8.49656
▁salt	-8.49815
ll	-8.50403
ment	-8.50439
▁loose	-8.50644
▁south	-8.50733
▁shani	-8.50857
▁possible	-8.50873
▁honor	-8.50882
▁kim	-8.50936
▁bridge	-8.50958
▁green	-8.50958
▁arrived	-8.50968
▁murder	-8.51228
▁body	-8.51248
▁dare	-8.5129
▁awful	-8.51432
▁di	-8.51461
▁past	-8.51562
▁figure	-8.51712
▁hed	-8.51834
▁her	-8.51901
▁rain	-8.52073
▁weather	-8.52088
▁johnny	-8.52147
▁chicken	-8.52171
▁sense	-8.52202
▁bell	-8.52212
▁blood	-8.5245
▁protect	-8.52505
▁explain	-8.52608
▁key	-8.52796
▁offer	-8.53081
▁strong	-8.53237
▁sodom	-8.53289
▁wickens	-8.53295
▁forever	-8.53298
▁outside	-8.53299
▁haru	-8.53331
▁queen	-8.53332
▁boss	-8.53337
▁deep	-8.53409
▁eh	-8.53752
▁mayor	-8.53875
▁changed	-8.53928
▁sell	-8.54101
▁fear	-8.54428
▁riley	-8.5462
▁airplane	-8.54677
▁spring	-8.54813
▁ran	-8.54828
▁happens	-8.55626
▁enemy	-8.55792
▁conrad	-8.55793
▁outta	-8.55797
▁absolutely	-8.55812
▁rhythm	-8.55823
▁soul	-8.55828
▁dangerous	-8.55847
▁mike	-8.55848
▁looked	-8.55854
▁peace	-8.55868
▁birdie	-8.56073
le	-8.56108
▁act	-8.56268
▁round	-8.56635
▁reach	-8.56741
▁surprise	-8.56885
▁died	-8.56914
▁mountain	-8.57237
▁tail	-8.5731
▁less	-8.57633
▁dis	-8.57833
▁force	-8.57873
▁mmm	-8.57928
▁realize	-8.57947
▁travel	-8.58019
▁charlotte	-8.58357
▁excellent	-8.58359
▁murphy	-8.5836
▁hungry	-8.58361
▁trip	-8.5847
▁chuckles	-8.58493
▁faster	-8.58605
▁pa	-8.59064
▁lts	-8.59521
▁blow	-8.59522
▁news	-8.59648
▁valley	-8.59736
▁sister	-8.59878
▁piece	-8.5988
▁cross	-8.60562
▁marry	-8.60599
▁ii	-8.60756
▁serious	-8.60878
▁pass	-8.60951
▁nuys	-8.60987
▁instead	-8.60988
▁aleu	-8.60991
▁smith	-8.60993
▁worse	-8.61009
▁patch	-8.61067
▁early	-8.6109
▁bright	-8.61595
▁rich	-8.61595
ity	-8.62052
▁group	-8.6254
▁takes	-8.62639
▁doc	-8.62752
▁weeks	-8.62755
▁o	-8.63272
▁meant	-8.63405
less	-8.63477
▁fox	-8.63507
▁amazing	-8.63565
▁sight	-8.63688
▁attention	-8.63691
▁werent	-8.63691
▁mommy	-8.63695
▁loves	-8.63702
▁lay	-8.63759
▁bout	-8.63767
▁albert	-8.63796
▁treat	-8.63857
▁case	-8.63982
▁park	-8.641
▁laugh	-8.64319
▁knock	-8.64465
ar	-8.64484
▁stick	-8.64635
▁escape	-8.64976
▁brothers	-8.65004
▁beat	-8.65172
▁darling	-8.65311
▁report	-8.65513
▁dress	-8.65777
▁jes	-8.66337
▁stuck	-8.66464
▁lieutenant	-8.66469
▁aircraft	-8.66469
▁lucy	-8.66503
▁living	-8.6667
▁piglet	-8.6678
▁promised	-8.6709
zo	-8.6717
▁elephants	-8.67251
re	-8.67615
▁ground	-8.6792
▁given	-8.68085
▁language	-8.68192
▁month	-8.6822
▁flower	-8.6823
▁pole	-8.68293
▁jack	-8.68533
▁delight	-8.69053
▁dig	-8.69251
▁chef	-8.69321
▁within	-8.69326
▁grandpa	-8.69327
▁monkey	-8.69334
▁built	-8.69421
▁hebrews	-8.69542
▁mo	-8.69659
▁steal	-8.69807
▁ol	-8.6986
▁fighting	-8.7022
▁happening	-8.70235
▁trees	-8.70249
▁lll	-8.7025
▁lived	-8.70606
as	-8.7061
▁contact	-8.70992
▁pleasure	-8.71048
▁island	-8.71118
▁street	-8.7113
▁large	-8.71239
▁cow	-8.71474
▁wear	-8.71718
▁shoot	-8.71924
▁command	-8.71989
▁lock	-8.72113
▁taken	-8.72175
▁nothin	-8.72184
▁sudden	-8.72256
▁harbor	-8.72257
▁proud	-8.72257
▁patou	-8.72262
▁monk	-8.72264
▁universe	-8.72266
▁unless	-8.72368
f	-8.72385
▁wall	-8.72933
et	-8.72953
▁lookin	-8.73666
▁nose	-8.74216
▁worked	-8.74221
ful	-8.74285
▁grab	-8.74399
▁shake	-8.74456
▁bless	-8.74629
▁sounds	-8.74705
▁sweets	-8.74769
▁seal	-8.74806
ous	-8.74914
▁neither	-8.75288
▁coffee	-8.7529
▁size	-8.75357
▁thousand	-8.75358
▁tib	-8.75379
▁english	-8.75386
▁cup	-8.75442
▁age	-8.75481
up	-8.75789
▁taste	-8.7645
▁flowers	-8.7656
▁danger	-8.77168
▁swear	-8.77185
▁works	-8.77195
▁letter	-8.77552
▁bank	-8.77559
▁names	-8.77854
▁imagine	-8.78143
▁paul	-8.78217
▁certain	-8.78407
▁clouseau	-8.78412
▁odette	-8.78412
▁valiant	-8.78412
▁simmons	-8.78412
▁somehow	-8.78412
▁choice	-8.78412
▁hasnt	-8.7842
▁lt	-8.78425
▁ordinary	-8.78436
▁summer	-8.78441
▁tower	-8.78454
▁fresh	-8.78485
▁shouting	-8.78493
▁airports	-8.78568
ation	-8.78588
▁simple	-8.78652
▁flip	-8.78755
▁savages	-8.79295
▁ring	-8.79643
▁planes	-8.79689
▁airplanes	-8.79834
▁shed	-8.79884
▁teach	-8.79893
▁visit	-8.80019
utti	-8.80219
▁difference	-8.80406
▁village	-8.80449
▁president	-8.80457
▁gift	-8.80458
▁chief	-8.80463
▁map	-8.80577
▁n	-8.80807
ive	-8.80969
▁table	-8.81226
▁e	-8.81269
▁spend	-8.81304
▁enjoy	-8.81352
▁duty	-8.81643
▁supper	-8.81659
▁laughter	-8.81672
▁kept	-8.81685
▁swim	-8.81693
▁james	-8.81694
▁tough	-8.81759
▁finished	-8.81927
▁path	-8.81994
▁creatures	-8.82291
▁gee	-8.82507
an	-8.82688
▁bother	-8.82877
▁leg	-8.83523
▁cry	-8.83625
▁engine	-8.83635
▁success	-8.83645
p	-8.83658
▁nightmare	-8.8377
▁ticket	-8.83838
▁guest	-8.83886
▁herd	-8.84153
▁record	-8.84295
▁build	-8.84612
▁fort	-8.84707
▁pink	-8.84719
▁lili	-8.84962
▁grandfather	-8.84973
▁hilili	-8.84973
▁inspector	-8.84973
▁gentleman	-8.84979
▁comin	-8.84989
▁prove	-8.85058
▁fink	-8.8507
▁tired	-8.85082
▁decided	-8.85095
▁broken	-8.85171
▁fat	-8.85548
▁no	-8.85558
▁slaves	-8.85625
▁hole	-8.85827
▁patient	-8.85833
▁gives	-8.85939
th	-8.8597
k	-8.86182
▁pat	-8.864
▁aw	-8.86613
▁toy	-8.8677
▁agree	-8.86926
▁desert	-8.86933
▁doubt	-8.86964
▁thunder	-8.87007
▁belong	-8.8732
▁commander	-8.87339
▁hundred	-8.87362
▁phone	-8.87408
▁roll	-8.87858
▁wid	-8.87907
▁crowd	-8.88094
▁america	-8.8827
▁forgive	-8.88278
▁broke	-8.88284
▁lunch	-8.88312
▁capsule	-8.88419
▁monsieur	-8.88419
▁middle	-8.8842
▁oliver	-8.88424
▁immediately	-8.88445
▁baron	-8.88489
▁doris	-8.88508
▁judge	-8.88547
▁bottom	-8.88554
▁hows	-8.88556
▁william	-8.88573
▁thin	-8.88667
▁hans	-8.88712
▁loud	-8.88714
mighty	-8.88719
▁greatest	-8.88809
▁warm	-8.89023
▁shoes	-8.89042
▁tor	-8.9047
▁birds	-8.9057
▁person	-8.90715
▁idiot	-8.90825
▁pigeon	-8.90862
▁charge	-8.90956
▁beg	-8.91049
▁ma	-8.91156
▁guard	-8.91456
▁search	-8.91542
▁share	-8.91709
▁except	-8.91969
▁afternoon	-8.91991
▁isabelle	-8.91991
▁francisco	-8.91991
▁forgot	-8.91995
▁heavy	-8.91998
▁jomo	-8.92001
▁felt	-8.92004
▁potts	-8.92007
▁kidding	-8.92034
▁paris	-8.92056
▁distance	-8.92065
▁worried	-8.9207
▁mister	-8.92077
▁ringo	-8.92091
▁interested	-8.92167
▁gods	-8.92301
▁bella	-8.92358
▁wearing	-8.92463
▁crown	-8.92542
▁cute	-8.93109
▁loved	-8.93605
out	-8.93712
▁court	-8.93802
▁ba	-8.94056
▁throat	-8.94361
▁miracle	-8.94453
▁questions	-8.94483
▁havisham	-8.94522
▁h	-8.94544
▁barn	-8.94563
▁paper	-8.94662
▁leader	-8.94748
▁fella	-8.94813
u	-8.95105
ting	-8.9543
▁foreign	-8.95452
ance	-8.95487
▁bunch	-8.95543
▁pocahontas	-8.95694
▁science	-8.95694
▁pepper	-8.95695
▁favorite	-8.95697
▁stories	-8.95699
▁littlefoot	-8.95721
▁police	-8.95731
▁dry	-8.95767
▁cheering	-8.95823
▁dirty	-8.95831
▁evil	-8.9588
▁saved	-8.96362
▁ding	-8.96521
▁states	-8.96722
▁git	-8.96745
▁mothers	-8.96774
▁lads	-8.96844
ty	-8.97068
▁lve	-8.97073
go	-8.97145
▁uhhuh	-8.97268
▁runt	-8.97471
▁rule	-8.97579
▁ahh	-8.97682
▁pl	-8.98008
▁corn	-8.98042
▁lie	-8.98201
ce	-8.98339
▁mouth	-8.98398
▁picture	-8.98407
▁grand	-8.98453
▁officer	-8.98489
▁beast	-8.98512
▁smile	-8.98567
▁nick	-8.98608
ther	-8.98642
▁crack	-8.98785
▁whe	-8.99154
▁raise	-8.9934
▁prepare	-8.99364
▁mess	-8.99407
▁gather	-8.99444
▁strength	-8.9954
▁derek	-8.99541
▁japanese	-8.99541
▁alec	-8.99542
▁angry	-8.99544
▁murky	-8.99545
came	-8.99564
▁milk	-8.99565
▁dancing	-8.99585
▁form	-8.99586
▁gettin	-8.99593
▁alright	-8.99611
▁support	-8.99694
▁doin	-8.99712
▁saint	-8.99779
▁trick	-8.99856
▁allowed	-8.99858
rs	-8.99944
▁guide	-8.99975
▁hm	-9.00221
▁notes	-9.00235
▁pain	-9.00354
▁falling	-9.00441
▁continues	-9.00603
▁space	-9.00614
▁fellas	-9.00741
▁board	-9.00747
▁co	-9.00863
▁soft	-9.01077
▁books	-9.01355
▁worlds	-9.01769
▁breath	-9.01786
▁accept	-9.01991
▁service	-9.0222
▁yesterday	-9.02329
▁elephant	-9.02417
▁savage	-9.02419
▁forest	-9.02473
▁state	-9.02729
▁race	-9.02733
▁fr	-9.02906
▁toot	-9.03004
▁quit	-9.03289
▁finish	-9.0329
▁allow	-9.03329
▁duke	-9.03353
▁handle	-9.03401
▁beach	-9.03414
▁organ	-9.03422
▁entire	-9.03424
▁aviation	-9.0354
▁estella	-9.0354
▁jeremy	-9.0354
▁hooray	-9.03541
▁empty	-9.03541
▁zebra	-9.03541
▁delicious	-9.03542
▁lonely	-9.03547
▁beginning	-9.03548
▁square	-9.03562
▁out	-9.03597
▁dying	-9.0363
▁hotel	-9.03632
▁hiding	-9.03654
▁nearly	-9.03734
▁uhoh	-9.03758
▁strike	-9.03804
third	-9.03831
▁dumb	-9.03846
▁stage	-9.03852
▁blessed	-9.03907
▁ye	-9.03949
▁le	-9.03968
▁class	-9.03979
man	-9.04241
▁legs	-9.04243
▁places	-9.04477
▁sh	-9.04493
▁soldiers	-9.04541
nt	-9.04638
▁walking	-9.04853
▁aha	-9.05007
▁art	-9.0516
▁asking	-9.05761
▁ships	-9.05916
ant	-9.05944
▁bag	-9.06013
▁nah	-9.06139
▁respect	-9.06211
▁continue	-9.06296
▁spot	-9.0639
▁missed	-9.06395
▁sword	-9.06457
▁direction	-9.06463
▁cap	-9.06493
▁noise	-9.06498
ry	-9.06807
▁tale	-9.07142
▁flood	-9.07358
▁center	-9.0741
▁honest	-9.07434
▁brilliant	-9.07707
▁lupo	-9.07708
▁among	-9.07711
▁handsome	-9.07736
▁everywhere	-9.07739
ter	-9.07781
▁twice	-9.07788
▁gasping	-9.07791
▁completely	-9.07793
▁dramatic	-9.07802
▁growls	-9.07806
▁bigger	-9.07806
▁treasure	-9.07813
▁plane	-9.07815
▁single	-9.07822
▁speed	-9.07836
▁mice	-9.0787
▁giving	-9.07889
▁winter	-9.0794
▁cream	-9.07956
▁besides	-9.08026
▁sally	-9.08036
▁screams	-9.0836
▁learned	-9.08485
▁busy	-9.08633
▁k	-9.09318
▁crow	-9.09474
▁eating	-9.09849
▁feed	-9.10348
enty	-9.10413
▁con	-9.10482
▁norm	-9.10507
▁pie	-9.10603
▁blunden	-9.10726
▁begin	-9.10968
▁joke	-9.11105
▁suit	-9.11163
▁gate	-9.11223
▁wh	-9.11368
▁crysta	-9.11606
▁load	-9.11859
▁stole	-9.11946
▁crockett	-9.12055
▁expedition	-9.12055
▁familiar	-9.12055
▁goetaborg	-9.12055
▁sullivan	-9.12055
▁hyah	-9.12055
▁london	-9.12055
▁someday	-9.12056
▁freedom	-9.12057
▁weird	-9.12058
▁upset	-9.12058
▁wolf	-9.12059
▁information	-9.12059
▁sheep	-9.12062
▁fancy	-9.1207
▁nope	-9.12071
▁impossible	-9.12076
▁calf	-9.12077
▁shinn	-9.12079
▁jail	-9.12079
▁harry	-9.12091
▁film	-9.12092
▁hugo	-9.12108
▁truck	-9.12118
▁highness	-9.12122
▁favor	-9.12135
▁french	-9.12136
▁seven	-9.12186
▁pity	-9.12254
▁teeth	-9.12277
▁final	-9.1228
▁pup	-9.12382
▁joy	-9.12385
▁fill	-9.12472
▁swing	-9.12511
▁glass	-9.13015
▁woods	-9.13159
▁arms	-9.13172
ie	-9.13186
▁closed	-9.13197
▁breaking	-9.13306
ch	-9.13332
age	-9.13406
▁bob	-9.1371
w	-9.13795
▁fur	-9.13868
▁area	-9.14018
▁watching	-9.14353
▁roses	-9.14637
▁so	-9.14699
▁talked	-9.14893
▁everythings	-9.14977
▁pray	-9.15098
▁plays	-9.15303
▁indian	-9.15406
▁santa	-9.15451
▁soldier	-9.15476
▁west	-9.15651
▁singer	-9.1576
▁pet	-9.15904
▁ways	-9.16021
▁gal	-9.16067
▁introduce	-9.16331
▁prison	-9.16455
▁office	-9.1646
▁needed	-9.16528
▁carriage	-9.166
▁exciting	-9.166
▁langdon	-9.166
▁ocean	-9.166
▁thieves	-9.166
▁unusual	-9.166
▁marvelous	-9.16601
▁deserve	-9.16601
▁ridiculous	-9.16602
▁petrie	-9.16602
▁balto	-9.16603
▁definitely	-9.16609
▁fleet	-9.16617
▁horrible	-9.16624
▁aboard	-9.16648
▁admit	-9.16682
▁parents	-9.16737
▁box	-9.16802
▁interesting	-9.16859
▁movie	-9.16915
▁recognize	-9.17011
▁snow	-9.17106
▁crying	-9.17118
▁r	-9.17121
▁wings	-9.17349
▁defend	-9.17467
▁landing	-9.17561
▁arm	-9.1806
▁lad	-9.18267
▁reports	-9.18407
▁fern	-9.18482
▁mountains	-9.1864
▁thinkin	-9.18907
▁nine	-9.1892
▁j	-9.19113
▁hop	-9.19175
ary	-9.19196
▁draw	-9.19506
son	-9.19752
▁east	-9.19795
▁slip	-9.19901
▁mar	-9.19936
over	-9.20042
▁devil	-9.2023
▁position	-9.20485
▁sake	-9.20591
▁heads	-9.20615
▁test	-9.21001
▁double	-9.2122
▁waste	-9.21248
▁somethin	-9.21283
▁livin	-9.21302
▁whoohoo	-9.21327
▁audience	-9.21362
▁ieyasu	-9.21362
▁private	-9.21362
▁zelda	-9.21362
▁piano	-9.21362
▁subject	-9.21362
▁picnic	-9.21363
▁broomstick	-9.21363
▁breakfast	-9.21364
▁humming	-9.21364
▁boris	-9.21365
▁history	-9.21366
▁cheep	-9.21367
▁prize	-9.21368
▁birthday	-9.21368
▁faith	-9.21369
▁spike	-9.21369
▁alex	-9.21369
▁governor	-9.21371
▁snail	-9.21371
▁simply	-9.21381
▁jake	-9.21383
▁muta	-9.21384
▁excited	-9.21388
▁pride	-9.21388
▁cera	-9.21389
▁blind	-9.21392
▁thatll	-9.21395
▁wet	-9.21411
▁marian	-9.21414
▁burn	-9.21428
▁stopped	-9.21434
▁smoke	-9.21444
▁sitting	-9.2145
▁yep	-9.21459
▁paid	-9.21463
▁whatd	-9.2148
▁hilo	-9.21499
▁fit	-9.21528
▁aah	-9.21543
▁price	-9.21566
▁lena	-9.21579
▁cash	-9.21585
▁rogers	-9.21618
▁degrees	-9.21728
▁plain	-9.21827
▁helped	-9.21938
▁bones	-9.2202
▁mustnt	-9.22032
▁sincere	-9.22171
▁nurse	-9.22349
▁bars	-9.2241
▁crows	-9.22756
▁following	-9.22999
▁pipe	-9.23135
▁harm	-9.23217
▁meeting	-9.23232
▁surely	-9.23273
▁ted	-9.23297
▁older	-9.23326
▁bite	-9.23398
▁al	-9.23411
▁guns	-9.23443
▁pin	-9.23547
▁tall	-9.23658
ng	-9.23682
▁stars	-9.23793
▁ca	-9.23938
▁duck	-9.2487
▁scare	-9.24871
▁skin	-9.25068
▁storm	-9.25076
▁calling	-9.25095
▁mate	-9.25125
ally	-9.25148
▁monster	-9.25168
▁ed	-9.25212
c	-9.25228
▁rope	-9.25498
▁spread	-9.25932
▁eight	-9.25976
▁pleasant	-9.26227
▁wood	-9.26312
▁daisuke	-9.26362
▁kitchen	-9.26362
▁speech	-9.26362
▁emergency	-9.26362
▁heggs	-9.26363
▁thief	-9.26364
▁sunshine	-9.26366
▁especially	-9.26366
▁maggie	-9.26368
▁juliet	-9.2637
▁zak	-9.26371
▁common	-9.26374
▁dolittle	-9.26375
▁dawn	-9.26377
▁filthy	-9.26378
▁fortune	-9.26387
▁therell	-9.26395
▁floor	-9.26415
▁written	-9.26439
▁pearl	-9.2645
▁witch	-9.26476
▁closer	-9.26654
▁team	-9.26689
▁shame	-9.26759
▁musical	-9.26838
ine	-9.26862
lm	-9.26984
▁pete	-9.27153
▁san	-9.27173
▁date	-9.27206
▁enter	-9.27423
▁indians	-9.27655
▁keeping	-9.27775
▁settle	-9.27797
▁consider	-9.28265
▁breathe	-9.28356
▁blows	-9.28546
▁played	-9.28586
▁starting	-9.28766
▁heading	-9.28857
▁standing	-9.28888
▁brings	-9.29009
▁mi	-9.29189
▁tune	-9.29203
▁weak	-9.29307
▁main	-9.29666
▁magi	-9.29905
▁blame	-9.29925
▁yup	-9.30144
▁diamond	-9.30364
▁wagon	-9.30429
▁ghost	-9.30492
▁egg	-9.3053
▁color	-9.30541
▁window	-9.30557
▁spell	-9.30569
um	-9.30612
▁flight	-9.30624
▁american	-9.30698
▁hunt	-9.30912
▁nava	-9.31015
lida	-9.31046
▁missing	-9.31364
▁express	-9.3153
▁personal	-9.31588
▁wa	-9.31609
▁bath	-9.31623
▁atahuallpa	-9.31625
▁caractacus	-9.31625
▁congratulations	-9.31625
▁emperor	-9.31625
▁tunstall	-9.31625
▁wrote	-9.31625
▁nonsense	-9.31626
▁tunnel	-9.31626
▁mexico	-9.31626
▁memory	-9.31626
▁fievel	-9.31626
▁glory	-9.31627
▁library	-9.31628
▁saizo	-9.31628
▁bremen	-9.31628
▁territory	-9.3163
▁harold	-9.31631
▁whoever	-9.31637
▁taught	-9.3164
▁buddy	-9.31644
▁nature	-9.31645
▁willie	-9.31652
▁mouse	-9.31654
▁cheese	-9.31654
▁whoo	-9.31657
▁thick	-9.3166
▁often	-9.31675
▁christ	-9.31722
▁trapped	-9.31731
▁posh	-9.31747
▁usually	-9.31752
▁sin	-9.31775
▁howdy	-9.31796
▁troops	-9.31848
▁keyes	-9.31942
▁sharp	-9.32003
▁store	-9.32043
▁sold	-9.3205
▁lying	-9.32084
▁filled	-9.32143
▁complete	-9.32158
▁surprised	-9.32189
▁pleased	-9.32263
▁passed	-9.32267
te	-9.32276
▁calls	-9.3255
▁hut	-9.32612
▁accident	-9.3275
▁eggs	-9.32781
▁couldve	-9.32982
▁belongs	-9.33367
▁hundreds	-9.33388
▁due	-9.33461
▁tar	-9.33554
▁tear	-9.33704
▁flat	-9.33859
▁press	-9.34264
▁seed	-9.3435
▁los	-9.34456
▁pro	-9.34497
▁keeps	-9.34616
ard	-9.3463
▁horn	-9.34813
▁lies	-9.34921
b	-9.35013
▁sail	-9.35015
▁arrive	-9.35318
▁adventure	-9.35588
▁named	-9.35593
▁mermaid	-9.35982
▁servant	-9.3604
▁creature	-9.36054
x	-9.36058
▁station	-9.36129
▁prisoner	-9.36158
▁stranger	-9.36365
▁climb	-9.3685
▁disappear	-9.36866
▁meow	-9.36948
▁unite	-9.36984
▁create	-9.37151
▁applause	-9.37181
▁fathoms	-9.37181
▁opinion	-9.37181
▁osaka	-9.37181
▁scrumptious	-9.37181
▁silence	-9.37181
▁zipadeedoda	-9.37181
▁jenna	-9.37181
▁cannon	-9.37181
▁farewell	-9.37181
▁alert	-9.37185
▁possibly	-9.37185
▁opportunity	-9.37186
▁pizza	-9.37187
▁property	-9.37187
▁instrumental	-9.37195
▁admiral	-9.37197
▁ugly	-9.37198
▁clever	-9.37209
▁spider	-9.3721
▁mercy	-9.37213
▁courage	-9.3722
▁safety	-9.37231
▁prudy	-9.37233
▁camera	-9.37264
▁navy	-9.37313
▁weekend	-9.37327
▁indiana	-9.37342
wa	-9.37381
ling	-9.37387
▁chips	-9.37408
▁he	-9.37419
▁ear	-9.37482
▁frank	-9.37613
▁dressed	-9.3795
▁cook	-9.37951
▁lights	-9.37959
▁traveling	-9.37995
▁rid	-9.38034
▁seemed	-9.38107
▁towards	-9.3813
▁raining	-9.38152
▁mm	-9.38598
▁wine	-9.39144
▁wha	-9.39157
ically	-9.39174
▁prefer	-9.39216
▁landed	-9.39219
▁aim	-9.39447
▁heh	-9.39679
▁dey	-9.39853
▁leaves	-9.40052
▁heavens	-9.40416
▁den	-9.40507
▁po	-9.40821
▁stayed	-9.41026
▁hearts	-9.41136
▁log	-9.4128
ted	-9.41404
▁holding	-9.41447
▁non	-9.41529
▁lines	-9.41563
▁talent	-9.41579
way	-9.41581
▁maw	-9.41658
▁german	-9.41662
▁serve	-9.41717
▁major	-9.41744
▁pocket	-9.41797
▁jehovah	-9.41866
▁crew	-9.41868
▁remain	-9.41937
▁marc	-9.41999
▁whistle	-9.42028
▁action	-9.42089
▁grave	-9.42094
▁fo	-9.42221
▁mud	-9.42243
▁pal	-9.42366
▁correct	-9.42424
▁building	-9.42459
▁feather	-9.42483
▁rush	-9.42512
▁staying	-9.4256
▁dats	-9.42635
▁caw	-9.42775
▁camel	-9.42814
▁where	-9.42957
to	-9.42976
▁fail	-9.43013
▁college	-9.43063
▁conversation	-9.43063
▁kocoum	-9.43063
▁lindenbrook	-9.43063
▁mcsween	-9.43063
▁satellite	-9.43063
▁stubbins	-9.43063
▁upstairs	-9.43063
▁whistling	-9.43063
▁australia	-9.43063
▁british	-9.43063
▁africa	-9.43064
▁tongue	-9.43064
▁contest	-9.43064
▁hideyori	-9.43064
▁andrew	-9.43065
▁government	-9.43065
▁avoid	-9.43066
▁project	-9.43067
▁drunk	-9.43067
▁radar	-9.43068
▁pressure	-9.4307
▁wherever	-9.43078
▁clint	-9.43097
▁colin	-9.43098
▁molly	-9.43104
▁dropped	-9.43108
▁praise	-9.43123
▁survive	-9.43123
▁panting	-9.43124
▁director	-9.43129
▁france	-9.43129
▁shape	-9.43129
▁famous	-9.43135
▁rude	-9.43144
▁goldie	-9.43146
▁tony	-9.43156
▁system	-9.43165
▁basket	-9.43167
▁willing	-9.43204
▁secure	-9.43212
▁humble	-9.43234
▁iowa	-9.43239
▁coach	-9.43289
▁receive	-9.43404
▁dust	-9.43456
▁gray	-9.43478
▁bread	-9.43509
▁goose	-9.43555
▁fred	-9.43804
▁shooting	-9.43862
▁corner	-9.43912
▁locked	-9.43967
▁unfortunate	-9.43997
▁dar	-9.44049
▁attacked	-9.4426
▁expecting	-9.44391
▁talkin	-9.44398
▁dreamed	-9.44649
▁li	-9.4465
▁lips	-9.44736
▁wide	-9.44928
▁note	-9.44938
▁pigeons	-9.44974
▁trap	-9.45039
▁bo	-9.45047
time	-9.45261
▁si	-9.45304
it	-9.45379
gary	-9.45395
▁ends	-9.45517
▁pigs	-9.45527
▁port	-9.45623
▁cop	-9.46041
▁warn	-9.46195
▁super	-9.46329
ne	-9.46653
▁seeing	-9.47142
▁seek	-9.47221
▁fools	-9.47306
▁turns	-9.47362
▁smells	-9.47606
▁dam	-9.47716
▁extra	-9.47959
▁lamp	-9.48031
▁blanket	-9.4804
▁en	-9.48071
▁million	-9.48132
▁regret	-9.48151
▁chap	-9.48207
▁pol	-9.48655
▁gang	-9.48662
▁wheel	-9.48687
▁slave	-9.48697
▁relax	-9.4884
▁fathers	-9.48923
▁repeat	-9.48954
▁wise	-9.48987
▁assume	-9.49008
▁intend	-9.49038
▁pack	-9.49044
▁difficult	-9.49068
▁jealous	-9.49088
red	-9.4912
ta	-9.49124
▁howd	-9.49151
▁web	-9.49305
▁invasion	-9.49313
▁lcarus	-9.49313
▁mccartney	-9.49313
▁mcmurdo	-9.49313
▁niju	-9.49313
▁ouessant	-9.49313
▁paradise	-9.49313
▁stanislav	-9.49313
▁forbidden	-9.49313
▁winthrop	-9.49314
▁midnight	-9.49314
▁presence	-9.49314
▁splendid	-9.49314
▁however	-9.49314
▁situation	-9.49315
▁martha	-9.49315
▁puppy	-9.49315
▁depth	-9.49316
▁england	-9.49316
▁zipadeeay	-9.49316
▁delta	-9.49316
▁easily	-9.49317
▁flew	-9.49319
▁guilty	-9.49321
▁tommy	-9.49321
▁japan	-9.49323
▁onto	-9.49324
▁roof	-9.49325
▁antarctica	-9.49326
▁apologize	-9.4933
▁jones	-9.49336
▁innocent	-9.49336
▁ot	-9.49345
▁grew	-9.49351
▁bought	-9.49355
▁typical	-9.49361
▁neck	-9.49365
▁batty	-9.49397
▁fetch	-9.49397
▁channel	-9.49418
▁knife	-9.49422
▁fa	-9.49467
▁church	-9.49499
▁golden	-9.49551
▁coast	-9.4957
▁ahhh	-9.49649
▁burned	-9.49651
▁squawks	-9.49733
▁perfectly	-9.49749
▁lions	-9.49804
▁cake	-9.49874
▁fairy	-9.50204
▁fixed	-9.50255
▁inca	-9.50429
▁feathers	-9.50549
▁ghosts	-9.50685
▁bend	-9.50763
ble	-9.50814
▁spare	-9.50836
▁do	-9.5101
▁rode	-9.5102
▁sleeping	-9.51209
▁starts	-9.51388
▁walls	-9.514
▁sisters	-9.52089
▁jess	-9.52122
rudy	-9.52656
▁listening	-9.52857
▁lo	-9.53669
▁fe	-9.53799
▁hoo	-9.5394
▁rocks	-9.54181
▁exist	-9.54268
▁claim	-9.54467
▁alarm	-9.54636
▁knight	-9.54687
▁ne	-9.5475
▁remind	-9.54754
▁toward	-9.54861
▁season	-9.54957
▁signal	-9.54958
▁finger	-9.54962
▁awake	-9.5503
▁daughters	-9.55053
▁me	-9.55068
▁apple	-9.55071
da	-9.55181
▁tricks	-9.55199
▁planet	-9.55291
▁mix	-9.55292
▁rise	-9.55327
▁ears	-9.55395
▁stone	-9.5543
▁fuck	-9.55493
▁track	-9.5551
▁study	-9.55611
▁reckon	-9.5569
▁mention	-9.5571
▁release	-9.55718
ate	-9.55748
eth	-9.55791
▁switch	-9.55842
▁spoke	-9.55843
▁plans	-9.55846
▁according	-9.55856
▁hearing	-9.55946
▁bamboo	-9.5598
▁beyond	-9.5598
▁bureau	-9.5598
▁chocolate	-9.5598
▁emotional	-9.5598
▁reynardo	-9.5598
▁sceptre	-9.5598
▁shipoopi	-9.5598
▁spectra	-9.5598
▁starlite	-9.5598
▁genius	-9.5598
▁grateful	-9.5598
▁hannah	-9.5598
▁marriage	-9.5598
▁cholena	-9.5598
▁purpose	-9.5598
▁cruel	-9.55982
▁fantastic	-9.55982
▁fabulous	-9.55982
▁sugar	-9.55982
▁ollie	-9.55983
▁unique	-9.55983
▁shouldve	-9.55983
▁befo	-9.55984
▁songs	-9.55984
▁asleep	-9.55985
▁nowhere	-9.55987
▁yellow	-9.55991
▁bravo	-9.55991
▁solid	-9.55993
▁york	-9.55994
▁spain	-9.55997
▁mistress	-9.56
▁cellar	-9.56001
▁brite	-9.56032
▁groans	-9.56034
▁mocker	-9.56034
▁staff	-9.56043
▁nasty	-9.56045
▁began	-9.5605
▁usual	-9.56055
▁bugsy	-9.56058
▁thirsty	-9.5607
▁fruit	-9.5608
▁grass	-9.56089
▁sunday	-9.56105
▁saving	-9.5612
▁alma	-9.56122
▁shoulder	-9.56122
▁chosen	-9.56132
▁chattering	-9.5615
▁ahem	-9.56172
▁club	-9.56234
▁wilt	-9.56259
holy	-9.56277
▁sailor	-9.56285
▁miley	-9.56294
▁squeals	-9.56427
▁warning	-9.56446
▁march	-9.56556
▁girlfriend	-9.56562
▁foolish	-9.56568
▁pinky	-9.56616
▁crossed	-9.56675
▁shows	-9.56675
▁lately	-9.56758
lf	-9.56763
▁trade	-9.56805
▁hardly	-9.56821
▁pounds	-9.57019
▁goodness	-9.57123
▁seat	-9.57299
na	-9.57327
▁training	-9.57501
▁rare	-9.57565
land	-9.57608
▁followed	-9.57683
▁loser	-9.57685
▁hanging	-9.57832
▁per	-9.57832
▁pure	-9.57945
▁rules	-9.57978
▁pictures	-9.58005
▁wander	-9.58494
ro	-9.58522
▁streets	-9.58634
▁keys	-9.59036
led	-9.59139
▁unit	-9.59172
▁bigge	-9.59195
▁spirits	-9.59405
▁tent	-9.59598
▁ro	-9.59888
rian	-9.5995
il	-9.60437
▁rats	-9.60631
board	-9.60812
▁clan	-9.60866
▁practice	-9.6087
▁lava	-9.61012
▁feels	-9.61212
▁mans	-9.61691
▁pound	-9.61817
▁coward	-9.61819
▁nerve	-9.61927
▁saknussem	-9.61933
▁condition	-9.61979
▁depend	-9.6198
▁inter	-9.62054
▁belt	-9.62057
▁runway	-9.62202
▁moos	-9.62357
▁type	-9.62464
▁deliver	-9.62568
▁kick	-9.62741
▁concern	-9.62843
▁particular	-9.63003
▁zum	-9.63021
▁enthusiast	-9.63123
▁blanky	-9.63123
▁coggins	-9.63123
▁equipment	-9.63123
▁gertrude	-9.63123
▁halliwell	-9.63123
▁sasuke	-9.63123
▁credit	-9.63123
▁beneath	-9.63123
▁caribou	-9.63123
▁happiness	-9.63123
▁yukimura	-9.63123
▁bonney	-9.63124
▁houston	-9.63124
▁kirby	-9.63124
▁mmmhmm	-9.63124
▁request	-9.63124
▁bertie	-9.63124
▁iceberg	-9.63125
▁louis	-9.63128
▁robinson	-9.63129
▁excellency	-9.63129
▁whenever	-9.63132
▁beef	-9.63132
▁solene	-9.63135
▁easier	-9.63136
▁earlier	-9.63137
▁cattle	-9.63137
▁neighing	-9.63137
▁comfortable	-9.63142
▁iron	-9.6315
▁invention	-9.63163
▁raven	-9.63164
▁jacques	-9.63167
▁grapes	-9.63178
▁obviously	-9.63186
▁appreciate	-9.63195
▁incredible	-9.63195
▁sophie	-9.63196
▁theyd	-9.63213
▁firm	-9.63221
▁worst	-9.63313
▁honestly	-9.63321
▁aunt	-9.63323
▁growling	-9.63347
▁stolen	-9.63351
▁tv	-9.63369
▁quarters	-9.63376
▁ridge	-9.63388
▁mick	-9.63392
▁flies	-9.63408
▁pool	-9.63434
▁manners	-9.63435
▁edge	-9.6344
▁brain	-9.63457
▁sonar	-9.63471
ck	-9.6348
▁range	-9.63494
▁behave	-9.63496
▁squat	-9.63505
▁natural	-9.63583
▁cheat	-9.63616
▁meat	-9.63633
▁noticed	-9.6365
▁grown	-9.63741
▁clearly	-9.63759
▁peaceful	-9.63836
▁mount	-9.63852
▁uniforms	-9.63854
▁clouds	-9.64007
▁choose	-9.64062
▁bull	-9.64073
▁destroyed	-9.64079
▁wing	-9.64184
▁conditions	-9.6428
▁cares	-9.64287
▁fingers	-9.64457
▁wash	-9.64518
▁paying	-9.64604
▁witness	-9.64673
▁torpedo	-9.64845
▁zip	-9.64998
▁hero	-9.65072
▁pulling	-9.65208
▁pets	-9.65216
▁tie	-9.65326
▁papers	-9.65379
ot	-9.65436
▁thinks	-9.65556
▁rings	-9.65975
house	-9.66074
▁ohh	-9.66226
▁forces	-9.66246
▁opened	-9.66262
▁v	-9.66417
▁sub	-9.66429
▁je	-9.66468
▁killing	-9.66525
▁dee	-9.66547
do	-9.66727
▁paint	-9.66773
▁bringing	-9.67043
▁post	-9.67153
▁foe	-9.672
▁jet	-9.67444
▁bow	-9.67727
▁hath	-9.67738
▁i	-9.67762
▁over	-9.67831
▁nation	-9.67897
el	-9.6806
▁separate	-9.68148
▁drum	-9.68238
▁irish	-9.68554
ra	-9.68723
▁scream	-9.68758
▁seconds	-9.68875
stly	-9.68966
▁spit	-9.69179
▁pop	-9.69387
▁stomach	-9.6943
▁minister	-9.69433
▁sweetheart	-9.69436
▁partner	-9.69447
the	-9.69448
▁ra	-9.69526
▁target	-9.69546
▁wound	-9.696
▁odd	-9.69618
▁concert	-9.69637
▁cousin	-9.69641
▁frog	-9.69664
▁danby	-9.69665
▁page	-9.69738
▁dies	-9.69766
▁brake	-9.69809
▁risk	-9.70004
▁likes	-9.70027
▁speaks	-9.70065
▁masters	-9.70139
▁sp	-9.70297
▁bullet	-9.70427
▁rescue	-9.70563
itary	-9.7059
▁notice	-9.70643
▁regular	-9.70692
▁lifes	-9.7074
▁anders	-9.70784
▁loyal	-9.70803
▁brown	-9.70814
▁continent	-9.70815
▁enemies	-9.70815
▁frozen	-9.70815
▁hawaii	-9.70815
▁icarus	-9.70815
▁jabadu	-9.70815
▁liszt	-9.70815
▁morpheus	-9.70815
▁polynesia	-9.70815
▁saturday	-9.70815
▁slumberland	-9.70815
▁surrender	-9.70815
▁vaslov	-9.70815
▁wizard	-9.70815
▁europe	-9.70815
▁precious	-9.70815
▁snipes	-9.70815
▁sallie	-9.70816
▁salesman	-9.70816
▁terrific	-9.70816
▁sharptooth	-9.70816
▁beckett	-9.70817
▁valuable	-9.70817
▁peepers	-9.70817
▁community	-9.70818
▁washington	-9.70818
▁ginny	-9.70821
▁monday	-9.70822
▁grub	-9.70822
▁maleb	-9.70822
▁mysterious	-9.70822
▁toast	-9.70823
▁garage	-9.70823
▁birdsong	-9.70824
▁principle	-9.70825
▁ginger	-9.70825
▁viking	-9.70837
▁remarkable	-9.7084
▁magnificent	-9.70843
▁havin	-9.70848
▁changing	-9.70851
▁retreat	-9.70852
▁victory	-9.70856
▁local	-9.70859
▁secretary	-9.70865
▁mutt	-9.70865
▁refuse	-9.70865
▁peterson	-9.70885
▁ruin	-9.70886
▁becoming	-9.70888
▁whew	-9.70897
▁orin	-9.70901
▁cheap	-9.70902
▁planned	-9.70913
▁hunger	-9.70914
▁frightened	-9.70915
▁floating	-9.70934
▁gutsy	-9.70937
▁public	-9.70937
▁whimpering	-9.70944
▁charlie	-9.70945
▁gentle	-9.70959
▁weight	-9.7098
▁noon	-9.7099
▁yelling	-9.71015
▁giggles	-9.7105
▁clock	-9.71057
▁firing	-9.71075
▁bold	-9.71078
▁suspect	-9.71096
▁goob	-9.71117
▁discovered	-9.71126
▁ducky	-9.71144
▁sodomites	-9.71145
ny	-9.7117
▁circle	-9.71179
▁slowly	-9.71214
▁propose	-9.71217
▁ouch	-9.71245
▁yall	-9.7128
▁cooking	-9.713
▁suh	-9.71389
▁bound	-9.71411
▁trail	-9.71426
oh	-9.71479
▁hunting	-9.71509
▁rough	-9.71524
▁view	-9.71642
▁searching	-9.71671
ah	-9.71684
▁figured	-9.71708
▁hush	-9.71723
▁reached	-9.71774
▁lil	-9.71826
▁oldest	-9.71834
▁ordered	-9.71876
▁tol	-9.71895
▁spy	-9.71964
▁drums	-9.71986
▁blowing	-9.7199
▁mood	-9.71994
▁damned	-9.72004
se	-9.72111
▁fate	-9.72183
▁lem	-9.72208
▁sand	-9.72211
ning	-9.72393
▁servants	-9.72436
▁mis	-9.72443
is	-9.72611
▁cornet	-9.72702
▁bearing	-9.72887
▁reading	-9.72905
em	-9.72979
▁y	-9.73042
▁runs	-9.73089
▁bum	-9.73183
▁mil	-9.73312
▁apart	-9.73361
▁perform	-9.73504
▁seeds	-9.73634
▁guards	-9.73669
▁row	-9.73808
me	-9.7402
▁ex	-9.74036
▁moved	-9.74057
▁pee	-9.74098
▁pump	-9.74128
▁homes	-9.74227
▁rent	-9.74242
▁pieces	-9.74279
ver	-9.7447
▁chickens	-9.74558
▁fields	-9.74982
▁symbol	-9.75015
▁pre	-9.7527
▁opening	-9.75295
▁problems	-9.75666
▁match	-9.75765
▁mill	-9.75815
▁led	-9.75817
cal	-9.75947
▁bus	-9.76001
▁coat	-9.7641
▁dancer	-9.76474
▁babe	-9.76624
▁can	-9.76728
▁knowing	-9.77341
▁health	-9.77486
▁decide	-9.77545
od	-9.77586
▁slipper	-9.77696
▁bri	-9.77717
▁winds	-9.77779
ent	-9.77825
z	-9.7783
at	-9.77858
▁moo	-9.77936
▁acorn	-9.77987
▁scientist	-9.77999
▁tribe	-9.78068
▁lesson	-9.78148
▁homer	-9.78318
▁insist	-9.78378
▁meal	-9.78552
▁gib	-9.78643
lo	-9.78674
▁collect	-9.78715
▁mile	-9.78747
▁lift	-9.78838
▁crash	-9.78849
cy	-9.78932
▁helping	-9.78954
▁bone	-9.78957
▁design	-9.79025
▁india	-9.79025
▁suffer	-9.79082
▁circus	-9.79149
▁cuckoo	-9.79149
▁maximilian	-9.79149
▁mcafee	-9.79149
▁nervous	-9.79149
▁orleans	-9.79149
▁puddleby	-9.79149
▁saemonnosuke	-9.79149
▁traffic	-9.79149
▁attila	-9.79149
▁confidence	-9.79149
▁messenger	-9.79149
▁pirates	-9.79149
▁commotion	-9.79149
▁advice	-9.79149
▁jemima	-9.79149
▁nichol	-9.79149
▁vineyard	-9.79149
▁jazamapajama	-9.79149
▁spanish	-9.79149
▁permission	-9.7915
▁chuckling	-9.7915
▁normandy	-9.7915
▁templeton	-9.7915
▁account	-9.79151
▁kibble	-9.79151
▁edison	-9.79151
▁baseball	-9.79151
▁assistant	-9.79151
▁grandmother	-9.79152
▁medlock	-9.79152
▁excitement	-9.79152
▁hadnt	-9.79152
▁turkey	-9.79153
▁terribly	-9.79154
▁martin	-9.79156
▁warrior	-9.79156
▁carried	-9.79156
▁disaster	-9.79159
▁friday	-9.79159
▁mmhmm	-9.7916
▁doggy	-9.79165
▁department	-9.79166
▁margot	-9.79168
▁tinkles	-9.79168
▁reward	-9.79169
▁grace	-9.79172
▁precisely	-9.79173
▁admire	-9.79175
▁starboard	-9.79181
▁section	-9.79183
▁arrest	-9.79183
▁weaver	-9.79187
▁factory	-9.79204
▁july	-9.79211
▁cities	-9.79217
▁trom	-9.7923
nd	-9.79235
▁ashore	-9.79242
▁responsible	-9.79265
▁regard	-9.79276
▁useful	-9.7928
▁exclaiming	-9.79282
▁captured	-9.79284
▁friendship	-9.79297
▁ballet	-9.79301
▁closing	-9.79302
▁shirt	-9.79303
▁byebye	-9.79305
▁sonny	-9.79329
▁huge	-9.79366
▁personally	-9.79368
▁goodwin	-9.79373
▁heck	-9.79374
▁charming	-9.79381
▁softly	-9.79387
▁darn	-9.79403
▁ruined	-9.7942
▁kindness	-9.79434
▁owls	-9.79442
hrer	-9.7945
▁reservation	-9.79455
▁chain	-9.79479
▁invited	-9.79509
▁nuts	-9.79515
▁penny	-9.7953
▁indistinct	-9.79574
▁plus	-9.79578
▁gotcha	-9.79604
▁onethird	-9.79681
▁bar	-9.79726
▁members	-9.79816
ell	-9.7987
▁raised	-9.79871
▁troubles	-9.79907
▁students	-9.79909
▁prepared	-9.79912
▁lake	-9.79968
▁eaten	-9.80009
▁nest	-9.80069
▁higher	-9.80075
▁injuns	-9.80104
▁weapons	-9.80111
▁wire	-9.80155
▁murdered	-9.8016
▁barks	-9.80235
▁workers	-9.80263
▁scientists	-9.80312
▁beating	-9.80314
▁lessons	-9.80328
▁harder	-9.80344
▁passing	-9.80355
▁blast	-9.80369
ens	-9.80391
▁fi	-9.80409
▁wave	-9.80493
▁depends	-9.80507
▁tracks	-9.80596
▁lamps	-9.80731
▁meows	-9.80799
▁whistles	-9.80803
▁faint	-9.80971
▁americans	-9.81035
▁younger	-9.81057
▁tells	-9.8109
▁plant	-9.81099
herefore	-9.81293
ial	-9.81322
ical	-9.81331
▁buzz	-9.81352
▁code	-9.8137
▁begins	-9.81457
▁phil	-9.81658
ts	-9.81731
im	-9.81889
▁holes	-9.81994
▁bon	-9.8203
▁guests	-9.82056
be	-9.82107
▁tickets	-9.82122
▁finding	-9.82217
national	-9.82241
▁dreaming	-9.82485
head	-9.82533
▁wo	-9.82569
▁languages	-9.8263
ber	-9.82924
▁mere	-9.82984
▁pot	-9.83214
▁fu	-9.83268
que	-9.8328
▁peri	-9.83344
▁trumpets	-9.83533
tan	-9.83628
▁su	-9.83801
▁woo	-9.83909
▁fellows	-9.84237
▁loss	-9.84665
▁games	-9.84799
▁bowl	-9.84805
▁ignore	-9.84818
▁mass	-9.84931
▁sam	-9.8495
▁reasons	-9.85241
▁grows	-9.85333
▁tis	-9.85671
▁matters	-9.85722
▁complain	-9.8584
john	-9.85908
▁pen	-9.85973
▁shove	-9.86035
▁ti	-9.86097
▁butt	-9.86246
▁gar	-9.86443
▁drag	-9.8648
▁hurts	-9.86551
line	-9.86618
▁boo	-9.86841
▁imagination	-9.86842
▁montague	-9.86842
▁appear	-9.86849
▁plum	-9.86931
▁obstacle	-9.8695
▁uhuh	-9.86953
▁arrow	-9.87
men	-9.87018
▁tiger	-9.87041
▁female	-9.87059
▁bark	-9.87062
▁bride	-9.8709
▁pilot	-9.87095
▁cloud	-9.87172
▁fade	-9.87212
▁file	-9.87271
▁hall	-9.87356
▁approach	-9.87423
▁sweat	-9.87533
▁nights	-9.87542
▁interest	-9.8762
▁suggest	-9.87728
▁du	-9.87749
▁minds	-9.87768
ace	-9.87785
▁champion	-9.87927
▁flag	-9.87997
▁ohho	-9.88086
lma	-9.88093
▁silent	-9.88112
▁develop	-9.88179
▁betray	-9.88202
▁august	-9.88239
▁catherine	-9.88239
▁corporal	-9.88239
▁council	-9.88239
▁crocodile	-9.88239
▁mcewen	-9.88239
▁melchior	-9.88239
▁nodeen	-9.88239
▁responsibility	-9.88239
▁rockadoodle	-9.88239
▁stockholm	-9.88239
▁withdraw	-9.88239
▁buffalo	-9.8824
▁naughty	-9.8824
▁holiday	-9.8824
▁security	-9.8824
▁felix	-9.8824
▁explosion	-9.8824
▁distant	-9.88241
▁patience	-9.88243
▁recommend	-9.88243
▁curious	-9.88244
▁jewel	-9.88244
▁portia	-9.88245
▁attractive	-9.88246
▁invitation	-9.88247
▁milord	-9.88247
▁argh	-9.88248
▁outfit	-9.88248
▁pour	-9.88252
▁robbery	-9.88253
▁address	-9.8826
▁juan	-9.8826
▁biddy	-9.88262
▁giant	-9.88262
▁recently	-9.88267
▁palace	-9.88268
▁frontier	-9.8827
▁dawg	-9.88272
▁spent	-9.88284
▁fence	-9.88288
▁capital	-9.88294
▁worthless	-9.88297
▁croak	-9.88298
▁starving	-9.88299
▁yeller	-9.88306
▁begging	-9.88306
▁scatter	-9.88318
▁squad	-9.88322
▁route	-9.8833
▁list	-9.88337
▁directly	-9.88338
▁lemon	-9.88341
▁snarling	-9.88355
▁soup	-9.88359
ist	-9.88366
▁haha	-9.88371
▁loop	-9.88391
▁balance	-9.88393
▁celebrate	-9.884
▁coughing	-9.884
▁jem	-9.88402
▁throne	-9.88466
▁anger	-9.88526
▁sinking	-9.88537
▁up	-9.8855
▁worrie	-9.88562
▁ohio	-9.88636
▁oughta	-9.88695
▁raid	-9.88713
▁created	-9.88716
▁gotten	-9.88723
▁abby	-9.88742
▁instruments	-9.88763
▁bass	-9.88783
▁tank	-9.88803
▁chew	-9.8881
▁boots	-9.88832
▁maine	-9.88887
▁hunter	-9.88901
▁headin	-9.88929
▁brand	-9.88941
▁habit	-9.88977
▁agreed	-9.88985
▁flooding	-9.89082
▁boyfriend	-9.89146
▁liar	-9.89193
▁rds	-9.89196
▁rear	-9.89262
▁offered	-9.89295
▁torture	-9.89314
▁pilots	-9.89404
▁lover	-9.8949
▁danbys	-9.89628
sh	-9.89659
▁sides	-9.89727
▁owner	-9.89805
▁score	-9.89833
▁under	-9.89862
ashcan	-9.89891
▁ru	-9.89894
▁wholl	-9.89928
▁brains	-9.89966
▁serves	-9.90063
▁clam	-9.90091
dy	-9.90143
ia	-9.90186
▁twenty	-9.90294
▁maid	-9.90389
▁dean	-9.90519
▁furs	-9.90532
▁jobs	-9.90567
▁learning	-9.90714
▁arts	-9.90789
▁drinking	-9.90838
▁gr	-9.90968
▁owe	-9.91014
five	-9.91065
▁hung	-9.91237
▁madame	-9.9142
▁explode	-9.91473
▁base	-9.91644
▁experience	-9.91715
▁cows	-9.91737
▁to	-9.92192
old	-9.92856
ff	-9.93002
▁ugh	-9.93354
▁inn	-9.93414
▁dang	-9.93486
▁object	-9.93506
▁presents	-9.93661
▁ole	-9.93757
ley	-9.94009
▁turning	-9.94033
▁chi	-9.94111
▁somethings	-9.94149
▁liked	-9.94397
▁boats	-9.94402
▁yah	-9.94584
▁feelings	-9.94715
▁va	-9.948
just	-9.95179
▁cave	-9.95193
ether	-9.9526
▁sire	-9.95463
▁rotte	-9.95517
▁tour	-9.95713
ton	-9.95781
▁snap	-9.96007
ay	-9.96352
▁slop	-9.96509
▁submarine	-9.96836
▁librarian	-9.96837
▁jesu	-9.96863
▁angel	-9.96915
▁voyage	-9.96948
▁broom	-9.96992
▁exercise	-9.97027
▁weapon	-9.97087
▁injun	-9.97097
▁shore	-9.97174
▁plate	-9.97218
▁engineer	-9.97334
▁russian	-9.9735
▁shop	-9.97384
▁teacher	-9.97627
▁buck	-9.97645
▁comfort	-9.97727
▁yuk	-9.9782
itles	-9.97834
▁amen	-9.97866
▁discuss	-9.9789
▁saddle	-9.97921
▁chase	-9.97947
▁official	-9.98114
▁commit	-9.98231
▁ancient	-9.98239
▁burgomaster	-9.98239
▁cheyenne	-9.98239
▁cockadoo	-9.98239
▁delicate	-9.98239
▁effort	-9.98239
▁fourfendered	-9.98239
▁garbage	-9.98239
▁guarantee	-9.98239
▁ildith	-9.98239
▁intelligence	-9.98239
▁katherine	-9.98239
▁lawrence	-9.98239
▁natalie	-9.98239
▁permanent	-9.98239
▁niece	-9.9824
▁vanessa	-9.9824
▁escort	-9.9824
▁fifteen	-9.9824
▁paisley	-9.9824
▁tokuga	-9.9824
▁virginia	-9.9824
▁cotton	-9.9824
▁saloon	-9.9824
▁underwear	-9.9824
▁magwitch	-9.9824
▁zaral	-9.9824
▁ashamed	-9.98241
▁shuah	-9.98241
▁headquarters	-9.98241
▁estimate	-9.98242
▁madison	-9.98243
▁oclock	-9.98244
▁university	-9.98244
▁bottle	-9.98244
▁contrary	-9.98244
▁disgusting	-9.98244
▁lousy	-9.98245
▁kelly	-9.98246
▁vacation	-9.98246
▁jenny	-9.98247
▁coosh	-9.98247
▁powder	-9.98248
▁forgotten	-9.98249
▁birth	-9.98249
▁jerry	-9.9825
▁basically	-9.98254
▁extremely	-9.98258
▁flank	-9.98258
▁creation	-9.98258
▁attend	-9.9826
▁model	-9.9826
▁proper	-9.98263
▁native	-9.98278
▁pork	-9.98283
▁fought	-9.98288
▁eagle	-9.98289
▁chair	-9.98294
▁treatment	-9.98296
▁extend	-9.98298
▁texas	-9.983
▁proceed	-9.98301
▁beeping	-9.98303
▁krys	-9.98304
▁totally	-9.98306
▁winning	-9.98306
▁paratroopers	-9.98316
▁aside	-9.98319
▁beings	-9.98322
▁darkness	-9.98325
▁ashes	-9.98344
▁chill	-9.98346
▁yard	-9.98357
▁obliged	-9.98358
▁cutting	-9.98359
one	-9.98363
▁angeles	-9.98365
▁advantage	-9.9837
▁cigarette	-9.98379
▁beak	-9.9838
▁dozen	-9.98395
▁telephone	-9.98401
▁steele	-9.98402
▁pierre	-9.98403
▁naturally	-9.98404
▁cowardly	-9.98405
▁scary	-9.98411
▁boring	-9.98426
▁rumbling	-9.98467
▁writing	-9.98489
▁adopted	-9.98491
▁honking	-9.98505
▁direct	-9.98521
▁wedding	-9.98535
▁satisfied	-9.98614
▁rescued	-9.98619
▁subt	-9.98622
▁approaching	-9.98666
▁yankee	-9.98668
▁putting	-9.98674
▁citizens	-9.98675
▁level	-9.98689
▁buzzing	-9.98731
▁eve	-9.98732
▁trace	-9.98736
▁heir	-9.98792
▁falcons	-9.98799
▁roar	-9.98861
ball	-9.98901
▁yells	-9.98962
▁thrown	-9.98989
▁butter	-9.99071
▁player	-9.991
▁bump	-9.99103
▁dollars	-9.99166
▁laughin	-9.99181
▁dun	-9.99198
▁limit	-9.99208
▁tryin	-9.9922
▁delighted	-9.99264
▁breathing	-9.99271
▁county	-9.99278
▁sue	-9.99298
▁value	-9.99325
id	-9.99356
▁cheers	-9.99399
▁russians	-9.99418
▁pushed	-9.99554
▁shoe	-9.99577
▁gear	-9.99616
▁el	-9.99784
▁returned	-9.99819
▁dressing	-9.99858
▁cos	-10.0008
▁squ	-10.0019
▁role	-10.0025
▁seas	-10.0026
▁tide	-10.0029
▁cleaning	-10.0031
▁ln	-10.004
▁spells	-10.0041
▁min	-10.0041
▁numbers	-10.0044
▁colors	-10.005
▁gosh	-10.0064
▁suits	-10.0075
▁mail	-10.0098
▁rivers	-10.0112
▁wouldve	-10.012
▁cost	-10.0134
▁tales	-10.014
cha	-10.0156
▁charges	-10.0161
▁idiots	-10.0163
▁pm	-10.0172
ill	-10.0194
▁prayer	-10.0204
▁host	-10.0204
ier	-10.0209
▁chuch	-10.0233
▁islands	-10.0236
▁likely	-10.0244
ors	-10.0258
▁yoohoo	-10.026
▁doo	-10.0265
▁beats	-10.0267
ade	-10.0273
tic	-10.0275
▁princes	-10.0276
▁deed	-10.0291
▁add	-10.0302
▁shoo	-10.0305
▁husbands	-10.0359
▁we	-10.0374
▁au	-10.0376
ank	-10.0422
▁showed	-10.0446
▁tra	-10.0448
ily	-10.0476
▁plug	-10.048
▁fl	-10.054
▁inform	-10.0546
yo	-10.0549
and	-10.0558
▁ate	-10.0564
ual	-10.057
▁falls	-10.058
brain	-10.0597
▁counter	-10.0613
▁hu	-10.0625
ding	-10.0646
▁cheer	-10.0671
▁uhhh	-10.0694
ey	-10.0733
▁u	-10.0746
ur	-10.0747
▁ass	-10.077
▁squeak	-10.0778
▁crook	-10.0783
▁ni	-10.0787
▁gas	-10.0792
▁riches	-10.0794
▁longneck	-10.0795
▁block	-10.0806
▁snake	-10.0807
tiny	-10.0809
▁capulet	-10.0811
▁bastard	-10.0811
▁winner	-10.0818
▁gunshot	-10.0819
▁uniform	-10.082
▁button	-10.0821
▁cheek	-10.0821
▁boom	-10.0839
▁sees	-10.0858
▁drown	-10.0859
▁paw	-10.0872
▁passion	-10.0888
▁melt	-10.0902
▁punch	-10.0906
▁adopt	-10.0907
▁drift	-10.0909
▁jo	-10.0911
▁dive	-10.0918
▁dirt	-10.0918
▁volcano	-10.0924
▁vegeta	-10.0924
▁faithful	-10.0925
▁mornin	-10.0927
▁movin	-10.0933
▁hospital	-10.0934
▁twelve	-10.0935
▁california	-10.0935
▁garrett	-10.0935
▁hidalgo	-10.0935
▁kelsey	-10.0935
▁kulinda	-10.0935
▁maestro	-10.0935
▁marguerite	-10.0935
▁maxwell	-10.0935
▁meanwhile	-10.0935
▁reputation	-10.0935
▁teenchy	-10.0935
▁tuesday	-10.0935
▁violent	-10.0935
▁whiskey	-10.0935
▁razor	-10.0935
▁bonnet	-10.0935
▁example	-10.0935
▁initial	-10.0935
▁knowledge	-10.0935
▁wisdom	-10.0935
▁afford	-10.0935
▁montana	-10.0935
▁volunteer	-10.0935
▁wretch	-10.0935
▁represent	-10.0935
▁silver	-10.0935
▁underground	-10.0935
▁blacksmith	-10.0935
▁bicycle	-10.0935
▁jimmy	-10.0935
▁scotland	-10.0935
▁newspaper	-10.0935
▁several	-10.0935
▁division	-10.0935
▁balloon	-10.0935
▁attic	-10.0936
▁drool	-10.0936
▁memories	-10.0936
▁spaceship	-10.0936
▁collar	-10.0936
▁lawyer	-10.0936
▁alien	-10.0936
▁society	-10.0936
▁miserable	-10.0936
▁blew	-10.0937
▁onx	-10.0937
▁humor	-10.0937
▁atta	-10.0937
▁apparently	-10.0937
▁pinned	-10.0937
▁drove	-10.0937
▁inventor	-10.0938
▁avery	-10.0938
▁sunset	-10.0938
▁panic	-10.0938
doodle	-10.0938
▁kidnapped	-10.0939
▁stretch	-10.0939
▁insane	-10.0939
▁merry	-10.094
▁involved	-10.094
▁tucker	-10.094
▁iceland	-10.0941
▁cried	-10.0941
room	-10.0942
▁anderson	-10.0942
▁chanting	-10.0943
▁ambush	-10.0943
▁powerful	-10.0943
▁motor	-10.0943
▁tempy	-10.0945
▁halfway	-10.0946
▁accomplished	-10.0947
▁relieved	-10.0948
▁properly	-10.0948
▁gracious	-10.0949
▁sausage	-10.095
▁bill	-10.0951
▁jungle	-10.0953
▁margaret	-10.0953
▁toaster	-10.0954
▁invented	-10.0954
▁positive	-10.0955
▁abandoned	-10.0957
▁emma	-10.0963
▁standard	-10.0964
ee	-10.0964
▁useless	-10.0965
▁shy	-10.0965
▁freak	-10.0968
▁sniffing	-10.0969
▁mask	-10.0971
▁split	-10.0973
▁tora	-10.0975
▁justice	-10.0975
▁changes	-10.0976
▁lifetime	-10.0976
▁manage	-10.0978
▁speck	-10.0979
▁larger	-10.0981
▁weeds	-10.0982
▁shout	-10.0982
▁yuki	-10.0983
▁seriously	-10.0986
▁bounce	-10.0987
▁failed	-10.0988
▁anto	-10.0991
▁aaah	-10.0992
▁beans	-10.0996
▁stream	-10.0997
▁stable	-10.0997
▁sex	-10.1005
▁penguins	-10.1012
▁invite	-10.1012
▁pair	-10.1015
▁lend	-10.1016
ities	-10.102
▁carriers	-10.1024
▁tro	-10.1029
▁that	-10.104
▁thirty	-10.1041
▁paws	-10.1042
▁measure	-10.1042
▁corpse	-10.1046
▁cose	-10.1047
▁pluck	-10.1047
▁gunshots	-10.1053
▁escaped	-10.1057
▁logical	-10.1068
▁angels	-10.1068
▁ringing	-10.1092
▁tribes	-10.1096
▁tied	-10.1096
▁brakes	-10.1104
▁acting	-10.1115
ants	-10.1117
▁distress	-10.1117
ess	-10.112
ache	-10.1124
▁reminds	-10.1125
▁slide	-10.1136
▁wit	-10.1145
▁believes	-10.1146
▁discover	-10.1146
losing	-10.1149
▁hay	-10.1164
▁undo	-10.1168
▁hal	-10.1168
▁bits	-10.1178
▁windows	-10.1193
▁walked	-10.1201
through	-10.1206
▁growing	-10.1214
▁bred	-10.1215
▁waitin	-10.1215
▁heat	-10.1217
▁til	-10.1225
▁spots	-10.1241
▁hose	-10.1247
▁wondering	-10.126
▁ise	-10.1262
▁clearing	-10.1284
right	-10.1285
▁observe	-10.1285
fish	-10.1305
▁bay	-10.1316
▁radi	-10.1317
▁speaker	-10.1317
▁preserve	-10.1337
▁herds	-10.1341
ile	-10.1343
ut	-10.1358
▁seals	-10.1371
▁letters	-10.1384
▁gamble	-10.1389
▁wal	-10.1473
ma	-10.1478
▁bells	-10.1491
ished	-10.1501
▁cab	-10.1519
▁automatic	-10.1553
▁kin	-10.156
you	-10.1575
▁ch	-10.1576
▁bare	-10.159
▁wast	-10.1621
▁opens	-10.1625
no	-10.1633
▁for	-10.1638
ern	-10.1652
▁ew	-10.1658
▁bid	-10.1661
ul	-10.1697
▁steps	-10.17
▁spoil	-10.1707
our	-10.1707
▁facts	-10.1735
▁who	-10.174
ped	-10.1773
un	-10.1777
nny	-10.1777
▁lean	-10.1794
▁hopes	-10.1796
arne	-10.1809
ite	-10.181
om	-10.1815
fully	-10.1819
▁ace	-10.1837
ize	-10.184
▁spin	-10.1851
▁stir	-10.1857
▁flatter	-10.1857
▁satisfact	-10.1871
day	-10.1875
ure	-10.1881
▁down	-10.1899
▁marks	-10.1918
▁sat	-10.1918
▁hates	-10.1953
ow	-10.1976
▁tu	-10.1979
▁southern	-10.1984
hood	-10.1988
proof	-10.199
▁carl	-10.1992
hand	-10.1994
▁voices	-10.1995
▁demand	-10.1995
▁bl	-10.1996
▁wick	-10.2003
▁thre	-10.2018
▁sniff	-10.2025
de	-10.203
▁tend	-10.2043
▁patrol	-10.2045
▁current	-10.2045
▁barrel	-10.2057
▁forty	-10.2059
▁ri	-10.2062
▁pajama	-10.207
▁sometime	-10.207
▁student	-10.2071
▁dollar	-10.2071
▁doll	-10.209
▁wil	-10.2099
▁member	-10.2109
▁jam	-10.2122
▁suck	-10.2125
▁charm	-10.2127
▁ham	-10.2129
▁pe	-10.213
mo	-10.2144
▁sneak	-10.2146
▁poison	-10.2156
▁loft	-10.2165
▁feast	-10.2168
▁disturb	-10.2168
▁russia	-10.217
▁branch	-10.2172
▁obvious	-10.2174
▁leavin	-10.218
▁civil	-10.2182
▁cam	-10.2182
▁stubborn	-10.2183
▁cigar	-10.2185
▁basic	-10.2185
▁hexxus	-10.2185
reeglise	-10.2185
▁ambassador	-10.2185
▁attitude	-10.2185
▁bonjour	-10.2185
▁champagne	-10.2185
▁cheechee	-10.2185
▁communicate	-10.2185
▁curiosity	-10.2185
▁environment	-10.2185
▁explanation	-10.2185
▁festival	-10.2185
▁ishmael	-10.2185
▁kneedeep	-10.2185
▁kuramoto	-10.2185
▁langley	-10.2185
▁leyasu	-10.2185
▁necessary	-10.2185
▁pacific	-10.2185
▁restaurant	-10.2185
▁sabotage	-10.2185
▁scuttlebutt	-10.2185
▁bargain	-10.2185
▁chicago	-10.2185
▁sixteen	-10.2185
▁otherwise	-10.2185
▁throttle	-10.2185
▁colours	-10.2185
▁instance	-10.2185
▁phew	-10.2185
▁tanya	-10.2185
▁scoop	-10.2185
▁camille	-10.2185
▁doshy	-10.2185
▁exchange	-10.2185
▁flesh	-10.2185
▁envy	-10.2185
▁dishyer	-10.2185
▁surface	-10.2185
▁sobbing	-10.2185
▁extraordinary	-10.2185
▁jeanne	-10.2185
▁burden	-10.2185
▁motorcar	-10.2185
▁sledge	-10.2185
▁altogether	-10.2185
▁fore	-10.2185
▁combination	-10.2185
▁fireworks	-10.2185
▁battleships	-10.2185
▁stroke	-10.2185
▁pumblechook	-10.2186
▁password	-10.2186
▁funeral	-10.2186
▁helmet	-10.2186
▁gaspard	-10.2186
▁obey	-10.2186
▁cavalry	-10.2186
▁herbert	-10.2186
▁unknown	-10.2186
▁crime	-10.2186
▁scene	-10.2186
▁disease	-10.2186
▁moonlight	-10.2187
▁resist	-10.2187
▁haircut	-10.2187
▁meeko	-10.2187
▁hunch	-10.2187
▁estate	-10.2187
▁pattern	-10.2187
▁pitts	-10.2187
▁digging	-10.2188
▁nearby	-10.2188
▁collection	-10.2188
▁fuel	-10.2188
▁afore	-10.2188
▁rehearsal	-10.2188
▁notches	-10.2188
▁superman	-10.2188
▁groaning	-10.2189
▁bedroom	-10.2189
▁fifty	-10.2189
▁decent	-10.2189
▁marshall	-10.219
▁muffin	-10.219
▁inland	-10.219
▁crater	-10.219
▁mist	-10.219
▁whatll	-10.2191
▁stray	-10.2191
▁makin	-10.2191
▁candy	-10.2192
▁trunk	-10.2192
▁bubber	-10.2193
▁cabin	-10.2193
▁stew	-10.2193
▁disappointed	-10.2193
▁steam	-10.2194
▁confess	-10.2195
▁strict	-10.2196
▁exit	-10.2197
▁temperature	-10.2198
▁stock	-10.2204
▁stopping	-10.2204
▁heroes	-10.2205
▁lair	-10.2205
▁fever	-10.2206
▁oats	-10.2206
▁embarrassing	-10.2206
▁marie	-10.2207
▁mansion	-10.2208
▁juice	-10.2208
▁fan	-10.2208
▁china	-10.2209
▁sport	-10.2209
▁herr	-10.2209
▁heathens	-10.221
▁prophets	-10.221
▁grant	-10.221
▁helamites	-10.221
▁lordship	-10.2212
▁spoken	-10.2213
▁disturbed	-10.2214
▁squealing	-10.2215
▁sighing	-10.2215
▁dude	-10.2215
what	-10.2216
▁steak	-10.2217
▁alike	-10.2218
▁oil	-10.2218
commanderinchief	-10.2219
▁hostile	-10.2223
▁entirely	-10.2223
▁sneaking	-10.2224
▁generations	-10.2225
▁insult	-10.2227
▁busted	-10.2227
▁managed	-10.2229
▁setting	-10.2229
▁wounded	-10.223
▁designed	-10.2231
zy	-10.2233
▁poet	-10.2234
▁dish	-10.2235
▁concerned	-10.2236
▁youth	-10.2237
▁forth	-10.2246
▁served	-10.225
▁laid	-10.2251
▁susan	-10.2252
▁trailer	-10.2257
▁rushed	-10.2257
▁madly	-10.2259
▁carefully	-10.2266
▁bein	-10.2266
▁helpless	-10.2268
▁thus	-10.2269
▁upper	-10.227
▁historic	-10.2273
▁sink	-10.2281
▁dearest	-10.2281
▁waited	-10.2283
▁aid	-10.2283
oohooh	-10.2284
▁arrange	-10.2285
▁cards	-10.2285
▁carpet	-10.2285
▁desire	-10.2287
▁gim	-10.2288
cat	-10.2294
▁sniffs	-10.2299
looking	-10.2302
▁enjoyed	-10.2302
▁pajamas	-10.2302
▁riding	-10.2305
ais	-10.231
▁zero	-10.2317
▁vast	-10.2318
ka	-10.2319
▁taxi	-10.2334
▁appears	-10.2343
▁stake	-10.2348
▁whee	-10.2348
▁waves	-10.2351
▁hopeless	-10.2358
▁chances	-10.2358
▁stealing	-10.236
▁acorns	-10.2366
▁golly	-10.2371
ds	-10.2371
▁wounds	-10.2372
▁tires	-10.2373
▁cleaned	-10.2378
▁blessing	-10.2388
▁rein	-10.239
▁operat	-10.239
▁the	-10.2391
▁steer	-10.2392
▁proof	-10.2392
▁expected	-10.2406
▁slowing	-10.241
▁seasons	-10.2414
▁answered	-10.2414
▁chaps	-10.2416
▁pushing	-10.2417
▁sa	-10.242
▁there	-10.2437
▁tone	-10.2446
▁germans	-10.2447
▁camels	-10.2448
ator	-10.2452
▁stations	-10.2459
▁yippee	-10.2467
▁pointing	-10.2469
▁boil	-10.2471
▁friendly	-10.2484
▁rub	-10.2486
▁ad	-10.2493
▁moose	-10.2512
▁stare	-10.2515
▁jokes	-10.2531
▁gates	-10.2539
▁hears	-10.2563
▁hurting	-10.2572
▁officers	-10.2593
▁bu	-10.2595
▁pond	-10.2603
▁sounding	-10.2612
li	-10.2617
▁pace	-10.2622
▁tube	-10.2626
▁normal	-10.263
ons	-10.264
▁guessed	-10.2642
▁ended	-10.2645
▁cha	-10.2648
▁tellin	-10.2652
▁print	-10.2654
▁tender	-10.2656
gy	-10.2657
▁engines	-10.2661
ropoli	-10.2667
▁driv	-10.2673
▁bust	-10.2679
▁cope	-10.2682
▁noses	-10.2689
▁male	-10.2696
▁vo	-10.2698
▁successful	-10.2702
les	-10.2713
▁hee	-10.2721
ring	-10.2728
▁defeat	-10.2741
▁rob	-10.2745
▁za	-10.2774
alalalala	-10.28
ery	-10.2873
▁includ	-10.2875
▁stops	-10.2876
▁stays	-10.2907
gged	-10.2919
▁link	-10.294
▁moves	-10.2965
▁merci	-10.297
▁dec	-10.2984
▁event	-10.2987
▁hatch	-10.2994
ated	-10.3045
▁signs	-10.3052
ge	-10.3058
by	-10.3059
▁understanding	-10.3061
well	-10.3069
▁lack	-10.3069
▁wool	-10.3079
▁career	-10.3086
▁sto	-10.3093
▁dial	-10.3097
hi	-10.3119
▁rabbits	-10.3138
▁chisums	-10.3138
▁jim	-10.3153
ze	-10.3154
▁hel	-10.3163
▁gut	-10.3203
la	-10.3206
▁ab	-10.3272
▁mono	-10.3272
ake	-10.3273
▁mum	-10.3279
▁fame	-10.3285
omp	-10.329
▁fed	-10.3299
▁sta	-10.3312
feather	-10.3358
▁ke	-10.3374
mouth	-10.3397
oring	-10.3398
▁boot	-10.3429
▁damage	-10.3442
new	-10.3445
▁trash	-10.3465
he	-10.3472
▁border	-10.3473
▁quack	-10.3483
▁character	-10.3483
▁carnival	-10.3484
iest	-10.3484
▁medal	-10.3485
▁zone	-10.3493
▁operation	-10.3495
▁rumor	-10.3497
▁hebrew	-10.3499
▁degree	-10.3499
▁priest	-10.3501
▁beside	-10.3505
▁grain	-10.3514
▁carrier	-10.3517
▁purr	-10.3518
▁tr	-10.3523
▁scar	-10.3523
▁lab	-10.3527
ev	-10.354
▁rib	-10.354
▁ge	-10.3549
▁prepar	-10.355
▁cr	-10.3559
▁vision	-10.3559
▁puff	-10.3567
▁cell	-10.3578
▁attempt	-10.3582
▁abandon	-10.3585
mon	-10.3588
▁dears	-10.3592
▁baker	-10.3595
▁hip	-10.3595
▁thirst	-10.3597
▁honk	-10.3598
▁lenno	-10.3601
▁scrap	-10.3601
▁immediate	-10.3602
▁absolute	-10.3603
▁detect	-10.3603
▁solo	-10.3606
▁junk	-10.361
▁benedict	-10.3614
▁benefactor	-10.3614
▁braithwaite	-10.3614
▁cavalier	-10.3614
▁circumstances	-10.3614
▁compeyson	-10.3614
▁convinced	-10.3614
▁edinburgh	-10.3614
▁fanfare	-10.3614
▁ferngully	-10.3614
▁ferraday	-10.3614
▁giddyup	-10.3614
▁halfbreed	-10.3614
▁jacquot	-10.3614
▁lincoln	-10.3614
▁matriarch	-10.3614
▁mcgillicuddy	-10.3614
▁mirror	-10.3614
▁mystery	-10.3614
▁nephew	-10.3614
▁okavango	-10.3614
▁pushmipullyu	-10.3614
▁ralph	-10.3614
▁rhyme	-10.3614
▁rothbart	-10.3614
▁unbelievable	-10.3614
▁wolves	-10.3614
▁zebedee	-10.3614
▁fashion	-10.3614
▁population	-10.3614
▁weimar	-10.3614
▁chorus	-10.3614
▁rosalie	-10.3614
▁parrot	-10.3614
▁comanche	-10.3614
▁stumble	-10.3614
▁specimen	-10.3614
▁anyhow	-10.3614
▁december	-10.3614
▁refuge	-10.3614
▁neighborhood	-10.3614
▁someplace	-10.3614
▁eager	-10.3614
▁smooth	-10.3614
▁dithering	-10.3614
▁empire	-10.3614
▁elders	-10.3614
▁kilometers	-10.3614
▁succeed	-10.3614
▁debt	-10.3614
▁giggling	-10.3614
▁cheerio	-10.3614
▁canada	-10.3614
▁heaveho	-10.3614
▁porch	-10.3614
▁buried	-10.3614
▁appointment	-10.3614
▁hotaru	-10.3614
▁agency	-10.3614
▁sunrise	-10.3614
▁cliff	-10.3614
▁righteous	-10.3614
▁carrot	-10.3614
▁snuff	-10.3614
▁chutn	-10.3614
▁kitten	-10.3614
▁importance	-10.3614
▁accordion	-10.3614
▁pumpkin	-10.3614
▁atlanta	-10.3614
▁babies	-10.3614
▁jonas	-10.3614
▁hidden	-10.3614
▁shelter	-10.3614
▁icecream	-10.3614
▁tavern	-10.3614
▁formula	-10.3614
▁stuey	-10.3615
▁dummies	-10.3615
▁meakin	-10.3615
▁bingo	-10.3615
▁source	-10.3615
▁authority	-10.3615
▁species	-10.3615
▁studio	-10.3615
▁yuck	-10.3615
▁doggone	-10.3615
▁luxury	-10.3615
▁sorrow	-10.3616
▁poodle	-10.3616
▁loyalty	-10.3616
▁smoking	-10.3616
▁yonder	-10.3616
▁deputy	-10.3617
▁guardhouse	-10.3617
▁chirping	-10.3617
▁function	-10.3617
▁hiya	-10.3617
▁percy	-10.3617
▁abort	-10.3617
▁exhausted	-10.3617
▁throng	-10.3617
▁civilian	-10.3617
▁wipe	-10.3618
▁palm	-10.3618
▁devoted	-10.3618
▁tamar	-10.3618
▁confound	-10.3618
▁pupil	-10.3619
▁sentence	-10.362
▁cootchi	-10.362
▁potatoes	-10.362
▁sandwiches	-10.362
▁rising	-10.3621
▁untie	-10.3622
▁woke	-10.3622
▁slight	-10.3622
▁chess	-10.3622
▁rubber	-10.3622
▁bible	-10.3622
▁christian	-10.3623
▁trial	-10.3623
▁arguing	-10.3623
▁shopping	-10.3623
▁tsar	-10.3623
▁vulgaria	-10.3624
▁evident	-10.3624
▁huntin	-10.3624
▁chores	-10.3624
▁confused	-10.3624
▁footsteps	-10.3624
▁engaged	-10.3625
▁protection	-10.3625
▁wax	-10.3626
▁acoming	-10.3626
▁captive	-10.3627
▁vital	-10.3627
▁picks	-10.3627
▁alley	-10.3627
▁madness	-10.3627
▁temple	-10.3628
▁divine	-10.3628
▁daylight	-10.3628
▁keen	-10.3628
▁itd	-10.3629
▁vain	-10.3629
▁troublemaker	-10.3629
▁tasty	-10.3629
ddya	-10.363
▁amaze	-10.363
▁task	-10.363
▁legend	-10.363
▁gratitude	-10.3632
▁takin	-10.3633
▁quote	-10.3634
▁stairs	-10.3634
▁screeching	-10.3635
▁research	-10.3636
▁underneath	-10.3636
▁legal	-10.3638
▁bitter	-10.3638
▁earned	-10.3638
▁badge	-10.3639
misunderstanding	-10.3639
▁reality	-10.364
▁grade	-10.3641
▁expression	-10.3641
▁ancestors	-10.3642
▁tries	-10.3643
▁chest	-10.3644
▁gents	-10.3646
▁artist	-10.3646
▁medic	-10.3647
▁mature	-10.3649
▁motion	-10.3649
▁ladder	-10.3649
▁crush	-10.3651
▁spear	-10.3652
▁tok	-10.3653
▁moth	-10.3656
▁morrow	-10.3658
▁crust	-10.3658
▁allies	-10.366
▁neutrinos	-10.366
▁comrades	-10.3661
▁loudly	-10.3662
▁bandits	-10.3662
▁hull	-10.3662
▁stink	-10.3665
▁washed	-10.3671
▁self	-10.3672
▁hup	-10.3673
▁terms	-10.3675
ington	-10.3678
▁communications	-10.3679
▁sucker	-10.3683
▁ivor	-10.3684
▁civilized	-10.3685
▁worn	-10.3692
▁mamas	-10.3695
bs	-10.3695
▁hangar	-10.37
▁dash	-10.3705
▁moan	-10.3708
▁feathered	-10.3711
▁lune	-10.3714
▁marching	-10.3714
▁fighters	-10.3715
▁earn	-10.3715
▁critters	-10.3715
▁sour	-10.3717
▁tada	-10.3717
▁highway	-10.372
▁toes	-10.3722
▁malo	-10.3723
▁chat	-10.3723
▁par	-10.3723
▁accepted	-10.3724
▁brace	-10.3724
▁identi	-10.3732
▁rumors	-10.3733
▁gain	-10.3742
▁chanti	-10.3753
▁peck	-10.3758
▁pale	-10.3767
▁squeaks	-10.3768
▁crooks	-10.3769
▁pest	-10.378
▁nurs	-10.3783
▁teaching	-10.3795
▁recall	-10.3795
▁feared	-10.3797
▁females	-10.3807
▁checked	-10.3811
▁dong	-10.3814
▁pops	-10.3819
▁lighter	-10.3823
▁eighty	-10.3837
▁reject	-10.3839
tain	-10.3843
▁beer	-10.3854
▁clans	-10.3855
▁bald	-10.3864
▁mae	-10.3867
▁runways	-10.387
▁glow	-10.3879
▁tango	-10.3884
▁alas	-10.3884
▁dealing	-10.3885
▁imitate	-10.3889
▁invent	-10.3889
▁regrets	-10.3896
▁tears	-10.3899
▁pit	-10.3902
▁remains	-10.3906
▁era	-10.3924
▁luc	-10.3925
▁hah	-10.393
▁kindly	-10.3934
▁robe	-10.3936
▁pr	-10.394
▁equal	-10.3942
▁badly	-10.3946
▁prisoners	-10.3946
sy	-10.3946
▁murderer	-10.3948
side	-10.3951
▁cleared	-10.3952
got	-10.3952
stood	-10.3953
arbles	-10.3966
ians	-10.3972
▁devils	-10.3984
▁bitch	-10.3997
▁ann	-10.4003
▁santas	-10.4007
▁cleaner	-10.4012
▁qui	-10.4021
port	-10.4027
den	-10.403
▁sap	-10.4037
▁nob	-10.404
ina	-10.4044
fied	-10.4051
▁pri	-10.4052
oy	-10.406
▁beasts	-10.4066
▁cars	-10.4075
▁ideas	-10.4077
▁granddad	-10.4078
▁bows	-10.412
ship	-10.4123
down	-10.4124
▁am	-10.4129
▁sunk	-10.4134
▁ja	-10.4146
▁guts	-10.4147
▁banks	-10.4163
▁lace	-10.4166
▁mu	-10.4169
▁hated	-10.4174
▁lick	-10.4199
▁lion	-10.4206
▁narr	-10.4206
▁watched	-10.4226
▁batt	-10.4227
king	-10.4248
▁hills	-10.4248
▁rate	-10.425
▁social	-10.4251
▁unc	-10.4253
▁hog	-10.4266
▁pan	-10.4277
▁sticks	-10.4286
▁bud	-10.43
▁ade	-10.4307
wing	-10.4315
▁tails	-10.4325
▁dave	-10.4328
like	-10.4332
▁yous	-10.4339
▁fears	-10.4342
▁experiment	-10.4345
▁automat	-10.4396
▁mon	-10.4403
away	-10.4406
▁chl	-10.4418
op	-10.4427
▁sal	-10.4429
▁worrying	-10.4446
covered	-10.4453
▁operate	-10.446
ull	-10.4463
▁chas	-10.4476
▁bands	-10.4486
▁hug	-10.4497
▁taint	-10.4503
▁fri	-10.4519
os	-10.454
co	-10.4544
eeze	-10.458
▁deni	-10.4589
▁ump	-10.4595
ward	-10.4607
ying	-10.4614
▁ben	-10.4618
▁messages	-10.4634
▁pi	-10.4643
▁pu	-10.4651
▁hom	-10.4657
▁com	-10.4681
▁bears	-10.4698
▁hol	-10.4711
▁answers	-10.4713
▁rip	-10.4729
▁invade	-10.4734
rank	-10.4748
ence	-10.4757
where	-10.4766
▁dot	-10.4787
▁gi	-10.4796
▁she	-10.4803
▁not	-10.4857
we	-10.4861
key	-10.4877
▁hen	-10.4888
tomi	-10.4898
▁ton	-10.4915
▁flap	-10.492
▁bod	-10.4925
▁lass	-10.4945
▁sings	-10.4958
▁te	-10.4969
▁rig	-10.4979
▁custom	-10.4983
▁wee	-10.4985
▁hmmm	-10.4994
eyed	-10.4995
maker	-10.5001
▁tin	-10.5006
ish	-10.5022
▁ob	-10.5027
▁jumpin	-10.5035
▁temper	-10.5064
▁disgrace	-10.5065
▁coo	-10.5066
▁all	-10.5091
score	-10.5092
zero	-10.5107
▁chatter	-10.5116
▁robin	-10.5118
▁squawk	-10.5122
▁vi	-10.5125
▁squeal	-10.5126
▁ar	-10.5132
▁average	-10.5139
▁parade	-10.5142
▁annoy	-10.5145
▁convict	-10.5146
▁corps	-10.5146
▁occasion	-10.5147
yard	-10.5147
▁bubble	-10.5148
▁instruction	-10.5151
▁yell	-10.5152
▁suitcase	-10.5155
▁compliment	-10.5158
▁passenger	-10.5158
▁traitor	-10.5158
▁decision	-10.5159
▁issue	-10.516
▁jacks	-10.516
rous	-10.5161
▁critter	-10.5162
▁penguin	-10.5163
▁lump	-10.5172
ously	-10.5173
▁urn	-10.5187
▁promises	-10.5187
ung	-10.5189
▁scale	-10.5191
▁contract	-10.5209
▁holds	-10.5215
▁chris	-10.5237
▁hehe	-10.5239
▁consent	-10.5246
▁recover	-10.5247
▁bored	-10.5247
▁borrow	-10.5247
▁assure	-10.5248
▁kar	-10.5249
▁punish	-10.5249
▁greet	-10.525
▁surround	-10.5252
▁farmer	-10.5264
▁fortunate	-10.5268
▁photograph	-10.5269
▁total	-10.527
▁bra	-10.5273
▁haul	-10.5274
▁announce	-10.5276
▁cough	-10.5278
arctic	-10.5278
▁langu	-10.5279
▁fantas	-10.528
▁transit	-10.528
▁disagree	-10.528
▁abraham	-10.528
▁annihilation	-10.528
▁apprentice	-10.528
▁autograph	-10.528
▁conclusion	-10.528
▁corridor	-10.528
▁cottage	-10.528
▁credentials	-10.528
▁description	-10.528
▁disguise	-10.528
▁earthquake	-10.528
▁enormous	-10.528
▁eulalie	-10.528
▁gullywhumper	-10.528
▁industry	-10.528
▁jinpachi	-10.528
▁kamanosuke	-10.528
▁kugutsu	-10.528
▁lugleg	-10.528
▁miraculous	-10.528
▁mousekewitz	-10.528
▁nomura	-10.528
▁pipsqueak	-10.528
▁pizarro	-10.528
▁popular	-10.528
▁quarrel	-10.528
▁roosevelt	-10.528
▁rupert	-10.528
▁shackleton	-10.528
▁shawnee	-10.528
▁thalberg	-10.528
▁toilet	-10.528
▁wednesday	-10.528
▁zelozelos	-10.528
▁airborne	-10.528
▁diggety	-10.528
▁keelboat	-10.528
▁astronaut	-10.528
▁extinct	-10.528
▁verona	-10.528
▁accompany	-10.528
▁awesome	-10.528
▁beloved	-10.528
▁monitor	-10.528
▁academ	-10.528
▁conference	-10.528
▁deleon	-10.528
▁fourteen	-10.528
▁guitar	-10.528
▁shawl	-10.528
▁scanner	-10.528
▁affair	-10.528
▁peasant	-10.528
▁ransom	-10.528
▁tradition	-10.528
▁vermin	-10.528
▁apology	-10.528
▁arnold	-10.528
▁hollywood	-10.528
▁modern	-10.528
▁rennes	-10.528
▁expert	-10.528
▁civilization	-10.528
▁evidence	-10.528
▁waltz	-10.528
▁squadron	-10.528
▁courier	-10.528
▁fisherman	-10.528
▁yacht	-10.528
▁invisible	-10.528
▁venture	-10.528
▁although	-10.5281
▁chemistry	-10.5281
▁advise	-10.5281
▁device	-10.5281
▁turtle	-10.5281
▁wilkes	-10.5281
▁arrival	-10.5281
▁mixture	-10.5281
▁confirmation	-10.5281
▁confusion	-10.5281
▁dickon	-10.5281
▁twothirds	-10.5281
▁berthalet	-10.5281
▁compass	-10.5281
▁david	-10.5281
▁selfish	-10.5281
▁install	-10.5281
▁dixie	-10.5281
▁confederate	-10.5281
▁existence	-10.5281
▁churchyard	-10.5281
▁mutiny	-10.5281
▁bulb	-10.5281
▁resort	-10.5281
▁acquaint	-10.5281
▁blaring	-10.5281
▁gomorrah	-10.5281
▁urgent	-10.5281
▁desperate	-10.5281
▁breeze	-10.5281
▁creek	-10.5281
▁hmph	-10.5281
▁limb	-10.5281
▁thumb	-10.5281
▁charity	-10.5281
▁cricket	-10.5281
▁dismount	-10.5281
▁echo	-10.5282
▁flounder	-10.5282
▁gym	-10.5282
▁defenseless	-10.5282
▁lurky	-10.5282
▁morton	-10.5282
▁brush	-10.5282
▁paroo	-10.5282
▁punishment	-10.5282
▁fraidy	-10.5282
tch	-10.5282
▁repay	-10.5282
▁reception	-10.5282
▁wrapped	-10.5283
▁performance	-10.5283
▁transformation	-10.5283
▁overcome	-10.5283
▁smokehouse	-10.5283
▁brook	-10.5283
▁icelandic	-10.5283
▁trigger	-10.5283
▁bodies	-10.5283
▁encouraging	-10.5283
▁smiling	-10.5284
▁undoubtedly	-10.5284
burgh	-10.5284
▁clanking	-10.5284
▁skinny	-10.5284
▁shears	-10.5284
▁affection	-10.5285
▁subway	-10.5285
▁invest	-10.5285
▁alfred	-10.5285
▁misha	-10.5286
▁theory	-10.5286
▁bacon	-10.5286
▁brief	-10.5286
▁harmony	-10.5286
▁weakness	-10.5286
▁desk	-10.5287
▁pitch	-10.5287
▁wootchi	-10.5287
▁arrangement	-10.5287
air	-10.5287
▁cozy	-10.5288
▁statement	-10.5288
▁begun	-10.5288
▁delightful	-10.5288
▁spooky	-10.5288
▁parry	-10.529
▁howling	-10.529
▁weigh	-10.529
▁cluck	-10.529
▁swamp	-10.529
▁production	-10.529
▁virtue	-10.529
▁bluebird	-10.5291
▁toto	-10.5291
▁dragged	-10.5291
▁sleeve	-10.5291
▁whispering	-10.5292
▁laddie	-10.5292
▁cease	-10.5292
▁shiny	-10.5293
▁leggo	-10.5293
▁goblins	-10.5293
▁greedy	-10.5293
▁endless	-10.5293
▁swine	-10.5294
▁ability	-10.5294
▁bolt	-10.5295
▁soil	-10.5295
▁trickle	-10.5295
▁replaced	-10.5295
▁seize	-10.5296
▁click	-10.5296
▁commission	-10.5296
ldren	-10.5296
▁clatter	-10.5297
▁broadcasting	-10.5299
▁swallowed	-10.5299
▁lisa	-10.5299
▁struck	-10.5299
▁peaches	-10.5299
▁newby	-10.53
▁raft	-10.5301
▁selected	-10.5302
▁frame	-10.5303
▁triple	-10.5303
▁modest	-10.5303
▁circuit	-10.5304
ug	-10.5305
▁restless	-10.5305
▁mori	-10.5305
▁philly	-10.5305
▁tense	-10.5305
▁rudder	-10.5305
▁improve	-10.5307
▁snorts	-10.5307
▁century	-10.5307
▁wearin	-10.5309
▁allen	-10.5309
▁roots	-10.5309
▁surrounded	-10.5309
▁dull	-10.5309
▁particularly	-10.531
▁maiden	-10.5312
▁yawns	-10.5313
▁jury	-10.5313
▁worship	-10.5313
▁puppets	-10.5313
gallant	-10.5313
▁bait	-10.5314
▁shillings	-10.5314
▁toad	-10.5315
▁rally	-10.5315
▁awaits	-10.5316
▁gno	-10.5316
▁electric	-10.532
▁squawking	-10.5322
▁cast	-10.5323
▁screen	-10.5324
▁hired	-10.5326
▁drowned	-10.5327
▁static	-10.533
▁appeared	-10.5334
▁swan	-10.5336
▁calculations	-10.5336
▁market	-10.5337
alion	-10.5337
▁packages	-10.5337
▁drawn	-10.5337
▁shallow	-10.5339
▁berry	-10.5341
▁ruler	-10.5344
▁pouring	-10.5344
▁drowning	-10.5345
▁riders	-10.5345
▁ohhh	-10.5346
▁whale	-10.5347
▁refused	-10.5348
▁delivered	-10.5353
▁cord	-10.5354
▁lovin	-10.5355
▁bombs	-10.5356
▁reckoned	-10.5357
▁details	-10.5358
▁released	-10.5358
▁metal	-10.5358
▁intentions	-10.5358
▁parachute	-10.536
▁defense	-10.536
lan	-10.5361
▁bury	-10.5361
▁litter	-10.5362
▁deeply	-10.5364
▁compete	-10.5364
▁subsid	-10.5364
▁wiped	-10.5365
▁bando	-10.5365
▁packed	-10.5368
▁dresses	-10.537
▁dukey	-10.5376
▁lollipops	-10.538
▁neighbors	-10.5381
▁blown	-10.5386
▁tooth	-10.5387
▁settled	-10.5388
aunt	-10.5392
ification	-10.5395
▁introduced	-10.5395
▁rushing	-10.5401
▁pauly	-10.5402
▁climbing	-10.5404
▁advance	-10.5404
otto	-10.5405
bert	-10.5409
▁sailing	-10.5412
▁twin	-10.5413
▁delay	-10.5415
▁priests	-10.5423
▁threat	-10.5423
▁quietly	-10.5423
▁farmers	-10.5427
▁loving	-10.5431
▁actual	-10.5436
▁safely	-10.5437
▁customer	-10.5446
▁lame	-10.5453
▁playin	-10.5453
▁kisses	-10.5465
▁blocks	-10.5469
▁buttons	-10.5469
▁walker	-10.5472
▁belly	-10.5475
▁shops	-10.5482
▁driver	-10.5484
▁meals	-10.5485
▁rolling	-10.5488
▁laughed	-10.5489
▁pisto	-10.549
▁explained	-10.5496
▁mor	-10.5498
▁teachers	-10.5507
let	-10.552
▁heal	-10.5523
▁heap	-10.5534
▁transmit	-10.5539
▁crossing	-10.5545
▁frogs	-10.5551
▁goats	-10.5551
▁cousins	-10.5552
▁swell	-10.5553
▁concerts	-10.5553
▁worthy	-10.5555
▁plow	-10.557
▁rail	-10.5574
▁explaining	-10.5576
▁saknussems	-10.5578
▁rises	-10.5584
▁instant	-10.5588
▁chart	-10.561
▁stuffed	-10.5613
▁mat	-10.5615
▁br	-10.5621
▁divers	-10.5627
v	-10.5628
bbling	-10.5642
▁dah	-10.5647
aby	-10.5658
▁trusted	-10.566
▁fits	-10.567
▁sounded	-10.5678
▁dump	-10.5678
▁collapse	-10.5681
▁dearly	-10.5688
▁rio	-10.5695
▁net	-10.5695
▁pant	-10.5698
nty	-10.5703
▁imp	-10.5705
▁ga	-10.5717
▁ripe	-10.5732
▁buying	-10.5733
▁starve	-10.5737
▁fishing	-10.5757
lin	-10.576
▁handy	-10.5788
▁tickle	-10.5791
ign	-10.5794
uh	-10.5796
▁practic	-10.5797
▁lu	-10.5803
ide	-10.5807
ened	-10.5818
▁forms	-10.5837
ism	-10.5848
▁kissing	-10.5849
▁cosm	-10.586
▁havishams	-10.5864
▁sole	-10.5864
▁workin	-10.5865
▁cher	-10.587
ap	-10.5882
ld	-10.5887
▁tap	-10.5906
▁gu	-10.5907
▁ease	-10.5931
▁ram	-10.5941
▁backs	-10.5946
ions	-10.5956
▁card	-10.5972
nows	-10.5992
▁this	-10.5995
▁ray	-10.6007
▁kn	-10.6007
▁dangers	-10.6013
▁anticipate	-10.6015
▁sha	-10.6029
▁op	-10.6031
▁sos	-10.6032
▁uncles	-10.6069
ired	-10.6069
▁groups	-10.6079
▁when	-10.608
▁lied	-10.6105
▁advertise	-10.6111
▁sets	-10.6121
nks	-10.6147
▁bat	-10.6157
ickering	-10.617
▁ag	-10.6171
▁ins	-10.6195
ins	-10.6204
tter	-10.621
▁mistakes	-10.6251
onny	-10.6255
▁cl	-10.6263
▁ending	-10.6267
ied	-10.6281
▁portla	-10.6304
▁jumps	-10.6308
bo	-10.6312
▁connect	-10.6318
▁machines	-10.6329
▁flo	-10.633
▁by	-10.635
roy	-10.6359
▁axe	-10.6362
▁lid	-10.637
▁dan	-10.6372
▁ay	-10.6376
atter	-10.6382
▁rifle	-10.6403
▁whine	-10.6408
▁counts	-10.6409
ac	-10.6418
▁banging	-10.6473
more	-10.6474
▁drama	-10.6477
▁secrets	-10.6486
▁here	-10.6503
ns	-10.6514
mour	-10.6517
quat	-10.6517
▁tub	-10.6525
▁shines	-10.6545
▁understands	-10.6601
▁desp	-10.6611
▁moor	-10.6639
▁yank	-10.664
ham	-10.6667
▁fry	-10.6687
lower	-10.6697
ized	-10.6705
tempered	-10.6707
night	-10.6733
▁ador	-10.6736
▁lamb	-10.6738
▁tri	-10.6765
▁showing	-10.6823
▁kidnap	-10.6837
win	-10.6867
rious	-10.6871
hhh	-10.6903
▁cape	-10.6911
▁with	-10.6913
sion	-10.6914
▁x	-10.6927
▁inch	-10.6931
▁sez	-10.6931
▁image	-10.6951
▁nut	-10.6974
▁bug	-10.6981
▁sheriffs	-10.6982
▁stark	-10.6987
water	-10.6988
stream	-10.6993
▁plann	-10.7012
▁sigh	-10.7017
wise	-10.7018
▁tru	-10.7039
daughter	-10.7042
▁trans	-10.7043
bird	-10.7044
ded	-10.7049
▁strain	-10.7058
▁walks	-10.7081
▁tact	-10.7081
nce	-10.7082
▁compare	-10.7094
▁gasp	-10.7116
off	-10.7124
▁provide	-10.7125
ans	-10.7127
▁dinosaur	-10.7137
▁solution	-10.7137
▁panel	-10.7142
point	-10.7143
▁challenge	-10.7143
▁shift	-10.7144
▁willow	-10.7153
▁instrument	-10.7154
▁rascal	-10.7155
▁neighbor	-10.7158
▁lollipop	-10.716
▁falcon	-10.7164
▁chuckle	-10.7167
▁roger	-10.7167
use	-10.717
▁freeze	-10.7179
▁mob	-10.7184
▁belief	-10.7187
ha	-10.7191
stone	-10.7197
▁graci	-10.721
▁height	-10.7214
▁quarter	-10.7214
▁ami	-10.722
▁frighten	-10.722
▁classic	-10.7229
▁hei	-10.7229
▁bloom	-10.7232
▁pretend	-10.7237
▁judg	-10.7237
▁harvest	-10.7238
▁resign	-10.7242
▁sore	-10.7244
▁bruise	-10.7246
▁depart	-10.7247
▁aroun	-10.725
▁schedule	-10.7251
▁describe	-10.7252
▁sale	-10.7252
▁argue	-10.7253
▁wreck	-10.7254
▁silk	-10.7257
▁wealth	-10.7257
▁gloom	-10.7261
▁juic	-10.7262
▁curse	-10.7262
ootchi	-10.7263
▁twist	-10.7265
▁bleat	-10.7266
▁roun	-10.7267
▁exact	-10.727
▁original	-10.727
shed	-10.7271
▁steel	-10.7274
▁profession	-10.7275
ster	-10.7276
▁dancin	-10.7276
▁patie	-10.7277
▁sittin	-10.7277
▁triumph	-10.7278
▁stead	-10.7279
acious	-10.728
▁precaution	-10.728
▁anniversary	-10.728
▁auxiliar	-10.728
▁biscuit	-10.728
▁bulldoze	-10.728
▁congratulate	-10.728
▁dirigible	-10.728
▁djilas	-10.728
▁dungeon	-10.728
▁dynamite	-10.728
▁elegant	-10.728
▁encounter	-10.728
▁enlist	-10.728
▁flanagan	-10.728
▁goodfornothing	-10.728
▁gunpowder	-10.728
▁hehhehheh	-10.728
▁hurricane	-10.728
▁inaudible	-10.728
▁instinct	-10.728
▁jehovanh	-10.728
▁kalahari	-10.728
▁marcellus	-10.728
▁natchez	-10.728
▁necessarily	-10.728
▁ocarina	-10.728
▁omaha	-10.728
▁peculiar	-10.728
▁pharisee	-10.728
▁phenomenon	-10.728
▁pluskat	-10.728
▁quetzamal	-10.728
▁ravine	-10.728
▁resource	-10.728
▁samurai	-10.728
▁schrader	-10.728
▁scoundrel	-10.728
▁sebastian	-10.728
▁sekigahara	-10.728
▁shakespeare	-10.728
▁siberia	-10.728
▁sublime	-10.728
▁tremaine	-10.728
▁ungrateful	-10.728
▁video	-10.728
▁yeehoo	-10.728
▁yooeeyooeeyooee	-10.728
▁zaneeta	-10.728
▁zurich	-10.728
▁blasphem	-10.728
▁clarinet	-10.728
▁competition	-10.728
▁hyena	-10.728
▁mciver	-10.728
▁november	-10.728
▁stagecoach	-10.728
▁tsuge	-10.728
▁audio	-10.728
▁corvier	-10.728
▁girliegirl	-10.728
▁jersey	-10.728
▁juarez	-10.728
▁laboratory	-10.728
▁noisy	-10.728
▁porridge	-10.728
▁substitute	-10.728
▁conquer	-10.728
▁crisis	-10.728
▁forswear	-10.728
▁moscow	-10.728
▁peanut	-10.728
▁pecos	-10.728
▁senior	-10.728
▁siege	-10.728
▁colorado	-10.728
▁columb	-10.728
▁reinforcements	-10.728
▁anxious	-10.728
▁happier	-10.728
▁jaggers	-10.728
▁lonesome	-10.728
▁sync	-10.728
▁solemn	-10.728
▁wittles	-10.728
▁gasket	-10.728
▁spectacle	-10.728
▁article	-10.728
▁embrace	-10.728
▁whitlow	-10.728
▁swift	-10.728
▁intercept	-10.728
▁network	-10.728
▁beeves	-10.728
▁rachel	-10.728
▁romantic	-10.728
▁colony	-10.728
▁electronic	-10.728
▁hurrah	-10.728
▁vedor	-10.728
▁utah	-10.7281
▁jammed	-10.7281
▁sample	-10.7281
▁selfdefence	-10.7281
▁slept	-10.7281
▁craven	-10.7281
▁catnip	-10.7281
▁hidetada	-10.7281
▁alligator	-10.7281
▁wiggins	-10.7281
▁savior	-10.7281
▁destiny	-10.7281
▁yosef	-10.7281
▁material	-10.7281
▁generous	-10.7281
▁banana	-10.7281
▁destruction	-10.7281
▁bellowes	-10.7281
▁franny	-10.7281
▁hurray	-10.7281
▁program	-10.7281
▁technical	-10.7281
▁lazarus	-10.7281
▁elves	-10.7281
▁particle	-10.7281
▁elite	-10.7281
▁yassum	-10.7281
▁false	-10.7281
▁closure	-10.7281
▁trills	-10.7281
▁pledge	-10.7281
▁repent	-10.7281
▁snack	-10.7281
▁unarmed	-10.7281
▁hippo	-10.7281
▁knave	-10.7281
▁flash	-10.7281
▁evans	-10.7281
▁honour	-10.7281
▁sensation	-10.7281
▁adrian	-10.7281
▁riker	-10.7281
▁pudding	-10.7281
▁threesies	-10.7281
▁slaughter	-10.7282
▁heeyaw	-10.7282
▁argument	-10.7282
▁beetle	-10.7282
▁sustain	-10.7282
▁transport	-10.7282
▁woohoo	-10.7282
▁whizzer	-10.7282
▁available	-10.7282
▁footbridge	-10.7282
▁launch	-10.7282
▁memorize	-10.7282
▁jerk	-10.7282
▁atlantic	-10.7282
▁juzo	-10.7282
▁mallard	-10.7282
▁genda	-10.7282
▁fatso	-10.7282
▁supply	-10.7282
▁beauties	-10.7282
▁departure	-10.7283
▁mainland	-10.7283
▁doomed	-10.7283
▁navigator	-10.7283
▁twosies	-10.7283
▁onboard	-10.7283
▁shortcut	-10.7283
▁ahahh	-10.7283
▁criminal	-10.7283
▁betore	-10.7283
▁hospitality	-10.7283
▁jelly	-10.7283
▁location	-10.7283
▁warrant	-10.7283
▁achieve	-10.7283
▁teddy	-10.7284
▁banished	-10.7284
▁doorbell	-10.7284
▁italy	-10.7284
▁meatball	-10.7284
▁reverend	-10.7284
▁toby	-10.7284
▁visitors	-10.7284
▁stiff	-10.7284
▁committed	-10.7285
▁courthouse	-10.7285
▁fascinating	-10.7285
▁whoosh	-10.7285
▁terrifying	-10.7285
▁stepped	-10.7285
▁calver	-10.7285
▁broad	-10.7286
▁straw	-10.7286
▁behold	-10.7286
▁blink	-10.7286
gative	-10.7287
▁luckily	-10.7287
▁spitting	-10.7287
▁tonit	-10.7287
▁spunk	-10.7287
▁sunlight	-10.7287
▁brady	-10.7287
▁concentrate	-10.7287
▁settlement	-10.7287
▁leather	-10.7288
▁intro	-10.7288
▁formation	-10.7288
▁purse	-10.7288
▁facility	-10.7288
▁robot	-10.7289
▁detective	-10.7289
▁waitress	-10.729
▁mutters	-10.729
▁exposed	-10.729
▁furry	-10.7291
▁style	-10.7291
▁woof	-10.7292
▁caution	-10.7293
▁creepy	-10.7293
▁geez	-10.7294
▁greg	-10.7294
▁maneuvering	-10.7295
▁alongside	-10.7295
▁backstage	-10.7295
▁airfield	-10.7296
▁discre	-10.7296
▁guineas	-10.7296
▁salutations	-10.7296
▁trombones	-10.7296
▁slightly	-10.7297
▁backwards	-10.7297
▁acquired	-10.7297
▁established	-10.7297
▁lighthouse	-10.7297
▁appeal	-10.7297
semble	-10.7299
▁shelf	-10.73
▁token	-10.73
▁assembled	-10.73
▁lennon	-10.73
▁trout	-10.73
▁commerce	-10.7301
▁widow	-10.7301
▁hansen	-10.7302
▁slime	-10.7302
▁gloomy	-10.7302
▁cramp	-10.7302
▁sixty	-10.7302
▁scent	-10.7302
▁sweetie	-10.7302
▁miser	-10.7303
▁remove	-10.7303
▁bucket	-10.7303
▁clearance	-10.7303
▁sass	-10.7303
▁transformed	-10.7304
▁labor	-10.7304
▁construction	-10.7304
▁dried	-10.7304
▁stinky	-10.7304
▁perfection	-10.7306
▁tool	-10.7306
▁fireball	-10.7307
▁stove	-10.7307
▁blush	-10.7307
▁whimper	-10.7307
▁guardian	-10.7308
▁embarrassed	-10.7308
▁satan	-10.7309
▁scheduled	-10.7309
▁authorize	-10.731
▁coins	-10.7311
▁removed	-10.7311
▁improved	-10.7312
▁shining	-10.7312
▁kansas	-10.7312
▁quest	-10.7313
▁politics	-10.7314
▁bash	-10.7315
▁minor	-10.7315
▁brute	-10.7317
▁punished	-10.7318
▁johnson	-10.7318
▁owns	-10.7319
▁printed	-10.7319
▁conductor	-10.7321
▁knees	-10.7322
▁joking	-10.7322
▁resent	-10.7322
▁panzers	-10.7323
▁amaryllis	-10.7323
▁mixer	-10.7323
▁sixth	-10.7323
▁onesies	-10.7324
oever	-10.7324
▁solved	-10.7324
▁rockin	-10.7325
▁advanced	-10.7325
▁airline	-10.7325
▁provided	-10.7325
▁jaw	-10.7325
▁grey	-10.7326
▁taller	-10.7327
▁scott	-10.7327
▁crumbs	-10.7329
▁appointed	-10.7329
▁clark	-10.733
▁stu	-10.733
▁fallen	-10.7331
▁corne	-10.7332
▁spoiled	-10.7332
▁acknowledge	-10.7334
▁knots	-10.7335
▁filler	-10.7336
▁prospects	-10.7337
▁directed	-10.734
▁stur	-10.7342
▁impressed	-10.7342
▁flames	-10.7342
▁shaking	-10.7343
▁descend	-10.7345
▁fake	-10.7346
▁profit	-10.7346
▁tip	-10.7347
▁rumbles	-10.7348
▁gulps	-10.7349
▁outer	-10.7349
▁fainted	-10.7352
▁photos	-10.7353
▁threehorns	-10.7354
▁melting	-10.7356
▁difficulty	-10.7356
▁chased	-10.7357
▁squeaking	-10.7357
▁shock	-10.7357
▁brat	-10.7357
▁scratch	-10.7358
▁cautio	-10.7359
▁doth	-10.736
▁roaring	-10.7366
▁entry	-10.7368
▁foolin	-10.7368
▁gre	-10.7369
▁drill	-10.7369
▁shred	-10.737
▁suffering	-10.7371
▁chicks	-10.7372
▁stormy	-10.7375
▁dem	-10.7377
▁failures	-10.7377
▁bugs	-10.7378
▁existed	-10.7378
▁crashing	-10.7379
▁viva	-10.738
gs	-10.7381
▁reporter	-10.7385
ork	-10.7386
▁trespasser	-10.7386
▁musicians	-10.7386
▁slice	-10.7388
▁painting	-10.7388
▁sadly	-10.7392
▁runner	-10.7393
▁hark	-10.7397
▁sailed	-10.7402
▁hoop	-10.7403
▁dread	-10.7404
▁active	-10.7405
▁photographs	-10.7406
▁timing	-10.7409
▁informed	-10.741
▁studying	-10.7411
▁touches	-10.7413
▁golf	-10.7413
▁exceptional	-10.7416
▁experiments	-10.7421
▁godet	-10.7421
▁redha	-10.7422
▁impress	-10.7426
▁shhh	-10.7427
▁decisions	-10.7431
▁traitors	-10.7431
▁passengers	-10.7431
▁compliments	-10.7431
▁cheerful	-10.7432
mortal	-10.7433
▁wasted	-10.7437
▁cells	-10.7441
▁gag	-10.7442
▁feature	-10.7446
▁sweater	-10.745
ping	-10.7452
▁burning	-10.7453
▁dares	-10.7454
▁operations	-10.7458
▁buster	-10.7464
▁loaded	-10.7465
▁ple	-10.7482
▁explorer	-10.7484
▁deny	-10.7486
▁leap	-10.7489
▁askin	-10.7492
▁feelin	-10.7502
▁cheeks	-10.7503
▁messing	-10.751
▁measures	-10.7511
▁instruct	-10.7514
▁treated	-10.7516
▁knocked	-10.7518
hugging	-10.7518
▁drawing	-10.7529
▁rack	-10.7531
▁sang	-10.7532
▁fans	-10.7533
skin	-10.7534
▁constant	-10.7541
▁spending	-10.7543
tail	-10.7544
▁encourage	-10.7552
▁visiting	-10.7556
▁ignor	-10.7561
▁tigers	-10.7566
omi	-10.7569
▁units	-10.7569
▁missus	-10.757
▁sits	-10.7575
roll	-10.7583
yes	-10.7587
▁pic	-10.7588
▁pine	-10.76
▁eventual	-10.7602
▁knocking	-10.7604
▁sticking	-10.761
▁doors	-10.7611
▁cel	-10.7614
▁trained	-10.7617
▁bullets	-10.7618
▁aunts	-10.7628
▁cable	-10.7632
logical	-10.7633
▁stayin	-10.7642
▁nerves	-10.7647
▁vac	-10.7649
▁swor	-10.7652
mount	-10.7654
eight	-10.7656
▁cowards	-10.7658
▁whoops	-10.7671
▁interfere	-10.7673
▁longing	-10.7674
▁apples	-10.7677
▁matt	-10.7685
▁select	-10.7689
▁touching	-10.769
ren	-10.7699
oo	-10.7703
▁millions	-10.7704
ench	-10.7706
▁laying	-10.7709
▁ross	-10.771
mental	-10.7711
▁events	-10.7714
▁val	-10.7716
▁skill	-10.7717
ok	-10.7719
ip	-10.7724
▁throwing	-10.7728
▁jehovahs	-10.773
▁ain	-10.7742
▁wondered	-10.7746
▁str	-10.7748
▁mermaids	-10.7759
▁keeper	-10.7762
og	-10.7768
▁mmmm	-10.7773
▁strangers	-10.7787
healthy	-10.779
▁kissed	-10.7798
▁hitch	-10.7808
▁nicely	-10.7814
▁monsters	-10.7814
▁sakes	-10.7822
aton	-10.7828
▁gidda	-10.7831
▁embarrass	-10.7838
▁positions	-10.7841
▁nail	-10.7845
▁permit	-10.7851
▁worker	-10.7867
▁gull	-10.7883
▁smelling	-10.7883
▁manor	-10.7916
▁sump	-10.7917
▁hound	-10.7917
tion	-10.7926
lock	-10.7931
▁oft	-10.7938
tains	-10.7939
▁fielder	-10.7952
ough	-10.7956
▁lambs	-10.7979
▁finds	-10.7987
▁etern	-10.8005
▁nicer	-10.801
▁bel	-10.8015
▁caused	-10.8015
▁peak	-10.802
▁bond	-10.802
▁flea	-10.803
▁rooms	-10.8039
ums	-10.8061
lick	-10.8072
io	-10.8081
▁philosoph	-10.8092
▁vow	-10.8094
aki	-10.8108
▁pla	-10.8114
▁presidents	-10.8116
▁cu	-10.8122
▁ohoh	-10.8125
▁prime	-10.8141
▁hopin	-10.8143
ando	-10.8143
ri	-10.8143
▁thud	-10.8147
sa	-10.8148
ault	-10.8151
▁idle	-10.8156
▁meaning	-10.8172
▁qu	-10.8177
▁employ	-10.8179
▁siren	-10.8195
gery	-10.8201
▁frightful	-10.8205
▁grounds	-10.8206
▁heave	-10.8215
▁sum	-10.8224
▁penn	-10.8226
▁rightly	-10.8233
ink	-10.8236
▁darlings	-10.8249
bozo	-10.8264
▁fired	-10.8269
▁lefty	-10.8286
rely	-10.8299
ight	-10.8303
fe	-10.8322
▁declare	-10.8328
▁soci	-10.833
connected	-10.8343
ler	-10.8344
▁impatient	-10.8359
▁yahoo	-10.8365
▁ape	-10.8371
▁surprises	-10.8376
▁rehearse	-10.8381
▁heed	-10.8392
▁thi	-10.8407
▁magn	-10.8408
ooo	-10.8411
▁declar	-10.8429
▁sack	-10.8449
▁mag	-10.8489
▁flyer	-10.8497
▁ants	-10.8499
▁jun	-10.8515
▁easter	-10.8529
▁intr	-10.8577
▁wel	-10.858
▁sl	-10.859
pri	-10.8613
▁throws	-10.8673
ked	-10.8706
▁shovel	-10.8709
▁returns	-10.8729
▁stress	-10.8764
colo	-10.8795
sley	-10.8798
uous	-10.8804
▁rais	-10.884
▁para	-10.8847
mate	-10.8855
▁mac	-10.8869
▁why	-10.8878
▁inf	-10.8933
ency	-10.8957
nk	-10.8973
ned	-10.8977
▁core	-10.9003
hm	-10.9006
▁weep	-10.9011
▁gene	-10.9037
can	-10.9065
▁grin	-10.9072
gal	-10.9073
▁ret	-10.9089
int	-10.9106
inner	-10.9129
▁que	-10.9136
▁lettin	-10.9136
▁lou	-10.9149
bit	-10.9166
▁sw	-10.917
▁fog	-10.9186
▁mines	-10.9186
ction	-10.919
▁pips	-10.9196
▁chip	-10.9197
▁pon	-10.9209
▁accidental	-10.921
boy	-10.921
▁dia	-10.9217
▁roa	-10.9225
eer	-10.9232
▁tax	-10.9232
▁kit	-10.9249
▁ward	-10.9275
▁dove	-10.9279
stand	-10.9282
ss	-10.9289
erial	-10.9315
▁bras	-10.933
▁hopeful	-10.9336
found	-10.9352
▁owners	-10.9354
▁abus	-10.9357
▁temp	-10.9359
former	-10.9375
▁pas	-10.9393
▁fee	-10.9401
▁nu	-10.9406
world	-10.9409
▁bomb	-10.9417
iff	-10.9438
tually	-10.9439
ho	-10.9445
▁diet	-10.9476
ered	-10.9477
aire	-10.9482
nds	-10.9495
▁bi	-10.9496
wick	-10.9497
gue	-10.95
▁hare	-10.9509
worth	-10.9517
▁spark	-10.9517
ose	-10.952
▁sni	-10.952
her	-10.9532
made	-10.9542
blood	-10.9543
▁glob	-10.9544
free	-10.9562
▁ax	-10.9562
natural	-10.9562
▁chum	-10.9571
rie	-10.9575
bred	-10.9577
aged	-10.9579
ga	-10.9579
q	-10.9582
▁nap	-10.9583
▁grunt	-10.9604
▁float	-10.9631
▁daddys	-10.9634
▁colleague	-10.9637
▁slav	-10.9638
▁zi	-10.9638
eaten	-10.9643
decisive	-10.9645
▁recruit	-10.9649
▁mushroom	-10.965
habit	-10.9654
▁troop	-10.9654
▁helicopter	-10.9655
▁blade	-10.9655
▁suggestion	-10.9655
▁rival	-10.9655
▁villain	-10.9656
▁dispos	-10.9657
▁associate	-10.9657
path	-10.9657
▁connection	-10.9657
▁intention	-10.9661
▁failure	-10.9661
▁communication	-10.9661
▁abso	-10.9663
▁citizen	-10.9666
▁musician	-10.9667
▁exclaim	-10.9667
▁sodomite	-10.9668
▁agin	-10.9669
▁detail	-10.967
▁grandma	-10.9671
▁rod	-10.9673
▁term	-10.9674
ang	-10.968
▁cobb	-10.9685
ski	-10.9693
▁mule	-10.9694
fall	-10.9694
veling	-10.9697
▁entertain	-10.9716
▁refresh	-10.9718
ages	-10.9718
▁movement	-10.972
owed	-10.9722
position	-10.9724
▁rocket	-10.9726
▁trim	-10.9731
▁sons	-10.9734
▁bicker	-10.9737
▁manner	-10.9738
▁screech	-10.9741
my	-10.9745
▁transform	-10.9747
▁reveal	-10.9748
▁interrupt	-10.9748
▁retrieve	-10.9748
udder	-10.9749
▁increase	-10.9749
▁crawl	-10.975
▁accomplish	-10.9752
▁swallow	-10.9752
▁threaten	-10.9753
▁organize	-10.9753
scope	-10.9755
▁torment	-10.9755
▁relieve	-10.9761
▁vulgar	-10.9762
▁solve	-10.9764
▁grind	-10.9767
▁potato	-10.9768
▁sandwich	-10.9768
▁butcher	-10.9768
▁mechanical	-10.977
ecker	-10.9771
▁marshal	-10.9771
▁endure	-10.9773
▁acomin	-10.9773
▁negotiat	-10.9777
▁bloomin	-10.9779
▁techni	-10.978
▁scientific	-10.978
responsibilities	-10.978
structure	-10.978
▁altitude	-10.978
▁apologies	-10.978
▁assignment	-10.978
▁berlioz	-10.978
▁bomburst	-10.978
▁circumference	-10.978
▁clarify	-10.978
▁claverton	-10.978
▁coincidence	-10.978
▁complicated	-10.978
▁conservatory	-10.978
▁cyril	-10.978
▁disrupt	-10.978
▁divorce	-10.978
▁dorado	-10.978
▁downstairs	-10.978
▁dunkirk	-10.978
▁edbrooke	-10.978
▁eliminate	-10.978
▁erebus	-10.978
▁fairfax	-10.978
▁fuchida	-10.978
▁furthermore	-10.978
▁giddyap	-10.978
▁gubgub	-10.978
▁hehheh	-10.978
▁heritage	-10.978
▁ingenious	-10.978
▁kurusu	-10.978
▁liquor	-10.978
▁lurvy	-10.978
▁mcbrusque	-10.978
▁melancholy	-10.978
▁merrylegs	-10.978
▁mochizuki	-10.978
▁motherinlaw	-10.978
▁oklahoma	-10.978
▁ominous	-10.978
▁orchestra	-10.978
▁orphan	-10.978
▁pheasant	-10.978
▁presumptuous	-10.978
▁privilege	-10.978
▁prodigy	-10.978
▁promotion	-10.978
▁qualifications	-10.978
▁ratcliffe	-10.978
▁rendezvous	-10.978
▁reuben	-10.978
▁revenge	-10.978
▁rosaline	-10.978
▁scartaris	-10.978
▁scoffs	-10.978
▁scrawny	-10.978
▁sentimental	-10.978
▁slurping	-10.978
▁spectacular	-10.978
▁superficial	-10.978
▁suspense	-10.978
▁switzerland	-10.978
▁thorough	-10.978
▁thursday	-10.978
▁tremendous	-10.978
▁unexpected	-10.978
▁unnecessary	-10.978
▁ursula	-10.978
▁vacuum	-10.978
▁vehicle	-10.978
▁victim	-10.978
▁yamamoto	-10.978
▁zulu	-10.978
▁atmospher	-10.978
▁billiard	-10.978
▁casino	-10.978
▁cocoa	-10.978
▁duchess	-10.978
▁entrance	-10.978
▁error	-10.978
▁eruption	-10.978
▁furnace	-10.978
▁grief	-10.978
▁length	-10.978
▁merchant	-10.978
▁nellie	-10.978
▁pathetic	-10.978
▁ragwort	-10.978
▁redmanor	-10.978
▁remote	-10.978
▁rojas	-10.978
▁scaredycat	-10.978
▁anvil	-10.978
▁chickasaw	-10.978
▁claude	-10.978
▁glenda	-10.978
▁postpone	-10.978
▁staircase	-10.978
▁abomination	-10.978
▁influence	-10.978
▁ambitio	-10.978
▁casualties	-10.978
▁families	-10.978
▁rubbish	-10.978
▁afterward	-10.978
▁central	-10.978
▁costigan	-10.978
▁murray	-10.978
▁opposite	-10.978
▁automobile	-10.978
▁consult	-10.978
▁inferior	-10.978
▁latimer	-10.978
▁luggage	-10.978
▁montez	-10.978
▁distinguished	-10.978
▁incident	-10.978
▁revoir	-10.978
▁wrath	-10.978
▁doughnut	-10.978
▁expensive	-10.978
shuffle	-10.978
▁happily	-10.978
▁sensible	-10.978
▁glrl	-10.978
▁canadian	-10.978
▁constable	-10.978
▁interview	-10.978
▁relationship	-10.978
▁garbled	-10.978
▁illegal	-10.978
▁frymore	-10.978
▁intact	-10.978
▁wingspan	-10.978
visibility	-10.978
▁bowtie	-10.978
▁fleabag	-10.978
▁temporarily	-10.978
▁tomato	-10.978
▁ribbon	-10.9781
▁committee	-10.9781
▁upriver	-10.9781
▁addition	-10.9781
▁complex	-10.9781
▁puppies	-10.9781
▁conscience	-10.9781
▁curtain	-10.9781
▁harmonica	-10.9781
▁caretaker	-10.9781
destined	-10.9781
▁regroup	-10.9781
▁overreact	-10.9781
▁notify	-10.9781
▁bassoon	-10.9781
▁celebration	-10.9781
▁elevation	-10.9781
▁accurate	-10.9781
▁bonbon	-10.9781
▁gentlewoman	-10.9781
▁mattress	-10.9781
▁creaking	-10.9781
▁ribbit	-10.9781
▁carolyne	-10.9781
▁confident	-10.9781
▁injection	-10.9781
▁pebble	-10.9781
▁randolph	-10.9781
▁cooperation	-10.9781
▁glorious	-10.9781
▁compromise	-10.9781
▁industrial	-10.9781
▁esteem	-10.9781
▁alliance	-10.9781
▁kimmel	-10.9781
▁formality	-10.9781
▁sacred	-10.9781
▁occupation	-10.9781
▁glitter	-10.9781
▁fiddle	-10.9781
▁mildred	-10.9781
▁vicar	-10.9781
▁outnumbered	-10.9781
▁interference	-10.9781
▁pesky	-10.9781
▁bubba	-10.9781
▁belloni	-10.9781
▁investigation	-10.9781
▁gordon	-10.9781
▁perilous	-10.9781
▁tramp	-10.9781
▁league	-10.9781
▁karate	-10.9781
▁upside	-10.9781
▁necklace	-10.9781
proposals	-10.9781
▁industries	-10.9781
▁britain	-10.9781
▁favers	-10.9782
▁unhappy	-10.9782
▁trembling	-10.9782
▁approval	-10.9782
▁chubby	-10.9782
▁dinah	-10.9782
▁possession	-10.9782
▁hypocrites	-10.9782
▁drumming	-10.9782
▁parading	-10.9782
▁oyster	-10.9782
▁bratton	-10.9782
▁international	-10.9782
▁drummer	-10.9782
▁reliable	-10.9782
▁output	-10.9782
▁strategy	-10.9782
▁access	-10.9782
▁holler	-10.9782
▁magma	-10.9782
▁curb	-10.9782
▁behavior	-10.9782
▁adjust	-10.9782
▁reverse	-10.9782
▁logic	-10.9782
▁thrust	-10.9782
▁sloppy	-10.9782
▁kiev	-10.9783
▁ayah	-10.9783
▁floodwater	-10.9783
▁heavily	-10.9783
▁stepmother	-10.9783
▁religion	-10.9783
▁wildlife	-10.9783
▁clown	-10.9783
▁courtesy	-10.9783
▁bertha	-10.9783
▁judgment	-10.9783
▁dorm	-10.9783
▁occasionally	-10.9783
▁resistance	-10.9783
▁swimming	-10.9783
▁horizon	-10.9783
▁minuet	-10.9783
▁pulp	-10.9783
▁harsh	-10.9783
▁expectations	-10.9784
▁classroom	-10.9784
▁surprising	-10.9784
▁engagement	-10.9784
▁hungarian	-10.9784
▁whipped	-10.9784
▁possibility	-10.9784
▁muru	-10.9784
▁overdo	-10.9784
▁kidney	-10.9784
▁gruel	-10.9784
▁hesitate	-10.9784
▁cynical	-10.9784
▁smash	-10.9784
▁woodland	-10.9785
▁detonat	-10.9785
▁chump	-10.9785
▁tragic	-10.9785
▁decoy	-10.9785
▁altered	-10.9785
▁chapel	-10.9785
▁maintain	-10.9786
▁hooooo	-10.9786
▁beggar	-10.9786
▁lisp	-10.9786
▁ferry	-10.9786
▁haunted	-10.9786
▁pronounce	-10.9786
▁smack	-10.9786
▁supposing	-10.9786
▁frustrated	-10.9786
▁homesick	-10.9786
▁betcha	-10.9786
▁dripping	-10.9787
▁childish	-10.9787
▁exaggerating	-10.9787
▁astonishing	-10.9787
▁mourn	-10.9787
▁otf	-10.9787
▁ragged	-10.9787
▁reply	-10.9787
▁yapping	-10.9787
▁tummy	-10.9787
▁paddle	-10.9787
▁nelly	-10.9788
▁tourist	-10.9788
▁duckling	-10.9788
▁professional	-10.9788
▁shrieking	-10.9788
▁content	-10.9788
▁announcement	-10.9788
▁socks	-10.9788
▁barney	-10.9788
▁godmother	-10.9788
▁benefit	-10.9788
▁polish	-10.9788
▁pasture	-10.9789
▁firstclass	-10.9789
▁pidge	-10.9789
▁battery	-10.9789
▁superb	-10.979
▁admirers	-10.979
▁overlook	-10.979
▁gravy	-10.979
otamus	-10.9791
▁composer	-10.9791
▁vers	-10.9791
▁mouthful	-10.9791
▁reeds	-10.9791
▁process	-10.9791
▁status	-10.9792
▁runthrough	-10.9792
▁pistol	-10.9792
▁passage	-10.9792
▁cub	-10.9793
▁flyby	-10.9793
▁atlanti	-10.9793
▁activity	-10.9793
cian	-10.9793
▁neglected	-10.9794
▁inclin	-10.9794
▁confirmed	-10.9794
▁intruder	-10.9794
▁stirred	-10.9795
▁virtuoso	-10.9795
▁pinch	-10.9795
▁auto	-10.9795
▁motto	-10.9795
▁background	-10.9796
▁sharing	-10.9796
cz	-10.9796
brin	-10.9796
▁crops	-10.9797
▁overall	-10.9797
▁yearning	-10.9797
▁booby	-10.9798
harde	-10.9798
▁disperse	-10.9798
▁hast	-10.9798
▁determined	-10.9798
▁markings	-10.9798
▁batch	-10.9799
▁concludes	-10.98
▁comment	-10.9801
▁billows	-10.9801
▁sprinkles	-10.9801
▁crossroads	-10.9801
▁documents	-10.9801
▁doggies	-10.9801
▁negotiations	-10.9801
▁redeem	-10.9801
▁maude	-10.9802
▁baptized	-10.9802
▁abel	-10.9802
▁yodo	-10.9802
▁shrieks	-10.9802
▁agony	-10.9803
▁cloak	-10.9803
▁handcuffs	-10.9803
▁sadness	-10.9804
▁dispens	-10.9804
▁chose	-10.9805
▁francs	-10.9805
▁title	-10.9808
▁thrill	-10.9808
▁valve	-10.9809
▁photography	-10.981
▁machinery	-10.981
▁homework	-10.9811
▁rome	-10.9811
▁misery	-10.9811
▁plaster	-10.9811
▁hammering	-10.9811
▁spinning	-10.9811
▁stupidity	-10.9812
▁clara	-10.9813
▁faithfully	-10.9813
▁consideration	-10.9813
inch	-10.9814
▁heel	-10.9814
▁officially	-10.9814
▁hideous	-10.9815
▁polite	-10.9815
▁sunny	-10.9818
▁billion	-10.9818
▁takeoff	-10.9819
▁suicide	-10.9819
▁basis	-10.982
▁repair	-10.9821
▁grinding	-10.9821
▁webs	-10.9821
▁housing	-10.9822
▁diversion	-10.9823
▁braves	-10.9824
▁arise	-10.9824
▁deli	-10.9824
▁produced	-10.9825
▁goto	-10.9827
▁idol	-10.9828
▁dishes	-10.9828
▁strings	-10.9831
▁mason	-10.9833
▁milo	-10.9833
▁resigning	-10.9834
▁greed	-10.9834
▁frightening	-10.9834
▁guin	-10.9834
▁granted	-10.9834
▁minerals	-10.9835
▁results	-10.9836
▁exaggerate	-10.9836
▁damaged	-10.9837
lasting	-10.9837
▁shootin	-10.9839
▁crank	-10.9839
▁backyard	-10.984
▁pecking	-10.984
kin	-10.9841
▁raw	-10.9843
▁shant	-10.9844
▁halt	-10.9844
▁poisoned	-10.9845
▁toggle	-10.9846
▁rot	-10.9848
▁diego	-10.9849
▁cutters	-10.985
▁organized	-10.9851
▁distressed	-10.9851
▁witches	-10.9856
▁sandy	-10.9856
▁slippery	-10.9856
▁dock	-10.9859
▁knot	-10.986
tically	-10.9862
▁clay	-10.9864
▁chow	-10.9865
▁songwrit	-10.9866
▁affect	-10.9866
▁relatives	-10.9867
▁lofty	-10.9868
ative	-10.9869
▁scaring	-10.9871
▁forfeits	-10.9871
▁heels	-10.9872
▁drain	-10.9876
▁lode	-10.9879
▁beaches	-10.9879
▁hash	-10.9879
▁insisted	-10.988
▁jealousy	-10.988
▁drifting	-10.9881
▁tape	-10.9884
▁oops	-10.9884
▁cargo	-10.9885
▁sku	-10.9886
▁hollow	-10.9887
▁fourth	-10.9888
▁warmer	-10.9889
▁compose	-10.9889
▁dais	-10.989
oyot	-10.9891
▁slap	-10.9891
▁breaks	-10.9892
forsaken	-10.9892
▁engineering	-10.9894
▁warden	-10.9897
▁drinkin	-10.9902
▁bean	-10.9903
▁hangin	-10.9907
▁helicopters	-10.9907
▁connections	-10.9908
▁complaining	-10.9909
▁parker	-10.991
▁bleats	-10.9912
▁intended	-10.9912
▁pester	-10.9912
▁fightin	-10.9912
ives	-10.9915
▁thoughts	-10.9915
▁leaf	-10.992
▁frenchy	-10.9921
▁sleepin	-10.9922
▁aft	-10.9924
▁talented	-10.9925
nito	-10.9926
▁brew	-10.9928
▁walkin	-10.9928
▁goodnight	-10.9929
bed	-10.9931
▁frost	-10.9932
▁crate	-10.9932
▁warned	-10.9933
▁magician	-10.9936
▁snore	-10.9937
▁amo	-10.9938
▁stronger	-10.9938
▁raines	-10.9939
▁hint	-10.994
▁nicky	-10.9942
▁rascals	-10.9943
▁singin	-10.9943
▁ve	-10.9946
▁flyin	-10.9946
▁fighter	-10.9947
▁produce	-10.995
▁fuss	-10.9951
▁scope	-10.9955
▁toll	-10.9956
▁moral	-10.9956
▁mightnt	-10.9957
▁scots	-10.9967
half	-10.997
▁stored	-10.9972
▁transfer	-10.9972
ast	-10.9973
▁suitcases	-10.9979
▁mush	-10.998
nap	-10.998
▁spook	-10.9983
▁gathered	-10.9984
tul	-10.9984
▁youngest	-10.9985
▁caro	-10.9985
▁tailor	-10.999
▁slower	-10.9991
▁grains	-10.9994
▁cloth	-10.9995
▁capes	-11.0001
▁utter	-11.0005
▁cure	-11.0008
▁stammer	-11.0011
▁zones	-11.0013
▁awa	-11.0016
▁foxy	-11.0019
▁gen	-11.002
▁it	-11.0025
▁handled	-11.0026
▁notion	-11.0039
ics	-11.004
▁mos	-11.0043
▁snarl	-11.0044
▁ka	-11.0044
▁imagined	-11.0058
stern	-11.006
▁tur	-11.0067
▁tooting	-11.007
▁flow	-11.0076
▁globe	-11.0077
ack	-11.0077
▁fling	-11.0079
pagan	-11.008
▁ev	-11.0084
▁winners	-11.0085
▁bastards	-11.0087
▁capulets	-11.0087
▁any	-11.0093
walla	-11.0094
▁nor	-11.0102
▁strand	-11.0103
▁humiliat	-11.011
▁yards	-11.0115
▁exercises	-11.0125
▁bop	-11.0126
▁bothering	-11.0128
▁ki	-11.0134
▁types	-11.014
▁tours	-11.0144
▁vet	-11.0145
▁fades	-11.0148
akey	-11.0153
▁execut	-11.0154
▁wires	-11.0161
▁culture	-11.0161
▁realm	-11.0163
▁bro	-11.0164
▁sol	-11.0166
▁predict	-11.0168
ffel	-11.0173
▁touched	-11.0173
▁clue	-11.0176
▁brides	-11.0181
▁pill	-11.0181
ex	-11.0186
▁ideal	-11.0189
▁verse	-11.0193
▁shade	-11.0197
▁portion	-11.02
▁zoo	-11.02
▁divid	-11.0203
▁outs	-11.0204
stop	-11.0209
▁marrying	-11.0229
asis	-11.023
▁decides	-11.0232
▁snatch	-11.0236
▁pur	-11.024
viet	-11.0243
rugged	-11.0253
▁mall	-11.0253
▁lookie	-11.026
▁muff	-11.0261
sburg	-11.0267
▁players	-11.0273
▁ac	-11.0274
▁severe	-11.0275
▁recit	-11.0277
▁hid	-11.0279
▁sleepy	-11.0284
▁ike	-11.0284
ou	-11.0293
▁pans	-11.0295
ore	-11.0296
▁signals	-11.03
▁owes	-11.0304
yearold	-11.0304
▁div	-11.0321
▁planets	-11.0331
ving	-11.0338
some	-11.0342
▁pals	-11.0348
▁painful	-11.0355
▁deck	-11.0357
▁ordering	-11.0366
▁crews	-11.0372
▁actions	-11.0377
▁talents	-11.038
ierce	-11.0382
lly	-11.0383
ov	-11.0385
ew	-11.0387
▁combine	-11.0393
▁mur	-11.0394
▁complaint	-11.0396
der	-11.0404
sters	-11.0406
▁milt	-11.0407
va	-11.0409
unning	-11.0422
▁appli	-11.0422
▁finer	-11.0431
▁laund	-11.0432
ox	-11.0436
▁morale	-11.0436
▁skins	-11.0437
▁alt	-11.044
▁flights	-11.0442
▁wagons	-11.0443
▁overhea	-11.0448
▁keepin	-11.0454
sized	-11.0456
▁seats	-11.0479
unting	-11.048
▁storms	-11.0488
▁ignoran	-11.049
▁hanged	-11.052
▁scr	-11.0527
▁clang	-11.0531
▁chu	-11.0533
▁youse	-11.0535
otic	-11.0542
▁bags	-11.0543
▁peek	-11.0545
▁kite	-11.055
▁pins	-11.0552
rd	-11.0555
▁forge	-11.0555
▁physic	-11.0558
▁indi	-11.0569
ties	-11.058
snicker	-11.058
▁unlock	-11.0585
▁pad	-11.0595
▁rank	-11.0614
▁scares	-11.062
▁grabb	-11.0627
▁noises	-11.0628
oof	-11.0629
▁respects	-11.0629
▁faces	-11.0638
sing	-11.0655
▁yesterdays	-11.0665
spoon	-11.0679
saw	-11.0683
▁parts	-11.0686
top	-11.0694
▁mouths	-11.0698
▁sor	-11.0705
▁smiles	-11.0713
▁cage	-11.0717
▁gin	-11.0732
pp	-11.0747
aint	-11.075
▁gay	-11.0751
ft	-11.0768
▁af	-11.0769
light	-11.0781
per	-11.0784
▁bugg	-11.0786
mp	-11.0788
▁unbea	-11.0795
▁persons	-11.08
ads	-11.0806
▁dodge	-11.0819
▁hiss	-11.0821
▁records	-11.0824
▁twentyfi	-11.0827
▁slippe	-11.0829
▁agrees	-11.0829
▁wished	-11.0835
bony	-11.0835
jacket	-11.0838
▁nightmares	-11.0846
▁render	-11.0856
▁commanders	-11.0861
ila	-11.0862
▁gifts	-11.0865
▁villages	-11.0879
▁outrun	-11.0882
ana	-11.0908
bon	-11.0915
yoshi	-11.0948
low	-11.0951
ui	-11.0967
▁strat	-11.0974
▁off	-11.0984
izzy	-11.0998
▁listened	-11.1005
ock	-11.1015
▁animat	-11.1018
bang	-11.102
ni	-11.1025
▁ban	-11.1057
▁bre	-11.107
epid	-11.1078
ripped	-11.1083
▁rounds	-11.109
▁bloods	-11.1099
▁translate	-11.112
▁fray	-11.1126
punk	-11.1142
endor	-11.1148
▁whip	-11.1164
▁springs	-11.117
▁trips	-11.1174
▁significan	-11.1175
ale	-11.1183
ranch	-11.12
▁rileys	-11.1203
▁oi	-11.1216
rightfully	-11.1218
▁senses	-11.1226
▁johnnys	-11.124
inches	-11.1258
elin	-11.126
back	-11.1269
▁barbe	-11.1277
ave	-11.1279
wept	-11.1279
▁din	-11.1281
▁hook	-11.1292
▁bikes	-11.1298
▁pies	-11.1301
▁charle	-11.1303
▁wor	-11.134
▁prospect	-11.1351
sent	-11.1354
▁drops	-11.1355
▁await	-11.1359
▁sis	-11.1364
aid	-11.1372
▁checks	-11.1392
▁poi	-11.1392
▁poster	-11.1396
▁rehears	-11.1399
ere	-11.1406
▁explor	-11.1406
▁ther	-11.1407
▁don	-11.1413
feit	-11.1416
iana	-11.1428
▁deals	-11.1431
▁bind	-11.1439
▁tops	-11.1441
claimed	-11.1452
long	-11.1452
ue	-11.1453
vents	-11.1456
tabe	-11.1461
of	-11.1515
▁gardens	-11.1522
ian	-11.1543
▁replace	-11.1551
rice	-11.1552
▁vote	-11.1584
▁curl	-11.1607
ially	-11.1621
tale	-11.1626
▁dragg	-11.1647
▁stra	-11.1652
▁stor	-11.1653
▁shells	-11.167
sel	-11.1679
▁employe	-11.1686
ville	-11.1687
ologist	-11.1694
▁trains	-11.1702
lic	-11.1705
uction	-11.1708
▁prim	-11.1709
mer	-11.1734
itty	-11.1749
hold	-11.1762
▁sew	-11.1762
aaaa	-11.1771
▁accuse	-11.1778
imeter	-11.1788
sons	-11.179
▁wester	-11.1807
am	-11.1842
▁yur	-11.1854
▁despi	-11.1858
▁uns	-11.1859
rew	-11.186
uc	-11.1881
tes	-11.1883
course	-11.1884
ior	-11.1903
▁wakes	-11.1905
lante	-11.1909
look	-11.191
▁und	-11.1938
▁wag	-11.1959
▁buzze	-11.196
▁lip	-11.1979
ores	-11.1991
good	-11.2
▁waters	-11.2048
▁chim	-11.2048
tons	-11.2054
ings	-11.2058
ker	-11.2061
▁translat	-11.2077
▁pow	-11.2095
read	-11.2105
bye	-11.212
ke	-11.2122
meter	-11.2122
ger	-11.2137
most	-11.2141
how	-11.2144
▁countrys	-11.2177
▁ls	-11.219
▁mc	-11.2191
▁hairs	-11.2193
▁gra	-11.2202
▁pier	-11.2221
nies	-11.2224
▁demonstrate	-11.2236
ters	-11.2252
▁minu	-11.2261
▁wardro	-11.2267
ody	-11.2276
▁twink	-11.2286
▁tab	-11.2288
mine	-11.2321
▁des	-11.2333
ja	-11.2337
ppen	-11.2338
aver	-11.234
ca	-11.2342
ner	-11.2342
▁hum	-11.2344
elle	-11.2347
ouch	-11.2367
tell	-11.2388
vet	-11.2412
called	-11.2413
▁barb	-11.2427
gram	-11.2427
aaah	-11.2448
une	-11.2463
abby	-11.2469
▁facilit	-11.247
mar	-11.2473
▁experienc	-11.2478
nder	-11.2479
ome	-11.2499
anza	-11.2503
▁losin	-11.2514
▁eee	-11.2532
coming	-11.2537
▁tinkl	-11.2538
▁rides	-11.2541
▁gum	-11.2542
work	-11.2544
▁spi	-11.2554
▁behal	-11.2555
▁clu	-11.2559
▁sleeps	-11.2588
▁mea	-11.2595
stutter	-11.2608
▁distinct	-11.2609
▁mai	-11.2633
ats	-11.2637
wyn	-11.2639
place	-11.2639
▁gla	-11.264
▁fights	-11.2641
don	-11.2667
▁medi	-11.267
hole	-11.2679
leading	-11.2682
▁wonders	-11.2686
due	-11.2696
▁bumb	-11.2697
state	-11.2711
iso	-11.2723
ata	-11.2726
cent	-11.2728
tar	-11.2744
cut	-11.2746
▁slid	-11.2749
ami	-11.2763
▁hie	-11.2767
claim	-11.2774
hut	-11.2781
choo	-11.2781
renal	-11.2784
▁ant	-11.2784
break	-11.2786
itable	-11.2801
psy	-11.2803
▁hoar	-11.2805
▁carpets	-11.2828
mois	-11.2849
etting	-11.2851
rable	-11.2851
burger	-11.2854
tious	-11.2857
▁rever	-11.2858
book	-11.2859
nut	-11.2862
▁cra	-11.2864
▁chick	-11.2864
▁nay	-11.2867
▁pleas	-11.2874
ti	-11.288
dancer	-11.2882
nning	-11.2885
bread	-11.2888
▁insur	-11.2889
amond	-11.2889
upper	-11.2901
name	-11.2902
wash	-11.2904
type	-11.2905
▁creep	-11.2907
worthy	-11.2914
huh	-11.2916
test	-11.2919
power	-11.292
ves	-11.292
shake	-11.2922
mail	-11.2926
▁oui	-11.2928
▁require	-11.2934
▁sc	-11.2939
leaf	-11.2939
para	-11.294
gun	-11.2941
teeth	-11.2945
▁moms	-11.2967
▁revolution	-11.2967
▁grr	-11.297
▁shepherd	-11.297
▁kangaroo	-11.297
▁method	-11.297
▁chemical	-11.2971
▁outlaw	-11.2971
▁sprout	-11.2972
▁chamber	-11.2972
▁reb	-11.2978
▁reserve	-11.2978
▁contain	-11.298
ari	-11.2982
▁zuckerman	-11.2983
▁companion	-11.2983
▁muscle	-11.2984
▁element	-11.2984
▁photo	-11.2986
handed	-11.2987
▁donkey	-11.299
▁forfeit	-11.2991
▁bounc	-11.2991
▁threehorn	-11.2992
▁calculation	-11.2994
▁neutrino	-11.2994
▁gulp	-11.2995
▁comrade	-11.2995
▁relative	-11.2997
▁generation	-11.2997
▁highland	-11.2999
▁package	-11.2999
▁giggle	-11.3
▁invit	-11.3002
coup	-11.3005
▁tit	-11.3006
▁mini	-11.3007
▁sheet	-11.3007
▁flame	-11.3009
chi	-11.3009
▁mcc	-11.301
▁rumble	-11.3014
▁manager	-11.3022
illa	-11.3023
cul	-11.3027
▁isle	-11.3028
▁bandit	-11.3033
itted	-11.3033
bourg	-11.3035
ordan	-11.3041
wow	-11.3042
▁parent	-11.3051
fire	-11.3052
▁provid	-11.3053
▁remark	-11.3054
▁continu	-11.3054
▁factor	-11.3055
civilized	-11.3067
easy	-11.3067
▁surviv	-11.3068
▁what	-11.307
▁whiz	-11.307
▁acre	-11.3072
▁rejoic	-11.3072
▁broadcast	-11.3074
▁clum	-11.3074
▁incredibl	-11.3075
▁appreciat	-11.3075
▁hammer	-11.3076
▁commerc	-11.3078
pped	-11.308
▁engage	-11.3081
▁establish	-11.3084
▁baptize	-11.3084
▁mock	-11.3085
▁acquire	-11.3087
▁disappoint	-11.309
▁victor	-11.3094
▁bleed	-11.3094
actic	-11.3096
▁indicate	-11.3097
▁conduct	-11.31
▁precise	-11.3102
▁ros	-11.3103
ably	-11.3103
▁mechanic	-11.3106
▁eu	-11.3106
▁darlin	-11.3108
▁cynic	-11.3108
▁navigat	-11.311
here	-11.311
▁recent	-11.311
▁attract	-11.3111
▁kiddin	-11.3112
▁consum	-11.3112
quisit	-11.3112
▁birt	-11.3113
iculous	-11.3114
▁adults	-11.3114
▁amateur	-11.3114
▁ammunition	-11.3114
▁andiron	-11.3114
▁antenna	-11.3114
▁applaud	-11.3114
▁approximate	-11.3114
▁arabella	-11.3114
▁aviator	-11.3114
▁awhile	-11.3114
▁bagpipes	-11.3114
▁balzac	-11.3114
▁baobab	-11.3114
▁bathtub	-11.3114
▁bloodthirsty	-11.3114
▁bristol	-11.3114
▁britannia	-11.3114
▁brunette	-11.3114
▁bullfrog	-11.3114
▁bureaucratic	-11.3114
▁calendar	-11.3114
▁caterpillar	-11.3114
▁clutterbuck	-11.3114
▁cobwebs	-11.3114
▁cognac	-11.3114
▁conflict	-11.3114
▁convenient	-11.3114
▁convincing	-11.3114
▁dagoult	-11.3114
▁daughterinlaw	-11.3114
▁deposit	-11.3114
▁destination	-11.3114
▁diploma	-11.3114
▁domestic	-11.3114
▁dynamic	-11.3114
▁eccentric	-11.3114
▁eisenhower	-11.3114
▁emporium	-11.3114
▁energy	-11.3114
▁entitled	-11.3114
▁exclusive	-11.3114
▁eyewitness	-11.3114
▁frequently	-11.3114
▁ghastly	-11.3114
▁giraffe	-11.3114
▁goepner	-11.3114
▁himalayan	-11.3114
▁honolulu	-11.3114
▁hypnotized	-11.3114
▁icumen	-11.3114
▁impeccable	-11.3114
▁incognito	-11.3114
▁indubitably	-11.3114
▁inherit	-11.3114
▁injured	-11.3114
▁injuries	-11.3114
▁intelligent	-11.3114
▁jabbering	-11.3114
▁jeepers	-11.3114
▁jehoshaphat	-11.3114
▁katsunaga	-11.3114
▁landscape	-11.3114
▁license	-11.3114
▁lindbergh	-11.3114
▁locomotive	-11.3114
▁machida	-11.3114
▁magazine	-11.3114
▁magistrate	-11.3114
▁magnifier	-11.3114
▁magnitude	-11.3114
▁manifestation	-11.3114
▁marquis	-11.3114
▁marshmallow	-11.3114
▁mathematic	-11.3114
▁merchandise	-11.3114
▁mercutio	-11.3114
▁misunderstood	-11.3114
▁morichika	-11.3114
▁mototsugu	-11.3114
▁nocturnal	-11.3114
▁noggin	-11.3114
▁nowadays	-11.3114
▁offshore	-11.3114
▁optimistic	-11.3114
▁participate	-11.3114
▁pemsel	-11.3114
▁penalty	-11.3114
▁pestilence	-11.3114
▁phantasmagori	-11.3114
▁pneumatic	-11.3114
▁predators	-11.3114
▁presume	-11.3114
▁privacy	-11.3114
▁puberty	-11.3114
▁pukowski	-11.3114
▁quarantine	-11.3114
▁republic	-11.3114
▁rhinoceros	-11.3114
▁rokuro	-11.3114
▁sarsaparilla	-11.3114
▁skeleton	-11.3114
▁solitude	-11.3114
▁soninlaw	-11.3114
▁specifically	-11.3114
▁subordinates	-11.3114
▁suspicious	-11.3114
▁toffelmier	-11.3114
▁tortoise	-11.3114
▁tournament	-11.3114
▁tranquilize	-11.3114
▁treacherous	-11.3114
▁twobyfour	-11.3114
▁varmint	-11.3114
▁welfare	-11.3114
▁wheelchair	-11.3114
▁wolverine	-11.3114
▁worthwhile	-11.3114
▁yagoobian	-11.3114
▁zambezi	-11.3114
▁zenkuro	-11.3114
▁aerodynamic	-11.3114
▁apostle	-11.3114
▁bazaar	-11.3114
▁enlighten	-11.3114
▁lammas	-11.3114
▁pianist	-11.3114
▁recreation	-11.3114
▁turbine	-11.3114
▁cabaret	-11.3114
▁canopy	-11.3114
▁conspiracy	-11.3114
▁cyrus	-11.3114
▁dixon	-11.3114
▁grenade	-11.3114
▁liverpool	-11.3114
▁napoleon	-11.3114
▁pullaook	-11.3114
▁tybalt	-11.3114
▁woooah	-11.3114
heimer	-11.3114
▁canasta	-11.3114
▁chimney	-11.3114
▁grandparents	-11.3114
▁jeanbob	-11.3114
▁kaiai	-11.3114
▁kramer	-11.3114
▁phraseology	-11.3114
▁scurvy	-11.3114
▁stereo	-11.3114
▁dingdong	-11.3114
▁havoc	-11.3114
▁kilyar	-11.3114
▁menthol	-11.3114
▁phase	-11.3114
▁supplies	-11.3114
▁custody	-11.3114
▁platoon	-11.3114
▁sleigh	-11.3114
▁alibi	-11.3114
▁barracks	-11.3114
▁berlin	-11.3114
▁brigadier	-11.3114
▁caliber	-11.3114
▁cinnamon	-11.3114
▁machete	-11.3114
▁mackerel	-11.3114
▁mcatee	-11.3114
▁melvin	-11.3114
▁abroad	-11.3114
▁allerg	-11.3114
▁notorious	-11.3114
▁stacey	-11.3114
▁vienna	-11.3114
▁ceiling	-11.3114
▁almaelou	-11.3114
▁haydn	-11.3114
▁incantation	-11.3114
▁parlor	-11.3114
▁tolerable	-11.3114
▁violence	-11.3114
▁salvation	-11.3114
▁seduce	-11.3114
▁tremble	-11.3114
▁ethnolog	-11.3114
▁routine	-11.3114
▁ruthless	-11.3114
▁costume	-11.3114
▁lisnin	-11.3114
▁santiano	-11.3114
▁cusco	-11.3114
▁exclamation	-11.3114
▁maniacal	-11.3114
▁bosom	-11.3114
▁bueno	-11.3114
▁flavor	-11.3114
▁fissure	-11.3114
▁angola	-11.3114
▁favourite	-11.3114
▁offense	-11.3114
▁salesmen	-11.3114
▁variable	-11.3114
▁bundle	-11.3114
▁eliza	-11.3114
▁violate	-11.3114
▁insignificant	-11.3114
▁gallows	-11.3114
▁grotty	-11.3114
▁venice	-11.3114
▁griev	-11.3114
▁honeymoon	-11.3114
▁burnford	-11.3114
▁chrome	-11.3114
▁jingle	-11.3114
▁orient	-11.3114
▁chickama	-11.3114
▁gregory	-11.3114
▁lucille	-11.3114
▁mebbe	-11.3114
▁assistance	-11.3114
▁crunch	-11.3114
▁downriver	-11.3114
greatgreat	-11.3114
▁sheila	-11.3114
▁meteor	-11.3114
▁response	-11.3114
▁nuthin	-11.3114
ritis	-11.3114
▁persever	-11.3114
▁occupied	-11.3114
▁unstable	-11.3114
▁superior	-11.3114
▁endurance	-11.3114
▁substance	-11.3114
▁plastic	-11.3114
▁expire	-11.3114
▁lebec	-11.3114
▁dissolv	-11.3114
▁promote	-11.3114
▁flashlight	-11.3114
▁somewhat	-11.3114
▁crowbar	-11.3114
▁overseas	-11.3114
▁tweetable	-11.3114
▁onstage	-11.3114
▁ritual	-11.3114
▁franz	-11.3114
▁impact	-11.3114
▁lolli	-11.3114
▁alternat	-11.3114
▁anyplace	-11.3114
▁bulldog	-11.3114
▁pioneer	-11.3114
▁representative	-11.3114
▁wagner	-11.3114
▁formalities	-11.3114
▁pitiful	-11.3114
▁flirt	-11.3114
▁solomon	-11.3114
▁avenue	-11.3114
▁dumpster	-11.3114
▁gossip	-11.3114
▁pappy	-11.3114
▁reflection	-11.3114
▁eighteen	-11.3114
▁choir	-11.3114
▁toothache	-11.3114
▁accent	-11.3114
▁leveller	-11.3114
▁nomad	-11.3114
▁ethel	-11.3114
▁bodyguard	-11.3114
▁gnaw	-11.3114
▁gopher	-11.3114
▁marketplace	-11.3114
▁nutshell	-11.3114
▁sherman	-11.3114
▁editor	-11.3114
▁arthur	-11.3114
▁otfice	-11.3115
▁prosperity	-11.3115
▁abetting	-11.3115
▁nuclear	-11.3115
▁britches	-11.3115
▁residence	-11.3115
▁seventyfive	-11.3115
▁consequence	-11.3115
▁beckman	-11.3115
▁inscription	-11.3115
▁shaved	-11.3115
uffy	-11.3115
▁refinement	-11.3115
▁tubby	-11.3115
▁fragran	-11.3115
▁mopani	-11.3115
▁mineowners	-11.3115
▁hovering	-11.3115
▁inventco	-11.3115
▁reyn	-11.3115
▁jamison	-11.3115
▁nevada	-11.3115
▁pucker	-11.3115
▁reinversi	-11.3115
▁ejection	-11.3115
▁bliss	-11.3115
▁revolutionary	-11.3115
▁ninth	-11.3115
▁nibble	-11.3115
ulsion	-11.3115
▁meself	-11.3115
▁nutri	-11.3115
▁margin	-11.3115
▁meadow	-11.3115
▁duties	-11.3115
▁classified	-11.3115
▁salute	-11.3115
▁underwater	-11.3115
▁visor	-11.3115
▁banco	-11.3115
▁novel	-11.3115
▁livestock	-11.3115
▁sparrow	-11.3115
▁biochemist	-11.3115
▁vista	-11.3115
▁mississippi	-11.3115
▁winston	-11.3115
▁transferred	-11.3115
▁animation	-11.3116
▁spiketail	-11.3116
▁blueprints	-11.3116
▁newcomer	-11.3116
▁vigor	-11.3116
▁halfwit	-11.3116
▁ammo	-11.3116
▁spores	-11.3116
▁yeehaw	-11.3116
▁combat	-11.3116
▁inspiration	-11.3116
▁yummy	-11.3116
▁hawk	-11.3116
▁dickens	-11.3116
▁observation	-11.3116
▁lasz	-11.3116
▁woodwork	-11.3116
▁satis	-11.3116
▁appetite	-11.3116
▁yarns	-11.3116
▁grits	-11.3116
▁ultimately	-11.3116
▁laura	-11.3117
▁tusk	-11.3117
▁trenches	-11.3117
▁shotgun	-11.3117
▁redhanded	-11.3117
▁shortsighted	-11.3117
▁adorable	-11.3117
▁rattler	-11.3117
▁leadership	-11.3117
▁tutor	-11.3117
▁unpack	-11.3117
▁contra	-11.3117
▁contestants	-11.3117
▁ankle	-11.3117
▁jackass	-11.3118
▁playground	-11.3118
▁torches	-11.3118
▁ounce	-11.3118
▁arriving	-11.3118
▁shazama	-11.3118
▁yelp	-11.3118
▁rosebud	-11.3119
▁raspberry	-11.3119
▁bizarre	-11.3119
quisition	-11.3119
▁confession	-11.3119
▁giles	-11.3119
▁maria	-11.3119
▁polecat	-11.312
▁zeal	-11.312
▁contempt	-11.312
▁mumbling	-11.312
▁jip	-11.312
▁chatting	-11.312
▁survival	-11.312
▁overtime	-11.312
▁stepdaughter	-11.312
▁scenery	-11.312
▁fluh	-11.312
▁attached	-11.3121
▁hallway	-11.3121
▁brownie	-11.3121
▁dismissed	-11.3121
▁flour	-11.3121
▁disobeyed	-11.3121
▁totem	-11.3121
▁midst	-11.3121
▁hightail	-11.3121
▁depress	-11.3121
▁compound	-11.3122
▁pastime	-11.3122
▁swolle	-11.3122
▁teeny	-11.3122
▁alab	-11.3122
▁practicin	-11.3122
▁stepping	-11.3122
▁executioner	-11.3122
▁clip	-11.3122
▁reaction	-11.3122
level	-11.3122
▁chute	-11.3122
▁noooo	-11.3123
▁mammy	-11.3123
▁grasping	-11.3123
▁mel	-11.3123
▁timid	-11.3123
▁muttering	-11.3123
▁colorful	-11.3123
zmo	-11.3123
▁toodle	-11.3123
▁improvise	-11.3123
▁purchase	-11.3123
▁stacked	-11.3123
▁myth	-11.3124
▁phony	-11.3124
▁galloping	-11.3124
▁regal	-11.3124
▁coachman	-11.3125
▁carries	-11.3125
▁racing	-11.3125
▁playmate	-11.3125
▁heartbreak	-11.3125
▁wimp	-11.3125
▁dignity	-11.3125
▁possess	-11.3126
▁fruition	-11.3126
▁sarge	-11.3126
▁devise	-11.3126
▁container	-11.3126
▁thrive	-11.3126
▁confuse	-11.3126
▁straightaway	-11.3127
▁twas	-11.3127
rizon	-11.3127
▁bombo	-11.3128
▁outdo	-11.3128
▁sundown	-11.3128
▁bulk	-11.3128
▁towel	-11.3128
▁bigg	-11.3128
ruly	-11.3128
▁herald	-11.3128
ldo	-11.3128
▁ballast	-11.3128
▁junkman	-11.3128
▁finance	-11.3128
▁roubles	-11.3128
▁cookies	-11.3129
▁lovat	-11.3129
▁difficulties	-11.313
▁fitting	-11.313
▁survey	-11.3131
▁pulse	-11.3131
▁railway	-11.3131
▁puffin	-11.3131
▁item	-11.3131
▁showoff	-11.3131
▁renny	-11.3131
▁buc	-11.3131
▁libra	-11.3132
▁scorn	-11.3132
▁barge	-11.3132
▁bayou	-11.3132
▁proce	-11.3132
▁barf	-11.3132
▁exploit	-11.3132
▁steven	-11.3132
▁proportioned	-11.3132
▁puttin	-11.3133
▁despised	-11.3133
▁lazy	-11.3134
▁tsk	-11.3134
▁woah	-11.3134
▁copper	-11.3134
▁gambling	-11.3134
▁armies	-11.3134
▁slim	-11.3135
▁whatre	-11.3135
▁crafty	-11.3135
▁crap	-11.3135
sturgeon	-11.3135
xic	-11.3135
▁communi	-11.3136
▁catfish	-11.3136
▁rufe	-11.3136
▁assemble	-11.3136
▁neva	-11.3136
▁vince	-11.3136
▁household	-11.3136
▁anti	-11.3136
▁wonderland	-11.3137
▁tucked	-11.3137
▁solicitor	-11.3138
▁idiotic	-11.3138
▁originally	-11.3138
▁development	-11.3139
▁hometown	-11.3139
▁flown	-11.3139
▁widower	-11.3139
▁shiver	-11.314
▁abyss	-11.314
▁poking	-11.314
▁eddy	-11.3141
▁bunker	-11.3142
▁warmth	-11.3142
▁lizzy	-11.3143
▁whiskers	-11.3143
▁cherish	-11.3143
▁candles	-11.3143
▁columns	-11.3143
▁bubububu	-11.3143
▁moses	-11.3143
▁armor	-11.3144
▁provisions	-11.3144
▁pilgrims	-11.3144
▁propellers	-11.3144
▁appliances	-11.3144
▁glitterbots	-11.3144
▁shooin	-11.3144
▁fiends	-11.3144
▁convictions	-11.3144
▁horseback	-11.3145
▁greetings	-11.3145
▁rattles	-11.3145
shire	-11.3146
foot	-11.3146
mped	-11.3147
▁measurement	-11.3147
▁scull	-11.3147
▁bloke	-11.3148
▁strik	-11.3148
▁herbs	-11.3148
elope	-11.3149
▁robbers	-11.315
▁hoho	-11.315
▁pointless	-11.315
uine	-11.3151
▁hopelessly	-11.3152
▁skies	-11.3152
▁astern	-11.3152
▁required	-11.3153
▁ketch	-11.3153
▁entertained	-11.3153
ershoot	-11.3153
▁volcan	-11.3153
▁sept	-11.3154
▁reconn	-11.3154
▁muck	-11.3155
▁interrupted	-11.3155
▁fond	-11.3156
▁anon	-11.3156
▁rejoice	-11.3156
▁endured	-11.3157
▁increased	-11.3157
▁damp	-11.3158
▁groom	-11.3158
▁threatened	-11.3158
▁surpass	-11.3158
▁lef	-11.3159
▁wealthy	-11.3159
▁bravery	-11.3159
▁ridin	-11.3159
▁yea	-11.3159
▁oaks	-11.316
izza	-11.3161
▁volcanoes	-11.3161
▁dough	-11.3161
▁runnin	-11.3163
▁faintly	-11.3163
▁miller	-11.3164
▁missile	-11.3164
skirt	-11.3165
▁entertaining	-11.3167
▁urged	-11.3167
▁silently	-11.3167
▁prop	-11.3168
▁travelers	-11.3169
▁objection	-11.317
▁scouts	-11.317
▁veter	-11.317
▁shroud	-11.3171
▁followup	-11.3171
▁frequency	-11.3171
▁departed	-11.3172
▁crawling	-11.3172
▁cursed	-11.3173
▁literally	-11.3173
▁perjur	-11.3173
▁aero	-11.3174
▁percent	-11.3174
▁bakery	-11.3175
▁loaf	-11.3175
▁convert	-11.3175
▁creator	-11.3177
▁birdbrain	-11.3178
▁blender	-11.3179
▁imply	-11.318
▁woooow	-11.3181
▁haste	-11.3181
▁elm	-11.3181
▁soloed	-11.3181
▁soda	-11.3181
erick	-11.3182
▁baking	-11.3182
▁believing	-11.3183
▁whore	-11.3183
▁craft	-11.3184
nking	-11.3185
▁stamp	-11.3186
▁focus	-11.3187
▁comb	-11.3188
▁petitioner	-11.319
▁distract	-11.319
▁grande	-11.3192
▁bickering	-11.3192
▁pretending	-11.3192
▁harvesting	-11.3192
▁controller	-11.3193
▁zag	-11.3193
▁fliers	-11.3193
▁eddie	-11.3194
▁poem	-11.3194
▁mammals	-11.3194
▁screw	-11.3194
▁buns	-11.3195
▁grownups	-11.3195
▁farther	-11.3195
▁gaze	-11.3195
▁riff	-11.3195
▁pods	-11.3195
▁carla	-11.3195
▁teenagers	-11.3195
▁attempted	-11.3196
▁maneuvers	-11.3198
▁refreshing	-11.32
▁troopers	-11.3201
▁boob	-11.3201
▁foundation	-11.3201
ects	-11.3202
▁sober	-11.3202
▁dashed	-11.3202
▁squires	-11.3203
su	-11.3203
▁amazed	-11.3204
pping	-11.3206
▁charmed	-11.3207
cine	-11.3207
▁suis	-11.3209
▁kilo	-11.321
▁punched	-11.3216
▁exp	-11.3218
▁stamps	-11.3219
▁worms	-11.3219
▁flags	-11.322
▁hooks	-11.3222
▁acres	-11.3223
▁southeast	-11.3223
▁sewer	-11.3225
▁practicing	-11.3226
▁hardship	-11.3226
▁wuh	-11.323
▁wags	-11.3233
▁stagg	-11.3233
▁rash	-11.3233
▁regularly	-11.3234
▁sac	-11.3234
▁blocked	-11.3235
▁sneezes	-11.3237
▁conform	-11.3239
▁torpedoes	-11.3241
▁catchin	-11.3241
▁fortunately	-11.3242
▁inkling	-11.3243
▁chos	-11.3243
▁revel	-11.3243
▁donkeys	-11.3244
▁champions	-11.3244
▁boredom	-11.3244
▁muscles	-11.3245
▁elements	-11.3245
▁rebs	-11.3246
▁companions	-11.3246
▁zuckermans	-11.3246
▁repuls	-11.3247
crete	-11.325
▁creeps	-11.3251
sufficient	-11.3251
▁mitt	-11.3252
▁plank	-11.3253
▁option	-11.3254
▁typesett	-11.3255
▁cycle	-11.3255
▁eatable	-11.3256
▁iii	-11.3257
▁lampy	-11.3259
▁campus	-11.3259
ike	-11.3265
▁cowell	-11.3266
▁ilk	-11.3267
▁factors	-11.3268
▁germany	-11.3271
udent	-11.3271
▁owned	-11.3273
▁unsh	-11.3275
▁lit	-11.3278
▁ani	-11.3279
▁mules	-11.3279
urgeo	-11.3282
▁grandmas	-11.3283
gestion	-11.3284
▁roam	-11.3288
▁betraying	-11.3288
▁oink	-11.3292
▁rivals	-11.3293
▁fishin	-11.3293
nel	-11.3294
▁villains	-11.3294
▁reminded	-11.3296
▁blades	-11.3296
▁recruits	-11.3299
▁rockets	-11.3299
▁mushrooms	-11.3299
▁hire	-11.3299
▁suggestions	-11.33
▁associates	-11.3301
▁mixed	-11.3302
aye	-11.3303
▁conce	-11.3306
▁collecting	-11.3307
▁movements	-11.3307
▁heights	-11.331
▁tightly	-11.3313
▁draft	-11.3314
▁floats	-11.3315
▁shooter	-11.3315
ging	-11.3317
▁thine	-11.332
fusion	-11.3321
▁naked	-11.3322
ompbomp	-11.3324
▁aspect	-11.3324
▁of	-11.3324
▁viper	-11.3325
▁poop	-11.3326
cation	-11.3326
▁dreamers	-11.3327
▁unload	-11.3329
▁trib	-11.3332
▁gl	-11.3332
▁disappeared	-11.3334
▁tele	-11.3335
▁planted	-11.3337
▁honesty	-11.3338
▁dragon	-11.3341
▁ox	-11.3343
▁beliefs	-11.3344
▁savor	-11.3345
▁willows	-11.3349
▁calve	-11.3349
mber	-11.3349
▁lind	-11.3351
▁your	-11.3352
▁tricky	-11.3354
▁declares	-11.3354
▁switching	-11.3361
▁cock	-11.3362
ooooh	-11.3364
rica	-11.3366
▁macke	-11.3369
ilities	-11.3371
tua	-11.3372
▁stabbe	-11.3372
duran	-11.3377
▁pecks	-11.3378
▁stinks	-11.3383
▁seated	-11.3383
▁vig	-11.3384
▁packing	-11.3385
▁dolls	-11.3386
▁amig	-11.3388
▁deer	-11.3388
▁realise	-11.339
▁decisive	-11.3391
▁visions	-11.3394
▁import	-11.3395
icent	-11.3397
▁snapp	-11.3397
▁beep	-11.3397
ium	-11.3397
▁chin	-11.3399
▁yike	-11.3402
▁instructions	-11.3404
▁cand	-11.3405
▁convicts	-11.3405
▁occasions	-11.3407
enchanted	-11.3411
▁activit	-11.3416
▁seaman	-11.3416
▁disinterest	-11.3416
pe	-11.3417
mal	-11.3422
▁mistaken	-11.3422
▁lumps	-11.3424
▁mein	-11.3424
▁horri	-11.3426
lous	-11.3427
▁smaller	-11.3427
vail	-11.3428
▁oblige	-11.3429
▁shortly	-11.3433
▁shit	-11.3436
▁scan	-11.3436
▁spose	-11.3437
▁flock	-11.3449
nie	-11.3453
▁spreading	-11.3454
▁medals	-11.3455
▁dots	-11.3455
▁carnivals	-11.3456
▁characters	-11.3457
eat	-11.3457
iddy	-11.3459
▁deserted	-11.3461
▁continued	-11.3461
cks	-11.3466
▁retire	-11.3469
▁bububu	-11.347
weed	-11.3475
rb	-11.3475
▁shared	-11.3482
▁praying	-11.3483
▁bothered	-11.3483
▁recorded	-11.3484
solate	-11.3489
iously	-11.349
▁masks	-11.3492
▁sak	-11.3493
▁tubes	-11.35
▁brie	-11.3502
▁barrels	-11.3505
octo	-11.3506
▁wooooah	-11.3508
▁costs	-11.3509
▁swi	-11.351
▁jud	-11.351
▁grim	-11.351
▁boomer	-11.3514
gara	-11.3516
▁dances	-11.3518
▁ji	-11.3521
▁zion	-11.3523
▁sparkl	-11.3524
god	-11.3539
▁confine	-11.354
tou	-11.3542
▁finishing	-11.3543
▁rolled	-11.3546
oxy	-11.3547
dure	-11.3549
▁corrupt	-11.3549
▁submi	-11.3551
aster	-11.3552
▁snakes	-11.3559
matsu	-11.356
▁mischie	-11.3562
▁ci	-11.3563
▁mab	-11.3563
heads	-11.3564
▁limits	-11.3567
zepp	-11.3568
▁forming	-11.3569
▁slee	-11.3573
▁plates	-11.3576
▁bloat	-11.3577
▁knob	-11.3589
▁tweed	-11.3598
▁fright	-11.3598
▁stripe	-11.3601
com	-11.3602
ating	-11.3608
▁voyages	-11.3614
entry	-11.3622
▁harmoni	-11.3624
▁pranc	-11.3625
gills	-11.3627
ooby	-11.3634
lubber	-11.3634
▁vern	-11.3635
▁rug	-11.3636
iiii	-11.3641
▁mold	-11.3641
▁spill	-11.3649
▁lightly	-11.3649
▁ira	-11.3655
▁engineers	-11.3657
vous	-11.3664
▁files	-11.3666
kor	-11.3667
▁obstacles	-11.3667
▁foul	-11.3674
▁callin	-11.3682
▁divin	-11.3688
▁spits	-11.3692
▁loan	-11.3703
▁medicin	-11.3709
▁stan	-11.371
▁mild	-11.3711
▁slippers	-11.3726
actual	-11.3728
▁receiv	-11.373
▁rust	-11.3735
▁odds	-11.3742
▁beautifully	-11.3745
▁shal	-11.3748
▁harpe	-11.3748
▁ult	-11.3753
yama	-11.3765
▁targets	-11.377
abilities	-11.3775
▁jer	-11.3778
igning	-11.3779
ob	-11.3781
▁lance	-11.3791
▁contribute	-11.3793
vive	-11.3802
▁belts	-11.3804
▁braz	-11.3804
napped	-11.3805
▁voca	-11.3809
▁tai	-11.3823
▁roy	-11.3828
▁cain	-11.3828
cast	-11.3828
▁ver	-11.3831
▁shaft	-11.3832
▁protecting	-11.3834
los	-11.3837
▁cops	-11.3839
▁missin	-11.3849
hopping	-11.3849
hu	-11.3851
▁graves	-11.3858
▁qualit	-11.386
▁er	-11.3874
ious	-11.3886
ki	-11.3889
▁ei	-11.3896
aski	-11.3896
▁lust	-11.39
▁econom	-11.3909
wield	-11.3919
ipped	-11.3922
zi	-11.3926
▁resid	-11.3928
▁clink	-11.3929
▁blankets	-11.3931
ba	-11.3934
▁caus	-11.3934
▁plot	-11.3935
▁critic	-11.3936
mes	-11.394
▁replies	-11.3948
▁closes	-11.395
▁slam	-11.3954
cer	-11.3955
▁spine	-11.3956
▁lily	-11.3957
▁fac	-11.3963
▁jon	-11.3973
ounds	-11.3979
▁weeee	-11.3982
▁pockets	-11.3983
obi	-11.3989
▁buildings	-11.3994
▁tests	-11.4001
▁stones	-11.4001
▁weed	-11.4003
▁schooling	-11.4007
ini	-11.402
▁rag	-11.4024
crowded	-11.4025
▁discour	-11.4035
wart	-11.4039
▁satisf	-11.4054
▁blo	-11.4055
▁crumb	-11.4064
▁trimm	-11.4065
▁ju	-11.407
▁lime	-11.4072
▁twinkl	-11.4072
nroll	-11.4088
▁diamonds	-11.4089
▁borne	-11.409
hay	-11.4092
kask	-11.4099
straining	-11.4106
ception	-11.4123
▁origin	-11.4126
suit	-11.4126
▁cart	-11.4132
ire	-11.4134
kins	-11.4135
▁sails	-11.414
ten	-11.4141
▁drawer	-11.4145
gh	-11.415
put	-11.4153
citation	-11.4159
▁sneeze	-11.416
▁lands	-11.4163
ization	-11.4163
▁bees	-11.4165
ssen	-11.4167
igs	-11.4168
pa	-11.4171
are	-11.4174
▁ducks	-11.4177
six	-11.4192
▁cla	-11.4196
gu	-11.4201
ig	-11.4208
▁ugli	-11.4211
bles	-11.4213
▁poke	-11.4218
ci	-11.422
▁sne	-11.4225
wed	-11.423
face	-11.423
padre	-11.4232
▁helps	-11.4237
▁dominan	-11.4239
ummy	-11.4242
pril	-11.4248
▁hump	-11.425
eneva	-11.4253
▁areas	-11.4254
▁ref	-11.4256
▁fooling	-11.4262
lutter	-11.4268
▁aggr	-11.4269
▁tun	-11.4271
rich	-11.4275
▁strip	-11.4275
▁referr	-11.4275
fa	-11.4286
▁forester	-11.4303
▁tee	-11.4306
loom	-11.4316
▁omen	-11.4317
j	-11.432
▁rim	-11.4322
▁needing	-11.4333
ticking	-11.4346
▁struggle	-11.435
why	-11.4356
▁directions	-11.4357
alian	-11.4359
itch	-11.4361
born	-11.4364
▁admir	-11.4372
▁elses	-11.4372
▁singers	-11.438
▁blong	-11.4383
▁virtual	-11.4404
▁holder	-11.4407
ibles	-11.442
even	-11.4425
▁accepts	-11.4425
▁intrigue	-11.4431
▁approve	-11.4435
▁infra	-11.4439
▁epi	-11.444
▁alli	-11.4443
pt	-11.4445
icken	-11.4475
▁danced	-11.4481
▁pains	-11.4491
▁riddle	-11.4494
anic	-11.45
▁patron	-11.4511
▁miracles	-11.4513
▁destroyer	-11.4513
▁moron	-11.453
▁sauc	-11.4532
oked	-11.4544
▁fires	-11.4546
▁lug	-11.4547
▁bets	-11.4549
vent	-11.4553
ushi	-11.4557
ments	-11.4584
productive	-11.4585
▁wi	-11.4592
▁picke	-11.4597
▁che	-11.4611
mble	-11.4617
randy	-11.4636
▁overlap	-11.4646
▁som	-11.4647
ps	-11.4666
▁scamp	-11.4672
▁gua	-11.4674
▁colli	-11.4676
bag	-11.4676
▁inspire	-11.4679
▁loo	-11.4688
▁rena	-11.4691
▁phones	-11.4691
▁toys	-11.4694
▁shakes	-11.4707
chik	-11.4716
▁chiefs	-11.4719
▁maps	-11.4723
▁tha	-11.4725
▁differences	-11.4729
ario	-11.4732
▁shi	-11.4742
aying	-11.4743
▁visits	-11.4743
▁flips	-11.4754
▁dab	-11.4757
▁shatter	-11.4759
▁rous	-11.4769
▁goal	-11.4784
all	-11.4784
▁cent	-11.4786
uttering	-11.4787
▁concept	-11.4798
▁my	-11.48
▁claw	-11.4809
▁gall	-11.4815
▁trot	-11.4815
▁oppos	-11.4818
▁misses	-11.4824
▁sights	-11.4834
dh	-11.4854
ssy	-11.4858
▁cro	-11.4876
▁pleasures	-11.4884
ls	-11.4884
crackers	-11.4895
▁www	-11.4904
▁ser	-11.4907
au	-11.4907
▁steals	-11.4912
▁grinn	-11.4913
opping	-11.4924
▁mus	-11.4927
oooow	-11.4927
controll	-11.4929
cee	-11.493
▁har	-11.4935
▁tac	-11.4936
shoot	-11.4942
▁nursin	-11.4956
hyster	-11.4957
set	-11.4958
▁prof	-11.4961
▁blaze	-11.4964
▁graduate	-11.4977
di	-11.498
reservation	-11.4991
▁bour	-11.501
▁fanci	-11.5015
ru	-11.502
▁handed	-11.5042
rging	-11.5045
▁raisin	-11.505
taka	-11.5059
▁escapes	-11.506
▁rab	-11.5069
ys	-11.5074
▁escala	-11.5077
ates	-11.5081
rose	-11.5096
ident	-11.5098
ved	-11.5107
thing	-11.5109
▁hon	-11.5114
mmine	-11.5114
ested	-11.5119
if	-11.5143
▁accus	-11.5144
oni	-11.5145
tonic	-11.5152
sighted	-11.5152
rfeit	-11.5162
▁explore	-11.5168
▁poles	-11.5178
▁cal	-11.5179
cken	-11.5179
▁author	-11.5203
ited	-11.5217
▁wears	-11.5224
mi	-11.5242
▁perch	-11.5242
nch	-11.5243
inted	-11.5248
▁murders	-11.5253
ades	-11.5258
▁salts	-11.5262
▁bake	-11.5264
▁bas	-11.5288
ji	-11.5292
ab	-11.5292
▁studie	-11.5294
▁irre	-11.5328
dor	-11.533
▁layer	-11.5331
▁uni	-11.5331
▁awar	-11.5339
▁dedicat	-11.5343
▁organis	-11.5354
ppines	-11.5356
rid	-11.5363
ef	-11.5365
▁yay	-11.5366
▁ruf	-11.5369
ures	-11.5373
▁whites	-11.538
ever	-11.5387
▁thump	-11.5391
ember	-11.5394
▁them	-11.5404
rating	-11.5428
▁mari	-11.5435
▁snare	-11.5452
▁chil	-11.5457
▁busi	-11.5467
raging	-11.5478
come	-11.5488
ong	-11.5493
limp	-11.5499
▁trop	-11.55
▁shadows	-11.5507
shi	-11.5527
tz	-11.5528
▁joint	-11.5538
▁haaa	-11.5543
far	-11.5545
▁teache	-11.5554
ven	-11.5555
▁avail	-11.5577
▁cav	-11.5586
essel	-11.5593
▁lest	-11.5601
shes	-11.561
ddy	-11.5616
hair	-11.5617
awa	-11.5621
▁overtur	-11.5626
▁rains	-11.5631
rt	-11.5635
▁lea	-11.5645
rita	-11.5654
▁chok	-11.5672
oka	-11.5698
ez	-11.5706
niner	-11.5711
▁mend	-11.5714
▁demi	-11.5715
▁cockadoodledo	-11.5719
▁obstruct	-11.5726
rated	-11.5727
ified	-11.5729
▁infect	-11.5741
▁an	-11.5747
▁generat	-11.5757
▁mas	-11.5763
▁writes	-11.5784
ations	-11.5784
igan	-11.579
▁schools	-11.58
▁acts	-11.5801
▁demonstrat	-11.5815
irring	-11.5834
▁site	-11.5861
ext	-11.5869
▁hence	-11.587
▁mare	-11.5884
▁foots	-11.5896
ole	-11.5902
▁ado	-11.5912
▁exhibit	-11.5912
▁tick	-11.5943
▁dropp	-11.5968
nando	-11.5971
▁sav	-11.5989
wind	-11.5996
▁lop	-11.6004
▁points	-11.6004
▁derb	-11.6024
signed	-11.6025
▁mast	-11.6055
▁ages	-11.6071
ice	-11.6073
▁bria	-11.6074
prints	-11.6078
▁lasted	-11.6086
wee	-11.6088
cake	-11.6116
bble	-11.6118
▁wah	-11.6165
ology	-11.6171
▁steep	-11.6186
nnies	-11.6188
mit	-11.6189
▁et	-11.6197
car	-11.6202
▁wes	-11.6204
ahhh	-11.6221
dios	-11.6229
▁bestow	-11.6229
locked	-11.6233
ets	-11.6241
▁settl	-11.6246
▁shorts	-11.6259
ad	-11.6292
▁rese	-11.6303
▁gam	-11.6308
vel	-11.6321
▁shots	-11.6327
its	-11.6329
▁thad	-11.6345
onta	-11.6351
▁strangl	-11.637
res	-11.6397
ora	-11.6401
▁fli	-11.6424
ible	-11.643
ists	-11.6439
bell	-11.6441
▁lov	-11.6448
▁neat	-11.6461
▁balls	-11.6475
ming	-11.6475
▁crab	-11.6507
ries	-11.6518
▁explod	-11.6519
sed	-11.6533
▁spr	-11.6536
sta	-11.6536
ssel	-11.6543
uz	-11.6548
▁luna	-11.6551
els	-11.6553
▁pays	-11.6558
raction	-11.6561
▁heroic	-11.6562
▁itch	-11.6573
active	-11.6574
wer	-11.6574
▁sar	-11.6585
▁pigg	-11.6587
tian	-11.6587
▁sweep	-11.6594
▁clo	-11.6595
hed	-11.6607
duction	-11.6662
▁bur	-11.6664
rov	-11.667
nev	-11.6694
imulate	-11.67
dl	-11.6708
lets	-11.6709
▁trusts	-11.6714
▁mona	-11.6719
▁bla	-11.672
▁helen	-11.6721
▁nee	-11.6737
▁cur	-11.6761
▁riddl	-11.6766
▁recorder	-11.6774
eans	-11.6784
oodle	-11.6789
▁colonels	-11.6796
die	-11.6801
▁wedde	-11.6804
▁ce	-11.6809
iness	-11.6814
tty	-11.6821
iches	-11.6859
▁cinderellas	-11.6864
▁combin	-11.6881
tified	-11.6883
▁z	-11.6888
▁gem	-11.6891
▁spa	-11.6895
nation	-11.6897
▁cond	-11.6904
olar	-11.6909
▁accu	-11.6915
ral	-11.6917
▁pris	-11.6919
numbered	-11.6925
ended	-11.6929
▁replie	-11.6937
lassie	-11.6941
▁measur	-11.6946
oooo	-11.6954
end	-11.6958
ged	-11.6965
ks	-11.6972
ility	-11.6988
uddle	-11.7001
ama	-11.7002
wler	-11.7003
ybody	-11.7013
▁whi	-11.7038
▁finelookin	-11.7041
cked	-11.708
ood	-11.7124
▁relate	-11.7139
wait	-11.7141
▁fad	-11.7143
▁saves	-11.7148
▁snatche	-11.7163
pot	-11.7173
pen	-11.7173
tta	-11.7182
take	-11.719
▁harv	-11.7199
arable	-11.7209
▁fer	-11.7211
tin	-11.7214
▁tim	-11.7218
pers	-11.7226
aw	-11.7231
▁ku	-11.7246
po	-11.7249
▁digit	-11.725
marily	-11.7263
▁paste	-11.727
▁eject	-11.7281
hat	-11.7282
▁del	-11.7293
insula	-11.7294
uri	-11.7298
▁straighten	-11.7301
▁occur	-11.7301
▁lin	-11.7306
▁tire	-11.7318
ney	-11.7321
▁trac	-11.7323
tial	-11.7329
▁typ	-11.733
▁anyones	-11.7346
alling	-11.7355
nous	-11.7369
▁clap	-11.737
meters	-11.7375
▁complet	-11.7378
aft	-11.7391
▁sup	-11.7398
two	-11.7409
▁desir	-11.7412
▁killer	-11.7414
marty	-11.7416
ol	-11.7418
hh	-11.7424
azing	-11.7427
▁revi	-11.7427
anna	-11.7434
tang	-11.7434
gging	-11.7443
olly	-11.745
alia	-11.7451
ound	-11.7465
ima	-11.7467
▁choos	-11.7473
tro	-11.7483
illion	-11.7497
phoni	-11.7503
▁micro	-11.7503
▁skip	-11.7507
pair	-11.7514
▁ko	-11.752
keeper	-11.7536
▁oblig	-11.7537
▁produc	-11.7554
▁advanc	-11.7562
call	-11.7567
wood	-11.7569
ister	-11.7571
▁exception	-11.7579
▁oct	-11.7582
▁scot	-11.7585
horse	-11.7592
▁you	-11.7593
cane	-11.7593
open	-11.7598
▁nit	-11.7601
▁slot	-11.7612
▁prosper	-11.7614
nez	-11.7616
▁maze	-11.7617
▁dim	-11.7623
kind	-11.7623
vation	-11.7628
▁arrang	-11.7633
▁amid	-11.7641
aded	-11.7641
west	-11.7642
scar	-11.7649
hello	-11.7655
▁wins	-11.7656
tation	-11.7658
beautiful	-11.7674
▁cran	-11.7679
▁vine	-11.7683
▁bushe	-11.7687
ute	-11.7688
▁tink	-11.7696
▁peer	-11.7706
mile	-11.7727
kers	-11.7729
oc	-11.7734
plane	-11.7742
▁grip	-11.7755
constant	-11.7758
plain	-11.7758
ferred	-11.7759
oot	-11.7759
▁spo	-11.776
▁refer	-11.7769
eeeee	-11.7777
ori	-11.7781
feet	-11.7787
shaft	-11.7794
form	-11.7795
talking	-11.7795
four	-11.7796
hoohoohoo	-11.7796
moor	-11.78
▁exam	-11.7803
▁wewe	-11.7805
oming	-11.7805
▁squa	-11.7805
boat	-11.7813
draft	-11.7818
bridge	-11.7818
filled	-11.782
rope	-11.7823
jump	-11.7824
ooge	-11.7826
mulate	-11.7827
hour	-11.7831
damn	-11.7834
green	-11.7834
▁parachut	-11.7836
pad	-11.7848
▁vip	-11.785
pose	-11.7851
bottom	-11.7851
whip	-11.7853
▁dime	-11.7853
▁how	-11.7854
making	-11.7855
glasses	-11.7855
movie	-11.7857
class	-11.7858
engine	-11.7858
evil	-11.7858
▁tre	-11.7862
breath	-11.7865
bob	-11.7867
historic	-11.7868
iary	-11.787
▁requi	-11.7871
▁slope	-11.7876
albert	-11.7883
consider	-11.7886
slide	-11.7887
▁watt	-11.7887
informed	-11.7887
noticed	-11.7888
satisfied	-11.7888
penny	-11.7889
strong	-11.7892
▁unh	-11.7892
space	-11.7892
tooth	-11.7893
beat	-11.7893
lovin	-11.7894
cage	-11.7895
apple	-11.7896
ador	-11.7898
pack	-11.79
▁prote	-11.79
double	-11.7901
oatskin	-11.7901
justice	-11.7902
talkin	-11.7904
master	-11.7907
coast	-11.7907
working	-11.7908
burn	-11.7908
box	-11.7909
self	-11.7912
ison	-11.7914
lust	-11.7915
throats	-11.7917
pool	-11.7918
wide	-11.7919
front	-11.7921
maid	-11.7927
▁bustin	-11.7928
church	-11.793
▁mont	-11.7932
tful	-11.7933
hound	-11.7934
anc	-11.7936
integrat	-11.7936
▁maneuver	-11.7937
adventure	-11.7937
driver	-11.794
▁explosives	-11.7941
for	-11.7942
berry	-11.7943
▁product	-11.7943
▁whir	-11.7946
rode	-11.7948
hill	-11.7951
storm	-11.7953
suspect	-11.7955
kok	-11.7955
antic	-11.7958
▁emb	-11.7958
▁demon	-11.7959
▁char	-11.796
▁scor	-11.7961
charge	-11.7962
▁ind	-11.797
▁beethoven	-11.7971
▁cymbal	-11.7971
▁leopard	-11.7971
screen	-11.7972
▁doorstep	-11.7973
▁expense	-11.7974
▁banner	-11.7975
▁refreshment	-11.7975
▁outdoor	-11.7979
▁invi	-11.7981
table	-11.7981
defeated	-11.7982
▁mammal	-11.7984
▁persua	-11.7988
▁result	-11.7989
▁wrap	-11.799
▁flint	-11.799
▁amarylli	-11.7991
▁panzer	-11.7992
▁earl	-11.7992
▁marble	-11.7992
▁brig	-11.7993
▁waterfall	-11.7993
boys	-11.7994
▁ancestor	-11.7994
▁helamite	-11.7995
▁canine	-11.7995
▁burp	-11.7995
known	-11.7996
field	-11.7997
▁puppet	-11.7997
▁heathen	-11.7998
▁grownup	-11.7998
▁shilling	-11.7998
▁teenager	-11.7999
▁mineral	-11.7999
owned	-11.8
minded	-11.8002
vin	-11.8002
▁petition	-11.8003
▁prophet	-11.8005
lov	-11.8008
▁chop	-11.8012
▁yawn	-11.8019
▁trooper	-11.802
▁flier	-11.8022
plus	-11.8023
living	-11.8025
hail	-11.8026
woods	-11.803
ately	-11.8032
hela	-11.8036
▁whisper	-11.8038
ffe	-11.8039
▁conscious	-11.804
syca	-11.8046
but	-11.8046
▁appro	-11.8049
▁squire	-11.8049
▁allie	-11.8051
tel	-11.8055
yyyy	-11.8055
▁decei	-11.8056
▁bragg	-11.8056
▁secre	-11.8057
▁follows	-11.8059
▁agent	-11.8065
▁folk	-11.8065
▁cruis	-11.8068
uma	-11.8072
▁ahhhhh	-11.8073
▁escap	-11.8075
▁excite	-11.8078
▁display	-11.8079
▁dispers	-11.808
▁sacrifice	-11.808
▁cripple	-11.808
▁scalp	-11.808
▁locate	-11.8082
▁incorporate	-11.8082
▁confirm	-11.8083
▁appoint	-11.8083
▁neglect	-11.8083
▁anchor	-11.8084
▁involve	-11.8086
▁knee	-11.8089
▁despise	-11.8089
▁chic	-11.8089
▁effect	-11.809
▁magnificen	-11.8091
▁innocen	-11.8091
▁aqu	-11.8092
▁scout	-11.8093
sounding	-11.8093
▁ordinar	-11.8093
▁villa	-11.8094
▁analy	-11.8096
▁expos	-11.8097
▁teenage	-11.8097
▁filth	-11.8097
year	-11.8098
▁proportion	-11.8098
▁numb	-11.81
▁refu	-11.81
kids	-11.8102
▁determine	-11.8102
▁undoubted	-11.8102
▁extreme	-11.8102
▁apparent	-11.8102
ptions	-11.8103
hes	-11.8104
▁tuck	-11.8104
▁execution	-11.8105
▁brrrrr	-11.8105
imerakazam	-11.8108
▁mmhm	-11.8109
pani	-11.8109
▁blend	-11.8109
▁yeeha	-11.8111
▁inspect	-11.8111
▁heeya	-11.8112
corporate	-11.8112
▁investigat	-11.8112
nscription	-11.8112
nounce	-11.8112
▁favour	-11.8113
cessor	-11.8113
valry	-11.8114
▁reinforce	-11.8114
populat	-11.8114
▁multipl	-11.8114
▁accelerati	-11.8114
▁apprehen	-11.8114
▁cockroach	-11.8114
▁democra	-11.8114
▁dillydally	-11.8114
▁exhilarat	-11.8114
▁meshug	-11.8114
▁monolith	-11.8114
▁schwarz	-11.8114
▁technolog	-11.8114
advertently	-11.8114
andahalf	-11.8114
convenience	-11.8114
pajapshaza	-11.8114
▁aboveaverage	-11.8114
▁abrupt	-11.8114
▁absurd	-11.8114
▁acrobat	-11.8114
▁adjourned	-11.8114
▁adulterous	-11.8114
▁advisor	-11.8114
▁akagi	-11.8114
▁amelia	-11.8114
▁aranea	-11.8114
▁archeologist	-11.8114
▁assassinati	-11.8114
▁astaroth	-11.8114
▁authentic	-11.8114
▁avenge	-11.8114
▁awkward	-11.8114
▁azaleas	-11.8114
▁banjo	-11.8114
▁barbershop	-11.8114
▁barricade	-11.8114
▁battlewagons	-11.8114
▁bbbbb	-11.8114
▁beguiling	-11.8114
▁benevolent	-11.8114
▁blarney	-11.8114
▁blossom	-11.8114
▁brotherinlaw	-11.8114
▁burglar	-11.8114
▁buttermilk	-11.8114
▁cheetah	-11.8114
▁chimpanzee	-11.8114
▁competitor	-11.8114
▁complication	-11.8114
▁concierge	-11.8114
▁coordinates	-11.8114
▁corresponden	-11.8114
▁courtmartial	-11.8114
▁cultivat	-11.8114
▁cushions	-11.8114
▁cyanide	-11.8114
▁debris	-11.8114
▁delgado	-11.8114
▁demolition	-11.8114
▁dubois	-11.8114
▁dwarf	-11.8114
▁eavesdrop	-11.8114
▁embassies	-11.8114
▁enchilada	-11.8114
▁enraptured	-11.8114
▁enterprise	-11.8114
▁envelope	-11.8114
▁faretheewell	-11.8114
▁fencing	-11.8114
▁fertilizer	-11.8114
▁flimflam	-11.8114
▁francois	-11.8114
▁frisbee	-11.8114
▁furniture	-11.8114
▁gibberish	-11.8114
▁glinka	-11.8114
▁grizzly	-11.8114
▁guatemala	-11.8114
▁hallelujah	-11.8114
▁handkerchief	-11.8114
▁headmistress	-11.8114
▁herpolsheimers	-11.8114
▁idolatry	-11.8114
▁immaterial	-11.8114
▁impartial	-11.8114
▁indefinitely	-11.8114
▁independence	-11.8114
▁independent	-11.8114
▁individuals	-11.8114
▁intellectual	-11.8114
▁interpol	-11.8114
▁intimidate	-11.8114
▁invincible	-11.8114
▁isaac	-11.8114
▁istanbul	-11.8114
▁jettison	-11.8114
▁kaminsky	-11.8114
▁kekchi	-11.8114
▁kohler	-11.8114
▁kudoyama	-11.8114
▁ladiesinwaiting	-11.8114
▁lalala	-11.8114
▁lasagna	-11.8114
▁latitude	-11.8114
▁lecture	-11.8114
▁legitimate	-11.8114
▁linguist	-11.8114
▁lllinois	-11.8114
▁lumberyard	-11.8114
▁mclntosh	-11.8114
▁mercenaries	-11.8114
▁mercury	-11.8114
▁misfortune	-11.8114
▁mislaid	-11.8114
▁misslethwaite	-11.8114
▁newsflash	-11.8114
▁obliterate	-11.8114
▁oldfashioned	-11.8114
▁ooeeooahah	-11.8114
▁orangutan	-11.8114
▁ostrovsky	-11.8114
▁overconfident	-11.8114
▁overflows	-11.8114
▁overwhelm	-11.8114
▁pantaloni	-11.8114
▁pantaloons	-11.8114
▁peddler	-11.8114
▁pencil	-11.8114
▁perfume	-11.8114
▁permanency	-11.8114
▁petunia	-11.8114
▁phenomenal	-11.8114
▁philadelphia	-11.8114
▁pontoon	-11.8114
▁porcupine	-11.8114
▁portugal	-11.8114
▁postcard	-11.8114
▁premium	-11.8114
▁prerogative	-11.8114
▁pseudopod	-11.8114
▁pterodid	-11.8114
▁quadruped	-11.8114
▁receipt	-11.8114
▁recipe	-11.8114
▁reykjavik	-11.8114
▁ripples	-11.8114
▁rundstedt	-11.8114
▁samaritan	-11.8114
▁saxophone	-11.8114
▁sevenleague	-11.8114
▁shapiro	-11.8114
▁shipwreck	-11.8114
▁shrift	-11.8114
▁sisterinlaw	-11.8114
▁skirmish	-11.8114
▁sosuke	-11.8114
▁sulpitius	-11.8114
▁superintendent	-11.8114
▁symphony	-11.8114
▁synagogues	-11.8114
▁syndicate	-11.8114
▁tajima	-11.8114
▁thunderclap	-11.8114
▁troubie	-11.8114
▁ultimatum	-11.8114
▁uncomfortable	-11.8114
▁underestimate	-11.8114
▁unpopular	-11.8114
▁unpredictable	-11.8114
▁vicinity	-11.8114
▁vicious	-11.8114
▁violation	-11.8114
▁vixen	-11.8114
▁vodka	-11.8114
▁voulezvous	-11.8114
▁walkietalkie	-11.8114
▁wampum	-11.8114
▁watanabe	-11.8114
▁wexmire	-11.8114
▁willerstein	-11.8114
▁wristwatch	-11.8114
▁agricultur	-11.8114
▁beseech	-11.8114
▁blindfold	-11.8114
▁cedric	-11.8114
▁certificate	-11.8114
▁concoct	-11.8114
▁dewdrop	-11.8114
▁dictate	-11.8114
▁dimension	-11.8114
▁ecofriendly	-11.8114
▁education	-11.8114
▁endeavor	-11.8114
▁ethiop	-11.8114
▁formidable	-11.8114
▁gasoline	-11.8114
▁generosity	-11.8114
▁guppy	-11.8114
▁laurence	-11.8114
▁mechanism	-11.8114
▁michael	-11.8114
▁moisture	-11.8114
▁mortimer	-11.8114
▁neighbour	-11.8114
▁premier	-11.8114
▁redfern	-11.8114
▁revitalize	-11.8114
▁satsuma	-11.8114
▁scrambled	-11.8114
▁taranto	-11.8114
▁temperament	-11.8114
▁tennessee	-11.8114
▁terminal	-11.8114
▁uberta	-11.8114
▁warthog	-11.8114
acular	-11.8114
cometumble	-11.8114
comprehen	-11.8114
dikadik	-11.8114
terminated	-11.8114
▁abolish	-11.8114
▁antares	-11.8114
▁composing	-11.8114
▁detached	-11.8114
▁dresden	-11.8114
▁ensnare	-11.8114
▁fivequebecsie	-11.8114
▁fluids	-11.8114
▁impertinen	-11.8114
▁myselt	-11.8114
▁pygm	-11.8114
▁reckless	-11.8114
▁salvage	-11.8114
▁sicily	-11.8114
▁stimson	-11.8114
▁turnpike	-11.8114
▁unfasten	-11.8114
▁arduous	-11.8114
▁communicating	-11.8114
▁condemn	-11.8114
▁domain	-11.8114
▁mvp	-11.8114
▁necessit	-11.8114
▁seagull	-11.8114
▁sizzlin	-11.8114
▁volcanologists	-11.8114
▁lickety	-11.8114
▁ambula	-11.8114
▁learjet	-11.8114
▁marvellous	-11.8114
▁scholar	-11.8114
▁squallin	-11.8114
▁sympath	-11.8114
▁valentin	-11.8114
▁centimes	-11.8114
▁duplicat	-11.8114
▁embassy	-11.8114
▁hereditary	-11.8114
▁indecent	-11.8114
▁liberty	-11.8114
▁stymie	-11.8114
▁counsel	-11.8114
▁erique	-11.8114
▁excitable	-11.8114
▁priller	-11.8114
▁railroad	-11.8114
▁urrr	-11.8114
▁vassal	-11.8114
▁zackly	-11.8114
▁unicorn	-11.8114
▁appalling	-11.8114
▁buttonhook	-11.8114
▁cardigan	-11.8114
▁dehydrat	-11.8114
▁mesilla	-11.8114
▁prefect	-11.8114
▁supervis	-11.8114
▁bardot	-11.8114
▁decipher	-11.8114
▁fingernails	-11.8114
▁kirsty	-11.8114
▁seventeen	-11.8114
▁violin	-11.8114
▁hereabouts	-11.8114
▁ireland	-11.8114
▁missouri	-11.8114
▁chinese	-11.8114
▁cocoon	-11.8114
▁computer	-11.8114
▁garrison	-11.8114
▁harrington	-11.8114
▁impostor	-11.8114
▁omelet	-11.8114
▁tendril	-11.8114
cooperati	-11.8114
▁climate	-11.8114
▁register	-11.8114
▁dawdle	-11.8114
▁popcorn	-11.8114
▁hercule	-11.8114
▁hickam	-11.8114
▁joseph	-11.8114
▁mavis	-11.8114
▁quelea	-11.8114
▁tyler	-11.8114
▁preacher	-11.8114
▁viceroy	-11.8114
▁caramel	-11.8114
▁counterattack	-11.8114
▁potential	-11.8114
▁sunburned	-11.8114
▁blonde	-11.8114
▁strawberry	-11.8114
▁teeger	-11.8114
▁consolation	-11.8114
▁occurrence	-11.8114
▁debate	-11.8114
▁monarch	-11.8114
▁straddle	-11.8114
▁antelope	-11.8114
▁caesar	-11.8114
▁jasper	-11.8114
▁mayhem	-11.8114
▁perpetu	-11.8114
yer	-11.8114
▁cloister	-11.8114
▁clyde	-11.8114
▁scheme	-11.8114
▁lunatic	-11.8114
gators	-11.8114
▁frazzle	-11.8114
▁iota	-11.8114
▁screenplay	-11.8114
▁gauge	-11.8114
▁helium	-11.8114
▁mymy	-11.8114
▁pillows	-11.8114
▁whereabouts	-11.8114
▁temporar	-11.8114
▁tyranny	-11.8114
▁transmission	-11.8114
▁bangalore	-11.8114
bullseye	-11.8114
▁oldtimer	-11.8114
▁cologn	-11.8114
▁paulette	-11.8114
▁halloa	-11.8114
▁jacey	-11.8114
▁scepter	-11.8114
▁selves	-11.8114
▁sheesh	-11.8114
▁nakoma	-11.8114
▁truncheon	-11.8114
flicted	-11.8114
▁paraph	-11.8114
▁isolation	-11.8114
▁loneliness	-11.8114
▁fuzzy	-11.8114
▁monument	-11.8114
▁downwind	-11.8114
▁molting	-11.8114
▁prizewinn	-11.8114
▁slobs	-11.8114
▁morgen	-11.8114
▁sweden	-11.8114
▁midday	-11.8114
▁anonym	-11.8114
▁grudge	-11.8114
▁nimble	-11.8114
▁resume	-11.8114
▁album	-11.8114
▁quoth	-11.8114
▁upsidedown	-11.8114
▁backbone	-11.8114
▁washburn	-11.8114
▁admission	-11.8114
▁snowmobile	-11.8114
▁attachment	-11.8114
▁lynchin	-11.8114
▁mousetrap	-11.8114
▁devotion	-11.8114
▁circulation	-11.8114
▁procure	-11.8114
▁prompt	-11.8114
▁inquiries	-11.8114
▁candlestick	-11.8114
▁emerge	-11.8114
▁amusing	-11.8114
▁nicole	-11.8114
▁arrogance	-11.8114
▁pollut	-11.8114
▁hideandseek	-11.8114
▁amputat	-11.8114
▁biplanes	-11.8114
▁motivat	-11.8114
laborat	-11.8114
▁fizz	-11.8115
▁armada	-11.8115
▁offcourse	-11.8115
▁majesties	-11.8115
▁unlimited	-11.8115
▁compadre	-11.8115
▁nobility	-11.8115
▁brewery	-11.8115
▁grafter	-11.8115
▁molasses	-11.8115
▁pelts	-11.8115
▁ringleader	-11.8115
▁romania	-11.8115
▁glug	-11.8115
▁outgrow	-11.8115
▁outrage	-11.8115
▁reference	-11.8115
▁stepsister	-11.8115
▁burial	-11.8115
▁flume	-11.8115
▁shrink	-11.8115
▁beware	-11.8115
▁hogtie	-11.8115
▁austria	-11.8115
ohhoh	-11.8115
▁galax	-11.8115
▁horseholder	-11.8115
▁midway	-11.8115
▁eyeballs	-11.8115
▁incomp	-11.8115
▁pothole	-11.8115
rigger	-11.8115
▁batteries	-11.8115
▁fiddling	-11.8115
▁tansy	-11.8115
▁gesture	-11.8115
bolic	-11.8115
▁gunfight	-11.8115
▁thunderstorm	-11.8115
▁random	-11.8115
▁orbit	-11.8115
▁summerjob	-11.8115
▁toybox	-11.8115
onetwentyfour	-11.8115
▁dyin	-11.8115
▁contribution	-11.8115
▁qualifi	-11.8115
▁discard	-11.8115
▁zealand	-11.8115
▁musket	-11.8115
▁twentyfour	-11.8115
▁signature	-11.8115
▁organization	-11.8115
▁schul	-11.8115
▁shrine	-11.8115
▁ninetyfive	-11.8115
▁workshop	-11.8115
▁davis	-11.8115
▁snook	-11.8115
▁tolerate	-11.8115
▁ringading	-11.8116
▁unfair	-11.8116
▁benji	-11.8116
▁prosecut	-11.8116
▁discord	-11.8116
▁speculation	-11.8116
▁halfsmile	-11.8116
▁husky	-11.8116
▁crucial	-11.8116
▁cornfield	-11.8116
▁corruption	-11.8116
▁uphold	-11.8116
dolph	-11.8116
▁assets	-11.8116
▁tampa	-11.8116
▁terrain	-11.8116
▁meek	-11.8116
▁flipfl	-11.8116
▁convention	-11.8116
▁cellul	-11.8116
▁trampled	-11.8116
▁fabrication	-11.8116
▁attaboy	-11.8116
▁buckskin	-11.8116
▁swordsman	-11.8116
▁nantes	-11.8116
▁bombard	-11.8116
▁continuum	-11.8116
▁candid	-11.8116
▁jeering	-11.8116
▁sunpu	-11.8117
▁usurp	-11.8117
▁inferno	-11.8117
▁lobby	-11.8117
▁wowwee	-11.8117
▁ayuh	-11.8117
▁oaf	-11.8117
▁suspend	-11.8117
▁winchester	-11.8117
▁terror	-11.8117
gghh	-11.8117
▁preference	-11.8117
▁blowhard	-11.8117
▁vegetation	-11.8117
▁yield	-11.8117
▁winnie	-11.8117
maturity	-11.8117
▁flute	-11.8117
▁distinction	-11.8117
▁zeb	-11.8117
▁battlefield	-11.8117
▁hahahahaha	-11.8117
▁vouch	-11.8117
▁fourthousand	-11.8117
▁posse	-11.8117
▁vault	-11.8117
▁flee	-11.8118
▁russell	-11.8118
▁psycho	-11.8118
▁serum	-11.8118
▁rubio	-11.8118
▁halfhour	-11.8118
▁seemingly	-11.8118
▁squash	-11.8118
▁edith	-11.8118
▁tresh	-11.8118
▁endanger	-11.8118
▁hostess	-11.8118
lloping	-11.8118
▁fourseven	-11.8118
▁whatcha	-11.8118
▁converse	-11.8118
▁lyric	-11.8118
▁overnight	-11.8118
▁gaping	-11.8118
▁hoax	-11.8118
▁saxon	-11.8118
▁interruption	-11.8118
▁celebrating	-11.8119
▁hawkeye	-11.8119
▁braggart	-11.8119
▁theater	-11.8119
▁hesitation	-11.8119
▁asia	-11.8119
▁mayfair	-11.8119
▁bonehead	-11.8119
▁checkbook	-11.8119
▁utilize	-11.8119
▁undressed	-11.8119
▁crosseyed	-11.8119
▁amused	-11.8119
▁triumphant	-11.8119
▁claustrophobia	-11.8119
▁quiz	-11.8119
▁pathways	-11.8119
▁wavin	-11.8119
▁fragment	-11.812
▁distort	-11.812
▁liberti	-11.812
▁electricity	-11.812
▁achievement	-11.812
▁barren	-11.812
▁predictable	-11.812
▁sixtyfive	-11.812
▁investment	-11.812
▁masque	-11.812
▁precede	-11.812
▁rector	-11.812
▁splash	-11.812
▁lodge	-11.812
▁rebellion	-11.812
▁stalin	-11.812
equipped	-11.812
▁outtalk	-11.812
▁notch	-11.812
▁convent	-11.812
▁cruisers	-11.812
▁batman	-11.8121
▁strut	-11.8121
▁seasick	-11.8121
▁whoaoa	-11.8121
▁trustworthy	-11.8121
▁ebb	-11.8121
▁motive	-11.8121
▁infant	-11.8121
▁cancer	-11.8121
▁meaningless	-11.8121
▁convey	-11.8121
▁stationery	-11.8121
▁ajob	-11.8121
▁bawn	-11.8121
▁disturbance	-11.8121
▁heaviest	-11.8121
▁capacit	-11.8121
▁bunny	-11.8122
▁artery	-11.8122
▁quake	-11.8122
▁stripped	-11.8122
▁foreman	-11.8122
▁unshot	-11.8122
▁transition	-11.8122
▁beckon	-11.8122
▁reconnect	-11.8122
▁satisfaction	-11.8123
▁bombers	-11.8123
▁lenape	-11.8123
▁testimony	-11.8123
▁jeopardy	-11.8123
▁trois	-11.8123
▁swimmer	-11.8123
▁glyn	-11.8123
▁graphic	-11.8123
▁billie	-11.8123
▁dismay	-11.8123
▁righteousness	-11.8123
▁root	-11.8124
liable	-11.8124
▁physicist	-11.8124
▁pregnant	-11.8124
▁petain	-11.8124
▁curts	-11.8124
▁skipped	-11.8124
▁scur	-11.8124
▁graceful	-11.8124
▁lurking	-11.8125
kwood	-11.8125
▁befriend	-11.8125
▁instructor	-11.8125
▁activated	-11.8125
▁wireless	-11.8125
▁stubbornness	-11.8125
orita	-11.8125
▁freefall	-11.8125
▁prettiest	-11.8125
▁babysitting	-11.8125
▁cockle	-11.8125
▁educated	-11.8126
▁orange	-11.8126
▁devastated	-11.8126
▁occup	-11.8126
raig	-11.8126
▁whwhat	-11.8126
▁kneel	-11.8126
▁depot	-11.8127
▁twoniner	-11.8127
▁pickin	-11.8127
▁grasshopper	-11.8127
▁elevator	-11.8127
▁harness	-11.8127
▁beva	-11.8127
▁psst	-11.8127
▁obligation	-11.8127
▁housekeeper	-11.8127
▁flamingo	-11.8128
▁angelic	-11.8128
▁glue	-11.8128
▁vul	-11.8128
▁finesse	-11.8128
▁settin	-11.8128
▁requirement	-11.8129
▁conover	-11.8129
▁boodleb	-11.8129
▁nooo	-11.8129
▁brawl	-11.813
▁gagging	-11.813
▁tardy	-11.813
▁drumstick	-11.813
▁hooter	-11.813
▁alice	-11.813
▁bumble	-11.813
▁redline	-11.813
▁abominable	-11.813
▁funnel	-11.8131
▁spu	-11.8131
▁intent	-11.8131
▁bottomland	-11.8131
▁shellfish	-11.8131
▁frostbite	-11.8131
▁hidin	-11.8131
▁shattered	-11.8131
▁sinful	-11.8131
▁beau	-11.8132
▁govern	-11.8132
▁swirl	-11.8132
▁figuring	-11.8132
▁analyze	-11.8133
▁paja	-11.8133
▁cum	-11.8133
▁jab	-11.8133
▁grange	-11.8133
▁detector	-11.8133
▁exceed	-11.8133
▁bunion	-11.8133
▁shipping	-11.8133
▁yuma	-11.8134
▁whining	-11.8134
▁tempest	-11.8134
▁toffe	-11.8134
▁ssss	-11.8134
▁miniaturize	-11.8135
▁breast	-11.8135
▁givin	-11.8135
▁keyboard	-11.8135
▁vaporize	-11.8135
▁bellows	-11.8135
bomp	-11.8135
▁grimm	-11.8136
▁gently	-11.8136
pulate	-11.8136
▁grandson	-11.8137
penetra	-11.8137
▁effective	-11.8137
▁ninety	-11.8137
▁molded	-11.8138
▁burst	-11.8138
▁moping	-11.8138
▁crimin	-11.8138
itated	-11.8138
▁dj	-11.8138
▁allowance	-11.8139
▁illusion	-11.8139
▁solit	-11.8139
▁seventy	-11.8139
▁insan	-11.8139
vius	-11.814
▁risers	-11.814
▁prick	-11.814
▁tiring	-11.814
▁carving	-11.814
▁atla	-11.8141
▁unjust	-11.8141
▁deaf	-11.8141
▁countryside	-11.8141
scale	-11.8141
▁zipadee	-11.8142
▁fulfill	-11.8143
▁politic	-11.8143
▁mimic	-11.8143
▁rangers	-11.8143
▁fester	-11.8143
▁almighty	-11.8143
▁manufacturing	-11.8144
▁juar	-11.8144
▁dependable	-11.8144
▁talons	-11.8145
▁scorch	-11.8145
▁definite	-11.8145
▁wellii	-11.8146
▁awakened	-11.8146
▁vice	-11.8146
▁tasteless	-11.8146
▁buff	-11.8146
▁located	-11.8147
▁crippled	-11.8147
▁incorporated	-11.8147
▁sacrificed	-11.8147
▁client	-11.8148
▁lemming	-11.8148
▁nursery	-11.8148
▁scalped	-11.8148
▁anchored	-11.8149
stitut	-11.8149
▁brutal	-11.8149
▁whispered	-11.8149
▁mechanically	-11.8149
etical	-11.815
▁drownin	-11.815
▁twothree	-11.815
▁odor	-11.815
iv	-11.815
▁lester	-11.8151
▁tagging	-11.8151
nikov	-11.8152
▁fract	-11.8152
▁soap	-11.8152
▁nightfall	-11.8152
▁germinat	-11.8152
▁roman	-11.8153
▁showdown	-11.8153
▁dislike	-11.8153
▁halter	-11.8154
▁invoke	-11.8154
▁armory	-11.8155
▁residents	-11.8155
▁unno	-11.8156
▁copies	-11.8156
▁sparing	-11.8156
▁hatred	-11.8156
hohoho	-11.8157
▁forcing	-11.8157
▁spotted	-11.8158
▁horsy	-11.8158
▁oop	-11.8158
▁moi	-11.8158
▁fireside	-11.8159
▁electrician	-11.8159
▁quay	-11.816
▁pleading	-11.816
lling	-11.8161
▁geese	-11.8161
▁wherefore	-11.8161
▁crisp	-11.8162
▁amends	-11.8162
▁taxes	-11.8163
▁converted	-11.8163
▁marines	-11.8164
▁fussy	-11.8164
▁violets	-11.8165
etera	-11.8165
▁endlessly	-11.8165
▁logistics	-11.8165
ifying	-11.8166
▁cornflower	-11.8166
▁indoors	-11.8166
▁ingrates	-11.8166
▁relations	-11.8166
▁insignias	-11.8166
azama	-11.8167
▁appearances	-11.8167
▁patri	-11.8167
▁humph	-11.8167
▁theatres	-11.8167
▁baboons	-11.8167
▁poachers	-11.8167
▁knuckles	-11.8167
▁aztecs	-11.8167
▁parkleys	-11.8167
▁prototypes	-11.8167
▁troubadours	-11.8167
▁bushwhackers	-11.8167
▁ruffians	-11.8167
▁overt	-11.8167
▁steeples	-11.8167
▁producer	-11.8168
▁decorations	-11.8168
kate	-11.8168
▁gliders	-11.8168
▁narrow	-11.8168
▁ninete	-11.8168
▁yum	-11.8168
▁daybreak	-11.8169
▁chide	-11.8169
▁perp	-11.8169
▁guhguhguhguhguh	-11.817
logue	-11.817
▁vegetable	-11.817
▁barber	-11.817
▁deepness	-11.8172
▁bragging	-11.8173
▁theor	-11.8173
tacles	-11.8173
▁scrapes	-11.8174
▁madman	-11.8174
rach	-11.8174
▁peach	-11.8176
itall	-11.8176
idgets	-11.8176
▁exalt	-11.8176
▁supplement	-11.8176
▁criticize	-11.8177
▁shinin	-11.8178
▁jock	-11.8178
▁peru	-11.8179
▁wowie	-11.8179
▁rebel	-11.818
▁hasty	-11.8181
itte	-11.8181
▁inhal	-11.8181
▁ledge	-11.8182
▁chimp	-11.8182
▁summon	-11.8182
▁palmers	-11.8183
▁bluff	-11.8184
▁jose	-11.8184
▁satisfy	-11.8184
monger	-11.8184
▁roarer	-11.8184
▁desirest	-11.8185
booga	-11.8185
▁crawled	-11.8185
▁cookin	-11.8186
▁silky	-11.8186
▁retrieved	-11.8187
▁wond	-11.8187
consciousness	-11.8188
▁branches	-11.8189
▁bleeding	-11.819
▁butchered	-11.8191
▁ramp	-11.8191
tsushi	-11.8191
▁antarctic	-11.8191
▁pronounced	-11.8192
▁rivi	-11.8192
▁brood	-11.8192
▁warnin	-11.8192
▁revealed	-11.8192
berries	-11.8193
▁indicated	-11.8193
▁shrunk	-11.8193
▁devery	-11.8194
▁bombed	-11.8194
▁tormented	-11.8194
▁tsch	-11.8194
▁descendant	-11.8195
saynwittgenstein	-11.8195
▁dodo	-11.8195
▁bien	-11.8196
▁creeping	-11.8196
static	-11.8197
▁craz	-11.8197
▁rajah	-11.8198
▁tarry	-11.8198
▁grabbing	-11.8198
▁emery	-11.8199
▁momma	-11.82
rida	-11.82
▁rabbi	-11.82
▁wrecked	-11.82
▁polic	-11.8201
▁obsess	-11.8201
hearted	-11.8201
▁storekeeper	-11.8203
▁mankind	-11.8204
▁tote	-11.8204
▁beck	-11.8205
▁vibrati	-11.8206
▁twisted	-11.8206
▁toughest	-11.8207
▁mocking	-11.8207
▁twig	-11.8208
▁rapids	-11.8209
▁feline	-11.8209
▁satin	-11.821
▁sti	-11.8211
iot	-11.8212
▁successor	-11.8212
▁glove	-11.8212
▁alpha	-11.8212
▁gained	-11.8213
southeast	-11.8213
▁bruised	-11.8214
▁yaaa	-11.8214
▁reside	-11.8215
lights	-11.8215
▁dispose	-11.8216
▁ritz	-11.8216
▁weave	-11.8217
▁nugget	-11.8218
▁strife	-11.8218
▁rapid	-11.8219
▁scotch	-11.8219
tribution	-11.8219
▁maple	-11.8221
▁calculat	-11.8221
▁assum	-11.8221
▁digest	-11.8221
▁kimerakazam	-11.8221
▁hauled	-11.8222
▁bumpy	-11.8222
ectly	-11.8224
▁shocked	-11.8224
▁circling	-11.8225
▁morphy	-11.8226
vier	-11.8227
▁displays	-11.8228
▁handful	-11.8228
nine	-11.8229
▁seiz	-11.8229
▁described	-11.823
▁definit	-11.8231
▁region	-11.8231
▁nailed	-11.8233
▁beaten	-11.8234
▁sob	-11.8234
▁sult	-11.8234
▁laser	-11.8235
▁assured	-11.8235
▁foreigners	-11.8236
▁feats	-11.8237
▁borrowed	-11.8238
▁consented	-11.8239
▁reform	-11.8239
brow	-11.824
▁script	-11.824
▁commando	-11.824
▁persuade	-11.8241
eros	-11.8241
▁chaser	-11.8241
▁recon	-11.8241
rooney	-11.8241
▁contracted	-11.8242
▁eider	-11.8243
cens	-11.8243
▁contractor	-11.8244
▁searchin	-11.8246
▁burps	-11.8246
▁cir	-11.8248
▁styl	-11.8248
▁accordingly	-11.8248
▁luke	-11.8249
version	-11.8249
▁flints	-11.8249
▁skull	-11.8251
▁reasonable	-11.8251
van	-11.8252
▁seine	-11.8252
▁cured	-11.8252
▁agents	-11.8255
▁expenses	-11.8255
reme	-11.8256
▁canines	-11.8256
▁moaning	-11.8256
▁zuma	-11.8257
▁dip	-11.8257
▁cruise	-11.8257
▁banners	-11.8258
▁leopards	-11.8258
▁cymbals	-11.8259
▁doorsteps	-11.8259
▁beethovens	-11.8259
▁waterfalls	-11.8259
▁conver	-11.8259
▁refreshments	-11.8259
▁outdoors	-11.8259
▁gracie	-11.8259
mitt	-11.8259
▁commandos	-11.826
▁oye	-11.826
▁grav	-11.8263
▁flit	-11.8263
▁recovered	-11.8264
▁previous	-11.8264
▁dumping	-11.8264
▁conceive	-11.8267
▁attire	-11.8267
shield	-11.8267
▁sanct	-11.8267
body	-11.8268
▁jug	-11.8268
▁famously	-11.8268
▁commenc	-11.8269
▁feasted	-11.8269
▁reachin	-11.827
▁flann	-11.827
▁frey	-11.827
▁specialist	-11.8271
▁blooming	-11.8273
▁wooh	-11.8274
▁added	-11.8274
▁kaya	-11.8274
▁conv	-11.8274
▁kent	-11.8274
▁decorat	-11.8276
cranium	-11.8277
▁revolv	-11.8277
▁laird	-11.8278
▁yeow	-11.8278
▁beatin	-11.8279
▁senor	-11.828
▁betty	-11.8281
pin	-11.8283
▁curve	-11.8283
▁willy	-11.8284
flies	-11.8284
sis	-11.8285
▁murderin	-11.8287
▁lg	-11.8287
▁explosive	-11.8289
commend	-11.829
▁outwit	-11.8291
▁watchman	-11.8293
▁pail	-11.8294
▁pleasantly	-11.8294
▁dratt	-11.8294
▁mccl	-11.8297
▁blowin	-11.8298
lum	-11.8298
uzzle	-11.8299
ud	-11.8301
bay	-11.8301
▁layin	-11.8301
migration	-11.8301
▁carol	-11.8302
▁growl	-11.8303
▁freight	-11.8304
▁sporting	-11.8305
chev	-11.8308
lley	-11.8308
▁corte	-11.8308
▁aqua	-11.8309
▁cheerlead	-11.8309
▁exceptions	-11.8311
▁crooked	-11.8311
▁wooow	-11.8311
▁marbles	-11.8312
▁chilly	-11.8313
nnia	-11.8315
avish	-11.8315
hel	-11.8317
▁isles	-11.8318
▁whim	-11.8318
▁yass	-11.8321
forgiv	-11.8321
▁fraterni	-11.8322
quaint	-11.8323
stones	-11.8323
▁teens	-11.8327
▁saddled	-11.8328
▁sought	-11.8328
▁sulk	-11.8329
▁beam	-11.833
▁sheets	-11.8331
▁discussed	-11.8331
▁loch	-11.8333
▁worm	-11.8333
▁witnesses	-11.8334
▁contains	-11.8335
▁grumble	-11.8335
▁chuck	-11.8336
▁herring	-11.8339
▁bona	-11.8339
▁reserves	-11.8339
▁cobble	-11.834
▁cubs	-11.834
udders	-11.8344
▁taut	-11.8346
▁string	-11.8347
▁delivery	-11.8349
▁chambers	-11.835
▁chemicals	-11.8351
▁award	-11.8352
▁demanding	-11.8352
▁sprouts	-11.8352
▁methods	-11.8352
▁outlaws	-11.8352
▁approached	-11.8352
▁kangaroos	-11.8352
▁shepherds	-11.8353
▁highlands	-11.8353
▁eco	-11.8354
▁revolutions	-11.8356
▁leftover	-11.8357
▁eas	-11.8359
▁rollo	-11.8361
▁doves	-11.8363
▁shark	-11.8363
▁cleanin	-11.8363
▁managers	-11.8365
erry	-11.8366
thwart	-11.8367
sm	-11.8368
▁fuse	-11.8368
▁requires	-11.8369
▁leaps	-11.8371
▁squirm	-11.8371
▁mixt	-11.8373
bearer	-11.8373
▁dignit	-11.8379
▁drivein	-11.8379
▁sandba	-11.8382
▁misty	-11.8382
▁este	-11.8382
▁il	-11.8383
▁bunches	-11.8384
▁optic	-11.8384
▁brad	-11.8387
▁glori	-11.8388
▁disclose	-11.8388
▁coil	-11.8391
lace	-11.8393
▁expectin	-11.8394
▁gimp	-11.8395
▁once	-11.8398
▁peril	-11.8398
erefore	-11.8398
witch	-11.8399
ahara	-11.8399
▁foresee	-11.8401
▁possibilit	-11.8401
▁defeated	-11.8402
▁payment	-11.8406
▁tingle	-11.8407
hal	-11.8407
▁payday	-11.8408
wipe	-11.8408
▁brag	-11.8409
▁coron	-11.841
▁doubter	-11.8413
▁clar	-11.8415
ask	-11.8416
drew	-11.8417
▁comforting	-11.8418
placement	-11.8419
▁passionate	-11.8419
▁latter	-11.842
icho	-11.8421
▁lilies	-11.8421
▁absol	-11.8422
▁pounded	-11.8423
▁rum	-11.8424
▁renew	-11.8425
▁outa	-11.8425
▁skills	-11.8426
flight	-11.843
▁brightly	-11.843
elief	-11.8431
▁bugle	-11.8434
▁acha	-11.8437
▁screamed	-11.8438
▁examin	-11.8442
▁mentioned	-11.8442
▁kir	-11.8446
hhuh	-11.8446
ford	-11.8447
▁colleagues	-11.8447
▁protest	-11.8448
icide	-11.8448
pedia	-11.8449
keep	-11.845
▁suggesting	-11.8452
tide	-11.8452
rrrrrrrr	-11.8453
▁amazingly	-11.8453
wen	-11.8456
▁balm	-11.8457
▁wig	-11.8458
oble	-11.8458
▁jap	-11.846
▁sch	-11.846
okey	-11.8462
▁expans	-11.8464
ath	-11.8465
gues	-11.8465
▁categor	-11.8468
▁ap	-11.847
egacy	-11.8473
▁insisting	-11.8474
▁virtuos	-11.8475
▁blam	-11.8476
istre	-11.8481
▁repeated	-11.8481
▁pickle	-11.8484
elican	-11.8484
▁clinic	-11.8486
▁coke	-11.8486
▁ahold	-11.8488
alds	-11.8488
▁cultural	-11.8489
nfection	-11.849
athe	-11.8493
ckle	-11.8496
▁awe	-11.8499
town	-11.85
▁assumed	-11.85
whoohoohoo	-11.8503
▁ceme	-11.8504
▁ash	-11.8505
mik	-11.8506
▁salar	-11.8507
▁shin	-11.8509
ht	-11.8514
atory	-11.8517
▁helpful	-11.8519
▁shifts	-11.8522
▁pounding	-11.8527
▁springer	-11.8528
▁freezes	-11.8532
▁cooler	-11.8536
▁panels	-11.8536
brains	-11.8539
▁lifting	-11.8539
▁urge	-11.8539
tray	-11.854
▁heron	-11.8542
▁solutions	-11.8542
▁dinosaurs	-11.8542
▁tata	-11.8545
▁firecracker	-11.8546
▁meantime	-11.8546
▁teli	-11.8546
▁challenges	-11.8547
▁eaters	-11.8547
nts	-11.8549
▁listing	-11.8552
certain	-11.8553
wiped	-11.8554
nacle	-11.8554
▁blamed	-11.8559
▁lun	-11.8565
▁washing	-11.8569
rrowed	-11.8572
▁enclos	-11.8573
▁burger	-11.8573
▁proven	-11.8573
▁ink	-11.8576
▁provides	-11.8579
▁doubled	-11.8583
▁darker	-11.8585
▁meetin	-11.8586
▁soar	-11.859
blo	-11.8592
▁rott	-11.8597
▁chees	-11.8601
▁relaxing	-11.8602
rdy	-11.8604
▁canteen	-11.8606
▁deserved	-11.8606
▁baptis	-11.8607
▁catastrophe	-11.8609
▁differently	-11.8611
▁vines	-11.8614
▁glasses	-11.8615
▁annoys	-11.8615
cely	-11.8615
▁geeg	-11.8621
kull	-11.8623
▁chit	-11.8624
▁bush	-11.8624
▁diver	-11.8626
▁scales	-11.8626
categori	-11.8628
▁arr	-11.8629
comb	-11.8631
▁philosopher	-11.8631
▁parades	-11.8633
▁averages	-11.8634
▁issues	-11.8634
▁customs	-11.8635
▁prospero	-11.8637
▁pul	-11.8638
▁dese	-11.8638
nstein	-11.8643
▁mater	-11.8643
▁bubbles	-11.8643
▁ribs	-11.8645
▁sums	-11.865
orted	-11.8653
wn	-11.8654
ecu	-11.8655
▁respected	-11.8656
tack	-11.8656
bi	-11.8656
▁wawawa	-11.8663
▁eminen	-11.8675
▁teat	-11.8677
ocating	-11.8679
▁trend	-11.8679
▁sled	-11.868
▁eatin	-11.868
▁trifle	-11.8681
▁nin	-11.8686
▁puffs	-11.8689
sso	-11.869
who	-11.8691
▁hoist	-11.8694
▁cove	-11.8697
rail	-11.8701
ugh	-11.8701
selt	-11.8706
▁viv	-11.8709
▁devou	-11.8709
▁quacks	-11.8713
▁crowed	-11.8713
▁snort	-11.8715
ushing	-11.8717
▁hea	-11.8717
uffing	-11.8719
ory	-11.872
▁makeup	-11.872
ggler	-11.8723
▁quicker	-11.8728
▁sticky	-11.873
▁howl	-11.8735
lt	-11.8737
eling	-11.8738
▁desires	-11.8742
▁labs	-11.8744
▁borders	-11.8744
▁mystif	-11.8745
▁swoo	-11.8746
▁damages	-11.8747
▁strays	-11.8752
thouse	-11.8752
pical	-11.8752
▁clogg	-11.8754
▁lone	-11.8757
ump	-11.8757
cco	-11.8761
▁centered	-11.8763
▁microp	-11.8766
ope	-11.8769
▁stupidly	-11.8774
▁num	-11.8784
▁casts	-11.8785
▁simm	-11.8785
ai	-11.8787
gen	-11.8788
rig	-11.8788
▁crystal	-11.8793
▁loosey	-11.8797
ove	-11.8797
▁ze	-11.8801
▁taxis	-11.8803
▁arth	-11.8804
huhuh	-11.8805
▁princesses	-11.8806
▁ruck	-11.881
▁or	-11.8812
chunk	-11.8814
sible	-11.8816
▁currents	-11.882
▁correction	-11.8821
▁patrols	-11.8822
▁hav	-11.8824
ension	-11.8829
icht	-11.883
▁demands	-11.8833
▁sinner	-11.8838
adam	-11.8838
▁tickl	-11.8842
▁dwell	-11.8851
dic	-11.8851
▁pry	-11.8853
▁rega	-11.8856
gedy	-11.8857
▁halfa	-11.8858
▁reced	-11.8858
▁rocker	-11.8879
▁gangl	-11.8881
▁sealed	-11.8882
▁vasca	-11.8888
▁bubbl	-11.8897
▁grounded	-11.8901
▁poo	-11.8903
pressed	-11.8909
▁tack	-11.8915
tively	-11.8916
▁disgraceful	-11.892
memor	-11.892
▁longnecks	-11.8923
▁crane	-11.8931
sund	-11.8932
▁territori	-11.8939
llo	-11.8944
ipher	-11.8945
▁foram	-11.895
▁mouthing	-11.8951
▁pert	-11.8952
▁shimm	-11.8955
▁carav	-11.8956
eph	-11.8957
ease	-11.8958
▁snor	-11.8959
▁erra	-11.896
act	-11.8967
▁dew	-11.8971
lix	-11.8974
▁brooms	-11.8975
▁cue	-11.899
▁tweet	-11.8992
▁dreamer	-11.8998
▁turnin	-11.9016
▁librarians	-11.9019
▁submarines	-11.9019
cher	-11.9021
▁borde	-11.9024
▁hunk	-11.9027
▁drying	-11.9029
sensitive	-11.904
▁deeds	-11.9041
▁dignif	-11.9045
▁awaken	-11.9049
▁clump	-11.9049
▁sk	-11.9049
mur	-11.906
▁offe	-11.9064
row	-11.9064
▁stroll	-11.9064
etty	-11.9067
▁marrie	-11.9076
jell	-11.9081
tight	-11.9084
ludge	-11.9088
▁posts	-11.9088
▁hoars	-11.9088
▁brick	-11.909
▁risks	-11.909
▁experiences	-11.9095
▁hips	-11.9103
▁arrows	-11.9104
▁unsu	-11.9104
ients	-11.9105
▁tighten	-11.9111
▁shores	-11.9112
famous	-11.9114
▁montagues	-11.9115
▁insul	-11.9116
▁imaginations	-11.9116
iful	-11.9117
▁mince	-11.9124
▁wakey	-11.9129
ambling	-11.913
sign	-11.9134
▁terri	-11.9134
▁math	-11.9138
▁fif	-11.9138
ook	-11.9142
▁hirom	-11.9144
generat	-11.9155
▁kicks	-11.9155
▁doubledeal	-11.9156
▁southerner	-11.9159
owing	-11.916
tting	-11.9161
rite	-11.9163
▁protector	-11.9163
ards	-11.9164
▁ou	-11.9172
eached	-11.9182
aches	-11.9184
▁liner	-11.9185
▁halls	-11.9188
▁mode	-11.9194
▁morse	-11.9196
ours	-11.9198
▁abo	-11.92
▁meddl	-11.9204
▁ache	-11.9205
tha	-11.9219
ars	-11.9226
ect	-11.9234
mac	-11.9236
nuck	-11.9244
cept	-11.9251
upon	-11.9256
▁begg	-11.926
▁bac	-11.926
▁cons	-11.9261
▁es	-11.9274
▁ohhohh	-11.928
▁princessy	-11.9281
gling	-11.9281
▁ent	-11.9291
▁petit	-11.9293
tery	-11.9298
▁tanker	-11.9301
▁stomachs	-11.9305
▁ministers	-11.9307
▁partners	-11.9307
▁sweethearts	-11.9307
▁rightful	-11.9308
▁bums	-11.9311
▁stretcher	-11.9312
▁sur	-11.9318
▁subs	-11.9322
▁tangl	-11.9324
▁coin	-11.9327
▁aces	-11.9329
▁digital	-11.9332
linger	-11.9334
▁pages	-11.9341
▁berth	-11.9354
▁inning	-11.9363
▁mack	-11.9364
eland	-11.9367
▁counted	-11.938
ready	-11.939
▁ingr	-11.9403
▁seze	-11.9404
▁orner	-11.9405
▁wiggle	-11.9406
▁sn	-11.9412
ova	-11.9419
tangle	-11.9422
mobile	-11.9425
▁ske	-11.9437
arian	-11.9438
▁knights	-11.9438
▁eater	-11.9442
urns	-11.9446
sha	-11.9446
lyn	-11.9447
rows	-11.9448
▁enca	-11.9457
▁stitch	-11.9463
ser	-11.9467
hyd	-11.9469
trip	-11.9478
dressed	-11.9479
▁indicat	-11.948
▁are	-11.948
▁alarms	-11.9483
▁hearin	-11.9503
tly	-11.9515
sting	-11.9517
▁bandage	-11.9519
▁wheels	-11.952
stray	-11.9523
▁yy	-11.9526
nator	-11.9532
▁rad	-11.9533
▁airway	-11.9534
▁exists	-11.9545
▁stirr	-11.9551
xo	-11.9553
▁windy	-11.9557
agging	-11.956
▁fie	-11.956
▁oooooh	-11.9569
▁wedd	-11.9574
▁did	-11.958
lies	-11.9585
umph	-11.9592
quette	-11.9592
ane	-11.9592
▁strategi	-11.9597
▁restrain	-11.9602
ontya	-11.9604
ractive	-11.9612
mil	-11.9624
ggies	-11.9625
plex	-11.9635
▁majors	-11.9636
▁gig	-11.9637
rect	-11.9644
mage	-11.965
▁hahahaha	-11.9654
dom	-11.9659
gers	-11.9662
▁falled	-11.9674
▁jigg	-11.9684
▁whinn	-11.9689
▁wern	-11.9691
bel	-11.9719
▁cared	-11.9723
▁traps	-11.9732
escent	-11.9743
pache	-11.975
▁motheri	-11.9766
bellie	-11.9771
fal	-11.9786
oooh	-11.9789
dez	-11.979
uper	-11.9791
oral	-11.9796
ct	-11.9805
▁shelling	-11.9807
▁learnt	-11.9816
fl	-11.9819
mmit	-11.9823
▁aa	-11.9825
▁drear	-11.9836
▁gro	-11.9841
amps	-11.9842
ammy	-11.9843
▁pish	-11.9845
▁ropes	-11.9851
▁sphere	-11.9853
shaking	-11.9855
▁rev	-11.986
▁liking	-11.987
▁extrac	-11.9873
minin	-11.9878
lev	-11.9879
▁dared	-11.9886
▁sey	-11.9886
zar	-11.989
▁trave	-11.9891
▁cass	-11.9894
cute	-11.99
▁boating	-11.99
oid	-11.9904
eby	-11.9906
▁vivi	-11.9911
▁engl	-11.9913
oooooo	-11.9917
▁skinni	-11.9925
▁heavie	-11.9932
▁blames	-11.9936
▁kinsm	-11.9946
▁purp	-11.9957
diary	-11.9963
ash	-11.9968
lips	-11.9972
ib	-11.9973
▁flats	-11.9986
nned	-11.9995
tte	-12.0002
umbling	-12.0005
▁las	-12.0008
▁tic	-12.001
▁recal	-12.0024
▁on	-12.0026
▁gul	-12.0035
▁spiritual	-12.0037
rr	-12.0043
▁wedge	-12.0045
parte	-12.0046
▁stair	-12.0052
▁superst	-12.0063
▁perver	-12.0066
▁wither	-12.0082
ept	-12.0083
▁nurses	-12.0088
▁puss	-12.0099
▁preserv	-12.0105
race	-12.0112
dies	-12.0114
makers	-12.012
lon	-12.0128
▁arrives	-12.0133
liest	-12.0135
pic	-12.0148
lash	-12.016
▁wastin	-12.0166
uncheon	-12.0171
▁sighting	-12.0178
rry	-12.0182
▁simulat	-12.0183
qu	-12.0187
ision	-12.0192
▁stump	-12.021
probable	-12.0212
istic	-12.0235
ran	-12.0249
▁landings	-12.0257
ospher	-12.0262
liz	-12.0266
ander	-12.0266
▁blundens	-12.0269
wife	-12.0271
ress	-12.0273
twitter	-12.0277
ware	-12.0299
gabo	-12.0308
▁fascinate	-12.0314
▁traf	-12.0319
▁lever	-12.0323
▁swords	-12.0333
▁conserv	-12.0334
▁morta	-12.0335
▁perish	-12.0341
▁reassur	-12.0351
arms	-12.0364
oing	-12.0381
rap	-12.0391
aloo	-12.0395
▁just	-12.0405
▁sla	-12.0414
▁youyou	-12.0415
berg	-12.042
▁invad	-12.0428
▁sues	-12.0434
ely	-12.0435
tches	-12.0439
oul	-12.0455
▁services	-12.0463
▁larges	-12.0485
▁pun	-12.0496
nic	-12.0497
▁races	-12.0497
nded	-12.0497
▁prec	-12.0498
▁rebuil	-12.0498
▁excused	-12.0513
▁fift	-12.0519
▁highl	-12.0522
▁trespass	-12.0532
ag	-12.0533
▁treac	-12.0537
void	-12.054
ipping	-12.0542
irrel	-12.0547
▁separat	-12.0564
▁relie	-12.057
▁irk	-12.0581
▁deci	-12.0582
▁patter	-12.0585
agan	-12.0586
▁hood	-12.0595
maaaa	-12.0602
mmy	-12.0611
▁spoils	-12.0619
▁bal	-12.0627
umbo	-12.0637
lax	-12.0647
▁adventurer	-12.0654
▁descen	-12.0663
cia	-12.0679
awnin	-12.068
▁mudd	-12.0681
urt	-12.0684
ritz	-12.0688
edge	-12.0689
▁leaders	-12.07
father	-12.07
riend	-12.0717
dict	-12.0717
▁decode	-12.0726
▁fibb	-12.0729
▁sayin	-12.073
zing	-12.0737
▁merri	-12.074
▁quil	-12.0752
▁unstr	-12.0771
▁deserts	-12.0774
con	-12.0779
going	-12.0782
▁isolate	-12.0791
▁sve	-12.0802
▁landin	-12.0809
▁rustl	-12.081
finder	-12.0811
say	-12.0812
▁peoples	-12.0812
▁afear	-12.0813
oster	-12.0818
▁forgi	-12.0821
▁tow	-12.0824
▁occurr	-12.0826
min	-12.0851
▁stro	-12.0871
ass	-12.0872
▁thru	-12.0873
▁fold	-12.0878
▁doubts	-12.0881
▁sab	-12.089
▁kate	-12.0896
sunder	-12.0901
richt	-12.0903
▁sca	-12.0903
oe	-12.0904
▁batter	-12.0916
▁ai	-12.0918
cla	-12.0941
▁faa	-12.0941
phy	-12.0944
poo	-12.0961
▁burb	-12.0968
▁throats	-12.0971
▁pipes	-12.0976
uis	-12.0983
▁swin	-12.0985
ruled	-12.0988
uuu	-12.0991
▁undertak	-12.0992
mph	-12.0997
ecks	-12.1001
aru	-12.1007
▁cas	-12.1017
ural	-12.102
sty	-12.1021
mmel	-12.1024
▁lovelies	-12.1025
chance	-12.1043
ppressed	-12.1045
▁fart	-12.1045
done	-12.1072
▁hallowe	-12.1081
iii	-12.1083
▁hencefor	-12.109
qui	-12.109
nish	-12.1092
▁sm	-12.1098
sville	-12.11
▁zipade	-12.11
▁belle	-12.1106
ree	-12.1117
ort	-12.1118
▁tribute	-12.1118
▁swears	-12.1119
▁scen	-12.1123
▁cups	-12.1146
▁scat	-12.1169
surance	-12.1169
uggle	-12.1173
▁doubl	-12.1173
▁wwwh	-12.1175
▁summ	-12.1191
▁react	-12.1196
▁rested	-12.1228
itching	-12.1228
acre	-12.1229
▁inc	-12.1233
akin	-12.1238
▁squir	-12.1244
▁bothers	-12.1258
ega	-12.1264
owdown	-12.1267
ix	-12.127
zed	-12.128
▁earlie	-12.1287
▁tinish	-12.1292
▁puke	-12.1294
uhhhh	-12.1304
▁wrinkle	-12.1304
▁dumm	-12.1311
nished	-12.1323
lut	-12.1329
▁peel	-12.1329
▁contacts	-12.1336
▁kai	-12.1342
▁stave	-12.1355
▁ep	-12.1355
arty	-12.1379
eces	-12.138
nard	-12.1414
▁sel	-12.1416
oda	-12.1421
▁persecute	-12.1426
▁hydr	-12.1427
late	-12.1451
▁watta	-12.1458
▁cho	-12.1464
▁neur	-12.1469
▁fol	-12.1488
▁wicke	-12.1495
▁chippe	-12.1497
sweeping	-12.1501
lip	-12.1519
▁horrib	-12.1527
▁longrang	-12.1527
▁stri	-12.1531
ooh	-12.1541
dling	-12.1541
alled	-12.1544
rowl	-12.1556
taph	-12.1556
▁wring	-12.1564
▁signor	-12.1573
ils	-12.1576
fi	-12.1578
▁soak	-12.1584
▁unlike	-12.1595
▁col	-12.1596
▁bin	-12.1598
ooooo	-12.1611
stock	-12.163
▁salam	-12.1643
jane	-12.1653
uff	-12.1654
▁manufactur	-12.1667
▁counte	-12.1677
▁sof	-12.1691
▁robb	-12.1695
▁cri	-12.1696
▁knocks	-12.1699
ashed	-12.1716
▁valleys	-12.1722
media	-12.1729
▁mot	-12.1735
dal	-12.1742
▁biz	-12.1743
ppe	-12.1752
dont	-12.1756
▁ruse	-12.177
▁whol	-12.1792
union	-12.1792
▁toe	-12.1796
▁repl	-12.18
▁recu	-12.1804
▁massa	-12.1804
gar	-12.1808
ista	-12.1827
▁symbolic	-12.1843
mic	-12.1851
▁unde	-12.1873
▁dinn	-12.1874
val	-12.1883
▁battles	-12.1915
▁resting	-12.1922
inity	-12.1938
eologist	-12.1964
▁cuff	-12.1966
▁vamp	-12.1968
▁basi	-12.1971
▁include	-12.1971
ub	-12.1992
lat	-12.1997
▁plat	-12.1998
▁hick	-12.2008
▁prey	-12.2023
try	-12.2028
rrow	-12.203
fs	-12.2042
ak	-12.2048
▁easie	-12.2048
▁seeker	-12.2049
▁bor	-12.2066
ement	-12.2082
▁weathers	-12.2085
▁define	-12.2105
apping	-12.2118
▁exhaust	-12.2134
icy	-12.2138
▁bes	-12.2156
▁pers	-12.2161
▁socia	-12.2165
ndered	-12.217
▁nem	-12.2179
▁dense	-12.2183
▁studi	-12.2194
▁and	-12.2201
▁organise	-12.2207
▁trott	-12.2211
ono	-12.2217
▁dece	-12.2221
▁ostr	-12.2242
nn	-12.2243
cuffs	-12.2243
sco	-12.2244
▁mut	-12.2247
▁manufacture	-12.2251
▁cor	-12.2266
iving	-12.2279
strip	-12.2282
seven	-12.229
rying	-12.2291
cued	-12.2292
▁lib	-12.2309
und	-12.2315
seat	-12.2326
▁rul	-12.2327
▁goat	-12.2336
▁figures	-12.2338
▁deja	-12.234
abe	-12.237
▁humb	-12.2377
▁horribl	-12.2405
ail	-12.241
▁plumb	-12.2412
range	-12.2418
ult	-12.2438
▁strangle	-12.2439
sum	-12.244
rel	-12.2451
load	-12.2461
▁thr	-12.2465
meat	-12.2477
buscad	-12.2482
▁depr	-12.2497
▁chant	-12.2506
▁unlikel	-12.2527
▁advertis	-12.2555
▁persecut	-12.2558
▁restor	-12.2559
▁smite	-12.2564
▁bbbbbbbbb	-12.2567
cree	-12.2571
▁wail	-12.2574
▁hydra	-12.2586
law	-12.2603
nter	-12.2624
nant	-12.2636
du	-12.264
▁graduat	-12.2642
▁philosophi	-12.2645
igger	-12.2659
▁uncover	-12.2665
▁clapp	-12.2667
forward	-12.2675
ach	-12.2687
▁wrinkl	-12.2695
gle	-12.2713
chie	-12.2716
▁cance	-12.2717
oodling	-12.272
umps	-12.2737
▁oversho	-12.2737
▁minded	-12.2767
cycle	-12.2783
▁pil	-12.2801
▁ren	-12.2803
▁fam	-12.2806
uddy	-12.2812
▁goody	-12.2817
▁concentrat	-12.2831
▁picket	-12.2841
rkins	-12.2849
controlle	-12.2863
▁shower	-12.2865
▁blaz	-12.2874
thers	-12.2874
tler	-12.2883
erior	-12.289
▁cot	-12.2913
tress	-12.2915
▁nd	-12.2929
▁courte	-12.2929
ully	-12.2953
rge	-12.2975
▁pardons	-12.2993
lem	-12.3
▁solicit	-12.3012
idge	-12.3013
▁cre	-12.3027
▁anticipat	-12.305
▁goods	-12.3051
ces	-12.3052
▁zipad	-12.3053
sphere	-12.3055
▁profi	-12.3066
swin	-12.3074
ross	-12.3092
lena	-12.3102
▁gran	-12.3103
ched	-12.311
▁curr	-12.3114
▁retr	-12.3114
ounty	-12.3117
tric	-12.3121
horns	-12.3142
snt	-12.3146
cuse	-12.3146
▁spl	-12.3147
onic	-12.3155
▁lark	-12.3157
any	-12.3161
▁span	-12.3168
rock	-12.3181
▁budd	-12.3183
▁oneeye	-12.3215
oll	-12.3227
arm	-12.3228
▁ala	-12.3242
rung	-12.3248
▁gallb	-12.325
eeling	-12.3251
▁rud	-12.3255
▁panch	-12.3257
trap	-12.3259
▁rely	-12.3263
strips	-12.327
gerin	-12.3276
dding	-12.3297
lene	-12.3312
▁int	-12.3313
▁drape	-12.3313
▁demonstrati	-12.3318
▁bandy	-12.3352
▁sli	-12.3365
▁tactic	-12.3365
aced	-12.3369
era	-12.337
feeder	-12.341
rra	-12.3413
▁disp	-12.3415
▁tan	-12.3445
▁boun	-12.3446
scr	-12.345
▁lat	-12.3461
built	-12.3469
▁imper	-12.3472
ouse	-12.3474
hopper	-12.3484
own	-12.3509
eff	-12.3511
nes	-12.3529
▁dodg	-12.3531
▁kat	-12.3544
▁gast	-12.3551
▁decod	-12.3568
▁vag	-12.358
▁drivin	-12.3587
arrow	-12.359
▁beds	-12.3596
▁seein	-12.3597
yu	-12.3601
experienced	-12.3612
spirited	-12.3638
▁impe	-12.3663
unt	-12.3664
rayed	-12.3671
▁capt	-12.3678
rade	-12.3682
sure	-12.3688
▁oak	-12.3712
ndering	-12.3741
▁cer	-12.375
ife	-12.3752
▁wat	-12.3758
tions	-12.376
▁fig	-12.3769
imp	-12.377
tra	-12.3772
▁actor	-12.3775
▁softi	-12.3783
▁coll	-12.3783
▁rating	-12.3792
▁mira	-12.3806
▁remembering	-12.3813
pposed	-12.3829
youyou	-12.383
▁frustrat	-12.3831
otten	-12.384
owl	-12.3841
sky	-12.3853
eli	-12.3874
▁opportun	-12.3881
tize	-12.3881
▁intrigu	-12.389
apa	-12.3891
▁truthful	-12.3895
▁app	-12.3908
ripping	-12.3914
spel	-12.3943
ually	-12.3947
▁reassure	-12.395
▁starv	-12.3955
▁primar	-12.3958
partment	-12.3968
▁irr	-12.3973
arma	-12.3976
lapping	-12.3983
harley	-12.3985
nia	-12.4012
iter	-12.4038
rl	-12.4041
▁approv	-12.407
▁cans	-12.4073
▁expects	-12.4089
opper	-12.4094
lie	-12.4098
llard	-12.4103
ems	-12.4103
▁flu	-12.4114
▁struggl	-12.4119
▁cru	-12.412
oa	-12.4125
kata	-12.4128
▁observ	-12.4132
lamit	-12.4134
▁expan	-12.4135
hit	-12.4146
▁dori	-12.416
▁mort	-12.4172
▁mal	-12.418
▁controll	-12.4208
loo	-12.4221
ert	-12.4226
ius	-12.4233
▁sneez	-12.4234
git	-12.4243
▁ital	-12.4248
▁hugh	-12.4252
obably	-12.4262
tory	-12.4263
▁heath	-12.4278
▁hungar	-12.4306
▁bail	-12.4307
ines	-12.4313
omo	-12.4318
his	-12.4318
▁edit	-12.4324
ncy	-12.4324
rings	-12.4332
ph	-12.4377
umber	-12.4386
tal	-12.44
▁domin	-12.4405
kov	-12.4411
hoo	-12.4429
cure	-12.443
writing	-12.4432
nicker	-12.4447
hot	-12.4455
iding	-12.4457
▁twi	-12.4468
▁starr	-12.4475
▁bumblin	-12.4486
▁interlo	-12.4501
harmed	-12.4514
▁comme	-12.4515
▁considerat	-12.4527
iable	-12.4553
▁trainer	-12.4553
▁helper	-12.4566
claims	-12.4577
lar	-12.4607
mond	-12.4676
▁trav	-12.4679
▁reveren	-12.4684
atin	-12.4705
▁res	-12.4713
gra	-12.4735
▁fre	-12.4742
ctable	-12.4748
think	-12.4755
▁anima	-12.4762
▁plu	-12.4775
cre	-12.4776
cuss	-12.4788
▁annu	-12.4803
olaid	-12.4834
aws	-12.484
▁prest	-12.4842
ggers	-12.4843
▁drap	-12.4855
▁writer	-12.4871
ngs	-12.4875
erely	-12.4898
so	-12.491
mu	-12.4912
▁whitt	-12.4943
tti	-12.4943
▁clou	-12.4949
▁cou	-12.4949
▁snorin	-12.4965
reach	-12.4976
cel	-12.498
eck	-12.5014
▁inde	-12.5014
▁han	-12.5016
▁spe	-12.5023
urious	-12.5024
▁collaps	-12.5025
ain	-12.505
▁oooo	-12.5052
oquette	-12.507
rent	-12.5086
▁unfor	-12.5086
ohhh	-12.5087
pies	-12.5089
▁zipp	-12.5096
ssion	-12.5098
nip	-12.5104
▁snug	-12.5106
▁lens	-12.512
▁yippeee	-12.5124
▁talks	-12.5138
iss	-12.5142
trot	-12.5163
gre	-12.517
ague	-12.5176
ool	-12.5177
etter	-12.5178
uffed	-12.5188
cycl	-12.519
▁rin	-12.5198
▁hur	-12.52
▁grap	-12.5208
dock	-12.5226
▁babysit	-12.5235
oud	-12.5245
▁sato	-12.5254
▁admira	-12.5287
hol	-12.5296
ttering	-12.5302
coli	-12.5313
▁economi	-12.5313
mina	-12.5318
▁shov	-12.5321
▁mid	-12.5332
little	-12.5336
gest	-12.5346
guarded	-12.5355
ame	-12.5359
ust	-12.5362
sie	-12.5377
▁hor	-12.5392
sand	-12.54
ows	-12.5403
ucking	-12.5404
▁but	-12.5408
ron	-12.5409
▁opera	-12.5421
bled	-12.5423
usa	-12.5445
uary	-12.5448
see	-12.5454
▁infam	-12.5455
▁orne	-12.5458
hor	-12.5483
ros	-12.5502
▁mario	-12.5508
▁tart	-12.5518
ebra	-12.5519
would	-12.5528
▁dru	-12.5548
tending	-12.5548
▁imitat	-12.5552
▁cit	-12.5556
▁rage	-12.5563
▁interfer	-12.5563
tangos	-12.5589
burg	-12.559
ctor	-12.5601
▁daz	-12.5603
eel	-12.5605
ewes	-12.5606
eeee	-12.5606
▁mou	-12.5614
▁aaaaaaaaa	-12.5622
longs	-12.5623
eems	-12.5625
opped	-12.5627
upe	-12.5634
heel	-12.5653
rash	-12.5658
▁rustlin	-12.5659
lac	-12.5659
unds	-12.5667
cking	-12.567
entered	-12.5672
ntya	-12.5693
▁anim	-12.5699
▁urg	-12.57
▁dope	-12.5701
▁explo	-12.5717
sho	-12.5719
inest	-12.5723
vant	-12.573
arvey	-12.5739
after	-12.5761
▁ste	-12.5763
▁territ	-12.5794
▁swa	-12.5797
▁heavi	-12.5798
▁rave	-12.5806
mpressed	-12.5825
tor	-12.5832
▁doubledealin	-12.5839
ability	-12.585
unch	-12.5853
cho	-12.5853
▁geologi	-12.5865
cats	-12.5872
▁fil	-12.5872
wall	-12.5877
rative	-12.5888
gon	-12.5895
tors	-12.5896
unya	-12.5897
▁remit	-12.5912
amin	-12.5913
posed	-12.5922
▁marg	-12.5923
▁critici	-12.594
dentif	-12.595
moni	-12.5957
alities	-12.5976
▁warr	-12.5982
▁sno	-12.5983
▁sins	-12.5984
bra	-12.5986
▁det	-12.599
oopsie	-12.5991
▁rustle	-12.5991
oiled	-12.5993
▁ski	-12.601
ometer	-12.6012
eber	-12.6012
inancial	-12.6016
ddling	-12.602
▁pumpin	-12.6023
iversity	-12.6028
▁stab	-12.604
lop	-12.605
▁sensitiv	-12.6057
fried	-12.606
ms	-12.6063
emo	-12.6078
theres	-12.6083
ias	-12.6088
▁peac	-12.6093
▁hostil	-12.6101
tarts	-12.6117
▁hypocri	-12.6122
▁soakin	-12.6127
live	-12.6136
▁tak	-12.6161
▁kno	-12.618
▁ply	-12.6191
▁pos	-12.6192
▁sippin	-12.6193
ya	-12.6195
help	-12.6199
▁admi	-12.6203
▁beard	-12.6217
umption	-12.6228
eating	-12.6228
▁chargin	-12.6236
▁trou	-12.6244
lch	-12.6244
ower	-12.6252
borg	-12.6253
▁scall	-12.6256
ibble	-12.6268
▁harmon	-12.6279
abled	-12.6281
will	-12.6287
phone	-12.6294
ttle	-12.6299
not	-12.6315
stantly	-12.6319
wful	-12.6321
stage	-12.6324
▁ter	-12.6361
▁eg	-12.6407
mmer	-12.6418
uku	-12.6422
hines	-12.6433
much	-12.6433
nald	-12.6441
▁nai	-12.6443
▁tortur	-12.6445
ugg	-12.6449
vy	-12.6453
▁leak	-12.6454
rub	-12.6455
teous	-12.6503
lk	-12.6509
▁mic	-12.6513
talk	-12.6522
anything	-12.6531
ships	-12.6534
first	-12.6571
ional	-12.6582
youll	-12.6594
around	-12.661
avor	-12.662
trails	-12.6621
▁bab	-12.6627
gan	-12.6635
▁tempt	-12.6641
asked	-12.6645
oooahh	-12.6657
ails	-12.6668
cra	-12.6695
ita	-12.6696
ckers	-12.6697
▁cad	-12.6714
ought	-12.6716
▁arti	-12.6723
▁grumbl	-12.6733
▁inj	-12.6737
▁scru	-12.6748
▁recogniz	-12.6751
ectified	-12.6767
▁dens	-12.6778
eye	-12.6778
▁resi	-12.6781
ener	-12.6797
ince	-12.6798
▁saf	-12.6809
opu	-12.681
mind	-12.6816
▁frag	-12.682
usu	-12.683
▁hopi	-12.6851
za	-12.6859
ishness	-12.6864
col	-12.6866
▁aaa	-12.6893
▁spillin	-12.6931
friend	-12.6936
nin	-12.6937
▁catastroph	-12.6943
believe	-12.6948
▁simpl	-12.695
▁enchant	-12.6954
▁bagg	-12.6955
▁troubl	-12.6955
▁ut	-12.6957
walk	-12.696
▁malay	-12.6967
mitted	-12.6971
▁impressi	-12.6972
heart	-12.6979
loaded	-12.699
girl	-12.6992
atsu	-12.7004
▁strap	-12.7006
ingly	-12.7016
adder	-12.7017
▁deserv	-12.7027
▁tel	-12.7031
ending	-12.7052
▁guid	-12.7055
▁regulat	-12.7066
mor	-12.7068
acks	-12.7077
▁harden	-12.7081
▁dispa	-12.7083
▁drib	-12.7087
rangler	-12.7089
▁horr	-12.7089
weve	-12.709
racy	-12.7091
inging	-12.7095
listen	-12.7102
▁horsera	-12.7106
nstantly	-12.7113
▁prov	-12.7114
sert	-12.7121
igned	-12.7122
ition	-12.7127
ader	-12.7128
edicated	-12.7139
▁soph	-12.7154
uten	-12.7157
today	-12.7169
pretty	-12.7171
▁bumbumbum	-12.7176
lessness	-12.718
▁was	-12.7181
aylor	-12.7185
wnin	-12.7201
shadow	-12.7205
▁merr	-12.7208
▁creat	-12.7209
tri	-12.7227
▁fabric	-12.7235
▁stabili	-12.7241
dance	-12.7255
everybody	-12.7255
bound	-12.7261
iro	-12.727
aah	-12.7281
arted	-12.7286
ocket	-12.7289
▁reproducti	-12.7294
tures	-12.7303
todo	-12.7304
▁geolog	-12.7309
mm	-12.7311
▁endo	-12.7321
racking	-12.7325
minent	-12.7327
▁passe	-12.733
ugs	-12.7335
▁accord	-12.7338
earth	-12.734
ewpoint	-12.734
left	-12.7342
▁tal	-12.7346
osity	-12.7346
rilla	-12.735
ude	-12.7362
kie	-12.7365
hilo	-12.7369
ricks	-12.737
arte	-12.7379
▁ahahaha	-12.738
▁lords	-12.7386
▁sellin	-12.739
ather	-12.739
▁promisin	-12.7391
wanted	-12.7391
▁ec	-12.7394
▁cooper	-12.7396
dead	-12.7397
▁compet	-12.7399
rg	-12.7401
gener	-12.7406
▁fussin	-12.7411
raged	-12.7414
ndo	-12.7421
tantly	-12.7426
pole	-12.7428
tract	-12.7435
▁southsouth	-12.7437
uffl	-12.7447
▁tyin	-12.7452
eezo	-12.7454
▁indige	-12.7458
▁ali	-12.746
sman	-12.7461
case	-12.7462
ethe	-12.7462
▁adventur	-12.7468
▁amaz	-12.747
igh	-12.7477
dish	-12.7479
woman	-12.7481
▁forsake	-12.7487
oping	-12.749
williams	-12.7502
▁mobil	-12.7504
▁nig	-12.7505
theyll	-12.7511
clink	-12.7513
▁verif	-12.7518
▁var	-12.752
▁uhh	-12.752
▁at	-12.752
sef	-12.7525
ounded	-12.7536
gel	-12.7545
edient	-12.7548
▁crackle	-12.755
ir	-12.7554
alized	-12.7555
vo	-12.7559
▁scratchin	-12.7566
▁instruc	-12.7569
ridge	-12.7573
▁acqu	-12.7573
mark	-12.7581
pulsed	-12.7583
▁spli	-12.7584
▁lurk	-12.7588
scended	-12.7592
▁refus	-12.7596
rky	-12.7602
ban	-12.7604
important	-12.7606
second	-12.7607
erra	-12.7608
jury	-12.7608
fact	-12.7608
bush	-12.7608
▁hun	-12.761
stein	-12.7613
crazy	-12.7614
lost	-12.7618
rest	-12.762
▁iv	-12.7622
finger	-12.7626
tted	-12.763
▁defens	-12.7631
ground	-12.7632
witched	-12.7642
hush	-12.7645
chanticleer	-12.7646
flowers	-12.7647
forth	-12.7652
▁aster	-12.7654
hop	-12.7655
human	-12.7662
hhhhhh	-12.7664
▁hittin	-12.7666
dress	-12.7667
hart	-12.7669
barking	-12.7671
rod	-12.7672
▁fros	-12.7674
took	-12.7674
steady	-12.7675
week	-12.7676
bar	-12.7683
ooow	-12.7684
dog	-12.7685
▁whimp	-12.7687
lili	-12.7689
band	-12.7692
▁bee	-12.7695
journey	-12.7696
▁chuc	-12.7701
▁terr	-12.7705
mans	-12.7708
ranium	-12.7711
duct	-12.7713
▁treasur	-12.7714
balt	-12.7716
awing	-12.7719
animal	-12.772
▁acknowledg	-12.7721
clang	-12.7722
ax	-12.7722
leas	-12.7723
bop	-12.7723
flying	-12.7723
weather	-12.7727
▁revol	-12.7728
nsign	-12.7729
different	-12.7731
▁freaks	-12.7733
▁nic	-12.7735
guard	-12.7737
▁remov	-12.7737
biz	-12.774
dence	-12.7742
when	-12.7743
thousand	-12.7744
mute	-12.7746
ggy	-12.7748
fresh	-12.7748
craft	-12.7749
cue	-12.7749
▁now	-12.775
protect	-12.775
▁vie	-12.7752
kitty	-12.7753
mir	-12.7754
▁desc	-12.7755
▁rippin	-12.7759
nna	-12.7767
specially	-12.7768
wered	-12.777
leader	-12.7776
brigad	-12.7776
paper	-12.7776
dark	-12.7778
large	-12.7778
jazama	-12.7778
bike	-12.7779
▁nuf	-12.7782
hundred	-12.7784
▁princ	-12.7785
distance	-12.7785
slaves	-12.7786
finished	-12.7787
broken	-12.7788
touch	-12.7788
shazam	-12.7789
dam	-12.779
knit	-12.7792
vision	-12.7792
▁opportuni	-12.7796
script	-12.7798
drive	-12.78
▁glowin	-12.7803
doris	-12.7803
dirty	-12.7804
screw	-12.7806
worm	-12.7808
▁toggl	-12.781
wi	-12.781
fighting	-12.7812
clock	-12.7812
dinner	-12.7816
twice	-12.7816
grow	-12.7818
favor	-12.7819
argue	-12.782
▁gainin	-12.7821
fy	-12.7822
hall	-12.7822
sharp	-12.7823
kes	-12.7824
smokin	-12.7824
▁teen	-12.7826
appointed	-12.7828
cite	-12.7829
equal	-12.783
trapped	-12.7832
▁certif	-12.7836
pearl	-12.7838
basket	-12.7838
whistle	-12.7839
system	-12.7842
knife	-12.7842
eath	-12.7843
recorder	-12.7844
▁unto	-12.7846
▁trailin	-12.7847
fruit	-12.7849
club	-12.7849
channel	-12.785
chosen	-12.7851
rhythm	-12.7852
growling	-12.7852
nugget	-12.7853
strife	-12.7853
charlie	-12.7854
marc	-12.7855
dat	-12.7855
▁pac	-12.7857
morphy	-12.7857
crow	-12.7857
buster	-12.7858
scotch	-12.7858
▁petrol	-12.7858
cruise	-12.7858
plum	-12.7859
kimerakazam	-12.7859
positive	-12.786
profit	-12.786
crate	-12.7861
calculat	-12.7862
coat	-12.7863
byebye	-12.7863
ont	-12.7863
balance	-12.7864
telephone	-12.7864
fly	-12.7865
giving	-12.7865
posh	-12.7866
interesting	-12.7866
alpha	-12.7866
shirt	-12.7866
sey	-12.7866
cup	-12.7866
split	-12.7866
lifting	-12.7867
crust	-12.7868
▁publi	-12.7868
circling	-12.7868
margaret	-12.7868
design	-12.7868
jungle	-12.7869
literally	-12.7869
loaf	-12.787
teacher	-12.787
yyy	-12.787
russian	-12.7871
chuck	-12.7871
blaze	-12.7872
centered	-12.7873
bomb	-12.7873
percent	-12.7873
▁conc	-12.7873
planes	-12.7874
tracks	-12.7875
conductor	-12.7875
navy	-12.7876
frequency	-12.7876
underneath	-12.7876
woooow	-12.7876
dozen	-12.7877
pierre	-12.7877
joking	-12.7878
discovered	-12.7879
shroud	-12.7879
research	-12.7879
kansas	-12.7879
wedding	-12.788
regard	-12.7882
dient	-12.7882
campus	-12.7882
cutters	-12.7882
ladder	-12.7883
belief	-12.7885
butt	-12.7885
jet	-12.7885
lofty	-12.7886
tastin	-12.7886
pronounce	-12.7886
century	-12.7886
regularly	-12.7887
captured	-12.7887
meeting	-12.7887
respectful	-12.7887
organized	-12.7889
dressing	-12.789
blender	-12.7892
pound	-12.7893
maiden	-12.7894
▁spec	-12.7894
responsible	-12.7896
suicide	-12.7896
block	-12.7896
corps	-12.7896
drift	-12.7896
growin	-12.7897
lookin	-12.7898
udge	-12.7898
pods	-12.7899
circuit	-12.7899
ara	-12.7899
knee	-12.7899
folk	-12.7902
steak	-12.7903
ature	-12.7903
▁cigarett	-12.7904
float	-12.7905
mming	-12.7905
match	-12.7906
rville	-12.7907
rajah	-12.7907
repair	-12.7908
sausage	-12.7909
antarctic	-12.7909
clark	-12.7909
willing	-12.791
ynwittgenstein	-12.791
invited	-12.7911
drinking	-12.7911
advantage	-12.7912
gratitude	-12.7915
carrier	-12.7917
chew	-12.7917
fourth	-12.7917
oooooh	-12.7917
walking	-12.7919
proven	-12.792
shoulder	-12.7921
marching	-12.7922
starting	-12.7922
killer	-12.7923
wooow	-12.7925
naked	-12.7928
bic	-12.793
runnin	-12.7931
ibution	-12.7931
seals	-12.7932
horses	-12.7935
brides	-12.7939
shine	-12.794
▁stag	-12.7941
construction	-12.7941
turnin	-12.7942
pit	-12.7943
tured	-12.7944
▁shriek	-12.7946
azam	-12.7946
china	-12.7947
measur	-12.7947
dreaming	-12.7947
planted	-12.795
tify	-12.795
confuse	-12.7951
fort	-12.7952
▁crackin	-12.7954
passer	-12.7954
▁disturbin	-12.7954
▁hyp	-12.7955
market	-12.7956
▁vir	-12.796
spinning	-12.7961
quote	-12.7961
mistak	-12.7962
▁supple	-12.7964
joke	-12.7964
cam	-12.7964
▁serv	-12.7965
worms	-12.7965
solved	-12.7966
rush	-12.7966
friendly	-12.7968
▁jj	-12.7968
thirty	-12.7968
swim	-12.7968
▁notic	-12.7969
moral	-12.7969
▁groan	-12.797
proper	-12.7972
hguhguhguh	-12.7972
unite	-12.7973
commissione	-12.7975
radic	-12.7975
▁guhguhg	-12.7975
▁bushwhacker	-12.7978
▁prototype	-12.7978
▁troubadour	-12.7978
▁aztec	-12.7978
▁knuckle	-12.7978
▁ruffian	-12.7978
assemble	-12.7978
▁baboon	-12.7979
roaring	-12.798
erator	-12.798
▁insignia	-12.798
kaya	-12.7981
▁theatre	-12.7983
▁robber	-12.7984
▁violet	-12.7984
issue	-12.7985
▁logistic	-12.7986
▁ingrate	-12.7986
▁decoration	-12.7986
▁poacher	-12.7987
▁captiv	-12.7987
▁indoor	-12.7988
mitsus	-12.7988
▁steeple	-12.7988
moth	-12.7989
▁rattle	-12.7989
▁glitterbot	-12.7989
▁pilgrim	-12.7989
▁propeller	-12.7989
continu	-12.7991
▁provision	-12.7992
▁column	-12.7992
▁whisker	-12.7992
▁iow	-12.7994
speed	-12.7994
▁document	-12.7994
▁sprinkle	-12.7994
▁appliance	-12.7995
▁doggie	-12.7995
decorate	-12.7996
▁handcuff	-12.7996
▁trombone	-12.7996
▁crossroad	-12.7996
▁salutation	-12.7997
appro	-12.7997
▁willi	-12.7997
▁glider	-12.7998
▁ahahah	-12.8
▁goblin	-12.8
▁relation	-12.8001
▁conclude	-12.8001
▁footstep	-12.8001
▁guinea	-12.8002
beans	-12.8002
▁candle	-12.8003
sucker	-12.8003
ada	-12.8005
▁storekeep	-12.8005
▁volc	-12.8006
shelf	-12.8007
ishing	-12.8007
owners	-12.8008
fficient	-12.8008
dispens	-12.8009
zz	-12.8009
crisp	-12.8009
▁negotiation	-12.801
ashore	-12.8012
matt	-12.8013
▁ohhoho	-12.8014
▁appearance	-12.8014
outs	-12.8015
▁paratrooper	-12.8016
▁shhhhhh	-12.8016
asting	-12.8016
▁conviction	-12.8017
▁jacque	-12.8017
ankie	-12.8018
▁nigh	-12.8018
▁charl	-12.8019
norm	-12.8022
▁parkley	-12.8022
adoodledoo	-12.8023
ceiving	-12.8024
▁voic	-12.8025
recrackers	-12.8026
hours	-12.8028
crawl	-12.8029
distribut	-12.8029
▁introduc	-12.803
lived	-12.8033
shinin	-12.8033
dust	-12.8034
▁intrude	-12.8034
tada	-12.8036
▁resident	-12.8038
tjust	-12.8039
▁describ	-12.804
wuh	-12.804
ucky	-12.804
▁determin	-12.8041
▁rescu	-12.8041
bald	-12.8042
pour	-12.8044
▁dwel	-12.8044
▁assembl	-12.8044
▁schm	-12.8045
▁grape	-12.8045
listening	-12.8046
perate	-12.8047
allen	-12.8047
▁cert	-12.8049
escap	-12.8051
waves	-12.8051
▁billow	-12.8052
▁abys	-12.8053
▁bunk	-12.8054
▁nobod	-12.8055
wave	-12.8055
▁chore	-12.8057
rdan	-12.8058
▁exercis	-12.8059
▁challeng	-12.8059
▁vapor	-12.806
▁releas	-12.806
▁associat	-12.806
page	-12.8061
manner	-12.8061
gates	-12.8066
offee	-12.807
▁abominabl	-12.8071
omething	-12.8072
sticks	-12.8072
▁benefi	-12.8072
▁apologiz	-12.8072
▁alfre	-12.8073
entati	-12.8073
polite	-12.8073
▁frostbit	-12.8073
▁purchas	-12.8073
▁garde	-12.8073
▁improvis	-12.8074
igious	-12.8075
▁achiev	-12.8075
bath	-12.8076
▁sentenc	-12.8076
▁grasp	-12.8077
▁occu	-12.8077
▁terrify	-12.8077
shells	-12.8077
▁gallop	-12.8078
▁elevat	-12.8078
▁astonish	-12.8078
▁bibl	-12.8078
rage	-12.8079
▁flaming	-12.8079
ased	-12.808
▁pidg	-12.808
▁devastate	-12.8082
ear	-12.8082
▁educate	-12.8083
▁they	-12.8083
▁tastin	-12.8083
▁chirp	-12.8083
poly	-12.8084
▁pregnan	-12.8088
▁contemp	-12.8088
erous	-12.8089
eams	-12.8089
▁jeopard	-12.809
▁testimon	-12.809
▁murph	-12.8091
▁prophe	-12.8092
▁raspberr	-12.8092
▁capture	-12.8092
▁julie	-12.8093
▁paratroop	-12.8093
▁bizarr	-12.8093
▁luxur	-12.8094
▁morph	-12.8094
▁guilt	-12.8095
phics	-12.8095
miley	-12.8095
▁celebr	-12.8096
▁drippin	-12.8096
▁princip	-12.8096
gold	-12.8096
▁disobe	-12.8097
cas	-12.8097
doodledoo	-12.8098
▁anythin	-12.8098
tune	-12.8098
▁glide	-12.8099
puss	-12.8099
▁beauti	-12.8099
ind	-12.8099
▁germ	-12.8099
▁claustrophobi	-12.8099
▁citize	-12.8099
▁disc	-12.81
▁brrrr	-12.81
▁rebellio	-12.8101
▁majest	-12.8101
▁ultimate	-12.8102
▁ancho	-12.8102
gazi	-12.8102
▁cleve	-12.8103
evolve	-12.8103
▁scul	-12.8105
▁appeti	-12.8105
▁centur	-12.8105
▁tremblin	-12.8106
▁mississipp	-12.8106
▁disgustin	-12.8106
▁crop	-12.8106
aaaaaaa	-12.8107
▁biochemi	-12.8107
▁dismiss	-12.8107
honest	-12.8107
▁psych	-12.8107
▁behavio	-12.8107
▁spinnin	-12.8108
▁confedera	-12.8108
▁whoop	-12.8108
scribed	-12.8108
elamites	-12.8108
▁fiend	-12.8108
▁suff	-12.8108
umblechook	-12.8108
▁industri	-12.8108
licious	-12.8108
allelu	-12.8108
▁speculati	-12.8108
ortunate	-12.8108
ascinating	-12.8109
▁carniv	-12.8109
▁diggin	-12.8109
ormula	-12.8109
evolution	-12.8109
xactly	-12.811
▁marine	-12.811
▁onetwenty	-12.811
ummies	-12.811
▁behin	-12.811
▁consequen	-12.811
▁destructi	-12.811
qualif	-12.811
▁guhgu	-12.811
▁swam	-12.811
njun	-12.811
▁nucle	-12.8111
▁constructi	-12.8111
▁gomorra	-12.8111
kilometer	-12.8111
▁chemist	-12.8112
▁extraordina	-12.8112
▁circulat	-12.8112
▁arrogan	-12.8112
nappin	-12.8112
▁selfdefen	-12.8112
▁ridicul	-12.8112
▁whinin	-12.8112
andseek	-12.8112
▁conscien	-12.8112
▁differ	-12.8112
▁inquir	-12.8112
▁acco	-12.8112
turbed	-12.8113
azamapajama	-12.8113
iddlin	-12.8113
▁infern	-12.8113
clamation	-12.8113
occupi	-12.8113
▁austral	-12.8113
constru	-12.8113
▁sunbur	-12.8113
distinguish	-12.8113
bicycl	-12.8113
proaching	-12.8113
▁scrumpt	-12.8113
▁virgin	-12.8113
fffff	-12.8114
▁phrase	-12.8114
ographic	-12.8114
ickyicky	-12.8114
yiyiyiyi	-12.8114
aiaiaiaiai	-12.8114
lezvous	-12.8114
nosuke	-12.8114
ovelyovely	-12.8114
▁circums	-12.8114
▁respon	-12.8114
▁yooeeyooee	-12.8114
dahdahdah	-12.8114
ccccc	-12.8114
upbup	-12.8114
hurhur	-12.8114
▁neutr	-12.8114
izuki	-12.8114
▁chanticl	-12.8114
haahaa	-12.8114
▁saknus	-12.8114
▁maxim	-12.8114
uirre	-12.8114
spiration	-12.8114
▁yooee	-12.8114
dadada	-12.8114
nthrop	-12.8114
uoso	-12.8114
onauts	-12.8114
▁santia	-12.8114
▁guhguhguhguh	-12.8114
tinguishe	-12.8114
ollyolly	-12.8114
trician	-12.8114
mboli	-12.8115
hahahahahaha	-12.8115
bigbig	-12.8115
▁forbid	-12.8115
karat	-12.8115
▁fertil	-12.8115
reworks	-12.8115
▁substan	-12.8115
▁francis	-12.8115
▁assist	-12.8116
▁roo	-12.8116
▁spittin	-12.8116
▁marvel	-12.8116
▁texa	-12.8116
▁disobey	-12.8116
areareare	-12.8116
▁perc	-12.8116
sequence	-12.8116
uzzi	-12.8116
imura	-12.8116
▁cinna	-12.8116
rades	-12.8117
responsi	-12.8117
▁astron	-12.8117
▁daybrea	-12.8117
▁smoo	-12.8117
▁cruci	-12.8117
ahua	-12.8117
nahna	-12.8118
ematic	-12.8118
▁volunt	-12.8118
▁casual	-12.8118
rapture	-12.8118
oooooooooo	-12.8118
ferent	-12.8118
▁scram	-12.8119
igible	-12.8119
▁everythin	-12.8119
psided	-12.8119
wherewhere	-12.8119
ularly	-12.8119
finite	-12.8119
▁dinos	-12.812
mpered	-12.812
iversi	-12.812
▁disco	-12.812
ragement	-12.812
▁situat	-12.812
▁graph	-12.8121
dddo	-12.8121
▁hesitat	-12.8121
amura	-12.8121
ctual	-12.8121
▁destr	-12.8122
▁gamblin	-12.8122
monious	-12.8122
▁miniatur	-12.8122
▁hallelu	-12.8122
▁loneli	-12.8122
▁broth	-12.8122
▁phant	-12.8123
▁devote	-12.8123
▁nur	-12.8123
▁mysteri	-12.8123
rangement	-12.8123
▁croco	-12.8123
itzer	-12.8123
▁benj	-12.8124
valent	-12.8124
nova	-12.8124
▁andre	-12.8124
xious	-12.8124
minate	-12.8124
▁journ	-12.8125
rnament	-12.8125
▁tyran	-12.8125
nvol	-12.8125
utsk	-12.8126
rawling	-12.8126
lseye	-12.8126
livered	-12.8127
elected	-12.8127
ick	-12.8127
sket	-12.8127
ploy	-12.8128
▁as	-12.8128
▁trench	-12.8128
▁carryin	-12.8128
▁amazin	-12.8129
▁deput	-12.8129
rrito	-12.8129
▁craw	-12.8129
▁happ	-12.813
▁pea	-12.813
shrunk	-12.813
▁arguin	-12.8131
tenci	-12.8131
▁crick	-12.8131
olence	-12.8131
▁lazar	-12.8131
horn	-12.8132
▁beggin	-12.8132
abouts	-12.8132
cq	-12.8133
vention	-12.8133
▁braggin	-12.8133
itten	-12.8133
▁magnit	-12.8133
uggled	-12.8134
omination	-12.8134
▁amuse	-12.8134
▁cinder	-12.8135
▁luth	-12.8137
urgeon	-12.8137
▁reinv	-12.8137
opened	-12.8137
fait	-12.8137
▁societ	-12.8137
ags	-12.8138
▁activat	-12.8139
▁quadr	-12.8139
▁starvin	-12.814
▁merma	-12.8141
▁potent	-12.8142
lutely	-12.8142
▁nako	-12.8143
▁inco	-12.8143
▁carib	-12.8143
▁aaaaaaaaaaaaa	-12.8143
uition	-12.8144
nderson	-12.8144
rigue	-12.8144
ussn	-12.8144
eaders	-12.8145
link	-12.8146
▁surve	-12.8147
ctf	-12.8147
▁clothe	-12.8147
ixie	-12.8147
▁attach	-12.8147
venue	-12.8148
▁volu	-12.8148
cating	-12.8148
▁calcu	-12.8149
tak	-12.8149
raff	-12.8149
▁nos	-12.815
bean	-12.8151
vious	-12.8151
piracy	-12.8153
▁excu	-12.8153
▁orch	-12.8153
▁simp	-12.8153
ckett	-12.8155
▁clutter	-12.8155
▁equi	-12.8155
▁hahaha	-12.8155
culty	-12.8156
▁vita	-12.8156
dadoodled	-12.8157
▁reduc	-12.8157
nklin	-12.8158
▁fiev	-12.816
cow	-12.8161
smile	-12.8161
▁fleab	-12.8161
iamo	-12.8161
versary	-12.8162
▁profess	-12.8162
▁appo	-12.8163
diot	-12.8164
ornothing	-12.8164
nths	-12.8164
trus	-12.8165
gious	-12.8165
lapse	-12.8165
▁deputi	-12.8165
▁fraid	-12.8166
▁disast	-12.8167
pect	-12.8167
▁confid	-12.8167
▁accom	-12.8167
xico	-12.8169
▁floatin	-12.8169
hero	-12.817
ilized	-12.817
▁havi	-12.817
hooh	-12.817
fetch	-12.8171
▁despera	-12.8171
ishment	-12.8172
istics	-12.8172
▁crawlin	-12.8172
turn	-12.8172
▁commu	-12.8173
shoes	-12.8173
▁rea	-12.8174
▁dram	-12.8174
bouts	-12.8174
nezer	-12.8175
claimin	-12.8175
toget	-12.8176
▁inscr	-12.8177
▁orb	-12.8177
eflect	-12.8179
▁crock	-12.8179
amanos	-12.8179
orship	-12.818
ibut	-12.818
prising	-12.818
pigs	-12.818
▁pretties	-12.8181
▁civi	-12.8181
enstein	-12.8182
addled	-12.8182
▁willin	-12.8183
▁spani	-12.8184
snip	-12.8185
lerate	-12.8186
▁terra	-12.8186
▁torch	-12.8186
▁herb	-12.8186
rolled	-12.8186
▁greetin	-12.8186
▁sym	-12.8187
ival	-12.8187
russel	-12.8189
aval	-12.8191
lists	-12.8191
▁expose	-12.8191
loving	-12.8191
▁cosmo	-12.8192
▁spun	-12.8193
▁electro	-12.8193
▁quad	-12.8194
▁memo	-12.8195
▁refle	-12.8198
tlesh	-12.8198
wort	-12.8199
hhoh	-12.8199
▁palmer	-12.8199
dition	-12.8202
omeone	-12.8202
▁fran	-12.8202
▁claus	-12.8203
deeds	-12.8204
metic	-12.8205
adero	-12.8206
▁yellin	-12.8206
endous	-12.8206
wling	-12.8207
▁abb	-12.8211
eh	-12.8211
▁braw	-12.8213
▁trackin	-12.8213
lard	-12.8213
hoppers	-12.8214
bu	-12.8214
doll	-12.8215
▁religio	-12.8216
▁feat	-12.8217
▁jac	-12.8218
▁musk	-12.8218
▁stoppin	-12.8219
hibi	-12.8219
▁transm	-12.8219
▁ahaha	-12.8219
▁comma	-12.8221
▁overco	-12.8223
▁torpe	-12.8225
weary	-12.8225
quent	-12.8227
pleased	-12.8227
▁grea	-12.8228
▁unles	-12.8228
mania	-12.8228
▁atm	-12.823
hron	-12.8231
ienna	-12.8231
▁worl	-12.8232
▁sniffin	-12.8233
temperature	-12.8233
pions	-12.8233
▁progr	-12.8236
▁seventh	-12.8236
plicate	-12.8238
treated	-12.8238
▁rosebu	-12.8238
hemi	-12.8239
bbe	-12.824
talked	-12.8241
▁alter	-12.8243
teria	-12.8243
riding	-12.8243
urse	-12.8244
hhhhhhhhhhhh	-12.8244
▁russel	-12.8244
▁decor	-12.8245
rawlin	-12.8245
▁haunt	-12.8246
▁talon	-12.8246
nkets	-12.8248
▁confi	-12.8248
anche	-12.8248
nnie	-12.8251
▁prede	-12.8253
stration	-12.8253
ertie	-12.8255
staff	-12.8256
ketch	-12.8257
ophone	-12.8257
▁swall	-12.8257
▁samu	-12.8258
quest	-12.8259
ule	-12.826
▁peep	-12.8262
▁cameo	-12.8263
▁vu	-12.8264
uble	-12.8264
shaw	-12.8265
▁shel	-12.8267
▁nov	-12.8269
aaaaaaaaaaaaaaaa	-12.827
▁whereve	-12.827
fra	-12.827
reached	-12.8273
▁crus	-12.8274
▁keel	-12.8278
phones	-12.8278
tsugu	-12.8279
▁greenw	-12.828
▁aimin	-12.8281
axon	-12.8281
▁caroly	-12.8283
▁approachin	-12.8284
▁kry	-12.8284
▁winche	-12.8285
▁ebe	-12.8286
▁screamin	-12.8286
deck	-12.8287
▁cava	-12.8287
▁unqu	-12.8287
gian	-12.8288
acu	-12.829
fields	-12.829
lemen	-12.8292
▁statu	-12.8293
▁jew	-12.8295
▁whizz	-12.8296
fry	-12.83
▁jean	-12.8301
creased	-12.8304
▁kam	-12.8306
▁conta	-12.8307
▁mars	-12.8307
holding	-12.831
rison	-12.8311
feathered	-12.8311
runk	-12.8311
▁buzzin	-12.8312
fingers	-12.8312
fired	-12.8313
andone	-12.8314
▁manif	-12.8317
▁kami	-12.8317
▁hub	-12.8318
city	-12.8318
▁choppe	-12.8319
akable	-12.8319
poles	-12.832
rella	-12.8321
▁soc	-12.8321
▁mens	-12.8322
▁steve	-12.8323
▁piec	-12.8324
▁kra	-12.8325
▁olive	-12.8328
▁remarkabl	-12.8329
pensive	-12.8331
lux	-12.8332
▁areare	-12.8333
▁bran	-12.8334
▁rouble	-12.8335
picks	-12.8336
ggles	-12.8337
▁hahah	-12.8338
▁cutter	-12.8341
hubby	-12.8342
▁blaste	-12.8343
▁concei	-12.8345
fect	-12.8347
▁ruff	-12.8348
▁welcom	-12.8351
▁boz	-12.8352
▁refine	-12.8352
▁quart	-12.8352
imples	-12.8353
fused	-12.8353
bec	-12.8355
oze	-12.8355
isle	-12.8359
ulous	-12.8359
sify	-12.837
▁salu	-12.8373
▁reno	-12.8373
prop	-12.8373
▁harri	-12.8373
▁loco	-12.8374
beas	-12.8375
▁tuc	-12.8376
ejected	-12.8376
lver	-12.8377
carbo	-12.8377
▁coop	-12.838
tubbo	-12.8381
▁gully	-12.8381
igue	-12.8381
oulder	-12.8382
livi	-12.8383
dash	-12.8383
abulous	-12.8387
eyey	-12.8389
chow	-12.839
▁pleasin	-12.8395
holder	-12.8395
▁memori	-12.8395
lord	-12.8396
▁mik	-12.8397
▁prettie	-12.8397
standing	-12.8397
▁teet	-12.8397
▁naive	-12.8398
inia	-12.8398
vies	-12.84
▁spir	-12.8402
▁climbin	-12.8402
kazam	-12.8403
▁loadin	-12.8404
▁bough	-12.8404
▁adv	-12.8405
ladi	-12.8405
dilly	-12.8406
lywood	-12.8406
▁dro	-12.8406
▁norman	-12.8407
▁ente	-12.8408
▁smokin	-12.8409
aunted	-12.8412
hur	-12.8412
▁prom	-12.8416
throws	-12.8416
▁commo	-12.842
washing	-12.8421
asty	-12.8422
▁laug	-12.8423
mick	-12.8424
ooooa	-12.8429
▁chole	-12.843
crosse	-12.8433
mises	-12.8434
▁pep	-12.8435
▁neigh	-12.8435
ovan	-12.8437
dest	-12.8438
▁shsh	-12.8438
▁brav	-12.844
▁norma	-12.8442
▁shazam	-12.8442
▁wiggl	-12.8444
zu	-12.8448
close	-12.8451
bei	-12.8451
walks	-12.8451
tuous	-12.8456
▁mcb	-12.8456
▁concl	-12.8457
riders	-12.8457
rench	-12.8459
▁prai	-12.8463
umil	-12.8464
▁jazama	-12.8465
nock	-12.8465
ermit	-12.8465
written	-12.8467
▁cycl	-12.8468
▁hors	-12.8471
▁inex	-12.8473
▁formal	-12.8475
▁muf	-12.8476
▁centi	-12.8478
chat	-12.8481
lond	-12.8482
dians	-12.8487
ughin	-12.8489
ses	-12.8489
hum	-12.8491
visible	-12.8491
▁greeting	-12.8494
idney	-12.8496
wine	-12.8499
aaaoooo	-12.85
wich	-12.8501
iveness	-12.8502
▁hypo	-12.8504
▁wrapp	-12.8504
▁baref	-12.8505
▁prose	-12.8507
vi	-12.8508
imple	-12.851
▁schr	-12.8511
kova	-12.8514
isha	-12.8518
▁checkin	-12.8519
▁wooooa	-12.852
▁sendin	-12.8522
gration	-12.8522
uze	-12.8526
▁excellenc	-12.8528
chya	-12.8536
▁posit	-12.8536
histles	-12.8538
▁splend	-12.8538
▁stup	-12.8542
▁tootin	-12.8542
winds	-12.8546
rums	-12.8547
▁backward	-12.8548
ben	-12.8549
ille	-12.8549
▁confu	-12.8554
intensi	-12.856
▁ahhhh	-12.8561
▁disinte	-12.8561
spected	-12.8564
dquarters	-12.8566
▁drat	-12.8572
uga	-12.8573
kami	-12.8574
▁incl	-12.8576
▁helm	-12.8577
cin	-12.8581
educt	-12.8583
xes	-12.8583
▁inten	-12.8585
▁messin	-12.8588
▁coul	-12.859
▁dick	-12.8596
▁arg	-12.8596
firmati	-12.8597
acus	-12.8597
▁mute	-12.8598
tioner	-12.8601
▁demons	-12.8601
▁aaaaaa	-12.8601
▁fatte	-12.8603
▁argu	-12.8603
aisle	-12.8605
nana	-12.8607
▁mids	-12.8608
inder	-12.8608
▁rollin	-12.8609
▁overse	-12.861
ways	-12.8611
▁mer	-12.8616
ewh	-12.8618
arn	-12.8619
changed	-12.8621
yester	-12.8621
omage	-12.8621
ashi	-12.8625
allies	-12.863
eria	-12.8635
▁winne	-12.8645
▁apo	-12.8649
entious	-12.865
▁doom	-12.8651
sia	-12.8651
tom	-12.8655
▁theat	-12.8656
▁kok	-12.8657
▁aff	-12.8659
▁acqui	-12.8664
skull	-12.8664
▁promis	-12.8667
pics	-12.867
dab	-12.8674
ohhhhh	-12.8676
speaks	-12.8678
chos	-12.8678
eathe	-12.8682
ohh	-12.8683
oom	-12.8685
▁lout	-12.8685
▁por	-12.8686
urkey	-12.8697
avo	-12.8699
rrify	-12.8699
▁outin	-12.8705
[...]
