<unk>	0
<s>	0
</s>	0
s	-4.19864
▁im	-4.49073
▁dont	-4.55586
▁know	-4.67103
▁get	-4.72517
▁go	-4.74333
▁oh	-4.83425
▁right	-4.87382
▁come	-4.9026
▁got	-4.95686
▁well	-4.96225
▁like	-5.00395
▁youre	-5.06533
▁thats	-5.14631
▁one	-5.15261
▁yeah	-5.17887
▁good	-5.26391
▁think	-5.34182
▁see	-5.35003
▁na	-5.39562
▁want	-5.43554
▁hey	-5.4624
▁yes	-5.47284
▁look	-5.48896
▁ill	-5.51233
▁okay	-5.52136
▁back	-5.54696
ing	-5.56464
▁going	-5.60176
▁us	-5.60866
▁gon	-5.62465
▁time	-5.641
▁hes	-5.66475
▁cant	-5.68563
▁take	-5.729
▁say	-5.81474
ed	-5.85133
▁would	-5.85778
▁lets	-5.8698
▁way	-5.87025
▁man	-5.89255
▁never	-5.90641
▁little	-5.9083
▁thank	-5.92655
▁mr	-5.93836
▁could	-5.93845
▁tell	-5.94254
▁really	-5.94322
▁ive	-5.98363
▁sir	-5.99227
▁whats	-6.0021
▁make	-6.00461
▁something	-6.02885
▁let	-6.03518
▁l	-6.0654
▁didnt	-6.09505
▁need	-6.1039
▁sorry	-6.12265
▁mean	-6.13728
▁love	-6.13844
▁give	-6.14785
▁theres	-6.1608
▁please	-6.18854
▁help	-6.19082
▁two	-6.19775
▁	-6.20881
▁wait	-6.22476
▁sure	-6.29819
y	-6.33771
▁theyre	-6.34507
▁people	-6.3627
▁said	-6.36567
▁thing	-6.37105
▁much	-6.38368
▁must	-6.38511
▁day	-6.39238
▁uh	-6.39266
▁stop	-6.39735
▁night	-6.40358
d	-6.43647
▁great	-6.45291
▁find	-6.46022
▁away	-6.46184
▁guys	-6.47208
▁first	-6.48225
▁life	-6.48254
▁even	-6.50158
▁home	-6.50335
▁ever	-6.52494
▁keep	-6.53612
▁thought	-6.56131
▁old	-6.57598
▁put	-6.57607
▁work	-6.57819
▁anything	-6.58049
▁boy	-6.59331
▁still	-6.59719
ly	-6.60191
▁wont	-6.60664
▁shes	-6.61629
▁youve	-6.6219
▁big	-6.62366
▁call	-6.632
▁better	-6.63349
▁nothing	-6.63363
▁new	-6.64311
▁always	-6.64324
▁god	-6.64651
▁id	-6.6569
▁dad	-6.66052
▁told	-6.69562
▁coming	-6.69779
▁long	-6.69887
▁last	-6.70194
▁hi	-6.70394
▁hello	-6.70436
▁maybe	-6.70606
▁house	-6.71754
▁everything	-6.71864
▁youll	-6.72076
▁ta	-6.73194
▁talk	-6.74818
▁things	-6.75638
▁name	-6.75744
▁place	-6.76633
▁thanks	-6.77027
▁around	-6.77523
▁stay	-6.77753
▁nice	-6.77779
▁move	-6.78961
e	-6.80123
▁hear	-6.81527
▁fine	-6.82503
▁every	-6.83036
▁hold	-6.83427
▁isnt	-6.83523
▁play	-6.84933
▁believe	-6.86008
▁girl	-6.86198
▁ready	-6.86249
▁made	-6.86453
▁doesnt	-6.87155
▁hell	-6.87461
▁course	-6.89402
▁listen	-6.89746
▁leave	-6.89782
▁money	-6.91696
▁miss	-6.91968
▁kind	-6.92038
▁run	-6.92074
▁may	-6.92911
▁huh	-6.93521
▁bad	-6.9418
▁left	-6.94577
er	-6.94612
▁ok	-6.95105
▁three	-6.95534
▁feel	-6.95704
▁years	-6.96071
▁mom	-6.97782
▁world	-6.97788
▁lot	-6.98409
▁father	-6.98618
▁might	-6.99018
▁enough	-6.99754
▁wrong	-7.00034
▁weve	-7.01163
▁remember	-7.01462
▁mother	-7.01756
▁understand	-7.01913
▁show	-7.03265
▁real	-7.03667
▁guy	-7.03788
▁room	-7.04701
▁mind	-7.06206
▁next	-7.06703
▁done	-7.07612
▁wan	-7.07831
▁happened	-7.08035
▁whoa	-7.08827
▁car	-7.08951
▁wanted	-7.09056
▁school	-7.09906
▁try	-7.10906
▁talking	-7.11535
▁morning	-7.1162
▁care	-7.12536
▁excuse	-7.14161
▁together	-7.14171
▁friend	-7.15549
▁best	-7.16112
▁else	-7.16118
▁head	-7.1634
▁another	-7.16459
▁ah	-7.17071
▁watch	-7.1736
▁family	-7.1779
▁wouldnt	-7.1882
▁came	-7.19649
▁live	-7.19751
▁meet	-7.19759
▁dead	-7.20015
▁ask	-7.20922
▁tonight	-7.21545
▁today	-7.22245
▁playing	-7.22441
▁music	-7.2254
▁start	-7.22594
▁getting	-7.22719
▁baby	-7.22949
▁chuckles	-7.23354
▁someone	-7.24028
▁son	-7.25118
▁guess	-7.26194
▁kids	-7.26783
▁seen	-7.26875
▁wasnt	-7.26903
▁hard	-7.27175
▁found	-7.27253
▁minute	-7.29212
▁men	-7.29483
▁pretty	-7.29506
▁gone	-7.31555
▁heard	-7.32059
▁kid	-7.32309
▁yet	-7.32568
▁matter	-7.32709
▁hope	-7.33805
▁hand	-7.34304
▁turn	-7.34575
▁bring	-7.34739
▁mrs	-7.34746
▁idea	-7.34776
▁havent	-7.35721
▁door	-7.36311
▁happy	-7.36526
▁tomorrow	-7.36526
▁looking	-7.36567
▁everyone	-7.36944
▁many	-7.37233
▁without	-7.37746
▁fire	-7.37794
▁wish	-7.37809
▁story	-7.38161
▁use	-7.38795
▁laughing	-7.39062
▁worry	-7.39418
▁trying	-7.40319
▁em	-7.40671
▁saw	-7.41074
▁lost	-7.4108
▁george	-7.41922
▁friends	-7.42067
a	-7.42126
▁ha	-7.4326
▁kill	-7.43584
▁whole	-7.43644
▁five	-7.44085
▁days	-7.44196
▁knew	-7.44514
▁youd	-7.45843
▁since	-7.46108
▁mine	-7.46738
▁job	-7.47111
▁shut	-7.4806
▁actually	-7.48996
▁red	-7.50078
▁check	-7.50159
▁looks	-7.50442
▁bit	-7.5077
▁easy	-7.50836
▁wheres	-7.50905
▁anyone	-7.51304
▁whos	-7.51318
▁eat	-7.51799
▁everybody	-7.52242
▁alone	-7.52245
▁children	-7.5272
es	-7.53542
▁aint	-7.53674
▁went	-7.53674
▁open	-7.53991
▁stuff	-7.54154
▁dear	-7.54603
▁water	-7.54739
▁grunts	-7.54753
▁town	-7.55176
▁laughs	-7.55488
▁wow	-7.56101
▁true	-7.5612
▁end	-7.56484
▁face	-7.56494
▁hurry	-7.56593
o	-7.56714
▁second	-7.57157
▁young	-7.57491
▁took	-7.57586
▁problem	-7.57661
▁afraid	-7.58086
▁close	-7.58149
▁business	-7.58564
▁beautiful	-7.58589
▁honey	-7.5859
▁number	-7.5868
▁ray	-7.58701
▁king	-7.58801
▁lm	-7.58871
▁wife	-7.60749
▁damn	-7.6137
▁four	-7.6173
▁late	-7.61973
▁later	-7.62248
▁trouble	-7.62376
n	-7.62576
▁couldnt	-7.62729
al	-7.63003
▁shall	-7.63223
▁brother	-7.63886
▁doctor	-7.63931
▁um	-7.64262
▁game	-7.64472
▁cool	-7.6483
▁thinking	-7.64849
t	-7.64862
▁hit	-7.6511
▁woman	-7.65364
▁set	-7.65489
▁eyes	-7.65491
▁phone	-7.65602
▁dr	-7.65814
▁dance	-7.65883
▁anyway	-7.66108
▁already	-7.66446
r	-7.66918
▁far	-7.67118
▁fight	-7.67261
▁boys	-7.67314
▁soon	-7.6745
▁die	-7.67493
▁cause	-7.6761
▁used	-7.68316
▁year	-7.68332
▁heart	-7.68361
▁party	-7.68497
▁forget	-7.6864
▁dog	-7.689
▁gentlemen	-7.6921
▁stand	-7.69603
▁called	-7.70583
▁howard	-7.70904
▁funny	-7.70907
▁ago	-7.70915
▁supposed	-7.71576
▁stupid	-7.7205
▁read	-7.72588
▁fun	-7.72804
▁says	-7.72835
▁pay	-7.72859
▁continues	-7.7305
▁book	-7.7326
▁line	-7.7431
▁arent	-7.74383
▁break	-7.74891
▁parents	-7.75135
▁high	-7.75241
▁hmm	-7.75556
▁somebody	-7.75569
▁screaming	-7.75667
▁change	-7.75771
▁half	-7.75835
▁pull	-7.76473
▁sighs	-7.76818
▁heres	-7.76842
▁cut	-7.76884
▁crazy	-7.77378
▁lady	-7.77413
▁free	-7.77465
▁sit	-7.78085
▁gasps	-7.78162
▁light	-7.78341
▁chance	-7.78401
▁girls	-7.78481
▁behind	-7.78599
▁welcome	-7.78621
▁part	-7.788
▁whatever	-7.79217
▁cat	-7.79818
▁taking	-7.80479
▁pick	-7.80804
▁sleep	-7.80934
▁un	-7.81036
▁bye	-7.81093
▁quite	-7.81127
▁working	-7.81757
▁joe	-7.82205
▁hurt	-7.82461
▁inside	-7.83005
▁ooh	-7.83009
▁hands	-7.83385
▁important	-7.843
▁minutes	-7.84811
▁probably	-7.84951
▁city	-7.85616
▁exactly	-7.85621
▁news	-7.85748
▁fast	-7.86152
▁computer	-7.86158
▁walk	-7.86375
▁point	-7.86388
▁wants	-7.86703
▁hate	-7.86722
▁child	-7.86923
▁ladies	-7.86942
▁rest	-7.87051
▁learn	-7.8722
▁waiting	-7.87559
▁side	-7.87567
▁cheering	-7.87629
▁wonderful	-7.87666
▁happen	-7.87996
▁luck	-7.88123
▁save	-7.88126
▁hot	-7.88162
▁ahead	-7.88289
ve	-7.88802
▁least	-7.8897
▁making	-7.89577
▁met	-7.90255
in	-7.90477
▁word	-7.91001
▁country	-7.91032
▁almost	-7.91034
▁itll	-7.91036
▁six	-7.91265
▁bed	-7.91285
▁makes	-7.91415
i	-7.91661
▁sweet	-7.91664
▁hang	-7.91715
▁john	-7.91721
▁drink	-7.91953
▁moment	-7.92367
▁police	-7.92415
▁anymore	-7.92437
▁theyll	-7.92438
▁boss	-7.9244
▁full	-7.92865
▁death	-7.93146
▁question	-7.93146
▁lose	-7.93829
▁special	-7.93863
▁week	-7.93872
▁dale	-7.94591
▁war	-7.94866
▁goodbye	-7.96035
▁team	-7.96073
▁saying	-7.97062
est	-7.97101
▁deal	-7.97107
▁sound	-7.97165
▁duck	-7.97357
▁along	-7.97507
▁million	-7.97565
▁different	-7.98103
▁rock	-7.98132
▁throw	-7.98215
▁lts	-7.98274
▁trust	-7.98278
▁puss	-7.98821
▁grunting	-7.99057
▁green	-7.99646
▁aah	-7.99775
▁step	-7.99897
▁clear	-8.0019
▁anybody	-8.0053
▁hair	-8.00616
▁send	-8.00959
▁air	-8.01111
▁ow	-8.01145
▁brought	-8.01299
▁answer	-8.01412
▁sister	-8.01416
▁dream	-8.01436
▁ball	-8.01436
▁bob	-8.01447
▁catch	-8.01537
▁sea	-8.01766
▁crowd	-8.01769
▁safe	-8.01867
▁white	-8.02189
▁chip	-8.02201
▁dude	-8.02219
▁knows	-8.02709
▁nobody	-8.02994
▁means	-8.03536
▁write	-8.045
▁promise	-8.05208
▁henry	-8.05237
▁b	-8.05556
▁small	-8.05945
▁plan	-8.05974
▁though	-8.05989
▁land	-8.0641
▁hours	-8.06617
▁gave	-8.06832
▁perhaps	-8.06856
▁glad	-8.0686
▁touch	-8.06928
▁follow	-8.0696
▁earth	-8.06988
▁also	-8.07676
▁couple	-8.07676
▁evil	-8.07678
▁food	-8.07698
▁perfect	-8.08341
▁front	-8.08501
▁quiet	-8.09195
▁carl	-8.09226
▁captain	-8.09335
▁control	-8.09549
▁blood	-8.09553
▁times	-8.09582
▁sick	-8.10183
▁sort	-8.10399
▁sometimes	-8.10427
▁daughter	-8.10437
▁secret	-8.11128
▁dinner	-8.1124
▁general	-8.11277
▁officer	-8.11336
▁goes	-8.11829
▁truth	-8.11878
▁lord	-8.11929
▁needs	-8.12952
▁daddy	-8.13046
▁outside	-8.13537
▁drop	-8.13904
▁power	-8.1391
▁speak	-8.14263
▁asked	-8.14318
▁hows	-8.14571
on	-8.14679
▁kurt	-8.15372
▁tried	-8.15396
▁frank	-8.15398
▁win	-8.15576
▁seems	-8.15825
▁star	-8.16244
▁darling	-8.16267
▁cold	-8.16284
▁horse	-8.16436
▁reason	-8.16594
▁shoot	-8.16639
▁uncle	-8.17166
▁song	-8.1759
▁suppose	-8.17913
▁black	-8.17994
▁shouldnt	-8.18075
▁either	-8.18075
▁sounds	-8.18921
▁ya	-8.18927
▁living	-8.18991
▁till	-8.19075
▁lovely	-8.20051
▁screams	-8.20495
▁killed	-8.20519
▁ones	-8.2058
▁quick	-8.20618
▁married	-8.20854
▁president	-8.20856
▁case	-8.21265
▁growling	-8.21835
▁groans	-8.21858
▁lives	-8.21944
▁bet	-8.22078
▁drive	-8.22103
▁ship	-8.22322
▁seem	-8.22352
▁coach	-8.22669
▁top	-8.22827
▁re	-8.23062
▁singing	-8.23081
▁hotel	-8.2321
▁wonder	-8.23442
▁theyve	-8.23713
▁seven	-8.23779
▁ten	-8.23812
▁able	-8.23886
▁buy	-8.24158
▁fact	-8.24171
▁comes	-8.24548
▁th	-8.24611
▁hour	-8.24984
▁yi	-8.25651
▁sent	-8.25665
▁mary	-8.25695
▁s	-8.26573
▁dangerous	-8.26657
▁mmm	-8.26681
en	-8.26994
▁blue	-8.27197
▁ben	-8.27343
▁finally	-8.27716
▁meant	-8.28066
▁started	-8.28459
▁telling	-8.28531
▁leaving	-8.28662
▁rather	-8.28662
▁poor	-8.28664
▁fred	-8.28723
▁person	-8.29171
▁happening	-8.29231
▁class	-8.29451
▁office	-8.29625
▁moving	-8.29683
▁body	-8.29686
▁scared	-8.30809
▁cats	-8.3095
▁names	-8.31169
▁taken	-8.31363
▁camp	-8.31743
▁harry	-8.31761
▁piece	-8.32444
▁p	-8.32665
▁running	-8.32813
▁gun	-8.32978
▁miles	-8.33264
▁strange	-8.33814
▁buddy	-8.33871
▁g	-8.34014
ers	-8.34064
▁ride	-8.34524
▁worth	-8.34758
▁careful	-8.34852
▁wizard	-8.34946
▁lucky	-8.35225
▁fall	-8.35322
▁books	-8.35422
▁road	-8.35649
▁karen	-8.36034
▁maam	-8.36034
l	-8.36103
▁sing	-8.36105
▁mama	-8.36163
ie	-8.36202
▁loved	-8.36428
▁fish	-8.36462
▁slow	-8.36883
▁lunch	-8.37129
▁alive	-8.3714
▁calm	-8.37142
▁died	-8.3752
▁shot	-8.37884
▁wed	-8.37949
▁fly	-8.37981
▁law	-8.38039
▁human	-8.39046
▁bees	-8.39209
▁dark	-8.39359
▁sign	-8.39385
▁billy	-8.3955
▁pass	-8.39624
▁bill	-8.39833
▁happens	-8.39881
▁smell	-8.40012
▁aunt	-8.40122
▁somewhere	-8.40503
▁david	-8.40504
▁feet	-8.40511
▁shell	-8.40591
▁gene	-8.40725
▁beat	-8.41071
▁eye	-8.41145
▁n	-8.41487
▁women	-8.41657
▁train	-8.41741
▁faster	-8.41817
▁months	-8.42266
▁window	-8.42543
▁chief	-8.42815
▁forever	-8.42816
▁rowley	-8.42816
▁gets	-8.431
▁wear	-8.43375
▁mad	-8.43688
▁christian	-8.437
▁gadget	-8.43989
▁none	-8.44029
▁feeling	-8.44209
▁bear	-8.44374
▁de	-8.44501
▁christmas	-8.45182
▁shouting	-8.45254
▁return	-8.458
or	-8.45958
▁turned	-8.46043
▁mud	-8.46083
▁finish	-8.46107
▁become	-8.46132
▁serious	-8.4625
▁straight	-8.46358
▁date	-8.46528
▁evening	-8.4666
▁cover	-8.47141
▁potter	-8.47343
▁voice	-8.4741
▁witch	-8.47551
ion	-8.47826
▁master	-8.48609
▁jellicle	-8.48643
▁kermit	-8.48841
▁questions	-8.48845
▁eight	-8.48848
▁c	-8.48857
able	-8.48859
▁quickly	-8.49022
▁tom	-8.49092
▁boat	-8.49899
▁key	-8.49933
▁except	-8.50065
▁jeremy	-8.50091
▁security	-8.50094
▁born	-8.50128
▁hed	-8.50299
▁order	-8.50483
▁dollars	-8.50576
▁enjoy	-8.50676
▁a	-8.50681
ies	-8.50706
▁figure	-8.5097
▁picture	-8.51195
▁greg	-8.51341
▁brenda	-8.51359
▁cheese	-8.51361
▁kidding	-8.51361
▁mouse	-8.51364
▁oz	-8.51371
▁words	-8.51421
▁grow	-8.51973
▁worked	-8.52019
▁dress	-8.52295
▁deep	-8.52402
▁round	-8.52429
▁magic	-8.52468
▁company	-8.52639
▁pleasure	-8.52639
▁wake	-8.52673
▁chattering	-8.52794
▁speaking	-8.53197
▁radio	-8.5334
▁weeks	-8.53924
▁count	-8.53938
▁friday	-8.53939
▁fault	-8.53946
▁building	-8.54014
▁expect	-8.5458
▁works	-8.54777
▁box	-8.54821
▁marry	-8.54837
▁engine	-8.54898
▁jack	-8.54963
▁street	-8.5514
▁alex	-8.55254
▁major	-8.55254
▁across	-8.55254
▁jesus	-8.55258
▁shit	-8.55311
▁join	-8.55857
▁stick	-8.55885
▁handle	-8.5589
▁map	-8.55907
▁ground	-8.56168
▁bank	-8.56342
▁terrible	-8.56613
▁peach	-8.56624
▁fat	-8.56872
re	-8.5695
▁shh	-8.57148
▁kiss	-8.57207
▁aw	-8.57222
▁brain	-8.57484
▁weird	-8.5776
▁near	-8.57793
tor	-8.57899
▁dorothy	-8.57938
▁caught	-8.57938
▁giving	-8.5794
▁finished	-8.58259
▁saved	-8.58264
▁imagine	-8.59139
▁entire	-8.59169
▁coffee	-8.59175
▁animal	-8.59254
ic	-8.59282
▁forgot	-8.59299
▁foot	-8.59303
▁birthday	-8.59308
▁hungry	-8.59312
▁others	-8.59338
▁busy	-8.59451
st	-8.59725
▁brothers	-8.6025
▁dreams	-8.60478
▁calling	-8.60625
▁tea	-8.60658
▁wild	-8.60681
▁van	-8.60696
▁reach	-8.61506
▁blow	-8.61602
▁fair	-8.61776
▁known	-8.61828
▁sense	-8.61986
▁tree	-8.62094
▁field	-8.62104
▁possible	-8.62108
▁goddamn	-8.6211
▁lll	-8.62322
us	-8.62583
▁f	-8.62705
▁grand	-8.62872
▁ho	-8.62964
▁sell	-8.63068
▁short	-8.63218
▁favorite	-8.63402
▁strong	-8.63406
▁present	-8.63481
▁scott	-8.63534
▁tough	-8.63534
▁space	-8.63543
▁gary	-8.63559
▁unless	-8.63562
▁asking	-8.63671
▁art	-8.63703
▁cute	-8.64144
▁leg	-8.64422
▁josh	-8.64604
▁in	-8.64786
▁summer	-8.6494
▁attention	-8.64983
▁grab	-8.64983
▁proud	-8.64985
▁absolutely	-8.64998
▁heh	-8.64999
▁planet	-8.65007
▁clean	-8.65159
▁state	-8.65404
▁yo	-8.65442
▁push	-8.65561
▁lt	-8.65673
▁queen	-8.657
▁awful	-8.65753
▁charge	-8.65839
▁bird	-8.66434
▁alvin	-8.66454
▁manny	-8.66494
▁monster	-8.66504
▁letter	-8.6656
▁past	-8.6677
▁changed	-8.66854
▁tim	-8.66989
▁relax	-8.67158
▁tight	-8.67751
▁share	-8.67787
▁middle	-8.67946
▁ellie	-8.67947
▁mike	-8.67954
▁wedding	-8.67962
▁early	-8.68036
▁sun	-8.68082
▁st	-8.6809
▁lights	-8.68435
▁e	-8.68678
▁low	-8.69452
▁appreciate	-8.69461
▁worse	-8.69461
▁york	-8.69463
▁amazing	-8.69465
▁mistake	-8.6947
▁tv	-8.69473
▁choice	-8.69474
▁susan	-8.69474
▁wilma	-8.69474
▁panting	-8.69501
▁certainly	-8.69582
▁holy	-8.69605
ll	-8.69896
▁roll	-8.70158
▁longer	-8.70161
▁commenta	-8.70177
▁fool	-8.70798
▁butt	-8.70823
▁surprise	-8.70885
▁smart	-8.70903
▁afternoon	-8.71
▁alexander	-8.71
▁felt	-8.71
▁tired	-8.7101
▁service	-8.7107
▁granny	-8.71082
▁pig	-8.71087
▁island	-8.71095
▁jump	-8.71612
▁seconds	-8.7235
▁rich	-8.72364
▁k	-8.72385
▁ch	-8.72415
▁hero	-8.72436
▁harold	-8.72562
▁scene	-8.72562
▁hasnt	-8.72563
▁ernie	-8.72564
▁hide	-8.72609
▁bailey	-8.7264
▁fear	-8.73525
▁plans	-8.73776
▁fix	-8.73862
▁attack	-8.73864
▁seat	-8.74092
▁broke	-8.74109
▁eh	-8.74147
▁meimei	-8.7415
▁third	-8.7415
▁nope	-8.7415
▁mister	-8.74164
▁yelling	-8.7424
▁princess	-8.74266
▁table	-8.74273
▁mark	-8.74326
▁ringing	-8.74455
▁looked	-8.7492
▁report	-8.75118
▁test	-8.75276
▁bag	-8.75348
▁lead	-8.75384
▁bell	-8.75419
▁wind	-8.75628
▁throat	-8.75762
▁gold	-8.75764
▁boots	-8.75765
▁groaning	-8.75791
▁anna	-8.75878
▁husband	-8.75928
▁paper	-8.75968
▁given	-8.76437
▁dogs	-8.76661
▁hunt	-8.76893
▁beach	-8.77341
▁angus	-8.77402
▁upon	-8.77409
▁ran	-8.77465
▁mm	-8.77502
▁chicken	-8.77559
▁egg	-8.77625
▁dare	-8.78099
▁trip	-8.78207
▁kick	-8.78242
▁explain	-8.78518
▁cry	-8.78691
▁rescue	-8.78895
▁indistinct	-8.78931
man	-8.78944
▁bee	-8.79016
▁french	-8.79062
▁worried	-8.79068
▁anywhere	-8.79069
▁stuck	-8.79071
▁definitely	-8.79074
▁carmen	-8.791
▁broken	-8.79118
▁dirty	-8.79127
▁decided	-8.79159
▁warner	-8.7916
▁alan	-8.79274
▁ice	-8.79296
▁frog	-8.79319
▁goin	-8.79409
▁super	-8.79431
▁la	-8.79622
▁bus	-8.79727
▁less	-8.79862
▁lived	-8.7988
▁cops	-8.80463
▁doug	-8.80726
▁werent	-8.80766
▁race	-8.8081
▁press	-8.80841
▁mountain	-8.81013
▁movie	-8.81053
▁certain	-8.81528
▁player	-8.8171
▁age	-8.81855
▁post	-8.81937
▁spend	-8.82095
out	-8.82301
▁fell	-8.82419
▁dennis	-8.82487
▁excellent	-8.82487
▁football	-8.82492
▁cop	-8.82506
▁ass	-8.82563
▁board	-8.82655
▁nose	-8.82659
▁besides	-8.82703
▁grandma	-8.82727
▁message	-8.82773
▁mate	-8.82785
▁wearing	-8.8305
▁simple	-8.83084
▁joke	-8.83125
▁wondering	-8.83175
▁needed	-8.83251
▁missing	-8.83307
▁mighty	-8.83589
▁teach	-8.84027
▁mouth	-8.84131
▁wrote	-8.84242
▁forward	-8.84244
▁walter	-8.84253
▁nine	-8.84261
▁wall	-8.8442
▁south	-8.84425
▁sword	-8.84441
▁watching	-8.8449
▁soul	-8.84501
▁thousand	-8.84575
▁pal	-8.84636
▁shoes	-8.84702
▁arm	-8.84779
▁killer	-8.84817
▁w	-8.85636
▁spy	-8.85694
an	-8.857
▁practice	-8.85853
▁bomb	-8.85974
▁river	-8.86024
▁congratulations	-8.86028
▁crusoe	-8.86028
▁private	-8.86028
▁yesterday	-8.86028
▁papa	-8.86029
▁stopped	-8.86067
▁totally	-8.86101
▁pop	-8.8626
▁spot	-8.86289
▁roger	-8.86387
▁crying	-8.86439
▁rid	-8.86499
▁lie	-8.86761
▁ii	-8.86889
▁carry	-8.87465
▁glass	-8.8779
▁floor	-8.87848
▁christ	-8.8785
▁uhhuh	-8.87854
▁mommy	-8.87865
▁bitch	-8.879
▁bar	-8.87978
▁missed	-8.88003
▁pete	-8.88026
▁area	-8.88183
▁prince	-8.8819
▁machine	-8.88195
▁camera	-8.88219
▁moved	-8.89161
▁protect	-8.89333
▁escape	-8.89524
▁build	-8.89613
▁forgive	-8.89621
▁ought	-8.897
▁future	-8.89701
▁theyd	-8.89724
▁sad	-8.89726
▁birds	-8.89739
▁peter	-8.8978
▁horn	-8.89842
▁action	-8.90111
▁monkey	-8.90117
▁meeting	-8.90209
▁ahh	-8.9035
▁todd	-8.9076
▁wh	-8.90835
▁offer	-8.91329
▁laugh	-8.91372
▁realize	-8.91458
▁act	-8.91488
▁hospital	-8.91573
▁zach	-8.9158
▁hannah	-8.91584
▁college	-8.91585
▁kevin	-8.91585
▁chess	-8.91591
▁size	-8.91757
▁army	-8.9178
▁locked	-8.91807
▁doubt	-8.91819
▁interesting	-8.91833
▁growls	-8.9185
you	-8.91875
▁moon	-8.91937
▁pa	-8.91965
▁unit	-8.92011
ful	-8.92485
▁hat	-8.92596
▁mess	-8.92721
▁horses	-8.92723
▁d	-8.9274
▁code	-8.93032
ary	-8.93156
▁eggs	-8.93246
▁fit	-8.93335
▁pain	-8.93374
▁history	-8.93508
▁situation	-8.93508
▁vegas	-8.93508
▁famous	-8.9351
▁robin	-8.93511
▁often	-8.93513
▁indeed	-8.93518
▁impossible	-8.9353
▁roy	-8.93534
▁north	-8.93755
▁folks	-8.93777
▁owe	-8.93799
▁higher	-8.93816
▁r	-8.93928
▁richard	-8.93957
▁idiot	-8.94002
▁mei	-8.94141
▁ohh	-8.94203
▁whoo	-8.9476
▁swear	-8.95017
▁base	-8.95047
▁allow	-8.95193
▁continue	-8.9535
▁church	-8.9539
▁quit	-8.95411
▁seeing	-8.95412
▁martin	-8.95417
▁melissa	-8.95468
▁marnie	-8.95469
▁court	-8.95469
▁mmhmm	-8.95472
▁dave	-8.95491
▁animals	-8.95548
▁james	-8.95584
▁tony	-8.95619
▁gasping	-8.9562
▁interested	-8.95659
▁gus	-8.95666
▁kitchen	-8.95869
▁single	-8.95891
▁heads	-8.96017
▁double	-8.96063
▁hill	-8.9612
▁suit	-8.96164
▁ring	-8.96277
m	-8.96369
▁mention	-8.96731
▁destroy	-8.97185
▁killing	-8.97217
▁clever	-8.97347
▁personal	-8.97412
▁accident	-8.97466
▁fahmarr	-8.97468
▁kept	-8.97468
▁angry	-8.97469
▁upset	-8.97469
▁candy	-8.97471
▁zack	-8.97471
▁yep	-8.97472
▁sake	-8.97473
▁danger	-8.97497
▁gosh	-8.97767
▁truck	-8.97977
▁hundred	-8.98051
▁stars	-8.98682
ness	-8.9894
le	-8.99077
▁arms	-8.99119
▁eating	-8.99143
▁swim	-8.99437
▁sergeant	-8.99509
▁washington	-8.9951
▁outta	-8.99512
▁everywhere	-8.99517
▁greatest	-8.99952
▁promised	-8.99953
▁talked	-9.00098
▁trick	-9.00323
▁fired	-9.00331
h	-9.0041
▁fu	-9.00447
▁named	-9.01057
▁cross	-9.01311
▁normal	-9.01443
▁leo	-9.01567
▁bottom	-9.01592
▁thunder	-9.01592
▁instead	-9.01593
▁bunch	-9.01594
▁soccer	-9.01595
▁kitty	-9.01596
▁clothes	-9.01603
▁aye	-9.01618
▁sitting	-9.01629
▁beeping	-9.0173
▁lay	-9.01762
▁pants	-9.01801
▁final	-9.01976
▁honor	-9.02207
▁battle	-9.02247
▁bastard	-9.02248
▁stone	-9.02285
▁form	-9.02936
▁games	-9.03002
▁fighting	-9.03062
ation	-9.03259
▁steal	-9.03335
▁west	-9.03559
k	-9.03571
▁ridiculous	-9.0372
▁committee	-9.0372
▁nowhere	-9.03723
▁whistle	-9.03723
▁arthur	-9.03723
▁exclaims	-9.03738
▁forest	-9.03743
▁sam	-9.04283
▁group	-9.04337
▁mission	-9.04467
▁beer	-9.04471
▁american	-9.04477
▁ted	-9.04491
ity	-9.0473
▁huge	-9.04886
up	-9.05292
▁search	-9.05497
▁bright	-9.05756
▁crash	-9.05766
▁lake	-9.05858
▁france	-9.05899
▁paid	-9.059
▁extra	-9.05982
▁starting	-9.06094
▁pictures	-9.06173
▁record	-9.06248
▁whose	-9.06425
▁system	-9.06609
▁bridge	-9.06662
ous	-9.06931
▁park	-9.06991
less	-9.07029
▁club	-9.07105
▁risk	-9.07218
c	-9.07384
ment	-9.07392
▁breath	-9.07571
▁problems	-9.0778
▁papers	-9.07848
▁difficult	-9.07909
▁large	-9.08064
▁public	-9.08104
▁peace	-9.08106
▁awesome	-9.08116
▁hamilton	-9.08116
▁spongebob	-9.08116
▁wolf	-9.08116
▁robert	-9.08117
▁lloyd	-9.08119
▁doin	-9.08134
▁usually	-9.08173
▁obviously	-9.08176
▁o	-9.08517
▁force	-9.08758
▁t	-9.08763
▁woods	-9.08782
▁cell	-9.08845
▁heaven	-9.08935
▁band	-9.08947
▁begin	-9.08955
▁tail	-9.08995
▁walking	-9.09411
▁standing	-9.09661
▁fill	-9.10043
▁smile	-9.10111
▁keeps	-9.10134
▁juni	-9.10374
▁england	-9.10389
▁heavy	-9.10389
▁london	-9.10389
▁otis	-9.10389
▁driving	-9.10389
▁harper	-9.10391
▁vacation	-9.10393
▁breakfast	-9.10393
▁betty	-9.10398
▁simply	-9.10405
▁dying	-9.1043
▁sky	-9.10439
▁royal	-9.10447
▁rangers	-9.10479
▁losing	-9.10501
▁surprised	-9.1063
▁seriously	-9.10649
▁scream	-9.10845
▁crime	-9.11022
▁gift	-9.11256
▁over	-9.11326
▁plane	-9.11468
▁lee	-9.11651
▁experience	-9.12548
▁dumb	-9.12592
▁max	-9.12691
▁dads	-9.12709
▁byebye	-9.12715
▁english	-9.12715
▁foster	-9.12715
▁spent	-9.12716
▁meh	-9.12718
▁ugh	-9.12748
▁track	-9.1275
▁center	-9.1275
▁involved	-9.12754
▁powerful	-9.12759
▁national	-9.12775
▁nearly	-9.12952
▁closed	-9.13481
▁language	-9.1353
▁contact	-9.13609
▁hole	-9.13796
▁loves	-9.14079
▁grace	-9.14094
▁breaking	-9.14259
g	-9.14553
p	-9.14763
ey	-9.149
▁howd	-9.14929
▁prepare	-9.14959
▁madam	-9.14985
▁especially	-9.15096
▁hadnt	-9.15096
▁neither	-9.15096
▁nicole	-9.15096
▁twice	-9.15096
▁dancing	-9.15099
▁ronnie	-9.15099
▁card	-9.15162
▁fay	-9.15162
▁takes	-9.15174
▁cook	-9.1524
▁shed	-9.15289
▁visit	-9.15504
▁speed	-9.15586
▁station	-9.15723
▁gas	-9.15795
▁shop	-9.15926
▁alarm	-9.15928
▁decision	-9.1604
▁position	-9.16067
▁h	-9.16401
▁blame	-9.17352
▁raise	-9.17371
▁fresh	-9.17522
▁pardon	-9.17535
▁floop	-9.17535
▁asleep	-9.17535
▁courage	-9.17535
▁charlie	-9.17535
▁rumbling	-9.17536
▁bruce	-9.17536
▁thatll	-9.17537
▁stories	-9.17538
▁drunk	-9.1754
▁silly	-9.17547
▁hut	-9.17548
▁helping	-9.17618
▁list	-9.17731
▁knock	-9.17761
▁lifting	-9.17794
▁figured	-9.17855
ting	-9.17901
▁shouts	-9.18099
▁passed	-9.18154
▁guard	-9.18251
▁legend	-9.18542
▁bite	-9.18663
▁store	-9.18764
th	-9.18907
▁warm	-9.19545
▁si	-9.19597
▁accept	-9.19721
ive	-9.19741
ish	-9.19787
▁loud	-9.19814
▁waste	-9.19865
▁brave	-9.19866
▁players	-9.19885
▁merlin	-9.20035
▁upstairs	-9.20035
▁support	-9.20035
▁jason	-9.20037
▁comfortable	-9.20041
▁trees	-9.20068
▁match	-9.20117
▁uhh	-9.20252
▁chipmunks	-9.20276
▁closer	-9.20281
▁andy	-9.20328
▁lock	-9.20403
▁breathing	-9.20468
▁con	-9.20524
▁respect	-9.20563
▁ln	-9.20611
▁rudy	-9.2099
▁film	-9.21072
▁strike	-9.21109
▁farm	-9.21149
▁prove	-9.2159
ce	-9.21686
▁agree	-9.21986
▁block	-9.22327
▁garden	-9.22534
▁legs	-9.22585
▁daniel	-9.22599
▁bigger	-9.22599
▁speech	-9.22599
▁nancy	-9.22599
▁common	-9.22599
▁alright	-9.226
▁biggest	-9.22602
▁stargirl	-9.22602
▁memory	-9.22606
▁maddy	-9.22608
▁truly	-9.22613
▁mice	-9.22614
▁whered	-9.22642
▁blows	-9.22643
▁yall	-9.22646
▁suddenly	-9.22668
▁shake	-9.22709
▁softly	-9.22732
▁lf	-9.22781
▁thas	-9.22787
▁fathers	-9.22828
▁el	-9.22951
▁calls	-9.23044
▁not	-9.23235
▁goodness	-9.23267
▁taste	-9.23551
▁ocean	-9.2362
▁corner	-9.23628
▁theatre	-9.23662
▁girlfriend	-9.23666
▁shooting	-9.23711
▁philip	-9.23801
▁dar	-9.23905
by	-9.24659
▁jj	-9.24743
▁brown	-9.24778
ten	-9.24809
▁soft	-9.25091
▁paul	-9.25166
▁stops	-9.25214
▁village	-9.25221
▁beatrix	-9.2523
▁cruel	-9.2523
▁evidence	-9.2523
▁scoffs	-9.2523
▁shouldve	-9.2523
▁worst	-9.2523
▁advance	-9.2523
▁genius	-9.2523
▁travis	-9.2523
▁interview	-9.2523
▁choose	-9.25231
▁beginning	-9.25232
▁emergency	-9.25233
▁comin	-9.25233
▁beauty	-9.25233
▁possibly	-9.25233
▁within	-9.25234
▁department	-9.25235
▁kingdom	-9.25237
▁fancy	-9.25237
▁rogo	-9.25237
▁apartment	-9.25242
▁lonely	-9.25246
▁lying	-9.25295
▁wet	-9.25316
▁played	-9.25667
▁wings	-9.25799
ch	-9.26277
▁guest	-9.26322
▁cake	-9.26433
▁spirit	-9.26457
▁month	-9.26509
▁teacher	-9.26607
▁staying	-9.27093
▁pray	-9.27123
▁wash	-9.2724
▁ar	-9.27289
▁program	-9.27349
ar	-9.27534
▁ma	-9.27544
▁nights	-9.27751
▁beg	-9.27869
▁america	-9.27883
▁beverly	-9.27933
▁daphne	-9.27933
▁mmmhmm	-9.27933
▁giant	-9.27934
▁jerry	-9.27936
▁written	-9.27936
▁chuckling	-9.27937
▁loan	-9.27939
▁panda	-9.27939
▁piggy	-9.27949
▁excited	-9.27952
▁crane	-9.27966
▁nasty	-9.27971
▁arrived	-9.27985
▁starts	-9.2799
▁squeaking	-9.28089
▁treat	-9.28232
▁orders	-9.28302
▁destroyed	-9.28318
▁bother	-9.28397
▁rain	-9.28601
▁places	-9.28745
▁tuck	-9.28859
▁scare	-9.28988
▁couldve	-9.28998
▁flowers	-9.29123
▁brace	-9.2917
▁picked	-9.29176
▁doors	-9.29362
▁snow	-9.30068
▁gods	-9.30219
▁remain	-9.30377
▁honest	-9.30383
▁arrest	-9.30428
▁introduce	-9.30542
▁monsters	-9.30625
▁sweetheart	-9.30711
▁theodore	-9.30711
▁jones	-9.30711
▁bought	-9.30711
▁mostly	-9.30711
▁local	-9.30714
▁property	-9.30714
▁enemy	-9.30714
▁teeth	-9.30715
▁dropped	-9.30722
▁shame	-9.30922
▁wally	-9.31039
▁mayor	-9.31077
▁rat	-9.31214
▁dame	-9.31239
▁flying	-9.31684
▁belong	-9.31804
▁tickets	-9.32016
▁hall	-9.32038
▁eagle	-9.32058
▁fellow	-9.32063
▁cow	-9.32095
▁cost	-9.3215
▁hanging	-9.3226
ine	-9.32276
▁tip	-9.32291
▁songs	-9.32358
▁ls	-9.32859
▁pack	-9.32891
▁due	-9.32899
way	-9.33028
▁merr	-9.33345
▁telephone	-9.33355
▁dis	-9.33388
▁notice	-9.33406
▁nervous	-9.33426
▁warne	-9.33442
▁thinks	-9.33449
▁hung	-9.33472
▁showed	-9.33481
▁tall	-9.33563
▁became	-9.33568
▁colonel	-9.33569
▁woodward	-9.33569
▁monty	-9.33569
▁hooch	-9.3357
▁information	-9.33571
▁sugar	-9.33571
▁justice	-9.33572
▁weekend	-9.33574
▁view	-9.33582
▁oil	-9.3359
▁ella	-9.33594
▁crown	-9.33595
▁exciting	-9.33596
▁barking	-9.33634
▁cole	-9.33644
▁dust	-9.33696
▁whatd	-9.33714
▁jill	-9.33786
▁dry	-9.33962
▁keys	-9.33985
▁acting	-9.34153
▁interest	-9.34336
▁liked	-9.34357
▁cos	-9.34539
▁rule	-9.34728
▁bowl	-9.34737
▁m	-9.3479
▁ear	-9.348
▁favor	-9.34939
▁partner	-9.35017
▁reading	-9.35503
▁draw	-9.35892
▁clears	-9.36123
▁study	-9.36127
▁fletch	-9.36414
▁states	-9.36454
▁cash	-9.36465
▁applause	-9.36509
▁audience	-9.36509
▁lieutenant	-9.36509
▁majesty	-9.36509
▁amanda	-9.36509
▁appointment	-9.3651
▁bread	-9.36517
▁jail	-9.36518
▁barn	-9.36518
▁heck	-9.36518
▁ugly	-9.36519
▁pressure	-9.36519
▁patrick	-9.36519
▁johnny	-9.3652
▁wicked	-9.36522
▁neck	-9.36527
▁tomatoes	-9.36537
▁disgusting	-9.36549
▁stolen	-9.36553
▁lab	-9.36606
▁witches	-9.3665
▁noticed	-9.36678
▁coughing	-9.36701
▁feed	-9.36957
▁bucks	-9.3732
▁ba	-9.37573
b	-9.37648
▁fingers	-9.37673
▁lad	-9.37723
▁clock	-9.37994
▁season	-9.38032
▁rabbit	-9.38044
▁noise	-9.38051
▁older	-9.38059
▁turns	-9.38228
▁faith	-9.38503
▁twenty	-9.39268
▁pigs	-9.39313
▁health	-9.39356
▁sand	-9.39435
▁loose	-9.39498
▁project	-9.39516
▁champ	-9.39517
▁prefer	-9.39536
▁keller	-9.39539
▁plenty	-9.39539
▁terrific	-9.39539
▁kelly	-9.3954
▁linda	-9.3954
▁aaah	-9.39541
▁danny	-9.39541
▁apologize	-9.39541
▁inspector	-9.39541
▁knife	-9.39543
▁duty	-9.39545
▁laughter	-9.39546
▁aboard	-9.39547
▁sold	-9.39559
▁j	-9.39566
▁uhoh	-9.39568
▁manager	-9.39571
▁mustnt	-9.39642
▁nature	-9.39692
▁ate	-9.39695
ether	-9.39705
▁x	-9.39715
▁richie	-9.3975
▁lots	-9.398
▁nuts	-9.39873
▁desert	-9.39946
go	-9.4002
▁expecting	-9.40439
▁command	-9.40449
▁heat	-9.4059
ng	-9.40634
▁breathe	-9.40642
▁pieces	-9.40655
▁paris	-9.40743
▁deserve	-9.40989
▁vote	-9.41064
▁bike	-9.41072
▁conversation	-9.41092
▁listening	-9.4111
▁operation	-9.41113
▁restaurant	-9.41118
▁lawyer	-9.41136
▁ticket	-9.41214
time	-9.41242
ry	-9.41555
▁movies	-9.42129
▁milk	-9.42263
▁chatter	-9.42292
▁complete	-9.42348
▁release	-9.42498
▁proper	-9.42529
▁toast	-9.42559
▁surely	-9.42618
▁tour	-9.42632
▁character	-9.42662
▁mitchell	-9.42664
▁crew	-9.42665
▁pool	-9.4267
▁batman	-9.42679
▁began	-9.42682
▁whimpering	-9.42683
▁mail	-9.42737
▁completely	-9.42802
▁honestly	-9.4282
▁se	-9.42911
▁worlds	-9.43033
▁yells	-9.43342
▁dressed	-9.43384
▁denys	-9.43389
▁kinda	-9.43399
▁feelings	-9.43407
▁helped	-9.43438
▁fellas	-9.43493
▁of	-9.43742
me	-9.44071
▁bat	-9.44136
▁rules	-9.44245
▁gate	-9.44408
▁bond	-9.44444
▁yard	-9.44463
▁type	-9.44643
son	-9.44969
▁lion	-9.45068
▁opening	-9.45214
▁market	-9.45472
▁paint	-9.45591
▁pat	-9.45716
▁bligh	-9.45826
▁alphonse	-9.4589
▁built	-9.4589
▁eleanor	-9.4589
▁haldeman	-9.4589
▁tiktok	-9.4589
▁bedders	-9.45891
▁cream	-9.45891
▁roof	-9.45891
▁crap	-9.45893
▁violet	-9.45894
▁soup	-9.45899
▁jacket	-9.45901
▁elizabeth	-9.45901
▁species	-9.45901
▁incredible	-9.45903
▁everybodys	-9.45906
▁tower	-9.45907
▁rosen	-9.45917
▁professional	-9.45926
▁stage	-9.45961
▁whimpers	-9.45964
▁out	-9.46257
▁les	-9.46322
▁perfectly	-9.46435
▁announce	-9.46463
▁training	-9.46979
▁falling	-9.47052
▁sight	-9.47192
▁co	-9.47251
▁decide	-9.47447
▁price	-9.47719
▁source	-9.47731
▁consider	-9.47764
▁flower	-9.47784
▁mile	-9.47891
one	-9.47977
▁climb	-9.48073
▁rings	-9.4809
▁ruin	-9.48525
▁da	-9.48754
▁focus	-9.48816
▁punch	-9.48818
▁blind	-9.48879
rs	-9.49052
▁natural	-9.49078
▁total	-9.49094
▁stole	-9.49177
▁flat	-9.49209
▁advice	-9.49223
▁anthony	-9.49223
▁female	-9.49223
▁lerigot	-9.49223
▁necessary	-9.49223
▁strength	-9.49223
▁writing	-9.49223
▁fantastic	-9.49224
▁blart	-9.49224
▁horrible	-9.49224
▁miami	-9.49224
▁taught	-9.49224
▁brilliant	-9.49224
▁british	-9.49226
▁literally	-9.49226
▁giggles	-9.49226
▁unbelievable	-9.49234
▁touchdown	-9.49239
▁filthy	-9.49244
▁exhales	-9.49301
▁ford	-9.49325
▁fletcher	-9.49336
▁charming	-9.49414
▁whispering	-9.4948
▁prepared	-9.49508
▁main	-9.49593
▁wine	-9.49681
▁jellicles	-9.49765
▁travel	-9.49842
▁feels	-9.49948
▁per	-9.50022
▁zoot	-9.50092
▁whales	-9.50601
▁notes	-9.50605
▁tires	-9.50629
▁en	-9.50711
▁following	-9.50827
▁trade	-9.50897
▁opinion	-9.50976
▁dump	-9.50979
▁spell	-9.51063
▁devil	-9.51094
▁tongue	-9.51124
▁circle	-9.5116
▁cup	-9.51163
▁native	-9.51166
▁pocket	-9.51166
▁ideas	-9.51169
▁spring	-9.51215
▁agent	-9.51223
▁freak	-9.51377
▁reporter	-9.51398
▁cares	-9.51572
▁wa	-9.51716
▁murder	-9.51814
▁sub	-9.52189
▁wood	-9.52393
▁correct	-9.52522
▁lies	-9.52615
▁apart	-9.52656
▁gang	-9.52667
▁dixon	-9.52672
▁license	-9.52672
▁monroe	-9.52672
▁universe	-9.52672
▁winnie	-9.52672
▁bravo	-9.52672
▁precious	-9.52672
▁split	-9.52672
▁social	-9.52672
▁georgia	-9.52673
▁gross	-9.52673
▁yellow	-9.52675
▁turbo	-9.52675
▁mum	-9.52676
▁tommy	-9.52678
▁handsome	-9.52695
▁secretary	-9.5273
▁perro	-9.5274
▁created	-9.52759
▁invited	-9.52795
▁shape	-9.52819
▁ian	-9.52907
▁pie	-9.53162
▁keeping	-9.53217
▁joy	-9.53281
f	-9.53765
age	-9.53844
to	-9.54257
▁burn	-9.54277
▁smoke	-9.54357
▁pizza	-9.54627
▁plant	-9.54735
▁wire	-9.5474
▁bottle	-9.54746
▁ghost	-9.54778
▁student	-9.54786
▁whale	-9.54796
▁signal	-9.54815
▁jim	-9.54834
▁tr	-9.54836
▁page	-9.55003
ist	-9.55216
▁zoo	-9.55322
▁moves	-9.55747
ung	-9.5582
▁mothers	-9.55931
▁creep	-9.56064
▁settle	-9.5609
▁bringing	-9.56108
▁hug	-9.5621
▁bernard	-9.56241
▁cackling	-9.56243
▁empty	-9.56243
▁fbi	-9.56243
▁insane	-9.56243
▁randall	-9.56243
▁sloan	-9.56243
▁held	-9.56243
▁stahr	-9.56243
▁austin	-9.56244
▁dracula	-9.56244
▁reavis	-9.56244
▁viva	-9.56244
▁bathroom	-9.56245
▁simon	-9.56247
▁felix	-9.56248
▁squawking	-9.56252
▁lars	-9.56268
▁square	-9.5627
▁immediately	-9.56271
▁jesse	-9.56276
▁factory	-9.56283
▁prize	-9.56293
▁hiding	-9.56303
▁grave	-9.56357
▁herring	-9.56391
▁hoping	-9.56427
▁allowed	-9.56771
▁iron	-9.56825
▁ordered	-9.57066
▁nah	-9.57112
▁gives	-9.572
▁bugs	-9.57344
and	-9.57441
▁brains	-9.57508
▁challenge	-9.58064
▁string	-9.58104
▁tie	-9.58243
▁jerk	-9.58323
▁clue	-9.58337
▁belt	-9.58343
▁cars	-9.58373
▁sunday	-9.58382
▁macavity	-9.58398
▁file	-9.584
▁wave	-9.58488
▁finger	-9.58495
▁dollar	-9.58524
▁wheel	-9.58573
▁leader	-9.58576
▁ed	-9.58769
▁bro	-9.58792
▁butter	-9.59071
▁marshal	-9.59135
▁thousands	-9.5924
▁all	-9.59391
▁ends	-9.595
ah	-9.59532
▁lift	-9.59569
▁opens	-9.59758
▁weak	-9.59793
▁address	-9.59889
▁andre	-9.59892
▁joseph	-9.59937
▁norman	-9.59946
▁clarence	-9.59947
▁hubbell	-9.59947
▁purpose	-9.59947
▁sarah	-9.59947
▁science	-9.59947
▁marriage	-9.59947
▁delicious	-9.59947
▁garbage	-9.59947
▁someday	-9.59948
▁curious	-9.59949
▁journey	-9.59952
▁desk	-9.59954
▁toilet	-9.59965
▁daffy	-9.59971
▁fearless	-9.59975
▁electric	-9.59985
▁willing	-9.59986
▁self	-9.60109
▁awake	-9.60139
▁ex	-9.60281
▁sponge	-9.6032
▁note	-9.60328
▁ab	-9.60566
▁meaning	-9.60692
▁bath	-9.60777
▁blowing	-9.60983
do	-9.61121
▁followed	-9.61271
▁guns	-9.61286
▁remind	-9.6145
▁students	-9.61482
z	-9.61563
▁print	-9.61586
▁lines	-9.61609
▁lads	-9.61783
▁account	-9.61914
▁exist	-9.61932
▁guests	-9.61998
▁regret	-9.62078
▁serve	-9.62085
▁assistant	-9.62097
▁lookin	-9.6216
▁robot	-9.62253
▁knight	-9.62295
▁alien	-9.623
▁rope	-9.62345
▁prisoner	-9.62379
el	-9.62515
▁officers	-9.62577
▁poison	-9.63066
▁ku	-9.63085
▁warn	-9.63149
▁sisters	-9.63216
▁event	-9.63424
▁chase	-9.63545
▁mel	-9.63557
▁sharp	-9.63648
▁prison	-9.63674
▁u	-9.63719
il	-9.63722
▁dig	-9.63772
▁europe	-9.63778
▁chuck	-9.63781
▁stanwyk	-9.63793
▁surrender	-9.63793
▁thomas	-9.63793
▁bunny	-9.63793
▁fought	-9.63793
▁mystery	-9.63793
▁niki	-9.63793
▁target	-9.63793
▁community	-9.63793
▁spanish	-9.63794
▁grandfather	-9.63794
▁referee	-9.63794
▁kidnapped	-9.63794
▁underwater	-9.63795
▁penny	-9.638
▁switch	-9.63803
▁model	-9.63804
▁eric	-9.63808
▁loving	-9.6381
▁safety	-9.63812
▁gim	-9.63812
▁stine	-9.63819
▁minion	-9.6382
▁marion	-9.63829
▁katie	-9.63829
▁chanting	-9.63831
▁roaring	-9.63833
▁bride	-9.63844
▁wide	-9.63877
▁frightened	-9.63911
▁gettin	-9.63932
▁lance	-9.63978
▁jd	-9.63999
▁putting	-9.64016
▁hired	-9.64027
▁indistinctly	-9.64116
▁streets	-9.64141
▁copy	-9.64194
▁fake	-9.64228
▁cheers	-9.64235
▁lately	-9.64835
▁seemed	-9.64969
▁creatures	-9.65215
▁ears	-9.65758
▁pan	-9.65759
▁saturday	-9.66095
▁german	-9.66149
▁row	-9.6615
▁foreign	-9.66161
▁credit	-9.66175
▁holding	-9.66198
▁direction	-9.66263
▁matters	-9.66311
▁creature	-9.66335
it	-9.6664
▁gum	-9.66654
at	-9.66685
▁crack	-9.66687
▁judge	-9.66867
▁sh	-9.66989
▁fan	-9.6699
▁discuss	-9.66998
▁enter	-9.67031
▁nobodys	-9.67077
▁jan	-9.67241
▁ann	-9.67313
▁faces	-9.67326
▁nick	-9.67513
▁las	-9.67536
▁pre	-9.67542
▁tub	-9.67595
▁direct	-9.67628
▁africa	-9.67743
▁stomach	-9.67775
▁bruno	-9.67793
▁chocolate	-9.67793
▁dawn	-9.67793
▁easier	-9.67793
▁holmes	-9.67793
▁lassard	-9.67793
▁proctor	-9.67793
▁scarecrow	-9.67793
▁buried	-9.67794
▁jenning	-9.67795
▁silence	-9.67795
▁spider	-9.67795
▁lewis	-9.67795
▁nonsense	-9.67796
▁onto	-9.67796
▁apparently	-9.67796
▁beyond	-9.67797
▁uhuh	-9.67799
▁boyfriend	-9.67802
▁gadgetmobile	-9.67802
▁mercy	-9.67804
▁castle	-9.67805
▁script	-9.67807
▁squad	-9.6782
▁discovered	-9.67823
▁swimming	-9.67824
▁according	-9.67833
▁toby	-9.67856
▁tiny	-9.67894
▁acres	-9.67945
▁hire	-9.6801
▁failed	-9.6806
▁ruined	-9.68139
▁pe	-9.68496
▁hurts	-9.68739
▁harder	-9.68854
w	-9.6899
▁gee	-9.69005
▁germans	-9.69277
▁sp	-9.69347
what	-9.69512
▁bow	-9.69886
▁pound	-9.70115
▁sleeping	-9.7031
▁difference	-9.70433
▁plate	-9.70473
▁diamond	-9.70487
▁lesson	-9.70571
ized	-9.70589
▁minds	-9.70643
▁metal	-9.70661
▁path	-9.70797
▁ms	-9.70911
▁under	-9.71149
▁ranch	-9.71157
▁checking	-9.71226
▁pretend	-9.7127
▁mo	-9.71364
▁fourth	-9.71371
▁ca	-9.71507
side	-9.71523
▁seats	-9.71577
▁sons	-9.71611
▁attempt	-9.71641
▁waters	-9.71643
▁doc	-9.7167
▁organ	-9.71712
▁mis	-9.71769
▁schedule	-9.71787
▁steel	-9.71828
▁survive	-9.71839
▁harm	-9.71851
▁rise	-9.71909
▁ultimate	-9.7196
▁bernstein	-9.7196
▁california	-9.7196
▁however	-9.7196
▁insurance	-9.7196
▁jacob	-9.7196
▁league	-9.7196
▁palace	-9.7196
▁whoever	-9.7196
▁otherwise	-9.7196
▁guitar	-9.7196
▁slappy	-9.7196
▁miracle	-9.7196
▁jeez	-9.7196
▁rough	-9.71962
▁japan	-9.71962
▁airport	-9.71962
▁louis	-9.71962
▁several	-9.71963
▁commandant	-9.71964
▁energy	-9.71964
▁coward	-9.71966
▁gentleman	-9.71971
▁distance	-9.71974
▁shrieking	-9.71985
▁forgotten	-9.71989
▁basement	-9.71989
▁squawks	-9.71995
▁friendship	-9.72002
▁emily	-9.72009
▁weight	-9.72069
▁disappeared	-9.72188
▁skin	-9.72209
▁laser	-9.72297
▁sniffs	-9.72389
▁warning	-9.72389
▁pink	-9.72507
▁magical	-9.72516
▁hood	-9.72687
▁sooner	-9.72699
▁expected	-9.72884
▁appears	-9.73129
▁falls	-9.73352
▁walked	-9.73791
▁fail	-9.74076
▁houses	-9.74252
▁ld	-9.74289
▁ended	-9.74434
▁condition	-9.74579
▁cards	-9.74582
▁admit	-9.74597
▁cloud	-9.7478
▁winner	-9.74787
▁shirt	-9.74788
▁cousin	-9.74788
▁records	-9.74789
men	-9.7512
▁i	-9.75196
▁horns	-9.75299
▁shows	-9.7552
▁panic	-9.75549
te	-9.75676
▁wee	-9.75766
▁reports	-9.75833
▁chi	-9.75844
▁rush	-9.7593
▁launch	-9.75944
▁defeat	-9.75989
▁request	-9.76015
um	-9.76094
ling	-9.76132
▁grandpa	-9.76133
▁chill	-9.76136
▁positive	-9.76181
▁east	-9.76231
▁spoke	-9.76258
▁freeze	-9.76289
▁object	-9.76297
▁slip	-9.76298
▁spread	-9.76299
▁adult	-9.76307
▁glinda	-9.76307
▁shaolin	-9.76307
▁snoring	-9.76307
▁society	-9.76307
▁equipment	-9.76308
▁steiner	-9.76308
▁humming	-9.76308
▁harris	-9.7631
▁saving	-9.7631
▁nixon	-9.7631
▁destiny	-9.76312
▁opportunity	-9.76312
▁therell	-9.76312
▁freedom	-9.76317
▁dick	-9.76319
▁charles	-9.76321
▁trash	-9.76326
▁flight	-9.76332
▁bonnet	-9.76335
▁original	-9.76335
▁nurse	-9.76349
▁cast	-9.7635
▁hissing	-9.76351
▁baker	-9.76377
▁madeline	-9.76384
▁sweetie	-9.76454
▁pity	-9.76466
▁tu	-9.76489
▁concentrate	-9.76507
▁prey	-9.76543
▁male	-9.76554
▁agreed	-9.76591
▁belle	-9.76627
▁style	-9.76713
▁owls	-9.76735
▁lied	-9.7695
▁so	-9.7698
▁drugs	-9.77063
▁muppets	-9.7713
▁fr	-9.77233
▁covered	-9.77355
▁aim	-9.77358
▁no	-9.77419
▁pounds	-9.77863
▁rum	-9.77927
▁using	-9.78034
▁friendly	-9.78193
▁fur	-9.78419
▁pulled	-9.78423
▁lions	-9.78444
▁sports	-9.78994
▁gifts	-9.79122
▁heavens	-9.79189
▁begins	-9.79193
▁boo	-9.79237
▁angel	-9.79254
▁cage	-9.79266
▁pawn	-9.7929
▁costume	-9.79301
▁quarter	-9.79316
▁current	-9.79353
▁beast	-9.79363
▁odd	-9.79364
▁hook	-9.79365
▁member	-9.79374
▁criminal	-9.79391
▁daughters	-9.7945
ical	-9.79452
as	-9.79504
▁driver	-9.79612
▁research	-9.7968
▁babe	-9.797
ow	-9.79716
▁numbers	-9.80016
ure	-9.80071
ba	-9.80158
▁answers	-9.80177
▁rocks	-9.80455
▁screw	-9.80488
▁concern	-9.80564
▁someones	-9.80614
▁rent	-9.80626
▁jealous	-9.80646
▁invite	-9.80689
▁turning	-9.80701
▁particular	-9.80712
▁helen	-9.80737
▁letters	-9.80767
▁australia	-9.808
▁dj	-9.8081
▁among	-9.80834
▁nothin	-9.8084
▁alpha	-9.80853
▁bookshop	-9.80853
▁champagne	-9.80853
▁complex	-9.80853
▁eclipse	-9.80853
▁grew	-9.80853
▁scolex	-9.80853
▁wreck	-9.80853
▁military	-9.80853
▁saint	-9.80853
▁ordinary	-9.80853
▁afford	-9.80853
▁midnight	-9.80853
▁piano	-9.80854
▁planned	-9.80854
▁somehow	-9.80854
▁innocent	-9.80854
▁wherever	-9.80855
▁popular	-9.80855
▁dilly	-9.80855
▁imagination	-9.80856
▁headquarters	-9.80859
▁planning	-9.80861
▁billina	-9.80861
▁section	-9.80861
▁jimmy	-9.80861
▁solo	-9.80863
▁dozen	-9.80869
▁blah	-9.80869
▁freddy	-9.80872
▁nickel	-9.80873
▁whooping	-9.80897
▁complicated	-9.80902
▁bobby	-9.80912
▁guilty	-9.80916
▁commissioner	-9.80918
▁heavily	-9.80927
▁archy	-9.80982
▁received	-9.80992
▁sid	-9.81017
▁grown	-9.81036
▁buzzing	-9.81061
▁plus	-9.81075
▁sandy	-9.81141
▁busted	-9.81146
▁letting	-9.81306
▁realized	-9.8137
▁v	-9.81426
▁slowly	-9.81438
▁non	-9.81457
▁comment	-9.8157
▁knocking	-9.81581
▁guide	-9.8161
▁maya	-9.81932
▁highly	-9.81939
▁smells	-9.82101
▁do	-9.82177
▁kit	-9.82254
ated	-9.82287
▁elm	-9.82421
▁tells	-9.82579
off	-9.82602
▁pet	-9.82663
▁bust	-9.82694
▁legal	-9.82726
▁it	-9.83128
▁leaves	-9.83164
land	-9.83165
▁career	-9.83221
▁skip	-9.83376
▁ro	-9.8338
▁z	-9.83587
▁fi	-9.83757
▁color	-9.83827
led	-9.83867
▁motion	-9.83931
▁snap	-9.83956
▁americans	-9.84006
▁coin	-9.84029
▁studio	-9.84063
▁neighbor	-9.84078
▁manage	-9.84128
▁bug	-9.84157
▁sometime	-9.84179
▁stranger	-9.84363
▁plays	-9.84388
▁deliver	-9.84713
▁goldi	-9.84935
▁headed	-9.84982
▁stretch	-9.85214
james	-9.85375
▁curse	-9.85438
▁recognize	-9.85443
▁sneak	-9.85587
▁somethin	-9.85602
▁brick	-9.85615
▁campaign	-9.85615
▁cancer	-9.85615
▁ceremony	-9.85615
▁effort	-9.85615
▁elevator	-9.85615
▁fabulous	-9.85615
▁false	-9.85615
▁intelligent	-9.85615
▁nerak	-9.85615
▁sefton	-9.85615
▁sheriff	-9.85615
▁thief	-9.85615
▁tragedy	-9.85615
▁wryn	-9.85615
▁ingrid	-9.85615
▁museum	-9.85615
▁bullshit	-9.85615
▁government	-9.85615
▁valley	-9.85615
▁lisa	-9.85616
▁parrish	-9.85616
▁fence	-9.85616
▁fever	-9.85616
▁drew	-9.85617
▁competition	-9.85617
▁trevor	-9.85617
▁adorable	-9.85617
▁kitka	-9.85618
▁aware	-9.85618
▁greetings	-9.85618
▁rotten	-9.85621
▁familiar	-9.85621
▁weather	-9.85621
▁assignment	-9.85622
▁wore	-9.85624
▁express	-9.85625
▁trapped	-9.85627
▁whyd	-9.85632
▁daisy	-9.85637
▁bess	-9.8565
▁pure	-9.85652
▁dramatic	-9.85654
▁scary	-9.85704
▁hitting	-9.85723
▁bury	-9.85734
▁gotcha	-9.85797
▁disease	-9.8583
▁lower	-9.85921
ize	-9.85979
▁troops	-9.85993
▁moms	-9.86014
▁fate	-9.86047
▁deeply	-9.86141
▁burning	-9.86144
▁adventure	-9.8621
▁talkin	-9.8642
▁clearly	-9.865
▁jam	-9.86665
▁cleaning	-9.86918
▁seek	-9.86962
cy	-9.87027
▁tune	-9.87041
▁somethings	-9.87262
▁finding	-9.87274
▁touched	-9.87338
▁agents	-9.87686
▁stands	-9.88234
▁sail	-9.88358
▁likely	-9.88362
▁picking	-9.88642
▁forces	-9.88793
▁gasp	-9.88816
▁sacrifice	-9.88863
▁doctors	-9.88978
▁emerald	-9.88994
ial	-9.88999
▁secrets	-9.89016
▁meal	-9.89022
▁shoulder	-9.89081
▁zone	-9.89086
▁russian	-9.89093
▁nightmare	-9.89094
▁net	-9.89095
▁african	-9.89097
▁coat	-9.8911
▁button	-9.89219
li	-9.89249
▁walls	-9.89679
▁whisper	-9.89862
▁load	-9.89878
▁bless	-9.89995
▁perform	-9.90162
▁stock	-9.90198
▁obvious	-9.90479
▁sudden	-9.9048
▁trail	-9.90538
▁cure	-9.90541
▁reelect	-9.90591
▁formula	-9.906
▁caxton	-9.90615
▁century	-9.90615
▁gregorio	-9.90615
▁larue	-9.90615
▁lizzie	-9.90615
▁lunna	-9.90615
▁period	-9.90615
▁professor	-9.90615
▁threw	-9.90615
▁utah	-9.90615
▁hollywood	-9.90615
▁philsie	-9.90615
▁contract	-9.90615
▁mavis	-9.90616
▁accent	-9.90616
▁watergate	-9.90616
▁offense	-9.90618
▁ericka	-9.90619
▁extreme	-9.9062
▁ladder	-9.9062
▁electronic	-9.90622
▁plain	-9.90623
▁meat	-9.90623
▁political	-9.90625
▁phil	-9.90626
▁whirring	-9.90626
▁exclaiming	-9.90627
▁although	-9.90627
▁fryer	-9.90627
▁library	-9.90627
▁barney	-9.90637
▁precisely	-9.90654
▁barely	-9.90654
▁mechanic	-9.90671
▁screeching	-9.90685
▁crawl	-9.9074
▁sniffing	-9.90752
▁horner	-9.90877
▁designed	-9.90889
▁eaten	-9.90904
▁stronger	-9.90957
▁raised	-9.90959
▁bo	-9.91006
▁pee	-9.91122
▁packed	-9.91126
▁arrested	-9.91145
▁knocked	-9.91207
▁fairy	-9.91262
▁tape	-9.91265
ge	-9.91313
▁counter	-9.91318
▁oi	-9.9136
▁messed	-9.91379
▁offered	-9.91387
ta	-9.91438
▁rub	-9.91489
▁yay	-9.91492
▁crashing	-9.91554
▁rose	-9.9169
▁bears	-9.9172
▁vampires	-9.91721
▁behave	-9.91724
id	-9.91731
▁carrying	-9.91737
▁windows	-9.91839
▁je	-9.92099
▁wondered	-9.92142
▁bon	-9.9219
▁chas	-9.92311
▁shower	-9.92313
▁runs	-9.92455
▁add	-9.92548
▁deadly	-9.92709
▁ghosts	-9.92719
▁float	-9.93025
▁di	-9.93208
▁rats	-9.93258
▁belongs	-9.93266
back	-9.93284
▁an	-9.93611
▁photo	-9.93921
▁buck	-9.93949
▁bang	-9.93996
▁disappear	-9.94004
▁appear	-9.94115
▁who	-9.94161
▁value	-9.94177
▁fortune	-9.94183
ton	-9.9427
▁carol	-9.9428
▁director	-9.94283
▁priest	-9.94333
▁sale	-9.94346
▁snail	-9.94348
▁parent	-9.94454
▁rob	-9.94655
ance	-9.94695
is	-9.94816
▁painting	-9.94959
▁watched	-9.95084
▁blast	-9.95105
▁frogs	-9.95124
▁design	-9.95191
head	-9.95366
▁steer	-9.95451
▁millions	-9.95489
▁sink	-9.9549
▁witness	-9.95502
fully	-9.95538
▁borrow	-9.95545
▁level	-9.95563
house	-9.95602
▁talent	-9.95603
▁grant	-9.95621
▁dirt	-9.95696
▁convince	-9.9571
▁usual	-9.95741
▁assume	-9.95757
tic	-9.95803
▁coast	-9.95848
▁brundish	-9.95878
▁buffalo	-9.95878
▁centipede	-9.95878
▁daxiat	-9.95878
▁downstairs	-9.95878
▁fidgit	-9.95878
▁jeanluc	-9.95878
▁michael	-9.95878
▁quentin	-9.95878
▁reputation	-9.95878
▁satellite	-9.95878
▁twelve	-9.95878
▁upbeat	-9.95878
▁squidward	-9.95878
▁invisible	-9.95879
▁garage	-9.95879
▁shelter	-9.95879
▁memories	-9.9588
▁duke	-9.9588
▁colson	-9.95883
▁intelligence	-9.95885
▁principal	-9.95885
▁simmons	-9.95885
▁winning	-9.95886
▁punishment	-9.95887
▁bedroom	-9.95889
▁jean	-9.95892
▁giggling	-9.9591
▁access	-9.95915
▁honking	-9.95915
▁otto	-9.95918
▁drac	-9.95919
▁babies	-9.95926
▁mmmm	-9.95936
▁squealing	-9.95953
▁nanny	-9.95957
▁angelo	-9.95957
▁lame	-9.9598
▁clicking	-9.95999
▁roars	-9.96081
▁settled	-9.96124
▁can	-9.96124
dden	-9.96219
▁jewels	-9.9624
▁prom	-9.96472
nt	-9.96487
▁points	-9.96674
▁cooking	-9.96747
▁painful	-9.96887
▁hon	-9.97014
ble	-9.97021
▁boom	-9.97034
▁tears	-9.97147
▁jane	-9.97193
▁coughs	-9.97212
▁hatch	-9.97221
▁rocky	-9.97238
▁signed	-9.97251
▁spare	-9.9734
▁counting	-9.97488
▁growing	-9.9752
▁ways	-9.97524
▁enjoying	-9.97546
▁image	-9.97632
▁pleased	-9.97668
▁le	-9.97853
▁du	-9.9898
▁reverse	-9.99002
▁storm	-9.99049
▁checked	-9.99254
▁suffer	-9.99327
▁ne	-9.99443
▁william	-9.99731
▁ri	-9.99753
▁julie	-9.99753
▁doll	-9.99803
▁helicopter	-9.9981
▁newspaper	-9.99816
▁mortal	-9.99824
▁penguin	-9.99887
ay	-9.99917
▁servant	-9.99948
▁shine	-9.9996
▁rooms	-9.99961
umble	-9.99975
▁loyal	-9.99984
▁shoe	-10
▁fella	-10.0018
u	-10.0022
na	-10.0023
▁steam	-10.0027
▁rogers	-10.0032
▁bombs	-10.0035
▁sweat	-10.0063
▁he	-10.0071
▁ming	-10.008
▁und	-10.0081
▁port	-10.0087
▁fetch	-10.0094
▁insist	-10.0113
▁score	-10.0115
▁process	-10.0117
wee	-10.0122
▁march	-10.0123
▁guarantee	-10.0126
▁solve	-10.0126
▁desperate	-10.0129
▁wise	-10.0129
▁brand	-10.013
▁terribl	-10.0132
▁noon	-10.0135
▁remembered	-10.0141
▁junk	-10.0142
▁gentle	-10.0142
▁aylwood	-10.0143
▁benefit	-10.0143
▁changing	-10.0143
▁easily	-10.0143
▁expert	-10.0143
▁fifth	-10.0143
▁galaxy	-10.0143
▁jonathan	-10.0143
▁lorraine	-10.0143
▁matthias	-10.0143
▁poseidon	-10.0143
▁responsibility	-10.0143
▁video	-10.0143
▁alert	-10.0143
▁moaning	-10.0143
▁welker	-10.0143
▁cinderella	-10.0143
▁volunteer	-10.0143
▁cabin	-10.0143
▁cortez	-10.0143
▁desire	-10.0143
▁division	-10.0143
▁potential	-10.0143
▁urgent	-10.0143
▁blew	-10.0143
▁rodrick	-10.0144
▁zero	-10.0144
▁eddie	-10.0144
▁anytime	-10.0144
▁towel	-10.0144
▁wilson	-10.0144
▁attractive	-10.0144
▁slipped	-10.0144
▁earlier	-10.0144
▁firing	-10.0144
▁dork	-10.0144
▁text	-10.0144
▁advantage	-10.0144
▁happiness	-10.0144
▁pamela	-10.0144
▁florence	-10.0144
▁quality	-10.0144
▁chairman	-10.0144
▁lazy	-10.0144
▁weli	-10.0144
▁sunny	-10.0144
▁temple	-10.0144
▁dega	-10.0145
▁dummy	-10.0145
▁maria	-10.0145
▁copper	-10.0145
▁ouch	-10.0145
▁steady	-10.0146
▁creation	-10.0146
▁spies	-10.0146
▁title	-10.0147
▁thatd	-10.0148
▁defense	-10.0148
▁blade	-10.0148
▁proof	-10.0151
▁rear	-10.0152
▁spoken	-10.0152
▁twin	-10.0154
▁snarling	-10.0162
▁gale	-10.0163
▁drinks	-10.0164
▁germany	-10.017
▁pro	-10.0178
▁entirely	-10.0201
▁fund	-10.0204
▁ra	-10.0205
▁damage	-10.0214
▁crossed	-10.0222
▁wishes	-10.0225
▁carefully	-10.0226
▁guts	-10.023
▁towards	-10.0233
▁attacked	-10.0247
▁chain	-10.0249
▁mans	-10.025
ter	-10.0255
▁riding	-10.0266
▁bones	-10.0273
ism	-10.0297
▁humans	-10.0306
▁san	-10.031
▁fully	-10.0315
▁caused	-10.0322
▁landed	-10.0346
▁app	-10.035
▁fans	-10.0351
ai	-10.0358
▁goal	-10.0363
▁del	-10.0392
▁touching	-10.0418
▁landing	-10.0419
▁thoughts	-10.043
▁rec	-10.0447
▁ac	-10.0463
▁the	-10.0463
▁toy	-10.0466
▁guards	-10.0483
▁cough	-10.0546
▁grunt	-10.0551
▁hundreds	-10.0561
▁device	-10.0561
▁demand	-10.0569
▁martian	-10.0569
▁champion	-10.0573
▁flood	-10.0576
▁nerve	-10.0581
▁jew	-10.0581
▁issue	-10.0582
▁scientist	-10.0582
▁candle	-10.0583
▁tiger	-10.0583
▁nation	-10.0586
▁trap	-10.0587
se	-10.0589
▁pot	-10.0602
▁beep	-10.0626
▁repeat	-10.0648
▁bags	-10.067
▁separate	-10.0694
▁impress	-10.0697
▁hustle	-10.0704
ts	-10.0704
two	-10.0709
▁morris	-10.071
▁rook	-10.0711
▁assure	-10.0716
▁mood	-10.0725
▁sandwich	-10.0725
▁tomato	-10.0727
▁confess	-10.0729
▁represent	-10.0732
▁actress	-10.0732
▁april	-10.0732
▁aquitaine	-10.0732
▁arnhem	-10.0732
▁arrival	-10.0732
▁deputy	-10.0732
▁derek	-10.0732
▁distant	-10.0732
▁enemies	-10.0732
▁explanation	-10.0732
▁florida	-10.0732
▁gardner	-10.0732
▁houston	-10.0732
▁investigation	-10.0732
▁kansas	-10.0732
▁magrathea	-10.0732
▁maligore	-10.0732
▁ruettiger	-10.0732
▁splendid	-10.0732
▁brittany	-10.0732
▁muffin	-10.0732
▁schnitzel	-10.0732
▁traffic	-10.0732
▁ireland	-10.0732
▁boggis	-10.0732
▁frankenstein	-10.0732
▁regular	-10.0732
▁dashwood	-10.0732
▁chapel	-10.0732
▁ohara	-10.0732
▁severine	-10.0732
▁monday	-10.0732
▁greek	-10.0732
▁dominic	-10.0732
▁miserable	-10.0732
▁chubby	-10.0732
▁mummy	-10.0732
▁define	-10.0732
▁railway	-10.0732
▁material	-10.0732
▁whistling	-10.0732
▁retreat	-10.0733
▁geez	-10.0733
▁pillow	-10.0733
▁surface	-10.0733
▁operator	-10.0733
▁quarterback	-10.0733
▁taxi	-10.0733
▁selfish	-10.0733
▁fond	-10.0733
▁diary	-10.0734
▁medicine	-10.0734
▁guardian	-10.0734
▁cellar	-10.0735
▁trial	-10.0735
▁recently	-10.0735
▁christine	-10.0736
▁rare	-10.0736
▁abby	-10.0737
▁heather	-10.0738
▁artist	-10.0738
▁darkness	-10.0738
▁practically	-10.0739
▁dean	-10.0739
▁johnson	-10.0739
▁unfortunately	-10.0742
▁millie	-10.0745
▁mixed	-10.0745
▁sighing	-10.0745
▁fields	-10.0745
▁honks	-10.0746
▁glasses	-10.0753
▁heroes	-10.0754
▁victoria	-10.0756
▁martini	-10.0762
▁screwed	-10.0769
▁personally	-10.0776
▁clicks	-10.0783
▁recipes	-10.079
▁tryin	-10.0801
▁makeup	-10.0803
▁county	-10.082
▁aha	-10.0832
ee	-10.0835
▁hates	-10.0839
▁reached	-10.0856
king	-10.0859
▁diet	-10.0861
▁kissed	-10.0861
im	-10.0864
▁squeeze	-10.0868
per	-10.0879
▁trained	-10.0883
▁chances	-10.0931
▁diamonds	-10.0945
ac	-10.0961
▁tricks	-10.0962
▁buying	-10.0977
▁hoped	-10.1013
que	-10.1016
▁to	-10.1033
▁al	-10.1076
▁up	-10.1084
▁wars	-10.1112
▁ahhh	-10.1138
▁shout	-10.1138
▁shift	-10.1153
▁individual	-10.1186
▁led	-10.1187
▁thursday	-10.1187
▁edge	-10.1187
▁liar	-10.1191
▁spin	-10.1193
▁palm	-10.1193
▁idiots	-10.1194
▁grandmother	-10.1194
▁orange	-10.1195
▁ye	-10.1201
▁deck	-10.1205
▁pirate	-10.1206
▁snake	-10.121
▁grade	-10.1214
▁actor	-10.1217
▁bars	-10.1222
▁deny	-10.1227
▁writer	-10.1252
▁suggest	-10.1279
▁arch	-10.1292
▁stink	-10.1302
ted	-10.1302
▁defend	-10.1308
▁tear	-10.1312
▁crush	-10.1313
▁success	-10.1315
▁marty	-10.1321
phone	-10.1325
▁be	-10.1339
▁illegal	-10.1339
▁skull	-10.1343
▁celia	-10.1357
▁clemson	-10.1357
▁deuteronomy	-10.1357
▁honeymoon	-10.1357
▁kaycee	-10.1357
▁libby	-10.1357
▁mistoffelees	-10.1357
▁purple	-10.1357
▁rudolph	-10.1357
▁throne	-10.1357
▁unusual	-10.1357
▁whenever	-10.1357
▁alais	-10.1357
▁eerie	-10.1357
▁international	-10.1357
▁sobbing	-10.1357
▁someplace	-10.1357
▁garlic	-10.1357
▁policy	-10.1357
▁woke	-10.1357
▁silver	-10.1357
▁triangle	-10.1357
▁chicago	-10.1357
▁grateful	-10.1357
▁acquaintance	-10.1357
▁central	-10.1357
▁elliot	-10.1357
▁roast	-10.1357
▁begun	-10.1357
▁denied	-10.1357
▁hayden	-10.1357
▁julian	-10.1357
▁chipettes	-10.1357
▁draft	-10.1357
▁fox	-10.1357
▁turkey	-10.1357
▁slept	-10.1357
▁temporary	-10.1357
▁theater	-10.1357
▁justin	-10.1357
▁failure	-10.1357
▁brooks	-10.1357
▁polite	-10.1357
▁disaster	-10.1357
▁hisses	-10.1358
▁jewish	-10.1358
▁churchill	-10.1358
▁alice	-10.1358
▁shane	-10.1358
▁lightning	-10.1358
▁brat	-10.1358
▁logan	-10.1358
▁hitler	-10.1359
▁smith	-10.1359
▁decent	-10.136
▁peterson	-10.136
▁ahem	-10.136
▁fruit	-10.136
▁toto	-10.136
▁china	-10.1362
▁confused	-10.1363
▁knowledge	-10.1365
▁sally	-10.1366
▁diego	-10.1367
▁bay	-10.1367
▁haha	-10.1367
sh	-10.1368
ur	-10.1368
▁boring	-10.1369
▁closes	-10.1372
▁sexy	-10.1372
▁chopper	-10.1375
▁useless	-10.1375
▁seth	-10.1376
▁embarrassing	-10.1386
▁cooper	-10.139
▁tied	-10.1394
▁impressed	-10.14
▁banks	-10.1413
▁finest	-10.1414
line	-10.1435
▁cal	-10.1448
▁pills	-10.1458
▁gal	-10.1465
▁parking	-10.1471
▁thin	-10.1477
▁au	-10.1481
▁andi	-10.1486
▁messing	-10.1488
▁weapons	-10.1497
▁hunting	-10.1511
▁backup	-10.1523
▁beats	-10.1525
▁stayed	-10.1528
▁selling	-10.1533
▁singer	-10.1534
dy	-10.1535
▁strangers	-10.156
ons	-10.1563
▁passing	-10.1581
▁puts	-10.1583
▁lessons	-10.1586
▁ali	-10.1602
▁breaks	-10.1622
▁staring	-10.164
ia	-10.1669
▁site	-10.1681
▁schools	-10.1681
the	-10.1715
▁learning	-10.1737
▁disguise	-10.1744
▁sis	-10.1746
▁hearts	-10.1747
▁scratch	-10.1747
▁paying	-10.1798
de	-10.18
▁believed	-10.1805
▁zip	-10.1811
▁hills	-10.1841
ber	-10.1843
▁pea	-10.1846
▁yell	-10.1847
▁malfunction	-10.1853
▁largo	-10.1853
ate	-10.1853
▁subject	-10.1861
▁pancake	-10.1861
▁gorilla	-10.1865
▁instrument	-10.1865
▁limit	-10.1868
▁detective	-10.187
▁emoji	-10.1871
▁shadow	-10.1872
▁swarm	-10.1874
▁dragon	-10.1875
▁weapon	-10.1876
▁vampire	-10.1876
▁pops	-10.1891
▁tank	-10.1896
▁bone	-10.1903
▁tale	-10.1916
▁mar	-10.1934
▁insult	-10.1942
▁gather	-10.1952
▁leads	-10.1953
▁rip	-10.1954
▁shock	-10.1954
▁badge	-10.1957
▁screen	-10.1979
▁meow	-10.1984
▁squeak	-10.1985
down	-10.1986
▁recall	-10.1987
▁wrap	-10.1987
▁delay	-10.1991
▁charm	-10.1993
▁swallow	-10.1996
▁shove	-10.2005
▁poop	-10.2011
▁pond	-10.2013
▁require	-10.2014
▁woo	-10.2015
▁purse	-10.2018
▁todays	-10.202
▁tod	-10.2022
▁cia	-10.2022
▁rams	-10.2022
▁iris	-10.2022
▁slave	-10.2023
▁hass	-10.2023
▁ashamed	-10.2023
▁atlantic	-10.2023
▁extraordinary	-10.2023
▁families	-10.2023
▁glynnis	-10.2023
▁including	-10.2023
▁italian	-10.2023
▁jeanloup	-10.2023
▁raymond	-10.2023
▁semester	-10.2023
▁thompson	-10.2023
▁winifred	-10.2023
▁thieves	-10.2023
▁mombi	-10.2023
▁stream	-10.2023
▁mysterious	-10.2023
▁entrance	-10.2023
▁modern	-10.2023
▁reverend	-10.2023
▁scholarship	-10.2023
▁geoffrey	-10.2023
▁clayton	-10.2023
▁bradford	-10.2023
▁gray	-10.2023
▁texas	-10.2023
▁thirty	-10.2023
▁klaus	-10.2023
▁solid	-10.2023
▁stans	-10.2023
▁infantry	-10.2023
▁jailbreak	-10.2024
▁stood	-10.2024
▁assistance	-10.2024
▁bodies	-10.2024
▁supper	-10.2024
▁neighborhood	-10.2024
▁pansy	-10.2024
▁dutch	-10.2024
▁loch	-10.2024
▁pair	-10.2024
▁whatll	-10.2024
▁generous	-10.2024
▁noble	-10.2024
▁jolly	-10.2025
▁cattle	-10.2025
▁wallet	-10.2025
▁debt	-10.2025
▁kaye	-10.2025
▁dice	-10.2025
▁laundry	-10.2025
▁karate	-10.2025
▁dropping	-10.2026
▁potion	-10.2026
▁romantic	-10.2026
▁hahaha	-10.2027
▁sacred	-10.2027
▁background	-10.2028
▁chosen	-10.2028
▁mansion	-10.2028
▁producer	-10.2029
▁circumstances	-10.2029
▁classical	-10.203
▁ability	-10.2031
▁highway	-10.2034
▁jay	-10.2035
▁collection	-10.2036
▁setting	-10.2037
▁cable	-10.2037
▁soviet	-10.2038
▁cube	-10.2039
▁shrieks	-10.2039
▁chest	-10.204
▁helena	-10.204
▁oops	-10.2041
▁chitter	-10.2041
▁bror	-10.2042
▁louder	-10.205
▁wayne	-10.2055
▁zing	-10.2055
▁wing	-10.2056
▁creepy	-10.2058
▁kindness	-10.2058
▁breakin	-10.2065
▁loaded	-10.2065
▁concerned	-10.2066
▁anti	-10.2067
▁ape	-10.2075
▁burned	-10.2079
▁lips	-10.208
▁murdered	-10.2081
▁wha	-10.2082
▁sage	-10.209
▁burglars	-10.2091
▁toes	-10.2099
▁dings	-10.21
▁belly	-10.2108
▁warned	-10.2114
just	-10.212
▁gloves	-10.2122
os	-10.2123
like	-10.2125
▁armed	-10.2135
ped	-10.2139
▁locker	-10.2142
▁paulas	-10.2144
▁loss	-10.2146
▁waited	-10.2148
▁fixed	-10.2149
▁democrat	-10.2149
▁depends	-10.2153
▁gin	-10.2157
▁unh	-10.2158
▁lover	-10.2168
▁mars	-10.2176
be	-10.2183
▁wears	-10.2184
▁snakes	-10.2184
et	-10.2199
▁liver	-10.2199
ator	-10.22
▁novel	-10.221
▁whee	-10.2218
ham	-10.2222
▁ge	-10.2234
▁colors	-10.2237
▁criminals	-10.2246
▁parts	-10.2247
▁sits	-10.2261
we	-10.2266
les	-10.2308
▁tin	-10.2317
ied	-10.2322
om	-10.2327
▁reporters	-10.2331
ley	-10.2331
▁yards	-10.2341
▁capture	-10.2353
▁whoohoo	-10.237
▁bi	-10.2372
▁seal	-10.2374
our	-10.2381
▁drum	-10.2386
▁gen	-10.239
▁dealing	-10.2394
la	-10.24
▁ending	-10.2401
ally	-10.2404
▁brings	-10.2405
▁drinking	-10.2411
▁hells	-10.2421
▁chat	-10.2421
▁speaks	-10.2477
▁powers	-10.2479
▁hearing	-10.2486
▁nail	-10.2489
▁thinkin	-10.2498
nce	-10.2503
▁bastards	-10.251
▁announc	-10.2539
▁sport	-10.2541
▁receive	-10.2547
▁refuse	-10.2564
▁concert	-10.2567
▁announcement	-10.257
▁monkeys	-10.2574
▁possum	-10.2575
▁result	-10.2575
▁uniform	-10.2575
▁journalist	-10.2576
▁bandit	-10.2577
▁winter	-10.2579
▁communist	-10.2583
▁flintstone	-10.2584
▁mammoth	-10.2585
▁magazine	-10.2586
▁explosion	-10.2587
▁thumb	-10.2589
▁soldier	-10.2589
▁suspect	-10.2589
▁demon	-10.2627
▁loser	-10.2644
▁dent	-10.2656
▁collect	-10.2659
ming	-10.266
▁attend	-10.2666
▁boil	-10.2666
ty	-10.267
uld	-10.2675
▁nothings	-10.2684
▁victor	-10.269
▁islands	-10.2692
▁avoid	-10.2693
▁flash	-10.2693
v	-10.2695
▁develop	-10.2703
▁bully	-10.2705
▁rap	-10.2706
▁repair	-10.2707
▁teams	-10.2709
▁intend	-10.2711
ro	-10.2711
▁swing	-10.2712
book	-10.2717
▁enormous	-10.272
▁remove	-10.2721
▁secure	-10.2721
▁smooth	-10.2721
▁sex	-10.2721
▁link	-10.2723
▁wipe	-10.2727
▁exact	-10.2727
▁mass	-10.2729
▁charges	-10.2731
▁bud	-10.2732
▁brush	-10.2732
▁mmhm	-10.2736
▁specific	-10.2737
▁resist	-10.2737
▁experiment	-10.2738
▁congress	-10.2738
▁dardis	-10.2738
▁doorbell	-10.2738
▁episode	-10.2738
▁fashion	-10.2738
▁fregley	-10.2738
▁fronkonsteen	-10.2738
▁jungle	-10.2738
▁monsieur	-10.2738
▁nashville	-10.2738
▁rhino	-10.2738
▁shrimp	-10.2738
▁stammers	-10.2738
▁university	-10.2738
▁valuable	-10.2738
▁channing	-10.2738
▁tricia	-10.2738
▁blaring	-10.2738
▁apology	-10.2738
▁farewell	-10.2738
▁utter	-10.2738
▁chaos	-10.2738
▁pleasant	-10.2738
▁destruction	-10.2738
▁navy	-10.2738
▁kennedy	-10.2738
▁lemon	-10.2738
▁bernie	-10.2738
▁flew	-10.2738
▁governor	-10.2738
▁plastic	-10.2738
▁marvin	-10.2738
▁dining	-10.2738
▁demonstration	-10.2738
▁rifle	-10.2738
▁lamb	-10.2738
▁stove	-10.2738
▁crab	-10.2738
▁ginger	-10.2738
▁blank	-10.2738
▁grass	-10.2738
▁available	-10.2738
▁claude	-10.2738
▁pathetic	-10.2738
▁activity	-10.2739
▁magnet	-10.2739
▁scale	-10.2739
▁murmuring	-10.2739
▁creaking	-10.2739
▁drake	-10.2739
▁relieved	-10.2739
▁capable	-10.274
▁staff	-10.274
▁flesh	-10.274
▁amount	-10.274
▁riddler	-10.2741
▁exhausted	-10.2741
▁dating	-10.2741
▁lucy	-10.2741
▁beef	-10.2742
▁june	-10.2742
▁moron	-10.2742
▁grandson	-10.2742
▁tide	-10.2742
▁halt	-10.2743
▁greet	-10.2743
▁morgana	-10.2743
▁footsteps	-10.2744
▁julien	-10.2745
▁surrounded	-10.2745
▁vision	-10.2746
▁bert	-10.2746
▁lend	-10.2749
▁bleeding	-10.2751
▁goodnight	-10.2752
▁fuss	-10.2752
▁homework	-10.2752
▁putty	-10.2753
▁shining	-10.2753
▁golf	-10.2756
▁yaya	-10.2756
▁fore	-10.2757
▁fee	-10.2757
▁backyard	-10.2757
▁embarrassed	-10.2762
▁tone	-10.2769
▁former	-10.2772
▁lawn	-10.2772
▁madame	-10.2774
▁pile	-10.2775
▁munch	-10.2779
▁highest	-10.2782
▁moo	-10.2791
▁beans	-10.28
ver	-10.2814
▁tropic	-10.2836
▁tapes	-10.2839
co	-10.284
▁sides	-10.2843
▁raining	-10.2843
▁jobs	-10.2847
▁engineer	-10.2858
spiker	-10.2859
▁farmers	-10.2862
▁stealing	-10.2874
▁finance	-10.2875
▁jumped	-10.2876
▁fooled	-10.2877
▁younger	-10.2882
▁joined	-10.2899
▁returned	-10.2917
▁ducky	-10.2918
▁writers	-10.2918
wa	-10.292
▁tend	-10.2953
▁showing	-10.2987
▁fa	-10.3001
▁files	-10.3035
▁tap	-10.307
▁nails	-10.3076
hh	-10.3104
▁pit	-10.3116
▁dreaming	-10.3117
▁sending	-10.3119
▁cows	-10.3125
▁costs	-10.3126
▁mi	-10.3132
▁ax	-10.3142
ifl	-10.3159
▁bull	-10.3159
▁teachers	-10.3159
x	-10.3183
▁flush	-10.3186
red	-10.3187
▁wins	-10.3211
▁var	-10.3223
▁pulling	-10.3227
▁vi	-10.3229
▁stones	-10.3267
▁confirm	-10.3295
ring	-10.3299
▁spit	-10.33
▁ruff	-10.3302
▁depend	-10.3313
▁patient	-10.3321
▁shark	-10.3326
▁occasion	-10.3331
▁thi	-10.3335
▁lang	-10.3336
▁location	-10.3337
▁medal	-10.3338
▁hop	-10.3343
▁ritual	-10.3344
▁bugger	-10.3344
▁wig	-10.3346
▁maker	-10.3348
▁coconut	-10.3351
▁cigar	-10.3353
▁banana	-10.3356
▁feather	-10.3357
▁neighbour	-10.3357
ably	-10.3357
▁muppet	-10.336
▁missile	-10.3361
▁dudes	-10.3386
▁balls	-10.3394
▁equal	-10.3401
▁krab	-10.3405
▁steps	-10.3416
▁arab	-10.3417
for	-10.3425
▁cheat	-10.343
▁doo	-10.3431
▁sa	-10.3454
▁monitor	-10.3457
he	-10.3461
▁fools	-10.3461
▁escort	-10.3462
▁smash	-10.3466
cks	-10.3476
▁los	-10.3477
box	-10.3481
away	-10.3483
class	-10.3485
▁nest	-10.3489
▁divorce	-10.349
▁instant	-10.3491
▁unfortunate	-10.3493
your	-10.3494
▁official	-10.3494
▁faint	-10.3494
▁rot	-10.3495
▁salt	-10.3499
▁drama	-10.3501
well	-10.3502
▁chose	-10.3502
▁rome	-10.3503
▁mmmmmm	-10.3505
▁favour	-10.3507
▁airborne	-10.3507
▁ancient	-10.3507
▁appropriate	-10.3507
▁arnold	-10.3507
▁beatrice	-10.3507
▁cavanaugh	-10.3507
▁chancellor	-10.3507
▁council	-10.3507
▁dahlberg	-10.3507
▁devereaux	-10.3507
▁diablo	-10.3507
▁firm	-10.3507
▁hardborough	-10.3507
▁mcelrathbey	-10.3507
▁mowbray	-10.3507
▁olaf	-10.3507
▁perrito	-10.3507
▁sunshine	-10.3507
▁violin	-10.3507
▁yacht	-10.3507
▁zaphod	-10.3507
▁puckett	-10.3507
▁wolves	-10.3507
▁chamber	-10.3507
▁trigger	-10.3507
▁auction	-10.3507
▁smiling	-10.3507
▁plague	-10.3507
▁attitude	-10.3507
▁confidence	-10.3507
▁studied	-10.3507
▁cheap	-10.3507
▁convention	-10.3507
▁patience	-10.3507
▁shaft	-10.3507
▁salmon	-10.3507
▁juice	-10.3507
▁syne	-10.3507
▁jenny	-10.3507
▁martha	-10.3507
▁tinkles	-10.3507
▁sikes	-10.3507
▁chef	-10.3507
▁await	-10.3507
▁ash	-10.3507
▁damian	-10.3507
▁diana	-10.3507
▁feast	-10.3507
▁constantine	-10.3507
▁daily	-10.3507
▁arena	-10.3508
▁performance	-10.3508
▁mask	-10.3508
▁bacon	-10.3508
▁personnel	-10.3508
▁cherry	-10.3508
▁fifty	-10.3508
▁surgery	-10.3508
▁attic	-10.3508
▁doberman	-10.3508
▁rail	-10.3508
▁betcha	-10.3508
▁development	-10.3508
▁tickle	-10.3508
▁construction	-10.3508
▁spaceship	-10.3508
▁spain	-10.3508
▁quest	-10.3509
▁package	-10.3509
▁sector	-10.3509
▁math	-10.351
▁honour	-10.351
▁griffin	-10.351
▁dunne	-10.351
▁nome	-10.351
▁colour	-10.351
▁create	-10.351
▁aside	-10.3511
▁aii	-10.3511
▁forty	-10.3512
▁slight	-10.3514
▁yearold	-10.3514
▁replaced	-10.3514
▁bump	-10.3515
▁merely	-10.3515
▁protection	-10.3516
▁statement	-10.3518
▁amen	-10.3519
▁officially	-10.3521
▁lois	-10.3521
▁hail	-10.3522
▁tolly	-10.3522
▁highness	-10.3524
▁krauts	-10.3525
▁bail	-10.3526
▁medical	-10.3527
▁scum	-10.353
▁particularly	-10.3531
▁whoops	-10.3532
▁parties	-10.3534
▁moments	-10.3535
▁beam	-10.3536
▁blown	-10.3537
▁latest	-10.3539
▁joint	-10.354
▁properly	-10.3542
ball	-10.3544
▁served	-10.3548
▁classes	-10.3553
▁delivered	-10.3555
ima	-10.3558
▁siren	-10.3559
▁observe	-10.3562
▁floating	-10.3564
ea	-10.357
▁bush	-10.3574
▁zed	-10.3575
▁disco	-10.3575
▁considered	-10.3576
▁glori	-10.3587
▁drawings	-10.3597
▁traveling	-10.3599
▁accepted	-10.3599
▁cents	-10.361
▁rhythmic	-10.3615
▁snacks	-10.3622
▁skills	-10.3622
▁rank	-10.3622
▁praying	-10.3623
▁mentioned	-10.3623
boo	-10.3637
▁prim	-10.364
▁quietly	-10.3642
▁mon	-10.3649
ra	-10.366
▁demons	-10.3669
▁grounded	-10.3681
▁cooi	-10.3686
▁spending	-10.3689
▁pine	-10.3695
▁grades	-10.3695
▁testing	-10.3702
tan	-10.3702
▁tigers	-10.3706
▁jews	-10.3706
▁lo	-10.3709
▁servants	-10.3719
▁cr	-10.3719
▁bl	-10.3725
ne	-10.3741
▁members	-10.3768
▁drivers	-10.3775
▁vice	-10.379
▁fart	-10.3795
▁fishing	-10.3797
▁su	-10.3828
▁plants	-10.3848
▁deserves	-10.3891
▁ships	-10.393
den	-10.3959
▁damned	-10.3963
ster	-10.3979
▁opened	-10.3998
▁jokes	-10.4
▁positions	-10.4003
▁holes	-10.4015
▁gab	-10.4035
no	-10.4077
▁sec	-10.4077
▁suck	-10.4097
ations	-10.4104
▁heal	-10.4105
ir	-10.412
▁commit	-10.4127
▁pump	-10.4138
▁arrive	-10.4165
▁comrade	-10.417
▁relationship	-10.417
▁funeral	-10.417
▁chapter	-10.417
▁punk	-10.417
▁border	-10.4177
▁holiday	-10.4177
▁submarine	-10.4177
▁claw	-10.4181
▁option	-10.4182
▁vehicle	-10.4184
▁and	-10.4188
▁drug	-10.4195
▁kings	-10.4197
▁messages	-10.4202
▁paula	-10.4212
▁mountains	-10.4214
▁for	-10.4219
ill	-10.4225
ating	-10.4242
lin	-10.4243
▁husbands	-10.4252
▁off	-10.4258
▁towns	-10.4261
▁closet	-10.4264
▁chew	-10.4266
▁interrupt	-10.4267
▁drown	-10.4269
▁embarrass	-10.4271
▁y	-10.4273
bag	-10.4294
▁buzz	-10.4295
face	-10.4299
▁ap	-10.43
▁connect	-10.4306
▁sack	-10.431
board	-10.4312
born	-10.4315
hood	-10.4319
▁heavi	-10.432
▁outfit	-10.4321
▁kat	-10.4321
▁brad	-10.4322
▁ignore	-10.4323
▁actual	-10.4327
▁hue	-10.4328
▁griff	-10.4336
▁shoo	-10.4338
▁drag	-10.4339
▁stunt	-10.434
▁apologies	-10.434
▁attorney	-10.434
▁braxton	-10.434
▁broadcast	-10.434
▁casino	-10.434
▁cease	-10.434
▁centuries	-10.434
▁clown	-10.434
▁coincidence	-10.434
▁deaf	-10.434
▁fischer	-10.434
▁frederick	-10.434
▁jakarta	-10.434
▁nelson	-10.434
▁orleans	-10.434
▁permission	-10.434
▁presence	-10.434
▁relief	-10.434
▁russell	-10.434
▁segretti	-10.434
▁sequel	-10.434
▁sukarno	-10.434
▁terrified	-10.434
▁umezaki	-10.434
▁underneath	-10.434
▁understood	-10.434
▁wegman	-10.434
▁werewolf	-10.434
▁absurd	-10.434
▁prevent	-10.434
▁resort	-10.434
▁divatox	-10.434
▁prophecy	-10.434
▁slide	-10.434
▁conclusion	-10.434
▁gamart	-10.434
▁sweep	-10.434
▁joking	-10.434
▁krim	-10.434
▁fraser	-10.434
▁supplies	-10.434
▁crud	-10.434
▁liddy	-10.434
▁cannonball	-10.434
▁channel	-10.434
▁lucas	-10.434
▁schooi	-10.434
▁vincent	-10.434
▁rj	-10.434
▁heartbeat	-10.434
▁leap	-10.434
▁favourite	-10.434
▁humma	-10.434
▁basket	-10.434
▁cowgirl	-10.434
▁example	-10.4341
▁maax	-10.4341
▁oome	-10.4341
▁gower	-10.4341
▁dan	-10.4341
▁estate	-10.4341
▁youth	-10.4341
▁identity	-10.4341
▁poetry	-10.4341
▁muffled	-10.4341
▁reception	-10.4341
▁expensive	-10.4341
▁nuclear	-10.4341
▁chinese	-10.4341
▁pride	-10.4341
▁sync	-10.4341
▁moans	-10.4341
▁pilot	-10.4341
▁impressive	-10.4342
▁stalk	-10.4342
▁neat	-10.4342
▁monte	-10.4342
▁subway	-10.4342
▁humor	-10.4343
▁responsible	-10.4343
▁megan	-10.4344
▁judy	-10.4344
▁chad	-10.4344
▁aww	-10.4345
▁serving	-10.4346
▁sat	-10.4346
▁impression	-10.4347
▁yawns	-10.4347
▁sanders	-10.4348
▁junior	-10.4348
▁oss	-10.4349
▁cave	-10.4349
▁howling	-10.4349
▁haunted	-10.4349
▁bedtime	-10.4351
▁delighted	-10.4352
▁range	-10.4352
▁threatened	-10.4352
▁version	-10.4352
▁arranged	-10.4354
▁anger	-10.4355
▁dreadful	-10.4355
▁bound	-10.4355
▁daylight	-10.4356
▁stopping	-10.4357
▁hah	-10.4358
▁wounded	-10.4359
▁thee	-10.4361
▁fallen	-10.4361
▁drain	-10.4361
▁refused	-10.4364
▁shovel	-10.4364
▁dup	-10.4365
▁convinced	-10.4367
▁mini	-10.4367
▁goat	-10.4368
iest	-10.437
▁heights	-10.4373
▁bots	-10.4374
▁drove	-10.4377
▁goose	-10.4384
▁lifetime	-10.4385
▁allies	-10.4385
▁stairs	-10.4386
▁clangs	-10.4386
▁sonic	-10.4387
▁meowing	-10.439
▁yee	-10.4392
inga	-10.4399
▁arrangements	-10.4399
▁sweater	-10.44
▁dial	-10.4405
ier	-10.4412
▁dock	-10.4413
▁tent	-10.4415
▁interfere	-10.4416
▁painted	-10.442
▁degrees	-10.4426
▁klopeks	-10.4426
▁knees	-10.4439
▁trace	-10.444
▁subtitle	-10.4447
▁speaker	-10.4452
bout	-10.4453
▁filling	-10.4477
▁terms	-10.4478
ant	-10.4479
▁fl	-10.448
▁bend	-10.4488
▁worthy	-10.4492
put	-10.4501
▁neighbours	-10.4505
▁rolled	-10.4505
▁suspects	-10.4518
▁soldiers	-10.4518
mo	-10.4524
▁tanks	-10.4533
▁actors	-10.4546
ri	-10.4552
▁candles	-10.4557
▁beeps	-10.4559
▁yii	-10.4595
▁joining	-10.46
▁marine	-10.4603
▁laws	-10.4608
▁odds	-10.4625
▁habitat	-10.4625
▁dia	-10.4632
road	-10.4635
oui	-10.4638
▁plates	-10.4651
▁dreamed	-10.4671
▁at	-10.4675
▁ropes	-10.4678
▁flip	-10.4681
▁sincere	-10.4684
mp	-10.4686
▁compete	-10.4693
▁piss	-10.4701
▁hated	-10.4706
▁hay	-10.4714
▁poe	-10.4717
▁ski	-10.4719
▁ju	-10.4746
▁rate	-10.4763
ship	-10.4774
ily	-10.4781
▁ken	-10.4812
▁badly	-10.4813
▁spirits	-10.4826
der	-10.4861
▁fights	-10.4866
▁reasons	-10.4884
ard	-10.4884
▁crimes	-10.491
▁dies	-10.4918
▁wal	-10.4929
▁daddys	-10.4936
▁product	-10.4938
ving	-10.4957
▁finals	-10.4966
▁pen	-10.5
▁claim	-10.5046
▁succeed	-10.5046
▁am	-10.5048
▁cameras	-10.5059
ping	-10.5073
▁stake	-10.5073
▁explode	-10.5073
light	-10.5076
▁article	-10.5079
▁tyler	-10.5079
▁cowboy	-10.5079
▁sheet	-10.508
▁kim	-10.5082
zy	-10.5082
rey	-10.5083
▁transfer	-10.5085
▁souls	-10.5086
▁comfort	-10.5088
▁baudelaire	-10.5091
▁elephant	-10.5091
▁mirror	-10.5091
▁nephew	-10.5091
▁savage	-10.5091
▁owner	-10.5096
▁com	-10.5096
▁photograph	-10.5097
▁moles	-10.5097
▁jet	-10.5097
▁apple	-10.51
▁term	-10.5101
▁pipe	-10.5102
▁toward	-10.5102
▁maid	-10.5104
▁pill	-10.5106
▁chair	-10.5106
▁pu	-10.5109
▁chuckle	-10.5109
▁chips	-10.5109
op	-10.5115
▁vest	-10.5124
▁prayer	-10.5132
▁farmer	-10.5139
▁down	-10.5145
▁par	-10.5157
▁tests	-10.516
▁marks	-10.5166
▁frighten	-10.5182
▁dancer	-10.5186
ha	-10.5201
▁approach	-10.5203
▁jelly	-10.5206
▁publish	-10.5208
▁mistakes	-10.5211
▁dash	-10.5212
▁brief	-10.5217
▁sauce	-10.5227
▁sentence	-10.523
▁gain	-10.5236
▁statu	-10.5237
▁slim	-10.5237
▁herr	-10.5239
▁pip	-10.5242
▁treasure	-10.5243
▁threat	-10.5246
▁mornin	-10.5248
▁industri	-10.5249
▁rude	-10.5249
▁academy	-10.5249
▁altogether	-10.5249
▁barricade	-10.5249
▁behavior	-10.5249
▁beloved	-10.5249
▁carriage	-10.5249
▁celebrate	-10.5249
▁clumsy	-10.5249
▁concierge	-10.5249
▁curtis	-10.5249
▁dialogue	-10.5249
▁emmett	-10.5249
▁empire	-10.5249
▁excalibur	-10.5249
▁exercise	-10.5249
▁fitzhume	-10.5249
▁fozzie	-10.5249
▁furniture	-10.5249
▁gnome	-10.5249
▁instance	-10.5249
▁kermie	-10.5249
▁kikuyu	-10.5249
▁lasalles	-10.5249
▁legacy	-10.5249
▁mcashton	-10.5249
▁olivia	-10.5249
▁opponent	-10.5249
▁permanent	-10.5249
▁ralph	-10.5249
▁rehearse	-10.5249
▁saigon	-10.5249
▁scotland	-10.5249
▁sequence	-10.5249
▁strutter	-10.5249
▁thunderclap	-10.5249
▁tintagel	-10.5249
▁unfair	-10.5249
▁voyage	-10.5249
▁watson	-10.5249
▁wimbo	-10.5249
▁wisdom	-10.5249
▁worries	-10.5249
▁select	-10.5249
▁gym	-10.5249
▁librarian	-10.5249
▁superior	-10.5249
▁ease	-10.5249
▁vogel	-10.5249
▁worid	-10.5249
▁granger	-10.5249
▁gorgeous	-10.5249
▁leopard	-10.5249
▁after	-10.5249
▁jonah	-10.5249
▁squish	-10.5249
▁chimney	-10.5249
▁estimate	-10.5249
▁infinite	-10.5249
▁stiles	-10.5249
▁whinnies	-10.5249
▁muskie	-10.5249
▁fommy	-10.5249
▁yowling	-10.5249
▁authorities	-10.5249
▁illusion	-10.5249
▁earthquake	-10.5249
▁outstanding	-10.5249
▁popcorn	-10.5249
▁closing	-10.5249
▁oven	-10.5249
▁glory	-10.5249
▁association	-10.525
▁sophie	-10.525
▁basically	-10.525
▁basketball	-10.525
▁confusion	-10.525
▁plot	-10.525
▁digging	-10.525
▁sniffles	-10.525
▁championship	-10.525
▁display	-10.525
▁combat	-10.525
▁nonnie	-10.525
▁catwoman	-10.525
▁winston	-10.525
▁muttering	-10.525
▁charity	-10.525
▁glow	-10.525
▁jury	-10.525
▁beings	-10.525
▁cemetery	-10.525
▁quack	-10.525
▁balloon	-10.525
▁silent	-10.525
▁zipper	-10.525
▁education	-10.525
▁length	-10.525
▁conference	-10.525
▁chapin	-10.5251
▁yup	-10.5251
▁minor	-10.5251
▁centre	-10.5251
▁gently	-10.5251
▁scent	-10.5251
▁bounce	-10.5251
▁upper	-10.5251
▁gregory	-10.5251
▁budget	-10.5251
▁vexin	-10.5251
▁annoying	-10.5251
▁thirsty	-10.5252
▁grey	-10.5252
▁corps	-10.5252
▁physical	-10.5252
▁possession	-10.5252
▁award	-10.5252
▁laid	-10.5252
▁racing	-10.5252
▁clawson	-10.5253
▁seattle	-10.5253
▁shore	-10.5253
▁amongst	-10.5253
▁distorted	-10.5253
▁sandra	-10.5254
▁stepped	-10.5254
▁ricky	-10.5254
kg	-10.5254
▁annie	-10.5255
▁peaceful	-10.5255
▁freshman	-10.5255
▁agreement	-10.5256
▁humble	-10.5256
▁lick	-10.5256
▁larry	-10.5256
▁related	-10.5256
▁skies	-10.5257
▁hawkins	-10.5257
▁vibrations	-10.5257
▁manual	-10.5257
▁herd	-10.5258
▁tada	-10.5259
▁content	-10.5259
▁cord	-10.526
▁pole	-10.526
▁eats	-10.5261
▁usses	-10.5262
▁sixth	-10.5264
▁pm	-10.5265
▁host	-10.5267
▁role	-10.5268
▁policeman	-10.5271
▁instructions	-10.5271
▁corn	-10.5273
▁inter	-10.5276
▁useful	-10.5281
▁hunger	-10.5281
▁unable	-10.5282
▁nod	-10.5282
▁delivery	-10.5285
▁critters	-10.5286
▁cackles	-10.5286
▁approaching	-10.5289
▁lane	-10.529
▁shy	-10.5291
▁boxes	-10.5292
▁naked	-10.5292
▁drowning	-10.5293
▁layer	-10.5293
▁billion	-10.5293
▁survived	-10.5294
▁disturb	-10.5295
▁nervously	-10.5296
▁pickles	-10.5297
▁warriors	-10.53
xious	-10.5301
▁blasted	-10.5301
▁blessed	-10.5305
▁introduced	-10.5306
▁revs	-10.5307
▁exam	-10.5308
▁when	-10.531
▁requested	-10.5312
▁normally	-10.5315
▁commander	-10.5327
ible	-10.5328
▁rd	-10.5331
▁jar	-10.5335
▁entering	-10.5346
▁treated	-10.5351
▁engines	-10.5352
▁smaller	-10.5365
▁headline	-10.5367
▁iii	-10.5367
▁studying	-10.5377
▁listened	-10.5378
▁orphans	-10.5387
▁workers	-10.5389
▁que	-10.5391
▁where	-10.5393
io	-10.5393
▁walks	-10.5399
▁frankie	-10.5401
▁frankly	-10.5401
▁mall	-10.5406
▁peek	-10.5409
gue	-10.541
▁tracker	-10.5414
▁bulls	-10.5432
▁covers	-10.5437
▁thumbs	-10.5445
▁comet	-10.5452
▁lew	-10.5456
▁whas	-10.5461
▁po	-10.5465
▁boarding	-10.5468
▁enjoyed	-10.5471
▁leading	-10.5483
▁issues	-10.5489
▁kir	-10.5492
▁rolling	-10.5497
▁funds	-10.5501
mobile	-10.5503
▁sue	-10.5508
▁rout	-10.5509
ue	-10.5528
▁elms	-10.5553
eck	-10.5557
▁fails	-10.5579
bo	-10.5579
▁beating	-10.5583
▁understanding	-10.5602
▁gut	-10.563
day	-10.5633
▁knowing	-10.5672
▁sources	-10.5682
▁bats	-10.5695
▁improve	-10.5705
▁noises	-10.5725
▁wonders	-10.5744
▁fog	-10.5755
▁drives	-10.5765
▁incident	-10.5766
▁strikes	-10.5815
▁br	-10.5826
▁ps	-10.583
right	-10.5832
ga	-10.5844
▁hurting	-10.5851
▁tracks	-10.5865
▁pr	-10.5896
▁tails	-10.5902
▁bridges	-10.5905
▁den	-10.5909
ny	-10.5919
▁some	-10.5927
▁units	-10.5942
rate	-10.5943
▁wished	-10.5947
ail	-10.5952
▁we	-10.5985
field	-10.6003
▁tan	-10.6027
▁ham	-10.6047
▁des	-10.6052
▁fright	-10.6057
▁permit	-10.6077
▁maintain	-10.6079
▁muckle	-10.6079
▁oldknow	-10.608
▁hammer	-10.608
▁cu	-10.6081
▁growl	-10.6086
▁organization	-10.6087
▁bullet	-10.6089
ches	-10.6093
▁adam	-10.6097
▁scar	-10.6098
▁orphan	-10.6099
▁ages	-10.61
▁snack	-10.6101
▁glove	-10.6102
▁skill	-10.6104
▁folk	-10.6106
iy	-10.6106
▁ph	-10.6107
▁auntie	-10.6112
▁sock	-10.6123
▁ke	-10.6127
ass	-10.6127
▁bu	-10.613
▁ren	-10.6138
jo	-10.6154
▁thick	-10.6157
▁hunter	-10.6161
▁provo	-10.6173
▁weigh	-10.6193
▁grannys	-10.6194
▁punish	-10.6199
▁recommend	-10.6204
▁swell	-10.6205
▁mal	-10.6205
▁admire	-10.6212
▁dang	-10.6225
fall	-10.6226
soviet	-10.6227
world	-10.6227
▁balance	-10.623
▁ai	-10.6231
▁delete	-10.6232
▁toll	-10.6233
▁fortunate	-10.6234
▁chick	-10.6234
▁constant	-10.6235
▁torture	-10.6237
hearted	-10.6244
▁steve	-10.6244
▁pimp	-10.6247
▁scientific	-10.6249
▁makin	-10.6249
▁birth	-10.6249
▁cliff	-10.6249
▁antidote	-10.6249
▁artichokie	-10.6249
▁battalion	-10.6249
▁belgium	-10.6249
▁berkeley	-10.6249
▁bertram	-10.6249
▁buddies	-10.6249
▁cahill	-10.6249
▁ceiling	-10.6249
▁chauffeur	-10.6249
▁commodore	-10.6249
▁custody	-10.6249
▁delinquent	-10.6249
▁dinosaurs	-10.6249
▁disgrace	-10.6249
▁eberhardt	-10.6249
▁eternity	-10.6249
▁furnace	-10.6249
▁genuine	-10.6249
▁gradenko	-10.6249
▁gremlin	-10.6249
▁hightower	-10.6249
▁jennyanydots	-10.6249
▁lemur	-10.6249
▁liquid	-10.6249
▁macgregor	-10.6249
▁magruder	-10.6249
▁mexico	-10.6249
▁montana	-10.6249
▁montgomery	-10.6249
▁nassau	-10.6249
▁necklace	-10.6249
▁nfl	-10.6249
▁oclock	-10.6249
▁peculiar	-10.6249
▁pitcairn	-10.6249
▁preacher	-10.6249
▁privacy	-10.6249
▁procedure	-10.6249
▁reynolds	-10.6249
▁shermin	-10.6249
▁supreme	-10.6249
▁sydney	-10.6249
▁tahiti	-10.6249
▁tuesday	-10.6249
▁undercover	-10.6249
▁unexpected	-10.6249
▁whatsoever	-10.6249
▁whew	-10.6249
▁kilbourne	-10.6249
▁reboot	-10.6249
▁trading	-10.6249
▁chorus	-10.6249
▁transport	-10.6249
▁marysville	-10.6249
▁ryan	-10.6249
▁carried	-10.6249
▁italy	-10.6249
▁dessert	-10.6249
▁gambling	-10.6249
▁agency	-10.6249
▁destination	-10.6249
▁hilarious	-10.6249
▁salute	-10.6249
▁albert	-10.6249
▁invitation	-10.6249
▁troll	-10.6249
▁rumsfield	-10.6249
▁arriving	-10.6249
▁woohoo	-10.6249
▁serum	-10.6249
▁marvelous	-10.6249
▁stepmother	-10.6249
▁reflection	-10.6249
▁vermin	-10.6249
▁baroness	-10.6249
▁pluck	-10.6249
▁lousy	-10.6249
▁ahoy	-10.6249
▁marcus	-10.6249
▁intruder	-10.625
▁kidnapping	-10.625
▁limb	-10.625
▁revenge	-10.625
▁lecture	-10.625
▁cotton	-10.625
▁turk	-10.625
▁resistance	-10.625
▁strict	-10.625
▁slater	-10.625
▁oath	-10.625
▁slipping	-10.625
▁kidnap	-10.625
▁zordon	-10.625
▁asshole	-10.625
▁vital	-10.625
▁santa	-10.625
▁communication	-10.625
▁supply	-10.625
▁vicious	-10.625
▁hostage	-10.6251
▁dairy	-10.6251
▁tragic	-10.6251
▁virus	-10.6251
▁authority	-10.6251
▁wives	-10.6251
▁oak	-10.6251
▁indoor	-10.6251
▁disappointment	-10.6251
▁baseball	-10.6251
▁argue	-10.6251
▁patty	-10.6251
▁bedford	-10.6251
▁broadway	-10.6251
▁madison	-10.6251
▁chirping	-10.6252
▁objective	-10.6252
▁cramp	-10.6252
▁spotted	-10.6252
▁bingo	-10.6252
▁rice	-10.6252
▁commitment	-10.6252
▁irish	-10.6253
▁villagers	-10.6253
▁berlin	-10.6253
▁conduct	-10.6253
▁automatic	-10.6253
▁grip	-10.6253
itive	-10.6253
▁bible	-10.6254
▁discipline	-10.6254
▁treatment	-10.6254
▁rubber	-10.6254
berty	-10.6255
▁possibility	-10.6255
▁fascinating	-10.6256
▁narrat	-10.6256
▁foolish	-10.6256
▁robbery	-10.6256
▁ox	-10.6257
▁bait	-10.6257
▁greedy	-10.6258
▁assist	-10.6259
▁buckle	-10.6259
▁gear	-10.6259
▁benson	-10.626
▁pronounce	-10.626
▁sailor	-10.626
▁humanity	-10.626
▁dana	-10.6263
▁angeles	-10.6264
▁fighter	-10.6264
▁echoing	-10.6264
▁propose	-10.6264
▁prime	-10.6265
▁cocky	-10.6265
▁discussion	-10.6266
▁kate	-10.6266
▁attached	-10.6266
▁robbie	-10.6267
▁easter	-10.6267
▁headache	-10.6267
▁campus	-10.6269
▁assigned	-10.6269
▁forgetting	-10.6269
▁disappointed	-10.627
▁fran	-10.6272
▁neighing	-10.6272
▁abandoned	-10.6273
▁blokes	-10.6274
▁gulps	-10.6274
▁mid	-10.6274
▁bored	-10.6275
▁victory	-10.6275
▁fed	-10.6281
▁flu	-10.6285
▁branch	-10.6285
▁directly	-10.6286
▁cove	-10.629
▁backwards	-10.6291
▁what	-10.6293
▁reality	-10.6294
▁kisses	-10.6296
▁pitch	-10.63
▁passion	-10.6301
▁mick	-10.6302
▁passes	-10.6305
▁passengers	-10.6305
▁granted	-10.6307
▁loudly	-10.6309
▁barker	-10.631
▁successful	-10.631
▁isolate	-10.6311
▁realm	-10.6314
▁smarter	-10.6316
▁addie	-10.6316
▁ron	-10.6316
itates	-10.633
▁dolphins	-10.6338
ps	-10.634
▁tricky	-10.6342
▁sticks	-10.6349
▁messy	-10.6349
▁worms	-10.6353
▁affairs	-10.6354
▁helpful	-10.6367
ot	-10.6367
▁tunnels	-10.637
▁disapprove	-10.6374
▁climbing	-10.6375
▁moor	-10.6379
▁customers	-10.6387
▁musical	-10.6402
oola	-10.6404
ena	-10.6405
tto	-10.6413
▁beard	-10.6416
▁speeding	-10.6423
rimmer	-10.6435
▁dancers	-10.6435
▁kicked	-10.6436
▁tested	-10.6441
▁reported	-10.6441
▁krabs	-10.6449
▁bananas	-10.6451
▁qu	-10.6452
▁va	-10.6453
▁voices	-10.6462
▁explosions	-10.6467
ran	-10.6472
▁becomes	-10.6473
ture	-10.6483
sa	-10.6488
▁ensur	-10.6494
▁lookout	-10.6506
▁pin	-10.6506
▁hose	-10.6511
▁scientists	-10.6516
opat	-10.652
▁timing	-10.6533
▁puzzle	-10.6546
▁lovers	-10.6557
▁buttons	-10.6567
▁revolution	-10.6574
▁sneeze	-10.6578
▁danced	-10.6582
theme	-10.6596
▁angels	-10.6596
▁beasts	-10.6597
▁currents	-10.6597
ent	-10.6598
▁triple	-10.6606
▁faithful	-10.6612
che	-10.6634
▁inform	-10.664
▁knights	-10.6663
▁exists	-10.6665
▁reminds	-10.6666
▁changes	-10.6671
▁wah	-10.6681
▁cleaner	-10.6685
▁pad	-10.6702
▁goodies	-10.6716
▁pies	-10.6728
fer	-10.673
ka	-10.6732
▁rabbits	-10.6779
pe	-10.678
▁facts	-10.679
▁partners	-10.6795
▁pod	-10.6804
▁queens	-10.6804
lic	-10.6824
▁habit	-10.6831
▁para	-10.6861
▁films	-10.6879
▁poet	-10.6884
ite	-10.6893
▁tri	-10.6894
▁legends	-10.6895
ison	-10.6898
▁decisions	-10.6912
▁stations	-10.6916
▁anyways	-10.6924
▁contacts	-10.6927
▁holds	-10.6949
ian	-10.6951
▁bands	-10.6962
▁cells	-10.6963
▁mc	-10.6977
▁troubles	-10.698
ory	-10.6992
▁missy	-10.7018
ii	-10.7033
ions	-10.7063
▁wifes	-10.708
▁fuck	-10.7096
▁acts	-10.7097
va	-10.7115
kin	-10.7118
locks	-10.7121
ify	-10.7125
▁dip	-10.7129
itd	-10.7134
ked	-10.7142
▁eve	-10.7153
▁cart	-10.7164
▁ornament	-10.719
▁squirrel	-10.719
▁mates	-10.7191
▁tattoo	-10.7191
▁burst	-10.7192
▁tug	-10.7193
▁puppet	-10.7197
▁rockefeller	-10.7197
▁musician	-10.7198
▁pattern	-10.7199
▁ag	-10.72
▁autograph	-10.7202
▁rehearsal	-10.7205
▁senior	-10.7205
▁cent	-10.7208
▁cigarette	-10.7208
▁curtain	-10.7209
▁customer	-10.7216
▁germ	-10.7217
▁beside	-10.7217
ec	-10.7222
▁joker	-10.7231
▁pl	-10.7232
use	-10.7262
▁mill	-10.7266
ement	-10.7267
▁tables	-10.7269
▁betray	-10.7273
▁iv	-10.7286
▁worrying	-10.7301
▁complain	-10.7308
▁spray	-10.7311
▁og	-10.7312
uck	-10.7313
▁regard	-10.732
▁snarl	-10.7321
▁assum	-10.7323
▁occur	-10.7323
▁respond	-10.7327
boy	-10.7328
▁stress	-10.7329
▁spoil	-10.733
▁lack	-10.7333
▁cape	-10.7335
owned	-10.7336
▁wander	-10.7337
▁preserve	-10.7339
▁retire	-10.7345
▁restore	-10.7345
▁practical	-10.7346
▁describe	-10.7347
▁morgan	-10.7352
▁sup	-10.7352
▁torpedo	-10.7354
▁descend	-10.7355
▁western	-10.7358
▁fried	-10.7358
▁compass	-10.7358
▁possess	-10.7358
▁compliment	-10.7359
▁movin	-10.7359
▁argh	-10.736
▁scram	-10.736
▁basic	-10.736
▁pumpkin	-10.736
▁environment	-10.736
▁essential	-10.736
▁remote	-10.736
▁suspicious	-10.736
▁annual	-10.736
▁assault	-10.736
▁august	-10.736
▁babbling	-10.736
▁bartender	-10.736
▁bikini	-10.736
▁celebrating	-10.736
▁clarissa	-10.736
▁crikey	-10.736
▁curiosity	-10.736
▁dawg	-10.736
▁delamere	-10.736
▁eternal	-10.736
▁eventually	-10.736
▁exploding	-10.736
▁explosive	-10.736
▁famiiy	-10.736
▁gracie	-10.736
▁hardware	-10.736
▁investigating	-10.736
▁kelmot	-10.736
▁keynote	-10.736
▁kovac	-10.736
▁maureen	-10.736
▁muscle	-10.736
▁ncaa	-10.736
▁odile	-10.736
▁osmosis	-10.736
▁phew	-10.736
▁powder	-10.736
▁reservation	-10.736
▁response	-10.736
▁rhyme	-10.736
▁rupert	-10.736
▁skimbleshanks	-10.736
▁smuntz	-10.736
▁struther	-10.736
▁suicide	-10.736
▁sunflower	-10.736
▁theodora	-10.736
▁therefore	-10.736
▁tissue	-10.736
▁upepo	-10.736
▁vinci	-10.736
▁violent	-10.736
▁vomit	-10.736
▁certificate	-10.736
▁crystal	-10.736
▁gulag	-10.736
▁scandal	-10.736
▁technology	-10.736
▁aisle	-10.736
▁district	-10.736
▁warrant	-10.736
▁barefoot	-10.736
▁blaze	-10.736
▁flora	-10.736
▁sorrow	-10.736
▁automated	-10.736
▁harsh	-10.736
▁hyperspace	-10.736
▁whiskey	-10.736
▁incoming	-10.736
▁tugger	-10.736
▁conscience	-10.736
▁rueland	-10.736
▁whinny	-10.736
▁grasshopper	-10.736
▁pregnant	-10.736
▁facility	-10.736
▁proposition	-10.736
▁blotz	-10.736
▁burden	-10.736
▁rep	-10.736
▁hitchhikers	-10.736
▁radar	-10.736
▁breed	-10.736
▁venom	-10.736
▁diddly	-10.7361
▁ltaly	-10.7361
▁influence	-10.7361
▁bidding	-10.7361
▁bradbury	-10.7361
▁coleye	-10.7361
▁downtown	-10.7361
▁stray	-10.7361
▁wasting	-10.7361
▁unique	-10.7361
▁advisor	-10.7361
▁jeanette	-10.7361
▁jeff	-10.7361
▁lobby	-10.7361
▁lunatic	-10.7361
▁approval	-10.7361
▁heelis	-10.7361
▁dedicate	-10.7361
▁duties	-10.7361
▁dyke	-10.7361
▁reef	-10.7361
▁gagging	-10.7361
▁wagon	-10.7361
▁diane	-10.7361
▁gavin	-10.7361
▁enterprise	-10.7361
▁huddle	-10.7361
▁unknown	-10.7361
▁negative	-10.7361
▁consultant	-10.7361
▁puppy	-10.7361
▁polish	-10.7361
▁milton	-10.7361
▁rover	-10.7361
▁television	-10.7361
▁oooh	-10.7361
▁raid	-10.7361
▁therapy	-10.7362
▁contest	-10.7362
▁festival	-10.7362
▁meanwhile	-10.7362
▁juvenile	-10.7362
▁surgeon	-10.7362
▁yoho	-10.7362
▁mmmmm	-10.7362
▁poem	-10.7362
▁slice	-10.7362
▁happier	-10.7362
▁emotional	-10.7362
▁data	-10.7363
▁depressed	-10.7363
▁clattering	-10.7363
▁arguing	-10.7363
▁keen	-10.7363
▁gday	-10.7363
▁benny	-10.7364
▁tummy	-10.7364
▁limo	-10.7364
▁mega	-10.7364
▁gipping	-10.7365
▁earn	-10.7365
▁romance	-10.7365
▁ew	-10.7365
▁cheerleader	-10.7365
▁whore	-10.7366
▁childhood	-10.7366
▁torpedoes	-10.7366
▁motor	-10.7366
▁frost	-10.7367
▁quitting	-10.7367
▁ofthe	-10.7367
▁conquer	-10.7367
▁inspired	-10.7367
▁shaking	-10.7368
▁unlike	-10.7368
isp	-10.7368
▁rocket	-10.7368
▁cue	-10.737
▁dough	-10.737
▁willie	-10.737
▁gulls	-10.737
▁bayonets	-10.737
▁resumes	-10.737
▁sore	-10.737
▁bench	-10.7372
▁programmed	-10.7372
▁senat	-10.7372
▁mayday	-10.7373
▁maxie	-10.7373
▁fuel	-10.7374
▁jin	-10.7374
▁worthless	-10.7374
▁planets	-10.7374
▁deadline	-10.7375
▁gump	-10.7375
▁von	-10.7376
▁tooth	-10.7377
▁fairies	-10.7378
▁spite	-10.7379
▁cory	-10.738
▁minus	-10.738
▁jackie	-10.7382
▁exploded	-10.7382
▁folder	-10.7383
▁barnes	-10.7385
mon	-10.7386
▁they	-10.7387
▁removed	-10.7387
▁wiped	-10.7388
▁relatives	-10.7388
▁apply	-10.7388
▁brady	-10.7388
▁richest	-10.7389
▁hint	-10.739
▁required	-10.7391
ock	-10.7392
▁sensei	-10.7393
▁pest	-10.7398
▁didi	-10.7401
▁healed	-10.7401
▁fung	-10.7401
▁union	-10.7402
▁plum	-10.7402
▁intended	-10.7408
▁asses	-10.7413
ities	-10.7417
▁citizens	-10.7424
▁emotions	-10.7424
▁released	-10.7424
▁robbers	-10.7425
▁pope	-10.7437
▁dreamt	-10.7439
▁wasted	-10.744
▁bubbles	-10.7442
▁suffering	-10.7444
▁experienced	-10.7448
▁sinking	-10.7448
▁forced	-10.7449
▁deeper	-10.7451
▁sailing	-10.7454
▁barks	-10.7456
▁mort	-10.7456
▁hitch	-10.7463
▁porter	-10.7463
▁kin	-10.7465
aw	-10.7469
▁pretending	-10.7472
ologist	-10.7476
▁grounds	-10.7478
nows	-10.7479
ys	-10.748
▁cookies	-10.7488
▁blaster	-10.7493
▁freaking	-10.7498
▁shared	-10.7502
▁curtains	-10.7514
▁bowling	-10.7522
▁anne	-10.7526
ors	-10.7527
▁traveler	-10.7528
▁bothering	-10.7532
▁sting	-10.7533
▁grows	-10.7535
▁maids	-10.755
▁temper	-10.7551
▁prayers	-10.7562
▁boats	-10.7563
▁sucks	-10.7571
▁searching	-10.7577
▁sire	-10.7583
▁kissing	-10.7586
▁feathers	-10.7587
▁naive	-10.7595
▁glue	-10.7598
▁dates	-10.7605
▁magazines	-10.7605
▁offering	-10.761
▁dragons	-10.7624
▁mouthing	-10.7628
▁teaching	-10.7629
lie	-10.7638
▁whi	-10.7639
▁pirates	-10.7642
▁joes	-10.766
▁traps	-10.766
▁nerves	-10.7661
▁deed	-10.7661
▁trains	-10.7679
▁fo	-10.7691
▁wil	-10.7691
▁indicate	-10.7703
tuna	-10.7714
▁signs	-10.7714
▁duh	-10.7716
▁es	-10.7722
▁babes	-10.7751
▁cock	-10.7755
▁continu	-10.7757
▁tob	-10.7781
▁waiter	-10.7781
▁parad	-10.7801
▁col	-10.7803
▁here	-10.7815
▁presume	-10.7818
▁aliens	-10.7826
▁prisoners	-10.7834
▁rides	-10.7835
▁ja	-10.7861
▁bottles	-10.7864
▁events	-10.7866
omic	-10.7871
▁natives	-10.7882
▁fires	-10.7885
▁dime	-10.7886
▁chim	-10.7895
▁er	-10.7898
▁prices	-10.7901
▁blues	-10.7907
▁til	-10.7918
its	-10.7919
▁gates	-10.7923
ja	-10.7937
▁me	-10.794
gai	-10.7981
▁catching	-10.7984
▁skipp	-10.7984
▁eagles	-10.7995
▁prickl	-10.7999
▁assassin	-10.8011
und	-10.8014
▁hopes	-10.8025
nic	-10.804
▁lit	-10.8061
▁causes	-10.8075
▁turner	-10.8083
▁bel	-10.8086
▁locks	-10.8097
sky	-10.8143
▁hesitate	-10.8165
▁drops	-10.817
ma	-10.8185
sensitive	-10.8187
▁victim	-10.8189
▁goody	-10.822
▁generals	-10.8225
▁mee	-10.8246
▁web	-10.8282
ho	-10.8324
▁actions	-10.8339
▁sings	-10.8345
▁machines	-10.8357
▁chin	-10.8362
▁min	-10.8374
if	-10.8386
▁sc	-10.84
some	-10.8407
▁strain	-10.8409
▁increase	-10.8419
▁wound	-10.8419
▁provide	-10.8424
▁knee	-10.8438
▁helsing	-10.844
▁magician	-10.8442
▁patrol	-10.8447
▁technique	-10.8447
▁bucket	-10.8449
▁cheer	-10.8449
▁dodge	-10.845
▁decade	-10.8452
▁vogon	-10.8453
▁exit	-10.8454
▁temperature	-10.8455
▁review	-10.8455
▁athlete	-10.8459
▁classic	-10.846
▁tunnel	-10.846
▁menu	-10.8464
▁via	-10.8472
ile	-10.8481
▁ton	-10.8488
▁grove	-10.8511
▁medic	-10.8515
hand	-10.8528
▁tag	-10.8529
▁abandon	-10.8531
▁mix	-10.8537
water	-10.8538
looking	-10.8546
▁dam	-10.8552
▁te	-10.8555
wood	-10.8558
▁fac	-10.856
▁metaphor	-10.856
▁distract	-10.8569
▁on	-10.8572
▁progress	-10.8574
▁slaughter	-10.8574
▁litter	-10.8574
lo	-10.8577
▁plug	-10.8579
▁vip	-10.8581
how	-10.8587
worm	-10.8587
▁mock	-10.8587
free	-10.8588
stick	-10.8589
town	-10.859
▁choke	-10.8591
my	-10.8593
▁exchange	-10.8593
▁examine	-10.8593
▁guilt	-10.8594
▁flatter	-10.8595
▁gamble	-10.8596
▁absolute	-10.8597
▁snip	-10.8598
▁mere	-10.8599
▁marsh	-10.8601
▁extinct	-10.8603
▁capital	-10.8605
▁mou	-10.8605
▁counsel	-10.8606
▁dive	-10.8606
▁civil	-10.8607
▁hors	-10.8607
▁adopt	-10.8608
▁goddam	-10.8608
▁earl	-10.8608
▁nem	-10.8609
▁livin	-10.8609
▁electron	-10.861
▁confident	-10.861
▁clap	-10.861
▁stereo	-10.861
▁prank	-10.861
▁anonymous	-10.861
▁awkward	-10.861
greatgrandfather	-10.861
misunderstanding	-10.861
▁airplane	-10.861
▁allamerican	-10.861
▁almighty	-10.861
▁arizona	-10.861
▁aruk	-10.861
▁atlantis	-10.861
▁beware	-10.861
▁bounty	-10.861
▁bypass	-10.861
▁calendar	-10.861
▁cinnamon	-10.861
▁circuit	-10.861
▁civilization	-10.861
▁conservancy	-10.861
▁curfew	-10.861
▁derval	-10.861
▁existence	-10.861
▁fortress	-10.861
▁gokart	-10.861
▁hanover	-10.861
▁heehaw	-10.861
▁holland	-10.861
▁hooray	-10.861
▁humphrey	-10.861
▁identification	-10.861
▁intellectual	-10.861
▁investigate	-10.861
▁iowa	-10.861
▁jaguar	-10.861
▁kavula	-10.861
▁kirstie	-10.861
▁luggage	-10.861
▁macmorrow	-10.861
▁merchandise	-10.861
▁moscow	-10.861
▁mungojerrie	-10.861
▁mvp	-10.861
▁nitwit	-10.861
▁orchard	-10.861
▁peopie	-10.861
▁politics	-10.861
▁pursuit	-10.861
▁reckon	-10.861
▁regiment	-10.861
▁regulator	-10.861
▁resolve	-10.861
▁rinaldi	-10.861
▁rumpelteazer	-10.861
▁safari	-10.861
▁satisfaction	-10.861
▁schirmer	-10.861
▁schuyler	-10.861
▁september	-10.861
▁sherlock	-10.861
▁slaghoople	-10.861
▁socalled	-10.861
▁sofa	-10.861
▁stadium	-10.861
▁tarik	-10.861
▁tournament	-10.861
▁transylvania	-10.861
▁ufo	-10.861
▁umbrella	-10.861
▁vegetarian	-10.861
▁waitzkin	-10.861
▁widow	-10.861
▁average	-10.861
▁bippityboppity	-10.861
▁bloom	-10.861
▁footprints	-10.861
▁introduction	-10.861
▁lajoie	-10.861
▁lavender	-10.861
▁mourn	-10.861
▁spectroscope	-10.861
▁circus	-10.861
▁kramer	-10.861
▁lodge	-10.861
▁carrot	-10.861
▁gazoo	-10.861
▁zamu	-10.861
▁eighteen	-10.861
▁guidance	-10.861
▁breadfruit	-10.861
▁francisco	-10.861
▁battery	-10.861
▁judging	-10.861
▁denmark	-10.861
▁doublecross	-10.861
▁nadya	-10.861
▁allergic	-10.861
▁fantasies	-10.861
▁wailing	-10.861
▁humina	-10.861
▁outlaw	-10.861
▁foul	-10.8611
▁underwear	-10.8611
▁lenny	-10.8611
▁pedal	-10.8611
▁abort	-10.8611
▁behold	-10.8611
▁discount	-10.8611
▁smoking	-10.8611
▁motel	-10.8611
▁trillian	-10.8611
▁ivory	-10.8611
▁mumbling	-10.8611
▁sunset	-10.8611
▁typewriter	-10.8611
▁roadblock	-10.8611
▁garth	-10.8611
▁yuck	-10.8611
▁online	-10.8611
▁jacques	-10.8611
▁sheep	-10.8611
▁ruth	-10.8611
▁depth	-10.8611
▁passionate	-10.8611
▁neighbourhood	-10.8611
▁disney	-10.8611
▁jewelry	-10.8611
▁martz	-10.8611
▁dragged	-10.8611
▁ashley	-10.8611
▁supervisor	-10.8611
▁patties	-10.8611
▁ashore	-10.8611
▁blanket	-10.8611
▁shortcut	-10.8611
▁delightful	-10.8611
▁lightfoot	-10.8611
▁visa	-10.8611
▁auto	-10.8611
▁cluck	-10.8611
▁ramp	-10.8611
▁civilian	-10.8612
▁coordinates	-10.8612
▁riff	-10.8612
▁tum	-10.8612
▁flashlight	-10.8612
▁hysterical	-10.8612
▁critical	-10.8612
▁clerk	-10.8612
▁privilege	-10.8612
▁solution	-10.8612
▁latin	-10.8612
▁gunshot	-10.8612
▁dday	-10.8612
▁rubble	-10.8613
▁sophisticated	-10.8613
▁injured	-10.8613
▁blend	-10.8613
▁seize	-10.8613
▁hoof	-10.8613
▁flown	-10.8613
▁stuntman	-10.8613
▁pulse	-10.8613
▁godfather	-10.8613
▁psst	-10.8613
▁clamoring	-10.8613
▁terrifying	-10.8613
▁pki	-10.8613
▁stall	-10.8613
▁financial	-10.8614
▁lsnt	-10.8614
▁riverton	-10.8614
ville	-10.8614
▁elsewhere	-10.8614
▁cocoa	-10.8614
▁courtland	-10.8614
▁compare	-10.8614
▁hawke	-10.8614
▁drinkwater	-10.8614
▁waltz	-10.8614
▁perth	-10.8615
▁vern	-10.8615
▁dull	-10.8615
▁spur	-10.8615
▁grady	-10.8615
▁pony	-10.8615
▁bravery	-10.8615
▁technically	-10.8615
▁entry	-10.8615
▁tasty	-10.8615
▁worn	-10.8615
▁rapping	-10.8616
▁toss	-10.8616
▁mustang	-10.8616
▁doomed	-10.8616
▁production	-10.8617
▁machinery	-10.8617
▁creative	-10.8617
▁forth	-10.8617
▁milles	-10.8618
▁footage	-10.8618
▁task	-10.8618
▁mental	-10.8618
▁angle	-10.8618
▁mason	-10.8619
▁rapidly	-10.8619
▁inch	-10.862
▁sonny	-10.862
▁hideous	-10.862
▁ciao	-10.8621
▁hugh	-10.8621
▁itch	-10.8621
▁hq	-10.8621
▁bleh	-10.8622
▁phillips	-10.8622
▁flippers	-10.8622
▁davis	-10.8622
▁media	-10.8623
▁appetite	-10.8623
▁bitter	-10.8623
▁suspended	-10.8624
▁vanished	-10.8625
▁hash	-10.8625
▁mold	-10.8625
▁route	-10.8627
esis	-10.8627
▁erase	-10.8628
▁invented	-10.8628
▁dougie	-10.8629
▁tender	-10.8632
▁yah	-10.8632
▁examiner	-10.8632
▁andrea	-10.8633
▁organized	-10.8633
▁kneel	-10.8633
ona	-10.8635
▁thus	-10.8637
▁hmmm	-10.8641
▁thuds	-10.8642
▁rollin	-10.8642
▁drawing	-10.8642
▁earned	-10.8644
▁camel	-10.8645
▁spawning	-10.8645
▁ei	-10.8648
▁showtime	-10.865
▁guaranteed	-10.865
▁momma	-10.8651
▁pork	-10.8651
▁straining	-10.8651
▁hollow	-10.8652
▁positively	-10.8654
▁brandy	-10.8654
▁rookie	-10.8656
▁heywood	-10.8656
▁che	-10.8656
▁recognized	-10.8657
▁porch	-10.8658
▁baron	-10.866
▁crows	-10.8662
▁fireworks	-10.8663
▁developed	-10.8666
▁swallowed	-10.8668
▁confirmed	-10.8669
▁lighten	-10.8669
▁suggested	-10.8672
▁shivers	-10.8683
▁appeared	-10.8687
ck	-10.8688
▁lung	-10.8689
▁sn	-10.8698
▁ruled	-10.8702
▁juns	-10.8703
▁thrown	-10.8703
▁chivalr	-10.8711
▁talks	-10.8714
▁cap	-10.8716
▁flea	-10.8717
▁whatwhat	-10.872
▁ding	-10.8721
▁clients	-10.8724
▁involve	-10.8728
▁climbed	-10.8729
▁brakes	-10.8744
▁visitors	-10.8746
▁belonged	-10.875
▁sin	-10.8751
▁quicker	-10.8753
▁ad	-10.8756
▁abs	-10.8765
su	-10.877
▁nate	-10.8771
▁nut	-10.8779
ina	-10.8782
▁imagined	-10.8784
▁germs	-10.8786
▁cigarettes	-10.8786
▁nato	-10.8788
eau	-10.8789
▁jumpy	-10.8789
▁pads	-10.8796
▁packing	-10.8798
▁fame	-10.8801
▁adams	-10.8807
▁chequ	-10.8807
▁crashed	-10.8808
▁hiya	-10.8808
▁incidents	-10.8821
▁medi	-10.8825
▁photographs	-10.8827
▁est	-10.8836
▁pipes	-10.8837
▁goldilo	-10.8848
▁brit	-10.8849
▁risking	-10.8854
eight	-10.8865
▁equals	-10.8867
▁laying	-10.8867
▁masters	-10.8869
▁missiles	-10.8869
▁fe	-10.8871
▁spits	-10.8872
▁bum	-10.8877
▁ze	-10.888
▁robe	-10.8894
▁una	-10.8902
▁psycho	-10.8905
▁emojis	-10.8911
▁kills	-10.8936
▁tales	-10.8941
▁christians	-10.8947
▁toys	-10.8957
▁nations	-10.8957
ner	-10.896
▁shines	-10.8979
▁ty	-10.8985
nya	-10.8986
▁bangs	-10.8995
▁photos	-10.8997
▁aunts	-10.9006
▁roses	-10.9008
▁nightmares	-10.9016
▁navigate	-10.9021
▁adventures	-10.9031
▁torna	-10.9035
ade	-10.9036
▁rehydrate	-10.9065
am	-10.9066
▁parker	-10.9068
▁cousins	-10.908
▁shirts	-10.908
▁bid	-10.9085
▁mati	-10.9088
▁stu	-10.91
with	-10.9102
▁rio	-10.9113
▁produce	-10.9127
▁hog	-10.9128
▁cd	-10.9134
▁cleared	-10.9138
bound	-10.9155
▁wheels	-10.9164
▁waves	-10.9164
▁char	-10.9179
ois	-10.9181
▁deer	-10.9187
▁burns	-10.9188
▁pockets	-10.9208
▁springs	-10.9208
▁foryou	-10.9221
gged	-10.9226
▁ink	-10.9227
mi	-10.9235
ore	-10.924
▁cl	-10.9263
▁axe	-10.9268
▁mir	-10.9278
▁cared	-10.9283
▁dun	-10.9287
rous	-10.9295
ago	-10.9303
▁hike	-10.9316
rry	-10.9317
▁interests	-10.932
▁quote	-10.933
▁fellows	-10.9337
▁stor	-10.9347
gas	-10.9359
▁ana	-10.9372
▁cakes	-10.938
pping	-10.938
ister	-10.9393
gy	-10.9402
▁tastes	-10.9403
▁sta	-10.9405
eyed	-10.9415
ya	-10.9419
▁af	-10.9429
▁ob	-10.9431
ni	-10.9442
▁greater	-10.9452
▁hoo	-10.9452
▁sniff	-10.9458
▁mug	-10.9479
▁ir	-10.9488
▁cor	-10.9493
▁nicely	-10.9499
inister	-10.9516
▁sixty	-10.9536
▁sets	-10.9544
▁systems	-10.9555
▁rag	-10.9566
▁starv	-10.9574
▁princes	-10.9591
ight	-10.9596
▁forms	-10.9598
pped	-10.9598
▁lifes	-10.9612
▁planes	-10.9618
▁reai	-10.9654
gh	-10.9666
itation	-10.967
▁richards	-10.9683
ral	-10.9684
ad	-10.9693
▁toe	-10.9702
▁ga	-10.9707
▁placed	-10.9709
bash	-10.9719
ery	-10.9721
▁offers	-10.9721
▁tomb	-10.9733
of	-10.975
▁ideal	-10.9762
▁flak	-10.9764
▁how	-10.9782
▁mouths	-10.9802
active	-10.9803
▁stays	-10.9825
▁crook	-10.9835
▁attract	-10.9839
▁alans	-10.9865
▁effect	-10.9867
▁sends	-10.9868
▁invention	-10.987
▁harvest	-10.987
▁burglar	-10.9872
▁jac	-10.9873
▁wednesday	-10.9876
▁root	-10.9877
▁standard	-10.9879
gs	-10.9881
▁coffin	-10.9883
▁rumor	-10.9884
▁flame	-10.9884
▁connection	-10.9884
▁slipper	-10.9886
▁sal	-10.9887
▁brake	-10.9887
▁affair	-10.9888
▁paw	-10.9889
▁klopek	-10.989
▁drill	-10.9891
▁recipe	-10.9891
▁degree	-10.9892
▁chipmunk	-10.9894
▁there	-10.9897
▁australian	-10.99
▁visitor	-10.9902
▁cookie	-10.9903
▁accu	-10.9903
▁don	-10.9908
▁worship	-10.9912
▁sag	-10.9913
▁lin	-10.9914
▁worm	-10.9915
▁ego	-10.9922
▁brag	-10.9937
▁ditch	-10.9953
▁owl	-10.9955
▁por	-10.997
▁theo	-10.9972
▁services	-10.9978
▁butts	-10.9982
▁lu	-10.9983
▁demo	-10.9988
▁crank	-10.9995
▁gato	-10.9997
▁sum	-10.9997
▁spawn	-10.9999
school	-11
▁melvin	-11.0002
▁affect	-11.0003
▁puff	-11.0004
yard	-11.0006
▁mart	-11.0006
▁establish	-11.0007
▁disappoint	-11.0007
▁cancel	-11.0007
▁assign	-11.0008
▁twist	-11.0009
▁register	-11.001
▁mode	-11.0012
itched	-11.0012
minded	-11.0013
train	-11.0014
▁surf	-11.0014
piece	-11.0015
bach	-11.0015
bury	-11.0016
skull	-11.0017
chair	-11.0017
plus	-11.0017
beard	-11.0017
point	-11.0017
boat	-11.0018
▁wealth	-11.0018
▁fold	-11.0018
▁silk	-11.0019
dont	-11.002
▁ofyou	-11.002
▁activate	-11.002
▁isa	-11.0021
▁profession	-11.0024
▁arrange	-11.0024
▁consist	-11.0025
▁adore	-11.0026
▁pour	-11.003
▁peck	-11.0032
▁capt	-11.0032
▁cruise	-11.0033
▁cloth	-11.0034
happily	-11.0034
▁beak	-11.0034
▁knuck	-11.0036
▁fau	-11.0037
▁achieve	-11.0037
▁unconscious	-11.0037
▁log	-11.0037
▁sentimental	-11.0037
▁runnin	-11.0038
▁kiddin	-11.0038
▁cartoon	-11.0038
▁hans	-11.0038
▁fiend	-11.0038
▁adjust	-11.0038
▁journal	-11.0039
▁adios	-11.0039
▁amulet	-11.0039
▁apologise	-11.0039
▁behalf	-11.0039
▁beneath	-11.0039
▁beryl	-11.0039
▁bissinger	-11.0039
▁blob	-11.0039
▁brannit	-11.0039
▁burrito	-11.0039
▁bustopher	-11.0039
▁cabillo	-11.0039
▁clarinet	-11.0039
▁column	-11.0039
▁commercial	-11.0039
▁concession	-11.0039
▁disagree	-11.0039
▁dungeon	-11.0039
▁eager	-11.0039
▁easiest	-11.0039
▁epic	-11.0039
▁escaping	-11.0039
▁falafel	-11.0039
▁fenderbaum	-11.0039
▁fierce	-11.0039
▁glimpse	-11.0039
▁grain	-11.0039
▁grasp	-11.0039
▁grief	-11.0039
▁gurney	-11.0039
▁heffley	-11.0039
▁himmel	-11.0039
▁improbability	-11.0039
▁inspiration	-11.0039
▁jenkins	-11.0039
▁kaiser	-11.0039
▁kazuhiko	-11.0039
▁knives	-11.0039
▁lsabel	-11.0039
▁machete	-11.0039
▁maude	-11.0039
▁mombasa	-11.0039
▁mortgage	-11.0039
▁multipl	-11.0039
▁napoleon	-11.0039
▁naughty	-11.0039
▁necessarily	-11.0039
▁octopus	-11.0039
▁platoon	-11.0039
▁pneumonia	-11.0039
▁polk	-11.0039
▁profound	-11.0039
▁roosevelt	-11.0039
▁saliva	-11.0039
▁separation	-11.0039
▁snores	-11.0039
▁softpaws	-11.0039
▁taylor	-11.0039
▁terence	-11.0039
▁throttle	-11.0039
▁violence	-11.0039
▁volume	-11.0039
▁winslow	-11.0039
▁yoohoo	-11.0039
▁anchor	-11.0039
▁hobby	-11.0039
▁holt	-11.0039
▁identify	-11.0039
▁impact	-11.0039
▁jersey	-11.0039
▁omg	-11.0039
▁perimeter	-11.0039
▁telegram	-11.0039
becoming	-11.0039
▁beacon	-11.0039
▁ecstasy	-11.0039
▁stallyn	-11.0039
▁apprentice	-11.0039
▁ambulance	-11.0039
▁japanese	-11.0039
▁lease	-11.0039
▁panero	-11.0039
▁bleep	-11.0039
▁gracious	-11.0039
▁margaret	-11.0039
▁masai	-11.0039
▁alumn	-11.0039
▁menace	-11.0039
▁carpet	-11.0039
▁granada	-11.0039
▁applied	-11.0039
▁swap	-11.0039
▁couid	-11.0039
▁excess	-11.0039
▁insects	-11.0039
▁paradise	-11.0039
▁helmet	-11.0039
▁picnic	-11.0039
▁straw	-11.0039
▁lethal	-11.0039
▁rubbish	-11.0039
▁employee	-11.0039
▁vessel	-11.0039
▁leak	-11.0039
▁tolerate	-11.0039
▁fortyfive	-11.0039
▁sanctuary	-11.0039
▁comedian	-11.0039
▁argument	-11.0039
▁plankton	-11.0039
▁snuck	-11.0039
▁kelp	-11.0039
▁pacific	-11.0039
▁canada	-11.0039
▁conrad	-11.0039
▁contrary	-11.0039
▁reject	-11.0039
▁flock	-11.0039
▁undead	-11.0039
▁blake	-11.0039
▁generator	-11.0039
▁referring	-11.0039
▁lemonade	-11.0039
▁toronto	-11.0039
▁traitor	-11.0039
kind	-11.0039
▁negus	-11.0039
▁administration	-11.0039
▁torch	-11.0039
▁lyle	-11.0039
▁martial	-11.0039
▁exterminator	-11.0039
▁koobeeday	-11.0039
▁cherie	-11.004
▁leonard	-11.004
▁confidential	-11.004
▁shelf	-11.004
▁hmph	-11.004
▁smack	-11.004
▁sobs	-11.004
▁whorehouse	-11.004
▁album	-11.004
▁solomon	-11.004
▁marries	-11.004
▁northern	-11.004
▁myth	-11.004
▁barnyard	-11.004
▁seville	-11.004
▁instructor	-11.004
▁khan	-11.004
▁effective	-11.004
▁gordon	-11.004
▁joelle	-11.004
▁obey	-11.004
▁batmobile	-11.004
▁finch	-11.004
▁thug	-11.004
▁galactic	-11.004
▁paperwork	-11.004
▁cozy	-11.004
▁paranoid	-11.004
▁rising	-11.004
▁haveyou	-11.004
▁injury	-11.0041
▁stiff	-11.0041
▁gravity	-11.0041
▁woof	-11.0041
▁mutters	-11.0041
▁intention	-11.0041
▁fifteen	-11.0041
▁ltalian	-11.0041
▁puke	-11.0041
▁culture	-11.0041
▁salary	-11.0041
▁wyl	-11.0041
▁peru	-11.0041
▁timmy	-11.0041
▁underground	-11.0041
▁cherish	-11.0041
▁leah	-11.0041
▁patton	-11.0041
▁vac	-11.0041
▁yahoo	-11.0041
▁shield	-11.0041
▁glorious	-11.0041
▁raven	-11.0041
▁massive	-11.0041
▁moonlight	-11.0041
▁inhales	-11.0041
▁ladybug	-11.0041
▁offended	-11.0041
▁fireplace	-11.0041
▁execution	-11.0041
▁eugene	-11.0042
▁travelling	-11.0042
▁pinch	-11.0042
▁scramble	-11.0042
▁wrapped	-11.0042
▁leeches	-11.0042
▁tech	-11.0042
▁accidentally	-11.0042
▁appearance	-11.0042
▁applauding	-11.0042
▁booth	-11.0043
▁silo	-11.0043
▁josephine	-11.0043
▁ozma	-11.0043
▁accelerator	-11.0043
▁management	-11.0043
▁hola	-11.0043
▁gangway	-11.0043
▁bugle	-11.0043
▁appeal	-11.0043
▁mica	-11.0043
▁twitchy	-11.0043
▁pox	-11.0043
▁broom	-11.0043
▁religion	-11.0043
▁harmless	-11.0043
▁mui	-11.0043
▁gateway	-11.0043
▁crop	-11.0044
▁typical	-11.0044
eroni	-11.0044
▁electricity	-11.0044
▁hallway	-11.0044
▁counselor	-11.0044
▁soda	-11.0044
▁colley	-11.0044
▁frau	-11.0044
▁occupation	-11.0044
▁dishes	-11.0044
▁alike	-11.0044
▁vocaliz	-11.0044
▁tempo	-11.0045
▁tidy	-11.0045
▁dropbox	-11.0045
▁european	-11.0045
▁butterfly	-11.0045
▁refer	-11.0046
▁fuzzy	-11.0046
▁potty	-11.0046
▁jamie	-11.0046
▁stung	-11.0046
▁robinson	-11.0047
▁household	-11.0047
▁milo	-11.0047
▁eastern	-11.0047
▁pact	-11.0048
▁snowman	-11.0048
▁yea	-11.0048
▁through	-11.0048
▁divided	-11.0048
▁inches	-11.0049
▁hooting	-11.0049
▁lace	-11.0049
▁passage	-11.0049
▁romeo	-11.0049
▁email	-11.0049
▁mature	-11.005
▁mullet	-11.005
▁combined	-11.005
▁committed	-11.005
▁suggestion	-11.005
▁purser	-11.005
▁nearby	-11.0051
▁reel	-11.0051
▁qualified	-11.0051
▁sharing	-11.0052
▁eyebrows	-11.0052
▁relations	-11.0052
▁canal	-11.0053
▁engaged	-11.0054
▁geek	-11.0054
▁broad	-11.0055
▁accomplished	-11.0055
▁revealed	-11.0055
▁determined	-11.0055
▁tries	-11.0056
▁wellknown	-11.0057
▁squash	-11.0057
▁runner	-11.0057
▁protector	-11.0058
▁shipment	-11.0058
▁robbed	-11.006
▁confirmation	-11.006
ties	-11.0064
▁roommate	-11.0064
▁thrilled	-11.0065
▁tourist	-11.0065
▁hunch	-11.0065
▁drawn	-11.0066
▁provided	-11.0066
▁casa	-11.0068
▁twisted	-11.0069
▁compared	-11.0071
▁registered	-11.0071
▁divorced	-11.0072
▁hacker	-11.0073
▁smiler	-11.0074
▁larger	-11.0074
▁carter	-11.0075
▁nuns	-11.0075
▁beverages	-11.0075
▁rarely	-11.0076
▁teenagers	-11.0076
▁rang	-11.0077
▁reasonable	-11.0077
▁tackle	-11.0077
▁lan	-11.0078
▁cello	-11.0078
▁desperately	-11.0078
▁hank	-11.0078
▁strongest	-11.0079
▁intern	-11.008
▁presents	-11.0081
▁viper	-11.0081
▁mating	-11.0082
▁published	-11.0088
▁bien	-11.0089
▁whys	-11.0092
▁mistaken	-11.0092
▁cling	-11.0092
▁wandering	-11.0092
▁regarding	-11.0092
▁interrupted	-11.0092
▁internal	-11.0093
▁sucked	-11.0093
▁sacrificed	-11.0094
▁ruby	-11.0094
▁arts	-11.0097
▁princesses	-11.0098
▁charts	-11.0098
▁asia	-11.0098
▁starve	-11.0098
▁initials	-11.0099
▁cheeks	-11.01
▁ft	-11.01
▁details	-11.01
▁scheduled	-11.0104
▁naturally	-11.0105
▁scan	-11.011
▁cured	-11.0112
▁cheating	-11.012
▁wholl	-11.0122
▁coyotes	-11.0123
▁instincts	-11.0123
▁prawns	-11.0123
▁element	-11.0124
▁swinging	-11.0124
▁collecting	-11.0124
▁assumed	-11.0128
▁gathering	-11.013
▁scratching	-11.0131
▁healthy	-11.0133
mit	-11.0134
▁highp	-11.0139
▁treaty	-11.0143
▁chaps	-11.0145
▁tasted	-11.0148
▁marching	-11.0149
▁payments	-11.0149
▁statue	-11.015
▁jock	-11.0152
inned	-11.0154
▁opposit	-11.0155
lier	-11.0158
▁poisoned	-11.0158
▁thoughtful	-11.016
▁qui	-11.0161
▁blessing	-11.0162
▁reminded	-11.0162
▁sl	-11.0164
bs	-11.0164
▁damp	-11.0167
da	-11.0168
▁risky	-11.0169
▁tools	-11.0171
▁turtles	-11.0171
▁printer	-11.0179
▁escaped	-11.0182
▁planted	-11.0183
▁cracking	-11.0194
▁slippers	-11.0195
▁paws	-11.0195
▁shortly	-11.0195
▁fairly	-11.0198
▁yanke	-11.0199
get	-11.0206
▁ohhh	-11.0206
▁bothered	-11.0207
▁watchin	-11.0214
▁kam	-11.0217
▁armor	-11.0218
food	-11.0221
top	-11.0228
▁pushy	-11.0236
▁milking	-11.0238
▁stings	-11.0242
▁feeding	-11.0254
▁sticky	-11.0256
▁bullets	-11.0268
▁treating	-11.0268
ki	-11.0274
▁hesitates	-11.0277
▁mulle	-11.0278
ological	-11.0284
▁visiting	-11.03
▁ver	-11.0301
▁dictate	-11.031
▁ay	-11.0321
▁shown	-11.0322
▁recording	-11.0325
ours	-11.0334
eth	-11.0336
eye	-11.0338
ugh	-11.034
▁cigars	-11.0341
▁relaxed	-11.0352
▁pushed	-11.0357
▁workin	-11.0357
▁mammoths	-11.0365
▁flintstones	-11.0365
▁drums	-11.0371
▁bullie	-11.0379
▁novels	-11.0381
▁detectives	-11.039
▁losers	-11.039
▁shadows	-11.039
▁hy	-11.04
▁nicer	-11.0401
▁bearing	-11.0404
▁stinks	-11.041
▁decks	-11.0419
▁kicking	-11.0421
▁reporting	-11.0431
say	-11.0433
▁gumb	-11.0469
▁gu	-11.047
▁picks	-11.0483
▁snails	-11.0488
▁ban	-11.0496
ins	-11.0499
▁sleepy	-11.0502
▁melt	-11.0508
▁russians	-11.0513
▁shoulders	-11.0513
▁bills	-11.0516
▁sails	-11.0516
▁cro	-11.0532
▁snaps	-11.0535
▁neighbors	-11.0538
▁locate	-11.0544
▁severe	-11.0559
▁quarters	-11.0569
ou	-11.057
▁clouds	-11.0587
▁winners	-11.0587
▁swat	-11.0593
▁differences	-11.0612
▁bore	-11.0617
ca	-11.062
based	-11.0653
▁robots	-11.0663
▁accounts	-11.0664
▁prints	-11.0666
hi	-11.0671
ause	-11.0675
▁pant	-11.0675
unt	-11.0686
▁strings	-11.0692
ong	-11.0708
▁lively	-11.0711
her	-11.0713
▁circles	-11.0741
▁walker	-11.0742
▁hum	-11.0747
rish	-11.0754
lade	-11.0756
▁mu	-11.0761
▁getyou	-11.0784
iff	-11.0788
▁lawyers	-11.0813
rent	-11.0843
▁booked	-11.0853
▁nap	-11.0882
▁hotels	-11.0887
end	-11.0888
▁dre	-11.0891
▁gi	-11.0898
lapping	-11.0903
▁sounding	-11.0915
▁ache	-11.0919
▁rains	-11.0919
ants	-11.0935
▁bets	-11.0949
▁partys	-11.0953
▁myst	-11.096
▁dor	-11.0963
▁proves	-11.0989
very	-11.1004
tle	-11.1008
▁twa	-11.1035
▁ni	-11.104
ler	-11.1045
▁cruci	-11.1052
▁phones	-11.1061
ack	-11.1063
▁ail	-11.1072
ame	-11.1085
▁franks	-11.1088
cher	-11.111
▁uni	-11.1128
▁hits	-11.1149
▁ce	-11.1152
za	-11.1159
ice	-11.1162
▁my	-11.1166
▁wool	-11.1166
▁spark	-11.117
▁lords	-11.1174
oma	-11.1176
▁workshop	-11.118
▁wak	-11.1181
istic	-11.1186
▁beers	-11.1188
▁battles	-11.1196
ini	-11.1198
▁baba	-11.1199
havin	-11.1207
vious	-11.1211
▁mat	-11.122
▁crashe	-11.1233
▁sketch	-11.1254
but	-11.1265
▁mut	-11.1269
▁doubles	-11.127
▁curl	-11.1274
▁suits	-11.1279
ul	-11.1282
▁bent	-11.1297
ess	-11.1303
▁fits	-11.1304
ti	-11.1306
▁pains	-11.1314
▁sur	-11.1322
cent	-11.1322
▁sch	-11.134
▁swis	-11.1344
▁babysit	-11.1353
nk	-11.1363
▁click	-11.1368
▁bobs	-11.1373
▁areas	-11.138
izer	-11.1388
ol	-11.1405
▁spots	-11.1406
▁spike	-11.1407
▁chop	-11.141
▁opera	-11.141
▁op	-11.1417
▁seas	-11.1426
▁owes	-11.1442
work	-11.1456
▁grandmas	-11.1457
▁nob	-11.1458
▁biting	-11.1465
ious	-11.1471
▁ami	-11.1489
▁if	-11.1493
tain	-11.1499
▁aspirin	-11.1504
key	-11.1509
▁sigh	-11.1518
▁hairs	-11.152
▁spa	-11.152
▁psych	-11.152
▁explains	-11.1523
▁lap	-11.1528
▁trips	-11.1529
▁guinea	-11.1535
ound	-11.1535
▁grape	-11.1535
▁executive	-11.1535
▁indian	-11.1537
▁stroke	-11.1537
▁chickens	-11.1539
▁tray	-11.1542
▁rainbow	-11.1543
▁relay	-11.1543
▁expression	-11.1543
▁breeze	-11.1547
ility	-11.1549
▁turtle	-11.1552
▁tool	-11.1553
▁client	-11.1554
▁troop	-11.1554
▁rever	-11.1557
▁dolphin	-11.1557
▁heel	-11.1559
▁bean	-11.1564
▁fade	-11.1566
▁knot	-11.1571
▁winds	-11.1573
valry	-11.1573
▁lip	-11.1576
▁stir	-11.1579
▁manner	-11.159
handed	-11.1591
wise	-11.1594
▁ic	-11.1606
eating	-11.1611
▁baileys	-11.1619
▁thrill	-11.1626
ffel	-11.1627
▁ducks	-11.1627
▁bunk	-11.1629
▁include	-11.1636
omin	-11.1636
▁prepar	-11.1647
room	-11.1648
▁fern	-11.1649
▁surprises	-11.165
▁bare	-11.165
▁recover	-11.1653
▁sala	-11.1654
▁shrink	-11.166
▁attach	-11.1664
▁neigh	-11.1666
mation	-11.1666
▁fleet	-11.1666
▁fulfill	-11.1673
▁overreact	-11.1674
▁haul	-11.1677
will	-11.1677
▁dread	-11.168
▁commission	-11.168
shot	-11.1681
proof	-11.1681
version	-11.1683
bridge	-11.1684
life	-11.1684
type	-11.1684
▁sabotage	-11.1684
talk	-11.1685
play	-11.1686
made	-11.1687
hle	-11.1687
keeper	-11.1687
▁offensive	-11.1688
hole	-11.1688
▁replace	-11.1689
▁frame	-11.1689
▁vocal	-11.169
fish	-11.1691
▁precise	-11.1692
▁immediate	-11.1692
▁shave	-11.1692
▁custom	-11.1693
▁grim	-11.1693
ren	-11.1696
▁approve	-11.1696
▁exhibit	-11.1697
▁glide	-11.1698
▁restrain	-11.1699
▁religio	-11.17
▁accelerat	-11.1701
▁occasional	-11.1701
▁region	-11.1702
▁addict	-11.1703
▁patch	-11.1704
audible	-11.1704
▁sixteen	-11.1704
▁lovin	-11.1705
▁slap	-11.1705
▁triumph	-11.1705
▁forbid	-11.1705
▁spectr	-11.1706
▁activities	-11.1706
▁alabama	-11.1706
▁amateur	-11.1706
▁ambush	-11.1706
▁anderson	-11.1706
▁aquarium	-11.1706
▁artillery	-11.1706
▁barrier	-11.1706
▁batcave	-11.1706
▁behaviour	-11.1706
▁bellhop	-11.1706
▁bishop	-11.1706
▁bourbon	-11.1706
▁britain	-11.1706
▁bruise	-11.1706
▁bulk	-11.1706
▁bunion	-11.1706
▁cadillac	-11.1706
▁caviar	-11.1706
▁celebrity	-11.1706
▁chelina	-11.1706
▁choir	-11.1706
▁choking	-11.1706
▁comprehend	-11.1706
▁corridor	-11.1706
▁crisis	-11.1706
▁disrespect	-11.1706
▁dublin	-11.1706
▁eccentric	-11.1706
▁economy	-11.1706
▁elgar	-11.1706
▁error	-11.1706
▁esquire	-11.1706
▁evanora	-11.1706
▁everlasting	-11.1706
▁facilities	-11.1706
▁fountain	-11.1706
▁ghoul	-11.1706
▁gibberish	-11.1706
▁guignol	-11.1706
▁gypsy	-11.1706
▁hallelujah	-11.1706
▁harbor	-11.1706
▁hibernate	-11.1706
▁hurricane	-11.1706
▁implement	-11.1706
▁imprisoned	-11.1706
▁independent	-11.1706
▁indonesia	-11.1706
▁industry	-11.1706
▁infirmary	-11.1706
▁institution	-11.1706
▁kodo	-11.1706
▁leather	-11.1706
▁liliane	-11.1706
▁lincoln	-11.1706
▁macarena	-11.1706
▁madagascar	-11.1706
▁makebelieve	-11.1706
▁mawr	-11.1706
▁maximum	-11.1706
▁mcgovern	-11.1706
▁mckeltch	-11.1706
▁mcmillan	-11.1706
▁meerkat	-11.1706
▁minimum	-11.1706
▁muiranthias	-11.1706
▁nagamaki	-11.1706
▁nigel	-11.1706
▁nutmeg	-11.1706
▁oldfashioned	-11.1706
▁onebakersix	-11.1706
▁parseghian	-11.1706
▁phase	-11.1706
▁preconceptions	-11.1706
▁province	-11.1706
▁pursue	-11.1706
▁pyjamas	-11.1706
▁recognise	-11.1706
▁reluctant	-11.1706
▁rendezvous	-11.1706
▁reopen	-11.1706
▁revoir	-11.1706
▁robogadget	-11.1706
▁rosamund	-11.1706
▁scaredycat	-11.1706
▁schmidlapp	-11.1706
▁schuster	-11.1706
▁seventeen	-11.1706
▁shakespeare	-11.1706
▁shepherd	-11.1706
▁shirley	-11.1706
▁sleeve	-11.1706
▁soothing	-11.1706
▁stacey	-11.1706
▁stanley	-11.1706
▁steak	-11.1706
▁struggle	-11.1706
▁sunrise	-11.1706
▁syrup	-11.1706
▁temporarily	-11.1706
▁thirteen	-11.1706
▁tiffany	-11.1706
▁token	-11.1706
▁unhappy	-11.1706
▁vault	-11.1706
▁vitamin	-11.1706
▁volante	-11.1706
▁volcano	-11.1706
▁wainwright	-11.1706
▁wisconsin	-11.1706
▁withdraw	-11.1706
▁wyoming	-11.1706
▁yoriko	-11.1706
▁brink	-11.1706
▁chitchat	-11.1706
▁drix	-11.1706
▁elaine	-11.1706
▁garcia	-11.1706
▁gossip	-11.1706
▁gratitude	-11.1706
▁notorious	-11.1706
▁periscope	-11.1706
▁sansho	-11.1706
▁symbol	-11.1706
▁vlad	-11.1706
▁wallace	-11.1706
▁amusing	-11.1706
▁buoy	-11.1706
▁narrow	-11.1706
▁yowls	-11.1706
▁broussard	-11.1706
▁exceed	-11.1706
▁hadley	-11.1706
▁yippee	-11.1706
▁bradlee	-11.1706
▁buffet	-11.1706
▁equipped	-11.1706
▁grandchildren	-11.1706
▁saunders	-11.1706
▁sausage	-11.1706
▁capsule	-11.1706
▁farrar	-11.1706
▁resign	-11.1706
▁tynah	-11.1706
▁porridge	-11.1706
▁tennis	-11.1706
▁banquet	-11.1706
▁pentagon	-11.1706
▁erwin	-11.1706
▁clark	-11.1706
▁ferrell	-11.1706
▁columbia	-11.1706
▁lgor	-11.1706
▁solitary	-11.1706
▁joanne	-11.1706
▁neviile	-11.1706
▁shabby	-11.1706
▁herald	-11.1706
▁wakati	-11.1706
▁wrinkle	-11.1706
▁praise	-11.1706
▁rochester	-11.1706
▁slack	-11.1706
▁cornwall	-11.1706
▁microphone	-11.1706
▁resent	-11.1706
▁cottage	-11.1706
▁brandnew	-11.1706
▁description	-11.1706
▁glitter	-11.1706
▁dbob	-11.1706
▁penalty	-11.1706
▁shotgun	-11.1706
▁eleven	-11.1706
▁liberty	-11.1706
▁absent	-11.1706
▁soap	-11.1706
▁pasad	-11.1706
▁linden	-11.1706
▁blaming	-11.1706
▁clinic	-11.1706
▁twentysix	-11.1706
▁nadine	-11.1706
▁begging	-11.1706
▁peanut	-11.1706
▁moines	-11.1706
▁dickens	-11.1706
▁network	-11.1706
▁combination	-11.1706
▁welch	-11.1706
▁liking	-11.1706
▁magnificent	-11.1706
▁occurred	-11.1706
stein	-11.1706
▁neville	-11.1706
▁greenbaum	-11.1706
▁scatting	-11.1706
▁reilly	-11.1706
▁jagged	-11.1706
▁overnight	-11.1706
▁banner	-11.1706
▁sloth	-11.1706
▁bicycle	-11.1706
▁cried	-11.1706
▁operative	-11.1706
▁martinez	-11.1707
▁vibe	-11.1707
▁inspection	-11.1707
▁smite	-11.1707
▁moi	-11.1707
▁wheat	-11.1707
▁twerp	-11.1707
▁begged	-11.1707
▁atmosphere	-11.1707
▁evacuate	-11.1707
▁blixen	-11.1707
▁dino	-11.1707
▁henk	-11.1707
▁blonde	-11.1707
▁skinny	-11.1707
▁ifyou	-11.1707
▁pierce	-11.1707
▁muck	-11.1707
▁luna	-11.1707
▁trenches	-11.1707
▁dehydrated	-11.1707
▁owns	-11.1707
▁mounties	-11.1707
▁series	-11.1707
▁reub	-11.1707
▁sammy	-11.1707
▁embrace	-11.1707
▁barbarian	-11.1707
▁gummy	-11.1707
▁inaudible	-11.1707
▁fluffy	-11.1707
▁melody	-11.1707
▁sympathy	-11.1707
▁trophy	-11.1707
▁shant	-11.1708
▁divina	-11.1708
▁acid	-11.1708
▁brian	-11.1708
▁cheerful	-11.1708
▁massage	-11.1708
▁affection	-11.1708
▁frag	-11.1708
▁intensive	-11.1708
▁wrench	-11.1708
▁niece	-11.1708
▁corporation	-11.1708
▁frozen	-11.1708
▁memorial	-11.1708
▁embarrassment	-11.1708
▁minister	-11.1708
▁gig	-11.1708
▁soil	-11.1708
rr	-11.1709
▁moat	-11.1709
▁distinguished	-11.1709
▁travelled	-11.1709
▁granddaughter	-11.1709
▁hades	-11.1709
▁shopping	-11.1709
▁tonic	-11.1709
▁echoes	-11.171
▁ripped	-11.171
▁popped	-11.171
eval	-11.171
▁firewall	-11.171
▁bootlegging	-11.171
▁razo	-11.171
▁flaming	-11.171
▁tripped	-11.171
▁hatton	-11.171
▁grease	-11.171
▁whack	-11.171
▁considerate	-11.171
▁oxen	-11.171
▁misery	-11.1711
▁flap	-11.1711
▁delusion	-11.1711
▁doyou	-11.1711
▁linger	-11.1712
▁successor	-11.1712
▁bora	-11.1712
▁reign	-11.1712
▁rumble	-11.1712
▁gulf	-11.1712
▁crust	-11.1712
▁eastman	-11.1712
▁shipping	-11.1712
▁trunk	-11.1712
▁marie	-11.1713
▁ambien	-11.1713
▁organist	-11.1713
▁whip	-11.1713
▁globe	-11.1713
▁waka	-11.1714
▁advised	-11.1714
▁flies	-11.1714
▁virtue	-11.1714
▁chimes	-11.1715
▁loo	-11.1715
▁contribution	-11.1715
▁brigad	-11.1715
▁feei	-11.1715
▁publicity	-11.1716
▁podo	-11.1716
▁tutor	-11.1716
▁sneakers	-11.1716
▁portrait	-11.1717
▁shredding	-11.1717
▁croaking	-11.1717
▁trespassing	-11.1717
▁pail	-11.1717
▁hup	-11.1717
▁hospitality	-11.1718
▁richardson	-11.1718
▁rode	-11.1718
▁bein	-11.1718
▁zachary	-11.1719
▁woodsman	-11.1719
▁robotic	-11.1719
▁brownies	-11.1721
▁villain	-11.1721
▁download	-11.1721
▁hm	-11.1721
▁ashes	-11.1721
▁growth	-11.1721
▁babbles	-11.1722
▁baboons	-11.1722
▁consequences	-11.1722
▁oysters	-11.1722
▁stepsisters	-11.1722
▁creaks	-11.1722
▁pace	-11.1722
▁clinks	-11.1722
▁shatters	-11.1722
▁survivors	-11.1722
▁whiskers	-11.1722
xie	-11.1723
▁takin	-11.1724
▁dish	-11.1724
▁warts	-11.1724
▁rusty	-11.1725
▁furious	-11.1725
▁coke	-11.1725
▁honorable	-11.1725
▁rental	-11.1726
▁bolt	-11.1726
▁hilltop	-11.1727
▁endure	-11.1727
▁burglary	-11.1728
▁copies	-11.1729
▁runaway	-11.173
seven	-11.1731
▁snooping	-11.1732
▁crunching	-11.1732
▁hoist	-11.1732
▁endless	-11.1734
▁gall	-11.1735
▁oohooh	-11.1735
▁described	-11.1736
▁ki	-11.1736
▁gay	-11.1739
gon	-11.1741
▁earthman	-11.1742
▁funk	-11.1744
▁gonzo	-11.1745
▁toots	-11.1749
▁zombies	-11.1749
did	-11.1749
▁spoiled	-11.1753
▁reminder	-11.1754
▁wages	-11.1754
▁pouring	-11.1754
▁rod	-11.1757
▁bry	-11.1758
▁assured	-11.1758
▁amos	-11.176
▁sling	-11.1761
▁coop	-11.1763
▁federa	-11.1764
headed	-11.1765
▁pissed	-11.1767
▁mist	-11.1767
zed	-11.177
lot	-11.1771
▁dreamers	-11.1771
▁managed	-11.1772
mer	-11.1773
▁ohoh	-11.1773
▁beaches	-11.1774
dolf	-11.1775
▁howls	-11.1776
▁zords	-11.1778
▁andrews	-11.1778
▁predators	-11.1778
▁underhills	-11.1778
▁shin	-11.1781
▁collected	-11.1781
▁shorts	-11.1781
▁unload	-11.1782
▁gator	-11.1783
▁ross	-11.1783
▁pasta	-11.1784
▁loot	-11.1784
can	-11.1784
▁frightening	-11.1785
▁shocked	-11.1787
▁bigtime	-11.179
▁neednt	-11.1792
▁hare	-11.1792
▁dong	-11.1794
▁smashing	-11.18
▁suing	-11.1801
▁insisted	-11.1803
▁hangin	-11.1804
▁preston	-11.1804
▁scouts	-11.1806
▁shallows	-11.1806
▁talented	-11.1808
▁nailed	-11.181
▁senses	-11.181
▁nighttime	-11.1811
▁diplomat	-11.1811
▁raf	-11.1811
▁daytime	-11.1812
▁tame	-11.1814
▁confin	-11.1817
▁authoriz	-11.1819
▁coaches	-11.1824
▁gogh	-11.1825
▁tighter	-11.1829
▁cope	-11.1833
▁shorter	-11.1834
▁diapers	-11.1835
▁generations	-11.1835
▁overlords	-11.1835
▁pearls	-11.1835
▁tribes	-11.184
▁designer	-11.1842
▁entered	-11.1842
▁meantime	-11.1843
▁mae	-11.1846
▁pier	-11.1846
uttering	-11.1846
▁missus	-11.1846
▁stare	-11.1854
▁newman	-11.1859
▁delivering	-11.1861
▁alleg	-11.1861
ils	-11.1863
▁fades	-11.1864
▁execute	-11.1864
▁heels	-11.1864
▁manners	-11.1864
▁med	-11.1867
▁traveled	-11.1868
▁dorm	-11.1874
▁busting	-11.1876
▁irs	-11.1881
▁practiced	-11.1884
▁girlie	-11.1889
▁coffins	-11.1893
ello	-11.1895
▁rescued	-11.1897
▁caper	-11.1898
▁stringer	-11.1898
▁tal	-11.19
ette	-11.1903
mal	-11.191
ze	-11.191
ke	-11.191
▁weed	-11.1911
ose	-11.1912
▁washed	-11.1917
▁reviews	-11.1922
▁temperatures	-11.1922
▁vogons	-11.1922
ante	-11.1924
mine	-11.1925
▁considering	-11.1928
▁focusing	-11.1929
▁ruining	-11.1929
going	-11.1933
nes	-11.1939
▁dimes	-11.1944
▁rehearsals	-11.1951
▁seniors	-11.1951
▁inn	-11.1963
▁coo	-11.1967
▁fuller	-11.1968
▁honored	-11.1969
▁buildings	-11.1972
▁tricked	-11.1973
hhh	-11.1978
▁wanting	-11.1982
icka	-11.1994
▁playin	-11.1996
▁apples	-11.2009
▁chairs	-11.2009
▁hunters	-11.201
▁smelly	-11.2012
▁jets	-11.2018
▁tracking	-11.2027
▁computers	-11.2027
cawing	-11.2028
▁figures	-11.2032
lly	-11.2032
▁inf	-11.2038
▁vehicles	-11.2038
▁explained	-11.2039
▁li	-11.2045
▁mil	-11.2046
▁watches	-11.205
ut	-11.2051
▁untie	-11.2051
▁bark	-11.2052
▁feared	-11.2056
▁duel	-11.2066
▁coconuts	-11.2068
▁sirens	-11.2068
▁yyou	-11.2085
▁spat	-11.2086
oh	-11.209
▁communists	-11.2097
▁illness	-11.2104
▁potters	-11.2109
▁marshall	-11.2113
tes	-11.2121
▁spying	-11.213
▁counted	-11.2136
▁weep	-11.214
▁hip	-11.2144
cathed	-11.2148
▁pussy	-11.2171
po	-11.2177
▁floods	-11.2186
▁penguins	-11.2215
▁relaxing	-11.2218
▁thingy	-11.2222
▁pushing	-11.2226
▁cans	-11.2226
▁priests	-11.2245
▁reaching	-11.2249
▁her	-11.2255
▁ol	-11.2257
▁urin	-11.2259
▁coats	-11.2275
▁zones	-11.2277
▁sticking	-11.2278
▁boxing	-11.2286
▁studios	-11.2305
▁expos	-11.2316
▁ooo	-11.2332
▁shots	-11.2333
▁costumes	-11.2335
▁priorit	-11.2336
▁unite	-11.234
▁ned	-11.2349
pal	-11.236
ronto	-11.2365
▁organs	-11.2369
▁pi	-11.2372
ole	-11.2382
hat	-11.2393
occupied	-11.2421
▁directions	-11.2426
▁faced	-11.2428
ndo	-11.2436
▁serves	-11.2458
▁purchase	-11.2461
▁trusted	-11.2464
▁incidental	-11.2464
▁macavitys	-11.2485
tion	-11.2486
▁pages	-11.2515
lessness	-11.2516
ax	-11.2523
used	-11.2525
brain	-11.2542
▁tongues	-11.2546
▁organize	-11.2548
▁cups	-11.2548
▁sha	-11.255
▁persons	-11.2559
ford	-11.2561
▁sw	-11.2563
▁predict	-11.257
bl	-11.2576
▁ka	-11.2585
▁mend	-11.2591
▁pend	-11.2596
▁bake	-11.2599
dest	-11.2602
▁bonds	-11.2607
cha	-11.2611
▁formal	-11.2616
▁colon	-11.2617
itating	-11.2631
▁restaurants	-11.2638
aging	-11.2645
bre	-11.2647
▁deserts	-11.2649
▁seasons	-11.2669
▁clocks	-11.2672
zing	-11.2681
▁captur	-11.2731
▁zar	-11.2749
▁braces	-11.2762
▁tucks	-11.2765
▁vari	-11.2782
▁demonstrate	-11.2783
▁calculate	-11.279
▁mor	-11.2794
oo	-11.2808
▁you	-11.2813
▁keeper	-11.282
▁detect	-11.2862
▁tot	-11.2878
▁resting	-11.2884
nette	-11.2892
▁knocks	-11.2893
▁fri	-11.2901
▁cons	-11.2905
▁expose	-11.2942
▁hast	-11.2943
ying	-11.2984
▁rig	-11.2987
▁torn	-11.3042
cho	-11.3049
▁pint	-11.3057
ct	-11.3065
▁ve	-11.3082
▁shhh	-11.3086
dom	-11.3092
▁wad	-11.3115
▁ur	-11.3142
not	-11.3144
▁cone	-11.315
▁bites	-11.3159
iona	-11.3159
▁tar	-11.3159
▁trucks	-11.3169
tically	-11.3203
▁tab	-11.3225
pan	-11.3234
mole	-11.3243
rated	-11.3253
pit	-11.3254
youre	-11.3255
di	-11.3266
▁stab	-11.3289
▁sel	-11.3294
ead	-11.3309
▁fatal	-11.3311
▁unti	-11.3314
▁guessed	-11.3318
ake	-11.3319
▁trippin	-11.3321
kee	-11.3339
▁scann	-11.334
▁scrub	-11.3349
▁exception	-11.3354
ctic	-11.3374
▁bor	-11.3391
▁hav	-11.3395
ouse	-11.3418
doubted	-11.342
▁pep	-11.3437
▁hack	-11.3445
▁hopeless	-11.3448
row	-11.3456
▁that	-11.3472
▁bio	-11.3483
▁suite	-11.3504
ast	-11.3509
▁proposal	-11.3517
▁unicorn	-11.3517
▁cannon	-11.3518
▁reaction	-11.3519
▁bulldozer	-11.3523
▁grownup	-11.3523
▁poll	-11.3523
▁groan	-11.3524
▁alley	-11.3526
▁sedative	-11.3535
▁ancestor	-11.3535
▁reference	-11.3535
▁maniac	-11.3536
▁rib	-11.3538
▁label	-11.3539
hen	-11.354
▁but	-11.3542
▁item	-11.3544
▁censor	-11.3545
▁sample	-11.3545
▁document	-11.3547
▁zuzu	-11.3547
▁crest	-11.3547
▁kitten	-11.3547
▁overlord	-11.355
▁generation	-11.355
▁pearl	-11.3551
▁diaper	-11.3551
▁jun	-11.3551
▁bubble	-11.3555
▁comic	-11.3557
▁temp	-11.3557
▁arrangement	-11.3558
ath	-11.3561
▁sucker	-11.3562
▁tribe	-11.3565
▁jewel	-11.3569
nda	-11.3572
▁inventor	-11.3577
▁murderer	-11.3582
▁throws	-11.3585
▁factor	-11.3585
▁wi	-11.3587
▁chap	-11.3593
▁clo	-11.3594
▁payment	-11.3599
▁peep	-11.3604
tin	-11.361
▁troubl	-11.3612
▁invent	-11.3614
jack	-11.362
vil	-11.3623
▁contain	-11.3626
▁q	-11.3627
amo	-11.3632
▁transform	-11.3632
▁threaten	-11.3638
bit	-11.3639
logy	-11.364
load	-11.364
▁stag	-11.3641
break	-11.3643
▁infra	-11.3652
▁flee	-11.3657
range	-11.3659
▁splash	-11.3662
▁proceed	-11.3663
▁defy	-11.3663
▁reward	-11.3665
style	-11.3667
▁counterattack	-11.3669
girl	-11.3669
▁mount	-11.3671
▁rolls	-11.3671
▁recruit	-11.3672
▁enchant	-11.3675
▁swam	-11.3677
▁visi	-11.3678
walk	-11.368
▁riddle	-11.368
turned	-11.3681
▁delight	-11.3681
▁tor	-11.3682
▁bleed	-11.3682
tooth	-11.3683
fast	-11.3683
▁hurl	-11.3683
denial	-11.3683
wide	-11.3684
aire	-11.3685
nature	-11.3685
weight	-11.3686
▁lump	-11.3686
▁encourage	-11.3686
▁update	-11.3686
▁susans	-11.3687
guy	-11.3687
▁choices	-11.3688
▁wilmas	-11.3688
▁athlet	-11.3688
week	-11.3689
▁negotiat	-11.369
▁fianc	-11.3692
▁nora	-11.3692
care	-11.3692
▁zit	-11.3693
▁burro	-11.3693
▁rapid	-11.3693
▁realise	-11.3693
▁greed	-11.3694
▁recent	-11.3696
▁extensi	-11.3696
▁engage	-11.3698
stone	-11.3698
▁mech	-11.3699
▁cockroach	-11.3699
▁norm	-11.3699
▁rummag	-11.3701
▁shaw	-11.3702
▁morph	-11.3702
▁logic	-11.3703
commend	-11.3704
▁entitle	-11.3704
erci	-11.3704
scot	-11.3704
▁leavin	-11.3705
▁gib	-11.3705
form	-11.3705
▁liquor	-11.3705
rpent	-11.3705
▁suspense	-11.3706
▁ferocious	-11.3706
▁oof	-11.3706
responsibilities	-11.3706
▁affirmative	-11.3706
▁ahchoo	-11.3706
▁ambassador	-11.3706
▁ammunition	-11.3706
▁anastasia	-11.3706
▁anniversary	-11.3706
▁apiary	-11.3706
▁appreciation	-11.3706
▁ashtray	-11.3706
▁ausfahrt	-11.3706
▁barbecue	-11.3706
▁belknap	-11.3706
▁berserk	-11.3706
▁bizarre	-11.3706
▁blumburtt	-11.3706
▁brooklyn	-11.3706
▁caesar	-11.3706
▁caribbean	-11.3706
▁chalice	-11.3706
▁charlotte	-11.3706
▁convenient	-11.3706
▁creedmore	-11.3706
▁crocodile	-11.3706
▁december	-11.3706
▁delinko	-11.3706
▁delirious	-11.3706
▁dignity	-11.3706
▁dimension	-11.3706
▁domino	-11.3706
▁dossier	-11.3706
▁eindhoven	-11.3706
▁elbow	-11.3706
▁embassy	-11.3706
▁envelope	-11.3706
▁espionage	-11.3706
▁expenses	-11.3706
▁folley	-11.3706
▁frambois	-11.3706
▁gasoline	-11.3706
▁gertrude	-11.3706
▁gracias	-11.3706
▁halloween	-11.3706
▁handkerchief	-11.3706
▁hawaii	-11.3706
▁henderson	-11.3706
▁horror	-11.3706
▁hubbard	-11.3706
▁humiliating	-11.3706
▁jacuzzi	-11.3706
▁january	-11.3706
▁jefferson	-11.3706
▁judgment	-11.3706
▁kangaroo	-11.3706
▁kumar	-11.3706
▁laboratory	-11.3706
▁lemchek	-11.3706
▁matilda	-11.3706
▁matteo	-11.3706
▁mccord	-11.3706
▁mcgregor	-11.3706
▁mertin	-11.3706
▁mexican	-11.3706
▁microwave	-11.3706
▁mistress	-11.3706
▁motorcycle	-11.3706
▁newyork	-11.3706
▁nijmegen	-11.3706
▁nineteen	-11.3706
▁nurplex	-11.3706
▁okeydoke	-11.3706
▁orchestra	-11.3706
▁pakistan	-11.3706
▁papillon	-11.3706
▁pavarotti	-11.3706
▁perfume	-11.3706
▁phrase	-11.3706
▁pilgrim	-11.3706
▁piracy	-11.3706
▁pitiful	-11.3706
▁portsmouth	-11.3706
▁propeller	-11.3706
▁puddle	-11.3706
▁puppies	-11.3706
▁pyramid	-11.3706
▁residence	-11.3706
▁sardine	-11.3706
▁satisfied	-11.3706
▁sexual	-11.3706
▁signature	-11.3706
▁similar	-11.3706
▁sinatra	-11.3706
▁slurps	-11.3706
▁solicitor	-11.3706
▁southwest	-11.3706
▁steckler	-11.3706
▁stonehenge	-11.3706
▁strategy	-11.3706
▁struggling	-11.3706
▁stubborn	-11.3706
▁suspicion	-11.3706
▁tennessee	-11.3706
▁terrace	-11.3706
▁thrax	-11.3706
▁thrift	-11.3706
▁tokyo	-11.3706
▁toothpaste	-11.3706
▁trampoline	-11.3706
▁transmission	-11.3706
▁transplant	-11.3706
▁tremendous	-11.3706
▁tucson	-11.3706
▁tunnei	-11.3706
▁unemployed	-11.3706
▁unnatural	-11.3706
▁unpleasant	-11.3706
▁uuh	-11.3706
▁vandenberg	-11.3706
▁veryfar	-11.3706
▁veterinarian	-11.3706
▁vinton	-11.3706
▁wharton	-11.3706
▁wynn	-11.3706
▁yogurt	-11.3706
▁zubi	-11.3706
▁beddersvere	-11.3706
▁blubber	-11.3706
▁conceal	-11.3706
▁cuckoo	-11.3706
▁fourteen	-11.3706
▁impulse	-11.3706
▁install	-11.3706
▁investigator	-11.3706
▁jacqueline	-11.3706
▁juggl	-11.3706
▁philosoph	-11.3706
▁seatbelt	-11.3706
▁session	-11.3706
▁sidekick	-11.3706
▁solemn	-11.3706
▁sponsor	-11.3706
▁thrust	-11.3706
▁vichy	-11.3706
▁areyou	-11.3706
▁geographic	-11.3706
▁ingenious	-11.3706
▁leaf	-11.3706
▁piasters	-11.3706
▁swirl	-11.3706
▁holler	-11.3706
▁noseholes	-11.3706
▁schmuck	-11.3706
▁sloppy	-11.3706
▁trousers	-11.3706
▁mustache	-11.3706
▁finstock	-11.3706
▁pudding	-11.3706
▁strums	-11.3706
▁felicity	-11.3706
▁finletter	-11.3706
▁shelves	-11.3706
▁basis	-11.3706
▁cleveland	-11.3706
▁convert	-11.3706
▁incompetent	-11.3706
▁lottery	-11.3706
▁monstrous	-11.3706
▁asylum	-11.3706
▁despite	-11.3706
▁staircase	-11.3706
▁strasser	-11.3706
▁oould	-11.3706
▁proclaim	-11.3706
▁stamps	-11.3706
▁ucla	-11.3706
▁admiralty	-11.3706
▁constable	-11.3706
▁drift	-11.3706
▁diorama	-11.3706
▁franco	-11.3706
▁oars	-11.3706
▁waiver	-11.3706
▁believing	-11.3706
▁priya	-11.3706
▁relentless	-11.3706
▁eileen	-11.3706
▁elegan	-11.3706
▁theories	-11.3706
▁bureau	-11.3706
▁joanna	-11.3706
▁virgin	-11.3706
▁connors	-11.3706
▁jazz	-11.3706
▁norton	-11.3706
▁population	-11.3706
▁republican	-11.3706
▁scheme	-11.3706
▁beady	-11.3706
▁doeuvre	-11.3706
▁knit	-11.3706
▁ounce	-11.3706
▁briefcase	-11.3706
▁murr	-11.3706
▁fairchild	-11.3706
▁mormon	-11.3706
▁rabble	-11.3706
▁criticism	-11.3706
▁dwarf	-11.3706
▁terminate	-11.3706
▁allergies	-11.3706
▁saddle	-11.3706
▁depression	-11.3706
▁dedication	-11.3706
▁yeehaw	-11.3706
▁altitude	-11.3706
▁upgrade	-11.3706
▁admission	-11.3706
▁arlette	-11.3706
▁kindergarten	-11.3706
▁ahmed	-11.3706
▁musnt	-11.3706
▁thornton	-11.3706
▁yummy	-11.3706
▁aggressive	-11.3706
▁rattling	-11.3706
▁chub	-11.3706
scill	-11.3706
▁entertainment	-11.3706
▁outrageous	-11.3706
▁doughnut	-11.3706
▁profit	-11.3706
▁whining	-11.3706
▁baffle	-11.3706
▁radioactivity	-11.3706
▁addition	-11.3706
▁velma	-11.3706
▁fiction	-11.3706
▁creole	-11.3706
▁blimp	-11.3706
▁reaper	-11.3706
▁streak	-11.3706
▁karlin	-11.3706
▁vince	-11.3706
▁ferrand	-11.3706
▁stool	-11.3706
▁fridge	-11.3706
▁slay	-11.3706
▁dynamite	-11.3706
▁grotto	-11.3706
▁clip	-11.3706
▁collar	-11.3706
▁consum	-11.3706
▁famine	-11.3706
▁raincoat	-11.3706
▁cheesecake	-11.3706
▁raising	-11.3706
▁rookery	-11.3706
▁bleat	-11.3706
▁buzzard	-11.3706
▁clack	-11.3706
▁armonica	-11.3706
▁kenny	-11.3706
▁handshake	-11.3706
▁watt	-11.3706
▁overthrow	-11.3706
▁molly	-11.3706
▁crock	-11.3706
▁subtle	-11.3707
▁boredom	-11.3707
▁permitted	-11.3707
▁decree	-11.3707
▁keble	-11.3707
▁creator	-11.3707
▁rug	-11.3707
▁sacco	-11.3707
▁medium	-11.3707
▁macaro	-11.3707
▁muert	-11.3707
▁airdrop	-11.3707
▁cliffside	-11.3707
▁promotion	-11.3707
▁brass	-11.3707
▁darlin	-11.3707
▁hyah	-11.3707
▁groove	-11.3707
▁oiwa	-11.3707
▁reflex	-11.3707
▁atta	-11.3707
▁kwan	-11.3707
▁yum	-11.3707
▁intimate	-11.3707
▁disposal	-11.3707
▁comming	-11.3707
▁avenue	-11.3707
▁flare	-11.3707
▁cabinet	-11.3707
▁superstition	-11.3707
▁disorderly	-11.3707
▁elderly	-11.3707
▁stephano	-11.3707
honkin	-11.3708
▁static	-11.3708
▁distinction	-11.3708
▁election	-11.3708
▁gunfire	-11.3708
▁grub	-11.3708
▁notify	-11.3708
▁yikes	-11.3708
▁rita	-11.3708
▁acquired	-11.3708
▁fivefoot	-11.3708
▁notebook	-11.3708
▁hyper	-11.3708
▁upside	-11.3708
▁spill	-11.3708
▁fantasy	-11.3708
▁monopoly	-11.3708
▁retirement	-11.3708
▁peasant	-11.3708
▁gat	-11.3708
gad	-11.3708
▁thread	-11.3708
▁chello	-11.3708
▁foolishness	-11.3708
▁neutral	-11.3709
▁embark	-11.3709
▁jeopardy	-11.3709
▁jurisdiction	-11.3709
▁pellets	-11.3709
▁scotch	-11.3709
▁seizure	-11.3709
▁survival	-11.3709
▁orbit	-11.3709
▁ambition	-11.3709
▁prosecutor	-11.3709
▁freddie	-11.3709
▁shuffle	-11.3709
▁stern	-11.3709
▁refund	-11.3709
▁craft	-11.3709
▁coup	-11.3709
▁bryant	-11.3709
▁narc	-11.3709
▁testify	-11.3709
▁valve	-11.3709
▁iet	-11.3709
▁taxes	-11.3709
▁eagleton	-11.3709
▁whittle	-11.3709
▁chump	-11.3709
▁frustrated	-11.3709
▁polluted	-11.3709
▁shattered	-11.3709
▁starkey	-11.371
▁underage	-11.371
▁proto	-11.371
▁wax	-11.371
▁dwell	-11.371
▁popping	-11.371
▁agh	-11.371
▁bev	-11.371
▁spice	-11.371
▁prettier	-11.371
▁nursery	-11.371
▁nina	-11.371
▁mash	-11.371
▁underway	-11.3711
▁bluffing	-11.3711
▁plumbing	-11.3711
▁yawning	-11.3711
▁cooperation	-11.3711
▁ignoring	-11.3711
▁brokendown	-11.3711
▁bambi	-11.3711
▁rho	-11.3711
▁humiliated	-11.3712
▁dna	-11.3712
hua	-11.3712
▁hover	-11.3712
▁melancholy	-11.3712
▁measure	-11.3712
▁timber	-11.3712
▁wowser	-11.3712
▁barge	-11.3712
▁foo	-11.3712
▁morale	-11.3712
▁denies	-11.3713
▁overdo	-11.3713
▁poisonous	-11.3713
▁leaderless	-11.3713
▁curb	-11.3713
▁ritz	-11.3713
▁vase	-11.3713
▁pose	-11.3713
▁ahha	-11.3714
▁cries	-11.3714
▁frenchmen	-11.3714
▁banish	-11.3714
▁vet	-11.3714
▁carries	-11.3714
▁consideration	-11.3714
▁portion	-11.3715
▁extension	-11.3715
▁sang	-11.3715
▁betrayal	-11.3716
▁deliveries	-11.3716
▁slightest	-11.3716
▁rubbing	-11.3716
▁logical	-11.3717
▁perrin	-11.3717
▁becky	-11.3717
▁civilized	-11.3717
▁bellow	-11.3717
▁firewood	-11.3717
▁zoom	-11.3717
▁stem	-11.3718
nnies	-11.3718
▁operate	-11.3718
▁glance	-11.3718
▁protective	-11.3719
▁warden	-11.3719
▁bulletin	-11.372
▁archie	-11.372
▁accountant	-11.3721
▁dc	-11.3721
zo	-11.3721
▁distraction	-11.3722
▁employer	-11.3722
let	-11.3722
▁rubin	-11.3722
▁projector	-11.3722
▁wheelers	-11.3722
▁lifestyle	-11.3723
▁labor	-11.3723
▁stranded	-11.3723
▁encouraged	-11.3723
▁tanne	-11.3724
▁nathan	-11.3724
▁yaah	-11.3724
▁java	-11.3725
▁lamp	-11.3725
▁hurst	-11.3725
▁slams	-11.3725
▁afterwards	-11.3725
▁knapps	-11.3725
▁poachers	-11.3725
▁inhabitants	-11.3726
▁knuckles	-11.3726
▁wiser	-11.3727
▁mild	-11.3727
▁todo	-11.3727
▁framed	-11.3727
▁pent	-11.3728
▁coverup	-11.3729
▁blindfolded	-11.373
▁neglected	-11.373
▁duo	-11.373
▁identified	-11.373
zt	-11.373
▁denial	-11.3731
▁scoop	-11.3733
▁eighth	-11.3734
▁fulltime	-11.3734
▁tapping	-11.3734
▁cork	-11.3735
▁enchanted	-11.3737
▁transformed	-11.3737
▁constantly	-11.3737
▁fortunately	-11.3737
▁scraping	-11.3737
▁exchanged	-11.3739
▁explorer	-11.3739
▁knockin	-11.3739
▁kenne	-11.3742
▁thered	-11.3743
▁pois	-11.3743
▁checks	-11.3744
▁moist	-11.3744
▁taco	-11.3745
▁mint	-11.3745
▁bestow	-11.3747
▁equally	-11.3747
▁kiddo	-11.3748
▁adored	-11.3749
▁mangy	-11.3749
▁canceled	-11.375
▁historical	-11.3751
▁attracted	-11.3751
▁mow	-11.3753
▁container	-11.3753
▁admired	-11.3754
hoo	-11.3754
▁mustard	-11.3754
▁sane	-11.3755
▁pont	-11.3757
▁chores	-11.376
▁mushrooms	-11.376
▁straits	-11.376
▁symptoms	-11.376
▁vandals	-11.376
▁glgs	-11.376
trap	-11.376
▁fiancee	-11.3761
die	-11.3762
▁sss	-11.3765
▁overhear	-11.3766
▁imperi	-11.3767
▁melting	-11.3767
ically	-11.3769
▁iong	-11.3769
▁bits	-11.3773
▁moss	-11.3774
▁lent	-11.3774
▁solved	-11.3775
tag	-11.3775
▁yeehah	-11.3776
▁guac	-11.3776
▁gavel	-11.3777
▁crazi	-11.3778
wan	-11.3778
▁fork	-11.3779
▁invad	-11.3781
▁your	-11.3783
crete	-11.3785
▁cursed	-11.3787
▁peer	-11.3788
defense	-11.3789
▁summers	-11.3789
▁dy	-11.3789
▁any	-11.379
▁robb	-11.3792
▁tubes	-11.3793
▁carson	-11.3793
▁weighing	-11.3795
▁scaring	-11.3795
▁stevens	-11.3795
▁chemicals	-11.3795
▁drowned	-11.3795
▁tempt	-11.3796
▁linked	-11.3799
▁correctly	-11.3801
▁wits	-11.3803
▁lakers	-11.3806
mber	-11.3806
▁gathered	-11.3806
iness	-11.3806
ward	-11.3809
bolic	-11.381
▁scarf	-11.3812
▁rations	-11.3815
▁probe	-11.3816
eem	-11.3816
▁flushing	-11.3825
▁chained	-11.3826
ach	-11.3828
▁completed	-11.3831
▁attending	-11.3832
▁hens	-11.3833
▁witnessed	-11.3834
▁walkin	-11.3836
jor	-11.3839
▁graduate	-11.384
read	-11.3842
▁troupe	-11.3847
▁jilly	-11.3854
▁snowy	-11.3859
▁standin	-11.3859
▁safer	-11.386
▁riddles	-11.3865
▁comics	-11.3867
▁documents	-11.3867
▁zuzus	-11.3867
▁defender	-11.3867
▁pretended	-11.3869
▁sweating	-11.3871
▁seti	-11.3875
oneliness	-11.3875
▁ants	-11.3878
▁ruler	-11.3881
▁banging	-11.3881
▁peak	-11.3881
▁dearest	-11.3882
▁howdy	-11.3885
▁raft	-11.3889
▁coco	-11.389
ff	-11.3891
▁eatin	-11.3892
iter	-11.3892
▁godmother	-11.3895
▁stretching	-11.3898
▁knots	-11.3899
▁includes	-11.3901
▁breezes	-11.3903
▁trainer	-11.3905
▁ohio	-11.3908
▁trib	-11.391
▁booing	-11.3911
▁vers	-11.3913
▁announced	-11.3916
ox	-11.3916
▁coffees	-11.3921
▁pounding	-11.3929
pol	-11.3932
▁discussing	-11.3937
▁drills	-11.3938
▁australians	-11.3939
▁connections	-11.3939
▁flames	-11.3939
table	-11.3941
tze	-11.3941
▁buyer	-11.3944
▁poisoning	-11.3946
ipping	-11.3947
▁buster	-11.3951
▁tucked	-11.3955
▁ari	-11.3959
▁prayed	-11.396
▁caps	-11.3962
▁guessing	-11.3969
ern	-11.3971
▁dope	-11.3972
▁peel	-11.3972
▁blocked	-11.3973
▁comedy	-11.3973
▁strains	-11.3973
▁decades	-11.3975
▁exits	-11.3976
▁charged	-11.3978
▁victims	-11.398
▁punching	-11.3984
▁athletes	-11.3984
hold	-11.3987
▁obs	-11.3992
▁cooked	-11.3992
ograph	-11.3993
▁cur	-11.3995
ability	-11.3998
▁slit	-11.3998
▁architectur	-11.4
▁weirdo	-11.4
▁climber	-11.4007
▁autographs	-11.4011
▁risked	-11.4017
▁handles	-11.402
▁habits	-11.4025
▁ven	-11.4026
ning	-11.4035
come	-11.4039
ada	-11.4043
▁socks	-11.4047
▁bin	-11.4047
all	-11.4049
ney	-11.405
▁operat	-11.4058
▁rely	-11.4062
▁hiphop	-11.4071
▁laughed	-11.4071
▁contents	-11.4073
▁rounds	-11.4075
▁eva	-11.4081
▁protected	-11.4083
fu	-11.4084
▁owners	-11.4084
▁baudelaires	-11.4084
▁elephants	-11.4084
▁mirrors	-11.4084
▁nephews	-11.4084
▁savages	-11.4084
▁explodes	-11.4085
▁claims	-11.4086
▁stakes	-11.4088
▁products	-11.4088
▁aunties	-11.4092
▁amor	-11.41
▁warming	-11.4113
▁claws	-11.4115
▁options	-11.4121
▁arrives	-11.4121
▁pumps	-11.4122
▁flake	-11.4123
▁classy	-11.4131
▁panick	-11.4137
▁dynami	-11.4138
▁safely	-11.4142
▁rancher	-11.415
▁indi	-11.4151
▁wigs	-11.4158
▁sharks	-11.4158
ception	-11.4174
▁lil	-11.4184
▁cleaned	-11.4184
▁refuses	-11.4197
▁ant	-11.4201
eer	-11.4207
wau	-11.4209
▁limits	-11.4221
▁them	-11.4226
▁gorillas	-11.4231
▁instruments	-11.4231
▁underestimate	-11.4235
▁exterminate	-11.4244
▁sy	-11.4247
▁chopp	-11.4253
▁pul	-11.4258
▁freaky	-11.4259
▁misses	-11.4263
▁returns	-11.4267
▁cy	-11.4269
▁ferr	-11.4272
▁explaining	-11.4274
loyalty	-11.4288
▁winding	-11.4293
▁rea	-11.4306
iast	-11.4314
lan	-11.4326
remarkable	-11.4334
▁lone	-11.4339
▁julies	-11.4347
met	-11.4348
▁floats	-11.4351
▁sleeps	-11.4356
col	-11.4356
▁ec	-11.4366
▁paintings	-11.4381
▁disappears	-11.4382
▁goals	-11.4384
odie	-11.4387
▁sales	-11.4389
▁spine	-11.439
lands	-11.4392
▁lean	-11.4396
▁str	-11.4398
bel	-11.4401
▁handy	-11.4411
▁africans	-11.4418
asser	-11.4419
▁sacrifices	-11.442
▁dada	-11.4422
▁marrying	-11.4433
net	-11.4439
cal	-11.4441
▁coins	-11.4458
▁ordering	-11.4464
now	-11.4475
tta	-11.448
▁hooks	-11.4491
▁pawns	-11.4493
▁nil	-11.4507
▁spr	-11.4512
bar	-11.4513
dodgers	-11.4542
inky	-11.4547
fit	-11.4556
ux	-11.4557
▁signing	-11.4557
▁ups	-11.4562
▁vil	-11.4564
aaaah	-11.4566
▁roads	-11.457
▁cuts	-11.4573
▁bart	-11.4584
▁comments	-11.4585
nies	-11.46
▁goo	-11.461
▁crowded	-11.4623
▁joshie	-11.463
▁wink	-11.4636
▁foreigner	-11.464
vous	-11.466
ig	-11.466
▁shi	-11.4663
▁gaze	-11.4665
▁sundays	-11.4683
▁remembering	-11.4683
py	-11.4708
▁nan	-11.4716
▁signals	-11.4722
▁ach	-11.4723
▁leaders	-11.4724
▁strap	-11.4747
▁despise	-11.4753
▁sol	-11.4755
▁devils	-11.476
ett	-11.4767
▁ties	-11.4772
▁colo	-11.4786
ists	-11.4791
omb	-11.4792
▁tru	-11.4812
tre	-11.4821
▁quot	-11.4828
▁needle	-11.483
▁types	-11.4837
ians	-11.4839
tory	-11.4853
ups	-11.486
▁conversations	-11.4876
▁operations	-11.4876
eur	-11.4889
▁novelt	-11.4909
tte	-11.4917
llowed	-11.493
▁feeds	-11.493
▁cran	-11.4931
▁revers	-11.4936
dance	-11.494
ev	-11.4942
ana	-11.4942
tty	-11.4944
▁favors	-11.4951
▁inhabit	-11.4956
▁radi	-11.497
▁rev	-11.4991
▁boyer	-11.4993
▁colom	-11.4995
▁tha	-11.5007
ddy	-11.5012
▁wo	-11.5018
song	-11.502
▁tes	-11.5028
▁merri	-11.5035
iii	-11.504
▁treats	-11.5044
card	-11.5046
▁scares	-11.5053
▁bur	-11.5057
▁squa	-11.5058
sk	-11.506
▁cases	-11.5076
▁rou	-11.5082
▁tire	-11.5087
▁organis	-11.5089
fe	-11.5098
▁freez	-11.5104
▁bing	-11.5111
▁girlfriends	-11.5112
▁theatres	-11.5112
ium	-11.5135
▁andys	-11.5167
ries	-11.518
▁unse	-11.5181
idden	-11.5191
▁pointing	-11.5193
pa	-11.5201
▁dances	-11.5201
▁speeds	-11.5236
▁vot	-11.5237
▁cooks	-11.5239
▁rend	-11.5247
▁calculat	-11.5254
lorn	-11.5255
▁hen	-11.5265
▁cary	-11.5265
▁languages	-11.5271
test	-11.5276
▁she	-11.5286
▁refine	-11.5321
ition	-11.5352
▁teas	-11.5353
▁clubs	-11.5375
erator	-11.5403
▁hub	-11.5404
ome	-11.5423
▁groups	-11.5432
lli	-11.5447
ural	-11.5472
▁sorts	-11.5496
▁bam	-11.5499
▁bloods	-11.5502
tail	-11.5506
▁neuro	-11.5508
unning	-11.5509
▁controls	-11.5514
▁ping	-11.5516
▁vee	-11.5522
▁educate	-11.554
▁spar	-11.5544
▁chains	-11.5573
▁prior	-11.5576
wit	-11.5588
▁biz	-11.5589
case	-11.5595
cre	-11.5602
lah	-11.5602
ption	-11.5631
▁fears	-11.5652
spective	-11.5667
hel	-11.5677
▁rays	-11.5681
▁mit	-11.569
▁summ	-11.5698
ova	-11.571
▁eu	-11.571
nel	-11.5714
inner	-11.5719
eat	-11.5733
art	-11.5733
leen	-11.5745
▁as	-11.5751
▁yank	-11.5758
▁paste	-11.576
▁promises	-11.576
▁meetings	-11.5767
▁primar	-11.5781
▁perc	-11.5786
▁ale	-11.5787
▁writes	-11.5787
zz	-11.5798
yra	-11.5817
▁rhythm	-11.5831
▁vic	-11.5833
▁architect	-11.5841
▁spoon	-11.5842
▁pals	-11.5849
▁loca	-11.5851
charge	-11.5875
ttling	-11.5876
amin	-11.5883
▁boards	-11.5891
▁rust	-11.5893
cou	-11.5898
shes	-11.5901
▁fin	-11.5913
▁souther	-11.5917
▁asks	-11.5925
ano	-11.5931
appointed	-11.5934
▁dom	-11.5936
dia	-11.5942
elle	-11.5955
ez	-11.5963
▁dee	-11.5967
breaking	-11.5978
▁squeal	-11.5978
▁oppos	-11.5986
▁surround	-11.5988
▁graduat	-11.5991
ification	-11.5992
▁joc	-11.6005
aken	-11.6006
em	-11.6007
▁wakin	-11.6007
year	-11.6009
▁clang	-11.6014
▁trou	-11.6015
▁companion	-11.6018
▁catholic	-11.6018
▁pigeon	-11.6018
▁contradiction	-11.6018
▁stalin	-11.6018
▁antique	-11.602
kill	-11.6023
▁regional	-11.6026
▁nu	-11.603
▁meets	-11.6034
▁petunia	-11.6035
▁representative	-11.6035
▁careless	-11.6041
▁dumdum	-11.6043
▁fooglie	-11.6043
▁munchkin	-11.6044
▁kidney	-11.6044
▁mammal	-11.6045
▁nerd	-11.6045
▁replacement	-11.6045
ute	-11.6046
▁salad	-11.6046
▁arte	-11.6047
▁feature	-11.6048
▁robber	-11.6049
▁emotion	-11.6051
▁coyote	-11.6052
▁instinct	-11.6052
▁prawn	-11.6052
▁scout	-11.6053
▁citizen	-11.6054
▁passenger	-11.6056
▁warrior	-11.6056
▁stair	-11.6057
▁shiver	-11.6058
ella	-11.606
▁sniper	-11.6065
▁vine	-11.6068
▁memo	-11.607
▁corpse	-11.6073
▁pup	-11.6077
▁tradition	-11.6079
▁shallow	-11.6083
▁prompt	-11.6083
▁immortal	-11.6084
nox	-11.6091
▁performer	-11.6093
▁mic	-11.6099
▁invade	-11.6107
▁aid	-11.6108
▁pri	-11.6113
▁rul	-11.6115
ata	-11.6116
▁terror	-11.6117
try	-11.612
▁invest	-11.6123
dled	-11.6125
▁plea	-11.6126
warming	-11.6135
▁crunch	-11.6137
night	-11.6137
▁haunt	-11.6144
power	-11.6146
▁stinkin	-11.6147
hem	-11.6148
▁slick	-11.6149
wind	-11.6149
sick	-11.6155
▁thump	-11.6156
▁gran	-11.6158
oon	-11.6162
▁function	-11.6162
▁explore	-11.6163
▁echo	-11.6163
▁snoop	-11.6166
▁screech	-11.6167
▁disgust	-11.6167
▁overwhelm	-11.6169
▁deposit	-11.617
▁roam	-11.6171
▁accomplish	-11.6173
▁snicker	-11.6174
▁caus	-11.6175
▁neglect	-11.6175
▁tranquill	-11.6175
▁blindfold	-11.6175
▁reveal	-11.6176
▁suspend	-11.6176
flint	-11.6179
fire	-11.618
east	-11.6181
dorf	-11.6181
identified	-11.6181
▁milli	-11.6183
▁brie	-11.6183
yearold	-11.6183
hurst	-11.6183
▁contempt	-11.6183
twenty	-11.6183
burn	-11.6183
hq	-11.6184
▁mob	-11.6184
track	-11.6184
space	-11.6184
lived	-11.6184
human	-11.6184
▁summon	-11.6184
▁camouflage	-11.6185
▁translate	-11.6185
course	-11.6185
▁bald	-11.6185
pound	-11.6185
▁stain	-11.6186
pants	-11.6187
▁mush	-11.6187
▁filth	-11.6188
▁divide	-11.6188
▁circl	-11.6188
▁inspire	-11.6189
speed	-11.6189
cure	-11.6189
post	-11.6189
▁thorough	-11.6189
vine	-11.619
▁daff	-11.619
▁intense	-11.619
bleh	-11.619
▁contribut	-11.6192
jour	-11.6192
▁determine	-11.6194
▁wond	-11.6194
▁flow	-11.6194
▁movement	-11.6194
▁jess	-11.6195
▁confuse	-11.6195
▁incredibl	-11.6195
jui	-11.6195
▁humbl	-11.6196
kers	-11.6196
▁vanish	-11.6198
tox	-11.6198
▁eyewitness	-11.6198
▁audit	-11.6199
▁teenage	-11.6199
▁sensation	-11.6199
▁dolph	-11.6202
▁happie	-11.6202
▁beautifu	-11.6202
▁inject	-11.6202
▁refresh	-11.6202
▁secre	-11.6203
▁bootleg	-11.6203
▁infect	-11.6203
▁construct	-11.6203
pong	-11.6204
ravity	-11.6204
door	-11.6204
gulch	-11.6205
ncredibl	-11.6205
▁era	-11.6205
▁volunt	-11.6205
▁excla	-11.6205
bbidibo	-11.6206
▁shrunk	-11.6206
▁evolution	-11.6206
▁incorrect	-11.6206
iku	-11.6206
▁abode	-11.6206
▁abruptly	-11.6206
▁academic	-11.6206
▁accompany	-11.6206
▁accomplice	-11.6206
▁acknowledge	-11.6206
▁acquaint	-11.6206
▁administer	-11.6206
▁advertising	-11.6206
▁albany	-11.6206
▁aloft	-11.6206
▁anglosaxons	-11.6206
▁antibiotic	-11.6206
▁anticipat	-11.6206
▁aristocrat	-11.6206
▁arjuna	-11.6206
▁asthma	-11.6206
▁atlanta	-11.6206
▁authentic	-11.6206
▁babinot	-11.6206
▁barrymore	-11.6206
▁bathtub	-11.6206
▁bbc	-11.6206
▁bedrock	-11.6206
▁beeblebrox	-11.6206
▁bennington	-11.6206
▁bittrich	-11.6206
▁brisbane	-11.6206
▁budapest	-11.6206
▁bulchar	-11.6206
▁bungalow	-11.6206
▁cabbage	-11.6206
▁cafeteria	-11.6206
▁canadian	-11.6206
▁cannibal	-11.6206
▁capitol	-11.6206
▁cardiopep	-11.6206
▁carnival	-11.6206
▁casual	-11.6206
▁catalogue	-11.6206
▁cautious	-11.6206
▁celebration	-11.6206
▁chandelier	-11.6206
▁charcoal	-11.6206
▁charleshenri	-11.6206
▁chronic	-11.6206
▁cockatoo	-11.6206
▁comfy	-11.6206
▁compartment	-11.6206
▁completion	-11.6206
▁convincing	-11.6206
▁crustacean	-11.6206
▁dempsey	-11.6206
▁deodorant	-11.6206
▁despair	-11.6206
▁dispatch	-11.6206
▁doktor	-11.6206
▁domestic	-11.6206
▁dottie	-11.6206
▁dowry	-11.6206
▁drisella	-11.6206
▁dumbdumb	-11.6206
▁eisenhower	-11.6206
▁endeavour	-11.6206
▁exploring	-11.6206
▁exquisite	-11.6206
▁fickle	-11.6206
▁firefrorefiddle	-11.6206
▁forevermore	-11.6206
▁furnished	-11.6206
▁furthermore	-11.6206
▁galvanized	-11.6206
▁gardiner	-11.6206
▁geography	-11.6206
▁google	-11.6206
▁gresham	-11.6206
▁guiana	-11.6206
▁guiet	-11.6206
▁gusgus	-11.6206
▁gustav	-11.6206
▁hartmann	-11.6206
▁hideandseek	-11.6206
▁hortono	-11.6206
▁imbecile	-11.6206
▁impeccabl	-11.6206
▁imperceptible	-11.6206
▁inconvenience	-11.6206
▁incorrigible	-11.6206
▁independence	-11.6206
▁infinity	-11.6206
▁instagram	-11.6206
▁intact	-11.6206
▁intimidate	-11.6206
▁invasion	-11.6206
▁investigative	-11.6206
▁inviting	-11.6206
▁irregular	-11.6206
▁jadoube	-11.6206
▁jumanji	-11.6206
▁kremlin	-11.6206
▁krishna	-11.6206
▁lachrymose	-11.6206
▁lantern	-11.6206
▁lizard	-11.6206
▁locust	-11.6206
▁lombok	-11.6206
▁lorelei	-11.6206
▁ludicrous	-11.6206
▁mackerel	-11.6206
▁magnusson	-11.6206
▁marseilles	-11.6206
▁matherson	-11.6206
▁melodrama	-11.6206
▁merchant	-11.6206
▁microchip	-11.6206
▁millbarge	-11.6206
▁mongrel	-11.6206
▁morosky	-11.6206
▁moustache	-11.6206
▁mowgli	-11.6206
▁munro	-11.6206
▁muslim	-11.6206
▁mutineers	-11.6206
▁neenurt	-11.6206
▁nellie	-11.6206
▁ninetynine	-11.6206
▁nokitofa	-11.6206
▁nonlethal	-11.6206
▁nugent	-11.6206
▁offence	-11.6206
▁okeysolo	-11.6206
▁oprah	-11.6206
▁oswald	-11.6206
▁pajamas	-11.6206
▁panzer	-11.6206
▁parliament	-11.6206
▁phantom	-11.6206
▁phlurm	-11.6206
▁pistol	-11.6206
▁pittsburgh	-11.6206
▁platform	-11.6206
▁practicing	-11.6206
▁predicament	-11.6206
▁prestigious	-11.6206
▁profile	-11.6206
▁prostitute	-11.6206
▁purrfect	-11.6206
▁raccoons	-11.6206
▁recordplayer	-11.6206
▁regulations	-11.6206
▁reinforcements	-11.6206
▁repulsive	-11.6206
▁rescuing	-11.6206
▁retches	-11.6206
▁ritchie	-11.6206
▁rivage	-11.6206
▁rufus	-11.6206
▁sarge	-11.6206
▁satisfactory	-11.6206
▁seagull	-11.6206
▁seamstress	-11.6206
▁sheik	-11.6206
▁shirazi	-11.6206
▁shrub	-11.6206
▁shushing	-11.6206
▁slender	-11.6206
▁sliding	-11.6206
▁smog	-11.6206
▁substitut	-11.6206
▁supernatural	-11.6206
▁swollen	-11.6206
▁taffeta	-11.6206
▁textopolis	-11.6206
▁toichi	-11.6206
▁tolstoy	-11.6206
▁trajectory	-11.6206
▁tweedie	-11.6206
▁twittering	-11.6206
▁uncomfortable	-11.6206
▁unmarried	-11.6206
▁unnecessary	-11.6206
▁upcoming	-11.6206
▁variety	-11.6206
▁vengeance	-11.6206
▁watermelon	-11.6206
▁whichever	-11.6206
▁whirl	-11.6206
▁wimoweh	-11.6206
▁wreath	-11.6206
▁bargain	-11.6206
▁bulb	-11.6206
▁comanche	-11.6206
▁dealership	-11.6206
▁ellman	-11.6206
▁envy	-11.6206
▁examination	-11.6206
▁hangover	-11.6206
▁horde	-11.6206
▁igor	-11.6206
▁introducing	-11.6206
▁karaoke	-11.6206
▁nevertheless	-11.6206
▁oscar	-11.6206
▁parlor	-11.6206
▁pervert	-11.6206
▁pucker	-11.6206
▁replacing	-11.6206
▁sensor	-11.6206
▁technological	-11.6206
▁thwart	-11.6206
▁wrestle	-11.6206
▁animation	-11.6206
▁canvas	-11.6206
▁duchess	-11.6206
▁elevate	-11.6206
▁grumbling	-11.6206
▁method	-11.6206
▁missouri	-11.6206
▁rehab	-11.6206
▁ruh	-11.6206
▁sleepover	-11.6206
▁snoot	-11.6206
▁tampa	-11.6206
▁warehouse	-11.6206
▁wrist	-11.6206
▁papi	-11.6206
▁canyon	-11.6206
▁gesture	-11.6206
▁hugger	-11.6206
▁jamaica	-11.6206
▁jammed	-11.6206
▁nogood	-11.6206
▁obliged	-11.6206
▁wouid	-11.6206
▁boston	-11.6206
▁bouvar	-11.6206
▁ellen	-11.6206
▁giddyap	-11.6206
▁omelet	-11.6206
▁tamper	-11.6206
▁toothbrush	-11.6206
▁cabana	-11.6206
▁leftover	-11.6206
▁metropoli	-11.6206
▁ramos	-11.6206
▁wilkins	-11.6206
▁apparition	-11.6206
▁chord	-11.6206
▁domini	-11.6206
▁wretche	-11.6206
▁strawberry	-11.6206
▁tackleberry	-11.6206
▁heaveho	-11.6206
▁playdate	-11.6206
▁wept	-11.6206
▁boingo	-11.6206
▁horri	-11.6206
▁trill	-11.6206
▁analyze	-11.6206
▁expedit	-11.6206
▁waitress	-11.6206
▁magnum	-11.6206
▁sicily	-11.6206
▁saloon	-11.6206
▁unaji	-11.6206
▁courtesy	-11.6206
▁doggone	-11.6206
▁donnagon	-11.6206
▁hogging	-11.6206
▁migra	-11.6206
▁marvellous	-11.6206
▁convenience	-11.6206
▁excitement	-11.6206
▁loaf	-11.6206
▁urge	-11.6206
▁fruitcake	-11.6206
▁dietrich	-11.6206
▁enforcement	-11.6206
▁nourishment	-11.6206
▁scalp	-11.6206
▁trough	-11.6206
▁domain	-11.6206
▁panorama	-11.6206
▁cocktail	-11.6206
▁hermit	-11.6206
▁hopalong	-11.6206
▁mmmmmmmmm	-11.6206
▁beaver	-11.6206
▁extend	-11.6206
▁fading	-11.6206
▁vouch	-11.6206
uko	-11.6206
▁iceberg	-11.6206
▁inferna	-11.6206
▁sweetiepie	-11.6206
▁fanatic	-11.6206
▁stroll	-11.6206
▁skimble	-11.6206
▁alaska	-11.6206
▁companionship	-11.6206
▁luther	-11.6206
▁picard	-11.6206
▁sperm	-11.6206
▁biood	-11.6206
▁exotic	-11.6206
▁lipstick	-11.6206
▁sceptre	-11.6206
▁whims	-11.6206
▁buns	-11.6206
▁maroon	-11.6206
▁fleming	-11.6206
▁oxford	-11.6206
▁veins	-11.6206
▁wimp	-11.6206
culty	-11.6206
▁biggie	-11.6206
▁eject	-11.6206
▁preview	-11.6206
▁compound	-11.6206
▁essay	-11.6206
▁julot	-11.6206
▁departure	-11.6206
▁hostility	-11.6206
▁lippe	-11.6206
▁nickname	-11.6206
▁midget	-11.6206
▁chelo	-11.6206
▁duplication	-11.6206
▁fraid	-11.6206
▁willat	-11.6206
▁smother	-11.6206
▁breach	-11.6206
▁forbidden	-11.6206
▁gallery	-11.6206
▁huggen	-11.6206
▁voltage	-11.6206
▁aircraft	-11.6206
▁jog	-11.6206
▁twentyfour	-11.6206
▁choosing	-11.6206
▁imaginary	-11.6206
▁pinoc	-11.6206
▁hostile	-11.6206
▁humour	-11.6206
▁autops	-11.6206
▁bozo	-11.6206
▁interior	-11.6206
▁duct	-11.6206
▁michel	-11.6206
▁hydro	-11.6206
▁referred	-11.6206
▁percent	-11.6206
▁coupling	-11.6206
▁decline	-11.6206
▁struck	-11.6206
▁donna	-11.6206
▁controversial	-11.6206
▁arrogant	-11.6206
▁garnett	-11.6206
▁indecent	-11.6206
▁superstar	-11.6206
▁chemistry	-11.6207
▁jackpot	-11.6207
▁edward	-11.6207
▁fuji	-11.6207
▁huff	-11.6207
▁theft	-11.6207
▁wormsley	-11.6207
▁passport	-11.6207
▁denver	-11.6207
▁scam	-11.6207
▁renovation	-11.6207
▁sodium	-11.6207
▁athen	-11.6207
▁hind	-11.6207
▁pumpkinhead	-11.6207
▁repay	-11.6207
▁resemblance	-11.6207
▁quiz	-11.6207
▁refuge	-11.6207
▁edgy	-11.6207
▁pinhead	-11.6207
▁zab	-11.6207
▁hull	-11.6207
▁observation	-11.6207
▁retard	-11.6207
vada	-11.6207
▁grocer	-11.6207
▁overall	-11.6207
▁recess	-11.6207
▁macho	-11.6207
▁eldest	-11.6207
▁cuban	-11.6207
▁weave	-11.6207
▁studies	-11.6207
▁properties	-11.6207
▁gipper	-11.6207
▁heir	-11.6207
▁polar	-11.6207
▁classified	-11.6207
▁prun	-11.6207
▁whines	-11.6207
▁mirage	-11.6207
▁communion	-11.6207
▁madrid	-11.6207
▁chemist	-11.6207
▁specifically	-11.6207
▁vegan	-11.6207
▁edison	-11.6207
▁mural	-11.6207
▁fiendish	-11.6208
▁forehead	-11.6208
▁authorization	-11.6208
▁shep	-11.6208
▁iying	-11.6208
▁stunning	-11.6208
▁infection	-11.6208
▁robberies	-11.6208
▁random	-11.6208
▁edgar	-11.6208
▁stirrup	-11.6208
▁aione	-11.6208
▁jimbo	-11.6208
▁geoff	-11.6208
▁grid	-11.6208
▁heli	-11.6208
▁poker	-11.6208
▁bonnie	-11.6208
▁radiation	-11.6208
▁detest	-11.6208
▁drool	-11.6208
▁lucien	-11.6208
▁parasites	-11.6208
▁cafe	-11.6208
▁rake	-11.6208
▁detector	-11.6208
▁clamp	-11.6208
▁fuses	-11.6208
cuffs	-11.6208
▁accomplishment	-11.6208
▁midw	-11.6208
▁collapsed	-11.6208
▁bugging	-11.6208
▁thorn	-11.6209
▁disappearance	-11.6209
▁fiftyone	-11.6209
▁dentist	-11.6209
▁teri	-11.6209
▁wildlife	-11.6209
▁dumpster	-11.6209
afied	-11.6209
▁hence	-11.6209
▁snout	-11.6209
▁rebuild	-11.6209
▁plotting	-11.6209
▁haircut	-11.6209
uum	-11.6209
▁complimentary	-11.6209
▁almond	-11.6209
▁ix	-11.6209
▁primate	-11.6209
▁engagement	-11.6209
▁scat	-11.6209
▁grit	-11.6209
▁jaw	-11.6209
▁aargh	-11.621
▁flavor	-11.621
▁frequenc	-11.621
▁filter	-11.621
▁choo	-11.621
▁oxygen	-11.621
▁tele	-11.621
▁compact	-11.621
▁observers	-11.621
owl	-11.621
▁corporate	-11.621
▁maddie	-11.621
▁vandalism	-11.621
▁dots	-11.621
▁slot	-11.621
▁snappy	-11.621
▁swan	-11.621
▁elvis	-11.621
▁gram	-11.621
▁groom	-11.621
▁parce	-11.621
▁potatoes	-11.621
▁crackling	-11.621
omination	-11.621
▁piace	-11.621
▁jez	-11.621
▁dominate	-11.621
▁eligible	-11.6211
▁hopping	-11.6211
▁onion	-11.6211
▁whipped	-11.6211
▁outnumbered	-11.6211
▁righteous	-11.6211
▁reher	-11.6211
▁locket	-11.6211
▁caption	-11.6211
▁entom	-11.6211
▁eliminate	-11.6211
▁lair	-11.6211
▁protest	-11.6211
▁sidewalk	-11.6211
▁hart	-11.6211
▁sunlight	-11.6211
▁rattle	-11.6211
▁burl	-11.6212
▁cities	-11.6212
▁pupil	-11.6212
▁respectfully	-11.6212
▁thou	-11.6212
▁amber	-11.6212
▁crate	-11.6212
▁ballast	-11.6212
▁whatre	-11.6212
▁infant	-11.6212
▁ninety	-11.6212
▁salon	-11.6212
▁defenseless	-11.6212
▁foreman	-11.6212
▁reactor	-11.6212
▁partake	-11.6212
▁hotshot	-11.6212
▁chum	-11.6212
▁figuring	-11.6212
▁barber	-11.6213
▁skeleton	-11.6213
▁audition	-11.6213
▁trillion	-11.6213
▁dubbing	-11.6213
▁aqua	-11.6213
▁clinking	-11.6213
▁voi	-11.6213
▁wingman	-11.6213
▁gunner	-11.6213
▁stomp	-11.6213
▁pepper	-11.6213
▁keyboard	-11.6213
▁waist	-11.6214
▁maur	-11.6214
▁arf	-11.6214
▁cockroaches	-11.6214
▁farther	-11.6214
▁dug	-11.6214
▁kimberly	-11.6214
aries	-11.6214
▁colorful	-11.6214
ub	-11.6215
▁premiere	-11.6215
▁batch	-11.6215
▁eee	-11.6215
▁doggy	-11.6215
▁selfless	-11.6215
▁reborn	-11.6216
▁shuttle	-11.6216
▁bold	-11.6216
▁pinto	-11.6216
▁cruiser	-11.6216
▁zman	-11.6216
▁norw	-11.6216
▁franklin	-11.6216
▁snapping	-11.6216
▁kickoff	-11.6216
▁weakness	-11.6216
▁yara	-11.6216
▁mumble	-11.6216
▁triumphantly	-11.6217
▁vast	-11.6217
inlaw	-11.6217
▁bonus	-11.6217
wana	-11.6217
▁tack	-11.6217
tious	-11.6218
▁gao	-11.6218
▁abuse	-11.6218
▁kath	-11.6218
▁kane	-11.6219
▁turd	-11.6219
▁manchester	-11.6219
▁initiate	-11.6219
▁instructed	-11.6219
▁opposition	-11.6219
▁agony	-11.622
▁benj	-11.622
▁monastery	-11.622
▁cheeky	-11.622
▁discovery	-11.622
▁warped	-11.6221
▁tux	-11.6221
▁gap	-11.6221
▁cradle	-11.6221
▁yellin	-11.6221
▁ruben	-11.6221
▁jinx	-11.6222
▁metro	-11.6222
▁penal	-11.6222
▁doggie	-11.6222
▁racers	-11.6223
▁normality	-11.6223
▁puttin	-11.6223
▁amazed	-11.6224
▁hahn	-11.6224
▁sass	-11.6225
▁approaches	-11.6225
muel	-11.6225
▁cinder	-11.6225
▁tacky	-11.6225
▁grime	-11.6225
▁personality	-11.6226
▁clearance	-11.6226
▁breakdown	-11.6226
▁buzzes	-11.6227
▁allen	-11.6227
▁scoot	-11.6227
▁housekeeper	-11.6227
▁recon	-11.6227
▁sadness	-11.6227
▁forgiveness	-11.6227
▁hein	-11.6228
wed	-11.6228
▁spooked	-11.6228
▁departed	-11.6228
▁wanda	-11.6229
▁vinnie	-11.6229
▁lunchtime	-11.623
▁realised	-11.623
▁mortality	-11.623
grams	-11.623
▁physi	-11.623
▁colony	-11.623
▁brushes	-11.623
▁enclos	-11.623
▁dangle	-11.623
sanitary	-11.6231
▁were	-11.6231
▁lumpy	-11.6231
▁dep	-11.6231
▁policemen	-11.6232
▁sniggers	-11.6232
▁textbooks	-11.6232
▁kincaids	-11.6232
▁pebbles	-11.6232
▁suburbs	-11.6232
▁elders	-11.6232
▁clatters	-11.6232
▁fries	-11.6232
▁sunk	-11.6232
▁cameraman	-11.6232
▁presentation	-11.6232
▁lug	-11.6233
▁cub	-11.6233
wei	-11.6233
▁ahhaha	-11.6234
▁decorated	-11.6234
▁packers	-11.6234
▁mellow	-11.6235
filled	-11.6235
▁mia	-11.6236
▁sandwiches	-11.6236
▁ticking	-11.6236
▁shuddering	-11.6236
esque	-11.6237
▁recovery	-11.6237
▁homeschool	-11.6237
▁whooshing	-11.6238
iq	-11.6238
▁positiv	-11.6238
▁approved	-11.6239
▁caraway	-11.6239
▁banker	-11.624
▁dush	-11.624
▁suns	-11.6241
▁assemble	-11.6241
▁everyday	-11.6241
▁burrow	-11.6241
▁assembled	-11.6242
▁roman	-11.6242
▁wartime	-11.6242
▁forg	-11.6243
▁slime	-11.6243
▁heroic	-11.6244
▁yap	-11.6244
▁tole	-11.6244
▁swipe	-11.6244
tripoli	-11.6245
▁babysitter	-11.6246
▁crotche	-11.6246
cumber	-11.6246
▁tempted	-11.6247
▁rushes	-11.6247
ove	-11.6247
▁defensi	-11.6247
▁homing	-11.6248
▁goofing	-11.6249
▁peeled	-11.6249
▁snickering	-11.6249
▁clanging	-11.6249
▁acceptable	-11.625
ohohoh	-11.625
▁childish	-11.6251
bed	-11.6251
▁gambler	-11.6252
▁haunting	-11.6252
▁july	-11.6252
▁plank	-11.6252
▁freezer	-11.6253
▁core	-11.6254
▁burp	-11.6254
nice	-11.6254
▁addresses	-11.6254
▁modest	-11.6255
▁retired	-11.6255
▁overreacted	-11.6256
▁startled	-11.6256
▁brightest	-11.6256
▁piper	-11.6257
quaint	-11.6257
▁loosen	-11.6257
▁chopping	-11.6257
▁deleted	-11.626
▁instantly	-11.626
▁defying	-11.6261
▁proceeding	-11.6261
▁rewarding	-11.6261
▁transforming	-11.6261
▁graduated	-11.6261
▁imposter	-11.6261
▁pud	-11.6262
▁with	-11.6262
▁staging	-11.6264
▁slicker	-11.6264
▁armist	-11.6264
▁established	-11.6265
▁trailer	-11.6265
▁corny	-11.6265
ndle	-11.6267
▁blink	-11.6269
▁cooing	-11.6269
▁bitten	-11.6269
▁budge	-11.627
▁straighten	-11.6273
mund	-11.6273
timate	-11.6273
otics	-11.6274
▁distracted	-11.6274
▁uncover	-11.6274
▁declare	-11.6275
▁secured	-11.6276
▁salty	-11.6277
▁drips	-11.6277
▁decoys	-11.6277
▁earthlings	-11.6277
▁napkins	-11.6277
▁patzers	-11.6277
▁receipts	-11.6277
▁souvenirs	-11.6277
▁mutants	-11.6277
▁slugs	-11.6277
▁hallucinations	-11.6277
▁clams	-11.6277
▁shutting	-11.6278
▁clan	-11.6278
▁matches	-11.6279
▁scrap	-11.6279
▁sna	-11.6279
▁stressed	-11.6283
▁betrayed	-11.6283
▁notion	-11.6283
▁handcuffs	-11.6285
▁surfing	-11.6285
▁passer	-11.6286
▁wildest	-11.6286
▁weaker	-11.6286
▁callback	-11.6287
▁bathe	-11.6287
▁octo	-11.6287
▁eel	-11.6288
▁terrorize	-11.6289
▁nbs	-11.629
▁dinging	-11.6297
▁mocking	-11.6297
▁mixing	-11.6298
▁leon	-11.63
morrow	-11.63
ready	-11.6301
▁toaster	-11.6301
▁peni	-11.6302
thats	-11.6302
▁optimist	-11.6302
▁succeeded	-11.6302
▁cycle	-11.6304
▁reduce	-11.6304
▁elses	-11.6306
sati	-11.6308
▁emir	-11.631
▁connected	-11.631
▁chewed	-11.6311
▁wiede	-11.6311
ride	-11.6312
alm	-11.632
▁vel	-11.6321
lush	-11.6321
▁turnout	-11.6322
▁bitches	-11.6322
ular	-11.6323
▁maidens	-11.6324
▁ankles	-11.6324
▁barrels	-11.6324
▁meadows	-11.6324
▁ribbons	-11.6324
▁vegetables	-11.6324
▁wasps	-11.6324
▁diversions	-11.6324
▁stables	-11.6324
▁donations	-11.6324
▁hale	-11.6327
venue	-11.6327
▁rollers	-11.6328
▁repaired	-11.6329
▁shutters	-11.6329
▁jer	-11.6331
▁fasten	-11.6332
▁goodlooking	-11.6333
▁gaining	-11.6334
▁glob	-11.6335
▁chilly	-11.6335
▁briefing	-11.6335
▁judged	-11.6335
ucci	-11.6336
▁zinged	-11.6338
▁strip	-11.6338
▁tibet	-11.6341
ako	-11.6341
▁malle	-11.6342
▁brighter	-11.6344
▁challenged	-11.6347
▁crushed	-11.6347
▁interrupting	-11.6348
▁chewing	-11.6348
▁seeds	-11.6348
▁readers	-11.6349
▁mite	-11.6349
▁lily	-11.6349
▁fling	-11.6349
▁pumping	-11.635
▁drawers	-11.6351
bru	-11.6356
▁hassl	-11.6357
▁sau	-11.6358
▁irony	-11.636
▁goof	-11.6361
▁owi	-11.6361
▁tres	-11.6369
▁shade	-11.6369
step	-11.637
▁nerds	-11.6371
▁dumdums	-11.6371
▁fooglies	-11.6371
▁munchkins	-11.6371
▁mammals	-11.6371
▁mooing	-11.6371
▁replacements	-11.6371
▁driven	-11.6373
▁features	-11.6374
mu	-11.6375
▁pups	-11.6375
▁finale	-11.6376
▁snipers	-11.6377
▁whiz	-11.6384
▁performed	-11.6384
▁bil	-11.6385
▁shocking	-11.6385
▁sleepin	-11.6387
▁sailed	-11.6387
▁sm	-11.6396
▁suggesting	-11.6398
lets	-11.6399
▁div	-11.6399
▁sells	-11.6399
▁blackberr	-11.6402
▁hump	-11.6405
▁colored	-11.6407
▁rushed	-11.6411
▁comb	-11.6413
▁defeated	-11.6415
▁censors	-11.6416
▁items	-11.6418
▁kittens	-11.6419
▁samples	-11.6419
▁blamed	-11.6419
▁attempted	-11.642
▁dealt	-11.6421
▁harmed	-11.6424
▁factors	-11.6426
▁elements	-11.6427
pip	-11.6428
ween	-11.643
▁discussed	-11.6431
wall	-11.6431
▁steering	-11.6435
▁rash	-11.6438
▁promis	-11.6439
dazzling	-11.6441
▁accounted	-11.6442
▁ironed	-11.6454
ggie	-11.6461
ug	-11.6461
▁relays	-11.6466
▁indians	-11.6466
▁rainbows	-11.6466
▁ti	-11.6467
▁aiming	-11.6482
▁olive	-11.6483
▁dunn	-11.6484
▁didn	-11.6487
▁deb	-11.6489
nner	-11.649
chain	-11.6494
▁rustle	-11.6504
▁rebel	-11.6506
▁horny	-11.6509
▁helpless	-11.6511
▁wednesdays	-11.6514
▁bearings	-11.6515
▁rumors	-11.6515
▁roots	-11.6517
oge	-11.652
▁reminding	-11.6528
▁makings	-11.6535
▁headin	-11.6536
▁badger	-11.654
▁chem	-11.6548
▁inc	-11.6552
probation	-11.6559
▁buckets	-11.6562
▁patrols	-11.6562
▁techniques	-11.6562
▁murdering	-11.6563
▁wounds	-11.6563
▁tons	-11.6565
▁guarded	-11.6573
sm	-11.658
▁za	-11.658
▁sighting	-11.6581
▁madly	-11.6583
▁marketing	-11.6587
chel	-11.6592
▁swor	-11.6593
▁pas	-11.6597
▁nui	-11.6607
▁patterns	-11.661
▁puppets	-11.661
▁rockefellers	-11.661
▁mutt	-11.6613
sail	-11.6624
▁jokers	-11.6626
coat	-11.6629
throw	-11.6645
▁organizations	-11.6659
▁transferr	-11.666
▁washing	-11.6665
ged	-11.6669
▁walkon	-11.667
▁browning	-11.6677
▁agreeing	-11.6689
ank	-11.6695
▁downs	-11.6695
▁goons	-11.67
ani	-11.6709
agger	-11.6717
where	-11.6719
▁litera	-11.6719
▁stayin	-11.672
▁menus	-11.6726
acious	-11.6728
▁counts	-11.673
▁fishy	-11.673
▁secretly	-11.6731
rag	-11.6738
▁frightful	-11.6742
tense	-11.6752
▁holidays	-11.6756
▁submarines	-11.6756
▁borders	-11.6756
sted	-11.6759
▁subs	-11.6777
ther	-11.6791
▁rates	-11.6792
▁closets	-11.6792
elyn	-11.68
▁haste	-11.6801
tore	-11.6805
▁rituals	-11.6805
▁buggers	-11.6805
▁vali	-11.6806
ike	-11.6808
▁differently	-11.6808
▁seated	-11.6809
▁pog	-11.681
▁jacks	-11.682
▁grot	-11.6822
fin	-11.6824
▁tun	-11.6829
ector	-11.6832
▁lens	-11.6839
▁heml	-11.6839
▁scu	-11.6839
▁harass	-11.6846
ficiency	-11.6853
▁mes	-11.6854
▁possums	-11.6855
▁results	-11.6855
▁uniforms	-11.6855
▁journalists	-11.6855
▁winters	-11.6857
iss	-11.6858
▁bandits	-11.6858
stly	-11.686
▁devise	-11.6875
▁av	-11.6876
▁lob	-11.6892
▁swarms	-11.6902
▁subjects	-11.6904
▁pancakes	-11.6904
▁arth	-11.6905
icy	-11.6906
amp	-11.6916
▁finer	-11.6919
grade	-11.6935
▁posting	-11.694
▁reproducti	-11.6942
▁coopers	-11.6946
▁freely	-11.6951
▁grandmothers	-11.6954
▁liars	-11.6954
▁oranges	-11.6955
▁ration	-11.6956
▁muds	-11.6958
▁catchy	-11.6959
ks	-11.6967
pp	-11.6968
mic	-11.697
▁wedge	-11.6981
due	-11.699
eddy	-11.7003
▁demands	-11.7004
▁martians	-11.7004
▁champions	-11.7006
▁uses	-11.7007
cab	-11.7008
anda	-11.7015
bric	-11.7024
▁cassi	-11.7036
▁wel	-11.7036
bin	-11.705
▁scores	-11.705
▁helicopters	-11.7054
▁newspapers	-11.7054
urg	-11.7057
▁hhe	-11.7082
▁commence	-11.7085
mir	-11.7089
far	-11.7096
▁carols	-11.7104
▁directors	-11.7106
▁heath	-11.712
▁inherit	-11.7123
▁debate	-11.7129
anza	-11.713
▁cas	-11.7137
▁winch	-11.7137
▁congratulate	-11.7139
ark	-11.7144
▁interst	-11.7146
▁meals	-11.7153
▁emeralds	-11.7155
ise	-11.7155
▁ble	-11.7182
▁tunes	-11.7184
take	-11.7208
▁manages	-11.7209
▁glut	-11.7221
▁swe	-11.7225
pen	-11.7225
▁pets	-11.7227
▁genes	-11.7235
▁circulat	-11.724
ag	-11.7245
▁cages	-11.7255
▁speculat	-11.7261
▁bou	-11.7262
▁cra	-11.7298
▁conditions	-11.7304
urban	-11.731
kid	-11.7311
cut	-11.7319
▁likeness	-11.7336
▁pulls	-11.7345
ko	-11.7349
▁metals	-11.7357
elli	-11.7365
▁conn	-11.737
▁inci	-11.7374
▁sew	-11.7382
▁zap	-11.7382
nders	-11.7391
sland	-11.7396
▁fle	-11.74
kes	-11.7405
▁reco	-11.741
▁credits	-11.741
▁arse	-11.7419
ui	-11.7435
un	-11.7435
▁batteri	-11.7447
moi	-11.7458
▁dim	-11.7466
zi	-11.7478
▁arr	-11.7483
▁fearful	-11.7485
▁beck	-11.749
fi	-11.7501
dro	-11.751
▁belts	-11.7516
▁clues	-11.7518
▁jerks	-11.7519
▁mus	-11.7551
▁wires	-11.756
▁pizzas	-11.7566
unblock	-11.7568
▁trauma	-11.7573
▁hanged	-11.7574
mb	-11.7576
▁spells	-11.7617
▁ev	-11.7621
ished	-11.7633
▁travels	-11.7637
shing	-11.7647
▁converge	-11.7647
▁sights	-11.7675
quer	-11.7678
▁decides	-11.7679
nap	-11.7688
ele	-11.7692
▁impose	-11.7699
dar	-11.7706
▁bens	-11.7725
ab	-11.7746
ap	-11.7762
certainty	-11.7768
▁bikes	-11.7776
wing	-11.7783
dad	-11.7787
▁commands	-11.7788
cus	-11.7797
▁mul	-11.7818
feline	-11.7827
ric	-11.783
▁remembers	-11.783
dix	-11.7831
▁pra	-11.7841
els	-11.7844
nch	-11.785
▁lapse	-11.786
▁preten	-11.7862
▁shee	-11.7878
enni	-11.7878
mph	-11.7895
iti	-11.791
anford	-11.7928
▁tips	-11.793
▁halls	-11.7939
olar	-11.7949
des	-11.7956
mus	-11.7977
▁trusting	-11.7981
gan	-11.7986
▁bothers	-11.7998
▁evi	-11.8007
▁lur	-11.8011
are	-11.8013
tile	-11.8014
see	-11.8025
ewer	-11.8031
ened	-11.8035
nova	-11.8049
dated	-11.8058
▁vid	-11.8059
▁purchas	-11.8067
▁et	-11.8085
▁sportsman	-11.8087
this	-11.8087
▁fla	-11.8089
▁oceans	-11.81
tel	-11.8103
▁sui	-11.8103
ula	-11.8104
▁corners	-11.811
ments	-11.8123
mark	-11.8128
ament	-11.8135
▁presum	-11.8137
▁gar	-11.814
▁farms	-11.8145
▁stripe	-11.8147
bal	-11.8147
▁rudys	-11.8155
▁pickle	-11.8168
ington	-11.8171
ex	-11.8172
▁ser	-11.8182
lon	-11.8188
act	-11.8204
▁fra	-11.8218
▁sil	-11.8227
urst	-11.8229
▁speculate	-11.8233
six	-11.8238
iers	-11.8242
▁simpl	-11.8252
iled	-11.8254
▁circulate	-11.8256
▁hid	-11.8265
▁shops	-11.8265
▁alarms	-11.8265
▁visits	-11.8275
ook	-11.8277
look	-11.8282
▁allie	-11.8289
ash	-11.8308
▁hips	-11.8309
bait	-11.8313
▁daf	-11.8319
▁att	-11.8323
ami	-11.8326
▁ofa	-11.8341
car	-11.8342
▁concept	-11.8354
▁poster	-11.8372
ellar	-11.8407
▁fib	-11.8412
▁ironic	-11.8426
sell	-11.8433
isla	-11.8437
fitting	-11.8442
▁remark	-11.8455
quat	-11.8455
▁marg	-11.8464
▁breaths	-11.847
qu	-11.8477
▁rung	-11.8494
ron	-11.85
▁tract	-11.8502
ell	-11.8503
▁bronto	-11.8507
ites	-11.851
aya	-11.8529
▁wit	-11.8541
intel	-11.8548
bone	-11.8566
ji	-11.8567
rano	-11.8568
state	-11.8574
▁missions	-11.8579
▁dinners	-11.8582
cin	-11.8584
▁gl	-11.8592
ust	-11.8607
lar	-11.8618
ito	-11.8623
▁scor	-11.8657
▁sod	-11.8671
long	-11.8678
▁disrupt	-11.8678
aah	-11.8684
▁nam	-11.8691
▁newly	-11.8701
enses	-11.8731
▁observa	-11.8748
▁hu	-11.8766
ggin	-11.8767
unch	-11.8771
▁kitchens	-11.8772
▁singles	-11.8787
▁gag	-11.8788
dome	-11.8796
uri	-11.8804
▁whwh	-11.8811
▁dyna	-11.8815
▁earths	-11.8825
bra	-11.8849
were	-11.8866
loo	-11.8868
contented	-11.8875
tone	-11.8875
▁moons	-11.8883
▁prep	-11.8886
▁prob	-11.8893
five	-11.8915
hopper	-11.8924
sty	-11.8925
▁hun	-11.8926
▁felin	-11.8927
gne	-11.8928
▁builds	-11.8938
▁lands	-11.8963
▁ful	-11.8967
quet	-11.8976
▁glo	-11.8979
▁whites	-11.8993
arry	-11.8997
▁proven	-11.9012
▁just	-11.9029
abbing	-11.9032
egian	-11.9033
muller	-11.9034
itch	-11.9037
▁northw	-11.9044
ology	-11.9072
▁pia	-11.9077
▁cre	-11.908
oc	-11.9081
▁watering	-11.9081
▁tre	-11.9107
▁swords	-11.9129
zzling	-11.9132
lau	-11.9144
burs	-11.917
▁youyou	-11.917
▁viola	-11.9176
▁replica	-11.9188
hell	-11.9194
▁execut	-11.9195
ters	-11.9207
▁noses	-11.9208
▁disc	-11.9217
att	-11.9224
mate	-11.9227
yyou	-11.9231
▁visual	-11.9237
ional	-11.9243
▁reproduc	-11.9245
▁bbb	-11.9245
cca	-11.9255
▁sk	-11.9275
egory	-11.9295
▁author	-11.9296
list	-11.9302
▁tex	-11.9302
cted	-11.9303
▁greens	-11.9304
▁comp	-11.9325
rais	-11.9328
▁declar	-11.9336
▁cobb	-11.9339
▁will	-11.9342
▁trans	-11.9343
▁pac	-11.9345
▁scholar	-11.9352
▁perpetrator	-11.9352
▁parasol	-11.9352
▁cereal	-11.9352
▁violation	-11.9353
▁bracelet	-11.9354
▁fluid	-11.9354
▁tinker	-11.9354
▁bot	-11.9355
▁beetle	-11.9356
▁roar	-11.9357
▁gown	-11.9358
ieve	-11.9358
▁carpenter	-11.9358
burger	-11.936
▁killers	-11.9362
▁hamburger	-11.9363
▁vent	-11.9364
hard	-11.9365
▁cheek	-11.9368
▁application	-11.9369
▁restraint	-11.937
▁rodent	-11.9371
▁belief	-11.9375
▁jeep	-11.9375
pad	-11.9376
▁meadow	-11.9377
▁vegetable	-11.9377
▁ankle	-11.9377
▁wasp	-11.9377
▁ribbon	-11.9377
▁kart	-11.9377
▁diversion	-11.9378
▁barrel	-11.9379
▁donation	-11.938
▁chemical	-11.9382
▁collector	-11.9382
▁underhill	-11.9384
▁predator	-11.9384
▁initial	-11.9386
gen	-11.9386
▁maiden	-11.9389
▁detail	-11.9389
▁cackle	-11.939
▁critter	-11.939
▁andrew	-11.9391
han	-11.9392
cci	-11.9394
▁fist	-11.9396
▁ou	-11.9396
▁crow	-11.9396
▁height	-11.9396
▁zord	-11.9396
anger	-11.9397
▁sideline	-11.9397
▁tow	-11.9398
▁gru	-11.94
▁ara	-11.9402
▁firework	-11.9403
▁steven	-11.9404
▁rick	-11.9404
nson	-11.9408
▁acre	-11.9412
▁publisher	-11.9415
▁shoplift	-11.9417
youve	-11.9418
meter	-11.9418
▁shutter	-11.942
ood	-11.943
▁lou	-11.9431
▁bran	-11.9434
ooh	-11.9434
done	-11.9434
▁compar	-11.9448
rid	-11.945
▁stable	-11.945
▁ranger	-11.9451
▁lala	-11.9451
▁surviv	-11.9456
▁shel	-11.9462
▁defen	-11.9465
▁dec	-11.9469
▁garde	-11.9469
▁fiance	-11.947
▁backward	-11.947
pack	-11.9474
job	-11.9475
productive	-11.9475
▁deals	-11.9476
lf	-11.948
▁receiv	-11.9481
▁crim	-11.9484
▁laker	-11.9485
worth	-11.9488
▁semi	-11.9488
▁yelp	-11.949
▁stitch	-11.9492
▁discover	-11.9493
▁rewind	-11.9494
▁satisfy	-11.9494
▁squirt	-11.9494
▁brid	-11.9494
▁nurs	-11.9495
▁numero	-11.9497
▁spook	-11.9497
▁accord	-11.9498
▁doe	-11.95
▁oaf	-11.9501
▁condemn	-11.9502
▁pla	-11.9503
▁dismiss	-11.9503
▁foundation	-11.9503
smar	-11.9503
maid	-11.9503
▁depart	-11.9504
huh	-11.9504
stage	-11.9505
ency	-11.9505
place	-11.9506
▁whoosh	-11.9506
shoot	-11.9506
▁shudder	-11.9507
▁promot	-11.9508
▁stack	-11.9508
char	-11.9508
▁divert	-11.9509
▁strand	-11.9509
▁consult	-11.951
ricket	-11.951
oxide	-11.9511
tem	-11.9511
wipe	-11.9513
guard	-11.9513
paper	-11.9514
pro	-11.9514
acceptable	-11.9514
dressed	-11.9514
mutt	-11.9515
makers	-11.9515
daughter	-11.9515
portrait	-11.9515
horn	-11.9515
through	-11.9516
galactic	-11.9516
confirmed	-11.9516
▁guil	-11.9516
▁treacher	-11.9516
sauce	-11.9516
standing	-11.9516
mouth	-11.9517
bonnet	-11.9517
beep	-11.9517
bombs	-11.9517
code	-11.9517
service	-11.9517
direct	-11.9517
text	-11.9517
fault	-11.9517
minute	-11.9517
brother	-11.9517
sure	-11.9517
three	-11.9517
carrying	-11.9517
breath	-11.9517
▁crisp	-11.9517
yeah	-11.9518
cro	-11.9518
peach	-11.9518
▁juli	-11.9518
maybe	-11.9519
fran	-11.9519
making	-11.952
▁conclude	-11.952
wear	-11.952
hale	-11.952
win	-11.952
▁arc	-11.952
▁possibilit	-11.9521
▁monaster	-11.9521
writer	-11.9521
lookin	-11.9521
taking	-11.9521
▁shred	-11.9522
letter	-11.9522
▁fuzz	-11.9522
▁virtual	-11.9523
▁flawless	-11.9523
rigging	-11.9523
dale	-11.9523
▁drawer	-11.9523
butt	-11.9524
shooter	-11.9524
▁triumphant	-11.9524
▁technical	-11.9525
▁stead	-11.9525
▁hamburg	-11.9525
▁convey	-11.9525
maggie	-11.9526
lost	-11.9526
game	-11.9527
▁creativ	-11.9527
▁unbelievabl	-11.9528
▁aqu	-11.9528
▁grin	-11.9528
▁karat	-11.9528
▁confi	-11.953
mature	-11.9531
▁premier	-11.9531
▁excit	-11.9531
itude	-11.9531
▁fro	-11.9532
▁potato	-11.9532
keep	-11.9533
▁teen	-11.9533
▁pester	-11.9533
▁critic	-11.9533
▁ambitio	-11.9534
▁neutr	-11.9534
▁froze	-11.9534
▁inhal	-11.9534
▁definite	-11.9534
minus	-11.9534
▁russia	-11.9534
▁princip	-11.9534
▁intent	-11.9534
▁inspect	-11.9534
▁sip	-11.9534
lent	-11.9534
▁bandage	-11.9535
▁mario	-11.9536
▁televisi	-11.9536
flex	-11.9536
▁hawk	-11.9536
▁blix	-11.9536
▁mamma	-11.9536
▁interrogat	-11.9536
oint	-11.9536
▁walt	-11.9536
▁alcohol	-11.9536
ngeles	-11.9537
▁barbar	-11.9537
▁felon	-11.9537
▁hallucin	-11.9537
▁transit	-11.9537
▁brutal	-11.9537
▁eligib	-11.9537
worthy	-11.9538
ruly	-11.9538
▁raisin	-11.9538
▁squaw	-11.9538
▁rival	-11.9538
▁moral	-11.9538
equently	-11.9538
▁slob	-11.9538
along	-11.9538
▁despera	-11.9539
▁volt	-11.9539
▁meteor	-11.9539
▁rhine	-11.9539
incomprehensible	-11.9539
nsubstantiat	-11.9539
pharmac	-11.9539
relevant	-11.9539
zilla	-11.9539
▁abbott	-11.9539
▁absence	-11.9539
▁adelaide	-11.9539
▁adrienne	-11.9539
▁adrift	-11.9539
▁afloat	-11.9539
▁agencies	-11.9539
▁alistair	-11.9539
▁altar	-11.9539
▁alternative	-11.9539
▁alternator	-11.9539
▁amelia	-11.9539
▁anemone	-11.9539
▁angrily	-11.9539
▁appetizer	-11.9539
▁argentin	-11.9539
▁arkansas	-11.9539
▁artificial	-11.9539
▁audio	-11.9539
▁avalanche	-11.9539
▁aviation	-11.9539
▁bachelor	-11.9539
▁backfiring	-11.9539
▁baggage	-11.9539
▁balcony	-11.9539
▁batsignal	-11.9539
▁beagle	-11.9539
▁beastmaster	-11.9539
▁behaving	-11.9539
▁benefactor	-11.9539
▁bermuda	-11.9539
▁bertrand	-11.9539
▁bombardment	-11.9539
▁boogie	-11.9539
▁brethren	-11.9539
▁britannic	-11.9539
▁brochure	-11.9539
▁butterfingers	-11.9539
▁castiglione	-11.9539
▁cecily	-11.9539
▁ceramic	-11.9539
▁challenging	-11.9539
▁chappaquiddick	-11.9539
▁cheetah	-11.9539
▁chickenshit	-11.9539
▁chrissake	-11.9539
▁circumnavigat	-11.9539
▁clarity	-11.9539
▁compensate	-11.9539
▁competitor	-11.9539
▁conflict	-11.9539
▁cymbal	-11.9539
▁dawdle	-11.9539
▁deborah	-11.9539
▁deceive	-11.9539
▁deliberate	-11.9539
▁delicate	-11.9539
▁demolition	-11.9539
▁detach	-11.9539
▁detroit	-11.9539
▁devilmaycare	-11.9539
▁devlin	-11.9539
▁dictionary	-11.9539
▁disconnect	-11.9539
▁distress	-11.9539
▁doorknob	-11.9539
▁dosido	-11.9539
▁eggplant	-11.9539
▁embroider	-11.9539
▁encyclopedia	-11.9539
▁enquire	-11.9539
▁equivalent	-11.9539
▁errand	-11.9539
▁escapo	-11.9539
▁eureka	-11.9539
▁exclusive	-11.9539
▁expand	-11.9539
▁facetoface	-11.9539
▁ferguson	-11.9539
▁fugitive	-11.9539
▁furtillo	-11.9539
▁gaulle	-11.9539
▁giddap	-11.9539
▁glaucus	-11.9539
▁goblins	-11.9539
▁goosebumps	-11.9539
▁grammar	-11.9539
▁gretchen	-11.9539
▁grizabella	-11.9539
▁growltiger	-11.9539
▁gwyn	-11.9539
▁gypsies	-11.9539
▁harbour	-11.9539
▁hebertot	-11.9539
▁heehee	-11.9539
▁heirloom	-11.9539
▁highstrung	-11.9539
▁hiphip	-11.9539
▁hitchhiking	-11.9539
▁houghton	-11.9539
▁hudnutt	-11.9539
▁hypothalamus	-11.9539
▁imperative	-11.9539
▁inappropriate	-11.9539
▁incapacitate	-11.9539
▁increasing	-11.9539
▁inevitable	-11.9539
▁infestation	-11.9539
▁insubordination	-11.9539
▁intervention	-11.9539
▁intestine	-11.9539
▁invincible	-11.9539
▁kamikaze	-11.9539
▁kanuthia	-11.9539
▁kazoo	-11.9539
▁kgsc	-11.9539
▁kosher	-11.9539
▁lamborghini	-11.9539
▁laviron	-11.9539
▁lettuce	-11.9539
▁licence	-11.9539
▁lodging	-11.9539
▁lolita	-11.9539
▁luxury	-11.9539
▁madonna	-11.9539
▁maggot	-11.9539
▁malaria	-11.9539
▁malibu	-11.9539
▁mandatory	-11.9539
▁matrimony	-11.9539
▁mattress	-11.9539
▁memsahib	-11.9539
▁mercenary	-11.9539
▁michigan	-11.9539
▁milady	-11.9539
▁miniature	-11.9539
▁minivan	-11.9539
▁miriam	-11.9539
▁mischie	-11.9539
▁misguided	-11.9539
▁morocco	-11.9539
▁mosquitoes	-11.9539
▁mozart	-11.9539
▁mubi	-11.9539
▁musicmusic	-11.9539
▁mutual	-11.9539
▁nifty	-11.9539
▁nintendo	-11.9539
▁nomolos	-11.9539
▁nowadays	-11.9539
▁occupy	-11.9539
▁offlimits	-11.9539
▁ordeal	-11.9539
▁overflow	-11.9539
▁overseas	-11.9539
▁pablo	-11.9539
▁paragraph	-11.9539
▁parrot	-11.9539
▁participat	-11.9539
▁penicillin	-11.9539
▁perignon	-11.9539
▁perpendicular	-11.9539
▁persecute	-11.9539
▁persuasi	-11.9539
▁phineus	-11.9539
▁phoenix	-11.9539
▁physician	-11.9539
▁platypus	-11.9539
▁plonker	-11.9539
▁porcupine	-11.9539
▁precinct	-11.9539
▁prehistor	-11.9539
▁prescott	-11.9539
▁preserving	-11.9539
▁pritchard	-11.9539
▁prostitution	-11.9539
▁psychiatrist	-11.9539
▁puddleduck	-11.9539
▁purcell	-11.9539
▁quimby	-11.9539
▁ramrod	-11.9539
▁rehearsing	-11.9539
▁relapse	-11.9539
▁reliable	-11.9539
▁remix	-11.9539
▁removal	-11.9539
▁renegade	-11.9539
▁resemble	-11.9539
▁resurrect	-11.9539
▁retching	-11.9539
▁reunion	-11.9539
▁riffraff	-11.9539
▁riviera	-11.9539
▁robistat	-11.9539
▁rommel	-11.9539
▁rottweiler	-11.9539
▁sapporo	-11.9539
▁sartre	-11.9539
▁satscram	-11.9539
▁scenario	-11.9539
▁scrutin	-11.9539
▁selfdestruct	-11.9539
▁selfrespect	-11.9539
▁sensible	-11.9539
▁shampoo	-11.9539
▁shoelaces	-11.9539
▁smuggle	-11.9539
▁snorts	-11.9539
▁software	-11.9539
▁sorority	-11.9539
▁spaghetti	-11.9539
▁spontaneous	-11.9539
▁stammering	-11.9539
▁starspangled	-11.9539
▁stoller	-11.9539
▁strategically	-11.9539
▁strauss	-11.9539
▁streetlamp	-11.9539
▁sturgis	-11.9539
▁substance	-11.9539
▁substantial	-11.9539
▁subversive	-11.9539
▁suffice	-11.9539
▁sufficient	-11.9539
▁superhero	-11.9539
▁surveillance	-11.9539
▁suspension	-11.9539
▁sutton	-11.9539
▁swarthou	-11.9539
▁sycamore	-11.9539
▁sympathetic	-11.9539
▁synchroniz	-11.9539
▁syndrome	-11.9539
▁syphilis	-11.9539
▁tantrum	-11.9539
▁terrain	-11.9539
▁territory	-11.9539
▁transients	-11.9539
▁translator	-11.9539
▁treason	-11.9539
▁tshirt	-11.9539
▁tuscany	-11.9539
▁twig	-11.9539
▁unamerican	-11.9539
▁unbeatable	-11.9539
▁uncommon	-11.9539
▁unemployment	-11.9539
▁unprecedented	-11.9539
▁unreasonable	-11.9539
▁valentine	-11.9539
▁varmints	-11.9539
▁ventriloquist	-11.9539
▁vicinity	-11.9539
▁vigilante	-11.9539
▁vigusian	-11.9539
▁volleyball	-11.9539
▁vootstaps	-11.9539
▁walkietalkie	-11.9539
▁warfare	-11.9539
▁warthog	-11.9539
▁werewolves	-11.9539
▁westminster	-11.9539
▁whereabouts	-11.9539
▁wigwam	-11.9539
▁wrath	-11.9539
▁wrestling	-11.9539
▁yabbadabbadoo	-11.9539
▁yosef	-11.9539
▁youtube	-11.9539
▁ziegler	-11.9539
▁belgian	-11.9539
▁facilitat	-11.9539
▁irrational	-11.9539
▁reconsider	-11.9539
▁shanghai	-11.9539
▁swift	-11.9539
▁absorb	-11.9539
▁booger	-11.9539
▁bueno	-11.9539
▁conjur	-11.9539
▁dalton	-11.9539
▁devon	-11.9539
▁fingernails	-11.9539
▁grumbles	-11.9539
▁hardcore	-11.9539
▁ionely	-11.9539
▁kattie	-11.9539
▁kgb	-11.9539
▁oval	-11.9539
▁proportion	-11.9539
▁prude	-11.9539
▁refrain	-11.9539
▁scenes	-11.9539
▁stench	-11.9539
▁trembling	-11.9539
▁tsavo	-11.9539
▁twanging	-11.9539
▁watertight	-11.9539
▁haiya	-11.9539
▁hilde	-11.9539
▁hillbill	-11.9539
▁noisy	-11.9539
▁ravishing	-11.9539
▁ryley	-11.9539
▁spectacular	-11.9539
▁stewart	-11.9539
▁transaction	-11.9539
▁tuxedo	-11.9539
▁bacteri	-11.9539
▁bolinari	-11.9539
▁christoph	-11.9539
▁fiesta	-11.9539
▁hurleys	-11.9539
▁limoges	-11.9539
▁respirat	-11.9539
▁surprising	-11.9539
▁vulcan	-11.9539
▁acoustic	-11.9539
▁algebra	-11.9539
▁collateral	-11.9539
▁disclos	-11.9539
▁discourage	-11.9539
▁hogwash	-11.9539
▁incision	-11.9539
▁perkins	-11.9539
▁thudding	-11.9539
criminat	-11.9539
▁boosters	-11.9539
▁skunk	-11.9539
▁gird	-11.9539
▁splatter	-11.9539
▁teleport	-11.9539
▁boulder	-11.9539
▁brazilian	-11.9539
▁snatched	-11.9539
▁tweet	-11.9539
snatch	-11.9539
▁crossroads	-11.9539
▁ignorant	-11.9539
▁lapcat	-11.9539
▁levy	-11.9539
▁shakily	-11.9539
▁sorceress	-11.9539
▁spiritual	-11.9539
▁squid	-11.9539
▁drumroll	-11.9539
▁fraternity	-11.9539
▁gingerbread	-11.9539
▁handiwork	-11.9539
▁immense	-11.9539
▁magnifique	-11.9539
▁sixyearolds	-11.9539
▁slamming	-11.9539
▁steward	-11.9539
▁savor	-11.9539
▁shaq	-11.9539
▁twitters	-11.9539
▁woodruff	-11.9539
▁alfred	-11.9539
▁beggar	-11.9539
▁glamour	-11.9539
▁mistreat	-11.9539
▁patriotism	-11.9539
▁rejoic	-11.9539
▁yodel	-11.9539
▁alphabet	-11.9539
▁cecilia	-11.9539
▁douglas	-11.9539
▁grotesque	-11.9539
▁probability	-11.9539
▁satanists	-11.9539
▁taiwan	-11.9539
parallel	-11.9539
▁illuminat	-11.9539
▁unstable	-11.9539
▁reanimati	-11.9539
▁steelgrave	-11.9539
▁communities	-11.9539
▁delegate	-11.9539
▁tuttle	-11.9539
▁alligator	-11.9539
▁woolworth	-11.9539
▁horizon	-11.9539
▁aero	-11.9539
▁awakened	-11.9539
▁fascist	-11.9539
▁pocketknife	-11.9539
▁ahora	-11.9539
▁chowder	-11.9539
▁mythology	-11.9539
▁sinuses	-11.9539
onscreen	-11.9539
▁charging	-11.9539
▁copilot	-11.9539
▁salvatore	-11.9539
▁yourjob	-11.9539
▁arcade	-11.9539
▁dormez	-11.9539
▁handicapped	-11.9539
▁hendricks	-11.9539
▁jenni	-11.9539
▁eyelash	-11.9539
▁immunologist	-11.9539
▁destructive	-11.9539
▁vineyard	-11.9539
ipher	-11.9539
▁overslept	-11.9539
▁teensy	-11.9539
▁economic	-11.9539
▁gigantic	-11.9539
▁mimicking	-11.9539
▁ninetyeight	-11.9539
▁depriv	-11.9539
▁enslave	-11.9539
▁recycl	-11.9539
▁consciousness	-11.9539
▁housing	-11.9539
▁jeering	-11.9539
▁liquorice	-11.9539
▁oneeighty	-11.9539
▁scurry	-11.9539
▁swimsuit	-11.9539
▁butler	-11.9539
▁clich	-11.9539
▁skating	-11.9539
▁accusation	-11.9539
▁spyglass	-11.9539
▁tapestries	-11.9539
▁waffle	-11.9539
▁bankruptcy	-11.9539
▁lonesome	-11.9539
▁testimony	-11.9539
auze	-11.9539
▁bragging	-11.9539
▁lalalalaa	-11.9539
▁windmill	-11.9539
▁paddle	-11.9539
▁murk	-11.9539
raham	-11.9539
▁apron	-11.9539
▁bubbling	-11.9539
▁moreau	-11.9539
▁donkey	-11.9539
▁salvat	-11.9539
kiki	-11.9539
▁fingerprint	-11.9539
▁merge	-11.9539
▁yuk	-11.9539
▁provision	-11.9539
▁ignition	-11.9539
▁manipulation	-11.9539
▁subsidies	-11.9539
▁awhile	-11.9539
▁hush	-11.9539
▁gretta	-11.9539
▁celest	-11.9539
▁bartending	-11.9539
▁pottersville	-11.9539
▁radiant	-11.9539
▁trotte	-11.9539
▁finley	-11.954
▁daydream	-11.954
▁blouse	-11.954
▁flank	-11.954
▁pillaging	-11.954
▁stripper	-11.954
▁fiji	-11.954
▁petals	-11.954
▁witty	-11.954
▁biology	-11.954
▁meyer	-11.954
▁thataway	-11.954
▁translating	-11.954
▁clanking	-11.954
▁sevenandahalf	-11.954
▁socializing	-11.954
▁conceiv	-11.954
▁beauties	-11.954
▁heap	-11.954
▁herpe	-11.954
shire	-11.954
▁infamous	-11.954
▁blunt	-11.954
▁overgrown	-11.954
▁phenomenon	-11.954
▁frodo	-11.954
▁jellyfish	-11.954
▁sought	-11.954
▁tunis	-11.954
▁headphones	-11.954
▁pavement	-11.954
▁prosperity	-11.954
▁slant	-11.954
harlem	-11.954
▁upward	-11.954
uppy	-11.954
▁curator	-11.954
▁edith	-11.954
▁scatter	-11.954
▁polaris	-11.954
▁enthusiasm	-11.954
▁lasso	-11.954
▁cheerio	-11.954
▁iook	-11.954
▁mutated	-11.954
▁affectionate	-11.954
lain	-11.954
▁taime	-11.954
▁cynic	-11.954
▁bentley	-11.954
▁cobra	-11.954
▁valet	-11.954
▁carved	-11.954
▁diggin	-11.954
▁spleen	-11.954
▁steed	-11.954
▁twit	-11.954
▁unorthodox	-11.954
▁moray	-11.954
▁tiis	-11.954
▁buena	-11.954
▁francois	-11.954
▁allez	-11.954
▁mantis	-11.954
▁tusk	-11.954
▁ofthis	-11.954
▁simmer	-11.954
owski	-11.954
▁taik	-11.954
▁journalism	-11.954
▁amusement	-11.954
▁chooch	-11.954
▁nutrition	-11.954
▁initiating	-11.954
▁rustlers	-11.954
▁boast	-11.954
▁vroom	-11.954
▁biologist	-11.954
▁wiil	-11.954
▁intro	-11.954
▁morality	-11.954
▁coordinator	-11.954
▁doris	-11.954
enburg	-11.954
▁compulsion	-11.954
▁overlook	-11.954
▁couch	-11.954
▁kitties	-11.9541
▁overdue	-11.9541
▁buggy	-11.9541
▁sims	-11.9541
▁blaine	-11.9541
▁carolina	-11.9541
▁toad	-11.9541
▁henchm	-11.9541
▁rustling	-11.9541
▁blueprint	-11.9541
▁morphine	-11.9541
▁cinch	-11.9541
▁flaw	-11.9541
▁huan	-11.9541
▁emerge	-11.9541
▁hamper	-11.9541
▁tenfour	-11.9541
▁coveted	-11.9541
▁revive	-11.9541
▁dominan	-11.9541
▁facial	-11.9541
▁traveller	-11.9541
▁roja	-11.9541
▁concentration	-11.9541
▁panther	-11.9541
▁retract	-11.9541
▁petition	-11.9541
▁cartoonist	-11.9541
▁shack	-11.9541
▁verme	-11.9541
▁janitor	-11.9541
▁hatchday	-11.9541
▁greetham	-11.9541
▁loco	-11.9541
▁iight	-11.9541
▁pesky	-11.9541
▁beau	-11.9541
▁accordion	-11.9541
▁felonies	-11.9541
▁washroom	-11.9541
▁crail	-11.9541
▁swamp	-11.9541
▁chomper	-11.9541
▁eww	-11.9541
▁keypad	-11.9541
▁dojo	-11.9541
▁suitcase	-11.9541
▁superpower	-11.9541
▁foil	-11.9541
umme	-11.9542
▁postcard	-11.9542
▁edition	-11.9542
▁festiv	-11.9542
▁curry	-11.9542
onnie	-11.9542
▁degenerate	-11.9542
▁rosie	-11.9542
▁communicate	-11.9542
▁lime	-11.9542
zak	-11.9542
▁arrow	-11.9542
▁blackmail	-11.9542
▁excre	-11.9542
▁captive	-11.9542
▁alter	-11.9542
▁hal	-11.9542
▁salesman	-11.9542
▁stank	-11.9542
▁groceries	-11.9542
▁orient	-11.9542
tiary	-11.9542
▁colonial	-11.9542
▁snare	-11.9542
▁constitutional	-11.9542
▁contra	-11.9542
▁plung	-11.9542
▁pantry	-11.9542
▁fourfoot	-11.9542
▁hypothetically	-11.9542
▁theoretically	-11.9542
▁bookstore	-11.9543
▁ofhere	-11.9543
▁booze	-11.9543
▁immun	-11.9543
▁swordfish	-11.9543
▁venture	-11.9543
▁toons	-11.9543
▁countries	-11.9543
▁acro	-11.9543
▁fester	-11.9543
▁thigh	-11.9543
legged	-11.9543
▁dragging	-11.9543
nography	-11.9543
▁vogonity	-11.9543
▁whawhat	-11.9543
▁imaginable	-11.9543
▁foolproof	-11.9543
▁factories	-11.9543
▁swine	-11.9543
▁dizzy	-11.9543
▁poofy	-11.9543
▁purity	-11.9543
▁spiffy	-11.9543
▁unfold	-11.9543
▁charleston	-11.9544
▁alas	-11.9544
tron	-11.9544
▁originated	-11.9544
▁normandy	-11.9544
▁shaky	-11.9544
▁mink	-11.9544
▁novelist	-11.9544
▁psychic	-11.9544
new	-11.9544
▁pierre	-11.9544
▁refreshment	-11.9544
▁dingh	-11.9544
▁arghh	-11.9544
▁priorities	-11.9544
▁addiction	-11.9544
▁candida	-11.9544
▁contemplat	-11.9544
▁income	-11.9544
▁hidin	-11.9544
▁galley	-11.9544
▁lard	-11.9544
▁gret	-11.9545
▁preservation	-11.9545
▁maintenance	-11.9545
▁ineff	-11.9545
▁survey	-11.9545
▁discretion	-11.9545
▁physics	-11.9545
▁debut	-11.9545
▁withered	-11.9545
▁slavery	-11.9545
▁suitors	-11.9545
▁calf	-11.9545
▁edna	-11.9545
▁overboard	-11.9545
▁detain	-11.9545
▁bebo	-11.9545
▁continent	-11.9545
▁lounge	-11.9545
▁laura	-11.9545
ftin	-11.9545
▁attraction	-11.9545
▁clapping	-11.9545
▁quail	-11.9545
▁windsor	-11.9545
▁tipper	-11.9546
▁activating	-11.9546
▁unwind	-11.9546
▁visible	-11.9546
▁devine	-11.9546
▁outhouse	-11.9546
▁cooperative	-11.9546
drena	-11.9546
▁jiggle	-11.9546
▁sittin	-11.9546
▁millionaire	-11.9546
▁modified	-11.9546
▁prospect	-11.9546
▁ramsey	-11.9546
▁unarmed	-11.9546
▁snot	-11.9546
▁feedback	-11.9546
▁playground	-11.9547
▁yoga	-11.9547
▁bogus	-11.9547
▁detonat	-11.9547
▁zac	-11.9547
▁compassion	-11.9547
▁ebo	-11.9547
▁grizzly	-11.9547
▁harmonize	-11.9547
▁hittin	-11.9547
▁slapping	-11.9547
▁sixteenth	-11.9547
▁tension	-11.9547
▁ode	-11.9547
▁crater	-11.9548
▁ahold	-11.9548
▁midst	-11.9548
▁candidate	-11.9548
▁fort	-11.9548
▁yapping	-11.9548
▁achievement	-11.9548
▁waddl	-11.9548
▁sanity	-11.9548
▁pug	-11.9548
▁darcy	-11.9548
▁aspiration	-11.9548
▁panel	-11.9549
▁stokely	-11.9549
▁distinctly	-11.9549
▁jingling	-11.9549
string	-11.9549
tv	-11.9549
▁dribbling	-11.9549
▁revolting	-11.9549
▁deem	-11.9549
cold	-11.9549
cool	-11.9549
▁divine	-11.9549
▁shawn	-11.9549
▁jeopardiz	-11.9549
▁rump	-11.9549
▁improvis	-11.9549
▁obsessed	-11.9549
▁catfish	-11.955
aise	-11.955
▁countess	-11.955
▁markham	-11.955
▁vp	-11.955
uff	-11.955
▁haiii	-11.955
▁confide	-11.955
▁satan	-11.955
▁transmitter	-11.955
▁diva	-11.955
▁thaw	-11.955
▁expectations	-11.955
▁senil	-11.955
▁phony	-11.9551
▁frock	-11.9551
▁tora	-11.9551
stian	-11.9551
▁snapped	-11.9551
▁unhappily	-11.9551
▁gloomy	-11.9551
▁devour	-11.9551
▁howl	-11.9552
▁heroism	-11.9552
▁flatten	-11.9552
▁bubby	-11.9552
▁richter	-11.9552
▁rentac	-11.9552
▁playmate	-11.9552
▁luci	-11.9552
▁trumpet	-11.9552
▁accompanied	-11.9552
▁reserved	-11.9553
▁bala	-11.9553
▁stumble	-11.9553
▁conveyor	-11.9553
▁burbl	-11.9554
▁checkmate	-11.9554
▁muddy	-11.9554
▁airfield	-11.9554
holder	-11.9554
▁pub	-11.9554
▁drap	-11.9554
▁indiana	-11.9555
▁fathom	-11.9555
▁toxic	-11.9555
▁carbon	-11.9555
▁einstein	-11.9555
▁scope	-11.9555
▁wiggle	-11.9555
▁whwhat	-11.9555
▁meaningless	-11.9555
▁mayhem	-11.9555
▁hanson	-11.9556
▁repel	-11.9556
abilities	-11.9556
▁ref	-11.9556
▁colombia	-11.9556
▁blindness	-11.9556
▁swore	-11.9557
▁admitted	-11.9557
▁rubies	-11.9557
▁grill	-11.9557
▁reelection	-11.9557
▁junkie	-11.9558
▁heaviest	-11.9558
▁showgirl	-11.9558
▁bandaged	-11.9558
▁yokel	-11.9558
▁guild	-11.9558
▁whist	-11.9558
▁hud	-11.9558
▁footmen	-11.9558
▁exhibition	-11.9558
hacker	-11.9558
▁concluded	-11.9559
▁diner	-11.9559
▁amaze	-11.9559
▁organic	-11.9559
▁corrupted	-11.9559
▁tings	-11.9559
▁spooky	-11.956
▁teeny	-11.956
ylum	-11.956
▁melan	-11.956
▁liarian	-11.956
toxin	-11.956
opsy	-11.956
▁preparation	-11.956
▁bog	-11.9561
▁plumber	-11.9561
▁boyett	-11.9561
▁thoroughly	-11.9561
▁yow	-11.9562
▁herbs	-11.9562
▁tur	-11.9562
▁shortage	-11.9562
▁singoff	-11.9562
▁trainee	-11.9563
▁treasurer	-11.9563
▁dew	-11.9563
▁allah	-11.9564
▁trapping	-11.9564
▁rave	-11.9564
liot	-11.9564
▁ballet	-11.9565
▁lovebirds	-11.9565
▁rigging	-11.9565
▁grandmaster	-11.9566
▁extinction	-11.9566
▁purring	-11.9566
▁entertaining	-11.9566
▁maggie	-11.9566
▁exhausting	-11.9566
▁defendant	-11.9566
▁jap	-11.9566
▁admiring	-11.9567
▁pigg	-11.9567
▁booby	-11.9567
▁negotiation	-11.9567
▁sayaka	-11.9567
▁painless	-11.9567
▁cornerstone	-11.9567
▁ridge	-11.9568
ehen	-11.9568
▁mushy	-11.9568
splend	-11.9568
▁crunchy	-11.9568
▁spank	-11.9568
▁chart	-11.9569
▁payne	-11.9569
▁hillary	-11.9569
▁eta	-11.9569
▁bulldoz	-11.9569
▁bind	-11.9569
▁desertion	-11.957
▁hotter	-11.957
▁gundy	-11.9571
▁intercepted	-11.9571
▁hoop	-11.9571
▁doubtful	-11.9572
▁stud	-11.9572
▁az	-11.9572
▁promoted	-11.9572
▁strainer	-11.9572
▁disable	-11.9573
▁importan	-11.9573
▁ador	-11.9573
▁updated	-11.9574
▁handbag	-11.9574
▁nether	-11.9575
▁culp	-11.9575
orlock	-11.9575
▁airline	-11.9575
▁flint	-11.9575
▁recommendation	-11.9576
▁occasionally	-11.9577
▁iim	-11.9577
ort	-11.9577
▁dorf	-11.9577
▁respectable	-11.9577
▁wager	-11.9577
▁quadlings	-11.9577
▁shillings	-11.9577
▁skirts	-11.9577
▁blossoms	-11.9577
▁endeavors	-11.9577
▁politicians	-11.9577
▁tentacles	-11.9577
▁password	-11.9578
▁dji	-11.9578
▁losses	-11.9578
▁bac	-11.9578
shock	-11.9578
▁pimples	-11.9579
▁lark	-11.9579
▁portal	-11.9579
▁flyby	-11.958
▁countryside	-11.958
ompou	-11.958
▁mona	-11.958
▁gregg	-11.958
▁heartaches	-11.958
▁shaved	-11.9581
▁receiver	-11.9581
▁robo	-11.9581
▁numer	-11.9581
▁superman	-11.9581
▁sole	-11.9582
▁satin	-11.9582
▁hiho	-11.9582
▁hick	-11.9583
▁stout	-11.9583
▁spotlight	-11.9584
▁satisfying	-11.9584
▁squirting	-11.9584
▁consulting	-11.9584
▁hilo	-11.9584
▁manpower	-11.9585
▁summoned	-11.9585
▁kay	-11.9585
▁deposited	-11.9585
▁backstage	-11.9585
▁backpack	-11.9585
▁invested	-11.9586
▁stained	-11.9587
uration	-11.9587
▁bass	-11.9588
▁houseboy	-11.9588
▁sparky	-11.9588
▁tut	-11.9588
▁lollygagg	-11.9588
▁fraud	-11.9588
▁activated	-11.9589
▁witnesses	-11.9589
▁madness	-11.9589
▁gush	-11.9589
▁rubes	-11.9591
▁transmitt	-11.9591
▁unto	-11.9592
elf	-11.9592
▁silky	-11.9592
▁wealthy	-11.9592
▁tick	-11.9593
▁businessmen	-11.9593
▁reply	-11.9593
▁risen	-11.9594
▁emil	-11.9594
▁tenth	-11.9596
birds	-11.9596
▁choked	-11.9596
ophone	-11.9596
▁quake	-11.9596
▁transferring	-11.9598
▁recruited	-11.9599
▁shal	-11.9599
▁declared	-11.9599
▁madman	-11.96
▁flattery	-11.96
▁functioning	-11.9602
attribute	-11.9602
faced	-11.9603
▁loathe	-11.9604
▁tax	-11.9604
▁restored	-11.9604
▁iss	-11.9604
▁trader	-11.9605
▁cashier	-11.9606
▁managing	-11.9606
▁nazi	-11.9607
▁revolv	-11.9608
▁vibrat	-11.9608
▁spl	-11.9608
▁mended	-11.9609
view	-11.9609
▁plac	-11.9609
▁fulfilled	-11.9612
▁recovered	-11.9613
▁blackout	-11.9613
▁complicat	-11.9613
▁coachman	-11.9614
ample	-11.9615
▁frieda	-11.9616
▁madre	-11.9616
cilia	-11.9616
▁paratroop	-11.9617
▁chicky	-11.9618
▁dion	-11.9619
▁faintly	-11.9619
▁sentenced	-11.9619
eve	-11.9619
▁standby	-11.962
▁stillwell	-11.962
▁splashing	-11.962
▁fleeing	-11.962
▁hacking	-11.9621
fold	-11.9622
▁staked	-11.9622
▁kilo	-11.9623
▁chant	-11.9624
esca	-11.9624
▁crooked	-11.9626
▁pickup	-11.9627
arms	-11.9627
▁revv	-11.9627
▁dost	-11.9628
vision	-11.9629
▁signor	-11.963
▁initiati	-11.963
▁stre	-11.9631
▁affected	-11.9631
▁crav	-11.9632
▁ignored	-11.9634
▁gobble	-11.9635
hour	-11.9636
▁threatening	-11.9636
▁nee	-11.9636
▁lyn	-11.9637
nnae	-11.9638
▁heartless	-11.9638
▁cryin	-11.9638
▁shrinking	-11.9638
▁schme	-11.9639
▁conditioner	-11.964
▁bushy	-11.9641
▁blabb	-11.9641
assed	-11.9642
tom	-11.9642
▁observed	-11.9642
mart	-11.9643
▁colleagues	-11.9643
▁lyrics	-11.9643
▁obligations	-11.9643
▁meteorites	-11.9643
▁oats	-11.9644
▁doorway	-11.9644
▁finks	-11.9644
▁separately	-11.9645
ang	-11.9645
▁cripples	-11.9645
▁bagels	-11.9646
▁kar	-11.9647
▁realtor	-11.9647
▁quadr	-11.9647
▁flags	-11.9648
▁eins	-11.9649
▁wisely	-11.9651
▁responded	-11.9652
▁manu	-11.9652
atively	-11.9652
▁pall	-11.9653
▁lana	-11.9654
▁props	-11.9654
▁slums	-11.9655
combe	-11.9656
▁saucer	-11.9656
▁cranking	-11.9657
▁perfection	-11.966
▁hearse	-11.9661
tero	-11.9662
ushi	-11.9662
▁steele	-11.9663
custome	-11.9664
▁sonar	-11.9666
▁fernand	-11.9666
▁perish	-11.9667
▁cite	-11.9668
▁excusez	-11.9668
oaring	-11.9674
fraction	-11.9675
have	-11.9675
▁moody	-11.9677
▁backwater	-11.9679
▁amuse	-11.9681
▁businessman	-11.9682
▁kr	-11.9682
▁tit	-11.9686
▁batt	-11.9686
mortality	-11.9686
▁stormy	-11.9687
▁brew	-11.9688
▁associates	-11.969
ooga	-11.9692
▁complaining	-11.9692
▁lacking	-11.9692
rian	-11.9692
▁admirer	-11.9693
▁walkie	-11.97
▁sharply	-11.9703
▁pon	-11.9705
▁shad	-11.9706
▁riches	-11.9708
▁hom	-11.9709
▁gardener	-11.971
▁beliefs	-11.9712
▁jeeps	-11.9712
▁applications	-11.9712
▁rodents	-11.9712
▁bunker	-11.9712
▁karts	-11.9712
chio	-11.9713
▁collectors	-11.9713
▁sidelines	-11.9716
▁jealousy	-11.9717
▁bella	-11.9718
▁gags	-11.972
▁pointers	-11.9721
▁tights	-11.9723
▁dart	-11.9723
▁hustler	-11.9723
▁traditional	-11.9723
▁warmer	-11.9724
▁publishers	-11.9724
▁diver	-11.9724
▁shootin	-11.9724
sided	-11.9729
▁dashing	-11.9729
▁claiming	-11.9731
udge	-11.9732
▁delayed	-11.9732
▁skiing	-11.9735
tails	-11.9736
▁throwin	-11.9737
▁fisherm	-11.9741
▁tilt	-11.9746
▁stripes	-11.9748
▁shifted	-11.9748
▁healing	-11.9749
name	-11.975
▁dresses	-11.975
▁defi	-11.975
▁qua	-11.975
▁smoked	-11.9753
▁cir	-11.9756
▁ivan	-11.9758
▁repeated	-11.976
▁escorting	-11.9765
▁nesting	-11.9765
▁depending	-11.9768
▁guestion	-11.9771
▁texted	-11.9772
▁rebels	-11.9773
dry	-11.9778
▁aide	-11.9778
▁petunias	-11.9781
▁representatives	-11.9781
▁resid	-11.9782
▁vines	-11.9782
▁sarcastic	-11.9782
onica	-11.9783
▁yanks	-11.9783
▁avoiding	-11.9783
▁flashing	-11.9783
▁leveled	-11.9786
▁borrowed	-11.9786
▁kidneys	-11.9787
▁accuse	-11.9788
stones	-11.9789
▁cot	-11.9792
▁deserved	-11.9794
▁bravely	-11.9794
▁movements	-11.9798
▁miller	-11.98
▁screening	-11.9802
▁insulting	-11.9803
▁performers	-11.9804
stock	-11.9805
▁corpses	-11.9809
▁tee	-11.9813
▁lash	-11.9815
▁hali	-11.982
▁barre	-11.9823
▁hyd	-11.9827
atu	-11.9827
▁rented	-11.9828
▁duet	-11.9832
▁compos	-11.9832
▁stirr	-11.9833
▁honesty	-11.9835
▁rainy	-11.9839
▁munk	-11.9847
▁maniacs	-11.9848
▁uso	-11.985
▁crests	-11.9851
▁references	-11.9851
▁sedatives	-11.9851
▁ancestors	-11.9851
▁ribs	-11.9852
lows	-11.9854
▁funding	-11.9857
▁queer	-11.9857
anne	-11.9862
▁photographer	-11.9863
▁suckers	-11.9864
▁proved	-11.9869
hunter	-11.987
▁relat	-11.987
▁exceptions	-11.9872
▁worshipp	-11.9873
▁touches	-11.9873
▁ros	-11.9877
ica	-11.9878
▁bucking	-11.9879
▁coron	-11.9883
▁printed	-11.9886
mes	-11.9891
▁stocking	-11.9893
▁imitation	-11.9897
▁combin	-11.9901
bang	-11.9901
eek	-11.9906
▁difficulty	-11.9911
▁favorites	-11.9912
empress	-11.992
▁grapes	-11.992
▁trays	-11.9921
▁strokes	-11.9921
▁executives	-11.9921
▁guineas	-11.9921
▁oy	-11.9922
▁expressions	-11.9923
wait	-11.9924
▁chops	-11.9928
bareback	-11.9928
▁suz	-11.9932
▁blinded	-11.9935
▁hums	-11.9939
▁meta	-11.9941
dan	-11.9945
▁slower	-11.9945
▁linen	-11.9949
▁merci	-11.995
▁boiler	-11.9951
cru	-11.9954
▁hiss	-11.9958
ield	-11.996
▁failing	-11.9962
▁tarta	-11.9968
▁commanded	-11.997
nse	-11.9977
▁scrape	-11.9985
▁standards	-11.9991
▁harvests	-11.9992
▁effects	-11.9992
ofthe	-11.9992
▁inventions	-11.9992
▁attracts	-11.9992
▁crooks	-11.9993
▁butyou	-11.9995
▁discharg	-11.9997
▁val	-12
ip	-12
▁remained	-12.0018
pian	-12.0022
donald	-12.0025
▁psychos	-12.0026
aja	-12.0026
site	-12.0029
cop	-12.005
▁backto	-12.0052
▁punt	-12.0057
▁helsings	-12.0063
▁classics	-12.0063
▁increases	-12.0064
▁steamer	-12.0064
▁magicians	-12.0067
▁provides	-12.0068
▁shooter	-12.0069
oodles	-12.0087
ama	-12.0092
▁stationed	-12.0094
▁tags	-12.0094
frig	-12.01
▁wherewe	-12.0102
▁bal	-12.0105
ugging	-12.0115
era	-12.0118
▁bursts	-12.0134
▁squirrels	-12.0134
▁tattoos	-12.0134
▁ornaments	-12.0135
▁musicians	-12.0149
tangle	-12.0156
▁stabb	-12.0165
▁feelin	-12.0171
lights	-12.0177
oobeeday	-12.0179
iggin	-12.018
▁isabell	-12.0184
▁intercept	-12.0191
dagger	-12.0191
▁drying	-12.0192
▁unmar	-12.0193
▁imma	-12.0194
▁asa	-12.0195
▁sci	-12.0196
▁snowing	-12.0196
▁costing	-12.0198
▁pins	-12.02
▁hammers	-12.0204
▁feds	-12.0204
▁misuse	-12.0204
▁oldknows	-12.0206
▁maintains	-12.0207
▁permits	-12.0207
▁muckles	-12.0208
mitch	-12.0213
▁scrubb	-12.0214
▁pott	-12.0218
▁vas	-12.022
bm	-12.0221
▁wedd	-12.0233
▁entre	-12.0234
▁ally	-12.0248
▁daring	-12.0252
▁lighter	-12.0276
▁cowboys	-12.0279
▁tylers	-12.028
▁sheets	-12.028
▁articles	-12.0281
▁succeeds	-12.0281
▁justif	-12.0288
▁floati	-12.0289
▁cracker	-12.029
mile	-12.0306
years	-12.0311
▁coll	-12.0315
▁pranc	-12.0319
little	-12.032
▁radios	-12.0332
almy	-12.0339
▁outfits	-12.0339
▁heals	-12.0347
position	-12.0348
▁funerals	-12.0352
▁comrades	-12.0352
▁relationships	-12.0352
▁chapters	-12.0353
▁punks	-12.0353
▁disar	-12.0361
▁victimize	-12.0363
▁goats	-12.0371
fax	-12.0388
▁babysitt	-12.0389
▁tai	-12.0402
rett	-12.0405
▁greenly	-12.0414
▁unders	-12.042
▁callin	-12.042
▁occasions	-12.0424
▁medals	-12.0426
▁locations	-12.0427
aka	-12.0427
▁patients	-12.0427
▁confirms	-12.043
▁evolve	-12.0431
orda	-12.0433
tine	-12.0438
▁fighters	-12.044
hopped	-12.0441
yourself	-12.0442
▁shun	-12.0446
▁molest	-12.0465
▁mentioning	-12.0471
▁luc	-12.0473
lines	-12.0481
▁swearing	-12.0488
sfield	-12.0489
fucking	-12.0495
▁horsey	-12.0498
▁concerts	-12.05
ragged	-12.05
▁announcements	-12.0502
▁receives	-12.051
▁feeder	-12.0517
▁bea	-12.0522
ammo	-12.0526
▁tang	-12.0537
▁lordy	-12.0541
▁belch	-12.0542
▁hive	-12.0543
▁committ	-12.0545
yde	-12.0557
▁bombing	-12.0573
ging	-12.0574
▁largos	-12.0575
▁malfunctions	-12.0575
▁endings	-12.0579
▁peas	-12.0588
uses	-12.0592
▁fare	-12.0596
mail	-12.0616
yi	-12.0623
chi	-12.0639
titude	-12.0648
▁edges	-12.065
▁thursdays	-12.065
▁individuals	-12.065
▁palms	-12.0651
lam	-12.0651
▁shifts	-12.0653
lumber	-12.0655
nard	-12.0697
▁bod	-12.071
▁devices	-12.0726
▁nooo	-12.0729
▁styli	-12.0751
▁decorat	-12.0752
▁jumping	-12.0752
▁pots	-12.0753
▁hippi	-12.0766
▁sparkl	-12.0768
sium	-12.0768
izing	-12.0775
▁archi	-12.0781
▁mortals	-12.08
▁dolls	-12.0801
▁williams	-12.0801
▁storms	-12.0805
▁suffers	-12.0805
ines	-12.0809
jinx	-12.0809
▁baz	-12.0816
▁insolen	-12.0817
▁stella	-12.0825
rie	-12.0825
▁boob	-12.0837
dz	-12.0845
backs	-12.0863
con	-12.0865
▁penetrat	-12.0877
▁values	-12.0878
▁fortunes	-12.0878
▁waitin	-12.0885
ettes	-12.0887
▁barbi	-12.0891
▁abb	-12.0895
▁closely	-12.0896
tical	-12.0908
▁sensitiv	-12.091
▁geo	-12.0935
lea	-12.0939
▁picky	-12.094
▁nets	-12.0948
oodoo	-12.0948
▁cora	-12.0952
dable	-12.0957
nn	-12.0961
▁supervise	-12.0966
▁motions	-12.1034
tard	-12.1035
▁lath	-12.1039
aft	-12.1068
▁homer	-12.1078
▁sanct	-12.1116
▁by	-12.1118
▁nos	-12.112
ester	-12.1124
bber	-12.1149
awayfrom	-12.1152
▁associate	-12.1153
▁butterfl	-12.1165
▁did	-12.1169
▁corr	-12.1237
nny	-12.1241
genev	-12.1243
▁paths	-12.1254
manship	-12.126
mming	-12.1271
▁trim	-12.1282
▁beth	-12.1286
▁bows	-12.1287
var	-12.1296
▁blot	-12.1298
rad	-12.1305
▁quin	-12.1313
▁threefift	-12.1315
ria	-12.1337
▁graceful	-12.1339
▁jud	-12.1344
▁parachute	-12.1348
▁saturdays	-12.1349
ardo	-12.1351
▁rows	-12.1355
usa	-12.1366
▁wilt	-12.1373
▁kinder	-12.1379
▁prov	-12.1389
leg	-12.1401
astic	-12.1414
▁assistants	-12.143
ado	-12.1432
▁regrets	-12.1438
▁baths	-12.1459
▁psycholog	-12.1484
▁chatt	-12.1489
otto	-12.1499
tner	-12.1504
tell	-12.1506
▁keny	-12.1507
▁challenges	-12.1515
▁zarkin	-12.1546
▁boon	-12.1568
pee	-12.1573
ker	-12.1576
sage	-12.1577
▁dens	-12.1591
▁smokes	-12.1595
▁cameo	-12.1614
▁sayin	-12.1617
▁gr	-12.1618
▁prick	-12.1624
stical	-12.1629
▁dumps	-12.1666
▁ger	-12.1671
▁opinions	-12.1673
▁ci	-12.1686
▁trades	-12.1708
▁ovo	-12.1719
sb	-12.1721
isc	-12.1746
▁grandda	-12.175
aked	-12.1779
undance	-12.1785
mas	-12.1794
ttering	-12.1796
vin	-12.1803
gated	-12.1809
andy	-12.1837
▁mos	-12.1868
lery	-12.1888
persona	-12.1918
▁philipp	-12.1933
omer	-12.1945
ocked	-12.197
▁skim	-12.1984
▁stat	-12.2005
▁plu	-12.2012
gui	-12.203
▁despis	-12.2039
▁bowls	-12.205
▁laps	-12.2065
aron	-12.2071
▁adventur	-12.2078
ple	-12.2126
ias	-12.213
ide	-12.2141
av	-12.2157
cell	-12.2165
▁gaz	-12.2173
▁shar	-12.2187
shed	-12.2202
▁heis	-12.223
erm	-12.2269
auf	-12.2277
▁tog	-12.2289
▁dro	-12.2294
▁astra	-12.2298
▁jell	-12.2302
▁pretti	-12.2302
▁why	-12.231
agging	-12.2333
eline	-12.2339
oohoohoo	-12.2342
▁turb	-12.2356
ila	-12.2385
ven	-12.2397
ummy	-12.2402
▁graz	-12.2404
▁micro	-12.2415
bble	-12.2419
▁ent	-12.244
▁envi	-12.2442
rk	-12.2444
▁oop	-12.2455
▁cam	-12.246
hr	-12.246
addie	-12.2484
▁organiz	-12.2496
ille	-12.25
poli	-12.2503
ire	-12.2521
▁parm	-12.2526
doo	-12.2543
▁devi	-12.2545
aca	-12.2571
fied	-12.2576
aby	-12.2593
▁sever	-12.2606
tow	-12.2631
most	-12.2642
▁amo	-12.2645
▁psychologica	-12.2648
ugged	-12.2659
broad	-12.2659
▁penetrate	-12.2672
▁whoop	-12.2698
▁cont	-12.2723
▁revolutionar	-12.2747
▁navigat	-12.2755
ality	-12.2756
▁inde	-12.2761
▁decor	-12.2764
▁il	-12.2777
▁cooperat	-12.2778
luded	-12.2785
rable	-12.2797
▁slum	-12.2806
star	-12.2808
ule	-12.2831
hou	-12.2832
▁contri	-12.2832
ified	-12.2837
rest	-12.2846
▁vera	-12.2848
▁tasti	-12.2889
nto	-12.289
tro	-12.293
▁sacr	-12.2933
nning	-12.2943
mental	-12.295
▁rosel	-12.2955
▁bub	-12.2968
ripping	-12.3
mmit	-12.3023
arm	-12.3044
rosi	-12.3045
▁historic	-12.3062
nob	-12.3087
▁wage	-12.3089
vised	-12.3129
▁wiz	-12.3129
▁contaminat	-12.3169
mom	-12.3185
rby	-12.3203
evolved	-12.3231
j	-12.3237
elma	-12.3254
▁wai	-12.3259
bling	-12.3262
athed	-12.3267
▁bol	-12.327
educated	-12.3272
▁dome	-12.3283
▁expo	-12.3318
▁noma	-12.3327
▁sca	-12.3334
inous	-12.3334
here	-12.3335
▁cab	-12.334
▁nb	-12.3351
inch	-12.3355
rap	-12.3365
▁entr	-12.338
▁unc	-12.3398
ckles	-12.341
▁advers	-12.3413
▁boarder	-12.342
▁prop	-12.3424
▁gees	-12.3427
▁locat	-12.3456
▁gro	-12.346
aste	-12.3465
▁jammi	-12.3469
erature	-12.351
graphic	-12.3516
assie	-12.3532
▁wewe	-12.3538
sser	-12.354
ost	-12.3541
▁sham	-12.3552
plicate	-12.3553
breaker	-12.3562
▁isabel	-12.3567
▁radiat	-12.3583
deli	-12.3586
nne	-12.3592
atter	-12.3606
▁rebe	-12.3609
nah	-12.3611
tapping	-12.3612
tempered	-12.3618
▁sho	-12.3625
worn	-12.3634
ifying	-12.3652
▁jen	-12.366
▁harv	-12.3665
▁rog	-12.3665
▁lawless	-12.3674
illian	-12.3698
▁abe	-12.3716
zie	-12.3718
▁elementa	-12.3727
illi	-12.3736
mor	-12.3742
hoohoo	-12.3789
▁hem	-12.3796
served	-12.3815
ractor	-12.3842
izz	-12.3854
ppe	-12.3855
run	-12.3876
▁cha	-12.3893
liver	-12.392
avin	-12.3936
▁spong	-12.394
bran	-12.394
unk	-12.3941
▁exc	-12.3946
mpress	-12.3951
lation	-12.3955
cken	-12.3971
ightly	-12.3981
▁pun	-12.3982
▁robbin	-12.4
▁jani	-12.4
▁lever	-12.4003
otic	-12.4004
even	-12.4007
vis	-12.4008
rating	-12.4009
than	-12.402
▁flag	-12.4023
lating	-12.4027
ipes	-12.4029
angle	-12.4033
hea	-12.4037
inary	-12.4051
▁loneli	-12.4063
▁reg	-12.4063
▁nor	-12.4068
cra	-12.407
ewa	-12.4072
▁decompos	-12.4083
inal	-12.4095
berry	-12.4096
pressed	-12.4103
▁patholog	-12.4104
mn	-12.4119
uth	-12.4124
▁involv	-12.4131
lions	-12.4139
▁brim	-12.4145
▁nip	-12.4145
▁marvel	-12.4146
▁gala	-12.4156
matched	-12.4157
▁seventy	-12.4157
onger	-12.4159
▁isolat	-12.4163
icky	-12.4174
▁lull	-12.419
▁harmon	-12.4191
ative	-12.4192
▁doubl	-12.4196
abies	-12.4201
▁typ	-12.4206
▁ahhah	-12.4208
▁shellfi	-12.4213
saw	-12.4216
q	-12.4228
onald	-12.4232
▁hee	-12.4253
chin	-12.4263
odle	-12.4268
▁lat	-12.4269
inable	-12.427
▁imagin	-12.4272
inter	-12.4278
▁marin	-12.4282
nks	-12.429
▁ado	-12.4291
▁choc	-12.4296
▁simp	-12.4308
loaded	-12.4308
▁annul	-12.4311
thering	-12.4313
bility	-12.4316
▁feli	-12.4318
▁voic	-12.4319
ool	-12.4319
▁welcom	-12.432
▁origin	-12.4321
▁optim	-12.4323
▁admir	-12.4329
hut	-12.433
hro	-12.4334
▁grav	-12.4342
▁doom	-12.4344
bird	-12.4348
▁albu	-12.4351
▁transpo	-12.4352
maker	-12.4353
▁cushion	-12.4353
▁ingredient	-12.4353
▁nugget	-12.4353
▁obstacle	-12.4353
▁pesticide	-12.4353
▁specimen	-12.4353
▁syllable	-12.4353
▁airraid	-12.4354
▁crusade	-12.4354
▁motive	-12.4354
▁thrive	-12.4354
▁digger	-12.4354
▁resident	-12.4354
▁creek	-12.4354
▁shriek	-12.4354
▁giri	-12.4355
udder	-12.4355
▁cripple	-12.4356
▁kidnapper	-12.4357
▁skate	-12.4357
▁whimper	-12.4357
▁slug	-12.4358
▁measurement	-12.4358
words	-12.4358
rep	-12.4359
▁bick	-12.4361
▁olympics	-12.4362
▁coupon	-12.4365
▁toot	-12.4365
▁divin	-12.4365
▁bowel	-12.4366
▁glu	-12.4366
via	-12.437
▁oat	-12.437
▁colleague	-12.437
▁lyric	-12.4371
▁meteorite	-12.4371
▁obligation	-12.4371
icles	-12.4372
tribute	-12.4373
▁clam	-12.4373
rop	-12.4374
▁asset	-12.4374
▁fink	-12.4377
▁handcuff	-12.4378
▁receipt	-12.4378
▁souvenir	-12.4378
▁patzer	-12.4378
▁decoy	-12.4378
▁mutant	-12.4379
▁napkin	-12.4379
▁hallucination	-12.4381
▁ahoo	-12.4381
▁vandal	-12.4382
▁strait	-12.4382
▁breast	-12.4382
▁symptom	-12.4382
vol	-12.4382
▁chasin	-12.4383
▁mushroom	-12.4383
▁glg	-12.4385
▁zombie	-12.4385
▁glider	-12.4386
uve	-12.4386
▁assembl	-12.4387
▁corp	-12.4388
▁complaint	-12.4388
▁beverage	-12.4388
▁thud	-12.4388
▁drip	-12.4389
ples	-12.4389
▁honk	-12.439
haha	-12.439
▁bloke	-12.439
▁gulp	-12.439
▁highlight	-12.4391
▁pari	-12.4392
▁relative	-12.4393
aught	-12.4393
▁chore	-12.4393
▁instruction	-12.4394
▁ange	-12.4394
▁verse	-12.4398
▁teenager	-12.4401
▁other	-12.4402
▁bagel	-12.4402
▁exhale	-12.4402
pot	-12.4403
▁kraut	-12.4403
fine	-12.4403
▁nun	-12.4409
▁quad	-12.4411
cr	-12.4411
wine	-12.4413
▁sprint	-12.4421
poster	-12.4431
igg	-12.4432
lut	-12.4434
ootie	-12.4434
▁earthling	-12.4437
port	-12.444
cating	-12.444
known	-12.4441
heav	-12.4445
▁perce	-12.4446
utters	-12.4446
join	-12.4447
had	-12.4449
▁yeeha	-12.4451
▁jour	-12.4451
▁tortur	-12.4451
▁bra	-12.4451
▁serv	-12.4454
▁gree	-12.4456
smith	-12.4459
ground	-12.4464
▁exhaust	-12.4466
rule	-12.4468
▁incub	-12.4468
▁chris	-12.4468
scope	-12.447
▁verba	-12.447
▁appetit	-12.4477
▁presto	-12.4478
▁mmmmmmmmmmmm	-12.4479
▁jig	-12.448
ulent	-12.4481
sert	-12.4481
▁entertain	-12.4484
reak	-12.4486
law	-12.4486
▁elect	-12.4488
▁devot	-12.4489
▁legi	-12.449
▁employ	-12.449
▁gla	-12.449
▁quarrel	-12.449
bells	-12.4491
▁trespass	-12.4491
▁balanc	-12.4491
[...]
