<unk>	0
<s>	0
</s>	0
s	-3.11487
▁know	-4.62346
▁im	-4.65591
▁dont	-4.66429
ing	-4.71984
ed	-4.7528
▁get	-4.84518
▁got	-4.93833
▁right	-4.94735
▁like	-5.0432
▁go	-5.05021
d	-5.07572
▁yeah	-5.07656
▁na	-5.16795
▁youre	-5.17073
▁come	-5.17118
▁	-5.23712
y	-5.25024
▁thats	-5.28544
▁one	-5.31763
▁want	-5.4002
▁well	-5.40242
▁man	-5.42239
▁oh	-5.42317
er	-5.42423
▁fucking	-5.47899
▁good	-5.50485
▁gon	-5.5159
t	-5.55301
e	-5.55512
▁see	-5.55612
▁l	-5.58876
▁fuck	-5.59564
▁okay	-5.60688
n	-5.61533
in	-5.63077
o	-5.63963
▁think	-5.64996
▁hes	-5.6829
▁look	-5.69846
a	-5.72609
p	-5.73141
r	-5.73206
▁back	-5.74586
▁take	-5.77984
▁hey	-5.80682
▁time	-5.85385
m	-5.86455
▁tell	-5.88109
l	-5.88176
▁us	-5.8956
i	-5.90292
▁ill	-5.92179
u	-5.9385
▁going	-5.95403
▁say	-5.95631
g	-5.95877
▁shit	-5.9781
▁yes	-6
ly	-6.03646
▁need	-6.03739
▁could	-6.09774
▁would	-6.10075
▁cant	-6.10205
▁didnt	-6.12476
▁make	-6.13216
▁way	-6.13698
c	-6.13911
▁mean	-6.15048
▁give	-6.1539
▁something	-6.19103
▁let	-6.19885
b	-6.21331
▁never	-6.22679
▁little	-6.24746
▁whats	-6.26186
▁sir	-6.27853
▁really	-6.28264
▁lets	-6.30814
or	-6.31081
▁two	-6.31252
▁please	-6.32267
▁ta	-6.33531
▁theres	-6.36035
▁people	-6.37644
al	-6.38827
▁said	-6.41071
▁thank	-6.42207
▁sorry	-6.42645
▁money	-6.4299
▁love	-6.43415
▁ive	-6.4363
▁mr	-6.43977
v	-6.44112
▁car	-6.44616
▁god	-6.46459
re	-6.47719
▁guy	-6.4914
▁thing	-6.49561
f	-6.50174
▁call	-6.50458
▁help	-6.50959
es	-6.50988
▁uh	-6.54746
▁de	-6.54827
w	-6.5505
▁put	-6.55405
ie	-6.56073
▁sure	-6.57404
▁talk	-6.58656
k	-6.58996
▁anything	-6.60979
▁even	-6.61182
▁name	-6.61195
ar	-6.61873
▁theyre	-6.63251
▁work	-6.63568
▁life	-6.63897
le	-6.64054
▁stop	-6.65166
▁day	-6.66201
▁nothing	-6.6634
▁much	-6.66342
▁keep	-6.68076
▁find	-6.71054
it	-6.71078
▁guys	-6.72786
▁wan	-6.74494
▁re	-6.74739
▁c	-6.74772
▁night	-6.75552
ll	-6.7651
▁home	-6.77809
▁around	-6.78109
on	-6.78656
▁wait	-6.80038
▁big	-6.80158
ch	-6.80365
h	-6.80629
ic	-6.80709
ion	-6.80919
en	-6.80925
▁away	-6.8093
▁new	-6.81568
▁still	-6.81928
▁old	-6.82167
▁kill	-6.83083
ve	-6.83956
▁place	-6.85379
▁first	-6.86405
▁maybe	-6.86419
▁ever	-6.87212
▁hear	-6.87836
▁listen	-6.87841
▁last	-6.88446
▁lot	-6.88674
▁hell	-6.88766
▁shes	-6.89164
▁better	-6.89292
la	-6.92019
▁bad	-6.92082
▁boy	-6.92471
▁understand	-6.92782
▁everything	-6.9316
▁house	-6.93212
▁years	-6.93288
▁long	-6.93861
▁door	-6.94173
▁aint	-6.94683
▁father	-6.94877
▁in	-6.95214
z	-6.95289
▁thought	-6.95973
▁always	-6.96033
▁move	-6.96043
▁son	-6.96468
▁baby	-6.96821
▁dead	-6.97061
ri	-6.97302
▁great	-6.97352
▁hi	-6.97513
▁id	-6.9882
▁three	-6.98992
▁told	-6.98999
▁real	-6.99272
ers	-6.9945
▁s	-7.00172
ra	-7.01066
▁things	-7.01077
an	-7.01935
▁every	-7.02
ur	-7.02541
▁leave	-7.02662
st	-7.03388
▁believe	-7.03916
▁a	-7.04304
▁job	-7.04793
▁feel	-7.05379
▁ass	-7.05728
▁stay	-7.05739
▁wont	-7.06041
▁head	-7.06385
▁nice	-7.0845
▁done	-7.08476
▁show	-7.08504
te	-7.08658
et	-7.08905
▁fuckin	-7.09556
▁e	-7.10989
▁un	-7.1113
▁open	-7.12039
▁made	-7.12168
▁ask	-7.12319
▁mother	-7.12931
▁care	-7.13419
▁left	-7.13858
▁youve	-7.13875
▁doesnt	-7.1409
el	-7.14314
▁n	-7.14909
▁em	-7.16208
▁talking	-7.16845
▁friend	-7.17055
▁huh	-7.17887
▁kind	-7.18047
▁youll	-7.18391
▁play	-7.18552
▁remember	-7.18859
ation	-7.1904
▁ok	-7.19213
id	-7.19306
▁la	-7.19468
▁business	-7.1984
▁run	-7.19867
▁p	-7.1994
▁girl	-7.2142
ro	-7.21706
▁kid	-7.22009
▁happened	-7.22986
▁hold	-7.2401
▁fine	-7.24442
us	-7.24452
is	-7.24667
▁coming	-7.25015
ck	-7.25856
▁enough	-7.25941
▁else	-7.25968
▁getting	-7.26046
▁must	-7.26241
▁came	-7.26664
▁wrong	-7.27793
▁family	-7.28061
▁world	-7.28061
▁watch	-7.28509
▁next	-7.28867
▁hello	-7.29945
▁pay	-7.30159
▁phone	-7.30505
▁men	-7.30546
ies	-7.30572
▁gun	-7.30915
▁wasnt	-7.3105
▁wife	-7.31326
▁mind	-7.31329
li	-7.31496
▁wanted	-7.31698
▁h	-7.31855
▁problem	-7.32439
▁morning	-7.3244
▁course	-7.33282
th	-7.33385
▁k	-7.33396
ment	-7.33595
x	-7.33925
▁hand	-7.33981
▁today	-7.34136
il	-7.3449
▁hard	-7.3471
▁looking	-7.35082
▁shut	-7.35879
▁deal	-7.3601
▁knew	-7.38196
▁found	-7.38793
▁turn	-7.3972
▁heard	-7.39853
se	-7.39882
▁trying	-7.39958
ty	-7.40089
▁went	-7.40334
ia	-7.40726
▁th	-7.40865
▁bring	-7.4126
▁b	-7.41443
▁woman	-7.4151
▁another	-7.41816
▁hit	-7.42097
▁nobody	-7.42124
lo	-7.42262
▁um	-7.42377
▁try	-7.42391
▁start	-7.42399
▁may	-7.42448
▁shot	-7.43702
▁o	-7.43963
▁cause	-7.43994
▁end	-7.44484
▁everybody	-7.4462
▁isnt	-7.44621
▁police	-7.44937
▁best	-7.4506
ne	-7.45222
▁brother	-7.45641
▁seen	-7.45857
um	-7.46277
▁killed	-7.46557
▁someone	-7.46856
▁con	-7.47111
▁sit	-7.47112
▁jesus	-7.4718
▁might	-7.47514
man	-7.47519
ta	-7.4786
▁die	-7.47977
▁case	-7.48349
ce	-7.48818
▁wouldnt	-7.48979
▁took	-7.49156
am	-7.49433
▁d	-7.50255
▁saw	-7.51199
ow	-7.5126
▁meet	-7.5165
▁goddamn	-7.51824
▁thanks	-7.52124
▁whos	-7.52468
▁tony	-7.52509
▁ho	-7.52982
▁se	-7.53461
up	-7.53514
▁bitch	-7.53837
▁face	-7.54318
▁tonight	-7.54579
▁cut	-7.54665
at	-7.54761
▁point	-7.54959
▁dog	-7.5512
▁room	-7.55375
▁idea	-7.55675
▁to	-7.57197
▁dad	-7.57219
▁use	-7.57542
▁pretty	-7.5777
▁five	-7.57867
▁live	-7.5811
▁happy	-7.58139
ting	-7.5897
▁bit	-7.58981
▁w	-7.59318
ma	-7.59403
▁pick	-7.59489
▁jimmy	-7.59589
ent	-7.59808
▁line	-7.59841
▁set	-7.60215
▁four	-7.60295
▁whole	-7.60333
▁called	-7.60708
▁ready	-7.61123
▁number	-7.6144
▁somebody	-7.6144
▁music	-7.61444
▁saying	-7.61634
▁check	-7.61857
▁close	-7.61991
▁frank	-7.62029
est	-7.62438
▁clean	-7.62568
▁bar	-7.62876
▁v	-7.63046
▁they	-7.63198
▁playing	-7.63201
to	-7.63237
▁without	-7.63327
▁g	-7.63445
▁six	-7.63742
▁matter	-7.64585
▁shoot	-7.65914
ive	-7.66041
▁ra	-7.6618
▁gone	-7.6667
▁whoa	-7.66816
im	-7.66904
▁used	-7.67084
▁weve	-7.67212
ant	-7.67217
▁black	-7.67222
▁ro	-7.6732
▁days	-7.67616
▁part	-7.67758
▁f	-7.68006
▁guess	-7.6801
ir	-7.68259
▁lm	-7.68269
▁together	-7.68406
▁ha	-7.68542
co	-7.68592
▁damn	-7.68809
▁motherfucker	-7.69211
ity	-7.69426
▁minutes	-7.69495
▁mom	-7.69531
▁alright	-7.6962
▁henry	-7.70023
▁ten	-7.70135
▁vi	-7.70552
ate	-7.70629
▁drink	-7.71176
▁friends	-7.7143
▁ma	-7.71805
▁sh	-7.71811
▁walk	-7.71971
▁hands	-7.72025
ard	-7.72084
per	-7.72087
▁alone	-7.72102
tion	-7.72631
▁crazy	-7.72915
▁half	-7.72916
▁hope	-7.73074
▁light	-7.73174
▁says	-7.73217
▁di	-7.73483
▁youd	-7.73538
▁many	-7.73556
▁ex	-7.73686
▁met	-7.74066
▁clear	-7.74182
▁already	-7.74607
▁havent	-7.74607
ge	-7.74816
▁order	-7.75035
▁war	-7.75262
▁john	-7.75462
ter	-7.75551
▁j	-7.75705
▁excuse	-7.75894
ry	-7.76127
▁st	-7.76742
▁worry	-7.76762
▁po	-7.7686
ist	-7.77091
▁que	-7.7734
▁dr	-7.77586
▁stuff	-7.77651
mo	-7.77715
▁lo	-7.77831
▁couldnt	-7.77858
▁forget	-7.78078
▁easy	-7.78078
▁high	-7.78092
▁game	-7.78122
able	-7.782
▁sp	-7.78745
▁second	-7.78938
▁ago	-7.79475
▁beautiful	-7.7986
▁wheres	-7.79874
▁fight	-7.79875
▁supposed	-7.80053
▁co	-7.80568
▁boss	-7.80743
▁anyone	-7.80763
▁million	-7.80791
▁so	-7.80865
▁speak	-7.81233
▁read	-7.81258
▁bill	-7.81266
▁minute	-7.81353
▁ah	-7.81536
▁inside	-7.81676
▁since	-7.81712
▁gave	-7.81767
▁far	-7.82015
▁buy	-7.82136
▁be	-7.8216
▁red	-7.82581
ine	-7.82665
▁week	-7.82763
▁danny	-7.83071
▁ca	-7.83188
▁hate	-7.83208
▁miss	-7.83688
▁drive	-7.83716
nt	-7.83806
▁fire	-7.83926
▁anybody	-7.83989
▁stand	-7.84458
▁street	-7.84458
▁jack	-7.84495
▁lost	-7.85047
▁pull	-7.85052
▁question	-7.85244
▁touch	-7.85404
▁young	-7.8541
▁mar	-7.85487
▁yet	-7.85505
▁i	-7.85899
▁eat	-7.86111
▁tomorrow	-7.86358
▁mo	-7.86425
ling	-7.8663
▁dis	-7.86713
▁answer	-7.86839
▁hurt	-7.87324
▁ya	-7.87751
▁nigger	-7.87808
ance	-7.87873
▁christ	-7.87942
▁captain	-7.88296
▁eyes	-7.88366
▁kids	-7.88568
▁rest	-7.88704
▁probably	-7.88786
▁cool	-7.88787
▁break	-7.89278
▁goes	-7.90186
▁sighs	-7.90271
▁pro	-7.90415
▁piece	-7.90842
▁later	-7.91163
▁mi	-7.91251
▁lord	-7.91287
▁soon	-7.91464
tic	-7.91683
▁sign	-7.9178
sh	-7.91806
▁word	-7.91906
▁school	-7.92286
▁free	-7.92295
▁year	-7.92468
▁blood	-7.92781
▁trust	-7.92797
▁funny	-7.9332
▁bet	-7.93323
ot	-7.93345
▁book	-7.93379
▁t	-7.94026
▁le	-7.94027
▁daughter	-7.94343
▁ga	-7.95176
▁pass	-7.95259
ful	-7.953
▁whatever	-7.95387
▁exactly	-7.95422
▁chance	-7.95425
▁da	-7.95451
do	-7.95479
▁side	-7.95489
me	-7.95521
▁heart	-7.95751
▁cop	-7.95754
▁anyway	-7.95913
▁sleep	-7.96075
▁do	-7.96231
▁front	-7.96443
▁blow	-7.96479
ca	-7.96519
▁working	-7.96634
na	-7.96733
▁change	-7.96881
▁story	-7.96976
▁m	-7.97552
▁dude	-7.98117
▁fun	-7.98338
ure	-7.98509
ii	-7.98791
▁chuckles	-7.99139
▁pe	-7.99219
if	-7.99482
▁laughing	-7.99504
▁al	-7.99692
ian	-8.00035
age	-8.00087
▁truth	-8.00227
▁late	-8.00633
as	-8.0065
▁person	-8.00659
▁send	-8.00871
io	-8.00877
▁though	-8.0104
▁happen	-8.01134
ke	-8.01537
▁behind	-8.01893
▁gr	-8.02133
ni	-8.02357
▁actually	-8.02475
▁making	-8.02479
▁white	-8.02533
▁thinking	-8.03034
os	-8.03035
▁water	-8.03055
▁grunts	-8.03326
ness	-8.03527
▁taking	-8.03688
▁ba	-8.03798
▁town	-8.04161
▁death	-8.04209
▁city	-8.04332
▁for	-8.04392
▁outside	-8.04735
ou	-8.05015
▁rat	-8.05109
▁bullshit	-8.05895
▁count	-8.05942
▁boys	-8.06239
▁bank	-8.06499
▁officer	-8.06751
ut	-8.07047
▁continues	-8.071
ad	-8.07156
▁doctor	-8.07659
▁body	-8.07662
▁act	-8.07899
ti	-8.08091
de	-8.08116
no	-8.08236
▁tommy	-8.08255
▁ahead	-8.08299
om	-8.08421
▁mine	-8.08707
ee	-8.08755
▁arm	-8.08795
▁nick	-8.0893
▁everyone	-8.08935
ha	-8.08947
▁stupid	-8.09455
▁wish	-8.09513
▁sick	-8.09514
▁bo	-8.09934
▁couple	-8.10061
▁safe	-8.10071
▁gra	-8.1037
▁plan	-8.10559
▁tom	-8.10741
ens	-8.11026
▁ben	-8.11393
son	-8.11528
▁grand	-8.11931
less	-8.12081
ai	-8.12141
▁pi	-8.12286
▁he	-8.12337
▁sta	-8.13019
▁afraid	-8.13148
▁alive	-8.13205
ous	-8.13469
he	-8.13562
▁me	-8.13666
▁hang	-8.13818
▁grunting	-8.13845
▁pop	-8.13886
▁state	-8.13922
▁sometimes	-8.14098
em	-8.14156
▁months	-8.14388
▁girls	-8.14819
▁beat	-8.14874
▁step	-8.15005
▁anymore	-8.15047
▁che	-8.15142
▁bastard	-8.15688
va	-8.16459
ig	-8.16628
▁jordan	-8.16982
▁trouble	-8.16982
▁bi	-8.17059
▁bag	-8.17204
▁hours	-8.17307
go	-8.17443
▁roll	-8.17831
▁com	-8.17846
▁fucked	-8.17931
▁telling	-8.17978
and	-8.18485
▁ja	-8.18706
bo	-8.18916
▁michael	-8.18956
▁important	-8.18956
j	-8.19133
▁top	-8.19293
▁asshole	-8.19647
▁tv	-8.19827
▁true	-8.20304
oo	-8.20347
▁ring	-8.20464
▁ar	-8.205
▁lose	-8.20939
▁different	-8.20969
da	-8.21045
▁rock	-8.2109
▁moment	-8.21148
▁also	-8.2167
▁looks	-8.21746
ph	-8.21766
▁screaming	-8.21775
▁lie	-8.21777
▁ju	-8.21808
uc	-8.22075
▁no	-8.2224
▁either	-8.22335
▁least	-8.22335
▁asked	-8.22882
che	-8.23012
one	-8.23275
▁pa	-8.23338
ak	-8.23377
▁office	-8.234
▁fa	-8.23567
▁sha	-8.23618
▁dream	-8.23719
▁throw	-8.23719
ff	-8.24145
pe	-8.24507
ish	-8.24825
▁hair	-8.25213
▁whi	-8.25434
▁reason	-8.25789
▁honey	-8.25855
▁sister	-8.25857
▁arent	-8.25887
▁mad	-8.26215
▁welcome	-8.26546
▁bullet	-8.26562
▁cash	-8.26674
▁follow	-8.27092
▁eye	-8.27166
▁gentlemen	-8.27265
▁hunt	-8.27265
▁hows	-8.27285
ver	-8.27518
end	-8.27674
▁ri	-8.27725
▁si	-8.27842
▁knock	-8.2799
▁worth	-8.2804
▁country	-8.28046
▁near	-8.28098
▁shall	-8.28112
que	-8.28118
way	-8.28464
▁serious	-8.2849
▁report	-8.28753
ill	-8.28766
▁full	-8.2886
▁tried	-8.29084
▁stan	-8.29185
▁club	-8.29455
▁truck	-8.29466
ence	-8.29492
▁drop	-8.29506
▁dick	-8.29581
▁table	-8.29688
▁cops	-8.29786
▁burn	-8.30047
▁child	-8.30196
▁train	-8.30388
▁fi	-8.3066
out	-8.30746
▁wants	-8.30815
▁pre	-8.30909
▁special	-8.30942
▁along	-8.30942
▁charge	-8.30982
ho	-8.31478
▁started	-8.31559
▁heres	-8.31705
▁crime	-8.31712
ac	-8.32016
be	-8.32975
▁lts	-8.33179
▁groans	-8.33215
▁sam	-8.33372
▁party	-8.33483
▁record	-8.33985
▁stick	-8.33986
▁team	-8.34156
ble	-8.34225
▁waiting	-8.34294
▁fat	-8.34341
les	-8.34371
▁ter	-8.34639
▁nicky	-8.3466
▁husband	-8.34759
▁picture	-8.34759
▁almost	-8.34759
▁company	-8.3476
▁calm	-8.34763
▁hmm	-8.34832
▁wall	-8.35154
▁r	-8.35186
▁makes	-8.3523
▁tr	-8.35267
▁murder	-8.35454
▁howard	-8.35541
▁smart	-8.35542
▁fl	-8.35672
▁promise	-8.35697
▁lll	-8.35843
▁fast	-8.36001
▁fe	-8.36052
▁power	-8.36295
▁private	-8.36328
▁times	-8.36343
ner	-8.3638
▁box	-8.36414
▁win	-8.36545
▁bl	-8.36695
▁daddy	-8.37129
▁su	-8.37162
▁sent	-8.37451
▁cha	-8.37585
▁am	-8.37682
▁wa	-8.37754
ton	-8.3784
▁brought	-8.37922
▁hot	-8.37933
▁happens	-8.38074
▁en	-8.38125
ted	-8.38133
▁comp	-8.38356
▁scared	-8.38431
▁hour	-8.38592
▁french	-8.38728
▁living	-8.38728
▁control	-8.38728
▁horse	-8.3873
▁sense	-8.38735
▁mu	-8.38848
ide	-8.38878
▁prison	-8.38996
ass	-8.39348
▁asking	-8.39472
▁swear	-8.39541
▁stem	-8.39603
▁bed	-8.39637
▁fra	-8.39801
▁br	-8.39995
▁died	-8.40342
▁expect	-8.40361
▁children	-8.40362
▁short	-8.40368
▁running	-8.40372
▁blue	-8.40373
▁sl	-8.40421
▁yo	-8.41027
▁cr	-8.4104
▁radio	-8.41188
▁buddy	-8.41188
▁past	-8.41362
▁ace	-8.41475
▁save	-8.41487
nce	-8.41608
▁perfect	-8.4202
▁smell	-8.42022
▁court	-8.42023
op	-8.42067
der	-8.42076
▁floor	-8.42088
▁hed	-8.42124
▁rid	-8.42142
▁est	-8.4264
▁sound	-8.42662
▁wow	-8.42983
▁mor	-8.43029
▁mary	-8.43061
▁law	-8.43365
▁leg	-8.43538
▁slow	-8.43563
▁food	-8.4371
▁boat	-8.43787
▁offer	-8.43862
▁feeling	-8.43874
▁laughs	-8.44048
▁an	-8.44227
▁karen	-8.44563
▁itll	-8.44567
▁taken	-8.44609
▁sell	-8.44818
▁quite	-8.4488
ster	-8.45201
▁straight	-8.45317
▁green	-8.45427
▁lawyer	-8.45429
▁fact	-8.45455
▁catch	-8.45542
▁pain	-8.45826
ap	-8.46393
▁sal	-8.46412
▁means	-8.46817
▁te	-8.46828
▁coffee	-8.47172
▁engine	-8.47172
▁voice	-8.47172
▁wake	-8.4723
▁ball	-8.47636
▁sn	-8.47947
▁married	-8.48058
▁eight	-8.4811
▁road	-8.48131
▁become	-8.4895
▁fair	-8.49014
▁ch	-8.49081
▁news	-8.49155
▁pal	-8.49162
▁personal	-8.49181
by	-8.49321
▁poor	-8.49336
▁groaning	-8.4985
▁worked	-8.50017
▁over	-8.50083
▁watching	-8.50148
▁kidding	-8.5078
▁respect	-8.50787
▁learn	-8.50799
▁star	-8.50812
▁per	-8.50898
led	-8.51079
▁mas	-8.51079
bu	-8.51354
▁du	-8.51513
▁machine	-8.51677
▁mouth	-8.51678
▁cam	-8.5179
▁building	-8.52032
▁mark	-8.52163
▁york	-8.52603
ite	-8.52667
▁fu	-8.5316
ack	-8.53168
▁hundred	-8.53537
▁sort	-8.53569
▁questions	-8.53859
▁para	-8.5399
ated	-8.54073
▁ne	-8.54086
▁driver	-8.54187
▁luck	-8.54241
▁return	-8.54481
▁kiss	-8.54495
▁dress	-8.54498
▁lead	-8.54553
▁till	-8.54621
▁fall	-8.54647
▁air	-8.54699
▁cab	-8.55128
▁va	-8.55364
▁somewhere	-8.55433
▁hurry	-8.55433
▁partner	-8.55499
▁ac	-8.55614
time	-8.5571
▁bell	-8.55805
▁paul	-8.56085
▁tu	-8.56332
▁kick	-8.56372
▁gold	-8.56382
▁corleone	-8.56395
▁women	-8.56395
▁detective	-8.56402
▁ser	-8.56531
zz	-8.56698
ber	-8.56973
▁holy	-8.57077
▁gu	-8.57207
▁el	-8.57225
▁sa	-8.57253
▁cell	-8.57376
▁iike	-8.5739
▁reg	-8.57457
▁ear	-8.57534
▁aii	-8.5754
▁ran	-8.57803
▁pen	-8.58344
▁english	-8.58346
▁leaving	-8.58346
▁glad	-8.58348
▁panting	-8.5837
▁mrs	-8.58392
▁master	-8.58453
ki	-8.58731
ba	-8.59154
▁mitch	-8.59371
▁careful	-8.5949
▁sitting	-8.59504
▁sex	-8.59525
▁none	-8.59716
land	-8.60112
▁sweet	-8.60193
▁protect	-8.60224
▁keys	-8.60321
▁choice	-8.60336
▁dark	-8.60398
▁hotel	-8.60438
▁suck	-8.60502
▁mess	-8.60631
▁song	-8.60654
▁str	-8.60853
ley	-8.60903
▁sw	-8.61026
▁thousand	-8.61346
▁relax	-8.61347
▁mike	-8.61416
▁seems	-8.61954
▁cor	-8.62005
▁quiet	-8.62123
▁ad	-8.62181
our	-8.62202
▁speaking	-8.62332
▁enjoy	-8.62367
▁bye	-8.62376
▁seem	-8.62807
▁lucky	-8.6294
▁quick	-8.63155
▁por	-8.63281
▁small	-8.63399
▁mistake	-8.634
ious	-8.63598
▁gi	-8.63721
▁american	-8.63776
▁seven	-8.64441
▁agent	-8.64472
▁dance	-8.64675
lie	-8.64866
▁tape	-8.65072
lin	-8.65204
▁ride	-8.65231
▁favor	-8.65472
▁write	-8.65544
▁deep	-8.65596
▁lady	-8.65781
▁hide	-8.65826
ade	-8.65895
ook	-8.66232
▁handle	-8.66482
▁rich	-8.66534
▁dinner	-8.66556
▁movie	-8.66557
ina	-8.66607
▁jail	-8.6666
▁max	-8.66719
▁foot	-8.66722
▁finish	-8.66755
▁eu	-8.66862
wa	-8.66884
▁broke	-8.67376
▁sin	-8.67479
ang	-8.67548
▁patrick	-8.67631
▁charlie	-8.67641
▁grey	-8.6767
ise	-8.67753
▁park	-8.67891
▁doc	-8.68003
king	-8.68219
und	-8.68331
▁owe	-8.68404
ary	-8.68419
▁james	-8.68723
▁treat	-8.68726
▁window	-8.68755
▁outta	-8.68777
▁track	-8.68797
▁stone	-8.68901
▁dave	-8.68948
▁race	-8.68985
▁land	-8.68991
▁less	-8.69081
▁ringing	-8.69094
▁weeks	-8.69351
▁out	-8.69639
▁seat	-8.69707
▁service	-8.69817
▁strong	-8.69819
▁tires	-8.69824
▁ladies	-8.6986
▁grow	-8.69882
▁cat	-8.69965
itch	-8.7003
▁lives	-8.70169
▁low	-8.70276
▁quit	-8.70659
▁cold	-8.70664
▁balls	-8.70971
▁known	-8.70976
▁month	-8.71012
▁col	-8.71015
▁fish	-8.71066
▁roman	-8.71103
▁mmm	-8.71128
▁killing	-8.712
▁paid	-8.71248
▁figure	-8.71422
ey	-8.71445
▁qu	-8.71705
▁bro	-8.71793
▁appreciate	-8.72052
▁ground	-8.72052
nny	-8.72151
▁cover	-8.72162
▁rob	-8.72332
▁mama	-8.72393
▁up	-8.72736
▁sm	-8.72926
old	-8.73026
▁joe	-8.73172
▁weapon	-8.73188
▁pleasure	-8.73188
▁moving	-8.73191
▁bird	-8.73193
▁guns	-8.73269
▁key	-8.73574
▁driving	-8.74337
▁attack	-8.74337
▁tough	-8.74337
▁smoke	-8.74338
▁steal	-8.7434
▁present	-8.74341
▁joel	-8.74461
cu	-8.74577
▁ab	-8.74597
▁calling	-8.74648
▁sounds	-8.74653
ect	-8.74657
▁wed	-8.74743
▁loved	-8.74839
head	-8.74939
▁shouldnt	-8.755
▁casino	-8.755
▁situation	-8.75501
▁paper	-8.75818
▁carry	-8.75957
ating	-8.76015
▁missing	-8.76586
▁dear	-8.76747
▁sake	-8.7677
▁fix	-8.76782
lng	-8.76786
▁maam	-8.76838
▁jew	-8.76858
▁brain	-8.77028
▁jan	-8.77068
ga	-8.77138
▁brothers	-8.77622
▁app	-8.77669
ping	-8.77682
qui	-8.77791
▁explain	-8.77867
▁consider	-8.77867
▁north	-8.77871
tter	-8.7794
▁lu	-8.77975
ah	-8.77995
▁chi	-8.78105
▁wear	-8.78173
▁talked	-8.78469
▁meeting	-8.78644
▁hospital	-8.79072
▁maurizio	-8.79072
▁across	-8.79072
▁except	-8.79085
▁lay	-8.79277
▁given	-8.7928
▁busy	-8.79367
men	-8.79497
▁sub	-8.79603
▁bra	-8.79719
▁letter	-8.79769
▁pig	-8.79806
▁dollars	-8.79808
mon	-8.7986
▁angel	-8.8013
▁gunshot	-8.80292
▁horn	-8.80299
▁visit	-8.80308
▁spend	-8.80363
ical	-8.80482
▁nine	-8.80524
▁beer	-8.80947
▁pat	-8.81251
▁lt	-8.8146
▁birthday	-8.81528
▁goodbye	-8.81529
▁born	-8.81533
▁push	-8.81567
▁honor	-8.81636
▁rose	-8.81872
▁ru	-8.81894
▁able	-8.82106
▁drug	-8.82266
▁lock	-8.82358
▁david	-8.82776
▁chief	-8.82777
▁class	-8.82778
▁dumb	-8.82779
▁tired	-8.82781
▁price	-8.82789
▁date	-8.8285
▁crack	-8.8285
▁wonder	-8.83099
▁fly	-8.83134
▁grab	-8.83187
▁guard	-8.83444
▁diamond	-8.84042
▁judge	-8.84042
▁giving	-8.84044
▁message	-8.84085
▁super	-8.84119
▁feet	-8.84181
▁ti	-8.8448
tle	-8.84576
▁plane	-8.84727
▁ob	-8.84825
the	-8.84951
▁gucci	-8.85324
▁client	-8.85324
▁reggie	-8.85325
▁beach	-8.85326
▁felt	-8.85327
▁bunch	-8.8535
▁lf	-8.85364
▁harry	-8.85369
▁miles	-8.85527
▁chatter	-8.85736
▁post	-8.86195
▁certain	-8.8638
▁suit	-8.86445
▁glass	-8.86452
▁laugh	-8.86468
▁whoo	-8.86508
▁card	-8.8661
▁south	-8.86621
▁worse	-8.86623
▁uncle	-8.86625
▁store	-8.86632
▁dangerous	-8.86641
▁cunt	-8.86651
▁information	-8.86659
▁arrest	-8.87057
ped	-8.87193
▁queen	-8.87319
▁beg	-8.87334
▁jo	-8.87357
▁secret	-8.87921
▁italian	-8.87938
▁patient	-8.87939
▁shouting	-8.87939
▁human	-8.87939
▁gasps	-8.8794
▁forever	-8.87969
▁gang	-8.87981
▁bat	-8.88333
▁unit	-8.88414
▁har	-8.88434
ram	-8.88435
▁cost	-8.88448
▁test	-8.88562
▁king	-8.88842
▁joke	-8.88984
▁list	-8.89039
▁join	-8.89259
▁announce	-8.89272
▁forgive	-8.89272
▁peace	-8.89272
▁prick	-8.89272
▁file	-8.89371
▁pu	-8.89574
▁dig	-8.89897
▁looked	-8.90281
▁caught	-8.90623
▁weird	-8.90623
▁witness	-8.90623
▁kept	-8.90624
▁harley	-8.90643
▁nose	-8.90823
▁age	-8.9093
▁cry	-8.90979
act	-8.91016
▁meant	-8.9129
▁wh	-8.91291
ham	-8.91303
▁evening	-8.91351
ice	-8.91548
▁hill	-8.91563
ial	-8.91585
ile	-8.91751
▁anywhere	-8.91993
▁london	-8.91993
▁gerry	-8.91994
▁general	-8.91994
▁proud	-8.91998
ash	-8.91998
▁fault	-8.92013
▁apartment	-8.92014
▁names	-8.92047
▁cross	-8.921
▁spot	-8.92125
▁lying	-8.92212
▁richie	-8.92258
▁share	-8.92553
▁drugs	-8.9281
uff	-8.93028
line	-8.93303
▁clothes	-8.93382
▁history	-8.93382
▁terrible	-8.93382
▁vincent	-8.93382
▁normal	-8.93382
▁fool	-8.93385
▁bomb	-8.93386
▁block	-8.93414
▁river	-8.93435
▁maya	-8.93507
▁cock	-8.9361
ight	-8.93621
▁field	-8.93662
▁ow	-8.93708
▁longer	-8.93816
mate	-8.94347
▁accident	-8.9479
▁president	-8.9479
▁victim	-8.9479
▁german	-8.94791
▁parents	-8.94792
▁emily	-8.94796
▁shop	-8.94853
▁you	-8.94926
▁load	-8.95153
▁board	-8.95173
▁sun	-8.95197
▁bur	-8.95515
▁ron	-8.9559
▁can	-8.95746
▁camp	-8.95809
▁hole	-8.96061
▁sec	-8.96142
▁soul	-8.96222
▁brian	-8.96281
▁where	-8.96528
▁early	-8.96575
▁mer	-8.96701
▁van	-8.96957
▁suppose	-8.97043
▁ice	-8.97301
▁prove	-8.97495
▁turned	-8.97516
▁rain	-8.97586
ever	-8.97651
▁criminal	-8.97668
▁possible	-8.97668
▁belong	-8.97668
▁knife	-8.97668
▁werent	-8.97669
▁draw	-8.9767
▁howd	-8.97674
▁ticket	-8.97707
▁earth	-8.97767
▁hero	-8.97856
▁unless	-8.97872
▁trip	-8.97978
▁dia	-8.98268
▁cur	-8.98363
▁surprise	-8.98506
▁america	-8.98668
▁words	-8.98771
▁stole	-8.98774
▁cap	-8.99031
ally	-8.99134
▁nigga	-8.99139
▁lauda	-8.99139
▁johnny	-8.99145
▁louis	-8.99146
▁mickey	-8.99154
▁art	-8.99222
▁neck	-8.99254
for	-8.99269
▁teach	-8.99279
gr	-8.99343
▁walking	-8.99378
▁pin	-8.99869
▁mons	-9.00225
▁killer	-9.00503
▁pr	-9.00598
▁django	-9.00631
▁imagine	-9.00631
▁security	-9.00631
▁animal	-9.00631
▁whatd	-9.00633
▁ooh	-9.00634
▁single	-9.00644
▁bother	-9.00661
▁rather	-9.00676
▁round	-9.00694
▁fear	-9.00894
▁fill	-9.0099
▁waste	-9.01069
▁val	-9.01254
▁rent	-9.01282
tre	-9.01411
uck	-9.01473
▁fit	-9.01819
iy	-9.01882
▁shell	-9.02133
▁francis	-9.02146
▁entire	-9.02147
▁crowd	-9.02148
▁island	-9.0215
▁finally	-9.02297
▁camera	-9.02684
ator	-9.02709
▁realize	-9.02891
pping	-9.03395
▁tra	-9.03429
▁tyler	-9.03685
▁deliver	-9.03685
▁accept	-9.03693
▁smile	-9.03713
▁jackson	-9.038
light	-9.03879
▁needed	-9.04106
▁bob	-9.04138
ude	-9.0437
eep	-9.04464
▁ver	-9.04853
▁strange	-9.04926
▁form	-9.04933
▁indistinct	-9.05003
▁ii	-9.05026
ze	-9.05091
ier	-9.05098
▁afternoon	-9.05247
▁bought	-9.05247
▁evidence	-9.05247
▁doubt	-9.05247
▁public	-9.05247
▁wound	-9.05248
▁position	-9.05249
▁major	-9.05249
▁others	-9.0525
▁account	-9.05251
▁tight	-9.05288
▁wonderful	-9.05292
▁mate	-9.05292
▁mm	-9.05336
▁action	-9.0562
ism	-9.0567
▁at	-9.05924
▁rec	-9.05924
▁rule	-9.06032
tro	-9.06177
ja	-9.06238
▁add	-9.06246
▁doin	-9.06312
▁wind	-9.06462
▁legal	-9.06537
▁main	-9.06725
▁sweetheart	-9.06835
▁choose	-9.06835
▁vegas	-9.06835
▁alex	-9.06836
▁copy	-9.06839
▁pray	-9.0684
▁jump	-9.06847
▁andy	-9.06848
▁listening	-9.06853
▁crash	-9.06896
▁shake	-9.06949
▁shooting	-9.07312
▁wood	-9.07329
▁dry	-9.07368
▁skin	-9.07457
▁ph	-9.07538
▁bear	-9.07914
ize	-9.08321
▁worried	-9.08448
▁buzz	-9.08448
▁absolutely	-9.08489
▁seconds	-9.08546
pped	-9.08549
▁decided	-9.0874
za	-9.09118
jo	-9.09166
▁mon	-9.09281
▁plant	-9.09505
fi	-9.09533
▁disappear	-9.10087
▁heaven	-9.10087
▁scene	-9.10087
▁search	-9.10088
▁cousin	-9.10089
▁narrat	-9.1009
▁wick	-9.10154
bel	-9.10184
▁softly	-9.10242
▁sol	-9.10311
▁west	-9.10336
▁pack	-9.10361
▁paint	-9.10375
▁certainly	-9.10395
▁station	-9.10503
▁frankie	-9.10717
▁anna	-9.10805
▁mum	-9.10861
▁guards	-9.10946
▁ele	-9.11263
gh	-9.11302
▁papers	-9.11413
▁honest	-9.11553
rate	-9.11637
▁cigarette	-9.11754
▁heavy	-9.11754
▁instead	-9.11754
▁patrizia	-9.11754
▁simple	-9.11754
▁system	-9.11754
▁double	-9.11754
▁gift	-9.11755
▁command	-9.11757
▁wedding	-9.11762
▁east	-9.11768
▁gangster	-9.11785
▁bloody	-9.11804
▁bucks	-9.12065
ther	-9.12173
cy	-9.12342
▁putting	-9.12462
▁beep	-9.12643
▁lance	-9.13223
▁screams	-9.13309
down	-9.13428
▁amazing	-9.13448
▁innocent	-9.13448
▁screw	-9.13449
▁future	-9.13449
▁paolo	-9.13449
▁hall	-9.13454
▁christmas	-9.13457
▁suspect	-9.13459
▁cheering	-9.13459
▁risk	-9.13492
ue	-9.13534
▁tree	-9.13545
▁cri	-9.13713
▁aw	-9.13735
▁sean	-9.1379
off	-9.14059
▁fell	-9.14337
gue	-9.1442
▁fella	-9.14484
▁casey	-9.14494
▁named	-9.14532
▁ski	-9.14759
▁piss	-9.14874
▁missed	-9.1495
▁fighting	-9.15172
▁difference	-9.15173
▁especially	-9.15173
▁government	-9.15173
▁throat	-9.15173
▁condition	-9.15173
▁address	-9.15173
▁ronnie	-9.15173
▁area	-9.15182
▁voc	-9.15183
▁yard	-9.15192
▁drunk	-9.15212
▁totally	-9.1537
▁billy	-9.15449
▁walter	-9.15466
▁crewe	-9.15547
▁eh	-9.16078
ath	-9.16092
you	-9.1651
▁noodles	-9.16927
▁wheel	-9.16928
▁middle	-9.16952
▁sky	-9.17031
cia	-9.17107
▁stopped	-9.17144
▁dirty	-9.17149
▁mick	-9.17157
▁yall	-9.17354
▁tea	-9.17647
▁tri	-9.1768
▁union	-9.17809
ring	-9.17953
▁crying	-9.18116
▁cards	-9.18124
ult	-9.18235
▁finished	-9.18379
com	-9.18401
▁taste	-9.18422
tte	-9.18552
▁scar	-9.18638
▁sergeant	-9.18713
▁discuss	-9.18713
▁niki	-9.18713
▁pussy	-9.18714
▁third	-9.18714
▁brody	-9.18718
▁reach	-9.18718
▁soldier	-9.18726
▁boo	-9.18735
▁taik	-9.18755
▁milk	-9.18834
▁mill	-9.18843
▁mmhmm	-9.18847
▁wash	-9.18913
▁mention	-9.19011
▁moved	-9.19115
▁inter	-9.1914
▁joker	-9.19151
▁goin	-9.19241
hood	-9.19502
▁sch	-9.19634
▁shoes	-9.19651
▁hat	-9.19683
▁cent	-9.19696
▁fo	-9.19868
▁agree	-9.199
▁warm	-9.19903
▁wearing	-9.20071
▁wi	-9.204
▁direct	-9.20418
▁forgot	-9.20531
▁lebowski	-9.20531
▁morpheus	-9.20531
▁victor	-9.20531
▁self	-9.20535
▁honour	-9.20547
▁changed	-9.20856
▁neo	-9.20861
▁tip	-9.20956
q	-9.21337
gest	-9.2138
▁sand	-9.21521
▁rap	-9.21549
ank	-9.2171
ame	-9.2209
▁background	-9.22383
▁george	-9.22383
▁sheriff	-9.22383
▁shouldve	-9.22383
▁summer	-9.22383
▁vehicle	-9.22383
▁yesterday	-9.22383
▁kitchen	-9.22383
▁keller	-9.22383
▁spoke	-9.22383
▁weak	-9.22383
▁prepare	-9.22383
▁threat	-9.22384
▁fbi	-9.22385
▁idiot	-9.22387
▁cowboy	-9.22388
▁egg	-9.22388
▁dump	-9.2239
▁guest	-9.22481
▁interest	-9.22532
ities	-9.22533
gan	-9.22538
▁spent	-9.226
▁amen	-9.22691
unk	-9.22711
▁shh	-9.22897
▁ln	-9.2297
▁wr	-9.24013
▁army	-9.24036
▁sad	-9.2407
▁standing	-9.24117
▁attention	-9.2427
▁everywhere	-9.2427
▁folks	-9.2427
▁split	-9.24274
▁mommy	-9.24276
▁chuckling	-9.2431
▁deserve	-9.24311
▁noise	-9.24321
▁singing	-9.24368
▁trace	-9.24427
ub	-9.24644
▁following	-9.24727
▁ye	-9.24757
▁ann	-9.24817
▁breath	-9.24854
▁wouldve	-9.24898
▁press	-9.25104
▁mal	-9.2546
house	-9.25681
▁saved	-9.2572
ball	-9.25843
▁tie	-9.26055
▁chuck	-9.26149
▁definitely	-9.26193
▁girlfriend	-9.26193
▁gustave	-9.26193
▁destroy	-9.26193
▁guilty	-9.26193
▁stephanie	-9.26193
▁forward	-9.26193
▁teddy	-9.26193
▁pocket	-9.26193
▁gasping	-9.26196
▁space	-9.26197
▁russian	-9.26214
▁trans	-9.26215
▁ginger	-9.26218
▁bridge	-9.26229
▁loud	-9.26237
▁trick	-9.26273
▁score	-9.26339
▁whose	-9.26483
▁happening	-9.27396
▁stra	-9.27534
▁wet	-9.27778
▁rules	-9.27822
ung	-9.27964
▁par	-9.27966
▁embarrass	-9.28153
▁involved	-9.28153
▁lieutenant	-9.28153
▁perhaps	-9.28153
▁release	-9.28154
▁spirit	-9.28154
▁contact	-9.28154
▁detail	-9.28154
▁worst	-9.28154
▁whistle	-9.28156
▁neighborhood	-9.28159
▁blind	-9.2816
▁department	-9.28178
▁knee	-9.28185
▁hungry	-9.28188
▁darling	-9.2819
▁owner	-9.28194
▁stuck	-9.28211
▁chicken	-9.2825
▁rome	-9.28333
▁exist	-9.2836
▁san	-9.28669
ties	-9.2877
ula	-9.28896
▁joy	-9.29086
▁cup	-9.29176
▁foi	-9.29588
▁dope	-9.29789
▁decision	-9.30153
▁college	-9.30153
▁bottle	-9.30154
▁wrote	-9.30154
▁distance	-9.30154
▁empty	-9.30155
▁plus	-9.30155
▁sweat	-9.30155
▁whore	-9.30158
▁held	-9.30163
▁favorite	-9.30193
▁bright	-9.3022
▁barking	-9.30251
▁selling	-9.30254
▁upon	-9.30363
▁lovely	-9.30383
▁lunch	-9.30419
▁joint	-9.3074
▁gate	-9.30747
▁bust	-9.30758
▁ray	-9.30792
cha	-9.31083
▁interesting	-9.3113
▁brad	-9.31288
▁nothin	-9.3194
lam	-9.32088
▁breakfast	-9.32194
▁calvin	-9.32194
▁license	-9.32194
▁church	-9.32195
▁depend	-9.32196
▁upset	-9.32202
▁kenny	-9.32211
▁slave	-9.32221
▁proper	-9.32325
▁walked	-9.32408
▁cook	-9.32443
▁shed	-9.32466
▁cu	-9.32512
▁lad	-9.32616
▁begin	-9.3276
▁pot	-9.32765
▁grave	-9.33023
▁interested	-9.33162
▁breathing	-9.33168
▁char	-9.3354
▁crew	-9.33831
▁mac	-9.34094
ppy	-9.34105
▁mc	-9.34184
▁ke	-9.34199
▁afford	-9.34278
▁impossible	-9.34278
▁official	-9.34278
▁uhhuh	-9.34278
▁suggest	-9.34278
▁match	-9.34283
▁hasnt	-9.34287
▁loose	-9.34293
▁operation	-9.34321
▁zero	-9.34336
▁soze	-9.34337
▁sonny	-9.34376
▁clem	-9.34376
▁slip	-9.34496
▁grace	-9.34496
▁au	-9.345
▁color	-9.34629
▁drinking	-9.34667
ative	-9.34671
▁broken	-9.34993
ium	-9.35023
▁wild	-9.35488
▁farm	-9.35599
▁op	-9.356
▁bang	-9.35622
▁locked	-9.35765
▁chris	-9.35814
▁force	-9.35988
▁total	-9.36168
▁starting	-9.36264
▁bringing	-9.36312
▁extra	-9.36375
▁sale	-9.36393
▁built	-9.36405
▁cocksucker	-9.36405
▁creasy	-9.36405
▁investigation	-9.36405
▁justice	-9.36405
▁neither	-9.36405
▁collect	-9.36405
▁remind	-9.36405
▁receive	-9.36406
▁friday	-9.36411
▁blond	-9.36419
▁robert	-9.36485
▁sport	-9.36502
▁band	-9.3662
▁iii	-9.36734
▁all	-9.3694
▁hon	-9.36961
ky	-9.37055
▁ruin	-9.37055
▁cra	-9.37285
▁fingers	-9.3733
ized	-9.37487
▁figured	-9.37616
▁bus	-9.37745
▁ent	-9.37812
▁closed	-9.37854
▁continue	-9.37884
▁rep	-9.37942
▁ir	-9.37981
▁lived	-9.38008
▁sant	-9.38104
▁pulled	-9.38215
hi	-9.38314
▁butt	-9.38517
▁base	-9.38546
▁memory	-9.38579
▁correct	-9.38579
▁complain	-9.3858
▁faith	-9.3858
▁freedom	-9.3858
▁cream	-9.38581
▁retire	-9.38582
▁jerk	-9.38589
▁medal	-9.3859
▁pete	-9.38606
▁season	-9.38612
▁corner	-9.38636
▁chop	-9.38664
▁meat	-9.38773
▁jim	-9.3883
▁raise	-9.38985
▁bone	-9.39043
▁pounds	-9.3921
serv	-9.39292
▁opera	-9.39307
▁kinda	-9.39344
▁enter	-9.39368
▁sold	-9.39642
▁dan	-9.4
▁heat	-9.40079
ado	-9.40355
▁survive	-9.40612
▁danger	-9.40773
▁clementine	-9.40801
▁project	-9.40801
▁shoulder	-9.40801
▁sobbing	-9.40801
▁william	-9.40801
▁fresh	-9.40802
▁senator	-9.40802
▁stock	-9.40803
▁remain	-9.40804
▁film	-9.40805
▁local	-9.40805
▁conlon	-9.4086
▁aqui	-9.40968
▁coke	-9.40977
▁fucker	-9.4116
▁fri	-9.41196
▁due	-9.41291
▁quickly	-9.41332
▁customer	-9.41373
▁ant	-9.41421
▁tax	-9.41481
▁paulie	-9.41529
▁laid	-9.41533
▁fired	-9.41586
▁picked	-9.41674
▁non	-9.41732
▁holding	-9.41937
▁bug	-9.41949
▁earn	-9.42178
▁fan	-9.42591
▁serve	-9.42764
▁crap	-9.42783
▁bottom	-9.43074
▁exhales	-9.43074
▁guarantee	-9.43074
▁insurance	-9.43074
▁introduce	-9.43074
▁ought	-9.43074
▁whether	-9.43074
▁member	-9.43074
▁within	-9.43074
▁jerry	-9.43075
▁scoffs	-9.43075
▁miami	-9.43075
▁strike	-9.43076
▁weight	-9.43076
▁aye	-9.43097
▁awful	-9.43123
▁juice	-9.43158
ified	-9.43199
▁lester	-9.43199
▁auto	-9.43253
▁sight	-9.43265
ency	-9.43306
▁dar	-9.43343
▁flat	-9.43356
▁wire	-9.43396
▁chill	-9.43404
▁mister	-9.43419
▁harm	-9.43459
▁staying	-9.43562
▁mask	-9.43578
▁lve	-9.43609
▁chef	-9.43621
▁cage	-9.43844
ney	-9.44114
▁build	-9.445
▁cow	-9.44568
▁allow	-9.44577
ship	-9.44793
▁flo	-9.44896
▁rip	-9.44903
▁tem	-9.44946
▁cute	-9.44998
ria	-9.45208
▁conversation	-9.454
▁muffled	-9.454
▁program	-9.454
▁health	-9.454
▁pretend	-9.454
▁tongue	-9.454
▁teeth	-9.45401
▁appear	-9.45401
▁bodies	-9.45401
▁beginning	-9.45403
▁steve	-9.45405
▁yells	-9.45406
▁football	-9.45421
▁dying	-9.45435
▁pants	-9.45442
▁kickass	-9.45462
▁property	-9.45471
▁strip	-9.45484
▁teii	-9.45498
▁cheap	-9.45499
▁stephen	-9.45502
▁settle	-9.45525
▁snow	-9.45544
▁hook	-9.45553
▁motherfucking	-9.45576
▁freeze	-9.45583
▁marine	-9.45626
▁seriously	-9.46187
▁carrie	-9.46693
▁played	-9.46802
▁ap	-9.46886
▁sea	-9.47575
ition	-9.47649
▁reading	-9.47731
▁clicks	-9.47781
▁became	-9.47781
▁ghost	-9.47781
▁colonel	-9.47781
▁hoffa	-9.47782
▁rifle	-9.47782
▁group	-9.47782
▁alarm	-9.47782
▁hadnt	-9.47782
▁prefer	-9.47785
▁bigger	-9.47799
▁odd	-9.4781
▁doug	-9.47832
▁hiding	-9.47855
▁blame	-9.47864
▁nu	-9.47867
▁chair	-9.47921
▁completely	-9.4799
hole	-9.48084
▁fredo	-9.48141
▁concerned	-9.48453
lon	-9.48625
▁trade	-9.48655
back	-9.48743
▁port	-9.49031
▁sco	-9.49111
▁passed	-9.49362
▁united	-9.49395
▁notice	-9.49598
▁matt	-9.49723
ada	-9.49854
▁final	-9.49987
▁twenty	-9.5022
▁schultz	-9.5022
▁screech	-9.5022
▁target	-9.5022
▁character	-9.5022
▁keaton	-9.5022
▁monroe	-9.5022
▁platt	-9.5022
▁computer	-9.50221
▁devil	-9.50222
▁javi	-9.50222
▁sharp	-9.50226
▁type	-9.50231
▁nuts	-9.50253
▁tank	-9.50281
▁itd	-9.50288
▁loki	-9.50331
ville	-9.50332
▁feed	-9.50519
▁stranger	-9.50732
▁boom	-9.50744
▁agreed	-9.51076
▁sat	-9.51304
▁mil	-9.51772
▁bless	-9.5212
▁when	-9.52265
▁apologize	-9.5272
▁beauty	-9.5272
▁television	-9.5272
▁support	-9.5272
▁escape	-9.5272
▁issue	-9.5272
▁freak	-9.5272
▁yknow	-9.52721
▁mountain	-9.52721
▁wailing	-9.52722
▁travel	-9.52724
▁tool	-9.52727
▁winning	-9.5273
▁debt	-9.52735
▁junk	-9.52785
▁gar	-9.52801
fucking	-9.5281
▁connection	-9.52818
▁babe	-9.52836
▁swim	-9.52845
▁large	-9.52876
bound	-9.52922
▁nail	-9.52999
▁fake	-9.53001
▁protection	-9.53004
▁cake	-9.53022
▁mail	-9.5312
▁yep	-9.53155
▁pan	-9.54043
▁tin	-9.54251
work	-9.54805
▁mel	-9.54919
ddle	-9.55
▁soft	-9.55051
gged	-9.55078
▁anti	-9.55088
▁learned	-9.55178
▁gettin	-9.55196
▁photo	-9.55279
▁excited	-9.55284
▁experience	-9.55284
▁otherwise	-9.55284
▁relationship	-9.55284
▁however	-9.55284
▁arthur	-9.55284
▁provide	-9.55285
▁operator	-9.55285
▁baker	-9.5529
▁hung	-9.55327
▁aunt	-9.55337
▁sarah	-9.55362
▁gotten	-9.55362
▁penny	-9.55367
▁starling	-9.55403
▁fail	-9.55522
▁bum	-9.55785
▁banging	-9.56391
▁walt	-9.56429
▁joey	-9.56533
bert	-9.56579
▁prisoner	-9.57038
▁promised	-9.57387
▁fred	-9.57549
▁ambulance	-9.57915
▁convince	-9.57915
▁responsible	-9.57915
▁upstairs	-9.57915
▁costello	-9.57915
▁butch	-9.57916
▁thatll	-9.57916
▁contract	-9.57916
▁yelling	-9.57917
▁kray	-9.5792
▁flower	-9.57921
ability	-9.57922
▁manager	-9.57924
▁stink	-9.57936
▁winner	-9.5801
ggle	-9.58018
▁fitz	-9.58086
▁murdered	-9.58211
lock	-9.58616
▁rug	-9.58643
▁ship	-9.5868
ible	-9.58832
▁gary	-9.58845
▁row	-9.59094
▁size	-9.59169
▁bare	-9.59495
can	-9.59638
▁wondering	-9.59843
what	-9.59918
field	-9.60075
port	-9.60362
▁inform	-9.60543
▁allison	-9.60618
▁enemy	-9.60619
▁natural	-9.60619
▁weii	-9.60619
▁pardon	-9.6062
▁jean	-9.6062
▁invite	-9.60621
▁storm	-9.60621
▁roof	-9.60622
▁bathroom	-9.60623
▁cancer	-9.60623
▁pyle	-9.60626
▁roger	-9.60631
▁brand	-9.6073
▁clock	-9.60741
▁button	-9.60763
▁usually	-9.60811
▁off	-9.61182
▁gene	-9.61273
▁tor	-9.61291
▁taxi	-9.61531
▁dare	-9.61548
▁bosses	-9.61652
▁dollar	-9.61706
just	-9.61803
▁jane	-9.61983
▁beeping	-9.62067
boy	-9.62284
▁lake	-9.62477
▁sleeping	-9.62579
▁chin	-9.62677
▁dealer	-9.62804
▁shower	-9.62842
▁wine	-9.62996
▁closer	-9.6301
▁county	-9.63137
board	-9.63155
▁complete	-9.63155
well	-9.63255
▁gal	-9.63277
▁organ	-9.63389
▁audience	-9.63396
▁cassandra	-9.63396
▁difficult	-9.63396
▁donnie	-9.63396
▁nervous	-9.63396
▁object	-9.63396
▁rothstein	-9.63396
▁roulet	-9.63396
▁besides	-9.63396
▁insane	-9.63396
▁monkey	-9.63396
▁quarter	-9.63396
▁russell	-9.63396
▁silence	-9.63397
▁defend	-9.63397
▁prince	-9.63397
▁admit	-9.63397
▁regret	-9.63399
▁clarice	-9.63403
▁warden	-9.63404
▁sunday	-9.63408
▁scott	-9.63413
▁liar	-9.63436
▁gordo	-9.63439
room	-9.63447
▁flash	-9.63447
▁create	-9.63461
▁common	-9.63465
like	-9.63484
▁rush	-9.63488
▁arno	-9.63548
▁phil	-9.63587
▁my	-9.63631
▁losing	-9.63675
▁honestly	-9.63807
▁indistinctly	-9.63834
▁stage	-9.63912
▁slo	-9.63968
▁psycho	-9.64001
▁coughing	-9.64028
▁ahh	-9.64098
▁boot	-9.65061
▁tear	-9.65166
▁cro	-9.65367
▁connect	-9.66141
▁ze	-9.66151
▁qua	-9.66181
▁downtown	-9.66253
▁gorgeous	-9.66253
▁mexican	-9.66253
▁nowhere	-9.66253
▁twice	-9.66253
▁jeez	-9.66253
▁damage	-9.66254
▁stories	-9.66254
▁earlier	-9.66254
▁suffer	-9.66255
▁repeat	-9.66257
▁derek	-9.66258
▁view	-9.66259
▁cheese	-9.66261
▁magic	-9.66268
▁badge	-9.66273
▁garage	-9.66294
▁gear	-9.66301
▁hired	-9.66313
▁jewish	-9.66319
▁punch	-9.6633
▁powerful	-9.66384
▁virginie	-9.66385
▁flight	-9.66391
▁franklin	-9.66401
▁weekend	-9.66416
▁code	-9.66502
▁marry	-9.66531
▁statement	-9.66558
▁under	-9.66612
▁bay	-9.66652
▁sweetie	-9.66669
▁pair	-9.66717
ake	-9.66925
▁marion	-9.66942
▁quietly	-9.66947
▁stolen	-9.66974
unch	-9.67054
▁tour	-9.67113
▁center	-9.67156
▁wil	-9.6729
istic	-9.67596
▁sometime	-9.67688
▁leon	-9.67723
▁corps	-9.67852
▁arrested	-9.6821
wood	-9.68653
▁tim	-9.69003
▁commit	-9.69168
▁anthony	-9.69194
▁attorney	-9.69194
▁congratulations	-9.69194
▁expensive	-9.69194
▁mercedes	-9.69194
▁mexico	-9.69194
▁often	-9.69194
▁pistol	-9.69194
▁restaurant	-9.69194
▁taught	-9.69194
▁advice	-9.69194
▁favour	-9.69194
▁whoever	-9.69194
▁border	-9.69195
▁eddie	-9.69195
▁bread	-9.69195
▁bruce	-9.69196
▁garden	-9.69198
▁credit	-9.69198
▁castle	-9.692
▁loyal	-9.692
▁talent	-9.69201
▁plate	-9.69206
▁lift	-9.69219
▁honking	-9.6922
▁switch	-9.69245
▁remove	-9.69354
▁jury	-9.69396
▁shame	-9.69427
▁steph	-9.69595
▁breathe	-9.69865
▁peter	-9.69907
▁map	-9.69945
▁pure	-9.69979
▁blessed	-9.70245
▁bite	-9.70343
▁surprised	-9.70482
▁path	-9.70751
day	-9.71217
▁parking	-9.71747
press	-9.7178
bra	-9.71858
▁hm	-9.71971
▁boyfriend	-9.72224
▁filthy	-9.72224
▁necessary	-9.72224
▁positive	-9.72224
▁ugly	-9.72225
▁spanish	-9.72225
▁hutch	-9.72225
▁register	-9.72225
▁trinity	-9.72225
▁sugar	-9.72226
▁among	-9.72226
▁sionis	-9.72227
▁norman	-9.72227
▁threw	-9.72227
▁dancing	-9.72227
▁video	-9.72227
▁grew	-9.72229
▁print	-9.72234
▁fancy	-9.72242
▁shotgun	-9.72263
▁leonard	-9.72272
▁immediately	-9.72274
▁desk	-9.72373
▁manny	-9.72485
▁roth	-9.72736
▁russ	-9.72802
▁oil	-9.72894
▁rv	-9.72934
▁allowed	-9.7339
▁comin	-9.73697
▁pissed	-9.73807
▁deni	-9.73926
▁finger	-9.74039
▁tail	-9.74247
▁concern	-9.7447
▁somethin	-9.75092
▁virgin	-9.75206
▁andrew	-9.75349
▁asleep	-9.75349
▁beyond	-9.75349
▁dramatic	-9.75349
▁helicopter	-9.75349
▁language	-9.75349
▁newspaper	-9.75349
▁opportunity	-9.75349
▁ridiculous	-9.75349
▁wolf	-9.75349
▁arrange	-9.7535
▁regular	-9.7535
▁traffic	-9.7535
▁muscle	-9.7535
▁perform	-9.7535
▁spread	-9.7535
▁dixon	-9.7535
▁several	-9.7535
▁shirt	-9.75351
▁proceed	-9.75353
▁shove	-9.75354
▁blew	-9.75357
▁airport	-9.75372
▁weed	-9.75381
▁pressure	-9.75416
▁guts	-9.75423
▁mental	-9.75425
▁dropped	-9.75426
▁tick	-9.75476
▁hoping	-9.75524
▁vito	-9.7575
▁mix	-9.75757
▁annie	-9.75828
over	-9.75829
▁arrived	-9.75845
▁hup	-9.75987
▁them	-9.7611
▁squealing	-9.7615
▁haller	-9.76302
face	-9.7631
gging	-9.76514
raft	-9.76769
▁ven	-9.76907
▁shoe	-9.76908
ridge	-9.76908
fuck	-9.77448
▁chattering	-9.77594
cut	-9.77601
▁chap	-9.77625
▁robber	-9.78106
▁sooner	-9.78183
load	-9.78451
▁california	-9.78575
▁hollywood	-9.78575
▁iittie	-9.78575
▁instrumenta	-9.78575
▁specific	-9.78575
▁discover	-9.78575
▁easier	-9.78575
▁success	-9.78575
▁rough	-9.78576
▁cackling	-9.78576
▁social	-9.78576
▁request	-9.78576
▁thunder	-9.78576
▁focus	-9.78577
▁profit	-9.78577
▁royal	-9.78583
▁lecter	-9.78585
▁stairs	-9.78586
▁martin	-9.78591
▁kay	-9.78595
▁bedroom	-9.78603
▁lip	-9.78656
▁fellow	-9.78678
▁laughter	-9.78693
▁professional	-9.78701
▁nope	-9.7871
▁anson	-9.78717
▁paris	-9.78739
▁obviously	-9.78748
▁duty	-9.78799
▁pita	-9.78896
▁boyle	-9.79009
▁angeles	-9.79031
▁not	-9.7933
▁approaching	-9.79373
▁noticed	-9.79426
▁exit	-9.79554
▁pee	-9.80163
▁letting	-9.80576
▁mob	-9.80694
▁pie	-9.8136
though	-9.81365
place	-9.81509
beat	-9.81626
▁sue	-9.81672
hand	-9.81694
▁confess	-9.81795
▁crawford	-9.81909
▁divorce	-9.81909
▁downstairs	-9.81909
▁explosiveskull	-9.81909
▁horrible	-9.81909
▁mmmhmm	-9.81909
▁rabbit	-9.81909
▁texas	-9.81909
▁yellow	-9.81909
▁access	-9.81909
▁clever	-9.8191
▁medical	-9.8191
▁caesar	-9.8191
▁writing	-9.81911
▁brown	-9.81912
▁pilot	-9.81912
▁accus	-9.81913
▁model	-9.81913
▁spider	-9.81914
▁buried	-9.81916
▁insult	-9.81917
▁awake	-9.81924
▁oui	-9.81925
▁terrorist	-9.8193
▁battle	-9.81949
▁papa	-9.81961
▁lila	-9.8197
▁broad	-9.82012
▁vote	-9.82059
▁estate	-9.82097
▁market	-9.82232
▁lesson	-9.82289
▁golden	-9.82309
▁drove	-9.82343
izing	-9.8239
▁era	-9.82398
▁gent	-9.82436
▁cj	-9.82518
graph	-9.82648
▁hack	-9.82773
▁heh	-9.82804
▁meal	-9.82828
▁wide	-9.83149
▁bitches	-9.83604
▁wave	-9.83616
▁bath	-9.83718
▁faster	-9.83957
▁pound	-9.84496
▁decide	-9.84729
▁usual	-9.85136
▁neighbor	-9.85347
▁attempt	-9.85357
▁clown	-9.85357
▁elevator	-9.85357
▁faggot	-9.85357
▁fortune	-9.85357
▁interview	-9.85357
▁marsellus	-9.85357
▁plenty	-9.85357
▁purpose	-9.85357
▁recognize	-9.85357
▁understood	-9.85357
▁written	-9.85357
▁hammer	-9.85357
▁illegal	-9.85357
▁federal	-9.85357
▁gunfire	-9.85357
▁process	-9.85358
▁invest	-9.85361
▁whyd	-9.85365
▁evey	-9.85366
▁molly	-9.85366
▁silly	-9.85369
▁gross	-9.85372
▁bowl	-9.85389
▁comfortable	-9.85391
▁chose	-9.85391
▁trunk	-9.85402
▁charles	-9.85408
▁yearold	-9.8547
▁confession	-9.85474
▁solid	-9.85528
▁soap	-9.8553
bbie	-9.85547
▁luca	-9.85704
▁tune	-9.85715
▁clark	-9.85798
▁straighten	-9.8582
▁slam	-9.85822
▁charm	-9.85847
▁robbery	-9.85931
▁apple	-9.86578
▁wise	-9.86906
▁squeal	-9.88019
▁exact	-9.88807
▁champion	-9.8892
▁according	-9.88928
▁murray	-9.88928
▁simply	-9.88928
▁subject	-9.88928
▁twelve	-9.88928
▁violence	-9.88928
▁outfit	-9.88929
▁bunny	-9.88929
▁require	-9.88929
▁poison	-9.8893
▁transfer	-9.8893
▁warrant	-9.8893
▁angry	-9.8893
▁toilet	-9.8893
▁ricky	-9.8893
▁billboards	-9.88931
▁brick	-9.88931
▁shock	-9.88931
▁candie	-9.88933
▁limit	-9.88933
▁troop	-9.88935
▁marcus	-9.88935
▁morrie	-9.88936
▁desert	-9.88936
▁desire	-9.88941
▁merci	-9.88948
▁vol	-9.88958
▁irish	-9.88976
▁wiii	-9.89003
▁blade	-9.89014
▁simon	-9.89022
▁sentence	-9.89045
▁spook	-9.89075
▁suddenly	-9.8912
▁pai	-9.89139
▁value	-9.89148
▁marshall	-9.8917
▁aldo	-9.89191
▁huge	-9.89282
▁trial	-9.89352
▁coat	-9.89394
▁vice	-9.89581
▁rise	-9.89722
▁toe	-9.89805
▁greatest	-9.89879
▁casa	-9.90381
▁chest	-9.9046
▁note	-9.90815
right	-9.90833
▁trap	-9.91265
▁approach	-9.91722
▁salt	-9.92276
▁mmhm	-9.92352
▁bull	-9.9255
▁apparently	-9.92632
▁defense	-9.92632
▁families	-9.92632
▁gambling	-9.92632
▁military	-9.92632
▁miracle	-9.92632
▁probiem	-9.92632
▁strength	-9.92632
▁thursday	-9.92632
▁cease	-9.92632
▁grocer	-9.92632
▁squad	-9.92632
▁study	-9.92632
▁jungle	-9.92632
▁suitcase	-9.92632
▁travis	-9.92632
▁percent	-9.92633
▁ramona	-9.92633
▁vacation	-9.92633
▁claim	-9.92633
▁steak	-9.92634
▁priest	-9.92634
▁babies	-9.92634
▁flesh	-9.92634
▁fireworks	-9.92635
▁emotion	-9.92635
▁coisa	-9.92636
▁motel	-9.92636
▁prime	-9.9264
▁elvi	-9.9264
▁monday	-9.92647
▁bailey	-9.92651
▁curious	-9.92679
▁basement	-9.92747
pol	-9.92881
▁sara	-9.92899
▁leeds	-9.92926
▁vern	-9.92939
▁gina	-9.92967
▁allen	-9.92973
▁duck	-9.93074
▁lago	-9.93102
▁bush	-9.93187
▁moon	-9.93563
▁range	-9.93689
▁slowly	-9.93728
▁forced	-9.9377
▁carson	-9.93789
▁gim	-9.94176
▁remo	-9.94212
▁pink	-9.94319
▁buck	-9.95909
foot	-9.95946
looking	-9.95947
tempo	-9.96295
▁drag	-9.9639
▁almighty	-9.96478
▁disappoint	-9.96478
▁electronic	-9.96478
▁horror	-9.96478
▁include	-9.96478
▁japanese	-9.96478
▁matrix	-9.96478
▁original	-9.96478
▁square	-9.96478
▁policy	-9.96478
▁prosecut	-9.96478
▁europe	-9.96478
▁choking	-9.96478
▁changing	-9.96479
▁document	-9.96479
▁fifth	-9.96479
▁cooperat	-9.96479
▁design	-9.96479
▁sneak	-9.96479
▁drown	-9.9648
▁aware	-9.96481
▁level	-9.96482
▁sheet	-9.96483
▁blaring	-9.96485
▁boston	-9.96486
▁result	-9.9649
▁refer	-9.96498
▁bond	-9.96502
▁offend	-9.96517
▁chick	-9.96525
▁chopper	-9.96566
▁giuseppe	-9.96593
▁spring	-9.96601
▁iook	-9.96628
▁winter	-9.96729
▁gook	-9.96736
▁aah	-9.9677
▁caii	-9.96787
▁opal	-9.9681
▁heck	-9.96937
▁bail	-9.96972
▁mable	-9.97048
▁bates	-9.9705
cept	-9.97161
▁pub	-9.97261
▁page	-9.97443
▁lane	-9.97613
▁shape	-9.98273
spect	-9.98275
▁cough	-9.9957
▁plea	-10.0034
▁circle	-10.0048
▁equal	-10.0048
▁eventually	-10.0048
▁example	-10.0048
▁fontaine	-10.0048
▁fought	-10.0048
▁homicide	-10.0048
▁kennedy	-10.0048
▁mathilda	-10.0048
▁montoya	-10.0048
▁nephew	-10.0048
▁saturday	-10.0048
▁subtitle	-10.0048
▁telephone	-10.0048
▁unbelievable	-10.0048
▁interrupt	-10.0048
▁practice	-10.0048
▁saburo	-10.0048
▁inspector	-10.0048
▁england	-10.0048
▁punish	-10.0048
▁smoking	-10.0048
▁chamber	-10.0048
▁refuse	-10.0048
▁zach	-10.0048
▁location	-10.0048
▁nancy	-10.0048
▁piease	-10.0049
▁electric	-10.0049
▁national	-10.0049
▁nature	-10.005
▁mood	-10.005
▁belt	-10.0051
▁pool	-10.0052
▁speed	-10.0052
▁secretary	-10.0053
▁failure	-10.0053
▁whack	-10.0054
▁willing	-10.0054
▁incredible	-10.0055
▁paso	-10.0057
▁unfortunately	-10.0061
▁direction	-10.0073
▁hug	-10.0089
▁ruth	-10.0101
▁brave	-10.0101
▁rub	-10.0128
▁loan	-10.0135
▁mission	-10.0148
shit	-10.0176
▁scare	-10.0225
▁artist	-10.0251
▁log	-10.0383
mark	-10.0413
▁dirt	-10.0413
▁spit	-10.0416
▁marshal	-10.0436
nico	-10.0453
▁apart	-10.0459
▁vietnam	-10.0464
▁appointment	-10.0464
▁associate	-10.0464
▁avoid	-10.0464
▁confused	-10.0464
▁education	-10.0464
▁exchange	-10.0464
▁familiar	-10.0464
▁fletcher	-10.0464
▁individual	-10.0464
▁occur	-10.0464
▁permission	-10.0464
▁somehow	-10.0464
▁stomach	-10.0464
▁weather	-10.0464
▁affect	-10.0464
▁echoing	-10.0464
▁edward	-10.0464
▁british	-10.0464
▁oclock	-10.0464
▁eliza	-10.0465
▁marriage	-10.0465
▁norcut	-10.0465
▁shouid	-10.0465
▁wouid	-10.0465
▁famous	-10.0465
▁servant	-10.0465
▁kevin	-10.0465
▁woke	-10.0465
▁rachel	-10.0465
▁whatre	-10.0465
▁reward	-10.0465
▁stood	-10.0465
▁debora	-10.0465
▁jimmie	-10.0465
▁muito	-10.0465
▁ugh	-10.0465
▁spray	-10.0465
▁funeral	-10.0465
▁winston	-10.0465
▁firm	-10.0465
▁feei	-10.0465
▁pump	-10.0466
▁thud	-10.0467
▁precis	-10.0468
▁asha	-10.0468
▁mercy	-10.0468
▁chips	-10.047
▁bobby	-10.0471
▁creep	-10.0471
▁friendship	-10.0479
▁elect	-10.0479
▁fox	-10.048
▁maze	-10.0486
▁glasses	-10.052
▁grant	-10.0533
▁there	-10.0539
▁fourth	-10.0542
▁marla	-10.0554
▁pode	-10.0613
▁mist	-10.0647
▁corpse	-10.0665
piece	-10.0852
▁twin	-10.0863
▁comfort	-10.0895
▁civil	-10.0896
▁alcohol	-10.0899
▁attract	-10.0899
▁commission	-10.0899
▁dispatch	-10.0899
▁fifteen	-10.0899
▁footsteps	-10.0899
▁genius	-10.0899
▁intention	-10.0899
▁orange	-10.0899
▁represent	-10.0899
▁sicily	-10.0899
▁trigger	-10.0899
▁tunnel	-10.0899
▁whimpering	-10.0899
▁effect	-10.0899
▁matthew	-10.0899
▁student	-10.0899
▁tuesday	-10.0899
▁hustle	-10.0899
▁whirring	-10.0899
▁zasa	-10.0899
▁raymond	-10.0899
▁current	-10.0899
▁assault	-10.0899
▁fifty	-10.0899
▁gamble	-10.0899
▁vietnamese	-10.0899
▁doorbell	-10.0899
▁pikey	-10.0899
▁forgotten	-10.0899
▁evil	-10.0899
▁katie	-10.09
▁recall	-10.09
▁truly	-10.09
▁betray	-10.09
▁couch	-10.09
▁invent	-10.09
▁proof	-10.09
▁piano	-10.09
▁mouse	-10.09
▁fbl	-10.09
▁poker	-10.09
▁saint	-10.09
▁owned	-10.09
▁connie	-10.0901
▁sexual	-10.0901
▁demand	-10.0901
▁morgan	-10.0905
▁route	-10.0905
▁joking	-10.0906
▁cuba	-10.0909
▁boring	-10.0912
weigh	-10.0914
▁reasonable	-10.0926
▁dover	-10.093
▁wade	-10.0941
▁assume	-10.0945
▁flip	-10.0952
ably	-10.096
▁regan	-10.0971
▁shine	-10.0971
▁kate	-10.0972
▁hail	-10.0974
▁rubb	-10.1306
▁sudden	-10.1329
▁obvious	-10.1329
▁birth	-10.1353
▁confirm	-10.1354
▁borrow	-10.1354
▁briefcase	-10.1354
▁celebrate	-10.1354
▁champagne	-10.1354
▁cloud	-10.1354
▁coincidence	-10.1354
▁deposit	-10.1354
▁garnett	-10.1354
▁godfather	-10.1354
▁plastic	-10.1354
▁rebecca	-10.1354
▁respond	-10.1354
▁sandwich	-10.1354
▁screen	-10.1354
▁someplace	-10.1354
▁steady	-10.1354
▁suspensefu	-10.1354
▁aronoff	-10.1354
▁garbage	-10.1354
▁particular	-10.1354
▁jersey	-10.1354
▁stratton	-10.1354
▁committee	-10.1354
▁stretch	-10.1354
▁daniel	-10.1354
▁domini	-10.1354
▁wallace	-10.1354
▁aiex	-10.1354
▁bravo	-10.1354
▁mostly	-10.1354
▁dawn	-10.1354
▁decent	-10.1354
▁crawl	-10.1354
▁lonely	-10.1355
▁photograph	-10.1355
▁hayes	-10.1355
▁pension	-10.1356
▁formula	-10.1357
▁greed	-10.1359
▁insist	-10.1359
▁resist	-10.136
▁lick	-10.1363
▁booze	-10.1366
▁sosa	-10.137
▁punk	-10.1373
▁staff	-10.1373
▁rude	-10.1375
▁brake	-10.1377
▁swat	-10.138
▁highway	-10.1381
▁skill	-10.1386
▁rope	-10.1387
▁cmon	-10.1401
▁kara	-10.1406
shore	-10.1462
▁cheat	-10.1476
▁forth	-10.1515
▁snap	-10.1517
▁wipe	-10.1556
▁mutt	-10.1662
▁noon	-10.1778
▁scream	-10.178
▁advantage	-10.183
▁authority	-10.183
▁available	-10.183
▁beckett	-10.183
▁behalf	-10.183
▁belfort	-10.183
▁bodyguard	-10.183
▁byron	-10.183
▁clicking	-10.183
▁climb	-10.183
▁emergency	-10.183
▁excellent	-10.183
▁expense	-10.183
▁humming	-10.183
▁lifeguard	-10.183
▁magazine	-10.183
▁pregnant	-10.183
▁revenge	-10.183
▁wealth	-10.183
▁amount	-10.183
▁enemies	-10.183
▁lansky	-10.183
▁vinnie	-10.183
▁precious	-10.183
▁solomon	-10.183
▁auction	-10.183
▁ocean	-10.183
▁brief	-10.183
▁internet	-10.183
▁expert	-10.183
▁shift	-10.183
▁parole	-10.1831
▁indeed	-10.1831
▁starving	-10.1831
▁vamos	-10.1831
▁candle	-10.1831
▁spell	-10.1832
▁item	-10.1832
▁faint	-10.1832
▁warning	-10.1834
▁bud	-10.1834
▁isto	-10.1835
▁shopping	-10.1837
▁eyeball	-10.1837
▁express	-10.1837
▁tits	-10.1842
▁capable	-10.1844
▁duke	-10.1849
▁benny	-10.1849
▁fold	-10.1851
▁monster	-10.1853
▁iron	-10.1858
▁sail	-10.1867
▁feds	-10.1896
gun	-10.1897
onald	-10.2204
▁arrive	-10.2251
▁denni	-10.2275
two	-10.2284
▁woo	-10.2307
▁awesome	-10.233
▁disturb	-10.233
▁establish	-10.233
▁extreme	-10.233
▁fantastic	-10.233
▁ghetto	-10.233
▁heavily	-10.233
▁incident	-10.233
▁including	-10.233
▁literally	-10.233
▁scratch	-10.233
▁sollozzo	-10.233
▁squeeze	-10.233
▁terrific	-10.233
▁willoughby	-10.233
▁destiny	-10.233
▁florida	-10.233
▁hahaha	-10.233
▁mcmanus	-10.233
▁smooth	-10.233
▁abandon	-10.233
▁advance	-10.233
▁companies	-10.233
▁league	-10.233
▁geez	-10.233
▁hostage	-10.233
▁entertain	-10.233
▁thirty	-10.233
▁corliss	-10.233
▁impressive	-10.233
▁opinion	-10.233
▁fenster	-10.233
▁sniper	-10.233
▁jeff	-10.233
▁ralph	-10.233
▁verbal	-10.233
▁towel	-10.233
▁minton	-10.233
▁assassin	-10.233
▁dozen	-10.233
▁nurse	-10.233
▁akim	-10.233
▁prior	-10.2331
▁retard	-10.2331
▁castro	-10.2331
▁beef	-10.2331
▁robbed	-10.2331
▁barrel	-10.2331
▁isso	-10.2331
▁basically	-10.2331
▁naomi	-10.2331
▁organized	-10.2332
▁heip	-10.2332
▁aside	-10.2333
▁basic	-10.2333
▁grandpa	-10.2335
▁snake	-10.2335
▁skinny	-10.2336
▁possession	-10.2336
▁smash	-10.2337
▁eron	-10.2339
▁memories	-10.234
▁sobs	-10.234
▁dragon	-10.2345
▁growling	-10.2349
▁trail	-10.2353
▁alley	-10.2354
▁panic	-10.2358
▁drill	-10.2362
berry	-10.2365
▁carol	-10.2609
▁surf	-10.2635
▁erase	-10.2713
know	-10.2805
▁depart	-10.285
▁authorities	-10.2856
▁cypher	-10.2856
▁describe	-10.2856
▁dhazghig	-10.2856
▁division	-10.2856
▁effort	-10.2856
▁explosion	-10.2856
▁international	-10.2856
▁kurtz	-10.2856
▁mildred	-10.2856
▁ofelia	-10.2856
▁political	-10.2856
▁practical	-10.2856
▁purchase	-10.2856
▁symbol	-10.2856
▁uniform	-10.2856
▁banana	-10.2856
▁corrupt	-10.2856
▁fruit	-10.2856
▁gentleman	-10.2856
▁interrogat	-10.2856
▁laeddis	-10.2856
▁tuddy	-10.2856
▁maximus	-10.2856
▁courage	-10.2856
▁thomas	-10.2856
▁torture	-10.2856
▁twist	-10.2856
▁degree	-10.2856
▁testify	-10.2856
▁closing	-10.2856
▁patrol	-10.2856
▁crush	-10.2856
▁amigo	-10.2856
▁chinese	-10.2857
▁chancellor	-10.2857
▁silent	-10.2857
▁handsome	-10.2857
▁thief	-10.2857
▁kiii	-10.2857
▁apology	-10.2857
▁blast	-10.2857
▁style	-10.2858
▁championship	-10.2858
▁tiger	-10.2858
▁spare	-10.2858
▁psychiatrist	-10.286
▁lisa	-10.286
▁warned	-10.2861
▁blank	-10.2864
▁title	-10.2864
▁begging	-10.2864
▁pride	-10.2865
▁hump	-10.2866
▁guide	-10.2876
▁naked	-10.2881
▁oni	-10.3138
minate	-10.3208
▁clar	-10.3364
▁benefit	-10.3412
▁community	-10.3412
▁district	-10.3412
▁exciting	-10.3412
▁ferrari	-10.3412
▁gabriel	-10.3412
▁goldfarb	-10.3412
▁grandmother	-10.3412
▁knauer	-10.3412
▁medicine	-10.3412
▁moustafa	-10.3412
▁peggy	-10.3412
▁possibly	-10.3412
▁procedure	-10.3412
▁responsibility	-10.3412
▁tattoo	-10.3412
▁tyrone	-10.3412
▁undercover	-10.3412
▁violent	-10.3412
▁anderson	-10.3412
▁chicago	-10.3412
▁dismiss	-10.3412
▁energy	-10.3412
▁kidnapping	-10.3412
▁montana	-10.3412
▁revving	-10.3412
▁separate	-10.3412
▁shrink	-10.3412
▁theory	-10.3412
▁tragedy	-10.3412
▁jewelry	-10.3412
▁laundry	-10.3412
▁hildi	-10.3412
▁routine	-10.3412
▁creedy	-10.3412
▁whistling	-10.3412
▁detroit	-10.3412
▁achieve	-10.3412
▁estava	-10.3412
▁ernie	-10.3412
▁gordie	-10.3412
▁becca	-10.3412
▁reaction	-10.3412
▁cotton	-10.3412
▁corporat	-10.3412
▁supper	-10.3412
▁blair	-10.3412
▁sarge	-10.3412
▁reckon	-10.3412
▁smith	-10.3412
▁zone	-10.3412
▁scum	-10.3412
▁fetch	-10.3412
▁thick	-10.3413
▁karl	-10.3413
▁whod	-10.3413
▁avi	-10.3413
▁daily	-10.3413
▁olive	-10.3413
▁impressed	-10.3413
▁nerve	-10.3414
▁swiss	-10.3414
▁construction	-10.3415
▁racing	-10.3415
▁anger	-10.3415
▁boris	-10.3416
▁bored	-10.3419
▁owns	-10.3419
▁trapped	-10.3419
▁canary	-10.3419
▁golf	-10.342
▁package	-10.3424
▁gather	-10.3425
▁burke	-10.3426
▁clip	-10.3431
cient	-10.3449
▁surviv	-10.346
squ	-10.3718
▁custom	-10.3848
free	-10.3949
▁motherfuckin	-10.3974
▁affair	-10.4
▁bounty	-10.4
▁breast	-10.4
▁brilliant	-10.4
▁buffalo	-10.4
▁caravan	-10.4
▁circumstances	-10.4
▁citizen	-10.4
▁custody	-10.4
▁desperate	-10.4
▁dynamite	-10.4
▁experiment	-10.4
▁fantasy	-10.4
▁frozen	-10.4
▁intelligence	-10.4
▁jealous	-10.4
▁judgment	-10.4
▁multipl	-10.4
▁nonsense	-10.4
▁opposite	-10.4
▁organization	-10.4
▁physical	-10.4
▁politician	-10.4
▁professor	-10.4
▁response	-10.4
▁similar	-10.4
▁skull	-10.4
▁surround	-10.4
▁swallow	-10.4
▁tattaglia	-10.4
▁catherine	-10.4
▁counsel	-10.4
▁superhero	-10.4
▁executi	-10.4
▁recently	-10.4
▁messiah	-10.4
▁peopie	-10.4
▁accent	-10.4
▁identity	-10.4
▁engage	-10.4
▁silver	-10.4
▁candy	-10.4
▁period	-10.4
▁guinea	-10.4
▁arrow	-10.4
▁crown	-10.4
▁algum	-10.4
▁lalala	-10.4
▁begbie	-10.4
▁chacon	-10.4
▁material	-10.4
▁couid	-10.4
▁coach	-10.4001
▁reverse	-10.4001
▁beast	-10.4001
▁coast	-10.4001
▁false	-10.4001
▁quinn	-10.4001
▁factory	-10.4001
▁marquis	-10.4001
▁spoon	-10.4001
▁flag	-10.4001
▁sample	-10.4001
▁candyland	-10.4002
▁planning	-10.4003
▁quote	-10.4005
▁civilian	-10.4005
▁blake	-10.4006
▁committed	-10.4006
▁shelley	-10.4008
▁continu	-10.416
▁lamb	-10.4331
maker	-10.4474
▁psych	-10.4488
▁detect	-10.4621
point	-10.4621
▁institution	-10.4622
▁activity	-10.4625
▁avenue	-10.4625
▁barzini	-10.4625
▁behavior	-10.4625
▁council	-10.4625
▁crucifixion	-10.4625
▁employee	-10.4625
▁escort	-10.4625
▁exercise	-10.4625
▁furniture	-10.4625
▁leparq	-10.4625
▁mirror	-10.4625
▁occasion	-10.4625
▁occup	-10.4625
▁sempre	-10.4625
▁sensitive	-10.4625
▁surveillance	-10.4625
▁urgent	-10.4625
▁wladek	-10.4625
▁bubble	-10.4625
▁develop	-10.4625
▁ignore	-10.4625
▁kidnapped	-10.4625
▁miserable	-10.4625
▁scrap	-10.4625
▁basket	-10.4625
▁paddy	-10.4625
▁paranoid	-10.4625
▁suicide	-10.4625
▁vatican	-10.4625
▁convict	-10.4625
▁indict	-10.4625
▁product	-10.4625
▁lobby	-10.4625
ological	-10.4625
▁anytime	-10.4625
▁speech	-10.4625
▁pizza	-10.4625
▁quando	-10.4625
▁relative	-10.4625
▁pattern	-10.4625
▁lardass	-10.4625
▁flush	-10.4625
▁zeena	-10.4625
▁ballister	-10.4625
▁heiio	-10.4625
▁carolyn	-10.4625
▁coffin	-10.4625
▁text	-10.4625
▁tomato	-10.4626
▁hyman	-10.4626
▁sword	-10.4626
▁indio	-10.4626
▁teamsters	-10.4626
▁finch	-10.4626
▁tolan	-10.4626
▁massage	-10.4626
▁iove	-10.4626
▁motor	-10.4627
▁burger	-10.4627
▁linda	-10.4627
▁onto	-10.4627
▁shark	-10.4627
▁spud	-10.4628
▁recover	-10.4628
▁papi	-10.4628
▁addition	-10.4629
▁managed	-10.4629
▁incon	-10.4629
▁jones	-10.4629
▁planned	-10.4629
▁willie	-10.4629
▁addict	-10.463
▁stress	-10.4631
▁fisk	-10.4631
▁edge	-10.4634
▁sauce	-10.4638
related	-10.4663
ancho	-10.5043
▁actual	-10.5268
▁terror	-10.5288
▁altobello	-10.5292
▁bonjour	-10.5292
▁broomhilda	-10.5292
▁caretaker	-10.5292
▁clattering	-10.5292
▁communist	-10.5292
▁complicated	-10.5292
▁destination	-10.5292
▁determine	-10.5292
▁dufresne	-10.5292
▁durden	-10.5292
▁exclaims	-10.5292
▁explosives	-10.5292
▁investigating	-10.5292
▁liquor	-10.5292
▁llewelyn	-10.5292
▁melissa	-10.5292
▁narcotics	-10.5292
▁potential	-10.5292
▁recruit	-10.5292
▁revolution	-10.5292
▁society	-10.5292
▁stabbed	-10.5292
▁struggling	-10.5292
▁holiday	-10.5292
▁reputation	-10.5292
▁whimpers	-10.5292
▁plague	-10.5292
▁previous	-10.5292
▁wrapped	-10.5292
▁popular	-10.5292
▁squeak	-10.5292
knuckle	-10.5292
▁attend	-10.5292
▁bacall	-10.5292
▁byebye	-10.5292
▁glory	-10.5292
▁mistress	-10.5292
▁sutler	-10.5292
▁martinez	-10.5292
▁paradise	-10.5292
▁repair	-10.5292
▁stutter	-10.5292
▁choke	-10.5292
▁grease	-10.5292
▁becoming	-10.5292
▁atlant	-10.5292
▁hmong	-10.5292
▁cruel	-10.5292
▁alpha	-10.5292
▁brutal	-10.5292
▁emperor	-10.5292
▁hazen	-10.5292
▁nightmare	-10.5292
▁intend	-10.5292
▁instructions	-10.5292
▁plug	-10.5292
▁appeal	-10.5292
▁spleen	-10.5292
▁habit	-10.5292
▁iife	-10.5292
▁bacon	-10.5292
▁indian	-10.5293
▁madden	-10.5293
▁flood	-10.5293
▁vibrat	-10.5293
▁scam	-10.5293
▁delta	-10.5293
▁saving	-10.5293
▁freezing	-10.5293
▁laura	-10.5293
▁spain	-10.5294
▁innit	-10.5294
▁promote	-10.5294
▁helen	-10.5294
▁loving	-10.5294
▁transport	-10.5294
▁venice	-10.5295
▁cheek	-10.5295
▁costume	-10.5298
▁wives	-10.5298
▁steer	-10.53
▁judea	-10.5301
▁ambi	-10.5324
▁limo	-10.5349
abie	-10.5374
▁prize	-10.5381
sync	-10.5584
▁unfortunate	-10.5981
▁financial	-10.6006
▁recommend	-10.6006
▁volunteer	-10.6006
▁agatha	-10.6006
▁alessandra	-10.6006
▁bollocks	-10.6006
▁catholic	-10.6006
▁cemetery	-10.6006
▁challenge	-10.6006
▁chocolate	-10.6006
▁colleague	-10.6006
▁conduct	-10.6006
▁conspiracy	-10.6006
▁december	-10.6006
▁donkey	-10.6006
▁dorothy	-10.6006
▁easily	-10.6006
▁empire	-10.6006
▁encontr	-10.6006
▁environment	-10.6006
▁eternal	-10.6006
▁facility	-10.6006
▁giggling	-10.6006
▁journal	-10.6006
▁legitimate	-10.6006
▁leprechaun	-10.6006
▁review	-10.6006
▁surgeon	-10.6006
▁surgery	-10.6006
▁switzerland	-10.6006
▁temporary	-10.6006
▁temptation	-10.6006
▁territory	-10.6006
▁typical	-10.6006
▁vargas	-10.6006
▁zsasz	-10.6006
▁disrespect	-10.6006
▁frighten	-10.6006
▁joseph	-10.6006
▁lunatic	-10.6006
▁possibility	-10.6006
▁schedule	-10.6006
▁scumbag	-10.6006
▁brittle	-10.6006
▁havana	-10.6006
▁sahib	-10.6006
▁sponsor	-10.6006
▁carlisle	-10.6006
▁zip	-10.6006
▁chemical	-10.6006
▁greek	-10.6006
▁initial	-10.6006
▁fashion	-10.6006
▁rotten	-10.6006
▁willard	-10.6006
▁washington	-10.6006
▁geek	-10.6006
▁poiice	-10.6006
▁courtesan	-10.6006
▁glove	-10.6006
▁pablo	-10.6006
▁viggo	-10.6006
▁phase	-10.6006
▁impression	-10.6006
▁obsess	-10.6006
▁stiff	-10.6006
▁method	-10.6006
ignment	-10.6006
▁wholl	-10.6006
▁piace	-10.6006
▁trauma	-10.6006
▁contest	-10.6007
▁thatd	-10.6007
▁zoo	-10.6007
▁consult	-10.6007
▁protest	-10.6007
▁ransom	-10.6007
▁stew	-10.6008
▁demany	-10.6008
▁ciao	-10.6008
▁foul	-10.6008
▁omar	-10.6008
▁facing	-10.6009
▁wore	-10.6009
▁pedro	-10.6009
culate	-10.6011
▁bounc	-10.6016
count	-10.672
worth	-10.6722
ology	-10.6775
employment	-10.6775
▁applaud	-10.6775
▁attitude	-10.6775
▁brooklyn	-10.6775
▁budapest	-10.6775
▁campaign	-10.6775
▁certificate	-10.6775
▁circuit	-10.6775
▁collignon	-10.6775
▁concentrate	-10.6775
▁consequences	-10.6775
▁corporal	-10.6775
▁delicious	-10.6775
▁description	-10.6775
▁eagle	-10.6775
▁fanucci	-10.6775
▁foreign	-10.6775
▁hysterical	-10.6775
▁imagination	-10.6775
▁industry	-10.6775
▁jurisdiction	-10.6775
▁lundegaard	-10.6775
▁mclaren	-10.6775
▁meredith	-10.6775
▁midget	-10.6775
▁midnight	-10.6775
▁naughty	-10.6775
▁november	-10.6775
▁october	-10.6775
▁oklahoma	-10.6775
▁phoenix	-10.6775
▁prostitute	-10.6775
▁sacrifice	-10.6775
▁satisfied	-10.6775
▁sicilian	-10.6775
▁someday	-10.6775
▁tangiers	-10.6775
▁uncomfortable	-10.6775
▁vaughn	-10.6775
▁vengeance	-10.6775
▁africa	-10.6775
▁anxious	-10.6775
▁bureau	-10.6775
▁sunshine	-10.6775
▁culture	-10.6775
▁embrace	-10.6775
▁karras	-10.6775
▁negative	-10.6775
▁inspire	-10.6775
▁scatter	-10.6775
through	-10.6775
▁inhales	-10.6775
▁teenage	-10.6775
▁admire	-10.6775
▁compliment	-10.6775
▁mystery	-10.6775
▁stereo	-10.6775
▁offense	-10.6775
▁alexander	-10.6775
▁beneath	-10.6775
▁assistant	-10.6775
▁pathetic	-10.6775
▁warehouse	-10.6775
▁village	-10.6775
▁constant	-10.6775
▁scotch	-10.6775
▁source	-10.6775
▁racket	-10.6775
▁stroke	-10.6775
▁clank	-10.6775
▁epps	-10.6775
▁pulse	-10.6775
▁brush	-10.6775
▁korea	-10.6776
▁solando	-10.6776
▁kumar	-10.6776
▁random	-10.6776
▁widow	-10.6776
▁harbor	-10.6776
▁razor	-10.6776
▁superior	-10.6776
▁incoming	-10.6776
▁spoil	-10.6776
▁content	-10.6776
▁brooks	-10.6776
▁flew	-10.6776
▁chanting	-10.6776
▁grabbed	-10.6777
▁presence	-10.6777
▁moaning	-10.6777
▁southern	-10.6777
▁fraud	-10.6777
▁drew	-10.6777
▁brainerd	-10.6777
▁coroner	-10.6777
▁connor	-10.6777
▁cameron	-10.6778
▁ficar	-10.6778
▁inquir	-10.678
▁cancel	-10.678
cular	-10.6804
hoohoo	-10.6868
▁grunt	-10.7062
▁memori	-10.7595
▁instruct	-10.7608
▁mount	-10.7608
▁distribut	-10.7609
▁accomplish	-10.7609
▁application	-10.7609
▁arbogast	-10.7609
▁arizona	-10.7609
▁bracelet	-10.7609
▁disguise	-10.7609
▁explode	-10.7609
▁extraordinary	-10.7609
▁headquarters	-10.7609
▁inherit	-10.7609
▁lchimonji	-10.7609
▁library	-10.7609
▁mackenzie	-10.7609
▁macready	-10.7609
▁mechanic	-10.7609
▁mortgage	-10.7609
▁motorcycle	-10.7609
▁neighbour	-10.7609
▁oracle	-10.7609
▁pancakes	-10.7609
▁potatoes	-10.7609
▁privacy	-10.7609
▁proposition	-10.7609
▁pursuit	-10.7609
▁surrender	-10.7609
▁suspicion	-10.7609
▁sweeney	-10.7609
▁talvez	-10.7609
▁underground	-10.7609
▁wednesday	-10.7609
▁wiseguys	-10.7609
▁ambush	-10.7609
▁pursue	-10.7609
▁richardson	-10.7609
▁despite	-10.7609
▁stammer	-10.7609
▁yelps	-10.7609
▁signature	-10.7609
▁hidetora	-10.7609
▁generous	-10.7609
▁harvard	-10.7609
▁nunca	-10.7609
▁snatch	-10.7609
▁approve	-10.7609
▁vomit	-10.7609
▁interfere	-10.7609
▁quality	-10.7609
▁pencil	-10.7609
▁traitor	-10.7609
▁dallas	-10.7609
▁ifyou	-10.7609
▁iisten	-10.7609
▁nylon	-10.7609
▁modern	-10.7609
▁aureli	-10.7609
▁kingdom	-10.7609
▁article	-10.7609
▁madeleine	-10.7609
▁instant	-10.7609
▁capture	-10.7609
▁combat	-10.7609
▁misery	-10.7609
▁polish	-10.7609
▁whatll	-10.7609
▁prevent	-10.7609
▁haunt	-10.7609
▁century	-10.7609
▁kobe	-10.7609
▁italy	-10.7609
▁thumb	-10.7609
▁cirk	-10.7609
▁dispos	-10.7609
▁purse	-10.7609
▁resume	-10.7609
▁claus	-10.7609
▁actress	-10.7609
▁ashamed	-10.7609
▁distant	-10.7609
▁session	-10.7609
▁bribe	-10.7609
▁nitro	-10.7609
▁bugger	-10.7609
▁collins	-10.7609
▁jiro	-10.7609
▁improv	-10.761
▁contra	-10.761
▁sharon	-10.761
▁steel	-10.761
▁identifi	-10.761
qualified	-10.761
▁apoc	-10.7611
▁internal	-10.7611
▁adopt	-10.7611
▁whale	-10.7611
▁toast	-10.7612
▁dodge	-10.7613
▁humbl	-10.762
▁flare	-10.7628
▁julia	-10.7632
▁minh	-10.7692
virus	-10.7694
▁absolute	-10.8493
▁possess	-10.8506
▁frustrat	-10.8518
▁succeed	-10.8518
▁applause	-10.8518
▁assigned	-10.8518
▁august	-10.8518
▁baywatch	-10.8518
▁beethoven	-10.8518
▁beloved	-10.8518
▁bonnie	-10.8518
▁confidence	-10.8518
▁conflict	-10.8518
▁continental	-10.8518
▁cripple	-10.8518
▁exhaust	-10.8518
▁genuine	-10.8518
▁immobiliare	-10.8518
▁immunity	-10.8518
▁increase	-10.8518
▁instinct	-10.8518
▁intense	-10.8518
▁investigator	-10.8518
▁invisible	-10.8518
▁mierzwiak	-10.8518
▁ordinary	-10.8518
▁pembry	-10.8518
▁perimeter	-10.8518
▁pessoa	-10.8518
▁proposal	-10.8518
▁purple	-10.8518
▁randazzo	-10.8518
▁recognise	-10.8518
▁research	-10.8518
▁rodolfo	-10.8518
▁rumbling	-10.8518
▁science	-10.8518
▁sheeran	-10.8518
▁shepherd	-10.8518
▁sonofabitch	-10.8518
▁sorrow	-10.8518
▁subpoena	-10.8518
▁technique	-10.8518
▁ultimate	-10.8518
▁underneath	-10.8518
▁vegetable	-10.8518
▁yourseif	-10.8518
▁appetite	-10.8518
▁arguing	-10.8518
▁carpenter	-10.8518
▁conscious	-10.8518
▁depois	-10.8518
▁dolores	-10.8518
▁sacred	-10.8518
▁theft	-10.8518
▁aiways	-10.8518
▁clinking	-10.8518
▁kimball	-10.8518
▁slept	-10.8518
▁virtu	-10.8518
▁abduct	-10.8518
▁cocaine	-10.8518
▁errol	-10.8518
▁measure	-10.8518
▁reject	-10.8518
▁sausage	-10.8518
▁average	-10.8518
▁reservation	-10.8518
▁twentyfive	-10.8518
▁worship	-10.8518
▁peanut	-10.8518
▁trousers	-10.8518
▁unknown	-10.8518
▁lopez	-10.8518
▁museum	-10.8518
▁oscar	-10.8518
▁torrance	-10.8518
▁behave	-10.8518
▁entrance	-10.8518
▁valuable	-10.8518
▁assistance	-10.8518
▁cortez	-10.8518
▁pearson	-10.8518
▁pamela	-10.8518
▁sunrise	-10.8518
▁bruno	-10.8518
▁crossbow	-10.8518
▁prothero	-10.8518
▁superstar	-10.8518
▁storage	-10.8518
▁device	-10.8518
▁boogie	-10.8518
▁lewis	-10.8518
▁defence	-10.8518
▁polite	-10.8518
▁grief	-10.8518
▁infant	-10.8518
▁produce	-10.8518
▁stomp	-10.8518
▁humor	-10.8518
▁religio	-10.8518
▁valerie	-10.8518
▁wreck	-10.8518
▁fleck	-10.8518
▁eighteen	-10.8518
▁burden	-10.8519
▁dedicat	-10.8519
▁abuse	-10.8611
▁porqu	-10.8683
▁sympath	-10.9518
▁adventur	-10.9518
▁advisor	-10.9518
▁attaboy	-10.9518
▁belfast	-10.9518
▁catherlne	-10.9518
▁circus	-10.9518
▁confidential	-10.9518
▁consigliere	-10.9518
▁creature	-10.9518
▁crucified	-10.9518
▁delusion	-10.9518
▁desculpa	-10.9518
▁desculpe	-10.9518
▁disgrace	-10.9518
▁dmitri	-10.9518
▁dufayel	-10.9518
▁envelope	-10.9518
▁executed	-10.9518
▁grandfather	-10.9518
▁hamilton	-10.9518
▁hannibal	-10.9518
▁immigrant	-10.9518
▁kujan	-10.9518
▁landlord	-10.9518
▁liberty	-10.9518
▁lincoln	-10.9518
▁michigan	-10.9518
▁oakmont	-10.9518
▁olivia	-10.9518
▁participat	-10.9518
▁pentangeli	-10.9518
▁politics	-10.9518
▁progress	-10.9518
▁protocol	-10.9518
▁satisfaction	-10.9518
▁shawshank	-10.9518
▁shushing	-10.9518
▁sidewalk	-10.9518
▁sniffles	-10.9518
▁terribly	-10.9518
▁therapy	-10.9518
▁tobacco	-10.9518
▁troubie	-10.9518
▁turkey	-10.9518
▁underwear	-10.9518
▁verdict	-10.9518
▁worries	-10.9518
▁alleged	-10.9518
▁clemenza	-10.9518
▁competition	-10.9518
▁governor	-10.9518
▁kansas	-10.9518
▁primary	-10.9518
▁tournament	-10.9518
▁whiskey	-10.9518
▁hockney	-10.9518
▁motivat	-10.9518
▁oldtimers	-10.9518
▁stensland	-10.9518
▁tissue	-10.9518
▁cocktail	-10.9518
▁buddha	-10.9518
▁firearms	-10.9518
▁iearn	-10.9518
▁piaying	-10.9518
▁predict	-10.9518
▁felix	-10.9518
▁investigate	-10.9518
▁network	-10.9518
▁chirping	-10.9518
▁broadcast	-10.9518
▁poulain	-10.9518
▁shelter	-10.9518
▁female	-10.9518
▁seventeen	-10.9518
